{
  "version": "1.0",
  "truncation": null,
  "padding": null,
  "added_tokens": [
    {
      "id": 0,
      "content": "<|endoftext|>",
      "single_word": false,
      "lstrip": false,
      "rstrip": false,
      "normalized": false,
      "special": true
    }
  ],
  "normalizer": {
    "type": "NFD"
  },
  "pre_tokenizer": null,
  "post_processor": null,
  "decoder": {
    "type": "WordPiece",
    "prefix": "##",
    "cleanup": true
  },
  "model": {
    "type": "WordPiece",
    "unk_token": "<|endoftext|>",
    "continuing_subword_prefix": "##",
    "max_input_chars_per_word": 100,
    "vocab": {
      "<|endoftext|>": 0,
      "\n": 1,
      " ": 2,
      "!": 3,
      "\"": 4,
      "#": 5,
      "'": 6,
      "(": 7,
      ")": 8,
      "*": 9,
      "+": 10,
      ",": 11,
      "-": 12,
      ".": 13,
      "/": 14,
      "0": 15,
      "1": 16,
      "2": 17,
      "3": 18,
      "4": 19,
      "5": 20,
      "6": 21,
      "7": 22,
      "8": 23,
      "9": 24,
      ":": 25,
      ";": 26,
      "=": 27,
      "?": 28,
      "A": 29,
      "B": 30,
      "C": 31,
      "D": 32,
      "E": 33,
      "F": 34,
      "G": 35,
      "H": 36,
      "I": 37,
      "J": 38,
      "K": 39,
      "L": 40,
      "M": 41,
      "N": 42,
      "O": 43,
      "P": 44,
      "Q": 45,
      "R": 46,
      "S": 47,
      "T": 48,
      "U": 49,
      "V": 50,
      "W": 51,
      "X": 52,
      "Y": 53,
      "Z": 54,
      "[": 55,
      "]": 56,
      "_": 57,
      "`": 58,
      "a": 59,
      "b": 60,
      "c": 61,
      "d": 62,
      "e": 63,
      "f": 64,
      "g": 65,
      "h": 66,
      "i": 67,
      "j": 68,
      "k": 69,
      "l": 70,
      "m": 71,
      "n": 72,
      "o": 73,
      "p": 74,
      "q": 75,
      "r": 76,
      "s": 77,
      "t": 78,
      "u": 79,
      "v": 80,
      "w": 81,
      "x": 82,
      "y": 83,
      "z": 84,
      "§": 85,
      "«": 86,
      "´": 87,
      "»": 88,
      "Æ": 89,
      "ß": 90,
      "æ": 91,
      "ł": 92,
      "œ": 93,
      "̀": 94,
      "́": 95,
      "̂": 96,
      "̈": 97,
      "̊": 98,
      "̌": 99,
      "̧": 100,
      "̨": 101,
      "ι": 102,
      "–": 103,
      "—": 104,
      "‘": 105,
      "’": 106,
      "‚": 107,
      "‛": 108,
      "“": 109,
      "”": 110,
      "„": 111,
      "†": 112,
      "−": 113,
      "##d": 114,
      "##y": 115,
      "##s": 116,
      "## ": 117,
      "##K": 118,
      "##r": 119,
      "##i": 120,
      "##t": 121,
      "##u": 122,
      "##v": 123,
      "##k": 124,
      "##o": 125,
      "##c": 126,
      "##̌": 127,
      "##́": 128,
      "##e": 129,
      "##\n": 130,
      "##h": 131,
      "##l": 132,
      "##n": 133,
      "##a": 134,
      "##p": 135,
      "##̊": 136,
      "##z": 137,
      "##.": 138,
      "##I": 139,
      "##b": 140,
      "##A": 141,
      "##,": 142,
      "##j": 143,
      "##m": 144,
      "##:": 145,
      "##„": 146,
      "##M": 147,
      "##?": 148,
      "##O": 149,
      "##!": 150,
      "##“": 151,
      "##’": 152,
      "##N": 153,
      "##J": 154,
      "##;": 155,
      "##S": 156,
      "##Z": 157,
      "##B": 158,
      "##T": 159,
      "##–": 160,
      "##V": 161,
      "##D": 162,
      "##C": 163,
      "##H": 164,
      "##f": 165,
      "##P": 166,
      "##\"": 167,
      "##-": 168,
      "##L": 169,
      "##U": 170,
      "##̈": 171,
      "##g": 172,
      "##E": 173,
      "##R": 174,
      "##G": 175,
      "##w": 176,
      "##W": 177,
      "##F": 178,
      "##*": 179,
      "##)": 180,
      "##x": 181,
      "##(": 182,
      "##”": 183,
      "##Y": 184,
      "##'": 185,
      "##Q": 186,
      "##q": 187,
      "##X": 188,
      "##̧": 189,
      "##̂": 190,
      "##‘": 191,
      "##—": 192,
      "##+": 193,
      "##̀": 194,
      "##1": 195,
      "##7": 196,
      "##8": 197,
      "##9": 198,
      "##2": 199,
      "##0": 200,
      "##‚": 201,
      "##3": 202,
      "##‛": 203,
      "##4": 204,
      "##[": 205,
      "##]": 206,
      "##5": 207,
      "##6": 208,
      "##»": 209,
      "##«": 210,
      "##ß": 211,
      "##§": 212,
      "##ł": 213,
      "##̨": 214,
      "##æ": 215,
      "##_": 216,
      "##=": 217,
      "##Æ": 218,
      "##œ": 219,
      "##`": 220,
      "##†": 221,
      "##/": 222,
      "##´": 223,
      "##ι": 224,
      "##−": 225,
      "##í": 226,
      "##á": 227,
      "## s": 228,
      "##ě": 229,
      "## v": 230,
      "##,\n": 231,
      "## p": 232,
      "## z": 233,
      "##̌e": 234,
      "## n": 235,
      "##ch": 236,
      "##\n\n": 237,
      "## j": 238,
      "## t": 239,
      "##ý": 240,
      "##é": 241,
      "## m": 242,
      "##ou": 243,
      "## k": 244,
      "##ž": 245,
      "## d": 246,
      "##st": 247,
      "##la": 248,
      "##le": 249,
      "## b": 250,
      "##š": 251,
      "##ř": 252,
      "##ak": 253,
      "## se": 254,
      "##ro": 255,
      "##č": 256,
      "## h": 257,
      "##en": 258,
      "##em": 259,
      "##ů": 260,
      "##\n\n\n": 261,
      "##ra": 262,
      "## o": 263,
      "##li": 264,
      "## a": 265,
      "##ní": 266,
      "##ře": 267,
      "## po": 268,
      "##rá": 269,
      "## je": 270,
      "##lo": 271,
      "## ne": 272,
      "##ce": 273,
      "##ně": 274,
      "## na": 275,
      "##.\n\n\n": 276,
      "##vě": 277,
      "##ne": 278,
      "## –": 279,
      "##.\n": 280,
      "## st": 281,
      "##na": 282,
      "##še": 283,
      "##ří": 284,
      "##va": 285,
      "##dy": 286,
      "##sk": 287,
      "##ný": 288,
      "##lá": 289,
      "##ho": 290,
      "## u": 291,
      "##ru": 292,
      "##je": 293,
      "##de": 294,
      "##te": 295,
      "##né": 296,
      "## za": 297,
      "##ti": 298,
      "##vo": 299,
      "##no": 300,
      "##lu": 301,
      "## c": 302,
      "##\na": 303,
      "##vá": 304,
      "##lí": 305,
      "##ři": 306,
      "## ch": 307,
      "##jí": 308,
      "##ko": 309,
      "##ka": 310,
      "##vé": 311,
      "## do": 312,
      "##ni": 313,
      "##ví": 314,
      "##ná": 315,
      "## to": 316,
      "##tě": 317,
      "##po": 318,
      "##tí": 319,
      "##že": 320,
      "##nou": 321,
      "##ly": 322,
      "##do": 323,
      "## by": 324,
      "##ku": 325,
      "##ky": 326,
      "## jak": 327,
      "## ji": 328,
      "##ých": 329,
      "##ám": 330,
      "## js": 331,
      "## ž": 332,
      "##,\na": 333,
      "## ro": 334,
      "## ve": 335,
      "##il": 336,
      "##al": 337,
      "##nu": 338,
      "##to": 339,
      "##ím": 340,
      "##ci": 341,
      "##..": 342,
      "##ť": 343,
      "##am": 344,
      "## –\n": 345,
      "##če": 346,
      "##dě": 347,
      "##se": 348,
      "## š": 349,
      "##at": 350,
      "##ým": 351,
      "##, k": 352,
      "## pro": 353,
      "##lé": 354,
      "## ho": 355,
      "##by": 356,
      "## mo": 357,
      "##ar": 358,
      "##mu": 359,
      "## le": 360,
      "##,\nj": 361,
      "##ny": 362,
      "## č": 363,
      "## že": 364,
      "## vz": 365,
      "##vět": 366,
      "## vě": 367,
      "##ve": 368,
      "##;\n": 369,
      "##du": 370,
      "## mi": 371,
      "##vi": 372,
      "## ko": 373,
      "## vy": 374,
      "##cí": 375,
      "##as": 376,
      "##di": 377,
      "##ší": 378,
      "##!\n": 379,
      "##lou": 380,
      "## du": 381,
      "## r": 382,
      "## jen": 383,
      "##sti": 384,
      "##dá": 385,
      "## pře": 386,
      "##da": 387,
      "## vše": 388,
      "##čí": 389,
      "##rd": 390,
      "##ich": 391,
      "##ká": 392,
      "##dí": 393,
      "## bo": 394,
      "## roz": 395,
      "## mu": 396,
      "##mě": 397,
      "##be": 398,
      "##,\nk": 399,
      "##:\n": 400,
      "##. ": 401,
      "##,\nv": 402,
      "##ď": 403,
      "## ná": 404,
      "##ta": 405,
      "## tě": 406,
      "##tá": 407,
      "##mí": 408,
      "##vou": 409,
      "##dyž": 410,
      "##mi": 411,
      "## no": 412,
      "##či": 413,
      "## jsem": 414,
      "##ží": 415,
      "## ži": 416,
      "## če": 417,
      "## zá": 418,
      "## ví": 419,
      "##bo": 420,
      "## li": 421,
      "##ry": 422,
      "## dá": 423,
      "## ně": 424,
      "##ze": 425,
      "## sp": 426,
      "## hla": 427,
      "## ob": 428,
      "##ůj": 429,
      "##me": 430,
      "##vu": 431,
      "##ji": 432,
      "## i": 433,
      "## srd": 434,
      "##!\n\n\n": 435,
      "##šak": 436,
      "## tu": 437,
      "## tak": 438,
      "##vy": 439,
      "## pa": 440,
      "##.\n\n": 441,
      "## te": 442,
      "##, ": 443,
      "## od": 444,
      "## své": 445,
      "## bu": 446,
      "##, v": 447,
      "## si": 448,
      "## mě": 449,
      "##tu": 450,
      "## ru": 451,
      "##bě": 452,
      "##ši": 453,
      "## krá": 454,
      "##ha": 455,
      "##ných": 456,
      "## ú": 457,
      "## dě": 458,
      "## co": 459,
      "## při": 460,
      "##sta": 461,
      "## ni": 462,
      "##lad": 463,
      "## pr": 464,
      "##\nv": 465,
      "##, s": 466,
      "##mo": 467,
      "##stí": 468,
      "##ez": 469,
      "##?\n": 470,
      "##lý": 471,
      "##ma": 472,
      "##,\nz": 473,
      "## pra": 474,
      "## svět": 475,
      "## má": 476,
      "## sk": 477,
      "## vo": 478,
      "##pě": 479,
      "##ň": 480,
      "## ta": 481,
      "##sí": 482,
      "## ce": 483,
      "##kou": 484,
      "##si": 485,
      "##, a": 486,
      "##bu": 487,
      "## ti": 488,
      "##led": 489,
      "##ty": 490,
      "## lá": 491,
      "##Ne": 492,
      "## ka": 493,
      "##hu": 494,
      "##,\njak": 495,
      "##ké": 496,
      "##pa": 497,
      "##pí": 498,
      "##rak": 499,
      "##ště": 500,
      "##!“": 501,
      "##vý": 502,
      "## dí": 503,
      "## jako": 504,
      "## jeho": 505,
      "##re": 506,
      "## sv": 507,
      "##ži": 508,
      "##lem": 509,
      "##há": 510,
      "##bi": 511,
      "##,\ns": 512,
      "##hy": 513,
      "## zem": 514,
      "## rá": 515,
      "##.\n\n\nA": 516,
      "##val": 517,
      "##rou": 518,
      "##ždy": 519,
      "##\nz": 520,
      "## pří": 521,
      "##ba": 522,
      "##ení": 523,
      "##ků": 524,
      "##, že": 525,
      "## srdce": 526,
      "##ným": 527,
      "##\nj": 528,
      "##\ns": 529,
      "## vá": 530,
      "##sa": 531,
      "## ten": 532,
      "##,\np": 533,
      "## slu": 534,
      "##Po": 535,
      "##chu": 536,
      "##, z": 537,
      "##dou": 538,
      "##má": 539,
      "##zí": 540,
      "## jed": 541,
      "##men": 542,
      "##,\nže": 543,
      "##vat": 544,
      "## ty": 545,
      "##Na": 546,
      "## B": 547,
      "##, jak": 548,
      "##nad": 549,
      "## pod": 550,
      "## pí": 551,
      "##cho": 552,
      "##co": 553,
      "##my": 554,
      "##su": 555,
      "##kem": 556,
      "##,\nje": 557,
      "## ra": 558,
      "## T": 559,
      "## se v": 560,
      "##ste": 561,
      "## té": 562,
      "## ní": 563,
      "## tam": 564,
      "## již": 565,
      "## lásk": 566,
      "## nad": 567,
      "## nám": 568,
      "##, je": 569,
      "## mé": 570,
      "##Jak": 571,
      "##rý": 572,
      "## sta": 573,
      "## mí": 574,
      "##rů": 575,
      "##, ne": 576,
      "## stá": 577,
      "## hro": 578,
      "##sy": 579,
      "## bí": 580,
      "## še": 581,
      "##ký": 582,
      "## lí": 583,
      "##zd": 584,
      "## byl": 585,
      "##,\nne": 586,
      "##ské": 587,
      "## vi": 588,
      "## pe": 589,
      "## jí": 590,
      "## vla": 591,
      "##\nse": 592,
      "## pla": 593,
      "## zas": 594,
      "## S": 595,
      "## lid": 596,
      "##nes": 597,
      "##ré": 598,
      "##řá": 599,
      "## já": 600,
      "## my": 601,
      "##Je": 602,
      "## mne": 603,
      "##nce": 604,
      "## V": 605,
      "##\np": 606,
      "## zla": 607,
      "##,\nt": 608,
      "##hou": 609,
      "## jej": 610,
      "##sto": 611,
      "##, co": 612,
      "## živo": 613,
      "##rt": 614,
      "##.\nA": 615,
      "## di": 616,
      "## bez": 617,
      "## „": 618,
      "## pá": 619,
      "## ře": 620,
      "##,\no": 621,
      "## P": 622,
      "##an": 623,
      "##pu": 624,
      "## prá": 625,
      "## so": 626,
      "##.\n\n\nT": 627,
      "## pou": 628,
      "##.\n\n\nV": 629,
      "## vý": 630,
      "##ům": 631,
      "##nem": 632,
      "## tvá": 633,
      "##vých": 634,
      "##té": 635,
      "##bou": 636,
      "##ním": 637,
      "##tr": 638,
      "## květ": 639,
      "##\nna": 640,
      "## před": 641,
      "## tou": 642,
      "## jest": 643,
      "##.\nV": 644,
      "## ze": 645,
      "##ném": 646,
      "## pís": 647,
      "##.“": 648,
      "## plá": 649,
      "##!\n\n": 650,
      "##pe": 651,
      "##bí": 652,
      "##žd": 653,
      "##.\nT": 654,
      "## sto": 655,
      "## nebe": 656,
      "##-li": 657,
      "## slo": 658,
      "## dál": 659,
      "##ad": 660,
      "##Co": 661,
      "## nej": 662,
      "##, jen": 663,
      "##ej": 664,
      "##chá": 665,
      "##nost": 666,
      "## nez": 667,
      "## duše": 668,
      "## či": 669,
      "## M": 670,
      "## tich": 671,
      "##hle": 672,
      "## svo": 673,
      "##děl": 674,
      "##pi": 675,
      "##eň": 676,
      "## čer": 677,
      "## pak": 678,
      "## ci": 679,
      "##nů": 680,
      "## pos": 681,
      "## její": 682,
      "## jsi": 683,
      "## pě": 684,
      "## nem": 685,
      "## kle": 686,
      "##,\njen": 687,
      "## už": 688,
      "## všech": 689,
      "## tom": 690,
      "##ri": 691,
      "## však": 692,
      "## nes": 693,
      "##, jež": 694,
      "## dob": 695,
      "## K": 696,
      "## hvě": 697,
      "##vým": 698,
      "## svou": 699,
      "## nás": 700,
      "##,\nna": 701,
      "##šel": 702,
      "## čas": 703,
      "## dru": 704,
      "##, o": 705,
      "## ma": 706,
      "##\njak": 707,
      "##tý": 708,
      "##stu": 709,
      "## vel": 710,
      "##:\n„": 711,
      "## v s": 712,
      "##tra": 713,
      "##cha": 714,
      "##,\nkdyž": 715,
      "##sem": 716,
      "## ještě": 717,
      "##,\npo": 718,
      "## něm": 719,
      "## bra": 720,
      "##,\nA": 721,
      "##, kte": 722,
      "##tem": 723,
      "## pl": 724,
      "## stí": 725,
      "## cí": 726,
      "##...\n": 727,
      "##\npo": 728,
      "## když": 729,
      "## duši": 730,
      "##zy": 731,
      "##?\n\n\n": 732,
      "##ůže": 733,
      "## můj": 734,
      "## jsou": 735,
      "## dra": 736,
      "##\nk": 737,
      "## –\n\n\n": 738,
      "## chví": 739,
      "##tel": 740,
      "## se s": 741,
      "## se z": 742,
      "## ku": 743,
      "##Ó": 744,
      "##,\njež": 745,
      "## bude": 746,
      "## bla": 747,
      "## kra": 748,
      "## bý": 749,
      "## me": 750,
      "##stá": 751,
      "## tvé": 752,
      "## da": 753,
      "##pá": 754,
      "## kr": 755,
      "##jem": 756,
      "## hle": 757,
      "##ství": 758,
      "##nosti": 759,
      "##hla": 760,
      "## sla": 761,
      "## den": 762,
      "## star": 763,
      "##už": 764,
      "##, jenž": 765,
      "##sou": 766,
      "## sí": 767,
      "## stra": 768,
      "##hý": 769,
      "##za": 770,
      "##nám": 771,
      "## všec": 772,
      "## věč": 773,
      "## hra": 774,
      "##nul": 775,
      "## vů": 776,
      "##\no": 777,
      "## pu": 778,
      "## lo": 779,
      "##dem": 780,
      "## každ": 781,
      "##zi": 782,
      "##vil": 783,
      "## ří": 784,
      "##hé": 785,
      "## zrak": 786,
      "## vždy": 787,
      "##mut": 788,
      "## hlu": 789,
      "## cho": 790,
      "##vůj": 791,
      "##bá": 792,
      "##cen": 793,
      "##ven": 794,
      "##mr": 795,
      "## l": 796,
      "## mod": 797,
      "## A": 798,
      "## život": 799,
      "##,\nby": 800,
      "##\nt": 801,
      "## bá": 802,
      "##chy": 803,
      "##tím": 804,
      "## vl": 805,
      "## de": 806,
      "## bě": 807,
      "## hu": 808,
      "##Já": 809,
      "##tek": 810,
      "##til": 811,
      "##, po": 812,
      "##,\nco": 813,
      "##so": 814,
      "##\nV": 815,
      "##sá": 816,
      "## ry": 817,
      "##jší": 818,
      "##cích": 819,
      "## mně": 820,
      "##.\n\n\nS": 821,
      "## dlou": 822,
      "## sy": 823,
      "## žá": 824,
      "## jsme": 825,
      "##Za": 826,
      "## C": 827,
      "##py": 828,
      "## nich": 829,
      "## ja": 830,
      "##ůh": 831,
      "## va": 832,
      "## re": 833,
      "## teď": 834,
      "## jas": 835,
      "## ště": 836,
      "##,\nV": 837,
      "##ším": 838,
      "##lově": 839,
      "##,\nkde": 840,
      "##dla": 841,
      "## není": 842,
      "## stro": 843,
      "##ného": 844,
      "##len": 845,
      "##Do": 846,
      "##krá": 847,
      "## kří": 848,
      "## ot": 849,
      "##lid": 850,
      "## kdy": 851,
      "## kou": 852,
      "## zvo": 853,
      "##stou": 854,
      "## la": 855,
      "##Pro": 856,
      "##cem": 857,
      "## bych": 858,
      "##čka": 859,
      "##ský": 860,
      "##stě": 861,
      "## tr": 862,
      "##.\nS": 863,
      "##,\nK": 864,
      "## sou": 865,
      "##tou": 866,
      "## bou": 867,
      "##Jen": 868,
      "##zu": 869,
      "##!“\n\n\n": 870,
      "##vní": 871,
      "## lu": 872,
      "## bylo": 873,
      "##hne": 874,
      "## jich": 875,
      "## sam": 876,
      "##ská": 877,
      "##\nS": 878,
      "## oči": 879,
      "## sl": 880,
      "## slad": 881,
      "## Bo": 882,
      "## zd": 883,
      "##, m": 884,
      "## tvo": 885,
      "##rem": 886,
      "##chem": 887,
      "##řel": 888,
      "## svě": 889,
      "## lásky": 890,
      "## H": 891,
      "##řed": 892,
      "## těch": 893,
      "##, na": 894,
      "## f": 895,
      "##: „": 896,
      "## poh": 897,
      "##.\n\n\nK": 898,
      "##, kde": 899,
      "##sky": 900,
      "## slunce": 901,
      "##sť": 902,
      "##kdy": 903,
      "## ptá": 904,
      "## ním": 905,
      "## tře": 906,
      "##sud": 907,
      "##ští": 908,
      "## spo": 909,
      "##vem": 910,
      "## mno": 911,
      "##er": 912,
      "## jim": 913,
      "##zo": 914,
      "## krás": 915,
      "##ém": 916,
      "##řím": 917,
      "##,\nZ": 918,
      "## sobě": 919,
      "## –\na": 920,
      "## tem": 921,
      "## žití": 922,
      "## byla": 923,
      "##l se": 924,
      "##pla": 925,
      "## ml": 926,
      "##.“\n\n\n": 927,
      "##kla": 928,
      "## zpě": 929,
      "## člově": 930,
      "## chtě": 931,
      "## svat": 932,
      "##kal": 933,
      "## srdci": 934,
      "## oh": 935,
      "## sám": 936,
      "##... ": 937,
      "## svůj": 938,
      "##! ": 939,
      "## mat": 940,
      "##,\nS": 941,
      "##sty": 942,
      "##om": 943,
      "##sku": 944,
      "## kro": 945,
      "##šť": 946,
      "##pr": 947,
      "##nky": 948,
      "##ska": 949,
      "## mys": 950,
      "## sví": 951,
      "##,\nm": 952,
      "##.\nK": 953,
      "## vra": 954,
      "## milo": 955,
      "## mou": 956,
      "## slá": 957,
      "##roz": 958,
      "##ved": 959,
      "##.\n\n\nZ": 960,
      "##iž": 961,
      "##lých": 962,
      "## se k": 963,
      "## nep": 964,
      "## vět": 965,
      "##pomí": 966,
      "##, když": 967,
      "## země": 968,
      "##čky": 969,
      "## zemi": 970,
      "## svým": 971,
      "##ček": 972,
      "## ší": 973,
      "##čer": 974,
      "## vám": 975,
      "## on": 976,
      "## dnes": 977,
      "##nek": 978,
      "##dil": 979,
      "## svých": 980,
      "##bra": 981,
      "##lů": 982,
      "## blí": 983,
      "##,\njenž": 984,
      "## poz": 985,
      "## moje": 986,
      "##smě": 987,
      "## smut": 988,
      "## pů": 989,
      "##jde": 990,
      "## chu": 991,
      "## těž": 992,
      "##mů": 993,
      "## hvěz": 994,
      "## R": 995,
      "##hů": 996,
      "## víc": 997,
      "## snad": 998,
      "## tá": 999,
      "## naše": 1000,
      "## chvě": 1001,
      "## ble": 1002,
      "## ok": 1003,
      "## zde": 1004,
      "## sly": 1005,
      "## kde": 1006,
      "##ast": 1007,
      "##vit": 1008,
      "##,\nT": 1009,
      "##ských": 1010,
      "## jejich": 1011,
      "## štěstí": 1012,
      "##ců": 1013,
      "##pad": 1014,
      "## spá": 1015,
      "## ruce": 1016,
      "## sně": 1017,
      "## tobě": 1018,
      "## rů": 1019,
      "##hem": 1020,
      "## ča": 1021,
      "##?“": 1022,
      "## noci": 1023,
      "## J": 1024,
      "## kla": 1025,
      "##,\nvšak": 1026,
      "##sko": 1027,
      "## kolem": 1028,
      "##kých": 1029,
      "##nout": 1030,
      "##nil": 1031,
      "## moře": 1032,
      "## vr": 1033,
      "## nech": 1034,
      "##.\nZ": 1035,
      "## ple": 1036,
      "##čku": 1037,
      "## L": 1038,
      "##ned": 1039,
      "##\ndo": 1040,
      "## mrt": 1041,
      "## rado": 1042,
      "## smě": 1043,
      "##ních": 1044,
      "##, h": 1045,
      "##rev": 1046,
      "## vás": 1047,
      "##,\naž": 1048,
      "##.\n\n\nM": 1049,
      "##sla": 1050,
      "##pra": 1051,
      "##,\nza": 1052,
      "##\na v": 1053,
      "## též": 1054,
      "##vně": 1055,
      "## hlavu": 1056,
      "## všecko": 1057,
      "##um": 1058,
      "## bi": 1059,
      "##dech": 1060,
      "##ník": 1061,
      "##\nne": 1062,
      "##.\n\n\nP": 1063,
      "##dle": 1064,
      "## hlas": 1065,
      "## mra": 1066,
      "##dné": 1067,
      "##,\nto": 1068,
      "## tvůj": 1069,
      "## ke": 1070,
      "##den": 1071,
      "##hra": 1072,
      "## každý": 1073,
      "##jen": 1074,
      "##\nje": 1075,
      "##dím": 1076,
      "##Č": 1077,
      "##leč": 1078,
      "##,\n\n\n": 1079,
      "##nal": 1080,
      "##řil": 1081,
      "## smí": 1082,
      "##tů": 1083,
      "##By": 1084,
      "## vlast": 1085,
      "## jste": 1086,
      "## mám": 1087,
      "## Z": 1088,
      "## chce": 1089,
      "## há": 1090,
      "## smr": 1091,
      "##\nza": 1092,
      "##rod": 1093,
      "## nepo": 1094,
      "## píseň": 1095,
      "## noc": 1096,
      "##kým": 1097,
      "## tebe": 1098,
      "##\ni": 1099,
      "##jící": 1100,
      "## dří": 1101,
      "##To": 1102,
      "## hru": 1103,
      "##.\nM": 1104,
      "##lil": 1105,
      "## dáv": 1106,
      "## ř": 1107,
      "## než": 1108,
      "##vr": 1109,
      "## jem": 1110,
      "##, za": 1111,
      "##nka": 1112,
      "## prav": 1113,
      "## měl": 1114,
      "## přec": 1115,
      "##šich": 1116,
      "## a z": 1117,
      "## stře": 1118,
      "##tky": 1119,
      "## dítě": 1120,
      "##tva": 1121,
      "## chvíli": 1122,
      "## ží": 1123,
      "## mil": 1124,
      "## ň": 1125,
      "##vím": 1126,
      "## a v": 1127,
      "##kdo": 1128,
      "## až": 1129,
      "## hor": 1130,
      "##čil": 1131,
      "## očí": 1132,
      "## ba": 1133,
      "## ha": 1134,
      "##šu": 1135,
      "## us": 1136,
      "##’s": 1137,
      "## hvězd": 1138,
      "##nější": 1139,
      "##Tak": 1140,
      "## tím": 1141,
      "## prou": 1142,
      "##dný": 1143,
      "## celý": 1144,
      "## klid": 1145,
      "##žil": 1146,
      "##! –": 1147,
      "## lé": 1148,
      "##ždyť": 1149,
      "## hří": 1150,
      "##nci": 1151,
      "## sva": 1152,
      "##\nm": 1153,
      "##šla": 1154,
      "##nec": 1155,
      "## zpí": 1156,
      "## let": 1157,
      "## sko": 1158,
      "## se na": 1159,
      "## hlou": 1160,
      "## vlá": 1161,
      "## moc": 1162,
      "## strá": 1163,
      "##tře": 1164,
      "##jak": 1165,
      "##dnou": 1166,
      "##, kdo": 1167,
      "## mlad": 1168,
      "## oko": 1169,
      "## svém": 1170,
      "##rov": 1171,
      "##,\nd": 1172,
      "## tí": 1173,
      "##nách": 1174,
      "##, pro": 1175,
      "##.\nP": 1176,
      "## svého": 1177,
      "##cím": 1178,
      "## spě": 1179,
      "## kdo": 1180,
      "## ny": 1181,
      "## kru": 1182,
      "## mlá": 1183,
      "## sen": 1184,
      "##rost": 1185,
      "## bole": 1186,
      "## chrá": 1187,
      "## toho": 1188,
      "## ši": 1189,
      "## také": 1190,
      "## přes": 1191,
      "##h’": 1192,
      "##skou": 1193,
      "##vz": 1194,
      "## be": 1195,
      "##spo": 1196,
      "## chy": 1197,
      "## neu": 1198,
      "## mar": 1199,
      "##\nZ": 1200,
      "##krát": 1201,
      "##ní,\n": 1202,
      "##lým": 1203,
      "## les": 1204,
      "## dív": 1205,
      "##síc": 1206,
      "##nku": 1207,
      "## pad": 1208,
      "##vém": 1209,
      "## náš": 1210,
      "##pět": 1211,
      "##Le": 1212,
      "##,\ndo": 1213,
      "## stojí": 1214,
      "##. –\n": 1215,
      "## čí": 1216,
      "##, to": 1217,
      "##cky": 1218,
      "##zem": 1219,
      "## zlo": 1220,
      "## pan": 1221,
      "##la se": 1222,
      "##, –\n": 1223,
      "##dce": 1224,
      "##ezi": 1225,
      "##\nA": 1226,
      "##,\ntak": 1227,
      "##ouf": 1228,
      "## hr": 1229,
      "##kam": 1230,
      "##vů": 1231,
      "## O": 1232,
      "## obra": 1233,
      "## světa": 1234,
      "## tiše": 1235,
      "## být": 1236,
      "##,\njá": 1237,
      "## duch": 1238,
      "##\nu": 1239,
      "## dne": 1240,
      "## zdá": 1241,
      "## tro": 1242,
      "##čím": 1243,
      "## zvu": 1244,
      "## mlu": 1245,
      "## člověk": 1246,
      "## chlad": 1247,
      "##...\n\n": 1248,
      "##mrt": 1249,
      "## jenom": 1250,
      "## ote": 1251,
      "## úsmě": 1252,
      "##tom": 1253,
      "##vra": 1254,
      "##kol": 1255,
      "## ky": 1256,
      "##pat": 1257,
      "## více": 1258,
      "## náhle": 1259,
      "## sem": 1260,
      "##sté": 1261,
      "##lit": 1262,
      "## ža": 1263,
      "## zří": 1264,
      "## růže": 1265,
      "## sní": 1266,
      "## zase": 1267,
      "##,\npro": 1268,
      "##...": 1269,
      "## nebi": 1270,
      "##dé": 1271,
      "## kam": 1272,
      "##:\n\n\n": 1273,
      "## ani": 1274,
      "##...\n\n\n": 1275,
      "##el": 1276,
      "## muž": 1277,
      "##,\nu": 1278,
      "## slova": 1279,
      "## stále": 1280,
      "## dal": 1281,
      "##tro": 1282,
      "## bře": 1283,
      "##stal": 1284,
      "##Ch": 1285,
      "##ami": 1286,
      "##!\nV": 1287,
      "##,\nkdy": 1288,
      "##\nve": 1289,
      "##lek": 1290,
      "##, by": 1291,
      "##l v": 1292,
      "## kři": 1293,
      "##čko": 1294,
      "## tru": 1295,
      "##zen": 1296,
      "##. –": 1297,
      "## mal": 1298,
      "## sil": 1299,
      "## tvář": 1300,
      "##\nK": 1301,
      "## jednou": 1302,
      "##,\ni": 1303,
      "##dlo": 1304,
      "## hned": 1305,
      "## div": 1306,
      "##pou": 1307,
      "##zá": 1308,
      "##rně": 1309,
      "## su": 1310,
      "##lední": 1311,
      "## krev": 1312,
      "##nic": 1313,
      "## pok": 1314,
      "##.\n„": 1315,
      "##dal": 1316,
      "## jeden": 1317,
      "##ční": 1318,
      "## myš": 1319,
      "## rád": 1320,
      "## kví": 1321,
      "##,\nty": 1322,
      "##,\nkte": 1323,
      "## šť": 1324,
      "##já": 1325,
      "## kol": 1326,
      "##tku": 1327,
      "## mnou": 1328,
      "## stří": 1329,
      "## tma": 1330,
      "## hrá": 1331,
      "##.\n\n\n„": 1332,
      "##hl": 1333,
      "## se,": 1334,
      "## hně": 1335,
      "## dr": 1336,
      "## v po": 1337,
      "##ch,": 1338,
      "## sebe": 1339,
      "## – a": 1340,
      "## láska": 1341,
      "## nyní": 1342,
      "## trá": 1343,
      "##mé": 1344,
      "## pi": 1345,
      "##vám": 1346,
      "##jte": 1347,
      "##vala": 1348,
      "##,\nP": 1349,
      "##čně": 1350,
      "##rné": 1351,
      "## přá": 1352,
      "## klí": 1353,
      "##lém": 1354,
      "## spí": 1355,
      "##šli": 1356,
      "##byl": 1357,
      "## bled": 1358,
      "##!\n\n\nA": 1359,
      "## rukou": 1360,
      "##mys": 1361,
      "##Ro": 1362,
      "##vře": 1363,
      "##zně": 1364,
      "##šti": 1365,
      "## ská": 1366,
      "##ben": 1367,
      "## budou": 1368,
      "##dní": 1369,
      "## Če": 1370,
      "## jde": 1371,
      "## g": 1372,
      "## zí": 1373,
      "## boj": 1374,
      "##jíc": 1375,
      "## řek": 1376,
      "## odpo": 1377,
      "##Bo": 1378,
      "##lně": 1379,
      "## brá": 1380,
      "## stu": 1381,
      "##!\nA": 1382,
      "## plamen": 1383,
      "##rný": 1384,
      "##\nP": 1385,
      "##.\nO": 1386,
      "## nikdy": 1387,
      "## jar": 1388,
      "## kte": 1389,
      "## os": 1390,
      "##tech": 1391,
      "##pro": 1392,
      "## an": 1393,
      "## váš": 1394,
      "##sně": 1395,
      "##nice": 1396,
      "##eď": 1397,
      "##on": 1398,
      "## hrob": 1399,
      "## vzdu": 1400,
      "## mla": 1401,
      "##mou": 1402,
      "## mrak": 1403,
      "## buď": 1404,
      "##, u": 1405,
      "##let": 1406,
      "##lov": 1407,
      "## brat": 1408,
      "## nen": 1409,
      "##lik": 1410,
      "##Ty": 1411,
      "##Hle": 1412,
      "##, do": 1413,
      "## mezi": 1414,
      "## chtěl": 1415,
      "## tomu": 1416,
      "##tal": 1417,
      "##vali": 1418,
      "##uje": 1419,
      "##tka": 1420,
      "## šťast": 1421,
      "##ého": 1422,
      "## jedno": 1423,
      "## ost": 1424,
      "##pil": 1425,
      "##stý": 1426,
      "##mně": 1427,
      "## nebes": 1428,
      "## N": 1429,
      "## Bůh": 1430,
      "## D": 1431,
      "## hlavy": 1432,
      "## dla": 1433,
      "##lo se": 1434,
      "##.\n\n\nO": 1435,
      "##lech": 1436,
      "## zo": 1437,
      "## večer": 1438,
      "## děti": 1439,
      "##,\nse": 1440,
      "##bez": 1441,
      "## ste": 1442,
      "## zje": 1443,
      "##kém": 1444,
      "##lost": 1445,
      "## obě": 1446,
      "##bý": 1447,
      "##. V": 1448,
      "## nemo": 1449,
      "##.\n\n\nD": 1450,
      "##,\nvše": 1451,
      "##kách": 1452,
      "## dále": 1453,
      "##,\nať": 1454,
      "## svá": 1455,
      "##\nM": 1456,
      "##.\n\n\nNa": 1457,
      "##,\ntu": 1458,
      "##hlé": 1459,
      "## nedo": 1460,
      "##, kdy": 1461,
      "## níž": 1462,
      "##kle": 1463,
      "##těz": 1464,
      "##,\nnež": 1465,
      "##has": 1466,
      "##hlí": 1467,
      "## vrá": 1468,
      "##však": 1469,
      "##dně": 1470,
      "## bílé": 1471,
      "## hř": 1472,
      "## nadě": 1473,
      "## šu": 1474,
      "## nic": 1475,
      "##,\nneb": 1476,
      "##ní\n": 1477,
      "## hrů": 1478,
      "## přece": 1479,
      "## pat": 1480,
      "##sil": 1481,
      "## vzpomí": 1482,
      "##chvě": 1483,
      "##nit": 1484,
      "##, d": 1485,
      "## duší": 1486,
      "##kři": 1487,
      "##,\nM": 1488,
      "##jím": 1489,
      "## musí": 1490,
      "##stra": 1491,
      "## vese": 1492,
      "##hat": 1493,
      "## zlaté": 1494,
      "## lou": 1495,
      "## poko": 1496,
      "##pen": 1497,
      "## první": 1498,
      "##.\nNe": 1499,
      "## oz": 1500,
      "##zel": 1501,
      "## národ": 1502,
      "## se za": 1503,
      "##dů": 1504,
      "## nu": 1505,
      "##lím": 1506,
      "##in": 1507,
      "##Ho": 1508,
      "##\npro": 1509,
      "## zna": 1510,
      "## všem": 1511,
      "##bož": 1512,
      "##trá": 1513,
      "## nimi": 1514,
      "##Bu": 1515,
      "##sím": 1516,
      "## nové": 1517,
      "## zná": 1518,
      "##.\nD": 1519,
      "## hlavou": 1520,
      "## zní": 1521,
      "## se po": 1522,
      "## letí": 1523,
      "##sní": 1524,
      "## veli": 1525,
      "##.\n\n\nNe": 1526,
      "## leží": 1527,
      "## bar": 1528,
      "##stří": 1529,
      "## ruku": 1530,
      "##la,\n": 1531,
      "## smrti": 1532,
      "##nutí": 1533,
      "## mých": 1534,
      "##skem": 1535,
      "## zno": 1536,
      "##nech": 1537,
      "##,“": 1538,
      "## jedi": 1539,
      "##, –": 1540,
      "##áme": 1541,
      "## hled": 1542,
      "## e": 1543,
      "##ja": 1544,
      "## hou": 1545,
      "##vše": 1546,
      "## roze": 1547,
      "## obla": 1548,
      "##Jako": 1549,
      "## hroz": 1550,
      "##rob": 1551,
      "##hled": 1552,
      "##,\nve": 1553,
      "##,\nNe": 1554,
      "##jž": 1555,
      "## zvě": 1556,
      "##,\njako": 1557,
      "## stín": 1558,
      "##čné": 1559,
      "##vání": 1560,
      "## skrá": 1561,
      "##š,": 1562,
      "##děla": 1563,
      "##. –\n\n\n": 1564,
      "## zele": 1565,
      "## pru": 1566,
      "## tvých": 1567,
      "## – –": 1568,
      "## ruka": 1569,
      "## dů": 1570,
      "##ct": 1571,
      "## v duši": 1572,
      "## hvězdy": 1573,
      "##dne": 1574,
      "##.\n\n\nPo": 1575,
      "##.\nNa": 1576,
      "## skry": 1577,
      "## str": 1578,
      "## hrd": 1579,
      "## plo": 1580,
      "##čel": 1581,
      "## leh": 1582,
      "## zi": 1583,
      "##̌i": 1584,
      "## září": 1585,
      "## cizí": 1586,
      "##lna": 1587,
      "## dvo": 1588,
      "## tra": 1589,
      "## může": 1590,
      "## Pá": 1591,
      "##.\n\n\nJ": 1592,
      "## tesk": 1593,
      "## zak": 1594,
      "##.\nPo": 1595,
      "##.\nJ": 1596,
      "##čen": 1597,
      "##! –\n": 1598,
      "##,\nO": 1599,
      "## taj": 1600,
      "##prá": 1601,
      "## svoje": 1602,
      "##, než": 1603,
      "## rozko": 1604,
      "## žal": 1605,
      "##dra": 1606,
      "## dávno": 1607,
      "##,\nvy": 1608,
      "## zně": 1609,
      "##la v": 1610,
      "## a s": 1611,
      "##řit": 1612,
      "##dná": 1613,
      "## volá": 1614,
      "## chvíle": 1615,
      "## ticho": 1616,
      "##rým": 1617,
      "## ká": 1618,
      "##řes": 1619,
      "##zko": 1620,
      "##!\n\n\nV": 1621,
      "##\ntak": 1622,
      "## tlu": 1623,
      "##bro": 1624,
      "##chle": 1625,
      "## lidst": 1626,
      "##nými": 1627,
      "##l jsem": 1628,
      "## juž": 1629,
      "## tvoje": 1630,
      "## nevi": 1631,
      "## starý": 1632,
      "##teď": 1633,
      "##.\nN": 1634,
      "## zm": 1635,
      "## žha": 1636,
      "## prázd": 1637,
      "## poli": 1638,
      "##div": 1639,
      "## neo": 1640,
      "##et": 1641,
      "## dlouho": 1642,
      "## vlasti": 1643,
      "## slav": 1644,
      "## ven": 1645,
      "## se mi": 1646,
      "##stře": 1647,
      "## ňad": 1648,
      "##,\nale": 1649,
      "## neb": 1650,
      "##žím": 1651,
      "## ves": 1652,
      "## radost": 1653,
      "## F": 1654,
      "## něho": 1655,
      "##, ty": 1656,
      "## býti": 1657,
      "##pas": 1658,
      "## čelo": 1659,
      "##, který": 1660,
      "##,\nŽe": 1661,
      "## nevě": 1662,
      "##,\na v": 1663,
      "##pal": 1664,
      "##,\njiž": 1665,
      "## kaž": 1666,
      "## kraj": 1667,
      "##ol": 1668,
      "##zní": 1669,
      "## námi": 1670,
      "##ván": 1671,
      "##!“\n": 1672,
      "##, tak": 1673,
      "## květy": 1674,
      "##vají": 1675,
      "## náru": 1676,
      "##klo": 1677,
      "##, vy": 1678,
      "##ností": 1679,
      "## ale": 1680,
      "## ona": 1681,
      "## dech": 1682,
      "##kde": 1683,
      "##dět": 1684,
      "## dce": 1685,
      "## zra": 1686,
      "##. A": 1687,
      "## tebou": 1688,
      "## svítí": 1689,
      "##rých": 1690,
      "## hud": 1691,
      "## pouze": 1692,
      "##;\na": 1693,
      "##armo": 1694,
      "## života": 1695,
      "## boží": 1696,
      "##,\nh": 1697,
      "## všecky": 1698,
      "##jď": 1699,
      "##vého": 1700,
      "##lní": 1701,
      "## hlubo": 1702,
      "## um": 1703,
      "##bych": 1704,
      "## tělo": 1705,
      "##, jako": 1706,
      "## se do": 1707,
      "## řa": 1708,
      "##Proč": 1709,
      "##dý": 1710,
      "##kve": 1711,
      "## stě": 1712,
      "## per": 1713,
      "##\nNa": 1714,
      "## vol": 1715,
      "##Tu": 1716,
      "##, ho": 1717,
      "##čem": 1718,
      "## pohled": 1719,
      "##tých": 1720,
      "## klo": 1721,
      "##luje": 1722,
      "##ác": 1723,
      "## proti": 1724,
      "## se a": 1725,
      "## celé": 1726,
      "## tajem": 1727,
      "##tla": 1728,
      "## dáli": 1729,
      "## žena": 1730,
      "##kud": 1731,
      "##sů": 1732,
      "##ata": 1733,
      "## pam": 1734,
      "## ští": 1735,
      "##těl": 1736,
      "##.\n\n\nN": 1737,
      "## py": 1738,
      "## dobře": 1739,
      "## kraji": 1740,
      "## hledí": 1741,
      "## písně": 1742,
      "## blou": 1743,
      "## jím": 1744,
      "## zpěv": 1745,
      "##\nO": 1746,
      "##chází": 1747,
      "## sá": 1748,
      "## v tom": 1749,
      "##tit": 1750,
      "## prý": 1751,
      "## bílý": 1752,
      "## br": 1753,
      "## v srdci": 1754,
      "## he": 1755,
      "## v le": 1756,
      "## lásku": 1757,
      "##plá": 1758,
      "##;\n\n\n": 1759,
      "##!\nS": 1760,
      "## tady": 1761,
      "##kám": 1762,
      "##\njako": 1763,
      "##šení": 1764,
      "##̌á": 1765,
      "##vrá": 1766,
      "## šep": 1767,
      "## dale": 1768,
      "##zou": 1769,
      "## osud": 1770,
      "##, až": 1771,
      "##letí": 1772,
      "## slun": 1773,
      "##lal": 1774,
      "## v něm": 1775,
      "##mění": 1776,
      "##ev": 1777,
      "## sklá": 1778,
      "##chý": 1779,
      "## král": 1780,
      "##lep": 1781,
      "##bude": 1782,
      "## všeho": 1783,
      "##kli": 1784,
      "## chvá": 1785,
      "##žen": 1786,
      "##dit": 1787,
      "## krve": 1788,
      "##šil": 1789,
      "## hy": 1790,
      "##bil": 1791,
      "##, již": 1792,
      "##žo": 1793,
      "##,\nch": 1794,
      "## ode": 1795,
      "## boji": 1796,
      "##,\nkdo": 1797,
      "##,\ntam": 1798,
      "##sce": 1799,
      "## lesk": 1800,
      "## se vz": 1801,
      "## lidu": 1802,
      "##\nnad": 1803,
      "## sa": 1804,
      "## svojí": 1805,
      "## láskou": 1806,
      "##\na z": 1807,
      "##Kdo": 1808,
      "## jemu": 1809,
      "##šude": 1810,
      "## drá": 1811,
      "##čný": 1812,
      "##\nd": 1813,
      "## kně": 1814,
      "##žá": 1815,
      "## pozd": 1816,
      "## tř": 1817,
      "## sli": 1818,
      "## dva": 1819,
      "## zář": 1820,
      "##hnou": 1821,
      "## často": 1822,
      "##.\n\n\nTak": 1823,
      "##hůru": 1824,
      "## jin": 1825,
      "## velké": 1826,
      "## nese": 1827,
      "##vost": 1828,
      "##ten": 1829,
      "##áš": 1830,
      "## zapo": 1831,
      "## samo": 1832,
      "## padá": 1833,
      "## paní": 1834,
      "## tedy": 1835,
      "## G": 1836,
      "##\njen": 1837,
      "## jmé": 1838,
      "##ými": 1839,
      "## se roz": 1840,
      "##Če": 1841,
      "##kne": 1842,
      "## kles": 1843,
      "## slou": 1844,
      "## nový": 1845,
      "##pře": 1846,
      "## poslední": 1847,
      "## blu": 1848,
      "## rou": 1849,
      "## šel": 1850,
      "## třeba": 1851,
      "##zná": 1852,
      "## v dál": 1853,
      "## mého": 1854,
      "## němu": 1855,
      "## cestu": 1856,
      "##moc": 1857,
      "##, které": 1858,
      "##děj": 1859,
      "## umí": 1860,
      "##,\nten": 1861,
      "## sed": 1862,
      "##lze": 1863,
      "##chů": 1864,
      "## blá": 1865,
      "## viděl": 1866,
      "##kro": 1867,
      "## ať": 1868,
      "## hlava": 1869,
      "##Leč": 1870,
      "## hoře": 1871,
      "##.\n\n\nJak": 1872,
      "## kni": 1873,
      "## němž": 1874,
      "##kům": 1875,
      "## To": 1876,
      "## jisk": 1877,
      "## velký": 1878,
      "## vítr": 1879,
      "## pohá": 1880,
      "## rána": 1881,
      "##čení": 1882,
      "##éž": 1883,
      "## stej": 1884,
      "##pl": 1885,
      "## vlastní": 1886,
      "## úsměv": 1887,
      "##ůž": 1888,
      "## Je": 1889,
      "## práci": 1890,
      "##din": 1891,
      "##ran": 1892,
      "##tní": 1893,
      "## vře": 1894,
      "## E": 1895,
      "## ztra": 1896,
      "##síce": 1897,
      "##tko": 1898,
      "##žeh": 1899,
      "##. S": 1900,
      "##, vz": 1901,
      "## vždycky": 1902,
      "## bolest": 1903,
      "##tné": 1904,
      "## kře": 1905,
      "## slzy": 1906,
      "## tep": 1907,
      "##\nT": 1908,
      "## ženy": 1909,
      "##\nvy": 1910,
      "## světlo": 1911,
      "## chci": 1912,
      "##cké": 1913,
      "##rál": 1914,
      "##der": 1915,
      "##, já": 1916,
      "## polí": 1917,
      "##ys": 1918,
      "##vlá": 1919,
      "## sklo": 1920,
      "##sné": 1921,
      "## vítěz": 1922,
      "## smrt": 1923,
      "##, ko": 1924,
      "##bor": 1925,
      "## vdě": 1926,
      "## hoří": 1927,
      "## papr": 1928,
      "##cko": 1929,
      "## vrou": 1930,
      "## list": 1931,
      "## staré": 1932,
      "##šle": 1933,
      "##hal": 1934,
      "##řa": 1935,
      "##\nod": 1936,
      "##.\n\n\nVšak": 1937,
      "##\nPo": 1938,
      "##.\n\n\nJe": 1939,
      "##.\nJe": 1940,
      "## písní": 1941,
      "##ly se": 1942,
      "##.\nVšak": 1943,
      "## svoji": 1944,
      "## neza": 1945,
      "##t se": 1946,
      "## obraz": 1947,
      "## zů": 1948,
      "##rav": 1949,
      "##měl": 1950,
      "##li jsme": 1951,
      "## mládí": 1952,
      "##lyš": 1953,
      "## síly": 1954,
      "## záři": 1955,
      "##,\nPo": 1956,
      "## kve": 1957,
      "##, kam": 1958,
      "##sný": 1959,
      "## smích": 1960,
      "##\nji": 1961,
      "## půl": 1962,
      "##žel": 1963,
      "##stro": 1964,
      "##sal": 1965,
      "##or": 1966,
      "## uli": 1967,
      "## nikdo": 1968,
      "## nevy": 1969,
      "##řec": 1970,
      "## sotva": 1971,
      "## snů": 1972,
      "##brá": 1973,
      "## zlato": 1974,
      "## dět": 1975,
      "##, ó": 1976,
      "## v o": 1977,
      "##losti": 1978,
      "##zni": 1979,
      "##he": 1980,
      "## naší": 1981,
      "##rém": 1982,
      "##? –": 1983,
      "## věru": 1984,
      "## stíny": 1985,
      "## pocho": 1986,
      "## málo": 1987,
      "## hory": 1988,
      "## voj": 1989,
      "##cit": 1990,
      "##ského": 1991,
      "##hod": 1992,
      "## druh": 1993,
      "## bouř": 1994,
      "## zahra": 1995,
      "##klá": 1996,
      "## šat": 1997,
      "##čera": 1998,
      "##.“\n\n\n„": 1999,
      "##van": 2000,
      "## propa": 2001,
      "##stup": 2002,
      "##zna": 2003,
      "## znám": 2004,
      "##dej": 2005,
      "## pole": 2006,
      "##ámen": 2007,
      "##, která": 2008,
      "##šichni": 2009,
      "## bouře": 2010,
      "## práce": 2011,
      "##nici": 2012,
      "##,\nleč": 2013,
      "## tvou": 2014,
      "## poč": 2015,
      "##rdce": 2016,
      "## plu": 2017,
      "##ral": 2018,
      "## lidí": 2019,
      "## květů": 2020,
      "## věčně": 2021,
      "## pom": 2022,
      "## touhy": 2023,
      "##Což": 2024,
      "##,\naby": 2025,
      "##gi": 2026,
      "## kouz": 2027,
      "## jistě": 2028,
      "## kry": 2029,
      "## sna": 2030,
      "##,\npak": 2031,
      "##chť": 2032,
      "## opět": 2033,
      "## nichž": 2034,
      "##kry": 2035,
      "## právě": 2036,
      "## moud": 2037,
      "##.\nJak": 2038,
      "## přijde": 2039,
      "## lidé": 2040,
      "##sek": 2041,
      "## zu": 2042,
      "## Kri": 2043,
      "## trů": 2044,
      "##, však": 2045,
      "## vidí": 2046,
      "## sku": 2047,
      "## vaše": 2048,
      "## vich": 2049,
      "## spa": 2050,
      "##\nh": 2051,
      "## prsou": 2052,
      "## divo": 2053,
      "## zpívá": 2054,
      "## ou": 2055,
      "##ška": 2056,
      "## děl": 2057,
      "## tváří": 2058,
      "##bal": 2059,
      "## změ": 2060,
      "##stem": 2061,
      "##\na s": 2062,
      "## něž": 2063,
      "## hlubi": 2064,
      "##zal": 2065,
      "## zouf": 2066,
      "## svobo": 2067,
      "##od": 2068,
      "## někdy": 2069,
      "##.\n\n\nTo": 2070,
      "##ás": 2071,
      "## krásy": 2072,
      "##!\nK": 2073,
      "##dr": 2074,
      "##kone": 2075,
      "## lásce": 2076,
      "##,\nNa": 2077,
      "## pán": 2078,
      "##rná": 2079,
      "## tváři": 2080,
      "##.\n\n\nB": 2081,
      "## milá": 2082,
      "## bož": 2083,
      "## zlatý": 2084,
      "##lesk": 2085,
      "## nocí": 2086,
      "##valy": 2087,
      "##, tu": 2088,
      "## par": 2089,
      "## tváře": 2090,
      "## jdou": 2091,
      "##, ať": 2092,
      "##nové": 2093,
      "## trochu": 2094,
      "## světla": 2095,
      "## domů": 2096,
      "##, se": 2097,
      "## mnoho": 2098,
      "## mr": 2099,
      "##čit": 2100,
      "## řá": 2101,
      "##bylo": 2102,
      "## vys": 2103,
      "##jat": 2104,
      "## sni": 2105,
      "## budu": 2106,
      "## spolu": 2107,
      "## kdys": 2108,
      "## čeká": 2109,
      "##vrd": 2110,
      "##ským": 2111,
      "##,\nji": 2112,
      "##hnu": 2113,
      "## přišel": 2114,
      "## zve": 2115,
      "## věky": 2116,
      "## blesk": 2117,
      "##mem": 2118,
      "##,\n„": 2119,
      "##!\nZ": 2120,
      "##,\nnad": 2121,
      "##, le": 2122,
      "##.\nTo": 2123,
      "## sebou": 2124,
      "##, krá": 2125,
      "## každé": 2126,
      "##\na na": 2127,
      "## svaté": 2128,
      "## mož": 2129,
      "## zr": 2130,
      "## pěk": 2131,
      "## slovo": 2132,
      "##dost": 2133,
      "##ltá": 2134,
      "##sme": 2135,
      "## nebo": 2136,
      "## stál": 2137,
      "## bohat": 2138,
      "##\npod": 2139,
      "## zmi": 2140,
      "## kli": 2141,
      "## tři": 2142,
      "##zrak": 2143,
      "##řek": 2144,
      "##pos": 2145,
      "## světě": 2146,
      "##jich": 2147,
      "## pane": 2148,
      "##,\nod": 2149,
      "## Pra": 2150,
      "## slávy": 2151,
      "##ském": 2152,
      "## nena": 2153,
      "##.\nB": 2154,
      "## otec": 2155,
      "##lez": 2156,
      "##chvá": 2157,
      "## dřív": 2158,
      "## vzdo": 2159,
      "##mý": 2160,
      "## našich": 2161,
      "##pů": 2162,
      "## měk": 2163,
      "##věti": 2164,
      "##stříc": 2165,
      "##tak": 2166,
      "##str": 2167,
      "##mlu": 2168,
      "##dají": 2169,
      "## krát": 2170,
      "##?\nV": 2171,
      "## – –\n": 2172,
      "##cy": 2173,
      "##šně": 2174,
      "## ran": 2175,
      "##ch a": 2176,
      "## všechno": 2177,
      "## hlá": 2178,
      "## buj": 2179,
      "##šet": 2180,
      "## skal": 2181,
      "##lav": 2182,
      "## se u": 2183,
      "## váž": 2184,
      "##? ": 2185,
      "## vele": 2186,
      "##Li": 2187,
      "## žlu": 2188,
      "## beze": 2189,
      "##us": 2190,
      "##ráz": 2191,
      "##víc": 2192,
      "##ša": 2193,
      "##hli": 2194,
      "## mysli": 2195,
      "##,\nta": 2196,
      "##.\nTak": 2197,
      "## skrý": 2198,
      "## ducha": 2199,
      "## bůh": 2200,
      "##,\nD": 2201,
      "##tají": 2202,
      "## proto": 2203,
      "## místo": 2204,
      "## ško": 2205,
      "##šku": 2206,
      "##nik": 2207,
      "## zraky": 2208,
      "## města": 2209,
      "##ždý": 2210,
      "## v ú": 2211,
      "## světem": 2212,
      "## y": 2213,
      "## byly": 2214,
      "##vad": 2215,
      "## třpy": 2216,
      "##náší": 2217,
      "## sama": 2218,
      "## bys": 2219,
      "## blaho": 2220,
      "## kon": 2221,
      "##,\nJe": 2222,
      "##,\nJ": 2223,
      "## pot": 2224,
      "## posta": 2225,
      "## hruď": 2226,
      "##ný,": 2227,
      "##.\n\n\nÓ": 2228,
      "## ct": 2229,
      "## hovo": 2230,
      "##liš": 2231,
      "##,\nJak": 2232,
      "## náro": 2233,
      "##sen": 2234,
      "## chmu": 2235,
      "## jiné": 2236,
      "##léb": 2237,
      "## potom": 2238,
      "##rech": 2239,
      "##,\nó": 2240,
      "## rychle": 2241,
      "##řít": 2242,
      "## obzo": 2243,
      "## hrobu": 2244,
      "##?“\n\n\n": 2245,
      "## vůně": 2246,
      "##oc": 2247,
      "##es": 2248,
      "##vati": 2249,
      "## výše": 2250,
      "##dob": 2251,
      "##vila": 2252,
      "##vod": 2253,
      "##dali": 2254,
      "##stech": 2255,
      "## černé": 2256,
      "## byli": 2257,
      "##ala": 2258,
      "## dost": 2259,
      "## moři": 2260,
      "## pev": 2261,
      "## šum": 2262,
      "##!\nM": 2263,
      "## cit": 2264,
      "## svatý": 2265,
      "##\n„": 2266,
      "## nemá": 2267,
      "##spoň": 2268,
      "##Roz": 2269,
      "## sti": 2270,
      "## chý": 2271,
      "##,\nmá": 2272,
      "##\nvše": 2273,
      "##něm": 2274,
      "##\nsi": 2275,
      "## dolů": 2276,
      "##,\non": 2277,
      "##Či": 2278,
      "##, vě": 2279,
      "## koru": 2280,
      "## křídla": 2281,
      "## dar": 2282,
      "## oba": 2283,
      "## dé": 2284,
      "##hned": 2285,
      "## slunci": 2286,
      "## stru": 2287,
      "##nko": 2288,
      "## těla": 2289,
      "##!\n\n\nS": 2290,
      "## jaro": 2291,
      "## tří": 2292,
      "## kamen": 2293,
      "##.\nJá": 2294,
      "##věz": 2295,
      "##cela": 2296,
      "## cítí": 2297,
      "##stane": 2298,
      "## jara": 2299,
      "## marně": 2300,
      "## záře": 2301,
      "## zdra": 2302,
      "## vlny": 2303,
      "##\nD": 2304,
      "##ari": 2305,
      "## měsíc": 2306,
      "##stil": 2307,
      "## anděl": 2308,
      "## hní": 2309,
      "##ův": 2310,
      "## vody": 2311,
      "##!\nT": 2312,
      "## čím": 2313,
      "## matka": 2314,
      "## usmí": 2315,
      "##,\nko": 2316,
      "## se o": 2317,
      "## čele": 2318,
      "## se mu": 2319,
      "##dli": 2320,
      "## polo": 2321,
      "##, ten": 2322,
      "## dívá": 2323,
      "## obje": 2324,
      "## žije": 2325,
      "## cesty": 2326,
      "## žár": 2327,
      "## doby": 2328,
      "##jíž": 2329,
      "## mém": 2330,
      "## žen": 2331,
      "##, ve": 2332,
      "## mojí": 2333,
      "##kání": 2334,
      "## tisíc": 2335,
      "## ke mně": 2336,
      "## líce": 2337,
      "##ke": 2338,
      "##žit": 2339,
      "## I": 2340,
      "## pros": 2341,
      "## dosud": 2342,
      "##lét": 2343,
      "##dám": 2344,
      "##;\nv": 2345,
      "##.\n\n\nH": 2346,
      "## vím": 2347,
      "## prch": 2348,
      "##\nNe": 2349,
      "## krva": 2350,
      "##boj": 2351,
      "##rnou": 2352,
      "## ply": 2353,
      "## neví": 2354,
      "## spat": 2355,
      "## zpět": 2356,
      "## prů": 2357,
      "##\nmu": 2358,
      "## svi": 2359,
      "## se chvě": 2360,
      "## modlit": 2361,
      "## děv": 2362,
      "## vidím": 2363,
      "##lení": 2364,
      "##dila": 2365,
      "## Ho": 2366,
      "## půj": 2367,
      "##šlo": 2368,
      "## bol": 2369,
      "## máš": 2370,
      "## k nebi": 2371,
      "##čá": 2372,
      "## rov": 2373,
      "## mít": 2374,
      "##,\nB": 2375,
      "## chla": 2376,
      "## tolik": 2377,
      "##buď": 2378,
      "##šek": 2379,
      "##nula": 2380,
      "## králov": 2381,
      "##bla": 2382,
      "## domo": 2383,
      "##:\n\n\n„": 2384,
      "##rád": 2385,
      "## muže": 2386,
      "##šky": 2387,
      "## hlavě": 2388,
      "##cký": 2389,
      "## z nich": 2390,
      "##, aby": 2391,
      "##?\n\n": 2392,
      "## svému": 2393,
      "## okem": 2394,
      "##.\nH": 2395,
      "## zah": 2396,
      "## von": 2397,
      "##del": 2398,
      "## zved": 2399,
      "##valo": 2400,
      "## hoř": 2401,
      "## prach": 2402,
      "##\nto": 2403,
      "##tila": 2404,
      "##j,": 2405,
      "## krví": 2406,
      "##níže": 2407,
      "##rám": 2408,
      "##diny": 2409,
      "## opu": 2410,
      "## dým": 2411,
      "##tk": 2412,
      "##,\nvz": 2413,
      "## touha": 2414,
      "##kra": 2415,
      "##man": 2416,
      "## dých": 2417,
      "## k zemi": 2418,
      "##\njsem": 2419,
      "##jal": 2420,
      "## časem": 2421,
      "## naši": 2422,
      "##nému": 2423,
      "## meč": 2424,
      "##, bez": 2425,
      "## pta": 2426,
      "## stromů": 2427,
      "##ech": 2428,
      "##?\nA": 2429,
      "##nání": 2430,
      "##seň": 2431,
      "##hlo": 2432,
      "##\npři": 2433,
      "## dvě": 2434,
      "##ča": 2435,
      "##ěl": 2436,
      "##nat": 2437,
      "## nohou": 2438,
      "##Byl": 2439,
      "## se ne": 2440,
      "## ša": 2441,
      "## stínu": 2442,
      "## cestou": 2443,
      "##hých": 2444,
      "## celá": 2445,
      "## zvolna": 2446,
      "##křik": 2447,
      "## ký": 2448,
      "## kole": 2449,
      "## bouří": 2450,
      "## dý": 2451,
      "## stříb": 2452,
      "##ju": 2453,
      "##las": 2454,
      "## or": 2455,
      "## zřel": 2456,
      "##pomen": 2457,
      "## hloub": 2458,
      "## mým": 2459,
      "##ó": 2460,
      "## dálky": 2461,
      "##,\npři": 2462,
      "## dlouhé": 2463,
      "## stat": 2464,
      "##pak": 2465,
      "##,\nN": 2466,
      "## tisk": 2467,
      "## pták": 2468,
      "##\nmi": 2469,
      "## mír": 2470,
      "##án": 2471,
      "##li se": 2472,
      "##, od": 2473,
      "## as": 2474,
      "##.\n\n\nTu": 2475,
      "## krásné": 2476,
      "## kdysi": 2477,
      "## milý": 2478,
      "## hrad": 2479,
      "##prv": 2480,
      "##tich": 2481,
      "## bílá": 2482,
      "##vždy": 2483,
      "##hlu": 2484,
      "##. Z": 2485,
      "##blou": 2486,
      "## k němu": 2487,
      "## hlasem": 2488,
      "## mohu": 2489,
      "## kraje": 2490,
      "##.\nCo": 2491,
      "## říci": 2492,
      "##.\nTu": 2493,
      "## svit": 2494,
      "## zbra": 2495,
      "## myšlé": 2496,
      "##ůně": 2497,
      "## Po": 2498,
      "##t a": 2499,
      "## zví": 2500,
      "##vin": 2501,
      "## tvrd": 2502,
      "##vec": 2503,
      "##díš": 2504,
      "## lidské": 2505,
      "##.\nU": 2506,
      "## plný": 2507,
      "## blíž": 2508,
      "##...\n\n\nA": 2509,
      "## dává": 2510,
      "## se to": 2511,
      "##sná": 2512,
      "##lunce": 2513,
      "## sny": 2514,
      "## ruky": 2515,
      "##tele": 2516,
      "## Pa": 2517,
      "## ska": 2518,
      "## je to": 2519,
      "##řo": 2520,
      "## znova": 2521,
      "## tý": 2522,
      "## stará": 2523,
      "## peru": 2524,
      "##...\nA": 2525,
      "## růží": 2526,
      "## up": 2527,
      "##čin": 2528,
      "##dat": 2529,
      "##náš": 2530,
      "##;\nA": 2531,
      "##čet": 2532,
      "##děli": 2533,
      "##nila": 2534,
      "## sladké": 2535,
      "## měla": 2536,
      "##ůl": 2537,
      "## je v": 2538,
      "##blí": 2539,
      "##? –\n": 2540,
      "## kap": 2541,
      "##jel": 2542,
      "##rom": 2543,
      "##koli": 2544,
      "##lého": 2545,
      "## lesy": 2546,
      "## oblo": 2547,
      "##ál": 2548,
      "## živ": 2549,
      "## mluví": 2550,
      "##zeň": 2551,
      "## Ma": 2552,
      "## čela": 2553,
      "## něco": 2554,
      "## s ním": 2555,
      "##teli": 2556,
      "##ur": 2557,
      "##hly": 2558,
      "##.\n\n\nU": 2559,
      "##lyší": 2560,
      "## opo": 2561,
      "## cha": 2562,
      "## milost": 2563,
      "##šte": 2564,
      "##tru": 2565,
      "## drahá": 2566,
      "## ústa": 2567,
      "## skvě": 2568,
      "## příro": 2569,
      "## myslí": 2570,
      "## sníh": 2571,
      "##dina": 2572,
      "##mír": 2573,
      "##jme": 2574,
      "## uz": 2575,
      "## zápas": 2576,
      "##kr": 2577,
      "##! V": 2578,
      "## této": 2579,
      "## na to": 2580,
      "##tost": 2581,
      "## hníz": 2582,
      "## matky": 2583,
      "## zře": 2584,
      "##.\n\n\nZa": 2585,
      "##kon": 2586,
      "##jně": 2587,
      "## vzhůru": 2588,
      "## jiný": 2589,
      "## vod": 2590,
      "##,\nkam": 2591,
      "## zby": 2592,
      "##.\n\n\nJá": 2593,
      "## hledá": 2594,
      "##Kde": 2595,
      "##̌ím": 2596,
      "## drahé": 2597,
      "## myšlen": 2598,
      "## drob": 2599,
      "##šné": 2600,
      "## k sobě": 2601,
      "## tre": 2602,
      "## ver": 2603,
      "## minu": 2604,
      "##,\npod": 2605,
      "##hlas": 2606,
      "##!“\n\n": 2607,
      "## otro": 2608,
      "##šší": 2609,
      "##.\n\n\nCo": 2610,
      "##dl": 2611,
      "##.\n\n\nI": 2612,
      "## Š": 2613,
      "##, tam": 2614,
      "##Od": 2615,
      "##,\nni": 2616,
      "##jít": 2617,
      "## oltá": 2618,
      "##kat": 2619,
      "## dole": 2620,
      "## chvil": 2621,
      "## celou": 2622,
      "## Ti": 2623,
      "## všechny": 2624,
      "## vlí": 2625,
      "##.\nI": 2626,
      "##dál": 2627,
      "##, roz": 2628,
      "## hře": 2629,
      "## klá": 2630,
      "## nap": 2631,
      "## nád": 2632,
      "##\nsvé": 2633,
      "## tvého": 2634,
      "## věčné": 2635,
      "## vzdá": 2636,
      "## strom": 2637,
      "##ž se": 2638,
      "##k a": 2639,
      "## zvy": 2640,
      "##sel": 2641,
      "## věků": 2642,
      "##teč": 2643,
      "##vol": 2644,
      "## šle": 2645,
      "## hlí": 2646,
      "## na ně": 2647,
      "## vyso": 2648,
      "## ramen": 2649,
      "## hloubi": 2650,
      "##ic": 2651,
      "##On": 2652,
      "##žení": 2653,
      "## zápa": 2654,
      "## kámen": 2655,
      "## stou": 2656,
      "##te,": 2657,
      "## ret": 2658,
      "## zjev": 2659,
      "## druhé": 2660,
      "## kráčí": 2661,
      "## míru": 2662,
      "##ali": 2663,
      "## touhou": 2664,
      "## větší": 2665,
      "## rak": 2666,
      "##cu": 2667,
      "##\na za": 2668,
      "##;\nV": 2669,
      "##Že": 2670,
      "## jarní": 2671,
      "##ové": 2672,
      "##čkou": 2673,
      "##bled": 2674,
      "## tmy": 2675,
      "##lku": 2676,
      "## syn": 2677,
      "## pest": 2678,
      "Na": 2679,
      "## druž": 2680,
      "## kříž": 2681,
      "##Buď": 2682,
      "##vůr": 2683,
      "## zmí": 2684,
      "## konec": 2685,
      "## prachu": 2686,
      "##rní": 2687,
      "## rány": 2688,
      "##, ale": 2689,
      "## sladký": 2690,
      "##slou": 2691,
      "## příliš": 2692,
      "##\nby": 2693,
      "##kala": 2694,
      "##deme": 2695,
      "##,\nvždyť": 2696,
      "## tvém": 2697,
      "## proud": 2698,
      "##vce": 2699,
      "##\ntě": 2700,
      "##\ntu": 2701,
      "##chal": 2702,
      "##stává": 2703,
      "## všichni": 2704,
      "## vzal": 2705,
      "## pal": 2706,
      "## tiché": 2707,
      "## bal": 2708,
      "## srdcem": 2709,
      "## plné": 2710,
      "## chat": 2711,
      "## hrudi": 2712,
      "## výš": 2713,
      "##tný": 2714,
      "## ohni": 2715,
      "## sr": 2716,
      "##bní": 2717,
      "##š-li": 2718,
      "##kaz": 2719,
      "## všude": 2720,
      "## boje": 2721,
      "##dky": 2722,
      "##klad": 2723,
      "##les": 2724,
      "## zdvi": 2725,
      "## lesů": 2726,
      "##, i": 2727,
      "##Když": 2728,
      "##zim": 2729,
      "## náruč": 2730,
      "## příští": 2731,
      "##hni": 2732,
      "## prost": 2733,
      "## slaví": 2734,
      "##mutek": 2735,
      "## neznám": 2736,
      "##tám": 2737,
      "##rách": 2738,
      "## dosti": 2739,
      "## vzdech": 2740,
      "## doma": 2741,
      "## tichý": 2742,
      "## klidně": 2743,
      "##ávi": 2744,
      "## Bohu": 2745,
      "## dám": 2746,
      "## smá": 2747,
      "## době": 2748,
      "##\nže": 2749,
      "##tev": 2750,
      "##dala": 2751,
      "## Mi": 2752,
      "## císa": 2753,
      "##.\n\n\nKdyž": 2754,
      "## jedna": 2755,
      "## Boží": 2756,
      "##klí": 2757,
      "##trem": 2758,
      "## nelze": 2759,
      "## na mne": 2760,
      "## moji": 2761,
      "##vými": 2762,
      "##ader": 2763,
      "## čest": 2764,
      "## oheň": 2765,
      "##ryč": 2766,
      "## písni": 2767,
      "## léta": 2768,
      "##.\nZa": 2769,
      "##vej": 2770,
      "## dobré": 2771,
      "## listí": 2772,
      "##řen": 2773,
      "##větě": 2774,
      "## víru": 2775,
      "## fi": 2776,
      "##! –\n\n\n": 2777,
      "##chou": 2778,
      "## md": 2779,
      "## v ní": 2780,
      "##last": 2781,
      "## kvítí": 2782,
      "## hrobě": 2783,
      "##\npřed": 2784,
      "## zbož": 2785,
      "##dno": 2786,
      "## vlasy": 2787,
      "Jak": 2788,
      "## ztrá": 2789,
      "##!\nP": 2790,
      "## vstříc": 2791,
      "##,\nH": 2792,
      "##vírá": 2793,
      "##,\nmy": 2794,
      "## řeč": 2795,
      "## praví": 2796,
      "##,\nač": 2797,
      "## snění": 2798,
      "##zku": 2799,
      "##\n–": 2800,
      "##!\nNe": 2801,
      "## Te": 2802,
      "##stvo": 2803,
      "## mile": 2804,
      "## se vy": 2805,
      "## úst": 2806,
      "##čná": 2807,
      "##,\nzda": 2808,
      "## blanky": 2809,
      "##.\n\n\nJen": 2810,
      "##řem": 2811,
      "## obe": 2812,
      "##šen": 2813,
      "## prosto": 2814,
      "## splý": 2815,
      "##!\n\n\nM": 2816,
      "## závo": 2817,
      "##tně": 2818,
      "##hr": 2819,
      "## vedle": 2820,
      "## ků": 2821,
      "## pláče": 2822,
      "## ňader": 2823,
      "## dobrý": 2824,
      "##tří": 2825,
      "##,\nKdyž": 2826,
      "## sedí": 2827,
      "##fi": 2828,
      "## a na": 2829,
      "##kají": 2830,
      "## žil": 2831,
      "##!“\n\n\n„": 2832,
      "## mladé": 2833,
      "## roste": 2834,
      "## lep": 2835,
      "##. M": 2836,
      "##, P": 2837,
      "## dej": 2838,
      "## břehu": 2839,
      "## lidstva": 2840,
      "## pil": 2841,
      "## zdo": 2842,
      "##lila": 2843,
      "##lova": 2844,
      "##\na po": 2845,
      "##ly v": 2846,
      "## žít": 2847,
      "## vez": 2848,
      "## motý": 2849,
      "## ráno": 2850,
      "##s v": 2851,
      "## kva": 2852,
      "##?\nS": 2853,
      "##, má": 2854,
      "##bito": 2855,
      "##!“\n\n\nA": 2856,
      "##pěv": 2857,
      "##dka": 2858,
      "##met": 2859,
      "##her": 2860,
      "##zvu": 2861,
      "## řeči": 2862,
      "## očích": 2863,
      "## kmen": 2864,
      "##. P": 2865,
      "## Boha": 2866,
      "##neš": 2867,
      "##noucí": 2868,
      "##Bože": 2869,
      "## sle": 2870,
      "## pravil": 2871,
      "## pláč": 2872,
      "## času": 2873,
      "## svěží": 2874,
      "##\nH": 2875,
      "##nouti": 2876,
      "## světu": 2877,
      "## kráse": 2878,
      "## cen": 2879,
      "##kamži": 2880,
      "##otva": 2881,
      "## zrá": 2882,
      "##čnou": 2883,
      "##jí se": 2884,
      "## poto": 2885,
      "##hor": 2886,
      "## muži": 2887,
      "##,\nvždy": 2888,
      "## pamě": 2889,
      "## jiz": 2890,
      "## hvězda": 2891,
      "## Ne": 2892,
      "## nekone": 2893,
      "## spou": 2894,
      "## vede": 2895,
      "## mají": 2896,
      "## síla": 2897,
      "##dlí": 2898,
      "##neb": 2899,
      "## trp": 2900,
      "## se mnou": 2901,
      "##váš": 2902,
      "##\nch": 2903,
      "##.\nÓ": 2904,
      "##\nvz": 2905,
      "##lky": 2906,
      "##, jejž": 2907,
      "## budeš": 2908,
      "##dek": 2909,
      "## mladý": 2910,
      "## dve": 2911,
      "## vln": 2912,
      "## asi": 2913,
      "##dosti": 2914,
      "## dětí": 2915,
      "##\nten": 2916,
      "## lesa": 2917,
      "##dých": 2918,
      "##, „": 2919,
      "## máme": 2920,
      "##cel": 2921,
      "## výši": 2922,
      "## skály": 2923,
      "##bli": 2924,
      "##šťast": 2925,
      "## požeh": 2926,
      "## prapo": 2927,
      "##nosť": 2928,
      "## uči": 2929,
      "## krok": 2930,
      "##d’": 2931,
      "##cháze": 2932,
      "## básní": 2933,
      "## šumí": 2934,
      "##všem": 2935,
      "## chle": 2936,
      "##jích": 2937,
      "## nim": 2938,
      "## smys": 2939,
      "## pých": 2940,
      "## –\n„": 2941,
      "## čá": 2942,
      "## stromy": 2943,
      "## chá": 2944,
      "##, lá": 2945,
      "##růpě": 2946,
      "##bře": 2947,
      "##nami": 2948,
      "##zím": 2949,
      "##jas": 2950,
      "##,\nka": 2951,
      "## dou": 2952,
      "##vobo": 2953,
      "##ilý": 2954,
      "## vlas": 2955,
      "## naděje": 2956,
      "##,\nJen": 2957,
      "##ná,": 2958,
      "## slov": 2959,
      "##\nB": 2960,
      "## kmi": 2961,
      "##hně": 2962,
      "##\nta": 2963,
      "## srdcí": 2964,
      "##\nN": 2965,
      "## radosti": 2966,
      "## lidem": 2967,
      "## jméno": 2968,
      "##rej": 2969,
      "## cítím": 2970,
      "## blý": 2971,
      "##li v": 2972,
      "##.\nJen": 2973,
      "## sho": 2974,
      "## ráj": 2975,
      "## ráz": 2976,
      "## okna": 2977,
      "##něl": 2978,
      "## vzdy": 2979,
      "## cesta": 2980,
      "## malý": 2981,
      "##št": 2982,
      "## na po": 2983,
      "## jazy": 2984,
      "## rty": 2985,
      "##říš": 2986,
      "## všemi": 2987,
      "## bouři": 2988,
      "## k nám": 2989,
      "## a po": 2990,
      "##neše": 2991,
      "##lené": 2992,
      "## slyšel": 2993,
      "##ření": 2994,
      "## zrakem": 2995,
      "## soud": 2996,
      "##;\ns": 2997,
      "##stva": 2998,
      "##Již": 2999,
      "##,\nteď": 3000,
      "##\nroz": 3001,
      "## chodí": 3002,
      "##nčí": 3003,
      "## Mo": 3004,
      "##kni": 3005,
      "## jinak": 3006,
      "##vá se": 3007,
      "## duchu": 3008,
      "##,\nsnad": 3009,
      "## sílu": 3010,
      "## boku": 3011,
      "## snu": 3012,
      "##stat": 3013,
      "## hlad": 3014,
      "## cítil": 3015,
      "##amo": 3016,
      "##, neb": 3017,
      "##jdou": 3018,
      "## tla": 3019,
      "## bratří": 3020,
      "##hna": 3021,
      "## otevře": 3022,
      "## rytí": 3023,
      "## znovu": 3024,
      "##,\nba": 3025,
      "##lka": 3026,
      "## černý": 3027,
      "## jmen": 3028,
      "## mizí": 3029,
      "##, ta": 3030,
      "## jaký": 3031,
      "##, při": 3032,
      "##vuje": 3033,
      "##\nzas": 3034,
      "##hým": 3035,
      "## šla": 3036,
      "##cet": 3037,
      "## veče": 3038,
      "## chrám": 3039,
      "##, ni": 3040,
      "##volá": 3041,
      "## rozum": 3042,
      "##pení": 3043,
      "##livě": 3044,
      "## věčný": 3045,
      "##slo": 3046,
      "##hám": 3047,
      "## pově": 3048,
      "##ších": 3049,
      "## každá": 3050,
      "##šný": 3051,
      "##, proč": 3052,
      "##t’": 3053,
      "##ale": 3054,
      "## budouc": 3055,
      "##?\nZ": 3056,
      "## bije": 3057,
      "## aspoň": 3058,
      "## poví": 3059,
      "## sláva": 3060,
      "## stráž": 3061,
      "##duch": 3062,
      "## vůle": 3063,
      "## těm": 3064,
      "## pravda": 3065,
      "## mnohý": 3066,
      "##!\n\n\nT": 3067,
      "## Ro": 3068,
      "##rk": 3069,
      "## nev": 3070,
      "## svými": 3071,
      "##kru": 3072,
      "## stvo": 3073,
      "##tec": 3074,
      "##tvo": 3075,
      "## tento": 3076,
      "## starých": 3077,
      "##,\nroz": 3078,
      "## i v": 3079,
      "##\ntam": 3080,
      "## ples": 3081,
      "## milosti": 3082,
      "## kříže": 3083,
      "##zý": 3084,
      "## domu": 3085,
      "## spi": 3086,
      "## tisíce": 3087,
      "## kdyby": 3088,
      "## tvým": 3089,
      "## město": 3090,
      "## mži": 3091,
      "##ž v": 3092,
      "##pit": 3093,
      "##, vi": 3094,
      "## pravdu": 3095,
      "## pomo": 3096,
      "## brzy": 3097,
      "##go": 3098,
      "##čas": 3099,
      "##;\nz": 3100,
      "##staň": 3101,
      "## běda": 3102,
      "## páni": 3103,
      "## nesmí": 3104,
      "## Li": 3105,
      "##,\nBy": 3106,
      "##.\nR": 3107,
      "## rázem": 3108,
      "## jedné": 3109,
      "## blaže": 3110,
      "## třá": 3111,
      "## dnů": 3112,
      "##stím": 3113,
      "##řila": 3114,
      "## pé": 3115,
      "## na ni": 3116,
      "## druhý": 3117,
      "##tým": 3118,
      "##cně": 3119,
      "## milu": 3120,
      "## žíti": 3121,
      "## milé": 3122,
      "## v nich": 3123,
      "##!\nJak": 3124,
      "## slyší": 3125,
      "##věd": 3126,
      "## záhy": 3127,
      "##. T": 3128,
      "##kot": 3129,
      "##eni": 3130,
      "## v ko": 3131,
      "##dných": 3132,
      "##ché": 3133,
      "##de mnou": 3134,
      "## –\nv": 3135,
      "##, bo": 3136,
      "## se sta": 3137,
      "## drahý": 3138,
      "## Pán": 3139,
      "##\nU": 3140,
      "## zřím": 3141,
      "## jasné": 3142,
      "##\nko": 3143,
      "## plane": 3144,
      "## malé": 3145,
      "##.\n\n\nR": 3146,
      "## zač": 3147,
      "## krále": 3148,
      "## věr": 3149,
      "## man": 3150,
      "## nohy": 3151,
      "## těžké": 3152,
      "##, pane": 3153,
      "##, či": 3154,
      "## k tomu": 3155,
      "##,\njich": 3156,
      "##dání": 3157,
      "## otce": 3158,
      "## Řím": 3159,
      "## klín": 3160,
      "## rost": 3161,
      "## za to": 3162,
      "## posled": 3163,
      "##při": 3164,
      "##.\n\n\nDo": 3165,
      "## hřbito": 3166,
      "## nebyl": 3167,
      "## pramen": 3168,
      "## míti": 3169,
      "## zapomně": 3170,
      "##hlá": 3171,
      "## možno": 3172,
      "##pěl": 3173,
      "## zemí": 3174,
      "##ane": 3175,
      "## dům": 3176,
      "##cené": 3177,
      "##,\nproč": 3178,
      "##slu": 3179,
      "##bky": 3180,
      "## loď": 3181,
      "## bás": 3182,
      "## klam": 3183,
      "##dro": 3184,
      "##esi": 3185,
      "## prsa": 3186,
      "## dvé": 3187,
      "##žíš": 3188,
      "##,\nbez": 3189,
      "## try": 3190,
      "##“\n\n\n": 3191,
      "##jíce": 3192,
      "## k ní": 3193,
      "##tno": 3194,
      "##cům": 3195,
      "##tor": 3196,
      "## podzim": 3197,
      "## klet": 3198,
      "##!\n\n\nZ": 3199,
      "## květu": 3200,
      "##nak": 3201,
      "## posud": 3202,
      "## za ním": 3203,
      "## modré": 3204,
      "## dát": 3205,
      "## milen": 3206,
      "## ráda": 3207,
      "##čila": 3208,
      "##cad": 3209,
      "## krůpě": 3210,
      "## líc": 3211,
      "##,\nho": 3212,
      "## zázrak": 3213,
      "## pout": 3214,
      "##Lá": 3215,
      "##bé": 3216,
      "##jším": 3217,
      "##mách": 3218,
      "## rozp": 3219,
      "## mysl": 3220,
      "## dívka": 3221,
      "## koně": 3222,
      "##Ko": 3223,
      "## Vám": 3224,
      "##žší": 3225,
      "## Pro": 3226,
      "##,\nKde": 3227,
      "## mohl": 3228,
      "## takto": 3229,
      "##Však": 3230,
      "##rat": 3231,
      "##ama": 3232,
      "## Tobě": 3233,
      "##stvím": 3234,
      "##řív": 3235,
      "## děla": 3236,
      "##\nsvou": 3237,
      "## ptáci": 3238,
      "## krásný": 3239,
      "##\nvždy": 3240,
      "##padá": 3241,
      "## Pe": 3242,
      "##lk": 3243,
      "##nd": 3244,
      "## napos": 3245,
      "## v noci": 3246,
      "## mdlo": 3247,
      "##kří": 3248,
      "## Tě": 3249,
      "##naven": 3250,
      "##ško": 3251,
      "##nění": 3252,
      "##pátky": 3253,
      "## rozkoš": 3254,
      "##\nti": 3255,
      "##lený": 3256,
      "## hlaho": 3257,
      "## teprv": 3258,
      "## temno": 3259,
      "## růžo": 3260,
      "## truch": 3261,
      "## hněv": 3262,
      "##Nuž": 3263,
      "## útě": 3264,
      "## stejně": 3265,
      "##blo": 3266,
      "##kého": 3267,
      "##pří": 3268,
      "## povz": 3269,
      "##aždý": 3270,
      "## moci": 3271,
      "##drá": 3272,
      "## sme": 3273,
      "## –\nvšak": 3274,
      "## bratr": 3275,
      "##rci": 3276,
      "## jednu": 3277,
      "## zdro": 3278,
      "##tvá": 3279,
      "##,\nmo": 3280,
      "## ráje": 3281,
      "## chceš": 3282,
      "## pravdy": 3283,
      "## oku": 3284,
      "## nedá": 3285,
      "##eli": 3286,
      "## jejím": 3287,
      "## zítra": 3288,
      "##, vše": 3289,
      "##, ru": 3290,
      "##.\n\n\nTy": 3291,
      "## dala": 3292,
      "## ďá": 3293,
      "## has": 3294,
      "## jít": 3295,
      "## dlouhý": 3296,
      "## vzduch": 3297,
      "## naň": 3298,
      "##ješ": 3299,
      "## bohem": 3300,
      "##zra": 3301,
      "## dum": 3302,
      "##stala": 3303,
      "## bílých": 3304,
      "##jdu": 3305,
      "## Tvé": 3306,
      "## vámi": 3307,
      "##\nty": 3308,
      "## ženu": 3309,
      "##kvet": 3310,
      "##nese": 3311,
      "## české": 3312,
      "## obrá": 3313,
      "## jehož": 3314,
      "## řekl": 3315,
      "## mění": 3316,
      "## v světě": 3317,
      "## –\nA": 3318,
      "##amě": 3319,
      "## Kar": 3320,
      "## růz": 3321,
      "##bit": 3322,
      "## těle": 3323,
      "## bojo": 3324,
      "## doko": 3325,
      "## slza": 3326,
      "## onen": 3327,
      "## proč": 3328,
      "##lič": 3329,
      "## měsí": 3330,
      "## tenkrát": 3331,
      "##dách": 3332,
      "## musím": 3333,
      "## sladce": 3334,
      "## vrcho": 3335,
      "## velká": 3336,
      "## blíz": 3337,
      "## k tobě": 3338,
      "##řů": 3339,
      "##, zla": 3340,
      "## nak": 3341,
      "## Lu": 3342,
      "## kali": 3343,
      "##,\nti": 3344,
      "## Čech": 3345,
      "##ene": 3346,
      "## řečí": 3347,
      "## –\ns": 3348,
      "## spra": 3349,
      "## služ": 3350,
      "## zvoní": 3351,
      "##mar": 3352,
      "## hlo": 3353,
      "##boť": 3354,
      "## zaš": 3355,
      "##,\nR": 3356,
      "##.\nDo": 3357,
      "## probu": 3358,
      "## noční": 3359,
      "## objetí": 3360,
      "##nům": 3361,
      "##, ví": 3362,
      "## denně": 3363,
      "##rozen": 3364,
      "## slyším": 3365,
      "##čej": 3366,
      "## věc": 3367,
      "## krásná": 3368,
      "## zdrá": 3369,
      "## staro": 3370,
      "## pevně": 3371,
      "##tém": 3372,
      "## slávu": 3373,
      "## jež": 3374,
      "##je se": 3375,
      "##lách": 3376,
      "## dříve": 3377,
      "##chrá": 3378,
      "##raj": 3379,
      "## blaha": 3380,
      "## vzác": 3381,
      "##?\nM": 3382,
      "## hospo": 3383,
      "##! S": 3384,
      "## koste": 3385,
      "## cos": 3386,
      "##alo": 3387,
      "## zhas": 3388,
      "## zapla": 3389,
      "##, zda": 3390,
      "##bat": 3391,
      "##mrak": 3392,
      "## val": 3393,
      "## touží": 3394,
      "##jednou": 3395,
      "##vice": 3396,
      "## které": 3397,
      "##kví": 3398,
      "##\nDo": 3399,
      "##leh": 3400,
      "##Ji": 3401,
      "## zadu": 3402,
      "##, S": 3403,
      "## táhne": 3404,
      "##nen": 3405,
      "##rozu": 3406,
      "## okamži": 3407,
      "##noc": 3408,
      "##domí": 3409,
      "##bů": 3410,
      "## scho": 3411,
      "## ubo": 3412,
      "##tnou": 3413,
      "##mím": 3414,
      "## jeze": 3415,
      "##,\na z": 3416,
      "## rudé": 3417,
      "##cti": 3418,
      "##mat": 3419,
      "## spas": 3420,
      "##,\nU": 3421,
      "## jsem v": 3422,
      "## An": 3423,
      "Je": 3424,
      "##jímá": 3425,
      "## vůli": 3426,
      "## chrámu": 3427,
      "## přátel": 3428,
      "##pem": 3429,
      "## ňadra": 3430,
      "Po": 3431,
      "##hdy": 3432,
      "##raz": 3433,
      "## mrač": 3434,
      "## mraky": 3435,
      "## plí": 3436,
      "##\nbez": 3437,
      "##,\nbych": 3438,
      "## běží": 3439,
      "## Ji": 3440,
      "##\nco": 3441,
      "## psa": 3442,
      "##koj": 3443,
      "## zpo": 3444,
      "##lo v": 3445,
      "## dobro": 3446,
      "##bar": 3447,
      "## klidu": 3448,
      "## ju": 3449,
      "## přišla": 3450,
      "##tat": 3451,
      "##, M": 3452,
      "## člověka": 3453,
      "## odpově": 3454,
      "##diž": 3455,
      "## úsměvem": 3456,
      "## důvě": 3457,
      "## U": 3458,
      "## zám": 3459,
      "##niká": 3460,
      "##léz": 3461,
      "##ďte": 3462,
      "##, hle": 3463,
      "## kníže": 3464,
      "## hrou": 3465,
      "## nechce": 3466,
      "## tó": 3467,
      "## oka": 3468,
      "##kové": 3469,
      "##̌í": 3470,
      "## podo": 3471,
      "## jako v": 3472,
      "## zam": 3473,
      "## lože": 3474,
      "##kej": 3475,
      "## venku": 3476,
      "##au": 3477,
      "## sma": 3478,
      "## zlatá": 3479,
      "##bem": 3480,
      "##,\nCo": 3481,
      "##,\njejž": 3482,
      "## rok": 3483,
      "## bývá": 3484,
      "## slz": 3485,
      "##;\nS": 3486,
      "## chtěla": 3487,
      "## říše": 3488,
      "## kyne": 3489,
      "##Nu": 3490,
      "## vti": 3491,
      "## bří": 3492,
      "##nej": 3493,
      "## cestě": 3494,
      "## v té": 3495,
      "##,\nči": 3496,
      "## něj": 3497,
      "##!\n\n\nP": 3498,
      "## v dáli": 3499,
      "##, vo": 3500,
      "## časy": 3501,
      "## hudba": 3502,
      "Když": 3503,
      "## s tebou": 3504,
      "## v zá": 3505,
      "##né,": 3506,
      "##...“": 3507,
      "## lam": 3508,
      "##vatý": 3509,
      "## krokem": 3510,
      "## zvuk": 3511,
      "##!\nÓ": 3512,
      "## cest": 3513,
      "## mladá": 3514,
      "## každou": 3515,
      "##,\ntě": 3516,
      "## vztek": 3517,
      "## nepři": 3518,
      "## nepří": 3519,
      "## nepřá": 3520,
      "## malá": 3521,
      "##ctví": 3522,
      "## Bohem": 3523,
      "##hnul": 3524,
      "##šní": 3525,
      "##no,": 3526,
      "##asu": 3527,
      "## novou": 3528,
      "##sit": 3529,
      "## strany": 3530,
      "## kdes": 3531,
      "## ur": 3532,
      "## smutek": 3533,
      "## níz": 3534,
      "##cený": 3535,
      "##náše": 3536,
      "## Va": 3537,
      "##tam": 3538,
      "## vzplá": 3539,
      "## rtů": 3540,
      "##\nze": 3541,
      "## svatá": 3542,
      "## nevin": 3543,
      "##,\nzde": 3544,
      "##stli": 3545,
      "## Ja": 3546,
      "##\nR": 3547,
      "##\naž": 3548,
      "##bývá": 3549,
      "##,\nvě": 3550,
      "##dění": 3551,
      "##kvě": 3552,
      "## vítě": 3553,
      "## bledá": 3554,
      "##tná": 3555,
      "## kříd": 3556,
      "## zlata": 3557,
      "##mrtel": 3558,
      "##kojen": 3559,
      "## Ko": 3560,
      "## třetí": 3561,
      "##bně": 3562,
      "## zlatých": 3563,
      "## líci": 3564,
      "##.\n\n\nPak": 3565,
      "## prud": 3566,
      "## dle": 3567,
      "##, můj": 3568,
      "##žně": 3569,
      "##,\npřed": 3570,
      "##pý": 3571,
      "##Bůh": 3572,
      "## skři": 3573,
      "##š se": 3574,
      "##žené": 3575,
      "## Bože": 3576,
      "##rch": 3577,
      "## děs": 3578,
      "##dlé": 3579,
      "## –\nto": 3580,
      "## spad": 3581,
      "## sklání": 3582,
      "## kal": 3583,
      "##,\na na": 3584,
      "## palá": 3585,
      "## silou": 3586,
      "## slí": 3587,
      "##ne v": 3588,
      "##hlý": 3589,
      "## rod": 3590,
      "## podle": 3591,
      "##! A": 3592,
      "## čaro": 3593,
      "##,\njak by": 3594,
      "##nkou": 3595,
      "## om": 3596,
      "## řeky": 3597,
      "##dna": 3598,
      "##!\nD": 3599,
      "## boha": 3600,
      "## nezná": 3601,
      "## žalu": 3602,
      "## trou": 3603,
      "## hlasy": 3604,
      "## Mar": 3605,
      "## blíží": 3606,
      "##hnout": 3607,
      "##, nad": 3608,
      "## zcela": 3609,
      "## set": 3610,
      "##,\nzas": 3611,
      "## se tu": 3612,
      "##voje": 3613,
      "##hání": 3614,
      "##.\nTy": 3615,
      "## zdi": 3616,
      "##pomně": 3617,
      "## cti": 3618,
      "##,\njsem": 3619,
      "##čo": 3620,
      "## věk": 3621,
      "## při tom": 3622,
      "## paprsk": 3623,
      "##šit": 3624,
      "## budí": 3625,
      "## zatím": 3626,
      "## králi": 3627,
      "##roucí": 3628,
      "## místa": 3629,
      "##přá": 3630,
      "## kroky": 3631,
      "##\nJe": 3632,
      "## klad": 3633,
      "##star": 3634,
      "## jiných": 3635,
      "## rtech": 3636,
      "##ch!": 3637,
      "## krásu": 3638,
      "## mrtvých": 3639,
      "## konce": 3640,
      "##kvé": 3641,
      "## dlaň": 3642,
      "## dny": 3643,
      "## blesky": 3644,
      "## v ruce": 3645,
      "## zhy": 3646,
      "## lili": 3647,
      "## Ty": 3648,
      "## jino": 3649,
      "## předu": 3650,
      "## hradu": 3651,
      "## bohatý": 3652,
      "## use": 3653,
      "## vzduchu": 3654,
      "## han": 3655,
      "## jak v": 3656,
      "##. K": 3657,
      "## s námi": 3658,
      "## tichu": 3659,
      "## žádný": 3660,
      "##, še": 3661,
      "## skvost": 3662,
      "##rel": 3663,
      "## stesk": 3664,
      "##dku": 3665,
      "## chtí": 3666,
      "##tce": 3667,
      "## naz": 3668,
      "## – to": 3669,
      "##han": 3670,
      "## slávě": 3671,
      "##vrátí": 3672,
      "## vých": 3673,
      "## čt": 3674,
      "## bílou": 3675,
      "## dav": 3676,
      "##rek": 3677,
      "##žila": 3678,
      "##chra": 3679,
      "##,\nKte": 3680,
      "##rům": 3681,
      "##\nmá": 3682,
      "## hej": 3683,
      "##vot": 3684,
      "## cy": 3685,
      "##létá": 3686,
      "##nitř": 3687,
      "##, jí": 3688,
      "##liv": 3689,
      "## krása": 3690,
      "## líbá": 3691,
      "##zpí": 3692,
      "## voní": 3693,
      "## vůní": 3694,
      "##,\nkterý": 3695,
      "##,\nkteré": 3696,
      "##rok": 3697,
      "## vůkol": 3698,
      "## květi": 3699,
      "##rad": 3700,
      "## sty": 3701,
      "##!\n\n\nÓ": 3702,
      "##tar": 3703,
      "## někdo": 3704,
      "##, sy": 3705,
      "##zor": 3706,
      "##vili": 3707,
      "##.\n\n\nTeď": 3708,
      "## černých": 3709,
      "##Jsem": 3710,
      "## cíl": 3711,
      "## zoufal": 3712,
      "## nevím": 3713,
      "##lubi": 3714,
      "## jaké": 3715,
      "## v ni": 3716,
      "##,\nZa": 3717,
      "## dědi": 3718,
      "## stála": 3719,
      "##\nZa": 3720,
      "##cení": 3721,
      "##n a": 3722,
      "##dolí": 3723,
      "## pek": 3724,
      "## jediný": 3725,
      "## zrcad": 3726,
      "##vář": 3727,
      "##, pře": 3728,
      "## hý": 3729,
      "##.\n\n\nTam": 3730,
      "##rku": 3731,
      "##ád": 3732,
      "## žeh": 3733,
      "##dává": 3734,
      "## víry": 3735,
      "## se vrá": 3736,
      "##j se": 3737,
      "##livý": 3738,
      "##, svět": 3739,
      "##, ač": 3740,
      "## s ní": 3741,
      "## hvo": 3742,
      "##tala": 3743,
      "## červen": 3744,
      "## bolesti": 3745,
      "## sami": 3746,
      "##žné": 3747,
      "##\nmo": 3748,
      "##hro": 3749,
      "##:\nV": 3750,
      "## ránu": 3751,
      "## se pro": 3752,
      "##tče": 3753,
      "## tvr": 3754,
      "##bel": 3755,
      "##rky": 3756,
      "##když": 3757,
      "##bec": 3758,
      "## český": 3759,
      "## blíže": 3760,
      "## slyšet": 3761,
      "##ele": 3762,
      "##što": 3763,
      "## hez": 3764,
      "##žto": 3765,
      "##činy": 3766,
      "## visí": 3767,
      "##bné": 3768,
      "## krou": 3769,
      "## hnu": 3770,
      "##, jak by": 3771,
      "## třese": 3772,
      "##jo": 3773,
      "##dili": 3774,
      "##noho": 3775,
      "## všemu": 3776,
      "##\nho": 3777,
      "## ide": 3778,
      "## Ví": 3779,
      "##rných": 3780,
      "## ned": 3781,
      "## rej": 3782,
      "## s nimi": 3783,
      "## kat": 3784,
      "##žený": 3785,
      "## vše, co": 3786,
      "## bolu": 3787,
      "##,\nzá": 3788,
      "## smutně": 3789,
      "## v srdce": 3790,
      "##bůh": 3791,
      "## růži": 3792,
      "##šly": 3793,
      "## příše": 3794,
      "## slovem": 3795,
      "##bách": 3796,
      "##slav": 3797,
      "##\njá": 3798,
      "## klesá": 3799,
      "## v še": 3800,
      "## velkou": 3801,
      "## dechem": 3802,
      "## bledé": 3803,
      "##rát": 3804,
      "## mnohé": 3805,
      "## Páně": 3806,
      "##rka": 3807,
      "##stupu": 3808,
      "## nenávi": 3809,
      "## Ně": 3810,
      "## ři": 3811,
      "##nala": 3812,
      "## oblak": 3813,
      "##dlá": 3814,
      "## vlo": 3815,
      "##stři": 3816,
      "## nesou": 3817,
      "##, kteří": 3818,
      "##\nku": 3819,
      "## sten": 3820,
      "## lidský": 3821,
      "##.\n\n\nVše": 3822,
      "## hosti": 3823,
      "## úzko": 3824,
      "##ději": 3825,
      "##zení": 3826,
      "##,\nvi": 3827,
      "## na d": 3828,
      "##tud": 3829,
      "##hům": 3830,
      "##mní": 3831,
      "## obli": 3832,
      "##, mat": 3833,
      "## jak by": 3834,
      "##chom": 3835,
      "## stát": 3836,
      "## před ním": 3837,
      "## čisté": 3838,
      "## vášní": 3839,
      "## zmat": 3840,
      "## moh’": 3841,
      "## květem": 3842,
      "##bení": 3843,
      "##pusť": 3844,
      "## tvojí": 3845,
      "## dřímá": 3846,
      "##spě": 3847,
      "## čty": 3848,
      "## mlhy": 3849,
      "## já jsem": 3850,
      "##Proto": 3851,
      "## těžký": 3852,
      "## nepro": 3853,
      "## mrtvé": 3854,
      "##\nbyl": 3855,
      "## sté": 3856,
      "## věci": 3857,
      "##\nSe": 3858,
      "## zdá se": 3859,
      "## mni": 3860,
      "##.\nAle": 3861,
      "## tichá": 3862,
      "##čkem": 3863,
      "##kost": 3864,
      "## lehce": 3865,
      "## klu": 3866,
      "##řad": 3867,
      "##,\nsvé": 3868,
      "## plach": 3869,
      "## chra": 3870,
      "## ňadrech": 3871,
      "##nova": 3872,
      "## jitra": 3873,
      "##děti": 3874,
      "## měli": 3875,
      "## mlčí": 3876,
      "##uch": 3877,
      "## zástup": 3878,
      "## –\nz": 3879,
      "## vyšel": 3880,
      "## staví": 3881,
      "##dyby": 3882,
      "##vede": 3883,
      "##\nté": 3884,
      "## chvat": 3885,
      "## lidstvo": 3886,
      "##tkem": 3887,
      "##bám": 3888,
      "##š v": 3889,
      "## pláči": 3890,
      "##žný": 3891,
      "##zek": 3892,
      "##!\n\n\nNe": 3893,
      "##zky": 3894,
      "##, š": 3895,
      "## zba": 3896,
      "## dílo": 3897,
      "## mrtvo": 3898,
      "##ť se": 3899,
      "##krás": 3900,
      "## dýše": 3901,
      "## řas": 3902,
      "##Ba": 3903,
      "## jsem se": 3904,
      "##cý": 3905,
      "## halí": 3906,
      "## bro": 3907,
      "## plno": 3908,
      "##\nná": 3909,
      "## cu": 3910,
      "##!\n\n\nK": 3911,
      "## patří": 3912,
      "## skráň": 3913,
      "## zlatem": 3914,
      "## dvou": 3915,
      "##letě": 3916,
      "##jné": 3917,
      "## osu": 3918,
      "## utr": 3919,
      "## líto": 3920,
      "## vidět": 3921,
      "## vším": 3922,
      "##vřel": 3923,
      "##něn": 3924,
      "##.\nTam": 3925,
      "##,\nDo": 3926,
      "##lové": 3927,
      "##vor": 3928,
      "## rozu": 3929,
      "## ohněm": 3930,
      "## nežli": 3931,
      "##dni": 3932,
      "##,\njím": 3933,
      "##?\n\n\nA": 3934,
      "## ohně": 3935,
      "##l a": 3936,
      "##šic": 3937,
      "## se vra": 3938,
      "## syna": 3939,
      "##tne": 3940,
      "##, bra": 3941,
      "## ve mně": 3942,
      "## dali": 3943,
      "##šep": 3944,
      "## každém": 3945,
      "##.\nTeď": 3946,
      "##telé": 3947,
      "##rají": 3948,
      "## koři": 3949,
      "## dáti": 3950,
      "## dře": 3951,
      "##ný a": 3952,
      "##!\nPo": 3953,
      "## vlh": 3954,
      "## had": 3955,
      "## vroucí": 3956,
      "## spani": 3957,
      "##dič": 3958,
      "## vesele": 3959,
      "## zprá": 3960,
      "##vané": 3961,
      "## závi": 3962,
      "## cizi": 3963,
      "## vůni": 3964,
      "## umírá": 3965,
      "## skle": 3966,
      "## pouta": 3967,
      "## hučí": 3968,
      "##,\nná": 3969,
      "##oud": 3970,
      "## zlatou": 3971,
      "##vedl": 3972,
      "Ne": 3973,
      "##,\nv němž": 3974,
      "## vola": 3975,
      "## mati": 3976,
      "##.\nKdo": 3977,
      "##žky": 3978,
      "##vky": 3979,
      "## ovšem": 3980,
      "## roků": 3981,
      "## jíti": 3982,
      "## jasně": 3983,
      "##vla": 3984,
      "##ár": 3985,
      "## na zem": 3986,
      "##,\nmu": 3987,
      "## psá": 3988,
      "##luv": 3989,
      "## hroby": 3990,
      "##,\npa": 3991,
      "##kali": 3992,
      "##voucí": 3993,
      "## hřích": 3994,
      "## z toho": 3995,
      "## pár": 3996,
      "##zuje": 3997,
      "##, čím": 3998,
      "## zraku": 3999,
      "## děvče": 4000,
      "## a za": 4001,
      "##bek": 4002,
      "## zdraví": 4003,
      "## splývá": 4004,
      "##Lí": 4005,
      "##Ce": 4006,
      "##?\nNe": 4007,
      "## tichou": 4008,
      "## lů": 4009,
      "##,\nze": 4010,
      "##květ": 4011,
      "## děcko": 4012,
      "## temné": 4013,
      "##ter": 4014,
      "## bleskem": 4015,
      "## smíchu": 4016,
      "##, pří": 4017,
      "##chví": 4018,
      "## náručí": 4019,
      "##,\nmně": 4020,
      "## pozdra": 4021,
      "## chleba": 4022,
      "## jimi": 4023,
      "##!“ –": 4024,
      "##\njiž": 4025,
      "##Nad": 4026,
      "##před": 4027,
      "## nová": 4028,
      "##, lí": 4029,
      "## pln": 4030,
      "## zvon": 4031,
      "## kdesi": 4032,
      "## zírá": 4033,
      "##šady": 4034,
      "## žene": 4035,
      "##vel": 4036,
      "## vyp": 4037,
      "##hají": 4038,
      "## strach": 4039,
      "## chýlí": 4040,
      "## jasný": 4041,
      "## zro": 4042,
      "##lej": 4043,
      "## tuto": 4044,
      "##mek": 4045,
      "## se jí": 4046,
      "##?\nK": 4047,
      "## oken": 4048,
      "##čela": 4049,
      "##;\nvšak": 4050,
      "## sluch": 4051,
      "##vci": 4052,
      "## ó": 4053,
      "##. D": 4054,
      "## otců": 4055,
      "##žár": 4056,
      "##.\nKdyž": 4057,
      "##ú": 4058,
      "##tán": 4059,
      "## tva": 4060,
      "## mráz": 4061,
      "## večera": 4062,
      "##!\nCo": 4063,
      "## nových": 4064,
      "## světy": 4065,
      "## sluncem": 4066,
      "##livé": 4067,
      "## děje": 4068,
      "## plápo": 4069,
      "## ptáče": 4070,
      "##.“\n\n\nA": 4071,
      "##, kdož": 4072,
      "## doba": 4073,
      "##\nsk": 4074,
      "## potě": 4075,
      "##sích": 4076,
      "## citů": 4077,
      "## větru": 4078,
      "##,\njíž": 4079,
      "##: ": 4080,
      "##,\nmi": 4081,
      "## zapad": 4082,
      "## vzpla": 4083,
      "## raj": 4084,
      "##, kterak": 4085,
      "##,\nbyl": 4086,
      "## světů": 4087,
      "##, jak se": 4088,
      "## bloudí": 4089,
      "##kovi": 4090,
      "## těžce": 4091,
      "## mrá": 4092,
      "## har": 4093,
      "## bolí": 4094,
      "##.\n\n\nAle": 4095,
      "##.\nVše": 4096,
      "##, kterou": 4097,
      "## nebem": 4098,
      "## –\njak": 4099,
      "## vzde": 4100,
      "## Ka": 4101,
      "##te se": 4102,
      "##ti se": 4103,
      "## půva": 4104,
      "## dívčí": 4105,
      "## císař": 4106,
      "## nebylo": 4107,
      "## rozho": 4108,
      "## ranní": 4109,
      "## seve": 4110,
      "##ruh": 4111,
      "## vzduchem": 4112,
      "##,\nsk": 4113,
      "##čných": 4114,
      "## jsa": 4115,
      "##\nzá": 4116,
      "##kl": 4117,
      "## nadše": 4118,
      "## mému": 4119,
      "##kami": 4120,
      "##staví": 4121,
      "## sladká": 4122,
      "##,\nhned": 4123,
      "##, pod": 4124,
      "##mil": 4125,
      "##kán": 4126,
      "## plna": 4127,
      "## opuště": 4128,
      "##sle": 4129,
      "##\nnám": 4130,
      "## skří": 4131,
      "## lze": 4132,
      "Co": 4133,
      "##\njí": 4134,
      "## ve svém": 4135,
      "##. N": 4136,
      "## víno": 4137,
      "## mlha": 4138,
      "##,\nhle": 4139,
      "## mří": 4140,
      "## navždy": 4141,
      "##\na k": 4142,
      "##!“\nA": 4143,
      "##\nVy": 4144,
      "## bledý": 4145,
      "## andě": 4146,
      "## pamá": 4147,
      "## poho": 4148,
      "##asa": 4149,
      "## nějak": 4150,
      "## v sí": 4151,
      "##.\nOn": 4152,
      "##mení": 4153,
      "## zku": 4154,
      "## zda": 4155,
      "## tmě": 4156,
      "##cí se": 4157,
      "## stínů": 4158,
      "##šickni": 4159,
      "##ckých": 4160,
      "##rami": 4161,
      "## vytr": 4162,
      "## zpátky": 4163,
      "## vze": 4164,
      "##chod": 4165,
      "## temně": 4166,
      "## básník": 4167,
      "## plé": 4168,
      "## pravý": 4169,
      "## tmavé": 4170,
      "## ženou": 4171,
      "## čist": 4172,
      "## jdu": 4173,
      "##Ten": 4174,
      "##.\nCh": 4175,
      "## hoch": 4176,
      "## vzneše": 4177,
      "## vřa": 4178,
      "## zachvě": 4179,
      "##,\na když": 4180,
      "##, ku": 4181,
      "## hrom": 4182,
      "## lidských": 4183,
      "##.“\n\n": 4184,
      "##tání": 4185,
      "##,\npře": 4186,
      "##\npřes": 4187,
      "## fa": 4188,
      "## myslím": 4189,
      "## stěny": 4190,
      "##;\nNe": 4191,
      "## smutné": 4192,
      "## snem": 4193,
      "## krvi": 4194,
      "## všecka": 4195,
      "## hraje": 4196,
      "##,\nví": 4197,
      "## otá": 4198,
      "##ně se": 4199,
      "##, ra": 4200,
      "## hrůzou": 4201,
      "## pálí": 4202,
      "## němý": 4203,
      "## luny": 4204,
      "##bný": 4205,
      "##fe": 4206,
      "## pohle": 4207,
      "## chudé": 4208,
      "## a k": 4209,
      "## vína": 4210,
      "## větví": 4211,
      "##lec": 4212,
      "## uvi": 4213,
      "## budem": 4214,
      "## slune": 4215,
      "## v jeho": 4216,
      "## osla": 4217,
      "## nadšení": 4218,
      "## lidi": 4219,
      "## slovy": 4220,
      "## barev": 4221,
      "##Vy": 4222,
      "##,\nJako": 4223,
      "## host": 4224,
      "## stačí": 4225,
      "## lká": 4226,
      "## lůž": 4227,
      "##, srdce": 4228,
      "## mocí": 4229,
      "## vášně": 4230,
      "## pokoj": 4231,
      "##, ba": 4232,
      "##,\ndnes": 4233,
      "## tato": 4234,
      "## společ": 4235,
      "##nuly": 4236,
      "## nemůže": 4237,
      "##fa": 4238,
      "##ému": 4239,
      "## darmo": 4240,
      "##ují": 4241,
      "## slep": 4242,
      "## starou": 4243,
      "## nepře": 4244,
      "## zvedá": 4245,
      "## kloní": 4246,
      "##uše": 4247,
      "## sad": 4248,
      "## by se": 4249,
      "## víra": 4250,
      "## věčnosti": 4251,
      "## tíží": 4252,
      "##řík": 4253,
      "##lích": 4254,
      "## Si": 4255,
      "##,\nkterá": 4256,
      "## hlubin": 4257,
      "## děc": 4258,
      "##tř": 4259,
      "##v a": 4260,
      "## zni": 4261,
      "##;\nne": 4262,
      "## voda": 4263,
      "##, on": 4264,
      "##lan": 4265,
      "##. „": 4266,
      "##štěstí": 4267,
      "## poslou": 4268,
      "##! T": 4269,
      "##;\nna": 4270,
      "##;\njak": 4271,
      "##pež": 4272,
      "## posmě": 4273,
      "##puště": 4274,
      "##kva": 4275,
      "## vsi": 4276,
      "## dlí": 4277,
      "##řád": 4278,
      "##,\n–": 4279,
      "##čným": 4280,
      "##bírá": 4281,
      "## hym": 4282,
      "## stez": 4283,
      "## pouti": 4284,
      "## duchů": 4285,
      "## ztracen": 4286,
      "## ději": 4287,
      "##bila": 4288,
      "## dívky": 4289,
      "## bratři": 4290,
      "## mu v": 4291,
      "## čem": 4292,
      "## černá": 4293,
      "## žádné": 4294,
      "##rovna": 4295,
      "## zbo": 4296,
      "## hodi": 4297,
      "##. Po": 4298,
      "##kouz": 4299,
      "## dlaně": 4300,
      "##,\nuž": 4301,
      "## přítel": 4302,
      "## davy": 4303,
      "##lio": 4304,
      "## rodí": 4305,
      "##cové": 4306,
      "##.\n\n\nVy": 4307,
      "##\nkdyž": 4308,
      "##\nPro": 4309,
      "##alí": 4310,
      "## tmách": 4311,
      "## leb": 4312,
      "## jenž": 4313,
      "##stav": 4314,
      "## ptačí": 4315,
      "## dobu": 4316,
      "##:\nS": 4317,
      "## volně": 4318,
      "## kvetou": 4319,
      "## jeví": 4320,
      "## pět": 4321,
      "## klášte": 4322,
      "## chod": 4323,
      "##hlíží": 4324,
      "##\nuž": 4325,
      "## sbo": 4326,
      "## horách": 4327,
      "## máte": 4328,
      "##. Ne": 4329,
      "##\njsou": 4330,
      "##lest": 4331,
      "##lin": 4332,
      "## pope": 4333,
      "## mocně": 4334,
      "## trávě": 4335,
      "## lepší": 4336,
      "##krý": 4337,
      "## vstou": 4338,
      "##něch": 4339,
      "## dobrá": 4340,
      "## a ne": 4341,
      "## upomí": 4342,
      "## zněl": 4343,
      "## propast": 4344,
      "## obzor": 4345,
      "##arně": 4346,
      "##dným": 4347,
      "##ble": 4348,
      "##vách": 4349,
      "##viti": 4350,
      "## cosi": 4351,
      "##.\n\n\nKdo": 4352,
      "##cuje": 4353,
      "## mé srdce": 4354,
      "## divý": 4355,
      "## touze": 4356,
      "##! Z": 4357,
      "##stry": 4358,
      "##vítí": 4359,
      "## měst": 4360,
      "## soumrak": 4361,
      "##rpu": 4362,
      "## bohů": 4363,
      "##,\nTo": 4364,
      "##!\nO": 4365,
      "## víš": 4366,
      "## prahu": 4367,
      "##,\njak v": 4368,
      "## plnou": 4369,
      "##\nni": 4370,
      "## u nás": 4371,
      "## čase": 4372,
      "## v oku": 4373,
      "## Kristu": 4374,
      "## promě": 4375,
      "##, ani": 4376,
      "Ó": 4377,
      "## pohř": 4378,
      "##\nnež": 4379,
      "## panen": 4380,
      "##.\n\n\nVe": 4381,
      "##mrti": 4382,
      "##rce": 4383,
      "## životem": 4384,
      "## vlna": 4385,
      "## Ž": 4386,
      "##t v": 4387,
      "##k,": 4388,
      "## matce": 4389,
      "## zvlá": 4390,
      "##ne se": 4391,
      "##!\n\n\nD": 4392,
      "## zbro": 4393,
      "##je v": 4394,
      "## meče": 4395,
      "## prst": 4396,
      "## modra": 4397,
      "##! K": 4398,
      "##,\nú": 4399,
      "##, leč": 4400,
      "## Vác": 4401,
      "##kráte": 4402,
      "##čte": 4403,
      "##vosti": 4404,
      "##píná": 4405,
      "## vlasů": 4406,
      "##.\n–": 4407,
      "## žebrá": 4408,
      "## věže": 4409,
      "##\n(": 4410,
      "## šlech": 4411,
      "## prová": 4412,
      "## městě": 4413,
      "## právo": 4414,
      "## pust": 4415,
      "## luz": 4416,
      "## Ha": 4417,
      "##\nJ": 4418,
      "##Při": 4419,
      "## tkli": 4420,
      "## nosí": 4421,
      "## lesní": 4422,
      "##ga": 4423,
      "## někde": 4424,
      "## lodi": 4425,
      "## svatou": 4426,
      "## zma": 4427,
      "## prostřed": 4428,
      "## noha": 4429,
      "## řítí": 4430,
      "## širo": 4431,
      "##...\nV": 4432,
      "##!\nTy": 4433,
      "## zapomen": 4434,
      "## vna": 4435,
      "## v žití": 4436,
      "##děje": 4437,
      "## časů": 4438,
      "## rych": 4439,
      "## souse": 4440,
      "## směle": 4441,
      "## prudce": 4442,
      "## v lese": 4443,
      "##hlou": 4444,
      "##pot": 4445,
      "##,\njsou": 4446,
      "## vyprá": 4447,
      "## ruch": 4448,
      "## Vás": 4449,
      "## zvony": 4450,
      "## rytíř": 4451,
      "##,\nbo": 4452,
      "## se dí": 4453,
      "## vál": 4454,
      "##jný": 4455,
      "## jitro": 4456,
      "## žel": 4457,
      "## práva": 4458,
      "## mečem": 4459,
      "## vane": 4460,
      "## přání": 4461,
      "## sbor": 4462,
      "## se ti": 4463,
      "##dové": 4464,
      "##\npře": 4465,
      "## draho": 4466,
      "##deš": 4467,
      "##ňat": 4468,
      "## hněvu": 4469,
      "## zvuky": 4470,
      "##gu": 4471,
      "## bohy": 4472,
      "##sý": 4473,
      "##!\nJá": 4474,
      "##dnu": 4475,
      "##řela": 4476,
      "## jichž": 4477,
      "## pov": 4478,
      "## našel": 4479,
      "## závra": 4480,
      "## hleděl": 4481,
      "## až k": 4482,
      "## hrůzy": 4483,
      "##,\nčím": 4484,
      "## tmou": 4485,
      "##emo": 4486,
      "## na ko": 4487,
      "## Vy": 4488,
      "## nádher": 4489,
      "##daly": 4490,
      "##jil": 4491,
      "## věří": 4492,
      "## tají": 4493,
      "##... A": 4494,
      "## zhou": 4495,
      "## poesi": 4496,
      "##, ce": 4497,
      "## kněž": 4498,
      "##sni": 4499,
      "##láva": 4500,
      "##tili": 4501,
      "## mi v": 4502,
      "## ze všech": 4503,
      "## klen": 4504,
      "## dni": 4505,
      "## na tom": 4506,
      "##šené": 4507,
      "## stran": 4508,
      "## řekla": 4509,
      "## velkým": 4510,
      "## deště": 4511,
      "## dveří": 4512,
      "## vypra": 4513,
      "## padne": 4514,
      "##k’": 4515,
      "## počí": 4516,
      "## posvá": 4517,
      "## tvoří": 4518,
      "##,\nmé": 4519,
      "## tako": 4520,
      "## úž": 4521,
      "## spánku": 4522,
      "##vl": 4523,
      "##nečně": 4524,
      "## stopy": 4525,
      "##Čas": 4526,
      "## lad": 4527,
      "##šo": 4528,
      "Tak": 4529,
      "##dys": 4530,
      "## kade": 4531,
      "##.\nTen": 4532,
      "## sladkou": 4533,
      "## smutku": 4534,
      "##ách": 4535,
      "## zpěvu": 4536,
      "## studen": 4537,
      "##emě": 4538,
      "## neroz": 4539,
      "## chlu": 4540,
      "##!\nN": 4541,
      "##.\n\n\nTen": 4542,
      "## mez": 4543,
      "##ge": 4544,
      "##lyšel": 4545,
      "##prav": 4546,
      "## druhdy": 4547,
      "## zdě": 4548,
      "##lasti": 4549,
      "## listy": 4550,
      "## se smá": 4551,
      "##.\nPak": 4552,
      "## chladné": 4553,
      "## stolu": 4554,
      "##,\nVy": 4555,
      "##jících": 4556,
      "##,\nsám": 4557,
      "## lok": 4558,
      "## oběť": 4559,
      "## se dívá": 4560,
      "##loval": 4561,
      "## La": 4562,
      "##, ro": 4563,
      "## vyz": 4564,
      "##houcí": 4565,
      "##\nkol": 4566,
      "##ně v": 4567,
      "##věl": 4568,
      "##píš": 4569,
      "## velkých": 4570,
      "##d a": 4571,
      "## zka": 4572,
      "## vet": 4573,
      "## ve své": 4574,
      "## nad ním": 4575,
      "##, nej": 4576,
      "##vno": 4577,
      "## mlý": 4578,
      "##la\na": 4579,
      "## chcem": 4580,
      "## –\nV": 4581,
      "## čemu": 4582,
      "## velmi": 4583,
      "##,\nAby": 4584,
      "## nade": 4585,
      "##kův": 4586,
      "## neměl": 4587,
      "## křídel": 4588,
      "## dlaní": 4589,
      "## hřmí": 4590,
      "## naposled": 4591,
      "##,\nkol": 4592,
      "## – –\n\n\n": 4593,
      "##;\npo": 4594,
      "## proudy": 4595,
      "##dým": 4596,
      "##rva": 4597,
      "##,\nru": 4598,
      "## zpu": 4599,
      "## oce": 4600,
      "## najde": 4601,
      "##!\nNa": 4602,
      "## radostí": 4603,
      "##smí": 4604,
      "##pím": 4605,
      "## planou": 4606,
      "## dlouhá": 4607,
      "## mramo": 4608,
      "##jů": 4609,
      "##mlou": 4610,
      "##čká": 4611,
      "## o tom": 4612,
      "## taky": 4613,
      "## dlouhou": 4614,
      "## smrtí": 4615,
      "## zpíval": 4616,
      "##s’": 4617,
      "##hoste": 4618,
      "## rudý": 4619,
      "## stranou": 4620,
      "## mlčky": 4621,
      "## neod": 4622,
      "## tajemství": 4623,
      "## kom": 4624,
      "## Jo": 4625,
      "##Čím": 4626,
      "## schvá": 4627,
      "##vola": 4628,
      "##ňo": 4629,
      "##\nvě": 4630,
      "## zbu": 4631,
      "## nechci": 4632,
      "##ly\na": 4633,
      "## veš": 4634,
      "##hách": 4635,
      "## těžko": 4636,
      "##\njej": 4637,
      "## jazyk": 4638,
      "##blesk": 4639,
      "##dáš": 4640,
      "## výcho": 4641,
      "## kruh": 4642,
      "##zách": 4643,
      "## k srdci": 4644,
      "##,\nJenž": 4645,
      "##\nse v": 4646,
      "##rie": 4647,
      "## těchto": 4648,
      "## hrdě": 4649,
      "## poro": 4650,
      "## rek": 4651,
      "## stromu": 4652,
      "## blízko": 4653,
      "## se ho": 4654,
      "## chléb": 4655,
      "##vek": 4656,
      "##,\nnechť": 4657,
      "##razi": 4658,
      "##jev": 4659,
      "##novu": 4660,
      "## lesem": 4661,
      "## mimo": 4662,
      "##, V": 4663,
      "## bídy": 4664,
      "## tvor": 4665,
      "## státi": 4666,
      "## čin": 4667,
      "## loži": 4668,
      "## v sobě": 4669,
      "## šá": 4670,
      "## dnem": 4671,
      "## trůnu": 4672,
      "##\npa": 4673,
      "## potu": 4674,
      "##tej": 4675,
      "## věnec": 4676,
      "##, ach": 4677,
      "##res": 4678,
      "##ncem": 4679,
      "## z něho": 4680,
      "## hbi": 4681,
      "##loní": 4682,
      "##!\nTo": 4683,
      "## zdr": 4684,
      "##.\n\n\nŽe": 4685,
      "## jemně": 4686,
      "## poklad": 4687,
      "## jiní": 4688,
      "##dum": 4689,
      "## tuší": 4690,
      "## nesmrtel": 4691,
      "## dýchá": 4692,
      "## douf": 4693,
      "## pro mne": 4694,
      "##pce": 4695,
      "##na v": 4696,
      "## Do": 4697,
      "##̌as": 4698,
      "##až": 4699,
      "## stal": 4700,
      "##dělá": 4701,
      "##vic": 4702,
      "## západ": 4703,
      "## pravé": 4704,
      "## osamě": 4705,
      "##\nteď": 4706,
      "## unaven": 4707,
      "## tělem": 4708,
      "##sila": 4709,
      "## stav": 4710,
      "## červán": 4711,
      "## kolo": 4712,
      "## matku": 4713,
      "## Ži": 4714,
      "##hrá": 4715,
      "##,\nku": 4716,
      "## si v": 4717,
      "## mluvil": 4718,
      "## v dálku": 4719,
      "##?“\n\n\n„": 4720,
      "## tů": 4721,
      "## pes": 4722,
      "## říši": 4723,
      "## skon": 4724,
      "## prapor": 4725,
      "## – v": 4726,
      "## rozechvě": 4727,
      "##řené": 4728,
      "##šeň": 4729,
      "##vyšší": 4730,
      "##slední": 4731,
      "## drahou": 4732,
      "## se zdá": 4733,
      "##ary": 4734,
      "##, slad": 4735,
      "## in": 4736,
      "## v dálce": 4737,
      "##,\njim": 4738,
      "##lta": 4739,
      "## pryč": 4740,
      "## hmo": 4741,
      "##skne": 4742,
      "##vici": 4743,
      "## býval": 4744,
      "## vítězství": 4745,
      "## Krista": 4746,
      "Já": 4747,
      "## zlé": 4748,
      "##lená": 4749,
      "##neme": 4750,
      "## kvě": 4751,
      "##set": 4752,
      "## ráji": 4753,
      "## přísa": 4754,
      "## čistý": 4755,
      "## cíle": 4756,
      "## slzí": 4757,
      "##. –\n\n": 4758,
      "##vka": 4759,
      "##pila": 4760,
      "## středu": 4761,
      "## pozdrav": 4762,
      "##ny,": 4763,
      "##vech": 4764,
      "##, smut": 4765,
      "## chová": 4766,
      "##\nka": 4767,
      "## rosy": 4768,
      "## mohla": 4769,
      "##, v němž": 4770,
      "## pekla": 4771,
      "## dávných": 4772,
      "## pý": 4773,
      "## Tvůj": 4774,
      "## jáso": 4775,
      "## mořem": 4776,
      "## nemoc": 4777,
      "## Tebe": 4778,
      "##nkem": 4779,
      "##lejší": 4780,
      "##rostřed": 4781,
      "## kouzlo": 4782,
      "##myšle": 4783,
      "## sněhu": 4784,
      "##Lid": 4785,
      "##zdě": 4786,
      "## krajem": 4787,
      "## každým": 4788,
      "##, jím": 4789,
      "## se při": 4790,
      "## pomoc": 4791,
      "## chů": 4792,
      "## –\ntak": 4793,
      "##,\nPro": 4794,
      "## žalá": 4795,
      "## k nim": 4796,
      "## nebude": 4797,
      "##čce": 4798,
      "## nemám": 4799,
      "## kouzel": 4800,
      "## pomoci": 4801,
      "## nevz": 4802,
      "##.\n\n\nCh": 4803,
      "##zdy": 4804,
      "## špi": 4805,
      "##,\npřes": 4806,
      "## tvoji": 4807,
      "##Tam": 4808,
      "## vír": 4809,
      "## mate": 4810,
      "## špat": 4811,
      "## Du": 4812,
      "## půlno": 4813,
      "##krásnější": 4814,
      "##snou": 4815,
      "##líš": 4816,
      "##vním": 4817,
      "##knu": 4818,
      "## Ba": 4819,
      "##k v": 4820,
      "##volna": 4821,
      "##pírá": 4822,
      "##pky": 4823,
      "## dumy": 4824,
      "##mech": 4825,
      "##nes’": 4826,
      "##.\n\n\nLeč": 4827,
      "## trávy": 4828,
      "## brou": 4829,
      "## –\nne": 4830,
      "## promlu": 4831,
      "##malu": 4832,
      "## věčná": 4833,
      "## skrývá": 4834,
      "##lko": 4835,
      "##šlé": 4836,
      "## holubi": 4837,
      "##,\nsvou": 4838,
      "## bídu": 4839,
      "## lidská": 4840,
      "##,\nTak": 4841,
      "## pekel": 4842,
      "##, pak": 4843,
      "##šlen": 4844,
      "## pochy": 4845,
      "## koléb": 4846,
      "## místě": 4847,
      "##vené": 4848,
      "##vak": 4849,
      "## – ": 4850,
      "##víš": 4851,
      "## –\no": 4852,
      "##!\nJe": 4853,
      "##dá se": 4854,
      "## pána": 4855,
      "## nebez": 4856,
      "##vců": 4857,
      "##ec": 4858,
      "## vzbu": 4859,
      "## davu": 4860,
      "## smutný": 4861,
      "## číše": 4862,
      "## vší": 4863,
      "## Ru": 4864,
      "## chvěje": 4865,
      "## trý": 4866,
      "##,\nnem": 4867,
      "## z dálky": 4868,
      "## kar": 4869,
      "##\na do": 4870,
      "## žitím": 4871,
      "## temný": 4872,
      "##.\nVy": 4873,
      "##is": 4874,
      "## ztich": 4875,
      "##čely": 4876,
      "## poznal": 4877,
      "##rným": 4878,
      "##cká": 4879,
      "## jat": 4880,
      "##.\nPro": 4881,
      "## divné": 4882,
      "## kryje": 4883,
      "##Lu": 4884,
      "## větrem": 4885,
      "##,\nzrak": 4886,
      "##!“ –\n\n\n": 4887,
      "##;\nZ": 4888,
      "## bohu": 4889,
      "## břeh": 4890,
      "## brány": 4891,
      "## nepřátel": 4892,
      "## nebezpe": 4893,
      "## plou": 4894,
      "##.\nHle": 4895,
      "##,\na já": 4896,
      "## leže": 4897,
      "## věku": 4898,
      "## záha": 4899,
      "## pěkně": 4900,
      "## musil": 4901,
      "## klínu": 4902,
      "## očima": 4903,
      "##Ta": 4904,
      "## ono": 4905,
      "##nili": 4906,
      "##!\n\n\nJak": 4907,
      "##val se": 4908,
      "## jindy": 4909,
      "##,\nani": 4910,
      "##;\nje": 4911,
      "##, Bože": 4912,
      "## kus": 4913,
      "## duchem": 4914,
      "## sprá": 4915,
      "## straš": 4916,
      "## svírá": 4917,
      "##lné": 4918,
      "##,\nmě": 4919,
      "##ní,": 4920,
      "## táhnou": 4921,
      "## podiv": 4922,
      "## –\njen": 4923,
      "## si na": 4924,
      "## prací": 4925,
      "##živ": 4926,
      "## větve": 4927,
      "## stáří": 4928,
      "## šedé": 4929,
      "## včera": 4930,
      "## je a": 4931,
      "## naslou": 4932,
      "## –\nó": 4933,
      "##byla": 4934,
      "## šedi": 4935,
      "## Ch": 4936,
      "##tli": 4937,
      "## pano": 4938,
      "## řad": 4939,
      "##,\ndu": 4940,
      "## jiným": 4941,
      "## šli": 4942,
      "## budiž": 4943,
      "## divé": 4944,
      "## ly": 4945,
      "##\nmě": 4946,
      "##, ú": 4947,
      "## nechá": 4948,
      "##být": 4949,
      "## pen": 4950,
      "## zlí": 4951,
      "## drží": 4952,
      "## bolem": 4953,
      "## tíž": 4954,
      "## dceru": 4955,
      "## motýl": 4956,
      "##,\nsta": 4957,
      "## zká": 4958,
      "## a do": 4959,
      "##vaný": 4960,
      "##čili": 4961,
      "## krásou": 4962,
      "## ctnost": 4963,
      "##ot": 4964,
      "##tíš": 4965,
      "## prokle": 4966,
      "## padla": 4967,
      "## nechť": 4968,
      "##lými": 4969,
      "##lík": 4970,
      "To": 4971,
      "##zích": 4972,
      "##!\nVšak": 4973,
      "## ozvě": 4974,
      "##Teď": 4975,
      "## živé": 4976,
      "##tého": 4977,
      "## valí": 4978,
      "##,\nbuď": 4979,
      "##čků": 4980,
      "## –\nS": 4981,
      "## Ju": 4982,
      "##Pak": 4983,
      "## umění": 4984,
      "## rodné": 4985,
      "## vzí": 4986,
      "##,\npřec": 4987,
      "## vraž": 4988,
      "## daleko": 4989,
      "## ak": 4990,
      "## moř": 4991,
      "##, \n": 4992,
      "##?\n\n\nV": 4993,
      "## otci": 4994,
      "##ved’": 4995,
      "##šudy": 4996,
      "##tných": 4997,
      "##letu": 4998,
      "## vzrů": 4999,
      "## v poli": 5000,
      "## dělá": 5001,
      "## prsty": 5002,
      "## mladých": 5003,
      "##, teď": 5004,
      "##ena": 5005,
      "##kte": 5006,
      "##,\nsi": 5007,
      "## rodu": 5008,
      "##, nech": 5009,
      "## ze sna": 5010,
      "##.\nTa": 5011,
      "## cíli": 5012,
      "## purpu": 5013,
      "## usmá": 5014,
      "## spíš": 5015,
      "## – „": 5016,
      "##alou": 5017,
      "##,\nsvět": 5018,
      "## tichém": 5019,
      "## dneska": 5020,
      "## vzdor": 5021,
      "##,\njímž": 5022,
      "##vro": 5023,
      "## zavře": 5024,
      "##icho": 5025,
      "##, K": 5026,
      "## stoupá": 5027,
      "##,\nš": 5028,
      "##.\n\n\nPři": 5029,
      "## jiná": 5030,
      "## přelu": 5031,
      "## kráčel": 5032,
      "## vaší": 5033,
      "## ptáků": 5034,
      "##fo": 5035,
      "## s nebe": 5036,
      "##\nú": 5037,
      "## struny": 5038,
      "##ráží": 5039,
      "##nou v": 5040,
      "##viny": 5041,
      "##chách": 5042,
      "## velko": 5043,
      "## milou": 5044,
      "## proro": 5045,
      "##stavil": 5046,
      "## poupě": 5047,
      "## jejích": 5048,
      "## rodi": 5049,
      "##tové": 5050,
      "##tosti": 5051,
      "##.\nC": 5052,
      "##,\nAž": 5053,
      "## mraků": 5054,
      "## né": 5055,
      "##řte": 5056,
      "## vůdce": 5057,
      "## hledal": 5058,
      "## vnad": 5059,
      "##ous": 5060,
      "##ní se": 5061,
      "## umě": 5062,
      "##ví se": 5063,
      "## věží": 5064,
      "## maje": 5065,
      "## verše": 5066,
      "##lyše": 5067,
      "## moh": 5068,
      "## točí": 5069,
      "## těžká": 5070,
      "##gra": 5071,
      "##ledne": 5072,
      "## jása": 5073,
      "## báje": 5074,
      "##,\n\n\na": 5075,
      "## závoj": 5076,
      "##ní a": 5077,
      "##čené": 5078,
      "## slavně": 5079,
      "##lověk": 5080,
      "##rovná": 5081,
      "## štít": 5082,
      "##žu": 5083,
      "##žili": 5084,
      "## Vě": 5085,
      "## řeka": 5086,
      "##, r": 5087,
      "##chám": 5088,
      "##vězd": 5089,
      "## celém": 5090,
      "## prázdno": 5091,
      "## na své": 5092,
      "## výkřik": 5093,
      "##,\nI": 5094,
      "## jedním": 5095,
      "## žhavé": 5096,
      "##kaly": 5097,
      "##nilo": 5098,
      "##vaté": 5099,
      "## vlnách": 5100,
      "## zůstal": 5101,
      "## plyne": 5102,
      "##stru": 5103,
      "##ní\na": 5104,
      "##dec": 5105,
      "##!\n\n\nO": 5106,
      "## bída": 5107,
      "## nejvíc": 5108,
      "## říš": 5109,
      "## připra": 5110,
      "## Hu": 5111,
      "## oknem": 5112,
      "## bolestí": 5113,
      "## mluvit": 5114,
      "## obzoru": 5115,
      "## vzru": 5116,
      "##vedla": 5117,
      "##:\nM": 5118,
      "## bit": 5119,
      "## řady": 5120,
      "##nali": 5121,
      "##nulo": 5122,
      "##dale": 5123,
      "## odmě": 5124,
      "## divá": 5125,
      "##it": 5126,
      "## neho": 5127,
      "##, snad": 5128,
      "##, bych": 5129,
      "## led": 5130,
      "##;\nM": 5131,
      "## zákon": 5132,
      "##, ře": 5133,
      "##jeme": 5134,
      "## miloval": 5135,
      "##pomíná": 5136,
      "## celý svět": 5137,
      "##větší": 5138,
      "## kosti": 5139,
      "##.\n\n\nA když": 5140,
      "## žhavý": 5141,
      "## paměti": 5142,
      "## kývá": 5143,
      "## vnu": 5144,
      "## křo": 5145,
      "## zacho": 5146,
      "##řili": 5147,
      "##:\nv": 5148,
      "##tali": 5149,
      "##mích": 5150,
      "##klady": 5151,
      "##, dítě": 5152,
      "## zti": 5153,
      "## Bu": 5154,
      "## posléz": 5155,
      "##\nVe": 5156,
      "##l na": 5157,
      "## Al": 5158,
      "## kruhu": 5159,
      "##žná": 5160,
      "## ukry": 5161,
      "## nikde": 5162,
      "## pri": 5163,
      "## příval": 5164,
      "## hnízdo": 5165,
      "##yn": 5166,
      "##iz": 5167,
      "##hové": 5168,
      "## těší": 5169,
      "##pusti": 5170,
      "## laho": 5171,
      "##sťan": 5172,
      "## veliký": 5173,
      "## vašich": 5174,
      "## zvonů": 5175,
      "## skoro": 5176,
      "## stříbro": 5177,
      "## hed": 5178,
      "## čelem": 5179,
      "## strachu": 5180,
      "## dlouhých": 5181,
      "##hlíže": 5182,
      "## dvéře": 5183,
      "##dru": 5184,
      "##ren": 5185,
      "## po ní": 5186,
      "## jesti": 5187,
      "##kov": 5188,
      "##žeb": 5189,
      "## odva": 5190,
      "## tisí": 5191,
      "Za": 5192,
      "##os": 5193,
      "## opat": 5194,
      "## aby": 5195,
      "##šený": 5196,
      "##:\n„S": 5197,
      "## světel": 5198,
      "## hází": 5199,
      "## tmavý": 5200,
      "## tri": 5201,
      "##telem": 5202,
      "## prchá": 5203,
      "## Mu": 5204,
      "## mužů": 5205,
      "## daleka": 5206,
      "## stin": 5207,
      "## v boji": 5208,
      "## dlu": 5209,
      "## potře": 5210,
      "## skráně": 5211,
      "## znak": 5212,
      "## tvůr": 5213,
      "## na ú": 5214,
      "##,\na s": 5215,
      "## pěstí": 5216,
      "##:\n„M": 5217,
      "## háji": 5218,
      "## kněz": 5219,
      "##la,": 5220,
      "## ucho": 5221,
      "## světlem": 5222,
      "##:\n„V": 5223,
      "##try": 5224,
      "##oj": 5225,
      "##.\n\n\nHle": 5226,
      "##poví": 5227,
      "## citu": 5228,
      "## vle": 5229,
      "## spu": 5230,
      "## žárem": 5231,
      "## pad’": 5232,
      "##raje": 5233,
      "## ticha": 5234,
      "## blahé": 5235,
      "## slyše": 5236,
      "## západu": 5237,
      "##plo": 5238,
      "##Už": 5239,
      "##\nro": 5240,
      "## v roz": 5241,
      "## hná": 5242,
      "## na zemi": 5243,
      "##řice": 5244,
      "## buší": 5245,
      "## tan": 5246,
      "## fan": 5247,
      "##Ach": 5248,
      "## se vi": 5249,
      "##zdra": 5250,
      "## Pan": 5251,
      "## nemě": 5252,
      "##.\nMy": 5253,
      "## kvete": 5254,
      "##,\ntím": 5255,
      "##rové": 5256,
      "## za ní": 5257,
      "## letem": 5258,
      "##louho": 5259,
      "## tehdy": 5260,
      "## druhu": 5261,
      "## med": 5262,
      "## pusti": 5263,
      "## vládne": 5264,
      "## káže": 5265,
      "## trůn": 5266,
      "## –“": 5267,
      "##voj": 5268,
      "## jen v": 5269,
      "## mechu": 5270,
      "## svěd": 5271,
      "## barvy": 5272,
      "## zima": 5273,
      "##níků": 5274,
      "##;\nK": 5275,
      "##tan": 5276,
      "## čekal": 5277,
      "## dětem": 5278,
      "## černou": 5279,
      "## znamen": 5280,
      "## hů": 5281,
      "## sic": 5282,
      "## víc než": 5283,
      "##,\nbu": 5284,
      "##tisk": 5285,
      "## vzte": 5286,
      "## zahy": 5287,
      "## srdcích": 5288,
      "## lící": 5289,
      "## rosa": 5290,
      "## obou": 5291,
      "## tam, kde": 5292,
      "## jásá": 5293,
      "## nejs": 5294,
      "## divný": 5295,
      "## pyš": 5296,
      "## to v": 5297,
      "##!\nJ": 5298,
      "## zraků": 5299,
      "## vrací": 5300,
      "##skal": 5301,
      "##.\n\n\nTa": 5302,
      "## pláčem": 5303,
      "##pek": 5304,
      "##vený": 5305,
      "## zaha": 5306,
      "## stařec": 5307,
      "## věčnou": 5308,
      "##, jíž": 5309,
      "## záko": 5310,
      "## plná": 5311,
      "## spící": 5312,
      "## peklo": 5313,
      "##l,": 5314,
      "##dilo": 5315,
      "## Mari": 5316,
      "## maně": 5317,
      "## zlá": 5318,
      "##.\n\n\nPro": 5319,
      "## prosté": 5320,
      "## vyko": 5321,
      "##nesla": 5322,
      "##hož": 5323,
      "##ny a": 5324,
      "## noří": 5325,
      "## vítá": 5326,
      "## kvílí": 5327,
      "## vstává": 5328,
      "##,\nro": 5329,
      "##, květ": 5330,
      "##čina": 5331,
      "##...\nS": 5332,
      "##,\njichž": 5333,
      "## se od": 5334,
      "## skr": 5335,
      "## žádá": 5336,
      "##jí v": 5337,
      "##nie": 5338,
      "##:\nz": 5339,
      "##, A": 5340,
      "## pravdě": 5341,
      "##mysl": 5342,
      "##ple": 5343,
      "## z ní": 5344,
      "## věcí": 5345,
      "##. O": 5346,
      "##. Je": 5347,
      "##, vá": 5348,
      "## šťasten": 5349,
      "## heb": 5350,
      "##stky": 5351,
      "##vinu": 5352,
      "## svů": 5353,
      "## diva": 5354,
      "## se smě": 5355,
      "##tlu": 5356,
      "##,\nC": 5357,
      "## řím": 5358,
      "## člověku": 5359,
      "##ych": 5360,
      "##říž": 5361,
      "## –\njá": 5362,
      "## štěstím": 5363,
      "## zpěvy": 5364,
      "##ouze": 5365,
      "##.\n\n\nKde": 5366,
      "##hoře": 5367,
      "##! –\n\n": 5368,
      "## nutno": 5369,
      "##pně": 5370,
      "##chlad": 5371,
      "##lili": 5372,
      "## škle": 5373,
      "## písku": 5374,
      "##bloudil": 5375,
      "## –\nna": 5376,
      "## živý": 5377,
      "## vad": 5378,
      "## věnce": 5379,
      "## nadějí": 5380,
      "## perly": 5381,
      "## upřím": 5382,
      "## tuž": 5383,
      "##.\nVe": 5384,
      "## zkou": 5385,
      "## tyto": 5386,
      "##stále": 5387,
      "##vří": 5388,
      "## pozdě": 5389,
      "## mrtvý": 5390,
      "## věrně": 5391,
      "## divy": 5392,
      "##pec": 5393,
      "##ják": 5394,
      "##br": 5395,
      "## uš": 5396,
      "##bej": 5397,
      "## hrozí": 5398,
      "## chladný": 5399,
      "## skále": 5400,
      "## mladí": 5401,
      "## vrátí": 5402,
      "##n v": 5403,
      "## z rána": 5404,
      "## jen a": 5405,
      "## přišli": 5406,
      "## rámě": 5407,
      "## krásnou": 5408,
      "## slavné": 5409,
      "##tům": 5410,
      "##, mi": 5411,
      "##, duše": 5412,
      "## těmi": 5413,
      "## plášť": 5414,
      "## rozkoše": 5415,
      "## vichr": 5416,
      "Ty": 5417,
      "## shas": 5418,
      "## nešťast": 5419,
      "## údolí": 5420,
      "##stek": 5421,
      "## poušti": 5422,
      "##.\nOd": 5423,
      "## naděj": 5424,
      "##ie": 5425,
      "## hoto": 5426,
      "## líp": 5427,
      "##\nkde": 5428,
      "## vášni": 5429,
      "## krátký": 5430,
      "##lyšíš": 5431,
      "##, buď": 5432,
      "##ňů": 5433,
      "## chudá": 5434,
      "## křídlem": 5435,
      "## zlý": 5436,
      "##lodi": 5437,
      "##řiti": 5438,
      "##polu": 5439,
      "## lese": 5440,
      "## vzly": 5441,
      "## životě": 5442,
      "## laska": 5443,
      "##,\nmůj": 5444,
      "## řada": 5445,
      "##, není": 5446,
      "##? K": 5447,
      "##něné": 5448,
      "##?\nCo": 5449,
      "##\nzde": 5450,
      "##,\nTy": 5451,
      "## háje": 5452,
      "## polib": 5453,
      "## přírody": 5454,
      "## letech": 5455,
      "## ženě": 5456,
      "## viny": 5457,
      "## pozná": 5458,
      "## kvé": 5459,
      "##ilé": 5460,
      "##, vždy": 5461,
      "## rádi": 5462,
      "## lůně": 5463,
      "##jícý": 5464,
      "## uká": 5465,
      "## novým": 5466,
      "## stane": 5467,
      "## žalo": 5468,
      "##tlo": 5469,
      "##novi": 5470,
      "##nily": 5471,
      "## divně": 5472,
      "## čistá": 5473,
      "## ostat": 5474,
      "##ůž’": 5475,
      "## myšlenky": 5476,
      "##nesl": 5477,
      "## jímá": 5478,
      "##nské": 5479,
      "## zmo": 5480,
      "## kola": 5481,
      "##\nsvým": 5482,
      "## plní": 5483,
      "## mocný": 5484,
      "## vzdych": 5485,
      "##vodu": 5486,
      "## kalich": 5487,
      "##ěz": 5488,
      "##řích": 5489,
      "## žas": 5490,
      "##,\njest": 5491,
      "## domov": 5492,
      "##svit": 5493,
      "##klid": 5494,
      "##cou": 5495,
      "##ža": 5496,
      "##rala": 5497,
      "##nicí": 5498,
      "##?\n\n\nS": 5499,
      "## propasti": 5500,
      "##dvi": 5501,
      "##ln": 5502,
      "## hnutí": 5503,
      "##nají": 5504,
      "##!\n\n\nPo": 5505,
      "## zřít": 5506,
      "##,\nra": 5507,
      "##lel": 5508,
      "##,\na jak": 5509,
      "## –\nco": 5510,
      "## zvučí": 5511,
      "## pode": 5512,
      "## po něm": 5513,
      "##hala": 5514,
      "## radu": 5515,
      "## odpoví": 5516,
      "## slavný": 5517,
      "##ývá": 5518,
      "## spla": 5519,
      "## vé": 5520,
      "##hej": 5521,
      "##.\n\n\nC": 5522,
      "##tily": 5523,
      "## rý": 5524,
      "## plaše": 5525,
      "##dly": 5526,
      "##,\nce": 5527,
      "## na něm": 5528,
      "##. Na": 5529,
      "## činí": 5530,
      "## jal": 5531,
      "##niti": 5532,
      "##lyším": 5533,
      "## kos": 5534,
      "##tách": 5535,
      "## pusté": 5536,
      "##yní": 5537,
      "##,\nhla": 5538,
      "## vyvo": 5539,
      "## luh": 5540,
      "##ladi": 5541,
      "##ňte": 5542,
      "## (": 5543,
      "##ckou": 5544,
      "##, jehož": 5545,
      "## oni": 5546,
      "## vzně": 5547,
      "##dati": 5548,
      "## nitra": 5549,
      "##?\nProč": 5550,
      "##huje": 5551,
      "## číš": 5552,
      "##,\nži": 5553,
      "##lák": 5554,
      "## máj": 5555,
      "## city": 5556,
      "## spokojen": 5557,
      "## poesie": 5558,
      "##out": 5559,
      "## stanul": 5560,
      "##\njest": 5561,
      "## skála": 5562,
      "## jednom": 5563,
      "## Hospo": 5564,
      "##tly": 5565,
      "##ledy": 5566,
      "## bdí": 5567,
      "## zvíře": 5568,
      "## jinou": 5569,
      "## rostou": 5570,
      "## což": 5571,
      "## zvěst": 5572,
      "## stisk": 5573,
      "##smá": 5574,
      "## z nás": 5575,
      "## leskem": 5576,
      "##rty": 5577,
      "##štím": 5578,
      "##, jaký": 5579,
      "##fy": 5580,
      "## je mi": 5581,
      "## klade": 5582,
      "## ozdo": 5583,
      "##!“\n„": 5584,
      "## nádhe": 5585,
      "## krůpěj": 5586,
      "## kní": 5587,
      "##líp": 5588,
      "##... V": 5589,
      "##Toť": 5590,
      "## lépe": 5591,
      "## plod": 5592,
      "## jiskry": 5593,
      "## se ko": 5594,
      "##:\nZ": 5595,
      "##?\nČi": 5596,
      "## pouští": 5597,
      "## slzou": 5598,
      "##.\n\n\nKo": 5599,
      "## ňá": 5600,
      "##lena": 5601,
      "##díl": 5602,
      "##.\n\n\nOd": 5603,
      "##.\n\n\nOn": 5604,
      "## letu": 5605,
      "##cího": 5606,
      "## bože": 5607,
      "## letní": 5608,
      "## vážně": 5609,
      "##vaje": 5610,
      "## vyje": 5611,
      "## králem": 5612,
      "##\nsvůj": 5613,
      "##,\ntož": 5614,
      "## ctnosti": 5615,
      "##Dí": 5616,
      "##livá": 5617,
      "## –\nje": 5618,
      "## chcete": 5619,
      "##půso": 5620,
      "##, že se": 5621,
      "## znamení": 5622,
      "##\ntěch": 5623,
      "## okamžik": 5624,
      "##ilo": 5625,
      "##, my": 5626,
      "##tilo": 5627,
      "##,\nnej": 5628,
      "## denní": 5629,
      "##,\nvšech": 5630,
      "##tká": 5631,
      "##, dě": 5632,
      "## špe": 5633,
      "## žert": 5634,
      "## kdos": 5635,
      "## chystá": 5636,
      "##,\nle": 5637,
      "## vza": 5638,
      "##:\nA": 5639,
      "## jablo": 5640,
      "## snil": 5641,
      "##dí se": 5642,
      "## víří": 5643,
      "## obrov": 5644,
      "##, vý": 5645,
      "##mon": 5646,
      "## celým": 5647,
      "## stáli": 5648,
      "##.\nLeč": 5649,
      "##lám": 5650,
      "##!\nH": 5651,
      "##\nkrá": 5652,
      "## labu": 5653,
      "##, jímž": 5654,
      "##zlo": 5655,
      "##, zde": 5656,
      "##, Pane": 5657,
      "## bojovní": 5658,
      "## ber": 5659,
      "##jícím": 5660,
      "##nuv": 5661,
      "## nitro": 5662,
      "## nejsem": 5663,
      "## zdálo se": 5664,
      "## šeptá": 5665,
      "## chvilku": 5666,
      "##Ni": 5667,
      "##emi": 5668,
      "##jíma": 5669,
      "##,\npra": 5670,
      "##,\njej": 5671,
      "## zmize": 5672,
      "##h,": 5673,
      "##aro": 5674,
      "##,\nme": 5675,
      "##sech": 5676,
      "## vzlet": 5677,
      "##\nC": 5678,
      "##pívá": 5679,
      "## vášeň": 5680,
      "## klesla": 5681,
      "## vaši": 5682,
      "## temnou": 5683,
      "##chmu": 5684,
      "##íme": 5685,
      "## vyr": 5686,
      "## vodou": 5687,
      "## modlí": 5688,
      "## žáru": 5689,
      "##, milý": 5690,
      "## seděl": 5691,
      "## podá": 5692,
      "## těžkou": 5693,
      "## v náruč": 5694,
      "##čkách": 5695,
      "## zazní": 5696,
      "## domě": 5697,
      "## dál a": 5698,
      "## malou": 5699,
      "## Něm": 5700,
      "## Kristus": 5701,
      "##vojí": 5702,
      "## proudem": 5703,
      "##\nle": 5704,
      "## na věky": 5705,
      "##prch": 5706,
      "##.\nKo": 5707,
      "## tmu": 5708,
      "## na nás": 5709,
      "## střá": 5710,
      "##;\no": 5711,
      "## tys": 5712,
      "##mbo": 5713,
      "##ráž": 5714,
      "##?\nP": 5715,
      "##,\njež v": 5716,
      "## báj": 5717,
      "## spánek": 5718,
      "##.\n\n\nMy": 5719,
      "## hvězdám": 5720,
      "##čeká": 5721,
      "##asy": 5722,
      "## přede": 5723,
      "##,\nv níž": 5724,
      "##čů": 5725,
      "## na vše": 5726,
      "##?\nJak": 5727,
      "## pánem": 5728,
      "## stokrát": 5729,
      "## síně": 5730,
      "## pol": 5731,
      "##tesk": 5732,
      "## to je": 5733,
      "## nesmě": 5734,
      "## stínem": 5735,
      "## zpívat": 5736,
      "## – jak": 5737,
      "## muka": 5738,
      "## hříchu": 5739,
      "## dro": 5740,
      "##čený": 5741,
      "##taly": 5742,
      "## sluší": 5743,
      "##, ze": 5744,
      "## čerst": 5745,
      "##, hned": 5746,
      "## myšle": 5747,
      "##ptá": 5748,
      "##zla": 5749,
      "##žno": 5750,
      "## ve snu": 5751,
      "##ňuje": 5752,
      "## hrají": 5753,
      "## plesu": 5754,
      "## skrání": 5755,
      "##th": 5756,
      "##, la": 5757,
      "## rad": 5758,
      "## dnech": 5759,
      "##“\n\n\n„": 5760,
      "##není": 5761,
      "##čním": 5762,
      "##tice": 5763,
      "##večer": 5764,
      "## se valí": 5765,
      "## pouhý": 5766,
      "## touhu": 5767,
      "## nejkrásnější": 5768,
      "## synu": 5769,
      "## trhá": 5770,
      "##razil": 5771,
      "## hoj": 5772,
      "## věděl": 5773,
      "##číš": 5774,
      "## volal": 5775,
      "##.\n\n\nA v": 5776,
      "## pouště": 5777,
      "## ryzí": 5778,
      "## nechal": 5779,
      "## požehnání": 5780,
      "##sl": 5781,
      "##t,": 5782,
      "## mý": 5783,
      "## vodě": 5784,
      "## přímo": 5785,
      "##.\nKde": 5786,
      "## tráva": 5787,
      "## Žiž": 5788,
      "##Ře": 5789,
      "## sedá": 5790,
      "## na svém": 5791,
      "##říká": 5792,
      "## koře": 5793,
      "##kými": 5794,
      "##\nvšech": 5795,
      "##čném": 5796,
      "## ner": 5797,
      "##ne,": 5798,
      "## prosí": 5799,
      "## čar": 5800,
      "## vroucně": 5801,
      "## Karel": 5802,
      "##fu": 5803,
      "##.\n\n\n–": 5804,
      "##né a": 5805,
      "##žek": 5806,
      "##dlý": 5807,
      "##znám": 5808,
      "## zle": 5809,
      "## vábí": 5810,
      "## posvě": 5811,
      "## hrozný": 5812,
      "## zavá": 5813,
      "##ly a": 5814,
      "##ky,": 5815,
      "##dívá": 5816,
      "##šila": 5817,
      "## životu": 5818,
      "## lhoste": 5819,
      "## řek’": 5820,
      "## zuby": 5821,
      "## v hrobě": 5822,
      "##, ka": 5823,
      "##pis": 5824,
      "## jasu": 5825,
      "## samé": 5826,
      "##razí": 5827,
      "##vyk": 5828,
      "## odvá": 5829,
      "## máti": 5830,
      "## vinu": 5831,
      "##,\ncož": 5832,
      "## šíji": 5833,
      "## Jeho": 5834,
      "## hovor": 5835,
      "##:\n–": 5836,
      "##.\n\n\nMá": 5837,
      "## zůsta": 5838,
      "## plémě": 5839,
      "## s vámi": 5840,
      "## vodo": 5841,
      "## zlatí": 5842,
      "##chala": 5843,
      "## mech": 5844,
      "## věčnost": 5845,
      "##,\nTam": 5846,
      "## mladosti": 5847,
      "##mám": 5848,
      "## z očí": 5849,
      "## zbled": 5850,
      "##žství": 5851,
      "## a tam": 5852,
      "##!\n\n\nCo": 5853,
      "##, sám": 5854,
      "## až do": 5855,
      "## ztrácí": 5856,
      "##hře": 5857,
      "##La": 5858,
      "## –\npo": 5859,
      "##atan": 5860,
      "## klíně": 5861,
      "## z těch": 5862,
      "## stůl": 5863,
      "## topo": 5864,
      "##ť v": 5865,
      "## věrný": 5866,
      "## dobrou": 5867,
      "## slyš": 5868,
      "## cizích": 5869,
      "## národu": 5870,
      "##svi": 5871,
      "##\nru": 5872,
      "## píše": 5873,
      "## halu": 5874,
      "##Chce": 5875,
      "## Ni": 5876,
      "## z duše": 5877,
      "## ony": 5878,
      "##liti": 5879,
      "##;\njen": 5880,
      "##divo": 5881,
      "##pustil": 5882,
      "##.\nŽe": 5883,
      "##. H": 5884,
      "## hlasu": 5885,
      "## raděj": 5886,
      "## pokry": 5887,
      "## mlé": 5888,
      "## ctí": 5889,
      "##nika": 5890,
      "##ná a": 5891,
      "##pově": 5892,
      "##ly,": 5893,
      "## srdce mé": 5894,
      "## krč": 5895,
      "## mnohá": 5896,
      "## křičí": 5897,
      "## klobou": 5898,
      "##\nži": 5899,
      "##ítra": 5900,
      "## znal": 5901,
      "## všední": 5902,
      "##,\nkvět": 5903,
      "##tuje": 5904,
      "##buje": 5905,
      "##,\nsrdce": 5906,
      "## Tur": 5907,
      "## témě": 5908,
      "##\nmé": 5909,
      "## Praze": 5910,
      "##! M": 5911,
      "## nesko": 5912,
      "## duní": 5913,
      "## rve": 5914,
      "##ber": 5915,
      "## byl by": 5916,
      "##, což": 5917,
      "##.\n\n\nŠ": 5918,
      "## svatých": 5919,
      "##sat": 5920,
      "## vděk": 5921,
      "## jede": 5922,
      "## zat": 5923,
      "## vzpomen": 5924,
      "## Slo": 5925,
      "## hrabě": 5926,
      "## víc a": 5927,
      "## dcera": 5928,
      "## hyne": 5929,
      "## svobodu": 5930,
      "## třpytí": 5931,
      "##náct": 5932,
      "##!\n\n\nJe": 5933,
      "##!\n\n\nTak": 5934,
      "##,\nno": 5935,
      "##chci": 5936,
      "## mře": 5937,
      "## se bo": 5938,
      "## hlav": 5939,
      "##ed": 5940,
      "##vatá": 5941,
      "##:\ns": 5942,
      "## myslil": 5943,
      "## smrtel": 5944,
      "##vné": 5945,
      "##\nce": 5946,
      "## kri": 5947,
      "## nejvyšší": 5948,
      "## spásy": 5949,
      "## bratry": 5950,
      "## ex": 5951,
      "## úžas": 5952,
      "## je,": 5953,
      "##.\nHo": 5954,
      "##více": 5955,
      "##nou se": 5956,
      "## tam v": 5957,
      "## kouzlem": 5958,
      "## zbraň": 5959,
      "## mžik": 5960,
      "##čích": 5961,
      "##stoupil": 5962,
      "##eru": 5963,
      "##\nbo": 5964,
      "## pora": 5965,
      "## je na": 5966,
      "##nášel": 5967,
      "##dalo": 5968,
      "##ňa": 5969,
      "##.\n\n\nNad": 5970,
      "## králů": 5971,
      "## děvy": 5972,
      "## plání": 5973,
      "## verš": 5974,
      "## poutník": 5975,
      "## měj": 5976,
      "##\nv tom": 5977,
      "##,\ntoť": 5978,
      "##čnost": 5979,
      "## půdu": 5980,
      "## spát": 5981,
      "##nohý": 5982,
      "##aty": 5983,
      "## divě": 5984,
      "## slast": 5985,
      "## říká": 5986,
      "## větrů": 5987,
      "##, če": 5988,
      "## clo": 5989,
      "##...\n\n\nV": 5990,
      "## hochu": 5991,
      "##,\nkrá": 5992,
      "##čiti": 5993,
      "## srdce v": 5994,
      "##žena": 5995,
      "## jihu": 5996,
      "## nebesa": 5997,
      "##,\nVše": 5998,
      "##,\nTu": 5999,
      "## smíchem": 6000,
      "## křiv": 6001,
      "## veleb": 6002,
      "##ply": 6003,
      "##Bez": 6004,
      "##toval": 6005,
      "## letě": 6006,
      "## úto": 6007,
      "##?\n\n\nZ": 6008,
      "## bledou": 6009,
      "## hledat": 6010,
      "##, –\na": 6011,
      "##lenou": 6012,
      "##!\nJen": 6013,
      "## nejsou": 6014,
      "## se chvěje": 6015,
      "## Na": 6016,
      "##zů": 6017,
      "##!\n\n\nNa": 6018,
      "##,\nže v": 6019,
      "## He": 6020,
      "## krásně": 6021,
      "## zlatém": 6022,
      "## ulic": 6023,
      "##? S": 6024,
      "##? V": 6025,
      "## uza": 6026,
      "## klas": 6027,
      "## hrozné": 6028,
      "##ara": 6029,
      "##činu": 6030,
      "## měsíce": 6031,
      "## vánek": 6032,
      "##, jež v": 6033,
      "##hrad": 6034,
      "##rvní": 6035,
      "## bli": 6036,
      "##bili": 6037,
      "## blaze": 6038,
      "## No": 6039,
      "## veliké": 6040,
      "## skráni": 6041,
      "## zmizel": 6042,
      "## trest": 6043,
      "## odpověď": 6044,
      "##ěda": 6045,
      "## Tvých": 6046,
      "## vin": 6047,
      "## bratra": 6048,
      "## běd": 6049,
      "## proudu": 6050,
      "## mladou": 6051,
      "## spěchá": 6052,
      "## číši": 6053,
      "## kterém": 6054,
      "##,\nchci": 6055,
      "## knihy": 6056,
      "## nazpět": 6057,
      "## hvozd": 6058,
      "##ik": 6059,
      "##! P": 6060,
      "##laví": 6061,
      "## věrné": 6062,
      "##\npří": 6063,
      "##, jež se": 6064,
      "##chať": 6065,
      "## větry": 6066,
      "## bisku": 6067,
      "##\nmne": 6068,
      "## políbení": 6069,
      "##,\nan": 6070,
      "##stín": 6071,
      "## bílém": 6072,
      "## líbez": 6073,
      "## hrůza": 6074,
      "##tků": 6075,
      "##bytí": 6076,
      "##!\nTak": 6077,
      "## v sou": 6078,
      "##...\nM": 6079,
      "##.\nByl": 6080,
      "## zaho": 6081,
      "##řiv": 6082,
      "## dík": 6083,
      "## všechen": 6084,
      "##\nob": 6085,
      "##jala": 6086,
      "##zdu": 6087,
      "## azu": 6088,
      "## vykou": 6089,
      "##dále": 6090,
      "## dějin": 6091,
      "##kyně": 6092,
      "## roj": 6093,
      "## úc": 6094,
      "## dávné": 6095,
      "## nutí": 6096,
      "##, hochu": 6097,
      "## minulosti": 6098,
      "## blýská": 6099,
      "##? –\n\n\n": 6100,
      "## a zas": 6101,
      "##žená": 6102,
      "##?\nKdo": 6103,
      "## pěje": 6104,
      "## když se": 6105,
      "## pozem": 6106,
      "## tlačí": 6107,
      "##, před": 6108,
      "##tin": 6109,
      "##, lu": 6110,
      "## světle": 6111,
      "## bělost": 6112,
      "##,\nVe": 6113,
      "## zářící": 6114,
      "## tratí": 6115,
      "## tajně": 6116,
      "##uj": 6117,
      "##\nme": 6118,
      "##lny": 6119,
      "## a bez": 6120,
      "## pro ni": 6121,
      "## ré": 6122,
      "## zlatým": 6123,
      "##pili": 6124,
      "##: „S": 6125,
      "##kvétá": 6126,
      "## v svém": 6127,
      "##,\nob": 6128,
      "## půjdu": 6129,
      "## půvab": 6130,
      "##sných": 6131,
      "## na tě": 6132,
      "## ční": 6133,
      "## lidstvu": 6134,
      "##lká": 6135,
      "##jmu": 6136,
      "##íc": 6137,
      "##vánek": 6138,
      "## dok": 6139,
      "## dom": 6140,
      "##ky a": 6141,
      "##hali": 6142,
      "## pás": 6143,
      "## poušť": 6144,
      "## stráni": 6145,
      "## hrdin": 6146,
      "##,\nčer": 6147,
      "## pluje": 6148,
      "## domá": 6149,
      "## modrý": 6150,
      "## trpě": 6151,
      "##teři": 6152,
      "## vyšší": 6153,
      "##míra": 6154,
      "## sluje": 6155,
      "## byl to": 6156,
      "## našem": 6157,
      "## plameny": 6158,
      "## obo": 6159,
      "## au": 6160,
      "##řící": 6161,
      "##alé": 6162,
      "##kně": 6163,
      "## bři": 6164,
      "##.\n\n\nBy": 6165,
      "## vodu": 6166,
      "##\npra": 6167,
      "##! Ne": 6168,
      "## chudý": 6169,
      "## marné": 6170,
      "## zahrad": 6171,
      "##\nmy": 6172,
      "## minul": 6173,
      "##douc": 6174,
      "## pít": 6175,
      "##chodu": 6176,
      "## otvírá": 6177,
      "## čarov": 6178,
      "## je tak": 6179,
      "## to, co": 6180,
      "##!\n\n\nTy": 6181,
      "##,\nVě": 6182,
      "##: „M": 6183,
      "## v své": 6184,
      "## všady": 6185,
      "##níku": 6186,
      "## povin": 6187,
      "##nou,": 6188,
      "##,\npří": 6189,
      "##chové": 6190,
      "## dechu": 6191,
      "## havra": 6192,
      "## spraved": 6193,
      "##jení": 6194,
      "##,\njí": 6195,
      "## pení": 6196,
      "## – však": 6197,
      "## prvním": 6198,
      "## šedý": 6199,
      "## peruť": 6200,
      "##.\n\n\nJako": 6201,
      "##\na ne": 6202,
      "##,\nbyť": 6203,
      "## Čechách": 6204,
      "## snech": 6205,
      "##nést": 6206,
      "##.\n\n\nAž": 6207,
      "## pění": 6208,
      "##\nnej": 6209,
      "## hrdé": 6210,
      "## perutí": 6211,
      "## jmeno": 6212,
      "## se ve": 6213,
      "##rovi": 6214,
      "##kop": 6215,
      "##ženou": 6216,
      "##;\nP": 6217,
      "## milio": 6218,
      "##me se": 6219,
      "##, an": 6220,
      "##.\n\n\nZde": 6221,
      "##tl": 6222,
      "##volu": 6223,
      "## svědomí": 6224,
      "Do": 6225,
      "##čan": 6226,
      "##kova": 6227,
      "## hore": 6228,
      "## pravo": 6229,
      "##budu": 6230,
      "## dítky": 6231,
      "## v sl": 6232,
      "## veliká": 6233,
      "##kly": 6234,
      "##znal": 6235,
      "##řený": 6236,
      "## na rtech": 6237,
      "## díky": 6238,
      "##val jsem": 6239,
      "## hrál": 6240,
      "## vzdechy": 6241,
      "##\nsta": 6242,
      "## vsta": 6243,
      "##níš": 6244,
      "## toto": 6245,
      "##meně": 6246,
      "##cházel": 6247,
      "## jména": 6248,
      "## jinoch": 6249,
      "##,\nnám": 6250,
      "##\na jak": 6251,
      "## koho": 6252,
      "## sice": 6253,
      "## druži": 6254,
      "## Jan": 6255,
      "## mrtev": 6256,
      "## zámku": 6257,
      "##lice": 6258,
      "## a o": 6259,
      "## na vždy": 6260,
      "##již": 6261,
      "## rady": 6262,
      "##cemi": 6263,
      "## teskno": 6264,
      "## hostí": 6265,
      "##bití": 6266,
      "## nad hlavou": 6267,
      "## líbal": 6268,
      "## melodi": 6269,
      "## zbraně": 6270,
      "##, ob": 6271,
      "## v očích": 6272,
      "##koji": 6273,
      "## velí": 6274,
      "##aso": 6275,
      "## hlavi": 6276,
      "## platí": 6277,
      "##,\njenom": 6278,
      "##\nOd": 6279,
      "## kolena": 6280,
      "##zka": 6281,
      "##, mé": 6282,
      "##ního": 6283,
      "## mohy": 6284,
      "##;\nco": 6285,
      "##r a": 6286,
      "##tna": 6287,
      "##No": 6288,
      "##te mi": 6289,
      "##diti": 6290,
      "## šera": 6291,
      "## stojím": 6292,
      "## Fra": 6293,
      "## chlap": 6294,
      "## oltář": 6295,
      "##ěž": 6296,
      "## v tu": 6297,
      "## vstal": 6298,
      "##lených": 6299,
      "##.\nBy": 6300,
      "##chce": 6301,
      "##štní": 6302,
      "## neštěstí": 6303,
      "## ule": 6304,
      "##\na pro": 6305,
      "## chti": 6306,
      "## komu": 6307,
      "##\nsvět": 6308,
      "## mysti": 6309,
      "##: „V": 6310,
      "## smutná": 6311,
      "## okno": 6312,
      "## zvá": 6313,
      "## bru": 6314,
      "## oné": 6315,
      "## byst": 6316,
      "## želez": 6317,
      "## miluje": 6318,
      "## rým": 6319,
      "##\njsi": 6320,
      "## Slá": 6321,
      "##skutku": 6322,
      "## blankyt": 6323,
      "##, jsem": 6324,
      "##chat": 6325,
      "##\n\n\na": 6326,
      "##,\nv tom": 6327,
      "##, že jsem": 6328,
      "##.\nPři": 6329,
      "## ztratil": 6330,
      "## jakýs": 6331,
      "##Láska": 6332,
      "##vostí": 6333,
      "##:\nto": 6334,
      "## úz": 6335,
      "## racho": 6336,
      "## slzu": 6337,
      "## vzpomínám": 6338,
      "##, pra": 6339,
      "##!‘": 6340,
      "##lo to": 6341,
      "##nil se": 6342,
      "## žhoucí": 6343,
      "##nuž": 6344,
      "## krbu": 6345,
      "## třesou": 6346,
      "## mlh": 6347,
      "## v kou": 6348,
      "## moří": 6349,
      "## chtěli": 6350,
      "## spěje": 6351,
      "##proč": 6352,
      "## zeleň": 6353,
      "##.\n\n\nJiž": 6354,
      "## rakev": 6355,
      "##Ej": 6356,
      "##škou": 6357,
      "## utí": 6358,
      "## žu": 6359,
      "## spřá": 6360,
      "## odtud": 6361,
      "##rývá": 6362,
      "## zasmu": 6363,
      "## slunko": 6364,
      "## čtyři": 6365,
      "##nké": 6366,
      "##níh": 6367,
      "## út": 6368,
      "## tančí": 6369,
      "## nebesům": 6370,
      "## znaven": 6371,
      "## vzala": 6372,
      "##!\n\n\nJá": 6373,
      "##, vím": 6374,
      "##\nPři": 6375,
      "## zmírá": 6376,
      "## snách": 6377,
      "##ložil": 6378,
      "## lež": 6379,
      "## rozma": 6380,
      "##, svě": 6381,
      "## pláni": 6382,
      "## strojí": 6383,
      "## teskně": 6384,
      "##vrátil": 6385,
      "## hnízda": 6386,
      "##̌a": 6387,
      "##nkách": 6388,
      "##šad": 6389,
      "##čnosti": 6390,
      "## tichým": 6391,
      "## mali": 6392,
      "## modrých": 6393,
      "##,\nPři": 6394,
      "## řekne": 6395,
      "## moudro": 6396,
      "##kad": 6397,
      "## bytost": 6398,
      "##dily": 6399,
      "## pastý": 6400,
      "##, slu": 6401,
      "## pílí": 6402,
      "## vrat": 6403,
      "## nechtě": 6404,
      "##.\nNad": 6405,
      "## známý": 6406,
      "##!\n\n\nJ": 6407,
      "##, vra": 6408,
      "##pala": 6409,
      "##padne": 6410,
      "##\nmně": 6411,
      "##.\nJiž": 6412,
      "## průvod": 6413,
      "##dnout": 6414,
      "##rno": 6415,
      "##:\na": 6416,
      "##,\nně": 6417,
      "## zbývá": 6418,
      "##kolik": 6419,
      "## něhy": 6420,
      "##mán": 6421,
      "## vůbec": 6422,
      "##, ml": 6423,
      "## matkou": 6424,
      "##,\nNež": 6425,
      "##j’": 6426,
      "## vdo": 6427,
      "##\na vy": 6428,
      "##nutím": 6429,
      "##...\n\n\nS": 6430,
      "##,\nv nichž": 6431,
      "##stojí": 6432,
      "## žádná": 6433,
      "## háj": 6434,
      "## chtěl bych": 6435,
      "## dlani": 6436,
      "## se vrací": 6437,
      "##,\ndí": 6438,
      "## papí": 6439,
      "## ruchu": 6440,
      "##ňá": 6441,
      "##vši": 6442,
      "## ztr": 6443,
      "## na světě": 6444,
      "##voří": 6445,
      "##stál": 6446,
      "## jasná": 6447,
      "## dnešní": 6448,
      "## zříti": 6449,
      "## jarem": 6450,
      "## hrůz": 6451,
      "##tři": 6452,
      "##\ndu": 6453,
      "## se blíží": 6454,
      "##vedá": 6455,
      "## náho": 6456,
      "## libo": 6457,
      "## tanci": 6458,
      "## šero": 6459,
      "## síle": 6460,
      "## řád": 6461,
      "## psal": 6462,
      "##ráže": 6463,
      "##ly,\na": 6464,
      "## záští": 6465,
      "## líba": 6466,
      "## milovat": 6467,
      "## Lá": 6468,
      "##. –\nA": 6469,
      "## jinde": 6470,
      "##\nJako": 6471,
      "##ana": 6472,
      "##jsem": 6473,
      "##skla": 6474,
      "##atka": 6475,
      "## všeli": 6476,
      "## pohár": 6477,
      "## vojsko": 6478,
      "##mýšle": 6479,
      "##nců": 6480,
      "##zdo": 6481,
      "## sý": 6482,
      "##cítil": 6483,
      "## pospí": 6484,
      "##.\nŠ": 6485,
      "## těžkých": 6486,
      "## dvojí": 6487,
      "## kořist": 6488,
      "##dci": 6489,
      "## vnitř": 6490,
      "##éře": 6491,
      "##žka": 6492,
      "## dní": 6493,
      "##řeba": 6494,
      "## lev": 6495,
      "##?\nJe": 6496,
      "## práh": 6497,
      "##,\nAle": 6498,
      "## šíp": 6499,
      "##zar": 6500,
      "## se st": 6501,
      "##stačí": 6502,
      "##!““": 6503,
      "## soudu": 6504,
      "## gra": 6505,
      "## hrobem": 6506,
      "## můžeš": 6507,
      "## hudbou": 6508,
      "##\nno": 6509,
      "## lety": 6510,
      "##, vždyť": 6511,
      "##rého": 6512,
      "## činy": 6513,
      "##, otče": 6514,
      "## šaty": 6515,
      "## ďábel": 6516,
      "## v nitru": 6517,
      "##, matko": 6518,
      "## pojď": 6519,
      "##nich": 6520,
      "## česká": 6521,
      "##, slyš": 6522,
      "##cená": 6523,
      "## krásných": 6524,
      "##žuje": 6525,
      "##vota": 6526,
      "## lesku": 6527,
      "## rtu": 6528,
      "## nesla": 6529,
      "## hvězdi": 6530,
      "## myšlénky": 6531,
      "##, jim": 6532,
      "##nouc": 6533,
      "## rosou": 6534,
      "## čert": 6535,
      "##\ntou": 6536,
      "## rozkoší": 6537,
      "## kůň": 6538,
      "##? A": 6539,
      "## se mí": 6540,
      "## se zas": 6541,
      "##\na jako": 6542,
      "## ranou": 6543,
      "##jdeš": 6544,
      "## kterých": 6545,
      "## zakle": 6546,
      "## korunu": 6547,
      "## obloze": 6548,
      "##!)": 6549,
      "##čna": 6550,
      "## horou": 6551,
      "## skla": 6552,
      "##sili": 6553,
      "##!“ –\n": 6554,
      "## duše má": 6555,
      "## se ztrá": 6556,
      "## tvému": 6557,
      "## trpí": 6558,
      "## vrah": 6559,
      "## budoucnosti": 6560,
      "By": 6561,
      "##̌el": 6562,
      "## ovo": 6563,
      "## nalez": 6564,
      "## světlu": 6565,
      "## blahem": 6566,
      "##, jenž v": 6567,
      "## pohr": 6568,
      "##šťá": 6569,
      "##,\nmne": 6570,
      "## klasy": 6571,
      "## jednoho": 6572,
      "## s sebou": 6573,
      "##níka": 6574,
      "## zaví": 6575,
      "##ták": 6576,
      "## chví se": 6577,
      "## svatým": 6578,
      "##Bude": 6579,
      "## jediné": 6580,
      "##,\nče": 6581,
      "##kolem": 6582,
      "## zába": 6583,
      "## papež": 6584,
      "## mělo": 6585,
      "##, že je": 6586,
      "##, že to": 6587,
      "##, nebo": 6588,
      "##skému": 6589,
      "## chvílí": 6590,
      "## sladkých": 6591,
      "## hlubiny": 6592,
      "##zda": 6593,
      "## procit": 6594,
      "## hod": 6595,
      "## vzp": 6596,
      "##čívá": 6597,
      "##, sí": 6598,
      "##?\nÓ": 6599,
      "## se vr": 6600,
      "## druha": 6601,
      "## druhá": 6602,
      "## blahu": 6603,
      "##vný": 6604,
      "##řuje": 6605,
      "## věřit": 6606,
      "##\nsnad": 6607,
      "## tvrdé": 6608,
      "##,\nlí": 6609,
      "##;\nto": 6610,
      "## nitru": 6611,
      "##, co je": 6612,
      "## soucit": 6613,
      "##, prosím": 6614,
      "## knihu": 6615,
      "##ají": 6616,
      "##, moje": 6617,
      "##Ra": 6618,
      "##níci": 6619,
      "##mec": 6620,
      "## poslu": 6621,
      "## plody": 6622,
      "## sahá": 6623,
      "##\ndnes": 6624,
      "## na dně": 6625,
      "##isto": 6626,
      "##,\nlá": 6627,
      "## harmo": 6628,
      "## láká": 6629,
      "##Pojď": 6630,
      "##ster": 6631,
      "##nův": 6632,
      "## v slad": 6633,
      "## zdar": 6634,
      "## hrdlo": 6635,
      "## v zemi": 6636,
      "## jez": 6637,
      "##.\n\n\nHo": 6638,
      "##ku,": 6639,
      "##vilo": 6640,
      "##ret": 6641,
      "## byl jsem": 6642,
      "## kroků": 6643,
      "## mláden": 6644,
      "##lný": 6645,
      "##Dnes": 6646,
      "##lily": 6647,
      "##lí se": 6648,
      "## vzní": 6649,
      "## přede mnou": 6650,
      "##, jak to": 6651,
      "##heň": 6652,
      "##jou": 6653,
      "## netu": 6654,
      "##desá": 6655,
      "##děte": 6656,
      "## námě": 6657,
      "## chodil": 6658,
      "## samý": 6659,
      "## proudí": 6660,
      "## roucho": 6661,
      "## křesťan": 6662,
      "## hlásá": 6663,
      "##\nTak": 6664,
      "## v duchu": 6665,
      "##st a": 6666,
      "## se oz": 6667,
      "##ron": 6668,
      "## poza": 6669,
      "##něný": 6670,
      "##,\na po": 6671,
      "##;\nza": 6672,
      "## rety": 6673,
      "## hledím": 6674,
      "## svitu": 6675,
      "##zvuk": 6676,
      "## myšlenek": 6677,
      "##gna": 6678,
      "## z dáli": 6679,
      "## kmet": 6680,
      "## mohlo": 6681,
      "## pod ním": 6682,
      "## pučí": 6683,
      "## nechtěl": 6684,
      "## žalem": 6685,
      "## balva": 6686,
      "##šem": 6687,
      "## rovně": 6688,
      "## věšt": 6689,
      "##dinu": 6690,
      "##dav": 6691,
      "## vine": 6692,
      "## křídlo": 6693,
      "## blesku": 6694,
      "##,\nkdyby": 6695,
      "## brání": 6696,
      "## hudby": 6697,
      "## brzo": 6698,
      "## na něj": 6699,
      "## zho": 6700,
      "##nésti": 6701,
      "## bezpe": 6702,
      "##.\nSnad": 6703,
      "##prvé": 6704,
      "## hněvem": 6705,
      "## skuteč": 6706,
      "##ml": 6707,
      "## oře": 6708,
      "## korá": 6709,
      "##\nplá": 6710,
      "##lepší": 6711,
      "## dětství": 6712,
      "## počal": 6713,
      "## budoucnost": 6714,
      "##lz": 6715,
      "## nerozu": 6716,
      "##,\na za": 6717,
      "## konečně": 6718,
      "##Nač": 6719,
      "## píti": 6720,
      "## šeru": 6721,
      "## šíří": 6722,
      "## smutno": 6723,
      "## zimě": 6724,
      "## vojska": 6725,
      "## Prahy": 6726,
      "## manžel": 6727,
      "##lubo": 6728,
      "##kosti": 6729,
      "## pije": 6730,
      "## hrobů": 6731,
      "##̌u": 6732,
      "##Ha": 6733,
      "## hlado": 6734,
      "## odvě": 6735,
      "##rec": 6736,
      "##...\nZ": 6737,
      "## hrát": 6738,
      "## jediná": 6739,
      "## půjde": 6740,
      "## Václav": 6741,
      "##; –\n": 6742,
      "## pozor": 6743,
      "## ležel": 6744,
      "## žele": 6745,
      "## bub": 6746,
      "## přízrak": 6747,
      "## Krá": 6748,
      "## malí": 6749,
      "## možná": 6750,
      "##dém": 6751,
      "##lami": 6752,
      "## na vý": 6753,
      "##voji": 6754,
      "##diven": 6755,
      "## údy": 6756,
      "## pravou": 6757,
      "##, že v": 6758,
      "## hluk": 6759,
      "##díme": 6760,
      "##,\ntys": 6761,
      "##, du": 6762,
      "##íš": 6763,
      "## dna": 6764,
      "## pojí": 6765,
      "##padla": 6766,
      "##?\n\n\nM": 6767,
      "## běh": 6768,
      "##vník": 6769,
      "## neú": 6770,
      "## panna": 6771,
      "## odpoči": 6772,
      "## nemohu": 6773,
      "## ulici": 6774,
      "##,\nkaždý": 6775,
      "##, jichž": 6776,
      "## s bohem": 6777,
      "## je tu": 6778,
      "## zlost": 6779,
      "##, nežli": 6780,
      "## moudrost": 6781,
      "## vzdychá": 6782,
      "##hř": 6783,
      "##ver": 6784,
      "## sply": 6785,
      "## plál": 6786,
      "## slasti": 6787,
      "## – ale": 6788,
      "##zdá": 6789,
      "## jen se": 6790,
      "## taje": 6791,
      "##,\ntvé": 6792,
      "##stání": 6793,
      "## svobody": 6794,
      "## vonný": 6795,
      "## pochyb": 6796,
      "##gy": 6797,
      "## chr": 6798,
      "##bral": 6799,
      "## padl": 6800,
      "## déšť": 6801,
      "## jdi": 6802,
      "##,\na že": 6803,
      "##nuli": 6804,
      "##chají": 6805,
      "##.\nZde": 6806,
      "## ukru": 6807,
      "## roztou": 6808,
      "##žiti": 6809,
      "##\njsme": 6810,
      "## sud": 6811,
      "##vato": 6812,
      "##tické": 6813,
      "##vár": 6814,
      "##řilo": 6815,
      "## vedou": 6816,
      "## člu": 6817,
      "##mírá": 6818,
      "##ladý": 6819,
      "## pouť": 6820,
      "##:\n„Z": 6821,
      "##, mrt": 6822,
      "## obličej": 6823,
      "##nt": 6824,
      "## var": 6825,
      "##čeji": 6826,
      "##,\nzla": 6827,
      "## drtí": 6828,
      "## šťastný": 6829,
      "##rko": 6830,
      "## všickni": 6831,
      "##lamen": 6832,
      "## neji": 6833,
      "##. Jak": 6834,
      "##běh": 6835,
      "## strachem": 6836,
      "##,\nOd": 6837,
      "## usmívá": 6838,
      "##jmi": 6839,
      "##šlí": 6840,
      "## se p": 6841,
      "##dych": 6842,
      "##čilo": 6843,
      "##, nes": 6844,
      "## krvá": 6845,
      "## dary": 6846,
      "## spatřil": 6847,
      "##\nvi": 6848,
      "## v lásce": 6849,
      "##nář": 6850,
      "##,\na co": 6851,
      "## kolé": 6852,
      "##milo": 6853,
      "## živobytí": 6854,
      "##ždé": 6855,
      "##zené": 6856,
      "## oltáři": 6857,
      "## naklo": 6858,
      "## veške": 6859,
      "Ve": 6860,
      "##\ndí": 6861,
      "## a pro": 6862,
      "##lon": 6863,
      "## vedla": 6864,
      "## mohou": 6865,
      "##;\njá": 6866,
      "## všed": 6867,
      "##, T": 6868,
      "##pustí": 6869,
      "## círk": 6870,
      "## hříchy": 6871,
      "##, kdyby": 6872,
      "##, drahá": 6873,
      "##volal": 6874,
      "##děly": 6875,
      "##ny jsou": 6876,
      "##, smě": 6877,
      "## starost": 6878,
      "## lidskou": 6879,
      "## červ": 6880,
      "##zne": 6881,
      "## zachy": 6882,
      "## za mnou": 6883,
      "## ji v": 6884,
      "## smělý": 6885,
      "##, toť": 6886,
      "##pouště": 6887,
      "## zoufa": 6888,
      "## déman": 6889,
      "## drobné": 6890,
      "##slí": 6891,
      "##zvě": 6892,
      "## s tím": 6893,
      "## k vám": 6894,
      "##ny v": 6895,
      "## divém": 6896,
      "##dnes": 6897,
      "##\nnes": 6898,
      "## napo": 6899,
      "## vzpomínka": 6900,
      "##!\n\n\nVšak": 6901,
      "##?\nZda": 6902,
      "## mračna": 6903,
      "##Dě": 6904,
      "## v prsou": 6905,
      "##vánky": 6906,
      "## hodiny": 6907,
      "## bok": 6908,
      "##!\n\n\nTo": 6909,
      "## zeď": 6910,
      "## šíje": 6911,
      "## něhož": 6912,
      "##plně": 6913,
      "##jná": 6914,
      "## zt": 6915,
      "## bílým": 6916,
      "## cizím": 6917,
      "## vrch": 6918,
      "## hvězdami": 6919,
      "##Chci": 6920,
      "##dumči": 6921,
      "## zrovna": 6922,
      "## tmí": 6923,
      "## usta": 6924,
      "##\na že": 6925,
      "##ly,\n": 6926,
      "## lec": 6927,
      "## nářek": 6928,
      "## licho": 6929,
      "## jestli": 6930,
      "##děl jsem": 6931,
      "## blankytu": 6932,
      "##, už": 6933,
      "## zkvet": 6934,
      "## dnu": 6935,
      "##emu": 6936,
      "##rati": 6937,
      "##lovo": 6938,
      "## roky": 6939,
      "##čeli": 6940,
      "##tajen": 6941,
      "## městem": 6942,
      "##\nsvých": 6943,
      "## Ku": 6944,
      "## druhou": 6945,
      "##pouští": 6946,
      "##̌ivot": 6947,
      "## opusti": 6948,
      "##ýš": 6949,
      "## orel": 6950,
      "## tatí": 6951,
      "## vlasť": 6952,
      "## zlatě": 6953,
      "## vlnou": 6954,
      "## hřbe": 6955,
      "##.\n\n\nPod": 6956,
      "## smysl": 6957,
      "## začal": 6958,
      "##lzy": 6959,
      "## sf": 6960,
      "## se jen": 6961,
      "## hni": 6962,
      "## odě": 6963,
      "##naté": 6964,
      "##?\nTo": 6965,
      "## Tvá": 6966,
      "##.\n\n\nV tom": 6967,
      "## retů": 6968,
      "## podob": 6969,
      "## vyšla": 6970,
      "## vínem": 6971,
      "## lil": 6972,
      "## Tvoje": 6973,
      "## bran": 6974,
      "## zvolal": 6975,
      "##!“\n\n\nV": 6976,
      "## mnohou": 6977,
      "## zahradě": 6978,
      "##\nčer": 6979,
      "##zat": 6980,
      "##, pla": 6981,
      "## záme": 6982,
      "##žte": 6983,
      "##žnou": 6984,
      "##:\nNe": 6985,
      "##, jak v": 6986,
      "## bídný": 6987,
      "## jasnou": 6988,
      "## Ra": 6989,
      "## který": 6990,
      "## listů": 6991,
      "##kládá": 6992,
      "##, zas": 6993,
      "##roda": 6994,
      "##lilo": 6995,
      "## – ne": 6996,
      "##;\ni": 6997,
      "## straně": 6998,
      "## utrpení": 6999,
      "##\nRoz": 7000,
      "##\na u": 7001,
      "## vzkří": 7002,
      "##raky": 7003,
      "## nímž": 7004,
      "## temných": 7005,
      "## škoda": 7006,
      "##čních": 7007,
      "## opi": 7008,
      "##lil se": 7009,
      "##teční": 7010,
      "## přík": 7011,
      "##chová": 7012,
      "## svojich": 7013,
      "## pěši": 7014,
      "## mlze": 7015,
      "## půdy": 7016,
      "## břehy": 7017,
      "##!..": 7018,
      "## vry": 7019,
      "## op": 7020,
      "## ochra": 7021,
      "##vější": 7022,
      "##. J": 7023,
      "## díla": 7024,
      "##, ještě": 7025,
      "## hromu": 7026,
      "## sám a": 7027,
      "## Le": 7028,
      "##zněl": 7029,
      "## hlahol": 7030,
      "##rodu": 7031,
      "## střel": 7032,
      "##ladší": 7033,
      "##mání": 7034,
      "##,\ntou": 7035,
      "##,\ntvůj": 7036,
      "## spáti": 7037,
      "##kvete": 7038,
      "## pohledem": 7039,
      "##pomněl": 7040,
      "##prostřed": 7041,
      "## ztu": 7042,
      "## bzu": 7043,
      "##díte": 7044,
      "##:\nP": 7045,
      "## děva": 7046,
      "##\nVě": 7047,
      "## otcem": 7048,
      "##Ča": 7049,
      "## chaty": 7050,
      "##vku": 7051,
      "##lestí": 7052,
      "##voní": 7053,
      "## živá": 7054,
      "## starém": 7055,
      "## hříchů": 7056,
      "## žluté": 7057,
      "##,\nJi": 7058,
      "## tiskne": 7059,
      "##tným": 7060,
      "## her": 7061,
      "## bychom": 7062,
      "## jaksi": 7063,
      "## hoři": 7064,
      "## tuze": 7065,
      "##?\nO": 7066,
      "##,\nnebo": 7067,
      "## nesl": 7068,
      "## křížem": 7069,
      "##nká": 7070,
      "## zlou": 7071,
      "##žných": 7072,
      "## pěst": 7073,
      "## štěd": 7074,
      "## stráně": 7075,
      "## zimy": 7076,
      "## řadu": 7077,
      "##? Z": 7078,
      "## v ro": 7079,
      "##něla": 7080,
      "##volně": 7081,
      "##eza": 7082,
      "## poutní": 7083,
      "## síň": 7084,
      "##,\nKo": 7085,
      "## ptáka": 7086,
      "##... S": 7087,
      "##! Jak": 7088,
      "## svato": 7089,
      "##\na pak": 7090,
      "##nut": 7091,
      "##,\njsi": 7092,
      "##.\n\n\nVz": 7093,
      "## luna": 7094,
      "## mračen": 7095,
      "## pravdou": 7096,
      "##krvá": 7097,
      "##\nhla": 7098,
      "##,\nmí": 7099,
      "## k smrti": 7100,
      "##tiv": 7101,
      "##vily": 7102,
      "##,\nkrev": 7103,
      "## samotě": 7104,
      "## národa": 7105,
      "##vrt": 7106,
      "##\nví": 7107,
      "##lala": 7108,
      "## posel": 7109,
      "## pomalu": 7110,
      "##von": 7111,
      "## nohám": 7112,
      "## pěl": 7113,
      "## lži": 7114,
      "## požehná": 7115,
      "## Jiří": 7116,
      "## hbitě": 7117,
      "## zlých": 7118,
      "## a u": 7119,
      "##níky": 7120,
      "## nach": 7121,
      "## vzkřik": 7122,
      "## Vlta": 7123,
      "## křik": 7124,
      "##,\nkterou": 7125,
      "##,\nchce": 7126,
      "## Evro": 7127,
      "Vy": 7128,
      "##áhle": 7129,
      "## záhu": 7130,
      "## i s": 7131,
      "## teče": 7132,
      "## rato": 7133,
      "## pustý": 7134,
      "## zor": 7135,
      "## houští": 7136,
      "## vlídně": 7137,
      "## úzkost": 7138,
      "##ati": 7139,
      "## strý": 7140,
      "## hodin": 7141,
      "## spal": 7142,
      "##, nebe": 7143,
      "##:\n„A": 7144,
      "##...\nÓ": 7145,
      "## zoře": 7146,
      "## pochod": 7147,
      "## krátce": 7148,
      "##, tiše": 7149,
      "##nati": 7150,
      "##!\nZa": 7151,
      "## pláň": 7152,
      "##...\na": 7153,
      "## ryt": 7154,
      "## vzpomíná": 7155,
      "##rve": 7156,
      "##ír": 7157,
      "##nebo": 7158,
      "## spjat": 7159,
      "## pohře": 7160,
      "## kvítek": 7161,
      "## zmizí": 7162,
      "Pro": 7163,
      "## kme": 7164,
      "##lostí": 7165,
      "##,\nv něm": 7166,
      "##rouh": 7167,
      "## hřmě": 7168,
      "##.\n\n\nBa": 7169,
      "## krvavé": 7170,
      "##pomeň": 7171,
      "##ep": 7172,
      "##bší": 7173,
      "## schý": 7174,
      "## s výše": 7175,
      "## zar": 7176,
      "##kalo": 7177,
      "## lek": 7178,
      "## vznáší": 7179,
      "##čině": 7180,
      "## městu": 7181,
      "##?“\n„": 7182,
      "## mladi": 7183,
      "## chvátá": 7184,
      "## zřela": 7185,
      "## zvad": 7186,
      "##letěl": 7187,
      "## ar": 7188,
      "## –\ni": 7189,
      "## bozi": 7190,
      "## rozmar": 7191,
      "## odho": 7192,
      "## útro": 7193,
      "##máhá": 7194,
      "##,\nkdyž v": 7195,
      "## kterou": 7196,
      "##vakrát": 7197,
      "##slov": 7198,
      "##ditel": 7199,
      "## muk": 7200,
      "## nohu": 7201,
      "## poupat": 7202,
      "##stát": 7203,
      "##hýbá": 7204,
      "## volnost": 7205,
      "## blesků": 7206,
      "##svě": 7207,
      "##rném": 7208,
      "##,\nvá": 7209,
      "##vují": 7210,
      "## pavu": 7211,
      "## odda": 7212,
      "## přijdou": 7213,
      "##ňu": 7214,
      "## Ta": 7215,
      "## směsi": 7216,
      "## čaroděj": 7217,
      "## pýše": 7218,
      "##e mně": 7219,
      "## zap": 7220,
      "## vzej": 7221,
      "## přítom": 7222,
      "##,\nplá": 7223,
      "##.“\n„": 7224,
      "## lsti": 7225,
      "##,\nbys": 7226,
      "## vlastním": 7227,
      "## krutý": 7228,
      "## zvuků": 7229,
      "##\nmí": 7230,
      "##le,": 7231,
      "##řily": 7232,
      "## tu v": 7233,
      "## skrom": 7234,
      "## byl a": 7235,
      "## řece": 7236,
      "## Ca": 7237,
      "## v letu": 7238,
      "##!...\n\n": 7239,
      "##,\nž": 7240,
      "## se nad": 7241,
      "## oké": 7242,
      "##dostí": 7243,
      "## vedl": 7244,
      "## největší": 7245,
      "##pán": 7246,
      "## věčných": 7247,
      "##, ha": 7248,
      "##, byť": 7249,
      "## naději": 7250,
      "## příroda": 7251,
      "##ilu": 7252,
      "## z jara": 7253,
      "## jezd": 7254,
      "##pol": 7255,
      "##tář": 7256,
      "## živa": 7257,
      "## Me": 7258,
      "## černo": 7259,
      "## ohrom": 7260,
      "##.\nMá": 7261,
      "## chyt": 7262,
      "##,\ndě": 7263,
      "##,\nma": 7264,
      "##něte": 7265,
      "## hora": 7266,
      "##dán": 7267,
      "## víte": 7268,
      "## vina": 7269,
      "##chali": 7270,
      "## choť": 7271,
      "##pé": 7272,
      "##koho": 7273,
      "##nu,": 7274,
      "## zázra": 7275,
      "## hluboké": 7276,
      "## se tak": 7277,
      "## pohy": 7278,
      "## nevý": 7279,
      "##cek": 7280,
      "## ude": 7281,
      "## jitř": 7282,
      "##:\nK": 7283,
      "##, slunce": 7284,
      "##mena": 7285,
      "## jest a": 7286,
      "## směs": 7287,
      "## Zá": 7288,
      "## vidíš": 7289,
      "## juná": 7290,
      "## vtip": 7291,
      "##usí": 7292,
      "##raji": 7293,
      "##li,": 7294,
      "## dálku": 7295,
      "## stíhá": 7296,
      "## léto": 7297,
      "## hasne": 7298,
      "## hry": 7299,
      "##;\nO": 7300,
      "## českých": 7301,
      "## němá": 7302,
      "##,\nAn": 7303,
      "## znělo": 7304,
      "## Mora": 7305,
      "## plen": 7306,
      "## se tam": 7307,
      "## a vy": 7308,
      "##ci,": 7309,
      "##kázal": 7310,
      "## Se": 7311,
      "## všecku": 7312,
      "## zpěvem": 7313,
      "## tajné": 7314,
      "## pozdní": 7315,
      "##jdi": 7316,
      "## vkro": 7317,
      "##,\nč": 7318,
      "## zamyšle": 7319,
      "## –\nZ": 7320,
      "## roztr": 7321,
      "## šeré": 7322,
      "## toužil": 7323,
      "##, oči": 7324,
      "## sladkým": 7325,
      "## spíše": 7326,
      "##sé": 7327,
      "##zte": 7328,
      "## v pod": 7329,
      "## všudy": 7330,
      "##luví": 7331,
      "##\na o": 7332,
      "##nou a": 7333,
      "## –\nleč": 7334,
      "## přišlo": 7335,
      "## ráko": 7336,
      "## Bí": 7337,
      "##hleď": 7338,
      "## pěsti": 7339,
      "## okny": 7340,
      "## naposledy": 7341,
      "##jmou": 7342,
      "##,\nb": 7343,
      "## uče": 7344,
      "## most": 7345,
      "## sítě": 7346,
      "## větřík": 7347,
      "## kázal": 7348,
      "## prospě": 7349,
      "## balvan": 7350,
      "## prsten": 7351,
      "##sli": 7352,
      "##, dnes": 7353,
      "## nau": 7354,
      "## honí": 7355,
      "## úna": 7356,
      "##\nv té": 7357,
      "## pádí": 7358,
      "## hovoří": 7359,
      "##\nš": 7360,
      "##, běda": 7361,
      "## zbylo": 7362,
      "##titi": 7363,
      "##\na ve": 7364,
      "##čící": 7365,
      "##!\n\n\n„": 7366,
      "## kout": 7367,
      "## slávou": 7368,
      "## ondy": 7369,
      "## tábo": 7370,
      "## šťastně": 7371,
      "## božské": 7372,
      "## třikrát": 7373,
      "##stvu": 7374,
      "##lat": 7375,
      "## nesu": 7376,
      "##pošto": 7377,
      "##.\n\n\nAť": 7378,
      "##, nechť": 7379,
      "## lítá": 7380,
      "##dlech": 7381,
      "##Tys": 7382,
      "## pěkné": 7383,
      "##.\nBa": 7384,
      "## pýcha": 7385,
      "##ul": 7386,
      "## sch": 7387,
      "##,\nlid": 7388,
      "## jisto": 7389,
      "##,\nabych": 7390,
      "## ledo": 7391,
      "##\nsám": 7392,
      "##.\n\n\nSnad": 7393,
      "## vrhá": 7394,
      "## musíš": 7395,
      "## zelené": 7396,
      "## šlehá": 7397,
      "## béře": 7398,
      "## a tak": 7399,
      "## –\nM": 7400,
      "## zápla": 7401,
      "##, vů": 7402,
      "## páry": 7403,
      "## modro": 7404,
      "## otví": 7405,
      "##stoup": 7406,
      "## keř": 7407,
      "## hrst": 7408,
      "## přál": 7409,
      "##cá": 7410,
      "##\nči": 7411,
      "##\nBo": 7412,
      "##zli": 7413,
      "##\na já": 7414,
      "## hust": 7415,
      "##,\nKdo": 7416,
      "## mraku": 7417,
      "## pomsty": 7418,
      "## království": 7419,
      "##lni": 7420,
      "##jela": 7421,
      "##nus": 7422,
      "##mus": 7423,
      "##čuje": 7424,
      "## poky": 7425,
      "##lo,": 7426,
      "## uši": 7427,
      "## dopro": 7428,
      "##don": 7429,
      "##sej": 7430,
      "## dub": 7431,
      "##stoj": 7432,
      "##stách": 7433,
      "## širý": 7434,
      "## skládá": 7435,
      "##\nnem": 7436,
      "## způso": 7437,
      "##ně a": 7438,
      "##vaná": 7439,
      "## uka": 7440,
      "##voval": 7441,
      "## št": 7442,
      "##, J": 7443,
      "## sklí": 7444,
      "## mou duši": 7445,
      "##nějších": 7446,
      "## vrátil": 7447,
      "##\njim": 7448,
      "##par": 7449,
      "## sbí": 7450,
      "##, v nichž": 7451,
      "##\npak": 7452,
      "##:\n„Ne": 7453,
      "## ge": 7454,
      "## pyšně": 7455,
      "## ramena": 7456,
      "## v slzách": 7457,
      "## snové": 7458,
      "##,\nnic": 7459,
      "## zdí": 7460,
      "##.\n\n\nByl": 7461,
      "## – na": 7462,
      "##ťte": 7463,
      "## štva": 7464,
      "## zádumči": 7465,
      "## pouhé": 7466,
      "## parku": 7467,
      "## tlou": 7468,
      "## se jak": 7469,
      "##ce v": 7470,
      "##,\na ty": 7471,
      "## komo": 7472,
      "##tál": 7473,
      "##roud": 7474,
      "## rysy": 7475,
      "## hříš": 7476,
      "## žalost": 7477,
      "## se h": 7478,
      "##lie": 7479,
      "##por": 7480,
      "##atou": 7481,
      "## pusto": 7482,
      "## běhu": 7483,
      "##\nneb": 7484,
      "Kdo": 7485,
      "##\nně": 7486,
      "## v tvář": 7487,
      "##rud": 7488,
      "##\nať": 7489,
      "##jíti": 7490,
      "## závě": 7491,
      "## světlý": 7492,
      "## mláde": 7493,
      "##\ntím": 7494,
      "##fá": 7495,
      "## tůně": 7496,
      "## věřím": 7497,
      "##!\n\n\nN": 7498,
      "## šerem": 7499,
      "## pohro": 7500,
      "## zahrady": 7501,
      "## osudu": 7502,
      "## Franci": 7503,
      "## slední": 7504,
      "## zbě": 7505,
      "## pocti": 7506,
      "##dol": 7507,
      "## šva": 7508,
      "## mistr": 7509,
      "## hleď": 7510,
      "## syny": 7511,
      "## zbraní": 7512,
      "##ca": 7513,
      "##roval": 7514,
      "## potá": 7515,
      "##něly": 7516,
      "## zaplá": 7517,
      "## to bylo": 7518,
      "## děsí": 7519,
      "## prvý": 7520,
      "##?\nJá": 7521,
      "## každého": 7522,
      "## přesvěd": 7523,
      "## panny": 7524,
      "## prázdné": 7525,
      "## vesmír": 7526,
      "## Fran": 7527,
      "## vím, že": 7528,
      "## děcka": 7529,
      "##cítí": 7530,
      "## žilách": 7531,
      "## dán": 7532,
      "## mlád": 7533,
      "## břehů": 7534,
      "##qu": 7535,
      "##,\npí": 7536,
      "##, B": 7537,
      "##, v níž": 7538,
      "##stírá": 7539,
      "##.\n\n\nAch": 7540,
      "## sněhem": 7541,
      "## vlastně": 7542,
      "##vrací": 7543,
      "## skali": 7544,
      "## Tebou": 7545,
      "##šce": 7546,
      "## na ní": 7547,
      "##dechu": 7548,
      "##čena": 7549,
      "##, jaké": 7550,
      "## plným": 7551,
      "## hlasů": 7552,
      "## jisker": 7553,
      "## křídly": 7554,
      "## neskona": 7555,
      "##ckým": 7556,
      "## kšti": 7557,
      "## al": 7558,
      "##.\nJako": 7559,
      "##dějí": 7560,
      "##!\nDo": 7561,
      "## otrá": 7562,
      "## šílen": 7563,
      "## baví": 7564,
      "## zněla": 7565,
      "## pestré": 7566,
      "## slavík": 7567,
      "##Lo": 7568,
      "##,\ndá": 7569,
      "## opá": 7570,
      "##kati": 7571,
      "## úkol": 7572,
      "##.\nVz": 7573,
      "## otco": 7574,
      "## déle": 7575,
      "##lce": 7576,
      "##.)": 7577,
      "##gan": 7578,
      "## zbude": 7579,
      "## burá": 7580,
      "## stádo": 7581,
      "## století": 7582,
      "## činu": 7583,
      "##římal": 7584,
      "## chrámy": 7585,
      "## Co": 7586,
      "##včí": 7587,
      "## stůj": 7588,
      "##haly": 7589,
      "## Vla": 7590,
      "## pány": 7591,
      "##.\nV tom": 7592,
      "## činů": 7593,
      "## kamení": 7594,
      "##,\nNeb": 7595,
      "## zimní": 7596,
      "## hudbu": 7597,
      "## bludi": 7598,
      "## zvyk": 7599,
      "##,\njimž": 7600,
      "##tví": 7601,
      "## se již": 7602,
      "## mudr": 7603,
      "##.\nVě": 7604,
      "## starce": 7605,
      "## lodí": 7606,
      "##,\ndru": 7607,
      "## úsměvu": 7608,
      "## dráhy": 7609,
      "## vzdoru": 7610,
      "##tkou": 7611,
      "##, jem": 7612,
      "## msti": 7613,
      "##eno": 7614,
      "## jedo": 7615,
      "## –\nty": 7616,
      "## holé": 7617,
      "## věž": 7618,
      "##vedu": 7619,
      "##piti": 7620,
      "## marno": 7621,
      "## křeh": 7622,
      "##tas": 7623,
      "##,\nbí": 7624,
      "## z vás": 7625,
      "## se nám": 7626,
      "##?\nT": 7627,
      "## praco": 7628,
      "## kalí": 7629,
      "## lidmi": 7630,
      "##bouře": 7631,
      "## básně": 7632,
      "## člověkem": 7633,
      "## Říma": 7634,
      "## východu": 7635,
      "##ový": 7636,
      "##la,\na": 7637,
      "## polem": 7638,
      "## vzty": 7639,
      "##!\nKdo": 7640,
      "##vuk": 7641,
      "##!\n\n\nH": 7642,
      "## svr": 7643,
      "##.\nA když": 7644,
      "## reků": 7645,
      "##!“\n\n\nS": 7646,
      "## hrozná": 7647,
      "## bly": 7648,
      "## chou": 7649,
      "##lévá": 7650,
      "## vzali": 7651,
      "## kor": 7652,
      "## jsem si": 7653,
      "##sadil": 7654,
      "## sladko": 7655,
      "## šíle": 7656,
      "##. Však": 7657,
      "## krouží": 7658,
      "##,\nBo": 7659,
      "## se le": 7660,
      "##likrát": 7661,
      "##.\n\n\nLe": 7662,
      "## roní": 7663,
      "## rtí": 7664,
      "## rozlo": 7665,
      "## dáno": 7666,
      "##, abych": 7667,
      "## slze": 7668,
      "## chvění": 7669,
      "##pad’": 7670,
      "## nemoh’": 7671,
      "## paprs": 7672,
      "##sám": 7673,
      "##\nvá": 7674,
      "## ol": 7675,
      "##lící": 7676,
      "## vrahů": 7677,
      "##padlo": 7678,
      "## hřbitov": 7679,
      "## severu": 7680,
      "## přelud": 7681,
      "##vče": 7682,
      "##\nbu": 7683,
      "## v tobě": 7684,
      "## vešel": 7685,
      "##mutně": 7686,
      "## husté": 7687,
      "## svítá": 7688,
      "## strání": 7689,
      "## kypí": 7690,
      "## stup": 7691,
      "## mrz": 7692,
      "## trium": 7693,
      "##srd": 7694,
      "##jsou": 7695,
      "##řka": 7696,
      "## na pa": 7697,
      "##lání": 7698,
      "## války": 7699,
      "##, jakby": 7700,
      "## pěti": 7701,
      "## hluboký": 7702,
      "##dřív": 7703,
      "## nav": 7704,
      "##tín": 7705,
      "##lym": 7706,
      "## dívku": 7707,
      "##,\nproto": 7708,
      "## zvěř": 7709,
      "## červánků": 7710,
      "##\ndá": 7711,
      "##,\na přec": 7712,
      "## kost": 7713,
      "## božím": 7714,
      "## vodní": 7715,
      "## pánů": 7716,
      "## před ní": 7717,
      "## hluku": 7718,
      "##bené": 7719,
      "## knih": 7720,
      "## půlnoc": 7721,
      "##Nuže": 7722,
      "## ideá": 7723,
      "##, bratře": 7724,
      "## jásot": 7725,
      "##bka": 7726,
      "##jdem": 7727,
      "##,\nČe": 7728,
      "## stkvě": 7729,
      "##říme": 7730,
      "##vanou": 7731,
      "## žili": 7732,
      "## stár": 7733,
      "## stálo": 7734,
      "##, kterým": 7735,
      "##zala": 7736,
      "## mlčení": 7737,
      "## geni": 7738,
      "## šepce": 7739,
      "## perutě": 7740,
      "##lastní": 7741,
      "## půlnoci": 7742,
      "##zné": 7743,
      "##věř": 7744,
      "##skými": 7745,
      "##žela": 7746,
      "##;\ntu": 7747,
      "##;\nPo": 7748,
      "## novém": 7749,
      "##štěm": 7750,
      "## bezna": 7751,
      "##nický": 7752,
      "## dcery": 7753,
      "##Ru": 7754,
      "##lesti": 7755,
      "## to,": 7756,
      "## lem": 7757,
      "##dář": 7758,
      "##, l": 7759,
      "## jako z": 7760,
      "## for": 7761,
      "## pohlí": 7762,
      "## spěch": 7763,
      "## širé": 7764,
      "## divná": 7765,
      "##.\n\n\nDnes": 7766,
      "## tlum": 7767,
      "##nné": 7768,
      "##pne": 7769,
      "## rozlou": 7770,
      "## kane": 7771,
      "## strašli": 7772,
      "## hubi": 7773,
      "## vzpomínek": 7774,
      "## hlásí": 7775,
      "## zdráv": 7776,
      "##ker": 7777,
      "## v čele": 7778,
      "##čat": 7779,
      "##list": 7780,
      "##ilou": 7781,
      "##, rá": 7782,
      "##,\nneboť": 7783,
      "## bral": 7784,
      "## vavří": 7785,
      "## smrť": 7786,
      "## teskné": 7787,
      "## miluji": 7788,
      "##\nra": 7789,
      "##hrou": 7790,
      "##plu": 7791,
      "## podi": 7792,
      "##tování": 7793,
      "##, klid": 7794,
      "##duje": 7795,
      "## přemo": 7796,
      "## hvězdou": 7797,
      "##.\nNež": 7798,
      "## hrdý": 7799,
      "## a jak": 7800,
      "## uví": 7801,
      "##alý": 7802,
      "## prostý": 7803,
      "##diná": 7804,
      "##čily": 7805,
      "## i na": 7806,
      "##, sou": 7807,
      "## nes’": 7808,
      "## se r": 7809,
      "## hví": 7810,
      "##enku": 7811,
      "##.\nLe": 7812,
      "##žených": 7813,
      "## letěl": 7814,
      "##ďar": 7815,
      "## víčka": 7816,
      "## skro": 7817,
      "## láme": 7818,
      "##ceni": 7819,
      "## řadou": 7820,
      "## popel": 7821,
      "##,\ndál": 7822,
      "## zasta": 7823,
      "##líbá": 7824,
      "## koní": 7825,
      "## náv": 7826,
      "## stály": 7827,
      "## stranu": 7828,
      "## stud": 7829,
      "## vonné": 7830,
      "##, jeho": 7831,
      "##, nikdy": 7832,
      "##,\nvíc": 7833,
      "## onu": 7834,
      "##,\na pak": 7835,
      "## kan": 7836,
      "## ty jsi": 7837,
      "## Má": 7838,
      "##?\n\n\nNe": 7839,
      "## klasů": 7840,
      "## kdosi": 7841,
      "##nické": 7842,
      "## přátelé": 7843,
      "##dlem": 7844,
      "## tká": 7845,
      "##enal": 7846,
      "##ruší": 7847,
      "##nov": 7848,
      "## do tmy": 7849,
      "## –\ntu": 7850,
      "## těl": 7851,
      "##\nsem": 7852,
      "## jedem": 7853,
      "## Tu": 7854,
      "##,\nnech": 7855,
      "##,\nTen": 7856,
      "## jdeš": 7857,
      "## zvěda": 7858,
      "## různých": 7859,
      "##pka": 7860,
      "## sled": 7861,
      "## se řítí": 7862,
      "##lib": 7863,
      "## je z": 7864,
      "##je\na": 7865,
      "## byt": 7866,
      "##, kou": 7867,
      "## horu": 7868,
      "##!\nU": 7869,
      "##!\nHle": 7870,
      "## objímá": 7871,
      "## paží": 7872,
      "## pánu": 7873,
      "## nebeské": 7874,
      "## blaží": 7875,
      "## bloudil": 7876,
      "## posměch": 7877,
      "## nějž": 7878,
      "##, sotva": 7879,
      "## cestách": 7880,
      "## nad ní": 7881,
      "## deset": 7882,
      "## kříži": 7883,
      "## našeho": 7884,
      "## ostrý": 7885,
      "##? Ne": 7886,
      "## vysoko": 7887,
      "## v ráz": 7888,
      "##chva": 7889,
      "## oby": 7890,
      "## pozo": 7891,
      "## prosím": 7892,
      "##bech": 7893,
      "##?\nJ": 7894,
      "## příklad": 7895,
      "## strasti": 7896,
      "##cenou": 7897,
      "##\nKrá": 7898,
      "## jedinou": 7899,
      "## sklonil": 7900,
      "## paprsky": 7901,
      "## schází": 7902,
      "##lava": 7903,
      "## švi": 7904,
      "##lému": 7905,
      "##žít": 7906,
      "##?\nN": 7907,
      "## tamo": 7908,
      "## šepo": 7909,
      "## plných": 7910,
      "## jasem": 7911,
      "## žízni": 7912,
      "## skáče": 7913,
      "## komna": 7914,
      "## drak": 7915,
      "##rodil": 7916,
      "## vypu": 7917,
      "##jit": 7918,
      "## prvé": 7919,
      "## přísně": 7920,
      "##,\ntvá": 7921,
      "##-li se": 7922,
      "## vždyť": 7923,
      "##, pojď": 7924,
      "## známé": 7925,
      "## prostor": 7926,
      "## zdroj": 7927,
      "##ki": 7928,
      "##! H": 7929,
      "## pova": 7930,
      "## požá": 7931,
      "##na,": 7932,
      "## dělí": 7933,
      "## děsný": 7934,
      "## perel": 7935,
      "## svítil": 7936,
      "## svate": 7937,
      "## zmar": 7938,
      "## jiskra": 7939,
      "## pas": 7940,
      "## uto": 7941,
      "## upí": 7942,
      "##tečně": 7943,
      "## leč": 7944,
      "##. Já": 7945,
      "## díval": 7946,
      "##\nzla": 7947,
      "## mé duši": 7948,
      "##cházím": 7949,
      "## těžkým": 7950,
      "## studá": 7951,
      "## Vaše": 7952,
      "## fará": 7953,
      "## chceme": 7954,
      "##bce": 7955,
      "##lam": 7956,
      "##řej": 7957,
      "##ko,": 7958,
      "##dinou": 7959,
      "## rtům": 7960,
      "## muky": 7961,
      "## mukou": 7962,
      "## chtějí": 7963,
      "## chytá": 7964,
      "## trávu": 7965,
      "## kles’": 7966,
      "##pjat": 7967,
      "## v hloubi": 7968,
      "## oněch": 7969,
      "## poru": 7970,
      "## zavz": 7971,
      "##sele": 7972,
      "## cele": 7973,
      "## By": 7974,
      "## staře": 7975,
      "## plny": 7976,
      "## mocné": 7977,
      "##!\nVy": 7978,
      "## potok": 7979,
      "## v stínu": 7980,
      "## ďas": 7981,
      "## hřá": 7982,
      "##ruď": 7983,
      "##citu": 7984,
      "## řetěz": 7985,
      "## slovu": 7986,
      "## dálce": 7987,
      "##cena": 7988,
      "## jizbě": 7989,
      "##brý": 7990,
      "## v před": 7991,
      "##rali": 7992,
      "##lují": 7993,
      "## chech": 7994,
      "## skvr": 7995,
      "## lístek": 7996,
      "## otče": 7997,
      "## zříš": 7998,
      "##proti": 7999,
      "##.\nDnes": 8000,
      "## zapomněl": 8001,
      "## z ruky": 8002,
      "##štil": 8003,
      "## – jen": 8004,
      "##nivě": 8005,
      "## muce": 8006,
      "##\nzní": 8007,
      "## plakal": 8008,
      "## –\n\n\nA": 8009,
      "## chtělo": 8010,
      "## svaty": 8011,
      "## zněly": 8012,
      "## slib": 8013,
      "## plíží": 8014,
      "## zmatku": 8015,
      "##,\nden": 8016,
      "## dvůr": 8017,
      "##laho": 8018,
      "##cestí": 8019,
      "## jiného": 8020,
      "## mohli": 8021,
      "## ručky": 8022,
      "##, jaká": 8023,
      "## plála": 8024,
      "## poslal": 8025,
      "## oblaky": 8026,
      "## sloup": 8027,
      "##stupuje": 8028,
      "## peněz": 8029,
      "Má": 8030,
      "##bami": 8031,
      "##, všecko": 8032,
      "##: S": 8033,
      "## noh": 8034,
      "##ňal": 8035,
      "## stáda": 8036,
      "## obět": 8037,
      "## pokoje": 8038,
      "## znáš": 8039,
      "##. –\n\n\nA": 8040,
      "##dražší": 8041,
      "##idím": 8042,
      "##všad": 8043,
      "##n,": 8044,
      "##,\nHo": 8045,
      "## oži": 8046,
      "## jesen": 8047,
      "##ímě": 8048,
      "##čež": 8049,
      "##,\njde": 8050,
      "## záho": 8051,
      "## nejde": 8052,
      "##jemi": 8053,
      "## hradě": 8054,
      "##stoupí": 8055,
      "##zený": 8056,
      "## teplý": 8057,
      "## blýska": 8058,
      "## \n": 8059,
      "## o něm": 8060,
      "## – co": 8061,
      "##.\nProč": 8062,
      "## –\nale": 8063,
      "## chrání": 8064,
      "## silný": 8065,
      "## bujné": 8066,
      "##vení": 8067,
      "## v slunci": 8068,
      "##škem": 8069,
      "## sestry": 8070,
      "## uvě": 8071,
      "##bouzí": 8072,
      "## druhů": 8073,
      "## slastí": 8074,
      "##hradu": 8075,
      "## pohádky": 8076,
      "## hedvá": 8077,
      "##ebe": 8078,
      "##, pa": 8079,
      "## ptal": 8080,
      "##tiny": 8081,
      "##kuje": 8082,
      "## prova": 8083,
      "##mívá": 8084,
      "## šedá": 8085,
      "##ejte": 8086,
      "## pějí": 8087,
      "##,\nAni": 8088,
      "##lův": 8089,
      "## vzpomínky": 8090,
      "##hnouti": 8091,
      "## kouzla": 8092,
      "## něžné": 8093,
      "## měkký": 8094,
      "## plynou": 8095,
      "## břímě": 8096,
      "## bohatýr": 8097,
      "##\ntéž": 8098,
      "##sným": 8099,
      "##ili": 8100,
      "##naly": 8101,
      "##hoří": 8102,
      "## dostal": 8103,
      "## hladem": 8104,
      "## nivy": 8105,
      "##sají": 8106,
      "## bídě": 8107,
      "##cených": 8108,
      "## půdě": 8109,
      "## plesá": 8110,
      "##, to je": 8111,
      "## dvoře": 8112,
      "## dotk": 8113,
      "##, nepo": 8114,
      "##, co se": 8115,
      "##též": 8116,
      "##.\n\n\nNež": 8117,
      "## houšti": 8118,
      "## lampy": 8119,
      "## vnady": 8120,
      "## jdeme": 8121,
      "## ozá": 8122,
      "##něz": 8123,
      "## učí": 8124,
      "## zad": 8125,
      "##illu": 8126,
      "##čeho": 8127,
      "##děle": 8128,
      "##. To": 8129,
      "## spro": 8130,
      "## hladí": 8131,
      "##, jest": 8132,
      "## luhy": 8133,
      "## svíce": 8134,
      "##čkové": 8135,
      "## Čechy": 8136,
      "## hlubinách": 8137,
      "## zahrá": 8138,
      "## pilně": 8139,
      "##rst": 8140,
      "##nský": 8141,
      "##, děti": 8142,
      "##ří se": 8143,
      "## mojich": 8144,
      "##:\nna": 8145,
      "##tati": 8146,
      "## jsem na": 8147,
      "## cig": 8148,
      "## v sa": 8149,
      "##,\nnežli": 8150,
      "## kněží": 8151,
      "## posledním": 8152,
      "## nepřítel": 8153,
      "## v moři": 8154,
      "##.\nČe": 8155,
      "##říkání": 8156,
      "## vypla": 8157,
      "## předc": 8158,
      "##bíhá": 8159,
      "## čistou": 8160,
      "##\nkvět": 8161,
      "##, kde se": 8162,
      "## smutnou": 8163,
      "## snadno": 8164,
      "##nký": 8165,
      "## kres": 8166,
      "## poš": 8167,
      "## –\n\n": 8168,
      "## uhlí": 8169,
      "## vzrost": 8170,
      "## koni": 8171,
      "## prcha": 8172,
      "##?\nKde": 8173,
      "## řetě": 8174,
      "## dálné": 8175,
      "## resi": 8176,
      "## pohád": 8177,
      "## pevný": 8178,
      "## skřivan": 8179,
      "##av": 8180,
      "## z té": 8181,
      "## zbyl": 8182,
      "##leť": 8183,
      "## a ve": 8184,
      "## pocit": 8185,
      "##žet": 8186,
      "## vztá": 8187,
      "## bod": 8188,
      "## návra": 8189,
      "## směje": 8190,
      "##!\nAť": 8191,
      "##.\nPod": 8192,
      "##posled": 8193,
      "## paprsků": 8194,
      "## vzplane": 8195,
      "## vzejde": 8196,
      "##ek": 8197,
      "##pné": 8198,
      "## v oči": 8199,
      "##noubí": 8200,
      "##. Do": 8201,
      "## oblou": 8202,
      "## němé": 8203,
      "## síni": 8204,
      "##!“\n\n\nTak": 8205,
      "## kroku": 8206,
      "## pozved": 8207,
      "## Osud": 8208,
      "## cenu": 8209,
      "## zticha": 8210,
      "##,\nře": 8211,
      "## a co": 8212,
      "## jel": 8213,
      "## dojem": 8214,
      "## horami": 8215,
      "## oblá": 8216,
      "##\nvšak": 8217,
      "##?\nD": 8218,
      "## stan": 8219,
      "## plály": 8220,
      "## šíř": 8221,
      "## chrámě": 8222,
      "## hrdla": 8223,
      "## se ztrácí": 8224,
      "##řmí": 8225,
      "## na nebi": 8226,
      "## stý": 8227,
      "##těstí": 8228,
      "##děk": 8229,
      "##;\nT": 8230,
      "## druzí": 8231,
      "## slabé": 8232,
      "## žízeň": 8233,
      "## dlaž": 8234,
      "## dětské": 8235,
      "## kriti": 8236,
      "##\nRo": 8237,
      "##šecko": 8238,
      "## u mne": 8239,
      "## oddech": 8240,
      "##šili": 8241,
      "## přichází": 8242,
      "##stalo": 8243,
      "## bázní": 8244,
      "## rybní": 8245,
      "## skočí": 8246,
      "## bere": 8247,
      "## měkce": 8248,
      "##\nž": 8249,
      "##, tím": 8250,
      "##čkej": 8251,
      "##no je": 8252,
      "##vému": 8253,
      "##;\ntak": 8254,
      "##, řek": 8255,
      "##, sla": 8256,
      "## výkři": 8257,
      "## kul": 8258,
      "## slých": 8259,
      "## tmavou": 8260,
      "## nedočka": 8261,
      "## šeptal": 8262,
      "## klidem": 8263,
      "##hří": 8264,
      "## k po": 8265,
      "## se se": 8266,
      "## jaká": 8267,
      "##ťá": 8268,
      "## něhu": 8269,
      "##!\n\n\nZa": 8270,
      "##, jak je": 8271,
      "## řídí": 8272,
      "## jizby": 8273,
      "##svět": 8274,
      "##ená": 8275,
      "##dejte": 8276,
      "## nář": 8277,
      "## nástro": 8278,
      "##mit": 8279,
      "##!\n\n\nJen": 8280,
      "## taký": 8281,
      "## rubá": 8282,
      "##moz": 8283,
      "##,\nz nichž": 8284,
      "## plálo": 8285,
      "## černým": 8286,
      "## synů": 8287,
      "## radosť": 8288,
      "## hřímá": 8289,
      "## krátké": 8290,
      "## oltáře": 8291,
      "## mdlý": 8292,
      "## mateř": 8293,
      "## křoví": 8294,
      "##lnou": 8295,
      "## dych": 8296,
      "##něnou": 8297,
      "## na tu": 8298,
      "## uměl": 8299,
      "## jakby": 8300,
      "##, H": 8301,
      "## dravý": 8302,
      "## vlády": 8303,
      "## dráhu": 8304,
      "## zdobí": 8305,
      "## Petr": 8306,
      "##plí": 8307,
      "## v du": 8308,
      "##la jsem": 8309,
      "##věst": 8310,
      "##daje": 8311,
      "## se kloní": 8312,
      "## zvuku": 8313,
      "## různé": 8314,
      "## Jak": 8315,
      "##rtu": 8316,
      "##hnal": 8317,
      "## smy": 8318,
      "## houf": 8319,
      "## – já": 8320,
      "##sklo": 8321,
      "## chře": 8322,
      "##mot": 8323,
      "## hromo": 8324,
      "## So": 8325,
      "##,\nAť": 8326,
      "## věčným": 8327,
      "##\ntvé": 8328,
      "##kladu": 8329,
      "## vrásky": 8330,
      "## počá": 8331,
      "## květech": 8332,
      "##, jimž": 8333,
      "##!\na": 8334,
      "##*)": 8335,
      "##šech": 8336,
      "## leto": 8337,
      "##pali": 8338,
      "## mé duše": 8339,
      "## blahý": 8340,
      "##sťa": 8341,
      "## bijí": 8342,
      "## tragi": 8343,
      "## zvláštní": 8344,
      "## zlého": 8345,
      "## podí": 8346,
      "##toma": 8347,
      "##míru": 8348,
      "##mítá": 8349,
      "## siro": 8350,
      "## peří": 8351,
      "## citem": 8352,
      "##.\n\n\nSe": 8353,
      "## širém": 8354,
      "## malých": 8355,
      "## skálu": 8356,
      "##,\nJež": 8357,
      "## s čela": 8358,
      "##,\nCh": 8359,
      "##, každý": 8360,
      "##. Za": 8361,
      "##,\njenž v": 8362,
      "##skot": 8363,
      "## chladnou": 8364,
      "## tmavých": 8365,
      "##\nhle": 8366,
      "##!...\n": 8367,
      "##nět": 8368,
      "## zazpí": 8369,
      "##luj": 8370,
      "## rozvi": 8371,
      "## živí": 8372,
      "##Pod": 8373,
      "## temna": 8374,
      "##božá": 8375,
      "## neob": 8376,
      "## žehná": 8377,
      "## památku": 8378,
      "## nésti": 8379,
      "## náměstí": 8380,
      "## v tváři": 8381,
      "##ýt": 8382,
      "## a se": 8383,
      "##komu": 8384,
      "##;\nkdyž": 8385,
      "##ň se": 8386,
      "## vinou": 8387,
      "## sos": 8388,
      "## bázně": 8389,
      "## jaře": 8390,
      "## snivé": 8391,
      "## rakvi": 8392,
      "## moudrosti": 8393,
      "##ud": 8394,
      "##čal": 8395,
      "## byť": 8396,
      "##léhá": 8397,
      "##muž": 8398,
      "## lípy": 8399,
      "## stole": 8400,
      "## mladost": 8401,
      "## politi": 8402,
      "## třpyt": 8403,
      "##,\nJiž": 8404,
      "##,\nbude": 8405,
      "## mroucí": 8406,
      "##,\nvý": 8407,
      "## má duše": 8408,
      "## staří": 8409,
      "##nesli": 8410,
      "## Ves": 8411,
      "## černém": 8412,
      "## druhy": 8413,
      "## dýmu": 8414,
      "##blíž": 8415,
      "##mra": 8416,
      "## nouze": 8417,
      "## dnové": 8418,
      "## poe": 8419,
      "## –\nza": 8420,
      "##, kle": 8421,
      "##mund": 8422,
      "##. Co": 8423,
      "## zástu": 8424,
      "##lechti": 8425,
      "## myšlének": 8426,
      "## čtve": 8427,
      "##! To": 8428,
      "## očka": 8429,
      "##žem": 8430,
      "##até": 8431,
      "## pro nás": 8432,
      "## těká": 8433,
      "##mize": 8434,
      "## bít": 8435,
      "## puká": 8436,
      "## Ře": 8437,
      "##, bys": 8438,
      "## Ježíš": 8439,
      "## zoufalství": 8440,
      "Jen": 8441,
      "##the": 8442,
      "##ždě": 8443,
      "##.\n\n\nČe": 8444,
      "## – ó": 8445,
      "## mozo": 8446,
      "## věži": 8447,
      "## srdcy": 8448,
      "## tužeb": 8449,
      "## lán": 8450,
      "## modrým": 8451,
      "## bolesť": 8452,
      "## zdálo": 8453,
      "## zim": 8454,
      "## volný": 8455,
      "## teplo": 8456,
      "## ulice": 8457,
      "## Pane": 8458,
      "## oblohou": 8459,
      "## ceny": 8460,
      "## ďáb": 8461,
      "##dného": 8462,
      "##: V": 8463,
      "## s úsměvem": 8464,
      "## histo": 8465,
      "## na té": 8466,
      "## jist": 8467,
      "##loub": 8468,
      "## měly": 8469,
      "##pel": 8470,
      "## cítit": 8471,
      "## jasno": 8472,
      "## houpá": 8473,
      "## jménem": 8474,
      "## ovoce": 8475,
      "##iv": 8476,
      "##ájem": 8477,
      "## a ko": 8478,
      "##řeje": 8479,
      "##ruje": 8480,
      "## vše to": 8481,
      "##\njde": 8482,
      "## spásu": 8483,
      "## horké": 8484,
      "##.\nJi": 8485,
      "## propastí": 8486,
      "## paměť": 8487,
      "## šlechet": 8488,
      "## shle": 8489,
      "## osi": 8490,
      "## povy": 8491,
      "##skvě": 8492,
      "##!\nB": 8493,
      "##. U": 8494,
      "##mila": 8495,
      "## hladu": 8496,
      "## vůd": 8497,
      "##,\nmám": 8498,
      "## střechy": 8499,
      "##pasi": 8500,
      "## vyslo": 8501,
      "##, věř": 8502,
      "##,\ntěch": 8503,
      "##ích": 8504,
      "## van": 8505,
      "##ladí": 8506,
      "##terá": 8507,
      "## do ní": 8508,
      "##tější": 8509,
      "## překva": 8510,
      "## dával": 8511,
      "## Pi": 8512,
      "## drahých": 8513,
      "##vena": 8514,
      "## dlouze": 8515,
      "## vlastních": 8516,
      "## Čechů": 8517,
      "##tená": 8518,
      "##ravda": 8519,
      "## měkké": 8520,
      "##rna": 8521,
      "##\nHo": 8522,
      "##lasy": 8523,
      "##dy a": 8524,
      "## to jen": 8525,
      "## leta": 8526,
      "## prs": 8527,
      "## los": 8528,
      "## tísní": 8529,
      "## večerní": 8530,
      "## sedmi": 8531,
      "## dámy": 8532,
      "## mžikem": 8533,
      "##dolá": 8534,
      "## –\nvše": 8535,
      "## dusí": 8536,
      "##, so": 8537,
      "##.\n\n\nVě": 8538,
      "## cír": 8539,
      "##,\nKrá": 8540,
      "##klama": 8541,
      "## šťastni": 8542,
      "## se točí": 8543,
      "## příštích": 8544,
      "##\npí": 8545,
      "##, byl": 8546,
      "## k cíli": 8547,
      "## oso": 8548,
      "##...\n\n\nZ": 8549,
      "##;\nty": 8550,
      "##lout": 8551,
      "## přehlu": 8552,
      "##stavu": 8553,
      "##?\nCož": 8554,
      "## dílu": 8555,
      "##,\njeho": 8556,
      "## bájí": 8557,
      "## dešti": 8558,
      "##: „Z": 8559,
      "## kruté": 8560,
      "## hluboko": 8561,
      "## Praha": 8562,
      "## v nebe": 8563,
      "## kéž": 8564,
      "## naším": 8565,
      "## stůně": 8566,
      "##vána": 8567,
      "## jsy": 8568,
      "##!\nI": 8569,
      "##cos": 8570,
      "## jasným": 8571,
      "##... a": 8572,
      "## tmavá": 8573,
      "## umřít": 8574,
      "## svobodě": 8575,
      "## pevné": 8576,
      "## drahoka": 8577,
      "##\nlid": 8578,
      "## zrozen": 8579,
      "## je po": 8580,
      "##te-li": 8581,
      "##:\njak": 8582,
      "## jsem a": 8583,
      "## záslu": 8584,
      "## skvoucí": 8585,
      "## plaší": 8586,
      "## křídlech": 8587,
      "## sem tam": 8588,
      "## pokro": 8589,
      "## heslo": 8590,
      "## se vrátí": 8591,
      "##hlým": 8592,
      "## vým": 8593,
      "## v ně": 8594,
      "## se třese": 8595,
      "## ohlas": 8596,
      "## na roz": 8597,
      "##kolí": 8598,
      "## hon": 8599,
      "## kopy": 8600,
      "##mět": 8601,
      "##. Tu": 8602,
      "## odve": 8603,
      "##, slav": 8604,
      "## staletí": 8605,
      "## tichem": 8606,
      "## v smut": 8607,
      "##\nMi": 8608,
      "## postavy": 8609,
      "## mužem": 8610,
      "## kapky": 8611,
      "## se směje": 8612,
      "##\nče": 8613,
      "##ěch": 8614,
[...]
