{
  "version": "1.0",
  "truncation": null,
  "padding": null,
  "added_tokens": [
    {
      "id": 0,
      "content": "<|endoftext|>",
      "single_word": false,
      "lstrip": false,
      "rstrip": false,
      "normalized": false,
      "special": true
    }
  ],
  "normalizer": null,
  "pre_tokenizer": {
    "type": "ByteLevel",
    "add_prefix_space": false,
    "trim_offsets": true,
    "use_regex": true
  },
  "post_processor": {
    "type": "ByteLevel",
    "add_prefix_space": true,
    "trim_offsets": false,
    "use_regex": true
  },
  "decoder": {
    "type": "ByteLevel",
    "add_prefix_space": true,
    "trim_offsets": true,
    "use_regex": true
  },
  "model": {
    "type": "BPE",
    "dropout": null,
    "unk_token": null,
    "continuing_subword_prefix": null,
    "end_of_word_suffix": null,
    "fuse_unk": false,
    "byte_fallback": false,
    "vocab": {
      "<|endoftext|>": 0,
      "!": 1,
      "#": 2,
      "+": 3,
      ",": 4,
      ".": 5,
      "0": 6,
      "1": 7,
      "2": 8,
      "3": 9,
      "4": 10,
      "5": 11,
      "6": 12,
      "7": 13,
      "8": 14,
      "9": 15,
      "<": 16,
      "=": 17,
      ">": 18,
      "?": 19,
      "A": 20,
      "B": 21,
      "C": 22,
      "D": 23,
      "E": 24,
      "F": 25,
      "G": 26,
      "H": 27,
      "I": 28,
      "J": 29,
      "K": 30,
      "L": 31,
      "M": 32,
      "N": 33,
      "O": 34,
      "P": 35,
      "Q": 36,
      "R": 37,
      "S": 38,
      "T": 39,
      "U": 40,
      "V": 41,
      "W": 42,
      "X": 43,
      "Y": 44,
      "Z": 45,
      "[": 46,
      "]": 47,
      "`": 48,
      "a": 49,
      "b": 50,
      "c": 51,
      "d": 52,
      "e": 53,
      "f": 54,
      "g": 55,
      "h": 56,
      "i": 57,
      "j": 58,
      "k": 59,
      "l": 60,
      "m": 61,
      "n": 62,
      "o": 63,
      "p": 64,
      "q": 65,
      "r": 66,
      "s": 67,
      "t": 68,
      "u": 69,
      "v": 70,
      "w": 71,
      "x": 72,
      "y": 73,
      "z": 74,
      "|": 75,
      "¡": 76,
      "¢": 77,
      "¤": 78,
      "¥": 79,
      "¦": 80,
      "§": 81,
      "¨": 82,
      "©": 83,
      "ª": 84,
      "«": 85,
      "®": 86,
      "¯": 87,
      "²": 88,
      "³": 89,
      "´": 90,
      "¶": 91,
      "¹": 92,
      "º": 93,
      "»": 94,
      "¼": 95,
      "½": 96,
      "¾": 97,
      "Á": 98,
      "Â": 99,
      "Ã": 100,
      "Ä": 101,
      "Å": 102,
      "Í": 103,
      "Ï": 104,
      "Ó": 105,
      "Ö": 106,
      "Ú": 107,
      "Ü": 108,
      "á": 109,
      "â": 110,
      "é": 111,
      "í": 112,
      "ó": 113,
      "ú": 114,
      "ü": 115,
      "ý": 116,
      "Ċ": 117,
      "Č": 118,
      "č": 119,
      "Ď": 120,
      "ď": 121,
      "ě": 122,
      "Ġ": 123,
      "Ģ": 124,
      "ģ": 125,
      "Ĥ": 126,
      "Ħ": 127,
      "Ĩ": 128,
      "ĩ": 129,
      "Ī": 130,
      "ī": 131,
      "Ĭ": 132,
      "Į": 133,
      "į": 134,
      "İ": 135,
      "ı": 136,
      "Ĵ": 137,
      "ĵ": 138,
      "ĸ": 139,
      "ĺ": 140,
      "Ļ": 141,
      "ļ": 142,
      "Ľ": 143,
      "ľ": 144,
      "Ŀ": 145,
      "Ł": 146,
      "ł": 147,
      "Ń": 148,
      "Ň": 149,
      "ň": 150,
      "Ř": 151,
      "ř": 152,
      "Š": 153,
      "š": 154,
      "Ť": 155,
      "ť": 156,
      "ů": 157,
      "Ž": 158,
      "ž": 159,
      "Ġ#": 160,
      "ÃŃ": 161,
      "Ã¡": 162,
      "Ġs": 163,
      "ÄĽ": 164,
      "Ġv": 165,
      "en": 166,
      "Ġp": 167,
      "Ġn": 168,
      "Ġt": 169,
      "Ġj": 170,
      "Å¾": 171,
      "ch": 172,
      "do": 173,
      "Å¡": 174,
      "Ġz": 175,
      "Ã½": 176,
      "te": 177,
      "ÅĻ": 178,
      "Ã©": 179,
      "Ġk": 180,
      "Ġa": 181,
      "Ġm": 182,
      "ou": 183,
      "la": 184,
      "Äį": 185,
      "10": 186,
      "xt": 187,
      "endo": 188,
      "fte": 189,
      "<|": 190,
      "|>": 191,
      "endofte": 192,
      "endoftext": 193,
      "Ġ1": 194,
      "Ġo": 195,
      "Ġd": 196,
      "11": 197,
      "Ġb": 198,
      "AB": 199,
      "st": 200,
      "em": 201,
      "XX": 202,
      "le": 203,
      "Ġh": 204,
      "Ġse": 205,
      "Å¯": 206,
      "ak": 207,
      "ro": 208,
      "ĠJ": 209,
      "ra": 210,
      "li": 211,
      "ĠT": 212,
      "nÃŃ": 213,
      "Ġ18": 214,
      "Ġpo": 215,
      "Ġje": 216,
      "Ġne": 217,
      "lo": 218,
      "Ġna": 219,
      "rÃ¡": 220,
      "ce": 221,
      "ÅĻe": 222,
      "Ġ19": 223,
      "Ġu": 224,
      "Ġst": 225,
      "nÄĽ": 226,
      "ĠÅ¾": 227,
      "Ġsv": 228,
      "al": 229,
      "ÅĻÃŃ": 230,
      "dy": 231,
      "Å¡e": 232,
      "il": 233,
      "ne": 234,
      "ru": 235,
      "Ġi": 236,
      "ho": 237,
      "nÃ½": 238,
      "sk": 239,
      "Ġza": 240,
      "ĠÄį": 241,
      "nÃ©": 242,
      "lÃ¡": 243,
      "ti": 244,
      "de": 245,
      "vÄĽ": 246,
      "Ġch": 247,
      "ĠÃ¡": 248,
      "ÃŃm": 249,
      "je": 250,
      "XXXX": 251,
      "Ġjak": 252,
      "Ġe": 253,
      "Ġdo": 254,
      "vÃ¡": 255,
      "ĠN": 256,
      "na": 257,
      "ABAB": 258,
      "jÃŃ": 259,
      "no": 260,
      "lu": 261,
      "va": 262,
      "lÃŃ": 263,
      "ky": 264,
      "Ġto": 265,
      "ku": 266,
      "ĠV": 267,
      "12": 268,
      "XA": 269,
      "tÃŃ": 270,
      "ÅĻi": 271,
      "Ġby": 272,
      "ĠA": 273,
      "ka": 274,
      "ĠÃŃ": 275,
      "ko": 276,
      "Ã¡m": 277,
      "ci": 278,
      "vo": 279,
      "tÄĽ": 280,
      "ABB": 281,
      "Ã½ch": 282,
      "Ġji": 283,
      "ni": 284,
      "Ġjs": 285,
      "vÃŃ": 286,
      "Ġr": 287,
      "nÃ¡": 288,
      "ly": 289,
      "Ġve": 290,
      "Ġro": 291,
      "ĠP": 292,
      "at": 293,
      "ĠÅ¡": 294,
      "Ġc": 295,
      "nou": 296,
      "nu": 297,
      "ĠÄĽ": 298,
      "Å¥": 299,
      "Ã½m": 300,
      "..": 301,
      "13": 302,
      "Ġle": 303,
      "Ġ189": 304,
      "vÃ©": 305,
      "am": 306,
      "ĠS": 307,
      "Ġjen": 308,
      "Ġpro": 309,
      "ny": 310,
      "ĠÅ¾e": 311,
      "ĠvÄĽ": 312,
      "Ġ188": 313,
      "cÃŃ": 314,
      "Ġko": 315,
      "ĠK": 316,
      "dÄĽ": 317,
      "du": 318,
      "lÃ©": 319,
      "Ġho": 320,
      "Å¡ÃŃ": 321,
      "po": 322,
      "Ġ190": 323,
      "Ġvy": 324,
      "Ġmo": 325,
      "ÄįÃŃ": 326,
      "Ġvz": 327,
      "to": 328,
      "ar": 329,
      "dÃŃ": 330,
      "as": 331,
      "mu": 332,
      "dÃ¡": 333,
      "kÃ¡": 334,
      "Ġob": 335,
      "ĠpÅĻe": 336,
      "ĠÃ": 337,
      "AABB": 338,
      "lou": 339,
      "di": 340,
      "Å¾ÃŃ": 341,
      "Ġkdy": 342,
      "da": 343,
      "ÅĪ": 344,
      "Å¾e": 345,
      "ĠM": 346,
      "CC": 347,
      "Ġdu": 348,
      "Ġmi": 349,
      "enÃŃ": 350,
      "Äįe": 351,
      "ta": 352,
      "se": 353,
      "ĠB": 354,
      "ji": 355,
      "Ġmu": 356,
      "ĠZ": 357,
      "ĠD": 358,
      "vi": 359,
      "sti": 360,
      "Ġroz": 361,
      "Ġbo": 362,
      "ĠnÃ¡": 363,
      "Ġni": 364,
      "ĠtÄĽ": 365,
      "Äı": 366,
      "tÃ¡": 367,
      "ve": 368,
      "Ġtak": 369,
      "Ġli": 370,
      "ĠvÅ¡e": 371,
      "Ġti": 372,
      "by": 373,
      "XAXA": 374,
      "ry": 375,
      "Ġtu": 376,
      "Ġco": 377,
      "vu": 378,
      "ĠÄįe": 379,
      "rd": 380,
      "ĠvÃŃ": 381,
      "Ġno": 382,
      "Ġjsem": 383,
      "ĠnÄĽ": 384,
      "Ġte": 385,
      "mÄĽ": 386,
      "ĠdÃ¡": 387,
      "be": 388,
      "Ġ192": 389,
      "ĠzÃ¡": 390,
      "vy": 391,
      "Å¡i": 392,
      "ĠsvÄĽ": 393,
      "Äįi": 394,
      "Ġhla": 395,
      "ze": 396,
      "mÃŃ": 397,
      "ĠÅ¾i": 398,
      "Ġod": 399,
      "mi": 400,
      "Ġsp": 401,
      "ĠmÄĽ": 402,
      "ĠdÄĽ": 403,
      "Ġsk": 404,
      "Ġsi": 405,
      "Ġru": 406,
      "ĠvÅ¡": 407,
      "Ã©m": 408,
      "...": 409,
      "Å¯j": 410,
      "Ġl": 411,
      "tu": 412,
      "ĠkrÃ¡": 413,
      "Ġpa": 414,
      "bo": 415,
      "lÃ½": 416,
      "Ġbu": 417,
      "ĠpÅĻi": 418,
      "ĠmÃ¡": 419,
      "Ġvo": 420,
      "me": 421,
      "XXXXXX": 422,
      "Ġsrd": 423,
      "ĠrÃ¡": 424,
      "ĠÃº": 425,
      "ĠkdyÅ¾": 426,
      "Ġpr": 427,
      "ĠO": 428,
      "ĠsvÃ©": 429,
      "ha": 430,
      "ez": 431,
      "vÃ½": 432,
      "Ġjako": 433,
      "Ġta": 434,
      "bÄĽ": 435,
      "Ġ193": 436,
      "hu": 437,
      "sÃŃ": 438,
      "ĠH": 439,
      "ty": 440,
      "Ġpra": 441,
      "lad": 442,
      "Ġce": 443,
      "ĠlÃ¡": 444,
      "kÅ¯": 445,
      "ĠC": 446,
      "sta": 447,
      "Ġra": 448,
      "nÃ½ch": 449,
      "ĠvÃ¡": 450,
      "hy": 451,
      "Ġvi": 452,
      "Ġka": 453,
      "hÃ¡": 454,
      "ma": 455,
      "stÃŃ": 456,
      "Ġten": 457,
      "Ġ187": 458,
      "val": 459,
      "Ġty": 460,
      "Ġen": 461,
      "ĠdÃŃ": 462,
      "ĠNe": 463,
      "Ġzem": 464,
      "zÃŃ": 465,
      "kou": 466,
      "ad": 467,
      "Ġy": 468,
      "pÄĽ": 469,
      "Ġkde": 470,
      "ABC": 471,
      "Ġtam": 472,
      "led": 473,
      "Ġjeho": 474,
      "Ġnad": 475,
      "ĠÅ": 476,
      "ĠjiÅ¾": 477,
      "ĠjeÅ¾": 478,
      "sy": 479,
      "rak": 480,
      "vou": 481,
      "pÃŃ": 482,
      "Ġpod": 483,
      "mo": 484,
      "si": 485,
      "ĠvÅ¡ak": 486,
      "ĠnÃŃ": 487,
      "ĠÅ¡e": 488,
      "bu": 489,
      "ĠjÃ¡": 490,
      "Å¡tÄĽ": 491,
      "ĠpÅĻÃŃ": 492,
      "su": 493,
      "kÃ©": 494,
      "Ġsta": 495,
      "Å¾i": 496,
      "len": 497,
      "ABBA": 498,
      "bi": 499,
      "cho": 500,
      "Ġbyl": 501,
      "re": 502,
      "ĠlÃŃ": 503,
      "Ġslu": 504,
      "sa": 505,
      "ĠPo": 506,
      "ĠjÃŃ": 507,
      "lem": 508,
      "14": 509,
      "Ġzas": 510,
      "ĠtÃ©": 511,
      "15": 512,
      "rou": 513,
      "ĠÅĻe": 514,
      "dou": 515,
      "Ġjed": 516,
      "Ġsrdce": 517,
      "ĠnÃ¡m": 518,
      "kÃ½": 519,
      "ĠstÃŃ": 520,
      "Å¾dy": 521,
      "chu": 522,
      "ba": 523,
      "ĠstÃ¡": 524,
      "Ġkte": 525,
      "Ã©ho": 526,
      "ĠmÃŃ": 527,
      "ĠJak": 528,
      "nÃ½m": 529,
      "ĠpÃŃ": 530,
      "ĠL": 531,
      "Ġpe": 532,
      "ĠsvÄĽt": 533,
      "Ġmy": 534,
      "Ġnou": 535,
      "Ġdi": 536,
      "kem": 537,
      "Å¯m": 538,
      "rÃ½": 539,
      "Ġlid": 540,
      "Ġvla": 541,
      "XB": 542,
      "ĠlÃ¡sk": 543,
      "Ġze": 544,
      "ĠNa": 545,
      "my": 546,
      "CD": 547,
      "ĠbÃŃ": 548,
      "ĠjenÅ¾": 549,
      "ĠpÃ¡": 550,
      "Ġzla": 551,
      "tem": 552,
      "an": 553,
      "zd": 554,
      "men": 555,
      "Ġbez": 556,
      "rÅ¯": 557,
      "Ġmne": 558,
      "Ġhro": 559,
      "Ġpla": 560,
      "Ġsti": 561,
      "ÅĻÃ¡": 562,
      "Ġnem": 563,
      "16": 564,
      "Ġtou": 565,
      "ĠJe": 566,
      "ĠpÅĻed": 567,
      "ĠkvÄĽ": 568,
      "Ġso": 569,
      "ĠvÃ½": 570,
      "Ġla": 571,
      "ĠR": 572,
      "ĠpÄĽ": 573,
      "Ġdne": 574,
      "Ġpak": 575,
      "Ġnes": 576,
      "ĠvÅ¾dy": 577,
      "AA": 578,
      "tÃ½": 579,
      "ĠtvÃ¡": 580,
      "Ġjej": 581,
      "ĠdÃ¡l": 582,
      "ĠÅ¾ivo": 583,
      "pu": 584,
      "ĠÄįi": 585,
      "sto": 586,
      "hou": 587,
      "Ġnej": 588,
      "ĠprÃ¡": 589,
      "Ġpou": 590,
      "ĠaÅ¾": 591,
      "ĠÄįas": 592,
      "Ġjest": 593,
      "tÃ©": 594,
      "ĠkaÅ¾": 595,
      "Ġsto": 596,
      "Ġslo": 597,
      "Ġkou": 598,
      "nÅ¯": 599,
      "ĠmÃ©": 600,
      "Ġden": 601,
      "mÃ¡": 602,
      "rt": 603,
      "Ġde": 604,
      "nce": 605,
      "ĠÅĻÃŃ": 606,
      "ĠÅ¾en": 607,
      "Ġtv": 608,
      "Ġnez": 609,
      "ĠÃ¡nÃŃ": 610,
      "Ġci": 611,
      "bÃŃ": 612,
      "tr": 613,
      "ĠplÃ¡": 614,
      "ĠenÃŃ": 615,
      "Ġku": 616,
      "AABBCC": 617,
      "Ġre": 618,
      "rÃ©": 619,
      "Ġtem": 620,
      "ĠÄįer": 621,
      "Ġchu": 622,
      "ĠuÅ¾": 623,
      "ĠÄ": 624,
      "pe": 625,
      "AABC": 626,
      "Ġpos": 627,
      "ĠCo": 628,
      "Ġnebe": 629,
      "Ġsvou": 630,
      "chÃ¡": 631,
      "ĠÄĮ": 632,
      "Ġsla": 633,
      "Ġsvo": 634,
      "ĠTo": 635,
      "Ġmil": 636,
      "ABCC": 637,
      "nad": 638,
      "bou": 639,
      "Ġhle": 640,
      "ĠvÅ¡ech": 641,
      "pa": 642,
      "Ġkdo": 643,
      "ĠnÃ¡s": 644,
      "ĠmnÄĽ": 645,
      "Ġjsi": 646,
      "ĠsÃŃ": 647,
      "zy": 648,
      "nÃ©m": 649,
      "ĠvÄĽt": 650,
      "ĠneÅ¾": 651,
      "Ġdob": 652,
      "ĠmÅ¯j": 653,
      "Ġme": 654,
      "Ġdru": 655,
      "skÃ©": 656,
      "Ġlo": 657,
      "dÄĽl": 658,
      "Ġtom": 659,
      "ĠteÄı": 660,
      "ĠÅ½": 661,
      "Ġpl": 662,
      "Ġvel": 663,
      "Ġjsou": 664,
      "nem": 665,
      "ĠnÃŃm": 666,
      "nÃŃm": 667,
      "dÃ½": 668,
      "ĠduÅ¡e": 669,
      "hÃ½": 670,
      "ĠjeÅ¡tÄĽ": 671,
      "ĠnÄĽm": 672,
      "ĠÃ½ch": 673,
      "pi": 674,
      "Ġval": 675,
      "Ġkr": 676,
      "ĠTak": 677,
      "Ġsou": 678,
      "Ġsy": 679,
      "ĠbÃ½": 680,
      "Ġbra": 681,
      "ĠjejÃŃ": 682,
      "ĠÃ½": 683,
      "Ġlu": 684,
      "ĠBo": 685,
      "ĠcÃŃ": 686,
      "ĠhvÄĽ": 687,
      "ÅĻen": 688,
      "Ġkra": 689,
      "cha": 690,
      "Ġzrak": 691,
      "Ġda": 692,
      "tel": 693,
      "Ġost": 694,
      "Ġ185": 695,
      "Å¯Å¾e": 696,
      "Ġ183": 697,
      "ĠvÅ¯": 698,
      "Ġdra": 699,
      "Ġvl": 700,
      "Å¾en": 701,
      "ĠtvÃ©": 702,
      "Å¡el": 703,
      "Ġkle": 704,
      "ĠbÄĽ": 705,
      "Ġstar": 706,
      "Ġon": 707,
      "ĠÃĵ": 708,
      "tra": 709,
      "ri": 710,
      "Ġ191": 711,
      "Ġstra": 712,
      "Ġsem": 713,
      "stu": 714,
      "ĠsÃ¡m": 715,
      "Ġsvat": 716,
      "vil": 717,
      "ABABCC": 718,
      "Ġry": 719,
      "Ġbla": 720,
      "hle": 721,
      "Ġ1896": 722,
      "ĠchvÃŃ": 723,
      "Ġcho": 724,
      "Ġ184": 725,
      "Ġhra": 726,
      "ĠU": 727,
      "Ġ186": 728,
      "Ġbou": 729,
      "pÃ¡": 730,
      "tÅ¯": 731,
      "ĠoÄįi": 732,
      "ĠvÅ¡ec": 733,
      "Ġpu": 734,
      "sÃ¡": 735,
      "py": 736,
      "ĠbÃ¡": 737,
      "ĠtÃ¡": 738,
      "ĠduÅ¡i": 739,
      "Ġsm": 740,
      "til": 741,
      "Ġot": 742,
      "ĠÅ¡tÄĽ": 743,
      "Ġjas": 744,
      "nost": 745,
      "Ġma": 746,
      "ste": 747,
      "ĠKdy": 748,
      "Ġhlu": 749,
      "nÃ¡m": 750,
      "ĠÅĻ": 751,
      "sÅ¥": 752,
      "Ġbude": 753,
      "jem": 754,
      "Ġhu": 755,
      "ĠÅ¾Ã¡": 756,
      "nul": 757,
      "ĠPro": 758,
      "Ġoh": 759,
      "ĠJÃ¡": 760,
      "Ġmod": 761,
      "zi": 762,
      "ĠobÄĽ": 763,
      "Ġ1883": 764,
      "bÃ¡": 765,
      "Å¡ak": 766,
      "Ã½mi": 767,
      "vÃ½ch": 768,
      "Ġsam": 769,
      "Ġzd": 770,
      "Ġsl": 771,
      "Ġf": 772,
      "Ġzvo": 773,
      "Ġjich": 774,
      "nosti": 775,
      "Ġslad": 776,
      "Ġjsme": 777,
      "Ġdlou": 778,
      "cen": 779,
      "ĠkrÃ¡s": 780,
      "ĠvÄĽÄį": 781,
      "Ġpoh": 782,
      "Ġpoz": 783,
      "ven": 784,
      "Ġale": 785,
      "ĠI": 786,
      "Ġzde": 787,
      "Ġsmu": 788,
      "Ġsnad": 789,
      "Ġkam": 790,
      "Å¯h": 791,
      "ĠDo": 792,
      "Ġbych": 793,
      "ĠvÃ¡m": 794,
      "Ġneb": 795,
      "ĠkÅĻÃŃ": 796,
      "dem": 797,
      "Ġstro": 798,
      "ĠÅ¾ivot": 799,
      "tek": 800,
      "jÅ¡ÃŃ": 801,
      "dÃ©": 802,
      "ĠtÄĽch": 803,
      "so": 804,
      "Ġtr": 805,
      "Ġva": 806,
      "vat": 807,
      "ĠTy": 808,
      "Ġem": 809,
      "Ġmou": 810,
      "cÃŃch": 811,
      "stÃ¡": 812,
      "Ġspo": 813,
      "Å¡en": 814,
      "Ġjim": 815,
      "uÅ¾": 816,
      "ĠnenÃŃ": 817,
      "zu": 818,
      "ĠVÅ¡ak": 819,
      "Ġech": 820,
      "ĠZa": 821,
      "Ġmno": 822,
      "ABABCD": 823,
      "Ġala": 824,
      "Ġja": 825,
      "stvÃŃ": 826,
      "chy": 827,
      "er": 828,
      "ĠsnÄĽ": 829,
      "Ġbylo": 830,
      "ĠÃ©": 831,
      "Ġsly": 832,
      "ĠtÅĻe": 833,
      "Ġvra": 834,
      "Ġnich": 835,
      "Ġ1906": 836,
      "Ġmat": 837,
      "ĠaÅ¥": 838,
      "hÃ©": 839,
      "Ġste": 840,
      "lÅ¯": 841,
      "lovÄĽ": 842,
      "Ġnech": 843,
      "Ġslunce": 844,
      "ĠTu": 845,
      "Ġkla": 846,
      "Ġhne": 847,
      "ĠzpÄĽ": 848,
      "stou": 849,
      "vnÃŃ": 850,
      "tou": 851,
      "ĠptÃ¡": 852,
      "skÃ½": 853,
      "stÄĽ": 854,
      "ĠvÃŃc": 855,
      "Ġtvo": 856,
      "cem": 857,
      "mÅ¯": 858,
      "Ġkli": 859,
      "krÃ¡": 860,
      "Ġila": 861,
      "nÃ©ho": 862,
      "jich": 863,
      "Ġml": 864,
      "ĠJen": 865,
      "chem": 866,
      "dla": 867,
      "Ġnep": 868,
      "ĠtÃŃm": 869,
      "Ġkro": 870,
      "Ġlet": 871,
      "Ġhlas": 872,
      "ĠsvÅ¯j": 873,
      "Ġdal": 874,
      "ej": 875,
      "rem": 876,
      "Ġdnes": 877,
      "ĠchtÄĽ": 878,
      "ĠoÄįÃŃ": 879,
      "Äįka": 880,
      "Ġ1899": 881,
      "Ġvou": 882,
      "ĠĠ": 883,
      "ĠlÃ¡sky": 884,
      "ÅĻel": 885,
      "Ġ1895": 886,
      "Ġles": 887,
      "Äįen": 888,
      "ĠtÃŃ": 889,
      "Ġbyla": 890,
      "Ġsen": 891,
      "nil": 892,
      "Ġnik": 893,
      "Ġsmut": 894,
      "za": 895,
      "ĠÃŃch": 896,
      "tÃŃm": 897,
      "Ġ1897": 898,
      "skÃ¡": 899,
      "ĠsmÄĽ": 900,
      "ÅĻil": 901,
      "ĠpÃŃs": 902,
      "Ġ1884": 903,
      "ĠmÄĽl": 904,
      "ĠsvÃŃ": 905,
      "Ġil": 906,
      "ĠÅ¡ÃŃ": 907,
      "ĠJi": 908,
      "ĠslÃ¡": 909,
      "vÃ½m": 910,
      "ĠzÅĻÃŃ": 911,
      "ĠsobÄĽ": 912,
      "ABCCB": 913,
      "Ġvr": 914,
      "vem": 915,
      "Ġmys": 916,
      "Ġkol": 917,
      "nal": 918,
      "sud": 919,
      "ĠmÃ¡m": 920,
      "lesk": 921,
      "Ġani": 922,
      "ĠÄįlovÄĽ": 923,
      "Å¡Å¥": 924,
      "ĠKdyÅ¾": 925,
      "hla": 926,
      "ĠtÃ©Å¾": 927,
      "Ġhou": 928,
      "Ġkem": 929,
      "cÅ¯": 930,
      "ĠrÅ¯": 931,
      "Ġke": 932,
      "ĠVe": 933,
      "sou": 934,
      "ĠsvÃ½ch": 935,
      "ĠÅł": 936,
      "Ġ1927": 937,
      "dil": 938,
      "Å¡ÃŃm": 939,
      "Ġkolem": 940,
      "kla": 941,
      "Å¡tÃŃ": 942,
      "Ġou": 943,
      "Ġjem": 944,
      "Ġmilo": 945,
      "ĠblÃŃ": 946,
      "ĠVy": 947,
      "hÅ¯": 948,
      "Ġba": 949,
      "ĠpÅ¯": 950,
      "AABCCB": 951,
      "ĠajÃŃ": 952,
      "ĠlÃ©": 953,
      "ĠÅ¾itÃŃ": 954,
      "ĠÃ©ho": 955,
      "Ġmal": 956,
      "ĠtÄĽÅ¾": 957,
      "ĠzdÃ¡": 958,
      "sty": 959,
      "ĠkvÄĽt": 960,
      "ĠÄĽnÃŃ": 961,
      "pr": 962,
      "Ġ1901": 963,
      "ĠzemÄĽ": 964,
      "Ġchy": 965,
      "Ġok": 966,
      "nky": 967,
      "Ġdla": 968,
      "Ġjejich": 969,
      "ĠÃ³": 970,
      "Ġrado": 971,
      "Ġlem": 972,
      "Ġsil": 973,
      "ĠhÃ¡": 974,
      "om": 975,
      "ĠchvÄĽ": 976,
      "Ġnu": 977,
      "Äįky": 978,
      "co": 979,
      "Ġruce": 980,
      "ĠvÃ¡s": 981,
      "ĠsnÃŃ": 982,
      "seÅĪ": 983,
      "Ġsrdci": 984,
      "ĠskÃ¡": 985,
      "Ġbi": 986,
      "pla": 987,
      "ĠÅ¾al": 988,
      "Ġ1911": 989,
      "sla": 990,
      "Ġlou": 991,
      "Ġzemi": 992,
      "Ġmrt": 993,
      "Ġnoc": 994,
      "Äįek": 995,
      "ĠkaÅ¾dÃ½": 996,
      "ĠBy": 997,
      "lÃ½ch": 998,
      "Ġtich": 999,
      "ĠvÅ¡em": 1000,
      "ĠÅ¯": 1001,
      "ĠsmÃŃ": 1002,
      "ĠpÅĻes": 1003,
      "Ġ1889": 1004,
      "Ġ1904": 1005,
      "vÃŃm": 1006,
      "ĠhvÄĽz": 1007,
      "ĠTe": 1008,
      "Ġ1907": 1009,
      "ĠsvÃ½m": 1010,
      "Ġ1900": 1011,
      "Ġmoje": 1012,
      "pomÃŃ": 1013,
      "Ġhned": 1014,
      "Ġhor": 1015,
      "ÅĻem": 1016,
      "Ġdce": 1017,
      "Ġoko": 1018,
      "ĠÅ¡u": 1019,
      "Ġ1885": 1020,
      "Ġsu": 1021,
      "skÃ½ch": 1022,
      "Ġuje": 1023,
      "Ġmra": 1024,
      "ved": 1025,
      "AXB": 1026,
      "kal": 1027,
      "ĠveÄįe": 1028,
      "ĠrÃ¡d": 1029,
      "Ġmoc": 1030,
      "pad": 1031,
      "hne": 1032,
      "Ġbe": 1033,
      "ĠdÅĻÃŃ": 1034,
      "zo": 1035,
      "ĠÅ½e": 1036,
      "Ġdiv": 1037,
      "kÃ½ch": 1038,
      "dnÃ©": 1039,
      "ĠÄįa": 1040,
      "sky": 1041,
      "Ġ1887": 1042,
      "ĠKo": 1043,
      "Ġnepo": 1044,
      "Ġus": 1045,
      "ĠspÃ¡": 1046,
      "Äįil": 1047,
      "Ġsko": 1048,
      "ĠnÃ¡Å¡": 1049,
      "Ġpad": 1050,
      "ĠnaÅ¡e": 1051,
      "ĠtvÅ¯j": 1052,
      "Ġ1892": 1053,
      "lil": 1054,
      "ĠÅ¾ÃŃ": 1055,
      "sku": 1056,
      "ĠvÅ¡ecko": 1057,
      "Ġsmr": 1058,
      "Ġkre": 1059,
      "ĠtobÄĽ": 1060,
      "Ġzlo": 1061,
      "ĠmuÅ¾": 1062,
      "Ġaby": 1063,
      "Ġnoci": 1064,
      "Ġhlavu": 1065,
      "Ġvlast": 1066,
      "ĠÅ¡tÄĽstÃŃ": 1067,
      "ska": 1068,
      "nek": 1069,
      "ĠRo": 1070,
      "Ġjste": 1071,
      "ĠHo": 1072,
      "ĠpÅĻec": 1073,
      "nÃŃch": 1074,
      "Ġ1890": 1075,
      "hem": 1076,
      "ast": 1077,
      "jde": 1078,
      "Ġchce": 1079,
      "Ġ1886": 1080,
      "ĠÅ¡el": 1081,
      "bra": 1082,
      "Ġhru": 1083,
      "Äįku": 1084,
      "Ġple": 1085,
      "ĠBÅ¯h": 1086,
      "ĠdÄĽl": 1087,
      "Ġdou": 1088,
      "ĠÅĪ": 1089,
      "ĠbÃ½t": 1090,
      "Ġstu": 1091,
      "Ġ1880": 1092,
      "ĠÄĽla": 1093,
      "nes": 1094,
      "Ġhr": 1095,
      "ĠvlÃ¡": 1096,
      "dnÄĽ": 1097,
      "ĠÅ¡i": 1098,
      "nout": 1099,
      "nÃŃk": 1100,
      "ĠojÃŃ": 1101,
      "Ġmar": 1102,
      "ĠCh": 1103,
      "ĠnÃ¡ro": 1104,
      "Ġali": 1105,
      "ĠLe": 1106,
      "Ġzah": 1107,
      "Ġ1910": 1108,
      "Ġ1902": 1109,
      "Ġ182": 1110,
      "Ġ1894": 1111,
      "Å¡li": 1112,
      "Ġprou": 1113,
      "Ġkru": 1114,
      "pra": 1115,
      "ĠdÃ¡v": 1116,
      "dÃŃm": 1117,
      "uje": 1118,
      "dnÃ½": 1119,
      "ĠzpÃŃ": 1120,
      "Ġmez": 1121,
      "Å¾il": 1122,
      "smÄĽ": 1123,
      "zen": 1124,
      "Ġ1913": 1125,
      "ĠstÅĻe": 1126,
      "Ġjenom": 1127,
      "ABCD": 1128,
      "hl": 1129,
      "Ġpan": 1130,
      "ĠhÅĻÃŃ": 1131,
      "jÃŃcÃŃ": 1132,
      "ĠÄįÃŃ": 1133,
      "sko": 1134,
      "Ġ1898": 1135,
      "ĠKdo": 1136,
      "ĠcelÃ½": 1137,
      "Ġote": 1138,
      "tva": 1139,
      "Ġprav": 1140,
      "Ġjde": 1141,
      "Ġ1874": 1142,
      "ĠmlÃ¡": 1143,
      "ĠchvÃŃli": 1144,
      "Ġboj": 1145,
      "ABBC": 1146,
      "Ġan": 1147,
      "Ġ1937": 1148,
      "Ġky": 1149,
      "aly": 1150,
      "Ġny": 1151,
      "Ġzvu": 1152,
      "ĠÄĮe": 1153,
      "ĠÃŃvÃ¡": 1154,
      "ĠÅĻek": 1155,
      "Å¡ich": 1156,
      "AC": 1157,
      "ĠdÃŃv": 1158,
      "ĠpÃŃseÅĪ": 1159,
      "vnÄĽ": 1160,
      "ĠspÄĽ": 1161,
      "ĠmoÅĻe": 1162,
      "ĠdÃŃtÄĽ": 1163,
      "Ġtebe": 1164,
      "ĠÃŃcÃŃ": 1165,
      "sem": 1166,
      "Ġhlou": 1167,
      "tky": 1168,
      "Ġmlu": 1169,
      "ĠbuÄı": 1170,
      "Ġmla": 1171,
      "dech": 1172,
      "jÃŃc": 1173,
      "ĠhvÄĽzd": 1174,
      "Ġblesk": 1175,
      "Ġobra": 1176,
      "ĠkÅĻi": 1177,
      "ĠstrÃ¡": 1178,
      "BC": 1179,
      "Ġ1921": 1180,
      "Ġven": 1181,
      "Ġkrev": 1182,
      "ĠtakÃ©": 1183,
      "Ġzda": 1184,
      "Ġslun": 1185,
      "ĠchrÃ¡": 1186,
      "Ġmlad": 1187,
      "Ġas": 1188,
      "Ġneu": 1189,
      "Ġtoho": 1190,
      "Ġtro": 1191,
      "vÄĽt": 1192,
      "Ġnic": 1193,
      "Ġduch": 1194,
      "ĠznÃŃ": 1195,
      "Ġsku": 1196,
      "Ġ1918": 1197,
      "ĠX": 1198,
      "17": 1199,
      "ĠvrÃ¡": 1200,
      "Ġg": 1201,
      "ĠsvÃ©ho": 1202,
      "Ġved": 1203,
      "Ġ1930": 1204,
      "ÃŃme": 1205,
      "Ġ1882": 1206,
      "ÅĻed": 1207,
      "ĠnÃ¡hle": 1208,
      "ĠsvÃ©m": 1209,
      "ĠzÃŃ": 1210,
      "Ġpok": 1211,
      "dnou": 1212,
      "ĠtvÃ¡ÅĻ": 1213,
      "Ġbole": 1214,
      "Ġtru": 1215,
      "ĠmyÅ¡": 1216,
      "Ġ195": 1217,
      "ĠvÃ¡Å¡": 1218,
      "dÅ¯": 1219,
      "ĠÅ¡tÃŃ": 1220,
      "ĠKde": 1221,
      "Ġ1893": 1222,
      "Ġela": 1223,
      "Ġzo": 1224,
      "Ġpi": 1225,
      "ÅĻÃŃm": 1226,
      "Ġos": 1227,
      "nÃ¡ch": 1228,
      "AX": 1229,
      "ĠhnÄĽ": 1230,
      "kÃ½m": 1231,
      "Ġoje": 1232,
      "Ġach": 1233,
      "vÃ©m": 1234,
      "ĠAle": 1235,
      "ĠHle": 1236,
      "ĠÃŃtÃŃ": 1237,
      "Ġzje": 1238,
      "Ġ1905": 1239,
      "ĠkvÃŃ": 1240,
      "Ġzase": 1241,
      "Ġbrat": 1242,
      "Ġice": 1243,
      "Å¡la": 1244,
      "krÃ¡t": 1245,
      "ĠsvÄĽta": 1246,
      "Ġslova": 1247,
      "Ġoku": 1248,
      "ĠkterÃ©": 1249,
      "ĠstÅĻÃŃ": 1250,
      "ĠnÄĽk": 1251,
      "Ġ1891": 1252,
      "rov": 1253,
      "nÄĽjÅ¡ÃŃ": 1254,
      "ĠstÃ¡le": 1255,
      "Ġ1912": 1256,
      "Ġmezi": 1257,
      "sÃŃc": 1258,
      "ĠspÃŃ": 1259,
      "ĠF": 1260,
      "ĠÄįlovÄĽk": 1261,
      "Ġchlad": 1262,
      "Ġ1881": 1263,
      "ĠhrÃ¡": 1264,
      "ĠÃŃce": 1265,
      "ĠstÄĽ": 1266,
      "ĠoÅĻe": 1267,
      "dnÃŃ": 1268,
      "ĠjÃŃm": 1269,
      "tom": 1270,
      "rost": 1271,
      "ĠchtÄĽl": 1272,
      "nku": 1273,
      "ĠkterÃ½": 1274,
      "ĠbÅĻe": 1275,
      "Ġtma": 1276,
      "Ġjeden": 1277,
      "nka": 1278,
      "ĠÃºsmÄĽ": 1279,
      "XAX": 1280,
      "vala": 1281,
      "ĠtiÅ¡e": 1282,
      "zem": 1283,
      "ĠAch": 1284,
      "ĠTam": 1285,
      "Ġdr": 1286,
      "den": 1287,
      "Ġrou": 1288,
      "vr": 1289,
      "Ġ1903": 1290,
      "ĠOd": 1291,
      "Ġvol": 1292,
      "ĠVÅ¡e": 1293,
      "ĠvÃŃce": 1294,
      "Ġoz": 1295,
      "ĠÃ¡ch": 1296,
      "skou": 1297,
      "ena": 1298,
      "Ġ1931": 1299,
      "ĠnynÃŃ": 1300,
      "Ġpat": 1301,
      "Ġ1908": 1302,
      "ĠstojÃŃ": 1303,
      "Ġjednou": 1304,
      "ĠPra": 1305,
      "ĠPÃ¡": 1306,
      "dce": 1307,
      "Ġkal": 1308,
      "Ġrukou": 1309,
      "Ġsvi": 1310,
      "Ġest": 1311,
      "Ġ1926": 1312,
      "Ġnebi": 1313,
      "Ġsebe": 1314,
      "stal": 1315,
      "ĠleÄį": 1316,
      "ĠsvÃ¡": 1317,
      "ĠMo": 1318,
      "ĠtrÃ¡": 1319,
      "Ġha": 1320,
      "pil": 1321,
      "lech": 1322,
      "lek": 1323,
      "dal": 1324,
      "Ġtra": 1325,
      "rnÄĽ": 1326,
      "Ġklo": 1327,
      "ĠpÅĻÃ¡": 1328,
      "Ġhe": 1329,
      "pat": 1330,
      "Ġiny": 1331,
      "ĠlÃ¡ska": 1332,
      "tku": 1333,
      "Ġebe": 1334,
      "nec": 1335,
      "Ġvzdu": 1336,
      "lit": 1337,
      "Ġaly": 1338,
      "stÃ©": 1339,
      "ĠbÃŃlÃ©": 1340,
      "jte": 1341,
      "ĠovÃ©": 1342,
      "Ġili": 1343,
      "ĠkÃ¡": 1344,
      "cky": 1345,
      "vra": 1346,
      "Ġnebo": 1347,
      "Ġane": 1348,
      "ĠE": 1349,
      "ĠvÃŃm": 1350,
      "nÄĽl": 1351,
      "Ġmrak": 1352,
      "ĠÅ¾il": 1353,
      "vz": 1354,
      "Ġjar": 1355,
      "Äįko": 1356,
      "ĠTi": 1357,
      "ĠÅ¡Å¥": 1358,
      "Ġpoko": 1359,
      "vÅ¯": 1360,
      "ami": 1361,
      "Ġpal": 1362,
      "ĠklÃŃ": 1363,
      "ĠÃŃti": 1364,
      "mÃ©": 1365,
      "el": 1366,
      "ĠOn": 1367,
      "Ġodpo": 1368,
      "ÄįnÃŃ": 1369,
      "Ġmnou": 1370,
      "vit": 1371,
      "Ġplamen": 1372,
      "ĠÅĺ": 1373,
      "ĠbrÃ¡": 1374,
      "jÃŃm": 1375,
      "ĠBu": 1376,
      "ĠÄĽje": 1377,
      "Ġrak": 1378,
      "Ġnemo": 1379,
      "Ġena": 1380,
      "ĠutÃŃ": 1381,
      "Ġtomu": 1382,
      "Ġemi": 1383,
      "Ġposled": 1384,
      "Å¡ti": 1385,
      "ĠproÄį": 1386,
      "Ġpot": 1387,
      "Ġova": 1388,
      "ĠzvÄĽ": 1389,
      "ÄįnÄĽ": 1390,
      "Ġ1872": 1391,
      "pou": 1392,
      "Ġhem": 1393,
      "ĠsÃ¡": 1394,
      "ĠveÄįer": 1395,
      "ĠPÅĻi": 1396,
      "Ġona": 1397,
      "rnÃ©": 1398,
      "ĠznÃ¡m": 1399,
      "Ġnedo": 1400,
      "pÄĽt": 1401,
      "ĠTen": 1402,
      "Ã³": 1403,
      "Ġnikdy": 1404,
      "ĠVÄĽ": 1405,
      "dlo": 1406,
      "tal": 1407,
      "sil": 1408,
      "Ġbudou": 1409,
      "Ġzm": 1410,
      "Ġady": 1411,
      "Ġpoli": 1412,
      "ĠenÃ©": 1413,
      "ĠÃ¡vÃ¡": 1414,
      "ĠVÃŃ": 1415,
      "ĠjuÅ¾": 1416,
      "Ġveli": 1417,
      "ĠnÃŃÅ¾": 1418,
      "tech": 1419,
      "ĠhrÅ¯": 1420,
      "Ġjedno": 1421,
      "cÃŃm": 1422,
      "tro": 1423,
      "Ġ1928": 1424,
      "Ġzno": 1425,
      "ĠnadÄĽ": 1426,
      "sl": 1427,
      "Ġjedi": 1428,
      "Ġsle": 1429,
      "ĠSe": 1430,
      "ĠetÃŃ": 1431,
      "ĠoÅĻÃŃ": 1432,
      "Ġvese": 1433,
      "Ġzak": 1434,
      "Ġ1920": 1435,
      "Ġzi": 1436,
      "ĠÃŃrÃ¡": 1437,
      "Ġhlavy": 1438,
      "Ã¡c": 1439,
      "ĠhÅĻ": 1440,
      "ĠPa": 1441,
      "rnÃ½": 1442,
      "vali": 1443,
      "Ġzna": 1444,
      "Ġnebes": 1445,
      "ben": 1446,
      "jnÄĽ": 1447,
      "ĠdÄĽti": 1448,
      "stÃ½": 1449,
      "Ġleh": 1450,
      "ĠznÃ¡": 1451,
      "Ġhled": 1452,
      "ĠzÃ¡ÅĻ": 1453,
      "ĠrÅ¯Å¾e": 1454,
      "Ġ1875": 1455,
      "Ġbled": 1456,
      "ĠMy": 1457,
      "ĠÅ¡Å¥ast": 1458,
      "ĠvzpomÃŃ": 1459,
      "Ġoka": 1460,
      "pl": 1461,
      "Ġslav": 1462,
      "Ġhrob": 1463,
      "Ġpom": 1464,
      "ĠTeÄı": 1465,
      "zel": 1466,
      "Ġsli": 1467,
      "lik": 1468,
      "XAXAXB": 1469,
      "Ġvoj": 1470,
      "nice": 1471,
      "kÃ¡ch": 1472,
      "ĠJako": 1473,
      "ĠcelÃ©": 1474,
      "vÃ¡nÃŃ": 1475,
      "Ġhroz": 1476,
      "ĠLi": 1477,
      "ĠumÃŃ": 1478,
      "lov": 1479,
      "mou": 1480,
      "hlÃ©": 1481,
      "ĠdÅ¯": 1482,
      "Ġlesk": 1483,
      "tÄĽz": 1484,
      "ĠavÃŃ": 1485,
      "alo": 1486,
      "dl": 1487,
      "ĠprvnÃŃ": 1488,
      "ĠMÃ¡": 1489,
      "Ġavy": 1490,
      "ĠenÃ½": 1491,
      "ĠdÃ¡le": 1492,
      "Ġum": 1493,
      "Ġdar": 1494,
      "ĠÅĻÃ¡": 1495,
      "ĠTa": 1496,
      "ĠstÃŃn": 1497,
      "ĠchÃ¡": 1498,
      "ÅĻit": 1499,
      "Ġruku": 1500,
      "Ġstr": 1501,
      "ĠVi": 1502,
      "Ġdvo": 1503,
      "kÃ©m": 1504,
      "Ġ1922": 1505,
      "ĠpÅĻece": 1506,
      "Ġsmrti": 1507,
      "ĠnevÄĽ": 1508,
      "Ġves": 1509,
      "Ġoji": 1510,
      "ĠnovÃ©": 1511,
      "Ġzb": 1512,
      "hat": 1513,
      "Ġ1923": 1514,
      "Ġkraj": 1515,
      "ĠMi": 1516,
      "ĠkterÃ¡": 1517,
      "Ġruka": 1518,
      "Ġbar": 1519,
      "Ġele": 1520,
      "Ġnevi": 1521,
      "snÄĽ": 1522,
      "ĠmusÃŃ": 1523,
      "ĠÄįÃŃm": 1524,
      "Ġdva": 1525,
      "sÅ¯": 1526,
      "Ġ1857": 1527,
      "Ġroze": 1528,
      "ĠPak": 1529,
      "Ġdem": 1530,
      "Ġhlavou": 1531,
      "Ġaje": 1532,
      "Ġeny": 1533,
      "ĠG": 1534,
      "Ġsky": 1535,
      "ĠÄĽti": 1536,
      "pal": 1537,
      "Ġpru": 1538,
      "Å¡em": 1539,
      "ĠkrÃ¡l": 1540,
      "Ġobla": 1541,
      "let": 1542,
      "ĠÃ¡ti": 1543,
      "Ġsa": 1544,
      "ĠvolÃ¡": 1545,
      "nit": 1546,
      "Äįel": 1547,
      "ĠleÅ¾ÃŃ": 1548,
      "ĠskrÃ¡": 1549,
      "ĠnÃ½m": 1550,
      "nic": 1551,
      "ĠmÃ½ch": 1552,
      "Ġvat": 1553,
      "Ġneo": 1554,
      "Ġtlu": 1555,
      "ĠuÅ¡ÃŃ": 1556,
      "ĠonÃŃ": 1557,
      "tka": 1558,
      "ĠduÅ¡ÃŃ": 1559,
      "ĠletÃŃ": 1560,
      "pas": 1561,
      "Ġskry": 1562,
      "ĠknÄĽ": 1563,
      "hlÃŃ": 1564,
      "Ġplo": 1565,
      "ĠdÃ¡m": 1566,
      "ĠVz": 1567,
      "dÄĽla": 1568,
      "pen": 1569,
      "ĠKrÃ¡": 1570,
      "ĠvÃ½m": 1571,
      "Ġhrd": 1572,
      "Ġskal": 1573,
      "vÃ¡m": 1574,
      "Ġradost": 1575,
      "ĠNo": 1576,
      "Ġproti": 1577,
      "ĠaÄį": 1578,
      "Ġpy": 1579,
      "ĠanÃŃ": 1580,
      "Ġnimi": 1581,
      "Ġled": 1582,
      "ĠNi": 1583,
      "Ġsed": 1584,
      "Ġuch": 1585,
      "Ġdech": 1586,
      "jen": 1587,
      "ĠmeÄį": 1588,
      "ÄįnÃ©": 1589,
      "ĠnÄĽj": 1590,
      "Ġzra": 1591,
      "ĠÃ¡le": 1592,
      "ĠprÃ½": 1593,
      "Ġlas": 1594,
      "has": 1595,
      "Ġami": 1596,
      "um": 1597,
      "ĠstarÃ½": 1598,
      "Ġcha": 1599,
      "ĠcizÃŃ": 1600,
      "ĠsvÄĽtÄĽ": 1601,
      "lÃ½m": 1602,
      "ĠzÃ¡ÅĻÃŃ": 1603,
      "ran": 1604,
      "Ġneby": 1605,
      "Ġrozko": 1606,
      "AAXB": 1607,
      "ouf": 1608,
      "ĠJiÅ¾": 1609,
      "ĠProÄį": 1610,
      "Ġdlouho": 1611,
      "Ġsotva": 1612,
      "kÅĻi": 1613,
      "Ġsvoje": 1614,
      "Ġ1876": 1615,
      "Ġ1919": 1616,
      "zÃ¡": 1617,
      "Ġzbo": 1618,
      "Ġmoh": 1619,
      "ĠzpÄĽv": 1620,
      "Ġ1932": 1621,
      "ĠvÅ¾dyÅ¥": 1622,
      "ĠtvÃ½ch": 1623,
      "ĠÃ½vÃ¡": 1624,
      "dnÃ¡": 1625,
      "Ġhal": 1626,
      "Ġilo": 1627,
      "ĠdÃ¡vno": 1628,
      "Ġhy": 1629,
      "Ġvlasti": 1630,
      "Ġadu": 1631,
      "kli": 1632,
      "Ġsna": 1633,
      "ĠÃ¡na": 1634,
      "Ġtla": 1635,
      "Ġpohled": 1636,
      "rÃ½ch": 1637,
      "chvÄĽ": 1638,
      "Ġ1888": 1639,
      "ĠzlatÃ©": 1640,
      "Å¯Å¾": 1641,
      "Ġcit": 1642,
      "trÃ¡": 1643,
      "Ġ196": 1644,
      "nutÃŃ": 1645,
      "ĠhvÄĽzdy": 1646,
      "Ġsamo": 1647,
      "Ġtesk": 1648,
      "Ġese": 1649,
      "ÄįÃŃm": 1650,
      "Ġpozd": 1651,
      "Ġsni": 1652,
      "ĠtÅĻÃŃ": 1653,
      "ĠvÅĻe": 1654,
      "Ġode": 1655,
      "Ġhlubo": 1656,
      "ĠÄįelo": 1657,
      "snÃŃ": 1658,
      "cy": 1659,
      "Ġran": 1660,
      "rob": 1661,
      "Ġticho": 1662,
      "Ġdruh": 1663,
      "zko": 1664,
      "CCD": 1665,
      "Ġrych": 1666,
      "Ġzelen": 1667,
      "lal": 1668,
      "Ġati": 1669,
      "ĠMar": 1670,
      "ct": 1671,
      "Ġtajem": 1672,
      "ĠÅ¾ha": 1673,
      "ala": 1674,
      "Ġrem": 1675,
      "Ġ1934": 1676,
      "Ġ1938": 1677,
      "Ġuli": 1678,
      "Ġpil": 1679,
      "ĠdÄĽt": 1680,
      "ĠÄĽlo": 1681,
      "ĠhledÃŃ": 1682,
      "ĠVÅ¾dy": 1683,
      "Ġbr": 1684,
      "ĠvÅ¡ecky": 1685,
      "Ġslou": 1686,
      "ĠvidÄĽl": 1687,
      "ĠvÅ¡u": 1688,
      "prÃ¡": 1689,
      "ĠavÃ½": 1690,
      "ĠprÃ¡zd": 1691,
      "ĠÅ¡ep": 1692,
      "Ġtky": 1693,
      "ĠtvÃŃ": 1694,
      "ĠkvÄĽty": 1695,
      "Å¡il": 1696,
      "Ġjin": 1697,
      "ĠmÅ¯Å¾e": 1698,
      "Ġper": 1699,
      "ĠÅĻa": 1700,
      "Ġavu": 1701,
      "Ġchci": 1702,
      "ĠpÃ¡n": 1703,
      "ĠÄįasto": 1704,
      "ĠÅ¾ivota": 1705,
      "ĠitÃŃ": 1706,
      "Ġpros": 1707,
      "ĠÅĪad": 1708,
      "Ġup": 1709,
      "ĠKa": 1710,
      "Ġlidst": 1711,
      "ĠÅ½i": 1712,
      "ĠsvÃŃtÃŃ": 1713,
      "kÃ¡m": 1714,
      "Ġplu": 1715,
      "ĠsnÅ¯": 1716,
      "ĠzmÄĽ": 1717,
      "Ġblou": 1718,
      "ĠÃŃm": 1719,
      "ĠedÃ¡": 1720,
      "ĠchvÃŃle": 1721,
      "Ġpam": 1722,
      "ĠDu": 1723,
      "vÃ¡n": 1724,
      "Ġvrou": 1725,
      "Å¡enÃŃ": 1726,
      "ĠolÃŃ": 1727,
      "ĠÅ¾ena": 1728,
      "Ġtvoje": 1729,
      "Ġolu": 1730,
      "ĠkÅĻe": 1731,
      "ĠnÃ¡rod": 1732,
      "znÄĽ": 1733,
      "ĠnÄĽho": 1734,
      "Ġzve": 1735,
      "ĠBa": 1736,
      "ĠdrÃ¡": 1737,
      "Ġpole": 1738,
      "Ġkraji": 1739,
      "ĠpohÃ¡": 1740,
      "ĠuÅ¡i": 1741,
      "ĠuÄįÃŃ": 1742,
      "tla": 1743,
      "Ġhud": 1744,
      "Ġtil": 1745,
      "Ġzk": 1746,
      "Ġoci": 1747,
      "Ġ1914": 1748,
      "spo": 1749,
      "Ġsch": 1750,
      "ĠtÄĽlo": 1751,
      "Ġoba": 1752,
      "ĠdobÅĻe": 1753,
      "Ġvil": 1754,
      "Ġzapo": 1755,
      "kol": 1756,
      "tÃ½ch": 1757,
      "nech": 1758,
      "Ġbys": 1759,
      "ĠNad": 1760,
      "ĠÃ¡li": 1761,
      "et": 1762,
      "Ġkni": 1763,
      "Ġtaj": 1764,
      "Ġpouze": 1765,
      "ĠtÅĻi": 1766,
      "Ġztra": 1767,
      "Ġosud": 1768,
      "Ġkdyby": 1769,
      "ĠvidÃŃ": 1770,
      "Ġsmrt": 1771,
      "ral": 1772,
      "ĠPÅĻe": 1773,
      "ĠposlednÃŃ": 1774,
      "ĠÃŃli": 1775,
      "Ġ1878": 1776,
      "ÄįnÃ½": 1777,
      "Ġoru": 1778,
      "enÃ¡": 1779,
      "Ġjemu": 1780,
      "kle": 1781,
      "Ġude": 1782,
      "ĠtÅĻeba": 1783,
      "ĠvelkÃ©": 1784,
      "vajÃŃ": 1785,
      "ĠÃŃci": 1786,
      "ĠÅ¡at": 1787,
      "ĠbÃ½ti": 1788,
      "Å¯v": 1789,
      "ĠboÅ¾ÃŃ": 1790,
      "ĠMa": 1791,
      "ĠstÅĻÃŃb": 1792,
      "Ġici": 1793,
      "Ġvem": 1794,
      "ĠtÅĻ": 1795,
      "ĠdÃ¡li": 1796,
      "Ã½vÃ¡": 1797,
      "ĠpanÃŃ": 1798,
      "ĠsklÃ¡": 1799,
      "ĠstÃ¡l": 1800,
      "ĠlÃ¡skou": 1801,
      "Ġklid": 1802,
      "ĠvdÄĽ": 1803,
      "ĠAÅ¾": 1804,
      "Ġkon": 1805,
      "lost": 1806,
      "ĠtÃ¡h": 1807,
      "ĠsmÃŃch": 1808,
      "ĠnÃ¡ru": 1809,
      "ĠpolÃŃ": 1810,
      "ĠlÃ¡sku": 1811,
      "hal": 1812,
      "Ġdale": 1813,
      "bil": 1814,
      "ĠzÅ¯": 1815,
      "Ġalo": 1816,
      "Ġich": 1817,
      "znÃŃ": 1818,
      "Ġtady": 1819,
      "Ġkdys": 1820,
      "Ġnce": 1821,
      "stÅĻÃŃ": 1822,
      "Ġout": 1823,
      "ĠbÃŃlÃ½": 1824,
      "Ġvod": 1825,
      "Ġret": 1826,
      "Å¾el": 1827,
      "ĠenÃ¡": 1828,
      "Ġjisk": 1829,
      "Ġska": 1830,
      "ĠvÃ½Å¡": 1831,
      "rÃ½m": 1832,
      "ĠTÄĽ": 1833,
      "ĠSnad": 1834,
      "ĠÅ¾eny": 1835,
      "kud": 1836,
      "stem": 1837,
      "Ġ1917": 1838,
      "ĠpÅ¯l": 1839,
      "he": 1840,
      "ĠchvÃ¡": 1841,
      "dÄĽt": 1842,
      "nostÃŃ": 1843,
      "Ġkve": 1844,
      "ĠvÅ¾dycky": 1845,
      "ĠAÅ¥": 1846,
      "Ġzouf": 1847,
      "ĠpÄĽt": 1848,
      "ĠsvojÃŃ": 1849,
      "Ġ1836": 1850,
      "Ġlidu": 1851,
      "ĠvÃŃtÄĽz": 1852,
      "Ġzu": 1853,
      "Ġasy": 1854,
      "Ġnese": 1855,
      "ĠpoÄį": 1856,
      "vÃ©ho": 1857,
      "Ġsny": 1858,
      "Ġkry": 1859,
      "Ġsklo": 1860,
      "lna": 1861,
      "chÃ¡zÃŃ": 1862,
      "AXAX": 1863,
      "ĠnÃ¡mi": 1864,
      "ĠpÃŃsnÄĽ": 1865,
      "ĠznÄĽ": 1866,
      "Ġuk": 1867,
      "ata": 1868,
      "Ġ194": 1869,
      "Ġtebou": 1870,
      "ĠsvÄĽtlo": 1871,
      "ĠvlastnÃŃ": 1872,
      "ÄįenÃŃ": 1873,
      "Ġ1859": 1874,
      "Ġzby": 1875,
      "Ġije": 1876,
      "Ġkrve": 1877,
      "ĠdÃ½m": 1878,
      "Ġtep": 1879,
      "Ġmnoho": 1880,
      "Å¾nÄĽ": 1881,
      "Ġvich": 1882,
      "tÅĻe": 1883,
      "ĠnovÃ½": 1884,
      "zou": 1885,
      "ĠÃ¡ly": 1886,
      "Ġhlava": 1887,
      "hled": 1888,
      "Ġproto": 1889,
      "Ġslzy": 1890,
      "Ġtedy": 1891,
      "ABBACC": 1892,
      "ĠZde": 1893,
      "ĠÅ¾Ã¡r": 1894,
      "tnÃ©": 1895,
      "stra": 1896,
      "Ġotec": 1897,
      "Å¾ÃŃm": 1898,
      "Ġily": 1899,
      "Ġblu": 1900,
      "Ġboji": 1901,
      "ĠÅ¡um": 1902,
      "ĠvelkÃ½": 1903,
      "Ġ1929": 1904,
      "Ġzlato": 1905,
      "ĠrÃ¡z": 1906,
      "Ġpomo": 1907,
      "Ġsty": 1908,
      "ĠvÅ¡eho": 1909,
      "ĠjejÅ¾": 1910,
      "Ġodu": 1911,
      "dne": 1912,
      "Ġposta": 1913,
      "div": 1914,
      "Ġcestu": 1915,
      "Ġmoud": 1916,
      "tit": 1917,
      "Å¾o": 1918,
      "Ġpolo": 1919,
      "ĠNÃ¡": 1920,
      "ĠnÄĽmu": 1921,
      "Ġ180": 1922,
      "hÅ¯ru": 1923,
      "Ġobraz": 1924,
      "Ġdivo": 1925,
      "Ġpapr": 1926,
      "ĠbÅ¯h": 1927,
      "Ġmr": 1928,
      "ĠKri": 1929,
      "Ġbol": 1930,
      "Ġzahra": 1931,
      "Ġned": 1932,
      "Ġnevy": 1933,
      "ĠVÃ¡": 1934,
      "ĠjmÃ©": 1935,
      "Ġhory": 1936,
      "dit": 1937,
      "Ġ1915": 1938,
      "Ġ1909": 1939,
      "ĠmÃ©ho": 1940,
      "vrÃ¡": 1941,
      "ĠPod": 1942,
      "Ġ1841": 1943,
      "ĠdÄĽs": 1944,
      "Ġase": 1945,
      "ĠstarÃ©": 1946,
      "ĠvÃŃtr": 1947,
      "sal": 1948,
      "ĠbouÅĻ": 1949,
      "din": 1950,
      "Ġtek": 1951,
      "ĠrÃ¡na": 1952,
      "Ġnul": 1953,
      "Ġuti": 1954,
      "ĠdnÃ©": 1955,
      "Ġpocho": 1956,
      "ĠhoÅĻÃŃ": 1957,
      "Ġsvobo": 1958,
      "ĠLeÄį": 1959,
      "tÄĽl": 1960,
      "jÄı": 1961,
      "ĠmyÅ¡len": 1962,
      "Ġeho": 1963,
      "nÃ½mi": 1964,
      "ĠnÄĽmÅ¾": 1965,
      "ĠdnÃŃ": 1966,
      "nik": 1967,
      "Ġneza": 1968,
      "Ġ1846": 1969,
      "tnÃŃ": 1970,
      "Ġiti": 1971,
      "Ġsyn": 1972,
      "ĠpadÃ¡": 1973,
      "ĠsmÃ¡": 1974,
      "ĠÃ¡la": 1975,
      "ĠopÄĽt": 1976,
      "ĠkrÃ¡t": 1977,
      "ĠmÃŃt": 1978,
      "vlÃ¡": 1979,
      "or": 1980,
      "ĠsÃŃly": 1981,
      "Ġzmi": 1982,
      "18": 1983,
      "sce": 1984,
      "Ġpotom": 1985,
      "ĠByl": 1986,
      "ĠdÅĻÃŃv": 1987,
      "ĠucÃŃ": 1988,
      "lÃ©m": 1989,
      "ĠÄĽÅ¾ÃŃ": 1990,
      "ĠhlÃ¡": 1991,
      "ĠNech": 1992,
      "ĠsvatÃ©": 1993,
      "lenÃŃ": 1994,
      "Ġsvoji": 1995,
      "ABAA": 1996,
      "ĠmÃ¡lo": 1997,
      "kÅ¯m": 1998,
      "ĠuÅ¡e": 1999,
      "ĠprÃ¡ci": 2000,
      "AXBB": 2001,
      "Ġvys": 2002,
      "ĠvÄĽru": 2003,
      "ABCB": 2004,
      "ĠÃºsmÄĽv": 2005,
      "ĠmÃ¡Å¡": 2006,
      "Ġbolest": 2007,
      "ĠdomÅ¯": 2008,
      "Ġkouz": 2009,
      "ĠZda": 2010,
      "vost": 2011,
      "Ġ1879": 2012,
      "ABA": 2013,
      "ĠblÃ¡": 2014,
      "Ġdost": 2015,
      "ĠÃŃÅ¾ÃŃ": 2016,
      "ĠtrÅ¯": 2017,
      "AABCBC": 2018,
      "Ġ1833": 2019,
      "ĠkaÅ¾dÃ©": 2020,
      "Ã¡me": 2021,
      "ĠmilÃ½": 2022,
      "ĠÄı": 2023,
      "ĠavÄĽ": 2024,
      "Ġvon": 2025,
      "Ġ1873": 2026,
      "ĠprÃ¡vÄĽ": 2027,
      "lÃŃm": 2028,
      "ĠvÅ¡ude": 2029,
      "ĠsvÄĽtla": 2030,
      "Ġeli": 2031,
      "Ġ1924": 2032,
      "Ġnikdo": 2033,
      "sÃŃce": 2034,
      "ĠmlÃ¡dÃŃ": 2035,
      "ĠzlatÃ½": 2036,
      "Ġzal": 2037,
      "ĠzÃ¡ÅĻi": 2038,
      "mÄĽnÃŃ": 2039,
      "ĠzÅĻel": 2040,
      "Ġpar": 2041,
      "ĠnÄĽkdy": 2042,
      "Ġlad": 2043,
      "Ġopu": 2044,
      "ĠchÃ½": 2045,
      "ĠnaÅ¡ÃŃ": 2046,
      "Ġtvou": 2047,
      "ÅĻela": 2048,
      "ĠpÄĽk": 2049,
      "der": 2050,
      "ĠstÃŃny": 2051,
      "Ġbohat": 2052,
      "Ġjdou": 2053,
      "pÅ¯": 2054,
      "Å¾nÃ©": 2055,
      "us": 2056,
      "ĠjakÃ½": 2057,
      "ĠsvatÃ½": 2058,
      "ĠAn": 2059,
      "Ġlist": 2060,
      "ĠVo": 2061,
      "Ġble": 2062,
      "Ġzved": 2063,
      "ĠlidÃŃ": 2064,
      "Å¾eh": 2065,
      "ĠCoÅ¾": 2066,
      "skÃ©ho": 2067,
      "ĠprÃ¡ce": 2068,
      "Ġtku": 2069,
      "vila": 2070,
      "ĠkvÄĽtÅ¯": 2071,
      "pro": 2072,
      "XAXB": 2073,
      "ĠpÃŃsnÃŃ": 2074,
      "Ġvzdo": 2075,
      "ĠNeÅ¾": 2076,
      "Ġody": 2077,
      "klo": 2078,
      "valy": 2079,
      "ĠzpÄĽt": 2080,
      "ĠBoÅ¾e": 2081,
      "ĠmÃ½m": 2082,
      "Ġotev": 2083,
      "ĠdvÄĽ": 2084,
      "Ġuku": 2085,
      "Ġina": 2086,
      "ĠneznÃ¡m": 2087,
      "ĠzpÃŃvÃ¡": 2088,
      "Ãº": 2089,
      "Ġmen": 2090,
      "ĠkaÅ¾d": 2091,
      "Ġzr": 2092,
      "Ġhovo": 2093,
      "ĠmÃŃr": 2094,
      "ĠmarnÄĽ": 2095,
      "Ġtal": 2096,
      "tila": 2097,
      "Ġtrochu": 2098,
      "AXBC": 2099,
      "ÅĻa": 2100,
      "ĠvidÃŃm": 2101,
      "ĠtvÃ¡ÅĻe": 2102,
      "ĠtvÃ¡ÅĻÃŃ": 2103,
      "plÃ¡": 2104,
      "roz": 2105,
      "ĠbouÅĻe": 2106,
      "ckÃ©": 2107,
      "ĠkrÃ¡sy": 2108,
      "Ġspolu": 2109,
      "ĠnemÃ¡": 2110,
      "ĠjistÄĽ": 2111,
      "nula": 2112,
      "Ġsama": 2113,
      "hra": 2114,
      "Ġvele": 2115,
      "Ġomu": 2116,
      "Ġinu": 2117,
      "ĠpÅĻiÅ¡el": 2118,
      "Ġmatka": 2119,
      "Ã©Å¾": 2120,
      "ĠmÃŃsto": 2121,
      "Å¡ichni": 2122,
      "ĠlidÃ©": 2123,
      "Ġ1925": 2124,
      "ĠjÅ¡ÃŃ": 2125,
      "ĠRoz": 2126,
      "Ġaky": 2127,
      "ĠkÅĻÃŃÅ¾": 2128,
      "ĠtvÃ¡ÅĻi": 2129,
      "ato": 2130,
      "rÃ©m": 2131,
      "teli": 2132,
      "ĠnichÅ¾": 2133,
      "ĠvÄĽr": 2134,
      "Ġzvolna": 2135,
      "ĠdÅ¯m": 2136,
      "Ġzraky": 2137,
      "ĠÃ½mi": 2138,
      "on": 2139,
      "mr": 2140,
      "Äįit": 2141,
      "Ġ1935": 2142,
      "bor": 2143,
      "ĠÃ¡ÅĻe": 2144,
      "ĠkÃ¡m": 2145,
      "ter": 2146,
      "ĠvÅ¡echno": 2147,
      "ĠoÅ¾ÃŃ": 2148,
      "kl": 2149,
      "Å¾Ã¡": 2150,
      "ĠatÃ©": 2151,
      "Ġtan": 2152,
      "ĠivÃ½": 2153,
      "Ġ1829": 2154,
      "Ġoby": 2155,
      "Ġuz": 2156,
      "ĠujÃŃ": 2157,
      "Ġbyli": 2158,
      "Ġcos": 2159,
      "Ġprsou": 2160,
      "ĠÄįku": 2161,
      "Ġol": 2162,
      "ĠÃ¡me": 2163,
      "ĠdolÅ¯": 2164,
      "Ġdil": 2165,
      "Ġbyly": 2166,
      "ĠÄĮi": 2167,
      "Ġzdra": 2168,
      "ev": 2169,
      "ĠdÄĽv": 2170,
      "Ġslovo": 2171,
      "Ġory": 2172,
      "Ġsebou": 2173,
      "Ġsva": 2174,
      "Ġkoru": 2175,
      "ĠÅĻeÄį": 2176,
      "ĠslÃ¡vy": 2177,
      "ĠVla": 2178,
      "Ġprost": 2179,
      "ĠkrÃ¡lov": 2180,
      "!...": 2181,
      "Ġdoby": 2182,
      "Ġrov": 2183,
      "ĠpÅĻijde": 2184,
      "ĠivÃ¡": 2185,
      "ĠhruÄı": 2186,
      "ĠmÄĽsta": 2187,
      "ĠanÃ©": 2188,
      "Ġmysli": 2189,
      "stup": 2190,
      "Ġasu": 2191,
      "ĠÄĽli": 2192,
      "Ġnena": 2193,
      "ĠmilÃ¡": 2194,
      "bal": 2195,
      "ĠÄĽjÃŃ": 2196,
      "ĠplÃ¡Äį": 2197,
      "ĠÅ¾ÃŃt": 2198,
      "ĠÅ¡ko": 2199,
      "ĠvÄįe": 2200,
      "Ġyla": 2201,
      "ĠskrÃ½": 2202,
      "Ġkles": 2203,
      "AXX": 2204,
      "nici": 2205,
      "dÄĽj": 2206,
      "Ġbal": 2207,
      "ĠodÃŃ": 2208,
      "sek": 2209,
      "gi": 2210,
      "ĠzrÃ¡": 2211,
      "dila": 2212,
      "ĠNÄĽ": 2213,
      "ĠudÃŃ": 2214,
      "ĠtÃ½": 2215,
      "tko": 2216,
      "Ġkamen": 2217,
      "ĠcoÅ¾": 2218,
      "jat": 2219,
      "ĠhoÅĻe": 2220,
      "ĠÃŃle": 2221,
      "ĠÃ¡zÃŃ": 2222,
      "Ġmilen": 2223,
      "Ġzdo": 2224,
      "Ġrychle": 2225,
      "skÃ©m": 2226,
      "Ġnku": 2227,
      "ĠknÃŃ": 2228,
      "ĠÅ¾lu": 2229,
      "Ġhlubi": 2230,
      "Ġbeze": 2231,
      "ĠnaÅ¡ich": 2232,
      "Å¡ka": 2233,
      "ĠtÅĻpy": 2234,
      "Ġlesy": 2235,
      "ĠzaÄį": 2236,
      "Ġelo": 2237,
      "ĠÃ¡lo": 2238,
      "Ġtouhy": 2239,
      "skÃ½m": 2240,
      "ĠvÄĽÄįnÄĽ": 2241,
      "ĠmÄĽk": 2242,
      "ĠÅ¯Å¾e": 2243,
      "ĠÃ¡ÅĻÃŃ": 2244,
      "stil": 2245,
      "Ġdej": 2246,
      "ĠvaÅ¡e": 2247,
      "ĠneÅ¾li": 2248,
      "Ġbuj": 2249,
      "Ġsmy": 2250,
      "ĠboÅ¾": 2251,
      "Ġtolik": 2252,
      "kÃ¡nÃŃ": 2253,
      "ĠZÃ¡": 2254,
      "ĠnevÃŃ": 2255,
      "ĠTys": 2256,
      "dra": 2257,
      "nila": 2258,
      "Ġducha": 2259,
      "ĠlÃ¡sce": 2260,
      "Ġsr": 2261,
      "Ġzbra": 2262,
      "Ġvlny": 2263,
      "ĠÃ¡ÅĻi": 2264,
      "Ġzdvi": 2265,
      "ĠÅ¡la": 2266,
      "van": 2267,
      "mem": 2268,
      "ĠstÃ©": 2269,
      "ĠÄįem": 2270,
      "ĠSly": 2271,
      "Ġprach": 2272,
      "letÃŃ": 2273,
      "mÃ½": 2274,
      "ĠMÄĽ": 2275,
      "ĠÄįil": 2276,
      "ĠnocÃŃ": 2277,
      "ĠejÃŃ": 2278,
      "nat": 2279,
      "Ġnek": 2280,
      "Å¡nÄĽ": 2281,
      "Ġor": 2282,
      "ĠztrÃ¡": 2283,
      "Ġlil": 2284,
      "Ġtys": 2285,
      "Ġblaho": 2286,
      "Ġbudu": 2287,
      "Ġkrva": 2288,
      "Ġct": 2289,
      "ĠvÃ½Å¡e": 2290,
      "ĠnechÅ¥": 2291,
      "ĠÅ¡a": 2292,
      "ĠSt": 2293,
      "ĠvÅ¡ichni": 2294,
      "Ġokem": 2295,
      "ĠÅ¾iv": 2296,
      "Ġopo": 2297,
      "ĠTvÃ©": 2298,
      "Ġrok": 2299,
      "cela": 2300,
      "ĠzmÃŃ": 2301,
      "Ġpev": 2302,
      "ĠjinÃ©": 2303,
      "Ġpodo": 2304,
      "chÅ¯": 2305,
      "Ġdosud": 2306,
      "ĠtÄĽla": 2307,
      "ĠatÃ½": 2308,
      "ĠÃ©mu": 2309,
      "nÃ¡nÃŃ": 2310,
      "ABCDCD": 2311,
      "ĠpÅĻem": 2312,
      "ĠvzhÅ¯ru": 2313,
      "ĠlÃŃc": 2314,
      "ĠvÅ¯nÄĽ": 2315,
      "ĠsladkÃ©": 2316,
      "ĠmÃ©m": 2317,
      "Ġnapo": 2318,
      "Ġchmu": 2319,
      "Ġvyso": 2320,
      "Å¾nÃ½": 2321,
      "Ġ1951": 2322,
      "ĠvlÃŃ": 2323,
      "ĠsvÄĽtem": 2324,
      "lez": 2325,
      "Ġpane": 2326,
      "ĠmyÅ¡lÃ©": 2327,
      "lze": 2328,
      "ĠandÄĽl": 2329,
      "Ġsvit": 2330,
      "ABBCCD": 2331,
      "ĠeÅ¾ÃŃ": 2332,
      "ĠÄįernÃ©": 2333,
      "rk": 2334,
      "ĠohnÄĽ": 2335,
      "novÃ©": 2336,
      "valo": 2337,
      "ĠvÄĽk": 2338,
      "ABABAB": 2339,
      "kro": 2340,
      "Ġply": 2341,
      "ĠsnÃ¡": 2342,
      "ĠÃ¡no": 2343,
      "ĠtisÃŃc": 2344,
      "stech": 2345,
      "ĠkÅĻÃŃdla": 2346,
      "ĠemÄĽ": 2347,
      "Ġuce": 2348,
      "pÃ½": 2349,
      "ĠÄįka": 2350,
      "ĠÄįekÃ¡": 2351,
      "Ġvody": 2352,
      "Ġprch": 2353,
      "Ġznova": 2354,
      "ĠmrÃ¡": 2355,
      "zni": 2356,
      "ĠDÄĽ": 2357,
      "ĠÃ¡ni": 2358,
      "ĠklÃ¡": 2359,
      "ĠhnÃŃ": 2360,
      "ĠPÃ¡n": 2361,
      "rech": 2362,
      "ĠzvÃŃ": 2363,
      "Ã¡l": 2364,
      "Ġklen": 2365,
      "ĠprÅ¯": 2366,
      "ĠlÃŃce": 2367,
      "ĠÃºst": 2368,
      "chÃ½": 2369,
      "ĠÄįek": 2370,
      "ĠLu": 2371,
      "ĠdÃ¡t": 2372,
      "ĠvÃ¡l": 2373,
      "Ġpest": 2374,
      "ĠvÄĽky": 2375,
      "ĠmoÅ¾": 2376,
      "lila": 2377,
      "ĠÄĽly": 2378,
      "ĠpovÄĽ": 2379,
      "ĠblÃŃÅ¾": 2380,
      "ĠNeb": 2381,
      "ĠÅ¾el": 2382,
      "Ġdle": 2383,
      "ĠjÃŃt": 2384,
      "ĠanÄĽ": 2385,
      "ĠÃ¡ny": 2386,
      "AAXX": 2387,
      "ĠsnÄĽnÃŃ": 2388,
      "ĠptÃ¡k": 2389,
      "Ġasi": 2390,
      "Ġete": 2391,
      "ĠidÃŃ": 2392,
      "Ġobzo": 2393,
      "ĠJa": 2394,
      "dr": 2395,
      "ĠVÅ¾dyÅ¥": 2396,
      "ĠHa": 2397,
      "stÅĻÃŃc": 2398,
      "leh": 2399,
      "ĠÄįele": 2400,
      "hod": 2401,
      "Ġov": 2402,
      "del": 2403,
      "ĠPe": 2404,
      "Ġcen": 2405,
      "ĠkrÃ¡snÃ©": 2406,
      "Ġspat": 2407,
      "ech": 2408,
      "Ġnit": 2409,
      "ĠnaÅ¡i": 2410,
      "ĠusmÃŃ": 2411,
      "Ġrod": 2412,
      "Ġole": 2413,
      "Ġstat": 2414,
      "Ġdrob": 2415,
      "Ġvyz": 2416,
      "ĠkrvÃŃ": 2417,
      "Å¡ku": 2418,
      "ĠhoÅĻ": 2419,
      "kne": 2420,
      "ĠsnÃŃh": 2421,
      "ĠmÄĽsÃŃc": 2422,
      "ĠPÅĻed": 2423,
      "Ġstru": 2424,
      "zal": 2425,
      "Ġudu": 2426,
      "Ġzjev": 2427,
      "Ġchla": 2428,
      "ja": 2429,
      "ĠÃ¡ci": 2430,
      "cit": 2431,
      "Ġdomo": 2432,
      "Ġpropa": 2433,
      "ĠÃŃme": 2434,
      "Ġsnu": 2435,
      "ABBACD": 2436,
      "zrak": 2437,
      "ĠÄįasem": 2438,
      "in": 2439,
      "Ġobje": 2440,
      "ĠzÃ¡pas": 2441,
      "ĠcelÃ¡": 2442,
      "ĠalÃŃ": 2443,
      "ĠzÃ¡vo": 2444,
      "Ġnky": 2445,
      "Ġcesty": 2446,
      "ĠnÃ©m": 2447,
      "lÃ©b": 2448,
      "ĠsedÃŃ": 2449,
      "kone": 2450,
      "Ġpta": 2451,
      "Ġeje": 2452,
      "ĠtoÅ¥": 2453,
      "Ġhrad": 2454,
      "Ġmodlit": 2455,
      "las": 2456,
      "mÄĽl": 2457,
      "ÅĻenÃŃ": 2458,
      "ĠDnes": 2459,
      "ĠJsem": 2460,
      "Ġkmi": 2461,
      "ĠnesmÃŃ": 2462,
      "jel": 2463,
      "rom": 2464,
      "Å¯l": 2465,
      "Å¾enÃŃ": 2466,
      "ĠdÃŃvÃ¡": 2467,
      "Ġkdes": 2468,
      "vati": 2469,
      "Ġkdysi": 2470,
      "ĠÃ½Å¡e": 2471,
      "ĠatÃŃ": 2472,
      "ju": 2473,
      "Ġ1858": 2474,
      "Å¾it": 2475,
      "Ġoce": 2476,
      "ĠvstÅĻÃŃc": 2477,
      "Ġtisk": 2478,
      "Ġpozdra": 2479,
      "liÅ¡": 2480,
      "ĠDÃŃ": 2481,
      "Ġzvy": 2482,
      "ĠdÃ½ch": 2483,
      "ĠÅ¾ije": 2484,
      "ĠNuÅ¾": 2485,
      "Ġjaro": 2486,
      "Å¡et": 2487,
      "roj": 2488,
      "ĠvÃŃÅ¡": 2489,
      "jal": 2490,
      "Ġ,": 2491,
      "Å¡lo": 2492,
      "Ġproud": 2493,
      "Ġoli": 2494,
      "vad": 2495,
      "ĠuÅ¾ÃŃ": 2496,
      "ĠzÃ¡ÅĻe": 2497,
      "ĠplnÃ½": 2498,
      "ĠmluvÃŃ": 2499,
      "snÃ©": 2500,
      "ĠmoÅĻi": 2501,
      "ĠÄįky": 2502,
      "Ġrozp": 2503,
      "ĠRu": 2504,
      "Ġvzal": 2505,
      "ĠvzdÃ¡": 2506,
      "Ġcestou": 2507,
      "ĠpÄĽv": 2508,
      "ĠadÃ¡": 2509,
      "Ġmd": 2510,
      "Ġvln": 2511,
      "dÄĽli": 2512,
      "ĠtÄĽm": 2513,
      "Ġperu": 2514,
      "ĠbouÅĻÃŃ": 2515,
      "ĠJest": 2516,
      "brÃ¡": 2517,
      "Ġhloub": 2518,
      "Ġony": 2519,
      "Ġmohu": 2520,
      "ĠpÅ¯j": 2521,
      "ĠdÃ½": 2522,
      "ĠsvÃ©mu": 2523,
      "ec": 2524,
      "ĠdÄĽc": 2525,
      "ĠovÃ¡": 2526,
      "ĠmojÃŃ": 2527,
      "Ġjara": 2528,
      "nouti": 2529,
      "eni": 2530,
      "Ġslunci": 2531,
      "nko": 2532,
      "ĠpÅĻÃŃro": 2533,
      "Ġhrobu": 2534,
      "Ġotro": 2535,
      "ĠKam": 2536,
      "Ġlam": 2537,
      "Ġfi": 2538,
      "vÅ¯j": 2539,
      "tajÃŃ": 2540,
      "ĠedÃŃ": 2541,
      "Ġ1837": 2542,
      "ĠÄįela": 2543,
      "dky": 2544,
      "ĠVÃ¡m": 2545,
      "ĠAj": 2546,
      "Ġoblo": 2547,
      "Ġnohou": 2548,
      "vol": 2549,
      "ĠnÃ¡d": 2550,
      "ĠmÄĽla": 2551,
      "ĠhlavÄĽ": 2552,
      "AABBCD": 2553,
      "Ġ1844": 2554,
      "Ġhlasem": 2555,
      "diny": 2556,
      "hnu": 2557,
      "ĠPan": 2558,
      "ĠovÃŃ": 2559,
      "ĠzÅĻÃŃm": 2560,
      "ĠskvÄĽ": 2561,
      "hÃ½ch": 2562,
      "ĠcÃŃtÃŃ": 2563,
      "ujÃŃ": 2564,
      "Å¡ek": 2565,
      "ĠjÃŃÅ¾": 2566,
      "str": 2567,
      "ĠstarÃ¡": 2568,
      "ĠjakÃ©": 2569,
      "ĠstromÅ¯": 2570,
      "tnÃ½": 2571,
      "ĠstÃŃnu": 2572,
      "cÃ½": 2573,
      "ĠskÃ¡ly": 2574,
      "ĠÃ¡te": 2575,
      "ĠÃŃnÃ¡": 2576,
      "XABB": 2577,
      "ĠjinÃ½": 2578,
      "Ġylo": 2579,
      "Ġkterou": 2580,
      "ĠdlÃŃ": 2581,
      "ckÃ½": 2582,
      "ĠaÄįÃŃ": 2583,
      "ĠivÃ©": 2584,
      "Ġsho": 2585,
      "Ġohni": 2586,
      "Ġely": 2587,
      "Ġkraje": 2588,
      "ĠNu": 2589,
      "Ġ1868": 2590,
      "ĠhÅĻe": 2591,
      "Ġlep": 2592,
      "Ġera": 2593,
      "Ġkrok": 2594,
      "losti": 2595,
      "Ġtouha": 2596,
      "DD": 2597,
      "mlu": 2598,
      "stÅĻe": 2599,
      "ĠsvÄĽÅ¾ÃŃ": 2600,
      "ĠbÃŃlÃ¡": 2601,
      "ĠMu": 2602,
      "ĠnÄĽco": 2603,
      "Ġcelou": 2604,
      "Ġeno": 2605,
      "ĠdÃ¡lky": 2606,
      "Ġpoto": 2607,
      "Ġkap": 2608,
      "Ġzav": 2609,
      "ĠÃºsta": 2610,
      "Ġrad": 2611,
      "Ġdole": 2612,
      "ĠhlÃŃ": 2613,
      "koli": 2614,
      "tele": 2615,
      "Ġvedle": 2616,
      "tnÄĽ": 2617,
      "Ġtmy": 2618,
      "Ġver": 2619,
      "ĠZas": 2620,
      "Ġmilost": 2621,
      "ÅĻo": 2622,
      "ĠrÃ¡j": 2623,
      "ĠvÅ¡echny": 2624,
      "Ġchvil": 2625,
      "ĠuÄįi": 2626,
      "dajÃŃ": 2627,
      "Ġruky": 2628,
      "sÃŃm": 2629,
      "Ġata": 2630,
      "Ġstrom": 2631,
      "ĠvÄĽc": 2632,
      "Ġmatky": 2633,
      "ĠmyslÃŃ": 2634,
      "ĠodÄĽ": 2635,
      "Ġdosti": 2636,
      "ĠNem": 2637,
      "ĠÅĻÃŃci": 2638,
      "Ġ1863": 2639,
      "ĠsladkÃ½": 2640,
      "Ġtry": 2641,
      "Ġnil": 2642,
      "ĠkÅ¯": 2643,
      "ĠplnÃ©": 2644,
      "Ġsme": 2645,
      "ĠÃŃÅ¾e": 2646,
      "ĠÅ¡li": 2647,
      "Ġramen": 2648,
      "ĠBuÄı": 2649,
      "ĠhnÃŃz": 2650,
      "Ġstou": 2651,
      "Ã¡ch": 2652,
      "vec": 2653,
      "ĠÅĻil": 2654,
      "Ġbratr": 2655,
      "Ġ1862": 2656,
      "ĠmladÃ½": 2657,
      "Ġokam": 2658,
      "ĠZe": 2659,
      "bude": 2660,
      "ĠdnÅ¯": 2661,
      "Ġohu": 2662,
      "Ġkat": 2663,
      "ĠchÅ¯": 2664,
      "zku": 2665,
      "Ġubo": 2666,
      "ĠpravÃŃ": 2667,
      "ĠkÃ½": 2668,
      "ĠÃ¡cÃŃ": 2669,
      "Ġdav": 2670,
      "Ġrty": 2671,
      "ĠklidnÄĽ": 2672,
      "ĠdÃ¡vÃ¡": 2673,
      "snÃ½": 2674,
      "Ġzku": 2675,
      "ĠÃŃtÄĽ": 2676,
      "ĠBohu": 2677,
      "ĠLÃ¡": 2678,
      "ĠinÄĽ": 2679,
      "ĠslavÃŃ": 2680,
      "Å¡ky": 2681,
      "Ġobu": 2682,
      "ĠtÃ©to": 2683,
      "Å¡nÃ©": 2684,
      "Ġjedna": 2685,
      "eÅĪ": 2686,
      "bÃ½": 2687,
      "Ġtka": 2688,
      "Ġany": 2689,
      "ĠslyÅ¡ÃŃ": 2690,
      "Ġzti": 2691,
      "armo": 2692,
      "prv": 2693,
      "stane": 2694,
      "ĠnaÅĪ": 2695,
      "Ġ1933": 2696,
      "ĠslÃŃ": 2697,
      "Ġnelze": 2698,
      "Ġprosto": 2699,
      "ĠcÃŃsa": 2700,
      "ke": 2701,
      "Ġvzne": 2702,
      "klÃ¡": 2703,
      "Ġdoma": 2704,
      "Ġzka": 2705,
      "dala": 2706,
      "ĠblaÅ¾en": 2707,
      "Ġovi": 2708,
      "ĠÃ¡nÄĽ": 2709,
      "ĠkrÃ¡ÄįÃŃ": 2710,
      "Ġsh": 2711,
      "Ġminu": 2712,
      "Ġnaz": 2713,
      "ĠÃŃru": 2714,
      "Ġkva": 2715,
      "ĠÃ¡tÃŃ": 2716,
      "dej": 2717,
      "ĠonÄĽ": 2718,
      "ĠKu": 2719,
      "ĠhledÃ¡": 2720,
      "74": 2721,
      "Ġ1974": 2722,
      "ĠavÃ©": 2723,
      "ĠzaÅ¡": 2724,
      "Ġchat": 2725,
      "ĠBez": 2726,
      "Ġvlasy": 2727,
      "ĠoheÅĪ": 2728,
      "ĠlidskÃ©": 2729,
      "Ġvez": 2730,
      "Ġpravil": 2731,
      "ĠjehoÅ¾": 2732,
      "ĠusÃŃ": 2733,
      "Ġvlas": 2734,
      "dina": 2735,
      "Ġnak": 2736,
      "Ġkterak": 2737,
      "Ġvzdech": 2738,
      "Ġonu": 2739,
      "ABAC": 2740,
      "ĠdvÃ©": 2741,
      "Ġzpo": 2742,
      "ĠmladÃ©": 2743,
      "sle": 2744,
      "Ġkmen": 2745,
      "ĠdnÄĽ": 2746,
      "Ġtre": 2747,
      "ĠÃŃlÃŃ": 2748,
      "ali": 2749,
      "Ġnev": 2750,
      "zeÅĪ": 2751,
      "Ġhej": 2752,
      "ĠilÃ½": 2753,
      "ĠvÃ©m": 2754,
      "dat": 2755,
      "ĠÃŃmÃ¡": 2756,
      "ĠSta": 2757,
      "ĠsÃŃla": 2758,
      "sled": 2759,
      "ĠjarnÃŃ": 2760,
      "ĠdrahÃ¡": 2761,
      "ek": 2762,
      "ie": 2763,
      "ĠomÅ¯": 2764,
      "ĠÃ¡dÃ¡": 2765,
      "Ġyne": 2766,
      "mnÄĽ": 2767,
      "Äįin": 2768,
      "ĠÅĻi": 2769,
      "ĠoÅĻi": 2770,
      "ĠKte": 2771,
      "ĠmuÅ¾i": 2772,
      "ĠslyÅ¡": 2773,
      "ĠkÃ¡men": 2774,
      "ĠmuÅ¾e": 2775,
      "ĠkdoÅ¾": 2776,
      "ĠoltÃ¡": 2777,
      "ĠvÄĽÄįnÃ©": 2778,
      "sel": 2779,
      "rÃ¡ch": 2780,
      "ĠkaÅ¾dÃ¡": 2781,
      "Ġ1963": 2782,
      "ĠtÄĽl": 2783,
      "Ġzro": 2784,
      "Äįet": 2785,
      "Ġene": 2786,
      "lÃ©t": 2787,
      "ĠÃŃtÃ¡": 2788,
      "ĠRa": 2789,
      "Ġsoud": 2790,
      "ĠrÅ¯Å¾ÃŃ": 2791,
      "kala": 2792,
      "ĠlÃ©ta": 2793,
      "noucÃŃ": 2794,
      "ĠKar": 2795,
      "ĠÅĻeÄįi": 2796,
      "Ġhas": 2797,
      "Ġ1916": 2798,
      "XC": 2799,
      "ÄįnÃ¡": 2800,
      "Ġhlo": 2801,
      "ĠVa": 2802,
      "ĠMÅ¯j": 2803,
      "19": 2804,
      "ĠrÃ¡ny": 2805,
      "ĠvÄĽtÅ¡ÃŃ": 2806,
      "ĠtichÃ©": 2807,
      "Ġsud": 2808,
      "ck": 2809,
      "bnÃŃ": 2810,
      "Ġkonec": 2811,
      "Ġrej": 2812,
      "ĠTvÃ¡": 2813,
      "Ġman": 2814,
      "Ġnap": 2815,
      "ĠelÃ½": 2816,
      "Ġvzduch": 2817,
      "Ġovy": 2818,
      "Äįer": 2819,
      "Ġvzdy": 2820,
      "Ġop": 2821,
      "Ġblanky": 2822,
      "Ġspou": 2823,
      "ĠÄĽtÃŃ": 2824,
      "Ġzlat": 2825,
      "ĠjichÅ¾": 2826,
      "ĠÅ¾eh": 2827,
      "ĠmÃŃru": 2828,
      "Ġhloubi": 2829,
      "ĠskÃ½": 2830,
      "ĠloÄı": 2831,
      "Ġuze": 2832,
      "ĠNej": 2833,
      "ĠkÅĻÃŃd": 2834,
      "uj": 2835,
      "ĠÄįÃ¡": 2836,
      "Ġslov": 2837,
      "kvÄĽ": 2838,
      "ÅĻila": 2839,
      "Ġboje": 2840,
      "ĠkrÃ¡snÃ¡": 2841,
      "ĠdobÄĽ": 2842,
      "ĠvÄĽkÅ¯": 2843,
      "Ġnekone": 2844,
      "ĠnadÄĽje": 2845,
      "Ġeru": 2846,
      "Ġlen": 2847,
      "Ġprachu": 2848,
      "ĠlesÅ¯": 2849,
      "ĠSo": 2850,
      "Ġovu": 2851,
      "nÃ¡Å¡ÃŃ": 2852,
      "ĠtvÃ©ho": 2853,
      "Å¡Å¡ÃŃ": 2854,
      "dÃ¡m": 2855,
      "ĠmnohÃ½": 2856,
      "ĠÄįin": 2857,
      "Ġedu": 2858,
      "ĠÄĽta": 2859,
      "ĠÅĺÃŃm": 2860,
      "rnÃ¡": 2861,
      "lÃ©ho": 2862,
      "ĠmotÃ½": 2863,
      "ĠlÅ¯": 2864,
      "kat": 2865,
      "Äįkou": 2866,
      "Ġznovu": 2867,
      "slo": 2868,
      "Ġsrdcem": 2869,
      "vÃŃrÃ¡": 2870,
      "ĠSlo": 2871,
      "tost": 2872,
      "ĠdobrÃ½": 2873,
      "ĠMil": 2874,
      "ĠmalÃ½": 2875,
      "vin": 2876,
      "ĠÄĮech": 2877,
      "Ġota": 2878,
      "ĠmilÃ©": 2879,
      "ĠBoÅ¾ÃŃ": 2880,
      "Ġradosti": 2881,
      "ĠvÃŃru": 2882,
      "Ġmoji": 2883,
      "Ġnav": 2884,
      "Ġrozum": 2885,
      "ĠpÅĻÃŃliÅ¡": 2886,
      "ĠLa": 2887,
      "ĠtichÃ½": 2888,
      "ĠjÃŃmÅ¾": 2889,
      "Ġhod": 2890,
      "ĠanÃ½": 2891,
      "Ġjiz": 2892,
      "Ġleb": 2893,
      "ĠslyÅ¡el": 2894,
      "Ġdni": 2895,
      "Ġrve": 2896,
      "ĠrÃ¡no": 2897,
      "ĠPÅĻÃŃ": 2898,
      "Ġuky": 2899,
      "ĠÄįt": 2900,
      "Ġzrakem": 2901,
      "ovÃ©": 2902,
      "ĠnemÄĽ": 2903,
      "ĠsnÃ©": 2904,
      "Ġdny": 2905,
      "Ġpovz": 2906,
      "Ġslz": 2907,
      "poÅĪ": 2908,
      "Ġprapo": 2909,
      "AXAB": 2910,
      "ĠtisÃŃce": 2911,
      "ĠÄįernÃ½": 2912,
      "ĠaspoÅĪ": 2913,
      "ĠacÃŃ": 2914,
      "ĠÅĻÃŃm": 2915,
      "ĠÃŃly": 2916,
      "Ġdobro": 2917,
      "ĠdlouhÃ©": 2918,
      "ĠkonÄĽ": 2919,
      "Ġnebyl": 2920,
      "Ġhrudi": 2921,
      "livÄĽ": 2922,
      "ĠpoÅ¾eh": 2923,
      "ĠkvÃŃtÃŃ": 2924,
      "Ġroste": 2925,
      "Ġjazy": 2926,
      "ĠMnÄĽ": 2927,
      "ĠÃŃte": 2928,
      "ĠSlu": 2929,
      "Ġotce": 2930,
      "ÅĻÅ¯": 2931,
      "ĠbÅĻehu": 2932,
      "Ġlesa": 2933,
      "vej": 2934,
      "ĠÄįest": 2935,
      "ÅĻÃŃt": 2936,
      "ĠpamÄĽ": 2937,
      "chal": 2938,
      "ĠchvÄĽje": 2939,
      "ĠobrÃ¡": 2940,
      "dost": 2941,
      "Ġstromy": 2942,
      "ĠpÃ¡r": 2943,
      "ĠÃ¡va": 2944,
      "Ġpodzi": 2945,
      "ĠmÃ¡me": 2946,
      "ĠKaÅ¾": 2947,
      "ĠrytÃŃ": 2948,
      "ĠpovÃŃ": 2949,
      "Ġine": 2950,
      "Ġ1835": 2951,
      "Ġuka": 2952,
      "her": 2953,
      "ĠzÃŃtra": 2954,
      "ĠrÃ¡t": 2955,
      "ĠUÅ¾": 2956,
      "ĠchodÃŃ": 2957,
      "Ġvti": 2958,
      "Ġvede": 2959,
      "ĠrÅ¯z": 2960,
      "ĠnÃ¡ruÄį": 2961,
      "ĠJsou": 2962,
      "ĠÅ¾alo": 2963,
      "slu": 2964,
      "ĠovÃ½": 2965,
      "ĠTvÅ¯j": 2966,
      "ĠnevÃŃm": 2967,
      "ĠÅ¡umÃŃ": 2968,
      "Ġdum": 2969,
      "ĠcÃŃtÃŃm": 2970,
      "ĠdrahÃ©": 2971,
      "nala": 2972,
      "ĠBoha": 2973,
      "rat": 2974,
      "Ġtvr": 2975,
      "Ġtouhou": 2976,
      "Ġdve": 2977,
      "Ġzach": 2978,
      "dka": 2979,
      "Ġhlad": 2980,
      "Ġokna": 2981,
      "ĠlistÃŃ": 2982,
      "Ġuhy": 2983,
      "nami": 2984,
      "Ġlze": 2985,
      "ĠilÃ¡": 2986,
      "ader": 2987,
      "skem": 2988,
      "Ġset": 2989,
      "ĠBÄĽ": 2990,
      "klad": 2991,
      "ÄįÃ¡": 2992,
      "kon": 2993,
      "ĠskÃ©": 2994,
      "ĠÄįasu": 2995,
      "dek": 2996,
      "ĠzdÃ¡lo": 2997,
      "Ġjinak": 2998,
      "ĠblÃ½": 2999,
      "ryÄį": 3000,
      "ĠsÃŃlu": 3001,
      "Ġnim": 3002,
      "ĠubÃŃ": 3003,
      "ĠsplÃ½": 3004,
      "ĠslÃ¡va": 3005,
      "ĠhvÄĽzda": 3006,
      "Ġlese": 3007,
      "Ġtrp": 3008,
      "ĠekÃ¡": 3009,
      "ĠpÅĻÃŃÅ¡tÃŃ": 3010,
      "lku": 3011,
      "Ġsad": 3012,
      "teÄį": 3013,
      "stÃ¡vÃ¡": 3014,
      "ĠÅĻekl": 3015,
      "ĠÅĪader": 3016,
      "ĠjakÃ¡": 3017,
      "ĠkrÃ¡snÃ½": 3018,
      "tev": 3019,
      "sen": 3020,
      "sly": 3021,
      "ĠpÃŃsni": 3022,
      "tÃ¡m": 3023,
      "ĠcÃŃtil": 3024,
      "Ġsma": 3025,
      "Ġonen": 3026,
      "ĠvÅ¡emi": 3027,
      "ĠvzÃ¡c": 3028,
      "ĠmajÃŃ": 3029,
      "Ġtvrd": 3030,
      "ĠtvÃ©m": 3031,
      "Ġmysl": 3032,
      "Ġtakto": 3033,
      "Ġzam": 3034,
      "ĠHu": 3035,
      "Ġbrzy": 3036,
      "Ġplach": 3037,
      "ĠkrÃ¡se": 3038,
      "ĠdruhÃ½": 3039,
      "stvo": 3040,
      "Ġrost": 3041,
      "Ġraj": 3042,
      "ĠbÃ¡snÃŃ": 3043,
      "hli": 3044,
      "Ġpas": 3045,
      "Ġposud": 3046,
      "ÅĻenÃ©": 3047,
      "ĠoÄįÃŃch": 3048,
      "Ġrek": 3049,
      "Äįem": 3050,
      "Ġoho": 3051,
      "ĠchrÃ¡m": 3052,
      "Äįila": 3053,
      "ĠvalÃŃ": 3054,
      "ĠmÄĽsto": 3055,
      "ĠdÃ©": 3056,
      "ĠÄįet": 3057,
      "Ġscho": 3058,
      "lav": 3059,
      "Ġlek": 3060,
      "ĠrÃ¡l": 3061,
      "ĠSi": 3062,
      "met": 3063,
      "Ġtruch": 3064,
      "Ġlidstva": 3065,
      "lenÃ©": 3066,
      "Ġtento": 3067,
      "ĠRÃ¡": 3068,
      "ĠhnÄĽv": 3069,
      "Å¡nÃ½": 3070,
      "ĠnedÃ¡": 3071,
      "ĠÃ¡Äįe": 3072,
      "ĠÃŃnu": 3073,
      "ĠsvÄĽtu": 3074,
      "chÃ¡ze": 3075,
      "dÃ¡nÃŃ": 3076,
      "jnÃ©": 3077,
      "ĠkteÅĻÃŃ": 3078,
      "Ġsest": 3079,
      "Ġcesta": 3080,
      "Ġpln": 3081,
      "Ġjmen": 3082,
      "ĠklonÃŃ": 3083,
      "Ġnade": 3084,
      "ĠkrÃ¡li": 3085,
      "ĠÃŃÅ¡e": 3086,
      "Ġroj": 3087,
      "kÅĻik": 3088,
      "DE": 3089,
      "penÃŃ": 3090,
      "Ġduchu": 3091,
      "ĠTobÄĽ": 3092,
      "ĠvÃ½Å¡i": 3093,
      "ĠbudeÅ¡": 3094,
      "ĠdÃŃvka": 3095,
      "Ġhospo": 3096,
      "ĠatÃ¡": 3097,
      "alu": 3098,
      "Ġspi": 3099,
      "ĠdruÅ¾": 3100,
      "Ġzvuk": 3101,
      "ĠNez": 3102,
      "ĠrÃ¡zem": 3103,
      "Ġlidem": 3104,
      "ĠotÃ¡": 3105,
      "Ġral": 3106,
      "ĠÃŃkÅ¯": 3107,
      "ĠDi": 3108,
      "ĠmalÃ©": 3109,
      "ĠvÅ¯le": 3110,
      "ĠÃ¡ÄįÃŃ": 3111,
      "ĠkrÃ¡le": 3112,
      "slou": 3113,
      "ĠukÃ¡": 3114,
      "Ġava": 3115,
      "bit": 3116,
      "cnÄĽ": 3117,
      "ĠdÄĽtÃŃ": 3118,
      "rÃ¡m": 3119,
      "Ġudy": 3120,
      "ĠokamÅ¾i": 3121,
      "ĠjasnÃ©": 3122,
      "ĠbratÅĻÃŃ": 3123,
      "ĠÄĽlÃ½": 3124,
      "Ġvyh": 3125,
      "jÃŃch": 3126,
      "dÃŃÅ¡": 3127,
      "ĠpÃ©": 3128,
      "rnou": 3129,
      "ĠpÅĻede": 3130,
      "Å¡t": 3131,
      "Ġvit": 3132,
      "jÃ¡": 3133,
      "ĠÅĻas": 3134,
      "ĠtvÃ½m": 3135,
      "ĠToÅ¥": 3136,
      "Ġzoufal": 3137,
      "sed": 3138,
      "Ġtva": 3139,
      "ĠzÃ¡hy": 3140,
      "Ġmilosti": 3141,
      "ĠelÃ©": 3142,
      "Ġboku": 3143,
      "ĠpÃ½ch": 3144,
      "Ġchle": 3145,
      "ĠrÅ¯Å¾o": 3146,
      "dÃ½ch": 3147,
      "ĠpÃ¡ni": 3148,
      "ĠopÃŃ": 3149,
      "ĠJeho": 3150,
      "Ġaty": 3151,
      "ĠmÅ¾i": 3152,
      "Ġrev": 3153,
      "Ġstaro": 3154,
      "Ġklam": 3155,
      "bnÃ©": 3156,
      "Äįnou": 3157,
      "vuje": 3158,
      "ĠplÃ¡Äįe": 3159,
      "ĠÄĽtu": 3160,
      "ĠjmÃ©no": 3161,
      "ĠcÃŃl": 3162,
      "deme": 3163,
      "Ġpov": 3164,
      "cet": 3165,
      "ĠbyÅ¥": 3166,
      "Ġples": 3167,
      "Ġcky": 3168,
      "Ġpravda": 3169,
      "Ġoch": 3170,
      "cel": 3171,
      "ĠtÄĽÅ¾kÃ©": 3172,
      "mnÃŃ": 3173,
      "dlÃŃ": 3174,
      "jÃŃt": 3175,
      "ĠÄıÃ¡": 3176,
      "Ġar": 3177,
      "ĠdÃŃm": 3178,
      "bÅ¯": 3179,
      "Ġzdi": 3180,
      "ĠhrobÄĽ": 3181,
      "Ġzadu": 3182,
      "neÅ¡": 3183,
      "kajÃŃ": 3184,
      "ĠrÃ¡m": 3185,
      "Ġklet": 3186,
      "ĠbÄĽda": 3187,
      "ĠSva": 3188,
      "Ġnka": 3189,
      "Ġdomu": 3190,
      "Ġztracen": 3191,
      "ĠÄĽle": 3192,
      "Ġovo": 3193,
      "Ġzni": 3194,
      "ĠizÃŃ": 3195,
      "Ġom": 3196,
      "ĠÃ¡vÄĽ": 3197,
      "Ġnohy": 3198,
      "ĠAby": 3199,
      "ĠmizÃŃ": 3200,
      "ĠÅĻÃŃÅ¡": 3201,
      "Ġzapla": 3202,
      "Ġluh": 3203,
      "ĠahÃ¡": 3204,
      "ĠtenkrÃ¡t": 3205,
      "ĠrnÃ©": 3206,
      "ĠsrdcÃŃ": 3207,
      "Ġpoho": 3208,
      "stva": 3209,
      "Ġdoko": 3210,
      "Ġetu": 3211,
      "ĠsvÃ½mi": 3212,
      "Ġrozho": 3213,
      "Ġpout": 3214,
      "Ġmohl": 3215,
      "Ġsladce": 3216,
      "ĠstarÃ½ch": 3217,
      "ĠadÃŃ": 3218,
      "bito": 3219,
      "ĠÃ¡vy": 3220,
      "ĠnÄĽÅ¾": 3221,
      "ĠknÃŃÅ¾e": 3222,
      "ĠkrÅ¯": 3223,
      "nosÅ¥": 3224,
      "Ġosu": 3225,
      "Ġdlo": 3226,
      "ĠslyÅ¡ÃŃm": 3227,
      "ĠzachvÄĽ": 3228,
      "ĠjejÃŃm": 3229,
      "ĠolÃ¡": 3230,
      "Ġuna": 3231,
      "kve": 3232,
      "vod": 3233,
      "ĠSrd": 3234,
      "Ġdala": 3235,
      "Ġzcela": 3236,
      "ĠbouÅĻi": 3237,
      "ĠdnÃ½": 3238,
      "Ġprobu": 3239,
      "ĠdÄĽla": 3240,
      "Ġnesly": 3241,
      "nd": 3242,
      "ĠzvonÃŃ": 3243,
      "pit": 3244,
      "ĠdobrÃ©": 3245,
      "go": 3246,
      "Ġrozm": 3247,
      "ĠavÃ¡": 3248,
      "bÃ©": 3249,
      "ĠzÃ¡m": 3250,
      "Ġstvo": 3251,
      "ĠdrahÃ½": 3252,
      "Ġzasta": 3253,
      "zky": 3254,
      "ĠtÅĻÃ¡": 3255,
      "AAXA": 3256,
      "kot": 3257,
      "ĠzdrÃ¡": 3258,
      "ĠvÄĽÄįnÃ½": 3259,
      "ĠtÃ³": 3260,
      "ĠzatÃŃm": 3261,
      "Ġprsa": 3262,
      "Ġbil": 3263,
      "ĠvÅ¡ÃŃm": 3264,
      "pÄĽl": 3265,
      "ĠdÅ¯vÄĽ": 3266,
      "chou": 3267,
      "ĠÄĽlÃ¡": 3268,
      "Ġvenku": 3269,
      "klÃŃ": 3270,
      "Ġpramen": 3271,
      "ĠSy": 3272,
      "zvu": 3273,
      "ĠtnÃ©": 3274,
      "ABXB": 3275,
      "Ġnevin": 3276,
      "Ġju": 3277,
      "ĠÃºtÄĽ": 3278,
      "Ġpravdu": 3279,
      "ĠhÃ½": 3280,
      "Ã½cho": 3281,
      "XAXABB": 3282,
      "ĠÅĻel": 3283,
      "lnÃŃ": 3284,
      "tno": 3285,
      "Ġvztek": 3286,
      "Ġaku": 3287,
      "hÃ½m": 3288,
      "Ġeni": 3289,
      "ĠvÅ¯kol": 3290,
      "ĠÄįnÃŃ": 3291,
      "Ġvrcho": 3292,
      "ĠKdyby": 3293,
      "ĠzvlÃ¡": 3294,
      "ĠmÄĽnÃŃ": 3295,
      "lenÃ½": 3296,
      "Ġbudouc": 3297,
      "ĠbÅĻÃŃ": 3298,
      "ĠmladÃ¡": 3299,
      "Å¡te": 3300,
      "ĠÅ¡le": 3301,
      "Ġhnu": 3302,
      "ĠÃ¡lÃŃ": 3303,
      "stala": 3304,
      "ĠrÃ¡da": 3305,
      "Ġjakby": 3306,
      "Ġnec": 3307,
      "ĠsvatÃ¡": 3308,
      "ĠÅĻad": 3309,
      "Ġfa": 3310,
      "ĠtÃŃÅ¾": 3311,
      "ĠMe": 3312,
      "Ġslza": 3313,
      "kaz": 3314,
      "Ġur": 3315,
      "Ġkos": 3316,
      "Ġbojo": 3317,
      "ĠeÅĻÃŃ": 3318,
      "hÃ¡m": 3319,
      "Ġotu": 3320,
      "ĠzÅĻe": 3321,
      "ĠzdÄĽ": 3322,
      "Ġzhas": 3323,
      "ĠpÅĻij": 3324,
      "ĠOb": 3325,
      "ĠjednÃ©": 3326,
      "Ġidu": 3327,
      "Ġjal": 3328,
      "Ġplane": 3329,
      "Ġjdu": 3330,
      "ĠvÄĽÅĻ": 3331,
      "Äıte": 3332,
      "Å¾ila": 3333,
      "ĠzlatÃ¡": 3334,
      "trem": 3335,
      "ĠklÃŃn": 3336,
      "ĠSvÄĽt": 3337,
      "Å¡ÃŃch": 3338,
      "Ġhlaho": 3339,
      "ĠÅ¾enu": 3340,
      "ĠÃºdo": 3341,
      "ĠadÄĽ": 3342,
      "Ġhad": 3343,
      "Ġmdlo": 3344,
      "ĠenÄĽ": 3345,
      "Ġbije": 3346,
      "knu": 3347,
      "ĠMÃŃ": 3348,
      "ĠslÃ¡vÄĽ": 3349,
      "ĠzÃ¡zrak": 3350,
      "ĠchtÄĽla": 3351,
      "Ġjeze": 3352,
      "Ġnal": 3353,
      "ĠZem": 3354,
      "ĠsluÅ¾": 3355,
      "ĠkaÅ¾dou": 3356,
      "bnÄĽ": 3357,
      "ĠnÃŃz": 3358,
      "ĠstejnÄĽ": 3359,
      "zna": 3360,
      "Ġoly": 3361,
      "ĠÅĻeÄįÃŃ": 3362,
      "Ġsilou": 3363,
      "ĠstÃ¡la": 3364,
      "Ġkus": 3365,
      "Ġsne": 3366,
      "tor": 3367,
      "ĠpevnÄĽ": 3368,
      "ĠtouÅ¾ÃŃ": 3369,
      "ĠmoÅ¾no": 3370,
      "hnÄĽ": 3371,
      "Ġkne": 3372,
      "Ġoni": 3373,
      "ĠkrÅ¯pÄĽ": 3374,
      "ĠmodrÃ©": 3375,
      "Ġzba": 3376,
      "ĠmÄĽsÃŃ": 3377,
      "ĠpÅĻiÅ¡la": 3378,
      "ĠrozkoÅ¡": 3379,
      "zÃŃm": 3380,
      "ĠmraÄį": 3381,
      "ĠchceÅ¡": 3382,
      "Ġpoe": 3383,
      "ĠskÅĻi": 3384,
      "ĠzemÃŃ": 3385,
      "Ġnechce": 3386,
      "ĠmÃŃti": 3387,
      "Ġoha": 3388,
      "Ġ1865": 3389,
      "Ġpsa": 3390,
      "ĠrtÅ¯": 3391,
      "Ġkrou": 3392,
      "Å¡enÃ©": 3393,
      "ĠbÃ¡s": 3394,
      "rnÃŃ": 3395,
      "ĠCe": 3396,
      "Ġspra": 3397,
      "ĠDob": 3398,
      "ĠJenÅ¾": 3399,
      "ĠvelkÃ¡": 3400,
      "slÃŃ": 3401,
      "ĠtÄĽle": 3402,
      "ĠnepÅĻÃ¡": 3403,
      "Ġvlo": 3404,
      "ĠdennÄĽ": 3405,
      "dili": 3406,
      "Ġvna": 3407,
      "kra": 3408,
      "Ġluk": 3409,
      "blÃŃ": 3410,
      "jÅ¡ÃŃm": 3411,
      "kovÃ©": 3412,
      "Ġjsa": 3413,
      "liÄį": 3414,
      "Ġesy": 3415,
      "ĠÃ¡je": 3416,
      "cÅ¯m": 3417,
      "Ġsmutek": 3418,
      "vÄĽd": 3419,
      "Ġhoch": 3420,
      "CCB": 3421,
      "ĠdruhÃ©": 3422,
      "ĠhÅĻbito": 3423,
      "Ġmni": 3424,
      "ĠÄĮer": 3425,
      "Ġanu": 3426,
      "stvÃŃm": 3427,
      "ĠivÄĽ": 3428,
      "ĠlkÃ¡": 3429,
      "Ġtemno": 3430,
      "ĠbÃŃlÃ½ch": 3431,
      "Ġpravdy": 3432,
      "bli": 3433,
      "Ġpotu": 3434,
      "ĠrudÃ©": 3435,
      "ĠbÄĽÅ¾ÃŃ": 3436,
      "rky": 3437,
      "dosti": 3438,
      "Ġzlata": 3439,
      "ĠsmutnÄĽ": 3440,
      "ĠdlouhÃ½": 3441,
      "ĠÃ½ti": 3442,
      "Ġvlh": 3443,
      "Ġhan": 3444,
      "ĠpÅĻÃ¡tel": 3445,
      "jas": 3446,
      "Ġkrokem": 3447,
      "Ġmraky": 3448,
      "ĠstavÃŃ": 3449,
      "ĠalÃ½": 3450,
      "Ġudi": 3451,
      "jednou": 3452,
      "ĠÃ¡dÃŃ": 3453,
      "ĠnoÄįnÃŃ": 3454,
      "lnÄĽ": 3455,
      "ĠolÅ¯": 3456,
      "boj": 3457,
      "ĠptÃ¡ci": 3458,
      "ĠnepÅĻÃŃ": 3459,
      "ĠBla": 3460,
      "ĠÅ¾ÃŃti": 3461,
      "ĠvÃ½cho": 3462,
      "ene": 3463,
      "Äįej": 3464,
      "Ġ1869": 3465,
      "ĠÅ¯nÄĽ": 3466,
      "ĠÄįeskÃ©": 3467,
      "Ġjednu": 3468,
      "vili": 3469,
      "ĠÃŃka": 3470,
      "Ġteprv": 3471,
      "ĠvÅ¯li": 3472,
      "ĠsklÃ¡nÃŃ": 3473,
      "ĠNoc": 3474,
      "Ġhrou": 3475,
      "ĠjedinÃ½": 3476,
      "Ġono": 3477,
      "ĠvracÃŃ": 3478,
      "kÃ©ho": 3479,
      "ĠkvÄĽtu": 3480,
      "dÃ¡ch": 3481,
      "Ġuhu": 3482,
      "ĠdÃ©m": 3483,
      "ĠiÅ¡e": 3484,
      "ĠvÃ¡ÅĻ": 3485,
      "Ġjino": 3486,
      "ĠblÃŃz": 3487,
      "Ġbit": 3488,
      "ĠVÃ¡c": 3489,
      "ĠDen": 3490,
      "Ġporo": 3491,
      "ĠdÅĻÃŃve": 3492,
      "nak": 3493,
      "rce": 3494,
      "Ġly": 3495,
      "hlÃ¡": 3496,
      "Ġkali": 3497,
      "lka": 3498,
      "dÄĽnÃŃ": 3499,
      "ĠtoÅ¾": 3500,
      "ĠÃŃny": 3501,
      "tnou": 3502,
      "mÃ¡ch": 3503,
      "Ġmoci": 3504,
      "ĠPane": 3505,
      "ĠslÃ¡vu": 3506,
      "Ġzrc": 3507,
      "ĠkvÄĽti": 3508,
      "ĠÄįlovÄĽka": 3509,
      "hdy": 3510,
      "ĠÃ¡nu": 3511,
      "Ġjte": 3512,
      "lena": 3513,
      "Ġstrach": 3514,
      "ĠovÅ¡em": 3515,
      "vanÃ©": 3516,
      "ĠtÅ¯": 3517,
      "Ġola": 3518,
      "dli": 3519,
      "ĠytÃŃ": 3520,
      "ĠÄĽny": 3521,
      "Å¡nÃŃ": 3522,
      "ÅĻek": 3523,
      "tala": 3524,
      "hÃ¡nÃŃ": 3525,
      "Ġhez": 3526,
      "Ġpodle": 3527,
      "ĠÄĽji": 3528,
      "tvo": 3529,
      "Ġstrany": 3530,
      "raz": 3531,
      "ĠvÃŃr": 3532,
      "ĠmalÃ¡": 3533,
      "Ġ1823": 3534,
      "Ġpen": 3535,
      "Ġtce": 3536,
      "ĠJeÅ¡tÄĽ": 3537,
      "ĠchrÃ¡mu": 3538,
      "Ġcti": 3539,
      "staÅĪ": 3540,
      "ĠSlÃ¡": 3541,
      "ten": 3542,
      "Ġada": 3543,
      "ĠplÃŃ": 3544,
      "Ġedy": 3545,
      "vice": 3546,
      "dali": 3547,
      "ĠÄįaro": 3548,
      "ĠchtÃŃ": 3549,
      "ĠeÄįÃŃ": 3550,
      "Ġzapad": 3551,
      "Ġruch": 3552,
      "ĠvÃ¡mi": 3553,
      "rku": 3554,
      "tnÃ¡": 3555,
      "hly": 3556,
      "ĠÅ¡ÃŃm": 3557,
      "ĠstrÃ¡Å¾": 3558,
      "Ġzmat": 3559,
      "Å¾enÃ©": 3560,
      "ĠstÃ¡t": 3561,
      "Ġpohle": 3562,
      "jeÅ¡": 3563,
      "jÃŃce": 3564,
      "ĠÄĽty": 3565,
      "Ġholu": 3566,
      "vÃ½mi": 3567,
      "Ġaji": 3568,
      "Ġprud": 3569,
      "ĠÅĪadra": 3570,
      "bnÃ½": 3571,
      "ĠzlatÃ½ch": 3572,
      "Ġvet": 3573,
      "ĠVÃ¡s": 3574,
      "dle": 3575,
      "Ġjimi": 3576,
      "ĠmÃ¡j": 3577,
      "Ġsami": 3578,
      "ĠlÃŃbÃ¡": 3579,
      "Ġspole": 3580,
      "ĠbohatÃ½": 3581,
      "ĠtÃŃn": 3582,
      "ĠzvedÃ¡": 3583,
      "Ġoty": 3584,
      "ĠodpovÄĽ": 3585,
      "rel": 3586,
      "dku": 3587,
      "?!": 3588,
      "Å¾Å¡ÃŃ": 3589,
      "stÃŃm": 3590,
      "ĠrtÃŃ": 3591,
      "ĠzÃ¡pa": 3592,
      "ĠÅĻeky": 3593,
      "ĠbÃ½vÃ¡": 3594,
      "ĠhÃ¡j": 3595,
      "ĠÄĽlÃ©": 3596,
      "Ġklidu": 3597,
      "ĠnepÅĻi": 3598,
      "Å¡Å¥ast": 3599,
      "ĠSrdce": 3600,
      "ĠÃŃku": 3601,
      "ĠvÅ¯nÃŃ": 3602,
      "ĠrÃ¡je": 3603,
      "ĠÃºzko": 3604,
      "ĠdÃ¡lku": 3605,
      "Ġhudba": 3606,
      "jme": 3607,
      "ĠdÄĽdi": 3608,
      "Ġvle": 3609,
      "ĠznÄĽl": 3610,
      "Ġbro": 3611,
      "Ġhradu": 3612,
      "ACD": 3613,
      "Å¡u": 3614,
      "ĠOt": 3615,
      "hlu": 3616,
      "ĠÄĮas": 3617,
      "pem": 3618,
      "Ġhvo": 3619,
      "ĠvÄĽn": 3620,
      "ĠÅ¾Ã¡dnÃ½": 3621,
      "ĠvÄĽz": 3622,
      "ĠÄįerven": 3623,
      "dnÃ½ch": 3624,
      "Ġvar": 3625,
      "ĠnenÃ¡": 3626,
      "ĠkrÃ¡sa": 3627,
      "Ġnesou": 3628,
      "ĠdÅĻe": 3629,
      "Ġzhy": 3630,
      "Ġsoum": 3631,
      "domÃŃ": 3632,
      "Ġist": 3633,
      "Ġzat": 3634,
      "Ġblaha": 3635,
      "ĠvÅ¡i": 3636,
      "sit": 3637,
      "Ġzrcad": 3638,
      "Ġkyne": 3639,
      "ĠbledÃ¡": 3640,
      "Ġzap": 3641,
      "Ġslovem": 3642,
      "ĠcestÄĽ": 3643,
      "lky": 3644,
      "Ġklu": 3645,
      "amÄĽ": 3646,
      "Ġpek": 3647,
      "ĠtÃ¡hne": 3648,
      "ĠupÃŃ": 3649,
      "ĠFran": 3650,
      "vce": 3651,
      "znÃ¡": 3652,
      "jnÃ½": 3653,
      "Ġcko": 3654,
      "ĠvzplÃ¡": 3655,
      "mnÄĽl": 3656,
      "lÃ©z": 3657,
      "ĠbudÃŃ": 3658,
      "ĠTvo": 3659,
      "ĠÃ¡mi": 3660,
      "Ġhlasy": 3661,
      "ĠdÃ¡lce": 3662,
      "ĠÅĻÃŃÅ¡e": 3663,
      "ĠdlaÅĪ": 3664,
      "ĠaÅ¡e": 3665,
      "Ġzlatem": 3666,
      "ĠÃºsmÄĽvem": 3667,
      "mrt": 3668,
      "Ġnci": 3669,
      "ĠMno": 3670,
      "ĠMat": 3671,
      "ĠskrÃ¡ÅĪ": 3672,
      "ĠSÃ¡m": 3673,
      "ĠÅĻÃŃc": 3674,
      "Ġhochu": 3675,
      "ĠHe": 3676,
      "AE": 3677,
      "ĠNebo": 3678,
      "ĠtÅĻetÃŃ": 3679,
      "ĠotÄĽ": 3680,
      "kry": 3681,
      "Ġskvost": 3682,
      "ĠpÅ¯lno": 3683,
      "Ġvstou": 3684,
      "Ġnovou": 3685,
      "Ġcy": 3686,
      "Ġkroky": 3687,
      "sme": 3688,
      "man": 3689,
      "ĠpÄĽl": 3690,
      "Ġblesky": 3691,
      "ĠvroucÃŃ": 3692,
      "Ġcest": 3693,
      "ĠmÃŃsta": 3694,
      "hÃ©m": 3695,
      "ĠblÃŃÅ¾ÃŃ": 3696,
      "Ġtrou": 3697,
      "Ġohy": 3698,
      "dÃ¡vÃ¡": 3699,
      "Ġoky": 3700,
      "ned": 3701,
      "ĠsmÃŃchu": 3702,
      "hnou": 3703,
      "Ġtel": 3704,
      "Ġspad": 3705,
      "chÃ©": 3706,
      "ĠvonÃŃ": 3707,
      "ĠÄįÃŃÅ¡": 3708,
      "ĠnadÅ¡en": 3709,
      "ÅĻÃŃk": 3710,
      "Ġide": 3711,
      "ĠzpÃ¡": 3712,
      "ĠÄįasy": 3713,
      "Ġvzpo": 3714,
      "ĠasÅ¯": 3715,
      "uk": 3716,
      "nÄĽn": 3717,
      "ĠÃŃnÄĽ": 3718,
      "ĠMÃ¡m": 3719,
      "ĠMÃ©": 3720,
      "ĠlÃ©m": 3721,
      "ĠpÅĻÃŃÅ¡e": 3722,
      "Ġzaz": 3723,
      "ĠÄįty": 3724,
      "ĠzkÃ¡": 3725,
      "ABX": 3726,
      "ĠkrÃ¡su": 3727,
      "ĠvÃ¡Å¾": 3728,
      "ĠnaÄį": 3729,
      "Ġdarmo": 3730,
      "Å¡a": 3731,
      "Ġvesele": 3732,
      "ĠAÄį": 3733,
      "ĠvÃŃry": 3734,
      "Ġstesk": 3735,
      "ĠbÃŃlou": 3736,
      "Ġnebylo": 3737,
      "ĠvÄįera": 3738,
      "Ġchra": 3739,
      "ĠvyÅ¡el": 3740,
      "ĠsmutnÃ©": 3741,
      "ĠvÃ¡Å¡nÃŃ": 3742,
      "ĠvÅĻa": 3743,
      "Ġhosti": 3744,
      "ĠtoÄįÃŃ": 3745,
      "Å¾ÃŃÅ¡": 3746,
      "rka": 3747,
      "ĠKol": 3748,
      "nitÅĻ": 3749,
      "ctvÃŃ": 3750,
      "Ġpes": 3751,
      "Ġspas": 3752,
      "ĠobjetÃŃ": 3753,
      "Ġtlo": 3754,
      "Ġobli": 3755,
      "tÃ¡n": 3756,
      "ĠvisÃŃ": 3757,
      "ĠLÃŃ": 3758,
      "Ġbohem": 3759,
      "Ġplno": 3760,
      "Ġesk": 3761,
      "Ġboha": 3762,
      "Ġruh": 3763,
      "Ġety": 3764,
      "Ġkonce": 3765,
      "Ġpodiv": 3766,
      "Ġodpu": 3767,
      "ame": 3768,
      "ĠlÃŃci": 3769,
      "ĠÄįernÃ½ch": 3770,
      "Ġmrtvo": 3771,
      "ĠpojÄı": 3772,
      "ĠNenÃŃ": 3773,
      "ĠnÄĽjak": 3774,
      "diÅ¾": 3775,
      "Å¡it": 3776,
      "ĠÃ½lÃŃ": 3777,
      "ĠBohem": 3778,
      "ĠjinÃ½ch": 3779,
      "Ġpaprsk": 3780,
      "ĠnÄĽkdo": 3781,
      "Ġvzduchu": 3782,
      "ĠmlÄįÃŃ": 3783,
      "ĠÅĺe": 3784,
      "ĠtÃ¡l": 3785,
      "Ġvsi": 3786,
      "ĠpotÄĽ": 3787,
      "ĠCi": 3788,
      "ĠtÃ©m": 3789,
      "stro": 3790,
      "Ġahy": 3791,
      "ĠhÅĻÃŃch": 3792,
      "ĠblÃŃÅ¾e": 3793,
      "ĠsrÃ¡": 3794,
      "Ġsbor": 3795,
      "ĠrnÃ½": 3796,
      "nÃ©mu": 3797,
      "ĠmÄĽli": 3798,
      "Ġdvou": 3799,
      "ĠzprÃ¡": 3800,
      "ĠÅ¾ene": 3801,
      "Ġato": 3802,
      "Ġvze": 3803,
      "venÃŃ": 3804,
      "Ġzmo": 3805,
      "ĠÄįist": 3806,
      "ĠokÅ¯": 3807,
      "stat": 3808,
      "ĠklesÃ¡": 3809,
      "Ġkone": 3810,
      "Å¾enÃ½": 3811,
      "ĠslyÅ¡et": 3812,
      "ĠjasnÃ½": 3813,
      "ĠtÄĽÅ¾kÃ½": 3814,
      "Ġede": 3815,
      "ĠÃŃlÃ½": 3816,
      "Ġsyna": 3817,
      "ABABAC": 3818,
      "ĠÃŃla": 3819,
      "ĠÃŃky": 3820,
      "Ġzor": 3821,
      "Ġvad": 3822,
      "Ġjit": 3823,
      "ĠbledÃ©": 3824,
      "kvÃŃ": 3825,
      "anil": 3826,
      "Ġpolib": 3827,
      "Ġosla": 3828,
      "Ġpope": 3829,
      "ĠÃ¡da": 3830,
      "ĠÄįeskÃ½": 3831,
      "bat": 3832,
      "Ġvola": 3833,
      "ĠmrÃ¡z": 3834,
      "Äįo": 3835,
      "Ġeti": 3836,
      "ĠohnÄĽm": 3837,
      "snÃ¡": 3838,
      "Å¾ka": 3839,
      "Ġlky": 3840,
      "ĠtemnÃ©": 3841,
      "cenÃŃ": 3842,
      "ĠÄįel": 3843,
      "ĠnadÅ¡enÃŃ": 3844,
      "zra": 3845,
      "livÃ½": 3846,
      "Ġbor": 3847,
      "ĠlnÃ½": 3848,
      "Ġtako": 3849,
      "Ġvelkou": 3850,
      "ĠopuÅ¡tÄĽ": 3851,
      "ĠmrtvÃ©": 3852,
      "Ġiku": 3853,
      "bem": 3854,
      "ĠelÃŃ": 3855,
      "jÃŃmÃ¡": 3856,
      "Ġtichu": 3857,
      "ĠvidÄĽt": 3858,
      "Ġmlhy": 3859,
      "ĠkÃ½m": 3860,
      "Ġkar": 3861,
      "ĠlÃŃto": 3862,
      "rej": 3863,
      "Ġsoumrak": 3864,
      "ĠJsi": 3865,
      "ĠÄĽna": 3866,
      "Ġvin": 3867,
      "Ġlehce": 3868,
      "Ġrodi": 3869,
      "Ġrozu": 3870,
      "nikÃ¡": 3871,
      "Ġlili": 3872,
      "ĠkoÅĻi": 3873,
      "ĠkoÅĻen": 3874,
      "ĠÃļ": 3875,
      "ĠsladkÃ¡": 3876,
      "rnÃ½ch": 3877,
      "Ġpoc": 3878,
      "han": 3879,
      "Ġnepro": 3880,
      "Ġkole": 3881,
      "Ġzlatou": 3882,
      "Ġdy": 3883,
      "lep": 3884,
      "tkem": 3885,
      "Ġseve": 3886,
      "Ġnaslou": 3887,
      "tec": 3888,
      "ĠÄĽzd": 3889,
      "Ġenu": 3890,
      "Ġsbo": 3891,
      "ĠzÃŃrÃ¡": 3892,
      "ĠmusÃŃm": 3893,
      "ĠloÅ¾e": 3894,
      "Ġdali": 3895,
      "cenÃ©": 3896,
      "ĠevÃŃ": 3897,
      "Ġano": 3898,
      "ĠJu": 3899,
      "ĠskÅĻÃŃ": 3900,
      "ĠrÃ½": 3901,
      "ĠÄĽte": 3902,
      "ĠÅ¾alu": 3903,
      "fi": 3904,
      "Å¡to": 3905,
      "ĠJo": 3906,
      "Ġlov": 3907,
      "ĠpatÅĻÃŃ": 3908,
      "nÃ¡Å¡": 3909,
      "ĠNic": 3910,
      "Ġjel": 3911,
      "ĠÄįnÄĽ": 3912,
      "bel": 3913,
      "Ġletu": 3914,
      "ĠdÄĽje": 3915,
      "ĠvÅ¡a": 3916,
      "hajÃŃ": 3917,
      "bÃ¡ch": 3918,
      "ĠvÅ¡emu": 3919,
      "Ġbolesti": 3920,
      "ĠnenÃ¡vi": 3921,
      "stupu": 3922,
      "nkou": 3923,
      "ĠvÄĽci": 3924,
      "Ġdoba": 3925,
      "Ġsklen": 3926,
      "ĠvÅ¡ÃŃ": 3927,
      "tili": 3928,
      "ĠPr": 3929,
      "Ġsic": 3930,
      "Ġzvon": 3931,
      "ĠpÅĻedu": 3932,
      "Äįiny": 3933,
      "blou": 3934,
      "Ġoda": 3935,
      "Ġmati": 3936,
      "ĠhuÄįÃŃ": 3937,
      "ĠnÃŃk": 3938,
      "ĠaÅ¡ÃŃ": 3939,
      "ĠnavÅ¾dy": 3940,
      "ĠstÃ½": 3941,
      "kovi": 3942,
      "ĠrÃ¡nu": 3943,
      "Ġvytr": 3944,
      "Ġutr": 3945,
      "ĠÄĽtÅ¯": 3946,
      "tÃ¡nÃŃ": 3947,
      "Ġsled": 3948,
      "Ġvzbu": 3949,
      "ĠÃ¡sy": 3950,
      "Ġvypra": 3951,
      "Ġesa": 3952,
      "ĠrannÃŃ": 3953,
      "Ġbolu": 3954,
      "ĠzÃ¡vi": 3955,
      "ĠlnÃ©": 3956,
      "ĠzdravÃŃ": 3957,
      "ĠOh": 3958,
      "Ġtichou": 3959,
      "ĠsmÄĽle": 3960,
      "ĠocÃŃ": 3961,
      "Ġuvi": 3962,
      "ĠÄįistÃ©": 3963,
      "ĠmrtvÃ½ch": 3964,
      "ĠAni": 3965,
      "Ġkdesi": 3966,
      "ĠkvÄĽtem": 3967,
      "ĠbÅĻeh": 3968,
      "Ġjat": 3969,
      "Ġsmutku": 3970,
      "tli": 3971,
      "ĠnovÃ¡": 3972,
      "dno": 3973,
      "uji": 3974,
      "Ġzbu": 3975,
      "ĠovÄĽ": 3976,
      "Ġula": 3977,
      "nali": 3978,
      "ĠnejvÃŃ": 3979,
      "ĠcÃŃsaÅĻ": 3980,
      "sli": 3981,
      "Ġpoch": 3982,
      "ĠkolÃ©b": 3983,
      "Ġskon": 3984,
      "Ġstalo": 3985,
      "Ġbleskem": 3986,
      "ĠotcÅ¯": 3987,
      "ĠandÄĽ": 3988,
      "Ġpokoj": 3989,
      "Ġoblak": 3990,
      "ĠÃŃhÃ¡": 3991,
      "ĠÃºÅ¾": 3992,
      "Ġdechem": 3993,
      "ĠjasnÄĽ": 3994,
      "ĠÄįnÃ©": 3995,
      "Ġtuto": 3996,
      "ĠÅ½ivo": 3997,
      "ĠlepÅ¡ÃŃ": 3998,
      "Ġproro": 3999,
      "ĠvraÅ¾": 4000,
      "Ġama": 4001,
      "Ġdnu": 4002,
      "Ġhrom": 4003,
      "Ġsluch": 4004,
      "zuje": 4005,
      "ĠpÅ¯va": 4006,
      "volÃ¡": 4007,
      "Å¡le": 4008,
      "ĠDa": 4009,
      "Ġposlou": 4010,
      "Ġrtech": 4011,
      "ĠÅ¡ÃŃlen": 4012,
      "Ġana": 4013,
      "Ġpode": 4014,
      "ĠÅ¡lech": 4015,
      "Ġcizi": 4016,
      "ĠÅĻÃ¡d": 4017,
      "ĠSlyÅ¡": 4018,
      "lk": 4019,
      "ĠkÃ©Å¾": 4020,
      "Ġ1843": 4021,
      "Ġzraku": 4022,
      "ĠoÅ¾i": 4023,
      "Ġhar": 4024,
      "ĠdÅĻÃŃmÃ¡": 4025,
      "ĠHospo": 4026,
      "ĠtichÃ¡": 4027,
      "ĠrÅ¯Å¾i": 4028,
      "ĠzÃ¡stup": 4029,
      "ĠTebe": 4030,
      "lovÃ©": 4031,
      "ĠhrÅ¯zou": 4032,
      "Ġpoled": 4033,
      "ĠcÃŃm": 4034,
      "Ġoud": 4035,
      "ĠzpÃ¡tky": 4036,
      "znÃ©": 4037,
      "Ġzpu": 4038,
      "Ġdno": 4039,
      "Ġcem": 4040,
      "Ġcosi": 4041,
      "ĠÅĪadrech": 4042,
      "Ġnitru": 4043,
      "telÃ©": 4044,
      "ĠitÄĽ": 4045,
      "Ġkom": 4046,
      "Ġkolo": 4047,
      "Ġzma": 4048,
      "rek": 4049,
      "Ġdna": 4050,
      "ĠvÃŃno": 4051,
      "Ġmlha": 4052,
      "ĠÃ¡Å¾e": 4053,
      "ĠhalÃŃ": 4054,
      "ÅĻec": 4055,
      "ĠtÅĻese": 4056,
      "ĠĠĠ": 4057,
      "ot": 4058,
      "Ã¡n": 4059,
      "ĠÄĽvu": 4060,
      "Ġtato": 4061,
      "vÄĽz": 4062,
      "ĠÄĽÅĻÃŃ": 4063,
      "ĠHla": 4064,
      "ĠbÄĽd": 4065,
      "ĠvolnÄĽ": 4066,
      "ĠÃ¡vu": 4067,
      "ĠstÄĽny": 4068,
      "vÃ¡ch": 4069,
      "vobo": 4070,
      "Ġjab": 4071,
      "ĠjevÃŃ": 4072,
      "Ġzamy": 4073,
      "ĠbÃ½val": 4074,
      "ĠsmutnÃ½": 4075,
      "ĠkaÅ¾dÃ©m": 4076,
      "ĠpromÄĽ": 4077,
      "ĠdÃŃlo": 4078,
      "ĠBÃŃ": 4079,
      "Ġsluncem": 4080,
      "kojen": 4081,
      "peÅ¾": 4082,
      "ĠvÅ¡ecka": 4083,
      "ĠknÄĽÅ¾": 4084,
      "ĠÅ¡ti": 4085,
      "ĠvyprÃ¡": 4086,
      "ĠrokÅ¯": 4087,
      "ĠvrÃ¡tÃŃ": 4088,
      "Ġvnu": 4089,
      "tej": 4090,
      "Ġzar": 4091,
      "osti": 4092,
      "Ġvzpla": 4093,
      "Ġyje": 4094,
      "ĠlidskÃ½": 4095,
      "AD": 4096,
      "ĠpsÃ¡": 4097,
      "Ġ1965": 4098,
      "Ġeme": 4099,
      "ĠpamÃ¡": 4100,
      "ĠzlÃ½": 4101,
      "ĠJan": 4102,
      "ĠhledÄĽl": 4103,
      "ĠoÅ¾e": 4104,
      "ĠlnÃŃ": 4105,
      "ĠProto": 4106,
      "rad": 4107,
      "ĠÅ¾enou": 4108,
      "ĠtÄĽÅ¾ce": 4109,
      "Ġlidstvo": 4110,
      "tat": 4111,
      "Ġvzde": 4112,
      "ĠzlÃ©": 4113,
      "kost": 4114,
      "Ġdot": 4115,
      "bec": 4116,
      "Ġbyst": 4117,
      "tvÃ¡": 4118,
      "Äįkem": 4119,
      "ĠÄĽtÄĽ": 4120,
      "ĠjimÅ¾": 4121,
      "ĠdÃ½Å¡e": 4122,
      "ĠzlÃŃ": 4123,
      "Ġpochy": 4124,
      "Ġin": 4125,
      "ĠveÅ¡": 4126,
      "ĠHned": 4127,
      "ĠÄĽku": 4128,
      "ĠÅ¾as": 4129,
      "Ġitu": 4130,
      "Ġomy": 4131,
      "ĠpÅĻÃŃtel": 4132,
      "ĠdÄĽvÄįe": 4133,
      "ĠzlÃ¡": 4134,
      "ĠRy": 4135,
      "Ġ1832": 4136,
      "ĠvÅ¯ni": 4137,
      "ĠÅ¡iro": 4138,
      "Ġkvetou": 4139,
      "Ġhost": 4140,
      "ÅĻÃŃÅ¡": 4141,
      "ĠboÅ¾e": 4142,
      "ĠdÄĽcko": 4143,
      "Ġeta": 4144,
      "ĠjÃŃc": 4145,
      "Ġsnem": 4146,
      "voucÃŃ": 4147,
      "Ġnechci": 4148,
      "ĠseÅĪ": 4149,
      "Ġpouta": 4150,
      "dru": 4151,
      "Ġvzp": 4152,
      "zek": 4153,
      "Ġmed": 4154,
      "Ġpomoc": 4155,
      "hlo": 4156,
      "ĠpryÄį": 4157,
      "sÃŃch": 4158,
      "ĠbledÃ½": 4159,
      "gu": 4160,
      "tne": 4161,
      "Ġmluvil": 4162,
      "ĠbloudÃŃ": 4163,
      "ĠnÃ¡dher": 4164,
      "ĠelÃ¡": 4165,
      "Ġplna": 4166,
      "ĠAl": 4167,
      "Ġjestli": 4168,
      "Å¡enÃ½": 4169,
      "Ġabych": 4170,
      "Ġslovy": 4171,
      "Ġemu": 4172,
      "Ġahu": 4173,
      "Ġkoste": 4174,
      "ĠzÃ¡pad": 4175,
      "Ġjitra": 4176,
      "Ġnebude": 4177,
      "Ġslune": 4178,
      "sÃ½": 4179,
      "ĠpoÄįÃŃ": 4180,
      "ĠÅĻem": 4181,
      "ĠprostÅĻed": 4182,
      "Ġklad": 4183,
      "ĠNaÄį": 4184,
      "ĠÄįernÃ¡": 4185,
      "ĠdÃŃvky": 4186,
      "hnul": 4187,
      "ĠmyslÃŃm": 4188,
      "ĠosÃŃ": 4189,
      "nÄĽnÃŃ": 4190,
      "ĠprovÃ¡": 4191,
      "Ġ1847": 4192,
      "ĠzboÅ¾": 4193,
      "ost": 4194,
      "ÄįnÃ½ch": 4195,
      "chom": 4196,
      "Ġvlna": 4197,
      "Ġsvatou": 4198,
      "rajÃŃ": 4199,
      "nuly": 4200,
      "bro": 4201,
      "ĠhrdÄĽ": 4202,
      "hlÃ½": 4203,
      "lejÅ¡ÃŃ": 4204,
      "ĠplÃ¡po": 4205,
      "Ġlku": 4206,
      "Ġsynu": 4207,
      "ĠmÄĽst": 4208,
      "ĠÅĻekla": 4209,
      "Ġstuden": 4210,
      "Ġzvuky": 4211,
      "ĠynÃŃ": 4212,
      "Ġkouzel": 4213,
      "ĠvÅ¯j": 4214,
      "vel": 4215,
      "ĠmocnÄĽ": 4216,
      "ĠJÃŃ": 4217,
      "ĠPÄĽ": 4218,
      "ĠlÃŃp": 4219,
      "Ġskr": 4220,
      "bila": 4221,
      "ĠmÃ¡te": 4222,
      "ĠtvojÃŃ": 4223,
      "ge": 4224,
      "nilo": 4225,
      "ĠÄĽst": 4226,
      "pila": 4227,
      "Ġzhou": 4228,
      "ĠcitÅ¯": 4229,
      "Ġvzduchem": 4230,
      "Ġneroz": 4231,
      "ĠztrÃ¡cÃŃ": 4232,
      "kali": 4233,
      "Ġdouf": 4234,
      "ĠptÃ¡Äįe": 4235,
      "Å¡o": 4236,
      "Ġstane": 4237,
      "Ġluny": 4238,
      "ÅĻenÃ½": 4239,
      "Ġvoda": 4240,
      "vky": 4241,
      "ĠlÅ¯Å¾": 4242,
      "ĠchvÄĽl": 4243,
      "zÃ½": 4244,
      "ĠPojÄı": 4245,
      "ĠPÃ¡nÄĽ": 4246,
      "Å¡ly": 4247,
      "ĠsnÄĽhu": 4248,
      "ĠvÃ©": 4249,
      "ĠplÃ©": 4250,
      "Å¾ky": 4251,
      "ĠVÃŃm": 4252,
      "Ġbohy": 4253,
      "Ġunaven": 4254,
      "ĠupomÃŃ": 4255,
      "Ġsvad": 4256,
      "ĠvÃ¡n": 4257,
      "ĠtmavÃ©": 4258,
      "ĠÅ¡Ã¡": 4259,
      "krÃ¡s": 4260,
      "ĠbratÅĻi": 4261,
      "ĠhÅĻmÃŃ": 4262,
      "ĠNechÅ¥": 4263,
      "ĠrytÃŃÅĻ": 4264,
      "ĠtemnÄĽ": 4265,
      "ĠradostÃŃ": 4266,
      "ĠchÃ½lÃŃ": 4267,
      "ĠnemÄĽl": 4268,
      "ĠmocÃŃ": 4269,
      "cenÃ½": 4270,
      "Ġaha": 4271,
      "ĠvÃŃtÄĽ": 4272,
      "hnout": 4273,
      "kva": 4274,
      "Ġstarou": 4275,
      "ĠpoÅ¾Ã¡": 4276,
      "ĠÄĽch": 4277,
      "ĠnovÃ½ch": 4278,
      "Ġhraje": 4279,
      "ĠdÃŃvÄįÃŃ": 4280,
      "ĠtnÃ½": 4281,
      "rami": 4282,
      "lio": 4283,
      "ĠvÃŃna": 4284,
      "Ġece": 4285,
      "viti": 4286,
      "ĠilÃ©": 4287,
      "Ġsladkou": 4288,
      "ĠsmÄĽje": 4289,
      "ckni": 4290,
      "Ġnevz": 4291,
      "ĠÅ¾ebrÃ¡": 4292,
      "ĠsvÄĽtÅ¯": 4293,
      "ĠpÅĻÃ¡nÃŃ": 4294,
      "Ġnebem": 4295,
      "ĠsbÃŃ": 4296,
      "ĠChce": 4297,
      "Ġchleba": 4298,
      "ĠtrÃ½": 4299,
      "kÃ¡n": 4300,
      "Ġkdos": 4301,
      "Ġlodi": 4302,
      "bek": 4303,
      "Ġchod": 4304,
      "ĠStÃ¡": 4305,
      "ĠdÃ¡ti": 4306,
      "ĠsvÄĽty": 4307,
      "ĠmlÄįky": 4308,
      "vedl": 4309,
      "Ġbarev": 4310,
      "tud": 4311,
      "covÃ©": 4312,
      "Ġspanil": 4313,
      "ĠÅ¡edi": 4314,
      "lin": 4315,
      "ĠlÃ½m": 4316,
      "Ġkade": 4317,
      "ĠplÃ¡Äįi": 4318,
      "Ġzle": 4319,
      "ĠposvÃ¡": 4320,
      "Ġnikde": 4321,
      "ĠumÃŃrÃ¡": 4322,
      "ĠnnÃ©": 4323,
      "ĠdnÃ¡": 4324,
      "ÄįÅ¯": 4325,
      "ĠÃ¡Å¾ÃŃ": 4326,
      "ĠhorÃ¡ch": 4327,
      "tly": 4328,
      "Ġesu": 4329,
      "ĠvÃŃra": 4330,
      "vrÃ¡tÃŃ": 4331,
      "ĠkÃ©m": 4332,
      "Ġhorou": 4333,
      "slav": 4334,
      "ĠmlÃ½": 4335,
      "ĠicÃŃ": 4336,
      "Ġbod": 4337,
      "ĠSlunce": 4338,
      "ĠuhÃ½": 4339,
      "ĠbÄĽh": 4340,
      "ĠrÃ½m": 4341,
      "ĠleÅ¾": 4342,
      "ĠÅ½Ã¡": 4343,
      "ĠvÃ¡Å¡nÄĽ": 4344,
      "Ġhroby": 4345,
      "ĠveÄįera": 4346,
      "ĠnaÅ¡el": 4347,
      "ĠvÄĽÅ¾e": 4348,
      "Ġdobu": 4349,
      "vÃ¡Å¡": 4350,
      "ĠLid": 4351,
      "ĠmÅĻÃŃ": 4352,
      "kaly": 4353,
      "Ġnaposled": 4354,
      "ĠÃ¡se": 4355,
      "ĠVra": 4356,
      "Ġlidi": 4357,
      "ĠsÃŃÅĪ": 4358,
      "Ġuse": 4359,
      "ĠDÃ¡": 4360,
      "Ġoken": 4361,
      "Äįa": 4362,
      "Ġchlu": 4363,
      "ĠvÄĽtvÃŃ": 4364,
      "ĠnepÅĻe": 4365,
      "ckÃ½ch": 4366,
      "Ġvp": 4367,
      "Ġnajde": 4368,
      "ĠÄĮÃŃm": 4369,
      "ĠmnohÃ©": 4370,
      "hr": 4371,
      "ĠnemÅ¯Å¾e": 4372,
      "ĠpÅĻÃŃval": 4373,
      "ĠjÃŃti": 4374,
      "Ġ1853": 4375,
      "ĠKrÃ¡l": 4376,
      "Å¡ko": 4377,
      "kÅ¯v": 4378,
      "Ġmatce": 4379,
      "ĠspÃŃÅ¡": 4380,
      "dro": 4381,
      "Ġebi": 4382,
      "padÃ¡": 4383,
      "ĠvÄĽtru": 4384,
      "ĠvrÃ¡til": 4385,
      "kej": 4386,
      "ĠtmÄĽ": 4387,
      "Ġdavy": 4388,
      "mat": 4389,
      "Ġvelmi": 4390,
      "Ġkruh": 4391,
      "ĠpÅĻÃŃsa": 4392,
      "mrtel": 4393,
      "ĠÄĽvy": 4394,
      "ĠzÃ¡vra": 4395,
      "Ġmodra": 4396,
      "benÃŃ": 4397,
      "Ġvyp": 4398,
      "ĠpohÅĻ": 4399,
      "bÃ¡m": 4400,
      "Ġtmou": 4401,
      "ĠdobrÃ¡": 4402,
      "vosti": 4403,
      "mÃŃr": 4404,
      "ĠdivÃ½": 4405,
      "zpe": 4406,
      "Ġlok": 4407,
      "ĠtÃŃÅ¾ÃŃ": 4408,
      "lan": 4409,
      "Ġpodzim": 4410,
      "spÄĽ": 4411,
      "ĠumÄĽnÃŃ": 4412,
      "ĠeÄįe": 4413,
      "ĠVl": 4414,
      "mek": 4415,
      "Ġviz": 4416,
      "ĠokÃ©": 4417,
      "ABABC": 4418,
      "Ġlesem": 4419,
      "Ġneod": 4420,
      "ĠmÄĽstÄĽ": 4421,
      "Ġprst": 4422,
      "ĠCÃŃ": 4423,
      "Ġpust": 4424,
      "ĠbÃ¡snÃŃk": 4425,
      "ĠstÃŃnÅ¯": 4426,
      "ĠcÃŃrk": 4427,
      "krÃ¡te": 4428,
      "ĠlesnÃŃ": 4429,
      "ĠKristu": 4430,
      "Ġchas": 4431,
      "ĠbohÅ¯": 4432,
      "ĠÃºÅ¾as": 4433,
      "ĠpravÃ½": 4434,
      "ĠdÃŃk": 4435,
      "Ġdraho": 4436,
      "Ġznal": 4437,
      "tlo": 4438,
      "ĠutÄĽ": 4439,
      "Ġpanen": 4440,
      "ĠeÄįi": 4441,
      "ĠlaÅĪ": 4442,
      "kÅĻÃŃ": 4443,
      "ĠtnÃ¡": 4444,
      "ĠÅ¾ivotem": 4445,
      "Ġdaleko": 4446,
      "Ġrud": 4447,
      "Ġskoro": 4448,
      "Ġnoha": 4449,
      "Ġplnou": 4450,
      "Ġhym": 4451,
      "koj": 4452,
      "ĠnÃ¡ruÄįÃŃ": 4453,
      "ĠnnÃŃ": 4454,
      "Ġcu": 4455,
      "lÃ©tÃ¡": 4456,
      "Ġhoj": 4457,
      "ĠÅĪÃ¡": 4458,
      "Ġatu": 4459,
      "ĠlÃŃbe": 4460,
      "ĠposmÄĽ": 4461,
      "ĠdÄĽji": 4462,
      "ĠzÅĻÃŃt": 4463,
      "Ġuji": 4464,
      "ĠbolÃŃ": 4465,
      "ĠschvÃ¡": 4466,
      "ĠsplÃ½vÃ¡": 4467,
      "Ġdnem": 4468,
      "ĠKaÅ¾dÃ½": 4469,
      "ĠÅ¾Ã¡dnÃ©": 4470,
      "ĠnÄĽkde": 4471,
      "ĠsÃŃm": 4472,
      "nÃ¡Å¡e": 4473,
      "ĠpÃŃt": 4474,
      "ĠlidskÃ½ch": 4475,
      "Ġstolu": 4476,
      "ĠmÃ©mu": 4477,
      "Ġmramo": 4478,
      "ĠpÄĽknÄĽ": 4479,
      "dova": 4480,
      "Ġhlubin": 4481,
      "ĠSla": 4482,
      "ĠmeÄįem": 4483,
      "ĠÃŃÅĻÃŃ": 4484,
      "ĠvÄĽÅĻÃŃ": 4485,
      "ĠkÅĻÃŃÅ¾e": 4486,
      "Ġjazyk": 4487,
      "ĠmÅ¯Å¾": 4488,
      "Ġstran": 4489,
      "Ġstranou": 4490,
      "ĠzpÃŃval": 4491,
      "Ġprudce": 4492,
      "vÅ¡ak": 4493,
      "pot": 4494,
      "Ġmimo": 4495,
      "ĠdÄĽj": 4496,
      "Ġzvony": 4497,
      "ĠneboÅ¥": 4498,
      "ĠnÄĽl": 4499,
      "ĠdlanÃŃ": 4500,
      "ÄįnÃ½m": 4501,
      "ĠhrÅ¯zy": 4502,
      "dovÃ©": 4503,
      "ĠtajÃŃ": 4504,
      "Ġkrvi": 4505,
      "Ġazu": 4506,
      "ĠSto": 4507,
      "ĠrudÃ½": 4508,
      "sie": 4509,
      "sila": 4510,
      "ĠpÃ¡lÃŃ": 4511,
      "drÃ¡": 4512,
      "livÃ©": 4513,
      "ĠknÄĽz": 4514,
      "Ġvzdor": 4515,
      "Äįnosti": 4516,
      "ĠudÃ©": 4517,
      "ĠlÃ¡n": 4518,
      "ĠmeÄįe": 4519,
      "jÃŃcÃŃm": 4520,
      "Ġ1956": 4521,
      "Ġkryje": 4522,
      "cuje": 4523,
      "Ġzkou": 4524,
      "Ġdruhdy": 4525,
      "Ġobzor": 4526,
      "ĠptaÄįÃŃ": 4527,
      "ĠvlasÅ¯": 4528,
      "Ġzkve": 4529,
      "letÄĽ": 4530,
      "Ġpoznal": 4531,
      "Ġeba": 4532,
      "Ġmusil": 4533,
      "ĠkaÅ¾dÃ½m": 4534,
      "ĠÃºdolÃŃ": 4535,
      "menÃŃ": 4536,
      "ĠÃ¡hy": 4537,
      "ĠjinÃŃ": 4538,
      "Ġvnad": 4539,
      "nily": 4540,
      "Ġholubi": 4541,
      "ĠinÃ½": 4542,
      "ĠÄįko": 4543,
      "ĠÃ¡ji": 4544,
      "ĠprÃ¡vo": 4545,
      "ga": 4546,
      "ĠtnÄĽ": 4547,
      "Ġnero": 4548,
      "ĠdivnÃ©": 4549,
      "Ġukry": 4550,
      "ĠrodÃŃ": 4551,
      "ĠPla": 4552,
      "Ġdlouhou": 4553,
      "ĠzapomnÄĽ": 4554,
      "tl": 4555,
      "ÅĻad": 4556,
      "?...": 4557,
      "kr": 4558,
      "pÅĻe": 4559,
      "Ġdly": 4560,
      "Ġmate": 4561,
      "ĠslavnÃ½": 4562,
      "jdu": 4563,
      "Ġopat": 4564,
      "Ġprahu": 4565,
      "Ġmatku": 4566,
      "Ġvichr": 4567,
      "Ġdro": 4568,
      "Ġhodi": 4569,
      "ĠnosÃŃ": 4570,
      "ĠnÄĽmÃ½": 4571,
      "bla": 4572,
      "Ġut": 4573,
      "Ġstal": 4574,
      "Ġyly": 4575,
      "Ġ1840": 4576,
      "Ġkomu": 4577,
      "Ġneho": 4578,
      "Ġlev": 4579,
      "ĠsmrtÃŃ": 4580,
      "ĠrnÄĽ": 4581,
      "ĠpÅĻipra": 4582,
      "ĠduchÅ¯": 4583,
      "ĠhnÄĽvu": 4584,
      "Ġozdo": 4585,
      "Ġpropast": 4586,
      "ĠanÃ¡": 4587,
      "Ġjakou": 4588,
      "ĠstaÄįÃŃ": 4589,
      "Ġtvor": 4590,
      "ĠÄįasÅ¯": 4591,
      "ĠvelkÃ½ch": 4592,
      "ĠosamÄĽ": 4593,
      "ĠdlanÄĽ": 4594,
      "ĠprosÃŃm": 4595,
      "Ġpromlu": 4596,
      "ĠpÃ¡d": 4597,
      "ĠtemnÃ½": 4598,
      "20": 4599,
      "ĠnÃŃh": 4600,
      "Ġproudy": 4601,
      "Ġjindy": 4602,
      "ĠPÃŃ": 4603,
      "ĠpoÅĻÃ¡": 4604,
      "vanÃ½": 4605,
      "Ġpoklad": 4606,
      "jak": 4607,
      "ĠSem": 4608,
      "ĠkrÃ¡Äįel": 4609,
      "Å¾ili": 4610,
      "Ġpouti": 4611,
      "Ġryt": 4612,
      "ĠpozdÄĽ": 4613,
      "ĠmÄĽj": 4614,
      "liv": 4615,
      "Ġzel": 4616,
      "ĠslavnÄĽ": 4617,
      "Ġ1845": 4618,
      "Ġulo": 4619,
      "ĠprÃ¡va": 4620,
      "ĠtrÃ¡vÄĽ": 4621,
      "ĠnechÃ¡": 4622,
      "Ġlisty": 4623,
      "Å¾em": 4624,
      "ĠjÃ¡so": 4625,
      "znÃ½": 4626,
      "ĠÃ½m": 4627,
      "Ġtkli": 4628,
      "kami": 4629,
      "vede": 4630,
      "Ġ1830": 4631,
      "ĠsnÃ½": 4632,
      "ÅĪat": 4633,
      "ĠvÅ¡ady": 4634,
      "ACCD": 4635,
      "ĠpÃ½": 4636,
      "ĠslzÃŃ": 4637,
      "ĠatÄĽ": 4638,
      "Ġvane": 4639,
      "Ġnemoc": 4640,
      "ĠtajemstvÃŃ": 4641,
      "Ġpol": 4642,
      "ĠÅ¡pat": 4643,
      "ĠdveÅĻÃŃ": 4644,
      "rÃ©ho": 4645,
      "les": 4646,
      "Ġhni": 4647,
      "Ġnapl": 4648,
      "ĠÅĻÃŃtÃŃ": 4649,
      "ĠAno": 4650,
      "Ġrci": 4651,
      "ĠitÃ¡": 4652,
      "ĠpodÃŃ": 4653,
      "Ġchcem": 4654,
      "ĠdÃŃval": 4655,
      "ĠzpÄĽvu": 4656,
      "Ġpadne": 4657,
      "Ġztich": 4658,
      "ĠmnÃ©": 4659,
      "XABA": 4660,
      "lec": 4661,
      "rÃ¡l": 4662,
      "ĠÅ¡em": 4663,
      "Ġprapor": 4664,
      "Ġhmo": 4665,
      "rÃ½vÃ¡": 4666,
      "ĠmladÃŃ": 4667,
      "ĠchladnÃ©": 4668,
      "ĠsedÄĽl": 4669,
      "Ġkouzlo": 4670,
      "Ġkost": 4671,
      "ĠÄįervÃ¡n": 4672,
      "ĠpalÃ¡": 4673,
      "ĠnepÅĻÃ¡tel": 4674,
      "skal": 4675,
      "rpu": 4676,
      "ĠazÃŃ": 4677,
      "ĠStra": 4678,
      "ĠoÄįima": 4679,
      "lej": 4680,
      "ĠPi": 4681,
      "Ġlaho": 4682,
      "ĠvelkÃ½m": 4683,
      "Ġdceru": 4684,
      "Å¾ela": 4685,
      "ĠÅ¡eru": 4686,
      "Ġjev": 4687,
      "Ġvzte": 4688,
      "ĠsnÃ¡ch": 4689,
      "nÃŃkÅ¯": 4690,
      "Ġvykou": 4691,
      "Ġbohu": 4692,
      "Ġbudem": 4693,
      "ĠspÃ¡nku": 4694,
      "Äįte": 4695,
      "Ġytu": 4696,
      "ĠLo": 4697,
      "ĠdeÅ¡tÄĽ": 4698,
      "mil": 4699,
      "pÃ©": 4700,
      "ĠvÄĽnec": 4701,
      "vici": 4702,
      "ĠÅ¡edÃ©": 4703,
      "cko": 4704,
      "pce": 4705,
      "vech": 4706,
      "ĠÅ¡tÃŃt": 4707,
      "ĠpodÃ¡": 4708,
      "ĠneÅ¡Å¥ast": 4709,
      "ĠNik": 4710,
      "ĠStar": 4711,
      "Ġrob": 4712,
      "Äįili": 4713,
      "ĠtvoÅĻÃŃ": 4714,
      "Ġbrou": 4715,
      "Ġvine": 4716,
      "Ġotci": 4717,
      "ĠChci": 4718,
      "ĠÄįistÃ½": 4719,
      "XAXBXB": 4720,
      "ĠÅ¡pi": 4721,
      "Ġpano": 4722,
      "Ġhbi": 4723,
      "lenou": 4724,
      "ĠstÅĻedu": 4725,
      "ĠslavnÃ©": 4726,
      "ĠkÅĻÃŃdel": 4727,
      "Ġmatko": 4728,
      "ĠhnÃ¡": 4729,
      "ĠtÄĽchto": 4730,
      "ĠalÃ¡": 4731,
      "Ġosi": 4732,
      "ĠÃŃna": 4733,
      "vek": 4734,
      "ĠslyÅ¡e": 4735,
      "ĠrozechvÄĽ": 4736,
      "ĠumÄĽ": 4737,
      "ĠNy": 4738,
      "vÅ¡e": 4739,
      "ĠToÅ¾": 4740,
      "ĠjemnÄĽ": 4741,
      "Ġobrov": 4742,
      "Ġplanou": 4743,
      "Ġnesmrtel": 4744,
      "ĠsamÃ©": 4745,
      "ĠmotÃ½l": 4746,
      "Ġjitro": 4747,
      "ĠSam": 4748,
      "ĠdlouhÃ¡": 4749,
      "ĠblÃŃzko": 4750,
      "Ġprv": 4751,
      "ĠchovÃ¡": 4752,
      "ĠtÄĽÅ¾ko": 4753,
      "Ġalu": 4754,
      "ÅĪte": 4755,
      "Ġstopy": 4756,
      "ĠvÄĽku": 4757,
      "houcÃŃ": 4758,
      "ĠVel": 4759,
      "ABAX": 4760,
      "ĠKarel": 4761,
      "rozen": 4762,
      "ĠotÄįe": 4763,
      "ĠchlÃ©b": 4764,
      "ÅĪo": 4765,
      "84": 4766,
      "ĠY": 4767,
      "Ġ1984": 4768,
      "ĠÃŃlÃ©": 4769,
      "Ġspu": 4770,
      "Ġjakoby": 4771,
      "ĠjÃ¡sa": 4772,
      "Ġzdr": 4773,
      "ĠvÅ¯dce": 4774,
      "Ġhed": 4775,
      "ĠvelikÃ½": 4776,
      "hlÃŃÅ¾ÃŃ": 4777,
      "ĠMne": 4778,
      "Ġvstal": 4779,
      "ĠSvÃ©": 4780,
      "Ġkrajem": 4781,
      "au": 4782,
      "Ġvan": 4783,
      "ĠchudÃ©": 4784,
      "ĠbÃ¡j": 4785,
      "ĠskÃ¡la": 4786,
      "ĠdrÅ¾ÃŃ": 4787,
      "Ġrti": 4788,
      "ÅĻili": 4789,
      "ĠrnÃŃ": 4790,
      "Ġkoho": 4791,
      "ĠtrÅ¯nu": 4792,
      "ĠuÅĻÃŃ": 4793,
      "ĠpravÃ©": 4794,
      "ĠstÃ¡ti": 4795,
      "ĠvÄĽtve": 4796,
      "ĠzÃ¡voj": 4797,
      "Äįce": 4798,
      "Ġzima": 4799,
      "ÄįkÃ¡": 4800,
      "lid": 4801,
      "ĠsvÃŃrÃ¡": 4802,
      "ĠaÅĻÃŃ": 4803,
      "Ġdlu": 4804,
      "ĠlÃŃÅ¾": 4805,
      "Ġnebezpe": 4806,
      "Ġtouze": 4807,
      "rovna": 4808,
      "Ġzapomen": 4809,
      "Ġjeli": 4810,
      "Ġ1860": 4811,
      "ĠtmÃ¡ch": 4812,
      "Ġkola": 4813,
      "Å¡ÃŃÅ¡": 4814,
      "ĠsvÄĽtel": 4815,
      "Ġmaje": 4816,
      "vÄĽl": 4817,
      "Ġtit": 4818,
      "Ġ1948": 4819,
      "ĠKra": 4820,
      "Ġznak": 4821,
      "Ġcel": 4822,
      "fa": 4823,
      "rci": 4824,
      "ĠonÃ©": 4825,
      "ĠKrista": 4826,
      "Ġoma": 4827,
      "ĠÃ¡sÃ¡": 4828,
      "ĠrodnÃ©": 4829,
      "rie": 4830,
      "Ġtko": 4831,
      "ĠloÅ¾i": 4832,
      "ĠtÃ¡t": 4833,
      "Ġeji": 4834,
      "ĠÅĻeka": 4835,
      "ĠBe": 4836,
      "AXXA": 4837,
      "Ġdom": 4838,
      "ĠÅ¡ku": 4839,
      "ĠobÄĽÅ¥": 4840,
      "ĠvÄĽÄįnosti": 4841,
      "ĠvÄĽtrem": 4842,
      "ĠsprÃ¡": 4843,
      "ĠynÄĽ": 4844,
      "fe": 4845,
      "ĠvojÃ¡": 4846,
      "ĠÄįemu": 4847,
      "ĠvÃ¡Å¾nÄĽ": 4848,
      "pÃŃnÃ¡": 4849,
      "ĠÃŃra": 4850,
      "hÃ¡ch": 4851,
      "ĠstraÅ¡": 4852,
      "ĠpÃ¡na": 4853,
      "Ġpekel": 4854,
      "Ġivy": 4855,
      "Ġzmizel": 4856,
      "ĠdÃ½chÃ¡": 4857,
      "ĠJde": 4858,
      "Äįela": 4859,
      "ĠtÄĽlem": 4860,
      "ĠdÃ¡vnÃ½ch": 4861,
      "ĠkÃ½vÃ¡": 4862,
      "Ġzacho": 4863,
      "jit": 4864,
      "ĠDej": 4865,
      "Ġvej": 4866,
      "Ġvzru": 4867,
      "Ġrat": 4868,
      "Ġdavu": 4869,
      "vla": 4870,
      "ĠakÅ¯": 4871,
      "ĠahÃ½": 4872,
      "dnÃ½m": 4873,
      "ĠÄįar": 4874,
      "Ġvyr": 4875,
      "Ġhledal": 4876,
      "ĠÃ©tÃ¡": 4877,
      "ĠusmÃ¡": 4878,
      "Ġ1805": 4879,
      "ĠÅ¯ru": 4880,
      "ĠbrÃ¡ny": 4881,
      "Ġaze": 4882,
      "dÄĽti": 4883,
      "ĠbÃŃdy": 4884,
      "chod": 4885,
      "Ġal": 4886,
      "rÃ¡t": 4887,
      "set": 4888,
      "ĠpracÃŃ": 4889,
      "ĠuhÃ¡": 4890,
      "ĠsvÅ¯": 4891,
      "ĠdÃ¡n": 4892,
      "Ġstromu": 4893,
      "ĠhÃ¡je": 4894,
      "Ġpomoci": 4895,
      "Ġnebu": 4896,
      "Ġmohla": 4897,
      "ĠdivÃ©": 4898,
      "Ġklade": 4899,
      "Å¾to": 4900,
      "ĠikÃ¡": 4901,
      "cu": 4902,
      "ĠzÃ¡ha": 4903,
      "tily": 4904,
      "ĠpÅĻelu": 4905,
      "ĠnemÃ¡m": 4906,
      "Ġdrahou": 4907,
      "ĠkÅĻo": 4908,
      "Ġumu": 4909,
      "tali": 4910,
      "ĠkÅĻik": 4911,
      "ĠnadÄĽjÃŃ": 4912,
      "ĠvroucnÄĽ": 4913,
      "ĠÃ¡ry": 4914,
      "ĠSmrt": 4915,
      "Ġhoto": 4916,
      "ĠvzrÅ¯": 4917,
      "ĠvÃ¡Å¡ni": 4918,
      "is": 4919,
      "Ġvyvo": 4920,
      "Ġtaky": 4921,
      "ant": 4922,
      "Ġmilou": 4923,
      "ĠdivnÃ½": 4924,
      "Ġucho": 4925,
      "ĠlnÄĽ": 4926,
      "ĠÃŃjÃŃ": 4927,
      "Ġ1870": 4928,
      "lÃ¡k": 4929,
      "ĠDru": 4930,
      "ÄįenÃ©": 4931,
      "Ġnejvy": 4932,
      "Ġ1864": 4933,
      "ĠJenom": 4934,
      "AABA": 4935,
      "ĠjinÃ¡": 4936,
      "Ġprokle": 4937,
      "lenÃ¡": 4938,
      "venÃ©": 4939,
      "ĠozvÄĽ": 4940,
      "ĠzÅ¯stal": 4941,
      "bar": 4942,
      "nili": 4943,
      "ĠÄĽru": 4944,
      "ĠskrÃ½vÃ¡": 4945,
      "Ġuha": 4946,
      "hlÃ©d": 4947,
      "ĠPÅĻes": 4948,
      "Å¾et": 4949,
      "ĠaÅ¾ÃŃ": 4950,
      "Ġule": 4951,
      "luv": 4952,
      "ĠvÄĽÅ¾ÃŃ": 4953,
      "ĠmoÅĻem": 4954,
      "ĠmocnÃ½": 4955,
      "ĠÅĻady": 4956,
      "nnÃ©": 4957,
      "ĠÅ¾Ã¡dÃ¡": 4958,
      "ĠKÃ©Å¾": 4959,
      "ĠCho": 4960,
      "ĠlidskÃ¡": 4961,
      "ĠvÅ¡ickni": 4962,
      "dilo": 4963,
      "ĠchvÄĽla": 4964,
      "jÃŃcÃ½": 4965,
      "Ġpora": 4966,
      "ĠvznÃ¡Å¡ÃŃ": 4967,
      "ĠdivÃ¡": 4968,
      "Ġvelko": 4969,
      "Ġostat": 4970,
      "Ġora": 4971,
      "Ġpurpu": 4972,
      "zÃ¡ch": 4973,
      "Ġdokud": 4974,
      "ĠÄĽnÃ©": 4975,
      "Ġkvete": 4976,
      "ĠvzÃŃ": 4977,
      "ĠhleÄı": 4978,
      "ĠzamyÅ¡": 4979,
      "ĠÅ¾elez": 4980,
      "Ġlal": 4981,
      "Ġstej": 4982,
      "vak": 4983,
      "ĠtuÅ¾": 4984,
      "ĠbÃ¡je": 4985,
      "ĠÅ¾alÃ¡": 4986,
      "ĠupÅĻÃŃm": 4987,
      "ĠmyÅ¡lenky": 4988,
      "ĠÄįnÃ½": 4989,
      "kov": 4990,
      "tan": 4991,
      "Ġbolem": 4992,
      "Ġ1958": 4993,
      "eno": 4994,
      "eny": 4995,
      "ĠkrÃ¡sou": 4996,
      "Ġvrah": 4997,
      "Ġoknem": 4998,
      "ĠskÃ¡le": 4999,
      "ĠVÃ¡clav": 5000,
      "vro": 5001,
      "ĠVÃ½": 5002,
      "ĠbudiÅ¾": 5003,
      "ĠÃ©st": 5004,
      "ĠvzneÅ¡en": 5005,
      "nulo": 5006,
      "Ġmuk": 5007,
      "ĠmÃŃstÄĽ": 5008,
      "Ġnejs": 5009,
      "ĠtÄĽÅ¾kÃ¡": 5010,
      "Ġznamen": 5011,
      "ĠupÃ¡": 5012,
      "ĠstaÅĻec": 5013,
      "ameter": 5014,
      "Ġmrou": 5015,
      "Ġnecha": 5016,
      "Ġumy": 5017,
      "ĠÅĻÃŃÅ¡i": 5018,
      "Ġnaho": 5019,
      "vor": 5020,
      "ĠusmÃŃvÃ¡": 5021,
      "mal": 5022,
      "ĠÅ¡ka": 5023,
      "Ġhon": 5024,
      "ĠtisÃŃ": 5025,
      "ĠstoupÃ¡": 5026,
      "ĠvstÃ¡vÃ¡": 5027,
      "ÅĻÃŃv": 5028,
      "ĠsvÄĽd": 5029,
      "Ġvyje": 5030,
      "Ġkmet": 5031,
      "ĠÃŃdÃ¡": 5032,
      "ÅĻenÃ¡": 5033,
      "Ġzdro": 5034,
      "ĠÅłtÄĽ": 5035,
      "ĠvÃ½kÅĻik": 5036,
      "ĠmladÃ½ch": 5037,
      "ĠpotÅĻe": 5038,
      "ĠdvÃ©ÅĻe": 5039,
      "Ġpne": 5040,
      "Ġvolal": 5041,
      "Ġvyko": 5042,
      "Ġdit": 5043,
      "Ġlaska": 5044,
      "ĠtÃ¡hnou": 5045,
      "Ġctnost": 5046,
      "ĠtnÃŃ": 5047,
      "Ġaru": 5048,
      "ĠodvÃ¡": 5049,
      "Ġrodu": 5050,
      "nuv": 5051,
      "ĠÅ¾ivÃ©": 5052,
      "Ġodva": 5053,
      "AAAB": 5054,
      "Ġheb": 5055,
      "Ġvzdych": 5056,
      "ĠkterÃ½m": 5057,
      "ĠHoj": 5058,
      "skne": 5059,
      "Ġzaho": 5060,
      "ĠjinÃ½m": 5061,
      "viny": 5062,
      "ĠjejÃŃch": 5063,
      "tÅĻÃŃ": 5064,
      "Å¡eÅĪ": 5065,
      "ĠzÃ¡ko": 5066,
      "ĠklÃŃnu": 5067,
      "Ġduchem": 5068,
      "Ġpadla": 5069,
      "ĠÄįase": 5070,
      "Ġkruhu": 5071,
      "Ġrosy": 5072,
      "ĠsvÄĽtlem": 5073,
      "Ġplou": 5074,
      "lÃŃk": 5075,
      "ĠÃŃÅĻe": 5076,
      "Ġdli": 5077,
      "Ġiky": 5078,
      "ĠiÄįÃŃ": 5079,
      "hala": 5080,
      "vÅ¯r": 5081,
      "Ġplyne": 5082,
      "ĠplnÃŃ": 5083,
      "ĠcÃŃle": 5084,
      "ĠchvÄĽjÃŃ": 5085,
      "ĠstÅĻÃŃbro": 5086,
      "ĠijÃŃ": 5087,
      "Ġodkud": 5088,
      "nesl": 5089,
      "ĠvlÃ¡dne": 5090,
      "nÅ¯m": 5091,
      "ĠvÄĽl": 5092,
      "ĠpÅĻiÅ¡li": 5093,
      "ĠplÃ¡Å¡Å¥": 5094,
      "ĠpÅĻil": 5095,
      "Ġtehdy": 5096,
      "Ġlabu": 5097,
      "Ġnejsem": 5098,
      "ĠkrÃ¡snou": 5099,
      "rnÃ½m": 5100,
      "ĠdennÃŃ": 5101,
      "ĠTakto": 5102,
      "fy": 5103,
      "ĠneznÃ¡": 5104,
      "ĠmanÄĽ": 5105,
      "ĠÄįernou": 5106,
      "ĠskrÃ¡nÃŃ": 5107,
      "vaje": 5108,
      "ĠÅ¡lo": 5109,
      "Ġprsty": 5110,
      "ĠchvÃŃlÃŃ": 5111,
      "ĠvÃŃtÄĽzstvÃŃ": 5112,
      "ĠdÄĽlÃ¡": 5113,
      "venÃ½": 5114,
      "ĠvaÅ¡ÃŃ": 5115,
      "Ġosy": 5116,
      "rala": 5117,
      "Ġmluvit": 5118,
      "ĠkvÃŃlÃŃ": 5119,
      "ĠnejvÃŃc": 5120,
      "Ġmas": 5121,
      "Ġsve": 5122,
      "ĠvÄĽrnÄĽ": 5123,
      "ĠzÃ¡kon": 5124,
      "ĠsÃŃnÄĽ": 5125,
      "ĠjednÃŃm": 5126,
      "chÃ¡ch": 5127,
      "Ġnitro": 5128,
      "ĠpÃ¡s": 5129,
      "ĠhnÃŃzdo": 5130,
      "Ġmem": 5131,
      "Ġdumy": 5132,
      "ĠbÃŃdu": 5133,
      "ĠpamÄĽti": 5134,
      "ĠplnÃ¡": 5135,
      "hoste": 5136,
      "Ġrce": 5137,
      "ĠjÃ¡sÃ¡": 5138,
      "ĠtrÃ¡vy": 5139,
      "ĠÅĻada": 5140,
      "ĠÃºdy": 5141,
      "ĠÅĻec": 5142,
      "ĠtrÅ¯n": 5143,
      "Ġzahy": 5144,
      "Ġdok": 5145,
      "ÅĻice": 5146,
      "ĠposlÃ©z": 5147,
      "ĠÅ¾itÃŃm": 5148,
      "ĠstÃ¡li": 5149,
      "ĠptÃ¡kÅ¯": 5150,
      "ĠzvÄĽst": 5151,
      "pnÄĽ": 5152,
      "ĠÄĽky": 5153,
      "Ġzbled": 5154,
      "ĠskrÃ¡nÄĽ": 5155,
      "Ġperly": 5156,
      "ĠkÅĻesÅ¥": 5157,
      "ĠÃ¡ru": 5158,
      "ĠVen": 5159,
      "Å¡ila": 5160,
      "ĠNes": 5161,
      "Ġara": 5162,
      "Ġber": 5163,
      "ĠbdÃŃ": 5164,
      "Ġlesku": 5165,
      "ĠstÃ¡ÅĻÃŃ": 5166,
      "Ġmech": 5167,
      "ĠJiÅĻÃŃ": 5168,
      "Ġpokry": 5169,
      "Ġsnil": 5170,
      "ÄįkÅ¯": 5171,
      "Ġsouse": 5172,
      "ĠmrakÅ¯": 5173,
      "DC": 5174,
      "jdou": 5175,
      "ĠMuÅ¾": 5176,
      "ĠdlouhÃ½ch": 5177,
      "ĠzdÃŃ": 5178,
      "ĠnadÄĽj": 5179,
      "Ġ1946": 5180,
      "Ġau": 5181,
      "tilo": 5182,
      "ĠmuÅ¾Å¯": 5183,
      "ĠnÃ©": 5184,
      "ĠÄįarov": 5185,
      "ĠtuÅ¡ÃŃ": 5186,
      "ĠokamÅ¾ik": 5187,
      "ĠÅ¡pe": 5188,
      "ĠbolestÃŃ": 5189,
      "ĠÄįelem": 5190,
      "Ġradu": 5191,
      "Ġuta": 5192,
      "ĠÃ¡Å¡ÃŃ": 5193,
      "Ġbyt": 5194,
      "ĠkÅ¯ÅĪ": 5195,
      "ĠtkÃ¡": 5196,
      "rovÃ©": 5197,
      "ĠÄıas": 5198,
      "krÃ¡snÄĽjÅ¡ÃŃ": 5199,
      "ĠJsme": 5200,
      "ĠuÅ¡": 5201,
      "ĠmoÅĻ": 5202,
      "ĠÃºz": 5203,
      "ABCA": 5204,
      "ĠsmÃ¡l": 5205,
      "pky": 5206,
      "ĠinÃ©": 5207,
      "Ġletem": 5208,
      "klady": 5209,
      "Ġhce": 5210,
      "ĠTou": 5211,
      "ĠpotÃ¡": 5212,
      "ĠetÃ¡": 5213,
      "zÅ¯": 5214,
      "ĠodmÄĽ": 5215,
      "Ġtvoji": 5216,
      "ĠzÃ¡padu": 5217,
      "ĠÅ¡ak": 5218,
      "ĠpoupÄĽ": 5219,
      "ÅĻena": 5220,
      "ĠÄįÃŃÅ¡e": 5221,
      "ĠNÄĽm": 5222,
      "Ġpozdrav": 5223,
      "ĠSotva": 5224,
      "ĠrÃ¡ji": 5225,
      "ĠrÃ¡mÄĽ": 5226,
      "Ġpusti": 5227,
      "Ġzt": 5228,
      "rovi": 5229,
      "dec": 5230,
      "dÄĽlÃ¡": 5231,
      "Ġshas": 5232,
      "ĠdlÃ¡": 5233,
      "ĠprostÃ©": 5234,
      "Ġvot": 5235,
      "ĠÃºto": 5236,
      "ĠtvÅ¯": 5237,
      "ĠvidÃŃÅ¡": 5238,
      "ÅĪÅ¯": 5239,
      "Ġrozpu": 5240,
      "ĠÅ¾es": 5241,
      "Ġyli": 5242,
      "ĠÄĮa": 5243,
      "ABCCDD": 5244,
      "Ġklobou": 5245,
      "ĠÃŃlÃ¡": 5246,
      "cÃŃho": 5247,
      "Ġdneska": 5248,
      "ĠÅ¾enÄĽ": 5249,
      "letu": 5250,
      "Ġeku": 5251,
      "ĠÄĽhu": 5252,
      "dÄĽji": 5253,
      "ĠNebe": 5254,
      "Äįnost": 5255,
      "ĠhÅ¯": 5256,
      "ĠivÃŃ": 5257,
      "luje": 5258,
      "Ġpekla": 5259,
      "ĠvÄĽÄįnÃ¡": 5260,
      "Ġuby": 5261,
      "hovÃ©": 5262,
      "Ġrosa": 5263,
      "Ġkosti": 5264,
      "ĠÅ¾havÃ½": 5265,
      "ĠhonÃŃ": 5266,
      "ĠkÃ¡Å¾e": 5267,
      "ĠvnitÅĻ": 5268,
      "ĠÃ¡Äįi": 5269,
      "ĠSou": 5270,
      "Ġstav": 5271,
      "ĠPrav": 5272,
      "ĠÅ¾havÃ©": 5273,
      "ĠnuÅ¾": 5274,
      "Ġjesti": 5275,
      "pÄĽv": 5276,
      "Ġobzoru": 5277,
      "rÄįÃŃ": 5278,
      "ĠzpÄĽvy": 5279,
      "ĠhÃ¡zÃŃ": 5280,
      "Ġmladi": 5281,
      "Ġnemoh": 5282,
      "blesk": 5283,
      "Ġvzlet": 5284,
      "zÃŃch": 5285,
      "ĠrnÃ¡": 5286,
      "ĠJakÃ½": 5287,
      "ĠnazpÄĽt": 5288,
      "hlou": 5289,
      "Ġdat": 5290,
      "ĠzbranÄĽ": 5291,
      "Ġkop": 5292,
      "ĠchladnÃ½": 5293,
      "zenÃŃ": 5294,
      "ĠPu": 5295,
      "ĠÄįinÃŃ": 5296,
      "ĠNÃ¡m": 5297,
      "ĠÅ¾er": 5298,
      "Ġdruhu": 5299,
      "Ġslzou": 5300,
      "ĠÄįekal": 5301,
      "rostÅĻed": 5302,
      "ĠVÅ¡ech": 5303,
      "ĠSmu": 5304,
      "ĠvÄĽnce": 5305,
      "ĠtmavÃ½": 5306,
      "bled": 5307,
      "lel": 5308,
      "ĠstÅ¯l": 5309,
      "Ġlny": 5310,
      "ĠodpovÃŃ": 5311,
      "vno": 5312,
      "ĠsedÃ¡": 5313,
      "ĠuvÃŃ": 5314,
      "ĠckÃ½": 5315,
      "ĠMl": 5316,
      "Ġstanul": 5317,
      "ĠÅĻev": 5318,
      "ĠTÃ¡": 5319,
      "Ġuza": 5320,
      "ĠletÄĽ": 5321,
      "ĠlÃŃn": 5322,
      "ĠlÃŃcÃŃ": 5323,
      "ĠmrtvÃ½": 5324,
      "ĠprÃ¡zdno": 5325,
      "nuli": 5326,
      "Ġstruny": 5327,
      "ĠjeÅ¡": 5328,
      "ĠeÅĻe": 5329,
      "Ġjdi": 5330,
      "Ġzky": 5331,
      "ĠnaÅ¡em": 5332,
      "Ġtopo": 5333,
      "ĠVÅ¯": 5334,
      "ĠbÃŃda": 5335,
      "Ġtmu": 5336,
      "ĠJuÅ¾": 5337,
      "Ġclo": 5338,
      "ĠVÅ¡ecko": 5339,
      "ĠvdÄĽk": 5340,
      "Ġtri": 5341,
      "stnÄĽ": 5342,
      "ĠÃŃho": 5343,
      "ĠpÅĻÃŃmo": 5344,
      "ĠpyÅ¡": 5345,
      "ol": 5346,
      "ĠtÄĽÅ¡ÃŃ": 5347,
      "Ġspa": 5348,
      "ĠlÃŃm": 5349,
      "pec": 5350,
      "ĠtichÃ©m": 5351,
      "Ġplod": 5352,
      "ĠLÃ¡ska": 5353,
      "Ġchvat": 5354,
      "Ġlit": 5355,
      "Ġhluk": 5356,
      "Ġdomov": 5357,
      "nej": 5358,
      "ĠÅ¡kle": 5359,
      "Å¾eb": 5360,
      "ĠdÃ¡Å¡": 5361,
      "Ġlka": 5362,
      "snou": 5363,
      "telem": 5364,
      "Äįas": 5365,
      "Ġrostou": 5366,
      "ĠvznÄĽ": 5367,
      "Ġvzly": 5368,
      "Ġskrom": 5369,
      "Ġstrachu": 5370,
      "ĠvaÅ¡ich": 5371,
      "ĠsmutnÃ¡": 5372,
      "prav": 5373,
      "nci": 5374,
      "ĠvÃŃÅĻÃŃ": 5375,
      "ĠJej": 5376,
      "ĠzvonÅ¯": 5377,
      "ĠzbraÅĪ": 5378,
      "Ġaj": 5379,
      "ĠdÃŃÅ¡": 5380,
      "ĠÄįistÃ¡": 5381,
      "vka": 5382,
      "Ġrtu": 5383,
      "mech": 5384,
      "pek": 5385,
      "ĠbratÅĻe": 5386,
      "ĠcelÃ©m": 5387,
      "Ġbarvy": 5388,
      "Ġletech": 5389,
      "ĠkonÃŃ": 5390,
      "ĠkrÃ¡tkÃ½": 5391,
      "ckÃ¡": 5392,
      "Ġner": 5393,
      "Ġsnech": 5394,
      "ĠEj": 5395,
      "ĠtÃ½m": 5396,
      "ĠvÃŃtÃ¡": 5397,
      "ĠdÃŃl": 5398,
      "tce": 5399,
      "ĠalÃ©": 5400,
      "ĠmÃ½": 5401,
      "Ġuny": 5402,
      "nese": 5403,
      "najÃŃ": 5404,
      "ĠpÅĻÃŃrody": 5405,
      "ĠzeÄı": 5406,
      "ĠesÃ¡": 5407,
      "jil": 5408,
      "ĠuÅ¾i": 5409,
      "skla": 5410,
      "ĠpoznÃ¡": 5411,
      "Ġpadl": 5412,
      "ĠdÃ©Å¡Å¥": 5413,
      "ĠzrakÅ¯": 5414,
      "ĠplÃ¡Äįem": 5415,
      "ĠPou": 5416,
      "byl": 5417,
      "Ġlhoste": 5418,
      "ĠÅĻit": 5419,
      "Ġdky": 5420,
      "ĠsÃ½": 5421,
      "Ġzuby": 5422,
      "ĠNynÃŃ": 5423,
      "ĠpÄĽstÃŃ": 5424,
      "neme": 5425,
      "ĠzvÃŃÅĻe": 5426,
      "ĠÃºc": 5427,
      "Ġ1852": 5428,
      "ĠvelikÃ©": 5429,
      "ĠdomÃ¡": 5430,
      "ĠletnÃŃ": 5431,
      "ÅĻily": 5432,
      "ĠkÅĻÃŃdlem": 5433,
      "Ġbok": 5434,
      "Äįina": 5435,
      "ĠprchÃ¡": 5436,
      "ĠvlnÃŃ": 5437,
      "Ġspokojen": 5438,
      "ĠÄįlovÄĽku": 5439,
      "Ġysi": 5440,
      "ĠslzÃ¡ch": 5441,
      "Ġhovor": 5442,
      "ĠÅ¡edÃ½": 5443,
      "Ġkri": 5444,
      "Ġklesla": 5445,
      "ĠZla": 5446,
      "Ġmechu": 5447,
      "tin": 5448,
      "ĠBÃ¡": 5449,
      "mÃŃm": 5450,
      "ĠÅ¾ivÃ½": 5451,
      "ĠbuÅ¡ÃŃ": 5452,
      "ĠmÃ¡ti": 5453,
      "Ġdivy": 5454,
      "ĠmÅĻe": 5455,
      "Ġobou": 5456,
      "ĠÅĻÃŃÅ¾": 5457,
      "dna": 5458,
      "loval": 5459,
      "ĠvÃ¡bÃŃ": 5460,
      "ĠvlnÃ¡ch": 5461,
      "ĠÅ¡il": 5462,
      "Ġnutno": 5463,
      "tÃ©m": 5464,
      "ĠvÄĽdÄĽl": 5465,
      "ĠdÄĽtem": 5466,
      "ĠplÃ¡nÃŃ": 5467,
      "ĠÅłe": 5468,
      "Ġmiloval": 5469,
      "ĠtÅ¡ÃŃ": 5470,
      "Ġhrdin": 5471,
      "ĠnÃ¡dhe": 5472,
      "raje": 5473,
      "Ġnesta": 5474,
      "Ġtyto": 5475,
      "ĠtÄĽÅ¾kou": 5476,
      "ĠjÃŃmÃ¡": 5477,
      "Ġpomalu": 5478,
      "vl": 5479,
      "Ġnen": 5480,
      "ĠÃ¡my": 5481,
      "Ġcitu": 5482,
      "ĠpoÅ¾ehnÃ¡nÃŃ": 5483,
      "ĠÅ¥": 5484,
      "lili": 5485,
      "ĠSvÄĽ": 5486,
      "ĠchudÃ¡": 5487,
      "Ġ1851": 5488,
      "ĠvÄĽÅ¾": 5489,
      "Å¾ek": 5490,
      "ĠnesmÄĽ": 5491,
      "ĠDuch": 5492,
      "ĠjakÃ½s": 5493,
      "Ġsev": 5494,
      "Ġmalou": 5495,
      "ĠÅ¡Å¥asten": 5496,
      "Ġnetu": 5497,
      "ĠnoÅĻÃŃ": 5498,
      "ĠsmÃŃchem": 5499,
      "Ġsmrtel": 5500,
      "hni": 5501,
      "Ġpor": 5502,
      "ĠpojÃŃ": 5503,
      "ĠDÃ¡l": 5504,
      "ĠmnÃŃ": 5505,
      "ĠneÅ¡tÄĽ": 5506,
      "ĠDlou": 5507,
      "jeme": 5508,
      "Ġjiskry": 5509,
      "Ġobo": 5510,
      "ĠjedinÃ¡": 5511,
      "ĠhrozÃŃ": 5512,
      "ĠÅ¾Ã¡rem": 5513,
      "ĠkoneÄįnÄĽ": 5514,
      "ĠhnutÃŃ": 5515,
      "ĠzaznÃŃ": 5516,
      "ĠpÃŃsku": 5517,
      "ĠcÃŃli": 5518,
      "ĠlÃ©pe": 5519,
      "Ġsmutno": 5520,
      "Ġmyslil": 5521,
      "Ġleskem": 5522,
      "ĠpÅ¯jde": 5523,
      "Ġztr": 5524,
      "Ġpodi": 5525,
      "ĠposvÄĽ": 5526,
      "ĠkrÄį": 5527,
      "ÅĻenÃ½ch": 5528,
      "Ġpoesie": 5529,
      "ĠnovÃ½m": 5530,
      "ĠznamenÃŃ": 5531,
      "Ġuho": 5532,
      "ĠvÄĽcÃŃ": 5533,
      "ĠZrak": 5534,
      "ĠrozkoÅ¡e": 5535,
      "Ġzbro": 5536,
      "Ġnach": 5537,
      "nicÃŃ": 5538,
      "huje": 5539,
      "Ġ1871": 5540,
      "Ġchyt": 5541,
      "ABBX": 5542,
      "ĠvÃ¡Å¡eÅĪ": 5543,
      "Ġhyne": 5544,
      "Ġdaleka": 5545,
      "ĠKristus": 5546,
      "tnÃ½ch": 5547,
      "Ġchva": 5548,
      "ĠSu": 5549,
      "ĠvÄĽrnÃ½": 5550,
      "ÄįenÃ½": 5551,
      "Ġjinoch": 5552,
      "zka": 5553,
      "Ġdcera": 5554,
      "ĠhrÅ¯za": 5555,
      "Ġuly": 5556,
      "ĠcelÃ½m": 5557,
      "ĠkeÅĻ": 5558,
      "Äįna": 5559,
      "nÄĽnÃ©": 5560,
      "mÃ¡nÃŃ": 5561,
      "Ġsal": 5562,
      "ĠÄĮlovÄĽ": 5563,
      "stek": 5564,
      "Ġvno": 5565,
      "Ġzdy": 5566,
      "CB": 5567,
      "Ġimi": 5568,
      "ary": 5569,
      "ĠnejkrÃ¡snÄĽjÅ¡ÃŃ": 5570,
      "ĠsÃŃni": 5571,
      "ĠbojovnÃŃ": 5572,
      "Ġjede": 5573,
      "vÃŃÅ¡": 5574,
      "ĠzvuÄįÃŃ": 5575,
      "Ġdol": 5576,
      "Ġrozma": 5577,
      "ĠOna": 5578,
      "Ġpozo": 5579,
      "ĠzahrÃ¡": 5580,
      "jo": 5581,
      "niti": 5582,
      "ĠmnohÃ¡": 5583,
      "ĠBylo": 5584,
      "Ġproudem": 5585,
      "ĠmlÃ¡d": 5586,
      "AXBCBC": 5587,
      "Ġobe": 5588,
      "hali": 5589,
      "ĠtajnÄĽ": 5590,
      "ĠÅ¡ero": 5591,
      "Ġhex": 5592,
      "ÄįnÃ©m": 5593,
      "ĠÅ¡t": 5594,
      "ĠplaÅ¡e": 5595,
      "ĠpÄĽnÃŃ": 5596,
      "ĠotvÃŃrÃ¡": 5597,
      "ĠkrÃ¡snÄĽ": 5598,
      "ĠdivnÄĽ": 5599,
      "ĠpouÅ¡ti": 5600,
      "Å¾ena": 5601,
      "Ġ1861": 5602,
      "cou": 5603,
      "ĠhvÃŃ": 5604,
      "ĠzÅ¯sta": 5605,
      "ĠvnÄĽ": 5606,
      "ĠvnÃ©": 5607,
      "ĠzavÃ¡": 5608,
      "ĠrdÃŃ": 5609,
      "Ġkomo": 5610,
      "ĠÃºt": 5611,
      "ĠbÃŃt": 5612,
      "ĠvlÃ¡d": 5613,
      "ĠkÅĻiv": 5614,
      "ĠkÅĻiÄįÃŃ": 5615,
      "Ġvry": 5616,
      "Ġhlav": 5617,
      "Å¾nÃ¡": 5618,
      "Ġeka": 5619,
      "jÃŃcÃŃch": 5620,
      "nÃ¡ct": 5621,
      "Ġnejsou": 5622,
      "Ġcity": 5623,
      "Ġzdali": 5624,
      "Å¡tÃŃm": 5625,
      "Ġdci": 5626,
      "ĠvÅ¡udy": 5627,
      "Ġjablo": 5628,
      "fo": 5629,
      "Ġuto": 5630,
      "cie": 5631,
      "ĠnejvÄĽt": 5632,
      "ĠsvatÃ½ch": 5633,
      "ĠhrÃ¡l": 5634,
      "ĠosÅ¥": 5635,
      "Ġvzala": 5636,
      "ĠkorÃ¡": 5637,
      "ĠzdÃ¡l": 5638,
      "ĠChtÄĽl": 5639,
      "nt": 5640,
      "livÃ¡": 5641,
      "ĠnaÅĻÃŃ": 5642,
      "ĠdunÃŃ": 5643,
      "Ġnesla": 5644,
      "ĠvÄĽÄįnou": 5645,
      "ĠhroznÃ½": 5646,
      "Ġztratil": 5647,
      "ĠinÃŃ": 5648,
      "novi": 5649,
      "ĠleÅ¾el": 5650,
      "ĠÅ¡eptÃ¡": 5651,
      "ĠverÅ¡e": 5652,
      "Ġsek": 5653,
      "Ġpovin": 5654,
      "dalo": 5655,
      "ĠpÃ¡nem": 5656,
      "Ġvrch": 5657,
      "lala": 5658,
      "tÃ¡ch": 5659,
      "ĠplÃ¡l": 5660,
      "ĠNuÅ¾e": 5661,
      "razil": 5662,
      "kam": 5663,
      "Ġlec": 5664,
      "Ġchvilku": 5665,
      "ĠTvÃ½ch": 5666,
      "Ġhlavi": 5667,
      "Ġpel": 5668,
      "gra": 5669,
      "Ġdosta": 5670,
      "jÃŃÅ¾": 5671,
      "Ġmile": 5672,
      "ĠsvÄĽdomÃŃ": 5673,
      "Ġskle": 5674,
      "ĠkrÅ¯pÄĽj": 5675,
      "tice": 5676,
      "ĠcÃ¡": 5677,
      "ĠdÄĽvy": 5678,
      "Ġklas": 5679,
      "Ġhvozd": 5680,
      "ĠneÅ¡": 5681,
      "ĠtÄĽmi": 5682,
      "ĠÄįerst": 5683,
      "ĠpustÃ©": 5684,
      "Ġpozor": 5685,
      "Ġvrat": 5686,
      "ĠÅ¡ÃŃp": 5687,
      "ĠspÃŃcÃŃ": 5688,
      "Ġpochyb": 5689,
      "Ġveleb": 5690,
      "ĠodvÄĽ": 5691,
      "ĠtatÃŃ": 5692,
      "Ġracho": 5693,
      "Ġpeklo": 5694,
      "ĠbÄĽlost": 5695,
      "Ġpoza": 5696,
      "ĠobÃŃ": 5697,
      "ĠBra": 5698,
      "Ġticha": 5699,
      "Ġlna": 5700,
      "Ġviny": 5701,
      "AABX": 5702,
      "ĠÃ¡dy": 5703,
      "Ġtoto": 5704,
      "Ġbychom": 5705,
      "ĠrÃ©": 5706,
      "ĠPrÃ¡": 5707,
      "ĠradÄĽj": 5708,
      "ĠlÅ¯nÄĽ": 5709,
      "bÅĻe": 5710,
      "ĠmlÃ©": 5711,
      "ĠprosÃŃ": 5712,
      "Ġdub": 5713,
      "ĠvÃ¡nek": 5714,
      "ĠvaÅ¡i": 5715,
      "ĠVeli": 5716,
      "Ġhexameter": 5717,
      "ĠonÅ¯": 5718,
      "ĠÅĻÃŃkÃ¡": 5719,
      "ĠjemuÅ¾": 5720,
      "it": 5721,
      "Ġmlh": 5722,
      "Ġmilio": 5723,
      "Ġnitra": 5724,
      "ĠpapeÅ¾": 5725,
      "ĠlÃ¡l": 5726,
      "ĠDuÅ¡e": 5727,
      "Ġpropasti": 5728,
      "ĠÅ½ivot": 5729,
      "bÅ¯h": 5730,
      "Ġnesko": 5731,
      "ĠrozlÃ©": 5732,
      "Ġvodo": 5733,
      "AXBCCB": 5734,
      "Ġmladosti": 5735,
      "dlÃ©": 5736,
      "Ġjez": 5737,
      "nie": 5738,
      "ĠnÄĽko": 5739,
      "Ġnaklo": 5740,
      "Ġspla": 5741,
      "Ġpri": 5742,
      "ĠpouÅ¡tÃŃ": 5743,
      "pili": 5744,
      "Ġohrom": 5745,
      "ĠViz": 5746,
      "ĠmyÅ¡lÃ©nky": 5747,
      "vci": 5748,
      "ĠomÃŃ": 5749,
      "ĠEvro": 5750,
      "ĠhrdÃ©": 5751,
      "ĠverÅ¡": 5752,
      "ĠnejvyÅ¡Å¡ÃŃ": 5753,
      "Ġhnal": 5754,
      "ĠutÃ½": 5755,
      "ĠvyÅ¡Å¡ÃŃ": 5756,
      "pÃŃÅ¡": 5757,
      "try": 5758,
      "ĠStÃŃ": 5759,
      "ĠhrabÄĽ": 5760,
      "ÅĪuje": 5761,
      "ĠvodÄĽ": 5762,
      "ĠÅ¾ivotÄĽ": 5763,
      "ĠtrhÃ¡": 5764,
      "Ġnechal": 5765,
      "ĠpravdÄĽ": 5766,
      "Ġzmize": 5767,
      "ĠrÃ¡di": 5768,
      "Ġtomto": 5769,
      "Ġctnosti": 5770,
      "ĠZat": 5771,
      "ĠnÃŃmÅ¾": 5772,
      "leÅĪ": 5773,
      "ĠÃ¡ce": 5774,
      "vodu": 5775,
      "ĠÄĽnÃ½": 5776,
      "ĠsÃŃle": 5777,
      "ĠsamÃ½": 5778,
      "ĠpozdnÃŃ": 5779,
      "ĠSa": 5780,
      "ĠMou": 5781,
      "ĠstÃŃnem": 5782,
      "Ġkalich": 5783,
      "ĠÅ¾u": 5784,
      "Ġ1877": 5785,
      "ĠspÃ¡nek": 5786,
      "Ġpohy": 5787,
      "Ġsice": 5788,
      "ĠÅ¡tÄĽstÃŃm": 5789,
      "Ġzahal": 5790,
      "Ġmladou": 5791,
      "ĠhlÃ©": 5792,
      "ĠstÅĻÃ¡": 5793,
      "Ġhore": 5794,
      "ĠlnÃ¡": 5795,
      "Ġ1867": 5796,
      "ĠcizÃŃch": 5797,
      "ĠvÃŃte": 5798,
      "ĠBude": 5799,
      "Ġhalu": 5800,
      "Ġjinou": 5801,
      "Ġrmu": 5802,
      "dÃ¡l": 5803,
      "ĠhÃ¡ji": 5804,
      "Ġbisku": 5805,
      "tovÃ©": 5806,
      "ĠmarnÃ©": 5807,
      "Ġ1820": 5808,
      "tosti": 5809,
      "ĠvÅ¡ednÃŃ": 5810,
      "Ġvodou": 5811,
      "ĠHleÄı": 5812,
      "Ġsmysl": 5813,
      "ĠJaro": 5814,
      "ĠzÅĻela": 5815,
      "ĠMari": 5816,
      "ĠzaÄįal": 5817,
      "ĠÄĽlÃŃ": 5818,
      "Ġstisk": 5819,
      "AAAA": 5820,
      "ĠzlatÃ½m": 5821,
      "ĠtanÄįÃŃ": 5822,
      "Ġdoz": 5823,
      "ÅĻiti": 5824,
      "ĠsrdcÃŃch": 5825,
      "moc": 5826,
      "Ġbral": 5827,
      "pÅ¯so": 5828,
      "ĠnechtÄĽ": 5829,
      "ĠchystÃ¡": 5830,
      "tivÄĽ": 5831,
      "ĠpouÅ¡tÄĽ": 5832,
      "Ġchud": 5833,
      "dati": 5834,
      "Ġzdroj": 5835,
      "ĠzÃ¡ÅĻÃŃcÃŃ": 5836,
      "ĠvlÃŃdnÄĽ": 5837,
      "Ġdnech": 5838,
      "pala": 5839,
      "BB": 5840,
      "lko": 5841,
      "ĠkvÃ©": 5842,
      "ĠhrajÃŃ": 5843,
      "ĠnnÃ½": 5844,
      "ĠpÅĻÃŃteli": 5845,
      "ĠMora": 5846,
      "XAAB": 5847,
      "ĠctÃŃ": 5848,
      "Ġbratry": 5849,
      "Ġvtip": 5850,
      "pÅĻÃŃ": 5851,
      "ĠdomÄĽ": 5852,
      "ĠkterÃ½ch": 5853,
      "Ġplameny": 5854,
      "Ġeky": 5855,
      "vÃ¡r": 5856,
      "ĠnechtÄĽl": 5857,
      "ĠhroznÃ©": 5858,
      "Ġade": 5859,
      "Ġtamo": 5860,
      "ĠtÅĻpytÃŃ": 5861,
      "ĠdrobnÃ©": 5862,
      "svit": 5863,
      "ÄįnÃŃm": 5864,
      "ĠeÅĻi": 5865,
      "ĠbrÃ¡nÃŃ": 5866,
      "ĠvelikÃ¡": 5867,
      "plo": 5868,
      "Ġynu": 5869,
      "ĠnÃ¡rodu": 5870,
      "Ġvzdechy": 5871,
      "Ġ1936": 5872,
      "Ġlav": 5873,
      "Ġtemnou": 5874,
      "ĠÅ¡ÃŃji": 5875,
      "ĠTÅĻe": 5876,
      "Ġnebesa": 5877,
      "Ġusly": 5878,
      "vnÃ©": 5879,
      "ĠkrÃ¡lÅ¯": 5880,
      "Ġblankyt": 5881,
      "ĠkrÃ¡lem": 5882,
      "ĠJakÃ¡": 5883,
      "Ġdobrou": 5884,
      "ĠznÃ¡mÃ½": 5885,
      "ĠÄıÃ¡bel": 5886,
      "ĠorÅ¯": 5887,
      "Ġneji": 5888,
      "Ġnalez": 5889,
      "ĠPÅĻem": 5890,
      "ĠÄįeho": 5891,
      "ĠjasnÃ¡": 5892,
      "ĠzpÃŃvat": 5893,
      "ĠTicho": 5894,
      "ĠÅĻen": 5895,
      "ĠTÃŃm": 5896,
      "vic": 5897,
      "Äįiti": 5898,
      "Ġbratra": 5899,
      "ĠtÃ¡k": 5900,
      "Ġsvobodu": 5901,
      "ĠzvÃ¡": 5902,
      "ĠvÄĽrnÃ©": 5903,
      "ĠhostÃŃ": 5904,
      "ĠstokrÃ¡t": 5905,
      "Ġzvyk": 5906,
      "Ġzrovna": 5907,
      "Ġodtud": 5908,
      "ĠdivÄĽ": 5909,
      "Ġhledat": 5910,
      "chÃ¡m": 5911,
      "nÃŃci": 5912,
      "nati": 5913,
      "ĠspÄĽchÃ¡": 5914,
      "ĠperutÃŃ": 5915,
      "ĠpastÃ½": 5916,
      "Ġvodu": 5917,
      "Ġpozem": 5918,
      "Ġplen": 5919,
      "lily": 5920,
      "ĠneÃº": 5921,
      "ĠÃŃlu": 5922,
      "Ġrozlo": 5923,
      "Ġsluje": 5924,
      "Ġ1856": 5925,
      "ĠRÃ¡d": 5926,
      "Å¾stvÃŃ": 5927,
      "Ġbli": 5928,
      "Ġobej": 5929,
      "Ġslzu": 5930,
      "Ġslunko": 5931,
      "Ġhavra": 5932,
      "ĠsamotÄĽ": 5933,
      "Ġteskno": 5934,
      "Ġkouzlem": 5935,
      "nÄĽte": 5936,
      "nika": 5937,
      "Ġzvolal": 5938,
      "ĠneÅ¡tÄĽstÃŃ": 5939,
      "ĠÄĽsÃŃ": 5940,
      "Ġsten": 5941,
      "lÃ¡nÃŃ": 5942,
      "Ġmet": 5943,
      "Ġzahrad": 5944,
      "ĠÄįtyÅĻi": 5945,
      "ĠsluÅ¡ÃŃ": 5946,
      "Ġzasmu": 5947,
      "ĠvzpomÃŃnÃ¡m": 5948,
      "sat": 5949,
      "ĠKre": 5950,
      "ĠÅ¾it": 5951,
      "ĠzlatÃŃ": 5952,
      "ĠsmÄĽs": 5953,
      "ĠzbranÃŃ": 5954,
      "nkem": 5955,
      "svi": 5956,
      "Ġast": 5957,
      "ĠÃºtro": 5958,
      "Ġchudo": 5959,
      "ĠmanÅ¾el": 5960,
      "Ġhry": 5961,
      "ÅĻilo": 5962,
      "ĠÅ¾ert": 5963,
      "ari": 5964,
      "Ġknihy": 5965,
      "ckou": 5966,
      "tÃ½m": 5967,
      "ĠÄĽda": 5968,
      "Ġminul": 5969,
      "ĠtrÃ¡va": 5970,
      "AXA": 5971,
      "jala": 5972,
      "lÃŃÅ¡": 5973,
      "Ġdel": 5974,
      "ĠMÄĽl": 5975,
      "ĠJestli": 5976,
      "ĠpenÃŃ": 5977,
      "ÄįkÃ¡ch": 5978,
      "Ġnesl": 5979,
      "ĠklÃŃnÄĽ": 5980,
      "Ġkorunu": 5981,
      "ĠplÃ©mÄĽ": 5982,
      "Ġjme": 5983,
      "Ã½t": 5984,
      "chÃ¡zel": 5985,
      "ĠvÅ¡echen": 5986,
      "ĠPraze": 5987,
      "ĠzlatÃ©m": 5988,
      "ĠtÃ©mÄĽ": 5989,
      "bky": 5990,
      "Ġpohr": 5991,
      "Ġplesu": 5992,
      "ĠmlÃ¡den": 5993,
      "sledy": 5994,
      "ABBCD": 5995,
      "Ġmali": 5996,
      "ĠÃºro": 5997,
      "ĠKolem": 5998,
      "ĠperuÅ¥": 5999,
      "ĠpÅ¯vab": 6000,
      "alou": 6001,
      "kop": 6002,
      "Ġbezpe": 6003,
      "Ġbru": 6004,
      "vilo": 6005,
      "Ġskla": 6006,
      "ĠzvÄĽda": 6007,
      "Ġ1962": 6008,
      "ĠkolÃ©": 6009,
      "ĠBi": 6010,
      "stoupil": 6011,
      "ĠkÅ¯m": 6012,
      "razi": 6013,
      "Ġvinu": 6014,
      "ĠchudÃ½": 6015,
      "Ġslast": 6016,
      "pomÃŃnÃ¡": 6017,
      "pÅĻÃ¡": 6018,
      "Ã©mu": 6019,
      "Ġzachy": 6020,
      "Ġvypu": 6021,
      "ĠmÅ¾ik": 6022,
      "Ġorel": 6023,
      "ĠpouÅ¡Å¥": 6024,
      "ĠVes": 6025,
      "ĠvzdychÃ¡": 6026,
      "ĠmÄĽsÃŃce": 6027,
      "ĠruÄı": 6028,
      "ĠbÃŃlÃ©m": 6029,
      "ĠpohÃ¡r": 6030,
      "ĠvonnÃ½": 6031,
      "dlen": 6032,
      "ĠuÅ¾e": 6033,
      "stav": 6034,
      "bral": 6035,
      "ĠdÃ¡vnÃ©": 6036,
      "Ġsvobody": 6037,
      "Ġbledou": 6038,
      "ĠpoutnÃŃk": 6039,
      "ĠarÃ½": 6040,
      "Ġher": 6041,
      "ĠÅ¾Ã¡ru": 6042,
      "Ġvojsko": 6043,
      "ĠpolÃŃch": 6044,
      "Ġri": 6045,
      "vedla": 6046,
      "ĠpÅ¯du": 6047,
      "Ġpopel": 6048,
      "mot": 6049,
      "ĠÅ¾ivotu": 6050,
      "zdÄĽ": 6051,
      "Ġtne": 6052,
      "ron": 6053,
      "ĠvÅ¡eli": 6054,
      "ĠvÄĽtrÅ¯": 6055,
      "ĠzbÄĽ": 6056,
      "ĠdÃŃtky": 6057,
      "ĠlÃŃbal": 6058,
      "Ġchodil": 6059,
      "ĠmÅ¯Å¾eÅ¡": 6060,
      "ĠdvÅ¯r": 6061,
      "Ġkov": 6062,
      "ĠyÅ¡ÃŃ": 6063,
      "ĠÅ¾eno": 6064,
      "ĠzÃ¡mku": 6065,
      "ĠVlta": 6066,
      "ĠvstÃ¡": 6067,
      "Ġpolem": 6068,
      "ĠÅ¾ÃŃm": 6069,
      "tÄĽjÅ¡ÃŃ": 6070,
      "buje": 6071,
      "Ġztu": 6072,
      "tÃŃÅ¡": 6073,
      "ĠSvou": 6074,
      "tuje": 6075,
      "Ġrady": 6076,
      "ĠhÅĻÃŃchu": 6077,
      "Ġjinde": 6078,
      "ĠschÃ½": 6079,
      "Å¡ep": 6080,
      "Ġtuze": 6081,
      "Ġdiva": 6082,
      "nÄĽnÃ½": 6083,
      "bili": 6084,
      "Ġkor": 6085,
      "ĠvyÅ¡": 6086,
      "ĠZi": 6087,
      "ĠsladkÃ½ch": 6088,
      "ĠNemo": 6089,
      "ĠvznÃŃ": 6090,
      "dÃ¡Å¡": 6091,
      "ĠpouhÃ½": 6092,
      "ĠpospÃŃ": 6093,
      "Ġproudu": 6094,
      "Ġzho": 6095,
      "Ġkolik": 6096,
      "Ġodho": 6097,
      "ĠdÃŃky": 6098,
      "Å¾enou": 6099,
      "ĠhvÄĽzdi": 6100,
      "Ġznaven": 6101,
      "Ġvojska": 6102,
      "Ġpravo": 6103,
      "ĠpÃŃÅ¡e": 6104,
      "Ġchcete": 6105,
      "ĠjedinÃ©": 6106,
      "ĠhledÃŃm": 6107,
      "Ġulic": 6108,
      "ĠTvoje": 6109,
      "ĠzeleÅĪ": 6110,
      "Ġkout": 6111,
      "ĠsmÄĽlÃ½": 6112,
      "ĠpoÄįal": 6113,
      "Ġvkro": 6114,
      "Ġtat": 6115,
      "Ġjihu": 6116,
      "sklo": 6117,
      "ĠnÃ¡ho": 6118,
      "ezi": 6119,
      "ĠlÃŃba": 6120,
      "Ġjednom": 6121,
      "chala": 6122,
      "ĠskuteÄį": 6123,
      "Ġgra": 6124,
      "Ġhlasu": 6125,
      "Ġtrest": 6126,
      "es": 6127,
      "ĠÅ¡va": 6128,
      "Ġmuka": 6129,
      "ĠzelenÃ©": 6130,
      "ĠtmÃŃ": 6131,
      "Ġroztou": 6132,
      "ĠchtÄĽli": 6133,
      "ĠprvnÃŃm": 6134,
      "ĠbojÃŃ": 6135,
      "ĠvÅ¯bec": 6136,
      "Ġmoudro": 6137,
      "zdy": 6138,
      "douc": 6139,
      "ĠÅłel": 6140,
      "Ġsym": 6141,
      "ĠzÅĻÃŃÅ¡": 6142,
      "Ġpsal": 6143,
      "Ġary": 6144,
      "ĠJdi": 6145,
      "Ġpono": 6146,
      "Ġzad": 6147,
      "Ġchr": 6148,
      "ĠBou": 6149,
      "ĠÅĻÃŃt": 6150,
      "ĠdruÅ¾i": 6151,
      "Å¾enÃ¡": 6152,
      "Ġpohledem": 6153,
      "ABCBCD": 6154,
      "ĠTr": 6155,
      "ĠstÅ¯": 6156,
      "ĠvelÃŃ": 6157,
      "ĠzÃ¡pal": 6158,
      "Ġslasti": 6159,
      "ĠsilnÃ½": 6160,
      "Ġstud": 6161,
      "Ġbalva": 6162,
      "ĠzmÃŃrÃ¡": 6163,
      "Ġchlap": 6164,
      "Ġjmeno": 6165,
      "ĠkÅĻesÅ¥an": 6166,
      "tÅ¯m": 6167,
      "ĠzavÃŃ": 6168,
      "Ġtouhu": 6169,
      "ĠÅ¾Ã¡dnÃ¡": 6170,
      "Ġnau": 6171,
      "ĠitÃ©": 6172,
      "chovÃ©": 6173,
      "Ġnepoko": 6174,
      "Ġkot": 6175,
      "sili": 6176,
      "ĠprÃ¡h": 6177,
      "ĠmodlÃŃ": 6178,
      "ĠkoÅĻist": 6179,
      "ĠTÅĻi": 6180,
      "Ġposel": 6181,
      "kova": 6182,
      "Ġspraved": 6183,
      "BX": 6184,
      "Ã¡Å¡": 6185,
      "ĠkÅĻÃŃdlo": 6186,
      "Ġvpad": 6187,
      "ĠstrÃ½": 6188,
      "ĠStro": 6189,
      "Ġukru": 6190,
      "ĠbÅĻi": 6191,
      "Ġnet": 6192,
      "Ġkolena": 6193,
      "ĠkterÃ©m": 6194,
      "ĠtlaÄįÃŃ": 6195,
      "tkÅ¯": 6196,
      "ĠrovnÄĽ": 6197,
      "Ġmysti": 6198,
      "Ġmilu": 6199,
      "ĠvrhÃ¡": 6200,
      "ĠhnÄĽvem": 6201,
      "Ġhat": 6202,
      "Ġniv": 6203,
      "hÅ¯m": 6204,
      "ĠdneÅ¡nÃŃ": 6205,
      "Ġkrbu": 6206,
      "Ġsoucit": 6207,
      "ĠsvatÃ½m": 6208,
      "Ġpozved": 6209,
      "ĠpenÄĽ": 6210,
      "ĠedÃ©": 6211,
      "ĠzÃ¡stu": 6212,
      "Ġsestry": 6213,
      "Ġbrachu": 6214,
      "Ġvysoko": 6215,
      "Ġvuk": 6216,
      "Ġvedla": 6217,
      "ĠnÃ¡mÄĽ": 6218,
      "ĠhvÄĽzdÃ¡m": 6219,
      "rovnÃ¡": 6220,
      "rva": 6221,
      "nÃŃky": 6222,
      "ĠÄĽkÅ¯": 6223,
      "Ġprocit": 6224,
      "Ġruchu": 6225,
      "menÄĽ": 6226,
      "Ġklasy": 6227,
      "ĠnutÃŃ": 6228,
      "ĠdvojÃŃ": 6229,
      "ĠÄĽmi": 6230,
      "ama": 6231,
      "mÃ¡n": 6232,
      "ĠdruhÃ¡": 6233,
      "ĠmodrÃ½": 6234,
      "ĠÄįnÃ¡": 6235,
      "ĠÅ¡ky": 6236,
      "ĠdÄĽva": 6237,
      "ĠÅ¡era": 6238,
      "ĠUm": 6239,
      "ĠtÅĻesou": 6240,
      "ĠKdoÅ¾": 6241,
      "ĠÅĻekne": 6242,
      "ĠdkÃ½": 6243,
      "Ġima": 6244,
      "die": 6245,
      "tul": 6246,
      "cemi": 6247,
      "Ġsvitu": 6248,
      "Ġhlahol": 6249,
      "slil": 6250,
      "ĠDra": 6251,
      "ĠJakÃ©": 6252,
      "ĠkrÃ¡snÃ½ch": 6253,
      "Ġjednoho": 6254,
      "Äįan": 6255,
      "stky": 6256,
      "Ġsel": 6257,
      "sech": 6258,
      "Ġdechu": 6259,
      "ĠÄįervÃ¡": 6260,
      "ĠÃ©mÄĽ": 6261,
      "EE": 6262,
      "jÅ¯": 6263,
      "diti": 6264,
      "ĠlÅ¾i": 6265,
      "ĠpapÃŃ": 6266,
      "Ġzh": 6267,
      "Ġpovo": 6268,
      "Ġnat": 6269,
      "ĠÅ¾houcÃŃ": 6270,
      "ĠesÅ¯": 6271,
      "ĠvlasÅ¥": 6272,
      "ĠryzÃŃ": 6273,
      "ĠtichÃ½m": 6274,
      "Ġnerozu": 6275,
      "Ġzlou": 6276,
      "Ġpoky": 6277,
      "ĠmÃ¡Å¥": 6278,
      "ĠpÅĻÃŃk": 6279,
      "Ġjasu": 6280,
      "Ġvedl": 6281,
      "Ġdku": 6282,
      "ĠstojÃŃm": 6283,
      "ĠvÅ¯z": 6284,
      "Ġbrzo": 6285,
      "Äįilo": 6286,
      "Ġsvato": 6287,
      "ĠosvÄĽ": 6288,
      "Ġminulosti": 6289,
      "vÅ¡i": 6290,
      "ĠnnÃ¡": 6291,
      "ĠKÅĻe": 6292,
      "ĠvyÅ¡la": 6293,
      "ĠÄįiny": 6294,
      "ĠvÄĽtry": 6295,
      "ĠvÅ¯d": 6296,
      "ĠstrÃ¡ni": 6297,
      "Ġpotok": 6298,
      "chne": 6299,
      "Ġmiluje": 6300,
      "Ġmnohou": 6301,
      "ĠobliÄįej": 6302,
      "Å¡tnÃŃ": 6303,
      "Ġzen": 6304,
      "ĠhÅ¯l": 6305,
      "Ġvznes": 6306,
      "ĠsvÄĽtlu": 6307,
      "mysl": 6308,
      "Å¾te": 6309,
      "ĠDva": 6310,
      "ĠÅ¡er": 6311,
      "Ġkdybych": 6312,
      "kvÃ©": 6313,
      "Ġses": 6314,
      "Ġjezd": 6315,
      "ĠprostÃ½": 6316,
      "ĠbÃ¡l": 6317,
      "ĠsmÄĽsi": 6318,
      "ĠmalÃŃ": 6319,
      "ĠhnÃŃzda": 6320,
      "ĠvnÃ½": 6321,
      "ĠopÃ¡": 6322,
      "ĠOsud": 6323,
      "ĠpouÅ¥": 6324,
      "ĠodpoÄįi": 6325,
      "Ġhly": 6326,
      "ĠrvÃ¡": 6327,
      "Ġmohy": 6328,
      "Ġlsti": 6329,
      "ĠvzpomÃŃnka": 6330,
      "ĠblÃ½skÃ¡": 6331,
      "Ġuzav": 6332,
      "ĠzÃ¡me": 6333,
      "Ġove": 6334,
      "ÅĻÃŃch": 6335,
      "dÄĽje": 6336,
      "Ġvlnou": 6337,
      "Ġvida": 6338,
      "Ġstarost": 6339,
      "ĠmyÅ¡lenek": 6340,
      "ĠspatÅĻil": 6341,
      "ĠdÄĽjin": 6342,
      "fu": 6343,
      "sni": 6344,
      "vÄĽti": 6345,
      "Ġhrdlo": 6346,
      "ĠÄįeskÃ¡": 6347,
      "ĠÅ¡erÃ©": 6348,
      "Ġposlu": 6349,
      "ĠspÃ¡sy": 6350,
      "ĠÅ¡aty": 6351,
      "ĠtvrdÃ©": 6352,
      "Ġpovy": 6353,
      "Ġmalo": 6354,
      "ĠtrpÄĽ": 6355,
      "ĠzpÄĽvem": 6356,
      "Ġokno": 6357,
      "ĠÄįÃŃÅ¡i": 6358,
      "vostÃŃ": 6359,
      "ĠkrokÅ¯": 6360,
      "ĠzapomnÄĽl": 6361,
      "Ġmrz": 6362,
      "Å¡ter": 6363,
      "ĠÅ¡ly": 6364,
      "kouz": 6365,
      "zdra": 6366,
      "ĠÄĮechÃ¡ch": 6367,
      "ĠspÄĽje": 6368,
      "ĠTÃ©Å¾": 6369,
      "Ġvedou": 6370,
      "ĠÄĽmu": 6371,
      "ĠpÄĽje": 6372,
      "Ġtly": 6373,
      "veÄįer": 6374,
      "Ġranou": 6375,
      "Ġblaze": 6376,
      "Ġpanna": 6377,
      "ĠskrÃ¡ni": 6378,
      "Ġknihu": 6379,
      "ĠmoÅ¾nÃ¡": 6380,
      "lat": 6381,
      "lilo": 6382,
      "Ġedl": 6383,
      "Ġbub": 6384,
      "ĠtratÃŃ": 6385,
      "Å¾u": 6386,
      "Ġopy": 6387,
      "ĠnevÃ½": 6388,
      "ĠzÃ¡ba": 6389,
      "Ġvaz": 6390,
      "ĠjÃ¡sot": 6391,
      "ĠnnÄĽ": 6392,
      "ĠspÅĻÃ¡": 6393,
      "ĠÅ¡ÃŃÅĻÃŃ": 6394,
      "ĠNÃ¡Å¡": 6395,
      "21": 6396,
      "Ġzne": 6397,
      "Ġroztr": 6398,
      "Ġlicho": 6399,
      "ĠpÅĻÃŃzrak": 6400,
      "ĠsvÄĽtle": 6401,
      "ĠÅ¾eni": 6402,
      "ĠtÃŃt": 6403,
      "ĠpolÃŃbenÃŃ": 6404,
      "ĠVaÅ¡e": 6405,
      "ĠmraÄįna": 6406,
      "sÃ©": 6407,
      "ĠÅ¡en": 6408,
      "dÄĽly": 6409,
      "ĠÄįert": 6410,
      "pis": 6411,
      "Ġluna": 6412,
      "Ġ1839": 6413,
      "Ġnaposledy": 6414,
      "nÃŃka": 6415,
      "dÄĽte": 6416,
      "ĠoltÃ¡ÅĻ": 6417,
      "ĠByla": 6418,
      "Ġlidstvu": 6419,
      "Ġochra": 6420,
      "ĠÃŃnÃŃ": 6421,
      "Ġvzty": 6422,
      "Ġrozkve": 6423,
      "ĠHÃ¡": 6424,
      "ĠFi": 6425,
      "ĠnebesÅ¯m": 6426,
      "ĠjmÃ©na": 6427,
      "Å¾uje": 6428,
      "Ġity": 6429,
      "ĠJeÅ¾": 6430,
      "Ġehu": 6431,
      "ĠAu": 6432,
      "Ġvinou": 6433,
      "ĠstrÃ¡nÃŃ": 6434,
      "Ġ1950": 6435,
      "Ġtlum": 6436,
      "ĠpÅĻemo": 6437,
      "taly": 6438,
      "Ġbytost": 6439,
      "Ġrozlou": 6440,
      "Ġlibo": 6441,
      "ĠpoutnÃŃ": 6442,
      "Ġnemohu": 6443,
      "ĠPryÄį": 6444,
      "ĠlesÃŃch": 6445,
      "ĠzÃ¡Å¡tÃŃ": 6446,
      "ĠHlu": 6447,
      "ĠdÃŃla": 6448,
      "ĠvÅ¡echnÄĽ": 6449,
      "Ġzim": 6450,
      "hrÃ¡": 6451,
      "nkÃ©": 6452,
      "ĠzpÅ¯so": 6453,
      "Ġzast": 6454,
      "Ġrosou": 6455,
      "ĠmÄĽlo": 6456,
      "ĠmodrÃ½ch": 6457,
      "rnÃ©m": 6458,
      "Å¡kou": 6459,
      "Ġtok": 6460,
      "ĠzÃ¡zra": 6461,
      "ĠÅĻed": 6462,
      "ĠkÅĻiÅ¡Å¥": 6463,
      "Ġtiskne": 6464,
      "Ġhi": 6465,
      "ĠZdÃ¡": 6466,
      "ber": 6467,
      "Ġsladko": 6468,
      "ĠspÃ¡t": 6469,
      "Ġzakle": 6470,
      "Ġzdvih": 6471,
      "vnÃ½": 6472,
      "teÅĻi": 6473,
      "ĠhÃ©m": 6474,
      "ĠuÄįe": 6475,
      "Ġusta": 6476,
      "Ġmih": 6477,
      "Ġmistr": 6478,
      "Ġnos": 6479,
      "ĠdÄĽd": 6480,
      "ĠHy": 6481,
      "ĠpÄĽÅ¡i": 6482,
      "Ġstrachem": 6483,
      "vnÃŃk": 6484,
      "ĠproudÃŃ": 6485,
      "ĠtesknÄĽ": 6486,
      "AXBBCC": 6487,
      "ĠprÅ¯vod": 6488,
      "ĠpÅ¯jdu": 6489,
      "pÅĻi": 6490,
      "ĠpoÅ¡": 6491,
      "ĠÄĽka": 6492,
      "ĠOtec": 6493,
      "ĠplÃ¡ni": 6494,
      "ĠzÅĻÃŃti": 6495,
      "AXXB": 6496,
      "Ġvdo": 6497,
      "nutÃŃm": 6498,
      "ĠNevÄĽ": 6499,
      "snÃ½ch": 6500,
      "Ġlce": 6501,
      "zenÃ©": 6502,
      "chla": 6503,
      "Ġbozi": 6504,
      "skÃ©mu": 6505,
      "nova": 6506,
      "chodu": 6507,
      "Ġvrh": 6508,
      "Ġneob": 6509,
      "ĠzdrÃ¡v": 6510,
      "Ġhlado": 6511,
      "ĠlÃ¡kÃ¡": 6512,
      "Ġjaksi": 6513,
      "ABCCDE": 6514,
      "Ġblesku": 6515,
      "ĠslavÃŃk": 6516,
      "hor": 6517,
      "ÅĪÃ¡": 6518,
      "Ġtaje": 6519,
      "Ġpluje": 6520,
      "Ġvzpomen": 6521,
      "Ġkomna": 6522,
      "Ġ1812": 6523,
      "voval": 6524,
      "Ġhodiny": 6525,
      "Ġmelo": 6526,
      "stoup": 6527,
      "Ġ1822": 6528,
      "Äįno": 6529,
      "Ġmor": 6530,
      "ĠkrutÃ½": 6531,
      "ĠsahÃ¡": 6532,
      "Ġmrtev": 6533,
      "lest": 6534,
      "Ġvor": 6535,
      "ĠpÃŃlÃŃ": 6536,
      "Ġhlubiny": 6537,
      "Ġkme": 6538,
      "ĠZnÃ¡m": 6539,
      "ĠOr": 6540,
      "Ġsoudu": 6541,
      "ĠhrÃ¡t": 6542,
      "ĠrozkoÅ¡ÃŃ": 6543,
      "ĠÃºzkost": 6544,
      "enÃ©": 6545,
      "ÅĻte": 6546,
      "lami": 6547,
      "bitÃŃ": 6548,
      "ĠtÄĽÅ¾kÃ½ch": 6549,
      "prvÃ©": 6550,
      "skutku": 6551,
      "ĠodpovÄĽÄı": 6552,
      "gy": 6553,
      "ĠvnÃŃ": 6554,
      "Ġvsta": 6555,
      "ĠnÅ¯m": 6556,
      "ĠveÅ¡el": 6557,
      "nÅ¯v": 6558,
      "Ġhli": 6559,
      "rok": 6560,
      "ĠJdu": 6561,
      "ily": 6562,
      "ĠHej": 6563,
      "ĠvÄĽÄįnost": 6564,
      "ĠÃ©ÅĻe": 6565,
      "Ġbes": 6566,
      "ĠhovoÅĻÃŃ": 6567,
      "ale": 6568,
      "ilÃŃ": 6569,
      "ĠAr": 6570,
      "Ġdruha": 6571,
      "ĠhÅĻbe": 6572,
      "Ġsloup": 6573,
      "ĠkrvavÃ©": 6574,
      "ĠvzdÃ¡len": 6575,
      "Ġobloze": 6576,
      "ĠplÃ¡ÅĪ": 6577,
      "ĠkypÃŃ": 6578,
      "Ġulici": 6579,
      "Ġsnou": 6580,
      "Ġjasnou": 6581,
      "vrÃ¡til": 6582,
      "ĠpÅĻÃŃroda": 6583,
      "ajÃŃ": 6584,
      "ĠisÃŃ": 6585,
      "ĠÃŃry": 6586,
      "ĠronÃŃ": 6587,
      "Ġpravou": 6588,
      "kÃ½mi": 6589,
      "Ġere": 6590,
      "Ġlety": 6591,
      "ĠpohlÃŃ": 6592,
      "Ġmatkou": 6593,
      "ĠtemnÃ½ch": 6594,
      "ĠstrojÃŃ": 6595,
      "enÃ½": 6596,
      "ĠSmr": 6597,
      "ĠDarmo": 6598,
      "anÃ©": 6599,
      "ĠzlÃ½ch": 6600,
      "ĠhÃ¡m": 6601,
      "bytÃŃ": 6602,
      "rec": 6603,
      "Ġsvaty": 6604,
      "Ġhust": 6605,
      "ĠVlast": 6606,
      "ĠtÃ³n": 6607,
      "Ã©ÅĻe": 6608,
      "Ġery": 6609,
      "ĠvÄĽÅ¡t": 6610,
      "ĠRe": 6611,
      "ĠdÅ¯sto": 6612,
      "Ġmohlo": 6613,
      "ĠhlubokÃ©": 6614,
      "ĠklÃ¡Å¡ter": 6615,
      "Ġsce": 6616,
      "vinu": 6617,
      "ĠdÃ¡lnÃ©": 6618,
      "Ġsouzvu": 6619,
      "ĠPrahy": 6620,
      "Ġtanci": 6621,
      "slov": 6622,
      "ĠadÃ½": 6623,
      "Ġused": 6624,
      "ĠsÃŃtÄĽ": 6625,
      "ĠvÄĽtÅĻÃŃk": 6626,
      "ĠhospodÃ¡": 6627,
      "Ġpovr": 6628,
      "ĠstkvÄĽ": 6629,
      "Ġsvr": 6630,
      "Ġnivy": 6631,
      "ĠytÃ¡": 6632,
      "ĠbÃŃlÃ½m": 6633,
      "Ġroucho": 6634,
      "jnÃ¡": 6635,
      "Ġiva": 6636,
      "aty": 6637,
      "ĠsladkÃ½m": 6638,
      "Ġkams": 6639,
      "ĠznÃ¡Å¡": 6640,
      "Ġptal": 6641,
      "ÅĻuje": 6642,
      "ĠJas": 6643,
      "ĠÄįerno": 6644,
      "ĠmusÃŃÅ¡": 6645,
      "Ġskali": 6646,
      "ĠznÄĽlo": 6647,
      "Ġbzu": 6648,
      "nÃŃku": 6649,
      "ĠzlatÄĽ": 6650,
      "Ġblahem": 6651,
      "Ġotcem": 6652,
      "ĠozÃ¡": 6653,
      "ĠnÄĽhoÅ¾": 6654,
      "ĠvonnÃ©": 6655,
      "Ġhora": 6656,
      "ĠHr": 6657,
      "ĠÄįit": 6658,
      "ĠÅ¾alem": 6659,
      "ĠkaÅ¾dÃ©ho": 6660,
      "Ġslzami": 6661,
      "nkÃ¡ch": 6662,
      "kynÄĽ": 6663,
      "Ġrom": 6664,
      "ĠnÄĽhy": 6665,
      "ĠdivÃ©m": 6666,
      "ĠJeden": 6667,
      "ĠusmÄĽ": 6668,
      "ĠstÅĻel": 6669,
      "ĠAd": 6670,
      "ĠAvÅ¡ak": 6671,
      "Ġfan": 6672,
      "ĠkÃ¡zal": 6673,
      "ĠVÃŃc": 6674,
      "Ġopi": 6675,
      "ĠzaplÃ¡": 6676,
      "atan": 6677,
      "nouc": 6678,
      "ĠÄĽmÃ½": 6679,
      "ĠÅ¾ez": 6680,
      "Ġpraco": 6681,
      "ĠplatÃŃ": 6682,
      "ĠplÃ¡la": 6683,
      "ĠstranÄĽ": 6684,
      "ĠzbÃ½vÃ¡": 6685,
      "Ġhudby": 6686,
      "Ġkouzla": 6687,
      "Ġopusti": 6688,
      "ĠvÄįel": 6689,
      "ĠodÅĻÃŃ": 6690,
      "Ġdary": 6691,
      "Ġsvate": 6692,
      "ĠvnÃ¡": 6693,
      "ĠÅ¡vi": 6694,
      "tÃ¡h": 6695,
      "ĠÃ©ta": 6696,
      "ĠMilo": 6697,
      "chvÃ¡": 6698,
      "ÅĻiv": 6699,
      "ĠletÄĽl": 6700,
      "ÄįÃŃvÃ¡": 6701,
      "toval": 6702,
      "ĠJejÃŃ": 6703,
      "ĠÅ¡koda": 6704,
      "os": 6705,
      "Ġroky": 6706,
      "vujÃŃ": 6707,
      "ĠzÃ¡hu": 6708,
      "Ġodda": 6709,
      "ĠÅĺÃŃ": 6710,
      "ĠnejvÄĽtÅ¡ÃŃ": 6711,
      "lice": 6712,
      "tiv": 6713,
      "ĠÃ¡du": 6714,
      "Ġsyny": 6715,
      "ĠnÃ¡roda": 6716,
      "ĠkrouÅ¾ÃŃ": 6717,
      "Ġkoni": 6718,
      "povÃŃ": 6719,
      "ĠhrdÃ½": 6720,
      "ĠznÄĽla": 6721,
      "ĠkÅĻÃŃÅ¾em": 6722,
      "ĠjunÃ¡": 6723,
      "Ġdomy": 6724,
      "ĠpÅĻÃŃtom": 6725,
      "ĠsvÄĽtlÃ½": 6726,
      "ĠemÃŃ": 6727,
      "ĠBÄĽda": 6728,
      "Ġosudu": 6729,
      "Ġsf": 6730,
      "jela": 6731,
      "natÃ©": 6732,
      "ĠÃŃÅ¡i": 6733,
      "ÄįÃŃch": 6734,
      "Ġzdar": 6735,
      "dily": 6736,
      "ĠzvukÅ¯": 6737,
      "ĠzvÄĽÅĻ": 6738,
      "Ġmnich": 6739,
      "ĠhbitÄĽ": 6740,
      "ĠTvou": 6741,
      "ĠstÃ¡ly": 6742,
      "ĠsmrÅ¥": 6743,
      "Ġhrst": 6744,
      "ĠzahradÄĽ": 6745,
      "ĠhlÃ¡sÃ¡": 6746,
      "hej": 6747,
      "ÅĻenou": 6748,
      "ĠÅ¡Å¥astnÃ½": 6749,
      "Ġzblou": 6750,
      "ĠÄįtve": 6751,
      "Ġbyste": 6752,
      "ĠSlad": 6753,
      "Ġpanny": 6754,
      "Ġozval": 6755,
      "Ġmoudrost": 6756,
      "ĠNÃ¡hle": 6757,
      "Ġzahrady": 6758,
      "mÄĽla": 6759,
      "Ġondy": 6760,
      "ĠpuÄįÃŃ": 6761,
      "ĠKdys": 6762,
      "Ġokny": 6763,
      "ĠveÅ¡ke": 6764,
      "ĠdÄĽk": 6765,
      "ĠkalÃŃ": 6766,
      "ĠkÅĻÃŃdly": 6767,
      "ĠCa": 6768,
      "ĠtÃ¡bo": 6769,
      "ĠbÅĻehy": 6770,
      "ĠpyÅ¡nÄĽ": 6771,
      "ĠzmizÃŃ": 6772,
      "Ġubi": 6773,
      "ĠÅ¾ele": 6774,
      "dum": 6775,
      "ĠmoÅĻÃŃ": 6776,
      "Ġdcery": 6777,
      "ĠtÃ¡m": 6778,
      "Ġbem": 6779,
      "ĠÄįlu": 6780,
      "ĠcizÃŃm": 6781,
      "ĠCos": 6782,
      "ĠilÃŃ": 6783,
      "ĠdÄĽtstvÃŃ": 6784,
      "ĠÅĻadu": 6785,
      "boÅ¾": 6786,
      "Ġdruhou": 6787,
      "ĠtvÃ©mu": 6788,
      "ĠneustÃ¡": 6789,
      "Ġhluboko": 6790,
      "ĠÅ¾ili": 6791,
      "ĠNepo": 6792,
      "Äįily": 6793,
      "ĠNÃ¡ro": 6794,
      "Ġbudoucnost": 6795,
      "Ġharmo": 6796,
      "ĠvÃŃnem": 6797,
      "ĠÄıÃ¡b": 6798,
      "Ġzru": 6799,
      "Ġledo": 6800,
      "Ġvzali": 6801,
      "Ġkul": 6802,
      "Ġryl": 6803,
      "ĠzoÅĻe": 6804,
      "ĠdrtÃŃ": 6805,
      "ĠuprostÅĻed": 6806,
      "cek": 6807,
      "ĠskvÃŃ": 6808,
      "Ġblahu": 6809,
      "ĠÅ¡ÃŃje": 6810,
      "bnou": 6811,
      "dni": 6812,
      "volu": 6813,
      "Äįeji": 6814,
      "ĠvÅ¡ed": 6815,
      "ĠTakÃ©": 6816,
      "vily": 6817,
      "ĠzÃ¡pla": 6818,
      "Ġdlani": 6819,
      "ĠjimiÅ¾": 6820,
      "ĠaÅ¡i": 6821,
      "ĠitÃ½": 6822,
      "Å¥te": 6823,
      "Ġkdosi": 6824,
      "Ġplny": 6825,
      "ĠnadÄĽji": 6826,
      "ĠznÄĽly": 6827,
      "Ġsnes": 6828,
      "Ġspal": 6829,
      "ĠPtÃ¡": 6830,
      "ĠÅ¡leh": 6831,
      "meÅĪ": 6832,
      "Ġbran": 6833,
      "ĠsvÃŃtil": 6834,
      "Ġvolnost": 6835,
      "ĠVÃ¡Å¡": 6836,
      "Ġdrak": 6837,
      "Ġsply": 6838,
      "ĠpÄĽknÃ©": 6839,
      "desÃ¡": 6840,
      "ĠedÃ½": 6841,
      "Ġhromu": 6842,
      "ĠstraÅ¡li": 6843,
      "ster": 6844,
      "cenÃ¡": 6845,
      "ĠtrpÃŃ": 6846,
      "ĠmraÄįen": 6847,
      "Ġabys": 6848,
      "ĠveÄįernÃŃ": 6849,
      "ĠzdvihÃ¡": 6850,
      "Ġbudoucnosti": 6851,
      "znou": 6852,
      "Ġnajednou": 6853,
      "ĠuÄįen": 6854,
      "Ġchou": 6855,
      "ĠZvo": 6856,
      "ĠchoÅ¥": 6857,
      "roval": 6858,
      "ĠstrÃ¡nÄĽ": 6859,
      "Ġplody": 6860,
      "ĠkÅĻeh": 6861,
      "Ġsvojich": 6862,
      "ĠpÅ¯dy": 6863,
      "vÃŃme": 6864,
      "Ġ1806": 6865,
      "Ġchaty": 6866,
      "ĠChu": 6867,
      "Ġhrobem": 6868,
      "Ġhudbou": 6869,
      "ĠÅ¾lutÃ©": 6870,
      "jenÃŃ": 6871,
      "rÃ¡Å¾ÃŃ": 6872,
      "ĠinÃ¡": 6873,
      "Äįinu": 6874,
      "ĠtouÅ¾il": 6875,
      "ĠÃŃkÃ¡": 6876,
      "ĠkvÃŃtek": 6877,
      "ĠzimÄĽ": 6878,
      "Ġpocti": 6879,
      "ĠslednÃŃ": 6880,
      "Ġnesu": 6881,
      "Ġyku": 6882,
      "ĠhroznÃ¡": 6883,
      "ĠonÄĽch": 6884,
      "Ġhasne": 6885,
      "Ġamy": 6886,
      "ĠOl": 6887,
      "Ġnepoz": 6888,
      "ĠkrÃ¡tce": 6889,
      "ĠZemÄĽ": 6890,
      "zkou": 6891,
      "chat": 6892,
      "Å¡lÃŃ": 6893,
      "ĠÃŃnÅ¯": 6894,
      "ĠvÄĽÅĻit": 6895,
      "ĠdÃŃvku": 6896,
      "ĠchrÃ¡nÃŃ": 6897,
      "ĠsnivÃ©": 6898,
      "ĠtÅĻikrÃ¡t": 6899,
      "Ġoze": 6900,
      "ÅĪa": 6901,
      "ĠjejÃŃÅ¾": 6902,
      "ĠbuÄıte": 6903,
      "Ġslib": 6904,
      "ĠsadÄĽ": 6905,
      "lÃ¡m": 6906,
      "novu": 6907,
      "Ġmist": 6908,
      "bÄĽh": 6909,
      "Ġvskutku": 6910,
      "vÃŃvÃ¡": 6911,
      "ĠmÄĽstem": 6912,
      "ĠpÄĽst": 6913,
      "Ġotco": 6914,
      "hned": 6915,
      "ĠnenadÃ¡": 6916,
      "Ġapo": 6917,
      "ĠutÃ©": 6918,
      "Ġile": 6919,
      "ĠMal": 6920,
      "ĠstÃ¡lo": 6921,
      "ĠkrvÃ¡": 6922,
      "Ġstarce": 6923,
      "ĠzalÃ©": 6924,
      "ĠÃ¡kÅ¯": 6925,
      "Ġsnadno": 6926,
      "Ġblankytu": 6927,
      "ĠÃ¡sa": 6928,
      "Ġkup": 6929,
      "ĠhouÅ¡tÃŃ": 6930,
      "ĠpÅĻÃ¡l": 6931,
      "Ġsklonil": 6932,
      "hro": 6933,
      "Ġzdu": 6934,
      "ĠÃ¡ky": 6935,
      "ĠDe": 6936,
      "ĠPotom": 6937,
      "Ġdeset": 6938,
      "ĠostrÃ½": 6939,
      "ĠsmÄĽl": 6940,
      "Ġhrdi": 6941,
      "ĠNÄĽk": 6942,
      "ĠarÃ¡": 6943,
      "Ġdostal": 6944,
      "ĠvÄĽÅĻÃŃm": 6945,
      "Ġmohou": 6946,
      "ĠpÅĻiÅ¡lo": 6947,
      "ĠchvÄĽnÃŃ": 6948,
      "ĠhÅĻÃŃchy": 6949,
      "Ġpostavy": 6950,
      "ĠfarÃ¡": 6951,
      "Ġak": 6952,
      "ABABBC": 6953,
      "lÃŃcÃŃ": 6954,
      "Ġspjat": 6955,
      "pÃŃrÃ¡": 6956,
      "lemi": 6957,
      "ĠbÄĽl": 6958,
      "Ġpaprsky": 6959,
      "Ġrozmar": 6960,
      "ĠKrev": 6961,
      "Å¾no": 6962,
      "ĠÄĽnÃ¡": 6963,
      "ĠvzkÅĻÃŃ": 6964,
      "ĠrÃ¡ko": 6965,
      "ĠstaÅĻÃŃ": 6966,
      "Ġ1850": 6967,
      "Ġjarem": 6968,
      "Ġ1804": 6969,
      "zar": 6970,
      "Ġgeni": 6971,
      "ĠspÃŃÅ¡e": 6972,
      "vÅĻÃŃ": 6973,
      "ÅĻeli": 6974,
      "ĠumÄĽl": 6975,
      "ABABXX": 6976,
      "ĠSvobo": 6977,
      "ĠsklÃŃ": 6978,
      "ĠÃºna": 6979,
      "ĠsÃŃc": 6980,
      "Ġmarno": 6981,
      "Ġramena": 6982,
      "ĠsnovÃ©": 6983,
      "deÅĪ": 6984,
      "povÄĽ": 6985,
      "Ġzimy": 6986,
      "liti": 6987,
      "Ġnejlep": 6988,
      "ĠplÃ¡t": 6989,
      "Ġlos": 6990,
      "ĠotvÃŃ": 6991,
      "ĠprospÄĽ": 6992,
      "ĠvÃ½chodu": 6993,
      "Ġkriti": 6994,
      "enal": 6995,
      "vÄĽjÅ¡ÃŃ": 6996,
      "ĠmÄĽstu": 6997,
      "Ġprcha": 6998,
      "ĠjdeÅ¡": 6999,
      "ĠhvÄĽzdami": 7000,
      "Ġpije": 7001,
      "vakrÃ¡t": 7002,
      "Ġporu": 7003,
      "Ġleda": 7004,
      "Å¾iti": 7005,
      "ĠÅ¾ivobytÃŃ": 7006,
      "ĠblahÃ©": 7007,
      "ĠslÃ¡vou": 7008,
      "Ġ1959": 7009,
      "ĠlistÅ¯": 7010,
      "ĠdlÃ½": 7011,
      "letÄĽl": 7012,
      "Ġzablou": 7013,
      "ĠnÃ¡ÅĻek": 7014,
      "ĠnÄĽv": 7015,
      "Ġhladi": 7016,
      "mÃŃvÃ¡": 7017,
      "Ġlidskou": 7018,
      "ĠdivnÃ¡": 7019,
      "ĠstudÃ¡": 7020,
      "Ġpoliti": 7021,
      "ĠKe": 7022,
      "Ġmost": 7023,
      "ĠMezi": 7024,
      "ĠlÃ¡t": 7025,
      "ĠspÄĽl": 7026,
      "Ġpit": 7027,
      "ĠtÅĻpyt": 7028,
      "ĠkmitÃ¡": 7029,
      "ĠnÅ¯Å¾": 7030,
      "Ġzvad": 7031,
      "Ġmsti": 7032,
      "ĠHvÄĽz": 7033,
      "ĠByÅ¥": 7034,
      "ĠzmÃ¡m": 7035,
      "Ġarci": 7036,
      "ĠokÃ¡": 7037,
      "lie": 7038,
      "ĠckÃ©": 7039,
      "ĠvodnÃŃ": 7040,
      "stÃ¡nÃŃ": 7041,
      "ĠlÃ©to": 7042,
      "ĠVÃŃÅ¡": 7043,
      "ĠtajnÃ©": 7044,
      "ĠjitÅĻ": 7045,
      "ĠutrpenÃŃ": 7046,
      "ĠneÅĻe": 7047,
      "bylo": 7048,
      "ĠÅ¡est": 7049,
      "ĠlÃŃtÃ¡": 7050,
      "ĠÅĻeh": 7051,
      "ĠÃ½Å¡i": 7052,
      "ĠhrobÅ¯": 7053,
      "ĠslyÅ¡ÃŃÅ¡": 7054,
      "ĠÃ¡lu": 7055,
      "Ġmok": 7056,
      "ĠskÃ¡Äįe": 7057,
      "ĠÅ¯li": 7058,
      "Ġknih": 7059,
      "ĠSlÃ¡va": 7060,
      "zat": 7061,
      "Ġoso": 7062,
      "Ġuva": 7063,
      "ĠÃ¡su": 7064,
      "dÃŃl": 7065,
      "ĠbÃŃdnÃ½": 7066,
      "Ġluhy": 7067,
      "ĠvÅ¡ecku": 7068,
      "ĠÅ¡tÄĽd": 7069,
      "ur": 7070,
      "ditel": 7071,
      "Ġrety": 7072,
      "Ġslze": 7073,
      "ĠsnÄĽhem": 7074,
      "ĠskÃ¡lu": 7075,
      "ĠÅ¾ilÃ¡ch": 7076,
      "ĠpestrÃ©": 7077,
      "ĠZatÃŃm": 7078,
      "Ġbly": 7079,
      "Ġnekli": 7080,
      "pol": 7081,
      "diÄį": 7082,
      "ĠÄįeskÃ½ch": 7083,
      "Ġrysy": 7084,
      "Ġsoudru": 7085,
      "titi": 7086,
      "ĠholÃ©": 7087,
      "ĠplÃ¡ly": 7088,
      "Ġrakev": 7089,
      "Ġjisker": 7090,
      "ĠdÄĽsnÃ½": 7091,
      "chle": 7092,
      "Ġzmu": 7093,
      "ĠanÅ¯": 7094,
      "ĠNevÃŃm": 7095,
      "Ġsuk": 7096,
      "ĠostatnÃŃ": 7097,
      "ĠÃ¡ze": 7098,
      "Ġvzej": 7099,
      "sej": 7100,
      "ĠPos": 7101,
      "Ġposlal": 7102,
      "ĠbleskÅ¯": 7103,
      "ĠpohÃ¡d": 7104,
      "ĠÄįarodÄĽj": 7105,
      "nkÃ¡": 7106,
      "rali": 7107,
      "ĠÃºkol": 7108,
      "ĠmlÃ¡de": 7109,
      "Ġpyt": 7110,
      "razÃŃ": 7111,
      "ĠdeÅ¡": 7112,
      "ĠpohÅĻe": 7113,
      "ĠVoj": 7114,
      "ĠzmÃŃtÃ¡": 7115,
      "ĠÅ¡lehÃ¡": 7116,
      "ĠTÃ©": 7117,
      "Ġzavo": 7118,
      "Ġero": 7119,
      "ĠMla": 7120,
      "ĠstarÃ©m": 7121,
      "ĠptÃ¡ka": 7122,
      "ĠznÃ¡mÃ©": 7123,
      "Ġjedinou": 7124,
      "ĠzimnÃŃ": 7125,
      "ĠÅ¡Å¥astnÄĽ": 7126,
      "ĠTÄĽÅ¾": 7127,
      "Ġkostel": 7128,
      "kru": 7129,
      "ĠstÅ¯j": 7130,
      "tisk": 7131,
      "Ġjih": 7132,
      "ĠÅ¡tva": 7133,
      "ĠÅ¾eÅĪ": 7134,
      "Ġhodin": 7135,
      "Ġpavu": 7136,
      "ÅĻeny": 7137,
      "fÃ¡": 7138,
      "ĠznÃ©": 7139,
      "ĠulÃŃ": 7140,
      "ĠnemÅ¯Å¾": 7141,
      "Ġdes": 7142,
      "Ġsmutnou": 7143,
      "ĠvlastnÄĽ": 7144,
      "ĠpilnÄĽ": 7145,
      "ĠjnÄĽ": 7146,
      "Ġpoku": 7147,
      "voj": 7148,
      "ĠkoÄįÃ¡": 7149,
      "ĠstÃ¡r": 7150,
      "Ġmlze": 7151,
      "ĠmocnÃ©": 7152,
      "Ġpravdou": 7153,
      "ĠknÃŃÅ¾": 7154,
      "ĠoltÃ¡ÅĻi": 7155,
      "ĠhedvÃ¡": 7156,
      "jou": 7157,
      "Ġocho": 7158,
      "ĠnecÃŃ": 7159,
      "Ġvypla": 7160,
      "Äįeli": 7161,
      "ĠpÃ¡ry": 7162,
      "ĠplnÃ½m": 7163,
      "Ġoblaky": 7164,
      "ĠÅĻadou": 7165,
      "ĠmdlÃ½": 7166,
      "ĠschÃ¡zÃŃ": 7167,
      "ĠoÄįka": 7168,
      "Ġdoj": 7169,
      "Ġvece": 7170,
      "ĠKvÄĽt": 7171,
      "ĠotrÃ¡": 7172,
      "Ġbabi": 7173,
      "ĠvlastnÃŃm": 7174,
      "bÃ½vÃ¡": 7175,
      "ĠoblÃ¡": 7176,
      "mec": 7177,
      "ĠpÅĻedsta": 7178,
      "Ġsmysly": 7179,
      "ĠPetr": 7180,
      "ĠpÅĻekva": 7181,
      "ĠnÃ¡v": 7182,
      "Å¡tÄĽnÃŃ": 7183,
      "Ġstin": 7184,
      "ĠdÃ©le": 7185,
      "Ġvce": 7186,
      "Ġmilovat": 7187,
      "ĠchrÃ¡my": 7188,
      "Ġge": 7189,
      "AXABBC": 7190,
      "ĠsÃ¡h": 7191,
      "ĠvysokÃ©": 7192,
      "ĠHlas": 7193,
      "ĠhÅĻÃŃÅ¡": 7194,
      "ĠÅ¾ivÃ¡": 7195,
      "Ġpohro": 7196,
      "Ġpokra": 7197,
      "ĠknÄĽÅ¾ÃŃ": 7198,
      "ĠnepÅĻÃŃtel": 7199,
      "Ġtlou": 7200,
      "ĠrvÃŃ": 7201,
      "Ġrato": 7202,
      "ĠstÃŃhÃ¡": 7203,
      "ĠpÃ¡ny": 7204,
      "Ġpusto": 7205,
      "ĠrÅ¯znÃ½ch": 7206,
      "zne": 7207,
      "milo": 7208,
      "ĠTebou": 7209,
      "Ġzmar": 7210,
      "Ġvesel": 7211,
      "Ġdvacet": 7212,
      "ĠmyÅ¡lÃ©nek": 7213,
      "ĠzachvÄĽl": 7214,
      "smÃ¡": 7215,
      "Ġzavz": 7216,
      "Ġholou": 7217,
      "Ġvina": 7218,
      "Ġnadarmo": 7219,
      "ĠlodÃŃ": 7220,
      "ĠpustÃ½": 7221,
      "dÃŃme": 7222,
      "ĠPaÅĻÃŃ": 7223,
      "Ġ1940": 7224,
      "Å¾emi": 7225,
      "Ġzhu": 7226,
      "ĠJdou": 7227,
      "ĠSl": 7228,
      "ĠSen": 7229,
      "Ġoblou": 7230,
      "Ġsie": 7231,
      "ĠÅ¡edÃ¡": 7232,
      "Ġkudy": 7233,
      "ĠslastÃŃ": 7234,
      "ĠhÅĻÃŃchÅ¯": 7235,
      "ĠLibu": 7236,
      "Ġbas": 7237,
      "ĠBr": 7238,
      "zala": 7239,
      "ĠvolnÃ½": 7240,
      "ĠvÃ¡lky": 7241,
      "ĠzvlÃ¡Å¡tnÃŃ": 7242,
      "ÄįnÃŃch": 7243,
      "ĠÅ¾dy": 7244,
      "ĠDÅĻÃŃv": 7245,
      "ĠtakÃ½": 7246,
      "ĠRenal": 7247,
      "ĠkamenÃŃ": 7248,
      "ĠprÃ¡zdnÃ©": 7249,
      "Ġbludi": 7250,
      "Ġseveru": 7251,
      "zdu": 7252,
      "Å¾nou": 7253,
      "Ġjisto": 7254,
      "mÄĽly": 7255,
      "bej": 7256,
      "Ġkan": 7257,
      "ĠÅ¡erem": 7258,
      "ĠpÅĻÃŃsnÄĽ": 7259,
      "Å¾ily": 7260,
      "ĠbujnÃ©": 7261,
      "ĠdlÃ©": 7262,
      "Ġnoh": 7263,
      "ĠnohÃ¡m": 7264,
      "ĠzÃ¡vÄĽ": 7265,
      "ĠbavÃŃ": 7266,
      "ĠsklÃ¡dÃ¡": 7267,
      "Ġsrde": 7268,
      "Ã½val": 7269,
      "ĠakÃ©": 7270,
      "Ġdopro": 7271,
      "Ġklesl": 7272,
      "ĠvÄĽÄįnÃ½ch": 7273,
      "ĠnaÅ¡eho": 7274,
      "bnÃ¡": 7275,
      "stÃ¡ch": 7276,
      "Ġpomsty": 7277,
      "ĠÅĺÃŃma": 7278,
      "ĠÅ¾Å¡ÃŃ": 7279,
      "ĠÅ¡nÄĽ": 7280,
      "Ġlevo": 7281,
      "ĠHra": 7282,
      "Ġyna": 7283,
      "ĠpÃ¡dÃŃ": 7284,
      "Ġbezna": 7285,
      "ĠslabÃ©": 7286,
      "ĠÅ¡irÃ½": 7287,
      "ĠPraha": 7288,
      "Ġpokoje": 7289,
      "ĠvzpomÃŃnky": 7290,
      "ABABCX": 7291,
      "Ġdoktor": 7292,
      "Ġjil": 7293,
      "Äįuje": 7294,
      "ĠÃ¡hÃ¡": 7295,
      "kati": 7296,
      "Ġkoli": 7297,
      "ĠmÃŃhÃ¡": 7298,
      "Ġzlost": 7299,
      "Ġbloudil": 7300,
      "Å¾dÄĽ": 7301,
      "ĠJakby": 7302,
      "Ġjsouc": 7303,
      "ĠvavÅĻÃŃ": 7304,
      "hlas": 7305,
      "Ġvlasten": 7306,
      "ĠzoufalstvÃŃ": 7307,
      "Ġsep": 7308,
      "vanÃ¡": 7309,
      "ĠobjÃŃm": 7310,
      "ĠruÄįky": 7311,
      "ĠrÃ¡ÅĪ": 7312,
      "Ġulice": 7313,
      "ĠzdobÃŃ": 7314,
      "teÄįnÃŃ": 7315,
      "Ġpokud": 7316,
      "Ġdojem": 7317,
      "vanou": 7318,
      "ĠKy": 7319,
      "ĠrozlÃŃ": 7320,
      "pusÅ¥": 7321,
      "ĠkoutÄĽ": 7322,
      "ĠbÄĽhu": 7323,
      "Ġzlomen": 7324,
      "ĠhlubokÃ½": 7325,
      "ĠÄĮlovÄĽk": 7326,
      "ÄįinÄĽ": 7327,
      "ĠÅĻece": 7328,
      "ĠDost": 7329,
      "Ġ1827": 7330,
      "ĠspÄĽch": 7331,
      "ĠkrÃ¡lovstvÃŃ": 7332,
      "ĠDobÅĻe": 7333,
      "ĠbohatÃ½r": 7334,
      "ĠodpusÅ¥": 7335,
      "Ġoct": 7336,
      "rÃ¡nÃŃ": 7337,
      "ĠÄįte": 7338,
      "Ġmudr": 7339,
      "ĠlÃ¡me": 7340,
      "ĠretÅ¯": 7341,
      "piti": 7342,
      "cÅ¯v": 7343,
      "Ġsedm": 7344,
      "ĠchvÃ¡tÃ¡": 7345,
      "Ġbalvan": 7346,
      "ca": 7347,
      "ĠuvÄĽ": 7348,
      "ÄįekÃ¡": 7349,
      "tÃ¡ÅĻ": 7350,
      "mÃŃra": 7351,
      "ĠburÃ¡": 7352,
      "ĠÅłi": 7353,
      "ĠtÄĽÅ¾kÃ½m": 7354,
      "ĠskalÃ¡ch": 7355,
      "ĠÅ¡epce": 7356,
      "ĠÅ¡lechet": 7357,
      "ĠukÅ¯": 7358,
      "ĠÄįen": 7359,
      "Ġvypl": 7360,
      "ĠsvatÃ©m": 7361,
      "vracÃŃ": 7362,
      "ĠrÅ¯znÃ©": 7363,
      "ĠÄįervÃ¡nkÅ¯": 7364,
      "Ġzko": 7365,
      "ĠPlÃ¡": 7366,
      "ĠhoÅ¡i": 7367,
      "Ġnohu": 7368,
      "Ġodlesk": 7369,
      "ĠhlasÅ¯": 7370,
      "ĠdÃ¡my": 7371,
      "Ġhrdla": 7372,
      "ĠNeboÅ¥": 7373,
      "ĠpenÄĽz": 7374,
      "ĠnÄĽt": 7375,
      "ĠÅ¯nÃŃ": 7376,
      "ĠzvlÃ¡Å¡Å¥": 7377,
      "ĠSpo": 7378,
      "ĠhoÅĻi": 7379,
      "ĠOu": 7380,
      "ĠÅ¡ÃŃÅĻ": 7381,
      "ĠÄĮechy": 7382,
      "ĠperutÄĽ": 7383,
      "ĠpoÅ¾Ã¡r": 7384,
      "Ġnehy": 7385,
      "ĠiÅ¡ÃŃ": 7386,
      "ĠKou": 7387,
      "Ġvzbou": 7388,
      "Å¡ili": 7389,
      "Ġvnady": 7390,
      "pÃŃm": 7391,
      "ĠkÅ¡ti": 7392,
      "ĠÄįekÃ¡m": 7393,
      "ĠdÄĽsÃŃ": 7394,
      "ĠpÃŃti": 7395,
      "Ġmiluji": 7396,
      "ĠchvÄĽlo": 7397,
      "ĠklÃ¡Å¡te": 7398,
      "Ġpohan": 7399,
      "Ġekl": 7400,
      "ĠrÄįÃŃ": 7401,
      "Äįely": 7402,
      "ĠstÃ¡do": 7403,
      "ĠslÃ½ch": 7404,
      "ĠÅłu": 7405,
      "ĠvzpomÃŃnÃ¡": 7406,
      "ĠnÄĽkolik": 7407,
      "ĠobjÃŃmÃ¡": 7408,
      "daje": 7409,
      "ĠÅĻetÄĽ": 7410,
      "ĠpÃ¡nÅ¯": 7411,
      "Ġprostor": 7412,
      "ĠpÅĻijdou": 7413,
      "ĠzazpÃŃ": 7414,
      "ako": 7415,
      "ĠJem": 7416,
      "ĠVal": 7417,
      "ĠÄĮÃŃ": 7418,
      "hÃ½bÃ¡": 7419,
      "Ġrukama": 7420,
      "ĠVol": 7421,
      "ĠboÅ¾skÃ©": 7422,
      "kly": 7423,
      "ruje": 7424,
      "ABABXC": 7425,
      "Å¾eli": 7426,
      "ĠnÄĽÅ¾nÃ©": 7427,
      "ĠlÃŃstek": 7428,
      "Ġpoupat": 7429,
      "Ġslab": 7430,
      "ĠJich": 7431,
      "ĠvrÃ¡sky": 7432,
      "ĠzjevÃŃ": 7433,
      "Ġzpup": 7434,
      "lÃŃch": 7435,
      "ĠpÅĻines": 7436,
      "ĠpÄĽsti": 7437,
      "ĠvÃ©vo": 7438,
      "gna": 7439,
      "knul": 7440,
      "Ġpocit": 7441,
      "Ġpojednou": 7442,
      "ĠjeÅ¥": 7443,
      "ĠuÅĻe": 7444,
      "Å¡ehra": 7445,
      "Ġex": 7446,
      "Ġesl": 7447,
      "ĠprvÃ½": 7448,
      "ĠlÃ¡sko": 7449,
      "Ġdejte": 7450,
      "Ġhluku": 7451,
      "Ġfor": 7452,
      "ĠchtÄĽjÃŃ": 7453,
      "ĠlÃ©ka": 7454,
      "ĠdrÃ¡hy": 7455,
      "Ġpaprs": 7456,
      "Ġrozmil": 7457,
      "ptÃ¡": 7458,
      "Å¾nÃ½ch": 7459,
      "Ġzou": 7460,
      "Ġkej": 7461,
      "Ġrku": 7462,
      "ĠkolÃŃ": 7463,
      "ĠbodÃ¡": 7464,
      "prch": 7465,
      "Ġmraku": 7466,
      "pouÅ¡tÄĽ": 7467,
      "AAXBBC": 7468,
      "Ġpozdvi": 7469,
      "ĠPÅĻec": 7470,
      "ĠskÅĻivan": 7471,
      "ĠÃ¡ty": 7472,
      "ĠebÃŃ": 7473,
      "Ġkorou": 7474,
      "ĠZÅĻÃŃm": 7475,
      "ĠboÅĻÃŃ": 7476,
      "ĠnÃ¡ÅĻ": 7477,
      "ĠÅ¡irÃ©": 7478,
      "ĠbÃ©ÅĻe": 7479,
      "staly": 7480,
      "ĠseÄį": 7481,
      "Ġpova": 7482,
      "Ġpoha": 7483,
      "nÄĽla": 7484,
      "ĠProkop": 7485,
      "Ġ1821": 7486,
      "Ġace": 7487,
      "ĠrÃ©m": 7488,
      "dÃŃte": 7489,
      "ĠvÃŃÄįka": 7490,
      "Ġzkad": 7491,
      "vku": 7492,
      "ÄįÃŃÅ¡": 7493,
      "Ġlidmi": 7494,
      "ĠpÃ¡nu": 7495,
      "Ġparku": 7496,
      "dumÄįi": 7497,
      "hÃ©ho": 7498,
      "Äįat": 7499,
      "ĠuvÃ¡": 7500,
      "ĠnÄĽmÃ¡": 7501,
      "ĠÅ¾ila": 7502,
      "ĠÄįinu": 7503,
      "ĠtÃŃsnÃŃ": 7504,
      "ABCCBD": 7505,
      "Ġobrazy": 7506,
      "ĠdÄĽlÃŃ": 7507,
      "ĠÅ¡ÃŃj": 7508,
      "ĠpÅĻÃ¡telÃ©": 7509,
      "Ġnapad": 7510,
      "adil": 7511,
      "Ġstranu": 7512,
      "ĠvrahÅ¯": 7513,
      "Ġkly": 7514,
      "ĠhÅĻÃ¡": 7515,
      "ĠseÅ¡": 7516,
      "ÅĻely": 7517,
      "Ġihned": 7518,
      "ĠzÃ¡ho": 7519,
      "ĠOÄįi": 7520,
      "Ġych": 7521,
      "Ġsoused": 7522,
      "jdeÅ¡": 7523,
      "ĠpÅĻelud": 7524,
      "Ġmladist": 7525,
      "ĠrodnÃ½": 7526,
      "Ġleto": 7527,
      "ĠteÄįe": 7528,
      "ĠCti": 7529,
      "Äįena": 7530,
      "ĠpÅĻesvÄĽd": 7531,
      "Ġtrud": 7532,
      "Ġplynou": 7533,
      "ĠpÃ½Å¡e": 7534,
      "kalo": 7535,
      "ĠÃŃcÃ½": 7536,
      "nÃ¡c": 7537,
      "ĠprobÃŃ": 7538,
      "Ġslep": 7539,
      "stupuje": 7540,
      "Ġvza": 7541,
      "Ġlat": 7542,
      "ĠrekÅ¯": 7543,
      "ĠzboÅ¾nÄĽ": 7544,
      "rko": 7545,
      "nut": 7546,
      "ĠmÅ¾ikem": 7547,
      "cÃ¡": 7548,
      "ĠMaÄı": 7549,
      "Ġzmatku": 7550,
      "AXAXB": 7551,
      "jeli": 7552,
      "ĠvzkÅĻi": 7553,
      "ĠboÅ¾ÃŃm": 7554,
      "naly": 7555,
      "ĠvlÃ¡dy": 7556,
      "zenÃ½": 7557,
      "tomil": 7558,
      "AAXBBX": 7559,
      "AXXX": 7560,
      "BD": 7561,
      "zil": 7562,
      "Ġvnik": 7563,
      "nÃŃho": 7564,
      "ĠnedÄĽ": 7565,
      "ĠÃŃst": 7566,
      "ĠpÅĻichÃ¡zÃŃ": 7567,
      "Ġnemlu": 7568,
      "pali": 7569,
      "ĠplnÃ½ch": 7570,
      "ul": 7571,
      "Å¡ce": 7572,
      "ĠnabÃŃ": 7573,
      "ĠKle": 7574,
      "Ġoddech": 7575,
      "ĠvÃ½kÅĻi": 7576,
      "Ġzbylo": 7577,
      "ĠdÄĽcka": 7578,
      "Ġpoledne": 7579,
      "zli": 7580,
      "ÄįeÅ¾": 7581,
      "jila": 7582,
      "ĠpravÃŃm": 7583,
      "ĠvidÄĽla": 7584,
      "ĠdruzÃŃ": 7585,
      "Ġzjevil": 7586,
      "ĠkÃ¡cÃŃ": 7587,
      "ĠÅ¡eptal": 7588,
      "Ġjiskra": 7589,
      "ĠmyÅ¡lÃ©nka": 7590,
      "ĠpoÅĻÃ¡d": 7591,
      "ĠkÅĻovÃŃ": 7592,
      "ĠDlouho": 7593,
      "ĠvtÄĽ": 7594,
      "Ġdos": 7595,
      "ĠdÃ¡no": 7596,
      "ĠnebeskÃ©": 7597,
      "Å¡enÃ¡": 7598,
      "ĠjizbÄĽ": 7599,
      "ĠhÅĻbitov": 7600,
      "Ġzato": 7601,
      "ĠÃŃbÃ¡": 7602,
      "ĠrhÃ¡": 7603,
      "Ġprova": 7604,
      "Ġsiro": 7605,
      "ĠslabÃ½": 7606,
      "ĠdÃ½mu": 7607,
      "ĠmateÅĻ": 7608,
      "mila": 7609,
      "Å¾enÃ½ch": 7610,
      "ĠchtÄĽlo": 7611,
      "ĠjejichÅ¾": 7612,
      "ĠbÅĻehÅ¯": 7613,
      "ĠMyÅ¡": 7614,
      "ĠhlÃ¡sÃŃ": 7615,
      "bami": 7616,
      "Ġpoklady": 7617,
      "ĠzÃ¡dumÄįi": 7618,
      "ĠprvÃ©": 7619,
      "Ġcig": 7620,
      "ĠmilÃŃ": 7621,
      "ĠspÃ¡ti": 7622,
      "ĠvichÅĻice": 7623,
      "nskÃ©": 7624,
      "Ġsestra": 7625,
      "ĠTro": 7626,
      "mus": 7627,
      "ĠMrt": 7628,
      "ĠdruhÅ¯": 7629,
      "Ġryk": 7630,
      "ĠmlÄįenÃŃ": 7631,
      "ĠÃºsmÄĽvu": 7632,
      "ĠvzpomÃŃnek": 7633,
      "Ġuru": 7634,
      "veÅĪ": 7635,
      "ĠskvoucÃŃ": 7636,
      "ĠpouhÃ©": 7637,
      "ĠnÄĽmÃ©": 7638,
      "ĠznÃ¡t": 7639,
      "ĠpohÃ¡dky": 7640,
      "ĠtuÅ¡ÃŃm": 7641,
      "Ġpre": 7642,
      "hlÃ½m": 7643,
      "Ġpokoji": 7644,
      "kolem": 7645,
      "Ġrie": 7646,
      "Ġrol": 7647,
      "ĠBar": 7648,
      "ĠlhÃ¡": 7649,
      "Ġrav": 7650,
      "stÃŃrÃ¡": 7651,
      "Ġstan": 7652,
      "ĠÄįinÅ¯": 7653,
      "ĠhouÅ¡ti": 7654,
      "ĠpÃ½cha": 7655,
      "Ġovoce": 7656,
      "ĠnechaÅ¥": 7657,
      "stvu": 7658,
      "ĠZu": 7659,
      "ĠcestÃ¡ch": 7660,
      "ĠdivokÃ©": 7661,
      "Ġdych": 7662,
      "ĠW": 7663,
      "Ġpopra": 7664,
      "Ġust": 7665,
      "ĠÃ¡ka": 7666,
      "Ġspro": 7667,
      "ĠhradÄĽ": 7668,
      "ceni": 7669,
      "Ġbky": 7670,
      "ĠTru": 7671,
      "ÅĻelo": 7672,
      "ĠerÃ©": 7673,
      "ĠÅ¡o": 7674,
      "ĠÅ¾iva": 7675,
      "ĠpaÅ¾ÃŃ": 7676,
      "Ġperel": 7677,
      "Ġsos": 7678,
      "ĠbÃ¡snÄĽ": 7679,
      "ren": 7680,
      "ĠpomÃ¡": 7681,
      "tickÃ©": 7682,
      "Ġproh": 7683,
      "Ġvyho": 7684,
      "ĠvylÃŃ": 7685,
      "Ġprs": 7686,
      "Ġjedem": 7687,
      "ĠklasÅ¯": 7688,
      "ĠVyÅ¡ehra": 7689,
      "ĠÅ¾ÃŃzni": 7690,
      "ĠtajemnÃ©": 7691,
      "Ġkmit": 7692,
      "Ġshon": 7693,
      "Ġzticha": 7694,
      "ĠKÅĻesÅ¥": 7695,
      "Ġneh": 7696,
      "Ġton": 7697,
      "Ġhoru": 7698,
      "ĠstÃ¡da": 7699,
      "ĠplÃ¡lo": 7700,
      "ĠklidnÃ½": 7701,
      "ĠmyÅ¡lenka": 7702,
      "ĠpevnÃ½": 7703,
      "Ġlampy": 7704,
      "Ġhospody": 7705,
      "Ġusy": 7706,
      "ĠuhlÃŃ": 7707,
      "ĠVr": 7708,
      "ABCABC": 7709,
      "ĠmÃŃsÃŃ": 7710,
      "Ġohlas": 7711,
      "ĠnevidÄĽl": 7712,
      "ckÃ½m": 7713,
      "ĠvteÅĻi": 7714,
      "Å¡til": 7715,
      "ĠohÃ½": 7716,
      "Ġkopy": 7717,
      "Ġplakal": 7718,
      "ĠradosÅ¥": 7719,
      "ĠchvÄĽly": 7720,
      "Ġgi": 7721,
      "ĠposmÄĽch": 7722,
      "Ġnko": 7723,
      "nov": 7724,
      "nÃ¡n": 7725,
      "Ġleta": 7726,
      "ĠKÃ½": 7727,
      "Ġvych": 7728,
      "Ġskvr": 7729,
      "ĠpÅĻÃŃklad": 7730,
      "ĠProti": 7731,
      "ĠFau": 7732,
      "ÄįkovÃ©": 7733,
      "Ġkonci": 7734,
      "nÃ¡Å¡el": 7735,
      "Ġrozvi": 7736,
      "Ġsrdcy": 7737,
      "Å¾iv": 7738,
      "Å¾ilo": 7739,
      "ĠJednou": 7740,
      "Ġnejdra": 7741,
      "ĠÄįlovÄĽkem": 7742,
      "ĠkrutÃ©": 7743,
      "ĠVÃ¡cla": 7744,
      "Ġsoumraku": 7745,
      "nÄĽnou": 7746,
      "pomen": 7747,
      "ĠtuÅ¾eb": 7748,
      "Ġmluv": 7749,
      "ĠMarnÄĽ": 7750,
      "Ġzbyl": 7751,
      "ĠkrÃ¡tkÃ©": 7752,
      "ĠblÃ½ska": 7753,
      "Ġdrahoka": 7754,
      "ĠnÃ¡mÄĽstÃŃ": 7755,
      "Ġskvo": 7756,
      "Ġnejde": 7757,
      "Ġnebyla": 7758,
      "ĠmdlÃ©": 7759,
      "ĠpodzimnÃŃ": 7760,
      "dnÃ©ho": 7761,
      "zla": 7762,
      "Å¡Ã¡": 7763,
      "tesk": 7764,
      "ĠdnovÃ©": 7765,
      "Ġbce": 7766,
      "Ġnasy": 7767,
      "ĠÄįernÃ½m": 7768,
      "ĠhvÄĽzdou": 7769,
      "ĠteplÃ½": 7770,
      "ĠnevÃŃÅ¡": 7771,
      "Ġsno": 7772,
      "ĠzaÄįÃŃ": 7773,
      "dÃ¡n": 7774,
      "ĠrozÅ¾": 7775,
      "ĠhladÃŃ": 7776,
      "ĠpeÅĻe": 7777,
      "Ġvzrost": 7778,
      "ĠniÅ¾": 7779,
      "Ġhroma": 7780,
      "ĠÄįistou": 7781,
      "benÃ©": 7782,
      "ĠzmÄĽnÃŃ": 7783,
      "ĠtkÃ½": 7784,
      "Ġdocela": 7785,
      "vÃ¡nÃŃm": 7786,
      "duch": 7787,
      "ĠpÅĻehlu": 7788,
      "bala": 7789,
      "Ġsouci": 7790,
      "ĠblaÅ¾ÃŃ": 7791,
      "ĠMoc": 7792,
      "ĠdvoÅĻe": 7793,
      "nickÃ©": 7794,
      "ĠneznÃ¡mÃ½": 7795,
      "ker": 7796,
      "Ġpopla": 7797,
      "ĠkovÃ¡": 7798,
      "ĠPosled": 7799,
      "ĠvraÅ¥": 7800,
      "ĠnedoÄįka": 7801,
      "ĠpÅ¯lnoci": 7802,
      "ĠozÃŃ": 7803,
      "ĠuhÅ¯": 7804,
      "Ġihu": 7805,
      "ĠÃ¡mÃ½": 7806,
      "Ġroku": 7807,
      "Ġter": 7808,
      "ĠÅ¡et": 7809,
      "Ġsocha": 7810,
      "ĠsvatÃ©ho": 7811,
      "ĠpoÄįÃ¡": 7812,
      "ĠnenadÃ¡nÃŃ": 7813,
      "ĠSlovan": 7814,
      "don": 7815,
      "ĠnelÃŃ": 7816,
      "Ġsval": 7817,
      "ĠÅĻetÄĽz": 7818,
      "Ġzloba": 7819,
      "ĠpÅĻemÃ½": 7820,
      "Å¡ad": 7821,
      "ĠpoprvÃ©": 7822,
      "Ġcele": 7823,
      "ĠkacÃŃ": 7824,
      "Ġspor": 7825,
      "ĠSvatÃ½": 7826,
      "Ġpce": 7827,
      "dÄĽlo": 7828,
      "ÅĪu": 7829,
      "ÅĪal": 7830,
      "ĠÅ¡epo": 7831,
      "ĠJeÅ¾ÃŃÅ¡": 7832,
      "ĠhustÃ©": 7833,
      "Ġokra": 7834,
      "ĠzdaÅ¾": 7835,
      "ĠsnÃ¡Å¡ÃŃ": 7836,
      "haly": 7837,
      "slem": 7838,
      "ĠodÃ¡": 7839,
      "ĠchÅĻe": 7840,
      "ĠÄĽno": 7841,
      "ĠBal": 7842,
      "ĠnÄĽn": 7843,
      "ĠpÃŃÅ¡": 7844,
      "Ġstole": 7845,
      "ĠsladkÃ©m": 7846,
      "ĠTÄĽch": 7847,
      "Ġshlu": 7848,
      "ĠapoÅ¡to": 7849,
      "fÃŃ": 7850,
      "sala": 7851,
      "ĠbÄĽlo": 7852,
      "ĠhÃ¡v": 7853,
      "ĠdÄĽsnÃ©": 7854,
      "ĠÄĮasto": 7855,
      "ĠrovnÄĽÅ¾": 7856,
      "par": 7857,
      "ĠposÃŃ": 7858,
      "ĠPar": 7859,
      "duje": 7860,
      "tovÃ¡nÃŃ": 7861,
      "ĠrozvÃ¡": 7862,
      "Ġhladem": 7863,
      "ĠOko": 7864,
      "ĠÅĻÃŃdÃŃ": 7865,
      "pÃ¡n": 7866,
      "skÃ½mi": 7867,
      "ĠzadÃŃ": 7868,
      "jÃŃti": 7869,
      "XAXX": 7870,
      "ĠodÅ¯": 7871,
      "ĠdÄĽvu": 7872,
      "ĠOs": 7873,
      "ĠÄįerv": 7874,
      "ĠsvÃŃtÃ¡": 7875,
      "ACAC": 7876,
      "pouÅ¡tÃŃ": 7877,
      "Ġskrz": 7878,
      "Ġprsten": 7879,
      "Ġsymbo": 7880,
      "the": 7881,
      "chi": 7882,
      "Ġzkla": 7883,
      "ĠzavÄĽ": 7884,
      "ĠkopÃŃ": 7885,
      "bech": 7886,
      "Ġjasno": 7887,
      "ĠmocnÃ¡": 7888,
      "Ġskokem": 7889,
      "Ġpokro": 7890,
      "ĠslepÃ½": 7891,
      "ĠvesmÃŃr": 7892,
      "ĠZdali": 7893,
      "ĠÅ¾ivÃŃ": 7894,
      "Ġvoje": 7895,
      "ĠraÅĪ": 7896,
      "Ġlak": 7897,
      "Ġzvuku": 7898,
      "ĠdÃŃvce": 7899,
      "ĠMilost": 7900,
      "ABACCB": 7901,
      "ĠnapÅĻed": 7902,
      "ĠjinÃ©ho": 7903,
      "Ġmuky": 7904,
      "ĠÅ¾ik": 7905,
      "ĠlÃŃtost": 7906,
      "ĠstoletÃŃ": 7907,
      "ĠnÃ¡rodÅ¯": 7908,
      "ĠVidÃŃm": 7909,
      "rÅ¯m": 7910,
      "ĠjmÄĽnÃŃ": 7911,
      "ĠzlÃ©ho": 7912,
      "Ġnedal": 7913,
      "ĠHro": 7914,
      "leno": 7915,
      "ĠpÄĽjÃŃ": 7916,
      "ĠhledÃ¡m": 7917,
      "ĠSvato": 7918,
      "tiny": 7919,
      "dechu": 7920,
      "Ġprobou": 7921,
      "Ġhorami": 7922,
      "nickÃ½": 7923,
      "ĠdÄĽtskÃ©": 7924,
      "ĠpamÄĽÅ¥": 7925,
      "Ġopa": 7926,
      "ABBB": 7927,
      "vyk": 7928,
      "ĠvojÃŃ": 7929,
      "ĠPom": 7930,
      "ĠpohlÃ©": 7931,
      "nÄĽjÅ¡ÃŃch": 7932,
      "ĠtÅ¯nÄĽ": 7933,
      "Å¡kem": 7934,
      "Ġzval": 7935,
      "ÅĻka": 7936,
      "Ġkl": 7937,
      "Ġrozka": 7938,
      "ĠvÃ¡le": 7939,
      "ĠskoÄįÃŃ": 7940,
      "ĠtrÃ¡vu": 7941,
      "ĠstÅĻÃŃbrnÃ©": 7942,
      "ĠpevnÃ©": 7943,
      "Ġchceme": 7944,
      "Ġ17": 7945,
      "Ġ1819": 7946,
      "ĠPat": 7947,
      "Ġniko": 7948,
      "Ġjasem": 7949,
      "ĠhoupÃ¡": 7950,
      "ĠmalÃ½ch": 7951,
      "ĠsnivÃ¡": 7952,
      "ĠprÃ¡zdnÃ½": 7953,
      "ĠzkvÃ©": 7954,
      "Ġ1807": 7955,
      "klÃ¡dÃ¡": 7956,
      "ĠplÃŃÅ¾ÃŃ": 7957,
      "Ġtrium": 7958,
      "Ġvku": 7959,
      "Ġuko": 7960,
      "Å¡tÄĽm": 7961,
      "ĠPoz": 7962,
      "slÅ¯": 7963,
      "ĠsrdÃ©": 7964,
      "ĠvÃ¡Å¾nÃ½": 7965,
      "ĠpÅĻedc": 7966,
      "ĠsÃŃÅ¥": 7967,
      "ĠzdvÃŃ": 7968,
      "ĠsmÃ¡la": 7969,
      "Ġjizby": 7970,
      "ĠbÅĻÃŃmÄĽ": 7971,
      "ĠideÃ¡": 7972,
      "Ã¡nÃŃ": 7973,
      "ĠJar": 7974,
      "ĠzaÅ¡ep": 7975,
      "Ġroje": 7976,
      "Ġvysta": 7977,
      "ĠtÄĽkÃ¡": 7978,
      "ĠmÄĽly": 7979,
      "Ġhromo": 7980,
      "Ġteplo": 7981,
      "Ġmoudrosti": 7982,
      "lÃ½mi": 7983,
      "Ġchti": 7984,
      "ĠnovÃ©m": 7985,
      "ĠmÃ¡k": 7986,
      "ĠÃºkry": 7987,
      "Ġkane": 7988,
      "Ġnejsi": 7989,
      "ĠsynÅ¯": 7990,
      "ĠrybnÃŃ": 7991,
      "kladu": 7992,
      "ĠÅĺek": 7993,
      "ĠzboÅ¾ÃŃ": 7994,
      "ĠoltÃ¡ÅĻe": 7995,
      "ĠvzÃ¡cnÃ©": 7996,
      "ĠokamÅ¾iku": 7997,
      "Ġposu": 7998,
      "ĠBer": 7999,
      "mÄĽlo": 8000,
      "ĠrubÃŃ": 8001,
      "sajÃŃ": 8002,
      "Ġstrasti": 8003,
      "ĠchytÃ¡": 8004,
      "Ġbere": 8005,
      "ĠposlednÃŃm": 8006,
      "Ġslavnost": 8007,
      "Ġmohli": 8008,
      "ĠnÃ¡vra": 8009,
      "ĠJeÅ¥": 8010,
      "Ġmodro": 8011,
      "ĠÅ¯ry": 8012,
      "ĠÅ½iÅ¾ka": 8013,
      "ĠSlova": 8014,
      "Ġvzplane": 8015,
      "ĠtisÃŃci": 8016,
      "ĠspanÃŃ": 8017,
      "Ġvstane": 8018,
      "ĠlÃŃpy": 8019,
      "ĠzÅĻeli": 8020,
      "hi": 8021,
      "pne": 8022,
      "Ġzjas": 8023,
      "ĠpodÄĽ": 8024,
      "Ġchech": 8025,
      "Ġjsy": 8026,
      "ĠproklÃŃ": 8027,
      "CCA": 8028,
      "ĠvÅ¡echna": 8029,
      "ĠdravÃ½": 8030,
      "Ġkroku": 8031,
      "ĠznÃ¡ti": 8032,
      "ĠÅ¡koly": 8033,
      "ĠjakÃ©s": 8034,
      "ĠVlÃ¡": 8035,
      "Ġstala": 8036,
      "Ġhrozi": 8037,
      "ĠnÄĽjÅ¾": 8038,
      "Ġzpola": 8039,
      "ĠpaprskÅ¯": 8040,
      "Å¾ku": 8041,
      "kuje": 8042,
      "ĠsÃ¡l": 8043,
      "jÃ¡k": 8044,
      "Ġhisto": 8045,
      "ver": 8046,
      "ĠdÃ¡val": 8047,
      "Ġhubi": 8048,
      "ĠzahÅĻ": 8049,
      "ĠhÅĻÃŃmÃ¡": 8050,
      "Ġtmavou": 8051,
      "ĠdvakrÃ¡t": 8052,
      "nÃŃÅ¡": 8053,
      "ĠnaÅ¡ÃŃm": 8054,
      "Ġupy": 8055,
      "Ġdovo": 8056,
      "Ġmozo": 8057,
      "ĠÃºtra": 8058,
      "ĠpÅĻedtu": 8059,
      "ĠvÃ½Äįi": 8060,
      "Ġtemna": 8061,
      "Ġostro": 8062,
      "ĠkleÄįÃŃ": 8063,
      "Ġryb": 8064,
      "ĠstÅĻÃŃbrem": 8065,
      "Ġnachem": 8066,
      "Ġodpla": 8067,
      "cena": 8068,
      "ĠZdaÅ¾": 8069,
      "Ġzil": 8070,
      "Ġzbude": 8071,
      "Ġoto": 8072,
      "ĠlÃŃnÄĽ": 8073,
      "Ġlup": 8074,
      "Å¡eni": 8075,
      "ĠzdÃ¡la": 8076,
      "ĠnevÄĽdÄĽl": 8077,
      "Ġsedmi": 8078,
      "Ġhejno": 8079,
      "Ġzrozen": 8080,
      "tnÃ½m": 8081,
      "vÅ¡ad": 8082,
      "ĠnevÃ¡": 8083,
      "lumen": 8084,
      "Ġlel": 8085,
      "Ġvysko": 8086,
      "ĠvzkÅĻik": 8087,
      "ĠkÅĻÃŃÅ¾i": 8088,
      "ĠbijÃŃ": 8089,
      "Ġmrazem": 8090,
      "ĠstÅĻechy": 8091,
      "ĠchrÃ¡mÄĽ": 8092,
      "ĠdrÃ¡hu": 8093,
      "ĠÅ¾alost": 8094,
      "Ġprince": 8095,
      "teÄįnÄĽ": 8096,
      "Ġpomy": 8097,
      "Ġjek": 8098,
      "ĠudÃ½": 8099,
      "ĠÅ¾nÄĽ": 8100,
      "Ġ1939": 8101,
      "ÅĻeno": 8102,
      "ĠÅ¾ebrÃ¡k": 8103,
      "ĠzÃ¡mek": 8104,
      "dlem": 8105,
      "ĠÃ¡vÃŃ": 8106,
      "cii": 8107,
      "ĠVzpomÃŃ": 8108,
      "Ġvzdoru": 8109,
      "pka": 8110,
      "ĠÃ¡mu": 8111,
      "ĠÃŃlo": 8112,
      "ĠKnÄĽ": 8113,
      "ladÅ¡ÃŃ": 8114,
      "Ġdek": 8115,
      "ÅĻenÃ½m": 8116,
      "Ġklidem": 8117,
      "ĠzdÃ¡nÃŃ": 8118,
      "ĠsnÃŃt": 8119,
      "ĠslavnÃ½ch": 8120,
      "Ġhudbu": 8121,
      "ĠspoleÄįnosti": 8122,
      "snÃ½m": 8123,
      "Ġvzpou": 8124,
      "Ġhouf": 8125,
      "Ġtrosky": 8126,
      "ĠlehkÃ½": 8127,
      "ĠotevÅĻel": 8128,
      "ĠkrvavÃ½": 8129,
      "Ġklene": 8130,
      "ĠpÅ¯lnoc": 8131,
      "ĠÄĽÅ¡ÃŃ": 8132,
      "Äįeho": 8133,
      "ĠÃºstech": 8134,
      "ĠmÃ©nÄĽ": 8135,
      "jemi": 8136,
      "vena": 8137,
      "ĠpovÄĽz": 8138,
      "qu": 8139,
      "ĠahÃ©": 8140,
      "ĠorÃ¡": 8141,
      "stroj": 8142,
      "ÅĻÃŃti": 8143,
      "ĠPad": 8144,
      "Å¥Ã¡": 8145,
      "Ġodsou": 8146,
      "ĠOde": 8147,
      "ĠblahÃ½": 8148,
      "cenou": 8149,
      "ĠÅ¡ik": 8150,
      "Ġmladost": 8151,
      "ĠznÃ¡te": 8152,
      "ĠtesknÃ©": 8153,
      "Ġzaml": 8154,
      "Ġvzejde": 8155,
      "nÄįÃŃ": 8156,
      "ĠmuÅ¾em": 8157,
      "ĠpalÃ¡c": 8158,
      "Ġhezky": 8159,
      "vcÅ¯": 8160,
      "Ġshle": 8161,
      "ĠutÃ¡": 8162,
      "nÄĽly": 8163,
      "Ġrozez": 8164,
      "ĠzÃ¡slu": 8165,
      "ĠplachÃ½": 8166,
      "ĠpÄĽti": 8167,
      "Ġslovu": 8168,
      "Ġdruhy": 8169,
      "ĠjaÅĻe": 8170,
      "ĠsvÃ¡tek": 8171,
      "ĠpropastÃŃ": 8172,
      "rÃ½mi": 8173,
      "ÅĻÃŃvÃ¡": 8174,
      "Ġroztomil": 8175,
      "Ġkoruny": 8176,
      "ĠmÄĽkce": 8177,
      "Ġpovstal": 8178,
      "ĠdÃ©man": 8179,
      "ĠzanÃŃ": 8180,
      "vÃŃtÃŃ": 8181,
      "ĠvÃ¡t": 8182,
      "rÅ¯v": 8183,
      "ĠtemnÃ¡": 8184,
      "ĠsvÃŃce": 8185,
      "ĠjmÃ©nem": 8186,
      "ĠÅ¡av": 8187,
      "Ġjezera": 8188,
      "ĠzasmuÅ¡il": 8189,
      "ĠnevÃ½slov": 8190,
      "ĠbÃŃdÄĽ": 8191,
      "ABCDDC": 8192,
      "Ġsadu": 8193,
      "ĠpoÄįne": 8194,
      "Ġminulost": 8195,
      "ĠssÃ¡": 8196,
      "Ġmuce": 8197,
      "ĠChy": 8198,
      "chali": 8199,
      "ĠmrtvÃ¡": 8200,
      "ĠvlastnÃŃch": 8201,
      "Ġzbroj": 8202,
      "ĠsnivÃ½": 8203,
      "ĠkaÅ¾dÃ©mu": 8204,
      "ĠHospodi": 8205,
      "ĠvodopÃ¡": 8206,
      "tna": 8207,
      "doval": 8208,
      "ĠpeÅĻÃŃ": 8209,
      "ĠobÄĽt": 8210,
      "ĠVeÄįer": 8211,
      "ĠlÃ©k": 8212,
      "ĠnovÃ©ho": 8213,
      "ĠmoudrÃ½": 8214,
      "mÃ¡m": 8215,
      "Ġjist": 8216,
      "ĠÅ¡irÃ©m": 8217,
      "ĠzÃŃral": 8218,
      "Ġdivoce": 8219,
      "Ġpodob": 8220,
      "ĠÄįtvr": 8221,
      "ĠvleÄįe": 8222,
      "ĠÅĪÃ¡dra": 8223,
      "rvÃ¡": 8224,
      "Ġ!": 8225,
      "ĠJste": 8226,
      "ĠrudÃ¡": 8227,
      "ĠJeÅ¾ÃŃ": 8228,
      "ĠuchvÃ¡": 8229,
      "Ġjdem": 8230,
      "ĠaÅĻe": 8231,
      "ĠÅ¾nÃ©": 8232,
      "nesla": 8233,
      "Ġzasy": 8234,
      "ĠrumÄĽ": 8235,
      "ĠÃºpÃŃ": 8236,
      "Ġrah": 8237,
      "ĠÅĻÃŃv": 8238,
      "Ġnebla": 8239,
      "ĠtÃŃÅ¡": 8240,
      "Ġtragi": 8241,
      "Ġpruh": 8242,
      "Ġsedla": 8243,
      "ĠÅ¡kÅ¯": 8244,
      "ĠvÄĽÅ¾i": 8245,
      "ĠroznÃŃ": 8246,
      "ĠÃºsvi": 8247,
      "Ġslabo": 8248,
      "ĠdlaÅ¾": 8249,
      "Ġzakry": 8250,
      "ĠdivokÃ½": 8251,
      "Ġshr": 8252,
      "Ġvdech": 8253,
      "ĠvÃŃme": 8254,
      "Ġchalou": 8255,
      "ĠPru": 8256,
      "Ġpropas": 8257,
      "Å¡enÄĽ": 8258,
      "Ġskryt": 8259,
      "ĠtÅ¯m": 8260,
      "out": 8261,
      "Ġzaji": 8262,
      "ĠVÅ¡em": 8263,
      "ĠPl": 8264,
      "atÃ©": 8265,
      "ĠdusÃŃ": 8266,
      "Ġmukou": 8267,
      "Ġcenu": 8268,
      "AEAE": 8269,
      "ĠMlÃ¡": 8270,
      "ĠlÃ½": 8271,
      "ĠbÃ¡znÃŃ": 8272,
      "ĠsmÃ½": 8273,
      "ĠkrutÄĽ": 8274,
      "ĠÅ¾nÃ¡": 8275,
      "voÅĻÃŃ": 8276,
      "ĠrtÅ¯m": 8277,
      "ĠlkÃ¡nÃŃ": 8278,
      "Ġkostela": 8279,
      "arÃ¡": 8280,
      "ĠnaÅ¡li": 8281,
      "ĠstkvÃŃ": 8282,
      "Ġprosil": 8283,
      "Ġnouze": 8284,
      "ĠvlaÅ¡to": 8285,
      "XAXABC": 8286,
      "Ġodpor": 8287,
      "ĠmÄĽkkÃ½": 8288,
      "ĠSÃ¡": 8289,
      "ĠvysÃŃ": 8290,
      "Ġtec": 8291,
      "ĠbÃŃdnÃ©": 8292,
      "ĠzaÅ¡lÃ½ch": 8293,
      "ĠEjhle": 8294,
      "ĠTma": 8295,
      "ĠdotÃ½": 8296,
      "ĠveÅĻe": 8297,
      "ĠhodÃŃ": 8298,
      "talo": 8299,
      "Ġrozbi": 8300,
      "ĠtakovÃ©": 8301,
      "ĠobÄĽti": 8302,
      "Å¡ena": 8303,
      "ĠÃ©no": 8304,
      "ĠtvrdÃ½": 8305,
      "ĠuÅ¡lech": 8306,
      "Ġopil": 8307,
      "Ġneje": 8308,
      "Ġzahu": 8309,
      "ĠoblÃ©": 8310,
      "Ġvlaje": 8311,
      "ĠjasnÃ½m": 8312,
      "ĠveselÃ½": 8313,
      "ĠnevÄĽÅĻÃŃ": 8314,
      "Ġoblohou": 8315,
      "ĠtvÅ¯rÄįÃŃ": 8316,
      "nÃŃkem": 8317,
      "nÄĽna": 8318,
      "kÃ¡zal": 8319,
      "ĠÅ¾ijÃŃ": 8320,
      "ĠmÄĽÅĻÃŃ": 8321,
      "ĠÅ¡eÅĻÃŃ": 8322,
      "ĠplaÅ¡ÃŃ": 8323,
      "Å¾eno": 8324,
      "Ġstarci": 8325,
      "Ġkrov": 8326,
      "Ġsnahy": 8327,
      "ĠsvobodÄĽ": 8328,
      "ĠpestrÃ½": 8329,
      "ĠpamÃ¡tku": 8330,
      "ĠmlÃ½n": 8331,
      "Ġazy": 8332,
      "ĠavÅ¡ak": 8333,
      "ĠÃŃsÃŃ": 8334,
      "ĠtÄĽn": 8335,
      "ĠvÃ¡no": 8336,
      "ĠostÅĻÃŃ": 8337,
      "ĠbÄĽla": 8338,
      "ĠmnoÅ¾ÃŃ": 8339,
      "ĠmrtvÃŃ": 8340,
      "ĠplesÃ¡": 8341,
      "ĠpovÄĽst": 8342,
      "ĠMatka": 8343,
      "pak": 8344,
      "znÃ½ch": 8345,
      "Ġolo": 8346,
      "Ġobry": 8347,
      "AABBXX": 8348,
      "pÄĽla": 8349,
      "ĠstÄĽn": 8350,
      "ĠzelenÃ½": 8351,
      "Ġkapky": 8352,
      "Ġdys": 8353,
      "ĠdÅ¾": 8354,
      "Ġdka": 8355,
      "Ġben": 8356,
      "ĠÃ¡nÅ¯": 8357,
      "ĠSlav": 8358,
      "Ġvzhled": 8359,
      "ĠtrÄįÃŃ": 8360,
      "ĠpÅ¯dÄĽ": 8361,
      "ĠtmavÃ½ch": 8362,
      "Ġroucha": 8363,
      "ĠSed": 8364,
      "ĠpÅĻemÃŃ": 8365,
      "Ġzdroje": 8366,
      "ĠjnÃ©": 8367,
      "ĠlekÃ¡": 8368,
      "Ġvzo": 8369,
      "vedu": 8370,
      "ĠLÃ©": 8371,
      "ĠskalnÃŃ": 8372,
      "proti": 8373,
      "Ġfial": 8374,
      "ĠzaÅ¡el": 8375,
      "Ġkovo": 8376,
      "Ġmine": 8377,
      "Ġvlno": 8378,
      "ĠpohÃ¡dka": 8379,
      "ĠmÄĽkkÃ©": 8380,
      "ĠvzÃŃti": 8381,
      "Ġoprav": 8382,
      "lestÃŃ": 8383,
      "ĠhoÅĻem": 8384,
      "ĠBrat": 8385,
      "XAXAXA": 8386,
      "ĠstarÃ½m": 8387,
      "ĠjasnÃ½ch": 8388,
      "ĠmnoÅ¾stvÃŃ": 8389,
      "lÅ¯v": 8390,
      "ĠtmavÃ¡": 8391,
      "ĠÃŃmi": 8392,
      "Ġvyslo": 8393,
      "ĠvzÃ¡cnÃ½": 8394,
      "ĠmraÄįno": 8395,
      "ÃŃch": 8396,
      "ĠtkÅ¯": 8397,
      "Ġika": 8398,
      "Ġobdi": 8399,
      "ĠlÅ¾ÃŃ": 8400,
      "Ġhrot": 8401,
      "chajÃŃ": 8402,
      "ĠdrahÃ½ch": 8403,
      "bÃ¡Å¡": 8404,
      "ĠnÃ¡rody": 8405,
      "ĠunÃŃ": 8406,
      "Ġobec": 8407,
      "ĠMlu": 8408,
      "ĠBlÃŃ": 8409,
      "ĠruÅ¡ÃŃ": 8410,
      "ĠdobrÃ½ch": 8411,
      "ĠbÃ¡jÃŃ": 8412,
      "Äįeno": 8413,
      "ĠspÄĽchu": 8414,
      "ĠneznÃ¡mÃ©": 8415,
      "Ġpevnou": 8416,
      "AABCC": 8417,
      "Ġaci": 8418,
      "star": 8419,
      "Ġeci": 8420,
      "ĠzÃ¡ro": 8421,
      "ĠpravÃ¡": 8422,
      "ĠÅ¾ÃŃzeÅĪ": 8423,
      "Ġblud": 8424,
      "Ġceny": 8425,
      "Ġshro": 8426,
      "ĠpsanÃŃ": 8427,
      "ĠsÅ¯m": 8428,
      "dol": 8429,
      "Ġpop": 8430,
      "naje": 8431,
      "ĠÅ¡Å¡ÃŃ": 8432,
      "ledne": 8433,
      "ĠJedno": 8434,
      "ĠkouÅĻÃŃ": 8435,
      "ĠmetÃ¡": 8436,
      "ÄįenÃ¡": 8437,
      "ĠaniÅ¾": 8438,
      "ĠhorÅ¡ÃŃ": 8439,
      "ĠHon": 8440,
      "ĠveselÃŃ": 8441,
      "Ġjdeme": 8442,
      "lÃŃp": 8443,
      "ĠSpas": 8444,
      "mund": 8445,
      "ĠzÃ¡Å¡Å¥": 8446,
      "ĠPoÄį": 8447,
      "cenÃ½ch": 8448,
      "ĠulicÃŃch": 8449,
      "ĠKraj": 8450,
      "Ġvlek": 8451,
      "land": 8452,
      "ĠbÅĻit": 8453,
      "ĠzapÃ¡": 8454,
      "Ġej": 8455,
      "ĠprochÃ¡": 8456,
      "ĠruÄįe": 8457,
      "ĠkvÄĽtech": 8458,
      "Ġtrh": 8459,
      "ĠÅ¾aly": 8460,
      "ĠhvÄĽzdnÃ©": 8461,
      "Ġchladnou": 8462,
      "ĠozÃ½vÃ¡": 8463,
      "Ġtajemnou": 8464,
      "Ġvezme": 8465,
      "Ġpohledu": 8466,
      "ĠÅłtÄĽstÃŃ": 8467,
      "Ġkmo": 8468,
      "ĠvÄĽno": 8469,
      "ĠkabÃ¡": 8470,
      "ĠÅ¡erÃ½": 8471,
      "ĠstarÅ¡ÃŃ": 8472,
      "ĠzelenÃ¡": 8473,
      "Ġsloupy": 8474,
      "Ġvstoupil": 8475,
      "Ġhody": 8476,
      "Ġmojich": 8477,
      "Ġlie": 8478,
      "ĠÄįeskou": 8479,
      "Ġhladu": 8480,
      "ĠvodÃŃ": 8481,
      "Ġpranic": 8482,
      "ĠpÅĻÃŃtele": 8483,
      "vrh": 8484,
      "Ġtrav": 8485,
      "ĠkÃ½v": 8486,
      "Ġzastavil": 8487,
      "ĠtÃ³ny": 8488,
      "ĠvÃ½chod": 8489,
      "gan": 8490,
      "ĠvybÃŃ": 8491,
      "Ġmuzi": 8492,
      "Ġtane": 8493,
      "Ġysy": 8494,
      "ĠpodveÄįer": 8495,
      "Ġsluha": 8496,
      "Ġpustil": 8497,
      "ĠmodrÃ¡": 8498,
      "bÃ¡n": 8499,
      "ĠBych": 8500,
      "ĠmocnÃ½m": 8501,
      "ĠznaÄįÃŃ": 8502,
      "ĠubohÃ©": 8503,
      "kosti": 8504,
      "Ġrtem": 8505,
      "Ġref": 8506,
      "Ġpuk": 8507,
      "ĠvÄĽÄįnÃ½m": 8508,
      "ĠstatnÃ½": 8509,
      "ABACBC": 8510,
      "ĠÅĻasy": 8511,
      "ĠcÃŃrkve": 8512,
      "Ġkohou": 8513,
      "ĠKÃ¡": 8514,
      "Ġvypro": 8515,
      "ĠJedi": 8516,
      "Ġluhu": 8517,
      "ĠbÃ¡znÄĽ": 8518,
      "ĠVzhÅ¯ru": 8519,
      "ĠradostnÄĽ": 8520,
      "ĠhlubinÃ¡ch": 8521,
      "ĠSyn": 8522,
      "clo": 8523,
      "XXAA": 8524,
      "Ġita": 8525,
      "Ġdoli": 8526,
      "ĠSmÃŃ": 8527,
      "ĠvÃŃnek": 8528,
      "ĠsnÄĽti": 8529,
      "ĠmarnÃ½": 8530,
      "leko": 8531,
      "Ġupu": 8532,
      "Ġuhas": 8533,
      "ĠÃ¡jÃŃ": 8534,
      "ĠVÅ¡u": 8535,
      "danÃ©": 8536,
      "ĠZpÃŃ": 8537,
      "ĠnÄĽz": 8538,
      "ĠstÃ¡vÃ¡": 8539,
      "ĠplÃ¡nÄĽ": 8540,
      "Ġjala": 8541,
      "ĠsuchÃ©": 8542,
      "ĠÄįÃŃst": 8543,
      "Ġmrakem": 8544,
      "ĠpokolenÃŃ": 8545,
      "Ġdarem": 8546,
      "ĠjiskÅĻÃŃ": 8547,
      "Ġvichrem": 8548,
      "ĠKterak": 8549,
      "Ġdobrodru": 8550,
      "ĠtÅ¯ÅĪ": 8551,
      "Ġneskonal": 8552,
      "ĠsvatebnÃŃ": 8553,
      "Ġcitem": 8554,
      "ĠdobÃ¡ch": 8555,
      "ĠbÄĽlÃ¡": 8556,
      "ĠbujnÃ½": 8557,
      "Ġstrun": 8558,
      "ĠKdybych": 8559,
      "ĠlÅ¯Å¾ko": 8560,
      "ĠhvÃŃz": 8561,
      "ĠStÃŃn": 8562,
      "Ġbiskup": 8563,
      "br": 8564,
      "lekÃ¡": 8565,
      "ĠÃ¡di": 8566,
      "Ġduma": 8567,
      "ĠdeÅ¡ti": 8568,
      "ĠÄįernÃ©m": 8569,
      "ĠtÃŃseÅĪ": 8570,
      "Ġzoufalo": 8571,
      "ĠobrÃ¡til": 8572,
      "ĠmroucÃŃ": 8573,
      "dnu": 8574,
      "ĠopÄĽ": 8575,
      "ĠudÄĽ": 8576,
      "Ġroh": 8577,
      "ĠÄĽdÃŃ": 8578,
      "Ġvym": 8579,
      "asy": 8580,
      "Ġodve": 8581,
      "ĠÅĻÃŃd": 8582,
      "ĠhledÄĽ": 8583,
      "ĠdÅĻÃŃma": 8584,
      "Ġopustil": 8585,
      "ĠdrobnÃ½ch": 8586,
      "ĠnÃ©sti": 8587,
      "any": 8588,
      "mar": 8589,
      "pku": 8590,
      "Ġokouz": 8591,
      "vami": 8592,
      "ĠdÃŃtko": 8593,
      "ĠsloÅ¾il": 8594,
      "ĠsnÄĽho": 8595,
      "tÃŃme": 8596,
      "ĠjemnÃ©": 8597,
      "ĠokolÃŃ": 8598,
      "Ġzloby": 8599,
      "ĠpalÃ¡ce": 8600,
      "ble": 8601,
      "dovat": 8602,
      "tiÅ¾": 8603,
      "ĠmaliÄį": 8604,
      "Å¡enÃ½ch": 8605,
      "ĠmilovÃ¡nÃŃ": 8606,
      "ĠRozu": 8607,
      "vÄĽtÅĻÃŃ": 8608,
      "FF": 8609,
      "vnitÅĻ": 8610,
      "Ġzta": 8611,
      "ĠasÃŃ": 8612,
      "Ġneli": 8613,
      "Ġdoly": 8614,
      "XAAX": 8615,
      "ĠtulÃŃ": 8616,
      "mÄĽt": 8617,
      "Ġkladi": 8618,
      "Ġmrazi": 8619,
      "ĠbolesÅ¥": 8620,
      "ĠPÃ¡nu": 8621,
      "Ġoblaka": 8622,
      "ĠzuÅĻi": 8623,
      "ĠMnoho": 8624,
      "ĠzapomnÄĽnÃŃ": 8625,
      "ĠverÅ¡Å¯": 8626,
      "lce": 8627,
      "dovi": 8628,
      "leÅ¥": 8629,
      "ĠerÃ¡": 8630,
      "Ġpropad": 8631,
      "ĠKru": 8632,
      "Ġhocha": 8633,
      "ĠnÃŃt": 8634,
      "ĠtÃ¡hla": 8635,
      "stoupÃŃ": 8636,
      "ĠkÅĻÃŃdlech": 8637,
      "Ġlhostej": 8638,
      "Ġzva": 8639,
      "aku": 8640,
      "Ġlide": 8641,
      "Ġvozy": 8642,
      "ĠdÃŃlu": 8643,
      "trp": 8644,
      "ĠhlasnÄĽ": 8645,
      "ĠhorkÃ©": 8646,
      "ĠspÄĽchal": 8647,
      "hlÃŃÅ¾e": 8648,
      "ĠvÄĽrnÃ¡": 8649,
      "volnÄĽ": 8650,
      "ĠlÅ¯no": 8651,
      "Ġkletby": 8652,
      "ĠandÄĽlÃ©": 8653,
      "ĠvzÃŃt": 8654,
      "bÅ¡ÃŃ": 8655,
      "ĠÅ¾ky": 8656,
      "tina": 8657,
      "Ġhodil": 8658,
      "ĠlÃŃt": 8659,
      "Ġsluchu": 8660,
      "ĠprÃ¡vem": 8661,
      "Ġleskne": 8662,
      "Ġsboru": 8663,
      "Ġpodu": 8664,
      "ĠnahÃ¡": 8665,
      "ĠSmÄĽ": 8666,
      "bych": 8667,
      "ĠnÄĽhu": 8668,
      "ĠvÃ½smÄĽ": 8669,
      "ĠobÄĽtÃŃ": 8670,
      "ĠtrnÃŃ": 8671,
      "ĠTur": 8672,
      "Ġlehko": 8673,
      "ĠStojÃŃ": 8674,
      "Ġzabo": 8675,
      "vÃ¡me": 8676,
      "ĠmuÄįÃŃ": 8677,
      "Äıas": 8678,
      "Å¡ilo": 8679,
      "lenÃ½ch": 8680,
      "ĠdÃ¡lnÃ½ch": 8681,
      "Ġlupen": 8682,
      "ĠpohnutÃŃ": 8683,
      "ĠsnÄĽtÃŃ": 8684,
      "ĠbrÃ¡na": 8685,
      "ĠadÃ©": 8686,
      "ABXX": 8687,
      "Ġdopo": 8688,
      "ĠÅ¡kol": 8689,
      "ĠSÃŃ": 8690,
      "Ġhodina": 8691,
      "ĠsilnÃ©": 8692,
      "Ġpaty": 8693,
      "Ġheslo": 8694,
      "ĠÅ¾havÃ¡": 8695,
      "Ġklobouk": 8696,
      "!!": 8697,
      "chni": 8698,
      "Ġvec": 8699,
      "nus": 8700,
      "Ġmozku": 8701,
      "ĠDvÄĽ": 8702,
      "bilo": 8703,
      "pajÃŃ": 8704,
      "ĠstraÅ¡nÃ½": 8705,
      "ĠdlouhÃ½m": 8706,
      "ĠvÅ¡emo": 8707,
      "ĠspÃ¡su": 8708,
      "skot": 8709,
      "AXABCB": 8710,
      "Ġtrap": 8711,
      "Ġsady": 8712,
      "ĠteplÃ©": 8713,
      "Ġmiliony": 8714,
      "ĠsnoubÃŃ": 8715,
      "ADD": 8716,
      "ĠnkÅ¯": 8717,
      "lostÃŃ": 8718,
      "Ġiro": 8719,
      "Ġidy": 8720,
      "ĠpaÅ¾e": 8721,
      "Ġnejen": 8722,
      "ĠcÃŃtit": 8723,
      "Ġmlhou": 8724,
      "ĠsilnÄĽ": 8725,
      "ĠuklÃ¡": 8726,
      "Ġkameny": 8727,
      "ĠstvoÅĻil": 8728,
      "sÃ¡m": 8729,
      "ĠjeseÅĪ": 8730,
      "lom": 8731,
      "ĠÄįna": 8732,
      "vÄĽzd": 8733,
      "ĠÃŃzy": 8734,
      "nuje": 8735,
      "Ġrozva": 8736,
      "ĠOj": 8737,
      "ĠstraÅ¡nÃ©": 8738,
      "ĠklidnÃ©": 8739,
      "ĠdÃ¡vnÃ½": 8740,
      "penÃ©": 8741,
      "ĠnevdÄĽ": 8742,
      "ĠStarÃ½": 8743,
      "ĠPoslednÃŃ": 8744,
      "Ġuc": 8745,
      "ĠStÅĻe": 8746,
      "Ġcizo": 8747,
      "ĠotÅĻÃ¡": 8748,
      "ĠzachrÃ¡": 8749,
      "ĠchraÅĪ": 8750,
      "ĠnejlepÅ¡ÃŃ": 8751,
      "rmu": 8752,
      "Ġjesky": 8753,
      "Ġcvr": 8754,
      "Ġvyjde": 8755,
      "Ġlip": 8756,
      "XAXAXX": 8757,
      "Äįinou": 8758,
      "ĠdÃŃvat": 8759,
      "ĠNeu": 8760,
      "ĠÅ¡ek": 8761,
      "ĠvÃ½so": 8762,
      "prve": 8763,
      "ĠvlÃ¡dce": 8764,
      "ĠÅ¡Å¥astnÃ©": 8765,
      "Ġzraje": 8766,
      "Ġkletba": 8767,
      "srd": 8768,
      "Ġsmo": 8769,
      "emi": 8770,
      "Ġhl": 8771,
      "ĠnachÃ½": 8772,
      "ĠÄĽhy": 8773,
      "ĠvyrÅ¯": 8774,
      "toma": 8775,
      "ĠnÃ¡po": 8776,
      "zela": 8777,
      "ĠmÄĽÅ¡Å¥": 8778,
      "Ġzaslech": 8779,
      "ĠÅłÅ¥": 8780,
      "Ġpolibek": 8781,
      "ĠzalÃŃ": 8782,
      "ana": 8783,
      "Ã¡jem": 8784,
      "Ã©l": 8785,
      "ĠÃ¡tu": 8786,
      "Ġtichem": 8787,
      "Ġtahy": 8788,
      "Ġpravila": 8789,
      "ĠpÅĻÃŃsnÃ½": 8790,
      "beni": 8791,
      "ĠzÅ¯stane": 8792,
      "ĠskvÄĽlÃ½": 8793,
      "koliv": 8794,
      "ĠhedbÃ¡": 8795,
      "nskÃ½": 8796,
      "ovi": 8797,
      "ĠidÃ©": 8798,
      "Ġzanech": 8799,
      "ĠmÃŃÅĻÃŃ": 8800,
      "ĠRci": 8801,
      "ĠslÃ¡b": 8802,
      "ĠmrÃ¡ko": 8803,
      "Ġlampa": 8804,
      "ĠdÄĽlat": 8805,
      "ĠkolÃ©bky": 8806,
      "Ġvni": 8807,
      "Ġvstala": 8808,
      "Ġhmy": 8809,
      "skvÄĽ": 8810,
      "ĠÃ¡ku": 8811,
      "ĠetÅ¯": 8812,
      "ĠÄĽho": 8813,
      "Ġlehou": 8814,
      "ĠpÅĻeje": 8815,
      "ĠbohÅ¯m": 8816,
      "ĠmÃ¡l": 8817,
      "ĠzemÅĻel": 8818,
      "Ġstanu": 8819,
      "ĠpÃŃsek": 8820,
      "Ġkousek": 8821,
      "ĠÅĻÃ¡s": 8822,
      "rozenÃŃ": 8823,
      "ĠCelÃ½": 8824,
      "ĠdÅ¯stoj": 8825,
      "ĠvzlÃ©t": 8826,
      "ĠrozvÃŃ": 8827,
      "Ġpavou": 8828,
      "ĠpÅĻedkÅ¯": 8829,
      "ĠzÃ¡vod": 8830,
      "Ġhloubky": 8831,
      "ĠKterÃ½": 8832,
      "ĠpoÅ¾ehnÃ¡": 8833,
      "ĠOtÄįe": 8834,
      "nam": 8835,
      "Ġboky": 8836,
      "Ġprale": 8837,
      "ĠemÃ¡": 8838,
      "ĠVese": 8839,
      "Ġbah": 8840,
      "ĠkrajÅ¯": 8841,
      "ĠmoudÅĻe": 8842,
      "ĠKriste": 8843,
      "ĠvÄįely": 8844,
      "ĠusmÃ¡l": 8845,
      "Ġmam": 8846,
      "ĠudÃ¡": 8847,
      "vÃ¡na": 8848,
      "ĠniÄįem": 8849,
      "ĠjÃŃz": 8850,
      "pej": 8851,
      "ĠDokud": 8852,
      "ĠtichÃ½ch": 8853,
      "ĠtÃ½Å¾": 8854,
      "Ġvezdy": 8855,
      "ĠvÄĽÅĻte": 8856,
      "ĠrudÃ½m": 8857,
      "ĠNikdy": 8858,
      "lali": 8859,
      "ĠÃ¡mÄĽ": 8860,
      "jev": 8861,
      "Ġpronik": 8862,
      "vejte": 8863,
      "ĠdÄĽlo": 8864,
      "ĠzeÅĪ": 8865,
      "Ġresi": 8866,
      "ĠmnozÃŃ": 8867,
      "ĠpotkÃ¡": 8868,
      "Ġstatky": 8869,
      "hlÃ½ch": 8870,
      "kvÄĽt": 8871,
      "ĠJez": 8872,
      "ĠplnÃ©m": 8873,
      "ĠkrutÃ¡": 8874,
      "Ġzbyla": 8875,
      "ĠfarÃ¡ÅĻ": 8876,
      "ĠtkvÃŃ": 8877,
      "Ġmha": 8878,
      "ĠÃ¡lÃ¡": 8879,
      "ĠdÃŃtek": 8880,
      "Ġpodal": 8881,
      "ĠkouÅĻ": 8882,
      "ĠkeÅĻi": 8883,
      "Ġgro": 8884,
      "ĠoblakÅ¯": 8885,
      "ĠvolÃ¡m": 8886,
      "Ġvrchol": 8887,
      "ĠsluneÄįnÃŃ": 8888,
      "ĠsÃŃmÄĽ": 8889,
      "Ġchvatem": 8890,
      "Ġtci": 8891,
      "Ġchalu": 8892,
      "Ġdon": 8893,
      "ĠÅ¡al": 8894,
      "ĠvÄĽdÄĽt": 8895,
      "tati": 8896,
      "Ġsoko": 8897,
      "Ġnepla": 8898,
      "Ġsup": 8899,
      "Ġgene": 8900,
      "ĠstÄĽÅ¾ÃŃ": 8901,
      "ĠbrÃ¡nu": 8902,
      "ĠsmÃ¡t": 8903,
      "ĠkrÃ¡lovna": 8904,
      "ĠpÃ½chou": 8905,
      "ĠsbÃŃrÃ¡": 8906,
      "cÃ©": 8907,
      "ĠvÄĽdomÃŃ": 8908,
      "ĠvyÅ¡li": 8909,
      "ĠÅ¾ivou": 8910,
      "ĠdobrÃ½m": 8911,
      "venÃ¡": 8912,
      "ĠstÅĻÃŃbrnÃ½": 8913,
      "ĠveÅ¡ker": 8914,
      "ĠÃ½ma": 8915,
      "ÄįnÃ©ho": 8916,
      "lÃ¡ch": 8917,
      "Ġchvo": 8918,
      "ĠvÄĽÄı": 8919,
      "ĠkomÃŃ": 8920,
      "ĠvyÄįÃŃ": 8921,
      "rii": 8922,
      "ĠpustÃ¡": 8923,
      "zali": 8924,
      "Ġnepohnu": 8925,
      "ĠvzrÅ¯stÃ¡": 8926,
      "Ġvas": 8927,
      "Ġdmou": 8928,
      "ĠZÅĻÃŃ": 8929,
      "Ġhromy": 8930,
      "ĠmodrÃ½m": 8931,
      "ĠzÅĻÃŃdka": 8932,
      "ĠÅĻekli": 8933,
      "Ġpolibky": 8934,
      "ĠspanilÃ¡": 8935,
      "ĠZik": 8936,
      "ki": 8937,
      "Å¡nÃ¡": 8938,
      "skat": 8939,
      "ĠAh": 8940,
      "Ġrodnou": 8941,
      "ĠkoÅĻÃŃ": 8942,
      "Ġvzcho": 8943,
      "Ġlije": 8944,
      "ĠHrÅ¯": 8945,
      "ĠnÃŃtÃŃ": 8946,
      "ĠÅ¡ed": 8947,
      "Ġreka": 8948,
      "Ġneur": 8949,
      "ĠÅĻadÄĽ": 8950,
      "Ġrozply": 8951,
      "ĠzkamenÄĽ": 8952,
      "ĠÅłÅ¥ast": 8953,
      "Ġad": 8954,
      "ĠbnÃ©": 8955,
      "ĠudÄĽla": 8956,
      "ĠvztÃ½": 8957,
      "ĠskÅ¯": 8958,
      "Ġdivem": 8959,
      "ĠohÅ¯": 8960,
      "Ġvraha": 8961,
      "ĠsterÃ©": 8962,
      "Ġskok": 8963,
      "ĠbojÅ¯": 8964,
      "ĠÄĮechÅ¯": 8965,
      "ĠkvÃŃtÃŃm": 8966,
      "Ġskryl": 8967,
      "ĠvÅĻele": 8968,
      "ĠslouÅ¾ÃŃ": 8969,
      "ĠLÃ¡sky": 8970,
      "ĠKterÃ¡": 8971,
      "ĠnebezpeÄįÃŃ": 8972,
      "AXAA": 8973,
      "ĠÃ¡kÃ¡": 8974,
      "ĠrojÃŃ": 8975,
      "Ġhol": 8976,
      "ĠMus": 8977,
      "ĠsvÄĽÅ¾e": 8978,
      "Ġdivou": 8979,
      "ĠpukÃ¡": 8980,
      "Ġmrav": 8981,
      "plnÃ©": 8982,
      "Ġvezmi": 8983,
      "ĠÅ¾ehnÃ¡": 8984,
      "ĠmÄĽsÃŃci": 8985,
      "Ġlilie": 8986,
      "ĠkoÅĻeny": 8987,
      "ĠnejdraÅ¾Å¡ÃŃ": 8988,
      "chan": 8989,
      "ĠadÅ¯": 8990,
      "Ġvysla": 8991,
      "ĠtiÅ¡i": 8992,
      "ĠnÄĽhou": 8993,
      "ĠstaletÃŃ": 8994,
      "ĠfrÃ¡": 8995,
      "ĠhrÃ¡la": 8996,
      "Ġkniha": 8997,
      "heÅĪ": 8998,
      "ĠAndÄĽl": 8999,
      "ĠzaÄįne": 9000,
      "ĠvlÃŃdnÃ½": 9001,
      "ĠzvlÃ¡Å¡tÄĽ": 9002,
      "22": 9003,
      "bas": 9004,
      "ĠsbÄĽ": 9005,
      "Ġsej": 9006,
      "ĠnedÅ¯": 9007,
      "ĠetÄĽ": 9008,
      "vaÅ¥": 9009,
      "Ġrozkaz": 9010,
      "ĠnÃ¡sil": 9011,
      "ĠsÃŃnÃŃ": 9012,
      "ĠÅ¯le": 9013,
      "Ġvolnosti": 9014,
      "ĠÅ¡Å¥astni": 9015,
      "ĠpÄĽknÃ½": 9016,
      "Ġzvedne": 9017,
      "ĠhlÃŃdÃ¡": 9018,
      "Ġschy": 9019,
      "ĠslÃ©t": 9020,
      "Å¾nÃŃ": 9021,
      "mÃŃru": 9022,
      "ĠkvÄĽte": 9023,
      "AADD": 9024,
      "Ġzvukem": 9025,
      "ĠVÃŃtÄĽz": 9026,
      "ĠVlasti": 9027,
      "ĠLucy": 9028,
      "ĠpÅĻÃ¡telstvÃŃ": 9029,
      "ĠknÄĽÅ¾na": 9030,
      "ĠmlÃ¡deÅ¾": 9031,
      "ĠkoÅ¡": 9032,
      "ĠZvu": 9033,
      "Ġstavu": 9034,
      "Ġdivu": 9035,
      "ĠdivÃ½m": 9036,
      "ĠkÅĻiku": 9037,
      "Ġbledne": 9038,
      "ĠslavnÃ¡": 9039,
      "ĠodeÅ¡el": 9040,
      "ĠzaÅ¡u": 9041,
      "ĠPÅĻemy": 9042,
      "ĠzÃ¡stupy": 9043,
      "eru": 9044,
      "Ġjedova": 9045,
      "ĠnevrÃ¡tÃŃ": 9046,
      "Ġesi": 9047,
      "ĠSpÃŃ": 9048,
      "Ġyta": 9049,
      "ĠpodlÃ©": 9050,
      "brat": 9051,
      "Ġslunka": 9052,
      "Ġknize": 9053,
      "ĠNÃ¡s": 9054,
      "ĠAnto": 9055,
      "ĠStÃ¡l": 9056,
      "ĠkÅĻiÅ¡Å¥Ã¡": 9057,
      "AAABB": 9058,
      "XXAX": 9059,
      "lesti": 9060,
      "ĠzabÃŃ": 9061,
      "ĠvÄĽjÃŃ": 9062,
      "ĠzÃ¡po": 9063,
      "Ġdin": 9064,
      "ĠsÃŃtÃŃ": 9065,
      "Ġbranou": 9066,
      "Ġhrady": 9067,
      "ĠblÃŃzku": 9068,
      "Ġplamenem": 9069,
      "Ġrakvi": 9070,
      "ĠslyÅ¡te": 9071,
      "Ġrozumu": 9072,
      "th": 9073,
      "tkou": 9074,
      "vlnÄĽ": 9075,
      "ĠneÄįi": 9076,
      "ĠvÃŃsky": 9077,
      "Ġske": 9078,
      "Ġnejd": 9079,
      "ĠprÃ¡vu": 9080,
      "Ġpadlo": 9081,
      "Ġkruhy": 9082,
      "ĠumÅĻÃŃt": 9083,
      "Ġtrysk": 9084,
      "ĠvzplÃ¡l": 9085,
      "Ġvzadu": 9086,
      "ĠÃ¡Å¡Å¥": 9087,
      "ĠÅ¡ve": 9088,
      "ĠZam": 9089,
      "ĠpÃ¡t": 9090,
      "Ġsamy": 9091,
      "vedli": 9092,
      "ĠjednotvÃ¡": 9093,
      "Ġuml": 9094,
      "ĠpÅĻÃŃÅ¡tÃŃch": 9095,
      "ĠkvÄĽtiny": 9096,
      "ĠzamyÅ¡len": 9097,
      "rnÃ©ho": 9098,
      "ĠtlÃŃ": 9099,
      "Ġunu": 9100,
      "ĠÅĻeku": 9101,
      "ÅĻÃ¡d": 9102,
      "Ġneznal": 9103,
      "ĠvÅ¯lÃŃ": 9104,
      "Ġstrast": 9105,
      "Ġdivnou": 9106,
      "ĠhrÅ¯z": 9107,
      "ĠubohÃ½": 9108,
      "Ġrostla": 9109,
      "Ġvyhna": 9110,
      "Ġchrab": 9111,
      "Ġchasa": 9112,
      "ĠpastÃ½ÅĻ": 9113,
      "ĠhospodÃ¡ÅĻ": 9114,
      "bce": 9115,
      "rag": 9116,
      "rati": 9117,
      "Ġzane": 9118,
      "ĠhojnÄĽ": 9119,
      "ĠpÅĻeko": 9120,
      "ĠvÃ¡hÃ¡": 9121,
      "mon": 9122,
      "Ġdie": 9123,
      "Ġdlouze": 9124,
      "ĠptÃ¡ky": 9125,
      "Ġstup": 9126,
      "Ġaneb": 9127,
      "ĠGa": 9128,
      "Ġzmije": 9129,
      "ĠzrÃ¡dce": 9130,
      "Ġfilo": 9131,
      "ĠPÅĻÃŃro": 9132,
      "ACDD": 9133,
      "Ġloktech": 9134,
      "ĠMaÄıar": 9135,
      "ent": 9136,
      "ĠTvÃ½m": 9137,
      "Ġrky": 9138,
      "ĠPet": 9139,
      "Ġlest": 9140,
      "Ġmozek": 9141,
      "ĠÃºdÄĽl": 9142,
      "ĠzasvÄĽ": 9143,
      "Ġsynem": 9144,
      "Ġokovy": 9145,
      "padne": 9146,
      "ĠzloÄįin": 9147,
      "ĠChtÄĽ": 9148,
      "ĠPanÃŃ": 9149,
      "ĠzulÃŃ": 9150,
      "ckÃ©ho": 9151,
      "ĠzkuÅ¡en": 9152,
      "Ġpase": 9153,
      "ĠptÃ¡m": 9154,
      "chra": 9155,
      "ĠmÅ¡i": 9156,
      "Ġdor": 9157,
      "ĠÃŃdÃŃ": 9158,
      "ĠÄįej": 9159,
      "ĠdlouhÃ©m": 9160,
      "ĠveÄįeru": 9161,
      "Å¡uje": 9162,
      "Ġodo": 9163,
      "ĠoÄįÃŃm": 9164,
      "ĠKÅĻÃŃ": 9165,
      "ĠZdrÃ¡": 9166,
      "Ġtakou": 9167,
      "ĠvÃŃÅĻe": 9168,
      "ĠObra": 9169,
      "ĠlÃ¡d": 9170,
      "ĠmÃŃjÃŃ": 9171,
      "ĠtÅĻÃŃÅ¡tÃŃ": 9172,
      "AAXXBB": 9173,
      "ĠpÃ½chu": 9174,
      "ĠtÅĻÃ¡s": 9175,
      "ĠjitÅĻnÃŃ": 9176,
      "Ġpnou": 9177,
      "Ġnehle": 9178,
      "Ġzab": 9179,
      "nÃ©st": 9180,
      "vÃ¡no": 9181,
      "Ġrval": 9182,
      "Ġvyrost": 9183,
      "vina": 9184,
      "ĠmÄĽs": 9185,
      "Ġskrov": 9186,
      "ĠkrÃ¡lo": 9187,
      "Ġtemnu": 9188,
      "ĠhravÄĽ": 9189,
      "Ġkdybys": 9190,
      "Ġoblohy": 9191,
      "ĠvÄĽzenÃŃ": 9192,
      "ĠzaznÄĽl": 9193,
      "ĠnÃ©st": 9194,
      "stÅĻi": 9195,
      "ĠuhÃ©": 9196,
      "nÄĽt": 9197,
      "neb": 9198,
      "ĠepÃ½": 9199,
      "Ġprob": 9200,
      "Ġprok": 9201,
      "Ġprachem": 9202,
      "ĠpalÄįi": 9203,
      "ĠKrÃ¡lov": 9204,
      "ĠzvÃŃtÄĽ": 9205,
      "ĠokamÅ¾enÃŃ": 9206,
      "ĠvÅĻava": 9207,
      "Ġholubice": 9208,
      "ĠncÅ¯": 9209,
      "Ġdoho": 9210,
      "Ġtor": 9211,
      "Ġtoli": 9212,
      "ĠctÄĽ": 9213,
      "ĠÄĽnu": 9214,
      "Ġduje": 9215,
      "stit": 9216,
      "Ġskou": 9217,
      "Ġvous": 9218,
      "cos": 9219,
      "ĠKone": 9220,
      "ĠÅ¡tÃŃty": 9221,
      "ĠVÄĽru": 9222,
      "Ġkmeny": 9223,
      "ĠPravda": 9224,
      "zdÃŃ": 9225,
      "Ġvydal": 9226,
      "ĠmÃ¡je": 9227,
      "ĠÅ¡edou": 9228,
      "tri": 9229,
      "ĠstejnÃ©": 9230,
      "coval": 9231,
      "Ġmrtvou": 9232,
      "ĠmarnÃ¡": 9233,
      "ĠnÄĽkte": 9234,
      "cÃŃmi": 9235,
      "ĠVidÄĽl": 9236,
      "ĠdÄĽvÄįÃ¡": 9237,
      "Ġlebky": 9238,
      "Ġsever": 9239,
      "ĠdeÅ¡tÄĽm": 9240,
      "sÅ¡ÃŃ": 9241,
      "Ġpoj": 9242,
      "ĠÅ¾a": 9243,
      "ĠihÃ¡": 9244,
      "ĠÄįkÃ¡": 9245,
      "ĠBlesk": 9246,
      "ĠpÅĻim": 9247,
      "ĠsnÄĽhy": 9248,
      "Ġanebo": 9249,
      "ctvo": 9250,
      "ĠchvÃ¡lÃŃ": 9251,
      "Ġzvyku": 9252,
      "ĠpoÅ¾ehna": 9253,
      "chÃ¡zejÃŃ": 9254,
      "Äįata": 9255,
      "jetÃŃ": 9256,
      "Ġvih": 9257,
      "ĠzpÃŃvajÃŃ": 9258,
      "Ġpivo": 9259,
      "ĠumÅĻel": 9260,
      "Ġchmury": 9261,
      "ĠRychle": 9262,
      "zpÄĽ": 9263,
      "chej": 9264,
      "ÄįkÃ½": 9265,
      "raÅ¾en": 9266,
      "ĠjakÃ½m": 9267,
      "ĠleÅ¥": 9268,
      "ĠdÃŃvÃ¡m": 9269,
      "ĠyzÃŃ": 9270,
      "Ġnepra": 9271,
      "ĠplachÃ©": 9272,
      "ĠPrvnÃŃ": 9273,
      "Ġzmatek": 9274,
      "vskÃ©": 9275,
      "ÅĻin": 9276,
      "ĠÄĽkÃ¡": 9277,
      "vÃ©mu": 9278,
      "ĠvÄĽÅĻil": 9279,
      "Ġvznik": 9280,
      "Äįeje": 9281,
      "Ġnemy": 9282,
      "ĠchuÄıas": 9283,
      "ĠÃ½ÅĻÃŃ": 9284,
      "ĠptÃ¡Äįek": 9285,
      "ĠsuchÃ½": 9286,
      "Ġpoklo": 9287,
      "ĠveselÃ©": 9288,
      "ĠsmyslÅ¯": 9289,
      "ĠTat": 9290,
      "Ġnie": 9291,
      "ĠtÅĻesk": 9292,
      "ÅĻemen": 9293,
      "ĠstÅĻela": 9294,
      "ĠhvÄĽzdnÃ½": 9295,
      "ĠvÅĻelÃ©": 9296,
      "Ġblouzni": 9297,
      "ĠÅ¾lutÃ½": 9298,
      "ĠpestrÃ½ch": 9299,
      "ĠzaÅ¡lÃ©": 9300,
      "ĠjakÃ¡s": 9301,
      "ĠzbabÄĽ": 9302,
      "ĠdÃ³": 9303,
      "livou": 9304,
      "Ġzava": 9305,
      "voru": 9306,
      "tavÃ½": 9307,
      "ĠÃºko": 9308,
      "ĠpÃ¡du": 9309,
      "Å¡enÃŃm": 9310,
      "ĠPÃ¡na": 9311,
      "jatÃ©": 9312,
      "ĠboÅ¾stvÃŃ": 9313,
      "knout": 9314,
      "Å¡nou": 9315,
      "Ġpose": 9316,
      "Ġuvad": 9317,
      "ĠÃ¡ta": 9318,
      "Ġca": 9319,
      "Ġhostem": 9320,
      "Ġvzor": 9321,
      "Ġrozhod": 9322,
      "pÄĽtÃŃ": 9323,
      "Ġpospo": 9324,
      "ĠzrÃ¡d": 9325,
      "ĠzdrÃ¡va": 9326,
      "ĠuÅ¡lechtil": 9327,
      "ĠpÅĻen": 9328,
      "ĠmÅ¯": 9329,
      "Ġjedu": 9330,
      "tickÃ½": 9331,
      "ĠÃŃni": 9332,
      "Ġrtoma": 9333,
      "ĠrozpÃ¡": 9334,
      "Ġsit": 9335,
      "Ġtaji": 9336,
      "ĠÄįlovÄĽÄįen": 9337,
      "ĠstÅĻÃŃbra": 9338,
      "ĠblÃ¡ho": 9339,
      "Ġobloha": 9340,
      "Ġkvas": 9341,
      "ĠbohynÄĽ": 9342,
      "ĠhÅ¯ry": 9343,
      "Ġzpra": 9344,
      "nÄĽnÃ¡": 9345,
      "ĠÃ¡lÅ¯": 9346,
      "nÃ¡ÅĻ": 9347,
      "ĠSvÅ¯j": 9348,
      "Ġobsa": 9349,
      "ĠbÄĽs": 9350,
      "ĠdÄĽtskÃ½ch": 9351,
      "Ġvadne": 9352,
      "ĠChceÅ¡": 9353,
      "ĠhoroucÃŃ": 9354,
      "paly": 9355,
      "ĠdbÃ¡": 9356,
      "ĠpoÅ¡e": 9357,
      "Ġponu": 9358,
      "Ġpronika": 9359,
      "dan": 9360,
      "Ġmus": 9361,
      "ĠtiÅ¡": 9362,
      "ĠpÅĻiblÃŃ": 9363,
      "Ġnemu": 9364,
      "ĠbÄĽlou": 9365,
      "Ġpohla": 9366,
      "ĠsedlÃ¡": 9367,
      "ĠNeÅ¾li": 9368,
      "Ġhovoru": 9369,
      "ĠnadÅ¡enÃŃm": 9370,
      "ĠznamenÃ¡": 9371,
      "klen": 9372,
      "Ġzry": 9373,
      "ĠnahÃ©": 9374,
      "ĠÃŃdu": 9375,
      "lym": 9376,
      "Ġcka": 9377,
      "Ġledu": 9378,
      "stalo": 9379,
      "ĠNaÅ¡e": 9380,
      "ĠÄįisto": 9381,
      "ĠchutÃŃ": 9382,
      "ĠluznÃ©": 9383,
      "zujÃŃ": 9384,
[...]
