{
  "version": "1.0",
  "truncation": null,
  "padding": null,
  "added_tokens": [
    {
      "id": 0,
      "content": "<|endoftext|>",
      "single_word": false,
      "lstrip": false,
      "rstrip": false,
      "normalized": false,
      "special": true
    }
  ],
  "normalizer": null,
  "pre_tokenizer": {
    "type": "ByteLevel",
    "add_prefix_space": false,
    "trim_offsets": true,
    "use_regex": true
  },
  "post_processor": {
    "type": "ByteLevel",
    "add_prefix_space": true,
    "trim_offsets": false,
    "use_regex": true
  },
  "decoder": {
    "type": "ByteLevel",
    "add_prefix_space": true,
    "trim_offsets": true,
    "use_regex": true
  },
  "model": {
    "type": "BPE",
    "dropout": null,
    "unk_token": null,
    "continuing_subword_prefix": null,
    "end_of_word_suffix": null,
    "fuse_unk": false,
    "byte_fallback": false,
    "vocab": {
      "<|endoftext|>": 0,
      "!": 1,
      "\"": 2,
      "#": 3,
      "'": 4,
      "(": 5,
      ")": 6,
      "*": 7,
      "+": 8,
      ",": 9,
      "-": 10,
      ".": 11,
      "/": 12,
      "0": 13,
      "1": 14,
      "2": 15,
      "3": 16,
      "4": 17,
      "5": 18,
      "6": 19,
      "7": 20,
      "8": 21,
      "9": 22,
      ":": 23,
      ";": 24,
      "=": 25,
      "?": 26,
      "A": 27,
      "B": 28,
      "C": 29,
      "D": 30,
      "E": 31,
      "F": 32,
      "G": 33,
      "H": 34,
      "I": 35,
      "J": 36,
      "K": 37,
      "L": 38,
      "M": 39,
      "N": 40,
      "O": 41,
      "P": 42,
      "Q": 43,
      "R": 44,
      "S": 45,
      "T": 46,
      "U": 47,
      "V": 48,
      "W": 49,
      "X": 50,
      "Y": 51,
      "Z": 52,
      "[": 53,
      "]": 54,
      "_": 55,
      "`": 56,
      "a": 57,
      "b": 58,
      "c": 59,
      "d": 60,
      "e": 61,
      "f": 62,
      "g": 63,
      "h": 64,
      "i": 65,
      "j": 66,
      "k": 67,
      "l": 68,
      "m": 69,
      "n": 70,
      "o": 71,
      "p": 72,
      "q": 73,
      "r": 74,
      "s": 75,
      "t": 76,
      "u": 77,
      "v": 78,
      "w": 79,
      "x": 80,
      "y": 81,
      "z": 82,
      "¡": 83,
      "¢": 84,
      "¤": 85,
      "¥": 86,
      "¦": 87,
      "§": 88,
      "¨": 89,
      "©": 90,
      "ª": 91,
      "«": 92,
      "®": 93,
      "¯": 94,
      "²": 95,
      "³": 96,
      "´": 97,
      "¶": 98,
      "¹": 99,
      "º": 100,
      "»": 101,
      "¼": 102,
      "½": 103,
      "¾": 104,
      "Á": 105,
      "Â": 106,
      "Ã": 107,
      "Ä": 108,
      "Å": 109,
      "Í": 110,
      "Ï": 111,
      "Ó": 112,
      "Ö": 113,
      "Ú": 114,
      "Ü": 115,
      "á": 116,
      "â": 117,
      "é": 118,
      "í": 119,
      "ó": 120,
      "ú": 121,
      "ü": 122,
      "ý": 123,
      "Ċ": 124,
      "Č": 125,
      "č": 126,
      "Ď": 127,
      "ď": 128,
      "ě": 129,
      "Ġ": 130,
      "Ģ": 131,
      "ģ": 132,
      "Ĥ": 133,
      "Ħ": 134,
      "ħ": 135,
      "Ĩ": 136,
      "ĩ": 137,
      "Ī": 138,
      "ī": 139,
      "Ĭ": 140,
      "Į": 141,
      "į": 142,
      "İ": 143,
      "ı": 144,
      "Ĵ": 145,
      "ĵ": 146,
      "Ķ": 147,
      "ĸ": 148,
      "ĺ": 149,
      "Ļ": 150,
      "ļ": 151,
      "Ľ": 152,
      "ľ": 153,
      "Ŀ": 154,
      "ŀ": 155,
      "Ł": 156,
      "ł": 157,
      "Ń": 158,
      "Ň": 159,
      "ň": 160,
      "Ř": 161,
      "ř": 162,
      "Š": 163,
      "š": 164,
      "Ť": 165,
      "ť": 166,
      "ů": 167,
      "Ž": 168,
      "ž": 169,
      "ÃŃ": 170,
      "Ã¡": 171,
      "Ġs": 172,
      "ÄĽ": 173,
      "Ġv": 174,
      "Ġp": 175,
      "Å¾": 176,
      "Ġn": 177,
      "ch": 178,
      "Ġj": 179,
      "Å¡": 180,
      "Ġt": 181,
      "Ġz": 182,
      "ÅĻ": 183,
      "Ã½": 184,
      "Ã©": 185,
      "Ġm": 186,
      "ou": 187,
      "Ġk": 188,
      "Ġd": 189,
      "Äį": 190,
      "la": 191,
      "st": 192,
      "en": 193,
      "Ġb": 194,
      "âĢ": 195,
      "le": 196,
      "ĊĊ": 197,
      "ak": 198,
      "em": 199,
      "ro": 200,
      "Ġse": 201,
      "Ġh": 202,
      "Å¯": 203,
      "ra": 204,
      "Ġo": 205,
      "li": 206,
      "Ġa": 207,
      "Ġpo": 208,
      "rÃ¡": 209,
      "Ġje": 210,
      "nÃŃ": 211,
      "lo": 212,
      "Ġne": 213,
      "ÅĻe": 214,
      "ĠâĢ": 215,
      "ce": 216,
      "nÄĽ": 217,
      "Ġna": 218,
      "vÄĽ": 219,
      "ĠâĢĵ": 220,
      "ne": 221,
      "Ġst": 222,
      "ÅĻÃŃ": 223,
      "va": 224,
      "Å¡e": 225,
      "na": 226,
      "dy": 227,
      "sk": 228,
      "ĠÅ¾": 229,
      "lÃ¡": 230,
      "ho": 231,
      "ru": 232,
      "nÃ½": 233,
      "de": 234,
      "je": 235,
      "te": 236,
      "Ġza": 237,
      "ti": 238,
      "vo": 239,
      "lu": 240,
      "nÃ©": 241,
      "no": 242,
      "vÃ¡": 243,
      "lÃŃ": 244,
      "ÅĻi": 245,
      "Ġch": 246,
      "jÃŃ": 247,
      "ko": 248,
      "ka": 249,
      "vÃ©": 250,
      "Ġdo": 251,
      "vÃŃ": 252,
      "ni": 253,
      "Ġu": 254,
      "ĠÄį": 255,
      "..": 256,
      "Ġto": 257,
      "tÄĽ": 258,
      "nÃ¡": 259,
      "po": 260,
      "tÃŃ": 261,
      "ly": 262,
      "do": 263,
      "Ġby": 264,
      "ci": 265,
      "nou": 266,
      "ku": 267,
      "ky": 268,
      "Ã½ch": 269,
      "Ġjak": 270,
      "Ġji": 271,
      "Å¥": 272,
      "Ã¡m": 273,
      "Ġjs": 274,
      "il": 275,
      "Ġro": 276,
      "al": 277,
      "Ġve": 278,
      "ÃŃm": 279,
      "to": 280,
      "se": 281,
      "nu": 282,
      "Å¾e": 283,
      "am": 284,
      "cÃŃ": 285,
      "dÄĽ": 286,
      "Ã½m": 287,
      "ĠÅ¡": 288,
      "at": 289,
      "Ġpro": 290,
      "âĢľ": 291,
      "lÃ©": 292,
      "Ġho": 293,
      "by": 294,
      "ar": 295,
      "Ġmo": 296,
      "Ġko": 297,
      "Ġle": 298,
      "Ġvz": 299,
      "vÄĽt": 300,
      "ve": 301,
      "ĠvÄĽ": 302,
      "du": 303,
      "mu": 304,
      "vi": 305,
      "Ġvy": 306,
      "as": 307,
      "di": 308,
      "ji": 309,
      "Ġmi": 310,
      "Å¡ÃŃ": 311,
      "co": 312,
      "lou": 313,
      "ny": 314,
      "Ġdu": 315,
      "Ġr": 316,
      "Ġjen": 317,
      "Äįe": 318,
      "sti": 319,
      "dÃ¡": 320,
      "da": 321,
      "ÅĪ": 322,
      "ĠpÅĻe": 323,
      "ÄįÃŃ": 324,
      "rd": 325,
      "...": 326,
      "kÃ¡": 327,
      "dÃŃ": 328,
      "Äı": 329,
      "Ġbo": 330,
      "Ġroz": 331,
      "Ġmu": 332,
      "mÄĽ": 333,
      "be": 334,
      "jak": 335,
      "ĠnÃ¡": 336,
      "ta": 337,
      "ĠtÄĽ": 338,
      "âĢŀ": 339,
      "ĠÅ¾e": 340,
      "tÃ¡": 341,
      "Ġni": 342,
      "vou": 343,
      "dyÅ¾": 344,
      "Ġti": 345,
      "mÃŃ": 346,
      "ĠvÅ¡e": 347,
      "Ġno": 348,
      "Ġjsem": 349,
      "Äįi": 350,
      "Å¾ÃŃ": 351,
      "ze": 352,
      "ĠÅ¾i": 353,
      "ĠzÃ¡": 354,
      "vy": 355,
      "ĠvÃŃ": 356,
      "bo": 357,
      "Ġli": 358,
      "ry": 359,
      "Å¡i": 360,
      "ĠdÃ¡": 361,
      "ĠnÄĽ": 362,
      "Ġsp": 363,
      "Ġhla": 364,
      "ĠÄįe": 365,
      "mi": 366,
      "Ġob": 367,
      "enÃŃ": 368,
      "Å¯j": 369,
      "ĠÃ": 370,
      "me": 371,
      "vu": 372,
      "Ġi": 373,
      "Ġsrd": 374,
      "Å¡ak": 375,
      "Ġtak": 376,
      "Ġtu": 377,
      "Ġpa": 378,
      "ĠkrÃ¡": 379,
      "Ġte": 380,
      "Ġru": 381,
      "Ġod": 382,
      "ĠsvÃ©": 383,
      "Ġbu": 384,
      "ĠmÄĽ": 385,
      "Ġsi": 386,
      "tu": 387,
      "bÄĽ": 388,
      "âĢĻ": 389,
      "ĠÃº": 390,
      "ĠdÄĽ": 391,
      "ĠpÅĻi": 392,
      "Ġco": 393,
      "sta": 394,
      "ha": 395,
      "lad": 396,
      "Ġpr": 397,
      "Ġvo": 398,
      "Ġsk": 399,
      "stÃŃ": 400,
      "ĠsvÄĽt": 401,
      "ez": 402,
      "lÃ½": 403,
      "Ġpra": 404,
      "ma": 405,
      "nÃ½ch": 406,
      "ĠmÃ¡": 407,
      "mo": 408,
      "Ġce": 409,
      "pÄĽ": 410,
      "ĠlÃ¡": 411,
      "kou": 412,
      "sÃŃ": 413,
      "Ġta": 414,
      "Ne": 415,
      "si": 416,
      "bu": 417,
      "Ġka": 418,
      "led": 419,
      "ty": 420,
      "za": 421,
      "kÃ©": 422,
      "vÃ½": 423,
      "hu": 424,
      "pa": 425,
      "pÃŃ": 426,
      "rak": 427,
      "Å¡tÄĽ": 428,
      "len": 429,
      "!âĢľ": 430,
      "ĠdÃŃ": 431,
      "Ġjako": 432,
      "Ġsv": 433,
      "cho": 434,
      "ĠrÃ¡": 435,
      "ĠT": 436,
      "Ġjeho": 437,
      "Å¾i": 438,
      "re": 439,
      "lem": 440,
      "hÃ¡": 441,
      "ĠB": 442,
      "bi": 443,
      "hy": 444,
      "Ġzem": 445,
      "ĠvÃ¡": 446,
      "val": 447,
      "Ġvi": 448,
      "ĠP": 449,
      "rou": 450,
      "Å¾dy": 451,
      "ĠpÅĻÃŃ": 452,
      "kÅ¯": 453,
      "ba": 454,
      "Ġslu": 455,
      "Ġsrdce": 456,
      "chu": 457,
      "ĠV": 458,
      "Na": 459,
      "sa": 460,
      "Ġten": 461,
      "jen": 462,
      "zÃŃ": 463,
      "dou": 464,
      "mÃ¡": 465,
      "Ġjed": 466,
      "Ġra": 467,
      "vat": 468,
      "nÃ½m": 469,
      "Ġty": 470,
      "su": 471,
      "ĠlÃ¡sk": 472,
      "nad": 473,
      "Jak": 474,
      "Ġpod": 475,
      "ĠpÃŃ": 476,
      "kem": 477,
      "ste": 478,
      "my": 479,
      "ĠtÃ©": 480,
      "ĠnÃŃ": 481,
      "Po": 482,
      "ĠÅ¡e": 483,
      "men": 484,
      "Ġtam": 485,
      "ĠjiÅ¾": 486,
      "ĠlÃŃ": 487,
      "sy": 488,
      "Ġnad": 489,
      "ĠS": 490,
      "Ã©m": 491,
      "ĠkdyÅ¾": 492,
      "Ġvla": 493,
      "ĠnÃ¡m": 494,
      "zd": 495,
      "rÃ½": 496,
      "Ġsta": 497,
      "ĠmÃŃ": 498,
      "ĠâĢŀ": 499,
      "rÅ¯": 500,
      "kÃ½": 501,
      "ĠstÃ¡": 502,
      "Ġhro": 503,
      "ĠbÃŃ": 504,
      "Ġpe": 505,
      "Je": 506,
      "Ġbyl": 507,
      "Ġzla": 508,
      "ĠjÃŃ": 509,
      "nes": 510,
      "Ġpla": 511,
      "Ġzas": 512,
      "Ġlid": 513,
      "ÅĻÃ¡": 514,
      "ĠjÃ¡": 515,
      "Ġmy": 516,
      "Ġmne": 517,
      "ĠmÃ©": 518,
      "hou": 519,
      "ĠÅĻe": 520,
      "sto": 521,
      "ĠM": 522,
      "ĠÅ¾ivo": 523,
      "an": 524,
      "rt": 525,
      "Ġso": 526,
      "Ġdi": 527,
      "pu": 528,
      "Ġbez": 529,
      "ĠvÃ½": 530,
      "ĠpÃ¡": 531,
      "Ġkte": 532,
      "nce": 533,
      "skÃ©": 534,
      "ĠprÃ¡": 535,
      "pe": 536,
      "Ġkde": 537,
      "ĠkvÄĽt": 538,
      "ĠK": 539,
      "Ġpou": 540,
      "Ġze": 541,
      "tr": 542,
      "Å¯m": 543,
      "ĠvÅ¡ak": 544,
      "Ġjest": 545,
      "pro": 546,
      "ĠtvÃ¡": 547,
      "vÃ½ch": 548,
      "bou": 549,
      "nem": 550,
      "chÃ¡": 551,
      "Co": 552,
      "ĠA": 553,
      "ÄĮ": 554,
      "ĠpÅĻed": 555,
      "Ġnebe": 556,
      "rÃ©": 557,
      "Ġtou": 558,
      "Ġslo": 559,
      "ĠkaÅ¾": 560,
      "Ġnej": 561,
      "ĠplÃ¡": 562,
      "bÃŃ": 563,
      "Ġsto": 564,
      "kdyÅ¾": 565,
      "ĠÅ¾en": 566,
      "ĠdÃ¡l": 567,
      "tÃ©": 568,
      "kdy": 569,
      "ĠjeÅ¾": 570,
      "Ġsvo": 571,
      "pi": 572,
      "ej": 573,
      "Å½": 574,
      "ĠÄįi": 575,
      "dÄĽl": 576,
      "Ġnes": 577,
      "ĠduÅ¡e": 578,
      "ĠjejÃŃ": 579,
      "hle": 580,
      "ad": 581,
      "nÃ©m": 582,
      "ĠÄįer": 583,
      "kde": 584,
      "Ġc": 585,
      "nÃŃm": 586,
      "Ġpak": 587,
      "Ġkdy": 588,
      "Ġci": 589,
      "cha": 590,
      "Ġpos": 591,
      "Ġjsi": 592,
      "ĠpÄĽ": 593,
      "sem": 594,
      "Ġnem": 595,
      "ri": 596,
      "nÅ¯": 597,
      "ĠuÅ¾": 598,
      "Ġsvou": 599,
      "ĠvÅ¡ech": 600,
      "Ġtom": 601,
      ".âĢľ": 602,
      "Å¾en": 603,
      "Ġdob": 604,
      "ĠhvÄĽ": 605,
      "ĠjeÅ¡tÄĽ": 606,
      "ĠsÃŃ": 607,
      "Ġsla": 608,
      "ĠnÃ¡s": 609,
      "Ġku": 610,
      "vÃ½m": 611,
      "Å¡el": 612,
      "ĠÄįas": 613,
      "Ġdru": 614,
      "tÃ½": 615,
      "tra": 616,
      "Ġma": 617,
      "stu": 618,
      "Ġvel": 619,
      "ĠvÅ¡": 620,
      "pÃ¡": 621,
      "ĠvÅ¾dy": 622,
      "pÅĻe": 623,
      "tem": 624,
      "ĠjenÅ¾": 625,
      "jeÅ¾": 626,
      "ĠnÄĽm": 627,
      "Ġpl": 628,
      "Ġbra": 629,
      "ĠstÃŃ": 630,
      "Ġjej": 631,
      "ĠcÃŃ": 632,
      "Ġnez": 633,
      "Ġkr": 634,
      "ÅĻen": 635,
      "ĠvÅ¯": 636,
      "Ġkra": 637,
      "Tak": 638,
      "ĠduÅ¡i": 639,
      "zy": 640,
      "ĠmÅ¯j": 641,
      "nost": 642,
      "Ġjsou": 643,
      "Ġdra": 644,
      "jem": 645,
      "ĠchvÃŃ": 646,
      "tel": 647,
      "ĠrÅ¯": 648,
      "Ġkle": 649,
      "To": 650,
      "dÃ½": 651,
      "ech": 652,
      "Ġbude": 653,
      "sou": 654,
      "od": 655,
      "Ġbla": 656,
      "ĠbÃ½": 657,
      "stÃ¡": 658,
      "ĠtvÃ©": 659,
      "Ġda": 660,
      "Ġzrak": 661,
      "Ġsy": 662,
      "Ãĵ": 663,
      "Ġvl": 664,
      "ĠJ": 665,
      "Ġlo": 666,
      "Ġhle": 667,
      "stvÃŃ": 668,
      "hla": 669,
      "Ġl": 670,
      "uÅ¾": 671,
      "Ġden": 672,
      "krÃ¡": 673,
      "Ġstar": 674,
      "ĠÅĻÃŃ": 675,
      "Ġstra": 676,
      "Ġsm": 677,
      "hÃ½": 678,
      "Ġva": 679,
      "ĠvÅ¡ec": 680,
      "ĠsvÄĽ": 681,
      "ĠvÄĽÄį": 682,
      "vÅ¡ak": 683,
      "Ġhra": 684,
      "zi": 685,
      "jich": 686,
      "so": 687,
      "nul": 688,
      "Ġpu": 689,
      "nÃ¡m": 690,
      "Ġkdo": 691,
      "ven": 692,
      "vil": 693,
      "dem": 694,
      "jÃ¡": 695,
      "mut": 696,
      "Ġhlu": 697,
      "tak": 698,
      "Za": 699,
      "Ġsou": 700,
      "ĠH": 701,
      "bÃ¡": 702,
      "cen": 703,
      "Ġot": 704,
      "nosti": 705,
      "Ġslad": 706,
      "Ġmod": 707,
      "vÅ¯j": 708,
      "Ġme": 709,
      "ĠÅ¾ivot": 710,
      "Ġsl": 711,
      "Ġsam": 712,
      "ĠbÃ¡": 713,
      "tÃŃm": 714,
      "aÅ¾": 715,
      "Ġzd": 716,
      "Ġzvo": 717,
      "ĠbÄĽ": 718,
      "Ġhu": 719,
      "tek": 720,
      "tou": 721,
      "sÃ¡": 722,
      "til": 723,
      "Do": 724,
      "ĠBo": 725,
      "py": 726,
      "Ġla": 727,
      "snÄĽ": 728,
      "Ġry": 729,
      "jÅ¡ÃŃ": 730,
      "cÃŃch": 731,
      "ĠmnÄĽ": 732,
      "Ġdlou": 733,
      "ĠÅ¾Ã¡": 734,
      "Ġkou": 735,
      "Ġjsme": 736,
      "sÅ¥": 737,
      "ĠkÅĻÃŃ": 738,
      "er": 739,
      "Ġja": 740,
      "Å¯h": 741,
      "Ġnich": 742,
      "ĠteÄı": 743,
      "Ġjas": 744,
      "Ġre": 745,
      "snÃŃ": 746,
      "ĠÅ¡tÄĽ": 747,
      "JÃ¡": 748,
      "lovÄĽ": 749,
      "dla": 750,
      "chy": 751,
      "ĠnenÃŃ": 752,
      "Ġlu": 753,
      "Å¡en": 754,
      "Ġstro": 755,
      "lid": 756,
      "ĠoÄįi": 757,
      "Ġf": 758,
      "vz": 759,
      "Ġspo": 760,
      "Pro": 761,
      "stou": 762,
      "hÃ©": 763,
      "Ġtr": 764,
      "cem": 765,
      "Ġpoh": 766,
      "Ġvra": 767,
      "Ġbych": 768,
      "Äįka": 769,
      "ĠneÅ¾": 770,
      "skÃ½": 771,
      "stÄĽ": 772,
      "zu": 773,
      "ĠlÃ¡sky": 774,
      "Ġbou": 775,
      "Ġslunce": 776,
      "vnÃŃ": 777,
      "Ġbylo": 778,
      "pla": 779,
      "Ġjich": 780,
      "skÃ¡": 781,
      "Ġsvat": 782,
      "Ġmil": 783,
      "kdo": 784,
      "ned": 785,
      "Ġtvo": 786,
      "Ġmat": 787,
      "pr": 788,
      "Ġmno": 789,
      "ĠtÄĽch": 790,
      "Ġpoz": 791,
      "rem": 792,
      "ĠzpÄĽ": 793,
      "nÃ©ho": 794,
      "VÅ¡ak": 795,
      "Ġml": 796,
      "ĠaÅ¾": 797,
      "dÃ©": 798,
      "ĠsÃ¡m": 799,
      "lesk": 800,
      "ĠptÃ¡": 801,
      "Äįen": 802,
      "ĠslÃ¡": 803,
      "ĠnÃŃm": 804,
      "Ġcho": 805,
      "Ġsmut": 806,
      "sud": 807,
      "Ġon": 808,
      "vem": 809,
      "Ġoh": 810,
      "ĠsvÃŃ": 811,
      "âĢĵ": 812,
      "ÅĻel": 813,
      "Ty": 814,
      "Å¡tÃŃ": 815,
      "kla": 816,
      "ĠtÅĻe": 817,
      "ĠsobÄĽ": 818,
      "Ġjim": 819,
      "Å¡ÃŃm": 820,
      "Jen": 821,
      "ĠL": 822,
      "pra": 823,
      "Ġtem": 824,
      "ÅĻÃŃm": 825,
      "ĠÅ¾itÃŃ": 826,
      "Ġbyla": 827,
      "kal": 828,
      "Ġkro": 829,
      "ĠkrÃ¡s": 830,
      "Ġsly": 831,
      "om": 832,
      "ĠsnÄĽ": 833,
      "ĠsvÅ¯j": 834,
      "jde": 835,
      "ĠÄįlovÄĽ": 836,
      "ĠchtÄĽ": 837,
      "Ġmou": 838,
      "seÅĪ": 839,
      "Ġsnad": 840,
      "Åł": 841,
      "ĠsmÄĽ": 842,
      "mÅ¯": 843,
      "Ġsrdci": 844,
      "Ġnech": 845,
      "Ã³": 846,
      "ĠvÃ¡m": 847,
      "sty": 848,
      "Å¡Å¥": 849,
      "Ġzde": 850,
      "Ġmys": 851,
      "vÅ¾dy": 852,
      "smÄĽ": 853,
      "Ġmilo": 854,
      "jenÅ¾": 855,
      "ved": 856,
      "ĠsvÃ½m": 857,
      "chem": 858,
      "nky": 859,
      "vÅ¡e": 860,
      "lÃ½ch": 861,
      "Ġvr": 862,
      "Ġkla": 863,
      "Ġkam": 864,
      "roz": 865,
      "pomÃŃ": 866,
      "ĠvÄĽt": 867,
      "ĠzemÄĽ": 868,
      "Äįky": 869,
      "ten": 870,
      "KdyÅ¾": 871,
      "Ġzemi": 872,
      "Äįek": 873,
      "ĠsvÃ½ch": 874,
      "ĠÅ¡ÃŃ": 875,
      "Äįer": 876,
      "ÅĻem": 877,
      "Ġdnes": 878,
      "bra": 879,
      "ĠblÃŃ": 880,
      "ska": 881,
      "lÅ¯": 882,
      "Tu": 883,
      "sla": 884,
      "Ġjejich": 885,
      "ĠO": 886,
      "Ġmoje": 887,
      "zo": 888,
      "Ġruce": 889,
      "ĠpÅ¯": 890,
      "Ġchu": 891,
      "Ġok": 892,
      "nil": 893,
      "ĠtÄĽÅ¾": 894,
      "ĠhvÄĽz": 895,
      "hÅ¯": 896,
      "Ġmrt": 897,
      "ĠvÃŃc": 898,
      "Ġtich": 899,
      "ĠtÃ¡": 900,
      "ĠchvÄĽ": 901,
      "ĠsmÃŃ": 902,
      "dil": 903,
      "vit": 904,
      "jako": 905,
      "sky": 906,
      "Ġke": 907,
      "Ġrado": 908,
      "Ġkolem": 909,
      "skÃ½ch": 910,
      "Å½e": 911,
      "ĠÅ¡tÄĽstÃŃ": 912,
      "cÅ¯": 913,
      "sku": 914,
      "pad": 915,
      "ĠspÃ¡": 916,
      "ĠÄįa": 917,
      "ĠtobÄĽ": 918,
      "hem": 919,
      "?âĢľ": 920,
      "Ġnoci": 921,
      "on": 922,
      "zÃ¡": 923,
      "hne": 924,
      "ĠvÅ¡em": 925,
      "ast": 926,
      "kÃ½ch": 927,
      "Ġsmr": 928,
      "nek": 929,
      "ĠZ": 930,
      "Ġmra": 931,
      "ĠkaÅ¾dÃ½": 932,
      "ĠvÃ¡s": 933,
      "nout": 934,
      "ĠnaÅ¡e": 935,
      "Äįku": 936,
      "pÅĻi": 937,
      "ĠzdÃ¡": 938,
      "rev": 939,
      "lil": 940,
      "ĠmÃ¡m": 941,
      "ĠtÃ©Å¾": 942,
      "vnÄĽ": 943,
      "Ġnepo": 944,
      "um": 945,
      "Ġvlast": 946,
      "Ġhlavu": 947,
      "Ch": 948,
      "ĠvÅ¡ecko": 949,
      "ĠR": 950,
      "Ġbi": 951,
      "ÅĻil": 952,
      "dech": 953,
      "den": 954,
      "vr": 955,
      "ĠhÃ¡": 956,
      "nal": 957,
      "ĠzpÃŃ": 958,
      "dnÃ©": 959,
      "ĠtvÅ¯j": 960,
      "By": 961,
      "Ġple": 962,
      "leÄį": 963,
      "ĠÄĮ": 964,
      "Ji": 965,
      "Ġsva": 966,
      "ĠN": 967,
      "ale": 968,
      "ĠÅĻ": 969,
      "tÅ¯": 970,
      "Vy": 971,
      "Ġhru": 972,
      "sko": 973,
      "dÃŃm": 974,
      "Ġjste": 975,
      "Ġsko": 976,
      "Ġklid": 977,
      "Ġchce": 978,
      "mÃ©": 979,
      "ĠD": 980,
      "Ġzlo": 981,
      "nech": 982,
      "kÃ½m": 983,
      "Ġha": 984,
      "hra": 985,
      "nÃŃch": 986,
      "ĠpÃŃseÅĪ": 987,
      "Ġnoc": 988,
      "zem": 989,
      "Ġtebe": 990,
      "jÃŃcÃŃ": 991,
      "ĠdÅĻÃŃ": 992,
      "Ġhlas": 993,
      "neb": 994,
      "ĠvlÃ¡": 995,
      "kte": 996,
      "ĠmÄĽl": 997,
      "ĠnÃ¡ro": 998,
      "ĠdÃ¡v": 999,
      "Ve": 1000,
      "ĠmoÅĻe": 1001,
      "Äįil": 1002,
      "Ġjem": 1003,
      "tva": 1004,
      "Ġmar": 1005,
      "Ġsen": 1006,
      "tam": 1007,
      "ĠlÃ©": 1008,
      "Ġde": 1009,
      "ĠpÅĻec": 1010,
      "Å¡ich": 1011,
      "ĠhÅĻÃŃ": 1012,
      "ĠcelÃ½": 1013,
      "tky": 1014,
      "Ġprav": 1015,
      "ĠdÃŃtÄĽ": 1016,
      "mnÄĽ": 1017,
      "ĠstÅĻe": 1018,
      "Ġmlad": 1019,
      "Ġani": 1020,
      "ĠchvÃŃli": 1021,
      "ĠÅ¾ÃŃ": 1022,
      "byl": 1023,
      "ĠÅĪ": 1024,
      "vÃŃm": 1025,
      "ĠoÄįÃŃ": 1026,
      "Ġkru": 1027,
      "spo": 1028,
      "Ġhor": 1029,
      "kol": 1030,
      "ĠmlÃ¡": 1031,
      "Ġhlou": 1032,
      "Å¯Å¾e": 1033,
      "Ġslun": 1034,
      "ĠhvÄĽzd": 1035,
      "dnÃ½": 1036,
      "ĠtÃŃm": 1037,
      "Ġprou": 1038,
      "Kdo": 1039,
      "Ġus": 1040,
      "Ġba": 1041,
      "Ġsem": 1042,
      "Å¾il": 1043,
      "vÅ¯": 1044,
      "Å¡la": 1045,
      "dnou": 1046,
      "vra": 1047,
      "Ġlet": 1048,
      "tÅĻe": 1049,
      "Ġmoc": 1050,
      "ĠstrÃ¡": 1051,
      "Ġoko": 1052,
      "hl": 1053,
      "ĠsvÃ©m": 1054,
      "Ġhr": 1055,
      "ĠtÃŃ": 1056,
      "neÅ¾": 1057,
      "Ġale": 1058,
      "ĠsvÃ©ho": 1059,
      "Ġzvu": 1060,
      "dal": 1061,
      "cÃŃm": 1062,
      "ĠspÄĽ": 1063,
      "Ġny": 1064,
      "Ġmlu": 1065,
      "Ġsu": 1066,
      "ĠsnÃŃ": 1067,
      "ĠvrÃ¡": 1068,
      "ĠchrÃ¡": 1069,
      "krÃ¡t": 1070,
      "Ġtoho": 1071,
      "ĠÅ¡i": 1072,
      "pou": 1073,
      "ĠtakÃ©": 1074,
      "ĠzÅĻÃŃ": 1075,
      "Ġbole": 1076,
      "Ġjenom": 1077,
      "Ġsil": 1078,
      "nÃ¡ch": 1079,
      "pl": 1080,
      "Ġhned": 1081,
      "pat": 1082,
      "Ġchy": 1083,
      "Ġkol": 1084,
      "Ġmez": 1085,
      "Ġbe": 1086,
      "dnÃŃ": 1087,
      "ĠkÅĻi": 1088,
      "Ġote": 1089,
      "ĠaÅ¥": 1090,
      "ĠdÃŃv": 1091,
      "Ġky": 1092,
      "ĠpÅĻes": 1093,
      "ĠmuÅ¾": 1094,
      "sÃŃc": 1095,
      "aÅ¥": 1096,
      "vÃ©m": 1097,
      "dce": 1098,
      "ĠnÃ¡Å¡": 1099,
      "Ġblesk": 1100,
      "ĠsvÄĽta": 1101,
      "ĠstojÃŃ": 1102,
      "cky": 1103,
      "ĠÄįÃŃ": 1104,
      "skou": 1105,
      "Ġpan": 1106,
      "tro": 1107,
      "Ġneb": 1108,
      "Te": 1109,
      "ouf": 1110,
      "stÃ©": 1111,
      "Ġneu": 1112,
      "pod": 1113,
      "Ġobra": 1114,
      "ĠtiÅ¡e": 1115,
      "kam": 1116,
      "ĠbÃ½t": 1117,
      "Ġkrev": 1118,
      "Ġduch": 1119,
      "ĠskÃ¡": 1120,
      "nka": 1121,
      "Ġzase": 1122,
      "Ġmal": 1123,
      "nku": 1124,
      "ÄįÃŃm": 1125,
      "Le": 1126,
      "ÄįnÃŃ": 1127,
      "Ġslova": 1128,
      "dlo": 1129,
      "lit": 1130,
      "ĠzÃŃ": 1131,
      "ĠÄįlovÄĽk": 1132,
      "rov": 1133,
      "Ġchlad": 1134,
      "ĠkvÃŃ": 1135,
      "ĠÃºsmÄĽ": 1136,
      "ĠvÃŃce": 1137,
      "tom": 1138,
      "ĠnÃ¡hle": 1139,
      "nec": 1140,
      "el": 1141,
      "pÄĽt": 1142,
      "znÄĽ": 1143,
      "Ġan": 1144,
      "Kde": 1145,
      "Ġtro": 1146,
      "Ġnebi": 1147,
      "jiÅ¾": 1148,
      "Ġpok": 1149,
      "stÅĻe": 1150,
      "rnÄĽ": 1151,
      "mou": 1152,
      "ĠlÃ¡ska": 1153,
      "âĢĻ,": 1154,
      "ĠrÃ¡d": 1155,
      "ĠhnÄĽ": 1156,
      "ĠÅĻek": 1157,
      "pak": 1158,
      "ĠÅ¾a": 1159,
      "sÅ¯": 1160,
      "stal": 1161,
      "ĠstÃ¡le": 1162,
      "ena": 1163,
      "Ġdal": 1164,
      "vala": 1165,
      "Äįko": 1166,
      "Ġtru": 1167,
      "PÅĻe": 1168,
      "Ġsebe": 1169,
      "ĠhrÃ¡": 1170,
      "ĠtvÃ¡ÅĻ": 1171,
      "Ġjednou": 1172,
      "lednÃŃ": 1173,
      "Ġg": 1174,
      "Ġdiv": 1175,
      "Ko": 1176,
      "ÄįnÄĽ": 1177,
      "Ġzje": 1178,
      "Ġjeden": 1179,
      "ĠmyÅ¡": 1180,
      "lÃ½m": 1181,
      "Ġmnou": 1182,
      "lech": 1183,
      "ĠÅ¡Å¥": 1184,
      "lek": 1185,
      "tku": 1186,
      "ĠstÅĻÃŃ": 1187,
      "ĠklÃŃ": 1188,
      "Ġtma": 1189,
      "ĠnynÃŃ": 1190,
      "ĠvÃ¡Å¡": 1191,
      "ĠbÅĻe": 1192,
      "Ġdr": 1193,
      "Ġrukou": 1194,
      "Ġpi": 1195,
      "uje": 1196,
      "ami": 1197,
      "Ġos": 1198,
      "nic": 1199,
      "Ġpad": 1200,
      "ĠBÅ¯h": 1201,
      "ĠtrÃ¡": 1202,
      "Ġmla": 1203,
      "vÃ¡m": 1204,
      "Ġvol": 1205,
      "jte": 1206,
      "Ach": 1207,
      "ĠpÅĻÃ¡": 1208,
      "lÃ©m": 1209,
      "ĠspÃŃ": 1210,
      "Å¡li": 1211,
      "Ġbled": 1212,
      "Ã©ho": 1213,
      "Å¡em": 1214,
      "Å¡ti": 1215,
      "Åĺ": 1216,
      "zen": 1217,
      "Ġbudou": 1218,
      "nÃŃk": 1219,
      "Ġdech": 1220,
      "ĠchtÄĽl": 1221,
      "Tam": 1222,
      "Ġjde": 1223,
      "Ġmezi": 1224,
      "dÅ¯": 1225,
      "bych": 1226,
      "Ġdne": 1227,
      "Ġboj": 1228,
      "VÅ¡e": 1229,
      "jÃŃc": 1230,
      "Ale": 1231,
      "Ġodpo": 1232,
      "Ġmrak": 1233,
      "ĠbrÃ¡": 1234,
      "Ġstu": 1235,
      "stÃ½": 1236,
      "Ġzo": 1237,
      "Ġtomu": 1238,
      "Od": 1239,
      "Ġplamen": 1240,
      "Ġnikdy": 1241,
      "ĠsvÃ¡": 1242,
      "Ġjar": 1243,
      "Hle": 1244,
      "ĠrÅ¯Å¾e": 1245,
      "rnÃ©": 1246,
      "Ãº": 1247,
      "pil": 1248,
      "Ġhrob": 1249,
      "Ġvzdu": 1250,
      "dnÄĽ": 1251,
      "ĠbuÄı": 1252,
      "ĠnadÄĽ": 1253,
      "Ġnebes": 1254,
      "Ġzno": 1255,
      "tal": 1256,
      "lik": 1257,
      "tka": 1258,
      "Ġpoli": 1259,
      "rnÃ½": 1260,
      "mys": 1261,
      "ĠÅ¡Å¥ast": 1262,
      "Ġnedo": 1263,
      "Ġbrat": 1264,
      "kle": 1265,
      "lov": 1266,
      "sil": 1267,
      "Ġjedno": 1268,
      "ben": 1269,
      "Ro": 1270,
      "vali": 1271,
      "zel": 1272,
      "kÃ¡ch": 1273,
      "Ġost": 1274,
      "ĠhrÅ¯": 1275,
      "Ġhlavy": 1276,
      "Ġdla": 1277,
      "ĠveÄįer": 1278,
      "plÃ¡": 1279,
      "ĠdÄĽti": 1280,
      "Ġsmrti": 1281,
      "vÃ¡nÃŃ": 1282,
      "ĠznÃ¡": 1283,
      "ĠhÅĻ": 1284,
      "kÃ©m": 1285,
      "ĠobÄĽ": 1286,
      "pÅĻed": 1287,
      "nice": 1288,
      "dle": 1289,
      "ja": 1290,
      "bez": 1291,
      "ĠJe": 1292,
      "Ġzm": 1293,
      "Ġlou": 1294,
      "kÅĻi": 1295,
      "tech": 1296,
      "ĠkterÃ©": 1297,
      "Ġpoko": 1298,
      "Ġzna": 1299,
      "ĠdÃ¡le": 1300,
      "znÃŃ": 1301,
      "Ġste": 1302,
      "Ġnemo": 1303,
      "lost": 1304,
      "prÃ¡": 1305,
      "Ten": 1306,
      "pÅĻÃŃ": 1307,
      "ĠC": 1308,
      "ĠznÃŃ": 1309,
      "ĠnÃŃÅ¾": 1310,
      "ĠvÃŃtÄĽ": 1311,
      "rost": 1312,
      "has": 1313,
      "PÅĻi": 1314,
      "hlÃ©": 1315,
      "ĠbÃŃlÃ©": 1316,
      "Ġjedi": 1317,
      "Ġklo": 1318,
      "hlÃŃ": 1319,
      "ĠÅ¡u": 1320,
      "Ġzi": 1321,
      "Ġnic": 1322,
      "Ġoz": 1323,
      "ĠzvÄĽ": 1324,
      "ĠpÅĻece": 1325,
      "Ġslav": 1326,
      "Ġpat": 1327,
      "Ġzak": 1328,
      "stra": 1329,
      "Ġhled": 1330,
      "ĠvzpomÃŃ": 1331,
      "trÃ¡": 1332,
      "ĠduÅ¡ÃŃ": 1333,
      "Jako": 1334,
      "ĠmusÃŃ": 1335,
      "Ġhou": 1336,
      "Ã½mi": 1337,
      "Ġvese": 1338,
      "ude": 1339,
      "hat": 1340,
      "jÃŃm": 1341,
      "Ġruku": 1342,
      "ĠprvnÃŃ": 1343,
      "nit": 1344,
      "Ġnu": 1345,
      "lÃŃm": 1346,
      "ĠkÃ¡": 1347,
      "ĠNe": 1348,
      "ĠkterÃ½": 1349,
      ",âĢľ": 1350,
      "sÃŃm": 1351,
      "boÅ¾": 1352,
      "TeÄı": 1353,
      "jsem": 1354,
      "My": 1355,
      "Ġven": 1356,
      "Ġnimi": 1357,
      "ĠnovÃ©": 1358,
      "Ġzb": 1359,
      "dÄĽla": 1360,
      "zda": 1361,
      "Ġhlavou": 1362,
      "Ġum": 1363,
      "ĠmÃ½ch": 1364,
      "Äįel": 1365,
      "ĠletÃŃ": 1366,
      "Ġveli": 1367,
      "Ġhrd": 1368,
      "ĠleÅ¾ÃŃ": 1369,
      "Ġbar": 1370,
      "ĠdÅ¯": 1371,
      "et": 1372,
      "stÅĻÃŃ": 1373,
      "tla": 1374,
      "Ġlesk": 1375,
      "ĠF": 1376,
      "pen": 1377,
      "Ġskry": 1378,
      "Ġruka": 1379,
      "ĠsvÄĽtÄĽ": 1380,
      "On": 1381,
      "ĠskrÃ¡": 1382,
      "rob": 1383,
      "ĠPÃ¡": 1384,
      "Ġleh": 1385,
      "Ġzra": 1386,
      "Ġobla": 1387,
      "ĠvolÃ¡": 1388,
      "ĠnevÄĽ": 1389,
      "Ġsa": 1390,
      "pas": 1391,
      "Pak": 1392,
      "Ã¡me": 1393,
      "Ġdvo": 1394,
      "Ġnevi": 1395,
      "ĠstÃŃn": 1396,
      "ĠÃ³": 1397,
      "ÄįnÃ©": 1398,
      "Ġdce": 1399,
      "Ġvlasti": 1400,
      "tÄĽl": 1401,
      "Ġhroz": 1402,
      "dne": 1403,
      "Ho": 1404,
      "ĠsÃ¡": 1405,
      "Ġpru": 1406,
      "ĠtvÃ½ch": 1407,
      "nutÃŃ": 1408,
      "ĠznÄĽ": 1409,
      "Ġstr": 1410,
      "ĠhvÄĽzdy": 1411,
      "Ġradost": 1412,
      "MÃ¡": 1413,
      "hled": 1414,
      "Ġplo": 1415,
      "Ġsvoje": 1416,
      "ct": 1417,
      "ĠzÃ¡ÅĻÃŃ": 1418,
      "ĠcizÃŃ": 1419,
      "Ġtesk": 1420,
      "Ġtra": 1421,
      "zrak": 1422,
      "Ġona": 1423,
      "Ġsli": 1424,
      "Ġsle": 1425,
      "ĠzlatÃ©": 1426,
      "ĠkvÄĽty": 1427,
      "Å½i": 1428,
      "Ġtaj": 1429,
      "sni": 1430,
      "ĠTo": 1431,
      "Ġrozko": 1432,
      "ĠÅ¾al": 1433,
      "in": 1434,
      "pos": 1435,
      "ĠdÃ¡vno": 1436,
      "ĠmÅ¯Å¾e": 1437,
      "Äįem": 1438,
      "dnÃ¡": 1439,
      "ĠÅ¡el": 1440,
      "VÄĽ": 1441,
      "Ġsamo": 1442,
      "ĠsvÃŃtÃŃ": 1443,
      "zko": 1444,
      "pal": 1445,
      "ĠchvÃŃle": 1446,
      "Ġticho": 1447,
      "Ġtlu": 1448,
      "Ġkraj": 1449,
      "Ta": 1450,
      "Ġlidst": 1451,
      "Ġpozd": 1452,
      "ÅĻit": 1453,
      "ĠjuÅ¾": 1454,
      "Ġtvoje": 1455,
      "ĠstarÃ½": 1456,
      "teÄı": 1457,
      "Ġdar": 1458,
      "ĠÅ¾ha": 1459,
      "div": 1460,
      "ĠprÃ¡zd": 1461,
      "ProÄį": 1462,
      "Å¡enÃŃ": 1463,
      "he": 1464,
      "let": 1465,
      "Ġdlouho": 1466,
      "hal": 1467,
      "kve": 1468,
      "Se": 1469,
      "ĠkrÃ¡l": 1470,
      "ĠknÄĽ": 1471,
      "klo": 1472,
      "ĠÄįelo": 1473,
      "ĠÅĪad": 1474,
      "Ġe": 1475,
      "Å¾ÃŃm": 1476,
      "ĠnÄĽho": 1477,
      "ĠzpÄĽv": 1478,
      "chle": 1479,
      "lal": 1480,
      "ĠbÃ½ti": 1481,
      "vÃ¡n": 1482,
      "vrÃ¡": 1483,
      "Ġhe": 1484,
      "dob": 1485,
      "Ã½vÃ¡": 1486,
      "Ġproti": 1487,
      "mr": 1488,
      "Å¯Å¾": 1489,
      "ran": 1490,
      "Ġhy": 1491,
      "Ġpohled": 1492,
      "ĠnÃ¡mi": 1493,
      "mÄĽnÃŃ": 1494,
      "Nad": 1495,
      "nÄĽjÅ¡ÃŃ": 1496,
      "vajÃŃ": 1497,
      "ĠvÅĻe": 1498,
      "ĠnÃ¡ru": 1499,
      "ĠÅ¡ep": 1500,
      "ĠlÃ¡sku": 1501,
      "Ġnebo": 1502,
      "ĠÅĻa": 1503,
      "ĠcelÃ©": 1504,
      "Ġsch": 1505,
      "zde": 1506,
      "Bo": 1507,
      "dÄĽt": 1508,
      "Ġtebou": 1509,
      "Ġhud": 1510,
      "rÃ½ch": 1511,
      "ĠtÄĽlo": 1512,
      "Ġpouze": 1513,
      "slo": 1514,
      "ĠÅ¾ivota": 1515,
      "ĠboÅ¾ÃŃ": 1516,
      "Ã¡c": 1517,
      "ĠvÅ¡ecky": 1518,
      "jÄı": 1519,
      "Ġztra": 1520,
      "vÃ©ho": 1521,
      "Ġslou": 1522,
      "ĠnÃ¡rod": 1523,
      "ĠÅ¾ena": 1524,
      "Ġhlubo": 1525,
      "ĠG": 1526,
      "nak": 1527,
      "or": 1528,
      "tÃ½ch": 1529,
      "kro": 1530,
      "Bu": 1531,
      "dra": 1532,
      "JiÅ¾": 1533,
      "Ġzapo": 1534,
      "Ġper": 1535,
      "ke": 1536,
      "ĠstÄĽ": 1537,
      "Ġosud": 1538,
      "lna": 1539,
      "Ġvrou": 1540,
      "ĠpohÃ¡": 1541,
      "Ġkraji": 1542,
      "Ġode": 1543,
      "ĠlÃ¡skou": 1544,
      "Ġtajem": 1545,
      "Ġplu": 1546,
      "ĠdÃ¡li": 1547,
      "kÃ¡m": 1548,
      "kud": 1549,
      "Ġpole": 1550,
      "Ġpam": 1551,
      "ĠÅ¡tÃŃ": 1552,
      "ata": 1553,
      "ĠPo": 1554,
      "ĠpolÃŃ": 1555,
      "Å¾el": 1556,
      "ÄįnÃ½": 1557,
      "Ġpy": 1558,
      "ĠdobÅĻe": 1559,
      "Ġsku": 1560,
      "ĠvdÄĽ": 1561,
      "Ġdva": 1562,
      "ĠhledÃŃ": 1563,
      "ĠpanÃŃ": 1564,
      "jej": 1565,
      "ĠpÃŃsnÄĽ": 1566,
      "AÅ¾": 1567,
      "Ġblou": 1568,
      "ĠsklÃ¡": 1569,
      "ĠjÃŃm": 1570,
      "Ġkrve": 1571,
      "chÃ¡zÃŃ": 1572,
      "ĠkÅĻe": 1573,
      "tit": 1574,
      "ĠprÃ½": 1575,
      "ĠbÃŃlÃ½": 1576,
      "svÃ©": 1577,
      "ĠE": 1578,
      "Ġbr": 1579,
      "ĠdrÃ¡": 1580,
      "Ġsmrt": 1581,
      "Ġtady": 1582,
      "ÄįenÃŃ": 1583,
      "zou": 1584,
      "Ġdale": 1585,
      "Ġsotva": 1586,
      "Ġzda": 1587,
      "kli": 1588,
      "znÃ¡": 1589,
      "Ġmoh": 1590,
      "Ġzelen": 1591,
      "ĠvÅ¾dycky": 1592,
      "VÅ¾dy": 1593,
      "nostÃŃ": 1594,
      "vlÃ¡": 1595,
      "Ġsni": 1596,
      "ĠdÄĽl": 1597,
      "ĠsmÃŃch": 1598,
      "bude": 1599,
      "zas": 1600,
      "Ġnese": 1601,
      "ĠvÅ¡eho": 1602,
      "ĠÅ¾eny": 1603,
      "pÅ¯": 1604,
      "ĠzÃ¡ÅĻ": 1605,
      "rÃ½m": 1606,
      "ĠchvÃ¡": 1607,
      "ob": 1608,
      "dit": 1609,
      "Å¡il": 1610,
      "ĠsvojÃŃ": 1611,
      "Å¾Ã¡": 1612,
      "ĠznÃ¡m": 1613,
      "Kdy": 1614,
      "Ġboji": 1615,
      "sce": 1616,
      "ĠÅł": 1617,
      "Ġlidu": 1618,
      "Ġslzy": 1619,
      "ĠumÃŃ": 1620,
      "Ġjemu": 1621,
      "ĠpÃŃsnÃŃ": 1622,
      "Ġneza": 1623,
      "Ġsna": 1624,
      "Vz": 1625,
      "chvÄĽ": 1626,
      "ĠtÅĻ": 1627,
      "ĠzÅ¯": 1628,
      "Ġzve": 1629,
      "ĠkaÅ¾dÃ©": 1630,
      "ĠvidÄĽl": 1631,
      "hnou": 1632,
      "AÅ¥": 1633,
      "ĠÄįasto": 1634,
      "hÅ¯ru": 1635,
      "ĠvlastnÃŃ": 1636,
      "Vi": 1637,
      "ĠvelkÃ©": 1638,
      "dl": 1639,
      "ĠsvÄĽtlo": 1640,
      "Ġzouf": 1641,
      "vost": 1642,
      "Ġkni": 1643,
      "Å¾o": 1644,
      "mÄĽl": 1645,
      "VÃŃ": 1646,
      "Å¾eh": 1647,
      "ĠpadÃ¡": 1648,
      "KrÃ¡": 1649,
      "ĠposlednÃŃ": 1650,
      "ĠPra": 1651,
      "aby": 1652,
      "Ġtedy": 1653,
      "ĠsnÅ¯": 1654,
      "enÃ¡": 1655,
      "ĠjmÃ©": 1656,
      "!...": 1657,
      "Ġsklo": 1658,
      "ĠsmÃ¡": 1659,
      "Ġpomo": 1660,
      "ĠhoÅĻÃŃ": 1661,
      "Ġcestu": 1662,
      "ĠnovÃ½": 1663,
      "ral": 1664,
      "Ġrou": 1665,
      "Ġblu": 1666,
      "ĠtÅĻeba": 1667,
      "vÅ¾dyÅ¥": 1668,
      "Ġzlato": 1669,
      "ĠmÃ©ho": 1670,
      "ĠnÄĽmu": 1671,
      "Ġkry": 1672,
      "ĠpoÄį": 1673,
      "snad": 1674,
      "Ġkve": 1675,
      "Ġaby": 1676,
      "ĠnÄĽmÅ¾": 1677,
      "ĠkterÃ¡": 1678,
      "kne": 1679,
      "ĠrÃ¡na": 1680,
      "letÃŃ": 1681,
      "ĠblÃ¡": 1682,
      "ĠsÃŃly": 1683,
      "Ġhlava": 1684,
      "Ġdruh": 1685,
      "ĠvÃŃm": 1686,
      "ĠproÄį": 1687,
      "tnÃŃ": 1688,
      "kÅ¯m": 1689,
      "ĠzpÃŃvÃ¡": 1690,
      "Ġjisk": 1691,
      "ĠvelkÃ½": 1692,
      "ĠvÃŃtr": 1693,
      "din": 1694,
      "Ġves": 1695,
      "Ġvich": 1696,
      "Ġstej": 1697,
      "ĠvidÃŃ": 1698,
      "ĠKri": 1699,
      "ĠÃºsmÄĽv": 1700,
      "pÅĻÃ¡": 1701,
      "Ġpocho": 1702,
      "ĠprÃ¡ci": 1703,
      "ĠmlÃ¡dÃŃ": 1704,
      "Ġkles": 1705,
      "ĠPa": 1706,
      "Ġnevy": 1707,
      "Ġkon": 1708,
      "Ġhory": 1709,
      "nÃ½mi": 1710,
      "sÃŃce": 1711,
      "lze": 1712,
      "tko": 1713,
      "dÄĽj": 1714,
      "ĠdomÅ¯": 1715,
      "Ġbolest": 1716,
      "ĠsvÄĽtla": 1717,
      "ckÃ©": 1718,
      "Ġzu": 1719,
      "ĠzmÄĽ": 1720,
      "us": 1721,
      "nej": 1722,
      "Ġchci": 1723,
      "bil": 1724,
      "ĠI": 1725,
      "Ġzahra": 1726,
      "Ġmoud": 1727,
      "ĠstÅĻÃŃb": 1728,
      "Ġsvoji": 1729,
      "Ġzmi": 1730,
      "Ġpom": 1731,
      "tnÃ©": 1732,
      "Ġpapr": 1733,
      "stem": 1734,
      "cko": 1735,
      "bor": 1736,
      "zna": 1737,
      "Ġsed": 1738,
      "ĠzlatÃ½": 1739,
      "Snad": 1740,
      "ĠstarÃ©": 1741,
      "Ġroze": 1742,
      "CoÅ¾": 1743,
      "ĠpÅ¯l": 1744,
      "Ġvoj": 1745,
      "dr": 1746,
      "tvÃ¡": 1747,
      "Ġkouz": 1748,
      "Ġskal": 1749,
      "Ġbys": 1750,
      "ani": 1751,
      "Ġuli": 1752,
      "Ġobraz": 1753,
      "Ni": 1754,
      "vla": 1755,
      "ĠsvatÃ©": 1756,
      "kra": 1757,
      "ĠzÃ¡ÅĻi": 1758,
      "Ġmnoho": 1759,
      "ĠnaÅ¡ÃŃ": 1760,
      "Ġspolu": 1761,
      "LeÄį": 1762,
      "zni": 1763,
      "Ġsvobo": 1764,
      "ĠbÃ¡snÃŃ": 1765,
      "Zde": 1766,
      "Ġtep": 1767,
      "ĠkvÄĽtÅ¯": 1768,
      "der": 1769,
      "Ġnikdo": 1770,
      "ĠmilÃ½": 1771,
      "Ġmr": 1772,
      "ĠopÄĽt": 1773,
      "ĠbouÅĻ": 1774,
      "ĠdÄĽt": 1775,
      "dru": 1776,
      "stro": 1777,
      "ÅĻa": 1778,
      "ĠkrÃ¡sy": 1779,
      "ĠmÃ¡lo": 1780,
      "Ġou": 1781,
      "ĠvÄĽru": 1782,
      "ĠstÃŃny": 1783,
      "Äįit": 1784,
      "slu": 1785,
      "cit": 1786,
      "Ti": 1787,
      "sal": 1788,
      "Nech": 1789,
      "sen": 1790,
      "ĠstÃ¡l": 1791,
      "klÃ¡": 1792,
      "skÃ©ho": 1793,
      "van": 1794,
      "Ġpot": 1795,
      "str": 1796,
      "ĠÅ¡at": 1797,
      "Ġzr": 1798,
      "dej": 1799,
      "Äįera": 1800,
      "Ġy": 1801,
      "Ġvzdo": 1802,
      "Ġpolo": 1803,
      "ĠvÃ¡Å¾": 1804,
      "Å¡ichni": 1805,
      "No": 1806,
      "ala": 1807,
      "ĠprÃ¡ce": 1808,
      "Ġtvou": 1809,
      "rdce": 1810,
      "losti": 1811,
      "ĠlidÃŃ": 1812,
      "ĠvÄĽÄįnÄĽ": 1813,
      "Ġtouhy": 1814,
      "Ġzved": 1815,
      "ĠvÃŃtÄĽz": 1816,
      "ĠjistÄĽ": 1817,
      "ĠhoÅĻe": 1818,
      "snÃ©": 1819,
      "valy": 1820,
      "vila": 1821,
      "ĠnichÅ¾": 1822,
      "gi": 1823,
      "sek": 1824,
      "ĠprÃ¡vÄĽ": 1825,
      "ĠlidÃ©": 1826,
      "ĠpÅĻijde": 1827,
      "ĠsvatÃ½": 1828,
      "ĠÅĻÃ¡": 1829,
      "bylo": 1830,
      "nula": 1831,
      "Ġkli": 1832,
      "ĠtrÅ¯": 1833,
      "luje": 1834,
      "ĠlÃ¡sce": 1835,
      "Ġotec": 1836,
      "ĠnemÃ¡": 1837,
      "ĠslÃ¡vy": 1838,
      "Mi": 1839,
      "Ġkdys": 1840,
      "Zda": 1841,
      "mlu": 1842,
      "chÃ½": 1843,
      "snÃ½": 1844,
      "vol": 1845,
      "kÃ¡nÃŃ": 1846,
      "tila": 1847,
      "Ġprsou": 1848,
      "Ġdivo": 1849,
      "Ġsama": 1850,
      "sly": 1851,
      "Ġlist": 1852,
      "Å¡ka": 1853,
      "ĠtvÃ¡ÅĻÃŃ": 1854,
      "ĠmyÅ¡len": 1855,
      "ĠnÄĽÅ¾": 1856,
      "Ġhlubi": 1857,
      "bal": 1858,
      "ĠbouÅĻe": 1859,
      "sme": 1860,
      "jat": 1861,
      "ĠnÄĽkdy": 1862,
      "Ġslovo": 1863,
      "Ġsebou": 1864,
      "Ġproto": 1865,
      "Ġpotom": 1866,
      "dost": 1867,
      "ĠmilÃ¡": 1868,
      "ĠpÃ¡n": 1869,
      "cy": 1870,
      "Ġposta": 1871,
      "ĠkrÃ¡t": 1872,
      "ĠboÅ¾": 1873,
      "ĠtvÃ¡ÅĻi": 1874,
      "ĠnocÃŃ": 1875,
      "kr": 1876,
      "Ġsti": 1877,
      "Ġpar": 1878,
      "kry": 1879,
      "ĠdolÅ¯": 1880,
      "ĠzpÄĽt": 1881,
      "Ġjdou": 1882,
      "Ã¡men": 1883,
      "Ġtrochu": 1884,
      "NeÅ¾": 1885,
      "Ġles": 1886,
      "Ġzdra": 1887,
      "novÃ©": 1888,
      "Ġotev": 1889,
      "Ġbol": 1890,
      "ĠvÅ¡ude": 1891,
      "Ġol": 1892,
      "ĠÄĮech": 1893,
      "Ġsvi": 1894,
      "stup": 1895,
      "skÃ½m": 1896,
      "Ġbudu": 1897,
      "ĠHo": 1898,
      "Å¡nÄĽ": 1899,
      "ĠpÅĻiÅ¡el": 1900,
      "ĠtvÃ¡ÅĻe": 1901,
      "ĠvÄĽky": 1902,
      "vrd": 1903,
      "Ġzvolna": 1904,
      "ĠvÅ¯nÄĽ": 1905,
      "mem": 1906,
      "ĠkÅĻÃŃÅ¾": 1907,
      "Ġran": 1908,
      "Ġzraky": 1909,
      "NÃ¡": 1910,
      "ĠzrÃ¡": 1911,
      "ene": 1912,
      "ĠnaÅ¡ich": 1913,
      "ĠztrÃ¡": 1914,
      "ĠmarnÄĽ": 1915,
      "hlu": 1916,
      "dila": 1917,
      "ĠmoÅ¾": 1918,
      "ĠpÄĽk": 1919,
      "ĠvaÅ¡e": 1920,
      "ĠvÄĽr": 1921,
      "ĠhlÃ¡": 1922,
      "Å¡et": 1923,
      "Ġdost": 1924,
      "ĠÅĺ": 1925,
      "Ġbohat": 1926,
      "Å¡te": 1927,
      "lenÃŃ": 1928,
      "ĠtÅĻi": 1929,
      "Ġpane": 1930,
      "Ġach": 1931,
      "ĠnevÃŃ": 1932,
      "hrÃ¡": 1933,
      "skÃ©m": 1934,
      "Ġhovo": 1935,
      "svou": 1936,
      "Ġoku": 1937,
      "bÃ½": 1938,
      "ĠdÅĻÃŃv": 1939,
      "dÃ¡m": 1940,
      "stech": 1941,
      "leh": 1942,
      "ĠsnÄĽnÃŃ": 1943,
      "ĠmÄĽk": 1944,
      "stÅĻÃŃc": 1945,
      "Ġpropa": 1946,
      "Ġbyli": 1947,
      "Pod": 1948,
      "ĠskrÃ½": 1949,
      "cela": 1950,
      "rÃ¡z": 1951,
      "Ġvlny": 1952,
      "ĠhruÄı": 1953,
      "Ġmatka": 1954,
      "ĠtÄĽla": 1955,
      "ĠvÅ¡echno": 1956,
      "Ġbyly": 1957,
      "Ġbuj": 1958,
      "Ġtolik": 1959,
      "Byl": 1960,
      "Ġvele": 1961,
      "ĠÄįekÃ¡": 1962,
      "ĠdÃ©": 1963,
      "Ġprach": 1964,
      "dli": 1965,
      "jsou": 1966,
      "ĠÅ¾lu": 1967,
      "Ġbeze": 1968,
      "ĠvÃ½Å¡e": 1969,
      "rech": 1970,
      "ĠvidÃŃm": 1971,
      "ĠsvÄĽtem": 1972,
      "Ġmysli": 1973,
      "tajÃŃ": 1974,
      "vÃŃc": 1975,
      "Ġlesy": 1976,
      "Ġducha": 1977,
      "ĠbÅ¯h": 1978,
      "liÅ¡": 1979,
      "ĠkvÄĽ": 1980,
      "Ġsny": 1981,
      "ĠzmÃŃ": 1982,
      "ĠmÃŃsto": 1983,
      "Ba": 1984,
      "nÃ¡Å¡ÃŃ": 1985,
      "ÄĽl": 1986,
      "vÅ¡em": 1987,
      "Ġska": 1988,
      "ĠÅ¡ko": 1989,
      "Ġor": 1990,
      "kone": 1991,
      "Ġblaho": 1992,
      "ĠandÄĽl": 1993,
      "Å¡ku": 1994,
      "ĠmÄĽsta": 1995,
      "Ġvon": 1996,
      "ĠTe": 1997,
      "ĠsladkÃ©": 1998,
      "Ġznova": 1999,
      "nik": 2000,
      "Ġkoru": 2001,
      "ĠnÄĽj": 2002,
      "ĠtÅĻpy": 2003,
      "Ġopu": 2004,
      "del": 2005,
      "lÃ©b": 2006,
      "Å¯v": 2007,
      "ĠkÅĻÃŃdla": 2008,
      "nici": 2009,
      "Ġct": 2010,
      "aÄį": 2011,
      "Ġvody": 2012,
      "ĠvlÃŃ": 2013,
      "ĠMar": 2014,
      "ĠkrÃ¡lov": 2015,
      "ĠMi": 2016,
      "Ġdosud": 2017,
      "nÃ¡nÃŃ": 2018,
      "ĠjinÃ©": 2019,
      "Ġcit": 2020,
      "Ġkrva": 2021,
      "kaÅ¾": 2022,
      "ĠohnÄĽ": 2023,
      "ĠhoÅĻ": 2024,
      "Ġrychle": 2025,
      "ev": 2026,
      "Ġobzo": 2027,
      "Ġhrobu": 2028,
      "mrt": 2029,
      "Ġnena": 2030,
      "vati": 2031,
      "ĠTi": 2032,
      "zal": 2033,
      "ĠmÃ¡Å¡": 2034,
      "ĠlÃŃce": 2035,
      "Ġslunci": 2036,
      "ĠÄįernÃ©": 2037,
      "hnu": 2038,
      "jel": 2039,
      "ĠmoÅĻi": 2040,
      "Ġpev": 2041,
      "Mo": 2042,
      "ĠÅ¡um": 2043,
      "valo": 2044,
      "Ġzbra": 2045,
      "ĠjakÃ½": 2046,
      "ĠhnÃŃ": 2047,
      "ĠknÃŃ": 2048,
      "ĠkrÃ¡snÃ©": 2049,
      "hned": 2050,
      "ĠchÃ½": 2051,
      "ĠvzhÅ¯ru": 2052,
      "Å¾it": 2053,
      "stil": 2054,
      "Li": 2055,
      "ĠkrvÃŃ": 2056,
      "rÃ©m": 2057,
      "ĠtÅĻÃŃ": 2058,
      "Ġopo": 2059,
      "Ġcesty": 2060,
      "Ġdoby": 2061,
      "spÄĽ": 2062,
      "hr": 2063,
      "ÅĻenÃŃ": 2064,
      "Ġzdvi": 2065,
      "Ġchmu": 2066,
      "Roz": 2067,
      "ĠdÃ½m": 2068,
      "Ġstru": 2069,
      "hod": 2070,
      "Ġjaro": 2071,
      "Ã¡l": 2072,
      "ÅĻela": 2073,
      "svÄĽt": 2074,
      "nila": 2075,
      "ĠcÃŃtÃŃ": 2076,
      "brÃ¡": 2077,
      "stane": 2078,
      "Ġjara": 2079,
      "ĠzvÃŃ": 2080,
      "ĠzÅĻel": 2081,
      "Ġdomo": 2082,
      "ĠÅ¾Ã¡r": 2083,
      "Ġokem": 2084,
      "ĠMa": 2085,
      "Ġklen": 2086,
      "ĠmÄĽsÃŃc": 2087,
      "Å¾enÃŃ": 2088,
      "ĠÄįÃŃm": 2089,
      "ĠusmÃŃ": 2090,
      "ĠdvÄĽ": 2091,
      "ĠÄı": 2092,
      "ĠvÅ¡ichni": 2093,
      "armo": 2094,
      "ĠdÃŃvÃ¡": 2095,
      "ĠzaÄį": 2096,
      "ĠÅ¾ije": 2097,
      "ĠÄįele": 2098,
      "jal": 2099,
      "Neb": 2100,
      "Ġobje": 2101,
      "ÄĮi": 2102,
      "ĠmÃ©m": 2103,
      "ĠmojÃŃ": 2104,
      "Å¡lo": 2105,
      "ĠtisÃŃc": 2106,
      "Ġoba": 2107,
      "ju": 2108,
      "ĠnaÅ¡i": 2109,
      "ĠdÃ½ch": 2110,
      "Ġply": 2111,
      "Ã©Å¾": 2112,
      "ĠvÃ½Å¡": 2113,
      "Ġprch": 2114,
      "nat": 2115,
      "tk": 2116,
      "tru": 2117,
      "vod": 2118,
      "Ġspat": 2119,
      "Ġchod": 2120,
      "ĠprÅ¯": 2121,
      "Ġmodlit": 2122,
      "lila": 2123,
      "ĠcelÃ¡": 2124,
      "proÄį": 2125,
      "ur": 2126,
      "ĠdÄĽv": 2127,
      "kÅĻik": 2128,
      "kvÄĽt": 2129,
      "Ġtan": 2130,
      "ĠmÃŃt": 2131,
      "Ġpozdra": 2132,
      "Ġneo": 2133,
      "ĠpÅ¯j": 2134,
      "Ġsvit": 2135,
      "ĠvzdÃ¡": 2136,
      "Ġchla": 2137,
      "ĠzÃ¡ÅĻe": 2138,
      "ckÃ½": 2139,
      "lez": 2140,
      "buÄı": 2141,
      "mÃŃr": 2142,
      "Du": 2143,
      "Å¡ek": 2144,
      "Ġdej": 2145,
      "ĠpovÄĽ": 2146,
      "Sly": 2147,
      "jas": 2148,
      "ĠmÄĽla": 2149,
      "Ġcestou": 2150,
      "ĠhlavÄĽ": 2151,
      "man": 2152,
      "vad": 2153,
      "ĠsvÃ©mu": 2154,
      "Ġas": 2155,
      "sÃ¡m": 2156,
      "âĢĻ.": 2157,
      "dajÃŃ": 2158,
      "Ġmilen": 2159,
      "lÃ©t": 2160,
      "Ġsho": 2161,
      "Ġhloub": 2162,
      "ĠdÃ¡lky": 2163,
      "ĠdÃ½": 2164,
      "diny": 2165,
      "Ġkamen": 2166,
      "ek": 2167,
      "ĠsnÃŃh": 2168,
      "dÃ½m": 2169,
      "Ġkdysi": 2170,
      "ĠmÃŃr": 2171,
      "ĠmÃ½m": 2172,
      "Dnes": 2173,
      "âĢĺ": 2174,
      "Ġtouha": 2175,
      "ĠBoÅ¾e": 2176,
      "Ġrov": 2177,
      "ĠÄįela": 2178,
      "ĠÄįasem": 2179,
      "ĠmeÄį": 2180,
      "dnes": 2181,
      "ÅĻÃŃt": 2182,
      "Ġpta": 2183,
      "ĠstromÅ¯": 2184,
      "ĠpÅĻem": 2185,
      "koli": 2186,
      "Ġsr": 2187,
      "ĠsladkÃ½": 2188,
      "ĠU": 2189,
      "Ġsyn": 2190,
      "prv": 2191,
      "Ġnohou": 2192,
      "Ġzvy": 2193,
      "boj": 2194,
      "vl": 2195,
      "spoÅĪ": 2196,
      "ĠstÃŃnu": 2197,
      "hÃ½ch": 2198,
      "sl": 2199,
      "dÄĽli": 2200,
      "Ġtisk": 2201,
      "ĠÃºsta": 2202,
      "Ġkdyby": 2203,
      "ĠbouÅĻÃŃ": 2204,
      "Ġzby": 2205,
      "ĠklÃ¡": 2206,
      "ĠÅĻÃŃci": 2207,
      "pÅĻes": 2208,
      "Äįin": 2209,
      "Ġuz": 2210,
      "dÃŃÅ¡": 2211,
      "ĠzboÅ¾": 2212,
      "Ġmatky": 2213,
      "ĠmluvÃŃ": 2214,
      "NuÅ¾": 2215,
      "Ġdrob": 2216,
      "tich": 2217,
      "Ġstat": 2218,
      "zvu": 2219,
      "ĠskvÄĽ": 2220,
      "ĠptÃ¡k": 2221,
      "Ġkraje": 2222,
      "ĠJak": 2223,
      "ĠplnÃ½": 2224,
      "pÅ¡ÃŃ": 2225,
      "Pra": 2226,
      "jdou": 2227,
      "rÃ¡m": 2228,
      "Ġotro": 2229,
      "Ġhrad": 2230,
      "ĠbÃŃlÃ¡": 2231,
      "Ġhlasem": 2232,
      "Ġruky": 2233,
      "ĠNa": 2234,
      "dky": 2235,
      "pÃ½": 2236,
      "Äįet": 2237,
      "ĠmyÅ¡lÃ©": 2238,
      "Jsem": 2239,
      "jÃŃÅ¾": 2240,
      "ali": 2241,
      "tev": 2242,
      "sel": 2243,
      "chÅ¯": 2244,
      "ĠÅ¡a": 2245,
      "vec": 2246,
      "Ġtvrd": 2247,
      "ĠlidskÃ©": 2248,
      "ĠsvÄĽÅ¾ÃŃ": 2249,
      "dat": 2250,
      "ĠblÃŃÅ¾": 2251,
      "ĠdÃ¡vÃ¡": 2252,
      "ĠvÄĽÄįnÃ©": 2253,
      "hnÄĽ": 2254,
      "dala": 2255,
      "Ġkmi": 2256,
      "Ġnelze": 2257,
      "Ġkap": 2258,
      "ÅĻo": 2259,
      "kat": 2260,
      "ĠtÃ½": 2261,
      "Ġver": 2262,
      "dÃ¡l": 2263,
      "ĠstarÃ¡": 2264,
      "ĠrÅ¯Å¾ÃŃ": 2265,
      "ĠhÅĻe": 2266,
      "ĠpÅĻÃŃro": 2267,
      "ĠJi": 2268,
      "Å¡ky": 2269,
      "vej": 2270,
      "Ġperu": 2271,
      "Jest": 2272,
      "Ġdole": 2273,
      "ĠskÃ¡ly": 2274,
      "Ġzjev": 2275,
      "ĠRo": 2276,
      "Ġret": 2277,
      "rom": 2278,
      "ĠjinÃ½": 2279,
      "ĠklidnÄĽ": 2280,
      "kala": 2281,
      "Ġmohu": 2282,
      "Å¡nÃ©": 2283,
      "VÅ¾dyÅ¥": 2284,
      "tele": 2285,
      "Ġvyso": 2286,
      "ĠTy": 2287,
      "Ġoblo": 2288,
      "lÃ©ho": 2289,
      "ĠneznÃ¡m": 2290,
      "zeÅĪ": 2291,
      "ĠdÃ¡m": 2292,
      "ĠÃºst": 2293,
      "Ġkonec": 2294,
      "Ġvzal": 2295,
      "Ġcelou": 2296,
      "vin": 2297,
      "ĠnÄĽco": 2298,
      "teli": 2299,
      "Ġble": 2300,
      "Ġmilost": 2301,
      "ĠÄĮe": 2302,
      "ĠdrahÃ¡": 2303,
      "ĠslavÃŃ": 2304,
      "ĠmyslÃŃ": 2305,
      "jÃŃt": 2306,
      "ĠoltÃ¡": 2307,
      "nko": 2308,
      "dina": 2309,
      "ĠzÃ¡pas": 2310,
      "eÅĪ": 2311,
      "ĠtÃ©to": 2312,
      "hlas": 2313,
      "ĠLi": 2314,
      "Ġokam": 2315,
      "BuÄı": 2316,
      "ĠkÃ¡men": 2317,
      "ÅĻek": 2318,
      "ĠhlÃŃ": 2319,
      "hli": 2320,
      "tost": 2321,
      "Ġdoma": 2322,
      "ĠÅ¾iv": 2323,
      "Ġfi": 2324,
      "ĠvstÅĻÃŃc": 2325,
      "Ġmd": 2326,
      "Ġdosti": 2327,
      "Ġchvil": 2328,
      "ĠhledÃ¡": 2329,
      "Ġcha": 2330,
      "ĠsÃŃla": 2331,
      "jnÄĽ": 2332,
      "ĠPro": 2333,
      "Ġramen": 2334,
      "zla": 2335,
      "ĠblaÅ¾en": 2336,
      "cel": 2337,
      "kÅĻÃŃ": 2338,
      "ĠzaÅ¡": 2339,
      "DÃŃ": 2340,
      "ĠkrÃ¡ÄįÃŃ": 2341,
      "Å¡Å¡ÃŃ": 2342,
      "Ġvzdech": 2343,
      "ĠkÅ¯": 2344,
      "ĠÄįem": 2345,
      "Ġpoto": 2346,
      "Ġtre": 2347,
      "Kam": 2348,
      "ĠÅ½i": 2349,
      "Ġminu": 2350,
      "ĠBohu": 2351,
      "ĠvÄĽkÅ¯": 2352,
      "Ġohni": 2353,
      "klÃŃ": 2354,
      "kon": 2355,
      "ĠvÅ¡echny": 2356,
      "nebo": 2357,
      "ĠrÃ¡ny": 2358,
      "mar": 2359,
      "ÄįÃ¡": 2360,
      "ĠnÃ¡d": 2361,
      "ĠtvÃ©ho": 2362,
      "tnÃ½": 2363,
      "Ġstrom": 2364,
      "Ġvod": 2365,
      "ĠoheÅĪ": 2366,
      "blÃŃ": 2367,
      "ĠjarnÃŃ": 2368,
      "Ġvlasy": 2369,
      "PÅĻed": 2370,
      "vce": 2371,
      "ĠpÅĻÃŃliÅ¡": 2372,
      "Ġhloubi": 2373,
      "ĠMo": 2374,
      "ĠzÃ¡pa": 2375,
      "Ġobe": 2376,
      "Ġstou": 2377,
      "zku": 2378,
      "rÃ¡ch": 2379,
      "ĠdruÅ¾": 2380,
      "ĠÅ¾ÃŃt": 2381,
      "ĠmÃŃru": 2382,
      "Ġtouhou": 2383,
      "slou": 2384,
      "ĠvÃ¡l": 2385,
      "ĠvÄĽtÅ¡ÃŃ": 2386,
      "Ġrak": 2387,
      "ĠlÃ©ta": 2388,
      "Ġsmys": 2389,
      "ĠDo": 2390,
      "Ġtmy": 2391,
      "vÅ¯r": 2392,
      "jest": 2393,
      "nÃ¡Å¡": 2394,
      "ĠkvÃŃtÃŃ": 2395,
      "Äįkou": 2396,
      "neÅ¡": 2397,
      "zim": 2398,
      "Ġkva": 2399,
      "ÄįnÃ¡": 2400,
      "Ġnekone": 2401,
      "Ġprachu": 2402,
      "klad": 2403,
      "stÅĻed": 2404,
      "ĠlesÅ¯": 2405,
      "BÅ¯h": 2406,
      "ĠplnÃ©": 2407,
      "bnÃŃ": 2408,
      "deme": 2409,
      "ĠBoÅ¾ÃŃ": 2410,
      "vel": 2411,
      "Ġznovu": 2412,
      "ĠtvÃ©m": 2413,
      "Ġproud": 2414,
      "myÅ¡": 2415,
      "tÅĻÃŃ": 2416,
      "Ġbal": 2417,
      "cnÄĽ": 2418,
      "es": 2419,
      "stÃ¡vÃ¡": 2420,
      "Ġhrudi": 2421,
      "Ġsmu": 2422,
      "Ġpal": 2423,
      "ĠtichÃ©": 2424,
      "Ġsrdcem": 2425,
      "ĠmladÃ½": 2426,
      "Ġchat": 2427,
      "lenÃ©": 2428,
      "ĠlÅ¯": 2429,
      "Ġprosto": 2430,
      "dno": 2431,
      "ĠKo": 2432,
      "Ġsnu": 2433,
      "ĠsedÃŃ": 2434,
      "jme": 2435,
      "chal": 2436,
      "Aj": 2437,
      "Ġvzdy": 2438,
      "ĠmladÃ©": 2439,
      "Ġboje": 2440,
      "ĠnadÄĽje": 2441,
      "tvo": 2442,
      "ĠaspoÅĪ": 2443,
      "dÃ½ch": 2444,
      "ĠnÃ¡ruÄį": 2445,
      "ĠpÅĻÃŃÅ¡tÃŃ": 2446,
      "tÃ¡m": 2447,
      "ĠdobÄĽ": 2448,
      "ĠdrahÃ©": 2449,
      "ĠpoÅ¾eh": 2450,
      "âĢŀâĢŀ": 2451,
      "ĠtichÃ½": 2452,
      "eni": 2453,
      "Ġup": 2454,
      "ĠchvÄĽje": 2455,
      "Ġzdo": 2456,
      "MÅ¯j": 2457,
      "Ġvedle": 2458,
      "ĠslÃ¡va": 2459,
      "ĠcÃŃsa": 2460,
      "Ġkrok": 2461,
      "ĠÅĻeÄį": 2462,
      "ĠjejÅ¾": 2463,
      "Ġjedna": 2464,
      "penÃŃ": 2465,
      "trem": 2466,
      "ĠzÃŃtra": 2467,
      "bla": 2468,
      "ÅĻila": 2469,
      "Ġmoji": 2470,
      "kaz": 2471,
      "ĠchceÅ¡": 2472,
      "ovÃ©": 2473,
      "ĠÄįest": 2474,
      "Bez": 2475,
      "ader": 2476,
      "Ġasi": 2477,
      "Ã¡s": 2478,
      "ryÄį": 2479,
      "ĠpÃŃsni": 2480,
      "Ġkmen": 2481,
      "ĠoÄįÃŃch": 2482,
      "ptÃ¡": 2483,
      "ĠlistÃŃ": 2484,
      "ĠdobrÃ©": 2485,
      "ĠneÅ¾li": 2486,
      "Ġlesa": 2487,
      "kru": 2488,
      "Kte": 2489,
      "ĠvÃŃru": 2490,
      "ĠuÄįi": 2491,
      "ĠhrobÄĽ": 2492,
      "Äįa": 2493,
      "ĠÅĻeÄįi": 2494,
      "ĠslyÅ¡ÃŃ": 2495,
      "snÃ¡": 2496,
      "vÃ½mi": 2497,
      "ĠkrÃ¡snÃ¡": 2498,
      "her": 2499,
      "ĠpravÃŃ": 2500,
      "dlÃŃ": 2501,
      "ĠpovÃŃ": 2502,
      "dka": 2503,
      "skem": 2504,
      "ĠBoha": 2505,
      "ĠrÃ¡no": 2506,
      "stvo": 2507,
      "cu": 2508,
      "ĠbudeÅ¡": 2509,
      "Ġvlas": 2510,
      "Ġblanky": 2511,
      "ĠCo": 2512,
      "Nem": 2513,
      "ĠmuÅ¾e": 2514,
      "ml": 2515,
      "ĠsplÃ½": 2516,
      "tnÄĽ": 2517,
      "ĠzÃ¡vo": 2518,
      "ĠmÃ¡me": 2519,
      "MnÄĽ": 2520,
      "Ġpil": 2521,
      "ĠmalÃ½": 2522,
      "ĠdlouhÃ©": 2523,
      "Ã¡n": 2524,
      "ĠsvÄĽtu": 2525,
      "ĠÅĪader": 2526,
      "ĠdobrÃ½": 2527,
      "Nu": 2528,
      "ĠmuÅ¾i": 2529,
      "Ġvln": 2530,
      "Ġzav": 2531,
      "ĠÅ¾il": 2532,
      "noucÃŃ": 2533,
      "Ġrozum": 2534,
      "ĠplÃ¡Äįe": 2535,
      "ĠsÃŃlu": 2536,
      "hly": 2537,
      "Ġsme": 2538,
      "Ġslov": 2539,
      "ĠmilÃ©": 2540,
      "Ġroste": 2541,
      "ĠkrÃ¡se": 2542,
      "hni": 2543,
      "dek": 2544,
      "ĠbÅĻehu": 2545,
      "Ġlidstva": 2546,
      "kajÃŃ": 2547,
      "ĠmotÃ½": 2548,
      "ĠkÅĻÃŃd": 2549,
      "Ġradosti": 2550,
      "Ġlese": 2551,
      "ĠaÄį": 2552,
      "bito": 2553,
      "ĠrÃ¡j": 2554,
      "Ġdobro": 2555,
      "Ġdou": 2556,
      "Ġvede": 2557,
      "jÃŃch": 2558,
      "Pa": 2559,
      "hor": 2560,
      "zÃŃm": 2561,
      "vÃŃrÃ¡": 2562,
      "nouti": 2563,
      "ot": 2564,
      "Ġpest": 2565,
      "teÄį": 2566,
      "ĠkrÃ¡snÃ½": 2567,
      "chou": 2568,
      "Ġpravil": 2569,
      "ĠplÃ¡Äį": 2570,
      "ĠÄįasu": 2571,
      "TÄĽ": 2572,
      "Ġdve": 2573,
      "Å¡nÃ½": 2574,
      "ĠmajÃŃ": 2575,
      "ĠslyÅ¡el": 2576,
      "Jsou": 2577,
      "jdu": 2578,
      "ĠjakÃ©": 2579,
      "Ġzrakem": 2580,
      "lku": 2581,
      "ĠpamÄĽ": 2582,
      "Ġjiz": 2583,
      "ĠhvÄĽzda": 2584,
      "Ġspou": 2585,
      "Ġnev": 2586,
      "ĠvÃ½Å¡i": 2587,
      "Ġcesta": 2588,
      "ĠkrÃ¡li": 2589,
      "ĠrÃ¡z": 2590,
      "dÃ©m": 2591,
      "Ġnaz": 2592,
      "ach": 2593,
      "lenÃ½": 2594,
      "ÅĻenÃ©": 2595,
      "rnÃŃ": 2596,
      "ĠvÅ¯le": 2597,
      "Ġokna": 2598,
      "ĠkaÅ¾dÃ¡": 2599,
      "Ġtrp": 2600,
      "ĠdÄĽtÃŃ": 2601,
      "ĠkonÄĽ": 2602,
      "ĠzÅĻÃŃm": 2603,
      "neÅ¡en": 2604,
      "Äįila": 2605,
      "dosti": 2606,
      "Ġpovz": 2607,
      "Ġvez": 2608,
      "Ġpros": 2609,
      "rej": 2610,
      "Å¡Å¥ast": 2611,
      "Vo": 2612,
      "vÄĽz": 2613,
      "Ġvys": 2614,
      "dÃ¡nÃŃ": 2615,
      "zpÃŃ": 2616,
      "chÃ©": 2617,
      "Ġprapo": 2618,
      "ĠÅ¡umÃŃ": 2619,
      "Ġchle": 2620,
      "ĠÄįÃ¡": 2621,
      "sed": 2622,
      "Ġnim": 2623,
      "ĠpÃ½ch": 2624,
      "Ġstromy": 2625,
      "ĠchÃ¡": 2626,
      "rÅ¯pÄĽ": 2627,
      "roj": 2628,
      "Å¯l": 2629,
      "Å¾ik": 2630,
      "ĠÄįernÃ½": 2631,
      "hna": 2632,
      "nami": 2633,
      "Ġvti": 2634,
      "Ġklet": 2635,
      "Ġnebyl": 2636,
      "ĠÅ¡la": 2637,
      "ĠzdrÃ¡": 2638,
      "ĠsrdcÃŃ": 2639,
      "Ġzach": 2640,
      "Ġkdes": 2641,
      "Ġklam": 2642,
      "ĠklonÃŃ": 2643,
      "Ġlidem": 2644,
      "ĠjmÃ©no": 2645,
      "ĠcÃŃtÃŃm": 2646,
      "ĠblÃ½": 2647,
      "ĠzvonÃŃ": 2648,
      "cet": 2649,
      "Ġcos": 2650,
      "pit": 2651,
      "ĠmnohÃ½": 2652,
      "Ġjazy": 2653,
      "ĠnedÃ¡": 2654,
      "Ġrty": 2655,
      "Zas": 2656,
      "ĠvÅ¡emi": 2657,
      "ĠvÄĽÄįnÃ½": 2658,
      "ĠâĢĵâĢľ": 2659,
      "ĠPÃ¡n": 2660,
      "mil": 2661,
      "dnÃ½ch": 2662,
      "ĠPe": 2663,
      "Ġtento": 2664,
      "ĠdruhÃ©": 2665,
      "KaÅ¾": 2666,
      "Ġposud": 2667,
      "ĠAn": 2668,
      "Ġztracen": 2669,
      "Ã¡Å¡": 2670,
      "jim": 2671,
      "ĠveÄįe": 2672,
      "Ġnapos": 2673,
      "UÅ¾": 2674,
      "zra": 2675,
      "stva": 2676,
      "ĠmalÃ©": 2677,
      "chÃ¡ze": 2678,
      "Ġsma": 2679,
      "Tys": 2680,
      "ĠzapomnÄĽ": 2681,
      "fi": 2682,
      "?!": 2683,
      "bit": 2684,
      "Ġjinak": 2685,
      "ĠchodÃŃ": 2686,
      "vÃ¡Å¡": 2687,
      "Ġduchu": 2688,
      "Ġboku": 2689,
      "ĠcÃŃtil": 2690,
      "ĠbratÅĻÃŃ": 2691,
      "ĠÅĺÃŃm": 2692,
      "Ġtla": 2693,
      "mrak": 2694,
      "ĠrytÃŃ": 2695,
      "Ġrozp": 2696,
      "hlÃ¡": 2697,
      "Äįnou": 2698,
      "Ġjmen": 2699,
      "ĠmizÃŃ": 2700,
      "Ġsladce": 2701,
      "Ġhlad": 2702,
      "vuje": 2703,
      "hÃ½m": 2704,
      "livÄĽ": 2705,
      "Ġman": 2706,
      "ĠsvÃ½mi": 2707,
      "ĠchrÃ¡m": 2708,
      "ĠrÃ¡zem": 2709,
      "Ġdala": 2710,
      "ĠstrÃ¡Å¾": 2711,
      "ĠbouÅĻi": 2712,
      "alo": 2713,
      "Ġotce": 2714,
      "bli": 2715,
      "ĠdnÅ¯": 2716,
      "Ġbije": 2717,
      "mat": 2718,
      "ÅĻÃŃÅ¡": 2719,
      "Ġval": 2720,
      "ĠkrÃ¡le": 2721,
      "Ġkterou": 2722,
      "ĠÅĻekl": 2723,
      "ĠnaÅĪ": 2724,
      "ĠnevÃŃm": 2725,
      "Ġdomu": 2726,
      "Ġleb": 2727,
      "Å¾Å¡ÃŃ": 2728,
      "met": 2729,
      "DÄĽ": 2730,
      "SvÄĽt": 2731,
      "kvÃŃ": 2732,
      "Ġmilu": 2733,
      "ĠtÄĽm": 2734,
      "Ġpravda": 2735,
      "duch": 2736,
      "nÃ©mu": 2737,
      "Ġslz": 2738,
      "Å¡u": 2739,
      "Ġtakto": 2740,
      "ĠvalÃŃ": 2741,
      "volÃ¡": 2742,
      "Ġkoste": 2743,
      "Ġmysl": 2744,
      "nese": 2745,
      "Å¡t": 2746,
      "ĠdÅ¯m": 2747,
      "ĠVÃŃ": 2748,
      "ĠstarÃ½ch": 2749,
      "sle": 2750,
      "ĠvzÃ¡c": 2751,
      "hÃ¡m": 2752,
      "ĠCh": 2753,
      "Sta": 2754,
      "Ġstvo": 2755,
      "Ġmilosti": 2756,
      "vÅ¡ech": 2757,
      "Ġspi": 2758,
      "Ze": 2759,
      "kni": 2760,
      "Ġzpo": 2761,
      "kot": 2762,
      "ĠtisÃŃce": 2763,
      "stala": 2764,
      "ĠloÄı": 2765,
      "Ġscho": 2766,
      "ĠtvÃ½m": 2767,
      "Äįas": 2768,
      "ĠmÄĽsto": 2769,
      "Å¾ÃŃÅ¡": 2770,
      "ĠTÄĽ": 2771,
      "ĠLu": 2772,
      "Ġpravdu": 2773,
      "Ġsmutek": 2774,
      "Ġbrzy": 2775,
      "nosÅ¥": 2776,
      "Ġbudouc": 2777,
      "staÅĪ": 2778,
      "ĠbÄĽda": 2779,
      "ĠpÃ¡ni": 2780,
      "ĠdÃ¡t": 2781,
      "stÃŃm": 2782,
      "ĠjednÃ©": 2783,
      "ĠhnÄĽv": 2784,
      "ĠtÅĻÃ¡": 2785,
      "Ġkal": 2786,
      "lav": 2787,
      "...âĢľ": 2788,
      "ĠpÃ©": 2789,
      "ĠdvÃ©": 2790,
      "Ġpoe": 2791,
      "ĠdruhÃ½": 2792,
      "Ġvzduch": 2793,
      "ĠslÃ¡vÄĽ": 2794,
      "ĠÅ¾ÃŃti": 2795,
      "ZÃ¡": 2796,
      "Ġslza": 2797,
      "ĠzÃ¡hy": 2798,
      "ĠrÃ¡da": 2799,
      "mÃ¡ch": 2800,
      "Ġzlat": 2801,
      "ĠhÅĻbito": 2802,
      "stat": 2803,
      "Ġzhas": 2804,
      "Ġubo": 2805,
      "ĠÄıÃ¡": 2806,
      "ĠmÄĽnÃŃ": 2807,
      "ĠklÃŃn": 2808,
      "Ġzapla": 2809,
      "hro": 2810,
      "Ġmdlo": 2811,
      "ĠdrahÃ½": 2812,
      "Ġmohl": 2813,
      "ĠjasnÃ©": 2814,
      "Ġonen": 2815,
      "ĠKar": 2816,
      "Ġpout": 2817,
      "ĠvÅ¡ÃŃm": 2818,
      "hlo": 2819,
      "Ġnohy": 2820,
      "Ġplane": 2821,
      "ĠtÄĽÅ¾kÃ©": 2822,
      "jednou": 2823,
      "Ġzadu": 2824,
      "Ġhas": 2825,
      "Ġdoko": 2826,
      "ĠÃºtÄĽ": 2827,
      "ĠlÃŃc": 2828,
      "Ġrost": 2829,
      "ĠkrÅ¯pÄĽ": 2830,
      "ĠslyÅ¡ÃŃm": 2831,
      "ToÅ¥": 2832,
      "ĠJÃ¡": 2833,
      "ĠkÃ½": 2834,
      "tor": 2835,
      "ĠrozkoÅ¡": 2836,
      "Ġpramen": 2837,
      "ĠmÃŃti": 2838,
      "ĠdÄĽla": 2839,
      "ĠkvÄĽtu": 2840,
      "ĠmoÅ¾no": 2841,
      "Ġpodo": 2842,
      "ĠzemÃŃ": 2843,
      "ĠjÃŃt": 2844,
      "ĠsvatÃ¡": 2845,
      "ĠzdÃ¡lo": 2846,
      "Ġset": 2847,
      "ĠknÃŃÅ¾e": 2848,
      "Ġjin": 2849,
      "ĠVÃ¡m": 2850,
      "Ġzcela": 2851,
      "mne": 2852,
      "ĠÅ¾enu": 2853,
      "Ġprsa": 2854,
      "jÃŃce": 2855,
      "kvet": 2856,
      "Ġtry": 2857,
      "rnÃ¡": 2858,
      "ĠTvÃ©": 2859,
      "Ġvenku": 2860,
      "nÄĽl": 2861,
      "Å¾ila": 2862,
      "lena": 2863,
      "tno": 2864,
      "ĠTobÄĽ": 2865,
      "cÅ¯m": 2866,
      "lnÃŃ": 2867,
      "Ġhlo": 2868,
      "ĠVy": 2869,
      "ĠvracÃŃ": 2870,
      "Ġpodzim": 2871,
      "ĠslÃ¡vu": 2872,
      "ĠsklÃ¡nÃŃ": 2873,
      "go": 2874,
      "tÄĽch": 2875,
      "ĠmodrÃ©": 2876,
      "vobo": 2877,
      "ĠtenkrÃ¡t": 2878,
      "blou": 2879,
      "ĠÅ¡le": 2880,
      "dÃ¡ch": 2881,
      "ĠkdoÅ¾": 2882,
      "Ġhospo": 2883,
      "cad": 2884,
      "vÄĽd": 2885,
      "pÄĽv": 2886,
      "ĠzlatÃ¡": 2887,
      "Ġnade": 2888,
      "ĠzÃ¡zrak": 2889,
      "ĠslÃŃ": 2890,
      "Ġposled": 2891,
      "ĠzachvÄĽ": 2892,
      "Äıte": 2893,
      "Ġcen": 2894,
      "ĠdÃŃvka": 2895,
      "ĠtÄĽle": 2896,
      "RÃ¡": 2897,
      "Ġples": 2898,
      "ĠjehoÅ¾": 2899,
      "snÄĽjÅ¡ÃŃ": 2900,
      "kterÃ©": 2901,
      "jeÅ¡": 2902,
      "Ġvrcho": 2903,
      "bÅĻe": 2904,
      "lan": 2905,
      "Ġar": 2906,
      "Ġtruch": 2907,
      "rnou": 2908,
      "Ġhej": 2909,
      "jÅ¡ÃŃm": 2910,
      "ĠjejÃŃm": 2911,
      "stvÃŃm": 2912,
      "Ġzvuk": 2913,
      "mÃ¡m": 2914,
      "ĠrÃ¡je": 2915,
      "rat": 2916,
      "ÅĻÃŃv": 2917,
      "ĠptÃ¡ci": 2918,
      "Ġnechce": 2919,
      "ĠnesmÃŃ": 2920,
      "JenÅ¾": 2921,
      "lka": 2922,
      "Ġvztek": 2923,
      "ĠcoÅ¾": 2924,
      "Ġnesly": 2925,
      "ĠmusÃŃm": 2926,
      "slÃŃ": 2927,
      "ĠdÅ¯vÄĽ": 2928,
      "ĠzÃ¡m": 2929,
      "pÃ¡tky": 2930,
      "ĠleÄį": 2931,
      "Ġnevin": 2932,
      "Ġoka": 2933,
      "Ġhlaho": 2934,
      "Ġteprv": 2935,
      "padÃ¡": 2936,
      "hÃ¡nÃŃ": 2937,
      "Ġtemno": 2938,
      "ĠvÃ¡mi": 2939,
      "ĠsluÅ¾": 2940,
      "ĠstejnÄĽ": 2941,
      "ĠÅĻeÄįÃŃ": 2942,
      "ĠJa": 2943,
      "lÃ¡ch": 2944,
      "Ġbohem": 2945,
      "ĠrÅ¯Å¾o": 2946,
      "Ġmoci": 2947,
      "ĠchtÄĽla": 2948,
      "Å¡ko": 2949,
      "Ġkali": 2950,
      "bÃ©": 2951,
      "kÃ©ho": 2952,
      "Ġkterak": 2953,
      "Ġbratr": 2954,
      "Ġjednu": 2955,
      "ĠrudÃ©": 2956,
      "Ġpravdy": 2957,
      "ĠvÄĽc": 2958,
      "Ġspra": 2959,
      "ĠdlouhÃ½": 2960,
      "slav": 2961,
      "kterÃ½": 2962,
      "MÄĽ": 2963,
      "Ġprobu": 2964,
      "znÃ©": 2965,
      "ĠbÃŃlÃ½ch": 2966,
      "Nez": 2967,
      "dÄĽnÃŃ": 2968,
      "ĠpÅĻede": 2969,
      "ĠdÃ¡lku": 2970,
      "Ġzoufal": 2971,
      "ĠÄįeskÃ©": 2972,
      "ĠobrÃ¡": 2973,
      "Ġzhy": 2974,
      "Ġzba": 2975,
      "Ġporo": 2976,
      "PÅĻÃŃ": 2977,
      "nÄĽn": 2978,
      "ĠmladÃ¡": 2979,
      "ĠvÅ¯li": 2980,
      "dali": 2981,
      "ĠvÅ¯kol": 2982,
      "Ġbojo": 2983,
      "ĠvonÃŃ": 2984,
      "ĠnechÅ¥": 2985,
      "ĠmÄĽsÃŃ": 2986,
      "Ġklidu": 2987,
      "amÄĽ": 2988,
      "Äįej": 2989,
      "Ġmraky": 2990,
      "dku": 2991,
      "ĠvelkÃ¡": 2992,
      "toÅ¾": 2993,
      "ĠblÃŃz": 2994,
      "jsi": 2995,
      "ÅĻÅ¯": 2996,
      "Ġrok": 2997,
      "Ġnak": 2998,
      "Ġzro": 2999,
      "ĠmraÄį": 3000,
      "Ġjeze": 3001,
      "vili": 3002,
      "ĠnoÄįnÃŃ": 3003,
      "ĠpÅĻiÅ¡la": 3004,
      "zdo": 3005,
      "ĠtÃ³": 3006,
      "dili": 3007,
      "ÄĮe": 3008,
      "nÅ¯m": 3009,
      "LÃ¡": 3010,
      "Ġklad": 3011,
      "ĠÃºdo": 3012,
      "ĠneznÃ¡": 3013,
      "tec": 3014,
      "pÄĽl": 3015,
      "Ġstaro": 3016,
      "ĠtÅ¯": 3017,
      "Ġzasta": 3018,
      "ĠobjetÃŃ": 3019,
      "ĠdennÄĽ": 3020,
      "kej": 3021,
      "Ġnepro": 3022,
      "ĠpevnÄĽ": 3023,
      "St": 3024,
      "Aby": 3025,
      "mÅ¯j": 3026,
      "chvÃ¡": 3027,
      "ĠkaÅ¾dou": 3028,
      "ĠdÅĻÃŃve": 3029,
      "moc": 3030,
      "Ġblaha": 3031,
      "Ġzdi": 3032,
      "Ġsilou": 3033,
      "ĠsmÃŃchu": 3034,
      "vice": 3035,
      "ĠvÅ¯nÃŃ": 3036,
      "ĠDu": 3037,
      "bat": 3038,
      "ĠVa": 3039,
      "ĠstÃ¡la": 3040,
      "Ġhrou": 3041,
      "ĠnepÅĻi": 3042,
      "diÅ¾": 3043,
      "Ġsami": 3044,
      "ĠzvedÃ¡": 3045,
      "Ġvlo": 3046,
      "ĠnepÅĻÃŃ": 3047,
      "Ġkrou": 3048,
      "ĠskÅĻi": 3049,
      "ĠstavÃŃ": 3050,
      "Ġzlata": 3051,
      "ĠsmutnÄĽ": 3052,
      "Mar": 3053,
      "pem": 3054,
      "sit": 3055,
      "Ġlam": 3056,
      "ĠNÄĽ": 3057,
      "ĠtÃ¡hne": 3058,
      "liÄį": 3059,
      "Ġur": 3060,
      "Å¾enÃ©": 3061,
      "jejÅ¾": 3062,
      "domÃŃ": 3063,
      "kvÄĽ": 3064,
      "lel": 3065,
      "ĠzatÃŃm": 3066,
      "Ġpoho": 3067,
      "bro": 3068,
      "cti": 3069,
      "bÅ¯": 3070,
      "noc": 3071,
      "Ġspas": 3072,
      "ĠdÃ¡lce": 3073,
      "ĠtouÅ¾ÃŃ": 3074,
      "Slu": 3075,
      "ĠvÃ½ch": 3076,
      "jÃŃmÃ¡": 3077,
      "Å¡it": 3078,
      "pÅĻec": 3079,
      "ĠchrÃ¡mu": 3080,
      "Ġkyne": 3081,
      "ĠpÅĻÃ¡tel": 3082,
      "hdy": 3083,
      "ĠkrÃ¡sa": 3084,
      "ĠnÃŃz": 3085,
      "ĠÅĪadra": 3086,
      "ady": 3087,
      "ĠplÃŃ": 3088,
      "Å¡nÃŃ": 3089,
      "enÃ¡vi": 3090,
      "tnou": 3091,
      "ĠbÄĽÅ¾ÃŃ": 3092,
      "Ġpsa": 3093,
      "Ġhan": 3094,
      "tala": 3095,
      "Hla": 3096,
      "ĠlepÅ¡ÃŃ": 3097,
      "rel": 3098,
      "Ġju": 3099,
      "ĠnepÅĻÃ¡": 3100,
      "ĠÅĻeky": 3101,
      "ĠodpovÄĽ": 3102,
      "Ġzni": 3103,
      "ĠÄįlovÄĽka": 3104,
      "ĠvÄĽk": 3105,
      "ĠÅĻÃŃÅ¡e": 3106,
      "ĠÃºsmÄĽvem": 3107,
      "kovÃ©": 3108,
      "lÃ©z": 3109,
      "ĠzlatÃ½ch": 3110,
      "Vla": 3111,
      "ĠzÅĻe": 3112,
      "Ġpotu": 3113,
      "ĠkvÄĽti": 3114,
      "ĠBohem": 3115,
      "Ġned": 3116,
      "ĠkrÃ¡su": 3117,
      "Ġboha": 3118,
      "Ġcest": 3119,
      "Ġkrokem": 3120,
      "ĠvzplÃ¡": 3121,
      "ĠbÃ½vÃ¡": 3122,
      "au": 3123,
      "Ġzrcad": 3124,
      "emi": 3125,
      "Mu": 3126,
      "raz": 3127,
      "lova": 3128,
      "ĠcestÄĽ": 3129,
      "ĠhÃ½": 3130,
      "ĠvÃŃÅ¡": 3131,
      "mÃ½": 3132,
      "ĠbÅĻÃŃ": 3133,
      "ĠjedinÃ½": 3134,
      "Ġhez": 3135,
      "Ġdum": 3136,
      "ĠÄįasy": 3137,
      "Ġhudba": 3138,
      "Ġdny": 3139,
      "NÄĽ": 3140,
      "Ġsoud": 3141,
      "ctvÃŃ": 3142,
      "Å¡ÃŃch": 3143,
      "ĠlÃŃbÃ¡": 3144,
      "Ġzmat": 3145,
      "ple": 3146,
      "tnÃ¡": 3147,
      "ĠvrÃ¡tÃŃ": 3148,
      "MÃ©": 3149,
      "ĠmalÃ¡": 3150,
      "tÃ©Å¾": 3151,
      "Ġnovou": 3152,
      "Ġstrany": 3153,
      "lky": 3154,
      "ĠstÃ¡t": 3155,
      "ĠsmutnÃ©": 3156,
      "Ġhochu": 3157,
      "Ġholu": 3158,
      "ĠrtÅ¯": 3159,
      "Ma": 3160,
      "ĠÃĵ": 3161,
      "Ġskvost": 3162,
      "pomen": 3163,
      "kojen": 3164,
      "toÅ¥": 3165,
      "ĠlÃŃci": 3166,
      "ĠvroucÃŃ": 3167,
      "asu": 3168,
      "Ġkroky": 3169,
      "ĠbledÃ¡": 3170,
      "nÄĽnÃŃ": 3171,
      "venÃ©": 3172,
      "ĠmrtvÃ½ch": 3173,
      "hnul": 3174,
      "Ġzka": 3175,
      "Ġkonce": 3176,
      "ĠmlÄįÃŃ": 3177,
      "ĠtÅĻetÃŃ": 3178,
      "lej": 3179,
      "Ġpope": 3180,
      "Ġrtech": 3181,
      "kolem": 3182,
      "ĠÄįistÃ©": 3183,
      "Ġprud": 3184,
      "vrÃ¡tÃŃ": 3185,
      "bnÄĽ": 3186,
      "Pan": 3187,
      "ĠvÃ¡Å¡nÃŃ": 3188,
      "vot": 3189,
      "dro": 3190,
      "ĠÃºzko": 3191,
      "Ġspad": 3192,
      "ĠpalÃ¡": 3193,
      "ĠÄįaro": 3194,
      "Ku": 3195,
      "per": 3196,
      "Ġhnu": 3197,
      "pot": 3198,
      "hlÃ½": 3199,
      "kvÃ©": 3200,
      "ĠÅ¾el": 3201,
      "Ġmni": 3202,
      "ĠtoÄįÃŃ": 3203,
      "Ġrod": 3204,
      "han": 3205,
      "Ã¡r": 3206,
      "Ġhvo": 3207,
      "Srdce": 3208,
      "Ġtrou": 3209,
      "Ġhlasy": 3210,
      "ĠklesÃ¡": 3211,
      "ĠhÅĻÃŃch": 3212,
      "ĠÅ¾alu": 3213,
      "ĠblÃŃÅ¾ÃŃ": 3214,
      "Ġvlh": 3215,
      "ĠÅĻi": 3216,
      "Å¡ly": 3217,
      "ĠdÄĽs": 3218,
      "Ġide": 3219,
      "dna": 3220,
      "ĠÅ¾eh": 3221,
      "Ġklu": 3222,
      "Ġkat": 3223,
      "Ġpaprsk": 3224,
      "Den": 3225,
      "bem": 3226,
      "Äįo": 3227,
      "ĠmÃŃsta": 3228,
      "Ġcti": 3229,
      "Ġpokoj": 3230,
      "ĠbudÃŃ": 3231,
      "ĠzpÃ¡tky": 3232,
      "star": 3233,
      "ĠlesnÃŃ": 3234,
      "ĠjinÃ½ch": 3235,
      "Ġrozho": 3236,
      "ĠvÅĻa": 3237,
      "Ġom": 3238,
      "ĠvÃŃry": 3239,
      "ĠvÅ¡emu": 3240,
      "Ġslovem": 3241,
      "liv": 3242,
      "nechÅ¥": 3243,
      "ĠdlaÅĪ": 3244,
      "Ġlili": 3245,
      "ĠmrtvÃ©": 3246,
      "Ġpohle": 3247,
      "ĠnavÅ¾dy": 3248,
      "Ġblesky": 3249,
      "Ġosu": 3250,
      "livÃ½": 3251,
      "bel": 3252,
      "rek": 3253,
      "ĠcÃŃl": 3254,
      "bÃ¡ch": 3255,
      "Ġsest": 3256,
      "Ġjino": 3257,
      "ĠpÅĻedu": 3258,
      "Ġhradu": 3259,
      "ĠbohatÃ½": 3260,
      "hnout": 3261,
      "nala": 3262,
      "ĠloÅ¾e": 3263,
      "Ġvzduchu": 3264,
      "tÃ¡n": 3265,
      "ĠkteÅĻÃŃ": 3266,
      "nikÃ¡": 3267,
      "blesk": 3268,
      "ec": 3269,
      "Ġtichu": 3270,
      "ĠÅ¾Ã¡dnÃ½": 3271,
      "Ġmrtvo": 3272,
      "mrtel": 3273,
      "ĠvÄįera": 3274,
      "Ġstesk": 3275,
      "ĠchtÃŃ": 3276,
      "ĠVla": 3277,
      "ĠslyÅ¡et": 3278,
      "TvÃ¡": 3279,
      "ĠÄįt": 3280,
      "ĠbÃŃlou": 3281,
      "Ġdav": 3282,
      "ĠovÅ¡em": 3283,
      "Ġbolu": 3284,
      "ĠNi": 3285,
      "Å¾enÃ½": 3286,
      "ĠknÄĽÅ¾": 3287,
      "Ġletu": 3288,
      "ĠsladkÃ¡": 3289,
      "Nej": 3290,
      "lenÃ¡": 3291,
      "rÅ¯m": 3292,
      "ĠmÄĽli": 3293,
      "Ġsad": 3294,
      "Ġcy": 3295,
      "ĠslyÅ¡": 3296,
      "srdce": 3297,
      "Ġzlatem": 3298,
      "Ġpolib": 3299,
      "nitÅĻ": 3300,
      "ĠvÄĽn": 3301,
      "cenÃŃ": 3302,
      "hÃ©m": 3303,
      "nkou": 3304,
      "Ġono": 3305,
      "ol": 3306,
      "Ġsty": 3307,
      "koj": 3308,
      "Ġnesou": 3309,
      "An": 3310,
      "lÃ©tÃ¡": 3311,
      "ĠVe": 3312,
      "ĠnÄĽkdo": 3313,
      "tej": 3314,
      "tÄĽz": 3315,
      "vede": 3316,
      "hajÃŃ": 3317,
      "ĠkvÄĽtem": 3318,
      "ĠÄįernÃ½ch": 3319,
      "Ġbro": 3320,
      "ĠopuÅ¡tÄĽ": 3321,
      "ĠrÃ¡nu": 3322,
      "kost": 3323,
      "ĠdÄĽdi": 3324,
      "ĠvisÃŃ": 3325,
      "ĠnadÅ¡en": 3326,
      "Ġsmutku": 3327,
      "bnÃ©": 3328,
      "JeÅ¡tÄĽ": 3329,
      "cenÃ©": 3330,
      "les": 3331,
      "Ġhosti": 3332,
      "ĠlÃŃto": 3333,
      "Ġstrach": 3334,
      "Ġodpu": 3335,
      "Ġpodle": 3336,
      "mnÃŃ": 3337,
      "zvo": 3338,
      "Ġpek": 3339,
      "Ġmlhy": 3340,
      "blo": 3341,
      "Ġruch": 3342,
      "AÄį": 3343,
      "Ġbolesti": 3344,
      "ĠvzneÅ¡en": 3345,
      "chra": 3346,
      "cos": 3347,
      "Äįiny": 3348,
      "Ġsoumrak": 3349,
      "svÅ¯j": 3350,
      "Ġtvr": 3351,
      "ĠpotÄĽ": 3352,
      "Ġutr": 3353,
      "tat": 3354,
      "Ġrozu": 3355,
      "ĠÄįeskÃ½": 3356,
      "Di": 3357,
      "hlou": 3358,
      "Mno": 3359,
      "Å¡to": 3360,
      "Ġsyna": 3361,
      "ĠtÅĻese": 3362,
      "vÃŃÅ¡": 3363,
      "Ġhoch": 3364,
      "ĠskrÃ¡ÅĪ": 3365,
      "Noc": 3366,
      "svÄĽ": 3367,
      "Å¾nÃ©": 3368,
      "Äįela": 3369,
      "ĠzdravÃŃ": 3370,
      "ĠohnÄĽm": 3371,
      "Ġzvon": 3372,
      "ĠzprÃ¡": 3373,
      "ĠzvlÃ¡": 3374,
      "Ġrej": 3375,
      "rozen": 3376,
      "nÃ¡Å¡e": 3377,
      "pomnÄĽ": 3378,
      "ĠvidÄĽt": 3379,
      "ĠrÅ¯Å¾i": 3380,
      "Ġvle": 3381,
      "ĠkoÅĻi": 3382,
      "prav": 3383,
      "ĠÅĪadrech": 3384,
      "ĠvÄĽci": 3385,
      "ĠpÅĻÃŃÅ¡e": 3386,
      "MÃ¡m": 3387,
      "kl": 3388,
      "ĠvÅ¯ni": 3389,
      "ĠPÃ¡nÄĽ": 3390,
      "Ġoblak": 3391,
      "ĠvyÅ¡el": 3392,
      "ĠblÃŃÅ¾e": 3393,
      "ĠbledÃ©": 3394,
      "Ġdechem": 3395,
      "Ġvelkou": 3396,
      "ĠvÃŃno": 3397,
      "ost": 3398,
      "ĠnenÃ¡vi": 3399,
      "Ġdvou": 3400,
      "ĠÅ¾ene": 3401,
      "stupu": 3402,
      "kterÃ¡": 3403,
      "byla": 3404,
      "tne": 3405,
      "ĠmrÃ¡z": 3406,
      "Ġzapad": 3407,
      "dÃ¡vÃ¡": 3408,
      "ĠdÅĻe": 3409,
      "Ġdali": 3410,
      "ĠÅĻas": 3411,
      "Ġvstou": 3412,
      "Ġzma": 3413,
      "coÅ¾": 3414,
      "bec": 3415,
      "ĠlidskÃ½": 3416,
      "SÃ¡m": 3417,
      "vedl": 3418,
      "hÅĻ": 3419,
      "tÅĻ": 3420,
      "Ġzku": 3421,
      "Ġvzde": 3422,
      "Ġnitru": 3423,
      "ĠztrÃ¡cÃŃ": 3424,
      "zenÃŃ": 3425,
      "Ġvze": 3426,
      "ĠdÃŃlo": 3427,
      "Ġskon": 3428,
      "bÅ¯h": 3429,
      "tili": 3430,
      "Ġobli": 3431,
      "venÃ½": 3432,
      "Ġuna": 3433,
      "chom": 3434,
      "ĠPane": 3435,
      "ĠtvojÃŃ": 3436,
      "hÅ¯m": 3437,
      "kva": 3438,
      "plo": 3439,
      "zek": 3440,
      "ĠjasnÃ½": 3441,
      "ĠSi": 3442,
      "ĠvraÅ¾": 3443,
      "Ġsbo": 3444,
      "ĠkoÅĻen": 3445,
      "ĠdÅĻÃŃmÃ¡": 3446,
      "ĠÄįty": 3447,
      "bys": 3448,
      "Ġkdesi": 3449,
      "rnÃ½ch": 3450,
      "ĠtÄĽÅ¾kÃ½": 3451,
      "dlÃ©": 3452,
      "Ġzlatou": 3453,
      "ĠstÃ©": 3454,
      "jo": 3455,
      "ĠtichÃ¡": 3456,
      "Ġplach": 3457,
      "ĠumÃŃrÃ¡": 3458,
      "ĠvÅ¡i": 3459,
      "Äįkem": 3460,
      "rad": 3461,
      "rajÃŃ": 3462,
      "Ġplno": 3463,
      "Ġlehce": 3464,
      "Ġdarmo": 3465,
      "cÃ½": 3466,
      "Ġchra": 3467,
      "Ġjitra": 3468,
      "Ha": 3469,
      "Ġnap": 3470,
      "vanÃ©": 3471,
      "dÄĽti": 3472,
      "ĠdÄĽje": 3473,
      "ĠhalÃŃ": 3474,
      "ĠzÃŃrÃ¡": 3475,
      "Ġzraku": 3476,
      "tkem": 3477,
      "Ġhad": 3478,
      "drÃ¡": 3479,
      "ĠspoleÄį": 3480,
      "ĠdÃ½Å¡e": 3481,
      "Ġchvat": 3482,
      "Ġlidstvo": 3483,
      "bila": 3484,
      "ĠpÃ¡r": 3485,
      "ĠplÃ¡Äįi": 3486,
      "Ġsluncem": 3487,
      "bÃ¡m": 3488,
      "Ġmech": 3489,
      "Ġsluch": 3490,
      "klid": 3491,
      "sÃŃch": 3492,
      "ĠrannÃŃ": 3493,
      "Å¾ka": 3494,
      "ĠVÄĽ": 3495,
      "ĠjÃŃti": 3496,
      "Ġtuto": 3497,
      "tvÃ©": 3498,
      "Ġpln": 3499,
      "svÃ½m": 3500,
      "Ra": 3501,
      "Å¾nÄĽ": 3502,
      "ĠÄįist": 3503,
      "Ġdoba": 3504,
      "PojÄı": 3505,
      "ĠnadÅ¡enÃŃ": 3506,
      "ĠpatÅĻÃŃ": 3507,
      "ÅĻad": 3508,
      "ĠtoÅ¥": 3509,
      "Ġsnem": 3510,
      "Ġvytr": 3511,
      "Ġcu": 3512,
      "ckÃ½ch": 3513,
      "sÃ½": 3514,
      "benÃŃ": 3515,
      "chci": 3516,
      "ĠotÃ¡": 3517,
      "ĠzÃ¡vi": 3518,
      "ĠtemnÃ©": 3519,
      "Ġuvi": 3520,
      "sli": 3521,
      "vky": 3522,
      "Å¾ky": 3523,
      "Ġneroz": 3524,
      "zuje": 3525,
      "svit": 3526,
      "Ġnebylo": 3527,
      "bnÃ½": 3528,
      "dÄĽji": 3529,
      "Ġproro": 3530,
      "Ġzbo": 3531,
      "ĠkaÅ¾dÃ©m": 3532,
      "lovÃ©": 3533,
      "ĠskÅĻÃŃ": 3534,
      "Ġseve": 3535,
      "bek": 3536,
      "peÅ¾": 3537,
      "venÃŃ": 3538,
      "Ġraj": 3539,
      "Ġhar": 3540,
      "vÄĽl": 3541,
      "zlo": 3542,
      "telÃ©": 3543,
      "Ġspani": 3544,
      "nuly": 3545,
      "ĠdÃ¡ti": 3546,
      "ĠTvo": 3547,
      "Ġmlha": 3548,
      "ĠsmutnÃ½": 3549,
      "MÃŃ": 3550,
      "diÄį": 3551,
      "ĠZa": 3552,
      "ter": 3553,
      "ĠbolÃŃ": 3554,
      "Ġcizi": 3555,
      "spÃŃ": 3556,
      "Å¡ÃŃÅ¡": 3557,
      "Ce": 3558,
      "jeho": 3559,
      "ĠhuÄįÃŃ": 3560,
      "ama": 3561,
      "ĠboÅ¾e": 3562,
      "ĠsvÄĽty": 3563,
      "zky": 3564,
      "Ġvola": 3565,
      "ĠKa": 3566,
      "Ġmati": 3567,
      "ĠsmÄĽle": 3568,
      "Ru": 3569,
      "Ġpouta": 3570,
      "ĠrokÅ¯": 3571,
      "Ġstane": 3572,
      "Ġlze": 3573,
      "ĠjasnÄĽ": 3574,
      "ĠandÄĽ": 3575,
      "NenÃŃ": 3576,
      "slad": 3577,
      "ĠpsÃ¡": 3578,
      "Ġhroby": 3579,
      "ĠhrÅ¯zou": 3580,
      "rozu": 3581,
      "voucÃŃ": 3582,
      "sie": 3583,
      "ĠsplÃ½vÃ¡": 3584,
      "ĠsnÄĽhu": 3585,
      "?...": 3586,
      "dni": 3587,
      "kali": 3588,
      "ĠÅ¡li": 3589,
      "Ġstalo": 3590,
      "ĠvÃ¡Å¡nÄĽ": 3591,
      "Ġosla": 3592,
      "ĠotcÅ¯": 3593,
      "Ġkar": 3594,
      "ie": 3595,
      "ĠnovÃ¡": 3596,
      "Ġnebem": 3597,
      "livÃ©": 3598,
      "tud": 3599,
      "Ġtichou": 3600,
      "ĠdÄĽvÄįe": 3601,
      "bar": 3602,
      "Ġzpu": 3603,
      "ĠpromÄĽ": 3604,
      "jdeÅ¡": 3605,
      "ĠdÄĽcko": 3606,
      "ĠvÃŃna": 3607,
      "Ġpomoc": 3608,
      "vci": 3609,
      "Ġvzpla": 3610,
      "Ġbleskem": 3611,
      "ĠznÄĽl": 3612,
      "Ġvna": 3613,
      "ĠnÃ¡ruÄįÃŃ": 3614,
      "ĠmrÃ¡": 3615,
      "Ġchleba": 3616,
      "Ġjimi": 3617,
      "ĠmÃ¡te": 3618,
      "Nebo": 3619,
      "Ġvesele": 3620,
      "So": 3621,
      "Ġzhou": 3622,
      "lenou": 3623,
      "ĠpÄĽt": 3624,
      "ujÃŃ": 3625,
      "Ġtys": 3626,
      "Ġsynu": 3627,
      "Ġkom": 3628,
      "ĠchÃ½lÃŃ": 3629,
      "Å¾nÃ½": 3630,
      "ĠkolÃ©b": 3631,
      "Å¡a": 3632,
      "ĠzdÄĽ": 3633,
      "ÅĻec": 3634,
      "Ġfa": 3635,
      "ĠvÃŃra": 3636,
      "roucÃŃ": 3637,
      "pila": 3638,
      "Ġsvatou": 3639,
      "bled": 3640,
      "ĠvolnÄĽ": 3641,
      "Å¾Ã¡r": 3642,
      "Ġtato": 3643,
      "ĠpÅĻÃŃtel": 3644,
      "ĠveÄįera": 3645,
      "ĠsvÄĽtÅ¯": 3646,
      "ĠÅ¾enou": 3647,
      "pÃ©": 3648,
      "rÃ¡d": 3649,
      "ber": 3650,
      "Ġoken": 3651,
      "Ġtva": 3652,
      "ĠnovÃ½ch": 3653,
      "ĠpojÄı": 3654,
      "ĠTak": 3655,
      "cenÃ½": 3656,
      "ĠhorÃ¡ch": 3657,
      "Ġslune": 3658,
      "ĠplÃ¡po": 3659,
      "ĠptÃ¡Äįe": 3660,
      "Ġvsi": 3661,
      "Ġvlna": 3662,
      "ĠmÅĻÃŃ": 3663,
      "kÃ¡n": 3664,
      "ĠÅ¡lech": 3665,
      "tÃ¡nÃŃ": 3666,
      "Ġkolo": 3667,
      "ĠcitÅ¯": 3668,
      "ĠvÅ¾dyÅ¥": 3669,
      "ĠvÄĽtru": 3670,
      "kovi": 3671,
      "Kol": 3672,
      "zÅĻÃŃ": 3673,
      "ĠÅ¾ebrÃ¡": 3674,
      "Ġsladkou": 3675,
      "ĠFran": 3676,
      "tlu": 3677,
      "ĠonÄĽ": 3678,
      "Ani": 3679,
      "Ġkrvi": 3680,
      "ĠtÄĽÅ¾ce": 3681,
      "Ġdouf": 3682,
      "Ġpodiv": 3683,
      "ĠJen": 3684,
      "Oh": 3685,
      "Ġvoda": 3686,
      "Ġslovy": 3687,
      "ĠpÅ¯va": 3688,
      "ĠdÃŃvÄįÃŃ": 3689,
      "ĠcÃŃsaÅĻ": 3690,
      "Ġdle": 3691,
      "ÄįnÃ½ch": 3692,
      "letÄĽ": 3693,
      "ĠÃºÅ¾": 3694,
      "ĠVÃ¡c": 3695,
      "ĠpÃŃs": 3696,
      "ĠsmÄĽje": 3697,
      "Ġvzduchem": 3698,
      "Ġjsa": 3699,
      "ÅĻenÃ½": 3700,
      "Ġluny": 3701,
      "ĠmÃ©mu": 3702,
      "ĠkÅĻÃŃÅ¾e": 3703,
      "Ġzbu": 3704,
      "Ġprokle": 3705,
      "Ġhoj": 3706,
      "ĠchvÄĽl": 3707,
      "Ġhym": 3708,
      "ĠÄįet": 3709,
      "jenom": 3710,
      "Ġplna": 3711,
      "dnÃ½m": 3712,
      "jsme": 3713,
      "Ġneod": 3714,
      "ĠlkÃ¡": 3715,
      "Ġnevz": 3716,
      "ĠprosÃŃm": 3717,
      "Ġhost": 3718,
      "Ġnechci": 3719,
      "ĠnÄĽjak": 3720,
      "mek": 3721,
      "ĠbledÃ½": 3722,
      "ĠpamÃ¡": 3723,
      "ĠbloudÃŃ": 3724,
      "TvÃ©": 3725,
      "ckni": 3726,
      "LÃŃ": 3727,
      "ĠstÃŃnÅ¯": 3728,
      "Ġzvony": 3729,
      "rami": 3730,
      "Ġpov": 3731,
      "Ġpochy": 3732,
      "tan": 3733,
      "BÄĽ": 3734,
      "ĠlÅ¯Å¾": 3735,
      "ĠbÃ¡snÃŃk": 3736,
      "ĠplÃ©": 3737,
      "ĠpoÄįÃŃ": 3738,
      "viti": 3739,
      "ĠpravÃ½": 3740,
      "ĠtmavÃ©": 3741,
      "lin": 3742,
      "Ġnaslou": 3743,
      "Ġhraje": 3744,
      "Ġjdu": 3745,
      "vÃ¡ch": 3746,
      "NechÅ¥": 3747,
      "lio": 3748,
      "ĠtemnÄĽ": 3749,
      "ĠtmÃ¡ch": 3750,
      "Å¡le": 3751,
      "ĠupomÃŃ": 3752,
      "ĠvÄĽÅĻ": 3753,
      "Ġhrom": 3754,
      "ĠlidskÃ½ch": 3755,
      "ĠnÄĽmÃ½": 3756,
      "ĠNo": 3757,
      "chce": 3758,
      "ĠnaÅ¡el": 3759,
      "vÃ¡t": 3760,
      "ĠzÃ¡vra": 3761,
      "ĠmyslÃŃm": 3762,
      "ĠstÄĽny": 3763,
      "Ġkvetou": 3764,
      "Chce": 3765,
      "ĠvÅ¡ecka": 3766,
      "Ġstez": 3767,
      "zdra": 3768,
      "ĠpÃ¡lÃŃ": 3769,
      "Ġpur": 3770,
      "ĠRu": 3771,
      "ĠvÅ¡ÃŃ": 3772,
      "Ġzti": 3773,
      "ĠchudÃ©": 3774,
      "ĠpohÅĻ": 3775,
      "ĠvÄĽtvÃŃ": 3776,
      "smÃŃ": 3777,
      "Ġbudem": 3778,
      "ĠÄįernÃ¡": 3779,
      "ĠzpÃŃval": 3780,
      "ĠpÅĻÃ¡nÃŃ": 3781,
      "ĠmocÃŃ": 3782,
      "Nic": 3783,
      "Ġvnu": 3784,
      "ĠdlÃŃ": 3785,
      "Äįte": 3786,
      "Ġlidi": 3787,
      "ĠKristu": 3788,
      "SlyÅ¡": 3789,
      "Ġnaposled": 3790,
      "zdÄĽ": 3791,
      "ĠstaÄįÃŃ": 3792,
      "ĠjichÅ¾": 3793,
      "Ġbarev": 3794,
      "Ġvar": 3795,
      "Ġoce": 3796,
      "ĠHa": 3797,
      "Ġhlubin": 3798,
      "ĠklÃ¡Å¡te": 3799,
      "Ġprost": 3800,
      "Ġvznes": 3801,
      "ĠzÃ¡stup": 3802,
      "Ġcosi": 3803,
      "Ġmatce": 3804,
      "zvÄĽ": 3805,
      "dÃ¡Å¡": 3806,
      "mra": 3807,
      "ge": 3808,
      "Ġbohy": 3809,
      "Ġzvuky": 3810,
      "Ġpropast": 3811,
      "Ġsbor": 3812,
      "âĢľ,": 3813,
      "ĠvÄĽÅĻÃŃ": 3814,
      "pan": 3815,
      "ĠTu": 3816,
      "ĠjÃŃÅ¾": 3817,
      "ĠdlanÃŃ": 3818,
      "ĠnepÅĻe": 3819,
      "sila": 3820,
      "rku": 3821,
      "Ġstarou": 3822,
      "ĠsmrtÃŃ": 3823,
      "zka": 3824,
      "Hned": 3825,
      "mno": 3826,
      "lejÅ¡ÃŃ": 3827,
      "Ġlodi": 3828,
      "ĠmnohÃ©": 3829,
      "tce": 3830,
      "Ġvet": 3831,
      "Ġvzbu": 3832,
      "ĠbohÅ¯": 3833,
      "ĠÅĻekla": 3834,
      "ĠvÄĽÄįnosti": 3835,
      "ĠtÃŃÅ¾ÃŃ": 3836,
      "jÃŃmÅ¾": 3837,
      "menÃŃ": 3838,
      "Ġdobu": 3839,
      "ĠhÃ¡j": 3840,
      "Ġpadne": 3841,
      "Ġvypra": 3842,
      "ĠdÄĽc": 3843,
      "Zem": 3844,
      "Å¡tÄĽstÃŃ": 3845,
      "Ġposlou": 3846,
      "ĠzlÃŃ": 3847,
      "lec": 3848,
      "ĠposmÄĽ": 3849,
      "ĠdlanÄĽ": 3850,
      "rÃ½vÃ¡": 3851,
      "Ġrozech": 3852,
      "Å¡enÃ©": 3853,
      "bÃŃrÃ¡": 3854,
      "ĠJo": 3855,
      "ĠhrÅ¯zy": 3856,
      "ÄįnÃ½m": 3857,
      "Ġpouti": 3858,
      "Ġpode": 3859,
      "asa": 3860,
      "ĠVÅ¡ak": 3861,
      "ĠduchÅ¯": 3862,
      "ĠdÄĽji": 3863,
      "stej": 3864,
      "ĠdÃŃvky": 3865,
      "ĠbratÅĻi": 3866,
      "mÃŃm": 3867,
      "nÃŃkÅ¯": 3868,
      "Ġtako": 3869,
      "ĠÅ¾Ã¡dnÃ©": 3870,
      "ĠmocnÄĽ": 3871,
      "pce": 3872,
      "set": 3873,
      "Ġhodi": 3874,
      "Pr": 3875,
      "vno": 3876,
      "ĠvyprÃ¡": 3877,
      "daly": 3878,
      "Ġdavy": 3879,
      "Ġkouzel": 3880,
      "Ġkryje": 3881,
      "ĠvÄĽÅ¾e": 3882,
      "covÃ©": 3883,
      "ĠtajÃŃ": 3884,
      "osti": 3885,
      "krÃ¡te": 3886,
      "ĠptaÄįÃŃ": 3887,
      "ĠrodÃŃ": 3888,
      "ĠhÅĻmÃŃ": 3889,
      "VÃŃm": 3890,
      "ĠVÃ¡s": 3891,
      "ĠnemÄĽl": 3892,
      "ĠzpÄĽvu": 3893,
      "ĠtmÄĽ": 3894,
      "ĠvlasÅ¯": 3895,
      "cuje": 3896,
      "Ġmatko": 3897,
      "Ã¡ch": 3898,
      "ÅĻÃŃk": 3899,
      "ĠtrÃ¡vÄĽ": 3900,
      "krev": 3901,
      "Ġztich": 3902,
      "vor": 3903,
      "kouz": 3904,
      "ĠdobrÃ¡": 3905,
      "Ġzdr": 3906,
      "Ġmatku": 3907,
      "Ġvad": 3908,
      "ĠÅĻÃŃtÃŃ": 3909,
      "Ġobzor": 3910,
      "ĠjevÃŃ": 3911,
      "ĠjakÃ¡": 3912,
      "Ġled": 3913,
      "Ġvane": 3914,
      "Ãļ": 3915,
      "Ġlad": 3916,
      "ĠvÃ©": 3917,
      "NaÄį": 3918,
      "ĠzÃ¡pad": 3919,
      "ĠdivÃ½": 3920,
      "Ġtouze": 3921,
      "ĠbyÅ¥": 3922,
      "ĠmÄĽst": 3923,
      "ĠhledÄĽl": 3924,
      "hlÃŃÅ¾ÃŃ": 3925,
      "ĠprovÃ¡": 3926,
      "Ġprahu": 3927,
      "Å¾ili": 3928,
      "ĠVi": 3929,
      "Ġplnou": 3930,
      "ĠÄįase": 3931,
      "ĠhnÄĽvu": 3932,
      "Ġin": 3933,
      "ĠkÅĻÃŃdel": 3934,
      "ĠmlÄįky": 3935,
      "rovna": 3936,
      "Ġnesmrtel": 3937,
      "Ġpanen": 3938,
      "Ġkouzlo": 3939,
      "tvÅ¯j": 3940,
      "zav": 3941,
      "lest": 3942,
      "ĠTvÅ¯j": 3943,
      "ĠÅ¾ivotem": 3944,
      "Ġdni": 3945,
      "Ġchlu": 3946,
      "pÃŃnÃ¡": 3947,
      "ĠmeÄįe": 3948,
      "Jsi": 3949,
      "ĠzlÃ©": 3950,
      "Ġprst": 3951,
      "ÅĻÃ¡d": 3952,
      "ĠslzÃŃ": 3953,
      "ĠsnÃ¡ch": 3954,
      "Ġjakby": 3955,
      "Ġkade": 3956,
      "ĠÅ¡eru": 3957,
      "ĠLa": 3958,
      "zdÃ¡": 3959,
      "vosti": 3960,
      "jichÅ¾": 3961,
      "ĠschvÃ¡": 3962,
      "Ġ(": 3963,
      "ĠrÅ¯z": 3964,
      "Ġpust": 3965,
      "ĠhrdÄĽ": 3966,
      "Ġnebude": 3967,
      "vek": 3968,
      "ĠmÄĽstÄĽ": 3969,
      "ĠprÃ¡vo": 3970,
      "Ġtkli": 3971,
      "ĠnosÃŃ": 3972,
      "ĠnÄĽkde": 3973,
      "vka": 3974,
      "ĠÅ¡iro": 3975,
      "dlÃ¡": 3976,
      "Ġvnad": 3977,
      "Ġnoha": 3978,
      "Ġmodra": 3979,
      "skne": 3980,
      "ĠchladnÃ©": 3981,
      "ĠÄįin": 3982,
      "ĠcÃŃr": 3983,
      "Ġdnem": 3984,
      "ĠrudÃ½": 3985,
      "ĠpÅĻÃŃsa": 3986,
      "ĠjÃ¡so": 3987,
      "ĠÄįasÅ¯": 3988,
      "Ġrych": 3989,
      "Ġprudce": 3990,
      "ÄĮÃŃm": 3991,
      "Ġmramo": 3992,
      "ĠrytÃŃÅĻ": 3993,
      "ÅĪte": 3994,
      "Ġrek": 3995,
      "Ġjitro": 3996,
      "ĠprÃ¡va": 3997,
      "stÅĻi": 3998,
      "Ġuse": 3999,
      "ĠumÄĽnÃŃ": 4000,
      "ĠÅ¡edi": 4001,
      "ĠÅ¡edÃ©": 4002,
      "ĠÄįistÃ½": 4003,
      "ĠmeÄįem": 4004,
      "zÃ¡ch": 4005,
      "Ġprapor": 4006,
      "Ġkole": 4007,
      "Ġdraho": 4008,
      "ĠradostÃŃ": 4009,
      "ĠosamÄĽ": 4010,
      "Ġjazyk": 4011,
      "tÅĻi": 4012,
      "ĠzkÃ¡": 4013,
      "ĠÅ¡Ã¡": 4014,
      "ÅĪat": 4015,
      "Ġstran": 4016,
      "zÃ½": 4017,
      "ĠmlÃ½": 4018,
      "kaÅ¾dÃ½": 4019,
      "Ġholubi": 4020,
      "Bla": 4021,
      "zÅ¯": 4022,
      "Ġbohu": 4023,
      "Ġnikde": 4024,
      "vatÃ½": 4025,
      "Ġtmou": 4026,
      "dovÃ©": 4027,
      "Ġkost": 4028,
      "ĠnÃ¡dher": 4029,
      "Ġsklen": 4030,
      "ĠÅ¡ÃŃlen": 4031,
      "nd": 4032,
      "Ġlesem": 4033,
      "hÃ¡ch": 4034,
      "ĠdveÅĻÃŃ": 4035,
      "krÃ¡snÄĽjÅ¡ÃŃ": 4036,
      "Ġvzte": 4037,
      "ĠjinÃŃ": 4038,
      "Ġtaky": 4039,
      "kÅ¯v": 4040,
      "ĠvelkÃ½m": 4041,
      "Ġtvor": 4042,
      "ĠdeÅ¡tÄĽ": 4043,
      "Ġsnes": 4044,
      "ĠspÃ¡nku": 4045,
      "Ġzapomen": 4046,
      "Ġneho": 4047,
      "Ġstopy": 4048,
      "ĠtvoÅĻÃŃ": 4049,
      "gu": 4050,
      "neÄįnÄĽ": 4051,
      "ÅĪo": 4052,
      "Äįili": 4053,
      "ÄĮas": 4054,
      "ĠvÅ¡ady": 4055,
      "dÅĻÃŃv": 4056,
      "fa": 4057,
      "Ġmluvil": 4058,
      "Ġpromlu": 4059,
      "Ġstuden": 4060,
      "jÃŃcÃŃch": 4061,
      "ĠÅĪÃ¡": 4062,
      "ĠÃºdolÃŃ": 4063,
      "ledne": 4064,
      "rie": 4065,
      "Ġkruh": 4066,
      "ĠobÄĽÅ¥": 4067,
      "Ġhmo": 4068,
      "vech": 4069,
      "Ġdruhdy": 4070,
      "Ġlisty": 4071,
      "Ġpoklad": 4072,
      "ĠkaÅ¾dÃ½m": 4073,
      "Ġstolu": 4074,
      "ĠotÄįe": 4075,
      "Ġkomu": 4076,
      "ĠHe": 4077,
      "pÃŃm": 4078,
      "ĠÅ¡pi": 4079,
      "ĠMu": 4080,
      "snou": 4081,
      "nilo": 4082,
      "houcÃŃ": 4083,
      "ĠAl": 4084,
      "jit": 4085,
      "ĠvelkÃ½ch": 4086,
      "veÄįer": 4087,
      "nÄĽnÃ©": 4088,
      "Ġchcem": 4089,
      "mech": 4090,
      "Ġvelmi": 4091,
      "ĠdÃ½chÃ¡": 4092,
      "ĠbÃ¡j": 4093,
      "Ġmimo": 4094,
      "Ġproudy": 4095,
      "ĠTebe": 4096,
      "TvÅ¯j": 4097,
      "!âĢľâĢľ": 4098,
      "Å¡o": 4099,
      "ĠÅ¡pat": 4100,
      "Ġskoro": 4101,
      "Ob": 4102,
      "skal": 4103,
      "Ġplanou": 4104,
      "ĠdlouhÃ¡": 4105,
      "PÄĽ": 4106,
      "chla": 4107,
      "chod": 4108,
      "ĠnemÅ¯Å¾e": 4109,
      "Ġdlouhou": 4110,
      "ĠvrÃ¡til": 4111,
      "ĠveÅ¡": 4112,
      "vyÅ¡Å¡ÃŃ": 4113,
      "ĠvÅ¯dce": 4114,
      "Ġstranou": 4115,
      "ĠLe": 4116,
      "ĠtajemstvÃŃ": 4117,
      "ĠmotÃ½l": 4118,
      "Ġzle": 4119,
      "ĠjemnÄĽ": 4120,
      "ĠvÄĽnec": 4121,
      "ĠBa": 4122,
      "ĠstÃ¡ti": 4123,
      "tys": 4124,
      "ĠÅĻeka": 4125,
      "ĠtemnÃ½": 4126,
      "luv": 4127,
      "ĠprostÅĻed": 4128,
      "ĠtÄĽÅ¾ko": 4129,
      "KaÅ¾dÃ½": 4130,
      "ĠkÃ½vÃ¡": 4131,
      "Äįely": 4132,
      "Ġvichr": 4133,
      "ĠnechÃ¡": 4134,
      "Å¾et": 4135,
      "ĠvÃŃr": 4136,
      "ĠsvÃŃrÃ¡": 4137,
      "Ġpomoci": 4138,
      "Ġnep": 4139,
      "lÃŃk": 4140,
      "Ġvine": 4141,
      "ĠtÄĽchto": 4142,
      "Ġstromu": 4143,
      "ĠblÃŃzko": 4144,
      "Ġvzdor": 4145,
      "ĠzlÃ¡": 4146,
      "ĠchlÃ©b": 4147,
      "KrÃ¡l": 4148,
      "ĠbÃŃdy": 4149,
      "ĠloÅ¾i": 4150,
      "Ġly": 4151,
      "Ġrosy": 4152,
      "ĠdÃŃval": 4153,
      "ĠKrista": 4154,
      "ckÃ¡": 4155,
      "ĠslavnÃ©": 4156,
      "ĠtrÅ¯nu": 4157,
      "ĠJu": 4158,
      "ĠÅĻÃŃÅ¡i": 4159,
      "ĠkvÃŃlÃŃ": 4160,
      "ĠjÃŃmÅ¾": 4161,
      "Ġzmizel": 4162,
      "ĠpÄĽknÄĽ": 4163,
      "ĠBu": 4164,
      "ĠKrÃ¡": 4165,
      "ĠslavnÄĽ": 4166,
      "ĠvÄĽÄįnÃ¡": 4167,
      "dÄĽlÃ¡": 4168,
      "mÃ¡nÃŃ": 4169,
      "Ġpes": 4170,
      "ĠslavnÃ½": 4171,
      "ĠmÅ¯Å¾": 4172,
      "enÄĽ": 4173,
      "muÅ¾": 4174,
      "Ġstal": 4175,
      "jeÅ¡tÄĽ": 4176,
      "ĠpravÃ©": 4177,
      "Sy": 4178,
      "ga": 4179,
      "ĠpodÃŃ": 4180,
      "ĠtÄĽlem": 4181,
      "ĠÄįervÃ¡n": 4182,
      "Ġkus": 4183,
      "Ġzmo": 4184,
      "vanÃ½": 4185,
      "ĠPan": 4186,
      "Ġpoznal": 4187,
      "ĠskÃ¡la": 4188,
      "lnÄĽ": 4189,
      "rky": 4190,
      "Å¾ela": 4191,
      "ĠrÃ¡ji": 4192,
      "ĠjÃ¡sa": 4193,
      "ÄĮer": 4194,
      "Ġnebez": 4195,
      "Ġdceru": 4196,
      "Ġkrajem": 4197,
      "Ġkvete": 4198,
      "try": 4199,
      "nuv": 4200,
      "Ġzima": 4201,
      "ĠskrÃ½vÃ¡": 4202,
      "Å¡eÅĪ": 4203,
      "ĠkrÃ¡sou": 4204,
      "ĠnadÄĽj": 4205,
      "ĠÄįemu": 4206,
      "Ġved": 4207,
      "Ġdrahou": 4208,
      "ÄįkÃ¡": 4209,
      "Ġpoma": 4210,
      "ÅĻili": 4211,
      "Ġmusil": 4212,
      "Ġkola": 4213,
      "Ġvzru": 4214,
      "ĠpryÄį": 4215,
      "vici": 4216,
      "ĠbÃ½val": 4217,
      "ĠvÃŃtÄĽzstvÃŃ": 4218,
      "Ġhbi": 4219,
      "proti": 4220,
      "Å¡ep": 4221,
      "Ġukry": 4222,
      "ĠBy": 4223,
      "sklo": 4224,
      "ĠkrÃ¡Äįel": 4225,
      "ĠstÅĻedu": 4226,
      "os": 4227,
      "ĠmoÅĻem": 4228,
      "ĠcÃŃle": 4229,
      "ToÅ¾": 4230,
      "ĠdivnÃ©": 4231,
      "Ġnapl": 4232,
      "Ġmohla": 4233,
      "ĠvÄĽtrem": 4234,
      "Ġpekla": 4235,
      "ĠdÃ¡vnÃ½ch": 4236,
      "Ġnebezpe": 4237,
      "ĠpÃ½": 4238,
      "Ġvin": 4239,
      "Ġnemoc": 4240,
      "KÃ©Å¾": 4241,
      "ĠvstÃ¡vÃ¡": 4242,
      "chlad": 4243,
      "loval": 4244,
      "Ġmate": 4245,
      "ĠsvÄĽtel": 4246,
      "ĠchovÃ¡": 4247,
      "nulo": 4248,
      "it": 4249,
      "ĠchÅ¯": 4250,
      "Ġotci": 4251,
      "ĠnepÅĻÃ¡tel": 4252,
      "Dej": 4253,
      "Ġbolem": 4254,
      "ĠÅ¾alÃ¡": 4255,
      "rod": 4256,
      "Ġzdro": 4257,
      "Jde": 4258,
      "ĠvzÃŃ": 4259,
      "ĠjÃ¡sÃ¡": 4260,
      "ĠnemÃ¡m": 4261,
      "ĠnadÄĽjÃŃ": 4262,
      "aly": 4263,
      "Ġzkou": 4264,
      "ĠpÅĻelu": 4265,
      "ĠtuÅ¡ÃŃ": 4266,
      "Ġak": 4267,
      "hala": 4268,
      "vak": 4269,
      "nci": 4270,
      "nkem": 4271,
      "Äįce": 4272,
      "ÄįenÃ©": 4273,
      "Chci": 4274,
      "ĠspÃŃÅ¡": 4275,
      "ĠpÅ¯lno": 4276,
      "ĠzÃ¡voj": 4277,
      "Å¡nÃ¡": 4278,
      "skla": 4279,
      "ĠHospo": 4280,
      "Ġzacho": 4281,
      "ĠuÅ¡": 4282,
      "ĠzÃ¡ha": 4283,
      "ĠchvÄĽla": 4284,
      "ĠchvÄĽjÃŃ": 4285,
      "ĠÅ¡tÃŃt": 4286,
      "tali": 4287,
      "mÃ¡l": 4288,
      "ĠoÄįima": 4289,
      "ĠbrÃ¡ny": 4290,
      "Ġdumy": 4291,
      "ĠpÃ¡na": 4292,
      "ĠZÃ¡": 4293,
      "StÃ¡": 4294,
      "ĠHu": 4295,
      "Proto": 4296,
      "ĠtrÃ¡vy": 4297,
      "Sto": 4298,
      "vnÃŃm": 4299,
      "Ġsnech": 4300,
      "ĠmÅ¾i": 4301,
      "Ġbrou": 4302,
      "pek": 4303,
      "neme": 4304,
      "chÃ¡ch": 4305,
      "Ġlaho": 4306,
      "ĠrodnÃ©": 4307,
      "ĠbÃŃdu": 4308,
      "ĠlidskÃ¡": 4309,
      "ĠzÅ¯stal": 4310,
      "Ġpekel": 4311,
      "rz": 4312,
      "nily": 4313,
      "ĠmÃŃstÄĽ": 4314,
      "dlou": 4315,
      "nili": 4316,
      "ĠvÄĽku": 4317,
      "Ġdavu": 4318,
      "Ġpozdrav": 4319,
      "Ġopat": 4320,
      "Ġpol": 4321,
      "lovÄĽk": 4322,
      "dva": 4323,
      "ĠtrÃ½": 4324,
      "ĠzlÃ½": 4325,
      "nali": 4326,
      "kaly": 4327,
      "pÃŃrÃ¡": 4328,
      "ĠÅĻad": 4329,
      "tily": 4330,
      "ĠÅ¾itÃŃm": 4331,
      "Ġpano": 4332,
      "zÃŃch": 4333,
      "ĠsmÃ¡l": 4334,
      "Ġpora": 4335,
      "ĠrozechvÄĽ": 4336,
      "ĠvzrÅ¯": 4337,
      "vese": 4338,
      "dum": 4339,
      "ĠpÅĻipra": 4340,
      "Ġmilou": 4341,
      "ĠklÃŃnu": 4342,
      "ĠknÄĽz": 4343,
      "ĠvÃ½kÅĻik": 4344,
      "ĠÄįÃŃÅ¡e": 4345,
      "Ġklade": 4346,
      "pky": 4347,
      "vcÅ¯": 4348,
      "Ġjat": 4349,
      "ĠkÅĻo": 4350,
      "Å¾to": 4351,
      "nez": 4352,
      "Ja": 4353,
      "ĠbudiÅ¾": 4354,
      "ĠbÅĻeh": 4355,
      "ĠvroucnÄĽ": 4356,
      "ĠozvÄĽ": 4357,
      "Ġplou": 4358,
      "ĠneÅ¡Å¥ast": 4359,
      "ĠusmÃŃvÃ¡": 4360,
      "pnÄĽ": 4361,
      "Ġzahy": 4362,
      "Ġnitro": 4363,
      "ĠSe": 4364,
      "ĠsamÃ©": 4365,
      "Ġhledal": 4366,
      "lko": 4367,
      "ĠÅ½": 4368,
      "ĠvÄĽÅ¾ÃŃ": 4369,
      "ĠpracÃŃ": 4370,
      "Ġjindy": 4371,
      "ĠsprÃ¡": 4372,
      "ĠSlÃ¡": 4373,
      "ÅĻenÃ¡": 4374,
      "dilo": 4375,
      "ĠÄįerven": 4376,
      "Ġduchem": 4377,
      "Ġjestli": 4378,
      "ĠhÃ¡je": 4379,
      "znÄĽl": 4380,
      "tÃŃÅ¡": 4381,
      "ĠvaÅ¡ÃŃ": 4382,
      "ĠtÃ¡hnou": 4383,
      "ĠtÃŃÅ¾": 4384,
      "Mne": 4385,
      "vÅ¡": 4386,
      "Ġucho": 4387,
      "ĠvznÃ¡Å¡ÃŃ": 4388,
      "ĠslzÃ¡ch": 4389,
      "ĠvÄĽtve": 4390,
      "Ġdlu": 4391,
      "ĠstÃ¡ÅĻÃŃ": 4392,
      "ĠzÅĻÃŃt": 4393,
      "tli": 4394,
      "ĠjinÃ¡": 4395,
      "Å¾ena": 4396,
      "vola": 4397,
      "lÃŃÅ¡": 4398,
      "Ġskle": 4399,
      "ĠÅĻÃŃÅ¡": 4400,
      "ĠjinÃ½m": 4401,
      "ĠprostÃ©": 4402,
      "ĠdivÃ©": 4403,
      "Ġznak": 4404,
      "ĠAle": 4405,
      "ĠnejvÃŃc": 4406,
      "ĠmladÃ½ch": 4407,
      "Ġkoho": 4408,
      "prostÅĻed": 4409,
      "Kdyby": 4410,
      "hej": 4411,
      "Jeho": 4412,
      "Ġshas": 4413,
      "ĠtuÅ¾": 4414,
      "tÅĻeba": 4415,
      "ĠdrÅ¾ÃŃ": 4416,
      "tÄĽÅ¾": 4417,
      "Ġrodu": 4418,
      "Ġkosti": 4419,
      "ĠjejÃŃch": 4420,
      "Ġctnost": 4421,
      "kly": 4422,
      "nÃ¡s": 4423,
      "Ġpadla": 4424,
      "rce": 4425,
      "kov": 4426,
      "ĠpozdÄĽ": 4427,
      "ĠodmÄĽ": 4428,
      "ĠsvÅ¯": 4429,
      "Ġmaje": 4430,
      "ĠcÃŃli": 4431,
      "lili": 4432,
      "nÃŃÅ¡": 4433,
      "Ġvyko": 4434,
      "ĠÅ¾ivÃ©": 4435,
      "Ġtvoji": 4436,
      "ĠskrÃ¡nÃŃ": 4437,
      "Ġodva": 4438,
      "Ġplyne": 4439,
      "JÃŃ": 4440,
      "Sem": 4441,
      "Å¡nou": 4442,
      "ĠzahrÃ¡": 4443,
      "ÄįkÅ¯": 4444,
      "tÃ©ho": 4445,
      "ĠmladÃŃ": 4446,
      "Ġznamen": 4447,
      "Ġdaleko": 4448,
      "rka": 4449,
      "lÃ¡k": 4450,
      "ĠmoÅĻ": 4451,
      "Ġrodi": 4452,
      "ĠprÃ¡zdno": 4453,
      "Hu": 4454,
      "lta": 4455,
      "dÄĽje": 4456,
      "Ġhoto": 4457,
      "Ġvzly": 4458,
      "viny": 4459,
      "ĠdÄĽlÃ¡": 4460,
      "Å¡enÃ½": 4461,
      "ĠmrtvÃ½": 4462,
      "Ġmluvit": 4463,
      "ĠÅĻady": 4464,
      "DÃ¡": 4465,
      "Ġvdo": 4466,
      "ĠhnÃ¡": 4467,
      "Ġprsty": 4468,
      "ĠdennÃŃ": 4469,
      "Ġkdos": 4470,
      "Ġstruny": 4471,
      "myÅ¡len": 4472,
      "Å¾iv": 4473,
      "PÅĻes": 4474,
      "vro": 4475,
      "Ġslzou": 4476,
      "Ġpurpu": 4477,
      "ĠtichÃ©m": 4478,
      "Ġdneska": 4479,
      "BoÅ¾e": 4480,
      "Ġrosa": 4481,
      "ĠzpÄĽvy": 4482,
      "ĠmrakÅ¯": 4483,
      "ĠstoupÃ¡": 4484,
      "Ġspu": 4485,
      "ĠsvÄĽtlem": 4486,
      "ĠKdo": 4487,
      "Ġfan": 4488,
      "Ġperly": 4489,
      "ĠchvÃŃlÃŃ": 4490,
      "voj": 4491,
      "ÄįÃŃÅ¡": 4492,
      "ĠptÃ¡kÅ¯": 4493,
      "ĠdivnÃ½": 4494,
      "enu": 4495,
      "tilo": 4496,
      "ĠbÃ¡je": 4497,
      "Ġheb": 4498,
      "ĠpoÅ¾ehnÃ¡nÃŃ": 4499,
      "eny": 4500,
      "tuje": 4501,
      "Ġvelko": 4502,
      "ĠkrÃ¡snou": 4503,
      "ĠdvÃ©ÅĻe": 4504,
      "ĠpoupÄĽ": 4505,
      "ĠslyÅ¡e": 4506,
      "rÃ¡Å¾ÃŃ": 4507,
      "ĠJeho": 4508,
      "Ġhed": 4509,
      "Lid": 4510,
      "ĠupÅĻÃŃm": 4511,
      "knÄĽ": 4512,
      "rÃ¡t": 4513,
      "ĠpÅĻÃŃval": 4514,
      "jÃ¡k": 4515,
      "fe": 4516,
      "ĠnÃ©": 4517,
      "povÃŃ": 4518,
      "ĠzÃ¡kon": 4519,
      "ĠOn": 4520,
      "ĠskrÃ¡nÄĽ": 4521,
      "ĠvÅ¡ickni": 4522,
      "Ġkos": 4523,
      "ĠhnÃŃzdo": 4524,
      "cou": 4525,
      "ĠdnÄĽ": 4526,
      "ĠvlnÃ¡ch": 4527,
      "Ġlaska": 4528,
      "Ġoknem": 4529,
      "ĠvlÃ¡dne": 4530,
      "ĠskÃ¡le": 4531,
      "ĠumÄĽ": 4532,
      "Å¡ila": 4533,
      "ĠtÄĽÅ¾kÃ¡": 4534,
      "rovnÃ¡": 4535,
      "Ġlesku": 4536,
      "smut": 4537,
      "rala": 4538,
      "Ġjesti": 4539,
      "ĠcelÃ©m": 4540,
      "ĠzvonÅ¯": 4541,
      "ĠvÃ¡Å¡ni": 4542,
      "Ġzaho": 4543,
      "chÃ¡m": 4544,
      "vÄĽzd": 4545,
      "ĠplÃ¡nÃŃ": 4546,
      "ĠvaÅ¡ich": 4547,
      "ĠsvÄĽd": 4548,
      "Ġpoesie": 4549,
      "eno": 4550,
      "ĠhonÃŃ": 4551,
      "ĠpamÄĽti": 4552,
      "SvÃ©": 4553,
      "rnÃ½m": 4554,
      "ĠjednÃŃm": 4555,
      "ĠÅ¾enÄĽ": 4556,
      "ĠÄįistÃ¡": 4557,
      "ĠÅ¾havÃ©": 4558,
      "zvuk": 4559,
      "uj": 4560,
      "Pos": 4561,
      "ĠdivÃ¡": 4562,
      "Ġspokojen": 4563,
      "Jenom": 4564,
      "Ġbit": 4565,
      "ĠkÃ¡Å¾e": 4566,
      "ĠtrÅ¯n": 4567,
      "ĠukÃ¡": 4568,
      "ĠvÄĽrnÄĽ": 4569,
      "ĠlÃŃp": 4570,
      "ĠbÃŃda": 4571,
      "Ġsnil": 4572,
      "ĠhÃ¡zÃŃ": 4573,
      "Ġkruhu": 4574,
      "ĠbolestÃŃ": 4575,
      "Ġobzoru": 4576,
      "hÅĻe": 4577,
      "stav": 4578,
      "Ġnejsem": 4579,
      "ĠchladnÃ½": 4580,
      "tosti": 4581,
      "amo": 4582,
      "ÅĻena": 4583,
      "Ġzat": 4584,
      "is": 4585,
      "Å¾eb": 4586,
      "Ġletem": 4587,
      "ĠmanÄĽ": 4588,
      "jeme": 4589,
      "Ġmiloval": 4590,
      "ĠÅ¾havÃ½": 4591,
      "ĠvÃ¡Å¾nÄĽ": 4592,
      "Ġano": 4593,
      "Ġvyr": 4594,
      "stek": 4595,
      "Ġmed": 4596,
      "rci": 4597,
      "tlo": 4598,
      "zte": 4599,
      "Ġvolal": 4600,
      "klady": 4601,
      "nut": 4602,
      "ĠposlÃ©z": 4603,
      "ĠmocnÃ½": 4604,
      "ĠplnÃŃ": 4605,
      "sÅ¥an": 4606,
      "ĠokamÅ¾i": 4607,
      "hÅĻÃŃ": 4608,
      "tly": 4609,
      "Ġvyz": 4610,
      "hovÃ©": 4611,
      "ĠtisÃŃ": 4612,
      "pomÃŃnÃ¡": 4613,
      "ĠkÅĻik": 4614,
      "ĠvelikÃ½": 4615,
      "chvÃŃ": 4616,
      "ĠÅ¡kle": 4617,
      "vÄĽtÅ¡ÃŃ": 4618,
      "ĠÅĻÃŃm": 4619,
      "ĠstÅĻÃŃbro": 4620,
      "Ġtri": 4621,
      "ĠÄįelem": 4622,
      "ĠzrakÅ¯": 4623,
      "Ġstrachu": 4624,
      "ĠdlouhÃ½ch": 4625,
      "chtÄĽl": 4626,
      "ĠkvÃ©": 4627,
      "vic": 4628,
      "ĠzÃ¡ko": 4629,
      "Ġvyp": 4630,
      "ĠtmavÃ½": 4631,
      "telem": 4632,
      "ĠprchÃ¡": 4633,
      "ĠmuÅ¾Å¯": 4634,
      "Hoj": 4635,
      "Ġdaleka": 4636,
      "tvÃ¡ÅĻ": 4637,
      "ĠkrÃ¡tkÃ½": 4638,
      "Ġstin": 4639,
      "kami": 4640,
      "Ġjakou": 4641,
      "Ġletech": 4642,
      "ĠlÃŃcÃŃ": 4643,
      "juÅ¾": 4644,
      "ĠtvÅ¯r": 4645,
      "ĠvÃŃtÃ¡": 4646,
      "Ġviny": 4647,
      "svi": 4648,
      "ĠpÄĽstÃŃ": 4649,
      "Ġhyne": 4650,
      "Ã½Å¡": 4651,
      "ĠmÃ¡j": 4652,
      "ĠSlo": 4653,
      "ĠplnÃ¡": 4654,
      "Jsme": 4655,
      "oh": 4656,
      "ĠbratÅĻe": 4657,
      "znÃ½": 4658,
      "ĠvznÄĽ": 4659,
      "Ġvyje": 4660,
      "ĠsÃŃnÄĽ": 4661,
      "ĠÅ¾Ã¡rem": 4662,
      "ĠsmutnÃ¡": 4663,
      "ĠhÅ¯": 4664,
      "Ġticha": 4665,
      "ĠzÃ¡padu": 4666,
      "ĠmÃ¡ti": 4667,
      "Ġclo": 4668,
      "gra": 4669,
      "Ġvstal": 4670,
      "rovÃ©": 4671,
      "ĠÃºc": 4672,
      "Ġradu": 4673,
      "ĠplÃ¡Äįem": 4674,
      "Å¾nÃ¡": 4675,
      "ĠbuÅ¡ÃŃ": 4676,
      "ĠpÅĻiÅ¡li": 4677,
      "Ġdomov": 4678,
      "Ry": 4679,
      "ĠÄįekal": 4680,
      "Ġtehdy": 4681,
      "ĠstÃ¡li": 4682,
      "ĠÄįernou": 4683,
      "Ġdruhu": 4684,
      "ÅĻenÃ½ch": 4685,
      "Ġpusti": 4686,
      "ĠvÄĽnce": 4687,
      "ĠvÄĽÄįnou": 4688,
      "Ġmechu": 4689,
      "Ġbarvy": 4690,
      "ĠnazpÄĽt": 4691,
      "ĠdÄĽtem": 4692,
      "ĠzvuÄįÃŃ": 4693,
      "ia": 4694,
      "Ġoni": 4695,
      "ÅĻice": 4696,
      "Ġtyto": 4697,
      "ĠvÄĽcÃŃ": 4698,
      "Ġcitu": 4699,
      "zat": 4700,
      "tovÃ©": 4701,
      "ĠsrdcÃŃch": 4702,
      "ĠspÃŃcÃŃ": 4703,
      "ĠokamÅ¾ik": 4704,
      "Ġobou": 4705,
      "leno": 4706,
      "ĠvÃ½cho": 4707,
      "Ġony": 4708,
      "Äįina": 4709,
      "Ġpeklo": 4710,
      "ĠsmÃŃchem": 4711,
      "Star": 4712,
      "ĠsedÄĽl": 4713,
      "byÅ¥": 4714,
      "chala": 4715,
      "Ġnemoh": 4716,
      "mal": 4717,
      "ĠnaÅ¡em": 4718,
      "Ġtopo": 4719,
      "fo": 4720,
      "povÄĽ": 4721,
      "ĠvdÄĽk": 4722,
      "Ġvou": 4723,
      "vedla": 4724,
      "mÅ¯Å¾e": 4725,
      "ĠzpÃŃvat": 4726,
      "vaje": 4727,
      "Ġsic": 4728,
      "Ġner": 4729,
      "Ġnaho": 4730,
      "ĠtÄĽÅ¡ÃŃ": 4731,
      "ĠzÅ¯sta": 4732,
      "Dru": 4733,
      "ĠodvÃ¡": 4734,
      "ĠrÃ¡mÄĽ": 4735,
      "ckou": 4736,
      "ĠnoÅĻÃŃ": 4737,
      "Ġostat": 4738,
      "Ġdom": 4739,
      "jala": 4740,
      "Ġkalich": 4741,
      "ĠÅ¾ert": 4742,
      "ĠvÃŃÅĻÃŃ": 4743,
      "pÅ¯so": 4744,
      "ĠÅĻada": 4745,
      "Ġluh": 4746,
      "ĠlÃ©pe": 4747,
      "ĠpravdÄĽ": 4748,
      "ĠrÃ¡di": 4749,
      "ĠstaÅĻec": 4750,
      "ĠpÄĽnÃŃ": 4751,
      "ĠÅ¡Å¥asten": 4752,
      "Ġzuby": 4753,
      "tice": 4754,
      "Ġrostou": 4755,
      "ĠrÃ½": 4756,
      "Ġrozpu": 4757,
      "Ġau": 4758,
      "tin": 4759,
      "Å¾ek": 4760,
      "pÃ¡n": 4761,
      "ĠLÃ¡": 4762,
      "ĠÄįlovÄĽku": 4763,
      "sny": 4764,
      "tÃ¡ch": 4765,
      "ĠÅ¡tÄĽstÃŃm": 4766,
      "raj": 4767,
      "ĠpotÃ¡": 4768,
      "huje": 4769,
      "ĠpÅ¯jde": 4770,
      "ĠverÅ¡e": 4771,
      "ĠkÅĻÃŃdlem": 4772,
      "Ġnutno": 4773,
      "Ġkre": 4774,
      "ĠdunÃŃ": 4775,
      "Ġnitra": 4776,
      "ĠpÃŃsku": 4777,
      "pec": 4778,
      "ĠKristus": 4779,
      "ĠÅ¾ivÃ½": 4780,
      "ĠvÃ¡Å¡eÅĪ": 4781,
      "ĠvlnÃŃ": 4782,
      "ĠpoznÃ¡": 4783,
      "PÃ¡n": 4784,
      "sat": 4785,
      "svÃ½ch": 4786,
      "Ġjede": 4787,
      "najÃŃ": 4788,
      "Ġzar": 4789,
      "ĠvÄĽrnÃ½": 4790,
      "ĠsÃŃÅĪ": 4791,
      "lÃ½mi": 4792,
      "Ġpropasti": 4793,
      "ĠkrÅ¯pÄĽj": 4794,
      "Pla": 4795,
      "Ġpoza": 4796,
      "nutÃŃm": 4797,
      "ĠkÅĻiÄįÃŃ": 4798,
      "ĠprosÃŃ": 4799,
      "Mil": 4800,
      "nie": 4801,
      "Ġdivy": 4802,
      "ynÃŃ": 4803,
      "mon": 4804,
      "ĠhrozÃŃ": 4805,
      "NÃ¡m": 4806,
      "ĠpodÃ¡": 4807,
      "taly": 4808,
      "Ġlabu": 4809,
      "ĠmÅ¯Å¾eÅ¡": 4810,
      "svÃŃ": 4811,
      "ĠsedÃ¡": 4812,
      "liÅ¾": 4813,
      "ÅĻiti": 4814,
      "ĠtÄĽmi": 4815,
      "ĠvÅ¡ednÃŃ": 4816,
      "ĠplÃ¡Å¡Å¥": 4817,
      "Ã©mu": 4818,
      "ĠpouÅ¡ti": 4819,
      "Ġlho": 4820,
      "ĠzvÄĽst": 4821,
      "ĠzbranÄĽ": 4822,
      "tÅ¯m": 4823,
      "ul": 4824,
      "ĠonÃ©": 4825,
      "Ġstav": 4826,
      "Ġdiva": 4827,
      "ĠÄįinÃŃ": 4828,
      "ĠÅ¾Ã¡dÃ¡": 4829,
      "Ġsmutno": 4830,
      "ĠÄįÃŃÅ¡": 4831,
      "chne": 4832,
      "ÅĪÅ¯": 4833,
      "ĠchudÃ¡": 4834,
      "ĠletnÃŃ": 4835,
      "ĠÅ¾ivotÄĽ": 4836,
      "ĠÅ¡eptÃ¡": 4837,
      "srd": 4838,
      "livÃ¡": 4839,
      "cie": 4840,
      "Ġtomto": 4841,
      "ĠhnutÃŃ": 4842,
      "ĠpojÃŃ": 4843,
      "ĠnaÄį": 4844,
      "novi": 4845,
      "Ġvyvo": 4846,
      "ĠnesmÄĽ": 4847,
      "ĠpÅĻÃŃrody": 4848,
      "Ġvzp": 4849,
      "stÃ¡l": 4850,
      "ĠjÃŃmÃ¡": 4851,
      "ĠlÅ¯nÄĽ": 4852,
      "bky": 4853,
      "Ġpoch": 4854,
      "ĠÃºto": 4855,
      "jÃŃcÃ½": 4856,
      "hlÃ©d": 4857,
      "ĠNÄĽm": 4858,
      "ĠnovÃ½m": 4859,
      "stÃ¡le": 4860,
      "zar": 4861,
      "zÅĻÃŃm": 4862,
      "nÃŃku": 4863,
      "dati": 4864,
      "ĠdivnÄĽ": 4865,
      "ĠÅ¾alo": 4866,
      "ĠmyÅ¡lenky": 4867,
      "Ġdro": 4868,
      "raje": 4869,
      "ĠznamenÃŃ": 4870,
      "ĠKarel": 4871,
      "Lu": 4872,
      "jil": 4873,
      "niti": 4874,
      "ĠvÃ¡bÃŃ": 4875,
      "ĠvaÅ¡i": 4876,
      "vodu": 4877,
      "ĠposvÄĽ": 4878,
      "ĠzvÃŃÅĻe": 4879,
      "ĠÅ¾as": 4880,
      "nova": 4881,
      "ĠletÄĽ": 4882,
      "Ġchcete": 4883,
      "Ġjal": 4884,
      "Ġznal": 4885,
      "Ġber": 4886,
      "ĠÅ¡ero": 4887,
      "Ġmalou": 4888,
      "Ġleskem": 4889,
      "Slunce": 4890,
      "br": 4891,
      "Ġrve": 4892,
      "tÃ©m": 4893,
      "vnÃ©": 4894,
      "udy": 4895,
      "sech": 4896,
      "ĠkrÃ¡lem": 4897,
      "budu": 4898,
      "ĠsÃŃle": 4899,
      "ĠodpovÃŃ": 4900,
      "Ġkri": 4901,
      "razi": 4902,
      "Ġspla": 4903,
      "hali": 4904,
      "Ġslast": 4905,
      "ĠsvatÃ½ch": 4906,
      "ĠmarnÃ©": 4907,
      "Åĺe": 4908,
      "pomnÄĽl": 4909,
      "ĠTa": 4910,
      "Ġrad": 4911,
      "pusÅ¥": 4912,
      "Ġpokry": 4913,
      "VÅ¡ecko": 4914,
      "bej": 4915,
      "Ġplen": 4916,
      "ĠzaznÃŃ": 4917,
      "Ġvzlet": 4918,
      "ĠkrÃ¡snÄĽ": 4919,
      "ĠpustÃ©": 4920,
      "Å¡tÃŃm": 4921,
      "veli": 4922,
      "ĠcelÃ½m": 4923,
      "ĠhrÃ¡l": 4924,
      "zÅĻel": 4925,
      "Ġvry": 4926,
      "ĠvnitÅĻ": 4927,
      "Ġjinou": 4928,
      "ĠÃºz": 4929,
      "Ġztratil": 4930,
      "ĠzbraÅĪ": 4931,
      "ĠradÄĽj": 4932,
      "mod": 4933,
      "ĠpÅĻÃŃmo": 4934,
      "Ġstanul": 4935,
      "ĠplaÅ¡e": 4936,
      "ĠnejkrÃ¡snÄĽjÅ¡ÃŃ": 4937,
      "Ġcity": 4938,
      "ĠbÄĽd": 4939,
      "ĠkÅĻiv": 4940,
      "Ġplod": 4941,
      "Sla": 4942,
      "SlÃ¡": 4943,
      "ĠmÅ¾ik": 4944,
      "Ġvzala": 4945,
      "Ġjednom": 4946,
      "ĠhrÅ¯za": 4947,
      "ĠbdÃŃ": 4948,
      "ĠstÅ¯l": 4949,
      "tisk": 4950,
      "Ġklesla": 4951,
      "ĠhrajÃŃ": 4952,
      "Ġklobou": 4953,
      "ĠdnÃŃ": 4954,
      "Ġvodou": 4955,
      "leÅĪ": 4956,
      "Ġop": 4957,
      "ĠÃºt": 4958,
      "ĠJan": 4959,
      "fy": 4960,
      "kolik": 4961,
      "ĠkorÃ¡": 4962,
      "Ġspa": 4963,
      "Ġdcera": 4964,
      "ĠhroznÃ½": 4965,
      "ĠnÃ¡dhe": 4966,
      "Mat": 4967,
      "Ġ,": 4968,
      "Ġvsta": 4969,
      "Å½Ã¡": 4970,
      "VÅ¡ech": 4971,
      "Ġjiskry": 4972,
      "ĠÄįar": 4973,
      "ĠvÄĽdÄĽl": 4974,
      "Ġvodo": 4975,
      "ĠpouÅ¡tÃŃ": 4976,
      "dily": 4977,
      "ĠsÃŃni": 4978,
      "ÄįenÃ½": 4979,
      "bral": 4980,
      "Ġhovor": 4981,
      "Ã½t": 4982,
      "ĠTur": 4983,
      "ĠnÃŃmÅ¾": 4984,
      "ĠspÃ¡t": 4985,
      "ĠhÅĻÃŃchu": 4986,
      "ÄįkÃ¡ch": 4987,
      "ĠnemÄĽ": 4988,
      "ĠpozdnÃŃ": 4989,
      "Ġctnosti": 4990,
      "Ano": 4991,
      "tkÃ¡": 4992,
      "ĠMat": 4993,
      "cÃŃho": 4994,
      "Ġzbled": 4995,
      "vÃŃce": 4996,
      "ĠVÅ¡e": 4997,
      "pili": 4998,
      "ĠsamÃ½": 4999,
      "Ġsmrtel": 5000,
      "Ġpadl": 5001,
      "ĠzmÃŃrÃ¡": 5002,
      "neÅ¾li": 5003,
      "ĠchystÃ¡": 5004,
      "Ġzbro": 5005,
      "ĠpotÅĻe": 5006,
      "nuli": 5007,
      "Å¾enou": 5008,
      "Ġjablo": 5009,
      "ĠvidÃŃÅ¡": 5010,
      "ĠnaÅĻÃŃ": 5011,
      "Ġobrov": 5012,
      "Ġnechal": 5013,
      "Ġkmet": 5014,
      "ĠmÄĽj": 5015,
      "bili": 5016,
      "Ġnebesa": 5017,
      "tÃ½m": 5018,
      "ledy": 5019,
      "nÄĽnÃ½": 5020,
      "ĠvÄĽrnÃ©": 5021,
      "ĠÅ¾eno": 5022,
      "ĠrozkoÅ¡e": 5023,
      "ĠbojovnÃŃ": 5024,
      "ĠhleÄı": 5025,
      "Ġtemnou": 5026,
      "Ġklas": 5027,
      "Ġsvobodu": 5028,
      "Ġchvilku": 5029,
      "ĠsÃ½": 5030,
      "Ġdnech": 5031,
      "dalo": 5032,
      "ĠÅ¡edÃ½": 5033,
      "Ġpopel": 5034,
      "Me": 5035,
      "ĠpÃŃt": 5036,
      "ĠzlatÃŃ": 5037,
      "Ġnejsou": 5038,
      "Ġnesla": 5039,
      "ĠÃºÅ¾as": 5040,
      "Ej": 5041,
      "zpÄĽv": 5042,
      "Ġvykou": 5043,
      "Takto": 5044,
      "Ġpozor": 5045,
      "ĠhledÃŃm": 5046,
      "chaÅ¥": 5047,
      "ĠÅ¾Ã¡ru": 5048,
      "Ġztr": 5049,
      "vÃ¡r": 5050,
      "ĠlÃŃbez": 5051,
      "ĠtÄĽÅ¾kou": 5052,
      "slov": 5053,
      "zdy": 5054,
      "ĠdomÄĽ": 5055,
      "Ġroj": 5056,
      "ÅĪuje": 5057,
      "mezi": 5058,
      "ĠÅĻÃŃkÃ¡": 5059,
      "Ġhluk": 5060,
      "ĠmnohÃ¡": 5061,
      "ĠpolÃŃbenÃŃ": 5062,
      "kmi": 5063,
      "vÄĽti": 5064,
      "lÃŃp": 5065,
      "ĠutÃŃ": 5066,
      "ĠsluÅ¡ÃŃ": 5067,
      "ĠhÃ¡ji": 5068,
      "Ġhalu": 5069,
      "ĠmlÃ¡d": 5070,
      "Ġproudem": 5071,
      "Ġmladosti": 5072,
      "ĠverÅ¡": 5073,
      "MuÅ¾": 5074,
      "Ġnou": 5075,
      "Ġobo": 5076,
      "Ġrozma": 5077,
      "rty": 5078,
      "Ġtmu": 5079,
      "ĠmÃ½": 5080,
      "Ġazu": 5081,
      "nÃŃci": 5082,
      "ĠstÅĻÃ¡": 5083,
      "zela": 5084,
      "ĠdÃŃk": 5085,
      "ĠmlÃ©": 5086,
      "milo": 5087,
      "ĠkterÃ½m": 5088,
      "ĠkrÄį": 5089,
      "ĠspÃ¡nek": 5090,
      "ĠhvÄĽzdÃ¡m": 5091,
      "ĠsamotÄĽ": 5092,
      "jÃŃma": 5093,
      "ÄįekÃ¡": 5094,
      "ĠbojÃŃ": 5095,
      "proto": 5096,
      "mysl": 5097,
      "ĠsnÃ¡": 5098,
      "ĠvodÄĽ": 5099,
      "ĠpÃ¡nem": 5100,
      "ĠstokrÃ¡t": 5101,
      "ĠvlÃŃdnÄĽ": 5102,
      "Ġnajde": 5103,
      "ĠvyÅ¡Å¡ÃŃ": 5104,
      "Ġmuka": 5105,
      "pis": 5106,
      "ĠstÃŃnem": 5107,
      "Ġsouse": 5108,
      "ÄįnÃ©m": 5109,
      "pala": 5110,
      "ĠnejvyÅ¡Å¡ÃŃ": 5111,
      "Ġblankyt": 5112,
      "ĠÄįerst": 5113,
      "Ġopoj": 5114,
      "ÄįÅ¯": 5115,
      "jev": 5116,
      "divo": 5117,
      "Ġplesu": 5118,
      "nÃ¡ct": 5119,
      "ĠvÅ¡udy": 5120,
      "nenÃŃ": 5121,
      "jedi": 5122,
      "tesk": 5123,
      "ĠpouhÃ½": 5124,
      "Ġtouhu": 5125,
      "Ġvzdechy": 5126,
      "Ġunaven": 5127,
      "ÄįnÃŃm": 5128,
      "Ġnetu": 5129,
      "ĠkrÃ¡lÅ¯": 5130,
      "ĠpouÅ¡tÄĽ": 5131,
      "ĠmodlÃŃ": 5132,
      "ĠtrhÃ¡": 5133,
      "zdu": 5134,
      "Äįiti": 5135,
      "ĠdÄĽvy": 5136,
      "lenÃ½ch": 5137,
      "ĠryzÃŃ": 5138,
      "ĠtrÃ¡va": 5139,
      "Ġex": 5140,
      "Ġnesta": 5141,
      "ĠzavÃ¡": 5142,
      "die": 5143,
      "kÃ½mi": 5144,
      "ĠcizÃŃch": 5145,
      "Ġknihy": 5146,
      "razil": 5147,
      "Stra": 5148,
      "Tou": 5149,
      "jdi": 5150,
      "mbo": 5151,
      "Ġpovin": 5152,
      "ĠMÃ¡": 5153,
      "Ġsmysl": 5154,
      "Ġmladou": 5155,
      "ĠklÃŃnÄĽ": 5156,
      "ĠschÃ½": 5157,
      "Ġdok": 5158,
      "ĠÄįnÃŃ": 5159,
      "ĠleÅ¾": 5160,
      "ĠÅ¾ivotu": 5161,
      "ĠsvÄĽdomÃŃ": 5162,
      "Ġzlost": 5163,
      "Ġhledat": 5164,
      "Ġpochyb": 5165,
      "Ġnach": 5166,
      "Ġryt": 5167,
      "Ġjasu": 5168,
      "prch": 5169,
      "ChtÄĽl": 5170,
      "ĠvlÃ¡d": 5171,
      "Ġdosta": 5172,
      "ĠMe": 5173,
      "Ġslasti": 5174,
      "ĠÅ¡ÃŃji": 5175,
      "Ġozdo": 5176,
      "ĠhrdÃ©": 5177,
      "ĠskuteÄį": 5178,
      "Bude": 5179,
      "chrÃ¡": 5180,
      "ĠTvÃ¡": 5181,
      "ĠkterÃ½ch": 5182,
      "ĠtajnÄĽ": 5183,
      "ĠplÃ©mÄĽ": 5184,
      "JuÅ¾": 5185,
      "ply": 5186,
      "Ġsev": 5187,
      "kdes": 5188,
      "ĠvÄĽÄįnost": 5189,
      "Ġkouzlem": 5190,
      "ary": 5191,
      "buje": 5192,
      "Jej": 5193,
      "Ml": 5194,
      "Å¾stvÃŃ": 5195,
      "ÄįÃŃch": 5196,
      "ĠlÃŃbal": 5197,
      "chÃ¡zel": 5198,
      "ĠhroznÃ©": 5199,
      "ĠpolÃŃch": 5200,
      "ĠvonnÃ½": 5201,
      "ĠzlatÃ½m": 5202,
      "Ġhvozd": 5203,
      "VÅ¯": 5204,
      "ĠmÅĻe": 5205,
      "rovi": 5206,
      "toval": 5207,
      "Ġdobrou": 5208,
      "ĠnÃ¡rodu": 5209,
      "ĠbrÃ¡nÃŃ": 5210,
      "ĠznÃ¡mÃ½": 5211,
      "DÃ¡l": 5212,
      "lk": 5213,
      "ĠdomÃ¡": 5214,
      "Ġtoto": 5215,
      "ĠvznÃŃ": 5216,
      "ĠHle": 5217,
      "Ġzoufa": 5218,
      "ĠjakÃ½s": 5219,
      "zdÃŃ": 5220,
      "ĠhostÃŃ": 5221,
      "mÄĽla": 5222,
      "Å¾enÃ¡": 5223,
      "Ġbrachu": 5224,
      "Ġbratra": 5225,
      "hlubo": 5226,
      "ĠvÃŃte": 5227,
      "Ġhlasu": 5228,
      "Ġsoucit": 5229,
      "lily": 5230,
      "asy": 5231,
      "ĠtÃ©mÄĽ": 5232,
      "ĠsladkÃ½ch": 5233,
      "vÅ¡ecko": 5234,
      "Pe": 5235,
      "Si": 5236,
      "Ġzho": 5237,
      "ĠpapeÅ¾": 5238,
      "stÃŃn": 5239,
      "stÃ¡nÃŃ": 5240,
      "ĠPraze": 5241,
      "PÃŃ": 5242,
      "jmu": 5243,
      "letu": 5244,
      "ĠmoÅĻÃŃ": 5245,
      "ĠctÃŃ": 5246,
      "bÃ½t": 5247,
      "vÅ¡i": 5248,
      "Ġbychom": 5249,
      "dÄĽte": 5250,
      "Ġkomo": 5251,
      "Ġlek": 5252,
      "Ġmile": 5253,
      "Ġhlav": 5254,
      "kÃ©Å¾": 5255,
      "Ġvinu": 5256,
      "JakÃ½": 5257,
      "Ġmrtev": 5258,
      "ĠzlatÃ©m": 5259,
      "Ġdy": 5260,
      "Ġpodob": 5261,
      "ĠhrabÄĽ": 5262,
      "Ġmyslil": 5263,
      "Ġjinoch": 5264,
      "Ġsled": 5265,
      "Ġpodi": 5266,
      "Ġodtud": 5267,
      "Ġsvitu": 5268,
      "ĠtÅĻpytÃŃ": 5269,
      "nicÃŃ": 5270,
      "ĠTvÃ½ch": 5271,
      "Ġhavra": 5272,
      "Ġznaven": 5273,
      "ĠjedinÃ¡": 5274,
      "ari": 5275,
      "ĠrÃ©": 5276,
      "prou": 5277,
      "rok": 5278,
      "Ġnalez": 5279,
      "Ġsten": 5280,
      "ver": 5281,
      "vilo": 5282,
      "Ġroztou": 5283,
      "Ġpri": 5284,
      "Ġvodu": 5285,
      "ĠdÃŃky": 5286,
      "Ġsluje": 5287,
      "ĠspÃ¡sy": 5288,
      "Ġhrdin": 5289,
      "Ġbratry": 5290,
      "kynÄĽ": 5291,
      "Ġhore": 5292,
      "Ġminul": 5293,
      "Slo": 5294,
      "Äįnost": 5295,
      "ÅĻilo": 5296,
      "ĠodvÄĽ": 5297,
      "ĠvÃ¡nek": 5298,
      "Ġmysti": 5299,
      "Ġvrah": 5300,
      "Ġulic": 5301,
      "vinu": 5302,
      "ĠzdÃ¡l": 5303,
      "ĠpohÃ¡r": 5304,
      "Ġzahrad": 5305,
      "TÃŃm": 5306,
      "snÃ½ch": 5307,
      "Å¾no": 5308,
      "ÅĻily": 5309,
      "nika": 5310,
      "kdys": 5311,
      "Ġteskno": 5312,
      "ĠpoutnÃŃk": 5313,
      "Å¾a": 5314,
      "chat": 5315,
      "ĠleÅ¾el": 5316,
      "ĠÅ¡erÃ©": 5317,
      "Ġusly": 5318,
      "nÃŃky": 5319,
      "ĠrÃ½m": 5320,
      "Ġrozmar": 5321,
      "ĠpÅ¯du": 5322,
      "ĠÅĻekne": 5323,
      "Ġmiluje": 5324,
      "Nebe": 5325,
      "ĠpÅĻÃŃteli": 5326,
      "ĠdivÄĽ": 5327,
      "ĠvÄĽtrÅ¯": 5328,
      "ĠRa": 5329,
      "ĠzbranÃŃ": 5330,
      "ĠvzdychÃ¡": 5331,
      "Ġvtip": 5332,
      "Sotva": 5333,
      "alou": 5334,
      "ĠdÃ¡vnÃ©": 5335,
      "ĠÄıÃ¡bel": 5336,
      "ĠdÄĽjin": 5337,
      "Ġjihu": 5338,
      "diti": 5339,
      "mÃ¡n": 5340,
      "Ġbral": 5341,
      "ĠpÃŃÅ¡e": 5342,
      "ĠvÅ¯bec": 5343,
      "ĠotvÃŃrÃ¡": 5344,
      "Ġbledou": 5345,
      "Pou": 5346,
      "ĠneÃº": 5347,
      "ĠpÄĽje": 5348,
      "ĠnechtÄĽl": 5349,
      "ĠÄĮechÃ¡ch": 5350,
      "Ġpomalu": 5351,
      "),": 5352,
      "Ġneji": 5353,
      "ĠneÅ¡tÄĽstÃŃ": 5354,
      "novu": 5355,
      "bytÃŃ": 5356,
      "ezi": 5357,
      "Ġracho": 5358,
      "ĠchtÄĽli": 5359,
      "plu": 5360,
      "Ġzaml": 5361,
      "dÄĽly": 5362,
      "kdyby": 5363,
      "krÃ¡l": 5364,
      "Ġslzu": 5365,
      "ĠskrÃ¡ni": 5366,
      "NuÅ¾e": 5367,
      "znal": 5368,
      "liti": 5369,
      "Ġal": 5370,
      "ĠmÄĽsÃŃce": 5371,
      "ĠÃºtro": 5372,
      "ĠsvÄĽtle": 5373,
      "ĠkterÃ©m": 5374,
      "Ġslunko": 5375,
      "bala": 5376,
      "ĠplÃ¡l": 5377,
      "Ġblaze": 5378,
      "ĠvelikÃ©": 5379,
      "Ġtrest": 5380,
      "ĠodpovÄĽÄı": 5381,
      "Ġpozem": 5382,
      "Ġproudu": 5383,
      "ĠspÄĽchÃ¡": 5384,
      "ĠÄįÃŃÅ¡i": 5385,
      "dale": 5386,
      "ĠvÄĽtry": 5387,
      "Ġbisku": 5388,
      "Jdi": 5389,
      "KvÄĽt": 5390,
      "Ġpohy": 5391,
      "ĠÅ¾elez": 5392,
      "sili": 5393,
      "ĠbÃŃlÃ©m": 5394,
      "koho": 5395,
      "Ġmilio": 5396,
      "aso": 5397,
      "ĠtatÃŃ": 5398,
      "Ġrady": 5399,
      "ĠvÅ¡echen": 5400,
      "ĠvrhÃ¡": 5401,
      "krva": 5402,
      "Ġzvyk": 5403,
      "ĠkoÅĻist": 5404,
      "Vra": 5405,
      "ĠkonÃŃ": 5406,
      "Ġvrat": 5407,
      "Ġokno": 5408,
      "ĠmlÃ¡de": 5409,
      "ĠÅĻÃ¡d": 5410,
      "slyÅ¡": 5411,
      "jejÃŃ": 5412,
      "tÄĽjÅ¡ÃŃ": 5413,
      "Ġskla": 5414,
      "skÃ©mu": 5415,
      "Ġnesl": 5416,
      "ĠjasnÃ¡": 5417,
      "padne": 5418,
      "ĠzÃ¡ÅĻÃŃcÃŃ": 5419,
      "Ġminulosti": 5420,
      "ĠblÃ½skÃ¡": 5421,
      "ĠkolÃ©": 5422,
      "pÃŃÅ¡": 5423,
      "ĠKu": 5424,
      "ĠnechtÄĽ": 5425,
      "Ġstisk": 5426,
      "nt": 5427,
      "ĠbÄĽlost": 5428,
      "ĠtratÃŃ": 5429,
      "ĠoltÃ¡ÅĻ": 5430,
      "ĠtlaÄįÃŃ": 5431,
      "Bra": 5432,
      "vnÃ½": 5433,
      "ÅĻÃŃcÃŃ": 5434,
      "Ġzachy": 5435,
      "ÅĪÃ¡": 5436,
      "Å¾ivo": 5437,
      "vzpomÃŃ": 5438,
      "ĠnutÃŃ": 5439,
      "ĠperuÅ¥": 5440,
      "Ġnaklo": 5441,
      "kÅĻe": 5442,
      "tkÅ¯": 5443,
      "letÄĽl": 5444,
      "atan": 5445,
      "Ġvrch": 5446,
      "ĠpÅ¯jdu": 5447,
      "Ġspraved": 5448,
      "Zrak": 5449,
      "ÅĻte": 5450,
      "Ġspro": 5451,
      "Ġmlh": 5452,
      "Ġlidstvu": 5453,
      "vrÃ¡til": 5454,
      "Ġveleb": 5455,
      "vÃ¡nek": 5456,
      "kova": 5457,
      "ĠpouÅ¡Å¥": 5458,
      "ĠzeleÅĪ": 5459,
      "ĠstrÃ¡ni": 5460,
      "Ġnen": 5461,
      "âĢĿ": 5462,
      "ĠoÅĻe": 5463,
      "Äįinu": 5464,
      "ĠÄįeskÃ¡": 5465,
      "ĠAch": 5466,
      "ĠmodrÃ½": 5467,
      "kvÃ©tÃ¡": 5468,
      "Ġztu": 5469,
      "Ġorel": 5470,
      "nebe": 5471,
      "Ġklasy": 5472,
      "Ġplameny": 5473,
      "ĠpÅ¯vab": 5474,
      "Smut": 5475,
      "tul": 5476,
      "ĠÅ¡era": 5477,
      "Ġmelo": 5478,
      "ĠsvatÃ½m": 5479,
      "ĠsmÄĽlÃ½": 5480,
      "NynÃŃ": 5481,
      "stky": 5482,
      "teÅĻi": 5483,
      "ĠSy": 5484,
      "ĠchudÃ½": 5485,
      "ĠzaÄįal": 5486,
      "Duch": 5487,
      "ĠkÅ¯ÅĪ": 5488,
      "ĠbÅĻi": 5489,
      "Ġnerozu": 5490,
      "ĠvelÃŃ": 5491,
      "Ġtuze": 5492,
      "chovÃ©": 5493,
      "RÃ¡d": 5494,
      "Ġnau": 5495,
      "kop": 5496,
      "vyk": 5497,
      "Ġpravo": 5498,
      "sotva": 5499,
      "ĠÄįarov": 5500,
      "ĠjmÃ©na": 5501,
      "Ġmoudro": 5502,
      "Ġzt": 5503,
      "Ġzrovna": 5504,
      "Ġkolena": 5505,
      "ĠpÅĻines": 5506,
      "ĠdÃŃtky": 5507,
      "Bylo": 5508,
      "Ġdechu": 5509,
      "ĠspÄĽje": 5510,
      "ĠjedinÃ©": 5511,
      "Ġhrdlo": 5512,
      "ĠpoÄįal": 5513,
      "ĠpenÃŃ": 5514,
      "Ġnesko": 5515,
      "ĠzavÃŃ": 5516,
      "âĢľ.": 5517,
      "vily": 5518,
      "ĠprvnÃŃm": 5519,
      "Ġzasmu": 5520,
      "ĠtanÄįÃŃ": 5521,
      "Å¡tnÃŃ": 5522,
      "ron": 5523,
      "cemi": 5524,
      "ĠzÃ¡mku": 5525,
      "Zla": 5526,
      "ĠkrÃ¡snÃ½ch": 5527,
      "ĠperutÃŃ": 5528,
      "Ġjmeno": 5529,
      "ĠzÅĻela": 5530,
      "jeden": 5531,
      "Ġrosou": 5532,
      "Äįilo": 5533,
      "ÄĮa": 5534,
      "ĠposvÃ¡": 5535,
      "Ġsoudu": 5536,
      "par": 5537,
      "sÃ©": 5538,
      "rÃ¡Å¾": 5539,
      "Ġnapo": 5540,
      "nuÅ¾": 5541,
      "Ġlev": 5542,
      "Ġranou": 5543,
      "ĠprÃ¡h": 5544,
      "Ġzdroj": 5545,
      "Ġmatkou": 5546,
      "Ġchyt": 5547,
      "ĠzbÃ½vÃ¡": 5548,
      "Ġvojsko": 5549,
      "Äįan": 5550,
      "ĠvÅ¡eli": 5551,
      "Ġkout": 5552,
      "Ġpohr": 5553,
      "ĠvelikÃ¡": 5554,
      "BÃŃ": 5555,
      "Dlou": 5556,
      "ĠÄįert": 5557,
      "stojÃŃ": 5558,
      "ĠmlÃ¡den": 5559,
      "ĠzdrÃ¡v": 5560,
      "ĠÃºzkost": 5561,
      "CÃŃ": 5562,
      "Ġvkro": 5563,
      "bÃ½vÃ¡": 5564,
      "nÄĽm": 5565,
      "Ġbytost": 5566,
      "Ġruchu": 5567,
      "Ġsice": 5568,
      "ĠÄįiny": 5569,
      "ĠsilnÃ½": 5570,
      "Ġgra": 5571,
      "ĠtesknÄĽ": 5572,
      "ĠdÃ©Å¡Å¥": 5573,
      "nkÃ¡ch": 5574,
      "Ġovo": 5575,
      "ĠdruÅ¾i": 5576,
      "Ġzdar": 5577,
      "dlÃ½": 5578,
      "vÅĻÃŃ": 5579,
      "zne": 5580,
      "meÅĪ": 5581,
      "chodu": 5582,
      "ĠstrojÃŃ": 5583,
      "Ġpocti": 5584,
      "volu": 5585,
      "Å¥te": 5586,
      "ĠkoneÄįnÄĽ": 5587,
      "Ġhlavi": 5588,
      "bÄĽh": 5589,
      "ĠhrÃ¡t": 5590,
      "ĠhnÃŃzda": 5591,
      "Ġbyst": 5592,
      "Ġmohy": 5593,
      "tÃ¡h": 5594,
      "ĠdvojÃŃ": 5595,
      "ĠzÃ¡Å¡tÃŃ": 5596,
      "ret": 5597,
      "bitÃŃ": 5598,
      "ĠplatÃŃ": 5599,
      "Ġbezpe": 5600,
      "Åłe": 5601,
      "ĠstojÃŃm": 5602,
      "Ġchlap": 5603,
      "ĠsbÃŃ": 5604,
      "ĠkÃ©Å¾": 5605,
      "lala": 5606,
      "Ġhorou": 5607,
      "Ġzkvet": 5608,
      "lepÅ¡ÃŃ": 5609,
      "Ġchti": 5610,
      "ster": 5611,
      "Ġkrbu": 5612,
      "Ġvlnou": 5613,
      "KdoÅ¾": 5614,
      "ĠzÅĻÃŃti": 5615,
      "HleÄı": 5616,
      "Ġukru": 5617,
      "menÄĽ": 5618,
      "skutku": 5619,
      "ĠhnÄĽvem": 5620,
      "Ġbru": 5621,
      "Ġvedou": 5622,
      "Ġprocit": 5623,
      "ĠVo": 5624,
      "ĠSo": 5625,
      "ĠkÅĻesÅ¥an": 5626,
      "lilo": 5627,
      "Ġdotk": 5628,
      "Ġmuk": 5629,
      "ĠlÃ¡kÃ¡": 5630,
      "Ġtaje": 5631,
      "padla": 5632,
      "chajÃŃ": 5633,
      "Ġzvolal": 5634,
      "ĠvzpomÃŃnÃ¡m": 5635,
      "ĠdrobnÃ©": 5636,
      "TÅĻe": 5637,
      "Ġsf": 5638,
      "Ġabych": 5639,
      "ĠÅ¾houcÃŃ": 5640,
      "luj": 5641,
      "Ġhod": 5642,
      "ĠtÅĻesou": 5643,
      "Ġtanci": 5644,
      "ĠÄįtyÅĻi": 5645,
      "Å¾u": 5646,
      "ĠÃºdy": 5647,
      "Ġsud": 5648,
      "ĠdneÅ¡nÃŃ": 5649,
      "Ġrakev": 5650,
      "hnal": 5651,
      "Ġochra": 5652,
      "jakÃ½": 5653,
      "ĠspÅĻÃ¡": 5654,
      "ĠpÄĽl": 5655,
      "ĠnebesÅ¯m": 5656,
      "Äįnosti": 5657,
      "tÄĽm": 5658,
      "aty": 5659,
      "leni": 5660,
      "ĠdÃŃla": 5661,
      "stoj": 5662,
      "ĠpÃ¡s": 5663,
      "ĠzmizÃŃ": 5664,
      "Ġkorunu": 5665,
      "!âĢĺ": 5666,
      "tajem": 5667,
      "ĠMora": 5668,
      "StÃŃ": 5669,
      "Ġharmo": 5670,
      "ĠrovnÄĽ": 5671,
      "ĠÅ¾ele": 5672,
      "fu": 5673,
      "stnÃŃ": 5674,
      "ĠÄįeho": 5675,
      "ĠplÃ¡ni": 5676,
      "Ġmali": 5677,
      "ĠmodrÃ½ch": 5678,
      "ĠtichÃ½m": 5679,
      "ĠVÃ¡clav": 5680,
      "Sou": 5681,
      "ĠvÄĽÅĻit": 5682,
      "ĠpastÃ½": 5683,
      "ĠpÃŃlÃŃ": 5684,
      "Å¡kou": 5685,
      "Ã©ÅĻe": 5686,
      "lÃ¡m": 5687,
      "vostÃŃ": 5688,
      "ĠvÄĽÅ¡t": 5689,
      "ĠnÄĽhy": 5690,
      "ĠmÄĽlo": 5691,
      "ĠvÅ¯d": 5692,
      "vracÃŃ": 5693,
      "ĠprÅ¯vod": 5694,
      "Ka": 5695,
      "nÃ©st": 5696,
      "ĠmoÅ¾nÃ¡": 5697,
      "LÃ¡ska": 5698,
      "nkÃ©": 5699,
      "ĠodÄĽ": 5700,
      "ĠÅ¡per": 5701,
      "ĠsvÄĽtlu": 5702,
      "vnÃŃk": 5703,
      "Äįeli": 5704,
      "ĠÅ¾Ã¡dnÃ¡": 5705,
      "Ġpozo": 5706,
      "pouÅ¡tÄĽ": 5707,
      "Ġdlani": 5708,
      "Ġpluje": 5709,
      "ĠpapÃŃ": 5710,
      "Ġmoudrost": 5711,
      "ĠmanÅ¾el": 5712,
      "Å¡nÃ½ch": 5713,
      "ÅĻÃŃch": 5714,
      "Ġlety": 5715,
      "Ġlibo": 5716,
      "ĠnesmÃŃr": 5717,
      "ĠkrokÅ¯": 5718,
      "Åłel": 5719,
      "Ġjarem": 5720,
      "neboÅ¥": 5721,
      "Ġsestry": 5722,
      "rÃ¡l": 5723,
      "Ġvzpomen": 5724,
      "haly": 5725,
      "ĠkÅĻÃŃdlo": 5726,
      "stoupil": 5727,
      "ĠtrpÄĽ": 5728,
      "ĠsahÃ¡": 5729,
      "pne": 5730,
      "tna": 5731,
      "Ġpsal": 5732,
      "ĠlesÃŃch": 5733,
      "Ġvypu": 5734,
      "ĠnÃ¡ho": 5735,
      "ĠzÃ¡ba": 5736,
      "ĠzÃ¡stu": 5737,
      "ĠMy": 5738,
      "Ġsladko": 5739,
      "Ġmilovat": 5740,
      "Ġjinde": 5741,
      "ĠjÃ¡sot": 5742,
      "ĠpouÅ¥": 5743,
      "kterou": 5744,
      "Ġknihu": 5745,
      "mlou": 5746,
      "cÃŃtil": 5747,
      "ĠrozlÃ©": 5748,
      "ĠBÃŃ": 5749,
      "ĠpospÃŃ": 5750,
      "prvÃ©": 5751,
      "ĠtÄĽÅ¾kÃ½ch": 5752,
      "Ġvojska": 5753,
      "Ġzlou": 5754,
      "Ġneob": 5755,
      "Ġrozlo": 5756,
      "ĠÅ¡ÃŃp": 5757,
      "ĠTvoje": 5758,
      "Mou": 5759,
      "Smrt": 5760,
      "ĠvlasÅ¥": 5761,
      "ĠtÃ¡h": 5762,
      "Ġsvato": 5763,
      "Ġhrobem": 5764,
      "Ġhudbou": 5765,
      "Ona": 5766,
      "Ġpolem": 5767,
      "naÄį": 5768,
      "Ġroky": 5769,
      "duÅ¡e": 5770,
      "ÅĪa": 5771,
      "kvete": 5772,
      "Ġsvobody": 5773,
      "ĠÅ¡aty": 5774,
      "Ġrtu": 5775,
      "stila": 5776,
      "Ġbok": 5777,
      "Ġbozi": 5778,
      "mÃŃvÃ¡": 5779,
      "Ġhlubiny": 5780,
      "ĠzapomnÄĽl": 5781,
      "Ġkomna": 5782,
      "hru": 5783,
      "oÄįi": 5784,
      "nÄĽte": 5785,
      "nouc": 5786,
      "ĠhvÄĽzdi": 5787,
      "ĠmyÅ¡lÃ©nky": 5788,
      "ĠJiÅĻÃŃ": 5789,
      "Ġhlahol": 5790,
      "hvÄĽzd": 5791,
      "neu": 5792,
      "Ġuzav": 5793,
      "ĠÄįil": 5794,
      "Ġrozlou": 5795,
      "Å¾iti": 5796,
      "Ġluna": 5797,
      "hrad": 5798,
      "ĠÅ¡Å¥astnÃ½": 5799,
      "ĠznÄĽlo": 5800,
      "ĠhlÃ¡sÃ¡": 5801,
      "Ġtiskne": 5802,
      "ĠmraÄįna": 5803,
      "Ġopi": 5804,
      "Ġodho": 5805,
      "nÅ¯v": 5806,
      "ĠchvÄĽnÃŃ": 5807,
      "ĠnÄĽhoÅ¾": 5808,
      "Ġmohlo": 5809,
      "ĠtÅĻpyt": 5810,
      "Ġobloze": 5811,
      "Ġsnou": 5812,
      "Ġposel": 5813,
      "ĠÃºro": 5814,
      "ĠBÄĽ": 5815,
      "ĠpÅĻÃŃzrak": 5816,
      "ĠÅ¾eni": 5817,
      "ĠtvÃ©mu": 5818,
      "Ġdary": 5819,
      "Ġbudoucnosti": 5820,
      "Dva": 5821,
      "ĠsleÄį": 5822,
      "ĠdvÅ¯r": 5823,
      "kus": 5824,
      "ĠronÃŃ": 5825,
      "mÃ¡la": 5826,
      ".âĢľâĢľ": 5827,
      "ĠsÃŃtÄĽ": 5828,
      "Ġblahem": 5829,
      "pouÅ¡tÃŃ": 5830,
      "Ġjednoho": 5831,
      "ĠzimÄĽ": 5832,
      "Ġnaposledy": 5833,
      "Mod": 5834,
      "Ġkme": 5835,
      "Ġpoky": 5836,
      "Ġusta": 5837,
      "ÄįÃŃvÃ¡": 5838,
      "Ġpravou": 5839,
      "provÃ¡": 5840,
      "ĠstrÃ¡nÃŃ": 5841,
      "Jestli": 5842,
      "Ġhasne": 5843,
      "ble": 5844,
      "ĠzÃ¡me": 5845,
      "ĠkrutÃ½": 5846,
      "Ġpanna": 5847,
      "ĠrozkoÅ¡ÃŃ": 5848,
      "Pu": 5849,
      "nÃŃka": 5850,
      "don": 5851,
      "Ġdruha": 5852,
      "ĠdruhÃ¡": 5853,
      "Ġblahu": 5854,
      "ĠzpÄĽvem": 5855,
      "Cho": 5856,
      "Svou": 5857,
      "Ġzvad": 5858,
      "ÅĻuje": 5859,
      "jela": 5860,
      "pol": 5861,
      "douc": 5862,
      "Ġlsti": 5863,
      "ĠCa": 5864,
      "Ġzakle": 5865,
      "ĠdÃ©man": 5866,
      "ĠtvrdÃ©": 5867,
      "Ġhni": 5868,
      "Ġchr": 5869,
      "stit": 5870,
      "ĠnÃ¡mÄĽ": 5871,
      "Ġluk": 5872,
      "ĠsmÄĽsi": 5873,
      "ĠproudÃŃ": 5874,
      "DuÅ¡e": 5875,
      "ĠslavÃŃk": 5876,
      "krÃ½": 5877,
      "mlad": 5878,
      "Äįna": 5879,
      "kalo": 5880,
      "Ġlec": 5881,
      "ĠvyÅ¡": 5882,
      "mec": 5883,
      "nemo": 5884,
      "ĠlÅ¾i": 5885,
      "Å¡Å¥Ã¡": 5886,
      "Ġplody": 5887,
      "ĠslednÃŃ": 5888,
      "lami": 5889,
      "Ġodkud": 5890,
      "ĠdÃ¡lnÃ©": 5891,
      "ĠtrpÃŃ": 5892,
      "Ġpotok": 5893,
      "ĠnevÃ½": 5894,
      "Ġhodiny": 5895,
      "Ġroztr": 5896,
      "Ġlil": 5897,
      "JeÅ¾": 5898,
      "ĠkrvÃ¡": 5899,
      "zÃ¡ÅĻ": 5900,
      "hrd": 5901,
      "nÄĽla": 5902,
      "La": 5903,
      "ca": 5904,
      "Ġdna": 5905,
      "Ġzimy": 5906,
      "Ġroucho": 5907,
      "Ġchodil": 5908,
      "jste": 5909,
      "desÃ¡": 5910,
      "Ġvzty": 5911,
      "ĠvzkÅĻÃŃ": 5912,
      "ĠÅ¾ili": 5913,
      "Ġposlu": 5914,
      "Ġrety": 5915,
      "ĠmyÅ¡lenek": 5916,
      "gna": 5917,
      "ĠopÃ¡": 5918,
      "ĠvodnÃŃ": 5919,
      "ĠpuÄįÃŃ": 5920,
      "ĠÅ¾alem": 5921,
      "ĠzoÅĻe": 5922,
      "klÃ¡dÃ¡": 5923,
      "Ġbalva": 5924,
      "ĠprostÃ½": 5925,
      "dÃŃl": 5926,
      "Ġodda": 5927,
      "ĠzlatÄĽ": 5928,
      "ĠKde": 5929,
      "Ġblesku": 5930,
      "Ġvolnost": 5931,
      "ĠzvÄĽda": 5932,
      "Ġhudby": 5933,
      "Ġbrzo": 5934,
      "ĠzelenÃ©": 5935,
      "Va": 5936,
      "dny": 5937,
      "Ġonu": 5938,
      "teÄįnÃŃ": 5939,
      "vez": 5940,
      "Ġbran": 5941,
      "ĠznÃ¡Å¡": 5942,
      "ĠPrahy": 5943,
      "Ġdnu": 5944,
      "ĠpÃŃti": 5945,
      "ĠblahÃ©": 5946,
      "ĠhÅĻÃŃchy": 5947,
      "Ġpije": 5948,
      "ĠdÄĽtstvÃŃ": 5949,
      "Ġbudoucnost": 5950,
      "ĠvÃ½chod": 5951,
      "Ġlhostej": 5952,
      "VÃ¡m": 5953,
      "dovat": 5954,
      "Ġvedla": 5955,
      "Ġvza": 5956,
      "ĠvÃŃnem": 5957,
      "ĠlÃ¡sko": 5958,
      "ÅĻeny": 5959,
      "ĠbÄĽh": 5960,
      "Ġulici": 5961,
      "dvÄĽ": 5962,
      "Ġvedl": 5963,
      "chali": 5964,
      "ĠhrobÅ¯": 5965,
      "TÅĻi": 5966,
      "gy": 5967,
      "ĠpenÄĽ": 5968,
      "lice": 5969,
      "lÃŃcÃŃ": 5970,
      "sej": 5971,
      "Ġhlado": 5972,
      "ĠÅ¡ÃŃÅĻÃŃ": 5973,
      "ĠodpoÄįi": 5974,
      "ĠznÄĽla": 5975,
      "VÃŃc": 5976,
      "Ġbub": 5977,
      "Ġskrom": 5978,
      "rec": 5979,
      "ĠmalÃŃ": 5980,
      "stÃ¡t": 5981,
      "cenÃ¡": 5982,
      "ĠmusÃŃÅ¡": 5983,
      "ĠutrpenÃŃ": 5984,
      "ÃŃme": 5985,
      "ĠvyÅ¡la": 5986,
      "âĢĻ:": 5987,
      "Ġotcem": 5988,
      "Dob": 5989,
      "Jdu": 5990,
      "ĠstkvÄĽ": 5991,
      "Ġkoni": 5992,
      "mÃŃra": 5993,
      "Byla": 5994,
      "Å¾uje": 5995,
      "Ġnesu": 5996,
      "ĠvÄĽÅ¾": 5997,
      "dinu": 5998,
      "ĠvÅ¡ed": 5999,
      "vujÃŃ": 6000,
      "Ġokny": 6001,
      "Ġnemohu": 6002,
      "Äįeho": 6003,
      "Ġsply": 6004,
      "ĠodÅĻÃŃ": 6005,
      "Ġvinou": 6006,
      "dÃŃme": 6007,
      "Ġhry": 6008,
      "ĠzeÄı": 6009,
      "Ġzmar": 6010,
      "PÃ¡": 6011,
      "ĠokÃ©": 6012,
      "Ġzam": 6013,
      "nÃ©sti": 6014,
      "Äįeji": 6015,
      "vÃ½Å¡": 6016,
      "Ġmnohou": 6017,
      "Ġzor": 6018,
      "Ġskali": 6019,
      "ĠobliÄįej": 6020,
      "Ġjdi": 6021,
      "tickÃ©": 6022,
      "ĠusmÄĽ": 6023,
      "ĠÄįlu": 6024,
      "ĠjimÅ¾": 6025,
      "ĠhÅĻbe": 6026,
      "krvÃ¡": 6027,
      "ĠoltÃ¡ÅĻi": 6028,
      "PrÃ¡": 6029,
      "VÃ¡": 6030,
      "dnu": 6031,
      "Ġhi": 6032,
      "Ġher": 6033,
      "Ġjaksi": 6034,
      "Äįily": 6035,
      "zala": 6036,
      "ĠnejvÄĽtÅ¡ÃŃ": 6037,
      "hleÄı": 6038,
      "ĠzvukÅ¯": 6039,
      "Ġkouzla": 6040,
      "Ci": 6041,
      "abych": 6042,
      "ĠzlÃ½ch": 6043,
      "ĠvÄĽÅĻÃŃm": 6044,
      "ĠsvÄĽtlÃ½": 6045,
      "ÅĻenou": 6046,
      "ĠsladkÃ½m": 6047,
      "ĠslÃ¡vou": 6048,
      "Ġohrom": 6049,
      "ĠspatÅĻil": 6050,
      "Ġpova": 6051,
      "Ġudi": 6052,
      "ĠvzkÅĻik": 6053,
      "Ġvina": 6054,
      "Ġstarost": 6055,
      "Ġjasnou": 6056,
      "ĠnadÄĽji": 6057,
      "ĠzdÃŃ": 6058,
      "Ġbod": 6059,
      "Ġstrachem": 6060,
      "ĠÅ¡ÃŃje": 6061,
      "ĠkrvavÃ©": 6062,
      "TÃ©Å¾": 6063,
      "stru": 6064,
      "razÃŃ": 6065,
      "lie": 6066,
      "jÃŃcÃŃm": 6067,
      "Ġtamo": 6068,
      "ĠzÅĻÃŃÅ¡": 6069,
      "ĠkvÃŃtek": 6070,
      "ĠdrtÃŃ": 6071,
      "kraj": 6072,
      "jdem": 6073,
      "slÃ¡": 6074,
      "deÅĪ": 6075,
      "ĠÅ¡t": 6076,
      "Ġnivy": 6077,
      "ĠÃºna": 6078,
      "ĠdÄĽva": 6079,
      "ĠÅ¾ivobytÃŃ": 6080,
      "Ġbezna": 6081,
      "ĠplÃ¡la": 6082,
      "zenÃ©": 6083,
      "Å¾te": 6084,
      "Ġude": 6085,
      "Ġhora": 6086,
      "Ġmohou": 6087,
      "tajen": 6088,
      "ĠzÃ¡vÄĽ": 6089,
      "ĠzÃ¡hu": 6090,
      "Ġpohledem": 6091,
      "ĠkÅĻeh": 6092,
      "MÄĽl": 6093,
      "mÃ½ch": 6094,
      "vku": 6095,
      "ĠsnovÃ©": 6096,
      "out": 6097,
      "ĠpÅĻijdou": 6098,
      "Ġlidskou": 6099,
      "ĠsmÄĽs": 6100,
      "ĠlÃ©to": 6101,
      "ĠÅ¡irÃ©": 6102,
      "ĠkrÃ¡tce": 6103,
      "PryÄį": 6104,
      "dist": 6105,
      "dÃŃvÃ¡": 6106,
      "ĠstranÄĽ": 6107,
      "Ġmarno": 6108,
      "jou": 6109,
      "ĠVlta": 6110,
      "ĠdivÃ©m": 6111,
      "ĠhbitÄĽ": 6112,
      "Ġvzej": 6113,
      "ĠpÄĽst": 6114,
      "ĠvzpomÃŃnka": 6115,
      "ĠEvro": 6116,
      "Ġdrak": 6117,
      "vÃ¡nky": 6118,
      "tÃ¡ÅĻ": 6119,
      "ĠBe": 6120,
      "ĠrÅ¯Å¾": 6121,
      "Ġpozved": 6122,
      "ĠkÅĻÃŃÅ¾em": 6123,
      "eme": 6124,
      "mÄĽly": 6125,
      "ĠdÄĽj": 6126,
      "ĠbÃŃlÃ½m": 6127,
      "ĠcizÃŃm": 6128,
      "ĠhvÄĽzdami": 6129,
      "ĠsnivÃ©": 6130,
      "ĠkrouÅ¾ÃŃ": 6131,
      "ĠhoÅĻi": 6132,
      "Ġrci": 6133,
      "dÃ¡le": 6134,
      "ĠnÃ¡ÅĻek": 6135,
      "Ġlicho": 6136,
      "Ġsvr": 6137,
      "ĠstÃ¡r": 6138,
      "ĠpohÅĻe": 6139,
      "Ġsmutnou": 6140,
      "Ġhrst": 6141,
      "Ġblankytu": 6142,
      "ĠkÅĻÃŃdly": 6143,
      "nnÃ©": 6144,
      "ĠtmÃŃ": 6145,
      "cek": 6146,
      "Ġmistr": 6147,
      "ĠmÄĽstem": 6148,
      "ĠskvÃŃ": 6149,
      "Ġdruhou": 6150,
      "ĠstrÃ¡nÄĽ": 6151,
      "ona": 6152,
      "ĠzpÅ¯so": 6153,
      "Ġpovr": 6154,
      "Ġjel": 6155,
      "Ġjezd": 6156,
      "ĠÅ¡va": 6157,
      "jakÃ©": 6158,
      "ĠretÅ¯": 6159,
      "poslednÃŃ": 6160,
      "ĠzahradÄĽ": 6161,
      "nevÄĽ": 6162,
      "dÃŃte": 6163,
      "NevÄĽ": 6164,
      "Ġkdybych": 6165,
      "ĠkeÅĻ": 6166,
      "ĠvlastnÃŃm": 6167,
      "jimÅ¾": 6168,
      "Ġoby": 6169,
      "titi": 6170,
      "ĠletÄĽl": 6171,
      "ĠbÃŃdnÃ½": 6172,
      "Ġmlze": 6173,
      "ĠmraÄįen": 6174,
      "Ġzblou": 6175,
      "ĠÅĻadu": 6176,
      "ĠlistÅ¯": 6177,
      "dumÄįi": 6178,
      "Ġskr": 6179,
      "Å¾ily": 6180,
      "Ġsvojich": 6181,
      "Ġge": 6182,
      "Ġzdvih": 6183,
      "Ot": 6184,
      "ĠzbÄĽ": 6185,
      "Å¡tÄĽnÃŃ": 6186,
      "Ġrato": 6187,
      "ĠtemnÃ½ch": 6188,
      "ĠÅ¡koda": 6189,
      "Ġvskutku": 6190,
      "ÄįnÃŃch": 6191,
      "ĠstÅĻel": 6192,
      "natÃ©": 6193,
      "Ġkor": 6194,
      "ĠPÅĻi": 6195,
      "ĠpÅĻÃŃtom": 6196,
      "ĠpÄĽÅ¡i": 6197,
      "Ġsyny": 6198,
      "ĠpÅ¯dy": 6199,
      "ĠspÃ¡ti": 6200,
      "ĠbÅĻehy": 6201,
      "ĠsadÄĽ": 6202,
      "Å¡at": 6203,
      "Å¡nÃ½m": 6204,
      "ĠuÄįÃŃ": 6205,
      "Ġvzali": 6206,
      "ĠÅ¾ivÃ¡": 6207,
      "Ġhromu": 6208,
      "Kolem": 6209,
      "ĠhrdÃ½": 6210,
      "vÄĽjÅ¡ÃŃ": 6211,
      "tiny": 6212,
      "Ġuto": 6213,
      "ĠsvatÃ©m": 6214,
      "Stro": 6215,
      "nkÃ¡": 6216,
      "Ġvil": 6217,
      "Ġbzu": 6218,
      "komu": 6219,
      "Ġhodin": 6220,
      "Ġledo": 6221,
      "Ġnepoko": 6222,
      "Ġsvaty": 6223,
      "ĠhÅĻÃŃchÅ¯": 6224,
      "ĠznÄĽly": 6225,
      "Ġpomsty": 6226,
      "ĠvonnÃ©": 6227,
      "Ġchaty": 6228,
      "Ġneskona": 6229,
      "Ġzru": 6230,
      "ĠzaplÃ¡": 6231,
      "ĠstarÃ©m": 6232,
      "ĠbuÄıte": 6233,
      "ĠhouÅ¡tÃŃ": 6234,
      "ĠÅ¾lutÃ©": 6235,
      "ĠsrÃ¡": 6236,
      "ĠtÄĽl": 6237,
      "Ġnemi": 6238,
      "ĠkypÃŃ": 6239,
      "Ġpanny": 6240,
      "ĠkmitÃ¡": 6241,
      "vrt": 6242,
      "Ġhnal": 6243,
      "ĠprospÄĽ": 6244,
      "ĠpÅĻiÅ¡lo": 6245,
      "Ticho": 6246,
      "obra": 6247,
      "ĠvÄįel": 6248,
      "dÃ¡n": 6249,
      "ĠpoutnÃŃ": 6250,
      "ĠptÃ¡ka": 6251,
      "ĠÄĮer": 6252,
      "ĠchrÃ¡nÃŃ": 6253,
      "ĠpÅĻÃ¡l": 6254,
      "ĠkÃ¡zal": 6255,
      "ĠstrÃ½": 6256,
      "Ġpravdou": 6257,
      "Ġsloup": 6258,
      "ĠpohÃ¡d": 6259,
      "vakrÃ¡t": 6260,
      "zpÄĽ": 6261,
      "Ġptal": 6262,
      "nÄĽly": 6263,
      "ĠuÅ¡i": 6264,
      "ĠstÃ¡ly": 6265,
      "ĠnÃ¡roda": 6266,
      "ĠnohÃ¡m": 6267,
      "ĠrÃ¡ko": 6268,
      "ĠlÃŃtÃ¡": 6269,
      "ĠhovoÅĻÃŃ": 6270,
      "Ġzticha": 6271,
      "!!": 6272,
      "prÃ½": 6273,
      "znÃ¡m": 6274,
      "Ġslze": 6275,
      "ĠsmrÅ¥": 6276,
      "Åĺek": 6277,
      "Ġzahrady": 6278,
      "Ġosudu": 6279,
      "hrou": 6280,
      "jmi": 6281,
      "Ġvem": 6282,
      "ent": 6283,
      "Ġnav": 6284,
      "kosti": 6285,
      "Ġspal": 6286,
      "ĠteÄįe": 6287,
      "ĠpustÃ½": 6288,
      "ĠchoÅ¥": 6289,
      "ĠsnÄĽhem": 6290,
      "ĠzvÄĽÅĻ": 6291,
      "Ġulo": 6292,
      "ĠzÃ¡pla": 6293,
      "ĠjdeÅ¡": 6294,
      "tiv": 6295,
      "ĠplÃ¡ÅĪ": 6296,
      "pÅĻel": 6297,
      "ĠprÃ¡zdnÃ©": 6298,
      "Nemo": 6299,
      "ĠveÅ¡ke": 6300,
      "nÃŃho": 6301,
      "Ġdostal": 6302,
      "Ġspjat": 6303,
      "ĠnemÅ¯Å¾": 6304,
      "kterak": 6305,
      "Kdys": 6306,
      "voÅĻÃŃ": 6307,
      "ÄįÃŃcÃŃ": 6308,
      "ĠÄįeskÃ½ch": 6309,
      "stÃ¡ch": 6310,
      "ĠotvÃŃ": 6311,
      "ĠpÄĽknÃ©": 6312,
      "lestÃŃ": 6313,
      "ĠpoÅ¾Ã¡": 6314,
      "ĠholÃ©": 6315,
      "Ġkolik": 6316,
      "ĠzÃ¡zra": 6317,
      "ĠmÄĽstu": 6318,
      "ĠvlastnÄĽ": 6319,
      "ĠchvÃ¡tÃ¡": 6320,
      "Ġramena": 6321,
      "roste": 6322,
      "ĠubÃŃ": 6323,
      "ĠsklÃŃ": 6324,
      "ĠÄįerno": 6325,
      "ĠkrÃ¡lovstvÃŃ": 6326,
      "Ġporu": 6327,
      "vanou": 6328,
      "jedno": 6329,
      "ĠvÄĽz": 6330,
      "Ġnohu": 6331,
      "JakÃ©": 6332,
      "Ġpoupat": 6333,
      "hÃ½bÃ¡": 6334,
      "ĠbleskÅ¯": 6335,
      "ĠvolnÃ½": 6336,
      "ĠÅ¡epce": 6337,
      "ajÃŃ": 6338,
      "ditel": 6339,
      "Ġdub": 6340,
      "Ġpavu": 6341,
      "ĠdÃŃl": 6342,
      "ĠotrÃ¡": 6343,
      "ĠÅ¡Å¥astnÄĽ": 6344,
      "NÃ¡Å¡": 6345,
      "ĠÄįarodÄĽj": 6346,
      "ĠpÃ½Å¡e": 6347,
      "Hlu": 6348,
      "zpÄĽt": 6349,
      "ĠschÃ¡zÃŃ": 6350,
      "Ġpas": 6351,
      "Å¡Ã¡": 6352,
      "ĠzvÃ¡": 6353,
      "Ġzbude": 6354,
      "Ġdokud": 6355,
      "ĠÅ¡tva": 6356,
      "ĠbÃŃt": 6357,
      "ĠÅĻece": 6358,
      "Ġondy": 6359,
      "ĠhroznÃ¡": 6360,
      "ĠtajnÃ©": 6361,
      "rnÃ©m": 6362,
      "ÅĻely": 6363,
      "ĠdÃ¡n": 6364,
      "ĠvzpomÃŃnÃ¡": 6365,
      "Ġdcery": 6366,
      "jmou": 6367,
      "vÄįe": 6368,
      "nepo": 6369,
      "nati": 6370,
      "lÃŃbÃ¡": 6371,
      "ÄįinÄĽ": 6372,
      "ĠplÃ¡ly": 6373,
      "ĠvÄĽÄįnÃ½ch": 6374,
      "ĠkoutÄĽ": 6375,
      "ĠpÅĻÃŃroda": 6376,
      "dlen": 6377,
      "Ġzbylo": 6378,
      "ĠkÅ¡ti": 6379,
      "jÃŃti": 6380,
      "duje": 6381,
      "ĠÅ¾iva": 6382,
      "ĠkamenÃŃ": 6383,
      "ĠskalÃ¡ch": 6384,
      "ckÃ½m": 6385,
      "Ġpne": 6386,
      "Ġule": 6387,
      "ÅĪu": 6388,
      "ĠdÄĽsÃŃ": 6389,
      "ĠÅ¡tÄĽd": 6390,
      "druh": 6391,
      "ĠSa": 6392,
      "ĠstÃ¡lo": 6393,
      "ĠhlubokÃ©": 6394,
      "Krev": 6395,
      "Tr": 6396,
      "pru": 6397,
      "plÃŃ": 6398,
      "roval": 6399,
      "voval": 6400,
      "ĠjitÅĻ": 6401,
      "ĠÅ¡lo": 6402,
      "ĠsmÄĽl": 6403,
      "ĠskÃ¡lu": 6404,
      "Ġpokoje": 6405,
      "ĠzimnÃŃ": 6406,
      "Ġsklonil": 6407,
      "ĠjunÃ¡": 6408,
      "ĠpoÅ¡": 6409,
      "poÅ¡to": 6410,
      "mus": 6411,
      "Ġpraco": 6412,
      "ĠstÃŃhÃ¡": 6413,
      "ĠvÅ¡ecku": 6414,
      "Ġsnadno": 6415,
      "Ġvzdoru": 6416,
      "!)": 6417,
      "lkÃ¡": 6418,
      "zkou": 6419,
      "Ġzdob": 6420,
      "mÄĽlo": 6421,
      "ĠnÄĽmÃ¡": 6422,
      "ĠlÃ¡me": 6423,
      "padlo": 6424,
      "ĠostrÃ½": 6425,
      "ĠpÅĻelud": 6426,
      "Darmo": 6427,
      "bÅ¡ÃŃ": 6428,
      "cÃ¡": 6429,
      "cete": 6430,
      "ĠstÃ½": 6431,
      "Ġbyste": 6432,
      "Å¾ÃŃt": 6433,
      "mati": 6434,
      "Nes": 6435,
      "Jeden": 6436,
      "Ġgeni": 6437,
      "Ġozval": 6438,
      "Ġslib": 6439,
      "ZdÃ¡": 6440,
      "ker": 6441,
      "Ġmsti": 6442,
      "rali": 6443,
      "ĠÃºkol": 6444,
      "ĠtouÅ¾il": 6445,
      "ĠspÃŃÅ¡e": 6446,
      "VÃ½": 6447,
      "ik": 6448,
      "lÃ¡nÃŃ": 6449,
      "tovÃ¡nÃŃ": 6450,
      "ĠzÃ¡dumÄįi": 6451,
      "Ġkan": 6452,
      "ĠvÄĽtÅĻÃŃk": 6453,
      "ĠzdvihÃ¡": 6454,
      "ĠonÄĽch": 6455,
      "ChceÅ¡": 6456,
      "ĠÅ¡erem": 6457,
      "ĠmÃŃhÃ¡": 6458,
      "ĠmlÄįenÃŃ": 6459,
      "ByÅ¥": 6460,
      "Ġmraku": 6461,
      "ĠknÄĽÅ¾ÃŃ": 6462,
      "ĠznÃ¡mÃ©": 6463,
      "Ġsmysly": 6464,
      "Ġbalvan": 6465,
      "Ġvzdych": 6466,
      "lÃŃt": 6467,
      "ĠrdÃŃ": 6468,
      "ĠpÃ¡ny": 6469,
      "Ġnejde": 6470,
      "Ġlok": 6471,
      "ĠsklÃ¡dÃ¡": 6472,
      "ĠhÅĻÃ¡": 6473,
      "ĠpÃ¡dÃŃ": 6474,
      "Ġmodro": 6475,
      "Ġpohro": 6476,
      "Äįena": 6477,
      "ĠtÃ¡bo": 6478,
      "Ġsvate": 6479,
      "ĠboÅ¾skÃ©": 6480,
      "ĠtÅĻikrÃ¡t": 6481,
      "ĠslyÅ¡ÃŃÅ¡": 6482,
      "tnÃ½ch": 6483,
      "stvu": 6484,
      "ĠÄįinu": 6485,
      "Ġotco": 6486,
      "ĠpestrÃ©": 6487,
      "Slad": 6488,
      "ĠhvÃŃ": 6489,
      "Ġjisto": 6490,
      "ĠveÅ¡el": 6491,
      "Ġmost": 6492,
      "ĠÅ¾ilÃ¡ch": 6493,
      "mila": 6494,
      "ĠbavÃŃ": 6495,
      "ĠskÃ¡Äįe": 6496,
      "ĠpÃ½cha": 6497,
      "ĠÅ¡lehÃ¡": 6498,
      "PtÃ¡": 6499,
      "Ġzbyl": 6500,
      "Ġpono": 6501,
      "nÄĽch": 6502,
      "volal": 6503,
      "ĠkalÃŃ": 6504,
      "ĠpÃ¡ry": 6505,
      "ĠvavÅĻÃŃ": 6506,
      "ĠvrahÅ¯": 6507,
      "ĠsvÃŃtil": 6508,
      "ĠspÄĽch": 6509,
      "plnÃ©": 6510,
      "vato": 6511,
      "vÃŃvÃ¡": 6512,
      "Ġbyt": 6513,
      "Ġvypla": 6514,
      "Ġkdosi": 6515,
      "Ġhust": 6516,
      "Viz": 6517,
      "Ġparku": 6518,
      "Jdou": 6519,
      "ĠzmÄĽnÃŃ": 6520,
      "voje": 6521,
      "Ġdojem": 6522,
      "nÃ¡n": 6523,
      "Ġluhy": 6524,
      "ĠchvÄĽlo": 6525,
      "Ġjedinou": 6526,
      "ĠkaÅ¾dÃ©ho": 6527,
      "hi": 6528,
      "Ġpopra": 6529,
      "ÅĻÃŃÅ¾": 6530,
      "nov": 6531,
      "ÅĻiv": 6532,
      "kati": 6533,
      "Å¥u": 6534,
      "veÅĪ": 6535,
      "ĠzÃ¡ho": 6536,
      "Å¡ili": 6537,
      "Ġplakal": 6538,
      "ĠsladkÃ©m": 6539,
      "ĠÅ¡irÃ½": 6540,
      "Ġvnady": 6541,
      "Ġzast": 6542,
      "Ġuko": 6543,
      "ĠupÃŃ": 6544,
      "piti": 6545,
      "ĠzjevÃŃ": 6546,
      "ĠTebou": 6547,
      "nÄĽnou": 6548,
      "naly": 6549,
      "ĠpÅĻÃŃk": 6550,
      "JakÃ¡": 6551,
      "ĠlodÃŃ": 6552,
      "zor": 6553,
      "ĠpyÅ¡nÄĽ": 6554,
      "ĠpÅĻemo": 6555,
      "ĠÅĺÃŃma": 6556,
      "Ġslzami": 6557,
      "ĠhÅĻbitov": 6558,
      "gan": 6559,
      "ĠbÃ©ÅĻe": 6560,
      "ĠlÃŃstek": 6561,
      "ĠslastÃŃ": 6562,
      "Ġknih": 6563,
      "ĠdÃ©le": 6564,
      "ĠProÄį": 6565,
      "Ġtlou": 6566,
      "Ġzavz": 6567,
      "kÃ¡zal": 6568,
      "ĠÅ¾er": 6569,
      "Ġodlesk": 6570,
      "ĠÅ¡edÃ¡": 6571,
      "ĠSmrt": 6572,
      "takÃ©": 6573,
      "Ġrysy": 6574,
      "kdoÅ¾": 6575,
      "ĠÅ¾alost": 6576,
      "mrti": 6577,
      "ĠvesmÃŃr": 6578,
      "BÄĽda": 6579,
      "tas": 6580,
      "Äįuje": 6581,
      "ÅĻeli": 6582,
      "ĠuvÄĽ": 6583,
      "Ġskro": 6584,
      "ĠmÃŃsÃŃ": 6585,
      "Ġpusto": 6586,
      "ĠbÄĽhu": 6587,
      "ĠDa": 6588,
      "AvÅ¡ak": 6589,
      "ĠvÃ½m": 6590,
      "Ġdno": 6591,
      "ĠozÃ¡": 6592,
      "Ġlem": 6593,
      "ĠÄįinÅ¯": 6594,
      "jakoby": 6595,
      "VÃŃÅ¡": 6596,
      "ĠzmÃŃtÃ¡": 6597,
      "Ġprostor": 6598,
      "ĠtÅ¯nÄĽ": 6599,
      "ĠvÃ½chodu": 6600,
      "Sl": 6601,
      "tma": 6602,
      "Ġkane": 6603,
      "pali": 6604,
      "ĠVÅ¾dy": 6605,
      "ĠdivnÃ¡": 6606,
      "TÃ¡": 6607,
      "Ġvan": 6608,
      "Ġpoha": 6609,
      "Ġuti": 6610,
      "Ġvypl": 6611,
      "Ġmudr": 6612,
      "ĠprvÃ½": 6613,
      "Ġvida": 6614,
      "ĠnÄĽmÃ©": 6615,
      "Ġfor": 6616,
      "ĠpÅĻesvÄĽd": 6617,
      "draÅ¾Å¡ÃŃ": 6618,
      "Ġkonci": 6619,
      "Ġzmatku": 6620,
      "ĠdÄĽcka": 6621,
      "zrÃ¡": 6622,
      "Ġvstane": 6623,
      "lujÃŃ": 6624,
      "ĠboÅ¾ÃŃm": 6625,
      "ĠdÄĽsnÃ½": 6626,
      "ĠslabÃ©": 6627,
      "Ġstarce": 6628,
      "Ġhluku": 6629,
      "ĠbÅĻehÅ¯": 6630,
      "ĠdrÃ¡hy": 6631,
      "qu": 6632,
      "Ã¡nÃŃ": 6633,
      "chtÄĽ": 6634,
      "lon": 6635,
      "ĠuhlÃŃ": 6636,
      "Ġprova": 6637,
      "stÃŃrÃ¡": 6638,
      "rko": 6639,
      "Å¡ce": 6640,
      "bech": 6641,
      "Å¾enÃ½ch": 6642,
      "ĠplnÃ½m": 6643,
      "ĠhlasÅ¯": 6644,
      "Ġjisker": 6645,
      "Ġseveru": 6646,
      "pka": 6647,
      "vÄįÃŃ": 6648,
      "zak": 6649,
      "ĠrtÃŃ": 6650,
      "ĠÅ¾ila": 6651,
      "ĠcestÃ¡ch": 6652,
      "budou": 6653,
      "ĠpohlÃŃ": 6654,
      "ĠVaÅ¡e": 6655,
      "jnÃ©": 6656,
      "Ġbly": 6657,
      "ÅĻelo": 6658,
      "ĠstÅ¯j": 6659,
      "ĠÅ¡vi": 6660,
      "ĠÃºstech": 6661,
      "ĠpÅĻÃŃsnÄĽ": 6662,
      "ĠlÃŃba": 6663,
      "ĠÄįistou": 6664,
      "sÅ¥a": 6665,
      "ĠOsud": 6666,
      "Ġtrud": 6667,
      "hlÃŃÅ¾e": 6668,
      "Ġvysoko": 6669,
      "ZÅĻÃŃm": 6670,
      "lat": 6671,
      "rati": 6672,
      "ĠpoÅ¾Ã¡r": 6673,
      "ĠburÃ¡": 6674,
      "ĠpÅĻÃŃklad": 6675,
      "ĠstÃ¡do": 6676,
      "ĠstoletÃŃ": 6677,
      "ÅĻÃŃmal": 6678,
      "ĠchtÄĽlo": 6679,
      "Jich": 6680,
      "ĠchrÃ¡my": 6681,
      "Ġpokoji": 6682,
      "ĠkÃ¡cÃŃ": 6683,
      "ĠvÃ¡lky": 6684,
      "ĠzachvÄĽl": 6685,
      "ĠtoÅ¾": 6686,
      "ĠdÃ¡no": 6687,
      "mot": 6688,
      "Ġhudbu": 6689,
      "Ġbludi": 6690,
      "ĠzoufalstvÃŃ": 6691,
      "ĠzvlÃ¡Å¡tnÃŃ": 6692,
      "ĠposmÄĽch": 6693,
      "Ġkriti": 6694,
      "Ġzvl": 6695,
      "Ġzablou": 6696,
      "Ġperel": 6697,
      "ÅĻeme": 6698,
      "ĠdÃŃvku": 6699,
      "ĠÃºsmÄĽvu": 6700,
      "Ġhrdla": 6701,
      "ĠhospodÃ¡": 6702,
      "Hej": 6703,
      "Ġzhu": 6704,
      "novÃ½": 6705,
      "vedu": 6706,
      "Cos": 6707,
      "ĠnebeskÃ©": 6708,
      "Ġnejsi": 6709,
      "Ġzlomen": 6710,
      "heÅĪ": 6711,
      "zpÃŃvÃ¡": 6712,
      ".)": 6713,
      "Hr": 6714,
      "Ġosi": 6715,
      "dostÃŃ": 6716,
      "ĠdÄĽlÃŃ": 6717,
      "Å¾ilo": 6718,
      "Ġlidmi": 6719,
      "ĠbÃ¡snÄĽ": 6720,
      "ĠÄįlovÄĽkem": 6721,
      "Ġmnich": 6722,
      "Ġzpup": 6723,
      "BÃ¡": 6724,
      "Bou": 6725,
      "ĠsnÃ¡Å¡ÃŃ": 6726,
      "jeÅ¥": 6727,
      "ĠuvÃŃ": 6728,
      "Ġcele": 6729,
      "TakÃ©": 6730,
      "ĠrekÅ¯": 6731,
      "ĠvrÃ¡sky": 6732,
      "ĠmdlÃ½": 6733,
      "Ġsmy": 6734,
      "Ġchou": 6735,
      "Ġsple": 6736,
      "ĠobjÃŃmÃ¡": 6737,
      "stavÃŃ": 6738,
      "sadil": 6739,
      "Ġvesel": 6740,
      "Ġster": 6741,
      "dechu": 6742,
      "Ġuka": 6743,
      "kuje": 6744,
      "Äįelo": 6745,
      "Ġposlal": 6746,
      "Ġsymbo": 6747,
      "ĠsnivÃ¡": 6748,
      "Ġpaprs": 6749,
      "ĠÅ¾ebrÃ¡k": 6750,
      "Å¡lÃ©": 6751,
      "teÄįnÄĽ": 6752,
      "Ġdomy": 6753,
      "Ġlevo": 6754,
      "dav": 6755,
      "Ġplny": 6756,
      "ĠklasÅ¯": 6757,
      "ĠtesknÃ©": 6758,
      "ĠÅĻadou": 6759,
      "Ġkmit": 6760,
      "hÅĻÃ¡": 6761,
      "ki": 6762,
      "Ġdol": 6763,
      "ĠpÄĽti": 6764,
      "Ġsouci": 6765,
      "ĠhustÃ©": 6766,
      "ĠklidnÃ½": 6767,
      "ĠCi": 6768,
      "ĠpevnÃ½": 6769,
      "Ġplynou": 6770,
      "stupuje": 6771,
      "Ġtrium": 6772,
      "TÃ©": 6773,
      "leÅ¾ÃŃ": 6774,
      "Ġhon": 6775,
      "ĠboÅĻÃŃ": 6776,
      "ĠtakÃ½": 6777,
      "ĠvÃ½kÅĻi": 6778,
      "ĠOt": 6779,
      "ĠvlÃ¡dy": 6780,
      "PÅĻec": 6781,
      "ĠhlubokÃ½": 6782,
      "ĠÄĮechy": 6783,
      "ĠhlÃ¡sÃŃ": 6784,
      "ĠzdobÃŃ": 6785,
      "ĠpÅ¯lnoci": 6786,
      "nskÃ©": 6787,
      "ĠpoÅĻÃ¡d": 6788,
      "lym": 6789,
      "ĠtuÅ¡ÃŃm": 6790,
      "ĠsvÃŃtÃ¡": 6791,
      "kaÅ¾dÃ©": 6792,
      "Mezi": 6793,
      "ĠzlÃ©ho": 6794,
      "Äįat": 6795,
      "nÄĽna": 6796,
      "ĠumÄĽl": 6797,
      "mÃ¡Å¡": 6798,
      "ĠpÃ¡nÅ¯": 6799,
      "benÃ©": 6800,
      "ĠsmÃ¡la": 6801,
      "ĠpÅ¯lnoc": 6802,
      "ĠspanÃŃ": 6803,
      "tkou": 6804,
      "chi": 6805,
      "Å¯nÄĽ": 6806,
      "Ġpovy": 6807,
      "Ġpocit": 6808,
      "Ġuva": 6809,
      "ĠvÃŃÄįka": 6810,
      "ĠÅ¡est": 6811,
      "zdvi": 6812,
      "vena": 6813,
      "Å½ivot": 6814,
      "ĠknÃŃÅ¾": 6815,
      "Ġdejte": 6816,
      "ĠskÅĻivan": 6817,
      "Ġvzplane": 6818,
      "ĠÄįervÃ¡nkÅ¯": 6819,
      "fÃŃ": 6820,
      "klen": 6821,
      "snÃ½m": 6822,
      "Ġkl": 6823,
      "skÃ½mi": 6824,
      "ĠuÄįen": 6825,
      "Ġhoru": 6826,
      "ĠnovÃ©m": 6827,
      "Å¡tÄĽm": 6828,
      "ĠSlu": 6829,
      "ĠpÃ¡nu": 6830,
      "ĠchtÄĽjÃŃ": 6831,
      "ÅłtÄĽ": 6832,
      "ĠjemuÅ¾": 6833,
      "ĠmocnÃ©": 6834,
      "Ġostro": 6835,
      "ĠnepÅĻÃŃtel": 6836,
      "ĠfarÃ¡": 6837,
      "DÅĻÃŃv": 6838,
      "PlÃ¡": 6839,
      "Ġshle": 6840,
      "ĠvtÄĽ": 6841,
      "enal": 6842,
      "ĠoÄįka": 6843,
      "Ġnehy": 6844,
      "hoÅĻÃŃ": 6845,
      "Ġzad": 6846,
      "ĠzamyÅ¡": 6847,
      "cÃŃtÃŃ": 6848,
      "ĠkoÄįÃ¡": 6849,
      "ĠÅ¡epo": 6850,
      "ĠpouhÃ©": 6851,
      "Ġkul": 6852,
      "stoup": 6853,
      "Ġpoliti": 6854,
      "Ġtlum": 6855,
      "Äıar": 6856,
      "ĠstraÅ¡li": 6857,
      "Ġhubi": 6858,
      "ĠOd": 6859,
      "Ġdeset": 6860,
      "nickÃ½": 6861,
      "Ġzim": 6862,
      "ĠvzpomÃŃnek": 6863,
      "Ġmiluji": 6864,
      "chovÃ¡": 6865,
      "ĠSnad": 6866,
      "ĠplÃ¡lo": 6867,
      "Ġstranu": 6868,
      "ĠtÃŃsnÃŃ": 6869,
      "ĠpohÃ¡dky": 6870,
      "Ġarci": 6871,
      "Ġzmu": 6872,
      "Ġpoc": 6873,
      "lostÃŃ": 6874,
      "Ġmuky": 6875,
      "Ġpre": 6876,
      "Ġskvr": 6877,
      "ĠÅĻetÄĽz": 6878,
      "ĠhvÄĽzdou": 6879,
      "kteÅĻÃŃ": 6880,
      "ren": 6881,
      "Ġkorou": 6882,
      "jakby": 6883,
      "ĠruÄįky": 6884,
      "plnÃ½": 6885,
      "ĠobÄĽt": 6886,
      "hnouti": 6887,
      "Ġsrde": 6888,
      "vÅ¡ad": 6889,
      "Ke": 6890,
      "Å¾nou": 6891,
      "radost": 6892,
      "Ġnedal": 6893,
      "Ġholou": 6894,
      "jila": 6895,
      "ceni": 6896,
      "Ġoblaky": 6897,
      "ĠdÃ¡my": 6898,
      "ĠhedvÃ¡": 6899,
      "ĠnÃ¡v": 6900,
      "ĠpÄĽsti": 6901,
      "ĠnaÅ¡eho": 6902,
      "Ġzvuku": 6903,
      "Prav": 6904,
      "Hlas": 6905,
      "Jas": 6906,
      "ĠÅ½e": 6907,
      "list": 6908,
      "Ġvzbou": 6909,
      "ĠsvÃŃce": 6910,
      "Ġzloba": 6911,
      "ĠpÅĻÃ¡telÃ©": 6912,
      "dÅ¯vÄĽ": 6913,
      "ĠnedoÄįka": 6914,
      "Ġslep": 6915,
      "slunce": 6916,
      "ĠpilnÄĽ": 6917,
      "ĠPetr": 6918,
      "jnÃ½": 6919,
      "Ġvpad": 6920,
      "Ġzahal": 6921,
      "Ġmukou": 6922,
      "sala": 6923,
      "ĠlkÃ¡nÃŃ": 6924,
      "volnÄĽ": 6925,
      "Ġsoumraku": 6926,
      "ĠrÅ¯znÃ½ch": 6927,
      "vanÃ¡": 6928,
      "Å¡eti": 6929,
      "Ġvzrost": 6930,
      "ÄįeÅ¾": 6931,
      "ĠtuÅ¾eb": 6932,
      "ĠpaÅ¾ÃŃ": 6933,
      "ĠÅ¡er": 6934,
      "DobÅĻe": 6935,
      "ĠDÄĽ": 6936,
      "Ġbloudil": 6937,
      "Ġklesl": 6938,
      "ĠÄıas": 6939,
      "ĠperutÄĽ": 6940,
      "Ġvzejde": 6941,
      "Chu": 6942,
      "ĠvstÃ¡": 6943,
      "Ġjesen": 6944,
      "Ġrozvi": 6945,
      "ĠTam": 6946,
      "mÃ¡hÃ¡": 6947,
      "ĠblaÅ¾ÃŃ": 6948,
      "Ġmohli": 6949,
      "!...âĢľ": 6950,
      "ĠkÅĻovÃŃ": 6951,
      "bka": 6952,
      "Å¡til": 6953,
      "roda": 6954,
      "Ġoso": 6955,
      "vÄĽn": 6956,
      "ĠrodnÃ½": 6957,
      "ĠrtÅ¯m": 6958,
      "Ġoblou": 6959,
      "sajÃŃ": 6960,
      "Jakby": 6961,
      "Ġstrasti": 6962,
      "ĠsmÃ¡t": 6963,
      "Ġpaprsky": 6964,
      "lÃŃch": 6965,
      "Ġleto": 6966,
      "ĠpÄĽjÃŃ": 6967,
      "ĠplnÃ½ch": 6968,
      "Ġjasem": 6969,
      "ĠradosÅ¥": 6970,
      "ĠÅ¾ÃŃzni": 6971,
      "ĠkrutÃ©": 6972,
      "Ġteplo": 6973,
      "ĠbujnÃ©": 6974,
      "ĠkvÄĽtech": 6975,
      "Zvo": 6976,
      "ĠprvÃ©": 6977,
      "ĠvojÃ¡": 6978,
      "ĠbijÃŃ": 6979,
      "ĠspÄĽl": 6980,
      "Ġocho": 6981,
      "vidÄĽl": 6982,
      "Å¾ivot": 6983,
      "Potom": 6984,
      "ĠplÃ¡t": 6985,
      "bÃ¡Å¡": 6986,
      "ĠchvÄĽly": 6987,
      "nickÃ©": 6988,
      "Ġmrz": 6989,
      "ĠnÄĽÅ¾nÃ©": 6990,
      "ĠnÄĽjÅ¾": 6991,
      "mla": 6992,
      "ĠtkÃ¡": 6993,
      "jeli": 6994,
      "Ġoddech": 6995,
      "ĠmÄĽly": 6996,
      "ĠTen": 6997,
      "chÃ¡zÃŃm": 6998,
      "ĠÅĻÃŃdÃŃ": 6999,
      "ĠtÄĽÅ¾kÃ½m": 7000,
      "Ġjiskra": 7001,
      "Ġchceme": 7002,
      "chti": 7003,
      "ĠmroucÃŃ": 7004,
      "Ġpoledne": 7005,
      "nÃ¡Å¡el": 7006,
      "ĠhoÅ¡i": 7007,
      "Ġkov": 7008,
      "vidÃŃm": 7009,
      "daje": 7010,
      "ĠVes": 7011,
      "ĠÅĻev": 7012,
      "ĠchytÃ¡": 7013,
      "ĠmalÃ½ch": 7014,
      "ĠtrÃ¡vu": 7015,
      "ĠstudÃ¡": 7016,
      "ĠzachrÃ¡": 7017,
      "ĠodpusÅ¥": 7018,
      "Ġpopla": 7019,
      "dÄĽjÃŃ": 7020,
      "Ġmuce": 7021,
      "ĠÅĻetÄĽ": 7022,
      "ĠkrÃ¡tkÃ©": 7023,
      "Ġshon": 7024,
      "Ġhouf": 7025,
      "Ġkopy": 7026,
      "Ġnoh": 7027,
      "Ġkudy": 7028,
      "ĠslÃ½ch": 7029,
      "ĠkÅĻÃŃÅ¾i": 7030,
      "brat": 7031,
      "ĠmrtvÃŃ": 7032,
      "ĠznÃ¡t": 7033,
      "ĠhouÅ¡ti": 7034,
      "ĠjizbÄĽ": 7035,
      "ĠideÃ¡": 7036,
      "oko": 7037,
      "Ġchech": 7038,
      "ĠpeÅĻe": 7039,
      "Å¾eno": 7040,
      "venÃ¡": 7041,
      "ĠmilovÃ¡nÃŃ": 7042,
      "ĠveÄįernÃŃ": 7043,
      "ĠnevÃŃÅ¡": 7044,
      "bami": 7045,
      "knu": 7046,
      "ĠhÅ¯l": 7047,
      "ĠoÅ¾i": 7048,
      "pomeÅĪ": 7049,
      "ĠpÅĻedc": 7050,
      "cenou": 7051,
      "kev": 7052,
      "Ġlampy": 7053,
      "ĠplÃŃÅ¾ÃŃ": 7054,
      "ĠbohatÃ½r": 7055,
      "jnÃ¡": 7056,
      "Å¡kem": 7057,
      "cestÃŃ": 7058,
      "ĠjinÃ©ho": 7059,
      "dÄĽlo": 7060,
      "Ġhorami": 7061,
      "ÅĪal": 7062,
      "Ġstan": 7063,
      "ĠAu": 7064,
      "jemi": 7065,
      "ĠÅ¡eptal": 7066,
      "pÅ¯l": 7067,
      "ĠostatnÃŃ": 7068,
      "ĠpenÄĽz": 7069,
      "vatÃ¡": 7070,
      "lÃ©mu": 7071,
      "ĠpÅĻichÃ¡zÃŃ": 7072,
      "ĠPi": 7073,
      "ĠstÃ¡da": 7074,
      "cÅ¯v": 7075,
      "ĠumÅĻÃŃt": 7076,
      "ĠzboÅ¾nÄĽ": 7077,
      "utÃŃ": 7078,
      "Ġsestra": 7079,
      "Ġzato": 7080,
      "tati": 7081,
      "ĠskvoucÃŃ": 7082,
      "Å¾eny": 7083,
      "ĠsynÅ¯": 7084,
      "hlÃ½m": 7085,
      "zenÃ½": 7086,
      "ĠPraha": 7087,
      "ĠteplÃ½": 7088,
      "ĠRolan": 7089,
      "ĠblÃ½ska": 7090,
      "dlem": 7091,
      "vnitÅĻ": 7092,
      "Ġposte": 7093,
      "Ġviz": 7094,
      "ĠhradÄĽ": 7095,
      "cena": 7096,
      "stroj": 7097,
      "ĠoltÃ¡ÅĻe": 7098,
      "Ġkostela": 7099,
      "Å¾nÃ½ch": 7100,
      "ĠslabÃ½": 7101,
      "ĠdruhÅ¯": 7102,
      "ĠbÃ¡znÃŃ": 7103,
      "ĠmrtvÃ¡": 7104,
      "Ġklidem": 7105,
      "Ġovoce": 7106,
      "Å¾ha": 7107,
      "Ġkmo": 7108,
      "lesti": 7109,
      "Ġpoku": 7110,
      "mÄĽt": 7111,
      "ĠoblÃ¡": 7112,
      "ĠskoÄįÃŃ": 7113,
      "ĠhÅĻÃŃmÃ¡": 7114,
      "ĠsvÃ¡tek": 7115,
      "ĠvzpomÃŃnky": 7116,
      "ĠmÄĽkce": 7117,
      "ĠmÄĽkkÃ½": 7118,
      "ĠbÅĻÃŃmÄĽ": 7119,
      "ĠrovnÄĽÅ¾": 7120,
      "Spo": 7121,
      "Ġmor": 7122,
      "ĠmilÃŃ": 7123,
      "ĠhladÃŃ": 7124,
      "Ġhladem": 7125,
      "ĠbÃŃdÄĽ": 7126,
      "Ġkroku": 7127,
      "lÅ¯v": 7128,
      "ĠpÅ¯dÄĽ": 7129,
      "ĠplesÃ¡": 7130,
      "ĠdnovÃ©": 7131,
      "ĠnaÅ¡ÃŃm": 7132,
      "ĠÄįekÃ¡m": 7133,
      "Ġchladnou": 7134,
      "ĠdvoÅĻe": 7135,
      "blÃŃÅ¾": 7136,
      "Ġhisto": 7137,
      "Ġjdeme": 7138,
      "emo": 7139,
      "Ġleta": 7140,
      "vidÃŃ": 7141,
      "Ġvyho": 7142,
      "ĠlÃŃpy": 7143,
      "Ġlokte": 7144,
      "ÄįkovÃ©": 7145,
      "Ġmladost": 7146,
      "ĠhlubinÃ¡ch": 7147,
      "Ġpostavy": 7148,
      "Ġklene": 7149,
      "znou": 7150,
      "Ġnasy": 7151,
      "skvÄĽ": 7152,
      "poli": 7153,
      "Ġmojich": 7154,
      "talo": 7155,
      "mÃŃt": 7156,
      "Ġcig": 7157,
      "Dost": 7158,
      "ĠÅ¡ÃŃÅĻ": 7159,
      "hradu": 7160,
      "ĠposlednÃŃm": 7161,
      "dnÃ©ho": 7162,
      "ĠjmÄĽnÃŃ": 7163,
      "Ġdocela": 7164,
      "nus": 7165,
      "ĠslepÃ½": 7166,
      "Ġdvacet": 7167,
      "Lo": 7168,
      "Ġzkla": 7169,
      "ĠapoÅ¡to": 7170,
      "ĠlÃ¡n": 7171,
      "Ġresi": 7172,
      "ĠprÃ¡zdnÃ½": 7173,
      "ĠdÃ½mu": 7174,
      "Ġmoudrosti": 7175,
      "Dra": 7176,
      "ubo": 7177,
      "Ġohlas": 7178,
      "ĠutÄĽ": 7179,
      "Ġroje": 7180,
      "ĠhoÅĻem": 7181,
      "Ġkoli": 7182,
      "Ġvyslo": 7183,
      "ĠnÃ¡vra": 7184,
      "Proti": 7185,
      "ĠpaprskÅ¯": 7186,
      "dly": 7187,
      "fÃ¡": 7188,
      "hrob": 7189,
      "Å¡lÃŃ": 7190,
      "ruje": 7191,
      "ĠproklÃŃ": 7192,
      "ĠAd": 7193,
      "ĠrÅ¯znÃ©": 7194,
      "cenÃ½ch": 7195,
      "ĠJeÅ¾ÃŃÅ¡": 7196,
      "ĠpoÄįÃ¡": 7197,
      "Ġulice": 7198,
      "ĠTeÄı": 7199,
      "Ġcenu": 7200,
      "Ġov": 7201,
      "pojÄı": 7202,
      "Ġslovu": 7203,
      "ĠvÅ¯z": 7204,
      "Ġjasno": 7205,
      "Å¡enÃ¡": 7206,
      "Ġtemna": 7207,
      "ĠchrÃ¡mÄĽ": 7208,
      "ĠLibu": 7209,
      "Ġvni": 7210,
      "ĠpravÃŃm": 7211,
      "Ġslabo": 7212,
      "pÃ¡r": 7213,
      "Ġmrazem": 7214,
      "ĠÅ¾ÃŃzeÅĪ": 7215,
      "ĠÅ¾aly": 7216,
      "ĠdlaÅ¾": 7217,
      "ĠhledÃ¡m": 7218,
      "ĠdÄĽtskÃ©": 7219,
      "KÃ½": 7220,
      "pjat": 7221,
      "ÅĻka": 7222,
      "Ġvyhna": 7223,
      "Ġrmut": 7224,
      "ĠbodÃ¡": 7225,
      "Ġjedem": 7226,
      "ĠMÃŃ": 7227,
      "ĠdruzÃŃ": 7228,
      "ĠrybnÃŃ": 7229,
      "ĠZe": 7230,
      "Ġbere": 7231,
      "ĠpamÄĽÅ¥": 7232,
      "ĠzÅĻeli": 7233,
      "ĠÅ¡lechet": 7234,
      "Ġnebyla": 7235,
      "luji": 7236,
      "Äįest": 7237,
      "ĠÅ¾ijÃŃ": 7238,
      "ĠstaÅĻÃŃ": 7239,
      "ĠpÃ¡d": 7240,
      "ĠtrnÃŃ": 7241,
      "ĠLo": 7242,
      "ĠzdÃ¡nÃŃ": 7243,
      "ĠlÃ©ka": 7244,
      "Ġtmavou": 7245,
      "ĠznÃ¡ti": 7246,
      "ĠtÃ³ny": 7247,
      "Sen": 7248,
      "ĠzanÃŃ": 7249,
      "ĠnÄĽhu": 7250,
      "Ġiro": 7251,
      "ĠdÄĽsnÃ©": 7252,
      "pÄĽla": 7253,
      "ĠsnÃŃt": 7254,
      "ĠnevidÄĽl": 7255,
      "Ġjizby": 7256,
      "ĠvzÃŃti": 7257,
      "ĠneÅĻe": 7258,
      "Ġvece": 7259,
      "jisk": 7260,
      "ĠpÅĻekva": 7261,
      "ĠnÃ¡ÅĻ": 7262,
      "ĠkacÃŃ": 7263,
      "ĠÄįernÃ½m": 7264,
      "TÄĽÅ¾": 7265,
      "ĠmateÅĻ": 7266,
      "sna": 7267,
      "chni": 7268,
      "ÃŃmÄĽ": 7269,
      "Ġpel": 7270,
      "ĠdravÃ½": 7271,
      "ĠbÃ¡l": 7272,
      "kladu": 7273,
      "ĠsnÄĽtÃŃ": 7274,
      "ĠdrÃ¡hu": 7275,
      "ĠzapomnÄĽnÃŃ": 7276,
      "ĠvleÄįe": 7277,
      "pÅ¯j": 7278,
      "ĠnedÄĽ": 7279,
      "ĠÅ¾u": 7280,
      "ĠdusÃŃ": 7281,
      "jakÃ¡": 7282,
      "ĠÄįeskou": 7283,
      "Ġsiro": 7284,
      "ĠlÃŃnÄĽ": 7285,
      "pej": 7286,
      "ĠRenal": 7287,
      "ĠpoÄįne": 7288,
      "ĠvÃŃme": 7289,
      "ĠÅ¡koly": 7290,
      "sam": 7291,
      "Ġshlu": 7292,
      "ĠchÅĻe": 7293,
      "Ġvlaje": 7294,
      "Ġhromo": 7295,
      "ĠÄįerv": 7296,
      "ĠvÄĽÄįnÃ½m": 7297,
      "Å¡enÄĽ": 7298,
      "ĠÄıÃ¡b": 7299,
      "Ġzdroje": 7300,
      "ĠmÅ¾ikem": 7301,
      "hvÄĽz": 7302,
      "ĠvÄĽÅ¾i": 7303,
      "ĠpeÅĻÃŃ": 7304,
      "trp": 7305,
      "ĠblahÃ½": 7306,
      "Ġlos": 7307,
      "ĠvraÅ¥": 7308,
      "ĠvlastnÃŃch": 7309,
      "Ġtragi": 7310,
      "ĠnÃ¡mÄĽstÃŃ": 7311,
      "ZnÃ¡m": 7312,
      "zli": 7313,
      "ÃŃch": 7314,
      "ĠÅ¾ivÃŃ": 7315,
      "ĠplaÅ¡ÃŃ": 7316,
      "Ġcitem": 7317,
      "Ġvlno": 7318,
      "ĠÅ¡irÃ©m": 7319,
      "Ġkapky": 7320,
      "Ġpovo": 7321,
      "Ġrol": 7322,
      "ĠniÅ¾": 7323,
      "Ġvoje": 7324,
      "ĠpravÃ¡": 7325,
      "ĠtmavÃ½ch": 7326,
      "Ġsedmi": 7327,
      "ĠpropastÃŃ": 7328,
      "ĠpevnÃ©": 7329,
      "ĠokamÅ¾iku": 7330,
      "ĠvteÅĻi": 7331,
      "Ġzko": 7332,
      "Ġnajednou": 7333,
      "ĠÅ¡o": 7334,
      "Ġstala": 7335,
      "Ġnemlu": 7336,
      "ĠlhÃ¡": 7337,
      "Ġvaz": 7338,
      "Å¡eni": 7339,
      "kolenÃŃ": 7340,
      "Ġzjevil": 7341,
      "ĠhoupÃ¡": 7342,
      "boÅ¾Ã¡": 7343,
      "ĠzaÅ¡lÃ½ch": 7344,
      "ĠpamÃ¡tku": 7345,
      "ĠnÃ©sti": 7346,
      "Mrt": 7347,
      "noÄįnÃŃ": 7348,
      "illu": 7349,
      "ĠrozlÃŃ": 7350,
      "ĠrudÃ¡": 7351,
      "ĠbÃ¡znÄĽ": 7352,
      "ĠjaÅĻe": 7353,
      "tenÃ¡": 7354,
      "ĠNu": 7355,
      "ĠÅ¡Å¥astnÃ©": 7356,
      "ĠsnivÃ½": 7357,
      "Ġrakvi": 7358,
      "vle": 7359,
      "Ġopak": 7360,
      "nÄĽnÃ¡": 7361,
      "vÃ¡s": 7362,
      "toma": 7363,
      "Ġref": 7364,
      "ĠnÃ¡rodÅ¯": 7365,
      "ĠosvÄĽt": 7366,
      "beni": 7367,
      "Ġsedm": 7368,
      "ĠnenadÃ¡nÃŃ": 7369,
      "Ġzjas": 7370,
      "Ġnachem": 7371,
      "vojÃŃ": 7372,
      "ĠÅ¡leh": 7373,
      "ĠkopÃŃ": 7374,
      "ĠlekÃ¡": 7375,
      "JeÅ¥": 7376,
      "ĠÄįernÃ©m": 7377,
      "Ġdruhy": 7378,
      "ĠbÃ¡jÃŃ": 7379,
      "Äįeno": 7380,
      "Ġzbyla": 7381,
      "ĠvysokÃ©": 7382,
      "Pane": 7383,
      "ĠzdrÃ¡va": 7384,
      "ĠzboÅ¾ÃŃ": 7385,
      "lÃ¡n": 7386,
      "Ġzasy": 7387,
      "Ġhody": 7388,
      "mund": 7389,
      "ĠrozvÃ¡": 7390,
      "Ġnadarmo": 7391,
      "pustÃŃ": 7392,
      "pustil": 7393,
      "ĠvÃ½Äįi": 7394,
      "ĠvÃ½so": 7395,
      "Ġsnahy": 7396,
      "ĠmyÅ¡lÃ©nek": 7397,
      "Ġhejno": 7398,
      "ĠvodopÃ¡": 7399,
      "Ġnouze": 7400,
      "ĠzÃ¡mek": 7401,
      "Å¾em": 7402,
      "tina": 7403,
      "Ġjist": 7404,
      "Ġrozvl": 7405,
      "ĠtÄĽkÃ¡": 7406,
      "Ġsocha": 7407,
      "ÅĻenÃ½m": 7408,
      "ĠpukÃ¡": 7409,
      "ĠsvatÃ©ho": 7410,
      "ĠmarnÃ½": 7411,
      "Ġpokro": 7412,
      "Ġslavnost": 7413,
      "ĠvichÅĻice": 7414,
      "Ġzmize": 7415,
      "Ġoct": 7416,
      "Ġpoklady": 7417,
      "ÅĻÃŃti": 7418,
      "Å¥Ã¡": 7419,
      "Ġroku": 7420,
      "Ġmozo": 7421,
      "Ġvzpou": 7422,
      "Ġsrdcy": 7423,
      "ĠrubÃŃ": 7424,
      "ĠÃºkry": 7425,
      "NevÃŃm": 7426,
      "ĠÅ¡eÅĻÃŃ": 7427,
      "Ġsoused": 7428,
      "vedli": 7429,
      "Ġmluv": 7430,
      "ĠbolesÅ¥": 7431,
      "ĠmuÅ¾em": 7432,
      "Ġheslo": 7433,
      "Ġhluboko": 7434,
      "Ġoblohou": 7435,
      "Ġvezme": 7436,
      "Ġceny": 7437,
      "roze": 7438,
      "ĠpoÅĻÃ¡": 7439,
      "ĠzavÄĽ": 7440,
      "ĠuklÃ¡": 7441,
      "ĠzÃ¡slu": 7442,
      "ĠdÃ¡val": 7443,
      "ĠmÄĽÅĻÃŃ": 7444,
      "âĢĻ!": 7445,
      "ĠdÃŃlu": 7446,
      "ĠcÃŃtit": 7447,
      "skot": 7448,
      "pasi": 7449,
      "ĠjmÃ©nem": 7450,
      "ĠzvÃŃtÄĽ": 7451,
      "ĠkÅĻÃŃdlech": 7452,
      "*)": 7453,
      "Ġzahu": 7454,
      "lÃ©vÃ¡": 7455,
      "Ġihned": 7456,
      "zali": 7457,
      "ĠVz": 7458,
      "Ġstole": 7459,
      "ÅĻeno": 7460,
      "ĠspÃ¡su": 7461,
      "Ġskokem": 7462,
      "ĠhorkÃ©": 7463,
      "ĠsvobodÄĽ": 7464,
      "ĠlÅ¯no": 7465,
      "ĠpÅĻÃŃÅ¡tÃŃch": 7466,
      "ncem": 7467,
      "smrt": 7468,
      "ĠW": 7469,
      "Ã½val": 7470,
      "Äįno": 7471,
      "Ġhladu": 7472,
      "Ġodsou": 7473,
      "ĠmÃ©nÄĽ": 7474,
      "stoupÃŃ": 7475,
      "ĠOr": 7476,
      "ĠstÅĻechy": 7477,
      "ptÃ¡k": 7478,
      "dÅĻÃŃ": 7479,
      "nnÃ½": 7480,
      "vlÃŃ": 7481,
      "Ġmrou": 7482,
      "lom": 7483,
      "Ġdot": 7484,
      "ĠhodÃŃ": 7485,
      "Ġleda": 7486,
      "Ġrozbi": 7487,
      "ĠdrahÃ½ch": 7488,
      "Ġdlouze": 7489,
      "ĠmÄĽkkÃ©": 7490,
      "ĠkrvavÃ½": 7491,
      "Å¾al": 7492,
      "ĠnapÅĻed": 7493,
      "vami": 7494,
      "ĠzaÄįÃŃ": 7495,
      "por": 7496,
      "ĠvÄĽno": 7497,
      "Ġrozka": 7498,
      "stalo": 7499,
      "mor": 7500,
      "ĠzdvÃŃ": 7501,
      "ÄįenÃ¡": 7502,
      "ĠsnÄĽti": 7503,
      "Vel": 7504,
      "Ġbabi": 7505,
      "cÃŃmi": 7506,
      "ĠdÃŃvce": 7507,
      "Ġpozdvi": 7508,
      "ĠtajemnÃ©": 7509,
      "ĠvzÃ¡cnÃ©": 7510,
      "Ode": 7511,
      "ĠposÃŃ": 7512,
      "ame": 7513,
      "Ġlep": 7514,
      "Ġprs": 7515,
      "ĠTvou": 7516,
      "ĠVÃ¡Å¡": 7517,
      "ĠlÃŃtost": 7518,
      "ĠstaletÃŃ": 7519,
      "rÅ¯v": 7520,
      "nesl": 7521,
      "ĠpohlÃ©": 7522,
      "ĠÅ¡Å¥astni": 7523,
      "ĠspoleÄįnosti": 7524,
      "lce": 7525,
      "Ġpohan": 7526,
      "celÃ½": 7527,
      "nÄĽt": 7528,
      "toho": 7529,
      "Ġodpla": 7530,
      "rÃ©ho": 7531,
      "Ġpuk": 7532,
      "ĠDi": 7533,
      "ĠdeÅ¡ti": 7534,
      "Ġhospody": 7535,
      "svÃ¡": 7536,
      "vÃŃtÃŃ": 7537,
      "cii": 7538,
      "Ġjsy": 7539,
      "ĠjasnÃ½m": 7540,
      "ĠtmavÃ¡": 7541,
      "Ġmladist": 7542,
      "Ġblud": 7543,
      "Ġstrun": 7544,
      "NeboÅ¥": 7545,
      "Ġdrahoka": 7546,
      "dol": 7547,
      "danÃ©": 7548,
      "ĠvÃŃnek": 7549,
      "ĠobÄĽti": 7550,
      "ĠdÅ¯stoj": 7551,
      "ode": 7552,
      "umÃŃ": 7553,
      "ĠstÅ¯nÄĽ": 7554,
      "dokud": 7555,
      "ĠroznÃŃ": 7556,
      "Ġtichem": 7557,
      "ĠpÅĻedtu": 7558,
      "ĠdÃ¡lnÃ½ch": 7559,
      "ĠvÄĽrnÃ¡": 7560,
      "Ġkletby": 7561,
      "Ġhezky": 7562,
      "vstÅĻÃŃc": 7563,
      "emu": 7564,
      "dor": 7565,
      "Ġhroma": 7566,
      "nesla": 7567,
      "Ġstroj": 7568,
      "Bych": 7569,
      "Ġjezera": 7570,
      "Ġpohledu": 7571,
      "ĠlÅ¯Å¾ko": 7572,
      "SlÃ¡va": 7573,
      "OÄįi": 7574,
      "bnÃ¡": 7575,
      "bnou": 7576,
      "Ġsky": 7577,
      "Ġsedla": 7578,
      "nÃŃkem": 7579,
      "nesu": 7580,
      "Ġhladi": 7581,
      "Ġjakoby": 7582,
      "ĠPÅĻe": 7583,
      "ĠpÅĻÃŃtele": 7584,
      "ĠplachÃ½": 7585,
      "ĠjejÃŃÅ¾": 7586,
      "ĠvÅ¡echna": 7587,
      "ZatÃŃm": 7588,
      "ĠtÃŃseÅĪ": 7589,
      "ĠtÃŃsni": 7590,
      "ĠspÄĽchu": 7591,
      "Ġpoklid": 7592,
      "Ġzraje": 7593,
      "Ġminulost": 7594,
      "Oko": 7595,
      "ĠsrÃ¡z": 7596,
      "ĠsrdÃ©": 7597,
      "ĠÃºsvi": 7598,
      "Ġprcha": 7599,
      "pajÃŃ": 7600,
      "ĠmetÃ¡": 7601,
      "ĠmnoÅ¾stvÃŃ": 7602,
      "vrh": 7603,
      "ĠhvÄĽzdnÃ©": 7604,
      "Ġtrosky": 7605,
      "posled": 7606,
      "ĠtÃ³n": 7607,
      "ĠÅ¾ehnÃ¡": 7608,
      "ĠÄįtve": 7609,
      "ĠVÃ¡cla": 7610,
      "tar": 7611,
      "ĠnelÃŃ": 7612,
      "ĠnahÃ¡": 7613,
      "ĠudÄĽla": 7614,
      "doval": 7615,
      "Ġmine": 7616,
      "lout": 7617,
      "milÃ¡": 7618,
      "Ġsluchu": 7619,
      "Ġrukama": 7620,
      "ĠlehkÃ½": 7621,
      "ĠvÃ¡Å¾nÃ½": 7622,
      "clo": 7623,
      "zil": 7624,
      "Ã¡jem": 7625,
      "chtÃŃ": 7626,
      "Å¥at": 7627,
      "musÃŃ": 7628,
      "ĠmuÄįÃŃ": 7629,
      "Ġniv": 7630,
      "ĠzÃ¡vod": 7631,
      "ĠruÅ¡ÃŃ": 7632,
      "Nepo": 7633,
      "Ġvraha": 7634,
      "ĠCÃŃ": 7635,
      "Ġzvedne": 7636,
      "ĠÅĻasy": 7637,
      "ĠnebezpeÄįÃŃ": 7638,
      "Ġprince": 7639,
      "pku": 7640,
      "ĠvÄįe": 7641,
      "Ġvdech": 7642,
      "ĠstkvÃŃ": 7643,
      "kan": 7644,
      "Ġmozku": 7645,
      "vejte": 7646,
      "mÃŃru": 7647,
      "ÄĮlovÄĽk": 7648,
      "ĠcÃ¡": 7649,
      "ĠbÄĽlÃ¡": 7650,
      "vraÅ¾": 7651,
      "ĠokolÃŃ": 7652,
      "Ġobrazy": 7653,
      "Ġroucha": 7654,
      "ĠVyÅ¡e": 7655,
      "ĠmÄĽsÃŃci": 7656,
      "ĠverÅ¡Å¯": 7657,
      "Ġresigna": 7658,
      "hroz": 7659,
      "sÅ¡ÃŃ": 7660,
      "tvÃŃ": 7661,
      "ĠptÃ¡m": 7662,
      "vÃ¡nÃŃm": 7663,
      "Äįeje": 7664,
      "Ġluhu": 7665,
      "ĠtichÃ½ch": 7666,
      "Ġhloubky": 7667,
      "ĠpoÅ¾ehnÃ¡": 7668,
      "Ġdoktor": 7669,
      "Ġvstala": 7670,
      "ĠdÃ¡Å¡": 7671,
      "ĠÃºtra": 7672,
      "Ġhrozi": 7673,
      "ĠMÄĽ": 7674,
      "Ġmlhou": 7675,
      "Ġleskne": 7676,
      "kvetla": 7677,
      "ĠpovÄĽst": 7678,
      "ĠubohÃ©": 7679,
      "eru": 7680,
      "ĠssÃ¡": 7681,
      "ĠnevrÃ¡tÃŃ": 7682,
      "Ġtane": 7683,
      "prve": 7684,
      "ĠmnoÅ¾ÃŃ": 7685,
      "ĠmocnÃ¡": 7686,
      "Ġkletba": 7687,
      "ĠtÅĻÃ¡s": 7688,
      "Ġzval": 7689,
      "ĠpomnÄĽ": 7690,
      "ĠnaÅ¡li": 7691,
      "ĠâĢĵ:": 7692,
      "skat": 7693,
      "pole": 7694,
      "Ġhodil": 7695,
      "ĠplÃ¡nÄĽ": 7696,
      "ĠfrÃ¡": 7697,
      "ĠznÃ¡te": 7698,
      "ĠslavnÃ½ch": 7699,
      "Ġsadu": 7700,
      "ĠÅĪÃ¡dra": 7701,
      "ĠsnoubÃŃ": 7702,
      "Ġchalou": 7703,
      "Ġprobou": 7704,
      "Ġvzo": 7705,
      "ĠpÅĻil": 7706,
      "Ġodpor": 7707,
      "ĠtvrdÃ½": 7708,
      "ĠneznÃ¡mÃ½": 7709,
      "kvi": 7710,
      "ĠdvakrÃ¡t": 7711,
      "Ġrozva": 7712,
      "ĠnÄĽkolik": 7713,
      "ĠstÃ¡vÃ¡": 7714,
      "ĠdobrÃ½ch": 7715,
      "pÃ¡ch": 7716,
      "skoÄįÃŃ": 7717,
      "ĠdÅĻÃŃma": 7718,
      "lechti": 7719,
      "ĠkrajÅ¯": 7720,
      "Ġzpola": 7721,
      "ĠtisÃŃci": 7722,
      "Ġpodu": 7723,
      "Ġpoled": 7724,
      "ĠdÄĽd": 7725,
      "Ġpranic": 7726,
      "ĠdÃŃvat": 7727,
      "ĠmÃŃjÃŃ": 7728,
      "ÄĮech": 7729,
      "ĠnejdraÅ¾Å¡ÃŃ": 7730,
      "vzduch": 7731,
      "Ġtrav": 7732,
      "ĠboÅ¾stvÃŃ": 7733,
      "Dlouho": 7734,
      "nkÅ¯": 7735,
      "nskÃ½": 7736,
      "Å¾bÃ¡": 7737,
      "Ġsel": 7738,
      "vatu": 7739,
      "Ġzaha": 7740,
      "taj": 7741,
      "Äįinou": 7742,
      "syn": 7743,
      "rii": 7744,
      "Ġtvojich": 7745,
      "ĠhorÅ¡ÃŃ": 7746,
      "ĠbrÃ¡nu": 7747,
      "ĠumÅĻel": 7748,
      "ĠulicÃŃch": 7749,
      "marnÄĽ": 7750,
      "ĠpodÄĽ": 7751,
      "ĠpokolenÃŃ": 7752,
      "tiÅ¾": 7753,
      "tisÃŃc": 7754,
      "ĠnÄĽhou": 7755,
      "ĠnÃŃtÃŃ": 7756,
      "ĠbÃŃdnÃ©": 7757,
      "ĠvÃ½smÄĽ": 7758,
      "ĠlaÅĪ": 7759,
      "Ġhrdi": 7760,
      "ĠbojÅ¯": 7761,
      "ĠnevÄĽdÄĽl": 7762,
      "ĠslouÅ¾ÃŃ": 7763,
      "ĠÅłtÄĽ": 7764,
      "Ġknize": 7765,
      "koliv": 7766,
      "ĠÅ½iÅ¾ka": 7767,
      "TÄĽch": 7768,
      "ĠvzÃŃt": 7769,
      "ĠsÃŃmÄĽ": 7770,
      "Ġvlek": 7771,
      "vÄĽtÅĻÃŃ": 7772,
      "ĠmÃ¡Å¥": 7773,
      "ĠpÅĻedsta": 7774,
      "ĠzdÃ¡la": 7775,
      "ĠklidnÃ©": 7776,
      "Ġnebla": 7777,
      "Ġgro": 7778,
      "ĠveselÃŃ": 7779,
      "ĠstÅĻÃŃbrem": 7780,
      "ĠdrobnÃ½ch": 7781,
      "ĠpsanÃŃ": 7782,
      "cÃ©": 7783,
      "Ġnepla": 7784,
      "vÃŃme": 7785,
      "ĠzÃ¡pal": 7786,
      "ĠdÄĽvu": 7787,
      "ĠzemÅĻel": 7788,
      "Ġkup": 7789,
      "ĠstarÃ½m": 7790,
      "ĠptÃ¡ky": 7791,
      "ĠÄįÃŃst": 7792,
      "ĠzÃŃral": 7793,
      "Ġpokra": 7794,
      "NÃ¡hle": 7795,
      "Ġvezdy": 7796,
      "ĠdÄĽlat": 7797,
      "Ġprsten": 7798,
      "ĠvzrÅ¯stÃ¡": 7799,
      "Rci": 7800,
      "chan": 7801,
      "Ġoprav": 7802,
      "nam": 7803,
      "dejte": 7804,
      "tovat": 7805,
      "Ġrozpa": 7806,
      "Ġlije": 7807,
      "bilo": 7808,
      "ĠpÃ¡du": 7809,
      "Ġcvr": 7810,
      "ĠkleÄįÃŃ": 7811,
      "VzpomÃŃ": 7812,
      "ckÃ©ho": 7813,
      "ĠteplÃ©": 7814,
      "Moc": 7815,
      "ĠkvÃ©st": 7816,
      "Ġshr": 7817,
      "Ġpojednou": 7818,
      "Å¥ast": 7819,
      "ĠÅ¡al": 7820,
      "ĠvÄĽdÄĽt": 7821,
      "Ġvyjde": 7822,
      "Ġmuzi": 7823,
      "ĠvojÃŃ": 7824,
      "ĠpÃŃsek": 7825,
      "Ġspor": 7826,
      "ĠÅ¾havÃ¡": 7827,
      "ĠstÄĽÅ¾ÃŃ": 7828,
      "ĠnevdÄĽ": 7829,
      "ĠvzÃ¡cnÃ½": 7830,
      "spÃŃÅ¡": 7831,
      "ĠsluneÄįnÃŃ": 7832,
      "ĠVÅ¾dyÅ¥": 7833,
      "Ġloktech": 7834,
      "Pi": 7835,
      "rodu": 7836,
      "jetÃŃ": 7837,
      "Ġdoly": 7838,
      "Ġkohou": 7839,
      "ĠmÃŃÅĻÃŃ": 7840,
      "Jednou": 7841,
      "ĠjemnÃ©": 7842,
      "Ġpolibek": 7843,
      "Ġzdali": 7844,
      "Br": 7845,
      "vÅĻe": 7846,
      "livou": 7847,
      "rdÃŃ": 7848,
      "Ġrozez": 7849,
      "ĠtiÅ¡i": 7850,
      "Ġobry": 7851,
      "ĠvodÃŃ": 7852,
      "Å¡enÃ½ch": 7853,
      "ĠtemnÃ¡": 7854,
      "ÅĻemen": 7855,
      "ĠdÅĻÃŃme": 7856,
      "Ġzbroj": 7857,
      "ĠPÃ¡nu": 7858,
      "Ven": 7859,
      "Ġzpi": 7860,
      "ÄįnÃ©ho": 7861,
      "vyso": 7862,
      "Ġlide": 7863,
      "Ġsluha": 7864,
      "stÃ¡r": 7865,
      "Ġzloby": 7866,
      "ĠbrÃ¡na": 7867,
      "stÅĻÃŃb": 7868,
      "ĠdivokÃ©": 7869,
      "Ġpevnou": 7870,
      "ĠvzdÃ¡len": 7871,
      "ĠneznÃ¡mÃ©": 7872,
      "ĠmrÃ¡ko": 7873,
      "ĠkvÃ©sti": 7874,
      "Chy": 7875,
      "ZpÃŃ": 7876,
      "tl": 7877,
      "vnou": 7878,
      "ĠzaÅ¡ep": 7879,
      "Ġuho": 7880,
      "ĠÅ¾ivou": 7881,
      "hledÃŃ": 7882,
      "ĠpustÃ¡": 7883,
      "Ġmrakem": 7884,
      "ĠobÄĽtÃŃ": 7885,
      "ĠmoudrÃ½": 7886,
      "Mla": 7887,
      "ana": 7888,
      "Ġvno": 7889,
      "ĠnevÃ¡": 7890,
      "ĠnabÃŃ": 7891,
      "dovi": 7892,
      "ĠkovÃ¡": 7893,
      "ĠvzlÃ©t": 7894,
      "Ġduma": 7895,
      "Ġrtoma": 7896,
      "Ġske": 7897,
      "ĠpodveÄįer": 7898,
      "ĠÅ¡erÃ½": 7899,
      "Ġdivem": 7900,
      "rozenÃŃ": 7901,
      "ĠsuchÃ©": 7902,
      "MÃ¡Å¡": 7903,
      "Ġdarem": 7904,
      "VidÃŃm": 7905,
      "Ġrozply": 7906,
      "ĠumÃŃrÃ¡nÃŃ": 7907,
      "dar": 7908,
      "lep": 7909,
      "Ġzatra": 7910,
      "Ġdovo": 7911,
      "Ġstarci": 7912,
      "gie": 7913,
      "ĠkvÄĽte": 7914,
      "Ġsboru": 7915,
      "PoslednÃŃ": 7916,
      "chej": 7917,
      "Ġjdem": 7918,
      "ĠopÃŃ": 7919,
      "ĠjeseÅĪ": 7920,
      "loÅ¾il": 7921,
      "Ġrozkaz": 7922,
      "ĠhlasnÄĽ": 7923,
      "ĠtulÃŃ": 7924,
      "ĠpaÅ¾e": 7925,
      "ĠPÅĻÃŃ": 7926,
      "nesou": 7927,
      "ĠdobÃ¡ch": 7928,
      "ĠjasnÃ½ch": 7929,
      "ĠtÃ¡hla": 7930,
      "Ġpaty": 7931,
      "ĠvolÃ¡m": 7932,
      "bas": 7933,
      "ĠzaÅ¡el": 7934,
      "Ġrodnou": 7935,
      "Äıas": 7936,
      "Ġrudou": 7937,
      "Ġtahy": 7938,
      "ĠprÃ¡vem": 7939,
      "ĠsvÄĽÅ¾e": 7940,
      "Ġhude": 7941,
      "Ġjala": 7942,
      "Ġtrudu": 7943,
      "ĠpohÃ¡dka": 7944,
      "ZdaÅ¾": 7945,
      "ĠotevÅĻel": 7946,
      "ĠvlÃŃdnÃ½": 7947,
      "ĠmdlÃ©": 7948,
      "ĠjakÃ©s": 7949,
      "Ġtka": 7950,
      "Ġses": 7951,
      "Ġnesk": 7952,
      "ĠuchvÃ¡": 7953,
      "potom": 7954,
      "lÃ©tla": 7955,
      "res": 7956,
      "Ġdivou": 7957,
      "ĠprÃ¡vu": 7958,
      "ĠkeÅĻi": 7959,
      "ĠhrÅ¯z": 7960,
      "ĠznaÄįÃŃ": 7961,
      "ĠpestrÃ½": 7962,
      "ĠstvoÅĻil": 7963,
      "Ġlampa": 7964,
      "ĠnevÃ½slov": 7965,
      "Oj": 7966,
      "Ġneklid": 7967,
      "Ġdoli": 7968,
      "Ġmozek": 7969,
      "Ġlest": 7970,
      "ĠvÄĽÅĻil": 7971,
      "ĠbohÅ¯m": 7972,
      "ĠBla": 7973,
      "ĠmodrÃ¡": 7974,
      "ĠdlouhÃ½m": 7975,
      "pouta": 7976,
      "ĠmyÅ¡lenka": 7977,
      "ĠmyÅ¡lÃ©nka": 7978,
      "ĠmraÄįno": 7979,
      "ĠkolÃ©bky": 7980,
      ".âĢĺ": 7981,
      "Pad": 7982,
      "Ġzrozen": 7983,
      "Ġmist": 7984,
      "Ġnos": 7985,
      "pÄĽtÃŃ": 7986,
      "budÃŃ": 7987,
      "ÄĮÃŃ": 7988,
      "ĠsÃŃtÃŃ": 7989,
      "ĠZem": 7990,
      "ĠJeÅ¾ÃŃ": 7991,
      "ĠskvÄĽlÃ½": 7992,
      "ĠpodzimnÃŃ": 7993,
      "Ou": 7994,
      "nÄįÃŃ": 7995,
      "Ġjeli": 7996,
      "vajÃŃcÃŃ": 7997,
      "vÃ©mu": 7998,
      "ĠrumÄĽ": 7999,
      "stejnÄĽ": 8000,
      "ĠpohnutÃŃ": 8001,
      "Ġtemnu": 8002,
      "ĠOl": 8003,
      "Veli": 8004,
      "Ġstud": 8005,
      "ĠoblakÅ¯": 8006,
      "ĠÄįtvrt": 8007,
      "Ġbiskup": 8008,
      "'s": 8009,
      "krÃ½vÃ¡": 8010,
      "enÃ©": 8011,
      "Ġposu": 8012,
      "tisÃŃce": 8013,
      "ĠpÅĻeje": 8014,
      "ĠÃºko": 8015,
      "sic": 8016,
      "Ġhromy": 8017,
      "Ġstrast": 8018,
      "ĠsilnÃ©": 8019,
      "ĠneboÅ¥": 8020,
      "Ġsloupy": 8021,
      "ĠtÅĻÃŃÅ¡tÃŃ": 8022,
      "ĠpÃ½chou": 8023,
      "Ġshni": 8024,
      "nÄĽjÃŃ": 8025,
      "naÅ¡e": 8026,
      "ĠdotÃ½": 8027,
      "Å¥al": 8028,
      "ĠvysÃŃ": 8029,
      "jistÃ©": 8030,
      "Ġduje": 8031,
      "ĠvidÄĽla": 8032,
      "saÅĻ": 8033,
      "ĠâĢŀâĢŀ": 8034,
      "ĠplnÃ©m": 8035,
      "ĠdÃ¡vnÃ½": 8036,
      "ĠspÃŃnÃ¡": 8037,
      "Ġstesku": 8038,
      "Ġtajemnou": 8039,
      "ĠzrÃ¡dce": 8040,
      "Ġkoruny": 8041,
      "ĠhlÃŃdÃ¡": 8042,
      "Kou": 8043,
      "ovi": 8044,
      "snÃ©m": 8045,
      "voda": 8046,
      "âĢĻ;": 8047,
      "Ġprachem": 8048,
      "tri": 8049,
      "ĠsloÅ¾il": 8050,
      "ĠkvÃŃtÃŃm": 8051,
      "Ġtrap": 8052,
      "ĠvdÄĽÄįnÄĽ": 8053,
      "Ġpolibky": 8054,
      "svobo": 8055,
      "vÄĽla": 8056,
      "voru": 8057,
      "kolÃŃ": 8058,
      "poj": 8059,
      "pohÃ¡": 8060,
      "ĠvÃŃÅĻe": 8061,
      "Ġbranou": 8062,
      "ĠvlÃ¡dce": 8063,
      "Ġdivoce": 8064,
      "enec": 8065,
      "hrÃ¡l": 8066,
      "ĠpÃ½chu": 8067,
      "Ġchvatem": 8068,
      "Ġzva": 8069,
      "nikdy": 8070,
      "nuje": 8071,
      "Ġrtem": 8072,
      "bohat": 8073,
      "Å¡ilo": 8074,
      "ÄįÃŃme": 8075,
      "hlÃŃd": 8076,
      "ctvo": 8077,
      "ĠÅĻadÄĽ": 8078,
      "ĠzÅ¯stane": 8079,
      "ĠbujnÃ½": 8080,
      "Ġfial": 8081,
      "MarnÄĽ": 8082,
      "ĠcÃŃrkve": 8083,
      "Kraj": 8084,
      "Ġpomi": 8085,
      "vaÅ¥": 8086,
      "dolÃ¡": 8087,
      "ĠkoÅĻÃŃ": 8088,
      "mÃŃsto": 8089,
      "ĠÃºdÄĽl": 8090,
      "ĠskÅĻe": 8091,
      "ĠvÅ¡emo": 8092,
      "ĠnÃ¡rody": 8093,
      "ĠzmÃ¡men": 8094,
      "ĠvÅĻelÃ©": 8095,
      "ĠdivokÃ½": 8096,
      "Ġobec": 8097,
      "Ġpovstal": 8098,
      "ÄĮasto": 8099,
      "ĠoÄįÃŃm": 8100,
      "ĠpoprvÃ©": 8101,
      "novÃ¡": 8102,
      "ĠzÃ¡Å¡Å¥": 8103,
      "ĠdÃ¡lek": 8104,
      "Jedi": 8105,
      "Ġslab": 8106,
      "Ġpustil": 8107,
      "Ġlupen": 8108,
      "Å¡ena": 8109,
      "ĠtrÄįÃŃ": 8110,
      "Ġchudo": 8111,
      "ĠzlobÄĽ": 8112,
      "ĠkrutÄĽ": 8113,
      "pln": 8114,
      "ĠÅĻekli": 8115,
      "Ġzakry": 8116,
      "ĠÄĮechÅ¯": 8117,
      "ĠokamÅ¾enÃŃ": 8118,
      "chÃ¡zejÃŃ": 8119,
      "Ġlebky": 8120,
      "Ġvrchol": 8121,
      "ĠklÃ¡Å¡ter": 8122,
      "Ġvadne": 8123,
      "ĠmlÃ¡deÅ¾": 8124,
      "ĠnÅ¯Å¾": 8125,
      "Å¡kÃ¡": 8126,
      "rag": 8127,
      "ĠmistÅĻe": 8128,
      "ĠrozvÃŃ": 8129,
      "ĠstraÅ¡nÃ©": 8130,
      "ĠstraÅ¡nÃ½": 8131,
      "Ġsmutkem": 8132,
      "ĠsnÄĽho": 8133,
      "Ġmrtvou": 8134,
      "hneÅ¡": 8135,
      "ĠnovÃ©ho": 8136,
      "ĠpalÃ¡c": 8137,
      "Tma": 8138,
      "dÅ¯m": 8139,
      "vskÃ©": 8140,
      "loso": 8141,
      "Ġhodina": 8142,
      "ĠnocÃŃch": 8143,
      "Ġodve": 8144,
      "ĠmÃ¡je": 8145,
      "Ġstavu": 8146,
      "Ġhrady": 8147,
      "ĠhvÄĽzdnÃ½": 8148,
      "Ġzvukem": 8149,
      "Ġkniha": 8150,
      "ĠpovÄĽz": 8151,
      "ĠnÃ©st": 8152,
      "daleko": 8153,
      "Kr": 8154,
      "hlÃ½ch": 8155,
      "ĠdÃŃm": 8156,
      "Ġbil": 8157,
      "ĠnachÃ½": 8158,
      "nÃ¡c": 8159,
      "ĠpÅĻÃŃsnÃ½": 8160,
      "Jedno": 8161,
      "Å¡enÃŃm": 8162,
      "ĠsuchÃ½": 8163,
      "ĠhrÃ¡la": 8164,
      "Ġsteskem": 8165,
      "Ġholubice": 8166,
      "Ġumu": 8167,
      "Ġuvad": 8168,
      "Ġtone": 8169,
      "ĠprochÃ¡": 8170,
      "Ġprosil": 8171,
      "Ġmok": 8172,
      "Ġkalu": 8173,
      "ĠBar": 8174,
      "ĠPod": 8175,
      "ĠbÄĽl": 8176,
      "Ġreka": 8177,
      "Ġkrov": 8178,
      "ĠZik": 8179,
      "Vese": 8180,
      "penÃ©": 8181,
      "Ġlehko": 8182,
      "ĠpotkÃ¡": 8183,
      "ĠzaÄįne": 8184,
      "Ġzvyku": 8185,
      "Ġstatky": 8186,
      "ĠveÄįeru": 8187,
      "bce": 8188,
      "Å¾eli": 8189,
      "Ġledu": 8190,
      "vina": 8191,
      "ĠdÃŃtek": 8192,
      "Ġnemu": 8193,
      "Ġsynem": 8194,
      "ĠmodrÃ½m": 8195,
      "Ġkousek": 8196,
      "Ġneur": 8197,
      "ĠozÃ½vÃ¡": 8198,
      "Ġskryl": 8199,
      "DvÄĽ": 8200,
      "KnÄĽ": 8201,
      "ĠvÄįely": 8202,
      "skÅ¯": 8203,
      "Ġuhas": 8204,
      "Ġvzhled": 8205,
      "Ġpadlo": 8206,
      "lÃ½vÃ¡": 8207,
      "ĠtouÅ¾ÃŃm": 8208,
      "ĠdobrÃ½m": 8209,
      "ĠvÅ¯lÃŃ": 8210,
      "veno": 8211,
      "Äįenou": 8212,
      "Ġnepohnu": 8213,
      "ĠhÅĻÃŃchem": 8214,
      "Ġvolnosti": 8215,
      "ĠhrÅ¯ze": 8216,
      "Ġsady": 8217,
      "ĠvÅĻele": 8218,
      "ĠskalnÃŃ": 8219,
      "Ġaj": 8220,
      "Ġjedu": 8221,
      "valu": 8222,
      "skak": 8223,
      "ĠzahÅĻ": 8224,
      "ĠvyÄįÃŃ": 8225,
      "Ġboky": 8226,
      "ĠÅ¾ivÃ½ch": 8227,
      "Ġpavou": 8228,
      "ĠdÄĽlo": 8229,
      "Ġhrot": 8230,
      "ĠAr": 8231,
      "ĠblÃŃzku": 8232,
      "VeÄįer": 8233,
      "Ġbledne": 8234,
      "Ġhousle": 8235,
      "ĠhoÅĻce": 8236,
      "ĠhÅ¯ry": 8237,
      "ĠJako": 8238,
      "Ġokouz": 8239,
      "ĠnavrÃ¡": 8240,
      "Ġused": 8241,
      "ĠustÃ¡nÃŃ": 8242,
      "Ġmih": 8243,
      "stavu": 8244,
      "ĠVel": 8245,
      "ĠpouhÃ¡": 8246,
      "ĠslÃ¡b": 8247,
      "ĠkÅĻiku": 8248,
      "Kdybych": 8249,
      "ĠchraÅĪ": 8250,
      "Ġzpra": 8251,
      "jede": 8252,
      "ĠÅ¡kÅ¯": 8253,
      "Ġobi": 8254,
      "paly": 8255,
      "ĠlÃŃbat": 8256,
      "ĠSvÄĽt": 8257,
      "JejÃŃ": 8258,
      "Ġcizo": 8259,
      "Ġsouzvuk": 8260,
      "Ġmrav": 8261,
      "Ġmrazi": 8262,
      "ĠÅ¾ÃŃznÃŃ": 8263,
      "ĠspÄĽchal": 8264,
      "Ġgene": 8265,
      "ĠdrÃ¡Å¾": 8266,
      "Ġzmije": 8267,
      "ĠJaro": 8268,
      "ĠtvÅ¯rÄįÃŃ": 8269,
      "mÃ½m": 8270,
      "tnÃ½m": 8271,
      "zvlÃ¡": 8272,
      "ĠsbÃŃrÃ¡": 8273,
      "Ġdoj": 8274,
      "ĠhoroucÃŃ": 8275,
      "ĠniÄįem": 8276,
      "zet": 8277,
      "ĠBet": 8278,
      "Äįkami": 8279,
      "Ġoknech": 8280,
      "ĠÄĮi": 8281,
      "ĠstÅĻÃŃbrnÃ©": 8282,
      "ĠpÃ©ro": 8283,
      "Ġlilie": 8284,
      "Be": 8285,
      "ckÃ©m": 8286,
      "th": 8287,
      "zve": 8288,
      "lekÃ¡": 8289,
      "cejÃŃ": 8290,
      "Ġprale": 8291,
      "pÄĽnÃŃ": 8292,
      "ĠdÃŃvÃ¡m": 8293,
      "ĠSta": 8294,
      "ĠnejlepÅ¡ÃŃ": 8295,
      "Ġsamy": 8296,
      "ĠbÄĽla": 8297,
      "ĠbÄĽlo": 8298,
      "ĠmnozÃŃ": 8299,
      "ĠchorÃ©": 8300,
      "ĠosvÄĽ": 8301,
      "ĠzelenÃ½": 8302,
      "Ġchalu": 8303,
      "ĠpÃ½chy": 8304,
      "ĠpsÃ¡no": 8305,
      "bku": 8306,
      "Ġsmo": 8307,
      "Ġhocha": 8308,
      "Ġkovo": 8309,
      "ĠvÃ¡hÃ¡": 8310,
      "rÅ¯stÃ¡": 8311,
      "ĠÄįlovÄĽÄįen": 8312,
      "dnÃŃk": 8313,
      "Ġstup": 8314,
      "Ġskryt": 8315,
      "Ġsnila": 8316,
      "ĠmÄĽkkÃ¡": 8317,
      "ĠhloÅ¾ÃŃ": 8318,
      "ĠdÃ¡me": 8319,
      "Äįata": 8320,
      "ĠveÅĻe": 8321,
      "taje": 8322,
      "ĠrudÃ½ch": 8323,
      "ĠSla": 8324,
      "Ġstanu": 8325,
      "Ġjsouc": 8326,
      "ĠÅ¡ÃŃj": 8327,
      "ĠtluÄįe": 8328,
      "Ġvichrem": 8329,
      "ĠKriste": 8330,
      "Ġvezmi": 8331,
      "blÃ½": 8332,
      "vÅ¡ÃŃm": 8333,
      "naje": 8334,
      "ĠmÃ¡ji": 8335,
      "ĠtÃŃÅ¾e": 8336,
      "myslil": 8337,
      "Ġtravou": 8338,
      "Ġklesne": 8339,
      "bÅĻeÅ¾ÃŃ": 8340,
      "ĠpalÃ¡ce": 8341,
      "ĠjitÅĻnÃŃ": 8342,
      "DÄĽl": 8343,
      "ĠrojÃŃ": 8344,
      "dÃ¡t": 8345,
      "pel": 8346,
      "ĠpÅĻedkÅ¯": 8347,
      "ĠbÃ¡seÅĪ": 8348,
      "ĠchutÃŃ": 8349,
      "ĠstÄĽn": 8350,
      "Ġblouzni": 8351,
      "ĠnekoneÄįnÃ©": 8352,
      "ĠandÄĽlÃ©": 8353,
      "StÃŃn": 8354,
      "Um": 8355,
      "psal": 8356,
      "vÃ¡na": 8357,
      "Ġvesni": 8358,
      "Ġduhu": 8359,
      "Ġbor": 8360,
      "biti": 8361,
      "Ġdalo": 8362,
      "ĠjednotvÃ¡": 8363,
      "ĠveselÃ½": 8364,
      "ĠstejnÃ©": 8365,
      "ĠÅĺe": 8366,
      "ĠMari": 8367,
      "Ġchladu": 8368,
      "ĠblaÅ¾enosti": 8369,
      "He": 8370,
      "mlÃ¡": 8371,
      "tvou": 8372,
      "ĠlÃ½": 8373,
      "Å¾ku": 8374,
      "ĠdÅ¾bÃ¡": 8375,
      "ĠnahÃ©": 8376,
      "ĠnajdeÅ¡": 8377,
      "ĠâĢĵ!": 8378,
      "ĠzalÃŃ": 8379,
      "poko": 8380,
      "ĠÅ¡pa": 8381,
      "byly": 8382,
      "ĠvzÅĪat": 8383,
      "Ġvysta": 8384,
      "coval": 8385,
      "stili": 8386,
      "ĠÅ¾eÅĪ": 8387,
      "Ġpadal": 8388,
      "Ġtaji": 8389,
      "ĠkabÃ¡": 8390,
      "ĠvlaÅ¡to": 8391,
      "ĠokÅĻÃŃ": 8392,
      "Ġkruhy": 8393,
      "Ġoblaka": 8394,
      "ĠmoudÅĻe": 8395,
      "ĠzaÅ¡lÃ©": 8396,
      "myÅ¡lÃ©": 8397,
      "Vlast": 8398,
      "ĠvÄĽÅĻte": 8399,
      "ÅĻÃŃme": 8400,
      "jet": 8401,
      "jezd": 8402,
      "Ġhostem": 8403,
      "bolest": 8404,
      "ĠÅĻeku": 8405,
      "ĠstarÅ¡ÃŃ": 8406,
      "skÃ¡ch": 8407,
      "skoÄįil": 8408,
      "zeno": 8409,
      "ĠbrÃ¡t": 8410,
      "Ġstudu": 8411,
      "ĠPÃ¡na": 8412,
      "Ġodevz": 8413,
      "nkÃ½": 8414,
      "nikdo": 8415,
      "veho": 8416,
      "ĠvÄĽzenÃŃ": 8417,
      "Ġvozy": 8418,
      "ĠPÃŃ": 8419,
      "mÃ¡Å¾": 8420,
      "ĠsÃŃnÃŃ": 8421,
      "ĠzloÄįin": 8422,
      "ĠchladnÃ¡": 8423,
      "Ġout": 8424,
      "Ġrakve": 8425,
      "Kterak": 8426,
      "ĠdeÅ¡tÄĽm": 8427,
      "lnÃ©": 8428,
      "ĠtkvÃŃ": 8429,
      "ĠbÅĻit": 8430,
      "Ġjesky": 8431,
      "ruÅ¡ÃŃ": 8432,
      "Ġprob": 8433,
      "vele": 8434,
      "sily": 8435,
      "ÄįenÃ½ch": 8436,
      "Ġvrh": 8437,
      "ĠhvÄĽzdu": 8438,
      "ĠkrutÃ¡": 8439,
      "ĠzvÄĽsti": 8440,
      "ĠFi": 8441,
      "ĠboÅ¾skÃ½": 8442,
      "NeÅ¾li": 8443,
      "ĠvzdechÅ¯": 8444,
      "KterÃ½": 8445,
      "ĠnenÃ¡vist": 8446,
      "Otec": 8447,
      "ÃŃnÃ¡": 8448,
      "enÃ½": 8449,
      "ĠnedÄĽli": 8450,
      "polu": 8451,
      "ĠÅ¡pÃŃ": 8452,
      "ĠÅ¡kol": 8453,
      "ĠholÃ¡": 8454,
      "Ġleje": 8455,
      "Ġvzcho": 8456,
      "ĠvÄĽdomÃŃ": 8457,
      "ĠoblÃ©": 8458,
      "ĠtakovÃ©": 8459,
      "ĠÃºbÄĽ": 8460,
      "Ġpravila": 8461,
      "Ġtanec": 8462,
      "ĠzasvÄĽ": 8463,
      "ĠlukÃ¡ch": 8464,
      "Ġstromech": 8465,
      "ĠptÃ¡Äįek": 8466,
      "Ġsamoty": 8467,
      "VzhÅ¯ru": 8468,
      "ĠhÅĻeje": 8469,
      "ĠzasmuÅ¡il": 8470,
      "HÃ¡": 8471,
      "hlad": 8472,
      "Ġzry": 8473,
      "Äįkej": 8474,
      "leÅ¥": 8475,
      "rodil": 8476,
      "ĠpromÄĽnÃŃ": 8477,
      "ĠkolÃŃ": 8478,
      "ĠvztÃ½": 8479,
      "pati": 8480,
      "mÃ¡lo": 8481,
      "vatÃ©": 8482,
      "Ġpodal": 8483,
      "Ġnejslad": 8484,
      "kdos": 8485,
      "ĠsnÄĽhy": 8486,
      "ĠmocnÃ½m": 8487,
      "ĠsilnÄĽ": 8488,
      "Ġplamenem": 8489,
      "ĠvÃŃtÄĽzÃŃ": 8490,
      "Ġpruh": 8491,
      "ĠÅ¡tÃŃty": 8492,
      "ĠzuÅĻi": 8493,
      "ĠdÄĽtskÃ½": 8494,
      "ĠnemÃ¡Å¡": 8495,
      "Ġdomova": 8496,
      "ĠhlÃŃny": 8497,
      "ĠsmyslÅ¯": 8498,
      "Ġrozumu": 8499,
      "Mnoho": 8500,
      "ĠÅ¡klebÃŃ": 8501,
      "ĠsvatebnÃŃ": 8502,
      "the": 8503,
      "Ġzabo": 8504,
      "....": 8505,
      "dÄĽn": 8506,
      "Ġskou": 8507,
      "ĠdÃŃvek": 8508,
      "ĠplachÃ©": 8509,
      "vzal": 8510,
      "ĠZde": 8511,
      "ĠstÅĻela": 8512,
      "Ġslunka": 8513,
      "NÃ¡s": 8514,
      "ĠpÅĻemÃŃ": 8515,
      "ĠzkamenÄĽ": 8516,
      "ĠznamenÃ¡": 8517,
      "De": 8518,
      "VÅ¡em": 8519,
      "ĠslÃ©t": 8520,
      "Ġmen": 8521,
      "ĠvztÃ¡": 8522,
      "dan": 8523,
      "dÃŃval": 8524,
      "Ġtakou": 8525,
      "hÃ¡Äį": 8526,
      "ĠhroznÄĽ": 8527,
      "ĠHy": 8528,
      "Dokud": 8529,
      "ĠOlym": 8530,
      "ĠstÅĻely": 8531,
      "ĠÄįÃŃhÃ¡": 8532,
      "ĠbludnÃ©": 8533,
      "ĠblÃ¡ho": 8534,
      "ĠdÄĽtskÃ½ch": 8535,
      "vnÃ¡": 8536,
      "Ġdmou": 8537,
      "strÃ¡": 8538,
      "ruce": 8539,
      "nÃ¡ÅĻ": 8540,
      "Ġdivu": 8541,
      "ĠdajÃŃ": 8542,
      "ĠusmÃ¡l": 8543,
      "ĠdÄĽtmi": 8544,
      "ĠnaÅ¡im": 8545,
      "ÄįÃ¡tko": 8546,
      "ĠpÅĻÃ¡telstvÃŃ": 8547,
      "starÃ½": 8548,
      "ĠspanilÃ¡": 8549,
      "ĠmlÃ½n": 8550,
      "nedo": 8551,
      "jed": 8552,
      "Ġzava": 8553,
      "Ġjih": 8554,
      "ĠprostÄĽ": 8555,
      "danou": 8556,
      "ĠAÅ¥": 8557,
      "ĠJsi": 8558,
      "ĠstÅĻechu": 8559,
      "ĠdÃŃvko": 8560,
      "Ġhynou": 8561,
      "Ġoblohy": 8562,
      "Ġkvas": 8563,
      "hromÃ¡Å¾": 8564,
      "ĠkoÅĻeny": 8565,
      "ĠhedbÃ¡": 8566,
      "bÃŃm": 8567,
      "ton": 8568,
      "ĠÄįekat": 8569,
      "ĠÄįisto": 8570,
      "Ġmalo": 8571,
      "ĠmaliÄį": 8572,
      "Ġmeze": 8573,
      "Ġfu": 8574,
      "Ġmyslit": 8575,
      "ĠzpÃŃvajÃŃ": 8576,
      "ĠjemnÃ½": 8577,
      "ĠkÅĻikem": 8578,
      "benÃ½": 8579,
      "Ġohla": 8580,
      "Ġdopo": 8581,
      "miÅ¾": 8582,
      "Ġskvo": 8583,
      "ĠBal": 8584,
      "mena": 8585,
      "Ġca": 8586,
      "TobÄĽ": 8587,
      "ĠhledÄĽt": 8588,
      "ĠÅĻÃŃc": 8589,
      "Ġkama": 8590,
      "ĠmarnÃ¡": 8591,
      "ĠdÅ¯kaz": 8592,
      "Ġpochod": 8593,
      "ĠpoÅ¾ehna": 8594,
      "ĠknÄĽÅ¾na": 8595,
      "SpÃŃ": 8596,
      "Ġschy": 8597,
      "ĠmÅ¯": 8598,
      "Ġpohla": 8599,
      "ĠzaÅ¡la": 8600,
      "ĠzamyÅ¡len": 8601,
      "Ġprokla": 8602,
      "mÃŃrÃ¡": 8603,
      "ĠdÃŃtko": 8604,
      "Ġzaslech": 8605,
      "Ġkusy": 8606,
      "ĠtrpÄĽl": 8607,
      "Ġmilosrd": 8608,
      "ĠhvÄĽzdo": 8609,
      "tomil": 8610,
      "ĠsterÃ©": 8611,
      "ĠpÄĽknÃ½": 8612,
      "Ġchmury": 8613,
      "ĠvÅĻava": 8614,
      "jehoÅ¾": 8615,
      "ĠpustÃ½ch": 8616,
      "BlÃŃ": 8617,
      "Mlu": 8618,
      "Å¡len": 8619,
      "ĠmnÃŃ": 8620,
      "ĠdlÃ¡": 8621,
      "ĠzapÃ¡": 8622,
      "ĠpodlÃ©": 8623,
      "bÃŃlÃ©": 8624,
      "Ġpustou": 8625,
      "jÅ¡ÃŃch": 8626,
      "ĠjejichÅ¾": 8627,
      "cÃŃmu": 8628,
      "ÅĺÃŃ": 8629,
      "Ġkameny": 8630,
      "ĠkvÄĽtin": 8631,
      "knul": 8632,
      "ĠsbÄĽ": 8633,
      "Äįu": 8634,
      "ÄįlovÄĽk": 8635,
      "ĠpÅĻeko": 8636,
      "ĠbolÅ¯": 8637,
      "tavÃ½": 8638,
      "ĠSlova": 8639,
      "Ġkoutku": 8640,
      "ĠmilÃ½m": 8641,
      "ĠhrÅ¯zu": 8642,
      "ĠobrÃ¡til": 8643,
      "ĠtÃ©mÄĽÅĻ": 8644,
      "Å¡uje": 8645,
      "las": 8646,
      "lovi": 8647,
      "ruch": 8648,
      "tostÃŃ": 8649,
      "topÃ½": 8650,
      "Å¡tÄĽn": 8651,
      "ĠBer": 8652,
      "ĠÅĻekou": 8653,
      "rin": 8654,
      "ĠhravÄĽ": 8655,
      "zujÃŃ": 8656,
      "ĠpoznÃ¡nÃŃ": 8657,
      "ĠRe": 8658,
      "Ġdivnou": 8659,
      "ĠslavnÃ¡": 8660,
      "Ġdoubra": 8661,
      "ĠdokonÃ¡": 8662,
      "ĠtuÅ¾by": 8663,
      "Klid": 8664,
      "aj": 8665,
      "Ġpso": 8666,
      "ÄįkÃ½": 8667,
      "ĠbdÄĽ": 8668,
      "net": 8669,
      "Ġzane": 8670,
      "Ġhlase": 8671,
      "ĠvojÃ¡k": 8672,
      "ĠcenÃŃ": 8673,
      "Å¾enÃ½m": 8674,
      "ĠplnÄĽ": 8675,
      "Ġhranice": 8676,
      "ĠtrvÃ¡": 8677,
      "ĠkrÃ¡lovna": 8678,
      "ĠProkop": 8679,
      "ĠvzplÃ¡l": 8680,
      "ĠrÅ¯Å¾emi": 8681,
      "rÃ½mi": 8682,
      "tvÃ½ch": 8683,
      "ĠCoÅ¾": 8684,
      "ĠvchÃ¡zÃŃ": 8685,
      "ĠbliÅ¾": 8686,
      "Ġhmy": 8687,
      "ĠvÄĽsÃŃ": 8688,
      "ĠtuÅ¡il": 8689,
      "ĠÅ¡edou": 8690,
      "ĠÄįinÅ¯m": 8691,
      "ĠbÃ¡zni": 8692,
      "ĠluznÃ©": 8693,
      "ĠmlhÃ¡ch": 8694,
      "ÅłÅ¥ast": 8695,
      "Ġmrtva": 8696,
      "ĠvrÃ¡tit": 8697,
      "Ġkyti": 8698,
      "Ġdvora": 8699,
      "ĠstÅĻÃŃbrnÃ½": 8700,
      "ĠzrÃ¡d": 8701,
      "ĠmodlitbÄĽ": 8702,
      "ĠstatnÃ½": 8703,
      "Ġotrok": 8704,
      "ĠpÅĻÃŃrodÄĽ": 8705,
      "Ġklobouk": 8706,
      "Blesk": 8707,
      "ZnÃ¡": 8708,
      "ken": 8709,
      "klou": 8710,
      "plou": 8711,
      "Ã©l": 8712,
      "Ġkvil": 8713,
      "Ġchasa": 8714,
      "ĠuvÃ¡": 8715,
      "nÃ¡l": 8716,
      "silo": 8717,
      "ĠsvojÃŃm": 8718,
      "ĠstraÅ¡nÄĽ": 8719,
      "Ġhluch": 8720,
      "ĠbÃ¡zeÅĪ": 8721,
      "Ġlada": 8722,
      "prvnÃŃ": 8723,
      "ĠmrtvÃ½m": 8724,
      "Ġzlosti": 8725,
      "ĠbudoucÃŃ": 8726,
      "Ġskutky": 8727,
      "Ġhovoru": 8728,
      "ĠzÃ¡pasu": 8729,
      "Ġzastavil": 8730,
      "StojÃŃ": 8731,
      "StarÃ½": 8732,
      "ĠpastÃ½ÅĻ": 8733,
      "LÃ©": 8734,
      "uma": 8735,
      "Ġsestro": 8736,
      "ĠneÄįi": 8737,
      "ĠstÃ¡lÃ½": 8738,
      "ĠvÅ¡echnÄĽch": 8739,
      "ĠvelkÃ©m": 8740,
      "hlav": 8741,
      "zoval": 8742,
      "Ġnepozna": 8743,
      "ĠzÅĻÃŃdka": 8744,
      "ĠstÅĻÃŃbra": 8745,
      "keÅĻ": 8746,
      "Ġskutku": 8747,
      "ĠchvÃ¡lÃŃ": 8748,
      "Ġmodlitby": 8749,
      "ĠkvÄĽtiny": 8750,
      "Ġvstoupil": 8751,
      "Ġtriumf": 8752,
      "dÅĻi": 8753,
      "sno": 8754,
      "snu": 8755,
      "vÅ¡ÃŃ": 8756,
      "Ġrosu": 8757,
      "ĠkomÃŃ": 8758,
      "Ġrcete": 8759,
      "Ġpase": 8760,
      "ĠdobÅĻÃŃ": 8761,
      "Ġdere": 8762,
      "jaly": 8763,
      "pasÅ¥": 8764,
      "ĠodeÅ¡el": 8765,
      "ĠÅ¾lutÃ½": 8766,
      "Ġzmatek": 8767,
      "Ejhle": 8768,
      "milovÃ¡nÃŃ": 8769,
      "Ġsoucitu": 8770,
      "ĠsnÅ¯m": 8771,
      "dec": 8772,
      "Ġduhy": 8773,
      "zit": 8774,
      "ĠotÅĻÃ¡": 8775,
      "Ġmodrou": 8776,
      "ĠspoÄįi": 8777,
      "vÅ¡ecky": 8778,
      "Ġtlukou": 8779,
      "SmÄĽ": 8780,
      "ĠrobÄĽ": 8781,
      "alÃ©": 8782,
      "ĠÅ¾es": 8783,
      "ĠÅ¾ehna": 8784,
      "ĠnÄĽha": 8785,
      "ĠhromÅ¯": 8786,
      "ĠpÄĽvec": 8787,
      "ĠÅĻÃŃd": 8788,
      "Ġskok": 8789,
      "Ġokovy": 8790,
      "ĠvolnÃ©": 8791,
      "ĠzelenÃ¡": 8792,
      "ĠblÃ¡to": 8793,
      "ĠJiÅ¾": 8794,
      "ĠubohÃ½": 8795,
      "Ġtrysk": 8796,
      "Ġnevinnosti": 8797,
      "ĠByl": 8798,
      "ĠÅ¾alÃ¡ÅĻ": 8799,
      "Zvu": 8800,
      "blÃ¡": 8801,
      "Å¾lu": 8802,
      "nÃŃÅ¾e": 8803,
      "ruka": 8804,
      "ĠhojnÄĽ": 8805,
      "ĠrudÃ½m": 8806,
      "Ġkara": 8807,
      "Ġsoudru": 8808,
      "Ġzvonky": 8809,
      "Ġvrahy": 8810,
      "hnej": 8811,
      "Ġhloupo": 8812,
      "Ġbarbar": 8813,
      "ĠznÄĽnÃŃ": 8814,
      "Ġvrouc": 8815,
      "Ġdomovu": 8816,
      "Ġkmeny": 8817,
      "Ġsever": 8818,
      "ĠSlovan": 8819,
      "ĠleknÃŃ": 8820,
      "Hra": 8821,
      "Ġvnik": 8822,
      "ĠponÃŃ": 8823,
      "Ġpose": 8824,
      "Ġposa": 8825,
      "hoÅĻ": 8826,
      "noÅ¡": 8827,
      "ĠusÃŃ": 8828,
      "ĠvÃŃrou": 8829,
      "Ġspl": 8830,
      "ĠÃºpÃŃ": 8831,
      "ĠpÅĻijÃŃt": 8832,
      "moh": 8833,
      "ĠPÅĻem": 8834,
      "Ġplatno": 8835,
      "ĠchorÃ½": 8836,
      "ĠsmutnÃ½ch": 8837,
      "ĠNÃ¡": 8838,
      "ĠPrav": 8839,
      "Hro": 8840,
      "SvÄĽ": 8841,
      "dÃ¡me": 8842,
      "tnost": 8843,
      "Ġech": 8844,
      "ĠmÅ¡i": 8845,
      "ĠpolnÃŃ": 8846,
      "Ġhonem": 8847,
      "ĠzÃ¡da": 8848,
      "ĠvÃŃla": 8849,
      "ĠBra": 8850,
      "ĠÅ¡epot": 8851,
      "Ġplakat": 8852,
      "ĠnejvÃŃce": 8853,
      "Ġnesli": 8854,
      "ĠcizÃ¡": 8855,
      "Å¾eni": 8856,
      "ĠJsem": 8857,
      "Ġzdech": 8858,
      "ĠoknÄĽ": 8859,
      "ĠkÅĻiÅ¡Å¥Ã¡": 8860,
      "ĠklÃŃna": 8861,
      "Ġzove": 8862,
      "ĠCti": 8863,
      "ĠGa": 8864,
      "ĠblÃ¡z": 8865,
      "Ġopustil": 8866,
      "ĠtÃ½den": 8867,
      "Ġkladou": 8868,
      "ĠchtÃŃt": 8869,
      "ĠzÃ¡stupy": 8870,
      "Ky": 8871,
      "ÅĻmi": 8872,
      "nÄĽnÃ½ch": 8873,
      "vajÃŃc": 8874,
      "Ġzanech": 8875,
      "vÃ¡no": 8876,
      "ĠvyÅ¡li": 8877,
      "ĠvodÃ¡ch": 8878,
      "Ġlov": 8879,
      "Ġkams": 8880,
      "ĠznÃ¡mo": 8881,
      "ĠpyÅ¡nÃ½": 8882,
      "ĠtÅ¯ÅĪ": 8883,
      "ĠnÃŃzkÃ©": 8884,
      "Ġnai": 8885,
      "ĠbystÅĻi": 8886,
      "dÄĽnÃ©": 8887,
      "Ġkop": 8888,
      "Ġrozhod": 8889,
      "milejÅ¡ÃŃ": 8890,
      "Ġbudeme": 8891,
      "ĠdÄĽsnÃ¡": 8892,
      "Ġrab": 8893,
      "Ġstatek": 8894,
      "ĠprÃ½Å¡tÃŃ": 8895,
      "ĠsklonÃŃ": 8896,
      "ĠcÃŃtÃŃÅ¡": 8897,
      "ĠzbabÄĽ": 8898,
      "StÃ¡l": 8899,
      "ĠSlunce": 8900,
      "ZdrÃ¡": 8901,
      "ĠzabÃŃ": 8902,
      "ĠzazpÃŃ": 8903,
      "ĠzaznÄĽl": 8904,
      "ĠÅ¡ly": 8905,
      "ves": 8906,
      "Ġrozdr": 8907,
      "ĠvÃŃsky": 8908,
      "ĠpÅĻivi": 8909,
      "Å¾ene": 8910,
      "ĠhledÄĽ": 8911,
      "Ġvrata": 8912,
      "Ġpivo": 8913,
      "hlÃ©dne": 8914,
      "ĠvichÅĻi": 8915,
      "ĠÅ¡atÄĽ": 8916,
      "ĠvalnÃ©": 8917,
      "ĠkrÅ¯pÄĽje": 8918,
      "voluce": 8919,
      "Ġvzadu": 8920,
      "ĠodÅĻÃŃkÃ¡nÃŃ": 8921,
      "ĠfarÃ¡ÅĻ": 8922,
      "Slav": 8923,
      "ZÅĻÃŃ": 8924,
      "jsa": 8925,
      "znÃ½ch": 8926,
      "Ġpasu": 8927,
      "ĠmstÃŃ": 8928,
      "lÃ¡ska": 8929,
      "Ġzadr": 8930,
      "Ġvedli": 8931,
      "byli": 8932,
      "Ġvzma": 8933,
      "ĠÄįekajÃŃ": 8934,
      "ĠPak": 8935,
      "ĠdivÃ½m": 8936,
      "ĠKdyÅ¾": 8937,
      "temnÄĽ": 8938,
      "ĠdlouhÃ©m": 8939,
      "Ġokra": 8940,
      "Ġmrtvol": 8941,
      "zÃ¡ÅĻÃŃ": 8942,
      "ĠchladnÄĽ": 8943,
      "Ġzml": 8944,
      "ĠnimiÅ¾": 8945,
      "mluvil": 8946,
      "ĠvÄĽrnou": 8947,
      "Ġrostla": 8948,
      "Ġmiliony": 8949,
      "Da": 8950,
      "bÅĻÃŃ": 8951,
      "gen": 8952,
      "Ġzdu": 8953,
      "ĠzlÃ½m": 8954,
      "jedna": 8955,
      "Ġdojat": 8956,
      "ĠhodnÄĽ": 8957,
      "Ġvysla": 8958,
      "ĠvyznÃ¡": 8959,
      "divem": 8960,
      "ĠmÃ¡jo": 8961,
      "ĠlÃ¡ny": 8962,
      "ĠranÃŃ": 8963,
      "padl": 8964,
      "ChtÄĽ": 8965,
      "ĠslunnÃ½": 8966,
      "Ġkynul": 8967,
      "ĠkonÄįÃŃ": 8968,
      "Ġzhyne": 8969,
      "desÃ¡t": 8970,
      "ĠstÃ½skÃ¡": 8971,
      "bci": 8972,
      "dÅĻe": 8973,
      "sra": 8974,
      "ĠstenÃ¡": 8975,
      "nutÃ©": 8976,
      "Ġprose": 8977,
      "dÃ¡k": 8978,
      "ĠTat": 8979,
      "syl": 8980,
      "ĠstraÅ¡ÃŃ": 8981,
      "ĠkouÅĻÃŃ": 8982,
      "ĠtÅĻesk": 8983,
      "ĠtÃ¡Å¾e": 8984,
      "ĠspÃ¡sa": 8985,
      "Hospo": 8986,
      "ĠÅ¾havÃ½ch": 8987,
      "Nikdy": 8988,
      "ĠvÄĽtvÃŃch": 8989,
      "couz": 8990,
      "Å¾ivota": 8991,
      "Ġdosa": 8992,
      "ĠÄįte": 8993,
      "Ġtok": 8994,
      "ĠpropasÅ¥": 8995,
      "ĠvÄĽstÃŃ": 8996,
      "mÄĽlÃ©": 8997,
      "ĠruÄįe": 8998,
      "Ġkapra": 8999,
      "ĠctÄĽ": 9000,
      "hlavu": 9001,
      "Ġjaru": 9002,
      "Ġchoval": 9003,
      "ĠkvÃŃtko": 9004,
      "ĠandÄĽla": 9005,
      "VidÄĽl": 9006,
      "ĠhoÅĻkÃ©": 9007,
      "ĠkvapÃŃ": 9008,
      "ĠosamÄĽlÃ½": 9009,
      "proud": 9010,
      "Ġmelodi": 9011,
      "ĠvlnobitÃŃ": 9012,
      "Bi": 9013,
      "Vr": 9014,
      "nde": 9015,
      "zam": 9016,
      "Ġpronika": 9017,
      "ĠhoÅĻel": 9018,
      "ĠvÄĽje": 9019,
      "ĠvÄĽjÃŃ": 9020,
      "ĠkrÃ¡snÄĽjÅ¡ÃŃ": 9021,
      "Ġskrov": 9022,
      "ĠSpasi": 9023,
      "ĠzpÃŃvÃ¡m": 9024,
      "Ġzrady": 9025,
      "ĠknÄĽze": 9026,
      "ĠschÅ¯": 9027,
      "ĠschrÃ¡": 9028,
      "ĠvÃ¡Å¾nÃ©": 9029,
      "ĠvÄĽrnÃ½ch": 9030,
      "ĠuÄįinil": 9031,
      "ĠpamÄĽt": 9032,
      "HvÄĽz": 9033,
      "ĠpÅĻen": 9034,
      "ĠjdÄĽte": 9035,
      "Ġudat": 9036,
      "ĠdÃ¡na": 9037,
      "ĠpÅĻiblÃŃ": 9038,
      "Ġsvla": 9039,
      "ĠvÄĽÄįna": 9040,
      "ĠspojÃŃ": 9041,
      "ĠostÅĻÃŃ": 9042,
      "ĠostrÃ©": 9043,
      "ĠznÃ¡me": 9044,
      "ĠrozkoÅ¡i": 9045,
      "ĠchvÃ¡la": 9046,
      "ĠzdravÃ½": 9047,
      "spÄĽl": 9048,
      "ĠblÃŃzka": 9049,
      "ĠvlhkÃ©": 9050,
      "ĠlÅ¯Å¾ku": 9051,
      "VÃ¡s": 9052,
      "ĠorÃ¡": 9053,
      "Ġnepra": 9054,
      "vÃ¡me": 9055,
      "nikne": 9056,
      "Ġveta": 9057,
      "Ġvypro": 9058,
      "panÃ©": 9059,
      "Ġneznal": 9060,
      "ĠlÅ¾ÃŃ": 9061,
      "Åłla": 9062,
      "Ġkamsi": 9063,
      "ĠstrÃ¡Å¾e": 9064,
      "ĠspÄĽjÃŃ": 9065,
      "ĠhrÃ¡ti": 9066,
      "Ġzjevy": 9067,
      "ĠloupeÅ¾": 9068,
      "strach": 9069,
      "ĠkaÅ¾dÃ©mu": 9070,
      "ĠPaÅĻÃŃ": 9071,
      "ĠrÅ¯Å¾ovÃ©": 9072,
      "ZemÄĽ": 9073,
      "MlÃ¡": 9074,
      "Mlad": 9075,
      "Å¾nÃ½m": 9076,
      "Å¡um": 9077,
      "raly": 9078,
      "ĠoÄįekÃ¡": 9079,
      "Ġzamra": 9080,
      "nii": 9081,
      "Ġhodo": 9082,
      "Ġrval": 9083,
      "mÄĽst": 9084,
      "Ġobsa": 9085,
      "Ġrada": 9086,
      "ĠplazÃŃ": 9087,
      "Ġzvonek": 9088,
      "Ġpozve": 9089,
      "ĠsmÄĽlÃ©": 9090,
      "ĠkeÅĻe": 9091,
      "Ġzvedl": 9092,
      "Ġvysch": 9093,
      "ĠveÄįerem": 9094,
      "pti": 9095,
      "slÃŃm": 9096,
      "run": 9097,
      "Ġvzor": 9098,
      "ĠvÄĽzÃŃ": 9099,
      "ĠvÄĽtev": 9100,
      "Ġvym": 9101,
      "ĠvylÃŃ": 9102,
      "Ġoddechu": 9103,
      "ĠÃºpa": 9104,
      "ĠBi": 9105,
      "ĠvÃ½slu": 9106,
      "ĠÅ¡Å¥astna": 9107,
      "vlast": 9108,
      "Ġopojen": 9109,
      "Ġvelkole": 9110,
      "Ah": 9111,
      "SmÃŃ": 9112,
      "obÄĽ": 9113,
      "ovÃ½": 9114,
      "ÅĻeÄį": 9115,
      "vÃŃtÄĽ": 9116,
      "ĠveÅ¡la": 9117,
      "dÄĽlÃŃ": 9118,
      "Ġrozmil": 9119,
      "ĠÅ¾ilo": 9120,
      "ĠnÄĽkam": 9121,
      "hujÃŃ": 9122,
      "ĠbÃŃti": 9123,
      "ĠpÅ¯da": 9124,
      "Ġmocnou": 9125,
      "ĠjedenkrÃ¡t": 9126,
      "ĠlehkÃ©": 9127,
      "ĠradostnÄĽ": 9128,
      "Ġhluboka": 9129,
      "Ġmodlitbou": 9130,
      "ĠpÅĻemÃ½Å¡": 9131,
      "Ġmdloby": 9132,
      "Ġvztekem": 9133,
      "knou": 9134,
      "rnost": 9135,
      "ĠkÅ¯Å¾e": 9136,
      "host": 9137,
      "nicky": 9138,
      "are": 9139,
      "Ġvydal": 9140,
      "Ġston": 9141,
      "ĠposvÃ¡t": 9142,
      "ceno": 9143,
      "Å¡enou": 9144,
      "ÄįenÃŃm": 9145,
      "ĠslyÅ¡te": 9146,
      "Ġplesem": 9147,
      "ĠsnivÄĽ": 9148,
      "Ġmilence": 9149,
      "Ġprostoru": 9150,
      "Ġosudem": 9151,
      "smÃŃch": 9152,
      "Dech": 9153,
      "Jste": 9154,
      "Å¡no": 9155,
      "lis": 9156,
      "Ġvej": 9157,
      "ĠvydÃ¡": 9158,
      "ĠdumÃ¡ch": 9159,
      "dajÃŃcÃŃ": 9160,
      "NaÅ¡e": 9161,
      "Ġpodla": 9162,
      "ĠnejlÃŃp": 9163,
      "ĠpÅ¯li": 9164,
      "ĠtÃ¡hly": 9165,
      "Ġdcero": 9166,
      "ĠtajnÃ½": 9167,
      "vlas": 9168,
      "ĠnÄĽÅ¾nÄĽ": 9169,
      "ĠprÅ¯vodu": 9170,
      "Ġtvrdou": 9171,
      "ĠmdlÃ¡": 9172,
      "Ġpovzdech": 9173,
      "ĠveÅ¡ker": 9174,
      "Kri": 9175,
      "kÃ¡me": 9176,
      "Ġillu": 9177,
      "Ġust": 9178,
      "Ġroman": 9179,
      "vinÄĽ": 9180,
      "ĠbujÃŃ": 9181,
      "ĠÃºle": 9182,
      "Ġjedle": 9183,
      "ĠbÃŃdnÄĽ": 9184,
      "ĠpÄĽny": 9185,
      "Ġdruhem": 9186,
      "ĠsvÄĽtÃŃ": 9187,
      "Ġmnohem": 9188,
      "Ġchoro": 9189,
      "ÄįnÃŃk": 9190,
      "KterÃ©": 9191,
      "ĠuÅ¡lechti": 9192,
      "Ġhotov": 9193,
      "kna": 9194,
      "zÅĻe": 9195,
      "rodi": 9196,
      "ĠvÄĽdo": 9197,
      "ĠnÃ¡la": 9198,
      "ĠtuhÃ½": 9199,
      "Ġkanou": 9200,
      "menÃ¡": 9201,
      "ĠKam": 9202,
      "Ġoknu": 9203,
      "ĠÄįÃŃsti": 9204,
      "Å½ivo": 9205,
      "Ġzelena": 9206,
      "slyÅ¡ÃŃ": 9207,
      "ĠskvÄĽlÃ©": 9208,
      "hroma": 9209,
      "ĠÃºtÄĽchu": 9210,
      "MnohÃ½": 9211,
      "CelÃ½": 9212,
      "pte": 9213,
      "Ġsno": 9214,
      "ĠvÃŃÅ¾e": 9215,
      "Ġoble": 9216,
      "Ġteh": 9217,
      "staly": 9218,
      "Ġtance": 9219,
      "ĠvÃ¡leÄį": 9220,
      "ĠÅ¡edÃ½ch": 9221,
      "pily": 9222,
      "ĠstrastÃŃ": 9223,
      "Ġfran": 9224,
      "ĠzÅĻÃŃtel": 9225,
      "ĠÅ¾alosti": 9226,
      "ĠjarnÃŃch": 9227,
      "ÃºsmÄĽ": 9228,
      "ĠhoÅĻkÃ½": 9229,
      "ĠpestrÃ½ch": 9230,
      "ĠideÃ¡l": 9231,
      "ctva": 9232,
      "dlu": 9233,
      "Ġzajde": 9234,
      "panÃŃ": 9235,
      "ĠTÃ¡": 9236,
      "ĠvÃ½stra": 9237,
      "ĠlouÄįÃŃ": 9238,
      "Ġkrajiny": 9239,
      "ĠvÃŃtÄĽznÃ½": 9240,
      "ĠlÅ¯na": 9241,
      "Ġvzdechem": 9242,
      "ĠrajskÃ©": 9243,
      "ĠpenÃŃz": 9244,
      "!?": 9245,
      "ZpÄĽv": 9246,
      "hel": 9247,
      "Å¡nÃ©m": 9248,
      "Ġnachu": 9249,
      "hody": 9250,
      "jista": 9251,
      "davÄĽ": 9252,
      "Ġrozkvet": 9253,
      "Ġbur": 9254,
      "ĠprvnÄĽ": 9255,
      "papr": 9256,
      "bajÃŃ": 9257,
      "ĠpÃŃÅ¡Å¥": 9258,
      "Ġsype": 9259,
      "bÃ¡k": 9260,
      "ĠmeÄįi": 9261,
      "Ġnepokoj": 9262,
      "ĠznÄĽjÃŃ": 9263,
      "ĠÅ¾havou": 9264,
      "Ġstatku": 9265,
      "ĠÅ¾ivlÅ¯": 9266,
      "ĠzÃ¡vist": 9267,
      "rovat": 9268,
      "ĠoÅĻi": 9269,
      "ĠstmÃŃvÃ¡": 9270,
      "tichu": 9271,
      "viÄįka": 9272,
      "ĠskÃ½": 9273,
      "ĠTvÃ©ho": 9274,
      "Ġstopu": 9275,
      "ĠdrazÃŃ": 9276,
      "ĠchutÄĽ": 9277,
      "ĠÅ¡umu": 9278,
      "ĠztratÃŃ": 9279,
      "Ġperla": 9280,
      "ĠdruhÃ½m": 9281,
      "ĠzmÄĽny": 9282,
      "ĠsedlÃ¡": 9283,
      "ĠpÅ¯jdem": 9284,
      "ĠkalnÃ©": 9285,
      "Ġvzteku": 9286,
      "SvÅ¯j": 9287,
      "Zak": 9288,
      "ano": 9289,
      "Ġuleh": 9290,
      "stin": 9291,
      "ĠrozpÃ¡": 9292,
      "ĠniÄįÃŃ": 9293,
      "Ġpast": 9294,
      "ĠÃºÄį": 9295,
      "ĠmÃ¡lem": 9296,
      "Neu": 9297,
      "anÅ¯": 9298,
      "Ġnemy": 9299,
      "ĠstÃŃnech": 9300,
      "Ġsmuten": 9301,
      "ĠÅ¡ibeni": 9302,
      "ĠhrÃ¡ly": 9303,
      "ĠbrÃ¡nÄĽ": 9304,
      "krok": 9305,
      "ĠchvÃ¡ly": 9306,
      "ĠÃºtÄĽchy": 9307,
      "Ġplachty": 9308,
      "Vl": 9309,
      "pjal": 9310,
      "spÃ¡": 9311,
      "zena": 9312,
      "ĠvÅĻel": 9313,
      "Ġvhod": 9314,
      "ĠmÅĻÃŃt": 9315,
      "ram": 9316,
      "Ġjinam": 9317,
      "Ġrvou": 9318,
      "mÄĽlÃ½": 9319,
      "ĠtÄĽsnÄĽ": 9320,
      "ĠvÅ¡ecek": 9321,
      "ĠnÄĽmÄĽ": 9322,
      "Ġskrz": 9323,
      "ĠTvÃ©m": 9324,
      "ĠSatan": 9325,
      "ĠvlastÃŃ": 9326,
      "ĠmilÃ½ch": 9327,
      "ĠÅ¡ÃŃlÃŃ": 9328,
      "Ġvlasten": 9329,
      "Ġlouky": 9330,
      "budeÅ¡": 9331,
      "zkad": 9332,
      "Jaro": 9333,
      "ĠspÅĻÃ¡dÃ¡": 9334,
      "',": 9335,
      "ĠvkrÃ¡": 9336,
      "ĠkÅĻ": 9337,
      "ĠdÃ³": 9338,
      "nalo": 9339,
      "Ġutk": 9340,
      "asi": 9341,
      "ĠÅ¾ezlo": 9342,
      "meÄį": 9343,
      "Ġvozu": 9344,
      "ĠrÃ¡nÄĽ": 9345,
      "hlaho": 9346,
      "Ġmodli": 9347,
      "Ġspolku": 9348,
      "ĠmlÄįel": 9349,
      "ĠsvÃŃjÃŃ": 9350,
      "ĠlÃ©k": 9351,
      "vraÅ¥": 9352,
      "Ġhrdle": 9353,
      "ĠchvÃ¡le": 9354,
      "zved": 9355,
      "ĠpomÃ¡": 9356,
      "Ġnet": 9357,
      "hoÅĻe": 9358,
      "ĠdoÅ¡el": 9359,
      "ĠvzpÃŃnÃ¡": 9360,
      "daÅĻÃŃ": 9361,
      "ĠnoÄįnÃŃm": 9362,
      "Å¡iti": 9363,
      "ĠpÅĻiÅ¡ly": 9364,
      "ĠPar": 9365,
      "meny": 9366,
      "ĠsÃŃÅ¥": 9367,
      "ĠkouÅĻ": 9368,
      "ĠodpoÄįÃŃvÃ¡": 9369,
      "ĠveselÃ©": 9370,
[...]
