{
  "version": "1.0",
  "truncation": null,
  "padding": null,
  "added_tokens": [
    {
      "id": 0,
      "content": "<|EOS|>",
      "single_word": false,
      "lstrip": false,
      "rstrip": false,
      "normalized": false,
      "special": true
    },
    {
      "id": 1,
      "content": "<|PAD|>",
      "single_word": false,
      "lstrip": false,
      "rstrip": false,
      "normalized": false,
      "special": true
    },
    {
      "id": 2,
      "content": "<|UNK|>",
      "single_word": false,
      "lstrip": false,
      "rstrip": false,
      "normalized": false,
      "special": true
    },
    {
      "id": 3,
      "content": "<|CLS|>",
      "single_word": false,
      "lstrip": false,
      "rstrip": false,
      "normalized": false,
      "special": true
    }
  ],
  "normalizer": null,
  "pre_tokenizer": {
    "type": "ByteLevel",
    "add_prefix_space": false,
    "trim_offsets": true,
    "use_regex": true
  },
  "post_processor": {
    "type": "RobertaProcessing",
    "sep": [
      "<|EOS|>",
      0
    ],
    "cls": [
      "<|CLS|>",
      3
    ],
    "trim_offsets": false,
    "add_prefix_space": false
  },
  "decoder": {
    "type": "ByteLevel",
    "add_prefix_space": true,
    "trim_offsets": true,
    "use_regex": true
  },
  "model": {
    "type": "BPE",
    "dropout": null,
    "unk_token": null,
    "continuing_subword_prefix": null,
    "end_of_word_suffix": null,
    "fuse_unk": false,
    "byte_fallback": false,
    "vocab": {
      "<|EOS|>": 0,
      "<|PAD|>": 1,
      "<|UNK|>": 2,
      "<|CLS|>": 3,
      "!": 4,
      "#": 5,
      ",": 6,
      ".": 7,
      "0": 8,
      "1": 9,
      "2": 10,
      "3": 11,
      "4": 12,
      "5": 13,
      "6": 14,
      "7": 15,
      "8": 16,
      "9": 17,
      "?": 18,
      "A": 19,
      "B": 20,
      "C": 21,
      "D": 22,
      "H": 23,
      "J": 24,
      "N": 25,
      "P": 26,
      "T": 27,
      "X": 28,
      "Y": 29,
      "a": 30,
      "b": 31,
      "c": 32,
      "d": 33,
      "e": 34,
      "f": 35,
      "g": 36,
      "h": 37,
      "i": 38,
      "j": 39,
      "k": 40,
      "l": 41,
      "m": 42,
      "n": 43,
      "o": 44,
      "p": 45,
      "q": 46,
      "r": 47,
      "s": 48,
      "t": 49,
      "u": 50,
      "v": 51,
      "w": 52,
      "x": 53,
      "y": 54,
      "z": 55,
      "¡": 56,
      "¤": 57,
      "¥": 58,
      "©": 59,
      "¯": 60,
      "³": 61,
      "¶": 62,
      "º": 63,
      "¼": 64,
      "½": 65,
      "¾": 66,
      "Ã": 67,
      "Ä": 68,
      "Å": 69,
      "Ċ": 70,
      "Ġ": 71,
      "Ī": 72,
      "į": 73,
      "ı": 74,
      "Ļ": 75,
      "Ľ": 76,
      "Ń": 77,
      "Ġ#": 78,
      "ĠÃ": 79,
      "Ġe": 80,
      "Ġo": 81,
      "Ġa": 82,
      "Ġ1": 83,
      "Ġi": 84,
      "ĠÃŃ": 85,
      "ĠÃ¡": 86,
      "Ġs": 87,
      "Ġu": 88,
      "ĠÄ": 89,
      "Ġv": 90,
      "ĠÄĽ": 91,
      "Ġy": 92,
      "Ġp": 93,
      "Ġj": 94,
      "Ġn": 95,
      "Ġt": 96,
      "Å¾": 97,
      "ch": 98,
      "Ġz": 99,
      "Å¡": 100,
      "Ġk": 101,
      "ÅĻ": 102,
      "Ġm": 103,
      "ĠÃ½": 104,
      "Ġd": 105,
      "ĠÃ©": 106,
      "Ġou": 107,
      "Ġr": 108,
      "st": 109,
      "Ġb": 110,
      "Ġen": 111,
      "Ġh": 112,
      "Äį": 113,
      "Ġem": 114,
      "Ġl": 115,
      "Ġak": 116,
      "Å¯": 117,
      "ÃŃ": 118,
      "Ġal": 119,
      "ĠÅ¯": 120,
      "Ġ15": 121,
      "XX": 122,
      "Ġ16": 123,
      "Ġov": 124,
      "Ġad": 125,
      "Ġil": 126,
      "Ġel": 127,
      "Ġ19": 128,
      "Ġ18": 129,
      "Ġed": 130,
      "Ġod": 131,
      "Ġ14": 132,
      "Ġ13": 133,
      "Ġ12": 134,
      "Ġat": 135,
      "AB": 136,
      "Ġsv": 137,
      "Ġ17": 138,
      "Ġav": 139,
      "Ġst": 140,
      "Ġan": 141,
      "ĠÅ¾": 142,
      "Ġol": 143,
      "Ġes": 144,
      "Ã¡": 145,
      "Ġpr": 146,
      "Ġob": 147,
      "Ġ11": 148,
      "Ġc": 149,
      "Ġas": 150,
      "ĠÃŃm": 151,
      "ĠpÅĻ": 152,
      "Ġost": 153,
      "ĠÄĽl": 154,
      "Ġin": 155,
      "ĠÄĽt": 156,
      "ĠÄį": 157,
      "ĠÃ¡n": 158,
      "Ġot": 159,
      "Ġch": 160,
      "Ġ2": 161,
      "Ġer": 162,
      "Ġit": 163,
      "ĠÃ¡l": 164,
      "Ġej": 165,
      "Ġkd": 166,
      "Ġom": 167,
      "Ġiv": 168,
      "Ġam": 169,
      "sk": 170,
      "ĠÃŃt": 171,
      "Ġoj": 172,
      "ĠÃ¡m": 173,
      "Ġet": 174,
      "Ġon": 175,
      "ĠÃ½ch": 176,
      "Ġoh": 177,
      "Ġsl": 178,
      "ĠvÅ¡": 179,
      "Ġoz": 180,
      "Ġud": 181,
      "Ġok": 182,
      "ĠÅ¡": 183,
      "Ġeb": 184,
      "Ġek": 185,
      "Ġ10": 186,
      "Ġar": 187,
      "Ġor": 188,
      "ÄĽ": 189,
      "Ġhl": 190,
      "Ġjs": 191,
      "Ġkr": 192,
      "ĠÃ½m": 193,
      "ĠÃŃc": 194,
      "Ġos": 195,
      "Ġaj": 196,
      "ĠÃ¡t": 197,
      "Ġech": 198,
      "Ã½": 199,
      "Å¥": 200,
      "ĠAB": 201,
      "ĠÃ¡v": 202,
      "00": 203,
      "Ġid": 204,
      "Ġ1900": 205,
      "Ġyl": 206,
      "ĠÃ¡s": 207,
      "Ġez": 208,
      "XXXX": 209,
      "Ġev": 210,
      "Ġtv": 211,
      "ĠÃ©m": 212,
      "XA": 213,
      "Ġeh": 214,
      "ĠÃŃl": 215,
      "Ã©": 216,
      "Ġvz": 217,
      "Ġich": 218,
      "ĠÃ¡d": 219,
      "Ġ9": 220,
      "Ġest": 221,
      "ĠuÅ¡": 222,
      "ĠABAB": 223,
      "ĠÄĽn": 224,
      "ĠeÅ¾": 225,
      "ou": 226,
      "Ġah": 227,
      "Ġpl": 228,
      "ĠeÄį": 229,
      "Ġut": 230,
      "ĠoÅ¾": 231,
      "ĠoÄį": 232,
      "ĠaÅ¾": 233,
      "Ġsk": 234,
      "ĠoÅĻ": 235,
      "ĠÃŃn": 236,
      "Ġsn": 237,
      "ĠA": 238,
      "Ġrd": 239,
      "Ġic": 240,
      "Ġsp": 241,
      "ĠÄĽj": 242,
      "80": 243,
      "Ġ1880": 244,
      "Ġec": 245,
      "Ġhr": 246,
      "em": 247,
      "Ġop": 248,
      "Ġsm": 249,
      "Ġmn": 250,
      "ÅĪ": 251,
      "ĠÃŃv": 252,
      "ĠeÅ¡": 253,
      "20": 254,
      "ĠXXXX": 255,
      "Ġik": 256,
      "Ġuk": 257,
      "Ġuj": 258,
      "Ġep": 259,
      "Ġoc": 260,
      "Ġkl": 261,
      "ĠuÅ¾": 262,
      "ĠÃŃr": 263,
      "Ġzd": 264,
      "Ġbl": 265,
      "Ġ1920": 266,
      "ĠÅĻ": 267,
      "ĠÃ¡ÅĻ": 268,
      "ĠÃ©h": 269,
      "Äı": 270,
      "ĠÃŃch": 271,
      "ĠÃ¡z": 272,
      "ĠaÅ¡": 273,
      "ĠÃŃk": 274,
      "Ġedn": 275,
      "Ġap": 276,
      "ĠyÅ¾": 277,
      "Ġzv": 278,
      "Ġys": 279,
      "Ġ20": 280,
      "Ġast": 281,
      "Ġyt": 282,
      "Ġul": 283,
      "ĠÃŃÅ¡": 284,
      "ĠÃ¡Å¡": 285,
      "ĠÄĽk": 286,
      "Ġ8": 287,
      "Ġun": 288,
      "Ġrdc": 289,
      "Ġyn": 290,
      "ĠÃº": 291,
      "Ġum": 292,
      "Ġist": 293,
      "Ġvl": 294,
      "ĠAAB": 295,
      "ĠÃŃÅ¾": 296,
      "Ġus": 297,
      "Äįk": 298,
      "Ġesk": 299,
      "ĠiÅ¾": 300,
      "ĠÅ¯j": 301,
      "Ġzl": 302,
      "Ġuch": 303,
      "ĠÃ¡r": 304,
      "Ġaz": 305,
      "ĠXA": 306,
      "ĠÃ¡h": 307,
      "Ġdr": 308,
      "Ġstr": 309,
      "ĠÃŃd": 310,
      "Ġach": 311,
      "Ġkv": 312,
      "Ġln": 313,
      "ĠyÅ¡": 314,
      "Ġrt": 315,
      "Ġzn": 316,
      "Ġab": 317,
      "Ġuh": 318,
      "Ġim": 319,
      "ĠÃŃs": 320,
      "ĠAABB": 321,
      "ĠÄĽst": 322,
      "ĠaÄį": 323,
      "al": 324,
      "Ġtr": 325,
      "Ġub": 326,
      "ĠÄĽv": 327,
      "ĠÃ¡sk": 328,
      "40": 329,
      "ĠÃ¡c": 330,
      "Ġdn": 331,
      "ĠÄĽÅ¾": 332,
      "ĠÄĽm": 333,
      "ĠÄĽz": 334,
      "Ġzp": 335,
      "Ġchv": 336,
      "Ġrv": 337,
      "Ġout": 338,
      "ĠÄĽd": 339,
      "ĠiÅ¡": 340,
      "Ġml": 341,
      "ĠXAXA": 342,
      "ĠuÄį": 343,
      "Ġup": 344,
      "Ġouh": 345,
      "Ġij": 346,
      "Ġ21": 347,
      "Ġzr": 348,
      "Ġych": 349,
      "ĠÃ¡k": 350,
      "ĠÃ¡ch": 351,
      "Å¾d": 352,
      "Ġoud": 353,
      "ĠÃ³": 354,
      "Ġouc": 355,
      "Ġbr": 356,
      "Ġhn": 357,
      "ĠÃ¡Äį": 358,
      "il": 359,
      "ĠÅ¯Å¾": 360,
      "Ġkt": 361,
      "en": 362,
      "stv": 363,
      "ĠkÅĻ": 364,
      "Ġ7": 365,
      "CC": 366,
      "Ġoch": 367,
      "Ġvr": 368,
      "ĠeÄı": 369,
      "ĠvÅ¾d": 370,
      "ĠtÅĻ": 371,
      "Ġac": 372,
      "ĠenÅ¾": 373,
      "Ġobr": 374,
      "ĠaÅ¾d": 375,
      "Ġdl": 376,
      "Äįn": 377,
      "ĠÃ½v": 378,
      "Ġiz": 379,
      "ĠÄĽch": 380,
      "ĠXXXXXX": 381,
      "ĠeÅ¡t": 382,
      "Ġoup": 383,
      "ĠÅ¯m": 384,
      "60": 385,
      "ĠÃŃz": 386,
      "ĠeÅĻ": 387,
      "Ġemn": 388,
      "Ġzb": 389,
      "Ġis": 390,
      "Ġern": 391,
      "Ġvzd": 392,
      "ĠÃŃh": 393,
      "ÃŃm": 394,
      "Ġdv": 395,
      "ĠÃ¡Å¾": 396,
      "ĠÄĽs": 397,
      "Ġur": 398,
      "Ġasn": 399,
      "Ġeck": 400,
      "Ġust": 401,
      "Ġuv": 402,
      "ĠÃ¡sn": 403,
      "Ġadn": 404,
      "Ġ22": 405,
      "ĠaÅ¥": 406,
      "ĠiÄįk": 407,
      "ĠÃ¡j": 408,
      "Ġzm": 409,
      "Ġosl": 410,
      "Ġhv": 411,
      "ĠÃŃb": 412,
      "ĠÄĽr": 413,
      "Ġouz": 414,
      "Ġmr": 415,
      "hl": 416,
      "ĠÅ¡t": 417,
      "ĠoÅ¡": 418,
      "Ġ1940": 419,
      "ĠÃ¡p": 420,
      "ĠeÅĪ": 421,
      "Ġodn": 422,
      "ĠÃ¡nÃŃ": 423,
      "Ġadl": 424,
      "ĠÃ½Å¡": 425,
      "Ġohl": 426,
      "ĠaÅĻ": 427,
      "ĠzÅĻ": 428,
      "Ġelk": 429,
      "BA": 430,
      "ĠenÃŃ": 431,
      "ĠÄĽÄįn": 432,
      "Ġunc": 433,
      "Ġf": 434,
      "Ġyk": 435,
      "ĠÄĽzd": 436,
      "Ġjd": 437,
      "Ġedl": 438,
      "ĠeÄįn": 439,
      "ĠhÅĻ": 440,
      "ĠouÅĻ": 441,
      "ĠiÄį": 442,
      "Ġesl": 443,
      "ĠÃ½t": 444,
      "Ġatk": 445,
      "ĠstÅĻ": 446,
      "Ġpt": 447,
      "ĠÃŃsn": 448,
      "Ġodl": 449,
      "ĠABBA": 450,
      "Ã¡m": 451,
      "Ġchc": 452,
      "ĠÄĽtl": 453,
      "Ġysl": 454,
      "Ġoln": 455,
      "ĠÃŃÅĻ": 456,
      "Ġ1860": 457,
      "Ġlz": 458,
      "Ġyp": 459,
      "Ġenk": 460,
      "Ġuc": 461,
      "Ġchl": 462,
      "ĠÃ©t": 463,
      "Ġrn": 464,
      "ĠÃ¡tk": 465,
      "ĠÄĽÅĻ": 466,
      "ĠÃ¡hl": 467,
      "Ġovn": 468,
      "Ġtm": 469,
      "Ġyb": 470,
      "Ġ1840": 471,
      "ĠÅ¯n": 472,
      "Ġutn": 473,
      "Ã½ch": 474,
      "ĠÅ¯v": 475,
      "Ġarn": 476,
      "Ġskr": 477,
      "Ġuz": 478,
      "ĠouÅ¾": 479,
      "Ġih": 480,
      "Ġcht": 481,
      "ĠÄĽh": 482,
      "Ġ23": 483,
      "Ġzt": 484,
      "Ġse": 485,
      "ĠÃ¡b": 486,
      "Ġisk": 487,
      "ĠAA": 488,
      "as": 489,
      "Ġoub": 490,
      "el": 491,
      "ĠÄĽÅ¡": 492,
      "Ġadk": 493,
      "at": 494,
      "Ġjsm": 495,
      "Ġ6": 496,
      "Ġastn": 497,
      "ĠuÄı": 498,
      "ĠatÅĻ": 499,
      "Ġozd": 500,
      "Ġozn": 501,
      "Ġvzp": 502,
      "Ġobl": 503,
      "Ã½m": 504,
      "Ġib": 505,
      "ĠÃŃst": 506,
      "ĠÅ¯l": 507,
      "Ġosti": 508,
      "Ġskl": 509,
      "ek": 510,
      "Ġezn": 511,
      "ĠÄĽc": 512,
      "ĠÃ©n": 513,
      "ĠÄĽjÅ¡": 514,
      "ĠÃ©Å¾": 515,
      "Ġrh": 516,
      "ĠouÅ¡": 517,
      "Ġzk": 518,
      "Ġick": 519,
      "Ġekl": 520,
      "Ġkn": 521,
      "it": 522,
      "ĠÄįl": 523,
      "ÄĽt": 524,
      "Ġir": 525,
      "Ġvst": 526,
      "ĠÃ¡dn": 527,
      "ĠÃ½l": 528,
      "ce": 529,
      "Ġala": 530,
      "Ġikd": 531,
      "ech": 532,
      "ĠÅ¯z": 533,
      "Ġ24": 534,
      "ĠdÅĻ": 535,
      "ĠXX": 536,
      "Ġodr": 537,
      "ĠÃŃdl": 538,
      "nÃ©": 539,
      "ky": 540,
      "kl": 541,
      "Ġodp": 542,
      "Ã¡l": 543,
      "Ġrch": 544,
      "es": 545,
      "ĠÅ¯h": 546,
      "dl": 547,
      "Ġila": 548,
      "Ġchr": 549,
      "ĠÅ¯r": 550,
      "ĠAABBCC": 551,
      "dn": 552,
      "Ġg": 553,
      "Ġyst": 554,
      "Ġozv": 555,
      "ĠÅ¡l": 556,
      "ĠyÅ¡l": 557,
      "ĠÃ¡vn": 558,
      "ÃŃch": 559,
      "ĠAAXX": 560,
      "ĠajÃŃ": 561,
      "ÄĽl": 562,
      "Ġomn": 563,
      "Ġrz": 564,
      "Ġrs": 565,
      "Ġeu": 566,
      "Ġavn": 567,
      "ĠaÅĪ": 568,
      "Ġand": 569,
      "Ġivn": 570,
      "Ġrtv": 571,
      "Ġatn": 572,
      "ĠyÅ¥": 573,
      "ku": 574,
      "Ġlh": 575,
      "ĠbÅĻ": 576,
      "Ġechn": 577,
      "Ã©m": 578,
      "Ġyj": 579,
      "Ġesn": 580,
      "ĠÃŃÄį": 581,
      "Ġie": 582,
      "Ġostn": 583,
      "ĠÄĽÅ¾k": 584,
      "Ġozk": 585,
      "ĠÄĽnÃŃ": 586,
      "ĠÃŃj": 587,
      "ost": 588,
      "et": 589,
      "Ġavd": 590,
      "Ġohn": 591,
      "ĠÃŃÄįk": 592,
      "Ġotv": 593,
      "ĠÃ©ho": 594,
      "Ġehn": 595,
      "Ġeln": 596,
      "Ġip": 597,
      "Ġzh": 598,
      "Ġidsk": 599,
      "ĠÅ¯st": 600,
      "Ġenn": 601,
      "Ġyr": 602,
      "ad": 603,
      "ĠÄĽrn": 604,
      "Ġuje": 605,
      "Ġtl": 606,
      "Ġozp": 607,
      "Ġjst": 608,
      "Ġzj": 609,
      "Ġann": 610,
      "Ġvzn": 611,
      "ak": 612,
      "Ġokl": 613,
      "sm": 614,
      "ĠoÅ¾n": 615,
      "Ġocn": 616,
      "ĠABABCC": 617,
      "ĠobÄĽ": 618,
      "Ġkm": 619,
      "Ġevn": 620,
      "Ġant": 621,
      "ĠrÅ¾": 622,
      "ĠÃŃp": 623,
      "Ġrp": 624,
      "Ġorn": 625,
      "Ġali": 626,
      "Ġvn": 627,
      "Ġitr": 628,
      "Ġesm": 629,
      "Ġiln": 630,
      "Ġejn": 631,
      "Ġsch": 632,
      "ĠepÅĻ": 633,
      "ĠojÃŃ": 634,
      "AX": 635,
      "ĠÃŃdn": 636,
      "ĠÄĽla": 637,
      "Ġ25": 638,
      "Ġinn": 639,
      "AA": 640,
      "Ġzdr": 641,
      "Ġztr": 642,
      "Ġotc": 643,
      "Ġct": 644,
      "Ġink": 645,
      "Ġokr": 646,
      "Ġerv": 647,
      "Ġje": 648,
      "ĠÃŃvÃ¡": 649,
      "Ġosp": 650,
      "ĠABABXX": 651,
      "ĠÃºst": 652,
      "Ġept": 653,
      "ĠoÅ¥": 654,
      "Ġouch": 655,
      "ĠaÄįn": 656,
      "Ġobn": 657,
      "Ġsh": 658,
      "Ġetl": 659,
      "Ġ1960": 660,
      "Ġyz": 661,
      "Ã¡t": 662,
      "ĠÅĪ": 663,
      "Ġenc": 664,
      "ĠÃ¡hn": 665,
      "Ġskv": 666,
      "ĠÃ¡nk": 667,
      "ĠeÅ¡l": 668,
      "Ġeo": 669,
      "ĠvÅĻ": 670,
      "Ġeskn": 671,
      "ĠouÅ¡t": 672,
      "ĠÃŃcÃŃ": 673,
      "Ġous": 674,
      "Ġouf": 675,
      "ĠÃºt": 676,
      "Ġojn": 677,
      "Ġjm": 678,
      "Ġvd": 679,
      "Ġozl": 680,
      "ĠÅ¯d": 681,
      "Ġaln": 682,
      "Ġ5": 683,
      "Ġodv": 684,
      "ĠÃŃtÃŃ": 685,
      "Ġps": 686,
      "Ġrvn": 687,
      "Ġyc": 688,
      "ĠÃºsm": 689,
      "Ġent": 690,
      "ĠÄĽkd": 691,
      "ed": 692,
      "ĠÃ¡lk": 693,
      "ĠÃ¡st": 694,
      "kr": 695,
      "ĠobÅĻ": 696,
      "Ġoje": 697,
      "Ġela": 698,
      "Ġidn": 699,
      "Ġasl": 700,
      "Ġokn": 701,
      "Ġym": 702,
      "Ġejt": 703,
      "ĠÃŃzk": 704,
      "Ġice": 705,
      "ÃŃt": 706,
      "ĠÅ¡Å¥": 707,
      "Ġanc": 708,
      "ĠÃ¡zn": 709,
      "ĠXXAA": 710,
      "Ġau": 711,
      "ĠyÄį": 712,
      "kv": 713,
      "ĠÅ¾h": 714,
      "Ġili": 715,
      "Ġatr": 716,
      "ĠÃŃce": 717,
      "tv": 718,
      "ĠlÄį": 719,
      "Ġlk": 720,
      "an": 721,
      "Ã¡n": 722,
      "Ã¡ch": 723,
      "ĠejÅ¡": 724,
      "Ġyv": 725,
      "Ġsb": 726,
      "CCB": 727,
      "Ġejd": 728,
      "Ġebn": 729,
      "Ġestr": 730,
      "Ġebe": 731,
      "ĠÅ¡k": 732,
      "ĠÃ©st": 733,
      "Ġychl": 734,
      "Ġudn": 735,
      "Ġarm": 736,
      "Ġ1820": 737,
      "ĠoÅĪ": 738,
      "ĠichÅ¾": 739,
      "ĠÃŃti": 740,
      "ÃŃÅ¡": 741,
      "Ġspl": 742,
      "Ġouk": 743,
      "Ġio": 744,
      "Ġotr": 745,
      "ĠeÄįk": 746,
      "ĠoÄįn": 747,
      "Ġyd": 748,
      "Ġiny": 749,
      "ĠÄĽje": 750,
      "ĠÄĽÅ¾n": 751,
      "Ġaly": 752,
      "ĠÅ¡p": 753,
      "Ġvzt": 754,
      "ĠAXA": 755,
      "ĠAABCCB": 756,
      "ĠovÃ©": 757,
      "ĠÃŃnk": 758,
      "ĠiÅ¡t": 759,
      "Ġahr": 760,
      "ABB": 761,
      "ĠÃ¡vÃ¡": 762,
      "Ġetn": 763,
      "Ġena": 764,
      "ĠÄĽsn": 765,
      "ĠadÅ¡": 766,
      "Ġecht": 767,
      "ÃŃc": 768,
      "Ġemi": 769,
      "ĠoÅĻe": 770,
      "ĠÃŃsk": 771,
      "Ġehl": 772,
      "Ġmdl": 773,
      "Ġova": 774,
      "Ġutk": 775,
      "ĠÃ½k": 776,
      "ĠetÃŃ": 777,
      "ĠÃŃrÃ¡": 778,
      "ĠÃ¡Å¡t": 779,
      "Ġane": 780,
      "ĠXAAX": 781,
      "ĠenÃ©": 782,
      "Ġadr": 783,
      "ĠaÅ¡l": 784,
      "Ġijd": 785,
      "ĠouÄį": 786,
      "Ġepl": 787,
      "Ġosv": 788,
      "ĠoÅĻÃŃ": 789,
      "Ġrst": 790,
      "Ġady": 791,
      "ĠÃ½sk": 792,
      "ĠevÅĻ": 793,
      "Ġouzl": 794,
      "Ġrc": 795,
      "or": 796,
      "ĠÃŃvk": 797,
      "ĠÃ¡Å¾n": 798,
      "ĠÃ¡rn": 799,
      "ĠrÄį": 800,
      "Ġekn": 801,
      "Ġdc": 802,
      "Ġudb": 803,
      "Ġusm": 804,
      "Ġoji": 805,
      "Ġezd": 806,
      "Ġostr": 807,
      "zd": 808,
      "Å¯m": 809,
      "ĠavÃŃ": 810,
      "Ġovsk": 811,
      "Ã¡Å¡": 812,
      "Ġask": 813,
      "ĠÃ½r": 814,
      "ĠÄĽtr": 815,
      "ĠÃºd": 816,
      "Ġavy": 817,
      "ĠÃ©v": 818,
      "Ġakt": 819,
      "Ġobj": 820,
      "Ġzbr": 821,
      "ĠÃ¡zdn": 822,
      "ĠosÅ¥": 823,
      "ĠenÃ½": 824,
      "ĠÃŃtk": 825,
      "ĠÄĽti": 826,
      "ĠÃ©b": 827,
      "ĠÃ¡dk": 828,
      "Ġert": 829,
      "Ġvt": 830,
      "Ġenstv": 831,
      "ĠiÅ¡l": 832,
      "ĠÃ¡ti": 833,
      "Ġonn": 834,
      "Ġ26": 835,
      "ĠonÃŃ": 836,
      "Ġyh": 837,
      "ĠostÅĻ": 838,
      "Ġapl": 839,
      "Ġidstv": 840,
      "Ġaje": 841,
      "Ġeny": 842,
      "Ġejs": 843,
      "Ġoul": 844,
      "Ġag": 845,
      "Ġejv": 846,
      "Ġoval": 847,
      "Ġotk": 848,
      "ĠÃŃzd": 849,
      "Ġele": 850,
      "Ġerl": 851,
      "ĠanÃŃ": 852,
      "ĠÃŃrn": 853,
      "Ġoucn": 854,
      "ĠÄĽtÅ¡": 855,
      "ĠuÄįn": 856,
      "Ġji": 857,
      "Å¡t": 858,
      "Ġami": 859,
      "ĠostÃŃ": 860,
      "Ġese": 861,
      "ĠÃ¡le": 862,
      "Ġosk": 863,
      "ĠÃ¡Å¡n": 864,
      "ĠÃŃÅ¡t": 865,
      "Ġoun": 866,
      "ĠÃ½vÃ¡": 867,
      "Ġajn": 868,
      "Ġozt": 869,
      "ĠuÅ¡ÃŃ": 870,
      "ĠÃ½ÅĻ": 871,
      "Ġati": 872,
      "ej": 873,
      "Ġysk": 874,
      "Ġejm": 875,
      "Ġilo": 876,
      "Ġichn": 877,
      "ĠÄĽstÃŃ": 878,
      "ec": 879,
      "ĠskÅĻ": 880,
      "Ġank": 881,
      "Ġadu": 882,
      "Ġypr": 883,
      "Ġfr": 884,
      "ĠÃ¡na": 885,
      "Ġoudr": 886,
      "Ġozb": 887,
      "am": 888,
      "in": 889,
      "Ġozm": 890,
      "ĠÃ¡Äįk": 891,
      "ĠvÄį": 892,
      "ĠitÃŃ": 893,
      "ĠechÅ¥": 894,
      "Ġzdv": 895,
      "Ġotn": 896,
      "ĠÄĽlo": 897,
      "Ġohr": 898,
      "Ġspr": 899,
      "ĠejÅ¾": 900,
      "Ġechc": 901,
      "ĠsvÄĽt": 902,
      "Ġrsk": 903,
      "Ġavu": 904,
      "ĠavÃ½": 905,
      "Ġarv": 906,
      "Ġozh": 907,
      "ĠolÃŃ": 908,
      "Ġurn": 909,
      "ĠÃ©k": 910,
      "ĠedÃ¡": 911,
      "ĠÃ½s": 912,
      "ĠÃ½n": 913,
      "Ġyck": 914,
      "Ġostl": 915,
      "ev": 916,
      "Ġden": 917,
      "ĠoÄįÃŃ": 918,
      "ĠÃŃli": 919,
      "Ġvzl": 920,
      "ĠÄįt": 921,
      "ĠeÅ¥": 922,
      "Ġezk": 923,
      "Ġolu": 924,
      "ĠutÃŃ": 925,
      "ĠÄĽkn": 926,
      "ĠÃ¡li": 927,
      "Ġ3": 928,
      "Ġrb": 929,
      "Ġajd": 930,
      "Ã¡d": 931,
      "Ġeskl": 932,
      "Ġije": 933,
      "Ġici": 934,
      "ĠÃ©nk": 935,
      "Ġig": 936,
      "Ġoci": 937,
      "yl": 938,
      "ĠÃŃci": 939,
      "Ġoru": 940,
      "ĠuÅ¡k": 941,
      "Ġalo": 942,
      "ĠotÅĻ": 943,
      "Ġavou": 944,
      "ĠÃ½b": 945,
      "ĠoÄįk": 946,
      "ul": 947,
      "Ġansk": 948,
      "Ġrhn": 949,
      "Ġezm": 950,
      "Ġihn": 951,
      "Ġsr": 952,
      "Ġrk": 953,
      "ĠuÅĻ": 954,
      "ĠenÃ¡": 955,
      "ĠuÅ¾n": 956,
      "ĠavÅĻ": 957,
      "Ġanou": 958,
      "Ġukr": 959,
      "ĠvstÅĻ": 960,
      "Ġzas": 961,
      "Ġehk": 962,
      "Ġctn": 963,
      "uch": 964,
      "Ġchm": 965,
      "Ġodd": 966,
      "ĠÅ¾l": 967,
      "Ã¡s": 968,
      "ĠoÄı": 969,
      "Ġrm": 970,
      "Ġakl": 971,
      "Ġily": 972,
      "Ġasy": 973,
      "Ġitn": 974,
      "Ġoku": 975,
      "ĠeÅ¾l": 976,
      "Ġrhl": 977,
      "Ġosm": 978,
      "ĠonÄį": 979,
      "Ã¡ÅĻ": 980,
      "ĠXAXAXX": 981,
      "Ġiti": 982,
      "od": 983,
      "Ġosn": 984,
      "ĠÃ¡ln": 985,
      "Ġvp": 986,
      "ĠÃ¡tn": 987,
      "Ġase": 988,
      "ĠÃ¡ly": 989,
      "Ġvzh": 990,
      "ĠmÅĻ": 991,
      "ĠAXAX": 992,
      "Ġ4": 993,
      "Ġujn": 994,
      "Ġude": 995,
      "zn": 996,
      "ĠÄĽmÅ¾": 997,
      "ĠrÅ¡": 998,
      "ĠÃ¡la": 999,
      "Ġni": 1000,
      "Ġeli": 1001,
      "ĠÃ¡ÅĪ": 1002,
      "Ġeho": 1003,
      "Ġjen": 1004,
      "ĠÄĽtv": 1005,
      "Ġebr": 1006,
      "Ġind": 1007,
      "ĠuÅ¡i": 1008,
      "ĠÄĽÅ¾ÃŃ": 1009,
      "ĠÄĽck": 1010,
      "Ġozdr": 1011,
      "Ġvzr": 1012,
      "Ġard": 1013,
      "ĠÃŃmÅ¾": 1014,
      "ĠhÅĻm": 1015,
      "ĠiÄįn": 1016,
      "Ġumn": 1017,
      "Ġork": 1018,
      "ĠtÅĻp": 1019,
      "ĠavÄĽ": 1020,
      "Ġvzpl": 1021,
      "ĠÃŃÅ¾ÃŃ": 1022,
      "ĠyÅ¡n": 1023,
      "Ġsen": 1024,
      "Ġolem": 1025,
      "Ġenkr": 1026,
      "out": 1027,
      "Ġoum": 1028,
      "id": 1029,
      "Ġonc": 1030,
      "ĠÃ¡dc": 1031,
      "Ġavr": 1032,
      "ĠuÅ¡t": 1033,
      "Ġjest": 1034,
      "Ġarc": 1035,
      "ĠmÃ¡": 1036,
      "Ġto": 1037,
      "ĠÄı": 1038,
      "Ġodu": 1039,
      "Ġaf": 1040,
      "Ġinc": 1041,
      "Ġuzn": 1042,
      "Ġachv": 1043,
      "ĠaÅ¡n": 1044,
      "ĠkvÄĽt": 1045,
      "Ġahl": 1046,
      "Ġazn": 1047,
      "Ġvs": 1048,
      "Ġoml": 1049,
      "Ġytn": 1050,
      "Ġesp": 1051,
      "Ġorl": 1052,
      "ĠÃ¡sc": 1053,
      "ĠÄĽzn": 1054,
      "Ġody": 1055,
      "Ġusn": 1056,
      "Ġikl": 1057,
      "Å¯j": 1058,
      "Ġina": 1059,
      "Ġomu": 1060,
      "Ġensk": 1061,
      "ĠÅ¯jd": 1062,
      "ĠÄĽÅ¥": 1063,
      "ĠÄĽtn": 1064,
      "ÃŃÅ¾": 1065,
      "Ġobz": 1066,
      "Ġenou": 1067,
      "ĠÃ©ÅĻ": 1068,
      "ĠÅ¯Å¾e": 1069,
      "XB": 1070,
      "Ġinu": 1071,
      "Ġaky": 1072,
      "ĠoucÃŃ": 1073,
      "ĠuÄįÃŃ": 1074,
      "ĠÅ¯k": 1075,
      "Ġvzk": 1076,
      "ĠuÅ¡e": 1077,
      "Ġii": 1078,
      "Ġodk": 1079,
      "ĠamÅ¾": 1080,
      "ie": 1081,
      "ĠÃ¡ÅĻe": 1082,
      "ĠetÅĻ": 1083,
      "ĠÄĽjÃŃ": 1084,
      "Ġeg": 1085,
      "Ġoust": 1086,
      "ĠivÃ¡": 1087,
      "Ġitb": 1088,
      "ABAB": 1089,
      "ĠÃ¡me": 1090,
      "ĠÄĽtsk": 1091,
      "ĠoÅ¾ÃŃ": 1092,
      "ĠÃ½mi": 1093,
      "Ġouv": 1094,
      "Ġrdl": 1095,
      "ĠÅ¯zn": 1096,
      "Ġuku": 1097,
      "Ġestn": 1098,
      "ĠÅ¡v": 1099,
      "ĠsÃ¡m": 1100,
      "Ġevr": 1101,
      "Ġion": 1102,
      "ĠÄĽli": 1103,
      "ĠivÃ½": 1104,
      "Ġelo": 1105,
      "Ġasu": 1106,
      "Ġyla": 1107,
      "ĠanÃ©": 1108,
      "ĠÃ¡zÃŃ": 1109,
      "Ġbd": 1110,
      "Ġikr": 1111,
      "ĠitÅĻ": 1112,
      "Ġupn": 1113,
      "Ġezp": 1114,
      "ĠÄįas": 1115,
      "ĠojÄı": 1116,
      "ĠohÅĻ": 1117,
      "ĠÃ¡ÅĻÃŃ": 1118,
      "Ġolt": 1119,
      "Ġory": 1120,
      "ĠepÅ¡": 1121,
      "ĠatÃ©": 1122,
      "um": 1123,
      "Ġodz": 1124,
      "ĠÃŃle": 1125,
      "ĠÄĽkk": 1126,
      "ĠÄĽnc": 1127,
      "Ġelz": 1128,
      "ĠÃ¡lo": 1129,
      "ĠatÃ½": 1130,
      "Ġhlas": 1131,
      "Ġolk": 1132,
      "zk": 1133,
      "ĠÃ©r": 1134,
      "Ġikn": 1135,
      "ĠÄĽvÄį": 1136,
      "Ġete": 1137,
      "ĠÃŃval": 1138,
      "ĠuÅ¡n": 1139,
      "est": 1140,
      "ĠujÃŃ": 1141,
      "ĠejÃŃ": 1142,
      "Ġiskn": 1143,
      "ÃŃn": 1144,
      "ĠeÅ¡k": 1145,
      "ĠdÃ¡l": 1146,
      "ĠÃŃtr": 1147,
      "Ġoutn": 1148,
      "ĠÃ¡ÅĻi": 1149,
      "Ġihl": 1150,
      "ĠÃ¡sl": 1151,
      "ar": 1152,
      "Ġopr": 1153,
      "Ġark": 1154,
      "ĠÃŃzn": 1155,
      "Ġahn": 1156,
      "ĠodÃŃ": 1157,
      "Ġabl": 1158,
      "Ġinou": 1159,
      "Ġukl": 1160,
      "ĠÅ¯dc": 1161,
      "ĠeÅ¾ÃŃ": 1162,
      "ĠÃ©l": 1163,
      "Ġlet": 1164,
      "ĠÃ¡cn": 1165,
      "Ġstv": 1166,
      "Ġelm": 1167,
      "ĠÃ©mu": 1168,
      "ol": 1169,
      "ĠemÄĽ": 1170,
      "ĠÃ¡no": 1171,
      "ĠÃ³n": 1172,
      "Ġmi": 1173,
      "Ġshl": 1174,
      "Ġof": 1175,
      "Ġ27": 1176,
      "Ġuchl": 1177,
      "ĠaÄįk": 1178,
      "ĠuÅ¾b": 1179,
      "ĠÄĽÄį": 1180,
      "ĠÃ¡ni": 1181,
      "ĠanÄĽ": 1182,
      "ĠÄĽly": 1183,
      "ka": 1184,
      "ĠÃŃme": 1185,
      "ĠuÅ¥": 1186,
      "ĠidÃŃ": 1187,
      "ĠÃºp": 1188,
      "ĠyÅ¡Å¡": 1189,
      "ĠÃºzk": 1190,
      "Ġimn": 1191,
      "Ġzem": 1192,
      "ot": 1193,
      "ĠiÅ¥": 1194,
      "ĠyÅĻ": 1195,
      "ĠalÃŃ": 1196,
      "Ġepr": 1197,
      "ĠÄĽzdn": 1198,
      "Ġamp": 1199,
      "ĠÃ¡zr": 1200,
      "Ġeje": 1201,
      "ĠotÄį": 1202,
      "ĠÃ¡ny": 1203,
      "Ġemsk": 1204,
      "ĠatÃŃ": 1205,
      "ĠÃ½Äį": 1206,
      "eÅĪ": 1207,
      "ĠÃ¡ci": 1208,
      "ĠhÅĻb": 1209,
      "ABBX": 1210,
      "oj": 1211,
      "Ġilk": 1212,
      "Ġojsk": 1213,
      "Ġasp": 1214,
      "Ġykl": 1215,
      "Ġart": 1216,
      "ĠesÅ¥": 1217,
      "Ġuhl": 1218,
      "Ġovat": 1219,
      "Ġetb": 1220,
      "ĠÃ½Å¡e": 1221,
      "ĠoÅ¾sk": 1222,
      "Ġeno": 1223,
      "ĠoÅĻk": 1224,
      "ĠadÃ¡": 1225,
      "Ġedb": 1226,
      "Ġitk": 1227,
      "ĠnÃŃ": 1228,
      "Ġuce": 1229,
      "Ġetk": 1230,
      "Ġounk": 1231,
      "Ġoli": 1232,
      "Ġopl": 1233,
      "ĠaÄįÃŃ": 1234,
      "Ġiskr": 1235,
      "ĠÃŃnÃ¡": 1236,
      "Ġsi": 1237,
      "Ġokt": 1238,
      "Ġjsem": 1239,
      "ĠÃ¡sky": 1240,
      "Ġbyl": 1241,
      "ĠivÃ©": 1242,
      "on": 1243,
      "ĠerÅ¡": 1244,
      "ĠmÅ¾": 1245,
      "Ġtk": 1246,
      "uh": 1247,
      "ok": 1248,
      "ĠÃ¡te": 1249,
      "ĠoÄįi": 1250,
      "ĠedÃŃ": 1251,
      "Ġely": 1252,
      "Ġera": 1253,
      "ĠÃ©z": 1254,
      "ĠiÅĻ": 1255,
      "Ġokem": 1256,
      "Ġidl": 1257,
      "Ġylo": 1258,
      "Ġoby": 1259,
      "ĠÃŃtÄĽ": 1260,
      "Ġezl": 1261,
      "oc": 1262,
      "ĠÃ¡cÃŃ": 1263,
      "Ġohu": 1264,
      "Ġedr": 1265,
      "Ġzkv": 1266,
      "ĠÃ¡tÃŃ": 1267,
      "Ġata": 1268,
      "ĠÃ¡nÄĽ": 1269,
      "Ġakb": 1270,
      "BC": 1271,
      "av": 1272,
      "ĠÃŃÅ¾e": 1273,
      "ĠÃ¡zk": 1274,
      "uk": 1275,
      "Ġebk": 1276,
      "ĠinÄĽ": 1277,
      "Ġpn": 1278,
      "Ġakr": 1279,
      "Ġole": 1280,
      "ĠÃ©Äį": 1281,
      "ĠÃ½h": 1282,
      "Ġasem": 1283,
      "Ġyne": 1284,
      "ĠovÃ¡": 1285,
      "Ġsvou": 1286,
      "ĠÃŃlÃŃ": 1287,
      "Ġzpr": 1288,
      "stvÃŃ": 1289,
      "Ġef": 1290,
      "ĠanÄį": 1291,
      "Ġgr": 1292,
      "ÄĽv": 1293,
      "Ġoct": 1294,
      "Ġadc": 1295,
      "Ġene": 1296,
      "ĠumÅĻ": 1297,
      "ĠÃŃbr": 1298,
      "ĠomÅ¯": 1299,
      "Ġond": 1300,
      "ĠlÅ¾": 1301,
      "ĠÃŃru": 1302,
      "ĠavÃ©": 1303,
      "ĠÄĽtem": 1304,
      "er": 1305,
      "Ġzrak": 1306,
      "ĠÃŃmÃ¡": 1307,
      "ach": 1308,
      "ud": 1309,
      "ĠÃ¡dÃ¡": 1310,
      "ĠÃ¡dh": 1311,
      "Ġudk": 1312,
      "Ġomst": 1313,
      "Ġzbl": 1314,
      "ĠoÅ¡l": 1315,
      "ĠÃŃvÄį": 1316,
      "Ġ1800": 1317,
      "Ġany": 1318,
      "CBC": 1319,
      "Ġobu": 1320,
      "ĠÃŃtÃ¡": 1321,
      "Ġodm": 1322,
      "os": 1323,
      "ĠÃ¡Å¡Å¥": 1324,
      "ĠilÃ½": 1325,
      "Ġedm": 1326,
      "Ġhm": 1327,
      "ĠÃ½Å¾": 1328,
      "ĠÄĽtÃŃ": 1329,
      "ÃŃk": 1330,
      "ĠÅ¯p": 1331,
      "ĠopÅĻ": 1332,
      "ĠXXABAB": 1333,
      "Ġestl": 1334,
      "ĠelÃ½": 1335,
      "Ġour": 1336,
      "ĠÃºÅ¾": 1337,
      "Ġeru": 1338,
      "ĠvzkÅĻ": 1339,
      "Ġovi": 1340,
      "iv": 1341,
      "Ġovu": 1342,
      "Ġedv": 1343,
      "Ġerk": 1344,
      "Ġovy": 1345,
      "Ġvzb": 1346,
      "Ġouti": 1347,
      "ĠÃ©dn": 1348,
      "Ġzc": 1349,
      "ĠÃ¡bl": 1350,
      "Ġedu": 1351,
      "ĠÄĽtÅĻ": 1352,
      "Ġzvl": 1353,
      "Ġistr": 1354,
      "ĠÄĽta": 1355,
      "Ġunk": 1356,
      "ĠupÅĻ": 1357,
      "ĠÃŃly": 1358,
      "ĠÃ¡va": 1359,
      "ĠnÄĽ": 1360,
      "ĠeÅ¡Å¥": 1361,
      "Ġapr": 1362,
      "ĠanÃ½": 1363,
      "ĠABBACC": 1364,
      "ĠjiÅ¾": 1365,
      "ĠovÅ¡": 1366,
      "ĠacÃŃ": 1367,
      "Ġota": 1368,
      "Ġine": 1369,
      "ĠsvÃ©": 1370,
      "ĠrÃ¡d": 1371,
      "ĠovÃŃ": 1372,
      "Ġalm": 1373,
      "Ġydl": 1374,
      "ĠapÅĻ": 1375,
      "Ġeni": 1376,
      "us": 1377,
      "ĠÃ¡vr": 1378,
      "ĠekÃ¡": 1379,
      "Ġybn": 1380,
      "ĠoÅĻi": 1381,
      "ĠÃ¡Äįe": 1382,
      "Ġavl": 1383,
      "ĠÃŃte": 1384,
      "Ġdnes": 1385,
      "Ġmst": 1386,
      "ĠilÃ¡": 1387,
      "ĠestÅĻ": 1388,
      "Ġonk": 1389,
      "ĠuÅ¾k": 1390,
      "Ġodh": 1391,
      "Ġalk": 1392,
      "ĠÄĽjÅ¡ÃŃ": 1393,
      "ĠAXAA": 1394,
      "Ġuchu": 1395,
      "ĠovÃ½": 1396,
      "ĠXAABBX": 1397,
      "ĠÄĽÅ¡t": 1398,
      "ĠaÅ¡t": 1399,
      "Ġizb": 1400,
      "Ġazp": 1401,
      "ĠudÃŃ": 1402,
      "Ġtak": 1403,
      "ov": 1404,
      "ĠtÄĽ": 1405,
      "ĠÃ¡cl": 1406,
      "ĠÄĽÅ¡n": 1407,
      "ĠovÄĽ": 1408,
      "Ġani": 1409,
      "ĠÄĽdÄį": 1410,
      "aÅĪ": 1411,
      "ĠÃŃÅ¡e": 1412,
      "Ġednou": 1413,
      "ĠvÃŃc": 1414,
      "Ġuky": 1415,
      "ĠÃ¡ÄįÃŃ": 1416,
      "ĠÃ©tl": 1417,
      "ĠvÄĽ": 1418,
      "Ġodb": 1419,
      "ĠavÅ¡": 1420,
      "ĠÃŃkÅ¯": 1421,
      "ĠÃŃnu": 1422,
      "Ġabr": 1423,
      "Ġlt": 1424,
      "Ġezv": 1425,
      "ĠatÃ¡": 1426,
      "ĠsmÃŃch": 1427,
      "Ġejl": 1428,
      "Ġmu": 1429,
      "ĠÄĽdn": 1430,
      "Ġubn": 1431,
      "Ġava": 1432,
      "Ġia": 1433,
      "Ġill": 1434,
      "ĠÄĽtu": 1435,
      "Ġtam": 1436,
      "Ġovc": 1437,
      "ĠÄĽlÃ½": 1438,
      "Ġasm": 1439,
      "Ġitl": 1440,
      "Ġoes": 1441,
      "Ġunn": 1442,
      "ĠAABCBC": 1443,
      "Ġial": 1444,
      "ĠelÃ©": 1445,
      "ĠolÃ¡": 1446,
      "ob": 1447,
      "ĠÃŃÅĪ": 1448,
      "ĠizÃŃ": 1449,
      "Ġorsk": 1450,
      "Ġatc": 1451,
      "ĠenÄĽ": 1452,
      "Ġesv": 1453,
      "ĠadÄĽ": 1454,
      "Ġalv": 1455,
      "ĠÃ¡lc": 1456,
      "ĠadÃŃ": 1457,
      "Ġrchl": 1458,
      "Ġouze": 1459,
      "ĠÃ¡bn": 1460,
      "ĠÃ¡vÄĽ": 1461,
      "ĠiÃŃ": 1462,
      "ĠahÃ¡": 1463,
      "Ġaty": 1464,
      "ĠavÃ¡": 1465,
      "ĠÄĽle": 1466,
      "Ġetu": 1467,
      "Ġlv": 1468,
      "Ġelsk": 1469,
      "Ġanb": 1470,
      "ĠÃ¡vy": 1471,
      "Ġozr": 1472,
      "Ġcv": 1473,
      "Ġeod": 1474,
      "ĠX": 1475,
      "Ã¡z": 1476,
      "Ġasti": 1477,
      "Ġkrev": 1478,
      "ich": 1479,
      "Ġell": 1480,
      "Ġetr": 1481,
      "ĠÃŃdk": 1482,
      "ĠÄĽlÃ¡": 1483,
      "Ġaku": 1484,
      "Ġomk": 1485,
      "ĠÃ¡lÃŃ": 1486,
      "sv": 1487,
      "Ġozkv": 1488,
      "Ã¡r": 1489,
      "ĠmnÄĽ": 1490,
      "ĠÄįn": 1491,
      "ĠÅ¯t": 1492,
      "ĠÃ¡dr": 1493,
      "ĠodÅĻ": 1494,
      "ĠusÅ¥": 1495,
      "ĠÃ¡val": 1496,
      "ĠÅ¯ln": 1497,
      "Ġehd": 1498,
      "ĠeÅĻÃŃ": 1499,
      "uÄı": 1500,
      "ĠouÅ¾ÃŃ": 1501,
      "Ġisl": 1502,
      "Ġytk": 1503,
      "Ġstkv": 1504,
      "Ġudu": 1505,
      "ĠouÄįk": 1506,
      "ĠusÃŃ": 1507,
      "ĠevÅ¡": 1508,
      "ĠÃ¡Å¥": 1509,
      "Ã½t": 1510,
      "Ġaps": 1511,
      "Ġeum": 1512,
      "Ġidu": 1513,
      "ĠasÅ¥": 1514,
      "Ġrdce": 1515,
      "ĠÃ½ti": 1516,
      "Ġitv": 1517,
      "ĠnÃ¡m": 1518,
      "ĠeÅ¡n": 1519,
      "Ġamn": 1520,
      "ĠÃ½kÅĻ": 1521,
      "ĠytÃŃ": 1522,
      "ĠemÅĻ": 1523,
      "Ġehc": 1524,
      "ĠÃ©d": 1525,
      "te": 1526,
      "eÄı": 1527,
      "ĠÅ¯nÄĽ": 1528,
      "Ġanstv": 1529,
      "ĠouÅ¡k": 1530,
      "Ġovl": 1531,
      "ĠÃ¡mk": 1532,
      "ĠÃ¡dÃŃ": 1533,
      "ĠolÅ¯": 1534,
      "Ġubl": 1535,
      "ĠÄĽvn": 1536,
      "ĠAABBXX": 1537,
      "ĠÃŃhl": 1538,
      "Ġechv": 1539,
      "ĠiÅ¡e": 1540,
      "ĠÃ¡je": 1541,
      "Ġyhl": 1542,
      "Ġesy": 1543,
      "ik": 1544,
      "ĠÃ©p": 1545,
      "ĠanÅ¾": 1546,
      "Ġemstv": 1547,
      "Ġdech": 1548,
      "ĠalÃ½": 1549,
      "Ġoho": 1550,
      "ĠimÅ¾": 1551,
      "Ġezb": 1552,
      "Ġytr": 1553,
      "ĠodÄĽ": 1554,
      "Ġavc": 1555,
      "ĠokÅĻ": 1556,
      "ĠivÄĽ": 1557,
      "ĠÄĽjn": 1558,
      "ĠystÅĻ": 1559,
      "Ġyzn": 1560,
      "Ġichr": 1561,
      "Ġukou": 1562,
      "ĠÄĽji": 1563,
      "Ġaur": 1564,
      "ĠÃŃka": 1565,
      "ĠÃºk": 1566,
      "ĠoÅ¡t": 1567,
      "Ġehr": 1568,
      "Ġohou": 1569,
      "ĠÃŃÅ¥": 1570,
      "ĠaÄı": 1571,
      "ĠÅ¯Å¾k": 1572,
      "ĠoÅ¾stv": 1573,
      "Ġotl": 1574,
      "Ġejkr": 1575,
      "ĠABBAXX": 1576,
      "ĠÃŃny": 1577,
      "Ġoumr": 1578,
      "Ġodt": 1579,
      "ĠavÅ¾d": 1580,
      "ĠzpÄĽt": 1581,
      "ĠeÄįÃŃ": 1582,
      "ĠÃ¡dl": 1583,
      "Ġald": 1584,
      "Å¯h": 1585,
      "ĠÃ¡ct": 1586,
      "Ġakv": 1587,
      "Ġeml": 1588,
      "ĠÄĽty": 1589,
      "ĠtvÃ¡ÅĻ": 1590,
      "Ġotu": 1591,
      "ĠÄĽny": 1592,
      "Ġapk": 1593,
      "Ġada": 1594,
      "Ġoly": 1595,
      "Ġanu": 1596,
      "ĠÃ¡mi": 1597,
      "ĠÃŃmn": 1598,
      "Ġola": 1599,
      "ĠÅ¡tv": 1600,
      "Ġedy": 1601,
      "ĠAAXA": 1602,
      "ĠÄĽlÃ©": 1603,
      "ĠÃ¡ÅĻn": 1604,
      "Ġajsk": 1605,
      "Ġ28": 1606,
      "Ġachu": 1607,
      "ĠmÅ¯j": 1608,
      "Ġuhu": 1609,
      "Ġozpl": 1610,
      "ĠumÃŃ": 1611,
      "Ġaji": 1612,
      "Ġex": 1613,
      "Ġian": 1614,
      "ĠÃŃku": 1615,
      "Ġedk": 1616,
      "ĠstÃŃn": 1617,
      "ĠÃ¡nu": 1618,
      "ABBA": 1619,
      "Ã¡k": 1620,
      "Ġevz": 1621,
      "ĠuÄįk": 1622,
      "ĠABABAB": 1623,
      "ĠnÃ¡s": 1624,
      "Ġosb": 1625,
      "ĠÃ½Å¡l": 1626,
      "Ġdal": 1627,
      "Ġrchn": 1628,
      "Ġibk": 1629,
      "Ġede": 1630,
      "ĠaÅ¡e": 1631,
      "ĠbÅ¯h": 1632,
      "Ġlhk": 1633,
      "Ġymn": 1634,
      "Ġoty": 1635,
      "ĠsnÃŃ": 1636,
      "Ġschv": 1637,
      "ĠÃ©Äįk": 1638,
      "ĠtÃ©": 1639,
      "Ġekt": 1640,
      "Ġfl": 1641,
      "ĠÄįtv": 1642,
      "ĠouÅ¥": 1643,
      "ĠÃ½zn": 1644,
      "Ġoubk": 1645,
      "Ġoky": 1646,
      "Ġrpk": 1647,
      "ĠeÅ¡tÄĽ": 1648,
      "Ġadne": 1649,
      "Ġyhn": 1650,
      "Ġort": 1651,
      "Ġobd": 1652,
      "ĠÅ¯ÅĪ": 1653,
      "Ġavil": 1654,
      "ĠasÅ¯": 1655,
      "Ġodst": 1656,
      "Ġechu": 1657,
      "ĠiÄįky": 1658,
      "Ġonu": 1659,
      "Ġorm": 1660,
      "ĠÃ¡da": 1661,
      "ĠÃŃnÄĽ": 1662,
      "ĠÃ¡Å¾d": 1663,
      "Ġmne": 1664,
      "ĠÃ½lÃŃ": 1665,
      "ĠÄĽln": 1666,
      "ĠÄĽp": 1667,
      "Ġapn": 1668,
      "ĠbÃ½t": 1669,
      "Ġarl": 1670,
      "Å¡Å¥": 1671,
      "esk": 1672,
      "ci": 1673,
      "Ġrsn": 1674,
      "ĠÃŃlÃ½": 1675,
      "ĠXXA": 1676,
      "ĠouÅĻn": 1677,
      "Ġss": 1678,
      "ÄĽzd": 1679,
      "ĠhvÄĽzd": 1680,
      "ist": 1681,
      "ĠÄĽÅ¾c": 1682,
      "ĠestÃŃ": 1683,
      "ĠenÃ½ch": 1684,
      "Ġudc": 1685,
      "ĠÄĽte": 1686,
      "Ġamen": 1687,
      "Ġmh": 1688,
      "Ġenu": 1689,
      "Ġahy": 1690,
      "ĠokÅ¯": 1691,
      "ĠaÅ¾Å¡": 1692,
      "ĠmÃ©": 1693,
      "ĠÃ¡nÃŃm": 1694,
      "ĠÃŃla": 1695,
      "ĠohÅĻb": 1696,
      "Ġety": 1697,
      "ĠÃºÄį": 1698,
      "ĠednÃŃ": 1699,
      "ĠelÃŃ": 1700,
      "ĠÃ¡tky": 1701,
      "Ġvzhl": 1702,
      "Ġzkr": 1703,
      "ĠÅ¯s": 1704,
      "Ġichl": 1705,
      "ĠÃŃky": 1706,
      "ĠitÅĻn": 1707,
      "ne": 1708,
      "Ġatky": 1709,
      "Ġojd": 1710,
      "ĠÄĽna": 1711,
      "Ġiku": 1712,
      "ĠevÃŃ": 1713,
      "yt": 1714,
      "ĠÄĽtÅ¯": 1715,
      "ĠaÅ¡ÃŃ": 1716,
      "Ġusl": 1717,
      "Ġals": 1718,
      "Ġoha": 1719,
      "Ġenb": 1720,
      "Ġesa": 1721,
      "Ġams": 1722,
      "Ġont": 1723,
      "BB": 1724,
      "Ġedne": 1725,
      "Ġochv": 1726,
      "ĠaÅ¡k": 1727,
      "ĠÃ¡sy": 1728,
      "Ġurp": 1729,
      "Ġeme": 1730,
      "Ġorem": 1731,
      "ĠiÅĪ": 1732,
      "Ġovst": 1733,
      "Ġosud": 1734,
      "ĠÃ¡zd": 1735,
      "Ġato": 1736,
      "Ġohy": 1737,
      "ĠezÅĻ": 1738,
      "ĠÃŃÅ¡n": 1739,
      "ĠÃ¡Å¾e": 1740,
      "Ġoutk": 1741,
      "Ġeti": 1742,
      "Ġypl": 1743,
      "ĠlÄįk": 1744,
      "Ġoba": 1745,
      "Ġama": 1746,
      "ĠurÄį": 1747,
      "ĠÄĽzstv": 1748,
      "Ġyje": 1749,
      "ĠenÃŃm": 1750,
      "ĠkrÃ¡l": 1751,
      "Ġasv": 1752,
      "Ġoda": 1753,
      "ĠÃ½sl": 1754,
      "ĠÄĽvc": 1755,
      "Ġarf": 1756,
      "Ġystr": 1757,
      "ĠeÃ¡l": 1758,
      "Ġozs": 1759,
      "Ġebou": 1760,
      "ĠemnÄĽ": 1761,
      "Ġesla": 1762,
      "ĠÃŃlk": 1763,
      "ĠÄĽÅĻÃŃ": 1764,
      "Ġupr": 1765,
      "ĠÃŃhÃ¡": 1766,
      "ĠÃºtr": 1767,
      "Ġytl": 1768,
      "Ġvkr": 1769,
      "Ġzhl": 1770,
      "Ġeust": 1771,
      "ĠÃŃsm": 1772,
      "ĠÅĻv": 1773,
      "Ġitu": 1774,
      "ĠÃ¡vu": 1775,
      "Ãº": 1776,
      "ĠÃºr": 1777,
      "ĠitÄĽ": 1778,
      "XXA": 1779,
      "Ġojm": 1780,
      "Ġog": 1781,
      "ĠÄĽvu": 1782,
      "ic": 1783,
      "Ġony": 1784,
      "ĠmÄĽ": 1785,
      "ĠsvÃ½m": 1786,
      "Ġukn": 1787,
      "Ġoko": 1788,
      "Ġudy": 1789,
      "Ġspj": 1790,
      "ĠmÄĽl": 1791,
      "Ġklid": 1792,
      "Ġickn": 1793,
      "ĠÃ©sti": 1794,
      "ĠotÄĽ": 1795,
      "Ġnoc": 1796,
      "ĠyÅ¡t": 1797,
      "ĠÄĽtÄĽ": 1798,
      "ĠocÃŃ": 1799,
      "ĠÃ¡Å¡l": 1800,
      "Ġozdn": 1801,
      "Ġipr": 1802,
      "ĠsvÃ½ch": 1803,
      "ĠÃ¡ck": 1804,
      "Ġepn": 1805,
      "Ġodch": 1806,
      "ĠelÃ¡": 1807,
      "Ġaks": 1808,
      "Ġatu": 1809,
      "ĠosÃŃ": 1810,
      "Ġula": 1811,
      "Ġinsk": 1812,
      "Ġahu": 1813,
      "BX": 1814,
      "Ġatou": 1815,
      "Ġlkl": 1816,
      "ĠÃŃln": 1817,
      "ĠÃ©s": 1818,
      "ĠchÅĻ": 1819,
      "ĠÄĽku": 1820,
      "Ġusk": 1821,
      "Ġadla": 1822,
      "Ġalb": 1823,
      "Ġacht": 1824,
      "Ġivl": 1825,
      "Ġedc": 1826,
      "Ġemu": 1827,
      "ĠstÃ¡l": 1828,
      "XABB": 1829,
      "Ġdb": 1830,
      "Ġivou": 1831,
      "Ġozj": 1832,
      "ĠiÅ¾n": 1833,
      "Ġord": 1834,
      "Ġesu": 1835,
      "ÄĽn": 1836,
      "ct": 1837,
      "Ġth": 1838,
      "ĠÃ¡tr": 1839,
      "Ġti": 1840,
      "Ġerstv": 1841,
      "ĠvÅ¡ech": 1842,
      "Ġvh": 1843,
      "Ġurk": 1844,
      "ĠuzÅĻ": 1845,
      "Ġiskl": 1846,
      "Ġotkn": 1847,
      "ĠÅ¾al": 1848,
      "Ġaha": 1849,
      "ĠeÄįe": 1850,
      "Ġlid": 1851,
      "Ġelstv": 1852,
      "ĠarÅ¡": 1853,
      "ĠÅ¯dn": 1854,
      "Ġece": 1855,
      "ĠynÃŃ": 1856,
      "Ġunce": 1857,
      "ii": 1858,
      "Ġyrv": 1859,
      "ĠopÃŃ": 1860,
      "Ġduch": 1861,
      "ĠÃºl": 1862,
      "Ġadb": 1863,
      "ĠÃ¡Å¾ÃŃ": 1864,
      "ĠicÃŃ": 1865,
      "Ġhb": 1866,
      "ĠiskÅĻ": 1867,
      "Ġuhd": 1868,
      "ĠmÃ¡m": 1869,
      "str": 1870,
      "Ġochr": 1871,
      "ĠÄĽhl": 1872,
      "ĠilÃ©": 1873,
      "oud": 1874,
      "ĠÃ¡se": 1875,
      "Ġsnad": 1876,
      "ĠspÅĻ": 1877,
      "Ġebi": 1878,
      "Ġcit": 1879,
      "Ġuhy": 1880,
      "Ġall": 1881,
      "Ġeta": 1882,
      "Ġund": 1883,
      "Ġven": 1884,
      "ĠÃ¡kl": 1885,
      "ĠoÅ¾e": 1886,
      "ĠoÅĻsk": 1887,
      "Ġibl": 1888,
      "Ġekr": 1889,
      "Ġrve": 1890,
      "Ġtkl": 1891,
      "ĠÃŃÄįn": 1892,
      "ĠÄĽvy": 1893,
      "ĠÃŃseÅĪ": 1894,
      "eÅ¡": 1895,
      "kn": 1896,
      "ĠozÅ¾": 1897,
      "Ġelem": 1898,
      "Ġuka": 1899,
      "ĠABA": 1900,
      "ĠXAXABB": 1901,
      "ĠÅ¯b": 1902,
      "Ġcl": 1903,
      "Ġles": 1904,
      "Ġepc": 1905,
      "ĠudÃ©": 1906,
      "Ġyjd": 1907,
      "ĠuÄıt": 1908,
      "Ġhned": 1909,
      "ĠeÄįi": 1910,
      "Ġtu": 1911,
      "ĠAXXA": 1912,
      "ĠsnÃŃh": 1913,
      "Ġejp": 1914,
      "ĠÃŃÅĻÃŃ": 1915,
      "ĠaÅ¾n": 1916,
      "ĠÃ¡ji": 1917,
      "Ġvch": 1918,
      "Ġdm": 1919,
      "ĠÄĽcht": 1920,
      "Ġatem": 1921,
      "ĠinÃ½": 1922,
      "Ġold": 1923,
      "ĠyÅĪ": 1924,
      "Ġovzd": 1925,
      "ĠÃŃsnÃŃ": 1926,
      "Ġalt": 1927,
      "Ġeba": 1928,
      "Ġint": 1929,
      "ĠanÃ¡": 1930,
      "Ġyly": 1931,
      "Ġebl": 1932,
      "chl": 1933,
      "Ġobc": 1934,
      "Ġakem": 1935,
      "Ġiat": 1936,
      "Ġorc": 1937,
      "ĠahÅĻ": 1938,
      "ĠÃ©tn": 1939,
      "Ġif": 1940,
      "ĠichÅĻ": 1941,
      "Ġazv": 1942,
      "Ġamb": 1943,
      "Ġlst": 1944,
      "Ġodil": 1945,
      "om": 1946,
      "Ġatb": 1947,
      "ĠatÄĽ": 1948,
      "Ġovo": 1949,
      "Ġovem": 1950,
      "ĠÄĽnk": 1951,
      "Ġadou": 1952,
      "ĠÃ¡hy": 1953,
      "ĠÄĽÄı": 1954,
      "Ã¡h": 1955,
      "Å¯v": 1956,
      "Ġupl": 1957,
      "Ġsem": 1958,
      "ĠalÃ¡": 1959,
      "ĠouÅ¡Å¥": 1960,
      "ĠiÄįka": 1961,
      "Ġjsou": 1962,
      "eÄį": 1963,
      "ÃŃr": 1964,
      "Ġmnou": 1965,
      "Ġult": 1966,
      "ĠÃŃna": 1967,
      "ĠÃŃcÃŃch": 1968,
      "ĠitÃ¡": 1969,
      "Ġijm": 1970,
      "ĠnÄĽm": 1971,
      "ĠazÃŃ": 1972,
      "Ġret": 1973,
      "Ġnich": 1974,
      "ĠÃŃrk": 1975,
      "Ġatl": 1976,
      "Ġochu": 1977,
      "Ġsd": 1978,
      "Ġejte": 1979,
      "ĠÄĽtla": 1980,
      "ĠonÄĽ": 1981,
      "ĠatÅĻÃŃ": 1982,
      "ĠÅ¯ÅĻ": 1983,
      "ĠoÅ¡n": 1984,
      "Ġozhl": 1985,
      "Ġuji": 1986,
      "ĠzpÄĽv": 1987,
      "Ġism": 1988,
      "Ġai": 1989,
      "Ġrti": 1990,
      "ĠivÅ¡": 1991,
      "ĠoÅ¾k": 1992,
      "Ġalu": 1993,
      "Ġytu": 1994,
      "Ġejhl": 1995,
      "ĠjÃŃ": 1996,
      "ĠnÃŃm": 1997,
      "ĠÃŃra": 1998,
      "ĠÃ½val": 1999,
      "Ġouzn": 2000,
      "Ġesti": 2001,
      "ĠÃŃlÃ©": 2002,
      "Ġedla": 2003,
      "Ġoce": 2004,
      "Ġoka": 2005,
      "Ġoma": 2006,
      "ĠiÄįku": 2007,
      "Å¡ÃŃ": 2008,
      "Ġeob": 2009,
      "ĠejÅ¡ÃŃ": 2010,
      "ĠÃ¡sÃ¡": 2011,
      "ĠÃ¡ru": 2012,
      "Ġeth": 2013,
      "Ġuvn": 2014,
      "Ġang": 2015,
      "eh": 2016,
      "Ã½Å¡": 2017,
      "Ġerm": 2018,
      "Ġecko": 2019,
      "ĠXXAABB": 2020,
      "ĠÃ©bk": 2021,
      "ĠaÅĻÃŃ": 2022,
      "ĠÃŃdla": 2023,
      "ĠÃ©tÃ¡": 2024,
      "Ġdost": 2025,
      "Ġodc": 2026,
      "ĠahÃ½": 2027,
      "ĠÃ©Å¡Å¥": 2028,
      "Ġekv": 2029,
      "ÄĽs": 2030,
      "ĠAAXB": 2031,
      "ĠÃ¡ska": 2032,
      "Ġeji": 2033,
      "Ġista": 2034,
      "ĠblÃŃÅ¾": 2035,
      "Ġoutl": 2036,
      "ĠobÄį": 2037,
      "Ġilou": 2038,
      "ĠÃŃrkv": 2039,
      "ĠiÅ¡Å¥": 2040,
      "ĠÃŃjÃŃ": 2041,
      "ĠÃ¡ÅĻk": 2042,
      "ĠÅ¯ru": 2043,
      "Ġoet": 2044,
      "Ġath": 2045,
      "ĠikÃ¡": 2046,
      "Ġovou": 2047,
      "ĠakÅ¯": 2048,
      "Ġils": 2049,
      "Ġivy": 2050,
      "ĠenstvÃŃ": 2051,
      "Ġana": 2052,
      "ĠiÅ¾k": 2053,
      "ĠÅ¡kl": 2054,
      "ĠrÅ¥": 2055,
      "ĠÃ½p": 2056,
      "Ã¡j": 2057,
      "aj": 2058,
      "Ġ29": 2059,
      "ĠynÄĽ": 2060,
      "ĠÃ½Å¡t": 2061,
      "Ġetch": 2062,
      "ĠÃ¡ry": 2063,
      "Ġaze": 2064,
      "ĠÃŃkl": 2065,
      "ĠoÅ¡k": 2066,
      "Ġavk": 2067,
      "Ġictv": 2068,
      "Ġstm": 2069,
      "Ġestu": 2070,
      "ĠÄĽnÃ©": 2071,
      "ĠÃŃkr": 2072,
      "ĠÄĽru": 2073,
      "Ġcn": 2074,
      "ĠÅ¯rc": 2075,
      "ĠÃºtl": 2076,
      "Ġomy": 2077,
      "ĠtÃ©Å¾": 2078,
      "ĠorÅ¡": 2079,
      "Ġesku": 2080,
      "Ġudi": 2081,
      "Ġhor": 2082,
      "ĠijÃŃ": 2083,
      "ĠÃŃkem": 2084,
      "ĠistÅĻ": 2085,
      "ĠÃŃdÃ¡": 2086,
      "nÃ©m": 2087,
      "Ġods": 2088,
      "Ġaru": 2089,
      "ĠteÄı": 2090,
      "Ġess": 2091,
      "Ġovzn": 2092,
      "ĠÄĽnÄį": 2093,
      "Ġtkv": 2094,
      "Ġvj": 2095,
      "ĠvÃ¡m": 2096,
      "Ġjas": 2097,
      "Ġvlas": 2098,
      "Ġsj": 2099,
      "ĠrtÃŃ": 2100,
      "ĠiÄįÃŃ": 2101,
      "ĠzÃ¡ÅĻ": 2102,
      "Ġejsk": 2103,
      "ĠÃŃral": 2104,
      "ĠaÅ¾ÃŃ": 2105,
      "Ġign": 2106,
      "ĠpÃ¡n": 2107,
      "Ġovstv": 2108,
      "ĠÃ¡til": 2109,
      "ĠÃºct": 2110,
      "Ġujt": 2111,
      "ĠÄĽky": 2112,
      "ĠenÃ½m": 2113,
      "Ġudl": 2114,
      "ĠÃŃtil": 2115,
      "ĠinÃ¡ch": 2116,
      "Ġodj": 2117,
      "Ġousl": 2118,
      "ĠÄĽchu": 2119,
      "ĠÃ¡tc": 2120,
      "ĠÃŃÅĻe": 2121,
      "Ġiky": 2122,
      "ĠÃ¡Äįi": 2123,
      "Ġier": 2124,
      "Ġomt": 2125,
      "ĠÃ½c": 2126,
      "ĠinÃ©": 2127,
      "Ġedst": 2128,
      "Ġass": 2129,
      "Ġvzch": 2130,
      "ĠÃ¡sku": 2131,
      "Ġsf": 2132,
      "ĠrÄįm": 2133,
      "ĠÃŃlÃ¡": 2134,
      "Ġumdl": 2135,
      "ĠÃ¡Å¡ÃŃ": 2136,
      "ĠÃºn": 2137,
      "ĠXXXA": 2138,
      "Ġeden": 2139,
      "Ġivd": 2140,
      "Ġsvit": 2141,
      "Ġoskv": 2142,
      "ĠetÃ¡": 2143,
      "ĠivÃŃ": 2144,
      "Ġsc": 2145,
      "ĠÃ¡rk": 2146,
      "Ġizn": 2147,
      "Ġoudc": 2148,
      "Ġivot": 2149,
      "ĠauÄį": 2150,
      "ĠoudÃŃ": 2151,
      "ĠalÃ©": 2152,
      "Ġyli": 2153,
      "ĠuÅ¡l": 2154,
      "ĠÃ©dl": 2155,
      "ĠÃŃÅ¾d": 2156,
      "ĠÅ¾n": 2157,
      "Ġium": 2158,
      "Ġobk": 2159,
      "Ġycht": 2160,
      "ĠvÃ¡s": 2161,
      "ĠÄĽhu": 2162,
      "ah": 2163,
      "Ġnic": 2164,
      "Ġence": 2165,
      "Ã¡ÅĪ": 2166,
      "ĠesÃ¡": 2167,
      "bl": 2168,
      "Ġevzd": 2169,
      "ĠyÅ¡el": 2170,
      "Ġerc": 2171,
      "ĠÄĽdr": 2172,
      "Ġby": 2173,
      "Ġeku": 2174,
      "ĠistÃŃ": 2175,
      "Ġytm": 2176,
      "ĠeÄıt": 2177,
      "Ġrzk": 2178,
      "ĠsÅĪ": 2179,
      "ĠiÄı": 2180,
      "Ġechl": 2181,
      "ĠÃŃÅ¡k": 2182,
      "ĠlÃŃc": 2183,
      "Ġstl": 2184,
      "Ġachr": 2185,
      "Ġcest": 2186,
      "ĠÃ¡rl": 2187,
      "ĠÃŃho": 2188,
      "Ġezdn": 2189,
      "oh": 2190,
      "Ġolsk": 2191,
      "ĠÃ¡tku": 2192,
      "Ġatku": 2193,
      "Ġesky": 2194,
      "Ġodpl": 2195,
      "ĠÃŃsnÄĽ": 2196,
      "ĠÃŃÄįek": 2197,
      "ĠchtÄĽl": 2198,
      "ĠÃŃchu": 2199,
      "Ġichu": 2200,
      "ĠÃŃvat": 2201,
      "Ġovk": 2202,
      "ĠÅ¾ÃŃt": 2203,
      "ĠoubÃŃ": 2204,
      "Ġedem": 2205,
      "Ġudou": 2206,
      "ĠvstÅĻÃŃc": 2207,
      "Ġjej": 2208,
      "Ġevl": 2209,
      "ĠeÅĻe": 2210,
      "Ġysi": 2211,
      "Ġidm": 2212,
      "Ġynou": 2213,
      "Ġoni": 2214,
      "Ġicha": 2215,
      "Ġerou": 2216,
      "Ġetem": 2217,
      "Ġelc": 2218,
      "Ġuchem": 2219,
      "Ġezr": 2220,
      "Ġozdv": 2221,
      "Ġmou": 2222,
      "Ġale": 2223,
      "Ġeka": 2224,
      "ĠAAAX": 2225,
      "ĠÄĽsta": 2226,
      "ĠoudÅĻ": 2227,
      "ĠÄĽtc": 2228,
      "ĠÄĽmc": 2229,
      "Ġotem": 2230,
      "ĠÃ¡pl": 2231,
      "Ġora": 2232,
      "Ġzjev": 2233,
      "ĠÃºs": 2234,
      "ĠÄĽdk": 2235,
      "Ġoudn": 2236,
      "Ġimi": 2237,
      "Ġycky": 2238,
      "Ġett": 2239,
      "ĠAX": 2240,
      "Ġekla": 2241,
      "ĠÃ¡my": 2242,
      "Ġepj": 2243,
      "ĠeÃº": 2244,
      "Ġsvl": 2245,
      "Ġynk": 2246,
      "ĠÃ½d": 2247,
      "Ġrtn": 2248,
      "Ġzvr": 2249,
      "ĠastÅĻ": 2250,
      "ĠÄĽjt": 2251,
      "Ġho": 2252,
      "Ġadem": 2253,
      "ĠÄĽnou": 2254,
      "ĠinÃŃ": 2255,
      "Ã©st": 2256,
      "Ġadlo": 2257,
      "chv": 2258,
      "ĠABABAX": 2259,
      "Ġactv": 2260,
      "Ġenem": 2261,
      "ĠÃ¡nsk": 2262,
      "Ġaut": 2263,
      "Ġouzv": 2264,
      "ĠÃ¡Å¡tn": 2265,
      "Ġsmr": 2266,
      "ĠÃŃstk": 2267,
      "ĠÄĽtlo": 2268,
      "ĠÃ½Äįk": 2269,
      "ĠÃ¡ce": 2270,
      "ĠÄĽlÃŃ": 2271,
      "ĠznÃŃ": 2272,
      "Ġarsk": 2273,
      "Ġousk": 2274,
      "ĠÄĽlsk": 2275,
      "Ġumy": 2276,
      "ĠÃ¡dy": 2277,
      "Ġeskem": 2278,
      "Ġeur": 2279,
      "Ġvb": 2280,
      "ĠoupÃ¡": 2281,
      "ĠvÅ¡em": 2282,
      "Ġuly": 2283,
      "Ġynu": 2284,
      "ĠlnÃŃ": 2285,
      "Ġokv": 2286,
      "ĠoÅĻil": 2287,
      "ÄĽst": 2288,
      "ĠÃŃzr": 2289,
      "Ġade": 2290,
      "ĠpÅĻec": 2291,
      "Ġzpl": 2292,
      "ĠÃŃÄįka": 2293,
      "Ġten": 2294,
      "Ġahou": 2295,
      "Ġara": 2296,
      "ĠeÅ¾t": 2297,
      "Ġarb": 2298,
      "ĠiÅ¡k": 2299,
      "ĠÄĽnÃ½": 2300,
      "ĠÃ¡hne": 2301,
      "ĠÃŃml": 2302,
      "ĠÄĽlk": 2303,
      "Ġvzal": 2304,
      "ĠomÃŃ": 2305,
      "ĠvzÅĪ": 2306,
      "Ġack": 2307,
      "Ġvzdech": 2308,
      "Ġw": 2309,
      "ĠoÅ¾il": 2310,
      "Ġejr": 2311,
      "ĠklÃŃn": 2312,
      "ĠakÅ¾": 2313,
      "Ġechem": 2314,
      "Ġmrak": 2315,
      "Ġobt": 2316,
      "ĠÃŃmsk": 2317,
      "Ġend": 2318,
      "ĠXXABBA": 2319,
      "ĠenÄį": 2320,
      "ĠozÅ¡": 2321,
      "ĠÄĽvem": 2322,
      "Ġuzd": 2323,
      "Ġucha": 2324,
      "ĠÄĽsÃŃ": 2325,
      "ĠXXAAXX": 2326,
      "Ġing": 2327,
      "ĠeÅĻi": 2328,
      "Ġozpr": 2329,
      "ĠenÅ¡": 2330,
      "ĠÄĽda": 2331,
      "Ġodvr": 2332,
      "Ġprach": 2333,
      "Ġobs": 2334,
      "Ġhled": 2335,
      "ĠasnÃ©": 2336,
      "Ġovr": 2337,
      "Ġonz": 2338,
      "ĠÃ½z": 2339,
      "ĠÃºb": 2340,
      "Ġarch": 2341,
      "is": 2342,
      "ĠnÃ¡Å¡": 2343,
      "Ġysv": 2344,
      "ĠÃ¡nek": 2345,
      "Ġvsk": 2346,
      "ĠedÄĽl": 2347,
      "Ġezt": 2348,
      "ĠptÃ¡k": 2349,
      "ĠÃ¡Å¾c": 2350,
      "ĠÃ¡str": 2351,
      "ĠkÅĻÃŃÅ¾": 2352,
      "ĠÃ¡nb": 2353,
      "Ġetla": 2354,
      "az": 2355,
      "Ġymb": 2356,
      "Ġouhy": 2357,
      "Ġius": 2358,
      "ĠsvÃ©m": 2359,
      "ĠÃŃckr": 2360,
      "Ġajk": 2361,
      "eÅ¾": 2362,
      "Ġistv": 2363,
      "ĠÃŃlu": 2364,
      "Ġpak": 2365,
      "Ġeky": 2366,
      "Ġemnou": 2367,
      "ĠÃŃÄįku": 2368,
      "ĠidÄĽl": 2369,
      "Ġouhou": 2370,
      "Ġvzm": 2371,
      "Ġples": 2372,
      "ĠyÅ¡ÃŃ": 2373,
      "ĠÃ¡dce": 2374,
      "Ġupc": 2375,
      "ĠejÄį": 2376,
      "Ġary": 2377,
      "ys": 2378,
      "ĠorÅ¯": 2379,
      "ĠarÃ½": 2380,
      "ĠytÅĻ": 2381,
      "yn": 2382,
      "Ġalstv": 2383,
      "ĠadnÃ©": 2384,
      "ĠÄĽtÅ¡ÃŃ": 2385,
      "Ġersk": 2386,
      "Ġhrob": 2387,
      "Ġyln": 2388,
      "Ġbz": 2389,
      "ĠbÄĽ": 2390,
      "ĠvÃ½Å¡": 2391,
      "Ġzkl": 2392,
      "ĠuÅ¾e": 2393,
      "Ġenku": 2394,
      "ĠhruÄı": 2395,
      "ĠÃ½skÃ¡": 2396,
      "Ġona": 2397,
      "Ġilc": 2398,
      "ĠÃ¡nc": 2399,
      "ĠmuÅ¾": 2400,
      "ast": 2401,
      "ĠavÃ½m": 2402,
      "ĠvÅ¡ak": 2403,
      "Ġulk": 2404,
      "ĠovÃ½ch": 2405,
      "Ġyzv": 2406,
      "ĠbuÄı": 2407,
      "ĠÃºsv": 2408,
      "ĠlÅĪ": 2409,
      "Ġlny": 2410,
      "ĠXXXAXA": 2411,
      "ĠÃ¡men": 2412,
      "ĠÃ©mÄĽ": 2413,
      "Ġavb": 2414,
      "ih": 2415,
      "Ġoste": 2416,
      "Ġopt": 2417,
      "ĠXABAB": 2418,
      "ĠÄĽmi": 2419,
      "ĠÄĽkÅ¯": 2420,
      "Ġorstv": 2421,
      "Ġedou": 2422,
      "ĠÃ¡chn": 2423,
      "ĠdÄĽl": 2424,
      "Ġojt": 2425,
      "Ġouhl": 2426,
      "ĠrÃ¡z": 2427,
      "ĠÃ¡nku": 2428,
      "ĠitÃ©": 2429,
      "ĠojÃŃm": 2430,
      "Ġrdn": 2431,
      "Ġels": 2432,
      "Ġodou": 2433,
      "ĠoutÃŃ": 2434,
      "ĠÃ¡Å¾k": 2435,
      "osÅ¥": 2436,
      "Ġboj": 2437,
      "Ġosled": 2438,
      "ĠÃŃÅ¡l": 2439,
      "Ġumr": 2440,
      "ĠeÅ¾n": 2441,
      "ĠoÄįt": 2442,
      "ĠesÅ¯": 2443,
      "ĠÃ¡zal": 2444,
      "Ġosy": 2445,
      "Ġedal": 2446,
      "ĠtvÃ©": 2447,
      "ĠedÃ©": 2448,
      "ĠÅ¾d": 2449,
      "ĠaÅ¡i": 2450,
      "Ġectv": 2451,
      "Ġshr": 2452,
      "ÃŃl": 2453,
      "Ġect": 2454,
      "ĠouÅĻÃŃ": 2455,
      "ĠrÅ¡t": 2456,
      "Ġetv": 2457,
      "Ġkol": 2458,
      "Ġilj": 2459,
      "ĠÄĽls": 2460,
      "ĠÃ½chÃ¡": 2461,
      "ĠÅ¡el": 2462,
      "ĠÃ¡vk": 2463,
      "ĠeÄįt": 2464,
      "ĠÃ¡hle": 2465,
      "Ġopn": 2466,
      "Ġrnk": 2467,
      "Ġazk": 2468,
      "ĠovÃ½m": 2469,
      "Ġejsl": 2470,
      "ĠesÄį": 2471,
      "ĠtÃŃÅ¾": 2472,
      "ĠajÃŃc": 2473,
      "ĠstÃ¡t": 2474,
      "ĠinÄį": 2475,
      "Ġopy": 2476,
      "ĠÄĽsÅ¥": 2477,
      "Ġidem": 2478,
      "Ġskal": 2479,
      "Ġima": 2480,
      "Ġsnem": 2481,
      "ĠmÃŃt": 2482,
      "ĠouÅ¡tÃŃ": 2483,
      "Ġelou": 2484,
      "Ġymp": 2485,
      "ABXB": 2486,
      "Ġebes": 2487,
      "Ġchlad": 2488,
      "ĠdÅ¯m": 2489,
      "ĠÄĽka": 2490,
      "ĠvpÅĻ": 2491,
      "Ã³": 2492,
      "ĠdÃ¡t": 2493,
      "Ġesem": 2494,
      "Ġeslo": 2495,
      "Ġalc": 2496,
      "ĠvÃŃm": 2497,
      "Ġlist": 2498,
      "ĠÅ¾hn": 2499,
      "Ġvod": 2500,
      "ĠistÃ¡": 2501,
      "ĠÃŃnÃŃ": 2502,
      "ĠÄĽmu": 2503,
      "ĠalÄį": 2504,
      "ĠiÄįc": 2505,
      "Ġuln": 2506,
      "Ġdne": 2507,
      "Ġea": 2508,
      "Ġ30": 2509,
      "ĠÃŃÅ¾k": 2510,
      "ĠXABABX": 2511,
      "ĠivÃ½m": 2512,
      "Ġvpl": 2513,
      "Ġehu": 2514,
      "ĠÃ¡tko": 2515,
      "Ġyskl": 2516,
      "Ġipn": 2517,
      "Ġity": 2518,
      "Ġtom": 2519,
      "ĠickÃ½": 2520,
      "Ġostm": 2521,
      "Ġere": 2522,
      "ĠisÃŃ": 2523,
      "ĠeÃ¡n": 2524,
      "Ġapc": 2525,
      "Ġiva": 2526,
      "Ġeus": 2527,
      "Ġavsk": 2528,
      "ĠÄĽtstv": 2529,
      "ĠÃŃÅ¡Å¥": 2530,
      "Ġruch": 2531,
      "ĠadkÃ½": 2532,
      "Ġechy": 2533,
      "Ġorg": 2534,
      "Ġty": 2535,
      "Ġobch": 2536,
      "Ġykv": 2537,
      "Ġozbr": 2538,
      "ĠÄįest": 2539,
      "ĠÃºv": 2540,
      "ĠouÅĻl": 2541,
      "ĠrÅ¡k": 2542,
      "Ġalem": 2543,
      "ĠÃŃry": 2544,
      "ĠÃŃtÅĻ": 2545,
      "ĠÃŃsl": 2546,
      "ĠÄĽmÃ½": 2547,
      "ĠytÃ¡": 2548,
      "ĠÃ¡zl": 2549,
      "ĠÄĽÅĻt": 2550,
      "Ġiad": 2551,
      "ĠÃ©lk": 2552,
      "ĠÃŃÅ¡i": 2553,
      "ĠistÃ©": 2554,
      "uj": 2555,
      "Ġohem": 2556,
      "Ġhost": 2557,
      "ÄĽj": 2558,
      "ĠÃ¡du": 2559,
      "ĠykÅĻ": 2560,
      "ĠhÅĻÃŃch": 2561,
      "Ġezh": 2562,
      "Ġpad": 2563,
      "Ġastr": 2564,
      "Ġock": 2565,
      "ĠÃ©ta": 2566,
      "ĠÃ©ÅĻe": 2567,
      "ĠoÄįil": 2568,
      "ĠchrÃ¡m": 2569,
      "Ġrpn": 2570,
      "ĠaÅ¾b": 2571,
      "ÄĽk": 2572,
      "ĠÃŃnem": 2573,
      "Ġproud": 2574,
      "ĠÅ¯rÄį": 2575,
      "ĠouhÃ¡": 2576,
      "Å¯l": 2577,
      "ĠÃ¡tek": 2578,
      "ĠemÃŃ": 2579,
      "ĠolÅ¡": 2580,
      "Ġery": 2581,
      "ĠÃºÅĻ": 2582,
      "Ġael": 2583,
      "ĠÃ³m": 2584,
      "ĠÃ¡tka": 2585,
      "ĠadÃ½": 2586,
      "ĠÅ¯tk": 2587,
      "pr": 2588,
      "ĠÄĽstsk": 2589,
      "ĠinÃ¡": 2590,
      "ĠÃŃÅ¡tÃŃ": 2591,
      "ĠilÃŃ": 2592,
      "Ġejh": 2593,
      "Ġerg": 2594,
      "Ġjh": 2595,
      "ĠdÃ½m": 2596,
      "ĠÄĽdÄĽl": 2597,
      "ĠkÅ¡t": 2598,
      "Ġasi": 2599,
      "ĠÃ¡dal": 2600,
      "ĠitÃ½": 2601,
      "ĠXABBA": 2602,
      "ĠarÃ¡": 2603,
      "ĠyÄįk": 2604,
      "Ġatstv": 2605,
      "ĠÃ¡sa": 2606,
      "ĠouhÃ½": 2607,
      "Ġoudu": 2608,
      "Ġonil": 2609,
      "Ġusp": 2610,
      "ĠÃŃkÃ¡": 2611,
      "ĠiÅ¾Å¡": 2612,
      "ĠonÅ¯": 2613,
      "ĠistÄĽ": 2614,
      "Ġjsi": 2615,
      "ĠÃ³r": 2616,
      "ĠÃ¡hr": 2617,
      "ĠumÄį": 2618,
      "ĠmÅ¡": 2619,
      "Ġerd": 2620,
      "Ġarem": 2621,
      "ĠijÄı": 2622,
      "Ġile": 2623,
      "ĠÃŃnÅ¯": 2624,
      "Ġezdc": 2625,
      "ĠsvÅ¯j": 2626,
      "ĠdÅ¾": 2627,
      "ĠedÃ½": 2628,
      "Ġsyn": 2629,
      "Ġatil": 2630,
      "ĠÅ¾il": 2631,
      "ĠÃ¡hla": 2632,
      "Ġzvuk": 2633,
      "ĠÄĽstn": 2634,
      "Ġoctv": 2635,
      "Ġuby": 2636,
      "ĠÄĽnÃ¡": 2637,
      "ĠÃ¡kÅ¯": 2638,
      "Ġamy": 2639,
      "Ġook": 2640,
      "up": 2641,
      "Ġeal": 2642,
      "ĠobÃŃ": 2643,
      "Ġikm": 2644,
      "ĠastÃŃ": 2645,
      "ĠÃ¡ky": 2646,
      "Ġurv": 2647,
      "Ġyku": 2648,
      "ĠÃŃcÃŃm": 2649,
      "Ġoukl": 2650,
      "Ġitra": 2651,
      "ĠÅ¯li": 2652,
      "ĠvÄĽk": 2653,
      "Ġmoc": 2654,
      "Ġvzduch": 2655,
      "Ġolg": 2656,
      "Ġerem": 2657,
      "ĠÃ¡lky": 2658,
      "op": 2659,
      "ĠÃ¡su": 2660,
      "ĠÃŃzl": 2661,
      "ĠavÅ¡t": 2662,
      "ÄĽch": 2663,
      "ĠmÃ½ch": 2664,
      "ĠÃ½Å¡i": 2665,
      "ĠypÅĻ": 2666,
      "ĠÃºsta": 2667,
      "Ġetm": 2668,
      "ĠalÅ¡": 2669,
      "ĠÅ¾el": 2670,
      "ĠednÃ©": 2671,
      "ĠÃŃvÃ¡m": 2672,
      "ĠennÃŃ": 2673,
      "Ġustl": 2674,
      "ĠiÅ¡tÄĽ": 2675,
      "ĠplÃ¡": 2676,
      "Ġyhr": 2677,
      "Ġumu": 2678,
      "ĠoÅ¾t": 2679,
      "ĠÃ¡ze": 2680,
      "Ġstrach": 2681,
      "ĠtvÅ¯j": 2682,
      "ĠivÃ½ch": 2683,
      "ĠÄĽsti": 2684,
      "Ġhrad": 2685,
      "ĠÅ¥": 2686,
      "Ġens": 2687,
      "ĠahÅĻm": 2688,
      "ĠAAXBBX": 2689,
      "Ġatv": 2690,
      "ĠÅ¾Ã¡r": 2691,
      "ĠozÅĻ": 2692,
      "Ġanul": 2693,
      "Ġamt": 2694,
      "ĠÃ¡chv": 2695,
      "Ġuny": 2696,
      "ĠakÃ©": 2697,
      "Ġslov": 2698,
      "Ġoze": 2699,
      "ĠiÅ¡ti": 2700,
      "Ġazem": 2701,
      "Ġabn": 2702,
      "Ġejdr": 2703,
      "ĠjÃŃt": 2704,
      "ĠhnÄĽv": 2705,
      "ĠatÄį": 2706,
      "ĠavÃ½ch": 2707,
      "Ġklam": 2708,
      "Ġjdou": 2709,
      "ĠÅ¾v": 2710,
      "ĠutÃ½": 2711,
      "Ġazy": 2712,
      "Ġadost": 2713,
      "ABX": 2714,
      "Ġkles": 2715,
      "Ġisp": 2716,
      "ĠemÅ¾": 2717,
      "Ġopil": 2718,
      "ĠvÄĽc": 2719,
      "ĠebÃŃ": 2720,
      "Ġevd": 2721,
      "Ġejich": 2722,
      "Ġarh": 2723,
      "Ġutku": 2724,
      "Ġasne": 2725,
      "Ġeps": 2726,
      "Ġychn": 2727,
      "ĠujeÅ¡": 2728,
      "Ġohd": 2729,
      "Ġudem": 2730,
      "ĠzÄį": 2731,
      "Ġuchv": 2732,
      "Ġedt": 2733,
      "Ġkraj": 2734,
      "Ġachem": 2735,
      "Ġuli": 2736,
      "ĠÅ¯nÃŃ": 2737,
      "Ġadil": 2738,
      "Ġeds": 2739,
      "ĠaÅĪt": 2740,
      "ĠovÃ¡n": 2741,
      "ĠXABBAX": 2742,
      "ĠÃ¡dnÃ©": 2743,
      "Ġgl": 2744,
      "ez": 2745,
      "Ġyna": 2746,
      "Ġozkl": 2747,
      "ĠtÅĻt": 2748,
      "ĠÄĽnÃŃm": 2749,
      "ĠiÅ¡ÃŃ": 2750,
      "ĠrvÃŃ": 2751,
      "ĠubÅ¡": 2752,
      "ĠÅ¡at": 2753,
      "Ġoupl": 2754,
      "Ġrsl": 2755,
      "Ġemdl": 2756,
      "ĠÄĽÅ¡Å¥": 2757,
      "ĠoÄık": 2758,
      "Ġobou": 2759,
      "ĠzÅ¾": 2760,
      "Ġiov": 2761,
      "Ġypt": 2762,
      "ĠÃ¡hÃ¡": 2763,
      "ĠmrÃ¡z": 2764,
      "ĠÃºstr": 2765,
      "ĠoztÅĻ": 2766,
      "Ġagd": 2767,
      "Ġsil": 2768,
      "Ġouha": 2769,
      "Ġesty": 2770,
      "Ġizd": 2771,
      "Ġiumf": 2772,
      "ĠzkÅĻ": 2773,
      "Ġoudy": 2774,
      "ĠzÅĻel": 2775,
      "ĠuÅĪ": 2776,
      "ĠÃ¡zel": 2777,
      "ĠutÃ©": 2778,
      "ĠanÅ¯": 2779,
      "Ġamr": 2780,
      "ĠÃºkr": 2781,
      "Ġeht": 2782,
      "ĠrhÃ¡": 2783,
      "Ġlkn": 2784,
      "ĠiÃ¡Å¡": 2785,
      "Ġujm": 2786,
      "Ġozz": 2787,
      "ĠÃ¡lu": 2788,
      "ĠÄĽjÅ¾": 2789,
      "Ġynul": 2790,
      "ĠatÃ½ch": 2791,
      "Ġesou": 2792,
      "ĠÃºm": 2793,
      "Ġjich": 2794,
      "ĠasÅ¡": 2795,
      "Ġimb": 2796,
      "ĠouÅ¾il": 2797,
      "ĠÃŃbÃ¡": 2798,
      "Ġiol": 2799,
      "ĠozÄį": 2800,
      "ĠÃ¡dky": 2801,
      "ĠÃ¡nky": 2802,
      "Ġkruh": 2803,
      "Ġyg": 2804,
      "Ġuhn": 2805,
      "Ġolb": 2806,
      "Ġivc": 2807,
      "Ġers": 2808,
      "Ġejsm": 2809,
      "ĠehÄį": 2810,
      "ĠeÄįer": 2811,
      "Ġtmou": 2812,
      "ĠÃ¡ty": 2813,
      "ĠeÅĻsk": 2814,
      "Ġero": 2815,
      "ĠÃ¡vc": 2816,
      "Ġezc": 2817,
      "iÃŃ": 2818,
      "Ġkrok": 2819,
      "ĠÃŃnÃ¡m": 2820,
      "ĠÃ¡ka": 2821,
      "Ġeuv": 2822,
      "ĠÅ¯Å¾n": 2823,
      "Ġysm": 2824,
      "Ġdruh": 2825,
      "Ġrej": 2826,
      "Ġobv": 2827,
      "Ġecky": 2828,
      "ĠÃ¡lÄį": 2829,
      "ĠÃŃvc": 2830,
      "ĠÃ¡zem": 2831,
      "ĠÄĽÅĪ": 2832,
      "Ġochl": 2833,
      "Ġuct": 2834,
      "Ġvzpj": 2835,
      "uÅ¾": 2836,
      "Ġnes": 2837,
      "ĠostÃ©": 2838,
      "Ġesta": 2839,
      "Ġvk": 2840,
      "ĠÃŃtal": 2841,
      "ĠouÅ¾n": 2842,
      "Ġustr": 2843,
      "ĠÄĽhn": 2844,
      "ĠÃŃms": 2845,
      "ĠmeÄį": 2846,
      "Ġyll": 2847,
      "Ġsbor": 2848,
      "ĠÃ¡lem": 2849,
      "Ġshn": 2850,
      "Ġain": 2851,
      "ĠtvÃ½ch": 2852,
      "ĠÄĽno": 2853,
      "ĠÄĽlc": 2854,
      "ĠÃŃhn": 2855,
      "Ġadnou": 2856,
      "Ġne": 2857,
      "ĠerÃ©": 2858,
      "Ġzde": 2859,
      "Ġykr": 2860,
      "ĠmÃ¡Å¡": 2861,
      "Ġojem": 2862,
      "ĠÄĽkc": 2863,
      "ĠtÄĽch": 2864,
      "ĠodÃ¡": 2865,
      "ĠinnÃ©": 2866,
      "ĠukÃ¡": 2867,
      "Ġace": 2868,
      "Ġrkl": 2869,
      "ĠdÅ¾b": 2870,
      "ĠÅ¾en": 2871,
      "ĠÄĽzdy": 2872,
      "ĠÅ¯vk": 2873,
      "ĠÃŃcn": 2874,
      "ĠÅ¯lk": 2875,
      "ĠÄĽtm": 2876,
      "Ġobkl": 2877,
      "Ġrstv": 2878,
      "ĠÃ¡ml": 2879,
      "ĠemnÃ©": 2880,
      "ĠvdÄĽk": 2881,
      "ĠukÅ¯": 2882,
      "Ġoll": 2883,
      "Ġudr": 2884,
      "ĠuhÅ¯": 2885,
      "Ġatka": 2886,
      "Ġdiv": 2887,
      "ĠÅĻk": 2888,
      "ĠÄĽkt": 2889,
      "ĠjÃ¡": 2890,
      "ĠÄĽlem": 2891,
      "Ġedli": 2892,
      "ĠÃ½skn": 2893,
      "ĠvÃŃ": 2894,
      "ĠÃ¡mÃ½": 2895,
      "Ġihu": 2896,
      "ĠeÄįek": 2897,
      "ĠÃŃnek": 2898,
      "Ġistn": 2899,
      "ĠdlaÅĪ": 2900,
      "ĠÃ¡Äı": 2901,
      "ĠÃºh": 2902,
      "Ġandr": 2903,
      "Ġyskn": 2904,
      "ĠÃŃtÃŃm": 2905,
      "ĠodnÃŃ": 2906,
      "ĠodÅ¯": 2907,
      "ĠÃ¡vÃ¡m": 2908,
      "Ġenec": 2909,
      "ĠÃ¡vÃŃ": 2910,
      "Ġlnou": 2911,
      "ĠÃŃlo": 2912,
      "Ġien": 2913,
      "Ġinky": 2914,
      "ĠanÃ½ch": 2915,
      "Ġrstk": 2916,
      "Ġatek": 2917,
      "ĠÃŃcÃ½": 2918,
      "ĠÃŃpk": 2919,
      "Ġatm": 2920,
      "ĠaÅĻsk": 2921,
      "ÃŃv": 2922,
      "ĠÃ¡skou": 2923,
      "Ġeor": 2924,
      "ĠsnÅ¯": 2925,
      "Ġrdci": 2926,
      "Ġeut": 2927,
      "ĠyÄįn": 2928,
      "ĠÃ½sm": 2929,
      "Ġanj": 2930,
      "ĠenÃ©m": 2931,
      "Ġetou": 2932,
      "Ġsmrt": 2933,
      "ĠotÃ¡": 2934,
      "ĠÃ¡mu": 2935,
      "Ġhlad": 2936,
      "ĠÃ¡snÃ©": 2937,
      "Ġybr": 2938,
      "ĠÄĽlou": 2939,
      "Ġdav": 2940,
      "ĠedÄį": 2941,
      "Ġkdes": 2942,
      "ĠudÃ½": 2943,
      "Ġaven": 2944,
      "ĠÃ¡jn": 2945,
      "ĠlnÃ½": 2946,
      "ĠÅ¡um": 2947,
      "Ġikem": 2948,
      "Ġyzd": 2949,
      "ĠÅ¡tk": 2950,
      "Ġolal": 2951,
      "ĠÅĻad": 2952,
      "ĠodnÃ©": 2953,
      "ĠÃ¡nem": 2954,
      "ĠahÃ©": 2955,
      "ĠcÃŃl": 2956,
      "Ġenci": 2957,
      "ĠovÄĽk": 2958,
      "Ġuan": 2959,
      "Ġeop": 2960,
      "Ġitem": 2961,
      "Ġons": 2962,
      "ĠÄĽrk": 2963,
      "Ġejst": 2964,
      "Ġoudil": 2965,
      "Ġabk": 2966,
      "ĠejdÅĻ": 2967,
      "ĠovÅ¾d": 2968,
      "ĠÄįech": 2969,
      "ĠÃŃsÃŃ": 2970,
      "Ġlnk": 2971,
      "Ġanem": 2972,
      "ĠÃ¡snÄĽ": 2973,
      "Ġutr": 2974,
      "ĠÅ¯ry": 2975,
      "ĠÅĻek": 2976,
      "Ġsten": 2977,
      "Ġudce": 2978,
      "ĠÅ¯Äį": 2979,
      "Ġinul": 2980,
      "ĠÃŃsni": 2981,
      "Ġrzl": 2982,
      "Ġerp": 2983,
      "Ġarp": 2984,
      "Ġeodv": 2985,
      "ĠichÃ¡": 2986,
      "ĠÃ¡di": 2987,
      "Ġyth": 2988,
      "Ġvkl": 2989,
      "ĠaÄįl": 2990,
      "Ġouzk": 2991,
      "ĠÃŃtn": 2992,
      "ĠÄĽÅ¡ÃŃ": 2993,
      "Ġoubn": 2994,
      "ĠvzpÅĻ": 2995,
      "ĠiÅ¡el": 2996,
      "ĠÃ©no": 2997,
      "Ġstran": 2998,
      "Ġeci": 2999,
      "ĠuÅ¾i": 3000,
      "ĠÄĽcko": 3001,
      "Ġbol": 3002,
      "Ġsnech": 3003,
      "ĠABC": 3004,
      "ĠdÅĻÃŃv": 3005,
      "ĠutÄĽ": 3006,
      "Ġoupk": 3007,
      "Ġschr": 3008,
      "Ġove": 3009,
      "Ġavzn": 3010,
      "ĠohÅĪ": 3011,
      "ĠÃ½lk": 3012,
      "Ġosi": 3013,
      "ĠuhÃ½": 3014,
      "Ġjim": 3015,
      "ĠÅ¯hl": 3016,
      "ĠuÅ¾stv": 3017,
      "Ã¡v": 3018,
      "ĠiÄįek": 3019,
      "Ġadv": 3020,
      "Ġerb": 3021,
      "Ġita": 3022,
      "Ġtkn": 3023,
      "Ġodem": 3024,
      "ĠozÃŃ": 3025,
      "Ġozc": 3026,
      "Ġika": 3027,
      "Ġisty": 3028,
      "ĠÄĽstu": 3029,
      "ĠuÄįe": 3030,
      "Ġuru": 3031,
      "Ġinku": 3032,
      "ĠunÃŃ": 3033,
      "ĠaÅĻe": 3034,
      "Ġilb": 3035,
      "Ġipl": 3036,
      "ĠÃ½dn": 3037,
      "Ġozst": 3038,
      "Ġostem": 3039,
      "Ġitel": 3040,
      "Ġonsk": 3041,
      "Ġagn": 3042,
      "yk": 3043,
      "Ġopc": 3044,
      "Ġebc": 3045,
      "Ġysn": 3046,
      "ĠÃ½Å¡k": 3047,
      "ĠodlÃŃ": 3048,
      "ĠÃŃmi": 3049,
      "ĠkÅĻt": 3050,
      "Ġaes": 3051,
      "Ġlna": 3052,
      "ĠaÄįt": 3053,
      "ĠatÃ©m": 3054,
      "ĠenÅ¾t": 3055,
      "ĠasÃŃ": 3056,
      "ĠouÅĻe": 3057,
      "ĠÅĻÃŃÅ¡": 3058,
      "Ġkdys": 3059,
      "ĠetÄĽ": 3060,
      "Ġsny": 3061,
      "Ġug": 3062,
      "ĠtvÃ¡": 3063,
      "Ġenky": 3064,
      "ĠÃ¡jÃŃ": 3065,
      "ĠzvÄĽst": 3066,
      "ĠÃŃnsk": 3067,
      "ĠpÄĽt": 3068,
      "Ġean": 3069,
      "Ġesc": 3070,
      "Ġesi": 3071,
      "ĠeÄįnÄĽ": 3072,
      "Ġaust": 3073,
      "ĠrÃ¡j": 3074,
      "ĠoÅ¾i": 3075,
      "Ġysy": 3076,
      "ĠÄĽkem": 3077,
      "ĠÃ¡sti": 3078,
      "ĠÃ©bl": 3079,
      "Ġadce": 3080,
      "Ġizt": 3081,
      "Ġenl": 3082,
      "ĠrÄįÃŃ": 3083,
      "Ġsluch": 3084,
      "ĠÅ¯jÄį": 3085,
      "ĠÃ¡ku": 3086,
      "ĠohÃ½": 3087,
      "ĠÄĽdÃŃ": 3088,
      "ĠÃŃsta": 3089,
      "ep": 3090,
      "ĠannÃŃ": 3091,
      "ĠoÅĻc": 3092,
      "ĠeÄįnÃ©": 3093,
      "br": 3094,
      "Ġ31": 3095,
      "Ġousm": 3096,
      "ĠÅ¾r": 3097,
      "Ġolc": 3098,
      "Ġisn": 3099,
      "ĠernÃ©": 3100,
      "Ġonv": 3101,
      "Ġzved": 3102,
      "ĠÃŃdal": 3103,
      "Ġoupil": 3104,
      "Ġsad": 3105,
      "ĠÃ½st": 3106,
      "Ġulo": 3107,
      "Ġouhv": 3108,
      "ĠÄĽho": 3109,
      "Ġonem": 3110,
      "Ġajm": 3111,
      "ĠidÃŃm": 3112,
      "Ġevzp": 3113,
      "ÃŃst": 3114,
      "ĠistÃ½": 3115,
      "Ġozpj": 3116,
      "ĠÃŃtky": 3117,
      "ĠÄĽhy": 3118,
      "ĠemÃ¡": 3119,
      "Ġodkr": 3120,
      "ĠÃ½ml": 3121,
      "ĠÃŃÄįko": 3122,
      "Ġoubi": 3123,
      "Ġrod": 3124,
      "ĠvÃŃÅ¡": 3125,
      "ĠdÃ¡m": 3126,
      "Ġuhr": 3127,
      "Ġubk": 3128,
      "ĠskrÃ¡ÅĪ": 3129,
      "ĠÃŃzy": 3130,
      "ĠovÄį": 3131,
      "ĠychÃ¡": 3132,
      "ĠisÅ¥": 3133,
      "ĠadÃ©": 3134,
      "ĠÃ³d": 3135,
      "ĠÃ¡lÃ¡": 3136,
      "ĠÅ¡tÃŃt": 3137,
      "Ġiem": 3138,
      "ĠÅ¯stÃ¡": 3139,
      "ĠiÃ¡n": 3140,
      "ĠystÃ¡": 3141,
      "Ġinka": 3142,
      "Ġluh": 3143,
      "Ġuml": 3144,
      "Ġadly": 3145,
      "Ġaiv": 3146,
      "Ġutl": 3147,
      "ĠspÃ¡t": 3148,
      "ĠznÃ¡m": 3149,
      "ĠÄĽstÄĽ": 3150,
      "ĠchvÄĽl": 3151,
      "ĠpÅ¡": 3152,
      "ĠobÅ¾": 3153,
      "Ã¡Å¾": 3154,
      "ĠhrÃ¡t": 3155,
      "Ġatce": 3156,
      "Ġyta": 3157,
      "Ġoubr": 3158,
      "ÃŃp": 3159,
      "Ġyls": 3160,
      "ĠÃ¡kÃ¡": 3161,
      "ĠidÃ©": 3162,
      "Ġdob": 3163,
      "ĠÃ¡nÅ¯": 3164,
      "Ġoubc": 3165,
      "Ġojen": 3166,
      "Ġaci": 3167,
      "ĠÃ¡dku": 3168,
      "ĠeÄįku": 3169,
      "ut": 3170,
      "Ġoupn": 3171,
      "ĠÃ½kl": 3172,
      "Ġein": 3173,
      "Ġotkl": 3174,
      "ĠerÃ¡": 3175,
      "ĠyzÃŃ": 3176,
      "ĠusÅ¥t": 3177,
      "Ġusil": 3178,
      "eb": 3179,
      "ĠÃ¡Äįek": 3180,
      "chn": 3181,
      "ĠmÃŃr": 3182,
      "ĠÃ¡mÄĽ": 3183,
      "Ġeon": 3184,
      "ĠinÃ¡m": 3185,
      "Ġednu": 3186,
      "ĠetÅ¯": 3187,
      "Ġevy": 3188,
      "ĠohÅ¯": 3189,
      "Ġeun": 3190,
      "ĠsÅ¾": 3191,
      "Ġalil": 3192,
      "ĠÃŃÅĻsk": 3193,
      "Ġastv": 3194,
      "ĠadÅ¯": 3195,
      "Ġazb": 3196,
      "ĠbÄĽd": 3197,
      "Ġymf": 3198,
      "ĠABB": 3199,
      "Ġtvou": 3200,
      "ĠiÄįkou": 3201,
      "ĠÅ¯le": 3202,
      "Ġuha": 3203,
      "ĠAAAA": 3204,
      "Ġls": 3205,
      "ĠickÃ©": 3206,
      "ĠÃ½str": 3207,
      "ĠÃ½ma": 3208,
      "Ġiss": 3209,
      "Ġutkv": 3210,
      "Ġenka": 3211,
      "Ġaivn": 3212,
      "ĠmÃ½m": 3213,
      "Ġelh": 3214,
      "ĠojÄıt": 3215,
      "ĠAXABBX": 3216,
      "Ġei": 3217,
      "ĠÃ©c": 3218,
      "ĠleÅ¾": 3219,
      "ĠÃ¡tu": 3220,
      "Ġicho": 3221,
      "Ġsml": 3222,
      "ĠeÅĻm": 3223,
      "ĠÃŃdÃŃ": 3224,
      "Ġoesie": 3225,
      "Ġpout": 3226,
      "ĠÄĽnu": 3227,
      "ĠÃŃdu": 3228,
      "Ġeuz": 3229,
      "ĠalnÃ©": 3230,
      "ĠÄĽkÃ¡": 3231,
      "Ġdej": 3232,
      "ĠÃ½hn": 3233,
      "ĠÃ¡ta": 3234,
      "ĠÃ½rsk": 3235,
      "Ġahem": 3236,
      "ĠzdÅĻ": 3237,
      "Ġakal": 3238,
      "Ġekne": 3239,
      "Ã¡Å¡Å¥": 3240,
      "ĠÃ½ÅĻÃŃ": 3241,
      "ĠuÅ¾ÃŃ": 3242,
      "ĠivÃ©m": 3243,
      "ĠABABBX": 3244,
      "ĠÃ¡tkÃ½": 3245,
      "ĠÃ¡dnÃ½": 3246,
      "ĠÃ¡dne": 3247,
      "ĠepÃ½": 3248,
      "ĠÃ¡rem": 3249,
      "ĠÃ³l": 3250,
      "ĠovÄĽÄı": 3251,
      "Ġozml": 3252,
      "Ġejc": 3253,
      "ĠovÃ©m": 3254,
      "ĠÃŃchem": 3255,
      "Ġialk": 3256,
      "ĠavÄį": 3257,
      "Ġoi": 3258,
      "Ġaos": 3259,
      "ĠutÃŃm": 3260,
      "Ġotce": 3261,
      "Ġarmo": 3262,
      "Ġschl": 3263,
      "Ġabb": 3264,
      "Ġirk": 3265,
      "ĠÅ¯dce": 3266,
      "ĠÃ¡tce": 3267,
      "Ġamk": 3268,
      "ĠÃ¡sce": 3269,
      "ĠÃŃni": 3270,
      "Ġeol": 3271,
      "Ġochm": 3272,
      "Ġix": 3273,
      "Ġangl": 3274,
      "Ġdar": 3275,
      "ĠokÃ©": 3276,
      "Ġpes": 3277,
      "ĠXAAXBB": 3278,
      "Ġekou": 3279,
      "ĠihÃ¡": 3280,
      "Ġafr": 3281,
      "Ġounc": 3282,
      "Ġuti": 3283,
      "ĠÃ¡ÅĻsk": 3284,
      "Ġusy": 3285,
      "ĠavÃŃm": 3286,
      "ĠÃ¡vÅ¡t": 3287,
      "Ġzvon": 3288,
      "ĠÃŃÅ¾i": 3289,
      "ĠXAAA": 3290,
      "Ġelu": 3291,
      "Ġled": 3292,
      "ĠÃŃtl": 3293,
      "ĠdÃ¡": 3294,
      "ĠaÅĻi": 3295,
      "ĠÃ½skl": 3296,
      "ĠvÃŃr": 3297,
      "Ġavit": 3298,
      "Ġekal": 3299,
      "ĠÅ¯Å¾ÃŃ": 3300,
      "ĠojÅ¾": 3301,
      "Ġajt": 3302,
      "ĠiÄįko": 3303,
      "ill": 3304,
      "Ġvm": 3305,
      "ĠÃŃda": 3306,
      "ĠuvÅ¡": 3307,
      "Ġemp": 3308,
      "ĠÃŃrat": 3309,
      "Ġyschl": 3310,
      "ĠÅ¯rk": 3311,
      "ÄĽm": 3312,
      "Ġunu": 3313,
      "ĠykÃ¡": 3314,
      "ĠÃŃmt": 3315,
      "ĠokÃ¡": 3316,
      "ĠÃ¡cel": 3317,
      "Ġeld": 3318,
      "ĠicÃŃch": 3319,
      "Ġlhl": 3320,
      "Ġopk": 3321,
      "ĠsmÄĽs": 3322,
      "Ġzml": 3323,
      "ĠarÅ¯": 3324,
      "ĠÃºsk": 3325,
      "Ġozsv": 3326,
      "Ġazil": 3327,
      "ĠoupÃŃ": 3328,
      "Ġuf": 3329,
      "Ġurc": 3330,
      "ĠÄĽÅĻil": 3331,
      "ĠernÃŃ": 3332,
      "Ġlc": 3333,
      "Ġodkl": 3334,
      "ĠÅĻeÄį": 3335,
      "Ġesly": 3336,
      "Ġotou": 3337,
      "yÅ¡": 3338,
      "ĠÃŃmÄĽ": 3339,
      "Ġonb": 3340,
      "Ġevu": 3341,
      "Ġomc": 3342,
      "Ġklas": 3343,
      "Ġuzr": 3344,
      "ĠrÅ¾ÃŃ": 3345,
      "ĠvÅ¡e": 3346,
      "Ġblesk": 3347,
      "ĠadÄį": 3348,
      "Ġechce": 3349,
      "Ġspat": 3350,
      "Ġiel": 3351,
      "Ġivem": 3352,
      "ĠoÅĻen": 3353,
      "ĠoÅ¡kl": 3354,
      "ĠytÄĽ": 3355,
      "ĠÃ¡tÃ¡": 3356,
      "Ġavt": 3357,
      "Ġtich": 3358,
      "ĠdnÅ¯": 3359,
      "ĠÅ¯nu": 3360,
      "Ġnach": 3361,
      "ĠÅ¾iv": 3362,
      "ĠakÅĻ": 3363,
      "ĠÃ¡zku": 3364,
      "ĠouÅĻi": 3365,
      "ĠikÃ½": 3366,
      "Ġeckd": 3367,
      "Ġoss": 3368,
      "Ġantn": 3369,
      "Ġuhem": 3370,
      "Ġyzp": 3371,
      "ĠÃŃÅ¾il": 3372,
      "ĠÃ©zt": 3373,
      "ĠÄĽÅ¡tc": 3374,
      "ĠadkÃ¡": 3375,
      "ĠÃŃmu": 3376,
      "Ġchvil": 3377,
      "ĠÃ¡pn": 3378,
      "Ġejbl": 3379,
      "Ġyni": 3380,
      "Ġodkv": 3381,
      "Ġanch": 3382,
      "Ġomp": 3383,
      "ĠÄĽnÄĽ": 3384,
      "Ġasnou": 3385,
      "ĠutÃ¡": 3386,
      "ĠustÃŃ": 3387,
      "Ġyss": 3388,
      "ĠiÅ¡n": 3389,
      "XAX": 3390,
      "ĠaÅ¾t": 3391,
      "ĠspÃŃÅ¡": 3392,
      "ĠetÃ½": 3393,
      "Ġlze": 3394,
      "ĠovÃŃm": 3395,
      "Ġyto": 3396,
      "ĠÃ½Å¡ÃŃ": 3397,
      "Ġachm": 3398,
      "Ġykem": 3399,
      "ĠÃŃÄįÃŃ": 3400,
      "ĠuÅ¾sk": 3401,
      "ĠAAXXBB": 3402,
      "ĠÃŃÅ¾t": 3403,
      "Ġakhl": 3404,
      "Ġrzn": 3405,
      "Ã³n": 3406,
      "Ġlem": 3407,
      "Ġzdvih": 3408,
      "Ġecn": 3409,
      "un": 3410,
      "ĠpÃŃt": 3411,
      "Ġrek": 3412,
      "ĠsmÃ¡l": 3413,
      "ĠumÄĽl": 3414,
      "ĠÃŃchy": 3415,
      "ĠennÄĽ": 3416,
      "ĠÅ¯Äįk": 3417,
      "ĠetÃ©": 3418,
      "ĠhrÃ¡l": 3419,
      "ĠytÃ©": 3420,
      "ĠznÄĽl": 3421,
      "Ġykn": 3422,
      "Ġstesk": 3423,
      "ĠÃŃrÃ¡m": 3424,
      "ĠesÅ¯m": 3425,
      "ĠenÅ¯": 3426,
      "ĠÃ¡sÃŃ": 3427,
      "ĠÃ¡hu": 3428,
      "Ġvzdor": 3429,
      "ĠÅ¡ÅĪ": 3430,
      "Ġutek": 3431,
      "ĠspÄĽch": 3432,
      "ĠtÃŃm": 3433,
      "ĠÃ©Äįn": 3434,
      "ĠuchÅ¯": 3435,
      "Ġubr": 3436,
      "ĠsÅĻ": 3437,
      "ĠÃ¡snÃ¡": 3438,
      "ĠnÃŃÅ¾": 3439,
      "Ġehce": 3440,
      "ĠbÅĻeh": 3441,
      "Ġlesk": 3442,
      "ĠohÃ¡": 3443,
      "ĠastnÃŃ": 3444,
      "ĠistÅ¡": 3445,
      "Ġvln": 3446,
      "Ġnech": 3447,
      "Ġosty": 3448,
      "ĠÄĽnn": 3449,
      "ĠasnÃ½": 3450,
      "ĠeuzÅĻ": 3451,
      "ĠuÅ¡il": 3452,
      "Ġouho": 3453,
      "Ġuvil": 3454,
      "Ġyrt": 3455,
      "Ġmech": 3456,
      "ĠechÅ¯": 3457,
      "ĠÃŃnal": 3458,
      "Ġafn": 3459,
      "ĠÃ¡lku": 3460,
      "Ġstrom": 3461,
      "ĠiÃ¡l": 3462,
      "Ġybl": 3463,
      "Ġetkn": 3464,
      "ĠemstvÃŃ": 3465,
      "Ġesch": 3466,
      "ĠudÅ¡": 3467,
      "Ġeze": 3468,
      "ĠsnÃ¡ch": 3469,
      "Ġupy": 3470,
      "ĠaÅĻm": 3471,
      "ĠÅ¯zy": 3472,
      "ĠÃ½Å¥": 3473,
      "ĠÄĽnce": 3474,
      "ĠÃºkl": 3475,
      "Ġazu": 3476,
      "Ġijt": 3477,
      "ĠtvÃ½m": 3478,
      "ĠÃ½nk": 3479,
      "Ġopu": 3480,
      "ĠeskÃ½": 3481,
      "Ġakm": 3482,
      "Ġoctn": 3483,
      "zv": 3484,
      "ĠomnÄĽl": 3485,
      "ĠeptÃ¡": 3486,
      "Ġydr": 3487,
      "Ġemr": 3488,
      "ĠÃ¡hlÃ©": 3489,
      "ĠidÄĽt": 3490,
      "ĠeÄįnÃ½": 3491,
      "Ġetly": 3492,
      "ĠÃŃstÄĽ": 3493,
      "ĠÄįÃŃÅ¡": 3494,
      "ĠÃ¡rm": 3495,
      "ĠlÄįÃŃ": 3496,
      "ĠyÅ¡Å¡ÃŃ": 3497,
      "ĠennÃ©": 3498,
      "ĠÃŃmal": 3499,
      "Ġitro": 3500,
      "Ġiar": 3501,
      "Ġvzkv": 3502,
      "Ġydn": 3503,
      "Ġzch": 3504,
      "ĠavÃ©m": 3505,
      "ĠatÃ½m": 3506,
      "ĠehÅĻ": 3507,
      "ĠestÄĽ": 3508,
      "ĠÄĽÅ¾Å¡": 3509,
      "ĠÄĽÄįnÃ©": 3510,
      "Ġvztek": 3511,
      "ĠitÅ¯": 3512,
      "ĠehÃ¡": 3513,
      "ĠXAABXB": 3514,
      "Ġabc": 3515,
      "ĠÄĽÅ¾e": 3516,
      "hr": 3517,
      "Ġaml": 3518,
      "ĠaÅ¾sk": 3519,
      "Ġstk": 3520,
      "ĠplÃ¡l": 3521,
      "ĠÃŃve": 3522,
      "ĠaÅ¡el": 3523,
      "ĠÅ¯Å¾i": 3524,
      "ĠÃŃtra": 3525,
      "ĠÃŃdnÄĽ": 3526,
      "Ġobil": 3527,
      "Ġikt": 3528,
      "ĠoucÃŃch": 3529,
      "ĠerÃ½": 3530,
      "Ġchvat": 3531,
      "Ġiam": 3532,
      "Ġars": 3533,
      "Ġapj": 3534,
      "Ġmzd": 3535,
      "ĠÃ¡vat": 3536,
      "ĠasnÄĽ": 3537,
      "Ġide": 3538,
      "Ġplen": 3539,
      "Ġrsc": 3540,
      "Ġohled": 3541,
      "ĠÅ¯ni": 3542,
      "Ġarr": 3543,
      "oup": 3544,
      "ĠÃ½kÃ¡": 3545,
      "ĠÃ¡ma": 3546,
      "Ġlp": 3547,
      "Ġoblak": 3548,
      "ĠadlÃ©": 3549,
      "ÄĽz": 3550,
      "Ġyby": 3551,
      "Ġdum": 3552,
      "Ġlb": 3553,
      "ĠomÅ¡": 3554,
      "Ġsoud": 3555,
      "Ġovz": 3556,
      "ĠuvÃŃ": 3557,
      "Ġabsk": 3558,
      "ĠoucÃŃm": 3559,
      "Ġidi": 3560,
      "Ġupu": 3561,
      "ĠtÅĻÃ¡s": 3562,
      "sl": 3563,
      "Ġicky": 3564,
      "Ġalou": 3565,
      "ĠÄįin": 3566,
      "Ġran": 3567,
      "ĠotÃŃ": 3568,
      "Ġotci": 3569,
      "ĠamÅ¾ik": 3570,
      "ĠvÅ¾dy": 3571,
      "ĠÄĽb": 3572,
      "Ġiji": 3573,
      "ĠÄĽrnÃ©": 3574,
      "ĠÃ½bÃ¡": 3575,
      "ĠÃ½tk": 3576,
      "ĠÃŃma": 3577,
      "ĠÃŃrem": 3578,
      "Ġihne": 3579,
      "ĠÃŃbÅĻ": 3580,
      "ĠtmÃ¡ch": 3581,
      "Ġae": 3582,
      "ĠrsÅ¥": 3583,
      "Ġrkn": 3584,
      "Ġuzdr": 3585,
      "ĠsÄį": 3586,
      "Ġorv": 3587,
      "Ġvlast": 3588,
      "ĠernÃ½": 3589,
      "ĠeurÄį": 3590,
      "Ġobm": 3591,
      "Ġasa": 3592,
      "ĠÃ¡lÅ¯": 3593,
      "ĠÃŃtm": 3594,
      "Ġozchv": 3595,
      "Ġotm": 3596,
      "ĠÃ¡lÃ½": 3597,
      "Ġetlo": 3598,
      "Ġext": 3599,
      "ub": 3600,
      "Ġrok": 3601,
      "ĠÃŃdlo": 3602,
      "Ġadm": 3603,
      "Ġisr": 3604,
      "ĠÃŃÅĻi": 3605,
      "Ġozch": 3606,
      "ĠÄĽdy": 3607,
      "Ġzhn": 3608,
      "Ġilost": 3609,
      "ĠostnÃ©": 3610,
      "Ġejkl": 3611,
      "ĠÃ¡mÃŃ": 3612,
      "Ġudil": 3613,
      "Ġschn": 3614,
      "Ġenech": 3615,
      "ĠoÅĻem": 3616,
      "ĠÃ¡zky": 3617,
      "Ġkout": 3618,
      "Ġavzd": 3619,
      "Ġosil": 3620,
      "ĠidskÃ½": 3621,
      "Ġomoc": 3622,
      "ĠkrÃ¡s": 3623,
      "ĠylÅ¥": 3624,
      "Ġkmet": 3625,
      "Ġaskv": 3626,
      "Ġaskl": 3627,
      "Ġivo": 3628,
      "ĠosÃŃm": 3629,
      "ĠÃ¡jem": 3630,
      "Ġozpt": 3631,
      "ĠzpÅĻ": 3632,
      "ĠyjÃŃ": 3633,
      "ĠplÃ¡Äį": 3634,
      "ĠesÃŃch": 3635,
      "ia": 3636,
      "Ġince": 3637,
      "ĠÃ¡mÃ©": 3638,
      "Ġyvr": 3639,
      "Ġodit": 3640,
      "Ġsna": 3641,
      "Ġino": 3642,
      "ĠÃŃno": 3643,
      "ĠÄĽÅĻe": 3644,
      "Ġves": 3645,
      "ĠÃ¡dÃ¡m": 3646,
      "Ġuze": 3647,
      "Ġeskne": 3648,
      "Ġzdl": 3649,
      "Ġonce": 3650,
      "ĠulÃŃ": 3651,
      "Ġta": 3652,
      "ĠdÃŃk": 3653,
      "Ġazd": 3654,
      "Ġskvost": 3655,
      "Ġivu": 3656,
      "Ġlzy": 3657,
      "Ġehne": 3658,
      "Ġanny": 3659,
      "Ġvnad": 3660,
      "ĠeÄįka": 3661,
      "ĠovnÃ¡": 3662,
      "ĠÃ¶": 3663,
      "Ġztm": 3664,
      "Ġmoh": 3665,
      "ĠutnÃ¡": 3666,
      "ĠorÃ¡ch": 3667,
      "Ġhlav": 3668,
      "Ġjste": 3669,
      "ĠÅ¡pr": 3670,
      "Ġyny": 3671,
      "ĠÄĽÅ¡tb": 3672,
      "ĠpÄĽst": 3673,
      "ĠÃ½j": 3674,
      "Ġroj": 3675,
      "Ġvstal": 3676,
      "ĠdnÃŃ": 3677,
      "ĠacÃŃch": 3678,
      "ĠaÅĪk": 3679,
      "ĠÃŃdnÃ½": 3680,
      "Ġops": 3681,
      "Ġimp": 3682,
      "Ġjde": 3683,
      "Ġakk": 3684,
      "Ġalp": 3685,
      "ĠÃŃÅ¡ÃŃ": 3686,
      "ĠÄĽzt": 3687,
      "ABC": 3688,
      "Ġubu": 3689,
      "ĠABCABC": 3690,
      "ĠmÃ©m": 3691,
      "Ġinstv": 3692,
      "ĠÄĽsÃŃc": 3693,
      "aÅ¥": 3694,
      "Ġomb": 3695,
      "ĠÃ©bc": 3696,
      "XXB": 3697,
      "Ġsnu": 3698,
      "ĠÃ¡rc": 3699,
      "ĠzÅĻÃŃm": 3700,
      "Ġild": 3701,
      "ĠomÄĽ": 3702,
      "Ġocl": 3703,
      "Ġizv": 3704,
      "Ġved": 3705,
      "Ġorb": 3706,
      "Ġahv": 3707,
      "Ġ32": 3708,
      "Ġax": 3709,
      "XXX": 3710,
      "Ġztl": 3711,
      "ĠÃ©na": 3712,
      "Ġejme": 3713,
      "ĠslyÅ¡": 3714,
      "ĠÃºsp": 3715,
      "ĠarÄį": 3716,
      "Ġanna": 3717,
      "ĠAXABXB": 3718,
      "ĠÃŃtel": 3719,
      "ÄĽÅĻ": 3720,
      "ĠÃ¡nkÅ¯": 3721,
      "Ġiot": 3722,
      "Ġilm": 3723,
      "Ġobst": 3724,
      "ĠÃŃsti": 3725,
      "Ġotec": 3726,
      "Ġitou": 3727,
      "Ġsnil": 3728,
      "Ġvrah": 3729,
      "Ġervn": 3730,
      "ĠmÄĽst": 3731,
      "Ġjal": 3732,
      "Ġeda": 3733,
      "ĠplÃ¡t": 3734,
      "ĠÄĽsto": 3735,
      "ĠÃ¡Å¾l": 3736,
      "Ġedni": 3737,
      "ĠÃŃÅ¾n": 3738,
      "ĠeskÃ©": 3739,
      "Ġeom": 3740,
      "ĠABACCB": 3741,
      "ĠÃŃdy": 3742,
      "Ġjsme": 3743,
      "Ġito": 3744,
      "Ġepk": 3745,
      "ĠÄĽchy": 3746,
      "ĠlÅ¾n": 3747,
      "Ġostou": 3748,
      "Ġedly": 3749,
      "ĠatÅĻi": 3750,
      "Ġeuh": 3751,
      "Ġrpc": 3752,
      "ĠzbraÅĪ": 3753,
      "ĠÃ½pr": 3754,
      "Ġodsk": 3755,
      "ĠÄĽÅ¡k": 3756,
      "Ġetech": 3757,
      "Ġjed": 3758,
      "Ġiod": 3759,
      "ĠmÃ¡j": 3760,
      "Ġlev": 3761,
      "ĠÅ¡pl": 3762,
      "Ġigr": 3763,
      "ĠÃŃnc": 3764,
      "ĠeÅĻn": 3765,
      "Ġolna": 3766,
      "ĠoÅ¡e": 3767,
      "ĠÄĽÄįnÄĽ": 3768,
      "ĠnaÅĪ": 3769,
      "Ġano": 3770,
      "Ã¡st": 3771,
      "ĠuÅ¡tv": 3772,
      "ĠasnÃ¡": 3773,
      "ĠtÃ¡h": 3774,
      "Ġentl": 3775,
      "Ġhoch": 3776,
      "ĠakÃ½": 3777,
      "Ġezkr": 3778,
      "ĠÃŃsku": 3779,
      "Ġuin": 3780,
      "Ġzor": 3781,
      "Ġate": 3782,
      "Ġebem": 3783,
      "Ġazl": 3784,
      "ĠedÄĽ": 3785,
      "ĠÃŃnky": 3786,
      "ĠznÃ¡": 3787,
      "ĠpÄĽl": 3788,
      "Ġonst": 3789,
      "Ġisti": 3790,
      "ĠÃ¡Äįel": 3791,
      "ĠlÃ¡n": 3792,
      "ĠtÅĻpyt": 3793,
      "ĠenkrÃ¡t": 3794,
      "ĠÃŃÄı": 3795,
      "ĠitÃŃm": 3796,
      "Ġalsk": 3797,
      "ĠÃŃje": 3798,
      "Ġanci": 3799,
      "Ġmuk": 3800,
      "Ġynem": 3801,
      "Ġdni": 3802,
      "ĠrÄįk": 3803,
      "ĠebÅĻ": 3804,
      "ĠichÃ½": 3805,
      "Ġikv": 3806,
      "ĠÃ¡jm": 3807,
      "ĠyÄįÃŃ": 3808,
      "ĠÄĽci": 3809,
      "ĠÃŃnka": 3810,
      "Ġenost": 3811,
      "Ġekem": 3812,
      "ĠusÃŃm": 3813,
      "ĠÃ³s": 3814,
      "ĠoÅĻit": 3815,
      "ĠÃ¡pÃŃ": 3816,
      "ĠelkÃ½": 3817,
      "Ġukem": 3818,
      "Ġesli": 3819,
      "Ġaot": 3820,
      "ĠÅ¯sv": 3821,
      "Ġdnem": 3822,
      "ĠeÄįnost": 3823,
      "Ġofl": 3824,
      "Ġiu": 3825,
      "ĠjuÅ¾": 3826,
      "Ġostp": 3827,
      "ĠÃ¡lce": 3828,
      "Ġechr": 3829,
      "ĠÃ©ÄįÃŃ": 3830,
      "Ġonec": 3831,
      "ĠokÃ½": 3832,
      "Ġaho": 3833,
      "Ġedle": 3834,
      "ĠÅ¯dk": 3835,
      "Ġejtm": 3836,
      "Ġarg": 3837,
      "Ġecc": 3838,
      "ĠoznÃ¡": 3839,
      "Ġodin": 3840,
      "ĠÄĽry": 3841,
      "Ġeud": 3842,
      "ĠÃ½Å¡tÃŃ": 3843,
      "ych": 3844,
      "Ġjak": 3845,
      "Ġivost": 3846,
      "ĠÄĽjm": 3847,
      "Ġubin": 3848,
      "Ġey": 3849,
      "Ġance": 3850,
      "ĠÃŃto": 3851,
      "ĠisÃŃc": 3852,
      "Ġeklo": 3853,
      "ĠzÅ¡": 3854,
      "ĠoÅ¾ÃŃm": 3855,
      "ĠuchÃ¡": 3856,
      "Ġouzsk": 3857,
      "Ġui": 3858,
      "Ġostk": 3859,
      "ĠÃ½mk": 3860,
      "Ġhrom": 3861,
      "ĠÃ¡rod": 3862,
      "ĠÄĽvk": 3863,
      "ĠÃ¡vo": 3864,
      "Ġejsv": 3865,
      "ĠbÄĽh": 3866,
      "Ġstan": 3867,
      "ĠeÅ¡el": 3868,
      "ĠÃ¡rÃ¡": 3869,
      "ĠÃŃji": 3870,
      "Ġejz": 3871,
      "ĠÃ¡kem": 3872,
      "ĠknÄĽz": 3873,
      "Ġq": 3874,
      "Ġbral": 3875,
      "ĠerÄį": 3876,
      "Ġisku": 3877,
      "Ġpil": 3878,
      "ĠedÃ¡m": 3879,
      "ĠÄĽzÃŃ": 3880,
      "ĠÃ¡dka": 3881,
      "ĠÃŃzda": 3882,
      "ĠÃ¡Äįku": 3883,
      "ĠidÃŃÅ¡": 3884,
      "ĠytÃ½": 3885,
      "ĠaÅ¾Å¡ÃŃ": 3886,
      "ĠelÃ©m": 3887,
      "ĠÃ½tv": 3888,
      "Ġagr": 3889,
      "eÅĻ": 3890,
      "Ġolest": 3891,
      "ĠprÃ¡h": 3892,
      "Ġuna": 3893,
      "ĠzlÃ½ch": 3894,
      "ĠmlÃ¡d": 3895,
      "Ġejtr": 3896,
      "ĠstrÃ¡Å¾": 3897,
      "ĠÃ¡snÃ½": 3898,
      "ĠinnÃ½": 3899,
      "ĠÃŃtek": 3900,
      "ĠÃ¡dv": 3901,
      "ĠatnÄĽ": 3902,
      "Ġoukn": 3903,
      "Ġkam": 3904,
      "ĠÃ¡lil": 3905,
      "ĠÃŃnku": 3906,
      "Ġacn": 3907,
      "Ġorou": 3908,
      "ĠÄĽnÃ½ch": 3909,
      "ĠkvÃ©st": 3910,
      "Ġury": 3911,
      "ĠejnÄĽ": 3912,
      "Ġajem": 3913,
      "Ġeobs": 3914,
      "Ġodi": 3915,
      "ĠÃŃbal": 3916,
      "ĠepÃŃ": 3917,
      "ĠednÃŃm": 3918,
      "Ġdny": 3919,
      "ĠXAXAXA": 3920,
      "ĠzÅĻÃŃt": 3921,
      "Ġakc": 3922,
      "ĠÃ¡bÃŃ": 3923,
      "ĠrÅ¡ÃŃ": 3924,
      "ĠeÃºpr": 3925,
      "Ġouta": 3926,
      "Ġeztr": 3927,
      "ĠrvÃ©": 3928,
      "ĠaÅ¥t": 3929,
      "ĠolnÄĽ": 3930,
      "Ġamu": 3931,
      "Ġyty": 3932,
      "Ġuchy": 3933,
      "Ġurg": 3934,
      "ĠornÄĽ": 3935,
      "Ġ33": 3936,
      "ĠeÅ¡ÃŃ": 3937,
      "Ġeub": 3938,
      "Ġehy": 3939,
      "ĠelÅ¯": 3940,
      "Ġrtk": 3941,
      "Ġuhou": 3942,
      "ĠÄĽdi": 3943,
      "Ġustil": 3944,
      "ĠyslÃŃ": 3945,
      "ĠÅ¯stal": 3946,
      "ĠÄĽnl": 3947,
      "ĠavÅ¯": 3948,
      "Ġoken": 3949,
      "ĠoÅĻÃ¡d": 3950,
      "ĠouÅ¡ti": 3951,
      "Ġokm": 3952,
      "ĠÃ¡sm": 3953,
      "ĠÄĽnec": 3954,
      "Ġplod": 3955,
      "Ġikdy": 3956,
      "Ġkmit": 3957,
      "Ġaus": 3958,
      "ÃŃÅĪ": 3959,
      "Ġybk": 3960,
      "ĠichÅ¾t": 3961,
      "ĠdÃ¡n": 3962,
      "Ġastm": 3963,
      "ĠÃ©kÃ¡": 3964,
      "Ġolil": 3965,
      "ĠÅ¡m": 3966,
      "ĠiÄįej": 3967,
      "ĠozdÄĽ": 3968,
      "ĠÃŃvÃ¡Å¡": 3969,
      "Ġitne": 3970,
      "Ġutv": 3971,
      "ĠaÅ¾l": 3972,
      "ĠyÅ¡k": 3973,
      "ĠtmÃ¡m": 3974,
      "ĠÄįm": 3975,
      "ĠustÃ¡": 3976,
      "Ġay": 3977,
      "ĠatÅ¡": 3978,
      "ĠetÄĽl": 3979,
      "ĠekÅ¯": 3980,
      "Ã½n": 3981,
      "ĠÃŃdel": 3982,
      "ĠÃ¡kn": 3983,
      "ĠÃŃbil": 3984,
      "Ġunci": 3985,
      "ĠÄĽrnÃ½": 3986,
      "Ġurkm": 3987,
      "ĠiÄįt": 3988,
      "Ġuzk": 3989,
      "ĠatÅĻe": 3990,
      "ĠABACBC": 3991,
      "ĠAAXBXB": 3992,
      "ĠeskÃ¡": 3993,
      "ĠdÄĽs": 3994,
      "Ġolo": 3995,
      "ĠoÅ¡i": 3996,
      "Ġovna": 3997,
      "Ġtmy": 3998,
      "ip": 3999,
      "Ġeby": 4000,
      "Ġtrest": 4001,
      "Ġzhr": 4002,
      "ĠÃŃpy": 4003,
      "Ġegr": 4004,
      "ĠbÃŃt": 4005,
      "ĠokrÃ¡t": 4006,
      "ĠpÅĻed": 4007,
      "Ġimy": 4008,
      "ĠamÄį": 4009,
      "Ġepy": 4010,
      "Ġzmar": 4011,
      "ĠhÃ¡j": 4012,
      "Ġlhn": 4013,
      "ĠennÃ¡": 4014,
      "Å¯st": 4015,
      "Ġose": 4016,
      "Ġestou": 4017,
      "ĠozÅ¾h": 4018,
      "Ġott": 4019,
      "Ġitsk": 4020,
      "ĠÃŃlb": 4021,
      "ĠABABXB": 4022,
      "Ġbled": 4023,
      "ĠuÄım": 4024,
      "Ġilh": 4025,
      "Ġedna": 4026,
      "ĠadnÃ½": 4027,
      "ĠÄĽÄįnÃ½": 4028,
      "ĠadkÃ©": 4029,
      "ĠeÅ¡li": 4030,
      "Ġave": 4031,
      "ĠstÅ¯j": 4032,
      "Ġepce": 4033,
      "Ġeska": 4034,
      "Ġychr": 4035,
      "ĠchlÃ©": 4036,
      "Ġspor": 4037,
      "Ġytv": 4038,
      "ĠÃ¡pal": 4039,
      "ĠÃ©to": 4040,
      "Ġaug": 4041,
      "ĠABCC": 4042,
      "ĠÅĻas": 4043,
      "Ġrtech": 4044,
      "ĠÃŃjn": 4045,
      "Ġoth": 4046,
      "Ġhluk": 4047,
      "ĠoÄįÃŃch": 4048,
      "ĠXAA": 4049,
      "ĠaÅ¾dÃ½": 4050,
      "Ġeot": 4051,
      "ĠÃŃbÃŃ": 4052,
      "ĠÄĽsi": 4053,
      "Ġinnou": 4054,
      "Ġiant": 4055,
      "ĠedÄĽt": 4056,
      "Ġame": 4057,
      "Ġosa": 4058,
      "Ġrtem": 4059,
      "Ġrne": 4060,
      "Ġzs": 4061,
      "Ġhad": 4062,
      "Ġertv": 4063,
      "Ġytem": 4064,
      "Ġejb": 4065,
      "ĠÄĽzstvÃŃ": 4066,
      "ĠzhÅĻ": 4067,
      "eÅ¥": 4068,
      "Ġodal": 4069,
      "Ġosu": 4070,
      "Ġylk": 4071,
      "ĠÃ¡pad": 4072,
      "ĠevnÄĽ": 4073,
      "Ġoustn": 4074,
      "Ġair": 4075,
      "ĠelstvÃŃ": 4076,
      "ĠeÄįm": 4077,
      "ĠÅ¯ze": 4078,
      "Ġogr": 4079,
      "Ġedp": 4080,
      "Ġolku": 4081,
      "Ġonou": 4082,
      "ĠepÄį": 4083,
      "ĠaÅ¡Å¥": 4084,
      "ĠoukÃ¡": 4085,
      "Ġonal": 4086,
      "ĠeznÃ¡": 4087,
      "Ġevo": 4088,
      "ĠadlÃ½": 4089,
      "ĠatÃŃm": 4090,
      "Ġorf": 4091,
      "ĠÃŃchÃ¡": 4092,
      "ĠspÃŃ": 4093,
      "Ġrzy": 4094,
      "ĠinÅ¯": 4095,
      "oub": 4096,
      "Ġeup": 4097,
      "Ġkmen": 4098,
      "ĠÃ¡znÄĽ": 4099,
      "Ġeodp": 4100,
      "ĠÄĽdÄįÃŃ": 4101,
      "ĠinnÃ¡": 4102,
      "ĠsÅ¥": 4103,
      "ĠÃ¡vou": 4104,
      "ĠaÅ¾en": 4105,
      "ĠÃ¡zy": 4106,
      "ĠrnÃŃ": 4107,
      "ĠirÃ¡": 4108,
      "Ġzhas": 4109,
      "ĠokÃ©m": 4110,
      "Ġuzl": 4111,
      "ĠÄĽlÃ©m": 4112,
      "Ġomdl": 4113,
      "ouÅĻ": 4114,
      "Ġitru": 4115,
      "Ġbych": 4116,
      "ĠÃŃlou": 4117,
      "ĠAABXB": 4118,
      "ĠymÅĻ": 4119,
      "Ġchrl": 4120,
      "ĠyÅĻkn": 4121,
      "ĠtÄĽl": 4122,
      "Ġsvr": 4123,
      "Ġostech": 4124,
      "ĠÄįÃŃst": 4125,
      "Ġors": 4126,
      "ĠÃ¡sal": 4127,
      "Ġsed": 4128,
      "Ġekli": 4129,
      "ĠÃ½le": 4130,
      "Å¯r": 4131,
      "Ġyky": 4132,
      "Ġyzr": 4133,
      "ĠÃ½ÅĻi": 4134,
      "ĠedÅĻ": 4135,
      "Ġpln": 4136,
      "Ġysp": 4137,
      "ĠarÃ©": 4138,
      "ĠÃ¡ÅĻstv": 4139,
      "ĠÃ¡Å¾i": 4140,
      "Ġump": 4141,
      "Ġzmdl": 4142,
      "Ġoucnost": 4143,
      "ĠÃ½nsk": 4144,
      "Ġais": 4145,
      "ĠatnÃ©": 4146,
      "Ġovd": 4147,
      "ĠrvÃ½": 4148,
      "ĠaÅĻv": 4149,
      "Ġouby": 4150,
      "ĠÄĽmÃ¡": 4151,
      "Ġdnech": 4152,
      "ĠstÄĽn": 4153,
      "ĠÅ¡r": 4154,
      "Ġichv": 4155,
      "Ġzve": 4156,
      "Ġesknou": 4157,
      "Ġambr": 4158,
      "sÅ¥": 4159,
      "ĠaÃº": 4160,
      "ĠelÅ¡": 4161,
      "Ġans": 4162,
      "Ġupk": 4163,
      "Ġtlum": 4164,
      "ĠiÃ©": 4165,
      "Ġins": 4166,
      "ĠivÅĻ": 4167,
      "Ġokoj": 4168,
      "ĠÃ¡snÃŃ": 4169,
      "Ġvpr": 4170,
      "ĠÃ¡Å¡k": 4171,
      "ĠoÅ¾ÅĪ": 4172,
      "ĠÃ¡rÅ¯": 4173,
      "Ġua": 4174,
      "Ġaka": 4175,
      "Ġeskr": 4176,
      "Ġupj": 4177,
      "Ġipk": 4178,
      "Ġient": 4179,
      "ĠolÃ©": 4180,
      "Ġkvas": 4181,
      "Ġaul": 4182,
      "Ġijde": 4183,
      "Ġbyt": 4184,
      "ÄĽd": 4185,
      "ĠolnÃ¡": 4186,
      "ĠÃŃskÃ¡": 4187,
      "Ġsled": 4188,
      "ĠudÅ¯": 4189,
      "ĠbrÃ¡t": 4190,
      "ĠadÅ¡ÃŃ": 4191,
      "ĠuÅĻÃŃ": 4192,
      "ĠvÃ¡l": 4193,
      "Ġimk": 4194,
      "Ġiony": 4195,
      "ur": 4196,
      "ĠelnÃ©": 4197,
      "Ġprost": 4198,
      "ĠÄĽdÅĻ": 4199,
      "Ġurd": 4200,
      "ĠidnÄĽ": 4201,
      "ĠchlÃ©b": 4202,
      "Ġow": 4203,
      "ĠdÄĽv": 4204,
      "ĠÃ¡nÄį": 4205,
      "Ġojil": 4206,
      "Ġosou": 4207,
      "ĠÄĽcÃŃ": 4208,
      "ĠostnÄĽ": 4209,
      "ĠÄĽkkÃ¡": 4210,
      "iÅ¥": 4211,
      "ĠzeÄı": 4212,
      "Ġadz": 4213,
      "ĠÄįp": 4214,
      "ĠonÃ¡": 4215,
      "ÄĽÅ¥": 4216,
      "Ġectn": 4217,
      "oÄı": 4218,
      "ĠvÅ¡ÃŃm": 4219,
      "ĠÃ¡vsk": 4220,
      "Ġezst": 4221,
      "ĠÄıas": 4222,
      "Ġklad": 4223,
      "ĠÃŃÅĻk": 4224,
      "Ġejde": 4225,
      "ĠdÃŃ": 4226,
      "ĠbÃ¡j": 4227,
      "Ġinil": 4228,
      "Ġiet": 4229,
      "ert": 4230,
      "Ġolm": 4231,
      "Ġtvor": 4232,
      "Ġedno": 4233,
      "Ġustn": 4234,
      "ĠÃºdy": 4235,
      "ĠdÅ¡t": 4236,
      "ĠhleÄı": 4237,
      "Ġadit": 4238,
      "ĠepÃ¡": 4239,
      "ĠoÅĪsk": 4240,
      "ĠÄĽsnÃ¡": 4241,
      "im": 4242,
      "Ġadp": 4243,
      "ĠÅ¡kr": 4244,
      "ĠojÄım": 4245,
      "ĠÃºÄįt": 4246,
      "ĠrÅĪ": 4247,
      "Ġstal": 4248,
      "ĠÄĽdl": 4249,
      "ĠkÅĻik": 4250,
      "ĠiÃŃch": 4251,
      "Ġomr": 4252,
      "ĠiÅ¡i": 4253,
      "ĠchceÅ¡": 4254,
      "fr": 4255,
      "Ġavz": 4256,
      "Ġavem": 4257,
      "ĠXXAXAX": 4258,
      "ĠaÄįky": 4259,
      "ĠnÃ©st": 4260,
      "Ġanl": 4261,
      "ĠÅĻÃ¡d": 4262,
      "Ġiska": 4263,
      "Ġvznes": 4264,
      "Ġulh": 4265,
      "Ġznak": 4266,
      "ĠobÅĻe": 4267,
      "ĠÃ½zv": 4268,
      "ĠaÃºp": 4269,
      "Ġmost": 4270,
      "Ġilku": 4271,
      "Ġoto": 4272,
      "Ġimr": 4273,
      "Ġichni": 4274,
      "Ġozhn": 4275,
      "Ġanic": 4276,
      "ĠÃ¡mc": 4277,
      "Ġechal": 4278,
      "Ġecka": 4279,
      "ĠÃŃsto": 4280,
      "Ġoustr": 4281,
      "ĠpÃ¡d": 4282,
      "Ġozen": 4283,
      "Ġobraz": 4284,
      "ĠcÅ¾": 4285,
      "Ġevc": 4286,
      "ĠÃ¡hnou": 4287,
      "ĠÃ½sp": 4288,
      "ĠiÅĪt": 4289,
      "Ġelb": 4290,
      "ĠedÅ¡": 4291,
      "Ġovnou": 4292,
      "Ġibr": 4293,
      "ĠmÄĽj": 4294,
      "ÃŃÄį": 4295,
      "ĠsmÃ¡t": 4296,
      "Ġujem": 4297,
      "Ġocha": 4298,
      "Ġoupat": 4299,
      "Ġeptal": 4300,
      "ap": 4301,
      "ĠevÃŃm": 4302,
      "ĠeÄįl": 4303,
      "ĠoÅĻkl": 4304,
      "Ġuschl": 4305,
      "uÅ¥": 4306,
      "ĠanÃ©m": 4307,
      "Ġesb": 4308,
      "Ġestv": 4309,
      "Ġshon": 4310,
      "ĠÃ¡znÃŃ": 4311,
      "ĠÄĽÄįÃŃ": 4312,
      "ĠznÃ¡t": 4313,
      "Ġniv": 4314,
      "Ġule": 4315,
      "Ġouci": 4316,
      "Ġaun": 4317,
      "ĠodnÃ¡": 4318,
      "ĠeÄįnÃ¡": 4319,
      "Ġeuk": 4320,
      "Ġarj": 4321,
      "ĠÃ¡tl": 4322,
      "ĠyÅ¡ÃŃÅ¡": 4323,
      "ĠoÄıt": 4324,
      "Ġerr": 4325,
      "Ġurs": 4326,
      "Ġadno": 4327,
      "Ġigm": 4328,
      "ĠÃŃkÅ¯m": 4329,
      "ĠÃ½vn": 4330,
      "ĠeÄįnÃŃ": 4331,
      "Ġejsp": 4332,
      "Ġenek": 4333,
      "Ġuty": 4334,
      "ĠlnÄĽ": 4335,
      "ĠiÄįkÃ½": 4336,
      "ĠenÅ¡t": 4337,
      "ĠÃŃnat": 4338,
      "ĠÄĽÅĻÃŃm": 4339,
      "Ġjih": 4340,
      "ĠÃ½chu": 4341,
      "Ġepe": 4342,
      "Ġocy": 4343,
      "ĠouÄįÃŃ": 4344,
      "ĠÃ½my": 4345,
      "ĠÅ¯kol": 4346,
      "Ġeodvr": 4347,
      "ĠidskÃ©": 4348,
      "ĠÅ¯ch": 4349,
      "Ġejch": 4350,
      "ĠÃ¡tem": 4351,
      "ĠÃ¡vs": 4352,
      "ĠoÄįÃŃm": 4353,
      "ĠÅĻev": 4354,
      "ĠÃŃze": 4355,
      "ĠutnÃ½": 4356,
      "ĠanÃ½m": 4357,
      "ĠÃ¡tÃ©": 4358,
      "ĠoÄįl": 4359,
      "ĠikÅ¯": 4360,
      "ĠÄĽdÄĽt": 4361,
      "ĠbÃ¡l": 4362,
      "Ġehm": 4363,
      "ĠÃŃÄįe": 4364,
      "Ġios": 4365,
      "Ġmih": 4366,
      "ĠojÅ¯": 4367,
      "ĠezÃŃ": 4368,
      "Ġikou": 4369,
      "ĠAABXBX": 4370,
      "Ġlad": 4371,
      "ĠudnÃ©": 4372,
      "Ġypj": 4373,
      "ĠebnÃŃ": 4374,
      "Ġelf": 4375,
      "ĠÃ¡to": 4376,
      "ĠlÃŃp": 4377,
      "Ġozi": 4378,
      "ĠplÃ¡Å¡Å¥": 4379,
      "ĠeÄįky": 4380,
      "ĠukÅĻ": 4381,
      "Ġpel": 4382,
      "ĠÃ¡ra": 4383,
      "Ġctnost": 4384,
      "ĠiÃ¡ln": 4385,
      "ĠouÅ¾k": 4386,
      "Ġadkou": 4387,
      "Ġalg": 4388,
      "ĠolÅ¡t": 4389,
      "ĠÄįet": 4390,
      "Ġsnes": 4391,
      "ĠiÅ¡Å¡": 4392,
      "Ġochb": 4393,
      "ĠodnÃ½": 4394,
      "Ġvin": 4395,
      "Ġuzi": 4396,
      "ĠoÄįnÃŃ": 4397,
      "Å¯Å¾": 4398,
      "ĠahÅ¯": 4399,
      "ĠspÄĽl": 4400,
      "Ġrhne": 4401,
      "ĠABAABX": 4402,
      "Ġone": 4403,
      "Ġaro": 4404,
      "ĠÃ¡sv": 4405,
      "ĠÃ¡dat": 4406,
      "ĠeÅ¾e": 4407,
      "Ġaud": 4408,
      "ĠevÅĻel": 4409,
      "Ġodie": 4410,
      "Ġejj": 4411,
      "ĠornÃ©": 4412,
      "ĠezÄį": 4413,
      "ĠrdÃ©": 4414,
      "ĠXXXXAA": 4415,
      "ĠaÄįil": 4416,
      "ĠutnÃ©": 4417,
      "ĠÄĽjÅ¡ÃŃm": 4418,
      "ĠÃ¡vno": 4419,
      "ĠÃŃtÅĻk": 4420,
      "Ġkat": 4421,
      "ĠAXB": 4422,
      "Ġtch": 4423,
      "ĠemÅ¥": 4424,
      "Ġbran": 4425,
      "ĠatnÃ½": 4426,
      "ĠÃ©rk": 4427,
      "Ġaop": 4428,
      "ĠudÄį": 4429,
      "ĠoÅĻÃŃm": 4430,
      "ĠaÄįi": 4431,
      "ĠaÄįnÃ©": 4432,
      "ĠernÃ¡": 4433,
      "ĠeÅĪt": 4434,
      "ĠarnÄĽ": 4435,
      "Ġinnost": 4436,
      "Ġelbl": 4437,
      "Ġatt": 4438,
      "ĠÄĽze": 4439,
      "ĠomÅĻ": 4440,
      "ĠuÄįil": 4441,
      "Ġrsou": 4442,
      "Ġalh": 4443,
      "Ġznal": 4444,
      "ĠeÄım": 4445,
      "ĠadnÄĽ": 4446,
      "ĠÃ¡pr": 4447,
      "Ġyvst": 4448,
      "ĠotÃ¡ch": 4449,
      "ĠsnÃŃt": 4450,
      "ĠzvÄĽÅĻ": 4451,
      "Ġskryt": 4452,
      "ĠalÃ½ch": 4453,
      "Ġinem": 4454,
      "ĠÃŃpn": 4455,
      "ĠÃŃzkÃ¡": 4456,
      "ĠanstvÃŃ": 4457,
      "Ġhloub": 4458,
      "Ġezky": 4459,
      "ĠÄĽÅ¾i": 4460,
      "Ġutno": 4461,
      "ĠÃ½stÅĻ": 4462,
      "ĠchvÃŃ": 4463,
      "Ġlzn": 4464,
      "ĠÅ¯tc": 4465,
      "ĠÃ¼": 4466,
      "ĠÄĽÄįnÃ¡": 4467,
      "ĠencÅ¯": 4468,
      "Ġilie": 4469,
      "Ġvzlet": 4470,
      "ĠÃ½ms": 4471,
      "ĠÄĽchem": 4472,
      "ĠvznÄĽt": 4473,
      "Ġzdroj": 4474,
      "Ġjar": 4475,
      "Ġdol": 4476,
      "Ġluk": 4477,
      "ĠiÃ¡t": 4478,
      "ĠelnÃ½": 4479,
      "Ġipp": 4480,
      "Ġihla": 4481,
      "Ġyf": 4482,
      "ĠÃŃtat": 4483,
      "Ġezhl": 4484,
      "ĠaÄįc": 4485,
      "Ġelky": 4486,
      "Ġuet": 4487,
      "Ġanky": 4488,
      "ĠrnÄį": 4489,
      "ĠostnÃ½": 4490,
      "ĠAXAXBB": 4491,
      "ĠÃ½hr": 4492,
      "Ġierr": 4493,
      "Na": 4494,
      "ĠNa": 4495,
      "Ġspal": 4496,
      "ĠaÅ¡p": 4497,
      "Ġumb": 4498,
      "Ġisy": 4499,
      "ĠNaN": 4500,
      "ĠÄĽtech": 4501,
      "ĠunÄį": 4502,
      "ĠlnÃ©": 4503,
      "ĠÃ¡cen": 4504,
      "Ġoudem": 4505,
      "ĠrvÃ¡": 4506,
      "Ġirm": 4507,
      "ab": 4508,
      "uÄį": 4509,
      "Ġx": 4510,
      "Ġamkn": 4511,
      "ĠÃŃtit": 4512,
      "Ġorch": 4513,
      "ĠtvÃ©m": 4514,
      "ĠÃŃvej": 4515,
      "Ġytil": 4516,
      "Ġibn": 4517,
      "Ġpou": 4518,
      "ĠodÅĪ": 4519,
      "ĠekÃ¡m": 4520,
      "ĠÄĽkÄį": 4521,
      "ĠoÅ¾no": 4522,
      "ĠÃ©kl": 4523,
      "ĠadÅ¾": 4524,
      "ĠÃŃzv": 4525,
      "ĠelkÃ¡": 4526,
      "Ġrnou": 4527,
      "ĠejÅ¡l": 4528,
      "Ġanf": 4529,
      "Ġezj": 4530,
      "ĠemnÃ¡": 4531,
      "ĠustÃ©": 4532,
      "ĠenÅ¥": 4533,
      "Ġupt": 4534,
      "Ġovic": 4535,
      "ĠÃ¡tÅ¯": 4536,
      "Ġull": 4537,
      "Ġdva": 4538,
      "ĠuÅĪk": 4539,
      "ĠÃ½cha": 4540,
      "ĠÃŃdnÃ©": 4541,
      "ĠÃŃÅĻil": 4542,
      "ĠÄĽÅĻit": 4543,
      "ĠarnÃ©": 4544,
      "Ġmhl": 4545,
      "Ġistou": 4546,
      "ĠÃ¡ha": 4547,
      "Ġadli": 4548,
      "ĠouÅ¾it": 4549,
      "Ġouchn": 4550,
      "Ġesh": 4551,
      "ĠÃºhl": 4552,
      "Ġkvil": 4553,
      "ĠÄĽÅ¡c": 4554,
      "ĠozstÅĻ": 4555,
      "AC": 4556,
      "Ġlest": 4557,
      "ĠedÅ¯": 4558,
      "Ġuto": 4559,
      "ĠavnÃ½": 4560,
      "Ġikne": 4561,
      "ozd": 4562,
      "ĠinÃ½ch": 4563,
      "ĠÄĽkl": 4564,
      "Ġuvit": 4565,
      "Ġeuzn": 4566,
      "Ġomstv": 4567,
      "Ġunou": 4568,
      "ĠzlÃ¡": 4569,
      "ĠÃ¡bÅĻ": 4570,
      "ĠinÃ½m": 4571,
      "ĠoheÅĪ": 4572,
      "ĠÃ¡sek": 4573,
      "ĠuchÅĻ": 4574,
      "ĠabÅĻ": 4575,
      "ĠuhÃ©": 4576,
      "ĠouhÃ©": 4577,
      "ĠemnÃ½": 4578,
      "Ġatkou": 4579,
      "Ġaskn": 4580,
      "Ġelkou": 4581,
      "ĠoÅ¾nÃ¡": 4582,
      "Ġezpr": 4583,
      "Ġomem": 4584,
      "Ġhrou": 4585,
      "ĠyÅ¡ÃŃm": 4586,
      "Ġaby": 4587,
      "ĠÄĽzem": 4588,
      "Ġasil": 4589,
      "ĠekÅĻ": 4590,
      "ĠplÃ¡ÅĪ": 4591,
      "ĠÄĽjte": 4592,
      "ĠÃ©nky": 4593,
      "ÄĽsÅ¥": 4594,
      "Å¯z": 4595,
      "Ġonky": 4596,
      "ĠepÃ©": 4597,
      "ĠytnÃ©": 4598,
      "ĠchÅĻt": 4599,
      "ĠABAXXB": 4600,
      "ĠedÃŃm": 4601,
      "Ġodnou": 4602,
      "Ġeptn": 4603,
      "Ġozmn": 4604,
      "Ġrhla": 4605,
      "ĠpÃ¡r": 4606,
      "Ġkov": 4607,
      "Ġebce": 4608,
      "Ġeko": 4609,
      "Ġynout": 4610,
      "ĠÃ¡ctv": 4611,
      "Ġmed": 4612,
      "ĠÃŃzdÃ¡": 4613,
      "ĠÃŃÅĪk": 4614,
      "Ġodstr": 4615,
      "Ġoas": 4616,
      "Ġolf": 4617,
      "Ġoben": 4618,
      "Ġojc": 4619,
      "Ġonie": 4620,
      "ĠhrÃ¡": 4621,
      "ĠÃŃdÃ¡m": 4622,
      "ĠozhÅĻ": 4623,
      "Ġrov": 4624,
      "ĠÃŃcen": 4625,
      "ĠiÅ¾t": 4626,
      "Ġesna": 4627,
      "ĠÃŃsky": 4628,
      "Ġythm": 4629,
      "ĠrÃ½m": 4630,
      "ĠÃŃtÃ¡m": 4631,
      "Ġiml": 4632,
      "Ġouce": 4633,
      "ĠalÅ¯": 4634,
      "Ġplam": 4635,
      "Ġopit": 4636,
      "ĠzdÃ¡": 4637,
      "ĠznÃ¡Å¡": 4638,
      "ĠÃ©nÃ¡": 4639,
      "Ġeau": 4640,
      "Ġston": 4641,
      "ĠudÅĻ": 4642,
      "ĠennÃ½": 4643,
      "ĠiÄįkÃ¡": 4644,
      "ĠÅ¯du": 4645,
      "ĠalnÃ½": 4646,
      "ĠeÅ¥t": 4647,
      "ĠejÃŃch": 4648,
      "ĠÃ¡zc": 4649,
      "Ġemch": 4650,
      "ĠovstvÃŃ": 4651,
      "ĠÃºÅ¡": 4652,
      "ĠÄĽdc": 4653,
      "ĠÃŃzÃŃ": 4654,
      "ĠÃŃdlem": 4655,
      "Ġong": 4656,
      "Ã½r": 4657,
      "ĠÄĽtlÃ½": 4658,
      "Ġjel": 4659,
      "ĠÃ¡tit": 4660,
      "Ġida": 4661,
      "ĠÃŃdat": 4662,
      "Ġvrat": 4663,
      "ĠÄĽjÅ¡ÃŃch": 4664,
      "Ġjat": 4665,
      "Ġkus": 4666,
      "Ġbok": 4667,
      "ĠsnÄĽm": 4668,
      "ĠÄĽstk": 4669,
      "ĠuÄįel": 4670,
      "Ġtluk": 4671,
      "Ġpsal": 4672,
      "ĠÃŃzkÃ½": 4673,
      "ĠvÄĽÅ¾": 4674,
      "Ġevzb": 4675,
      "ĠechÃ¡": 4676,
      "Ġhrot": 4677,
      "ĠynÅ¯": 4678,
      "ĠÄĽchÃ¡": 4679,
      "ĠÃ¡stk": 4680,
      "ĠlkÃ¡": 4681,
      "Ġmy": 4682,
      "ĠÄĽlÃ½ch": 4683,
      "Ġhnal": 4684,
      "Ġezdy": 4685,
      "Ġobzor": 4686,
      "isk": 4687,
      "ĠuÅ¡ky": 4688,
      "ĠÄĽÅ¾nÃ©": 4689,
      "ĠupÃŃ": 4690,
      "Ġacl": 4691,
      "me": 4692,
      "Ġaet": 4693,
      "ĠpÅ¯l": 4694,
      "Ġtuch": 4695,
      "ĠÃ½dl": 4696,
      "ĠorÃ½": 4697,
      "ĠaÅ¾e": 4698,
      "Ġucht": 4699,
      "Ġabs": 4700,
      "ĠÄĽrou": 4701,
      "Ġztich": 4702,
      "Ġjist": 4703,
      "ĠvÄĽz": 4704,
      "Ġith": 4705,
      "ĠpÅĻÃ¡l": 4706,
      "Ġyzl": 4707,
      "ĠÃ¡dÄĽ": 4708,
      "ĠrdÃŃ": 4709,
      "Ġyps": 4710,
      "ĠÃºtn": 4711,
      "ĠÃºsmÄĽv": 4712,
      "Ġolik": 4713,
      "ĠolÃŃch": 4714,
      "ĠeÄįem": 4715,
      "ĠunÄĽ": 4716,
      "ĠÄĽnci": 4717,
      "Ġutou": 4718,
      "ĠÃ½vat": 4719,
      "Ġidla": 4720,
      "Ġvoj": 4721,
      "Ġapt": 4722,
      "Ġusch": 4723,
      "Ġernou": 4724,
      "Ġrhal": 4725,
      "ĠÃ¤": 4726,
      "ĠÃŃlem": 4727,
      "ĠÃŃzka": 4728,
      "ĠikrÃ¡t": 4729,
      "Ġovce": 4730,
      "ĠelÃ½m": 4731,
      "Ġasto": 4732,
      "ĠoÅ¡sk": 4733,
      "Ġchce": 4734,
      "ĠskrÃ½Å¡": 4735,
      "ĠaÄįna": 4736,
      "ĠÃ¡zni": 4737,
      "Ġadrech": 4738,
      "Ġvan": 4739,
      "ĠlÃ©": 4740,
      "ĠobnÃ©": 4741,
      "ĠÃŃÅĻstv": 4742,
      "ĠABCCAB": 4743,
      "ĠÄĽjÃŃch": 4744,
      "ĠÃŃchÅ¯": 4745,
      "ĠoucÃ½": 4746,
      "Ġysli": 4747,
      "ĠovskÃ½": 4748,
      "Ġaff": 4749,
      "Ġcr": 4750,
      "Ġidk": 4751,
      "Ġeva": 4752,
      "Ġusta": 4753,
      "ĠÃ¡vÃ¡Å¡": 4754,
      "Ġemhl": 4755,
      "Ġemkn": 4756,
      "Ġamhl": 4757,
      "ĠorÃ¡": 4758,
      "ĠuÅ¡ku": 4759,
      "ĠÃ¡Å¡e": 4760,
      "ĠickÃ¡": 4761,
      "Ġanec": 4762,
      "ĠvzplÃ¡l": 4763,
      "Ġsdr": 4764,
      "Ġadsk": 4765,
      "ĠÃ¡nil": 4766,
      "ĠubÃŃ": 4767,
      "Ġdna": 4768,
      "ĠÄĽÄįnost": 4769,
      "ĠiÄįce": 4770,
      "Ġeul": 4771,
      "ĠXXXAAX": 4772,
      "Ġoe": 4773,
      "ĠÃ¡tel": 4774,
      "ĠÄĽnil": 4775,
      "ĠujÃŃc": 4776,
      "ĠeuÅ¡": 4777,
      "ĠÃŃjel": 4778,
      "Ġiskne": 4779,
      "Ġotom": 4780,
      "Ġdnu": 4781,
      "ĠupÄį": 4782,
      "Ġadle": 4783,
      "Ġohla": 4784,
      "Ġeov": 4785,
      "Ġoy": 4786,
      "ĠbouÅĻ": 4787,
      "ĠatÅ¯": 4788,
      "ĠumnÃ©": 4789,
      "Ġoupal": 4790,
      "ĠzdrÃ¡v": 4791,
      "aÄį": 4792,
      "Ġkdy": 4793,
      "Ġsloup": 4794,
      "Ġedlo": 4795,
      "Ġbor": 4796,
      "Ġudm": 4797,
      "Ġujte": 4798,
      "ĠÅ¯zi": 4799,
      "Ġutkem": 4800,
      "Ġezbr": 4801,
      "Ġiarch": 4802,
      "Ġvy": 4803,
      "Ġvem": 4804,
      "Ġatit": 4805,
      "ĠÃ¡nl": 4806,
      "ĠÃ¡vist": 4807,
      "ĠÅĻÃŃc": 4808,
      "ĠAAABBX": 4809,
      "ĠilnÃ½": 4810,
      "ĠsÃ¡h": 4811,
      "Ġzchv": 4812,
      "ĠavnÃ©": 4813,
      "ĠuÅ¡c": 4814,
      "Ġunt": 4815,
      "Ġynd": 4816,
      "ĠzlÃ½": 4817,
      "ĠÃ¡hly": 4818,
      "ĠÃ¡Å¡nÄĽ": 4819,
      "Ġemb": 4820,
      "Ġuta": 4821,
      "ĠuÅ¾c": 4822,
      "Ġzlou": 4823,
      "ĠÃŃdly": 4824,
      "Ġatra": 4825,
      "Ġtok": 4826,
      "Ġefl": 4827,
      "Ġoo": 4828,
      "ĠsÃŃÅĪ": 4829,
      "ĠojÃŃch": 4830,
      "ĠlnÃ¡": 4831,
      "ĠobrÃ½": 4832,
      "ĠeÅĻil": 4833,
      "ĠarnÃŃ": 4834,
      "ĠozpÅĻ": 4835,
      "ĠornÃ½": 4836,
      "ĠÃŃznÃŃ": 4837,
      "Ġektr": 4838,
      "oÄį": 4839,
      "ĠÅ¡kv": 4840,
      "ĠaÄįen": 4841,
      "ĠdlÃŃ": 4842,
      "ĠÃŃzeÅĪ": 4843,
      "ĠadlÃ¡": 4844,
      "Ġenko": 4845,
      "Ġvzpr": 4846,
      "ĠÄĽrnÃ¡": 4847,
      "ĠouchÃ¡": 4848,
      "ĠÄĽsnÃ½": 4849,
      "Ġhej": 4850,
      "Ġedat": 4851,
      "Ġichem": 4852,
      "Ġpluh": 4853,
      "ĠÃ¡rnÃ©": 4854,
      "ĠrtÅ¯m": 4855,
      "Ġoupit": 4856,
      "Ġanth": 4857,
      "ĠounkÃ©": 4858,
      "Ġechm": 4859,
      "ĠaÅ¾il": 4860,
      "ĠaÄįnÃ½": 4861,
      "ĠmÅ¾ik": 4862,
      "ĠÃ©pe": 4863,
      "Ġodsv": 4864,
      "Ġasech": 4865,
      "Ġevil": 4866,
      "ĠchvÄĽt": 4867,
      "ĠÃŃÄįky": 4868,
      "ĠÄĽlÃ½m": 4869,
      "Ġelka": 4870,
      "ĠickÃ½ch": 4871,
      "Ġodpr": 4872,
      "ĠmÅĻÃŃt": 4873,
      "ĠÃŃckrÃ¡t": 4874,
      "ĠtÃ³n": 4875,
      "Ġadech": 4876,
      "ĠÅ¾eh": 4877,
      "ĠamnÃ©": 4878,
      "ĠonÅ¥": 4879,
      "ĠÃ¡tÃŃm": 4880,
      "ĠÃ¡dek": 4881,
      "ĠÃ©tla": 4882,
      "ĠuÅ¡en": 4883,
      "Ġatry": 4884,
      "Ġzchl": 4885,
      "Ġedch": 4886,
      "ĠodÄį": 4887,
      "Ġulost": 4888,
      "Ġrtl": 4889,
      "ĠABBAAB": 4890,
      "ĠÄĽhem": 4891,
      "ĠionÅ¯": 4892,
      "ĠkeÅĻ": 4893,
      "ĠovÅ¯": 4894,
      "ĠÃ½chy": 4895,
      "Ġoupc": 4896,
      "ĠdvÅ¯r": 4897,
      "Ġesne": 4898,
      "zt": 4899,
      "ĠitÃ½ch": 4900,
      "ĠÄĽsnÃ©": 4901,
      "ĠÅ¯dy": 4902,
      "Ġokna": 4903,
      "ĠadÄĽj": 4904,
      "Ġemt": 4905,
      "Ġavo": 4906,
      "Ġoldn": 4907,
      "Ġasc": 4908,
      "ĠÃ½chl": 4909,
      "ĠvÅ¡t": 4910,
      "Ġrvi": 4911,
      "Ġoctl": 4912,
      "ick": 4913,
      "Ġaotc": 4914,
      "ĠdÄĽj": 4915,
      "Ġalf": 4916,
      "Ġoden": 4917,
      "Ġkrov": 4918,
      "Ġidr": 4919,
      "ĠecÃŃ": 4920,
      "ĠÃŃkal": 4921,
      "ĠojnÄĽ": 4922,
      "Ġsbr": 4923,
      "ĠilÃ½ch": 4924,
      "Ġosf": 4925,
      "ĠÃ¡kal": 4926,
      "Ġacel": 4927,
      "Ġypn": 4928,
      "ĠiskÃ¡": 4929,
      "Ġoir": 4930,
      "Å¯ÅĪ": 4931,
      "ĠehÅ¯": 4932,
      "ĠÃ¡do": 4933,
      "ĠuÅ¾Å¡": 4934,
      "ĠÃ¡snou": 4935,
      "ĠzÅĻÃŃ": 4936,
      "ĠÃ¡hlÃ½": 4937,
      "esÅ¥": 4938,
      "Ġvtip": 4939,
      "ĠindÅĻ": 4940,
      "dr": 4941,
      "Ġelst": 4942,
      "Ġoti": 4943,
      "ĠaÅ¡ich": 4944,
      "Ġrdcem": 4945,
      "Ġuvt": 4946,
      "ĠolÄį": 4947,
      "Ġobem": 4948,
      "ĠoÅĻÄį": 4949,
      "ĠeskÅ¯": 4950,
      "ĠesnÃŃ": 4951,
      "ĠÃ³ny": 4952,
      "Ġknih": 4953,
      "Ġinout": 4954,
      "Ġojk": 4955,
      "ĠÄĽma": 4956,
      "Ġskryl": 4957,
      "ĠostnÃ¡": 4958,
      "ĠrÅ¡tn": 4959,
      "ABA": 4960,
      "ĠolÃ½": 4961,
      "Ġpruh": 4962,
      "ĠoÅ¾it": 4963,
      "ĠÃºz": 4964,
      "ĠÃ¡pk": 4965,
      "Ġgh": 4966,
      "Ġ34": 4967,
      "ĠevÅ¡ad": 4968,
      "Ġovor": 4969,
      "ĠvzÃŃt": 4970,
      "ĠustÃ½": 4971,
      "Ġihr": 4972,
      "ĠpÃ¡s": 4973,
      "Ġenout": 4974,
      "ĠseÄį": 4975,
      "ĠiÅ¡tn": 4976,
      "Ġpal": 4977,
      "ĠalÃ©m": 4978,
      "Ġosen": 4979,
      "ĠiÄįkÃ¡ch": 4980,
      "ĠovnÃ½": 4981,
      "ĠudeÅ¡": 4982,
      "ĠoldÅĻ": 4983,
      "ĠalÅ¥": 4984,
      "ĠÄĽmÃŃ": 4985,
      "ĠilnÄĽ": 4986,
      "ĠÃ½rÅ¯": 4987,
      "Ġajde": 4988,
      "Ġojv": 4989,
      "ĠÃ¡Å¡el": 4990,
      "Ġoutku": 4991,
      "ĠÃ©nc": 4992,
      "ĠÃŃtko": 4993,
      "ĠanÃŃm": 4994,
      "Ġarou": 4995,
      "Ġtvar": 4996,
      "ĠednÃ¡": 4997,
      "Ġertu": 4998,
      "Ġjan": 4999,
      "ĠzdÃ¡l": 5000,
      "ĠapÃŃ": 5001,
      "Ġizel": 5002,
      "Ġurt": 5003,
      "ĠadnÃ¡": 5004,
      "Ġuit": 5005,
      "ĠadÅĻ": 5006,
      "ĠÅ¾e": 5007,
      "ĠÃ¡mb": 5008,
      "ĠokÃ½ch": 5009,
      "Ġosit": 5010,
      "Ġrsa": 5011,
      "oÅĪ": 5012,
      "Ġpj": 5013,
      "Ġadh": 5014,
      "ĠÃ¡mku": 5015,
      "ĠydÃŃ": 5016,
      "Ġehla": 5017,
      "Ġoukr": 5018,
      "ĠbÄĽl": 5019,
      "Ġeng": 5020,
      "ÄĽr": 5021,
      "Ġskok": 5022,
      "ĠesknÃ©": 5023,
      "ĠabÅ¡": 5024,
      "Ġeptl": 5025,
      "ĠXABB": 5026,
      "Ġatel": 5027,
      "Ġchyt": 5028,
      "Ġozu": 5029,
      "ĠÃ½mu": 5030,
      "ĠoÅ¾stvÃŃ": 5031,
      "ĠÃ¡ÅĻem": 5032,
      "Ġdluh": 5033,
      "Ġizl": 5034,
      "ĠÃ¡dnÃ¡": 5035,
      "ĠeuÄį": 5036,
      "Ġumrl": 5037,
      "Ġako": 5038,
      "Ġeshl": 5039,
      "ĠeÄįc": 5040,
      "ĠaÅĪsk": 5041,
      "ĠeumÅĻ": 5042,
      "uv": 5043,
      "ĠarÃ©m": 5044,
      "ĠabÃŃ": 5045,
      "Ġijem": 5046,
      "Ġacen": 5047,
      "ĠeÅĪsk": 5048,
      "ĠÅ¯zr": 5049,
      "ĠousÃŃ": 5050,
      "Ġychle": 5051,
      "Ġahrad": 5052,
      "ĠÃ©dne": 5053,
      "Ġvhod": 5054,
      "Ġygr": 5055,
      "Ġeid": 5056,
      "ĠekÃ½": 5057,
      "ĠÃŃhal": 5058,
      "ĠovskÃ©": 5059,
      "ĠoltÃ¡ÅĻ": 5060,
      "ĠzÅĪ": 5061,
      "ĠivnÃ©": 5062,
      "Ġarie": 5063,
      "ĠÄĽjk": 5064,
      "Ġdvou": 5065,
      "ĠÃŃdlech": 5066,
      "ĠXAAXXX": 5067,
      "ĠstÅ¯l": 5068,
      "Ġynn": 5069,
      "ĠouÅ¾ÃŃm": 5070,
      "Ġavda": 5071,
      "ĠrpÄį": 5072,
      "Ġlnil": 5073,
      "ĠuÅ¡tkn": 5074,
      "ĠideÃ¡l": 5075,
      "ĠoÅĻÃ¡n": 5076,
      "Ġumk": 5077,
      "Ġusu": 5078,
      "ĠiÅ¾Å¡ÃŃ": 5079,
      "ĠÄĽzda": 5080,
      "Ġatko": 5081,
      "ĠÃŃpl": 5082,
      "ĠÄĽkkÃ½": 5083,
      "Ġejpr": 5084,
      "Ġadal": 5085,
      "Ġadchn": 5086,
      "ĠelÃ½ch": 5087,
      "Ġejk": 5088,
      "Ġonstr": 5089,
      "Ġestm": 5090,
      "ĠsnÅ¯m": 5091,
      "ĠovnÃ©": 5092,
      "ĠÃ©vÃ¡": 5093,
      "aÅĻ": 5094,
      "Ġvi": 5095,
      "Ġomky": 5096,
      "ĠÃ½chn": 5097,
      "ĠÃ¡sou": 5098,
      "Ġevem": 5099,
      "Ġzval": 5100,
      "ĠyÅ¡tv": 5101,
      "Ġoufn": 5102,
      "ĠolbÅĻ": 5103,
      "Ġmnich": 5104,
      "Ġavdu": 5105,
      "Ġifr": 5106,
      "ĠvpÅĻed": 5107,
      "ĠÄĽnÃ½m": 5108,
      "Ġbrl": 5109,
      "ĠÄĽra": 5110,
      "Ġejml": 5111,
      "Ġozy": 5112,
      "ĠasnÃŃ": 5113,
      "ĠÃ¡jk": 5114,
      "Ġptal": 5115,
      "ĠatÅĻil": 5116,
      "ĠinkÃ¡": 5117,
      "Ġeozv": 5118,
      "Ġojich": 5119,
      "Ġleh": 5120,
      "ĠloÄı": 5121,
      "Ġitc": 5122,
      "Ġivt": 5123,
      "ĠÄĽdu": 5124,
      "ĠABBAAX": 5125,
      "ĠÃ½na": 5126,
      "ĠÄĽtÅĻÃŃ": 5127,
      "Ġulic": 5128,
      "ĠlnÃ¡ch": 5129,
      "ĠÄĽsty": 5130,
      "ĠÄĽstem": 5131,
      "ĠnÄĽj": 5132,
      "Ġaon": 5133,
      "ĠÃŃÅ¡sk": 5134,
      "Ġistu": 5135,
      "Ġekly": 5136,
      "ĠvÅĻes": 5137,
      "ĠÃ½ra": 5138,
      "ĠaÄıt": 5139,
      "yÄį": 5140,
      "Ġuel": 5141,
      "Ġinak": 5142,
      "ĠABX": 5143,
      "ĠÄĽmt": 5144,
      "ĠarnÃ½": 5145,
      "ĠÃ©nÄĽ": 5146,
      "ĠÃ©nka": 5147,
      "ĠuÅ¡ka": 5148,
      "ĠotÄįe": 5149,
      "ĠudÃ¡": 5150,
      "ĠeÅ¾el": 5151,
      "Ġrval": 5152,
      "ĠÃ¡pat": 5153,
      "ĠÃºtv": 5154,
      "ĠÃ¡tÄĽ": 5155,
      "Ġuth": 5156,
      "ĠÃ½vl": 5157,
      "Ġrny": 5158,
      "ĠnÅ¯Å¾": 5159,
      "Ġutky": 5160,
      "ĠÅ¯za": 5161,
      "Ġezvr": 5162,
      "ĠÄįnÃŃ": 5163,
      "ĠÃºkol": 5164,
      "ĠeslÃŃ": 5165,
      "Ġeohl": 5166,
      "Ġoem": 5167,
      "ĠdÄĽd": 5168,
      "ĠÄĽvÅ¯": 5169,
      "ĠjdeÅ¡": 5170,
      "ĠovnÄĽ": 5171,
      "ĠÄĽÅ¾kÃ¡": 5172,
      "Ġeat": 5173,
      "Ġeto": 5174,
      "Ã½l": 5175,
      "Ġastkv": 5176,
      "ĠuÅ¡ÃŃm": 5177,
      "ĠabÃ½": 5178,
      "ĠuÄįt": 5179,
      "ĠeÄįnou": 5180,
      "ĠÃ¡Å¾nÃ½": 5181,
      "ĠsvÃ¡": 5182,
      "ĠobÅ¯": 5183,
      "Ġekc": 5184,
      "ĠoÅ¾l": 5185,
      "Ġzlost": 5186,
      "ĠÄĽzi": 5187,
      "ĠupÅĪ": 5188,
      "ĠÃ¡hlÃ¡": 5189,
      "Ġeos": 5190,
      "ĠoulÃŃ": 5191,
      "Ġoztr": 5192,
      "Ġya": 5193,
      "Ġoved": 5194,
      "Ġolit": 5195,
      "ĠutÅĻ": 5196,
      "ĠrvÃ¡t": 5197,
      "ĠeÅ¡tÃŃ": 5198,
      "ĠÄĽsu": 5199,
      "ĠÃ¡nÃŃch": 5200,
      "ĠzÅĻÃŃÅ¡": 5201,
      "ĠÅ¡leh": 5202,
      "ĠÃ½hl": 5203,
      "ĠÄįist": 5204,
      "ĠÃ¡hv": 5205,
      "Ġikdo": 5206,
      "Ġslast": 5207,
      "Ġevst": 5208,
      "Ġisto": 5209,
      "Ġachy": 5210,
      "ĠuhÃ¡": 5211,
      "Ġenkou": 5212,
      "Ġibek": 5213,
      "Ġehnal": 5214,
      "Ġleb": 5215,
      "Ġalen": 5216,
      "ĠadÃŃm": 5217,
      "ĠÄĽlal": 5218,
      "Ġinec": 5219,
      "Ġozum": 5220,
      "Ġzdar": 5221,
      "ĠÃŃdc": 5222,
      "Ġacp": 5223,
      "Ġoznal": 5224,
      "ĠÃ¡zne": 5225,
      "Ġouzla": 5226,
      "Ġagm": 5227,
      "ĠpryÄį": 5228,
      "Ġostu": 5229,
      "ĠÃ¡Äįn": 5230,
      "ĠaskÃ¡": 5231,
      "ĠyhÅĻ": 5232,
      "Ġtaj": 5233,
      "ĠÄĽlÅ¥": 5234,
      "ĠhrÃ¡z": 5235,
      "Ġecku": 5236,
      "ĠÃ¡br": 5237,
      "ĠatnÃ¡": 5238,
      "izd": 5239,
      "Ġrost": 5240,
      "ĠÃ¡nit": 5241,
      "Ġezku": 5242,
      "ĠspÃ¡d": 5243,
      "ant": 5244,
      "Ġsbl": 5245,
      "ĠÃ¡Å¡ti": 5246,
      "ĠodÃŃm": 5247,
      "ĠanÅ¥": 5248,
      "Ġojit": 5249,
      "ĠeÄįÅ¥": 5250,
      "ĠrdÃ¡": 5251,
      "ĠistÅ¯": 5252,
      "Ġochy": 5253,
      "ĠÃŃzku": 5254,
      "ĠÃ©th": 5255,
      "ĠÃ¡Å¡tÄĽ": 5256,
      "ĠÃ¡rnÃ½": 5257,
      "ĠAAAXBB": 5258,
      "Ġokou": 5259,
      "ĠoÅ¾c": 5260,
      "ĠhrÃ¡m": 5261,
      "ĠavnÄĽ": 5262,
      "ĠelnÃ¡": 5263,
      "oÅ¡": 5264,
      "ĠohÃ©m": 5265,
      "Ġijsk": 5266,
      "ĠouÅĻk": 5267,
      "Ġeuct": 5268,
      "Ġinko": 5269,
      "Ġnim": 5270,
      "ĠvÄĽÅĻ": 5271,
      "oÅ¥": 5272,
      "Ġatech": 5273,
      "ĠÃ¡dech": 5274,
      "ĠspÄĽ": 5275,
      "ĠÃŃsv": 5276,
      "ĠAABBBX": 5277,
      "Ġursk": 5278,
      "ĠoÅ¡ÃŃ": 5279,
      "ĠaÅĻk": 5280,
      "ĠohnÄĽ": 5281,
      "ĠaÄįnÃ¡": 5282,
      "ĠÄĽÅ¾nÃ¡": 5283,
      "ĠmÃ¡k": 5284,
      "Ġrslek": 5285,
      "Ġolky": 5286,
      "ĠÄįel": 5287,
      "ĠojnÃ©": 5288,
      "Ġklec": 5289,
      "Ġzdech": 5290,
      "Ġulc": 5291,
      "Ġzbyl": 5292,
      "ĠelkÃ©": 5293,
      "ĠÃºstech": 5294,
      "nÃŃ": 5295,
      "Ġmil": 5296,
      "Ġhod": 5297,
      "Ġblud": 5298,
      "ĠÄĽknÃ©": 5299,
      "Ġize": 5300,
      "ĠoupÄĽ": 5301,
      "ĠÃŃbat": 5302,
      "ĠÅ¯vt": 5303,
      "ĠÃ©nek": 5304,
      "ĠvÅ¾": 5305,
      "Ġpstr": 5306,
      "ĠohÃ©": 5307,
      "ĠÄĽni": 5308,
      "ĠspÃ¡r": 5309,
      "Ġapil": 5310,
      "ĠÃ¡sko": 5311,
      "CCA": 5312,
      "Ġchci": 5313,
      "Ġrsty": 5314,
      "ĠÃ¡Äįky": 5315,
      "ĠÄĽÅ¡tk": 5316,
      "ĠABBCCA": 5317,
      "Ġpot": 5318,
      "ĠuÅ¾ky": 5319,
      "ĠÃºchv": 5320,
      "ĠAABBAA": 5321,
      "ĠÄĽmÄĽ": 5322,
      "ĠaÅ¾dy": 5323,
      "Ġesny": 5324,
      "ĠojÃŃÅ¡": 5325,
      "ĠÃ©le": 5326,
      "Ġsta": 5327,
      "Ġobh": 5328,
      "ĠoÅ¾en": 5329,
      "Ġastni": 5330,
      "AXB": 5331,
      "ĠiÅĻÃŃ": 5332,
      "ĠomnÃ©": 5333,
      "ĠetÃŃm": 5334,
      "Ġokam": 5335,
      "ĠoÅ¾d": 5336,
      "Ġicn": 5337,
      "ĠÄĽsil": 5338,
      "ĠadlÃŃ": 5339,
      "Ġelnic": 5340,
      "ĠeÅ¡la": 5341,
      "Ġefr": 5342,
      "Ġois": 5343,
      "Ġelen": 5344,
      "ĠÃŃvky": 5345,
      "ĠÃŃpr": 5346,
      "ĠÃ½nu": 5347,
      "Ġovzl": 5348,
      "Ġaill": 5349,
      "ÃŃÅ¥": 5350,
      "Ġovech": 5351,
      "Ġstop": 5352,
      "ĠasÃ½": 5353,
      "ĠÄĽlm": 5354,
      "ĠÄĽlÄį": 5355,
      "Ġonit": 5356,
      "Ġekat": 5357,
      "Ġoupy": 5358,
      "ĠoÅ¡m": 5359,
      "BAX": 5360,
      "ĠÃ¡nkem": 5361,
      "Ġestry": 5362,
      "Ġouvr": 5363,
      "Ġjek": 5364,
      "Ġivk": 5365,
      "Ġetsk": 5366,
      "ĠznÃŃt": 5367,
      "ĠoudÅ¯": 5368,
      "ĠÅ¯stk": 5369,
      "Ġauj": 5370,
      "ĠvÄįel": 5371,
      "Ġehrad": 5372,
      "ĠiÄıt": 5373,
      "Ġozzv": 5374,
      "Ġear": 5375,
      "ĠilÃ½m": 5376,
      "ĠÄĽtil": 5377,
      "ĠÄĽÅ¾sk": 5378,
      "ĠÄĽdÅ¯": 5379,
      "Ġurr": 5380,
      "ĠaÅĻil": 5381,
      "ĠutnÄĽ": 5382,
      "ĠoÄįka": 5383,
      "Ġikla": 5384,
      "Ġahne": 5385,
      "ĠanÅ¯m": 5386,
      "ĠostÃ½": 5387,
      "ĠÅ¯jt": 5388,
      "Ġinek": 5389,
      "ĠrdÃ½": 5390,
      "ĠusÃ½": 5391,
      "Ġtrud": 5392,
      "ĠÄĽtlem": 5393,
      "ĠejÅ¡t": 5394,
      "ĠyvÅ¡": 5395,
      "ĠÃŃliÅ¡": 5396,
      "Ġontr": 5397,
      "ĠÃºÅ¡kl": 5398,
      "Ġodech": 5399,
      "ĠebnÃ©": 5400,
      "ĠrdcÃŃ": 5401,
      "Ġachn": 5402,
      "ĠuvÅĪ": 5403,
      "Ġjdem": 5404,
      "Ġvzlyk": 5405,
      "Ġocit": 5406,
      "ĠÃ¡ÅĻÅ¯": 5407,
      "Ġrty": 5408,
      "ĠÄĽÅ¡en": 5409,
      "ĠocnÃ½": 5410,
      "ĠÄĽtskÃ½": 5411,
      "Ġpych": 5412,
      "Ġodstv": 5413,
      "Ġitek": 5414,
      "ĠÃ¡mou": 5415,
      "Ġaria": 5416,
      "Ġeusm": 5417,
      "ĠudnÃ½": 5418,
      "ĠÃŃvka": 5419,
      "ĠÃ¡vod": 5420,
      "Ġung": 5421,
      "ĠanskÃ©": 5422,
      "Ġhou": 5423,
      "ÄĽh": 5424,
      "ĠumÄĽt": 5425,
      "ĠÄĽchal": 5426,
      "ĠiÄįem": 5427,
      "Ġyslil": 5428,
      "Ġztv": 5429,
      "Ġrsti": 5430,
      "Ġbod": 5431,
      "ĠÄĽtk": 5432,
      "ĠÃ½chal": 5433,
      "Ġuse": 5434,
      "Ġrvou": 5435,
      "ĠodnÄĽ": 5436,
      "ĠirÃ½": 5437,
      "Ġantsk": 5438,
      "Ġuds": 5439,
      "ĠÅ¡er": 5440,
      "Ġevs": 5441,
      "Ġpluk": 5442,
      "ĠÃ¡zeÅĪ": 5443,
      "Ġytc": 5444,
      "ĠetÅ¡": 5445,
      "Ġplout": 5446,
      "Ġzvyk": 5447,
      "Ġytou": 5448,
      "Ġiste": 5449,
      "ĠÄĽstÃŃm": 5450,
      "Ġtrav": 5451,
      "Ġibc": 5452,
      "Ġeuj": 5453,
      "ett": 5454,
      "ĠÃ¡hnul": 5455,
      "Ġbil": 5456,
      "Ġenhl": 5457,
      "Ġelv": 5458,
      "Ġobit": 5459,
      "ĠzlÃ½m": 5460,
      "Ġouhev": 5461,
      "ĠÄĽÄįnou": 5462,
      "ĠÅ¯vod": 5463,
      "Ġakat": 5464,
      "Ġamo": 5465,
      "Ġusi": 5466,
      "ĠÃ¡cet": 5467,
      "ĠÃ¡Äįem": 5468,
      "ĠstÅĻech": 5469,
      "ĠenskÃ©": 5470,
      "ĠaÄįku": 5471,
      "ĠÃ½ÄįÃŃ": 5472,
      "ĠodÃ¡l": 5473,
      "Ġolou": 5474,
      "ĠitÃ©m": 5475,
      "ĠÃ¡mÅ¥": 5476,
      "Ġecha": 5477,
      "ĠestÃ¡t": 5478,
      "Ġeskv": 5479,
      "ĠabÄį": 5480,
      "ĠurÅ¾": 5481,
      "Ġihy": 5482,
      "ĠÃ©nku": 5483,
      "ĠÃ½lÃ¡": 5484,
      "ĠeuÅ¾": 5485,
      "Ġechny": 5486,
      "Ġentr": 5487,
      "ĠÃŃtka": 5488,
      "ĠtiÅ¡": 5489,
      "ij": 5490,
      "Ġies": 5491,
      "Ġasf": 5492,
      "ĠÃ©mÅ¾": 5493,
      "ĠikÃ©": 5494,
      "ĠuchÃ½": 5495,
      "ĠyÅ¡et": 5496,
      "ĠÃ¡hli": 5497,
      "ĠuzÃŃ": 5498,
      "ĠÃ½lil": 5499,
      "ĠondÅĻ": 5500,
      "Ġpoj": 5501,
      "ĠolÃŃm": 5502,
      "ĠobÃ¡ch": 5503,
      "Ġahm": 5504,
      "ĠÄĽrnÄĽ": 5505,
      "ĠÃŃska": 5506,
      "Ġelze": 5507,
      "Ġval": 5508,
      "Å¯n": 5509,
      "Ġivs": 5510,
      "Ġonf": 5511,
      "ĠrtÅ¯": 5512,
      "Ġdlel": 5513,
      "Ġennou": 5514,
      "Ġyzdn": 5515,
      "ĠyskÃ¡": 5516,
      "ĠrÅ¯st": 5517,
      "ĠÃ¡tÃ½": 5518,
      "ĠAABBAX": 5519,
      "ĠtÅĻesk": 5520,
      "ĠouzÃŃ": 5521,
      "ĠÅ¯zk": 5522,
      "ĠiÅ¡la": 5523,
      "Ġrys": 5524,
      "Ġasou": 5525,
      "ĠÄĽll": 5526,
      "ĠichÃ©": 5527,
      "ĠÃ¡dem": 5528,
      "Ġostnou": 5529,
      "ĠÃ³nÅ¯": 5530,
      "ĠÃ©Äįi": 5531,
      "Ġlil": 5532,
      "ĠuÅ¡it": 5533,
      "ĠÃŃsÄį": 5534,
      "ĠeckÃ½": 5535,
      "Ġtma": 5536,
      "Ġiby": 5537,
      "Ġoulk": 5538,
      "Ġedh": 5539,
      "ĠsvÃ¡r": 5540,
      "ĠÄĽlu": 5541,
      "Ġitky": 5542,
      "ĠamÅ¯": 5543,
      "Ġarce": 5544,
      "ĠajÅ¯": 5545,
      "ĠeÅ¡tn": 5546,
      "Ġmez": 5547,
      "ĠbÄĽs": 5548,
      "Ġlj": 5549,
      "ĠasÃ¡": 5550,
      "ĠÃŃmc": 5551,
      "ĠÄĽnku": 5552,
      "ĠÅĻÃŃm": 5553,
      "ĠÃ¡zat": 5554,
      "ĠÃŃkn": 5555,
      "ĠyÅ¡e": 5556,
      "ĠÃŃha": 5557,
      "Ġeukr": 5558,
      "Ġeubl": 5559,
      "Ġesnu": 5560,
      "Ġannou": 5561,
      "ĠÃŃzko": 5562,
      "ĠÃŃrÃ¡Å¡": 5563,
      "Ġstvol": 5564,
      "Ġnos": 5565,
      "ĠÃ©ci": 5566,
      "Ġader": 5567,
      "Ġebyl": 5568,
      "Ġopsk": 5569,
      "ĠyÅ¾t": 5570,
      "Ġise": 5571,
      "Ġhvozd": 5572,
      "Ġickou": 5573,
      "Ġalin": 5574,
      "ĠAXAXXX": 5575,
      "ĠaskÅĻ": 5576,
      "ĠÃ½bal": 5577,
      "Ġdmou": 5578,
      "ĠictvÃŃ": 5579,
      "ĠectvÃŃ": 5580,
      "ĠmÃŃst": 5581,
      "Ġandl": 5582,
      "ĠÄĽtel": 5583,
      "ĠÃŃrnÃ©": 5584,
      "ĠazÅ¯": 5585,
      "ĠtrÅ¯n": 5586,
      "ĠÃ½vÃ¡m": 5587,
      "ĠatkÅ¯": 5588,
      "Ġancie": 5589,
      "Ġindr": 5590,
      "Ġokop": 5591,
      "ĠstÃ¡r": 5592,
      "ĠÄĽlil": 5593,
      "ĠÃ¡lÃ©": 5594,
      "ĠetnÃ©": 5595,
      "Ġorce": 5596,
      "Ġskon": 5597,
      "Ġychv": 5598,
      "Ġisv": 5599,
      "ĠernÃ½ch": 5600,
      "ĠÄĽzdÃ¡m": 5601,
      "ĠatnÃŃ": 5602,
      "ĠÃ¡rnÄĽ": 5603,
      "ÃŃh": 5604,
      "ĠodÅ¡": 5605,
      "ĠinÃ©m": 5606,
      "ĠiÄįe": 5607,
      "Ġudba": 5608,
      "ĠonnÃ½": 5609,
      "Ġsst": 5610,
      "ĠalstvÃŃ": 5611,
      "Ġobce": 5612,
      "Ġorie": 5613,
      "Ġimh": 5614,
      "ĠupÅ¯": 5615,
      "Ġychu": 5616,
      "Ġurb": 5617,
      "Ġodne": 5618,
      "ĠrnÃ©": 5619,
      "ĠaÅ¡li": 5620,
      "Ġejvz": 5621,
      "ĠlÃ©k": 5622,
      "ĠpojÄı": 5623,
      "ĠlaÅĪ": 5624,
      "ĠolÃ¡m": 5625,
      "ĠuÄįi": 5626,
      "ĠovnÃŃk": 5627,
      "ĠÄĽkdy": 5628,
      "ĠodÃŃl": 5629,
      "Ġyptsk": 5630,
      "Ġaid": 5631,
      "ĠsÅ¡": 5632,
      "ĠdÃ¡Å¡": 5633,
      "ĠuÅ¡kl": 5634,
      "ĠutÃ½ch": 5635,
      "ĠazÅ¡": 5636,
      "ĠstÅĻel": 5637,
      "ĠÃ¡rny": 5638,
      "Ġeq": 5639,
      "Ġnit": 5640,
      "ĠÃ½kv": 5641,
      "Ġavad": 5642,
      "ĠonnÃ©": 5643,
      "ĠulÃ©": 5644,
      "ĠuhÃ©m": 5645,
      "Ġozvr": 5646,
      "ĠidskÃ¡": 5647,
      "ĠoÅĻkn": 5648,
      "ĠilnÃ©": 5649,
      "Ġopen": 5650,
      "Ġzmn": 5651,
      "Ġzmr": 5652,
      "ĠinnÄĽ": 5653,
      "ĠÄĽtvÃŃch": 5654,
      "ĠÄĽvÄįe": 5655,
      "ĠÃ©Äįko": 5656,
      "ĠeÃ¡ly": 5657,
      "Ġostmi": 5658,
      "Ġetkr": 5659,
      "ĠABBC": 5660,
      "ĠeÄįna": 5661,
      "Ġrnc": 5662,
      "Ġidstva": 5663,
      "Ġetba": 5664,
      "Ġlsn": 5665,
      "ĠABBCAC": 5666,
      "Ġelt": 5667,
      "ĠÃ¡zÃ½": 5668,
      "ĠemnÃ½ch": 5669,
      "ĠastnÄĽ": 5670,
      "ĠchraÅĪ": 5671,
      "Ġipj": 5672,
      "Ġouchal": 5673,
      "ĠlkÃ¡t": 5674,
      "ĠydÄĽl": 5675,
      "Ġoskl": 5676,
      "ĠspÄĽÅ¡": 5677,
      "ĠÅ¡ÃŃp": 5678,
      "Ġevt": 5679,
      "ĠoÅĻn": 5680,
      "ĠdvÃ©": 5681,
      "ĠÃ¡Å¡tÃŃ": 5682,
      "ĠÃºÅ¾e": 5683,
      "ĠÃ¡dla": 5684,
      "ĠÅ¯ÅĻe": 5685,
      "iÄį": 5686,
      "Ġuill": 5687,
      "Ġpar": 5688,
      "Ġco": 5689,
      "ĠÃ¡vem": 5690,
      "ĠsmÄĽl": 5691,
      "Ġuss": 5692,
      "ĠdnÄĽ": 5693,
      "ĠykÅ¯": 5694,
      "ĠÄĽha": 5695,
      "ĠyÅ¡len": 5696,
      "Ġymkn": 5697,
      "Ġauk": 5698,
      "ĠÄĽcka": 5699,
      "ĠÃ¡sla": 5700,
      "Ġuis": 5701,
      "Ġemy": 5702,
      "Ġolek": 5703,
      "ĠÃ¡nÄĽl": 5704,
      "ĠÃ¡vnÃ©": 5705,
      "Ġyml": 5706,
      "Ġvzruch": 5707,
      "Ġmrav": 5708,
      "ĠÃ¡dnou": 5709,
      "ĠrkÃ¡": 5710,
      "ĠouvÃ¡": 5711,
      "ĠÃ©ra": 5712,
      "ĠyÅĪk": 5713,
      "Ġeurv": 5714,
      "Ġspi": 5715,
      "ĠumÃŃm": 5716,
      "ĠabÄĽ": 5717,
      "ĠubÅ¯": 5718,
      "ĠÄĽtle": 5719,
      "ĠÃ¡by": 5720,
      "Ġancii": 5721,
      "ĠuÅ¾by": 5722,
      "Ġortr": 5723,
      "ĠÅ¯Å¡": 5724,
      "Ġinx": 5725,
      "ĠÃŃty": 5726,
      "ĠopÃ¡d": 5727,
      "ĠÄĽzy": 5728,
      "ĠÃ½vÃ¡Å¡": 5729,
      "Ġuncem": 5730,
      "ĠhÃ¡v": 5731,
      "ĠidnÃ©": 5732,
      "ĠtÅĻi": 5733,
      "ĠoupÃ½": 5734,
      "ĠÃ¡pe": 5735,
      "ĠiÄįÃŃm": 5736,
      "ĠolnÃ©": 5737,
      "Ġypk": 5738,
      "Ġoucha": 5739,
      "ĠeÄįko": 5740,
      "ĠÃ¡Äįka": 5741,
      "ĠÄįtl": 5742,
      "ĠaÅ¡Å¡": 5743,
      "ĠapÄį": 5744,
      "Ġrhnout": 5745,
      "Ġytne": 5746,
      "Ġyen": 5747,
      "ĠÃ¡zu": 5748,
      "ĠÅ¯jc": 5749,
      "Ġstrun": 5750,
      "ĠÃ¡km": 5751,
      "Ġoudit": 5752,
      "ĠochÅ¯": 5753,
      "Ġizk": 5754,
      "ĠÃ¡tkem": 5755,
      "ĠejÅ¡k": 5756,
      "ĠÄĽmÅ¾t": 5757,
      "ĠdÃ©": 5758,
      "ĠakÅ¯m": 5759,
      "ÃŃd": 5760,
      "Ġovil": 5761,
      "Ġasr": 5762,
      "ĠÃŃdÄĽ": 5763,
      "ĠstÅĻed": 5764,
      "ĠastnÃ½": 5765,
      "Ġozkr": 5766,
      "ier": 5767,
      "ĠimnÃŃ": 5768,
      "ĠÃ¡lÃ©m": 5769,
      "Ġivec": 5770,
      "ĠÃ¡mÅ¯": 5771,
      "Ġzvou": 5772,
      "Ġubc": 5773,
      "Ġacet": 5774,
      "ĠÃŃbk": 5775,
      "ĠmdlÃ½": 5776,
      "Ġrbsk": 5777,
      "Ġovzb": 5778,
      "ĠvÃ¡Å¡": 5779,
      "ĠostÄĽ": 5780,
      "ĠÃ½mÅ¾": 5781,
      "Ġzbroj": 5782,
      "Ġalost": 5783,
      "ĠelÄį": 5784,
      "Ġavce": 5785,
      "ĠonÅ¡": 5786,
      "ĠÃ¡sÄį": 5787,
      "ĠrdÅ¡": 5788,
      "ĠacÃŃm": 5789,
      "Ġauc": 5790,
      "Ġalmy": 5791,
      "ĠeÃ¡ln": 5792,
      "Ġvil": 5793,
      "ĠÃŃmÅ¥": 5794,
      "Ġezu": 5795,
      "ĠaÅ¾it": 5796,
      "Ġocen": 5797,
      "ĠÄĽmÄį": 5798,
      "Ġ35": 5799,
      "ĠozÅ¡l": 5800,
      "ĠÃ¡lek": 5801,
      "ĠopÄĽ": 5802,
      "Ġuls": 5803,
      "ĠzlÃ©": 5804,
      "ĠÄĽÅ¾ce": 5805,
      "ĠÃ¡chl": 5806,
      "Ġadnout": 5807,
      "ĠrnÄĽ": 5808,
      "ĠrzÃŃ": 5809,
      "ĠannÄĽ": 5810,
      "Ġenom": 5811,
      "ĠydlÃŃ": 5812,
      "Ġue": 5813,
      "ĠidnÃ½": 5814,
      "Ġoknem": 5815,
      "Ġenstva": 5816,
      "Ġrsky": 5817,
      "ĠÃ½ho": 5818,
      "Ġscv": 5819,
      "Ġvaz": 5820,
      "ĠadÃ¡ch": 5821,
      "ĠÃ½mÃ¡": 5822,
      "ĠÃŃcl": 5823,
      "Ġicht": 5824,
      "ĠÃŃnÃ½": 5825,
      "ĠÄĽvÅ¡": 5826,
      "ĠÄĽÅĻi": 5827,
      "ĠÅ¯zou": 5828,
      "ĠskvÃŃ": 5829,
      "ĠodÄĽj": 5830,
      "gr": 5831,
      "Ġems": 5832,
      "Ġovod": 5833,
      "ĠÅ¾eÅĪ": 5834,
      "Ġeri": 5835,
      "ĠÃ¡pas": 5836,
      "Ġrbl": 5837,
      "ĠijeÅ¡": 5838,
      "ĠXXAXXA": 5839,
      "Ġeist": 5840,
      "Ġtou": 5841,
      "Ġenil": 5842,
      "Ġlup": 5843,
      "ĠalÃ½m": 5844,
      "Ġolh": 5845,
      "Ġchat": 5846,
      "Ġytek": 5847,
      "ĠÅ¯jn": 5848,
      "ĠstrÃ¡ÅĪ": 5849,
      "ĠatÅĻÃŃm": 5850,
      "ĠÅ¯ldn": 5851,
      "Ġavdy": 5852,
      "Ġedra": 5853,
      "ĠoÅĻist": 5854,
      "Ġmor": 5855,
      "ĠodÅ¥": 5856,
      "ĠoÅ¾m": 5857,
      "Ġasten": 5858,
      "Ġannu": 5859,
      "ĠaÄįnou": 5860,
      "Ġevrl": 5861,
      "ĠÄĽpn": 5862,
      "ĠsÃ¡l": 5863,
      "Ġkost": 5864,
      "Ġdub": 5865,
      "Ġemm": 5866,
      "Ã¡b": 5867,
      "ĠotÅ¯": 5868,
      "Ġivi": 5869,
      "Ġplic": 5870,
      "ĠXAXX": 5871,
      "ĠÃŃdil": 5872,
      "ĠadnÃŃ": 5873,
      "ĠornÃ¡": 5874,
      "ĠÄĽjeÅ¡": 5875,
      "Ġph": 5876,
      "ĠdÃŃl": 5877,
      "ĠakÃ¡": 5878,
      "ĠÅ¡n": 5879,
      "ĠÅ¡ÃŃ": 5880,
      "ĠÃŃvy": 5881,
      "Ġuchn": 5882,
      "ĠimÄĽ": 5883,
      "ĠeÅĻÃŃm": 5884,
      "Ġovny": 5885,
      "Ġelnou": 5886,
      "ĠelnÃ½ch": 5887,
      "ĠÄĽrnou": 5888,
      "Ġezdr": 5889,
      "ĠokÅĻt": 5890,
      "Ġsyt": 5891,
      "Ġdce": 5892,
      "ĠorÄį": 5893,
      "Ġzdm": 5894,
      "Ġumem": 5895,
      "ĠÃ¡jsk": 5896,
      "ĠÄĽrc": 5897,
      "Ġerly": 5898,
      "Ġozhr": 5899,
      "Ġozdrav": 5900,
      "ĠatÃ½r": 5901,
      "Ġavec": 5902,
      "Ġanz": 5903,
      "Ã½Å¾": 5904,
      "ĠevnÃ©": 5905,
      "ĠahÃ©m": 5906,
      "Ġazky": 5907,
      "ĠhnÃ¡t": 5908,
      "ĠoÅĪt": 5909,
      "Ġvhr": 5910,
      "ĠjÃŃm": 5911,
      "Ġadi": 5912,
      "ĠerÃ©m": 5913,
      "ĠÃ¡vej": 5914,
      "Ġvzor": 5915,
      "Ġdno": 5916,
      "ĠÄĽmÃ©": 5917,
      "ĠarnÃ¡": 5918,
      "Ġavm": 5919,
      "ĠÃ¡lit": 5920,
      "ĠABAX": 5921,
      "ĠÃŃrou": 5922,
      "ĠÄĽdnÃ©": 5923,
      "ĠiÄįi": 5924,
      "Ġirt": 5925,
      "Ġalich": 5926,
      "Ġpne": 5927,
      "Ġoeth": 5928,
      "ĠodeÅĪ": 5929,
      "Ġsvist": 5930,
      "Ġstav": 5931,
      "Ġamf": 5932,
      "Ġatkn": 5933,
      "ĠvÅĻe": 5934,
      "ĠonnÃ¡": 5935,
      "Ġvzhled": 5936,
      "ĠadÃ©m": 5937,
      "Ġsluj": 5938,
      "Ġorech": 5939,
      "Ġzdi": 5940,
      "Ġobra": 5941,
      "ĠouÅ¡ku": 5942,
      "ĠÅ¯znÃ©": 5943,
      "Ġaustr": 5944,
      "Ġrbk": 5945,
      "ĠinÅ¾": 5946,
      "ĠÄĽva": 5947,
      "ent": 5948,
      "ĠztÅĻ": 5949,
      "ĠyÄįt": 5950,
      "Ġidlo": 5951,
      "ĠijÄıt": 5952,
      "Ġouku": 5953,
      "ĠitnÃ©": 5954,
      "ĠÃ¡mÃ¡": 5955,
      "Ġozsk": 5956,
      "ĠÃŃlil": 5957,
      "Ġestem": 5958,
      "Ġyti": 5959,
      "ĠiÅ¡Äį": 5960,
      "Ġesklo": 5961,
      "Ġvsi": 5962,
      "ĠyÅ¡tÃŃ": 5963,
      "Ġeusl": 5964,
      "ĠyuÄį": 5965,
      "Ġovec": 5966,
      "ĠavÃŃÅ¡": 5967,
      "ĠejÅĻ": 5968,
      "ĠÃ¡vil": 5969,
      "ĠeÅ¾i": 5970,
      "ĠzvÄĽsÅ¥": 5971,
      "Ġistem": 5972,
      "ĠaÅĪm": 5973,
      "ĠohnÄĽm": 5974,
      "ĠyvÅĻ": 5975,
      "Ġvtl": 5976,
      "ĠozbÅĻ": 5977,
      "ĠÃ©Äįe": 5978,
      "ĠAAXBBB": 5979,
      "ĠÃŃtku": 5980,
      "Ġahal": 5981,
      "ĠÃ¡hal": 5982,
      "ĠÃ¡Äįc": 5983,
      "Ġousn": 5984,
      "Ġouvn": 5985,
      "Ġojska": 5986,
      "Ġiin": 5987,
      "ĠodÃ¡ch": 5988,
      "ĠproÄį": 5989,
      "Ġari": 5990,
      "Ġyle": 5991,
      "ĠopÄĽt": 5992,
      "ĠÃŃÄįkem": 5993,
      "ĠsrÃ¡z": 5994,
      "ĠXAB": 5995,
      "Ġiskla": 5996,
      "Ġlstn": 5997,
      "ĠtkvÃŃ": 5998,
      "ib": 5999,
      "ĠadÃ¡m": 6000,
      "ĠerÅ¯": 6001,
      "ĠoÄįit": 6002,
      "Ġopa": 6003,
      "Ġunh": 6004,
      "Ġuchr": 6005,
      "Ġrvy": 6006,
      "ĠutkÅ¯": 6007,
      "ĠbdÄĽl": 6008,
      "Ġiknout": 6009,
      "Ġinth": 6010,
      "Ġeobl": 6011,
      "ĠpÄĽn": 6012,
      "Ġanil": 6013,
      "Ġosta": 6014,
      "Ġamkl": 6015,
      "Ġkryl": 6016,
      "ĠÃ©hl": 6017,
      "Ġytky": 6018,
      "Ġacch": 6019,
      "ĠenstvÃŃm": 6020,
      "Ġardc": 6021,
      "rh": 6022,
      "ĠÄĽtkr": 6023,
      "ĠÃ¡sp": 6024,
      "ĠeÅ¾d": 6025,
      "ĠeÅ¡v": 6026,
      "ĠoutÄĽ": 6027,
      "ĠypÃŃ": 6028,
      "Ġeznou": 6029,
      "ĠickÃ½m": 6030,
      "ĠpsÃ¡t": 6031,
      "ĠetnÃŃ": 6032,
      "ĠÄĽdnou": 6033,
      "Ġias": 6034,
      "Ġedie": 6035,
      "Ġodiv": 6036,
      "Ġinf": 6037,
      "ĠejÃŃt": 6038,
      "Ġosem": 6039,
      "Ġabe": 6040,
      "Ġoutek": 6041,
      "ĠoÅ¡el": 6042,
      "Ġiha": 6043,
      "ĠÅ¯tce": 6044,
      "Ġintr": 6045,
      "Ġyx": 6046,
      "ĠdaÅĪ": 6047,
      "ĠÅ¾as": 6048,
      "Ġiven": 6049,
      "ĠÃ¡cÃŃm": 6050,
      "Ġhnout": 6051,
      "ĠÃŃtÃŃÅ¡": 6052,
      "Ġvss": 6053,
      "Ġelmi": 6054,
      "ĠyÅĻkl": 6055,
      "Ġondr": 6056,
      "Ġitla": 6057,
      "ĠiÃ³n": 6058,
      "Ġolat": 6059,
      "ĠÄĽlÅ¯": 6060,
      "Ġerku": 6061,
      "Ġamem": 6062,
      "Ġonku": 6063,
      "ĠÃ¡zek": 6064,
      "ĠÃ¡Äįil": 6065,
      "Ġisc": 6066,
      "ĠÃŃhu": 6067,
      "Ġysly": 6068,
      "ĠÅ¡la": 6069,
      "ĠrÅ¾t": 6070,
      "ĠÃ½ÅĻe": 6071,
      "th": 6072,
      "Ġood": 6073,
      "Ġuid": 6074,
      "Ġlos": 6075,
      "ĠilÄį": 6076,
      "ĠoÄįm": 6077,
      "ĠuchÃ©": 6078,
      "ĠÄĽcha": 6079,
      "ĠÃŃrnÃ½": 6080,
      "ĠmÅĻel": 6081,
      "ĠiÄįnÃ©": 6082,
      "Ġarci": 6083,
      "ĠÃºÅ¾l": 6084,
      "ĠenÄĽz": 6085,
      "ĠÃ½ku": 6086,
      "Ġryk": 6087,
      "ĠÃŃmat": 6088,
      "ĠostÃ©m": 6089,
      "Ġamw": 6090,
      "ĠÃŃtem": 6091,
      "Ġuda": 6092,
      "ĠukÃ¡ch": 6093,
      "Ġepi": 6094,
      "ĠÃ¡ÅĻil": 6095,
      "Ġizz": 6096,
      "Ġouzel": 6097,
      "ĠÃ©tÄĽ": 6098,
      "ĠirÃ©": 6099,
      "Ġowsk": 6100,
      "ĠebÅ¥": 6101,
      "ĠÃ©ms": 6102,
      "ĠoÅĻel": 6103,
      "Ġazen": 6104,
      "ĠÃŃsc": 6105,
      "ĠÃ¡chr": 6106,
      "ĠÃŃzc": 6107,
      "ĠÃŃzdn": 6108,
      "ĠchtÃŃt": 6109,
      "ĠelnÃŃk": 6110,
      "ĠÅ¯sti": 6111,
      "ĠÃ½ru": 6112,
      "ĠÃºÅ¾ÃŃ": 6113,
      "Ġavci": 6114,
      "Ġatuj": 6115,
      "ĠvÅ¯z": 6116,
      "ĠejnÃ©": 6117,
      "ĠÃŃva": 6118,
      "ĠÃ¡zi": 6119,
      "nÃ©st": 6120,
      "Ġejna": 6121,
      "ĠÃŃznÄĽ": 6122,
      "Ġeumdl": 6123,
      "uÅ¡": 6124,
      "Ġalit": 6125,
      "ĠÄĽlat": 6126,
      "ĠonÃ©": 6127,
      "ĠaÄįe": 6128,
      "ĠedlÃŃ": 6129,
      "Ġasla": 6130,
      "Ġidmi": 6131,
      "ĠakÅĻk": 6132,
      "Ġejstr": 6133,
      "ĠetÃ©m": 6134,
      "Ġekel": 6135,
      "Ġusem": 6136,
      "ĠyslÃŃm": 6137,
      "ĠeznÃ©": 6138,
      "ĠojnÃ½": 6139,
      "ĠrvnÃŃ": 6140,
      "ĠebnÃ½": 6141,
      "ĠezkÃ¡": 6142,
      "Ġespr": 6143,
      "ĠÃ½znÃŃ": 6144,
      "Ġazyk": 6145,
      "ezd": 6146,
      "ĠoveÅĪ": 6147,
      "Ġostal": 6148,
      "ĠÃ¡zÃŃm": 6149,
      "ĠÄĽtlÃ¡": 6150,
      "ĠAAXXXX": 6151,
      "ĠouÅ¡tÄĽ": 6152,
      "ĠoufÃ¡": 6153,
      "Ġpnou": 6154,
      "Ġaik": 6155,
      "ĠzÃ¡Å¡Å¥": 6156,
      "Ġemc": 6157,
      "ĠÅ¯kl": 6158,
      "Ġelil": 6159,
      "Ġedzv": 6160,
      "ĠÃ¡vÄĽl": 6161,
      "ĠeÅ¾k": 6162,
      "ĠoÅĻt": 6163,
      "Ġytku": 6164,
      "ĠÄĽÄįna": 6165,
      "ĠÃ¡hlo": 6166,
      "ĠÄĽco": 6167,
      "ĠÃ½li": 6168,
      "ĠÃ©bce": 6169,
      "Ġarvy": 6170,
      "Ġeskla": 6171,
      "ĠbÃ¡t": 6172,
      "ĠchoÅ¥": 6173,
      "Ġazi": 6174,
      "Ġimu": 6175,
      "Ġustit": 6176,
      "ĠÃ½tÃŃ": 6177,
      "Ġanda": 6178,
      "Ġvnik": 6179,
      "Ġlkal": 6180,
      "ĠÃ½Å¾k": 6181,
      "ĠXABBXA": 6182,
      "Ġoar": 6183,
      "Ġcp": 6184,
      "Ġitku": 6185,
      "ĠeÅ¾sk": 6186,
      "ĠÃ³p": 6187,
      "Ġbrat": 6188,
      "Ġoubky": 6189,
      "Ġouzlo": 6190,
      "Ġ36": 6191,
      "Ġalkn": 6192,
      "Ġeobr": 6193,
      "ĠookÅĻ": 6194,
      "ĠejÄįk": 6195,
      "Ġore": 6196,
      "ĠÃ¡zet": 6197,
      "ĠernÄĽ": 6198,
      "ĠÄĽrem": 6199,
      "ĠÅ¯lm": 6200,
      "ĠoÅĪk": 6201,
      "ABBB": 6202,
      "ĠÃ½skne": 6203,
      "Ġinci": 6204,
      "ĠÃ¡ruÄį": 6205,
      "ĠkÃ½": 6206,
      "Ġrum": 6207,
      "ĠhÅ¯l": 6208,
      "Ġokd": 6209,
      "Ã©d": 6210,
      "ĠsnÄĽt": 6211,
      "ĠoÅ¡Å¥": 6212,
      "ĠptÃ¡t": 6213,
      "ĠavnÃ¡": 6214,
      "ĠbdÃŃ": 6215,
      "ĠoctvÃŃ": 6216,
      "ĠygÅĻ": 6217,
      "Ġovin": 6218,
      "Ġitov": 6219,
      "Ġapy": 6220,
      "ĠvlÃ¡": 6221,
      "ĠeskÃ©m": 6222,
      "Ġodly": 6223,
      "ĠÃŃstÅĻ": 6224,
      "ĠozkÅĻ": 6225,
      "Ġuac": 6226,
      "ĠpouÅ¥": 6227,
      "Ġox": 6228,
      "ĠalÃ¡ch": 6229,
      "Ġolv": 6230,
      "Ġinv": 6231,
      "Ġetc": 6232,
      "ĠÃŃlÃ½ch": 6233,
      "ĠuÅ¾Å¯": 6234,
      "ĠÅ¯dÄĽ": 6235,
      "ĠÃ©kn": 6236,
      "Ġrbu": 6237,
      "Ġersp": 6238,
      "Ġeost": 6239,
      "ĠkÅ¯ÅĪ": 6240,
      "Ġemk": 6241,
      "ĠÃ¡len": 6242,
      "ĠahÃ¡m": 6243,
      "ĠoÄįal": 6244,
      "ĠÃ¡Å¡i": 6245,
      "ĠÅ¡li": 6246,
      "Ġeuch": 6247,
      "ĠelnÃ½m": 6248,
      "Ġakto": 6249,
      "Å¡tÃŃ": 6250,
      "rl": 6251,
      "Ġeen": 6252,
      "Ġtep": 6253,
      "Ġouky": 6254,
      "Ġenat": 6255,
      "ĠsvÃ¡l": 6256,
      "Ġinst": 6257,
      "ĠomÅ¾": 6258,
      "Ġetkl": 6259,
      "Ġevzn": 6260,
      "ĠÃŃlc": 6261,
      "Ã©r": 6262,
      "ĠichÃ©m": 6263,
      "ĠÃ¡dÅ¯": 6264,
      "ĠulÃ½": 6265,
      "ĠÃ¡rek": 6266,
      "ĠÃŃsaÅĻ": 6267,
      "ĠÃ¡Å¾ce": 6268,
      "ĠÃ¡lnÃŃ": 6269,
      "ĠÃ½Å¾e": 6270,
      "ĠaldÅ¡t": 6271,
      "ĠyÄı": 6272,
      "Ġatsk": 6273,
      "Ġomech": 6274,
      "ĠeÅ¾h": 6275,
      "Ġklet": 6276,
      "ĠlnÄĽn": 6277,
      "Ġtmu": 6278,
      "ĠybÃŃ": 6279,
      "ĠastnÃ©": 6280,
      "ĠouÅ¡e": 6281,
      "ĠinnÃ½ch": 6282,
      "ĠotkÃ¡": 6283,
      "ĠÃ¡Å¡nÃŃ": 6284,
      "ĠoÄıstv": 6285,
      "Ġiott": 6286,
      "ĠÄĽbr": 6287,
      "ĠedÃ¡Å¡": 6288,
      "Ġomm": 6289,
      "ĠomÃ½": 6290,
      "Ġehem": 6291,
      "ĠÃŃnÃ¡Å¡": 6292,
      "Ġoptv": 6293,
      "ĠÃ½tÃ¡": 6294,
      "ĠlzÃŃ": 6295,
      "Ġuzen": 6296,
      "ĠouchÃ¡m": 6297,
      "ĠÃ©dla": 6298,
      "ĠeÃºm": 6299,
      "Ġerky": 6300,
      "ĠÃŃtej": 6301,
      "Ġslib": 6302,
      "Ġorr": 6303,
      "Ġorii": 6304,
      "Ġeztv": 6305,
      "Ġvzkl": 6306,
      "Ġvrak": 6307,
      "ĠÃ¡dnÄĽ": 6308,
      "ĠÃŃdlÃŃ": 6309,
      "Ġesnou": 6310,
      "Ġouchl": 6311,
      "Ġojnou": 6312,
      "ĠÃŃskal": 6313,
      "Ġehly": 6314,
      "Ġlen": 6315,
      "Ġudit": 6316,
      "Ġekd": 6317,
      "Ġorku": 6318,
      "Ġichou": 6319,
      "Ġuju": 6320,
      "Ġeskou": 6321,
      "ĠaÅĻit": 6322,
      "ĠeÄįnÃ½m": 6323,
      "Ġozdm": 6324,
      "ĠÅ¯lÃŃ": 6325,
      "Ġoustl": 6326,
      "ĠepÅ¡ÃŃ": 6327,
      "Ġexc": 6328,
      "ĠÃºsl": 6329,
      "Ġempl": 6330,
      "ĠiÃ©r": 6331,
      "Ġvar": 6332,
      "ĠodÃŃÅ¡": 6333,
      "Ġesr": 6334,
      "ĠebÄį": 6335,
      "Ġsnah": 6336,
      "ĠyÅ¥b": 6337,
      "ĠevnÃ½": 6338,
      "ĠaÄįne": 6339,
      "Ġudbou": 6340,
      "ĠuÄįnÄĽ": 6341,
      "ĠolkÅ¯": 6342,
      "Ġini": 6343,
      "ĠÃ¡dÄį": 6344,
      "Ġusv": 6345,
      "ĠÃ¡tkou": 6346,
      "Ġieg": 6347,
      "sb": 6348,
      "Ġao": 6349,
      "ÃŃz": 6350,
      "ĠedÃ©m": 6351,
      "Ġoral": 6352,
      "ĠechÃ¡ch": 6353,
      "ĠÃ¡znÃ©": 6354,
      "ĠÄĽmy": 6355,
      "ĠmlÃ½n": 6356,
      "Ġolnost": 6357,
      "ĠirÅ¡": 6358,
      "ĠelnÄĽ": 6359,
      "ĠiÅ¡tÃŃ": 6360,
      "ĠoucnÄĽ": 6361,
      "ĠeÅ¡kÃ¡": 6362,
      "Ġiac": 6363,
      "ĠÃ¡dlo": 6364,
      "ĠÃ¡zdnÃ©": 6365,
      "Ġerie": 6366,
      "ĠÃ¡tÃŃÅ¡": 6367,
      "ĠÃ¡sÅ¥": 6368,
      "Ġicy": 6369,
      "Ġepou": 6370,
      "Ġytit": 6371,
      "Ġrdcy": 6372,
      "ĠÃŃdka": 6373,
      "ĠÄĽzÅĪ": 6374,
      "ĠÃŃzel": 6375,
      "ĠuznÃ©": 6376,
      "Ġrsy": 6377,
      "ĠÃ¡lka": 6378,
      "Ġancl": 6379,
      "ĠejÅ¡Å¥": 6380,
      "ĠmdlÃ¡": 6381,
      "Ġudby": 6382,
      "ĠÃ©tlo": 6383,
      "ĠstkvÃŃ": 6384,
      "ysk": 6385,
      "ĠsuÄı": 6386,
      "ĠudÄĽ": 6387,
      "Ġujd": 6388,
      "ĠvlÃ¡d": 6389,
      "ĠÃŃsek": 6390,
      "ĠeÅĻÃŃch": 6391,
      "Ġucl": 6392,
      "ĠÃ¡Å¾nÄĽ": 6393,
      "Ġrhli": 6394,
      "Ġmuch": 6395,
      "Ġlov": 6396,
      "ĠilÃ©m": 6397,
      "Ġerka": 6398,
      "Ġudv": 6399,
      "ĠÃŃlku": 6400,
      "Ġplec": 6401,
      "ĠrdÄĽ": 6402,
      "ĠÃŃrÅ¯": 6403,
      "ĠavnÃŃ": 6404,
      "Ġudnou": 6405,
      "ĠÄĽÅ¾nou": 6406,
      "Ġhon": 6407,
      "Ġobyl": 6408,
      "Ġcos": 6409,
      "ĠÄįar": 6410,
      "ĠÃ¡lou": 6411,
      "Ġidy": 6412,
      "Ġiju": 6413,
      "ĠptÃ¡m": 6414,
      "ĠÃŃÅĻÅ¯": 6415,
      "asÅ¥": 6416,
      "Ġeosl": 6417,
      "Ġentu": 6418,
      "ĠÄĽtrem": 6419,
      "ĠÃ©bky": 6420,
      "Ġvtk": 6421,
      "ĠhÅĻmÃŃt": 6422,
      "Ġonci": 6423,
      "ĠÅ¯Å¾eÅ¡": 6424,
      "ĠÃ¡sly": 6425,
      "ĠonÄĽm": 6426,
      "iÅ¡": 6427,
      "Ġoil": 6428,
      "Ġsval": 6429,
      "Ġavost": 6430,
      "ĠasÅ¡ÃŃ": 6431,
      "ĠÃ¡mek": 6432,
      "ĠsnÃŃm": 6433,
      "Ġicc": 6434,
      "ĠÃ¡ÅĻÃŃch": 6435,
      "ĠabÃ©": 6436,
      "ĠÃ³v": 6437,
      "ĠrnÃ½": 6438,
      "ĠovaÅ¥": 6439,
      "Ġeodb": 6440,
      "Ġeujd": 6441,
      "ĠiÃŃm": 6442,
      "Ġovt": 6443,
      "Ã¡Äį": 6444,
      "Ġasky": 6445,
      "Ġchor": 6446,
      "Ġomek": 6447,
      "Ġulp": 6448,
      "Ġhvizd": 6449,
      "Ġuzy": 6450,
      "Ġisky": 6451,
      "Ġetli": 6452,
      "ĠaÄįka": 6453,
      "ĠvlasÅ¥": 6454,
      "Ġejhr": 6455,
      "Ġyzdv": 6456,
      "ĠdÃŃm": 6457,
      "Ġomov": 6458,
      "Ġetky": 6459,
      "Ġonr": 6460,
      "ĠaÅ¡ÃŃm": 6461,
      "Ġapor": 6462,
      "Ġijal": 6463,
      "Ġohli": 6464,
      "ĠandÄĽl": 6465,
      "Ġanti": 6466,
      "ĠiÅ¡li": 6467,
      "Ġrmut": 6468,
      "Ġcval": 6469,
      "ĠpouÅ¡Å¥": 6470,
      "Ġviz": 6471,
      "Ġkal": 6472,
      "Ġestk": 6473,
      "ĠÄĽnÃ©m": 6474,
      "ĠÄĽjin": 6475,
      "ĠaÅ¡il": 6476,
      "ĠtmÄĽl": 6477,
      "ĠAAA": 6478,
      "ĠÃŃskl": 6479,
      "Ġarth": 6480,
      "Ġbys": 6481,
      "of": 6482,
      "Ġye": 6483,
      "ĠatÃ¡ch": 6484,
      "ĠotÃ¡m": 6485,
      "ĠestÃ¡ch": 6486,
      "ĠeÅ¡ti": 6487,
      "Ġlhy": 6488,
      "ĠobÄĽÅ¥": 6489,
      "ĠÅ¯tkl": 6490,
      "ĠÃ½pk": 6491,
      "Ġemoh": 6492,
      "Ġstih": 6493,
      "Ġhra": 6494,
      "ĠeÅ¡p": 6495,
      "ĠuÅ¾t": 6496,
      "ĠaÅ¡sk": 6497,
      "ĠusÃ¡": 6498,
      "ĠuÄįnÃ©": 6499,
      "ĠÃ¡ÄįÃŃm": 6500,
      "ĠedlÃ¡": 6501,
      "ĠÄĽcn": 6502,
      "ĠÄĽtru": 6503,
      "Ġelie": 6504,
      "Ġahnou": 6505,
      "Ġode": 6506,
      "Ġostkv": 6507,
      "Ġonii": 6508,
      "ĠÃŃcy": 6509,
      "ĠeÅ¡e": 6510,
      "Ġimkn": 6511,
      "ĠubÄĽ": 6512,
      "Ġrvk": 6513,
      "Ġoslal": 6514,
      "ĠolnÃŃ": 6515,
      "Ġourk": 6516,
      "ĠovÄĽz": 6517,
      "ĠlÅĪk": 6518,
      "Ġilu": 6519,
      "ĠÅ¡ik": 6520,
      "ĠsmÄĽr": 6521,
      "ĠocÃŃch": 6522,
      "ĠÃ¡zen": 6523,
      "Ġazit": 6524,
      "Ġura": 6525,
      "ĠaÅ¥m": 6526,
      "ĠiÄįÄį": 6527,
      "ĠÅ¯rn": 6528,
      "ĠomnÃ½": 6529,
      "ĠesnÃ½": 6530,
      "Ġvzkaz": 6531,
      "ĠaÅ¡tk": 6532,
      "ĠistÅĻe": 6533,
      "ĠdÃ©Å¡Å¥": 6534,
      "ĠÃŃmÃ¡m": 6535,
      "Ġivil": 6536,
      "ĠichÅ¯": 6537,
      "ĠABABAA": 6538,
      "Ġlne": 6539,
      "Ġmlh": 6540,
      "Ġrna": 6541,
      "ĠouÅ¡c": 6542,
      "ĠÃ¡rnÃ¡": 6543,
      "ĠÃ¡rnou": 6544,
      "ĠahlÃ©": 6545,
      "Ġespl": 6546,
      "ĠuÅ¾bu": 6547,
      "ĠkÃ½v": 6548,
      "Ġakev": 6549,
      "Ġovit": 6550,
      "ĠanÃŃch": 6551,
      "Ġanie": 6552,
      "ĠklÃ¡st": 6553,
      "ĠhnÃ¡n": 6554,
      "ĠrÅ¾el": 6555,
      "Ġornou": 6556,
      "ĠuÅ¡tÄĽn": 6557,
      "Ġojsko": 6558,
      "ĠÃŃrkve": 6559,
      "Ġovej": 6560,
      "Ġonstv": 6561,
      "Ġonat": 6562,
      "ĠosÃ½": 6563,
      "Ġednout": 6564,
      "ĠÃŃdky": 6565,
      "ĠyÅ¡v": 6566,
      "ĠÄĽdou": 6567,
      "ĠÃ¡Å¾il": 6568,
      "ĠoÅ¡ku": 6569,
      "ĠadlÃ½ch": 6570,
      "ĠouÅĻil": 6571,
      "ĠÄĽtly": 6572,
      "Ġips": 6573,
      "ĠÃ¡ÄįkÅ¯": 6574,
      "Ġechci": 6575,
      "ĠmÅĻe": 6576,
      "Ġrdla": 6577,
      "Ġitkou": 6578,
      "ĠXABX": 6579,
      "ĠouÄįku": 6580,
      "Ġonsl": 6581,
      "Ġeatr": 6582,
      "Ġoa": 6583,
      "ĠÄĽsk": 6584,
      "Ġema": 6585,
      "ĠasÅĪ": 6586,
      "ĠAXX": 6587,
      "ĠÄĽkal": 6588,
      "Ġdrak": 6589,
      "ĠÄĽdÃ©": 6590,
      "Ġupem": 6591,
      "ĠeÅ¡tv": 6592,
      "Ġadlem": 6593,
      "ĠedlÃ©": 6594,
      "Ġolnou": 6595,
      "ĠovnÃŃ": 6596,
      "ĠÅ¯zu": 6597,
      "ĠÃŃjet": 6598,
      "ĠrÅ¾en": 6599,
      "ĠÃ½ka": 6600,
      "ĠÃ¡zrak": 6601,
      "Ġzbled": 6602,
      "Ġydla": 6603,
      "ĠedkÅ¯": 6604,
      "ĠeÃºn": 6605,
      "Ġomku": 6606,
      "Ġebky": 6607,
      "ĠsmÃŃm": 6608,
      "ĠÃ¡zce": 6609,
      "ĠÅ¯Å¾ku": 6610,
      "Ġvran": 6611,
      "ĠustÅ¡": 6612,
      "ĠrzÃ½": 6613,
      "Ġjmen": 6614,
      "Ġentn": 6615,
      "ĠudnÃ¡": 6616,
      "ĠiÄįnÄĽ": 6617,
      "Ġozzp": 6618,
      "ck": 6619,
      "Ġail": 6620,
      "ĠvÃ©st": 6621,
      "ĠpÅĻÃ¡t": 6622,
      "Ġitt": 6623,
      "Ġslep": 6624,
      "ĠvznÃ©st": 6625,
      "ĠoÅ¾b": 6626,
      "ĠoÅ¾nÃ©": 6627,
      "ĠoÅ¾Ã¡r": 6628,
      "ĠikÃ½m": 6629,
      "ĠÃ¡ÅĻstvÃŃ": 6630,
      "ĠÄĽsem": 6631,
      "BAC": 6632,
      "ĠatÅĻt": 6633,
      "ĠirÃ©m": 6634,
      "ĠandÅ¾": 6635,
      "ĠeÅ¡ly": 6636,
      "ĠÄĽtve": 6637,
      "ĠABCBAC": 6638,
      "Ġzad": 6639,
      "ĠudÃ©m": 6640,
      "Ġezz": 6641,
      "ĠuÅ¾il": 6642,
      "ĠistÃ©m": 6643,
      "Ġucho": 6644,
      "Ġlnost": 6645,
      "ĠeÅĪk": 6646,
      "ĠÃ©tal": 6647,
      "ĠaneÅ¡": 6648,
      "ĠitbÃ¡ch": 6649,
      "ĠÅ¯tku": 6650,
      "ĠemstvÃŃm": 6651,
      "ĠavÅ¾dy": 6652,
      "Ġbez": 6653,
      "Ġilsk": 6654,
      "Ġinit": 6655,
      "Ġotil": 6656,
      "ĠokÃ½m": 6657,
      "ĠÃŃlet": 6658,
      "ĠopÅ¯": 6659,
      "ĠuÅ¾ka": 6660,
      "ĠÃŃÅ¡ek": 6661,
      "ĠÃŃÅ¾el": 6662,
      "ĠiÅ¾j": 6663,
      "ĠAABBXB": 6664,
      "ĠÃ³z": 6665,
      "Ġelku": 6666,
      "Ġekle": 6667,
      "Ġirn": 6668,
      "Ġyrs": 6669,
      "Ġouett": 6670,
      "Ġenz": 6671,
      "Ġesen": 6672,
      "ĠÄĽlost": 6673,
      "Ġoten": 6674,
      "ĠerÃ½ch": 6675,
      "ĠÃ¡lnÃ©": 6676,
      "ĠÃ¡mo": 6677,
      "Ġichy": 6678,
      "ĠÃŃvn": 6679,
      "ĠulÃ½ch": 6680,
      "ĠumÃŃÅ¡": 6681,
      "Ġvlek": 6682,
      "ĠuhÅĻ": 6683,
      "ĠaÄįit": 6684,
      "ĠÄĽznÃ©": 6685,
      "Ġyka": 6686,
      "ĠÃ¡tkÃ¡": 6687,
      "Ġutnou": 6688,
      "ĠÃ½ly": 6689,
      "Ġrzc": 6690,
      "Ġadra": 6691,
      "Ġosmn": 6692,
      "ĠmÅĻÃŃÅ¾": 6693,
      "Ġetbu": 6694,
      "Ġympsk": 6695,
      "Ġankyt": 6696,
      "ĠannÃ©": 6697,
      "Ġesel": 6698,
      "Ġasie": 6699,
      "Ġinl": 6700,
      "Ġamou": 6701,
      "ĠÃ¡tsk": 6702,
      "ĠytÄį": 6703,
      "Ġmlat": 6704,
      "ĠÃ¡Å¾el": 6705,
      "Ġystal": 6706,
      "ĠÃ¡vnÃ½ch": 6707,
      "ĠrpÃŃ": 6708,
      "Ġodzv": 6709,
      "Ġyor": 6710,
      "ĠrÃ½": 6711,
      "Ġruk": 6712,
      "ĠÃŃtne": 6713,
      "ĠÃ½chou": 6714,
      "Ġhle": 6715,
      "Ġoph": 6716,
      "Ġbloud": 6717,
      "Ġednul": 6718,
      "ĠzvÃ¡t": 6719,
      "ĠdvÄĽ": 6720,
      "ĠestrÃ½": 6721,
      "ĠÄĽÅ¾nÄĽ": 6722,
      "Ġrskem": 6723,
      "Ġejskv": 6724,
      "oz": 6725,
      "yz": 6726,
      "ĠbÃ¡ÅĪ": 6727,
      "Ġavi": 6728,
      "ĠÃŃcÃ½ch": 6729,
      "Ġechou": 6730,
      "ĠeckÃ©": 6731,
      "Ġyslit": 6732,
      "ĠastnÃ¡": 6733,
      "Ġezna": 6734,
      "ĠivnÃ½": 6735,
      "Ġipsk": 6736,
      "Ġrci": 6737,
      "ĠuÄįnÃ½": 6738,
      "Ġelmy": 6739,
      "ĠoceÃ¡n": 6740,
      "Ġpst": 6741,
      "Ġsvod": 6742,
      "Ġamh": 6743,
      "Ġudek": 6744,
      "Ġylh": 6745,
      "Ã©v": 6746,
      "ĠzdÃŃ": 6747,
      "Ġstroj": 6748,
      "ĠobrÃ©": 6749,
      "ĠÃŃbÃ¡m": 6750,
      "Ġsklon": 6751,
      "ĠvÅĻel": 6752,
      "ĠÃŃÅ¡tÄĽ": 6753,
      "Ġitbou": 6754,
      "ĠeÅ¡ka": 6755,
      "ĠanÄįÃŃ": 6756,
      "ĠveÄı": 6757,
      "ĠÃ©Å¥": 6758,
      "ĠelÅ¾": 6759,
      "Ġelce": 6760,
      "ĠavÃ¡ch": 6761,
      "ĠesÃŃ": 6762,
      "ĠchuÅ¥": 6763,
      "Ġezsk": 6764,
      "ĠaÅ¾m": 6765,
      "ĠÃŃÅ¾em": 6766,
      "Ġgn": 6767,
      "ĠÃŃdnÃ¡": 6768,
      "ĠskvÄĽl": 6769,
      "Ġodvl": 6770,
      "ĠejÅ¡ÃŃm": 6771,
      "ĠÄĽznÃ½": 6772,
      "ĠeÅ¡nÃŃ": 6773,
      "Ġickni": 6774,
      "Ġoick": 6775,
      "Ġuil": 6776,
      "ĠÅ¡eÅĻ": 6777,
      "ĠÄĽnit": 6778,
      "ĠupnÃ©": 6779,
      "Ġotcem": 6780,
      "ĠouÄįek": 6781,
      "ĠuÅĻe": 6782,
      "ĠÃºpÃŃ": 6783,
      "Ġadj": 6784,
      "ĠilÅ¥": 6785,
      "ĠanÅ¡t": 6786,
      "ĠitÃ½m": 6787,
      "Ġhles": 6788,
      "ĠÃ¡tnÃ©": 6789,
      "Ġocel": 6790,
      "Ġuba": 6791,
      "ĠolnÃ½": 6792,
      "ĠrchÃ¡": 6793,
      "ĠÃ¡nka": 6794,
      "ĠÅ¯dÄį": 6795,
      "ĠejÅ¡i": 6796,
      "ĠÃŃskn": 6797,
      "ĠotnÃ¡": 6798,
      "Ġihnul": 6799,
      "ĠÃ¡ÅĪk": 6800,
      "ĠÅ¯tky": 6801,
      "ĠÃ½pl": 6802,
      "ĠajnÃ©": 6803,
      "ĠÃ¡vce": 6804,
      "ĠÃŃlen": 6805,
      "ĠednÃ½": 6806,
      "Ġytost": 6807,
      "Ġubt": 6808,
      "ĠÃ¡jÅ¯": 6809,
      "Ġucy": 6810,
      "ĠotcÅ¯": 6811,
      "Ġousy": 6812,
      "ĠrskÅ¯": 6813,
      "Ġtys": 6814,
      "ĠkÅĪ": 6815,
      "ĠatstvÃŃ": 6816,
      "ĠkrÃ¡m": 6817,
      "ĠÃŃchl": 6818,
      "ĠurnÃ©": 6819,
      "ĠeÄįnÃ½ch": 6820,
      "Ġuci": 6821,
      "Ġuck": 6822,
      "ĠennÃ½m": 6823,
      "ĠalnÃ½ch": 6824,
      "Ġydal": 6825,
      "ĠaÅ¡la": 6826,
      "ĠevÅĻe": 6827,
      "ĠovskÃ¡": 6828,
      "Ġosky": 6829,
      "ĠuÅ¡ko": 6830,
      "ĠoÄım": 6831,
      "ĠÃ³nu": 6832,
      "ĠhÅĻbet": 6833,
      "ĠÅ¯sl": 6834,
      "Ġhas": 6835,
      "Ġilce": 6836,
      "ĠÃ¡lsk": 6837,
      "Ġomil": 6838,
      "ĠetÄĽt": 6839,
      "Ġohv": 6840,
      "Ġestal": 6841,
      "ĠoÅ¾r": 6842,
      "ĠyÅ¡p": 6843,
      "ĠodlÃ¡": 6844,
      "ĠÃ¡tkÃ©": 6845,
      "ĠodrÃ©": 6846,
      "ĠÃŃÄįil": 6847,
      "ĠÃŃdnou": 6848,
      "ĠojnÃ¡": 6849,
      "ĠuÅ¾bÄĽ": 6850,
      "Ġuhly": 6851,
      "ĠtÄĽm": 6852,
      "Ġaick": 6853,
      "ĠpeÅĪ": 6854,
      "ĠÅ¾id": 6855,
      "ĠprÃ½": 6856,
      "ĠÄĽlb": 6857,
      "Ġorp": 6858,
      "Ġevh": 6859,
      "ĠÃŃnil": 6860,
      "ĠunÃ¡ch": 6861,
      "ĠXAXB": 6862,
      "Ġouty": 6863,
      "ĠÃŃhne": 6864,
      "ĠejnÃ½": 6865,
      "Ġeohr": 6866,
      "ĠÃ½ry": 6867,
      "Ġouli": 6868,
      "Ġostla": 6869,
      "ĠÃŃmÅ¾t": 6870,
      "ĠÃ¡dci": 6871,
      "ĠyÅĻi": 6872,
      "Ġeusn": 6873,
      "ĠrscÃŃch": 6874,
      "Ġanku": 6875,
      "Ġinam": 6876,
      "Ġkde": 6877,
      "Ġamm": 6878,
      "Ġarev": 6879,
      "Ġoro": 6880,
      "ĠÃ¡dÅĻ": 6881,
      "ĠÃ¡dÃ¡Å¡": 6882,
      "ĠoÄįet": 6883,
      "ĠhrÅ¯z": 6884,
      "Ġopast": 6885,
      "Ġukv": 6886,
      "Ġape": 6887,
      "ĠÃŃÅ¾ÃŃm": 6888,
      "ĠÄĽdÃ½": 6889,
      "ĠaÅ¾dou": 6890,
      "ĠemnÃ½m": 6891,
      "Ġurm": 6892,
      "ĠasnÃ½m": 6893,
      "ĠodnÃ½ch": 6894,
      "ĠozdÅ¯": 6895,
      "ĠÃŃjm": 6896,
      "Ġantk": 6897,
      "ĠebnÃ¡": 6898,
      "ĠprÃ¡v": 6899,
      "ĠivÄį": 6900,
      "Ġezi": 6901,
      "ĠÃŃlÃ½m": 6902,
      "ĠÄĽnky": 6903,
      "ĠsnÃ©st": 6904,
      "Ġopou": 6905,
      "Ġujc": 6906,
      "Ġabstv": 6907,
      "Ġavnou": 6908,
      "Ġinkou": 6909,
      "Ġouchat": 6910,
      "ĠadÅ¡i": 6911,
      "ĠÃ©vk": 6912,
      "ĠÃ½ÅĻsk": 6913,
      "Ã³r": 6914,
      "Ġoal": 6915,
      "Ġobstv": 6916,
      "ĠomeÅĪ": 6917,
      "ĠÅ¡est": 6918,
      "Ġspad": 6919,
      "ĠÃŃvÃŃ": 6920,
      "Ġyschn": 6921,
      "Ġuchou": 6922,
      "Ġvrh": 6923,
      "ĠÃŃdne": 6924,
      "ĠÄĽsnÄĽ": 6925,
      "ĠskÅĻek": 6926,
      "Ġrdlo": 6927,
      "Ġezbl": 6928,
      "ĠkdyÅ¾": 6929,
      "ĠpÃ¡Å¾": 6930,
      "ĠlÃŃch": 6931,
      "Ġedsk": 6932,
      "Ġedstv": 6933,
      "Ġasit": 6934,
      "Ġejem": 6935,
      "ĠÃŃct": 6936,
      "ĠABABBA": 6937,
      "ĠytÃ©m": 6938,
      "Ġrsu": 6939,
      "ĠÄĽÅ¾kÃ½": 6940,
      "ĠydÃ¡": 6941,
      "Ġichne": 6942,
      "ĠanskÃ½ch": 6943,
      "ĠosnÃ½": 6944,
      "Ġebral": 6945,
      "Ġionu": 6946,
      "ĠÅ¡tvÃ¡n": 6947,
      "AAB": 6948,
      "af": 6949,
      "Ġoot": 6950,
      "ĠÅ¾b": 6951,
      "Ġkdos": 6952,
      "ĠÄĽnÃ¡ch": 6953,
      "ĠsnÃ¡z": 6954,
      "Ġecj": 6955,
      "ĠAABAAB": 6956,
      "Ġusa": 6957,
      "Ġupa": 6958,
      "ĠzmÄĽn": 6959,
      "Ġeubr": 6960,
      "ĠobnÃ½": 6961,
      "ĠalnÃ¡": 6962,
      "Ġonnou": 6963,
      "ĠanskÃ½": 6964,
      "ĠaznÃŃ": 6965,
      "ĠyÅĻk": 6966,
      "ĠvzkÅĻik": 6967,
      "Ġoel": 6968,
      "Ġaor": 6969,
      "Ġuert": 6970,
      "Ġenit": 6971,
      "ĠadÃ¡l": 6972,
      "ĠÃ¡vÄĽt": 6973,
      "Ġezem": 6974,
      "ĠplÃ¡n": 6975,
      "ĠÃŃchal": 6976,
      "ĠÃ¡zka": 6977,
      "ĠytÃ½ch": 6978,
      "ĠiÅ¾m": 6979,
      "ĠÄĽdÃ¡": 6980,
      "ĠzmÄĽÅ¥": 6981,
      "Ġchcem": 6982,
      "ĠouÅ¡ek": 6983,
      "Ġentsk": 6984,
      "Ġistra": 6985,
      "Ġrob": 6986,
      "Ġodii": 6987,
      "ĠatÅ¯m": 6988,
      "Ġostil": 6989,
      "Ġhluch": 6990,
      "ous": 6991,
      "ĠapeÅ¾": 6992,
      "ĠedlÃ½": 6993,
      "Ġrnul": 6994,
      "Ġrchu": 6995,
      "ĠÃºsty": 6996,
      "ĠyÄįc": 6997,
      "ĠostÅĻed": 6998,
      "ĠeseÅ¡": 6999,
      "ĠrÅ¡l": 7000,
      "Ġoliv": 7001,
      "ĠzvlÃ¡Å¡Å¥": 7002,
      "ĠÃ½zeÅĪ": 7003,
      "Ġujme": 7004,
      "ĠemÄĽl": 7005,
      "ĠelÅ¯m": 7006,
      "ĠÄįÃŃm": 7007,
      "ĠÃ½mÄĽ": 7008,
      "ĠaÅĻem": 7009,
      "ĠÃ©nu": 7010,
      "Ġipc": 7011,
      "ĠidskÃ½ch": 7012,
      "ĠejtÅĻ": 7013,
      "ĠÃ©vy": 7014,
      "ĠÃ½nka": 7015,
      "Ġodzim": 7016,
      "ĠÃŃzni": 7017,
      "ĠjÃŃst": 7018,
      "ĠsaÅĪ": 7019,
      "ĠdÃ½ch": 7020,
      "ĠstÃ¡d": 7021,
      "ĠojÃ¡k": 7022,
      "XAA": 7023,
      "Ġemna": 7024,
      "ĠÃ¡snÃŃk": 7025,
      "ĠÃŃÅĻem": 7026,
      "ĠatÅĻp": 7027,
      "Ġohni": 7028,
      "ĠevnÃŃ": 7029,
      "Ġevnou": 7030,
      "Ġeoch": 7031,
      "Ġiob": 7032,
      "ĠrmÃŃ": 7033,
      "ĠonkÅ¯": 7034,
      "ĠÃ©dÃ¡": 7035,
      "Ġevzr": 7036,
      "Ġifl": 7037,
      "ĠlÅĪt": 7038,
      "Ġsup": 7039,
      "Ġavic": 7040,
      "ĠejÃŃm": 7041,
      "ĠoÅĻÃŃÅ¡": 7042,
      "ĠzdÃ¡t": 7043,
      "ĠÃŃkÃ¡m": 7044,
      "ĠusÅ¯": 7045,
      "ĠyÅ¡i": 7046,
      "Ġimm": 7047,
      "ĠÃŃse": 7048,
      "ĠÃ¡kÅ¯m": 7049,
      "ĠodlÃ½": 7050,
      "Ġrsek": 7051,
      "ĠÄĽÅ¾ka": 7052,
      "Ġinkv": 7053,
      "Ġycen": 7054,
      "ĠvztÃ¡h": 7055,
      "ĠevÅĻt": 7056,
      "ĠÃ½nÄĽ": 7057,
      "ĠazpÄĽt": 7058,
      "Ġobsl": 7059,
      "Ġoib": 7060,
      "Ġadhv": 7061,
      "Ġaen": 7062,
      "ĠalÅ¾": 7063,
      "ĠanÃ¡ch": 7064,
      "ĠolÃ©m": 7065,
      "ĠcÃ¡r": 7066,
      "Ġitz": 7067,
      "Ġozku": 7068,
      "Ã©t": 7069,
      "ĠÃ¡rech": 7070,
      "Ġimpr": 7071,
      "Ġhnul": 7072,
      "ĠÄĽÄįnÃ½m": 7073,
      "ĠhÅĻÃ¡t": 7074,
      "ĠÃ¡bel": 7075,
      "Ġchrt": 7076,
      "Ġlhal": 7077,
      "Ġrpy": 7078,
      "Ġotcy": 7079,
      "ĠiliÃŃ": 7080,
      "Ġestrou": 7081,
      "ĠmÃ¡Å¥": 7082,
      "Ġourn": 7083,
      "Ġalpsk": 7084,
      "aÅ¾": 7085,
      "aÄı": 7086,
      "ĠvÃ¡t": 7087,
      "Ġemen": 7088,
      "Ġlsk": 7089,
      "ĠinÅ¡": 7090,
      "ĠorÅ¯m": 7091,
      "Ġhloh": 7092,
      "ĠylÃ©": 7093,
      "Ġezy": 7094,
      "ĠachÃ©m": 7095,
      "ĠÃŃzi": 7096,
      "ĠavnÃ½ch": 7097,
      "Ġivnou": 7098,
      "Ġyra": 7099,
      "Ġyzk": 7100,
      "Ġenty": 7101,
      "ĠetÅĻÃŃ": 7102,
      "ĠÃºpr": 7103,
      "Ġezla": 7104,
      "Ġezlo": 7105,
      "ĠÄĽÅ¡nÄĽ": 7106,
      "ĠÄĽtmi": 7107,
      "Ġyad": 7108,
      "Ġolech": 7109,
      "ĠÃ¡ls": 7110,
      "Ġylou": 7111,
      "ĠÃ¡sat": 7112,
      "ĠevÄį": 7113,
      "ĠikÃ¡n": 7114,
      "ĠÃŃkat": 7115,
      "Ġuben": 7116,
      "ĠÃ½vk": 7117,
      "ĠoÅ¡c": 7118,
      "Ġypal": 7119,
      "ĠuzÃŃch": 7120,
      "Ġenstvo": 7121,
      "Ġovci": 7122,
      "Ġoism": 7123,
      "ĠABAXBX": 7124,
      "rg": 7125,
      "ĠpÄĽsÅ¥": 7126,
      "Ġenal": 7127,
      "ĠodÅ¯m": 7128,
      "ĠehÅĪ": 7129,
      "ĠeÄįen": 7130,
      "Ġopad": 7131,
      "Ġisch": 7132,
      "ĠeznÃ½": 7133,
      "ĠostnÃ½ch": 7134,
      "ĠostnÃ½m": 7135,
      "ĠoÅ¾nÃ½": 7136,
      "ĠÄĽncÅ¯": 7137,
      "cl": 7138,
      "ĠiÅ¯": 7139,
      "Ġsz": 7140,
      "Ġkos": 7141,
      "Ġevsk": 7142,
      "ĠÃŃlel": 7143,
      "ĠÃŃlÃ©m": 7144,
      "ĠÃŃnce": 7145,
      "Ġastl": 7146,
      "ĠÄĽÅ¾stv": 7147,
      "ĠÃ½vr": 7148,
      "Ġibky": 7149,
      "ĠomnÄĽ": 7150,
      "Ġozpn": 7151,
      "ĠantÅ¯": 7152,
      "ĠebnÄĽ": 7153,
      "ĠoÄįnou": 7154,
      "Ġovskou": 7155,
      "ĠoÄıc": 7156,
      "Ġinde": 7157,
      "Ġobyt": 7158,
      "Ġefn": 7159,
      "Ġevzpl": 7160,
      "Ġait": 7161,
      "ĠsÃŃÅ¥": 7162,
      "ĠodiÃŃ": 7163,
      "Ġstud": 7164,
      "Ġeschl": 7165,
      "ĠamÃ©": 7166,
      "ĠÃŃcÃ½m": 7167,
      "Ġylb": 7168,
      "Ġylt": 7169,
      "Ġestech": 7170,
      "ĠiÅ¡ka": 7171,
      "ĠptÃ¡": 7172,
      "Ġodli": 7173,
      "ĠÃ¡vnÃ½": 7174,
      "Ġatnou": 7175,
      "Ġechnout": 7176,
      "Ġvznik": 7177,
      "ĠaÄįno": 7178,
      "Ġanka": 7179,
      "Ġiemi": 7180,
      "ĠXABAXB": 7181,
      "ĠÄĽtnÃ©": 7182,
      "Ġarstv": 7183,
      "ĠujÄį": 7184,
      "ĠulÄį": 7185,
      "ĠzlÃ©m": 7186,
      "Ġubil": 7187,
      "Ġmluv": 7188,
      "Ġoudk": 7189,
      "ĠeÄıte": 7190,
      "Ġadnul": 7191,
      "Ġidskou": 7192,
      "Ġoklad": 7193,
      "Ġalie": 7194,
      "Ġitrem": 7195,
      "ĠesmÃŃ": 7196,
      "ĠÃ¡hnout": 7197,
      "ĠeÅ¡lo": 7198,
      "ĠÄĽznÃ¡": 7199,
      "Ġamnou": 7200,
      "Ġvjezd": 7201,
      "ĠÃºml": 7202,
      "Ġoven": 7203,
      "ĠovÃ¡m": 7204,
      "Ġapky": 7205,
      "Ġistc": 7206,
      "ĠernÃŃch": 7207,
      "ĠasnÃ½ch": 7208,
      "Ġuvk": 7209,
      "ĠÃŃsty": 7210,
      "Ġostiv": 7211,
      "ĠÅ¯rce": 7212,
      "ĠaÅĪte": 7213,
      "Ġlha": 7214,
      "Ġrpkl": 7215,
      "ĠÃºstk": 7216,
      "Ġeok": 7217,
      "ĠeÄįkem": 7218,
      "ĠotnÄĽ": 7219,
      "ĠurnÃ½": 7220,
      "ĠhÅĻmÃŃ": 7221,
      "Ġedmn": 7222,
      "Ġokvas": 7223,
      "Ġsok": 7224,
      "Ġomen": 7225,
      "ĠorÃ©": 7226,
      "Ġylv": 7227,
      "ĠuÅ¾ku": 7228,
      "Ġapp": 7229,
      "Ġoutky": 7230,
      "ĠaÅ¥s": 7231,
      "ĠenkÃ¡ch": 7232,
      "Ġodruh": 7233,
      "Ġilnou": 7234,
      "Ġencem": 7235,
      "Ġiog": 7236,
      "ĠÄĽÅ¾nÃ½": 7237,
      "ĠoustÅĻ": 7238,
      "ĠÃ©tly": 7239,
      "ĠoesiÃŃ": 7240,
      "Ġvzmach": 7241,
      "Ġeinr": 7242,
      "Ġrad": 7243,
      "ĠelÃŃm": 7244,
      "Ġedi": 7245,
      "Ġonech": 7246,
      "Ġohm": 7247,
      "ĠÃŃck": 7248,
      "ĠutÅ¡": 7249,
      "Ġrdou": 7250,
      "ĠopÃŃm": 7251,
      "Ġzdob": 7252,
      "ĠvlÃ¡t": 7253,
      "ĠAABXXB": 7254,
      "ĠÃŃdm": 7255,
      "Ġtroud": 7256,
      "ĠÄĽÅ¾Å¡ÃŃ": 7257,
      "ĠÃ³dn": 7258,
      "ĠÄĽchou": 7259,
      "Ġvzdm": 7260,
      "Ġvzdal": 7261,
      "Ġeslem": 7262,
      "ĠÄĽctv": 7263,
      "Ġotva": 7264,
      "Ġyru": 7265,
      "Ġojnost": 7266,
      "ĠÃ©kem": 7267,
      "Ġvzrost": 7268,
      "Ġoeta": 7269,
      "Ġendl": 7270,
      "ĠemÃ¡m": 7271,
      "Ġodo": 7272,
      "Ġchy": 7273,
      "Ġchud": 7274,
      "Ġekot": 7275,
      "ĠÃŃnech": 7276,
      "ĠzvÃ¡n": 7277,
      "Ġynku": 7278,
      "ĠobrÃ¡": 7279,
      "ĠÃ¡pu": 7280,
      "ĠiÄįil": 7281,
      "ĠÄĽÅ¡il": 7282,
      "ĠouÅ¡ky": 7283,
      "ĠrÅ¾et": 7284,
      "ĠÄĽncem": 7285,
      "ĠedeÅ¡": 7286,
      "ĠssÃ¡l": 7287,
      "ĠABCCBA": 7288,
      "ĠyÃ¡Å¡": 7289,
      "ÅĻe": 7290,
      "Ġovs": 7291,
      "Ġaso": 7292,
      "ĠasÃ©": 7293,
      "Ġonen": 7294,
      "ĠÄĽnÄĽn": 7295,
      "ĠÃ©hÃ¡": 7296,
      "ĠysÃ©": 7297,
      "Ġvlak": 7298,
      "ĠusnÃ©": 7299,
      "Ġubou": 7300,
      "ĠaÅ¾dÃ¡": 7301,
      "ĠernÃ½m": 7302,
      "Ġodni": 7303,
      "Ġykat": 7304,
      "Ġolno": 7305,
      "Ġeknou": 7306,
      "Ġrby": 7307,
      "ĠejpÅĻ": 7308,
      "Ġprch": 7309,
      "ĠotÃ¡ÅĻ": 7310,
      "Ġarku": 7311,
      "ĠÃ¡vl": 7312,
      "Ġylu": 7313,
      "Ġklek": 7314,
      "ĠusÃŃÅ¡": 7315,
      "ĠÃ¡skÅ¯": 7316,
      "ĠaÅ¾dÃŃ": 7317,
      "Ġvzdych": 7318,
      "ĠodnÃ½m": 7319,
      "ĠaÅĻstv": 7320,
      "Ġybu": 7321,
      "ĠutnÃ½ch": 7322,
      "Ġisko": 7323,
      "ĠÃ©ny": 7324,
      "Ġousek": 7325,
      "Ġycv": 7326,
      "Ġotnou": 7327,
      "Ġitnou": 7328,
      "ĠenskÃ½": 7329,
      "ĠsfÃ©r": 7330,
      "ea": 7331,
      "Ġiost": 7332,
      "Ġuar": 7333,
      "Ġtn": 7334,
      "Ġessk": 7335,
      "ĠinÅ¯m": 7336,
      "ĠÃŃtu": 7337,
      "ĠÄĽjnÃ©": 7338,
      "Ġhrej": 7339,
      "ĠopÃŃÅ¡": 7340,
      "Ġabil": 7341,
      "ĠÃ¡csl": 7342,
      "ĠiÅ¡Å¡ÃŃ": 7343,
      "ĠÅ¯Å¾ka": 7344,
      "Ġrhat": 7345,
      "Ġied": 7346,
      "ĠudnÄĽ": 7347,
      "ĠÃŃrnÃ¡": 7348,
      "Ġysku": 7349,
      "ĠezkÃ©": 7350,
      "Ġaft": 7351,
      "Ġiana": 7352,
      "Ġaele": 7353,
      "ĠAAAABB": 7354,
      "ĠadosÅ¥": 7355,
      "Ġesal": 7356,
      "ĠostÅ¯": 7357,
      "ĠohÅ¯m": 7358,
      "Ġozsm": 7359,
      "ĠaÄįÅ¯": 7360,
      "ĠaÄįek": 7361,
      "ĠubÃ½": 7362,
      "ĠupÄĽ": 7363,
      "Ġupen": 7364,
      "ĠÃ³Å¾": 7365,
      "Ġohlo": 7366,
      "ĠiÄįÅ¯": 7367,
      "ĠÃŃstn": 7368,
      "Ġyjt": 7369,
      "ĠÃŃÄįi": 7370,
      "ĠÄĽrnÃ½m": 7371,
      "ĠytÃŃÅĻ": 7372,
      "ĠAAXAXA": 7373,
      "Ġytla": 7374,
      "ĠÃŃlny": 7375,
      "Ġaim": 7376,
      "Ġeobv": 7377,
      "ĠÃ½ÄįkÃ¡": 7378,
      "Ġilstv": 7379,
      "Ġedej": 7380,
      "Ġavin": 7381,
      "Ġasku": 7382,
      "Ġchod": 7383,
      "ĠutÃ½m": 7384,
      "Ġspas": 7385,
      "ĠocnÃ©": 7386,
      "ĠklÃŃÄį": 7387,
      "ĠytÅ¯": 7388,
      "ĠÄĽml": 7389,
      "Ġzpit": 7390,
      "ĠenÅ¾s": 7391,
      "Ġrnu": 7392,
      "ĠÃ¡zna": 7393,
      "Ġsplav": 7394,
      "ĠÃ©val": 7395,
      "Ġidstvo": 7396,
      "ĠÃ½nem": 7397,
      "Ġexp": 7398,
      "Ġeobj": 7399,
      "sp": 7400,
      "Ġtw": 7401,
      "ĠenÃ¡Å¡": 7402,
      "Ġlip": 7403,
      "Ġerst": 7404,
      "Ġits": 7405,
      "ĠÃŃta": 7406,
      "Ġevkr": 7407,
      "Ġevzk": 7408,
      "ĠsnÅ¯v": 7409,
      "Ġizr": 7410,
      "ĠvzdÃ¡t": 7411,
      "ĠÅ¯zl": 7412,
      "ĠÃŃÄįem": 7413,
      "ĠrpÄĽl": 7414,
      "ĠilnÃ¡": 7415,
      "ĠobnÄĽ": 7416,
      "Ġyvn": 7417,
      "Ġchmur": 7418,
      "ĠyÅ¡nÄĽ": 7419,
      "ĠÃ¡bla": 7420,
      "ĠABBABX": 7421,
      "ĠAXBBAX": 7422,
      "ĠudÅ¡ÃŃ": 7423,
      "ĠechÃ¡m": 7424,
      "Ġepal": 7425,
      "ĠuÄįit": 7426,
      "ĠemnÃŃ": 7427,
      "ĠvstaÅĪ": 7428,
      "ĠÃ½skal": 7429,
      "ĠÃºdÅ¯": 7430,
      "Ġindy": 7431,
      "ĠABCAC": 7432,
      "ĠABCACB": 7433,
      "ĠÃ¡g": 7434,
      "Ġelit": 7435,
      "Ġasb": 7436,
      "ĠerÃ½m": 7437,
      "Ġutc": 7438,
      "ĠysÃ½": 7439,
      "ĠaÄįal": 7440,
      "ĠupÃ¡": 7441,
      "ĠÃ¡py": 7442,
      "ĠyslÅ¯": 7443,
      "Ġozvzt": 7444,
      "Ġechno": 7445,
      "ĠesnÃ¡": 7446,
      "ĠesnÄĽ": 7447,
      "ĠehnÃ¡": 7448,
      "Ġalnou": 7449,
      "Ġokno": 7450,
      "ĠoÅĪm": 7451,
      "ĠÄĽÅ¾na": 7452,
      "Ġijdou": 7453,
      "ĠovÅ¡em": 7454,
      "ĠaÅ¡im": 7455,
      "Ġezhv": 7456,
      "Ġideal": 7457,
      "ĠABXABX": 7458,
      "Ġoab": 7459,
      "ÃŃzd": 7460,
      "Ġathl": 7461,
      "Ġetal": 7462,
      "ĠorÃ¡m": 7463,
      "Ġosel": 7464,
      "ĠuÅ¡Äį": 7465,
      "ĠÃŃvku": 7466,
      "Ġukc": 7467,
      "ĠaÅ¡em": 7468,
      "ĠÃ¡Å¡ÃŃm": 7469,
      "Ġtrh": 7470,
      "Ġchlap": 7471,
      "Ġovnu": 7472,
      "ĠeznÃŃ": 7473,
      "Ġospas": 7474,
      "ĠÃ¡hnu": 7475,
      "Ġasly": 7476,
      "Ġouka": 7477,
      "Ġior": 7478,
      "ĠitÅĻk": 7479,
      "Ġunkt": 7480,
      "Ġydlo": 7481,
      "ĠAXXAXX": 7482,
      "ĠivÅ¡e": 7483,
      "Ġyac": 7484,
      "sch": 7485,
      "Ġaer": 7486,
      "ĠmÅĪ": 7487,
      "Ġilt": 7488,
      "Ġilky": 7489,
      "ĠÄįert": 7490,
      "ĠÃ¡mem": 7491,
      "Ġajky": 7492,
      "ĠÃŃÅ¾it": 7493,
      "ĠÃŃdou": 7494,
      "ĠoÅ¡kv": 7495,
      "Ġodnes": 7496,
      "ĠeÄįno": 7497,
      "ĠatkÃ½": 7498,
      "Ġarno": 7499,
      "ĠÄĽhne": 7500,
      "ĠÃ¡bu": 7501,
      "ĠÃ½lc": 7502,
      "Ġomnost": 7503,
      "Ġivne": 7504,
      "ĠrtvÃ½ch": 7505,
      "kus": 7506,
      "Ġanty": 7507,
      "ĠrÅ¾k": 7508,
      "Ġebnou": 7509,
      "ĠÃ¡dkou": 7510,
      "Ġerth": 7511,
      "ĠÃ©nko": 7512,
      "Ġofr": 7513,
      "ĠmÄĽch": 7514,
      "ĠÃ¡Å¡lÃŃ": 7515,
      "ĠÅ¡ÃŃj": 7516,
      "Ġaem": 7517,
      "ĠtÃ½n": 7518,
      "Ġalch": 7519,
      "Ġiluj": 7520,
      "ĠavÄĽl": 7521,
      "ĠÅ¾ert": 7522,
      "Ġobsk": 7523,
      "ĠÄĽtstvÃŃ": 7524,
      "skÃ©": 7525,
      "ĠÃŃtÃ¡Å¡": 7526,
      "ĠonÃŃm": 7527,
      "ĠuÅ¡ÃŃÅ¡": 7528,
      "ĠeÅ¡i": 7529,
      "ĠiÅ¾ka": 7530,
      "Ġijak": 7531,
      "Ġvrch": 7532,
      "ĠÄĽtlu": 7533,
      "ĠatÅĻit": 7534,
      "ĠibÅĻ": 7535,
      "ĠÃ©nem": 7536,
      "Ġystl": 7537,
      "ĠztrÃ¡t": 7538,
      "Ġoule": 7539,
      "Ġton": 7540,
      "ĠounkÃ¡": 7541,
      "Ġebkou": 7542,
      "Ġytkn": 7543,
      "ĠÃŃmnÄĽ": 7544,
      "Ġudrl": 7545,
      "ĠlÃŃt": 7546,
      "Ġedek": 7547,
      "ĠÄĽlec": 7548,
      "ĠotnÃ©": 7549,
      "ĠÃ¡mÃ½ch": 7550,
      "ĠudÃŃÅ¡": 7551,
      "ĠyÅ¾s": 7552,
      "Ġlno": 7553,
      "ĠovnÃ½ch": 7554,
      "ĠÃ½la": 7555,
      "Ġyrrh": 7556,
      "Ġajdu": 7557,
      "ĠosmÄĽch": 7558,
      "ĠespÅĻ": 7559,
      "Ġoesii": 7560,
      "Ġzisk": 7561,
      "Ġmok": 7562,
      "Ġdam": 7563,
      "ĠÃ©Å¡t": 7564,
      "ĠovÃŃÅ¡": 7565,
      "Ġadat": 7566,
      "ĠpÅĻej": 7567,
      "ĠamÅ¥": 7568,
      "Ġozem": 7569,
      "Ġebku": 7570,
      "ĠoÅ¾ky": 7571,
      "ĠÃ¡zÃŃÅ¡": 7572,
      "Ġachl": 7573,
      "Ġubit": 7574,
      "Ġohlav": 7575,
      "ĠtmÃŃ": 7576,
      "Ġouba": 7577,
      "ĠouÅ¡ka": 7578,
      "Ġervy": 7579,
      "Ġertr": 7580,
      "Ġejvr": 7581,
      "Ġyskne": 7582,
      "ĠemskÃ©": 7583,
      "ĠislÃ½": 7584,
      "Ġislav": 7585,
      "ĠoniÃŃ": 7586,
      "ĠeÃºr": 7587,
      "ĠeÃºst": 7588,
      "Ġeim": 7589,
      "vl": 7590,
      "ĠkouÅĻ": 7591,
      "Ġroh": 7592,
      "Ġedii": 7593,
      "Ġsved": 7594,
      "Ġolej": 7595,
      "Ġomoz": 7596,
      "ĠÃ¡tou": 7597,
      "ĠÃŃlÃŃÅ¡": 7598,
      "ĠspÄĽj": 7599,
      "ĠÃŃÅ¾sk": 7600,
      "ĠaÄįÃŃm": 7601,
      "Ġvryl": 7602,
      "Ġodlit": 7603,
      "ĠchtÃŃÄį": 7604,
      "ĠeklÃ¡": 7605,
      "ĠÃ½lu": 7606,
      "Ġandu": 7607,
      "ĠozkoÅ¡": 7608,
      "Ġychla": 7609,
      "Ġezdv": 7610,
      "Ġeskly": 7611,
      "ĠavÅĻel": 7612,
      "Ġytnou": 7613,
      "ĠÃ¡Å¾dÃŃ": 7614,
      "Ġaal": 7615,
      "ĠodÃ¡m": 7616,
      "Ġavky": 7617,
      "Ġanech": 7618,
      "ĠolÃ¡n": 7619,
      "ĠesÃ¡t": 7620,
      "ĠÄĽnem": 7621,
      "ĠÄĽjem": 7622,
      "ĠuÅ¾stvÃŃ": 7623,
      "Ġulm": 7624,
      "ĠiÅ¡ky": 7625,
      "Ġijou": 7626,
      "ĠÃ¡kon": 7627,
      "ĠoÅ¡tv": 7628,
      "ĠlzÃ¡ch": 7629,
      "ĠuÄıte": 7630,
      "ĠÄĽrnÃ½ch": 7631,
      "ĠevnÃ¡": 7632,
      "Ġjev": 7633,
      "ĠobnÃŃ": 7634,
      "ĠobnÃ¡": 7635,
      "Ġeokl": 7636,
      "ĠovskÃ½ch": 7637,
      "ĠÃ¡lnÃ½": 7638,
      "Ġsic": 7639,
      "Ġltn": 7640,
      "Ġezvl": 7641,
      "Ġtah": 7642,
      "Ġenr": 7643,
      "ĠÃŃlÃŃm": 7644,
      "ĠednÃŃch": 7645,
      "Ġynka": 7646,
      "Ġkvet": 7647,
      "ĠubÃŃn": 7648,
      "Ġbrod": 7649,
      "Ġasna": 7650,
      "ĠÃ½Å¡c": 7651,
      "ĠiÄįit": 7652,
      "ĠÅ¯lkr": 7653,
      "Ġyry": 7654,
      "ĠÄĽrnÃŃ": 7655,
      "Ġobnou": 7656,
      "ĠlÄįel": 7657,
      "Ġostly": 7658,
      "ĠtkÃ¡": 7659,
      "Ġcnost": 7660,
      "ĠAXBABX": 7661,
      "Ġalek": 7662,
      "Ġalech": 7663,
      "ĠamÃ¡": 7664,
      "Ġikal": 7665,
      "ĠdruÅ¾": 7666,
      "Ġocht": 7667,
      "Ġemno": 7668,
      "Ġadko": 7669,
      "ĠÄĽcm": 7670,
      "ĠÃŃdnÃ½m": 7671,
      "ĠlÄįt": 7672,
      "and": 7673,
      "Ġoucna": 7674,
      "ĠaÅ¡nÄĽ": 7675,
      "ĠebkÃ½": 7676,
      "ĠunnÃ½": 7677,
      "Ġialky": 7678,
      "Ġella": 7679,
      "Ġtisk": 7680,
      "oÅĻ": 7681,
      "ĠoÃº": 7682,
      "Ġovky": 7683,
      "ĠstÃ¡h": 7684,
      "Ġostel": 7685,
      "ĠinÃ¡l": 7686,
      "Ġeben": 7687,
      "ĠidÅ¯": 7688,
      "ĠuÅ¾Å¡ÃŃ": 7689,
      "ĠÃ¡zv": 7690,
      "Ġastech": 7691,
      "ĠÅ¯jm": 7692,
      "Ġchlum": 7693,
      "ĠÄĽrnost": 7694,
      "Ġvnuk": 7695,
      "Ġyvl": 7696,
      "Ġusne": 7697,
      "Ġhmyz": 7698,
      "ĠomkÅ¯": 7699,
      "ĠÃºrn": 7700,
      "ĠABBXAX": 7701,
      "Ġychrl": 7702,
      "Ġinfr": 7703,
      "ĠÄĽtÃ¡": 7704,
      "Ġivr": 7705,
      "ĠÃ¡mky": 7706,
      "Ġehal": 7707,
      "ĠoÄįky": 7708,
      "ĠhrÃ¡ch": 7709,
      "Ġapal": 7710,
      "Ġstrop": 7711,
      "ĠÄĽvÃ¡": 7712,
      "ĠuÄįin": 7713,
      "ĠÃ¡Å¾ky": 7714,
      "ĠÄĽrÄį": 7715,
      "Ġouzd": 7716,
      "Ġoubek": 7717,
      "ĠÄĽcku": 7718,
      "Ġetne": 7719,
      "ĠÃ½kal": 7720,
      "Ġudbu": 7721,
      "ĠÃ½rk": 7722,
      "Ġrhnul": 7723,
      "ĠuznÃ¡": 7724,
      "Ġouvl": 7725,
      "Ġihly": 7726,
      "ĠeupÅĻ": 7727,
      "Ġew": 7728,
      "ĠvÄĽt": 7729,
      "Ã¡p": 7730,
      "Ġprut": 7731,
      "ĠostÃ¡": 7732,
      "Ġines": 7733,
      "Ġosc": 7734,
      "Ġezkl": 7735,
      "Ġikc": 7736,
      "ĠÄĽsy": 7737,
      "Ġustk": 7738,
      "Ġirg": 7739,
      "ĠentÅ¯": 7740,
      "Ġatru": 7741,
      "ĠiÅ¡lo": 7742,
      "Ġihnout": 7743,
      "ĠÃ¡slo": 7744,
      "Ġilla": 7745,
      "Ġmhou": 7746,
      "Ġvjel": 7747,
      "Ġeap": 7748,
      "Ġavzl": 7749,
      "ĠdÅ¯l": 7750,
      "Ġatd": 7751,
      "ĠatÅ¡ÃŃ": 7752,
      "ĠobÃ¡": 7753,
      "ĠÃ¡nce": 7754,
      "Ġezs": 7755,
      "Ã©n": 7756,
      "ĠÄĽnek": 7757,
      "Ġzlem": 7758,
      "ĠÄĽmÄĽl": 7759,
      "Ġbrach": 7760,
      "ĠhnÃŃzd": 7761,
      "ĠeoÅ¡": 7762,
      "Ġudny": 7763,
      "ĠmdlÃ©": 7764,
      "ĠÃŃrnou": 7765,
      "Ġyskem": 7766,
      "ĠuÄįky": 7767,
      "ĠeÃ¡lÅ¯": 7768,
      "Ġismu": 7769,
      "Ġdcer": 7770,
      "Ġeou": 7771,
      "Ġiq": 7772,
      "Ġiak": 7773,
      "Ġryl": 7774,
      "Ġemoc": 7775,
      "Ġadd": 7776,
      "Ġelel": 7777,
      "Ġankr": 7778,
      "Ġolen": 7779,
      "Ġostor": 7780,
      "ĠÄĽtou": 7781,
      "ĠivÃŃm": 7782,
      "Ġosof": 7783,
      "ĠajÃŃch": 7784,
      "ĠeÅ¡il": 7785,
      "ĠuÅ¾nÃ©": 7786,
      "ĠumÃ¡n": 7787,
      "ĠÃŃÅ¾en": 7788,
      "Ġdrozd": 7789,
      "Ġgj": 7790,
      "ĠivnÄĽ": 7791,
      "ĠctÃŃt": 7792,
      "Ġestra": 7793,
      "Ġolkn": 7794,
      "ĠeneÅ¡": 7795,
      "ĠÃ½Å¾Äı": 7796,
      "ĠitÅĻnÃŃ": 7797,
      "Ġaksi": 7798,
      "Ġoldr": 7799,
      "Ġoob": 7800,
      "Ġaed": 7801,
      "ĠelÅ¥": 7802,
      "ĠamÃ½": 7803,
      "Ġevk": 7804,
      "ĠÃ¡dost": 7805,
      "ĠutÃ©m": 7806,
      "Ġapce": 7807,
      "Ġistk": 7808,
      "ĠÃŃsy": 7809,
      "ĠuÄįet": 7810,
      "Ġacie": 7811,
      "ĠÃ¡sni": 7812,
      "ĠÄĽÅ¡e": 7813,
      "ĠennÃ½ch": 7814,
      "Ġschm": 7815,
      "ĠostrÃ½": 7816,
      "ĠÃŃzdo": 7817,
      "ĠedbÃ¡": 7818,
      "ĠeuÅ¡k": 7819,
      "hn": 7820,
      "Ġiav": 7821,
      "ĠÃ½ce": 7822,
      "Ġrku": 7823,
      "ĠleÅ¥": 7824,
      "ĠesnÃ©": 7825,
      "ĠÄįÃ¡st": 7826,
      "ĠÄįesÅ¥": 7827,
      "Ġotsk": 7828,
      "ĠÃ¡lÃŃm": 7829,
      "ĠonÃŃch": 7830,
      "Ġslok": 7831,
      "ĠarÃ½ch": 7832,
      "Ã½c": 7833,
      "Ġutu": 7834,
      "ĠÃŃkÅĻ": 7835,
      "ĠÄĽstou": 7836,
      "ĠÄĽmec": 7837,
      "ĠÃŃhat": 7838,
      "ĠÃ¡jc": 7839,
      "ĠÃ½Å¡ky": 7840,
      "Ġrze": 7841,
      "ĠlhÃ¡ÅĻ": 7842,
      "ĠennÃŃm": 7843,
      "Ġoucho": 7844,
      "Ġaslo": 7845,
      "Ġokny": 7846,
      "Ġostry": 7847,
      "ĠÃ½ny": 7848,
      "Ġomsty": 7849,
      "ĠemÅĻel": 7850,
      "Ġyjde": 7851,
      "ĠXABXAB": 7852,
      "Ġux": 7853,
      "Ġsvah": 7854,
      "ĠchÃ½Å¾": 7855,
      "Ġebu": 7856,
      "ĠidÅ¡t": 7857,
      "ĠÃ¡db": 7858,
      "ĠsnÃŃÅ¡": 7859,
      "ĠytÃŃm": 7860,
      "Ġouhu": 7861,
      "Ġeckt": 7862,
      "Ġodla": 7863,
      "Ġeupr": 7864,
      "ĠocnÃ¡": 7865,
      "Ġoknech": 7866,
      "ĠetnÃ½ch": 7867,
      "ĠotnÃŃ": 7868,
      "ĠÄĽtvÃŃ": 7869,
      "ĠÄĽznÄĽ": 7870,
      "Ġobzvl": 7871,
      "Ġukla": 7872,
      "Ġaursk": 7873,
      "ĠsmrÅ¥": 7874,
      "ĠtÅ¯ÅĪ": 7875,
      "ĠedÃŃÅ¡": 7876,
      "Ġator": 7877,
      "Ġezen": 7878,
      "Ġopat": 7879,
      "Ġstrast": 7880,
      "ĠiÅ¡sk": 7881,
      "ĠoudÃŃm": 7882,
      "ĠÃ¡jil": 7883,
      "ĠannÃ½": 7884,
      "Ġejno": 7885,
      "ĠalnÄĽ": 7886,
      "ĠÃ¡stup": 7887,
      "Ġudne": 7888,
      "ĠevÅĻÃŃt": 7889,
      "Ġouval": 7890,
      "Ġitlo": 7891,
      "ĠÄĽpl": 7892,
      "ĠÅ¯bec": 7893,
      "Ġabsb": 7894,
      "Ġhus": 7895,
      "Ġakch": 7896,
      "skÃ½ch": 7897,
      "Ġaret": 7898,
      "ĠÃŃnou": 7899,
      "ĠikÃ½ch": 7900,
      "ĠÃŃÅ¡ky": 7901,
      "ĠÃ¡ral": 7902,
      "ĠachÅ¯": 7903,
      "Ġzbor": 7904,
      "Ġjdu": 7905,
      "ĠÄĽjÅ¡k": 7906,
      "ĠobÅĻÃŃ": 7907,
      "ĠAXAABB": 7908,
      "ĠÃ©nkÃ¡ch": 7909,
      "ĠÃ½bl": 7910,
      "Ġodml": 7911,
      "Ġenic": 7912,
      "ĠÄĽÅ¡tÃŃ": 7913,
      "Ġortn": 7914,
      "Ġaan": 7915,
      "ĠtÃ½l": 7916,
      "ĠÃ©ku": 7917,
      "ĠrÃ©v": 7918,
      "ĠenÅ¡ÃŃ": 7919,
      "Ġlek": 7920,
      "Ġovan": 7921,
      "Ġodat": 7922,
      "Ġodce": 7923,
      "ĠolesÅ¥": 7924,
      "ĠÃŃmÃ¡Å¡": 7925,
      "ĠostÅ¡": 7926,
      "ĠozÅ¡t": 7927,
      "ĠosnÃ©": 7928,
      "ĠutÃŃch": 7929,
      "Ġopis": 7930,
      "Ġukt": 7931,
      "ĠÃ¡ÅĻku": 7932,
      "ĠuchÃ©m": 7933,
      "Ġstrh": 7934,
      "ĠuhÃ½m": 7935,
      "Ġupce": 7936,
      "ĠustÃŃm": 7937,
      "ĠÃŃbit": 7938,
      "ĠaÅĻec": 7939,
      "ĠeÄįnÃŃk": 7940,
      "Ġehnul": 7941,
      "ĠonÄįÃŃ": 7942,
      "ĠÃ¡tnÄĽ": 7943,
      "ĠestnÄĽ": 7944,
      "ĠupnÃ½": 7945,
      "Ġourb": 7946,
      "Ġilly": 7947,
      "ĠechvÄĽn": 7948,
      "Ġibkem": 7949,
      "ĠauÄįÃŃ": 7950,
      "ĠdÅ¾bÃ¡n": 7951,
      "ĠAXXABB": 7952,
      "Ġaq": 7953,
      "Ġvad": 7954,
      "Ġlom": 7955,
      "ĠodÃ¡ÅĻ": 7956,
      "Ġesat": 7957,
      "Ġori": 7958,
      "Ġkrad": 7959,
      "Ġosch": 7960,
      "ĠuÅ¡ek": 7961,
      "Ġzla": 7962,
      "Ġazku": 7963,
      "Ġabu": 7964,
      "ĠchvÃŃt": 7965,
      "Ġodlil": 7966,
      "ĠÄĽtlÃ©": 7967,
      "Ġyjm": 7968,
      "ĠetlÃ©": 7969,
      "ĠaÅ¡lo": 7970,
      "Ġekni": 7971,
      "ĠumnÃ½": 7972,
      "ĠÃ©dni": 7973,
      "Ġalvan": 7974,
      "ĠimÅ¾t": 7975,
      "ĠÅ¯rÄįÃŃ": 7976,
      "Ġozzl": 7977,
      "Ġiosn": 7978,
      "Ġelek": 7979,
      "ĠÃ¡nv": 7980,
      "Ġivier": 7981,
      "Ġslz": 7982,
      "ĠsluÅ¾": 7983,
      "Ġidel": 7984,
      "ĠÃ¡deÅ¾": 7985,
      "ĠÄĽvÃŃ": 7986,
      "ĠÄĽÅ¾m": 7987,
      "ĠÄĽzil": 7988,
      "Ġozdy": 7989,
      "ĠÅ¯da": 7990,
      "ĠvzrÅ¯st": 7991,
      "ĠÄĽtskÃ¡": 7992,
      "ĠuÅ¾ba": 7993,
      "Ġogn": 7994,
      "ĠuknÄĽ": 7995,
      "Ġspjal": 7996,
      "Ġouzvuk": 7997,
      "Ġyskla": 7998,
      "dh": 7999,
      "Ġoin": 8000,
      "Ġdz": 8001,
      "ĠatÃŃÅ¡": 8002,
      "Ġobci": 8003,
      "Ġitka": 8004,
      "Ġiter": 8005,
      "Ġebil": 8006,
      "ĠeÅ¾r": 8007,
      "ĠAABABX": 8008,
      "Ġznik": 8009,
      "Ġychne": 8010,
      "ĠÃ³t": 8011,
      "Ġbrav": 8012,
      "ĠÃ¡bk": 8013,
      "ĠdÅĻev": 8014,
      "ĠÅ¯hv": 8015,
      "ĠbÅĻÃŃz": 8016,
      "Ġyrsk": 8017,
      "ĠrÅ¾e": 8018,
      "ĠetnÃ¡": 8019,
      "ĠrstÃŃ": 8020,
      "ĠÃ¡rnÃŃ": 8021,
      "ĠuhlÃŃ": 8022,
      "Ġenius": 8023,
      "Ġosby": 8024,
      "ĠÃ½Å¡lel": 8025,
      "ĠXAXXXA": 8026,
      "och": 8027,
      "yÅĪ": 8028,
      "Ġyob": 8029,
      "ĠakÅ¥": 8030,
      "ĠakÃ©m": 8031,
      "Ġovel": 8032,
      "Ġedky": 8033,
      "Ġstisk": 8034,
      "ĠÄĽlÃ¡m": 8035,
      "Ġitm": 8036,
      "Ġarii": 8037,
      "ĠÃ½mem": 8038,
      "ĠestÃ¡": 8039,
      "ĠeÅ¾et": 8040,
      "Ġuschn": 8041,
      "ĠÃ¡rsk": 8042,
      "Ġdrah": 8043,
      "Ġabz": 8044,
      "ĠAABBBB": 8045,
      "ĠÃŃza": 8046,
      "ĠÃ¡Å¾nÃ©": 8047,
      "ĠiÄįel": 8048,
      "Ġiskup": 8049,
      "Ġozval": 8050,
      "ĠyÅ¡li": 8051,
      "ĠÃŃÄįkÅ¯": 8052,
      "ĠschÅĻ": 8053,
      "ĠeoÅ¾": 8054,
      "ĠesknÃŃ": 8055,
      "Ġojim": 8056,
      "Ġitbu": 8057,
      "ĠÄĽÄįe": 8058,
      "ĠÄĽjnÄĽ": 8059,
      "Ġdbal": 8060,
      "Ġienn": 8061,
      "ĠemÄį": 8062,
      "Ġotal": 8063,
      "Ġudsk": 8064,
      "Ġarost": 8065,
      "ĠeÅ¾ÃŃÅ¡": 8066,
      "Ġujou": 8067,
      "ĠupÃ½": 8068,
      "ĠÄĽrb": 8069,
      "Ġmrou": 8070,
      "Ġantr": 8071,
      "ĠÃ¡znou": 8072,
      "Ġilii": 8073,
      "Ġitby": 8074,
      "Ġondy": 8075,
      "Ġethe": 8076,
      "ĠuÅ¾eb": 8077,
      "ĠevzkÅĻ": 8078,
      "Ġoor": 8079,
      "ĠbiÄį": 8080,
      "Ġalas": 8081,
      "ĠÄĽlit": 8082,
      "ĠinÃŃm": 8083,
      "Ġinstr": 8084,
      "ĠÃŃtÃ¡n": 8085,
      "ĠoÄįb": 8086,
      "Ġecl": 8087,
      "ĠÃŃrÃ©m": 8088,
      "ĠÃŃrej": 8089,
      "Ġlnu": 8090,
      "Ġube": 8091,
      "ĠoutÅ¯": 8092,
      "ĠhnÄĽt": 8093,
      "ĠÃŃhou": 8094,
      "ĠtmÄĽ": 8095,
      "Ġyba": 8096,
      "Ġsklad": 8097,
      "Ġozvl": 8098,
      "ĠajÃŃt": 8099,
      "ĠostnÃŃ": 8100,
      "Ġinkt": 8101,
      "Ġeodn": 8102,
      "Ġitba": 8103,
      "Ġedmd": 8104,
      "ĠÃ½zni": 8105,
      "ĠÃŃlnÄĽ": 8106,
      "Ġalbr": 8107,
      "Ġaltd": 8108,
      "Ġoyal": 8109,
      "ĠÃ½ky": 8110,
      "Ġenul": 8111,
      "Ġstoup": 8112,
      "Ġivan": 8113,
      "Ġamat": 8114,
      "Ġync": 8115,
      "ĠÃ¡hou": 8116,
      "Ġupi": 8117,
      "Ġisi": 8118,
      "ĠernÃŃm": 8119,
      "Ġodna": 8120,
      "ĠÃ¡bor": 8121,
      "Ġaup": 8122,
      "Ġatruj": 8123,
      "ĠejÅ¾t": 8124,
      "Ġezli": 8125,
      "ĠovÄĽst": 8126,
      "ĠeÃ¡nu": 8127,
      "Ġown": 8128,
      "ust": 8129,
      "ĠÅ¾Äı": 8130,
      "Ġkdo": 8131,
      "ĠomÃ¡": 8132,
      "Ġive": 8133,
      "Ġamor": 8134,
      "Ġetku": 8135,
      "Ġslech": 8136,
      "ĠÃŃlÃŃch": 8137,
      "ĠsmÃŃ": 8138,
      "ĠÃŃÅ¡ku": 8139,
      "ĠvlÃ¡l": 8140,
      "ĠÃŃÅ¾c": 8141,
      "ĠkÅĻest": 8142,
      "Ġacc": 8143,
      "ĠeÅĻt": 8144,
      "ĠÄĽsl": 8145,
      "Ġykal": 8146,
      "ĠhÅĻeb": 8147,
      "ĠÅ¯na": 8148,
      "ĠÅ¯ra": 8149,
      "Ġipt": 8150,
      "Ġoufal": 8151,
      "Ġanck": 8152,
      "Ġosku": 8153,
      "ĠotnÃ½": 8154,
      "ĠhÅĻmÄĽl": 8155,
      "ĠÅ¯jdu": 8156,
      "ĠupnÄĽ": 8157,
      "ĠumÅĻel": 8158,
      "ĠÃ½Å¾i": 8159,
      "Ġcvrl": 8160,
      "Ġadby": 8161,
      "Ġdchn": 8162,
      "Ġesd": 8163,
      "Ġinen": 8164,
      "Ġerz": 8165,
      "Ġitost": 8166,
      "ĠekÃ½ch": 8167,
      "Ġkryt": 8168,
      "ĠevÃŃÅ¡": 8169,
      "Ġspn": 8170,
      "ĠÃ¡kat": 8171,
      "ĠÃŃzu": 8172,
      "Ġisu": 8173,
      "ĠÄĽse": 8174,
      "ĠenÃŃk": 8175,
      "ĠÄĽzdnÃ©": 8176,
      "ĠhÅĻe": 8177,
      "ĠodlÃŃm": 8178,
      "ĠrnÃ½ch": 8179,
      "ĠÅ¯ny": 8180,
      "ĠÃ¡ba": 8181,
      "ĠelnÃŃ": 8182,
      "ĠÃŃdni": 8183,
      "ĠinkÃ½": 8184,
      "Ġeoz": 8185,
      "ĠÃŃnkou": 8186,
      "ĠÄĽtry": 8187,
      "ĠÃ¡Äįkn": 8188,
      "ĠestnÃ½": 8189,
      "ĠÃ©rem": 8190,
      "ĠanÄĽn": 8191,
      "Ġoplach": 8192,
      "Ġeff": 8193,
      "ĠÃ¡clav": 8194,
      "Ġetra": 8195,
      "ĠÃ©sÅ¥": 8196,
      "ĠÃ³mu": 8197,
      "ĠXAAABB": 8198,
      "ĠeÃŃ": 8199,
      "Ġyon": 8200,
      "ĠemÅ¡": 8201,
      "ĠavÄĽt": 8202,
      "ĠstÃ¡n": 8203,
      "Ġojb": 8204,
      "ĠojÅ¡t": 8205,
      "ĠevÅ¯": 8206,
      "Ġopce": 8207,
      "ĠÃ¡rt": 8208,
      "Ġubsk": 8209,
      "ĠÅ¯Å¾em": 8210,
      "Ġacb": 8211,
      "Ġiskem": 8212,
      "Ġeukl": 8213,
      "ĠÄĽÅ¾kÃ©": 8214,
      "Ġanno": 8215,
      "Ġeodl": 8216,
      "ĠudbÄĽ": 8217,
      "Ġaktn": 8218,
      "ĠÃ¡zdno": 8219,
      "ĠumnÃ¡": 8220,
      "ĠenskÃ¡": 8221,
      "ĠÃŃÅĪc": 8222,
      "Ġitvy": 8223,
      "ĠÃ½Å¡lÃŃ": 8224,
      "Ġalby": 8225,
      "ĠABAABB": 8226,
      "ĠiatÃ©": 8227,
      "ĠiÃ¡Å¡e": 8228,
      "ĠÃ©e": 8229,
      "ĠejÃŃc": 8230,
      "Ġojz": 8231,
      "ÄĽp": 8232,
      "ĠaÅ¡en": 8233,
      "Ġytal": 8234,
      "ĠÃŃÅ¾ek": 8235,
      "ĠeskÃ½ch": 8236,
      "Ġims": 8237,
      "Ġubem": 8238,
      "ĠdnÅ¯v": 8239,
      "ĠÄĽzit": 8240,
      "Ġhne": 8241,
      "Ġhnus": 8242,
      "Ġvryt": 8243,
      "ĠuvÄį": 8244,
      "ĠuvÃŃm": 8245,
      "ĠenÃŃz": 8246,
      "Ġoubil": 8247,
      "ĠuÄıs": 8248,
      "Ġskla": 8249,
      "Ġirsk": 8250,
      "Ġodpor": 8251,
      "ĠtlÃŃ": 8252,
      "ĠctÃŃ": 8253,
      "ĠÃŃnkÃ¡ch": 8254,
      "ĠÃŃskat": 8255,
      "Ġ37": 8256,
      "ĠenskÃ½ch": 8257,
      "ĠetÅĻt": 8258,
      "ĠitbÄĽ": 8259,
      "ĠyÅ¡Å¡ÃŃm": 8260,
      "ĠestÅĻel": 8261,
      "Ġodhr": 8262,
      "ĠitvÄĽ": 8263,
      "Ġodtud": 8264,
      "Ġodchn": 8265,
      "Ġeobst": 8266,
      "Ġysvl": 8267,
      "ĠiÃ¡nsk": 8268,
      "ĠpÃ½r": 8269,
      "ĠudÃŃm": 8270,
      "ĠylÃ¡": 8271,
      "ĠahÃ½ch": 8272,
      "Ġplul": 8273,
      "ĠoÅ¾ÃŃch": 8274,
      "Ġict": 8275,
      "Ġrtil": 8276,
      "ĠtrÃ¡m": 8277,
      "ĠÄĽÅ¾el": 8278,
      "Ġochod": 8279,
      "ĠernÃ©m": 8280,
      "Ġadnu": 8281,
      "ĠaÅĻen": 8282,
      "Ġechne": 8283,
      "Ġyrk": 8284,
      "ĠannÃŃm": 8285,
      "ĠouÄįÃŃm": 8286,
      "Ġouna": 8287,
      "Ġezkou": 8288,
      "ĠÅ¯jde": 8289,
      "ĠÃºÅ¾as": 8290,
      "Ġiansk": 8291,
      "ĠXABBAA": 8292,
      "ĠÅ¡prÃ½m": 8293,
      "ĠiÃ¡r": 8294,
      "Ġhoj": 8295,
      "Ġodci": 8296,
      "Ġatec": 8297,
      "Ġasyl": 8298,
      "ĠomÃŃm": 8299,
      "Ġajc": 8300,
      "ĠÃ¡dej": 8301,
      "ĠestnÃ©": 8302,
      "ĠpleÅ¥": 8303,
      "ĠednÄĽ": 8304,
      "ĠzvÃŃÅ¡": 8305,
      "ĠXAABBB": 8306,
      "ĠachÃ½": 8307,
      "ĠÃŃsil": 8308,
      "ĠÄĽdci": 8309,
      "ĠÃŃbej": 8310,
      "ĠstÅĻÃ¡s": 8311,
      "ĠomnÃŃt": 8312,
      "Ġandsk": 8313,
      "ĠouÅ¡tÃŃm": 8314,
      "Ġaska": 8315,
      "Å¡tr": 8316,
      "Ġihlo": 8317,
      "ĠÃ½Äįe": 8318,
      "ĠÄĽvnÄĽ": 8319,
      "ĠÃ©zti": 8320,
      "ĠÃ¡stv": 8321,
      "ĠpÄĽj": 8322,
      "Ġakd": 8323,
      "Ġalky": 8324,
      "ĠovÃ¡l": 8325,
      "Ġolet": 8326,
      "ĠÄĽlt": 8327,
      "ĠslÃ¡b": 8328,
      "ĠarÃ¡d": 8329,
      "ĠABCBC": 8330,
      "ĠÃ¡vky": 8331,
      "ĠahÃ½m": 8332,
      "ĠocÅĪ": 8333,
      "Ġzlo": 8334,
      "Ġachc": 8335,
      "ĠuhÅ¯m": 8336,
      "ĠÃ¡cy": 8337,
      "Ġurkr": 8338,
      "Ġidnou": 8339,
      "Ġotrl": 8340,
      "Ġanskou": 8341,
      "ĠehkÃ©": 8342,
      "Ġvpad": 8343,
      "ĠytnÃ½": 8344,
      "ĠÃ©ro": 8345,
      "Ġapsy": 8346,
      "ĠspÅĻeÅ¾": 8347,
      "Ġytmy": 8348,
      "Ġetty": 8349,
      "ĠedÄįÃŃ": 8350,
      "ĠABCBCA": 8351,
      "Ġee": 8352,
      "Ġvkus": 8353,
      "Ġalz": 8354,
      "ĠozÅ¯": 8355,
      "Ġudku": 8356,
      "ĠÃ¡vÄį": 8357,
      "Ġspit": 8358,
      "Ġulek": 8359,
      "ĠÃ¡hej": 8360,
      "Ġovno": 8361,
      "ĠÄįlun": 8362,
      "ĠÅ¯stat": 8363,
      "ĠÃŃpa": 8364,
      "Ġctil": 8365,
      "ĠechtÄĽl": 8366,
      "Ġepla": 8367,
      "ĠertÅ¯": 8368,
      "ĠÃŃzdÄĽ": 8369,
      "ĠÄĽzdnÃ¡": 8370,
      "ĠoÅ¾skÃ½": 8371,
      "Ġeodch": 8372,
      "ĠodÄĽk": 8373,
      "ĠÃ½Å¡let": 8374,
      "ĠyÅĪt": 8375,
      "ĠsÅĪal": 8376,
      "Ġinsp": 8377,
      "iel": 8378,
      "Ġeak": 8379,
      "Ġaw": 8380,
      "Ġuos": 8381,
      "ĠvÃŃt": 8382,
      "Ġrez": 8383,
      "ĠÃŃtc": 8384,
      "ĠonÄĽn": 8385,
      "ĠABXX": 8386,
      "ĠÃ¡vi": 8387,
      "ĠylÃ½": 8388,
      "ĠezÃŃch": 8389,
      "Ġezkv": 8390,
      "ĠABABXA": 8391,
      "Ġhru": 8392,
      "ĠÃŃrÃ½": 8393,
      "ĠumÃ¡": 8394,
      "ĠistÃ½m": 8395,
      "ĠdrÃ¡t": 8396,
      "ĠyÅ¡ÅĪ": 8397,
      "ĠaÅ¾dÃ©": 8398,
      "Ġizte": 8399,
      "ĠÃ¡Å¾ku": 8400,
      "ĠustÃ©m": 8401,
      "ĠhÅĻÃ¡l": 8402,
      "Ġlza": 8403,
      "Ġrnem": 8404,
      "Ġset": 8405,
      "ĠÄĽÅ¡it": 8406,
      "Ġeznu": 8407,
      "ĠÃ¡vna": 8408,
      "ĠrÅ¾n": 8409,
      "ĠouÄįil": 8410,
      "ĠÃ©va": 8411,
      "ĠÃ½ÅĻk": 8412,
      "ĠÄĽtskÃ©": 8413,
      "ĠestÅĻe": 8414,
      "ĠodstÅĻ": 8415,
      "ĠiovÃ©": 8416,
      "Ġeandr": 8417,
      "ĠiuÄį": 8418,
      "ĠdÃŃt": 8419,
      "Ġouis": 8420,
      "Ġomsb": 8421,
      "Ġivit": 8422,
      "ĠÃŃcÅ¯": 8423,
      "Ġezou": 8424,
      "Ġplat": 8425,
      "ĠsmÃŃr": 8426,
      "Ġepot": 8427,
      "ĠÃ©hal": 8428,
      "ĠulÃ¡": 8429,
      "Ġistus": 8430,
      "Ġznoj": 8431,
      "Ġoutech": 8432,
      "ĠÃ¡Äįet": 8433,
      "Ġjdi": 8434,
      "Ġarna": 8435,
      "ĠÄĽÅ¡ce": 8436,
      "ĠrhÃ¡m": 8437,
      "Ġjez": 8438,
      "ĠaÄįnÄĽ": 8439,
      "ĠÅ¯dnÃ©": 8440,
      "ĠalnÃŃ": 8441,
      "Ġetnou": 8442,
      "ĠonnÃŃ": 8443,
      "Ġezka": 8444,
      "ĠonÄįin": 8445,
      "ĠrÅ¡Å¥": 8446,
      "Ġukly": 8447,
      "ĠerÅ¡e": 8448,
      "ĠelskÃ©": 8449,
      "Ġehdy": 8450,
      "Ġohoum": 8451,
      "Ġmus": 8452,
      "Ġilec": 8453,
      "Ġobech": 8454,
      "ĠÃŃmk": 8455,
      "ĠÃŃtÃ½": 8456,
      "ĠÃŃtost": 8457,
      "ĠozÅ¥": 8458,
      "ĠÃ¡sÃ¡m": 8459,
      "Ġvzad": 8460,
      "ĠuÅ¡a": 8461,
      "ĠeÅ¾b": 8462,
      "ĠicÃŃm": 8463,
      "Ġukot": 8464,
      "ĠepÄĽ": 8465,
      "ĠÄĽstm": 8466,
      "ĠÃŃhr": 8467,
      "ĠaÅĻb": 8468,
      "ĠptÃ¡Å¡": 8469,
      "ĠouÅ¾en": 8470,
      "ĠomnÃ¡": 8471,
      "Ġtlak": 8472,
      "ĠospÄĽch": 8473,
      "ĠoÅĪstv": 8474,
      "ĠÄĽkkou": 8475,
      "ĠÄĽÅ¡tn": 8476,
      "Ġapsal": 8477,
      "ĠÅ¯Å¾ko": 8478,
      "ĠÃ½den": 8479,
      "ĠenÄįÃŃ": 8480,
      "Ġovzt": 8481,
      "Ġextr": 8482,
      "ĠovÅ¡t": 8483,
      "ĠobÅ¡": 8484,
      "ĠamÄĽt": 8485,
      "Ġslet": 8486,
      "ĠÅ¡eÄı": 8487,
      "ĠÃŃdku": 8488,
      "Ġlnn": 8489,
      "Ġchvost": 8490,
      "Ġoutc": 8491,
      "ĠoutÃ¡n": 8492,
      "Ġychal": 8493,
      "ĠÃ¡ÄįÅ¯": 8494,
      "ĠÃ½vej": 8495,
      "ĠizÃŃm": 8496,
      "Ġasno": 8497,
      "ĠÃ©tne": 8498,
      "ĠÃ½lÃŃm": 8499,
      "ĠivnÃ¡": 8500,
      "ĠoÅ¾nÄĽ": 8501,
      "Ġinna": 8502,
      "Ġycp": 8503,
      "Ġento": 8504,
      "Ġihnou": 8505,
      "Ġegie": 8506,
      "Ġeteor": 8507,
      "Ġetby": 8508,
      "ĠumÅĻÃŃt": 8509,
      "ĠÃ©Äįka": 8510,
      "Ġodsl": 8511,
      "ĠÅ¾hnou": 8512,
      "ĠadÄįl": 8513,
      "ĠÃŃtmÃŃ": 8514,
      "Ġenin": 8515,
      "Ġodzn": 8516,
      "ĠprÃ¡l": 8517,
      "Ġerak": 8518,
      "Ġamz": 8519,
      "Ġkras": 8520,
      "ĠABAA": 8521,
      "ĠaÅ¾te": 8522,
      "ĠÃŃne": 8523,
      "ĠÄĽjÅ¯": 8524,
      "Ġblah": 8525,
      "Ġulg": 8526,
      "ĠÃŃÅ¾ÃŃÅ¡": 8527,
      "ĠÃ¡ren": 8528,
      "Ġdral": 8529,
      "ĠÃŃdÃ¡Å¡": 8530,
      "ĠachÃ½n": 8531,
      "ĠuÄįc": 8532,
      "Ġijn": 8533,
      "ĠzrÃ¡t": 8534,
      "Ġhnizd": 8535,
      "ĠemnÃ©m": 8536,
      "Ġuvy": 8537,
      "Ġouzen": 8538,
      "ĠiÄįsk": 8539,
      "Ġuza": 8540,
      "ĠouÅ¾i": 8541,
      "ĠeznÄĽ": 8542,
      "ĠvstÃ¡t": 8543,
      "ĠornÃŃ": 8544,
      "ĠoufÃ¡m": 8545,
      "Ġerta": 8546,
      "ĠÄĽtÅ¡ÃŃm": 8547,
      "ĠezkÃ½": 8548,
      "Ġikli": 8549,
      "Ġektn": 8550,
      "ĠinskÃ©": 8551,
      "ĠozÅ¡kl": 8552,
      "Ġaelsk": 8553,
      "Ġaeon": 8554,
      "ĠÃ¶rg": 8555,
      "ĠABAAAB": 8556,
      "ir": 8557,
      "ĠdÃŃÅ¡": 8558,
      "Ġenh": 8559,
      "ĠÅ¯sm": 8560,
      "Ġedj": 8561,
      "ĠavÃ¡l": 8562,
      "Ġomhl": 8563,
      "ĠudÃ½m": 8564,
      "ĠÃŃvce": 8565,
      "ĠÃ¡ÅĻky": 8566,
      "Ġapu": 8567,
      "Ġapen": 8568,
      "ĠÃ¡Å¡ek": 8569,
      "Ġabstr": 8570,
      "ĠouhÃ½m": 8571,
      "ĠdlÃŃÅ¡": 8572,
      "ĠeckÃ¡": 8573,
      "Ġykne": 8574,
      "ĠypÅ¥": 8575,
      "ĠÄĽÅĻm": 8576,
      "Ġezne": 8577,
      "ĠÃ½lem": 8578,
      "ĠÃ¡zdnÃ½": 8579,
      "Ġerty": 8580,
      "Ġoudrost": 8581,
      "Ġrhnou": 8582,
      "ĠoÅ¡li": 8583,
      "ĠÃ¡dru": 8584,
      "Ġytli": 8585,
      "Ġthr": 8586,
      "ĠÃ©bkou": 8587,
      "ĠÃŃklad": 8588,
      "ĠÅ¾nÃŃ": 8589,
      "ĠAXBA": 8590,
      "Ġaopak": 8591,
      "ĠdceÅĻ": 8592,
      "ĠrÃ½h": 8593,
      "Ġper": 8594,
      "Ġstoh": 8595,
      "Ġcep": 8596,
      "ĠekÃ©m": 8597,
      "ĠÃŃlek": 8598,
      "Ġrdost": 8599,
      "Ġapem": 8600,
      "Ġazz": 8601,
      "ĠÃŃdÃŃm": 8602,
      "ĠizÃŃch": 8603,
      "ĠÃ¡pi": 8604,
      "ĠouÅ¾ÃŃÅ¡": 8605,
      "ĠÃ¡vnÃ¡": 8606,
      "ĠÃºtÄĽk": 8607,
      "ĠÄĽsnou": 8608,
      "ĠajnÃ¡": 8609,
      "ĠÃ½nc": 8610,
      "ĠajdeÅ¡": 8611,
      "ĠyÅ¡nÃŃ": 8612,
      "ĠvÄĽst": 8613,
      "ĠeumÃŃm": 8614,
      "ĠÃ½kÅĻik": 8615,
      "ĠÃŃzrak": 8616,
      "Ġvzpjal": 8617,
      "Ġufr": 8618,
      "ĠÄĽjme": 8619,
      "ĠkÅ¡": 8620,
      "Ġakou": 8621,
      "ĠolÃ¡Å¡": 8622,
      "Ġobky": 8623,
      "ĠostnÃ©m": 8624,
      "ĠinnÃ©m": 8625,
      "Ġozky": 8626,
      "Ġoki": 8627,
      "ĠehÅ¯m": 8628,
      "ĠuÅ¾en": 8629,
      "ĠÃŃrc": 8630,
      "ĠÃ¡zÃ¡n": 8631,
      "Ġaba": 8632,
      "ĠabÃ¡": 8633,
      "ĠoupÃŃm": 8634,
      "ĠeÅĻstv": 8635,
      "Ġohly": 8636,
      "ĠÄĽÅĻÃŃÅ¡": 8637,
      "ĠÄĽhÃ¡": 8638,
      "ĠivnÃŃ": 8639,
      "ĠejnÃ¡": 8640,
      "ĠouÅ¡tÄĽl": 8641,
      "ĠalnÃ½m": 8642,
      "Ġmdlob": 8643,
      "Ġeknu": 8644,
      "Ġoulc": 8645,
      "ĠolÃŃk": 8646,
      "Ġ38": 8647,
      "ĠÃ©lc": 8648,
      "Ġiskry": 8649,
      "ĠaÅ¡tÃŃ": 8650,
      "ĠÅ¯tek": 8651,
      "Ġogm": 8652,
      "ĠABAABA": 8653,
      "ĠookÃ¡": 8654,
      "ĠXAXXAX": 8655,
      "Ġtek": 8656,
      "Ġprs": 8657,
      "ĠohÃ¡r": 8658,
      "ĠsnÄĽÅ¥": 8659,
      "ĠÃŃvek": 8660,
      "ĠyÅ¾b": 8661,
      "ĠÄĽzdu": 8662,
      "Ġyslu": 8663,
      "ĠÃ©ty": 8664,
      "ĠAAXABB": 8665,
      "ĠÃ½len": 8666,
      "ĠlhÃ¡": 8667,
      "Ġaskou": 8668,
      "ĠÃ½ÅĻil": 8669,
      "Ġiklo": 8670,
      "Ġikly": 8671,
      "Ġegm": 8672,
      "ard": 8673,
      "Ġiala": 8674,
      "Ġojde": 8675,
      "ĠauÄįil": 8676,
      "Ġaeol": 8677,
      "ĠABXBAX": 8678,
      "ium": 8679,
      "ĠmÃŃÅĪ": 8680,
      "Ġduh": 8681,
      "Ġilka": 8682,
      "Ġotok": 8683,
      "Ġerch": 8684,
      "ĠojÄį": 8685,
      "Ġonek": 8686,
      "Ġohsl": 8687,
      "ĠekÃ¡n": 8688,
      "Ġopel": 8689,
      "ĠopÃ½r": 8690,
      "Ġuja": 8691,
      "Ġytstv": 8692,
      "Ġtret": 8693,
      "ĠÄĽme": 8694,
      "ĠÃ¡Äįou": 8695,
      "Ġvrou": 8696,
      "ĠoznÃ½": 8697,
      "Ġeskno": 8698,
      "ĠauÅĻ": 8699,
      "ĠetnÃ½": 8700,
      "ĠÃ¡Äįkem": 8701,
      "Ġrskn": 8702,
      "Ġionsk": 8703,
      "ĠyÅĻm": 8704,
      "Ġtkal": 8705,
      "ĠÄĽdnÃ¡": 8706,
      "ĠibkÅ¯": 8707,
      "ĠiÅ¡tÄĽm": 8708,
      "Ġietr": 8709,
      "Ġpuch": 8710,
      "Ġzub": 8711,
      "Ġkyn": 8712,
      "ĠrstvÃŃ": 8713,
      "ĠemÅĪ": 8714,
      "Ġemkl": 8715,
      "Ġalce": 8716,
      "Ġadchl": 8717,
      "ĠanÄįn": 8718,
      "ĠanÄĽl": 8719,
      "ĠÅ¾m": 8720,
      "Ġolz": 8721,
      "ĠohÃ¡m": 8722,
      "ĠarÅ¾": 8723,
      "Ġklest": 8724,
      "ĠÃŃchn": 8725,
      "Ġynv": 8726,
      "ĠÄĽstc": 8727,
      "Ġtrysk": 8728,
      "ĠoÅ¡p": 8729,
      "ĠÃ¡nÃŃÅ¡": 8730,
      "Ġihou": 8731,
      "Ġirou": 8732,
      "ĠÃŃÄįc": 8733,
      "Ġshas": 8734,
      "Ġehlo": 8735,
      "Ġoddech": 8736,
      "ĠÃ©ru": 8737,
      "Ġarty": 8738,
      "Ġiadem": 8739,
      "Ġaob": 8740,
      "ĠÃ©ch": 8741,
      "Ġelost": 8742,
      "Ġedku": 8743,
      "Ġatan": 8744,
      "Ġotky": 8745,
      "ĠÃ¡lech": 8746,
      "ĠÃ¡msk": 8747,
      "Ġetek": 8748,
      "Ġukne": 8749,
      "Ġapa": 8750,
      "ĠumÅ¯": 8751,
      "Ġabt": 8752,
      "Ġoupky": 8753,
      "ĠÄĽrt": 8754,
      "ĠÄĽrÅ¯": 8755,
      "Ġatkem": 8756,
      "ĠÄĽtliv": 8757,
      "ĠÃ©tk": 8758,
      "ĠovnÃ½m": 8759,
      "ĠÃ½lku": 8760,
      "ĠrtvÃ©": 8761,
      "Ġousil": 8762,
      "Ġymkl": 8763,
      "Ġejsem": 8764,
      "Ġormy": 8765,
      "Ġaian": 8766,
      "Ġeobm": 8767,
      "ĠysnÃŃ": 8768,
      "Ġaesar": 8769,
      "Ġeolu": 8770,
      "Ġilen": 8771,
      "ĠstaÅĪ": 8772,
      "ĠÃ¡nÅ¯m": 8773,
      "ĠchÃ½Å¡": 8774,
      "ĠerÃ¡l": 8775,
      "Ġojl": 8776,
      "Ġets": 8777,
      "ĠonÃŃÅ¡": 8778,
      "Ġorec": 8779,
      "Ġeza": 8780,
      "ĠeÅ¾ÃŃm": 8781,
      "ĠsmÃŃÅ¡": 8782,
      "ĠikÃ©m": 8783,
      "ĠaÅ¡ky": 8784,
      "ĠÃŃkej": 8785,
      "ĠÃ¡Å¡sk": 8786,
      "Ġumal": 8787,
      "ĠÃŃdej": 8788,
      "ĠubÃ©": 8789,
      "ĠÃ¡snÃ½ch": 8790,
      "ĠeÄįnu": 8791,
      "ĠenkÃ½": 8792,
      "ĠAAABBB": 8793,
      "ĠÃŃstu": 8794,
      "ĠÅ¯rky": 8795,
      "Ġehnej": 8796,
      "Ġyrn": 8797,
      "ĠesknÄĽ": 8798,
      "ĠydÅĻ": 8799,
      "ĠuÄįnÃŃ": 8800,
      "ĠÃ¡tnÃ¡": 8801,
      "ĠÄĽkkÃ©m": 8802,
      "ĠeruÅ¥": 8803,
      "ĠÃ©dnout": 8804,
      "Ġiag": 8805,
      "ĠÃŃhlÃ¡": 8806,
      "ĠchÅĻest": 8807,
      "ĠvzÅĪal": 8808,
      "ĠkÅ¡tic": 8809,
      "Ġydne": 8810,
      "ĠrÅĪt": 8811,
      "Ġongl": 8812,
      "oÅ¾": 8813,
      "Ġaest": 8814,
      "ĠiÅ¯v": 8815,
      "ĠemÅ¡Å¥": 8816,
      "Ġalst": 8817,
      "ĠilÃŃm": 8818,
      "Ġerce": 8819,
      "Ġiden": 8820,
      "ĠÄĽjc": 8821,
      "Ġhrud": 8822,
      "ĠuÅ¾em": 8823,
      "Ġednem": 8824,
      "Ġzle": 8825,
      "Ġacha": 8826,
      "ĠachÅĻ": 8827,
      "ĠÄĽzÅ¯": 8828,
      "Ġoudce": 8829,
      "ĠisÅ¯": 8830,
      "ĠadnÃ½ch": 8831,
      "ĠÃ½tn": 8832,
      "Ġibo": 8833,
      "ĠeklÃ½": 8834,
      "ĠlhÃ¡t": 8835,
      "ĠencÅ¯m": 8836,
      "ĠsbÄĽÅĻ": 8837,
      "ĠovskÃ½m": 8838,
      "ĠanskÃ¡": 8839,
      "Ġosny": 8840,
      "ĠuÅ¡nÃ½": 8841,
      "ĠyneÅ¡": 8842,
      "Ġialek": 8843,
      "ĠÃ¡dra": 8844,
      "ĠÃŃlko": 8845,
      "ĠudiÅ¾": 8846,
      "Ġsjel": 8847,
      "Ġeorie": 8848,
      "Ġarrh": 8849,
      "Ġaec": 8850,
      "ĠiÃ¡d": 8851,
      "ĠpÅ¡tr": 8852,
      "ĠzaÄį": 8853,
      "ĠÃ½Å¾d": 8854,
      "Ġde": 8855,
      "ĠÃ©g": 8856,
      "Ġbit": 8857,
      "Ġilci": 8858,
      "Ġeschv": 8859,
      "Ġerii": 8860,
      "ĠorÃ©m": 8861,
      "Ġechat": 8862,
      "ĠÃ¡Å¡eÅĪ": 8863,
      "ĠrdcÃŃch": 8864,
      "ĠoudÄĽ": 8865,
      "ĠÃ¡ÄįÃŃÅ¡": 8866,
      "ĠeÅĻit": 8867,
      "ĠÄĽzdk": 8868,
      "ĠÃŃdle": 8869,
      "ĠyÅ¡la": 8870,
      "Ġozkaz": 8871,
      "ĠehnÃ¡n": 8872,
      "Ġelnost": 8873,
      "Ġipu": 8874,
      "Ġipy": 8875,
      "Ġeosv": 8876,
      "Ġojny": 8877,
      "ĠÄĽtrÅ¯": 8878,
      "ĠÃ½nek": 8879,
      "Ġostlo": 8880,
      "ĠÄĽknÄĽ": 8881,
      "ĠotÅĻe": 8882,
      "ĠvzplÃ¡t": 8883,
      "Ġisknou": 8884,
      "ĠavÅ¡e": 8885,
      "ĠovcÅ¯": 8886,
      "Ġytra": 8887,
      "ĠABAAXB": 8888,
      "ĠiadÃ©m": 8889,
      "Ġezhr": 8890,
      "Ġeorg": 8891,
      "ĠABBABA": 8892,
      "ĠtÃŃh": 8893,
      "ĠenÃ¡m": 8894,
      "ĠennÃ©m": 8895,
      "ĠÃ¡ne": 8896,
      "ĠotÃ½l": 8897,
      "Ġono": 8898,
      "ĠudÃ½ch": 8899,
      "Ġekk": 8900,
      "Ġardn": 8901,
      "ĠosÅ¯": 8902,
      "Ġajen": 8903,
      "Ġidc": 8904,
      "ĠÃ©msk": 8905,
      "ĠuÅ¡nÃ©": 8906,
      "Ġsmek": 8907,
      "ĠaÅ¡v": 8908,
      "ĠÃŃdit": 8909,
      "ĠlnÃ½m": 8910,
      "Ġimo": 8911,
      "ĠÅ¯Å¾l": 8912,
      "ĠurÃ¡": 8913,
      "ĠÄĽÄįnÃ©m": 8914,
      "ĠÃŃÅĻit": 8915,
      "ĠrnÃ¡": 8916,
      "ĠÃ¡tkÅ¯": 8917,
      "Ġuzdn": 8918,
      "ĠÃ¡bsk": 8919,
      "ĠÄĽÅ¡nÃ©": 8920,
      "ĠouÅ¡i": 8921,
      "ĠÅ¯zÃŃ": 8922,
      "ĠatnÃ½m": 8923,
      "ĠocnÄĽ": 8924,
      "ĠaÄįny": 8925,
      "ĠÃºtk": 8926,
      "ĠydÃŃm": 8927,
      "Ġejmout": 8928,
      "ĠuÅ¾nÃ¡": 8929,
      "ĠoÅ¾skÃ©": 8930,
      "Ġzkvet": 8931,
      "Ġeft": 8932,
      "ĠÃŃbra": 8933,
      "Ġeodm": 8934,
      "Ġetru": 8935,
      "Ġevzhl": 8936,
      "ĠÄĽlkÃ½": 8937,
      "ĠÃ¡ncÃŃch": 8938,
      "ĠÅ¡ÃŃÅĻ": 8939,
      "hm": 8940,
      "Ġjun": 8941,
      "Ġky": 8942,
      "Ġry": 8943,
      "Ġilas": 8944,
      "ĠilÃ¡ch": 8945,
      "ĠÅ¾bl": 8946,
      "ĠasÅ¯m": 8947,
      "ĠÃŃmnÃ©": 8948,
      "ĠÃ¡let": 8949,
      "Ġetka": 8950,
      "Ġahat": 8951,
      "Ġikam": 8952,
      "ĠumÄĽ": 8953,
      "Ġtrup": 8954,
      "ĠÄĽdÄĽ": 8955,
      "ĠÃ³b": 8956,
      "ĠdlÃŃt": 8957,
      "ĠÃŃzky": 8958,
      "ĠasnÃ©m": 8959,
      "ĠodnÃŃk": 8960,
      "ĠybÅĻ": 8961,
      "Ġatnost": 8962,
      "Ġanta": 8963,
      "Ġaum": 8964,
      "ĠsbÄĽh": 8965,
      "ĠudnÃ½m": 8966,
      "Ġoukem": 8967,
      "ĠÃ¡zdnÃ¡": 8968,
      "Ġavuj": 8969,
      "Ġigl": 8970,
      "Ġanout": 8971,
      "ĠÃ¡tnou": 8972,
      "ĠiÄįnÃ½": 8973,
      "Ġshluk": 8974,
      "ĠounkÃ½": 8975,
      "Ġiskra": 8976,
      "ĠlÅ¾ÃŃ": 8977,
      "Ġiaz": 8978,
      "ĠÃŃlkÅ¯": 8979,
      "Ġismus": 8980,
      "Ġvbod": 8981,
      "ĠXABABA": 8982,
      "ĠoÅ¾mb": 8983,
      "Ġtes": 8984,
      "Ġmam": 8985,
      "Ġedkl": 8986,
      "Ġatum": 8987,
      "Ġasin": 8988,
      "Ġaschv": 8989,
      "ĠÃŃmem": 8990,
      "Ġinie": 8991,
      "Ġotit": 8992,
      "Ġerec": 8993,
      "ĠivÃ¡ch": 8994,
      "Ġuddh": 8995,
      "Ġorel": 8996,
      "ĠÃ½mÅ¯": 8997,
      "ĠÃ¡vit": 8998,
      "ĠezÅ¾": 8999,
      "ĠuÅ¡ÃŃch": 9000,
      "Ġopal": 9001,
      "Ġopej": 9002,
      "Ġupstv": 9003,
      "Ġoslav": 9004,
      "Ġouzi": 9005,
      "ĠodnÃ©m": 9006,
      "Ġodnost": 9007,
      "ĠÃ¡bnÃ©": 9008,
      "Ġalii": 9009,
      "ĠouÄįit": 9010,
      "Ġouzlen": 9011,
      "Ġspjat": 9012,
      "ĠÃ¡ckÃ©": 9013,
      "Ġaiss": 9014,
      "Ġuon": 9015,
      "ĠbÃ½": 9016,
      "Ġher": 9017,
      "ĠÃŃmÃ½": 9018,
      "Ġerh": 9019,
      "ĠerÅĪ": 9020,
      "Ġerci": 9021,
      "Ġiteb": 9022,
      "ĠozÅĪ": 9023,
      "Ġkroj": 9024,
      "Ġidech": 9025,
      "Ġesth": 9026,
      "ouk": 9027,
      "Ġutil": 9028,
      "ĠoÅ¾Ã¡k": 9029,
      "ĠaÅ¾i": 9030,
      "ĠecÄį": 9031,
      "ĠÅĻeÅ¾": 9032,
      "Ġlnit": 9033,
      "ĠznÄĽt": 9034,
      "ĠÃ¡cnÃ©": 9035,
      "Ġouto": 9036,
      "Ġoutal": 9037,
      "Ġupech": 9038,
      "Ġacr": 9039,
      "Ġurem": 9040,
      "Ġusty": 9041,
      "ĠustÅĻ": 9042,
      "ĠoÅ¡stv": 9043,
      "Ġype": 9044,
      "ĠskrÃ½t": 9045,
      "ĠadkÃ½m": 9046,
      "ĠezneÅ¡": 9047,
      "Ġiedr": 9048,
      "Ġeotv": 9049,
      "Ġouss": 9050,
      "Ġilion": 9051,
      "Ġechty": 9052,
      "ĠÃ¡zdna": 9053,
      "ĠÃŃrnÄĽ": 9054,
      "ĠÄĽknou": 9055,
      "Ġiknul": 9056,
      "ĠyÅĻn": 9057,
      "ĠyklÃ½": 9058,
      "Ġuhle": 9059,
      "ĠÃ¡zkou": 9060,
      "ĠÃŃkÅ¯v": 9061,
      "Ġialn": 9062,
      "Ġeodd": 9063,
      "ĠÃ©Äįku": 9064,
      "ĠurkÅ¯": 9065,
      "ĠÃŃÅ¾dÄĽl": 9066,
      "ĠistvÃ©": 9067,
      "Ġugg": 9068,
      "ĠehÅĻm": 9069,
      "ion": 9070,
      "Ġeet": 9071,
      "ĠpÅ¯st": 9072,
      "ĠadÃŃÅ¡": 9073,
      "ĠadÅ¯m": 9074,
      "Ġolkl": 9075,
      "ĠÃ½chÅ¾": 9076,
      "ĠohÃ½ch": 9077,
      "ĠylnÃ©": 9078,
      "ĠÄĽnka": 9079,
      "ĠeÄįet": 9080,
      "ĠÃŃvl": 9081,
      "Ġynek": 9082,
      "Ġumt": 9083,
      "Ġusit": 9084,
      "ĠazÃ½": 9085,
      "Ġabat": 9086,
      "ĠÃ¡kr": 9087,
      "Ġact": 9088,
      "ĠacÃ½": 9089,
      "ĠenÅ¾b": 9090,
      "ĠaÅ¾da": 9091,
      "Ġoupen": 9092,
      "Ġerna": 9093,
      "ĠÃŃhy": 9094,
      "ĠibÃ½": 9095,
      "ĠÃ©Å¾b": 9096,
      "Ġeuhl": 9097,
      "Ġyji": 9098,
      "ĠetlÃ©m": 9099,
      "Ġentem": 9100,
      "ĠatrÅ¯": 9101,
      "ĠeÄįkÅ¯": 9102,
      "ĠouÄįe": 9103,
      "ĠÃºdÄĽl": 9104,
      "ĠoudrÃ½": 9105,
      "ĠotÅĻp": 9106,
      "ĠosnÃŃ": 9107,
      "ĠÃ¡tnÃ½": 9108,
      "ĠrÅ¡ku": 9109,
      "ĠuznÃ½": 9110,
      "ĠorskÃ©": 9111,
      "ĠurÄįÃŃ": 9112,
      "Ġatbu": 9113,
      "Ġejskr": 9114,
      "Ġobouk": 9115,
      "ĠÃŃtla": 9116,
      "Ġuett": 9117,
      "ĠXAXBAB": 9118,
      "ĠvÃ½r": 9119,
      "Ġpud": 9120,
      "Ġbos": 9121,
      "Ġadch": 9122,
      "ĠinstvÃŃ": 9123,
      "Ġerech": 9124,
      "ĠivosÅ¥": 9125,
      "ĠÃŃtÅ¯": 9126,
      "ĠonÃ¡n": 9127,
      "Ã½ÅĻ": 9128,
      "ĠeÅ¾v": 9129,
      "Ġhry": 9130,
      "ĠÃ¡ÅĻek": 9131,
      "Ġapstv": 9132,
      "Ġrtev": 9133,
      "Ġochn": 9134,
      "ĠiÄįkÃ©": 9135,
      "ĠABBAXA": 9136,
      "Ġucp": 9137,
      "ĠsklÃ¡l": 9138,
      "Ġirl": 9139,
      "ĠÃŃjen": 9140,
      "ĠojnÃ½ch": 9141,
      "Ġehli": 9142,
      "Ġmdlou": 9143,
      "ĠmdlÃ½m": 9144,
      "ĠÃŃtkÅ¯": 9145,
      "ĠÃ©nkou": 9146,
      "ĠachvÄĽl": 9147,
      "ĠÄĽznou": 9148,
      "ĠnÄĽh": 9149,
      "ĠeÃ¡lu": 9150,
      "Ġinoch": 9151,
      "iem": 9152,
      "ĠoÃ¡r": 9153,
      "Ġvous": 9154,
      "ĠÄĽg": 9155,
      "Ġavte": 9156,
      "Ġojas": 9157,
      "Ġetel": 9158,
      "ĠÃ½chod": 9159,
      "ĠorÅ¡ÃŃ": 9160,
      "ĠÃ¡seÅĪ": 9161,
      "Ġevit": 9162,
      "ĠeÄįÃŃm": 9163,
      "ĠoÄįs": 9164,
      "Ġklep": 9165,
      "ĠaÅ¡it": 9166,
      "Ġysch": 9167,
      "ĠÃ¡Å¡em": 9168,
      "Ġznej": 9169,
      "ĠÄĽÅ¾ÃŃm": 9170,
      "ĠoutÃ¡": 9171,
      "ĠbraÅĪ": 9172,
      "Ġochem": 9173,
      "Ġoupu": 9174,
      "ĠÄĽrku": 9175,
      "ĠuncÃŃ": 9176,
      "ĠouÅ¾e": 9177,
      "Ġsklo": 9178,
      "ĠÃ¡dnÃ½m": 9179,
      "ĠÃŃÄįit": 9180,
      "ĠavdÄĽ": 9181,
      "ĠocnÃ½m": 9182,
      "ĠrÅ¾ÃŃm": 9183,
      "ĠinnÃ½m": 9184,
      "ĠetlÃŃ": 9185,
      "Ġiocl": 9186,
      "Ġovaz": 9187,
      "ĠÄĽtin": 9188,
      "Ġelec": 9189,
      "ĠurnÄĽ": 9190,
      "Ġestnou": 9191,
      "ĠÃ½Äįil": 9192,
      "erv": 9193,
      "ĠvÄĽd": 9194,
      "Ġanstva": 9195,
      "Ġanstvo": 9196,
      "Ġompl": 9197,
      "Ġastmi": 9198,
      "Ġead": 9199,
      "ĠiÃ¡ÅĻ": 9200,
      "ĠnaÄį": 9201,
      "Ġsvil": 9202,
      "skÃ½": 9203,
      "Ġocc": 9204,
      "ĠblÃŃn": 9205,
      "Ġyse": 9206,
      "Ġvlil": 9207,
      "ĠÄĽvnÃ©": 9208,
      "ĠÃ¡Å¾u": 9209,
      "ĠouÅĻit": 9210,
      "ĠodrÃ¡": 9211,
      "ĠÃ¡lkou": 9212,
      "ĠezdÃ¡": 9213,
      "ĠÃ¡zdnÃŃ": 9214,
      "Ġerla": 9215,
      "ĠoucnosÅ¥": 9216,
      "ĠezkÅĻ": 9217,
      "ĠahlÃ¡": 9218,
      "ĠÄĽÄįÃŃm": 9219,
      "ĠÃºpl": 9220,
      "Ġedmkr": 9221,
      "ĠoviÄį": 9222,
      "ĠÃ©dnu": 9223,
      "ĠÃ³lu": 9224,
      "ĠiÃ©n": 9225,
      "ĠviÄı": 9226,
      "Ġeis": 9227,
      "Ġoist": 9228,
      "ĠtÃ½Å¾": 9229,
      "Ġdul": 9230,
      "ĠdosÅ¥": 9231,
      "Ã¡Å¥": 9232,
      "ĠerÃ¡t": 9233,
      "Ġestkv": 9234,
      "ĠÃŃnÃ©": 9235,
      "ĠÄĽjstv": 9236,
      "Ġepne": 9237,
      "Ġkluk": 9238,
      "ĠapÃŃr": 9239,
      "Ġzlob": 9240,
      "ĠyÅ¡te": 9241,
      "ĠÄĽdÃŃt": 9242,
      "Ġbrak": 9243,
      "Ġoupce": 9244,
      "ĠÄĽzdÃ¡ch": 9245,
      "ĠeÄįnosÅ¥": 9246,
      "Ġihal": 9247,
      "Ġastnou": 9248,
      "ĠÅ¡lo": 9249,
      "Ġouchy": 9250,
      "ĠajnÃ½": 9251,
      "Ġysky": 9252,
      "Ġicie": 9253,
      "Ġezme": 9254,
      "ĠÄĽznÃŃ": 9255,
      "ĠshlÃ©d": 9256,
      "Ġunko": 9257,
      "ĠeumÃŃ": 9258,
      "ĠystÅĻe": 9259,
      "ĠichlÃ©": 9260,
      "ĠÃŃÄįnÃŃ": 9261,
      "Ġatby": 9262,
      "Ġocean": 9263,
      "Ġuiem": 9264,
      "Ġeill": 9265,
      "ĠsÅ¯l": 9266,
      "Ġtem": 9267,
      "ĠedÃŃc": 9268,
      "Ġodhl": 9269,
      "Ġobhl": 9270,
      "Ġinkl": 9271,
      "Ġohs": 9272,
      "ĠslasÅ¥": 9273,
      "Ġozil": 9274,
      "ĠÄĽju": 9275,
      "ĠÃ¡ÅĻen": 9276,
      "Ġapad": 9277,
      "Ġapci": 9278,
      "ĠstrÃ½c": 9279,
      "Ġizdn": 9280,
      "Ġemnost": 9281,
      "ĠadnÃ½m": 9282,
      "Ġouzdr": 9283,
      "ĠadlÃ©m": 9284,
      "Ġvzpn": 9285,
      "ĠÃŃstky": 9286,
      "Ġirv": 9287,
      "Ġeuill": 9288,
      "ĠÃŃpÃŃ": 9289,
      "Ġejnou": 9290,
      "ĠydÄĽt": 9291,
      "ĠÃ¡rne": 9292,
      "ĠonnÄĽ": 9293,
      "Ġoskr": 9294,
      "Ġounce": 9295,
      "Ġfrak": 9296,
      "ĠuÅĻen": 9297,
      "Ġrhly": 9298,
      "Ġinck": 9299,
      "ĠÄĽÅ¥t": 9300,
      "ĠÃŃtÄĽz": 9301,
      "ĠuÅ¾kou": 9302,
      "Ġelly": 9303,
      "Ġevzt": 9304,
      "ĠeÃ¡lem": 9305,
      "ĠozdnÃŃ": 9306,
      "ĠarÅ¡ÃŃ": 9307,
      "Ġojcz": 9308,
      "ĠhouÅ¡Å¥": 9309,
      "ĠoÃºst": 9310,
      "rn": 9311,
      "ĠvÃŃn": 9312,
      "ĠmyÅ¡": 9313,
      "ĠmÅ¯Å¾": 9314,
      "ĠilÅĪ": 9315,
      "Ġolst": 9316,
      "ĠÃ¡mal": 9317,
      "Ġeten": 9318,
      "ĠÄĽjsk": 9319,
      "Ġepu": 9320,
      "Ġuld": 9321,
      "ĠiÅ¡p": 9322,
      "ĠuÄįÃŃm": 9323,
      "ĠÃ¡chne": 9324,
      "ĠÅ¯Å¾ky": 9325,
      "ĠyslÃŃÅ¡": 9326,
      "ĠolnÃ½m": 9327,
      "ĠÃ©tu": 9328,
      "ĠAAABAB": 9329,
      "ĠÃŃstr": 9330,
      "Ġira": 9331,
      "Ġgest": 9332,
      "Ġeux": 9333,
      "Ġandt": 9334,
      "Ġieu": 9335,
      "Ġehnou": 9336,
      "ĠilnÃ½ch": 9337,
      "Ġeoh": 9338,
      "ĠÃŃzkÃ©": 9339,
      "ĠÃ¡znÃ½": 9340,
      "ĠÃ¡Å¡ter": 9341,
      "ĠÃ©ry": 9342,
      "Ġondo": 9343,
      "ĠudkÃ½": 9344,
      "Ġomstu": 9345,
      "Ġenich": 9346,
      "Ġello": 9347,
      "ĠytrÃ¡": 9348,
      "ĠÄĽjnÃ¡": 9349,
      "Ġdbej": 9350,
      "ĠÄĽÄım": 9351,
      "ĠictvÃŃm": 9352,
      "ĠÄĽdrÃ¡": 9353,
      "Ġechla": 9354,
      "Ġeutr": 9355,
      "Ġungm": 9356,
      "Ġamfl": 9357,
      "Ġaost": 9358,
      "Ġvid": 9359,
      "Ġpyl": 9360,
      "ĠavÃ¡m": 9361,
      "ĠanÃ¡m": 9362,
      "Ġomsk": 9363,
      "ĠÃŃtsk": 9364,
      "Ġorst": 9365,
      "Ġorci": 9366,
      "Ġevp": 9367,
      "ĠoÅĻek": 9368,
      "Ġikh": 9369,
      "Ġepem": 9370,
      "ĠvlÃŃt": 9371,
      "ĠXAABBA": 9372,
      "ĠÃ¡hat": 9373,
      "ĠlnÃ½ch": 9374,
      "Ġabi": 9375,
      "ĠÄĽÅ¾t": 9376,
      "Ġoutu": 9377,
      "ĠzrÃ¡l": 9378,
      "ĠÄĽsÅ¯": 9379,
      "Ġoubou": 9380,
      "ĠastnÃ½ch": 9381,
      "ĠÄĽcech": 9382,
      "ĠouÅ¡ÃŃ": 9383,
      "Ġipem": 9384,
      "ĠÃŃpu": 9385,
      "ĠÃºstÃŃ": 9386,
      "Ġeplo": 9387,
      "Ġotkal": 9388,
      "ĠoÄįkÃ¡": 9389,
      "ĠoddÃ¡": 9390,
      "Ġitnul": 9391,
      "ĠumnÃ½ch": 9392,
      "ĠÃ©lka": 9393,
      "old": 9394,
      "Ġizby": 9395,
      "Ġubny": 9396,
      "ĠusÅ¥m": 9397,
      "ĠeÅ¡nÄĽ": 9398,
      "Ġevzl": 9399,
      "ĠÃ½znÄĽ": 9400,
      "ĠÃ½dny": 9401,
      "Ġoohl": 9402,
      "Ġuisc": 9403,
      "ial": 9404,
      "Ġuov": 9405,
      "ĠvÅ¥": 9406,
      "Ġembr": 9407,
      "Ġilek": 9408,
      "Ġcid": 9409,
      "ĠÄĽlce": 9410,
      "Ġomyl": 9411,
      "Ġamal": 9412,
      "ĠekÃ¡Å¡": 9413,
      "ĠosÃŃÅ¡": 9414,
      "Ġeval": 9415,
      "ĠocÃ½": 9416,
      "Ġapou": 9417,
      "ĠÃŃÅ¾et": 9418,
      "ĠÃŃdce": 9419,
      "Ġrtit": 9420,
      "ĠAABBAB": 9421,
      "ĠÄĽzk": 9422,
      "Ġupsk": 9423,
      "Ġurf": 9424,
      "ĠaÅ¥k": 9425,
      "ĠoznÃ©": 9426,
      "ĠeznÃ¡m": 9427,
      "Ġikde": 9428,
      "ĠechtÃ¡": 9429,
      "ĠejvÅĻ": 9430,
      "Ġosmd": 9431,
      "ĠyÅ¡nÃ½": 9432,
      "Ġevrou": 9433,
      "Ġahnul": 9434,
      "Ġampy": 9435,
      "ĠaspoÅĪ": 9436,
      "ĠÃ¡dro": 9437,
      "Ġdme": 9438,
      "ĠÃ³dy": 9439,
      "Ġeir": 9440,
      "ĠlpÃŃ": 9441,
      "ĠABXXAB": 9442,
      "ael": 9443,
      "Ġiul": 9444,
      "Ġvhl": 9445,
      "Ġbot": 9446,
      "ĠenÅ¯m": 9447,
      "Ġaden": 9448,
      "ĠÃŃmo": 9449,
      "ĠinÅ¯v": 9450,
      "Ġote": 9451,
      "ĠchÅĪ": 9452,
      "ĠozÃ¡ÅĻ": 9453,
      "Ġudky": 9454,
[...]
