{
  "version": "1.0",
  "truncation": null,
  "padding": null,
  "added_tokens": [
    {
      "id": 0,
      "content": "<|EOS|>",
      "single_word": false,
      "lstrip": false,
      "rstrip": false,
      "normalized": false,
      "special": true
    },
    {
      "id": 1,
      "content": "<|PAD|>",
      "single_word": false,
      "lstrip": false,
      "rstrip": false,
      "normalized": false,
      "special": true
    },
    {
      "id": 2,
      "content": "<|UNK|>",
      "single_word": false,
      "lstrip": false,
      "rstrip": false,
      "normalized": false,
      "special": true
    },
    {
      "id": 3,
      "content": "<|CLS|>",
      "single_word": false,
      "lstrip": false,
      "rstrip": false,
      "normalized": false,
      "special": true
    }
  ],
  "normalizer": null,
  "pre_tokenizer": {
    "type": "ByteLevel",
    "add_prefix_space": false,
    "trim_offsets": true,
    "use_regex": true
  },
  "post_processor": {
    "type": "RobertaProcessing",
    "sep": [
      "<|EOS|>",
      0
    ],
    "cls": [
      "<|CLS|>",
      3
    ],
    "trim_offsets": false,
    "add_prefix_space": false
  },
  "decoder": {
    "type": "ByteLevel",
    "add_prefix_space": true,
    "trim_offsets": true,
    "use_regex": true
  },
  "model": {
    "type": "BPE",
    "dropout": null,
    "unk_token": null,
    "continuing_subword_prefix": null,
    "end_of_word_suffix": null,
    "fuse_unk": false,
    "byte_fallback": false,
    "vocab": {
      "<|EOS|>": 0,
      "<|PAD|>": 1,
      "<|UNK|>": 2,
      "<|CLS|>": 3,
      "!": 4,
      "#": 5,
      ",": 6,
      ".": 7,
      "0": 8,
      "1": 9,
      "2": 10,
      "3": 11,
      "4": 12,
      "5": 13,
      "6": 14,
      "7": 15,
      "8": 16,
      "9": 17,
      "?": 18,
      "A": 19,
      "B": 20,
      "C": 21,
      "D": 22,
      "H": 23,
      "J": 24,
      "N": 25,
      "P": 26,
      "T": 27,
      "X": 28,
      "Y": 29,
      "a": 30,
      "b": 31,
      "c": 32,
      "d": 33,
      "e": 34,
      "f": 35,
      "g": 36,
      "h": 37,
      "i": 38,
      "j": 39,
      "k": 40,
      "l": 41,
      "m": 42,
      "n": 43,
      "o": 44,
      "p": 45,
      "q": 46,
      "r": 47,
      "s": 48,
      "t": 49,
      "u": 50,
      "v": 51,
      "w": 52,
      "x": 53,
      "y": 54,
      "z": 55,
      "¡": 56,
      "¤": 57,
      "¥": 58,
      "©": 59,
      "¯": 60,
      "³": 61,
      "¶": 62,
      "º": 63,
      "¼": 64,
      "½": 65,
      "¾": 66,
      "Ã": 67,
      "Ä": 68,
      "Å": 69,
      "Ċ": 70,
      "Ġ": 71,
      "Ī": 72,
      "į": 73,
      "ı": 74,
      "Ļ": 75,
      "Ľ": 76,
      "Ń": 77,
      "Ġ#": 78,
      "Ġe": 79,
      "ĠÃ": 80,
      "Ġa": 81,
      "Ġo": 82,
      "Ġi": 83,
      "Ġ1": 84,
      "ĠÃŃ": 85,
      "Ġs": 86,
      "Ġu": 87,
      "ĠÃ¡": 88,
      "ĠÄ": 89,
      "Ġv": 90,
      "Ġy": 91,
      "ĠÄĽ": 92,
      "Ġp": 93,
      "Ġj": 94,
      "Ġn": 95,
      "Ġt": 96,
      "Å¾": 97,
      "ch": 98,
      "Ġz": 99,
      "Å¡": 100,
      "Ġk": 101,
      "ÅĻ": 102,
      "Ġm": 103,
      "Ġd": 104,
      "ĠÃ½": 105,
      "Ġou": 106,
      "ĠÃ©": 107,
      "Ġr": 108,
      "st": 109,
      "Ġb": 110,
      "Ġen": 111,
      "Ġh": 112,
      "Äį": 113,
      "Ġem": 114,
      "Ġl": 115,
      "Ġak": 116,
      "Ġal": 117,
      "ĠÅ": 118,
      "ĠÅ¯": 119,
      "Ġil": 120,
      "Ġad": 121,
      "Ġ15": 122,
      "XX": 123,
      "Ġ16": 124,
      "Ġov": 125,
      "Ġel": 126,
      "Ġ19": 127,
      "Ġat": 128,
      "Ġ18": 129,
      "Ġan": 130,
      "Ġed": 131,
      "Ġod": 132,
      "Ġ14": 133,
      "Ġ13": 134,
      "Ġav": 135,
      "Ġ12": 136,
      "AB": 137,
      "Ġsv": 138,
      "Ġ17": 139,
      "Ġst": 140,
      "ĠÅ¾": 141,
      "Ġol": 142,
      "Ġes": 143,
      "Ġpr": 144,
      "Ġob": 145,
      "Ġas": 146,
      "Ġ11": 147,
      "Ġin": 148,
      "Ġit": 149,
      "Ġc": 150,
      "ĠpÅĻ": 151,
      "Ġost": 152,
      "ĠÄĽl": 153,
      "ĠÃŃm": 154,
      "ĠÄĽt": 155,
      "Ġiv": 156,
      "ĠÄį": 157,
      "Ġot": 158,
      "Ġam": 159,
      "Ġch": 160,
      "Ġ2": 161,
      "Ġer": 162,
      "Ġej": 163,
      "Ġkd": 164,
      "Ġom": 165,
      "Ġet": 166,
      "Ġoj": 167,
      "Ġon": 168,
      "Ġoh": 169,
      "sk": 170,
      "Ġsl": 171,
      "ĠÃ½ch": 172,
      "ĠvÅ¡": 173,
      "Ġud": 174,
      "Ġoz": 175,
      "ĠÃ¡m": 176,
      "Ġar": 177,
      "Ġok": 178,
      "Ġeb": 179,
      "Ġek": 180,
      "ĠÅ¡": 181,
      "ĠÃ¡l": 182,
      "Ġ10": 183,
      "Ġor": 184,
      "ÄĽ": 185,
      "Ġhl": 186,
      "ĠÃŃt": 187,
      "Ġjs": 188,
      "Ġkr": 189,
      "Ġaj": 190,
      "ĠÃ¡n": 191,
      "ĠÃ½m": 192,
      "Ġos": 193,
      "Ġech": 194,
      "Ġid": 195,
      "Å¥": 196,
      "ĠAB": 197,
      "Ġeh": 198,
      "00": 199,
      "Ġyl": 200,
      "Ġ1900": 201,
      "Ġic": 202,
      "Ġev": 203,
      "Ġez": 204,
      "XXXX": 205,
      "ĠÃŃc": 206,
      "Ġtv": 207,
      "XA": 208,
      "Ġich": 209,
      "Ġvz": 210,
      "ĠÃ©m": 211,
      "Ġ9": 212,
      "Ġah": 213,
      "Ġest": 214,
      "ĠÃ¡t": 215,
      "ĠuÅ¡": 216,
      "ĠÃ¡s": 217,
      "em": 218,
      "ĠABAB": 219,
      "ĠÄĽn": 220,
      "ĠeÅ¾": 221,
      "ĠÃ¡v": 222,
      "ou": 223,
      "ĠeÄį": 224,
      "ĠaÅ¾": 225,
      "Ġpl": 226,
      "Ġut": 227,
      "Ġik": 228,
      "ĠoÅ¾": 229,
      "ĠoÄį": 230,
      "Ġsk": 231,
      "ĠoÅĻ": 232,
      "Ġsn": 233,
      "ĠA": 234,
      "Ġrd": 235,
      "Ġsp": 236,
      "ĠÄĽj": 237,
      "80": 238,
      "Ġ1880": 239,
      "Ġec": 240,
      "Ġhr": 241,
      "ĠÃ¡d": 242,
      "Ġop": 243,
      "ĠuÅ¾": 244,
      "Ġsm": 245,
      "Ġmn": 246,
      "ĠÃŃl": 247,
      "ĠeÅ¡": 248,
      "Ġuk": 249,
      "20": 250,
      "ĠXXXX": 251,
      "Ġuj": 252,
      "Ġep": 253,
      "Ġoc": 254,
      "Ġkl": 255,
      "Ġzd": 256,
      "Ġbl": 257,
      "ÅĪ": 258,
      "Ġ1920": 259,
      "ĠÅĻ": 260,
      "ĠaÅ¡": 261,
      "Äı": 262,
      "ĠÃŃn": 263,
      "ĠÃŃch": 264,
      "Ġap": 265,
      "Ġaz": 266,
      "Ġedn": 267,
      "ĠiÅ¾": 268,
      "Ġyt": 269,
      "ĠÃŃv": 270,
      "ĠyÅ¾": 271,
      "Ġun": 272,
      "Ġzv": 273,
      "Ġul": 274,
      "Ġast": 275,
      "Ġys": 276,
      "Ġ20": 277,
      "ĠÃŃr": 278,
      "Ġyn": 279,
      "ĠÄĽk": 280,
      "Ġ8": 281,
      "Ġist": 282,
      "Ġrdc": 283,
      "ĠÃ¡ÅĻ": 284,
      "Ġum": 285,
      "ĠaÄį": 286,
      "ĠÃ©h": 287,
      "al": 288,
      "Ġim": 289,
      "ĠiÄį": 290,
      "Ġvl": 291,
      "ĠÃ¡Å¡": 292,
      "ĠAAB": 293,
      "Ġus": 294,
      "ĠyÅ¡": 295,
      "Ġesk": 296,
      "ĠÃŃÅ¡": 297,
      "ĠÃ¡z": 298,
      "Ġzl": 299,
      "Ġuch": 300,
      "ĠÅ¯j": 301,
      "ĠÃº": 302,
      "ĠÃŃk": 303,
      "ĠXA": 304,
      "Ġdr": 305,
      "Ġstr": 306,
      "Ġach": 307,
      "Ġkv": 308,
      "Ġab": 309,
      "Ġln": 310,
      "Ġrt": 311,
      "Ġzn": 312,
      "Ġuh": 313,
      "ĠÃŃÅ¾": 314,
      "ĠAABB": 315,
      "ĠÃ¡r": 316,
      "ĠiÅ¡": 317,
      "ĠÄĽst": 318,
      "Ġtr": 319,
      "Ġub": 320,
      "ĠÄĽv": 321,
      "ĠÃ¡h": 322,
      "40": 323,
      "Ġdn": 324,
      "ĠÄĽÅ¾": 325,
      "ĠÄĽm": 326,
      "ĠÄĽz": 327,
      "Ġzp": 328,
      "Ġchv": 329,
      "ĠuÄį": 330,
      "Ġrv": 331,
      "Ġout": 332,
      "ĠÃŃd": 333,
      "Ġij": 334,
      "ĠÄĽd": 335,
      "Ġml": 336,
      "Ġych": 337,
      "ĠXAXA": 338,
      "Ġup": 339,
      "Ġac": 340,
      "ĠÃŃs": 341,
      "Ġouh": 342,
      "Ġ21": 343,
      "Ġzr": 344,
      "ĠÃ¡sk": 345,
      "Ġani": 346,
      "ĠÃ¡ch": 347,
      "Å¾d": 348,
      "Ġoud": 349,
      "il": 350,
      "Ġouc": 351,
      "Ġbr": 352,
      "ĠaÅĻ": 353,
      "Ġhn": 354,
      "ĠÃ¡c": 355,
      "Ġkt": 356,
      "ĠÃ³": 357,
      "Ġiz": 358,
      "en": 359,
      "Ġis": 360,
      "stv": 361,
      "ĠkÅĻ": 362,
      "Ġ7": 363,
      "CC": 364,
      "ĠÃ¡k": 365,
      "Ġoch": 366,
      "Ġvr": 367,
      "ne": 368,
      "ĠeÄı": 369,
      "ĠÃ¡Äį": 370,
      "ĠvÅ¾d": 371,
      "ĠtÅĻ": 372,
      "ĠenÅ¾": 373,
      "Ġobr": 374,
      "ĠaÅ¾d": 375,
      "Ġdl": 376,
      "ky": 377,
      "Ġir": 378,
      "ĠÅ¯Å¾": 379,
      "ĠÄĽch": 380,
      "ĠeÅĻ": 381,
      "ĠXXXXXX": 382,
      "ĠeÅ¡t": 383,
      "Ġoup": 384,
      "ĠÅ¯m": 385,
      "60": 386,
      "Ġust": 387,
      "Ġur": 388,
      "Ġemn": 389,
      "Ġzb": 390,
      "Ġeni": 391,
      "Ġvzd": 392,
      "Ġasn": 393,
      "Ġern": 394,
      "hl": 395,
      "Ġuv": 396,
      "Ġdv": 397,
      "ĠÄĽÄį": 398,
      "ĠiÄįk": 399,
      "ĠÄĽs": 400,
      "at": 401,
      "Ġ22": 402,
      "ĠaÅ¥": 403,
      "Ġzm": 404,
      "Ġosl": 405,
      "Ġiti": 406,
      "am": 407,
      "Ġhv": 408,
      "Ġeck": 409,
      "ĠÄĽr": 410,
      "Ġouz": 411,
      "Ġmr": 412,
      "Ġadn": 413,
      "ĠÅ¡t": 414,
      "ĠoÅ¡": 415,
      "Ġ1940": 416,
      "Ġadl": 417,
      "ĠeÅĪ": 418,
      "ĠÃŃz": 419,
      "Ġohl": 420,
      "im": 421,
      "ĠzÅĻ": 422,
      "BA": 423,
      "Ġyk": 424,
      "ĠÃ¡sn": 425,
      "Ġodn": 426,
      "Ġunc": 427,
      "ĠÄĽÄįn": 428,
      "Ġf": 429,
      "Ġih": 430,
      "Ġelk": 431,
      "ĠÃŃb": 432,
      "Ġatk": 433,
      "Ġedl": 434,
      "ĠÄĽzd": 435,
      "Ġjd": 436,
      "as": 437,
      "it": 438,
      "ĠÃ½v": 439,
      "ĠÃ¡p": 440,
      "ĠÃ¡Å¾": 441,
      "ĠhÅĻ": 442,
      "Ġosti": 443,
      "ĠouÅĻ": 444,
      "ĠeÄįn": 445,
      "ĠÃŃh": 446,
      "Ġuz": 447,
      "Ġesl": 448,
      "Ġici": 449,
      "ĠstÅĻ": 450,
      "ĠÃ¡j": 451,
      "Ġpt": 452,
      "Ġodl": 453,
      "ĠABBA": 454,
      "Ġala": 455,
      "Ġchc": 456,
      "ĠÄĽtl": 457,
      "Ġysl": 458,
      "Ġyb": 459,
      "Ġyp": 460,
      "Ġoln": 461,
      "Ġ1860": 462,
      "Ġlz": 463,
      "Ġuc": 464,
      "Ġarn": 465,
      "Ġenk": 466,
      "Ġchl": 467,
      "Ġali": 468,
      "ĠÄĽÅĻ": 469,
      "Ġtm": 470,
      "Ġisk": 471,
      "Ġ1840": 472,
      "Ġovn": 473,
      "ych": 474,
      "Ġrn": 475,
      "Ġskr": 476,
      "ĠouÅ¾": 477,
      "Ġcht": 478,
      "Ġutn": 479,
      "ĠÃŃÄį": 480,
      "Ġib": 481,
      "ĠÄĽh": 482,
      "ĠÅ¯v": 483,
      "Ġ23": 484,
      "Ġila": 485,
      "Ġzt": 486,
      "Ġse": 487,
      "ĠÃ½Å¡": 488,
      "ĠÃ½t": 489,
      "ĠAA": 490,
      "Ġoub": 491,
      "el": 492,
      "Ġadk": 493,
      "ĠÄĽÅ¡": 494,
      "ĠÃŃsn": 495,
      "Ġjsm": 496,
      "Ġati": 497,
      "Ġ6": 498,
      "ĠuÄı": 499,
      "ĠatÅĻ": 500,
      "Ġozd": 501,
      "Ġastn": 502,
      "Ġozn": 503,
      "Ġvzp": 504,
      "ĠÃ¡b": 505,
      "Ġobl": 506,
      "Ġaji": 507,
      "ĠÃ¡hl": 508,
      "ĠÃŃÅĻ": 509,
      "ĠÃ©t": 510,
      "ek": 511,
      "Ġskl": 512,
      "ym": 513,
      "Ġili": 514,
      "ĠÄĽc": 515,
      "ku": 516,
      "Ġoji": 517,
      "ĠÄĽjÅ¡": 518,
      "Ġezn": 519,
      "ĠÅ¯n": 520,
      "ad": 521,
      "ĠÃ©Å¾": 522,
      "Ġrh": 523,
      "ĠouÅ¡": 524,
      "Ġzk": 525,
      "Ġeho": 526,
      "Ġekl": 527,
      "Ġice": 528,
      "Ġkn": 529,
      "ĠÄįl": 530,
      "Ġyv": 531,
      "ÄĽt": 532,
      "ĠÅ¯l": 533,
      "Ġvst": 534,
      "ce": 535,
      "Ġikd": 536,
      "ĠÃ¡tk": 537,
      "ich": 538,
      "ĠÃŃst": 539,
      "Ġ24": 540,
      "ĠdÅĻ": 541,
      "ech": 542,
      "Ġick": 543,
      "ĠXX": 544,
      "Ġiva": 545,
      "Ġava": 546,
      "Ġodr": 547,
      "Ġodp": 548,
      "kl": 549,
      "Ġrch": 550,
      "ĠÅ¯h": 551,
      "an": 552,
      "Ġaly": 553,
      "Ġchr": 554,
      "ĠAABBCC": 555,
      "ĠyÅ¡l": 556,
      "Ġavn": 557,
      "Ġg": 558,
      "Ġyst": 559,
      "dl": 560,
      "es": 561,
      "Ġozv": 562,
      "Ġavy": 563,
      "ĠÅ¡l": 564,
      "ĠÃ©n": 565,
      "Ġym": 566,
      "ĠAAXX": 567,
      "Ġatn": 568,
      "ÄĽl": 569,
      "ak": 570,
      "Ġomn": 571,
      "Ġrz": 572,
      "Ġrs": 573,
      "ka": 574,
      "Ġeu": 575,
      "ĠaÅĪ": 576,
      "Ġand": 577,
      "ĠÅ¯z": 578,
      "dn": 579,
      "Ġrtv": 580,
      "ĠyÅ¥": 581,
      "Ġivn": 582,
      "Ġip": 583,
      "ĠÃ¡vn": 584,
      "ĠÃ¡dn": 585,
      "Ġlh": 586,
      "ĠbÅĻ": 587,
      "Ġyr": 588,
      "Ġena": 589,
      "Ġyj": 590,
      "Ġechn": 591,
      "ni": 592,
      "Ġie": 593,
      "ĠÄĽla": 594,
      "ĠÄĽni": 595,
      "Ġostn": 596,
      "Ġeny": 597,
      "Ġozk": 598,
      "et": 599,
      "ost": 600,
      "Ġavd": 601,
      "Ġesn": 602,
      "Ġotv": 603,
      "Ġily": 604,
      "Ġohn": 605,
      "ĠÄĽÅ¾k": 606,
      "Ġzh": 607,
      "Ġidsk": 608,
      "ĠÃŃdl": 609,
      "ĠÃ½l": 610,
      "ĠÅ¯r": 611,
      "Ġuje": 612,
      "ĠÄĽrn": 613,
      "Ġeln": 614,
      "Ġtl": 615,
      "Ġozp": 616,
      "Ġjst": 617,
      "Ġehn": 618,
      "Ġzj": 619,
      "Ġokl": 620,
      "ĠoÅ¾n": 621,
      "Ġitr": 622,
      "Ġiny": 623,
      "Ġocn": 624,
      "ĠABABCC": 625,
      "Ġenn": 626,
      "ĠobÄĽ": 627,
      "sm": 628,
      "Ġina": 629,
      "Ġkm": 630,
      "Ġvzn": 631,
      "Ġant": 632,
      "Ġevn": 633,
      "ĠrÅ¾": 634,
      "Ġann": 635,
      "Ġane": 636,
      "Ġiln": 637,
      "Ġrp": 638,
      "Ġorn": 639,
      "ĠÅ¯st": 640,
      "Ġesm": 641,
      "Ġene": 642,
      "Ġejn": 643,
      "Ġada": 644,
      "Ġsch": 645,
      "Ġvn": 646,
      "ĠepÅĻ": 647,
      "AX": 648,
      "ĠyÄį": 649,
      "Ġetl": 650,
      "ĠuÅ¡i": 651,
      "Ġ25": 652,
      "Ġinn": 653,
      "Ġyz": 654,
      "AA": 655,
      "Ġzdr": 656,
      "um": 657,
      "Ġztr": 658,
      "Ġotc": 659,
      "Ġela": 660,
      "Ġct": 661,
      "Ġova": 662,
      "ic": 663,
      "Ġaci": 664,
      "Ġokr": 665,
      "Ġerv": 666,
      "Ġje": 667,
      "Ġosp": 668,
      "ĠABABXX": 669,
      "Ġept": 670,
      "ĠoÅ¥": 671,
      "Ġouch": 672,
      "ĠlÄį": 673,
      "Ġidn": 674,
      "Ġsh": 675,
      "Ġ1960": 676,
      "ĠÃŃp": 677,
      "Ġobn": 678,
      "ĠÃŃj": 679,
      "ĠaÄįn": 680,
      "ĠoÅĻi": 681,
      "Ġenc": 682,
      "ĠÅĪ": 683,
      "ĠaÅĻi": 684,
      "Ġskv": 685,
      "Ġeo": 686,
      "ĠeÅ¡l": 687,
      "ĠvÅĻ": 688,
      "Ġink": 689,
      "ĠouÅ¡t": 690,
      "Ġous": 691,
      "ĠouÄį": 692,
      "Ġouf": 693,
      "ĠÄĽti": 694,
      "Ġaln": 695,
      "ĠÃŃÄįk": 696,
      "Ġany": 697,
      "Ġasl": 698,
      "Ġojn": 699,
      "Ġjm": 700,
      "in": 701,
      "Ġvd": 702,
      "Ġozl": 703,
      "Ġeti": 704,
      "Ġira": 705,
      "ĠÃºt": 706,
      "Ġ5": 707,
      "Ġodv": 708,
      "ĠÃŃdn": 709,
      "Ġeskn": 710,
      "Ġps": 711,
      "Ġyc": 712,
      "Ġady": 713,
      "Ġalo": 714,
      "ed": 715,
      "Ġent": 716,
      "ĠÃ¡nk": 717,
      "Ġele": 718,
      "ĠÄĽkd": 719,
      "Ġrvn": 720,
      "Ġoli": 721,
      "Ġana": 722,
      "Ġale": 723,
      "ĠiÅ¡t": 724,
      "ĠobÅĻ": 725,
      "Ġoje": 726,
      "Ġove": 727,
      "ĠÃºsm": 728,
      "ĠoÄįi": 729,
      "Ġinu": 730,
      "Ġami": 731,
      "Ġejt": 732,
      "ĠÃ¡lk": 733,
      "Ġatr": 734,
      "Ġanc": 735,
      "Ġaje": 736,
      "Ġokn": 737,
      "kr": 738,
      "ĠÃºst": 739,
      "ĠÅ¡Å¥": 740,
      "ach": 741,
      "Ġau": 742,
      "ĠXXAA": 743,
      "kv": 744,
      "ĠÅ¾h": 745,
      "tv": 746,
      "Ġemi": 747,
      "Ġavi": 748,
      "ĠejÅ¡": 749,
      "Ġoni": 750,
      "Ġate": 751,
      "Ġsb": 752,
      "CCB": 753,
      "Ġejd": 754,
      "Ġyd": 755,
      "Ġebe": 756,
      "Ġestr": 757,
      "ĠÅ¡k": 758,
      "Ġahl": 759,
      "Ġychl": 760,
      "Ġudn": 761,
      "ĠÃ¡hn": 762,
      "Ġile": 763,
      "ĠÃ¡st": 764,
      "Ġarm": 765,
      "Ġ1820": 766,
      "ĠoÅĪ": 767,
      "Ġlk": 768,
      "ĠichÅ¾": 769,
      "Ġio": 770,
      "Ġspl": 771,
      "Ġotr": 772,
      "ĠÄĽÅ¾n": 773,
      "ĠÄĽje": 774,
      "Ġavu": 775,
      "ĠÅ¡p": 776,
      "ĠaÄįi": 777,
      "Ġvzt": 778,
      "Ġolu": 779,
      "Ġebn": 780,
      "ĠAXA": 781,
      "ĠAABCCB": 782,
      "Ġahr": 783,
      "ABB": 784,
      "ĠÅ¯d": 785,
      "ĠiÅĻ": 786,
      "Ġysk": 787,
      "ĠÄĽsn": 788,
      "ĠeÄįk": 789,
      "ĠadÅ¡": 790,
      "Ġadr": 791,
      "Ġadu": 792,
      "ĠoÄįn": 793,
      "Ġecht": 794,
      "ĠÃŃzk": 795,
      "ĠoÅĻe": 796,
      "Ġomu": 797,
      "ĠrÄį": 798,
      "Ġetn": 799,
      "Ġouk": 800,
      "Ġehl": 801,
      "Ġmdl": 802,
      "ĠaÅ¡l": 803,
      "Ġask": 804,
      "Ġaty": 805,
      "ĠXAAX": 806,
      "iÅ¾": 807,
      "Ġijd": 808,
      "Ġusm": 809,
      "Ġepl": 810,
      "Ġutk": 811,
      "Ġosv": 812,
      "or": 813,
      "Ġrst": 814,
      "ĠevÅĻ": 815,
      "iÅ¡": 816,
      "Ġouzl": 817,
      "Ġrc": 818,
      "Ġiku": 819,
      "Ġasy": 820,
      "ĠavÄĽ": 821,
      "Ġdc": 822,
      "Ġoci": 823,
      "ĠÃŃnk": 824,
      "Ġata": 825,
      "Ġudb": 826,
      "ĠÃ¡zn": 827,
      "Ġasu": 828,
      "ĠanÄĽ": 829,
      "Ġyh": 830,
      "Ġezd": 831,
      "Ġostr": 832,
      "zd": 833,
      "ĠÃŃvk": 834,
      "Ġovsk": 835,
      "Ġoku": 836,
      "ĠÄĽtr": 837,
      "ĠÄĽsti": 838,
      "Ġakt": 839,
      "Ġobj": 840,
      "Ġzbr": 841,
      "ĠosÅ¥": 842,
      "Ġilo": 843,
      "Ġby": 844,
      "Ġert": 845,
      "Ġvt": 846,
      "Ġeli": 847,
      "ĠÃ¡Å¡t": 848,
      "Ġase": 849,
      "ĠiÅ¡l": 850,
      "Ġenstv": 851,
      "Ġanu": 852,
      "ĠÃ¡Å¾n": 853,
      "Ġapl": 854,
      "Ġ26": 855,
      "ĠostÅĻ": 856,
      "ĠÃ½k": 857,
      "Ġidstv": 858,
      "Ġonn": 859,
      "Ġoval": 860,
      "Ġag": 861,
      "Ġidl": 862,
      "Ġejs": 863,
      "Ġoul": 864,
      "Ġejv": 865,
      "ĠÄĽji": 866,
      "Ġekn": 867,
      "Ġoru": 868,
      "ĠÃ©st": 869,
      "Ġyva": 870,
      "Ġerl": 871,
      "Ġude": 872,
      "ĠÄĽly": 873,
      "Ġely": 874,
      "Ġeda": 875,
      "Ġoucn": 876,
      "ĠÄĽtÅ¡": 877,
      "Å¡t": 878,
      "ĠuÄįn": 879,
      "Ġese": 880,
      "ĠÃ¡zdn": 881,
      "ar": 882,
      "Ġosk": 883,
      "ĠÃºd": 884,
      "Ġotk": 885,
      "ĠÃŃtk": 886,
      "Ġajn": 887,
      "Ġozt": 888,
      "Ġoun": 889,
      "Ġuti": 890,
      "ĠÃ©b": 891,
      "Ġank": 892,
      "Ġdal": 893,
      "ĠÃ©v": 894,
      "ĠÃ¡dk": 895,
      "Ġejm": 896,
      "ĠskÅĻ": 897,
      "Ġazi": 898,
      "Ġypr": 899,
      "Ġfr": 900,
      "Ġoudr": 901,
      "ĠÃŃsk": 902,
      "Ġozb": 903,
      "Ġadi": 904,
      "Ġozm": 905,
      "Ġije": 906,
      "ĠÃ¡rn": 907,
      "ĠvÄį": 908,
      "ĠechÅ¥": 909,
      "Ġzdv": 910,
      "uj": 911,
      "ĠÄĽlo": 912,
      "Ġohr": 913,
      "ev": 914,
      "ĠÃ½r": 915,
      "Ġovy": 916,
      "Ġspr": 917,
      "Ġivy": 918,
      "ĠejÅ¾": 919,
      "Ġechc": 920,
      "ĠÃŃrn": 921,
      "ĠÃ¡Å¡n": 922,
      "ĠsvÄĽt": 923,
      "Ġrsk": 924,
      "Ġemu": 925,
      "Ġarv": 926,
      "Ġozh": 927,
      "ej": 928,
      "Ġurn": 929,
      "Ġotn": 930,
      "ĠÃ½sk": 931,
      "Ġostl": 932,
      "Ġyck": 933,
      "Ġavou": 934,
      "uh": 935,
      "Ġovi": 936,
      "Ġden": 937,
      "Ġvzl": 938,
      "Ġaky": 939,
      "ĠÄįt": 940,
      "Ġichn": 941,
      "ĠÃ½s": 942,
      "ĠeÅ¥": 943,
      "ĠuÅ¾e": 944,
      "Ġita": 945,
      "Ġuji": 946,
      "Ġaku": 947,
      "Ġ3": 948,
      "Ġrb": 949,
      "Ġajd": 950,
      "Ġeta": 951,
      "ĠuÅĻ": 952,
      "ĠÄĽkn": 953,
      "Ġeskl": 954,
      "ĠiÃ": 955,
      "Ġeji": 956,
      "Ġaha": 957,
      "Ġansk": 958,
      "Ġesti": 959,
      "Ġika": 960,
      "Ġig": 961,
      "ĠÃŃzd": 962,
      "ĠÄĽli": 963,
      "ĠotÅĻ": 964,
      "ĠinÄĽ": 965,
      "Ġodu": 966,
      "Ġni": 967,
      "est": 968,
      "Ġezm": 969,
      "Ġsr": 970,
      "Ġazn": 971,
      "Ġezk": 972,
      "ĠitÄĽ": 973,
      "Ġanou": 974,
      "ĠiÅ¾i": 975,
      "Ġame": 976,
      "ĠuÅ¾n": 977,
      "Ġukr": 978,
      "ĠavÅĻ": 979,
      "ĠvstÅĻ": 980,
      "Ġzas": 981,
      "Ġyti": 982,
      "Ġctn": 983,
      "Ġma": 984,
      "uch": 985,
      "ĠuÅ¡k": 986,
      "Ġchm": 987,
      "ĠiÅ¡e": 988,
      "Ġodd": 989,
      "ĠÅ¾l": 990,
      "ĠyÅĻ": 991,
      "Ġakl": 992,
      "ĠÄĽÅ¾i": 993,
      "Ġahy": 994,
      "ĠaÅĻe": 995,
      "ĠoÄı": 996,
      "Ġrm": 997,
      "Ġrk": 998,
      "ĠÃŃÅ¡t": 999,
      "Ġehk": 1000,
      "ĠoÄįk": 1001,
      "ĠeÅ¾l": 1002,
      "Ġrhl": 1003,
      "Ġosm": 1004,
      "ĠonÄį": 1005,
      "aÅĻ": 1006,
      "Ġuku": 1007,
      "ĠemÄĽ": 1008,
      "ĠÃ©k": 1009,
      "ĠoÅ¾i": 1010,
      "ĠXAXAXX": 1011,
      "Ġmi": 1012,
      "od": 1013,
      "Ġidi": 1014,
      "Ġrhn": 1015,
      "Ġola": 1016,
      "Ġvp": 1017,
      "Ġodi": 1018,
      "ĠÃ©nk": 1019,
      "ĠÄĽle": 1020,
      "ĠÃ½ÅĻ": 1021,
      "Ġosn": 1022,
      "Ġvzh": 1023,
      "ĠmÅĻ": 1024,
      "ĠAXAX": 1025,
      "Ġihn": 1026,
      "Ġ4": 1027,
      "Ġujn": 1028,
      "ĠÄĽmÅ¾": 1029,
      "Ġto": 1030,
      "ĠrÅ¡": 1031,
      "ĠÃ¡Äįk": 1032,
      "ĠaÅ¡n": 1033,
      "Ġjen": 1034,
      "id": 1035,
      "Ġolem": 1036,
      "ĠÄĽtv": 1037,
      "Ġebr": 1038,
      "Ġind": 1039,
      "Ġima": 1040,
      "ĠÃ¡ÅĪ": 1041,
      "Ġuzn": 1042,
      "Ġatky": 1043,
      "Ġavr": 1044,
      "Ġozdr": 1045,
      "ec": 1046,
      "ul": 1047,
      "Ġvzr": 1048,
      "Ġard": 1049,
      "Ġitn": 1050,
      "ĠhÅĻm": 1051,
      "Ġumn": 1052,
      "ĠÃŃmÅ¾": 1053,
      "Ġouci": 1054,
      "ĠtÅĻp": 1055,
      "Ġvzpl": 1056,
      "Ġsen": 1057,
      "Ġenkr": 1058,
      "out": 1059,
      "Ġoum": 1060,
      "Ġarc": 1061,
      "ĠÄĽtu": 1062,
      "Ġadne": 1063,
      "Ġeka": 1064,
      "ĠÃ©Äį": 1065,
      "Ġonc": 1066,
      "ĠuÅ¡t": 1067,
      "Ġyla": 1068,
      "Ġete": 1069,
      "Ġjest": 1070,
      "ĠyÅ¡n": 1071,
      "ĠiÄįn": 1072,
      "Ġikl": 1073,
      "Ġahn": 1074,
      "ĠÄı": 1075,
      "Ġaf": 1076,
      "Ġinc": 1077,
      "Ġachv": 1078,
      "ĠuÄįi": 1079,
      "Ġork": 1080,
      "ĠeÄįi": 1081,
      "Ġody": 1082,
      "ĠkvÄĽt": 1083,
      "Ġvs": 1084,
      "Ġoml": 1085,
      "Ġesp": 1086,
      "ĠÃ½n": 1087,
      "ĠÄĽck": 1088,
      "Ġorl": 1089,
      "ĠÃ¡ln": 1090,
      "ĠÃ¡sc": 1091,
      "Ġory": 1092,
      "Ġensk": 1093,
      "Ġine": 1094,
      "zn": 1095,
      "Ġano": 1096,
      "ĠÃ½b": 1097,
      "ĠÄĽÅ¥": 1098,
      "ĠÄĽzn": 1099,
      "Ġenou": 1100,
      "Ġobz": 1101,
      "XB": 1102,
      "ĠaÅ¡i": 1103,
      "Ġusn": 1104,
      "ĠÄĽtn": 1105,
      "Ġeno": 1106,
      "ĠÃ¡dc": 1107,
      "ĠuÅ¡e": 1108,
      "Ġii": 1109,
      "Ġytn": 1110,
      "Ġabl": 1111,
      "Ġoust": 1112,
      "ĠamÅ¾": 1113,
      "ĠÃ¡tn": 1114,
      "Ġymi": 1115,
      "ĠitÅĻ": 1116,
      "Ġeg": 1117,
      "ĠetÅĻ": 1118,
      "Ġihl": 1119,
      "Ġodk": 1120,
      "Ġitb": 1121,
      "ABAB": 1122,
      "Ġikr": 1123,
      "ĠÄĽtsk": 1124,
      "Ġouv": 1125,
      "Ġrdl": 1126,
      "Ġion": 1127,
      "Ġera": 1128,
      "ĠÅ¡v": 1129,
      "Ġevr": 1130,
      "Ġsam": 1131,
      "Ġestn": 1132,
      "Ġelo": 1133,
      "Ġudi": 1134,
      "Ġvzk": 1135,
      "ĠÃ½Äį": 1136,
      "ĠÄįas": 1137,
      "Ġbd": 1138,
      "ĠÅ¯jd": 1139,
      "Ġezp": 1140,
      "Ġasti": 1141,
      "Ġite": 1142,
      "ĠojÄı": 1143,
      "ĠohÅĻ": 1144,
      "ĠeÅ¾i": 1145,
      "Ġolt": 1146,
      "ik": 1147,
      "ĠepÅ¡": 1148,
      "Ġodz": 1149,
      "ĠÄĽnc": 1150,
      "Ġelz": 1151,
      "Ġival": 1152,
      "Ġhlas": 1153,
      "Ġupn": 1154,
      "Ġinou": 1155,
      "ĠÄĽvÄį": 1156,
      "Ġouti": 1157,
      "Ġive": 1158,
      "ĠuÅ¡n": 1159,
      "aÅĪ": 1160,
      "aÅ¡": 1161,
      "ĠÅ¯zn": 1162,
      "Ġopr": 1163,
      "Ġohu": 1164,
      "Ġlet": 1165,
      "Ġukl": 1166,
      "ĠÅ¯k": 1167,
      "av": 1168,
      "ol": 1169,
      "Ġark": 1170,
      "Ġstv": 1171,
      "Ġoutn": 1172,
      "Ġelm": 1173,
      "Ġime": 1174,
      "zk": 1175,
      "Ġiky": 1176,
      "Ġshl": 1177,
      "Ġedi": 1178,
      "Ġof": 1179,
      "Ġolk": 1180,
      "Ġ27": 1181,
      "Ġuchl": 1182,
      "ĠuÅ¾b": 1183,
      "Ġimn": 1184,
      "Ġitk": 1185,
      "ĠyÅ¡e": 1186,
      "Ġaru": 1187,
      "Ġsi": 1188,
      "ĠuÅ¥": 1189,
      "ĠÅ¯dc": 1190,
      "ĠiÅ¥": 1191,
      "ĠyÅ¡Å¡": 1192,
      "Ġiji": 1193,
      "Ġzem": 1194,
      "ĠÄĽzdn": 1195,
      "Ġokem": 1196,
      "Ġikn": 1197,
      "Ġepr": 1198,
      "ĠÃ¡cn": 1199,
      "Ġiskn": 1200,
      "ot": 1201,
      "Ġamp": 1202,
      "Ġeje": 1203,
      "ĠotÄį": 1204,
      "Ġemsk": 1205,
      "Ġte": 1206,
      "ĠeÅ¡k": 1207,
      "Ġilk": 1208,
      "ĠhÅĻb": 1209,
      "ABBX": 1210,
      "Ġota": 1211,
      "Ġykl": 1212,
      "Ġuhl": 1213,
      "Ġasp": 1214,
      "oj": 1215,
      "Ġojsk": 1216,
      "Ġart": 1217,
      "Ġovat": 1218,
      "ĠesÅ¥": 1219,
      "ĠeÅĻi": 1220,
      "Ġasky": 1221,
      "Ġetb": 1222,
      "Ġole": 1223,
      "ĠoÅ¾sk": 1224,
      "ĠÃºzk": 1225,
      "ĠaÅ¡t": 1226,
      "Ġedb": 1227,
      "Ġary": 1228,
      "ĠeÃ": 1229,
      "ĠÃ¡zr": 1230,
      "Ġyli": 1231,
      "ĠoÅĻk": 1232,
      "ĠÃºp": 1233,
      "Ġave": 1234,
      "Ġoby": 1235,
      "Ġuce": 1236,
      "ĠaÅ¾i": 1237,
      "Ġopl": 1238,
      "Ġji": 1239,
      "Ġiskr": 1240,
      "Ġetk": 1241,
      "Ġokt": 1242,
      "on": 1243,
      "Ġjsem": 1244,
      "az": 1245,
      "ĠÄĽkk": 1246,
      "eÅĪ": 1247,
      "Ġadc": 1248,
      "Ġbyl": 1249,
      "ĠÃ©l": 1250,
      "ĠerÅ¡": 1251,
      "ĠmÅ¾": 1252,
      "ĠÃ©r": 1253,
      "Ġylo": 1254,
      "Ġezl": 1255,
      "Ġiru": 1256,
      "oc": 1257,
      "ĠÄĽny": 1258,
      "Ġuchu": 1259,
      "ĠÃŃzn": 1260,
      "Ġobu": 1261,
      "ĠiÅ¾e": 1262,
      "ĠÃ¡sl": 1263,
      "Ġedr": 1264,
      "Ġzkv": 1265,
      "ĠanÄį": 1266,
      "Ġounk": 1267,
      "iv": 1268,
      "Ġonu": 1269,
      "Ġakb": 1270,
      "BC": 1271,
      "ĠÃ©ÅĻ": 1272,
      "Ġeru": 1273,
      "Ġmu": 1274,
      "Ġesa": 1275,
      "Ġasem": 1276,
      "er": 1277,
      "Ġedu": 1278,
      "ĠÃŃtr": 1279,
      "Ġovu": 1280,
      "Ġtk": 1281,
      "ok": 1282,
      "Ġakr": 1283,
      "Ġyne": 1284,
      "Ġebk": 1285,
      "Ġetu": 1286,
      "ĠaÄįk": 1287,
      "Ġsvou": 1288,
      "Ġzpr": 1289,
      "Ġef": 1290,
      "stvi": 1291,
      "Ġgr": 1292,
      "ÄĽv": 1293,
      "Ġoct": 1294,
      "ĠumÅĻ": 1295,
      "Ġudu": 1296,
      "Ġond": 1297,
      "ĠlÅ¾": 1298,
      "ĠÄĽtem": 1299,
      "Ġzrak": 1300,
      "ĠÃ³n": 1301,
      "Ġede": 1302,
      "ĠÃ¡zk": 1303,
      "ĠÃ¡dh": 1304,
      "Ġomst": 1305,
      "Ġudy": 1306,
      "ĠÃ©z": 1307,
      "Ġzbl": 1308,
      "ĠoÅ¡l": 1309,
      "ud": 1310,
      "Ġ1800": 1311,
      "CBC": 1312,
      "Ġidu": 1313,
      "Ġodm": 1314,
      "os": 1315,
      "ĠiÃŃ": 1316,
      "Ġista": 1317,
      "Ġedm": 1318,
      "Ġedy": 1319,
      "ĠÃ¡Å¡Å¥": 1320,
      "Ġhm": 1321,
      "ĠÃŃvÄį": 1322,
      "Ġasa": 1323,
      "Ġedne": 1324,
      "ĠopÅĻ": 1325,
      "ĠÄĽta": 1326,
      "Ġamen": 1327,
      "Ġalu": 1328,
      "ĠXXABAB": 1329,
      "Ġestl": 1330,
      "Ġour": 1331,
      "Ġini": 1332,
      "Ġizi": 1333,
      "ĠÃŃbr": 1334,
      "Ġpn": 1335,
      "ĠvzkÅĻ": 1336,
      "Ġrad": 1337,
      "Ġudk": 1338,
      "Ġedv": 1339,
      "ĠÅ¯p": 1340,
      "Ġvzb": 1341,
      "ĠaÄįe": 1342,
      "ĠiÄįka": 1343,
      "Ġzc": 1344,
      "Ġerk": 1345,
      "ĠÄĽtÅĻ": 1346,
      "Ġzvl": 1347,
      "Ġme": 1348,
      "Ġistr": 1349,
      "Ġydl": 1350,
      "ĠupÅĻ": 1351,
      "nÄĽ": 1352,
      "Ġunk": 1353,
      "ĠnÄĽ": 1354,
      "Ġuhu": 1355,
      "ĠeÅ¡Å¥": 1356,
      "Ġapr": 1357,
      "ĠjiÅ¾": 1358,
      "ĠABBACC": 1359,
      "ĠovÅ¡": 1360,
      "Ġichu": 1361,
      "Ġamy": 1362,
      "Ġrti": 1363,
      "Ġalm": 1364,
      "ĠadÄĽ": 1365,
      "ĠuÅ¾k": 1366,
      "Ġsve": 1367,
      "ĠapÅĻ": 1368,
      "aj": 1369,
      "ĠÄĽku": 1370,
      "Ġavl": 1371,
      "uk": 1372,
      "ih": 1373,
      "ĠÄĽna": 1374,
      "Ġalk": 1375,
      "ĠenÄĽ": 1376,
      "Ġatu": 1377,
      "ah": 1378,
      "Ġdnes": 1379,
      "Ġmst": 1380,
      "ĠestÅĻ": 1381,
      "Ġodh": 1382,
      "ĠÄĽjÅ¡i": 1383,
      "ĠAXAA": 1384,
      "ĠXAABBX": 1385,
      "Ġybn": 1386,
      "ĠÃ½h": 1387,
      "Ġiha": 1388,
      "ĠÄĽÅ¡t": 1389,
      "Ġesu": 1390,
      "Ġatku": 1391,
      "Ġitl": 1392,
      "Ġizb": 1393,
      "Ġednou": 1394,
      "Ġazp": 1395,
      "Ġara": 1396,
      "ĠÃ½Å¾": 1397,
      "Ġtak": 1398,
      "ov": 1399,
      "ĠtÄĽ": 1400,
      "ĠÃ¡vr": 1401,
      "Ġial": 1402,
      "ĠovÄĽ": 1403,
      "Ġuky": 1404,
      "ĠÄĽdÄį": 1405,
      "Ġvic": 1406,
      "ĠavÅ¡": 1407,
      "ĠvÄĽ": 1408,
      "Ġodb": 1409,
      "Ġabr": 1410,
      "Ġlt": 1411,
      "Ġezv": 1412,
      "Ġsmich": 1413,
      "Ġonk": 1414,
      "ie": 1415,
      "Ġejl": 1416,
      "Ġoda": 1417,
      "ĠiÄįky": 1418,
      "Ġasne": 1419,
      "ĠiÄįku": 1420,
      "us": 1421,
      "Ġasm": 1422,
      "ĠÃ¡bl": 1423,
      "Ġill": 1424,
      "Ġtam": 1425,
      "ĠÃ¡cl": 1426,
      "ĠunÄĽ": 1427,
      "Ġovc": 1428,
      "Ġenu": 1429,
      "Ġama": 1430,
      "Ġahu": 1431,
      "Ġoes": 1432,
      "Ġatc": 1433,
      "ĠAABCBC": 1434,
      "ob": 1435,
      "Ġusi": 1436,
      "Ġatem": 1437,
      "Ġunn": 1438,
      "Ġorsk": 1439,
      "ĠÄĽdn": 1440,
      "Ġanb": 1441,
      "Ġesv": 1442,
      "Ġubn": 1443,
      "Ġalv": 1444,
      "ĠÄĽÅ¡n": 1445,
      "Ġety": 1446,
      "ĠÃ¡lc": 1447,
      "ĠyÅ¡i": 1448,
      "Ġechu": 1449,
      "Ġrchl": 1450,
      "Ġouze": 1451,
      "ĠÃºÅ¾": 1452,
      "Ġohy": 1453,
      "ĠiÅ¡i": 1454,
      "Ġlv": 1455,
      "Ġeod": 1456,
      "Ġaval": 1457,
      "Ġisl": 1458,
      "Ġelsk": 1459,
      "ĠÃŃÅĪ": 1460,
      "ĠouÅ¾i": 1461,
      "Ġozr": 1462,
      "Ġebi": 1463,
      "Ġcv": 1464,
      "Ġitu": 1465,
      "ĠX": 1466,
      "Ġoky": 1467,
      "Ġkrev": 1468,
      "Ġedni": 1469,
      "Ġetr": 1470,
      "ĠuÅ¾i": 1471,
      "Ġell": 1472,
      "Ġia": 1473,
      "Ġosi": 1474,
      "Ġozkv": 1475,
      "ĠmnÄĽ": 1476,
      "Ġoha": 1477,
      "ĠodÅĻ": 1478,
      "sv": 1479,
      "ĠusÅ¥": 1480,
      "Ġoly": 1481,
      "Ġehd": 1482,
      "uÄı": 1483,
      "Ġstkv": 1484,
      "ĠevÅ¡": 1485,
      "Ġaps": 1486,
      "Ġeum": 1487,
      "ĠÃ¡Å¥": 1488,
      "ĠÃ¡bn": 1489,
      "ĠaÅ¡e": 1490,
      "Ġuka": 1491,
      "ĠasÅ¥": 1492,
      "te": 1493,
      "Ġrdce": 1494,
      "Ġitv": 1495,
      "Ġytk": 1496,
      "Ġotu": 1497,
      "Ġbyt": 1498,
      "Ġnam": 1499,
      "ĠÅ¯ln": 1500,
      "ĠemÅĻ": 1501,
      "Ġehc": 1502,
      "Ġuhy": 1503,
      "ĠÃ©dn": 1504,
      "ĠÃŃdk": 1505,
      "Ġanstv": 1506,
      "Ġomk": 1507,
      "Ġovl": 1508,
      "Ġyhl": 1509,
      "ĠouÅ¡k": 1510,
      "Ġubl": 1511,
      "Ġesy": 1512,
      "Ġicha": 1513,
      "ĠAABBXX": 1514,
      "Ġechv": 1515,
      "Ġavc": 1516,
      "Ġian": 1517,
      "Ġamn": 1518,
      "ĠiÅĻi": 1519,
      "ĠanÅ¾": 1520,
      "ĠivÄĽ": 1521,
      "Ġemstv": 1522,
      "Ġuli": 1523,
      "Ġoho": 1524,
      "ĠodÄĽ": 1525,
      "Ġdech": 1526,
      "ĠÃ½kÅĻ": 1527,
      "ĠimÅ¾": 1528,
      "Ġida": 1529,
      "Ġytr": 1530,
      "Ġisni": 1531,
      "ĠystÅĻ": 1532,
      "ĠÃ¡mk": 1533,
      "Ġezb": 1534,
      "ĠokÅĻ": 1535,
      "Ġichr": 1536,
      "Ġukou": 1537,
      "Ġaze": 1538,
      "Ġaur": 1539,
      "ĠaÄı": 1540,
      "Ġyni": 1541,
      "ĠoÅ¡t": 1542,
      "Ġatil": 1543,
      "Ġehr": 1544,
      "Ġohou": 1545,
      "Ġyzn": 1546,
      "ĠoÅ¾stv": 1547,
      "Ġotl": 1548,
      "Ġejkr": 1549,
      "ĠyÅ¡t": 1550,
      "Ġachu": 1551,
      "ĠABBAXX": 1552,
      "ĠÄĽvn": 1553,
      "Ġoumr": 1554,
      "Ġodt": 1555,
      "ĠavÅ¾d": 1556,
      "ĠÄĽty": 1557,
      "ĠzpÄĽt": 1558,
      "Ġato": 1559,
      "Ġald": 1560,
      "Ġeml": 1561,
      "Ġakv": 1562,
      "ĠeÃ¡": 1563,
      "ĠÄįn": 1564,
      "Ġanim": 1565,
      "Ġavil": 1566,
      "ĠtvaÅĻ": 1567,
      "ĠÃŃÅ¥": 1568,
      "Ġadla": 1569,
      "ist": 1570,
      "ĠÄĽjn": 1571,
      "Ġuru": 1572,
      "Ġapk": 1573,
      "Ġajsk": 1574,
      "ĠeÅ¡n": 1575,
      "ĠiÄįi": 1576,
      "ĠÃ¡dr": 1577,
      "ĠÅ¡tv": 1578,
      "Ġoty": 1579,
      "ĠaÅ¾e": 1580,
      "ĠAAXA": 1581,
      "Ġikem": 1582,
      "Ġ28": 1583,
      "Ġmuj": 1584,
      "Ġumi": 1585,
      "Ġozpl": 1586,
      "Ġudc": 1587,
      "ĠeÅĻe": 1588,
      "Ġex": 1589,
      "Ġisti": 1590,
      "Ġstin": 1591,
      "ĠÅ¯Å¾k": 1592,
      "Ġovem": 1593,
      "ABBA": 1594,
      "Ġevz": 1595,
      "Ġusta": 1596,
      "ĠÃ¡ct": 1597,
      "Ġasi": 1598,
      "ĠABABAB": 1599,
      "Ġnas": 1600,
      "Å¡i": 1601,
      "Ġosb": 1602,
      "Ġalem": 1603,
      "Ġbuh": 1604,
      "Ġity": 1605,
      "ĠÃ©d": 1606,
      "Ġymn": 1607,
      "Ġicich": 1608,
      "Ġschv": 1609,
      "Ġrchn": 1610,
      "Ġstal": 1611,
      "Ġekt": 1612,
      "Ġarl": 1613,
      "Ġfl": 1614,
      "ĠÄįtv": 1615,
      "Ġlhk": 1616,
      "ĠouÅ¥": 1617,
      "ĠÃ¡ÅĻn": 1618,
      "Ġakem": 1619,
      "ĠeÅ¡tÄĽ": 1620,
      "ĠÃ©tl": 1621,
      "Ġony": 1622,
      "Ġort": 1623,
      "Ġrve": 1624,
      "Ġobd": 1625,
      "Ġoubk": 1626,
      "ĠÃŃhl": 1627,
      "ĠouÄįk": 1628,
      "ĠÃ©p": 1629,
      "Ġodst": 1630,
      "Ġrpk": 1631,
      "Ġelem": 1632,
      "ĠÄĽÅĻi": 1633,
      "ĠÅ¯ÅĪ": 1634,
      "ĠÄĽvu": 1635,
      "Ġibk": 1636,
      "Ġorm": 1637,
      "Ġmne": 1638,
      "ĠÄĽp": 1639,
      "Ġoka": 1640,
      "yÅ¡": 1641,
      "ĠXXA": 1642,
      "esk": 1643,
      "Ġedk": 1644,
      "Ġss": 1645,
      "ÄĽzd": 1646,
      "Ġrsn": 1647,
      "ĠÄĽte": 1648,
      "ĠhvÄĽzd": 1649,
      "Ġyhn": 1650,
      "Ġuni": 1651,
      "ĠiÅĪ": 1652,
      "ĠÄĽÅ¾c": 1653,
      "Å¡Å¥": 1654,
      "ĠouÅĻn": 1655,
      "Ġorem": 1656,
      "Ġenych": 1657,
      "ĠuÄįk": 1658,
      "ĠÄĽln": 1659,
      "Ġevi": 1660,
      "Ġenem": 1661,
      "Ġmh": 1662,
      "Ġichl": 1663,
      "Ġouhy": 1664,
      "ĠurÄį": 1665,
      "ĠohÅĻb": 1666,
      "Ġoba": 1667,
      "Ġapn": 1668,
      "ĠaÅ¾n": 1669,
      "Ġvzhl": 1670,
      "Ġzkr": 1671,
      "ĠÃºk": 1672,
      "ĠatÅĻi": 1673,
      "Ġojd": 1674,
      "Ġycha": 1675,
      "ĠÅ¯s": 1676,
      "ĠiÅ¡ti": 1677,
      "Ġusl": 1678,
      "Ġals": 1679,
      "Ġenb": 1680,
      "Ġams": 1681,
      "Ġont": 1682,
      "BB": 1683,
      "Ġeme": 1684,
      "ĠiÄįek": 1685,
      "Ġimi": 1686,
      "Ġochv": 1687,
      "ĠaÅ¡k": 1688,
      "ĠiÃ¡": 1689,
      "yt": 1690,
      "Ġade": 1691,
      "Ġurp": 1692,
      "Ġace": 1693,
      "Ġaka": 1694,
      "Ġovst": 1695,
      "Ġosud": 1696,
      "ĠÄĽvc": 1697,
      "Ġopi": 1698,
      "ĠezÅĻ": 1699,
      "Ġesla": 1700,
      "Ġyje": 1701,
      "Ġypl": 1702,
      "Ġadky": 1703,
      "ĠÅ¯t": 1704,
      "ĠeÄįe": 1705,
      "Ġizd": 1706,
      "Ġenim": 1707,
      "ĠÄĽzstv": 1708,
      "Ġatou": 1709,
      "Ġkral": 1710,
      "Ġasv": 1711,
      "Ġoutk": 1712,
      "Ġarf": 1713,
      "Ġystr": 1714,
      "Ġicky": 1715,
      "ĠÃ½sl": 1716,
      "Ġozs": 1717,
      "Ġoubi": 1718,
      "Ġytl": 1719,
      "ĠÃºÄį": 1720,
      "Ġebou": 1721,
      "Ġupr": 1722,
      "ĠemnÄĽ": 1723,
      "Ġula": 1724,
      "ĠÃŃmn": 1725,
      "ĠitÅĻn": 1726,
      "Ġvkr": 1727,
      "Ġzhl": 1728,
      "Ġeust": 1729,
      "ci": 1730,
      "ĠÅĻv": 1731,
      "ĠlÄįk": 1732,
      "ĠÃ¡Å¾d": 1733,
      "yl": 1734,
      "Ġog": 1735,
      "Ġinsk": 1736,
      "XXA": 1737,
      "Ġojm": 1738,
      "Ġatka": 1739,
      "ĠÃ½Å¡l": 1740,
      "ĠmÄĽ": 1741,
      "Ġeku": 1742,
      "ĠÃŃÅ¡n": 1743,
      "Ġsvym": 1744,
      "Ġoko": 1745,
      "Ġspj": 1746,
      "Ġoste": 1747,
      "ĠmÄĽl": 1748,
      "Ġklid": 1749,
      "Ġilou": 1750,
      "ĠotÄĽ": 1751,
      "ĠatÄĽ": 1752,
      "Ġnoc": 1753,
      "ĠÄĽtÄĽ": 1754,
      "Ġivou": 1755,
      "Ġaska": 1756,
      "Ġyly": 1757,
      "Ġipr": 1758,
      "Ġsvych": 1759,
      "Ġusk": 1760,
      "Ġisi": 1761,
      "Ġodch": 1762,
      "ĠÃºtr": 1763,
      "Ġaks": 1764,
      "BX": 1765,
      "Ġedla": 1766,
      "Ġlkl": 1767,
      "ĠchÅĻ": 1768,
      "Ġivl": 1769,
      "Ġalb": 1770,
      "Ġacht": 1771,
      "Ġodil": 1772,
      "Ġepn": 1773,
      "Ġmam": 1774,
      "Ġedc": 1775,
      "Ġere": 1776,
      "Ġesky": 1777,
      "XABB": 1778,
      "Ġdb": 1779,
      "Ġidla": 1780,
      "Ġozj": 1781,
      "Ġlny": 1782,
      "Ġord": 1783,
      "Ġth": 1784,
      "ĠÃºr": 1785,
      "ĠÃ½zn": 1786,
      "Ġiskl": 1787,
      "Ġerstv": 1788,
      "Ġozdn": 1789,
      "ĠvÅ¡ech": 1790,
      "Ġvh": 1791,
      "ĠuzÅĻ": 1792,
      "Ġanem": 1793,
      "ĠÃ©Äįk": 1794,
      "Ġyta": 1795,
      "Ġadce": 1796,
      "Ġouha": 1797,
      "ĠÅ¾al": 1798,
      "Ġunce": 1799,
      "Ġlid": 1800,
      "Ġelstv": 1801,
      "ÄĽn": 1802,
      "Ġece": 1803,
      "ĠÃŃsm": 1804,
      "Ġotkn": 1805,
      "Ġnim": 1806,
      "ĠiÅ¾n": 1807,
      "ĠÃ¡dl": 1808,
      "Ġtu": 1809,
      "Ġochu": 1810,
      "Ġarem": 1811,
      "Ġadb": 1812,
      "Ġyrv": 1813,
      "Ġduch": 1814,
      "ĠÃ©s": 1815,
      "Ġivi": 1816,
      "Ġhb": 1817,
      "ĠÃŃlk": 1818,
      "ĠiskÅĻ": 1819,
      "Ġuhd": 1820,
      "Ġochr": 1821,
      "ĠÄĽhl": 1822,
      "str": 1823,
      "oud": 1824,
      "Ġickn": 1825,
      "Ġcit": 1826,
      "Ġsnad": 1827,
      "ĠspÅĻ": 1828,
      "ir": 1829,
      "Ġynu": 1830,
      "Ġall": 1831,
      "ĠoÅ¾e": 1832,
      "ĠÄĽtla": 1833,
      "Ġukn": 1834,
      "Ġund": 1835,
      "Ġibl": 1836,
      "Ġven": 1837,
      "ĠoÅĻsk": 1838,
      "Ġekr": 1839,
      "ct": 1840,
      "Ġtkl": 1841,
      "ĠÄĽvy": 1842,
      "ĠiseÅĪ": 1843,
      "Ġeba": 1844,
      "Ġebl": 1845,
      "Ġesku": 1846,
      "ĠozÅ¾": 1847,
      "Ġism": 1848,
      "kn": 1849,
      "Ġurk": 1850,
      "Ġatek": 1851,
      "ii": 1852,
      "ĠABA": 1853,
      "ĠarÅ¡": 1854,
      "ĠXAXABB": 1855,
      "Ġahle": 1856,
      "Ġiat": 1857,
      "ĠÃ¡Å¡l": 1858,
      "Ġcl": 1859,
      "Ġles": 1860,
      "om": 1861,
      "Ġanku": 1862,
      "Ġyjd": 1863,
      "Ġadou": 1864,
      "ĠÃ¡zd": 1865,
      "ĠuÄıt": 1866,
      "Ġytu": 1867,
      "Ġhned": 1868,
      "ĠAXXA": 1869,
      "Ġsnih": 1870,
      "Ġejp": 1871,
      "Ġazem": 1872,
      "ĠÃ¡kl": 1873,
      "Ġvch": 1874,
      "Ġdm": 1875,
      "Ġamb": 1876,
      "Ġepc": 1877,
      "ĠÃ¡ck": 1878,
      "ĠÄĽcht": 1879,
      "ĠejÅ¡i": 1880,
      "Ġold": 1881,
      "ĠyÅĪ": 1882,
      "Ġovzd": 1883,
      "Ġalt": 1884,
      "Ġint": 1885,
      "chl": 1886,
      "Ġazv": 1887,
      "Ġif": 1888,
      "Ġomy": 1889,
      "ĠahÅĻ": 1890,
      "Ġatl": 1891,
      "ĠichÅĻ": 1892,
      "Ġobc": 1893,
      "Ġorc": 1894,
      "ĠaÅ¾Å¡": 1895,
      "Ġlst": 1896,
      "Ġatb": 1897,
      "Ġovo": 1898,
      "Ġoma": 1899,
      "ĠÄĽka": 1900,
      "ĠÃºl": 1901,
      "Ġijm": 1902,
      "ĠÄĽÄı": 1903,
      "Ġupl": 1904,
      "Ġasku": 1905,
      "Ġsem": 1906,
      "ĠÄĽnk": 1907,
      "ĠouÅ¡Å¥": 1908,
      "Ġjsou": 1909,
      "ĠonÄĽ": 1910,
      "Ġmnou": 1911,
      "Ġult": 1912,
      "ĠouÅĻi": 1913,
      "Ġadem": 1914,
      "ĠnÄĽm": 1915,
      "Ġti": 1916,
      "ĠynÄĽ": 1917,
      "ĠÅ¯dn": 1918,
      "Ġnich": 1919,
      "Ġret": 1920,
      "Ġucha": 1921,
      "Ġsd": 1922,
      "Ġejte": 1923,
      "ĠÃ¡tr": 1924,
      "Ġozhl": 1925,
      "ĠzpÄĽv": 1926,
      "ĠoÅ¡n": 1927,
      "Ġejhl": 1928,
      "Ġyval": 1929,
      "Ġinam": 1930,
      "ĠÅ¯b": 1931,
      "ĠoÅ¾k": 1932,
      "Ġoce": 1933,
      "Ġamu": 1934,
      "Ġouzn": 1935,
      "Ġora": 1936,
      "ĠÄĽsi": 1937,
      "ast": 1938,
      "ĠÄĽru": 1939,
      "Ġeob": 1940,
      "Ġeth": 1941,
      "Ġang": 1942,
      "Ġery": 1943,
      "Ġerm": 1944,
      "Ġecko": 1945,
      "ĠiÅ¡Å¥": 1946,
      "ĠXXAABB": 1947,
      "Ġdum": 1948,
      "Ġdost": 1949,
      "ĠiÅ¾k": 1950,
      "Ġodc": 1951,
      "ĠÃ©Å¡Å¥": 1952,
      "Ġekv": 1953,
      "ÄĽs": 1954,
      "ĠbliÅ¾": 1955,
      "ĠAAXB": 1956,
      "ĠÃŃrk": 1957,
      "Ġazy": 1958,
      "yn": 1959,
      "Ġinem": 1960,
      "Ġoutl": 1961,
      "ĠobÄį": 1962,
      "eh": 1963,
      "Ġoet": 1964,
      "ĠÃ©tn": 1965,
      "Ġestu": 1966,
      "Ġath": 1967,
      "Ġpan": 1968,
      "Ġovou": 1969,
      "ĠivÅ¡": 1970,
      "Ġils": 1971,
      "Ġuvn": 1972,
      "ĠÃŃln": 1973,
      "Ġenstvi": 1974,
      "ĠÅ¡kl": 1975,
      "ĠrÅ¥": 1976,
      "ĠÃŃÄįn": 1977,
      "Ġ29": 1978,
      "Ġisty": 1979,
      "Ġetch": 1980,
      "Ġavk": 1981,
      "Ġictv": 1982,
      "Ġstm": 1983,
      "ĠÄĽne": 1984,
      "Ġetem": 1985,
      "Ġona": 1986,
      "Ġcn": 1987,
      "Ġetla": 1988,
      "ĠteÅ¾": 1989,
      "ĠÄĽky": 1990,
      "Ġhor": 1991,
      "ĠorÅ¡": 1992,
      "ĠistÅĻ": 1993,
      "ĠistÄĽ": 1994,
      "Ġods": 1995,
      "Ġier": 1996,
      "Ġahne": 1997,
      "Ġess": 1998,
      "ĠteÄı": 1999,
      "ĠÄĽchu": 2000,
      "Ġinka": 2001,
      "ĠÃ¡ÅĻk": 2002,
      "ĠeÃ¡l": 2003,
      "ĠoÅ¡k": 2004,
      "ĠÄĽnÄį": 2005,
      "Ġtkv": 2006,
      "Ġjas": 2007,
      "Ġiral": 2008,
      "ĠÅ¯rc": 2009,
      "ĠÃ©bk": 2010,
      "Ġvj": 2011,
      "Ġvam": 2012,
      "Ġvlas": 2013,
      "ĠzaÅĻ": 2014,
      "Ġsj": 2015,
      "Ġedem": 2016,
      "Ġejsk": 2017,
      "ĠouÅ¡ti": 2018,
      "Ġovstv": 2019,
      "ĠÃºtl": 2020,
      "Ġign": 2021,
      "Ġovzn": 2022,
      "Ġujt": 2023,
      "Ġenym": 2024,
      "Ġitil": 2025,
      "Ġudl": 2026,
      "Ġeky": 2027,
      "Ġinach": 2028,
      "Ġitra": 2029,
      "Ġodj": 2030,
      "Ġousl": 2031,
      "ĠiÅĻe": 2032,
      "Ġeal": 2033,
      "is": 2034,
      "Ġuly": 2035,
      "ĠÄĽhu": 2036,
      "ĠÃ½p": 2037,
      "Ġomt": 2038,
      "Ġeden": 2039,
      "Ġoudi": 2040,
      "Ġedst": 2041,
      "Ġass": 2042,
      "Ġsvit": 2043,
      "Ġvzch": 2044,
      "Ġence": 2045,
      "Ġsf": 2046,
      "ĠrÄįm": 2047,
      "Ġumdl": 2048,
      "ĠÃ¡tc": 2049,
      "ĠXXXA": 2050,
      "ĠauÄį": 2051,
      "Ġivd": 2052,
      "Ġizn": 2053,
      "Ġoskv": 2054,
      "Ġadlo": 2055,
      "ĠÃŃkr": 2056,
      "Ġekla": 2057,
      "Ġsc": 2058,
      "ĠÅ¯ÅĻ": 2059,
      "Ġoudc": 2060,
      "Ġivot": 2061,
      "Ġuchem": 2062,
      "Ġyka": 2063,
      "ĠuÅ¡l": 2064,
      "Ġeskem": 2065,
      "Ġium": 2066,
      "Ġivat": 2067,
      "ĠÃºct": 2068,
      "Ġycht": 2069,
      "Ġilu": 2070,
      "ĠÃŃkl": 2071,
      "Ġvas": 2072,
      "ĠÃ½c": 2073,
      "ĠÃºn": 2074,
      "Ġiho": 2075,
      "Ġnic": 2076,
      "ĠisnÄĽ": 2077,
      "Ġevzd": 2078,
      "Ġysi": 2079,
      "bl": 2080,
      "ĠyÅ¡el": 2081,
      "ĠÄĽdr": 2082,
      "Ġerc": 2083,
      "Ġytm": 2084,
      "Ġlic": 2085,
      "ĠeÄıt": 2086,
      "Ġobk": 2087,
      "ĠsÅĪ": 2088,
      "ĠiÄı": 2089,
      "ĠÄĽmi": 2090,
      "ĠÅ¾it": 2091,
      "Ġsnu": 2092,
      "Ġudce": 2093,
      "Ġechl": 2094,
      "ĠÃŃrkv": 2095,
      "ĠÃ¡rk": 2096,
      "Ġezdn": 2097,
      "Ġstl": 2098,
      "Ġachr": 2099,
      "Ġpad": 2100,
      "Ġcest": 2101,
      "Ġudou": 2102,
      "Ġyska": 2103,
      "Ġolsk": 2104,
      "Ġenku": 2105,
      "Ġodpl": 2106,
      "Ġadal": 2107,
      "ĠchtÄĽl": 2108,
      "Ġrzk": 2109,
      "oh": 2110,
      "Ġerou": 2111,
      "Ġinky": 2112,
      "Ġovk": 2113,
      "Ġiry": 2114,
      "Ġynou": 2115,
      "Ġidm": 2116,
      "ĠvstÅĻic": 2117,
      "Ġjej": 2118,
      "Ġevl": 2119,
      "Ġyku": 2120,
      "ĠÄĽda": 2121,
      "ĠejÄį": 2122,
      "Ġahou": 2123,
      "Ġezr": 2124,
      "Ġactv": 2125,
      "Ġozdv": 2126,
      "Ġmou": 2127,
      "Ġynk": 2128,
      "Ġehu": 2129,
      "ĠAAAX": 2130,
      "ĠÄĽsta": 2131,
      "ĠoudÅĻ": 2132,
      "ĠÄĽtc": 2133,
      "ĠÄĽmc": 2134,
      "Ġotem": 2135,
      "ĠasnÄĽ": 2136,
      "Ġzjev": 2137,
      "Ġycky": 2138,
      "Ġzni": 2139,
      "ĠÃŃÅ¡k": 2140,
      "ĠiÄįko": 2141,
      "Ġatce": 2142,
      "ĠÃ¡rl": 2143,
      "Ġett": 2144,
      "ĠAX": 2145,
      "Ġatko": 2146,
      "Ġepj": 2147,
      "Ġahla": 2148,
      "Ġho": 2149,
      "Ġsvl": 2150,
      "Ġzvr": 2151,
      "ĠastÅĻ": 2152,
      "Ġelc": 2153,
      "ĠÄĽjt": 2154,
      "Ġrtn": 2155,
      "Ġoupa": 2156,
      "ĠÄĽnou": 2157,
      "Ġezt": 2158,
      "chv": 2159,
      "ĠABABAX": 2160,
      "eÅ¡": 2161,
      "Ġunu": 2162,
      "Ġaut": 2163,
      "Ġspat": 2164,
      "Ġouzv": 2165,
      "ĠeÃº": 2166,
      "Ġsmr": 2167,
      "Ġack": 2168,
      "Ġarsk": 2169,
      "ĠÃ¡pl": 2170,
      "Ġuty": 2171,
      "ĠÃŃÅ¾d": 2172,
      "ĠiÅ¡k": 2173,
      "ĠÄĽtlo": 2174,
      "Ġoudn": 2175,
      "ĠÃºs": 2176,
      "Ġousk": 2177,
      "ĠÄĽlsk": 2178,
      "Ġumy": 2179,
      "Ġlni": 2180,
      "Ġule": 2181,
      "Ġosy": 2182,
      "Ġeur": 2183,
      "Ġvb": 2184,
      "ĠvÅ¡em": 2185,
      "Ġitim": 2186,
      "Ġanek": 2187,
      "Ġomi": 2188,
      "Ġokv": 2189,
      "ĠoÅĻil": 2190,
      "ÄĽst": 2191,
      "Ġohem": 2192,
      "ĠpÅĻec": 2193,
      "Ġzpl": 2194,
      "ĠÄĽdk": 2195,
      "Ġury": 2196,
      "Ġten": 2197,
      "ĠÅ¾n": 2198,
      "Ġutku": 2199,
      "ĠeÅ¾t": 2200,
      "Ġarb": 2201,
      "ĠenÄį": 2202,
      "Ġivem": 2203,
      "Ġiste": 2204,
      "Ġyskl": 2205,
      "Ġty": 2206,
      "Ġiska": 2207,
      "ĠÃ¡Å¡tn": 2208,
      "Ġvzal": 2209,
      "ĠvzÅĪ": 2210,
      "Ġvzdech": 2211,
      "Ġw": 2212,
      "ĠoÅ¾il": 2213,
      "Ġeci": 2214,
      "Ġejr": 2215,
      "Ġechem": 2216,
      "Ġklin": 2217,
      "ĠakÅ¾": 2218,
      "Ġmrak": 2219,
      "Ġobt": 2220,
      "ĠÃŃstk": 2221,
      "Ġend": 2222,
      "ĠXXABBA": 2223,
      "Ġuzd": 2224,
      "Ġerem": 2225,
      "ĠozÅ¡": 2226,
      "ĠÄĽvem": 2227,
      "Ġinku": 2228,
      "ĠmuÅ¾": 2229,
      "Ġitem": 2230,
      "Ġojim": 2231,
      "ĠXXAAXX": 2232,
      "Ġing": 2233,
      "Ġhled": 2234,
      "Ġozpr": 2235,
      "ĠenÅ¡": 2236,
      "Ġejich": 2237,
      "Ġide": 2238,
      "Ġoudu": 2239,
      "Ġodvr": 2240,
      "Ġprach": 2241,
      "Ġobs": 2242,
      "Ġitel": 2243,
      "Ġovr": 2244,
      "Ġonz": 2245,
      "Ġarch": 2246,
      "ĠnaÅ¡": 2247,
      "Ġysv": 2248,
      "Ġvsk": 2249,
      "ĠedÄĽl": 2250,
      "ĠkÅĻiÅ¾": 2251,
      "Ġptak": 2252,
      "ĠÄĽlem": 2253,
      "Ġymb": 2254,
      "nik": 2255,
      "Ġius": 2256,
      "Ġsvem": 2257,
      "ĠÃŃml": 2258,
      "Ġpak": 2259,
      "Ġle": 2260,
      "Ġistv": 2261,
      "ĠÄĽmy": 2262,
      "Ġanky": 2263,
      "ĠidÄĽl": 2264,
      "Ġples": 2265,
      "Ġemnou": 2266,
      "Ġouhou": 2267,
      "Ġajk": 2268,
      "Ġichy": 2269,
      "Ġvzm": 2270,
      "ĠÃŃzr": 2271,
      "Ġupc": 2272,
      "ĠyÅĻi": 2273,
      "ĠÃ½d": 2274,
      "Ġersk": 2275,
      "Ġyzv": 2276,
      "ĠytÅĻ": 2277,
      "Ġalstv": 2278,
      "ĠÄĽtÅ¡i": 2279,
      "Ġopy": 2280,
      "Ġhrob": 2281,
      "ĠÃ¡Å¾c": 2282,
      "Ġasna": 2283,
      "Ġrvi": 2284,
      "Ġbz": 2285,
      "ĠbÄĽ": 2286,
      "ĠÅ¯Äį": 2287,
      "Ġazk": 2288,
      "ĠvyÅ¡": 2289,
      "Ġzkl": 2290,
      "ĠÃºb": 2291,
      "ĠÃ¡str": 2292,
      "Ġicy": 2293,
      "ĠhruÄı": 2294,
      "Ġilc": 2295,
      "Ġavym": 2296,
      "ĠvÅ¡ak": 2297,
      "Ġecky": 2298,
      "Ġovych": 2299,
      "ĠbuÄı": 2300,
      "Ġulk": 2301,
      "Ġyna": 2302,
      "ĠlÅĪ": 2303,
      "ĠXXXAXA": 2304,
      "ĠÄĽdi": 2305,
      "ĠÅĻad": 2306,
      "Ġavb": 2307,
      "Ġazal": 2308,
      "Ġopt": 2309,
      "ĠÃºsv": 2310,
      "ĠXABAB": 2311,
      "Ġadly": 2312,
      "Ġedal": 2313,
      "Ġorstv": 2314,
      "Ġedou": 2315,
      "Ġraz": 2316,
      "Ġodou": 2317,
      "ĠdÄĽl": 2318,
      "Ġouhl": 2319,
      "Ġojt": 2320,
      "Ġels": 2321,
      "zv": 2322,
      "ĠÃ¡nb": 2323,
      "Ġboj": 2324,
      "Ġenky": 2325,
      "Ġosled": 2326,
      "ĠalÄį": 2327,
      "Ġumr": 2328,
      "ip": 2329,
      "Ġuln": 2330,
      "Ġavem": 2331,
      "ĠÃ¡nsk": 2332,
      "ĠoÄįt": 2333,
      "osÅ¥": 2334,
      "ĠykÅĻ": 2335,
      "Ġodne": 2336,
      "Ġtve": 2337,
      "Ġalil": 2338,
      "ĠÅ¾d": 2339,
      "Ġrdn": 2340,
      "Ġectv": 2341,
      "Ġect": 2342,
      "ĠÃ¡chn": 2343,
      "Ġshr": 2344,
      "ĠrÅ¡t": 2345,
      "Ġetv": 2346,
      "Ġkol": 2347,
      "Ġilj": 2348,
      "ĠÄĽls": 2349,
      "Ġiad": 2350,
      "ĠÃŃmsk": 2351,
      "ĠÄĽlk": 2352,
      "ĠÅ¡el": 2353,
      "Ġyln": 2354,
      "ĠeÄįt": 2355,
      "uÅ¾": 2356,
      "ĠeÅ¾n": 2357,
      "Ġovym": 2358,
      "Ġejsl": 2359,
      "Ġmit": 2360,
      "Ġajic": 2361,
      "ĠesÄį": 2362,
      "Ġozi": 2363,
      "ĠtiÅ¾": 2364,
      "Ġidem": 2365,
      "Ġstat": 2366,
      "ĠinÄį": 2367,
      "ĠÄĽsÅ¥": 2368,
      "Ġskal": 2369,
      "Ġichem": 2370,
      "Ġsnem": 2371,
      "Ġdat": 2372,
      "Ġrnk": 2373,
      "Ġelou": 2374,
      "Ġebes": 2375,
      "ĠÃŃÅ¡l": 2376,
      "Ġuby": 2377,
      "Ġymp": 2378,
      "ABXB": 2379,
      "Ġchlad": 2380,
      "ĠÃ¡Å¾k": 2381,
      "ĠiÅ¡tÄĽ": 2382,
      "ĠvpÅĻ": 2383,
      "ĠÄĽmu": 2384,
      "Ġopn": 2385,
      "Ġalc": 2386,
      "Ġesem": 2387,
      "Ġeslo": 2388,
      "Ġelu": 2389,
      "Ġvim": 2390,
      "Ġlist": 2391,
      "ĠÃ½Å¡t": 2392,
      "Ġadny": 2393,
      "Ġvod": 2394,
      "ĠÅ¾hn": 2395,
      "Ġastr": 2396,
      "ĠiÄįc": 2397,
      "ĠÃ¡nc": 2398,
      "Ġvi": 2399,
      "Ġavsk": 2400,
      "Ġepy": 2401,
      "Ġisku": 2402,
      "Ġechy": 2403,
      "Ġdne": 2404,
      "Ġivym": 2405,
      "Ġudem": 2406,
      "Ġ30": 2407,
      "ĠXABABX": 2408,
      "ĠÃ¡vk": 2409,
      "Ġabn": 2410,
      "Ġvpl": 2411,
      "Ġadka": 2412,
      "Ġtom": 2413,
      "Ġuny": 2414,
      "Ġeus": 2415,
      "Ġostm": 2416,
      "ys": 2417,
      "Ġipn": 2418,
      "Ġapc": 2419,
      "Ġykv": 2420,
      "ĠÄĽtstv": 2421,
      "Ġruch": 2422,
      "Ġedli": 2423,
      "Ġea": 2424,
      "Ġorg": 2425,
      "Ġobch": 2426,
      "Ġozbr": 2427,
      "Ġicim": 2428,
      "eÄı": 2429,
      "ĠÄįest": 2430,
      "ĠouÅĻl": 2431,
      "Ġalky": 2432,
      "ĠÄĽÅĻt": 2433,
      "Ġadnou": 2434,
      "Ġinek": 2435,
      "Ġachem": 2436,
      "Ġhost": 2437,
      "ĠÃ©dl": 2438,
      "ĠhÅĻich": 2439,
      "Ġezh": 2440,
      "Ġadost": 2441,
      "ĠoÄįil": 2442,
      "ĠÃŃÅ¡Å¥": 2443,
      "Ġchram": 2444,
      "Ġasny": 2445,
      "ĠaÅ¾b": 2446,
      "Ġumu": 2447,
      "Ġrdci": 2448,
      "ĠrÅ¡k": 2449,
      "Ġproud": 2450,
      "ĠÃŃÅ¾k": 2451,
      "Ġrpn": 2452,
      "Ġino": 2453,
      "Ġlna": 2454,
      "Ġusp": 2455,
      "Ġael": 2456,
      "ĠÃºv": 2457,
      "ĠÃ½Äįk": 2458,
      "Ġobi": 2459,
      "ĠolÅ¡": 2460,
      "pr": 2461,
      "ĠÄĽstsk": 2462,
      "ÄĽk": 2463,
      "Ġejh": 2464,
      "Ġovan": 2465,
      "Ġerg": 2466,
      "Ġjh": 2467,
      "Ġdym": 2468,
      "ĠÄĽdÄĽl": 2469,
      "aÄį": 2470,
      "ĠÃ¡zl": 2471,
      "ĠkÅ¡t": 2472,
      "Ġihu": 2473,
      "ĠÅ¯tk": 2474,
      "ĠXABBA": 2475,
      "Ġiba": 2476,
      "Ġonil": 2477,
      "Ġatstv": 2478,
      "Ġazu": 2479,
      "Ġivam": 2480,
      "ÄĽj": 2481,
      "ĠiÅ¾Å¡": 2482,
      "Ġjsi": 2483,
      "Ġdnu": 2484,
      "ĠÃ¡hr": 2485,
      "ĠumÄį": 2486,
      "Ġerd": 2487,
      "ĠijÄı": 2488,
      "ĠÃ©lk": 2489,
      "Ġezdc": 2490,
      "Ġsvuj": 2491,
      "ĠdÅ¾": 2492,
      "Ġsyn": 2493,
      "ĠÅ¾il": 2494,
      "Ġzvuk": 2495,
      "Ġoctv": 2496,
      "ĠÃºÅĻ": 2497,
      "Ġitky": 2498,
      "Ġdni": 2499,
      "Ġadil": 2500,
      "Ġikm": 2501,
      "Ġurv": 2502,
      "op": 2503,
      "Ġoukl": 2504,
      "ĠvÄĽk": 2505,
      "Ġmoc": 2506,
      "Ġyhr": 2507,
      "Ġenni": 2508,
      "Ġvzduch": 2509,
      "ĠavÅ¡t": 2510,
      "Ġolg": 2511,
      "ĠÄĽstn": 2512,
      "Ġajem": 2513,
      "Ġelky": 2514,
      "Ġock": 2515,
      "ÄĽch": 2516,
      "Ġepe": 2517,
      "Ġenka": 2518,
      "Ġmych": 2519,
      "ĠypÅĻ": 2520,
      "Ġetm": 2521,
      "ĠÅ¾el": 2522,
      "Ġustl": 2523,
      "ĠoÅ¾t": 2524,
      "Ġstrach": 2525,
      "Ġtvuj": 2526,
      "Ġivych": 2527,
      "Ġesta": 2528,
      "Ġhrad": 2529,
      "Ġens": 2530,
      "ĠÅ¥": 2531,
      "ĠahÅĻm": 2532,
      "ĠAAXBBX": 2533,
      "Ġjim": 2534,
      "ĠalÅ¡": 2535,
      "Ġatv": 2536,
      "Ġito": 2537,
      "Ġero": 2538,
      "Ġoze": 2539,
      "ĠÅ¾ar": 2540,
      "ĠozÅĻ": 2541,
      "Ġamt": 2542,
      "Ġanul": 2543,
      "Ġake": 2544,
      "Ġslov": 2545,
      "Ġodni": 2546,
      "Ġovna": 2547,
      "Ġejdr": 2548,
      "Ġjit": 2549,
      "ĠhnÄĽv": 2550,
      "ĠatÄį": 2551,
      "Ġavych": 2552,
      "Ġklam": 2553,
      "Ġjdou": 2554,
      "Ġuct": 2555,
      "ĠÅ¾v": 2556,
      "Ġakal": 2557,
      "Ġuzi": 2558,
      "ĠidnÄĽ": 2559,
      "ĠemÅ¾": 2560,
      "ABX": 2561,
      "ĠÃŃckr": 2562,
      "ĠÃŃsl": 2563,
      "Ġkles": 2564,
      "Ġisp": 2565,
      "ĠÃŃzl": 2566,
      "Ġychn": 2567,
      "Ġital": 2568,
      "Ġopil": 2569,
      "Ġujm": 2570,
      "ĠÃ¡chv": 2571,
      "ĠmÅ¡": 2572,
      "ĠvÄĽc": 2573,
      "Ġevd": 2574,
      "Ġarh": 2575,
      "Ġeps": 2576,
      "Ġisn": 2577,
      "Ġuze": 2578,
      "ĠujeÅ¡": 2579,
      "Ġohd": 2580,
      "ĠÅ¯rÄį": 2581,
      "Ġean": 2582,
      "Ġostem": 2583,
      "Ġesty": 2584,
      "ĠzÄį": 2585,
      "Ġuchv": 2586,
      "Ġedt": 2587,
      "Ġkraj": 2588,
      "Ġazel": 2589,
      "Ġeds": 2590,
      "ĠÃŃtÅĻ": 2591,
      "Ġuha": 2592,
      "ĠaÅĪt": 2593,
      "ĠXABBAX": 2594,
      "ĠetÄĽ": 2595,
      "Ġgl": 2596,
      "Ġatych": 2597,
      "Ġozkl": 2598,
      "ĠtÅĻt": 2599,
      "ĠÄĽnim": 2600,
      "Ġute": 2601,
      "ĠubÅ¡": 2602,
      "ĠÅ¡at": 2603,
      "Ġoupl": 2604,
      "Ġysm": 2605,
      "Ġuta": 2606,
      "Ġrsl": 2607,
      "Ġyskn": 2608,
      "Ġyty": 2609,
      "Ġemdl": 2610,
      "ĠuÅĪ": 2611,
      "ĠÄĽÅ¡Å¥": 2612,
      "Ġobou": 2613,
      "ĠzÅ¾": 2614,
      "Ġiov": 2615,
      "Ġacel": 2616,
      "Ġypt": 2617,
      "ĠoÄık": 2618,
      "Ġmraz": 2619,
      "ĠoztÅĻ": 2620,
      "Ġagd": 2621,
      "Ġsil": 2622,
      "Ġiumf": 2623,
      "ĠzkÅĻ": 2624,
      "Ġoudy": 2625,
      "ĠzÅĻel": 2626,
      "Ġema": 2627,
      "Ġne": 2628,
      "Ġaskou": 2629,
      "Ġiol": 2630,
      "Ġamr": 2631,
      "Ġrha": 2632,
      "Ġeht": 2633,
      "Ġavam": 2634,
      "ĠÄĽjÅ¾": 2635,
      "Ġynul": 2636,
      "Ġimb": 2637,
      "ĠyÄįk": 2638,
      "Ġlkn": 2639,
      "Ġjich": 2640,
      "Ġesou": 2641,
      "ĠasÅ¡": 2642,
      "ĠouÅ¾il": 2643,
      "ĠozÄį": 2644,
      "Ġkruh": 2645,
      "Ġesi": 2646,
      "Ġustr": 2647,
      "ĠeÃ¡n": 2648,
      "Ġyg": 2649,
      "up": 2650,
      "uv": 2651,
      "ĠÃºm": 2652,
      "Ġuhn": 2653,
      "Ġodli": 2654,
      "Ġolb": 2655,
      "Ġivc": 2656,
      "ĠaÄįku": 2657,
      "Ġusy": 2658,
      "ĠaÅĻsk": 2659,
      "Ġasnou": 2660,
      "Ġers": 2661,
      "Ġejsm": 2662,
      "ĠehÄį": 2663,
      "ĠeÄįer": 2664,
      "Ġyma": 2665,
      "ĠÃºstr": 2666,
      "Ġtmou": 2667,
      "ĠeÅĻsk": 2668,
      "Ġezc": 2669,
      "Ġolna": 2670,
      "Ġkrok": 2671,
      "Ġeuv": 2672,
      "Ġnes": 2673,
      "ĠÃºkr": 2674,
      "Ġenci": 2675,
      "Ġdruh": 2676,
      "Ġutr": 2677,
      "Ġrej": 2678,
      "Ġobv": 2679,
      "Ġapi": 2680,
      "ĠÃŃvc": 2681,
      "ĠÄĽÅĪ": 2682,
      "Ġochl": 2683,
      "Ġvzpj": 2684,
      "ĠÄĽci": 2685,
      "Ġusti": 2686,
      "Ġvk": 2687,
      "Ġeska": 2688,
      "Ġahem": 2689,
      "Ġyll": 2690,
      "Ġsbor": 2691,
      "ĠmeÄį": 2692,
      "Ġaven": 2693,
      "ĠouÅ¾n": 2694,
      "Ġshn": 2695,
      "ĠÃ¡vc": 2696,
      "Ġtvych": 2697,
      "ĠÄĽno": 2698,
      "Ġykr": 2699,
      "Ġemne": 2700,
      "ĠÄĽhn": 2701,
      "Ġysy": 2702,
      "ĠÄĽlc": 2703,
      "ĠÃ³m": 2704,
      "Ġzde": 2705,
      "Ġojem": 2706,
      "ĠmaÅ¡": 2707,
      "ĠtÄĽch": 2708,
      "ĠeÄįku": 2709,
      "ĠÅ¯Å¾n": 2710,
      "Ġadle": 2711,
      "Ġinne": 2712,
      "ĠÄĽkc": 2713,
      "Ġrkl": 2714,
      "ĠdÅ¾b": 2715,
      "ĠÅ¾en": 2716,
      "ĠÄĽzdy": 2717,
      "ĠÃ³r": 2718,
      "Ġain": 2719,
      "Ġja": 2720,
      "ĠeÄįek": 2721,
      "eÄį": 2722,
      "ĠÄĽtm": 2723,
      "Ġobkl": 2724,
      "Ġrstv": 2725,
      "Ġudr": 2726,
      "Ġien": 2727,
      "Ġevy": 2728,
      "ĠvdÄĽk": 2729,
      "Ġoll": 2730,
      "Ġdiv": 2731,
      "ĠÅĻk": 2732,
      "ĠÄĽkt": 2733,
      "Ġazd": 2734,
      "ĠaÅ¡el": 2735,
      "ĠdlaÅĪ": 2736,
      "Ġdam": 2737,
      "Ġandr": 2738,
      "Ġook": 2739,
      "ĠÃ¡ml": 2740,
      "Ġenec": 2741,
      "Ġlnou": 2742,
      "Ġuhem": 2743,
      "Ġanych": 2744,
      "ĠimÄĽ": 2745,
      "Ġastni": 2746,
      "Ġrstk": 2747,
      "Ġistn": 2748,
      "Ġalne": 2749,
      "Ġatm": 2750,
      "Ġeor": 2751,
      "aÅ¾": 2752,
      "un": 2753,
      "ĠÃ¡Äı": 2754,
      "Ġybr": 2755,
      "ĠÃ¡lÄį": 2756,
      "ĠÅ¯vk": 2757,
      "ur": 2758,
      "Ġeut": 2759,
      "Ġetou": 2760,
      "Ġirn": 2761,
      "Ġanj": 2762,
      "Ġazni": 2763,
      "ĠaÄįek": 2764,
      "Ġabi": 2765,
      "Ġsmrt": 2766,
      "Ġhlad": 2767,
      "ĠÄĽlou": 2768,
      "Ġidim": 2769,
      "Ġasni": 2770,
      "Ġdav": 2771,
      "ĠedÄį": 2772,
      "Ġkdes": 2773,
      "Ġuan": 2774,
      "ĠÄĽkem": 2775,
      "ĠÅ¡um": 2776,
      "Ġosty": 2777,
      "Ġahe": 2778,
      "ĠÅ¯lk": 2779,
      "Ġyzd": 2780,
      "Ġolal": 2781,
      "Ġadku": 2782,
      "Ġimu": 2783,
      "ĠÃŃpk": 2784,
      "Ġcil": 2785,
      "ĠovÄĽk": 2786,
      "Ġeop": 2787,
      "Ġons": 2788,
      "ĠÄĽrk": 2789,
      "Ġejst": 2790,
      "Ġoudil": 2791,
      "Ġajm": 2792,
      "Ġabk": 2793,
      "ĠejdÅĻ": 2794,
      "Ġipl": 2795,
      "ĠovÅ¾d": 2796,
      "ĠÄįech": 2797,
      "ĠÃºh": 2798,
      "Ġsten": 2799,
      "Ġitne": 2800,
      "Ġirem": 2801,
      "Ġeskne": 2802,
      "Ġizda": 2803,
      "ĠÅĻek": 2804,
      "Ġlnk": 2805,
      "ĠÄĽstu": 2806,
      "Ġstran": 2807,
      "Ġrzl": 2808,
      "Ġinul": 2809,
      "Ġilb": 2810,
      "Ġerp": 2811,
      "Ġarp": 2812,
      "Ġeodv": 2813,
      "Ġai": 2814,
      "Ġyth": 2815,
      "Ġvkl": 2816,
      "Ġazku": 2817,
      "ĠaÄįl": 2818,
      "yk": 2819,
      "Ġaby": 2820,
      "ĠÄĽÅ¡i": 2821,
      "Ġidal": 2822,
      "ĠutÄĽ": 2823,
      "ĠiÅ¡el": 2824,
      "ĠvzpÅĻ": 2825,
      "ĠÄĽcko": 2826,
      "Ġbol": 2827,
      "Ġsnech": 2828,
      "ĠABC": 2829,
      "Ġoubn": 2830,
      "ĠdÅĻiv": 2831,
      "Ġodem": 2832,
      "Ġschr": 2833,
      "Ġoti": 2834,
      "ĠohÅĪ": 2835,
      "Ġouzk": 2836,
      "ĠÅ¯hl": 2837,
      "ĠuÅ¾stv": 2838,
      "ĠamÄĽ": 2839,
      "Ġonem": 2840,
      "ĠÃŃhn": 2841,
      "Ġadv": 2842,
      "Ġerb": 2843,
      "ĠÅ¡tk": 2844,
      "Ġtkn": 2845,
      "ĠÃ½sm": 2846,
      "Ġozc": 2847,
      "ĠuÄįe": 2848,
      "ĠeÄįne": 2849,
      "Ġoupk": 2850,
      "ĠÃŃcn": 2851,
      "ĠÃ¡jn": 2852,
      "Ġonsk": 2853,
      "Ġozst": 2854,
      "Ġupu": 2855,
      "Ġanni": 2856,
      "Ġevu": 2857,
      "ĠrÄįi": 2858,
      "eb": 2859,
      "Ġopc": 2860,
      "Ġavzn": 2861,
      "Ġednu": 2862,
      "ĠkÅĻt": 2863,
      "Ġaes": 2864,
      "ĠaÄįt": 2865,
      "Ġavo": 2866,
      "ĠenÅ¾t": 2867,
      "ĠouÅĻe": 2868,
      "ĠÅĻiÅ¡": 2869,
      "Ġkdys": 2870,
      "Ġsny": 2871,
      "Ġug": 2872,
      "Ġerne": 2873,
      "Ġtva": 2874,
      "Ġysli": 2875,
      "Ġysta": 2876,
      "Ġebc": 2877,
      "Ġuzy": 2878,
      "ĠyÄįn": 2879,
      "ĠzvÄĽst": 2880,
      "Ġutl": 2881,
      "ĠpÄĽt": 2882,
      "Ġraj": 2883,
      "ĠeÄįnÄĽ": 2884,
      "Ġaust": 2885,
      "Ġadam": 2886,
      "Ġizt": 2887,
      "Ġetly": 2888,
      "Ġenl": 2889,
      "Ġagn": 2890,
      "Ġesc": 2891,
      "ĠÃŃms": 2892,
      "Ġsluch": 2893,
      "ĠÃ½lk": 2894,
      "Ġirk": 2895,
      "ĠoÅĻc": 2896,
      "ĠyÄįi": 2897,
      "br": 2898,
      "Ġ31": 2899,
      "Ġousm": 2900,
      "ĠÅ¾r": 2901,
      "Ġsad": 2902,
      "Ġolc": 2903,
      "ĠÃ½skn": 2904,
      "Ġonv": 2905,
      "Ġopu": 2906,
      "ĠÅ¯jÄį": 2907,
      "Ġzved": 2908,
      "Ġoupil": 2909,
      "Ġarny": 2910,
      "Ġulo": 2911,
      "Ġizy": 2912,
      "Ġouhv": 2913,
      "Ġesli": 2914,
      "ĠÄĽho": 2915,
      "ĠÃ½Å¡k": 2916,
      "Ġyle": 2917,
      "ĠÄĽhy": 2918,
      "Ġevzp": 2919,
      "ĠiÃ¡Å¡": 2920,
      "Ġubk": 2921,
      "Ġozpj": 2922,
      "Ġazky": 2923,
      "Ġodkr": 2924,
      "Ġavit": 2925,
      "ĠÃ½ml": 2926,
      "Ġidlo": 2927,
      "Ġrod": 2928,
      "ĠviÅ¡": 2929,
      "Ġuhr": 2930,
      "Ġubu": 2931,
      "ĠskraÅĪ": 2932,
      "ĠÃ½st": 2933,
      "ĠovÄį": 2934,
      "Ġiem": 2935,
      "ĠÄĽzi": 2936,
      "ĠisÅ¥": 2937,
      "Ġinal": 2938,
      "ĠÅ¡tit": 2939,
      "Ġihne": 2940,
      "Ġidny": 2941,
      "Ġuml": 2942,
      "Ġluh": 2943,
      "Ġedna": 2944,
      "Ġaiv": 2945,
      "Ġznam": 2946,
      "Ġhrat": 2947,
      "ĠÄĽstÄĽ": 2948,
      "ĠchvÄĽl": 2949,
      "ĠiÄįkou": 2950,
      "ut": 2951,
      "ĠpÅ¡": 2952,
      "ĠobÅ¾": 2953,
      "ĠÃ½z": 2954,
      "Ġarne": 2955,
      "Ġyzi": 2956,
      "Ġoubr": 2957,
      "Ġalou": 2958,
      "Ġyls": 2959,
      "Ġdob": 2960,
      "Ġatim": 2961,
      "Ġavim": 2962,
      "Ġoubc": 2963,
      "Ġojen": 2964,
      "ez": 2965,
      "Ġekne": 2966,
      "Ġeon": 2967,
      "Ġastv": 2968,
      "Ġetlo": 2969,
      "Ġotkl": 2970,
      "ĠÃŃtn": 2971,
      "ĠusÅ¥t": 2972,
      "Ġusil": 2973,
      "chn": 2974,
      "Ġmir": 2975,
      "Ġoupn": 2976,
      "Ġelka": 2977,
      "Ġoke": 2978,
      "Ġrne": 2979,
      "Ġeha": 2980,
      "ĠsÅ¾": 2981,
      "Ġitek": 2982,
      "Ġekem": 2983,
      "Ġazb": 2984,
      "ĠbÄĽd": 2985,
      "ĠeÄįka": 2986,
      "ĠÃŃnsk": 2987,
      "Ġymf": 2988,
      "ĠABB": 2989,
      "Ġtvou": 2990,
      "ĠAAAA": 2991,
      "Ġls": 2992,
      "Ġicke": 2993,
      "ĠrÅ¾i": 2994,
      "Ġutek": 2995,
      "Ġiss": 2996,
      "ĠÃ½str": 2997,
      "Ġicho": 2998,
      "Ġutkv": 2999,
      "ĠoÅ¡i": 3000,
      "ĠÄĽma": 3001,
      "Ġmym": 3002,
      "Ġelh": 3003,
      "Ġasce": 3004,
      "Ġidne": 3005,
      "ĠojÄıt": 3006,
      "ĠAXABBX": 3007,
      "Ġeto": 3008,
      "Ġamk": 3009,
      "ĠleÅ¾": 3010,
      "Ġekal": 3011,
      "Ġsml": 3012,
      "ĠeÅĻm": 3013,
      "Ġoesie": 3014,
      "Ġpout": 3015,
      "ĠÃ©c": 3016,
      "ĠÄĽnu": 3017,
      "Ġupy": 3018,
      "Ġeuz": 3019,
      "Ġuchy": 3020,
      "aÅ¡Å¥": 3021,
      "Ġdej": 3022,
      "ĠzdÅĻ": 3023,
      "ĠÄĽdy": 3024,
      "ĠÃ½kl": 3025,
      "ĠABABBX": 3026,
      "Ġeva": 3027,
      "Ġizka": 3028,
      "ĠÃ©bl": 3029,
      "Ġeun": 3030,
      "Ġerni": 3031,
      "ĠovÄĽÄı": 3032,
      "Ġein": 3033,
      "Ġozml": 3034,
      "Ġejc": 3035,
      "Ġutim": 3036,
      "ĠaÅ¾dy": 3037,
      "Ġoupi": 3038,
      "ĠavÄį": 3039,
      "Ġozz": 3040,
      "Ġarmo": 3041,
      "ĠyÅ¡ti": 3042,
      "Ġaos": 3043,
      "Ġotce": 3044,
      "Ġesly": 3045,
      "Ġschl": 3046,
      "Ġabb": 3047,
      "Ġirat": 3048,
      "Ġialk": 3049,
      "Ġysn": 3050,
      "Ġurc": 3051,
      "ĠÄįist": 3052,
      "Ġeol": 3053,
      "Ġangl": 3054,
      "Ġidy": 3055,
      "Ġochm": 3056,
      "Ġix": 3057,
      "Ġdar": 3058,
      "Ġedly": 3059,
      "Ġyba": 3060,
      "Ġpes": 3061,
      "ĠXAAXBB": 3062,
      "ĠadÄį": 3063,
      "Ġince": 3064,
      "Ġekou": 3065,
      "ĠytÄĽ": 3066,
      "Ġafr": 3067,
      "Ġalku": 3068,
      "Ġilem": 3069,
      "Ġounc": 3070,
      "Ġzvon": 3071,
      "ĠXAAA": 3072,
      "Ġilku": 3073,
      "Ġda": 3074,
      "Ġled": 3075,
      "ĠeÄįny": 3076,
      "Ġodal": 3077,
      "ĠÃ¡vÅ¡t": 3078,
      "Ġazdn": 3079,
      "Ġvir": 3080,
      "ĠojÅ¾": 3081,
      "Ġajt": 3082,
      "ill": 3083,
      "Ġvm": 3084,
      "Ġemp": 3085,
      "Ġyschl": 3086,
      "ÄĽm": 3087,
      "Ġeld": 3088,
      "Ġlhl": 3089,
      "Ġopk": 3090,
      "ĠsmÄĽs": 3091,
      "Ġzml": 3092,
      "Ġklas": 3093,
      "Ġozsv": 3094,
      "Ġazil": 3095,
      "ĠÅ¯rk": 3096,
      "Ġuf": 3097,
      "ĠÄĽÅĻil": 3098,
      "Ġlc": 3099,
      "Ġodkl": 3100,
      "ĠÅĻeÄį": 3101,
      "Ġotou": 3102,
      "Ġehne": 3103,
      "Ġchvil": 3104,
      "Ġonb": 3105,
      "Ġomc": 3106,
      "Ġuzr": 3107,
      "ĠvÅ¡e": 3108,
      "Ġblesk": 3109,
      "Ġivu": 3110,
      "Ġechce": 3111,
      "Ġisto": 3112,
      "Ġedle": 3113,
      "Ġiel": 3114,
      "ĠoÅĻen": 3115,
      "Ġhral": 3116,
      "Ġepi": 3117,
      "ĠoÅ¡kl": 3118,
      "Ġize": 3119,
      "Ġyte": 3120,
      "Ġavt": 3121,
      "ĠÃŃÅĻsk": 3122,
      "Ġtich": 3123,
      "Ġahly": 3124,
      "Ġaivn": 3125,
      "Ġyto": 3126,
      "Ġanny": 3127,
      "Ġydn": 3128,
      "ĠaÄįky": 3129,
      "ĠÃºsk": 3130,
      "Ġacn": 3131,
      "ĠeÄįna": 3132,
      "Ġnach": 3133,
      "ĠÅ¾iv": 3134,
      "Ġspi": 3135,
      "ĠiÅ¾il": 3136,
      "ĠuvÅ¡": 3137,
      "ĠakÅĻ": 3138,
      "Ġyny": 3139,
      "Ġeze": 3140,
      "Ġukol": 3141,
      "Ġeckd": 3142,
      "Ġoss": 3143,
      "Ġykem": 3144,
      "Ġkras": 3145,
      "Ġyzp": 3146,
      "Ġval": 3147,
      "ĠÄĽÅ¡tc": 3148,
      "ĠÃŃmt": 3149,
      "ĠÃ½hn": 3150,
      "Ġadli": 3151,
      "Ġejbl": 3152,
      "ĠspiÅ¡": 3153,
      "Ġatit": 3154,
      "Ġanch": 3155,
      "Ġodkv": 3156,
      "Ġomp": 3157,
      "ĠÄĽnÄĽ": 3158,
      "Ġyss": 3159,
      "Ġpit": 3160,
      "XAX": 3161,
      "ĠaÅ¾t": 3162,
      "Ġzdvih": 3163,
      "Ġenek": 3164,
      "Ġerny": 3165,
      "Ġlze": 3166,
      "Ġovim": 3167,
      "Ġiram": 3168,
      "Ġsmal": 3169,
      "Ġachm": 3170,
      "Ġacen": 3171,
      "ĠuÅ¾sk": 3172,
      "ĠAAXXBB": 3173,
      "Ġatne": 3174,
      "Ġakhl": 3175,
      "Ġlem": 3176,
      "Ġizk": 3177,
      "Ġyji": 3178,
      "Ġynem": 3179,
      "ĠennÄĽ": 3180,
      "Ġykn": 3181,
      "Ġtah": 3182,
      "Ġrek": 3183,
      "ĠumÄĽl": 3184,
      "Ġybl": 3185,
      "ĠznÄĽl": 3186,
      "ĠÃŃÅ¾t": 3187,
      "Ġstesk": 3188,
      "Ġesum": 3189,
      "Ġvzdor": 3190,
      "Ġyru": 3191,
      "Ġiar": 3192,
      "ĠniÅ¾": 3193,
      "Ġecn": 3194,
      "Ġtim": 3195,
      "ĠÅ¡ÅĪ": 3196,
      "Ġuvi": 3197,
      "ĠÃ½dn": 3198,
      "ĠspÄĽch": 3199,
      "Ġidsky": 3200,
      "Ġolku": 3201,
      "Ġubr": 3202,
      "ĠsÅĻ": 3203,
      "ĠÃ½rsk": 3204,
      "Ġehce": 3205,
      "Ġrzn": 3206,
      "ĠbÅĻeh": 3207,
      "Ġlesk": 3208,
      "Ġatym": 3209,
      "Ġrvy": 3210,
      "ĠistÅ¡": 3211,
      "Ġvln": 3212,
      "Ġnech": 3213,
      "Ġplat": 3214,
      "ĠeuzÅĻ": 3215,
      "ĠuÅ¡il": 3216,
      "Ġistu": 3217,
      "Ġouho": 3218,
      "Ġuvil": 3219,
      "Ġubin": 3220,
      "Ġyrt": 3221,
      "ĠÃ¡ÅĻsk": 3222,
      "Ġmech": 3223,
      "Ġepta": 3224,
      "Ġadna": 3225,
      "Ġsnach": 3226,
      "Ġstrom": 3227,
      "Ġychu": 3228,
      "Ġance": 3229,
      "ĠÄĽnn": 3230,
      "ĠtÅĻas": 3231,
      "Ġemstvi": 3232,
      "Ġesch": 3233,
      "ĠudÅ¡": 3234,
      "Ġavat": 3235,
      "ĠaÅĻm": 3236,
      "ĠÃ½Å¥": 3237,
      "ĠÄĽnce": 3238,
      "Ġvlast": 3239,
      "Ġijt": 3240,
      "Ġaml": 3241,
      "Ġtvym": 3242,
      "ĠiÄįe": 3243,
      "Ġetkn": 3244,
      "Ġakm": 3245,
      "ĠiÅ¡n": 3246,
      "ĠÃºkl": 3247,
      "ĠÃ¡pn": 3248,
      "Ġoctn": 3249,
      "Ġydr": 3250,
      "ĠidÄĽt": 3251,
      "Ġupi": 3252,
      "Ġacich": 3253,
      "Ġohled": 3254,
      "ĠomnÄĽl": 3255,
      "Ġafn": 3256,
      "Ġemr": 3257,
      "ĠÄįiÅ¡": 3258,
      "Ġovz": 3259,
      "Ġsni": 3260,
      "Ġotci": 3261,
      "Ġenne": 3262,
      "ĠeÅ¡i": 3263,
      "Ġuna": 3264,
      "ĠlÄįi": 3265,
      "ĠyÅ¡Å¡i": 3266,
      "Ġimal": 3267,
      "Ġitro": 3268,
      "Ġanci": 3269,
      "Ġatel": 3270,
      "Ġvzkv": 3271,
      "ĠaÅ¾sk": 3272,
      "ĠÃ¡rm": 3273,
      "Ġantn": 3274,
      "Ġzch": 3275,
      "Ġabc": 3276,
      "Ġbrat": 3277,
      "ĠarnÄĽ": 3278,
      "Ġrzy": 3279,
      "ĠehÅĻ": 3280,
      "ĠestÄĽ": 3281,
      "ĠÄĽÅ¾Å¡": 3282,
      "ĠÄĽÄįne": 3283,
      "Ġezna": 3284,
      "Ġvztek": 3285,
      "ĠXAABXB": 3286,
      "ĠÄĽÅ¾e": 3287,
      "hr": 3288,
      "Ġstan": 3289,
      "Ġplal": 3290,
      "Ġobil": 3291,
      "Ġikt": 3292,
      "Ġoucich": 3293,
      "Ġchvat": 3294,
      "Ġiam": 3295,
      "Ġars": 3296,
      "Ġapj": 3297,
      "ĠatnÄĽ": 3298,
      "Ġmzd": 3299,
      "Ġstk": 3300,
      "Ġalce": 3301,
      "Ġplen": 3302,
      "Ġytem": 3303,
      "ĠÃ³l": 3304,
      "Ġrsc": 3305,
      "Ġecha": 3306,
      "Ġabsk": 3307,
      "Ġran": 3308,
      "Ġarr": 3309,
      "oup": 3310,
      "Ġlp": 3311,
      "Ġoblak": 3312,
      "Ġudne": 3313,
      "Ġutna": 3314,
      "Ġojich": 3315,
      "ÄĽz": 3316,
      "Ġlb": 3317,
      "Ġostne": 3318,
      "ĠomÅ¡": 3319,
      "Ġsoud": 3320,
      "Ġytne": 3321,
      "Ġoucim": 3322,
      "Ġibr": 3323,
      "ĠaÄįna": 3324,
      "Ġouka": 3325,
      "sl": 3326,
      "ĠÄįin": 3327,
      "Ġuda": 3328,
      "ĠamÅ¾ik": 3329,
      "ĠvÅ¾dy": 3330,
      "Ġyby": 3331,
      "ĠÄĽb": 3332,
      "Ġidel": 3333,
      "ĠÄĽrne": 3334,
      "ĠsÄį": 3335,
      "Ġtmach": 3336,
      "Ġae": 3337,
      "Ġanna": 3338,
      "Ġivo": 3339,
      "ĠaÅ¡ti": 3340,
      "Ġaskl": 3341,
      "ĠrsÅ¥": 3342,
      "Ġuzdr": 3343,
      "ust": 3344,
      "Ġorv": 3345,
      "ĠeurÄį": 3346,
      "Ġobm": 3347,
      "Ġozchv": 3348,
      "ĠÃ³d": 3349,
      "ep": 3350,
      "Ġotm": 3351,
      "Ġext": 3352,
      "Ġrok": 3353,
      "Ġlan": 3354,
      "Ġvzne": 3355,
      "Ġapal": 3356,
      "Ġimp": 3357,
      "Ġlzy": 3358,
      "Ġadm": 3359,
      "Ġisr": 3360,
      "Ġozch": 3361,
      "Ġenech": 3362,
      "Ġilost": 3363,
      "Ġejkl": 3364,
      "Ġudil": 3365,
      "ĠaÄįil": 3366,
      "Ġschn": 3367,
      "Ġone": 3368,
      "ĠplaÄį": 3369,
      "ĠaÄįne": 3370,
      "Ġahnou": 3371,
      "Ġpar": 3372,
      "ĠoÅĻem": 3373,
      "Ġizv": 3374,
      "ub": 3375,
      "Ġkout": 3376,
      "ĠadÅ¡i": 3377,
      "Ġadech": 3378,
      "Ġavzd": 3379,
      "Ġosil": 3380,
      "Ġomoc": 3381,
      "ĠylÅ¥": 3382,
      "Ġazl": 3383,
      "Ġkmet": 3384,
      "Ġaskv": 3385,
      "Ġinil": 3386,
      "Ġta": 3387,
      "Ġetech": 3388,
      "Ġosim": 3389,
      "Ġouta": 3390,
      "Ġzhn": 3391,
      "Ġozpt": 3392,
      "Ġodit": 3393,
      "ĠzpÅĻ": 3394,
      "Ġves": 3395,
      "Ġprah": 3396,
      "Ġesich": 3397,
      "Ġahv": 3398,
      "Ġyvr": 3399,
      "ĠiÃ¡n": 3400,
      "Ġosu": 3401,
      "ab": 3402,
      "ĠÄĽÅĻe": 3403,
      "Ġejme": 3404,
      "Ġrkn": 3405,
      "ĠÃ©zt": 3406,
      "Ġzdl": 3407,
      "ĠaÅĪk": 3408,
      "Ġavne": 3409,
      "Ġonce": 3410,
      "Ġunci": 3411,
      "Ġdik": 3412,
      "Ġskvost": 3413,
      "ĠÄĽÄįna": 3414,
      "Ġvnad": 3415,
      "Ġare": 3416,
      "ĠÃ¶": 3417,
      "Ġztm": 3418,
      "Ġmoh": 3419,
      "Ġorach": 3420,
      "Ġsna": 3421,
      "kach": 3422,
      "Ġipy": 3423,
      "Ġilny": 3424,
      "Ġbit": 3425,
      "Ġhlav": 3426,
      "Ġimy": 3427,
      "Ġjste": 3428,
      "ĠÅ¡pr": 3429,
      "ĠadnÄĽ": 3430,
      "ĠÄĽÅ¡tb": 3431,
      "ĠpÄĽst": 3432,
      "Ġroj": 3433,
      "ĠomÄĽ": 3434,
      "Ġvstal": 3435,
      "Ġuzk": 3436,
      "Ġinstv": 3437,
      "Ġops": 3438,
      "ĠÃŃbÅĻ": 3439,
      "Ġjde": 3440,
      "Ġakk": 3441,
      "Ġalp": 3442,
      "ĠÄĽzt": 3443,
      "ĠÃ½tk": 3444,
      "ia": 3445,
      "ABC": 3446,
      "ĠÃ½nk": 3447,
      "ĠABCABC": 3448,
      "Ġyky": 3449,
      "Ġmem": 3450,
      "ĠÄĽsic": 3451,
      "Ġitou": 3452,
      "Ġved": 3453,
      "Ġomb": 3454,
      "ĠÃ©bc": 3455,
      "XXB": 3456,
      "ĠarÄį": 3457,
      "ĠzÅĻim": 3458,
      "Ġild": 3459,
      "Ġocl": 3460,
      "Ġorb": 3461,
      "Ġ32": 3462,
      "Ġokrat": 3463,
      "Ġoucha": 3464,
      "Ġax": 3465,
      "XXX": 3466,
      "Ġztl": 3467,
      "ĠslyÅ¡": 3468,
      "Ġinna": 3469,
      "ĠAXABXB": 3470,
      "Ġiot": 3471,
      "Ġilm": 3472,
      "Ġedam": 3473,
      "Ġobst": 3474,
      "Ġotec": 3475,
      "Ġose": 3476,
      "Ġsnil": 3477,
      "Ġvrah": 3478,
      "ĠmÄĽst": 3479,
      "Ġjal": 3480,
      "Ġalsk": 3481,
      "Ġebce": 3482,
      "Ġezi": 3483,
      "ĠÄĽsto": 3484,
      "ĠÄĽchy": 3485,
      "Ġmaj": 3486,
      "Ġeske": 3487,
      "Ġervn": 3488,
      "Ġeom": 3489,
      "ĠABACCB": 3490,
      "Ġarna": 3491,
      "Ġjsme": 3492,
      "Ġekli": 3493,
      "ĠlÅ¾n": 3494,
      "ÄĽÅĻ": 3495,
      "ĠÃ¡Å¾l": 3496,
      "Ġostou": 3497,
      "ĠÄĽdu": 3498,
      "Ġusty": 3499,
      "Ġeuh": 3500,
      "ĠzbraÅĪ": 3501,
      "Ġodsk": 3502,
      "ĠÄĽÅ¡k": 3503,
      "ĠÄĽcha": 3504,
      "Ġjed": 3505,
      "Ġiod": 3506,
      "Ġlev": 3507,
      "Ġapad": 3508,
      "ĠÅ¡pl": 3509,
      "Ġigr": 3510,
      "ĠidiÅ¡": 3511,
      "ĠÃŃnc": 3512,
      "Ġlne": 3513,
      "Ġatkou": 3514,
      "Ġrpc": 3515,
      "ĠoÅ¡e": 3516,
      "ĠÄĽÄįnÄĽ": 3517,
      "Ġibal": 3518,
      "ĠnaÅĪ": 3519,
      "Ġzor": 3520,
      "ĠuÅ¡tv": 3521,
      "ĠÃ¡rc": 3522,
      "Ġentl": 3523,
      "Ġhoch": 3524,
      "Ġezkr": 3525,
      "Ġinny": 3526,
      "Ġebem": 3527,
      "ĠÃ½pr": 3528,
      "Ġuin": 3529,
      "ĠedÄĽ": 3530,
      "Ġzna": 3531,
      "Ġisy": 3532,
      "ĠÅ¯Äįk": 3533,
      "ĠpÄĽl": 3534,
      "Ġonst": 3535,
      "Ġape": 3536,
      "ĠaÄįel": 3537,
      "Ġisic": 3538,
      "Ġaho": 3539,
      "Ġukem": 3540,
      "Ġikdy": 3541,
      "ĠtÅĻpyt": 3542,
      "Ġenkrat": 3543,
      "ĠÃŃÄı": 3544,
      "Ġasou": 3545,
      "Ġanil": 3546,
      "ĠÃŃtl": 3547,
      "Ġodin": 3548,
      "ĠeÅĻn": 3549,
      "Ġmuk": 3550,
      "ĠebÅĻ": 3551,
      "Ġikv": 3552,
      "Ġisky": 3553,
      "ĠÃ©Äįn": 3554,
      "ap": 3555,
      "Ġenost": 3556,
      "Ġusim": 3557,
      "ĠoÅĻit": 3558,
      "Ġaot": 3559,
      "ĠÅ¯sv": 3560,
      "Ġdnem": 3561,
      "ĠeÄįnost": 3562,
      "Ġofl": 3563,
      "ĠjuÅ¾": 3564,
      "Ġostp": 3565,
      "Ġibi": 3566,
      "Ġlip": 3567,
      "Ġechr": 3568,
      "Ġonec": 3569,
      "Ġejtm": 3570,
      "Ġarg": 3571,
      "Ġecc": 3572,
      "ĠÄĽry": 3573,
      "Ġozna": 3574,
      "ĠÃºsp": 3575,
      "Ġeklo": 3576,
      "Ġeud": 3577,
      "Ġjak": 3578,
      "Ġivost": 3579,
      "ĠÄĽjm": 3580,
      "Ġmlad": 3581,
      "Ġihla": 3582,
      "Ġepk": 3583,
      "ĠzÅ¡": 3584,
      "Ġarod": 3585,
      "ĠoÅ¾im": 3586,
      "Ġouzsk": 3587,
      "Ġadkou": 3588,
      "ĠÃŃÅ¾n": 3589,
      "Ġhrom": 3590,
      "Ġovny": 3591,
      "Ġejsv": 3592,
      "ĠbÄĽh": 3593,
      "eÅĻ": 3594,
      "ĠÃ½mk": 3595,
      "ĠeÅ¡el": 3596,
      "Ġey": 3597,
      "Ġadat": 3598,
      "Ġostk": 3599,
      "Ġejz": 3600,
      "ĠknÄĽz": 3601,
      "Ġq": 3602,
      "Ġbral": 3603,
      "ĠÄĽtly": 3604,
      "Ġemna": 3605,
      "Ġodna": 3606,
      "Ġitku": 3607,
      "ĠerÄį": 3608,
      "ĠÃ½j": 3609,
      "Ġpil": 3610,
      "Ġecka": 3611,
      "Ġyra": 3612,
      "ĠaÅ¾Å¡i": 3613,
      "Ġagr": 3614,
      "Ġkvest": 3615,
      "Ġustal": 3616,
      "Ġolest": 3617,
      "Ġzlych": 3618,
      "Ġorou": 3619,
      "ĠrÅ¡i": 3620,
      "Ġejtr": 3621,
      "ĠstraÅ¾": 3622,
      "Ġhaj": 3623,
      "ĠÃ¡dv": 3624,
      "Ġatny": 3625,
      "ĠiÃ¡l": 3626,
      "Å¯": 3627,
      "Ġei": 3628,
      "Ġoo": 3629,
      "Ġkam": 3630,
      "Ġikum": 3631,
      "ĠyÅ¡k": 3632,
      "ĠatÅĻe": 3633,
      "ĠÄĽnych": 3634,
      "Ġavny": 3635,
      "ĠejnÄĽ": 3636,
      "Ã¡": 3637,
      "Ġeobs": 3638,
      "Ġibil": 3639,
      "ĠÅ¯dk": 3640,
      "Ġednim": 3641,
      "Ġdny": 3642,
      "ĠXAXAXA": 3643,
      "ĠzÅĻit": 3644,
      "Ġoukn": 3645,
      "ĠÄĽvk": 3646,
      "Ġustil": 3647,
      "ĠeÃºpr": 3648,
      "Ġilych": 3649,
      "Ġosa": 3650,
      "Ġutv": 3651,
      "Ġeztr": 3652,
      "aÅ¥": 3653,
      "ĠaÅ¾en": 3654,
      "ĠoÅĻad": 3655,
      "ĠaÅ¥t": 3656,
      "ĠolnÄĽ": 3657,
      "Ġehy": 3658,
      "Ġurg": 3659,
      "ĠornÄĽ": 3660,
      "Ġ33": 3661,
      "Ġeub": 3662,
      "iÄį": 3663,
      "ĠiÄįej": 3664,
      "ĠivaÅ¡": 3665,
      "Ġeby": 3666,
      "Ġuhou": 3667,
      "ĠÃŃtm": 3668,
      "ĠÄĽnl": 3669,
      "Ġastm": 3670,
      "Ġionu": 3671,
      "Ġoken": 3672,
      "Ġdan": 3673,
      "Ġokm": 3674,
      "ĠÄĽnec": 3675,
      "Ġplod": 3676,
      "Ġchleb": 3677,
      "ĠÃ½tv": 3678,
      "Ġkmit": 3679,
      "Ġaus": 3680,
      "ĠÃ½skl": 3681,
      "ĠaÅ¾l": 3682,
      "Ġenna": 3683,
      "ĠichÅ¾t": 3684,
      "Ġezky": 3685,
      "Ġolo": 3686,
      "Ġolil": 3687,
      "ĠÅ¡m": 3688,
      "ĠozdÄĽ": 3689,
      "Ġizni": 3690,
      "Ġtmam": 3691,
      "Ġjist": 3692,
      "ĠÄįm": 3693,
      "Ġazne": 3694,
      "Ġytv": 3695,
      "ĠatÅ¡": 3696,
      "ĠetÄĽl": 3697,
      "ĠaÅ¾il": 3698,
      "Ġoupy": 3699,
      "ĠÄĽrny": 3700,
      "Ġujd": 3701,
      "Ġurkm": 3702,
      "ĠiÄįt": 3703,
      "Ġalny": 3704,
      "ĠrÄįk": 3705,
      "ĠABACBC": 3706,
      "ĠAAXBXB": 3707,
      "Ġegr": 3708,
      "ĠdÄĽs": 3709,
      "ĠoÄįich": 3710,
      "Ġylk": 3711,
      "Ġtmy": 3712,
      "Ġitsk": 3713,
      "Ġrtk": 3714,
      "Ġtrest": 3715,
      "Ġybk": 3716,
      "Ġesna": 3717,
      "Ġizky": 3718,
      "Ġzhr": 3719,
      "Ãº": 3720,
      "ĠpÅĻed": 3721,
      "Ġizel": 3722,
      "ĠamÄį": 3723,
      "Ġzmar": 3724,
      "ĠeÅ¡li": 3725,
      "Ġocy": 3726,
      "ĠÄĽÄįny": 3727,
      "ĠuÄım": 3728,
      "Ġlhn": 3729,
      "Ġpla": 3730,
      "Ġasal": 3731,
      "Ġestou": 3732,
      "ĠozÅ¾h": 3733,
      "Ġstuj": 3734,
      "Ġott": 3735,
      "ĠABABXB": 3736,
      "Ġbled": 3737,
      "Ġilh": 3738,
      "ĠÅĻas": 3739,
      "Ġzla": 3740,
      "Ġadke": 3741,
      "Ġocha": 3742,
      "Ġepce": 3743,
      "uÄį": 3744,
      "ĠaÅ¡Å¥": 3745,
      "Ġysp": 3746,
      "Ġychr": 3747,
      "Ġacet": 3748,
      "Ġspor": 3749,
      "Ġaug": 3750,
      "Ġebky": 3751,
      "ĠABCC": 3752,
      "Ġrtech": 3753,
      "Ġerna": 3754,
      "Ġoth": 3755,
      "Ġhluk": 3756,
      "ĠXAA": 3757,
      "Ġrtem": 3758,
      "Ġeot": 3759,
      "Ġvin": 3760,
      "Ġakc": 3761,
      "Ġay": 3762,
      "Ġhad": 3763,
      "Ġrni": 3764,
      "Ġinnou": 3765,
      "Ġiant": 3766,
      "ĠedÄĽt": 3767,
      "Ġevo": 3768,
      "Ġskryt": 3769,
      "Ġzs": 3770,
      "Ġertv": 3771,
      "Ġonal": 3772,
      "ĠaznÄĽ": 3773,
      "Ġejb": 3774,
      "Ġonou": 3775,
      "ĠÄĽzstvi": 3776,
      "ĠzhÅĻ": 3777,
      "ĠÄĽdÄįi": 3778,
      "Ġair": 3779,
      "ĠevnÄĽ": 3780,
      "Ġoustn": 3781,
      "Ġelstvi": 3782,
      "ĠÃ¡sm": 3783,
      "ĠeÄįm": 3784,
      "Ġogr": 3785,
      "Ġui": 3786,
      "Ġdi": 3787,
      "Ġedp": 3788,
      "Ġikal": 3789,
      "ĠepÄį": 3790,
      "Ġanic": 3791,
      "ĠÄĽsna": 3792,
      "ĠÃ¡kn": 3793,
      "Ġalen": 3794,
      "Ġhra": 3795,
      "Ġepa": 3796,
      "ĠeÄįko": 3797,
      "ĠuÅĻi": 3798,
      "Ġorf": 3799,
      "Ġeup": 3800,
      "sÅ¥": 3801,
      "Ġuzl": 3802,
      "oub": 3803,
      "Ġacl": 3804,
      "Ġrny": 3805,
      "Ġkmen": 3806,
      "Ġiony": 3807,
      "Ġeodp": 3808,
      "Ġetne": 3809,
      "ĠaÅĻil": 3810,
      "Ġutny": 3811,
      "ĠsÅ¥": 3812,
      "Ġalych": 3813,
      "Ġzhas": 3814,
      "Ġitru": 3815,
      "Ġomdl": 3816,
      "ouÅĻ": 3817,
      "Ġbych": 3818,
      "ĠÃŃlb": 3819,
      "ĠÃ¡jm": 3820,
      "ĠAABXB": 3821,
      "ĠeÅ¡ti": 3822,
      "ĠymÅĻ": 3823,
      "Ġchrl": 3824,
      "ĠtÄĽl": 3825,
      "Ġsvr": 3826,
      "Ġostech": 3827,
      "Ġors": 3828,
      "ĠÃ³s": 3829,
      "Ġsed": 3830,
      "nic": 3831,
      "ĠvÅ¡im": 3832,
      "Ġyzr": 3833,
      "ĠedÅĻ": 3834,
      "Ġaju": 3835,
      "Ġpln": 3836,
      "Ġutky": 3837,
      "Ġenko": 3838,
      "Ġasla": 3839,
      "ĠyÅĻkn": 3840,
      "ĠouÄįi": 3841,
      "Ġais": 3842,
      "Ġump": 3843,
      "Ġzmdl": 3844,
      "Ġostny": 3845,
      "Ġoucnost": 3846,
      "Ġovd": 3847,
      "ĠaÅĻv": 3848,
      "Ġouby": 3849,
      "ĠaÅ¡li": 3850,
      "ĠaÅ¡nÄĽ": 3851,
      "Ġesne": 3852,
      "Ġutne": 3853,
      "Ġupk": 3854,
      "Ġanich": 3855,
      "Ġarni": 3856,
      "Ġdnech": 3857,
      "ĠaÅĻem": 3858,
      "Ġton": 3859,
      "ĠstÄĽn": 3860,
      "Ġivne": 3861,
      "ĠÅ¡r": 3862,
      "Ġichv": 3863,
      "Ġytil": 3864,
      "Ġzve": 3865,
      "Ġesknou": 3866,
      "Ġatra": 3867,
      "Ġambr": 3868,
      "Ġadit": 3869,
      "ĠelÅ¡": 3870,
      "Ġelne": 3871,
      "Ġans": 3872,
      "Ġavz": 3873,
      "ĠÄĽlu": 3874,
      "Ġklad": 3875,
      "Ġtlum": 3876,
      "Ġins": 3877,
      "ĠivÅĻ": 3878,
      "Ġokoj": 3879,
      "ĠoÄįni": 3880,
      "ĠÃ¡ÅĻstv": 3881,
      "Ġvpr": 3882,
      "Ġlka": 3883,
      "ĠoÅ¾ÅĪ": 3884,
      "Ġusu": 3885,
      "Ġosou": 3886,
      "Ġeskr": 3887,
      "Ġupj": 3888,
      "Ġient": 3889,
      "Ġkvas": 3890,
      "ĠÄĽÄįi": 3891,
      "Ġesny": 3892,
      "Ġaul": 3893,
      "Ġijde": 3894,
      "ÄĽd": 3895,
      "ĠÄĽkka": 3896,
      "Ġipk": 3897,
      "Ġnest": 3898,
      "Ġsled": 3899,
      "Ġelny": 3900,
      "Ġadz": 3901,
      "Ġimk": 3902,
      "Ġolik": 3903,
      "Ġprost": 3904,
      "ĠaÅ¡im": 3905,
      "ĠÄĽdÅĻ": 3906,
      "Ġurd": 3907,
      "Ġouli": 3908,
      "Ġow": 3909,
      "Ġvy": 3910,
      "ĠdÄĽv": 3911,
      "Ġojil": 3912,
      "ĠostnÄĽ": 3913,
      "ĠzeÄı": 3914,
      "ĠÄįp": 3915,
      "Ġamem": 3916,
      "oÄı": 3917,
      "Ġpry": 3918,
      "Ġasil": 3919,
      "Ġedno": 3920,
      "Ġudny": 3921,
      "Ġua": 3922,
      "Ġezst": 3923,
      "ĠÄıas": 3924,
      "Ġejde": 3925,
      "Ġbaj": 3926,
      "Ġatna": 3927,
      "ert": 3928,
      "Ġolm": 3929,
      "Ġtvor": 3930,
      "ĠdÅ¡t": 3931,
      "Ġitat": 3932,
      "ĠhleÄı": 3933,
      "ĠkÅĻik": 3934,
      "Ġiet": 3935,
      "ĠÄĽÅ¾ka": 3936,
      "ĠoÅĪsk": 3937,
      "Ġalit": 3938,
      "Ġadp": 3939,
      "ĠÅ¡kr": 3940,
      "ĠojÄım": 3941,
      "ĠrÅĪ": 3942,
      "ĠÄĽdl": 3943,
      "Ġvzlet": 3944,
      "Ġectn": 3945,
      "Ġomr": 3946,
      "Ġspad": 3947,
      "Ġacim": 3948,
      "ĠchceÅ¡": 3949,
      "Ġestry": 3950,
      "ĠiÃŃch": 3951,
      "fr": 3952,
      "ĠXXAXAX": 3953,
      "Ġideal": 3954,
      "Ġanl": 3955,
      "Ġadno": 3956,
      "Ġvznes": 3957,
      "Ġechal": 3958,
      "Ġulh": 3959,
      "Ġznak": 3960,
      "Ġrva": 3961,
      "Ġrhne": 3962,
      "ĠobÅĻe": 3963,
      "Ġmost": 3964,
      "Ġoto": 3965,
      "Ġichni": 3966,
      "ĠeÄįky": 3967,
      "Ġimr": 3968,
      "Ġustn": 3969,
      "Ġozhn": 3970,
      "ĠÃ½nsk": 3971,
      "Ġamou": 3972,
      "ĠÃŃÅĻk": 3973,
      "Ġoustr": 3974,
      "Ġozen": 3975,
      "Ġikne": 3976,
      "ĠyÅ¡im": 3977,
      "Ġobraz": 3978,
      "Ġavno": 3979,
      "ĠcÅ¾": 3980,
      "Ġevc": 3981,
      "Ġymy": 3982,
      "ĠiÅĪt": 3983,
      "Ġelb": 3984,
      "Ġevim": 3985,
      "Ġovnou": 3986,
      "ĠmÄĽj": 3987,
      "ĠudÄį": 3988,
      "Ġidk": 3989,
      "Ġsmat": 3990,
      "Ġujem": 3991,
      "Ġoupat": 3992,
      "Ġeptal": 3993,
      "Ġamo": 3994,
      "ĠeÄįl": 3995,
      "ĠoÅĻkl": 3996,
      "Ġabu": 3997,
      "Ġilym": 3998,
      "Ġahal": 3999,
      "Ġuschl": 4000,
      "Ġesb": 4001,
      "Ġostu": 4002,
      "Ġestv": 4003,
      "ĠilnÄĽ": 4004,
      "Ġshon": 4005,
      "Ġkat": 4006,
      "ĠÃ¡vsk": 4007,
      "Ġznat": 4008,
      "Ġeuk": 4009,
      "Ġniv": 4010,
      "ĠaÄįny": 4011,
      "Ġistem": 4012,
      "ĠeÄįni": 4013,
      "Ġbal": 4014,
      "Ġarj": 4015,
      "ĠyÅ¡iÅ¡": 4016,
      "ĠoÄıt": 4017,
      "Ġerr": 4018,
      "ĠaÄįka": 4019,
      "Ġbran": 4020,
      "Ġurs": 4021,
      "Ġigm": 4022,
      "Ġjih": 4023,
      "ĠedÅ¡": 4024,
      "Ġinat": 4025,
      "ĠÃ¡Å¡k": 4026,
      "ĠÃŃjn": 4027,
      "Ġidlem": 4028,
      "Ġoju": 4029,
      "Ġiml": 4030,
      "Ġejsp": 4031,
      "Ġeko": 4032,
      "Ġidat": 4033,
      "ĠlnÄĽ": 4034,
      "Ġymu": 4035,
      "ĠenÅ¡t": 4036,
      "Ġodny": 4037,
      "ĠÄĽÅĻim": 4038,
      "Ġaun": 4039,
      "Ġios": 4040,
      "ĠoÄįim": 4041,
      "Ġaro": 4042,
      "Ġertu": 4043,
      "Ġmih": 4044,
      "Ġeodvr": 4045,
      "Ġidske": 4046,
      "izd": 4047,
      "Ġejch": 4048,
      "ĠeÅ¾e": 4049,
      "ĠÅĻev": 4050,
      "Ġanym": 4051,
      "Ġozu": 4052,
      "ĠoÄįl": 4053,
      "ĠÄĽdÄĽt": 4054,
      "Ġehm": 4055,
      "ĠuÄįel": 4056,
      "ĠplaÅ¡Å¥": 4057,
      "Ġikou": 4058,
      "ĠÄĽÅ¾na": 4059,
      "ĠAABXBX": 4060,
      "Ġlad": 4061,
      "Ġebni": 4062,
      "Ġsnes": 4063,
      "Ġypj": 4064,
      "Ġelf": 4065,
      "ĠukÅĻ": 4066,
      "ĠuÅĻe": 4067,
      "Ġpel": 4068,
      "ĠÃ½zv": 4069,
      "Ġorne": 4070,
      "Ġujte": 4071,
      "Ġctnost": 4072,
      "ĠÃ¡nÄį": 4073,
      "Ġalg": 4074,
      "ĠolÅ¡t": 4075,
      "ĠÄįet": 4076,
      "ĠiÅ¡Å¡": 4077,
      "Ġochb": 4078,
      "Ġidly": 4079,
      "ĠÃ½sp": 4080,
      "Ġodie": 4081,
      "ĠÃ¡mc": 4082,
      "ĠspÄĽl": 4083,
      "Ġabe": 4084,
      "ĠABAABX": 4085,
      "ĠaÄįc": 4086,
      "Ġatkem": 4087,
      "Ġaud": 4088,
      "ĠevÅĻel": 4089,
      "Ġejj": 4090,
      "ĠezÄį": 4091,
      "ĠÃ¡sv": 4092,
      "Ġrde": 4093,
      "ĠXXXXAA": 4094,
      "Ġuzne": 4095,
      "ĠÄĽjÅ¡im": 4096,
      "ĠÃºÄįt": 4097,
      "ĠAXB": 4098,
      "Ġijel": 4099,
      "Ġavna": 4100,
      "Ġtch": 4101,
      "ĠemÅ¥": 4102,
      "Ġuste": 4103,
      "Ġaop": 4104,
      "ĠoÅĻim": 4105,
      "Ġise": 4106,
      "ĠeÅĪt": 4107,
      "Ġinnost": 4108,
      "Ġado": 4109,
      "Ġelbl": 4110,
      "Ġatt": 4111,
      "ĠÄĽze": 4112,
      "Ġotach": 4113,
      "ĠomÅĻ": 4114,
      "ĠiÄįem": 4115,
      "Ġubi": 4116,
      "ĠuÄįil": 4117,
      "Ġrsou": 4118,
      "Ġalh": 4119,
      "Ġekam": 4120,
      "Ġznal": 4121,
      "ĠeÄım": 4122,
      "ĠÃ¡pr": 4123,
      "Ġutno": 4124,
      "Ġyvst": 4125,
      "Ġanstvi": 4126,
      "Ġsnit": 4127,
      "ĠzvÄĽÅĻ": 4128,
      "Ġura": 4129,
      "Ġakat": 4130,
      "Ġasek": 4131,
      "ĠiliÅ¡": 4132,
      "Ġhloub": 4133,
      "Ġobry": 4134,
      "Ġuza": 4135,
      "Ġilie": 4136,
      "Ġoi": 4137,
      "Ġchvi": 4138,
      "ĠÅ¯tc": 4139,
      "ĠÃ¼": 4140,
      "Ġorny": 4141,
      "Ġencu": 4142,
      "Ġitka": 4143,
      "ĠÄĽchem": 4144,
      "Ġavce": 4145,
      "Ġomem": 4146,
      "ske": 4147,
      "ĠoÅ¾it": 4148,
      "ĠvznÄĽt": 4149,
      "Ġzdroj": 4150,
      "Ġrhla": 4151,
      "Ġjar": 4152,
      "Ġdol": 4153,
      "Ġluk": 4154,
      "Ġovic": 4155,
      "Ġrtu": 4156,
      "Ġuvit": 4157,
      "ĠouÅ¾k": 4158,
      "Ġenny": 4159,
      "ĠÃ½ms": 4160,
      "Ġidam": 4161,
      "Ġachy": 4162,
      "Ġelkou": 4163,
      "Ġekly": 4164,
      "Ġipp": 4165,
      "ĠoÅ¾na": 4166,
      "ĠÃŃtÅĻk": 4167,
      "Ġyf": 4168,
      "Ġpas": 4169,
      "Ġezhl": 4170,
      "ĠplaÅĪ": 4171,
      "Ġkvil": 4172,
      "Ġuet": 4173,
      "Ġihal": 4174,
      "ĠrnÄį": 4175,
      "ĠAXAXBB": 4176,
      "Ġierr": 4177,
      "Na": 4178,
      "ĠNa": 4179,
      "Ġiu": 4180,
      "Ġezne": 4181,
      "Ġspal": 4182,
      "ĠaÅ¡p": 4183,
      "Ġumb": 4184,
      "ĠouÅ¾it": 4185,
      "Ġyzni": 4186,
      "ĠNaN": 4187,
      "ĠÄĽtech": 4188,
      "ĠunÄį": 4189,
      "Ġoudem": 4190,
      "ĠaÃº": 4191,
      "Ġakum": 4192,
      "Ġirm": 4193,
      "Ġemny": 4194,
      "Ġadni": 4195,
      "Ġx": 4196,
      "ĠÅ¯ch": 4197,
      "Ġinych": 4198,
      "Ġivej": 4199,
      "Ġamkn": 4200,
      "Ġorch": 4201,
      "Ġtvem": 4202,
      "Ġitit": 4203,
      "ĠÃ½vn": 4204,
      "Ġoas": 4205,
      "Ġpou": 4206,
      "ĠodÅĪ": 4207,
      "Ġitam": 4208,
      "ĠudÄĽ": 4209,
      "Ġzdi": 4210,
      "ĠÄĽkÄį": 4211,
      "ĠoÅ¾no": 4212,
      "ĠadÅ¾": 4213,
      "Ġopad": 4214,
      "Ġlzn": 4215,
      "Ġrnou": 4216,
      "ĠejÅ¡l": 4217,
      "ĠÃ½stÅĻ": 4218,
      "Ġanf": 4219,
      "Ġezj": 4220,
      "ĠÃ©rk": 4221,
      "ĠenÅ¥": 4222,
      "Ġplam": 4223,
      "Ġazen": 4224,
      "Ġupt": 4225,
      "Ġdva": 4226,
      "ĠiÅĻil": 4227,
      "ÄĽÅ¥": 4228,
      "Ġull": 4229,
      "ĠÄĽÅĻit": 4230,
      "Ġicka": 4231,
      "Ġovsky": 4232,
      "uz": 4233,
      "Ġmhl": 4234,
      "ĠoÄįka": 4235,
      "Ġistou": 4236,
      "Ġesh": 4237,
      "Ġinym": 4238,
      "ĠÄĽÅ¡c": 4239,
      "ĠozstÅĻ": 4240,
      "AC": 4241,
      "Ġlest": 4242,
      "Ġuto": 4243,
      "Ġunou": 4244,
      "ĠabÅĻ": 4245,
      "Ġrsti": 4246,
      "Ġsval": 4247,
      "Ġonky": 4248,
      "Ġrdi": 4249,
      "ĠÄĽkl": 4250,
      "ĠiÄįkach": 4251,
      "Ġeuzn": 4252,
      "Ġomstv": 4253,
      "ĠoheÅĪ": 4254,
      "Ġopit": 4255,
      "ĠuchÅĻ": 4256,
      "Ġuhe": 4257,
      "Ġouhe": 4258,
      "Ġaskn": 4259,
      "ozd": 4260,
      "Ġzda": 4261,
      "ĠiÅ¾t": 4262,
      "Ġouchn": 4263,
      "Ġezpr": 4264,
      "Ġhrou": 4265,
      "ĠaÄįen": 4266,
      "ĠÄĽzem": 4267,
      "ĠÃ¡bÅĻ": 4268,
      "ĠÃŃpn": 4269,
      "ĠekÅĻ": 4270,
      "ĠÄĽjte": 4271,
      "ÄĽsÅ¥": 4272,
      "ĠchÅĻt": 4273,
      "ĠABAXXB": 4274,
      "Ġmed": 4275,
      "Ġedim": 4276,
      "Ġamku": 4277,
      "Ġonku": 4278,
      "Ġodnou": 4279,
      "Ġenkou": 4280,
      "Ġibn": 4281,
      "Ġeptn": 4282,
      "Ġasly": 4283,
      "Ġadrech": 4284,
      "Ġozmn": 4285,
      "ĠÃ½hr": 4286,
      "Ġkov": 4287,
      "Ġynout": 4288,
      "Ġodstr": 4289,
      "rat": 4290,
      "Ġolf": 4291,
      "Ġoben": 4292,
      "Ġojc": 4293,
      "Ġonie": 4294,
      "ĠozhÅĻ": 4295,
      "Ġrov": 4296,
      "Ġicen": 4297,
      "ĠizeÅĪ": 4298,
      "ĠÄĽsu": 4299,
      "Ġythm": 4300,
      "eÅ¾": 4301,
      "Ġrym": 4302,
      "Ġanum": 4303,
      "ĠÃ¡vs": 4304,
      "Ġouce": 4305,
      "Ġiskne": 4306,
      "ij": 4307,
      "Ġmy": 4308,
      "ĠznaÅ¡": 4309,
      "Ġatry": 4310,
      "ĠeÅ¥t": 4311,
      "Ġston": 4312,
      "ĠudÅĻ": 4313,
      "ĠeÅ¡ka": 4314,
      "Ġlek": 4315,
      "ĠÃ¡zc": 4316,
      "Ġychal": 4317,
      "Ġedlo": 4318,
      "Ġeau": 4319,
      "Ġemch": 4320,
      "Ġovstvi": 4321,
      "ĠÄĽdc": 4322,
      "ĠaÃºp": 4323,
      "Ġong": 4324,
      "ĠÃŃÅĪk": 4325,
      "Ġjel": 4326,
      "Ġadek": 4327,
      "Ġoucy": 4328,
      "Ġvrat": 4329,
      "ĠÄĽjÅ¡ich": 4330,
      "Ġjat": 4331,
      "Ġkus": 4332,
      "Ġbok": 4333,
      "ĠsnÄĽm": 4334,
      "ĠÄĽstk": 4335,
      "Ġanit": 4336,
      "Ġtluk": 4337,
      "Ġpsal": 4338,
      "ĠvÄĽÅ¾": 4339,
      "Ġevzb": 4340,
      "Ġhrot": 4341,
      "ĠaÅ¡ich": 4342,
      "Ġobra": 4343,
      "Ġaet": 4344,
      "Ġpul": 4345,
      "ĠnuÅ¾": 4346,
      "ĠÄĽlych": 4347,
      "Ġhnal": 4348,
      "Ġztich": 4349,
      "Ġezdy": 4350,
      "Ġobzor": 4351,
      "ĠuÅĪk": 4352,
      "ĠuÅ¡ky": 4353,
      "ĠÄĽÅ¾ne": 4354,
      "Ġtuch": 4355,
      "ĠuÅ¾ky": 4356,
      "Ġucht": 4357,
      "Ġabs": 4358,
      "ĠÄĽrou": 4359,
      "Ġikrat": 4360,
      "ĠvÄĽz": 4361,
      "Ġalek": 4362,
      "Ġith": 4363,
      "ĠÃ¡stk": 4364,
      "Ġutkem": 4365,
      "ĠpÅĻal": 4366,
      "Ġapat": 4367,
      "Ġrsa": 4368,
      "Ġyzl": 4369,
      "ĠÃŃzv": 4370,
      "ĠÄĽtle": 4371,
      "Ġyps": 4372,
      "ĠusmÄĽv": 4373,
      "Ġolich": 4374,
      "ĠÃ¡tl": 4375,
      "ĠeÄįem": 4376,
      "Ġernou": 4377,
      "ĠÄĽnci": 4378,
      "Ġivk": 4379,
      "Ġutou": 4380,
      "ĠÄĽkne": 4381,
      "Ġumne": 4382,
      "ĠupÄį": 4383,
      "Ġyvat": 4384,
      "Ġvoj": 4385,
      "ĠuÅ¡ku": 4386,
      "Ġapt": 4387,
      "Ġusch": 4388,
      "Ġrhal": 4389,
      "ĠÄĽrna": 4390,
      "ĠÃ¤": 4391,
      "Ġobne": 4392,
      "Ġvan": 4393,
      "Ġovce": 4394,
      "Ġelym": 4395,
      "Ġojit": 4396,
      "Ġasto": 4397,
      "Ġchce": 4398,
      "ĠskryÅ¡": 4399,
      "Ġarou": 4400,
      "ĠiÃ©": 4401,
      "ĠABCCAB": 4402,
      "eÅ¥": 4403,
      "Ġamhl": 4404,
      "ĠÄĽjich": 4405,
      "Ġodly": 4406,
      "Ġaff": 4407,
      "Ġcr": 4408,
      "Ġicn": 4409,
      "Ġychy": 4410,
      "ĠÄĽra": 4411,
      "Ġihy": 4412,
      "Ġanec": 4413,
      "Ġzdrav": 4414,
      "Ġehla": 4415,
      "ĠiÄįce": 4416,
      "Ġoutku": 4417,
      "ĠavaÅ¡": 4418,
      "Ġemhl": 4419,
      "Ġemkn": 4420,
      "Ġizl": 4421,
      "Ġvzplal": 4422,
      "Ġsdr": 4423,
      "Ġechm": 4424,
      "Ġdna": 4425,
      "ĠÄĽÄįnost": 4426,
      "Ġeul": 4427,
      "ĠXXXAAX": 4428,
      "Ġoe": 4429,
      "ĠÄĽnil": 4430,
      "Ġujic": 4431,
      "Ġouzi": 4432,
      "ĠeuÅ¡": 4433,
      "Ġesni": 4434,
      "Ġitych": 4435,
      "Ġotom": 4436,
      "Ġrvat": 4437,
      "Ġore": 4438,
      "ĠuÅ¾ku": 4439,
      "ĠÃºÅ¡": 4440,
      "ĠÄĽva": 4441,
      "Ġohla": 4442,
      "Ġavda": 4443,
      "Ġetli": 4444,
      "Ġeov": 4445,
      "Ġoy": 4446,
      "ĠbouÅĻ": 4447,
      "Ġoupal": 4448,
      "Ġatni": 4449,
      "Ġahnul": 4450,
      "oÄį": 4451,
      "Ġsah": 4452,
      "Ġkdy": 4453,
      "Ġsloup": 4454,
      "Ġzly": 4455,
      "ĠÃºhl": 4456,
      "Ġiby": 4457,
      "Ġbor": 4458,
      "sky": 4459,
      "Ġudm": 4460,
      "Ġezbr": 4461,
      "Ġiarch": 4462,
      "Ġvem": 4463,
      "Ġhej": 4464,
      "Ġadim": 4465,
      "Ġedat": 4466,
      "Ġamne": 4467,
      "Ġozy": 4468,
      "ĠÃ¡nl": 4469,
      "ĠÅĻic": 4470,
      "ĠAAABBX": 4471,
      "Ġavist": 4472,
      "ĠadÄĽj": 4473,
      "ĠaÅ¾ny": 4474,
      "Ġzchv": 4475,
      "ĠuÅ¡c": 4476,
      "Ġunt": 4477,
      "Ġynd": 4478,
      "Ġusa": 4479,
      "ĠÄĽha": 4480,
      "ĠÄĽsny": 4481,
      "Ġemb": 4482,
      "Ġylu": 4483,
      "ĠuÅ¾c": 4484,
      "Ġulic": 4485,
      "Ġzlou": 4486,
      "Ġdli": 4487,
      "Ġtok": 4488,
      "Ġefl": 4489,
      "Ġosta": 4490,
      "ĠeÅĻil": 4491,
      "ĠozpÅĻ": 4492,
      "ĠsiÅĪ": 4493,
      "Ġektr": 4494,
      "ĠÅ¡kv": 4495,
      "Ġvzpr": 4496,
      "ĠanÄĽl": 4497,
      "Ġpluh": 4498,
      "ĠÄĽkky": 4499,
      "Ġrtum": 4500,
      "Ġoupit": 4501,
      "Ġanth": 4502,
      "Ġounke": 4503,
      "ĠavÄĽl": 4504,
      "Ġapy": 4505,
      "ĠÄĽsne": 4506,
      "ĠmÅ¾ik": 4507,
      "Ġodsv": 4508,
      "Ġasech": 4509,
      "Ġevil": 4510,
      "ĠchvÄĽt": 4511,
      "ĠaÅĻu": 4512,
      "ĠÄĽlym": 4513,
      "ĠoÅĻan": 4514,
      "Ġuvt": 4515,
      "Ġickrat": 4516,
      "Ġodpr": 4517,
      "Ġyskne": 4518,
      "ĠmÅĻit": 4519,
      "Ġickych": 4520,
      "ĠÅ¾eh": 4521,
      "ĠonÅ¥": 4522,
      "Ġire": 4523,
      "Ġanske": 4524,
      "Ġobem": 4525,
      "ĠuÅ¡en": 4526,
      "isk": 4527,
      "Ġzchl": 4528,
      "Ġedch": 4529,
      "ĠodÄį": 4530,
      "Ġestat": 4531,
      "Ġapu": 4532,
      "Ġulost": 4533,
      "Ġrtl": 4534,
      "ĠABBAAB": 4535,
      "ĠÄĽhem": 4536,
      "ĠkeÅĻ": 4537,
      "Ġoupc": 4538,
      "Ġdvur": 4539,
      "Ġostna": 4540,
      "ĠiÃ¡ln": 4541,
      "esÅ¥": 4542,
      "Ġokna": 4543,
      "Ġemt": 4544,
      "Ġoldn": 4545,
      "ĠvÅ¡t": 4546,
      "ĠuÅ¡ka": 4547,
      "ĠuÄįt": 4548,
      "ĠzÅĻi": 4549,
      "Ġoctl": 4550,
      "Ġaotc": 4551,
      "ĠdÄĽj": 4552,
      "Ġalf": 4553,
      "Ġoden": 4554,
      "Ġomku": 4555,
      "Ġkrov": 4556,
      "Ġidr": 4557,
      "Ġousi": 4558,
      "ĠojnÄĽ": 4559,
      "Ġsbr": 4560,
      "Ġychle": 4561,
      "Ġidlech": 4562,
      "Ġoir": 4563,
      "Ġosf": 4564,
      "ĠiÃ¡t": 4565,
      "Ġasc": 4566,
      "Ġinak": 4567,
      "skych": 4568,
      "ĠuÅ¾Å¡": 4569,
      "Ġihr": 4570,
      "Ġypn": 4571,
      "Ġvtip": 4572,
      "ĠindÅĻ": 4573,
      "dr": 4574,
      "Ġelst": 4575,
      "Ġevem": 4576,
      "Ġrdcem": 4577,
      "Ġitko": 4578,
      "ĠadÅĻ": 4579,
      "ĠolÄį": 4580,
      "ĠoÅĻÄį": 4581,
      "ĠaÅĻk": 4582,
      "Ġealu": 4583,
      "uÅ¥": 4584,
      "Ġzle": 4585,
      "Ġknih": 4586,
      "Ġikla": 4587,
      "Ġemy": 4588,
      "Ġinout": 4589,
      "Ġarce": 4590,
      "Ġezku": 4591,
      "Ġskryl": 4592,
      "Ġinko": 4593,
      "ABA": 4594,
      "Ġpruh": 4595,
      "ĠeÄįnou": 4596,
      "ĠavnÄĽ": 4597,
      "Ġgh": 4598,
      "Ġ34": 4599,
      "ĠevÅ¡ad": 4600,
      "Ġpal": 4601,
      "Ġovor": 4602,
      "Ġojk": 4603,
      "Ġvzit": 4604,
      "Ġavnych": 4605,
      "Ġenout": 4606,
      "Ġatech": 4607,
      "ĠseÄį": 4608,
      "Ġudna": 4609,
      "Ġosen": 4610,
      "ĠudeÅ¡": 4611,
      "ĠoldÅĻ": 4612,
      "ĠalÅ¥": 4613,
      "ĠÄĽme": 4614,
      "kaz": 4615,
      "Ġonii": 4616,
      "Ġajde": 4617,
      "Ġadh": 4618,
      "Ġojv": 4619,
      "Ġzdal": 4620,
      "ĠoÅ¡sk": 4621,
      "ĠÄĽtsky": 4622,
      "Ġilne": 4623,
      "Ġovne": 4624,
      "Ġtvar": 4625,
      "Ġirou": 4626,
      "Ġidli": 4627,
      "Ġjan": 4628,
      "ĠaÅ¾it": 4629,
      "Ġurt": 4630,
      "ĠrÅ¡tn": 4631,
      "Ġuit": 4632,
      "ĠÅ¾e": 4633,
      "Ġokych": 4634,
      "Ġosit": 4635,
      "ĠuÅ¾ka": 4636,
      "ĠÃ¡ctv": 4637,
      "oÅĪ": 4638,
      "Ġpj": 4639,
      "Ġanka": 4640,
      "ĠeuÄį": 4641,
      "ĠiÅ¡tn": 4642,
      "Ġydi": 4643,
      "Ġoukr": 4644,
      "ĠbÄĽl": 4645,
      "Ġeng": 4646,
      "Ġstul": 4647,
      "Ġskok": 4648,
      "ĠaÄįem": 4649,
      "ĠabÅ¡": 4650,
      "Ġijem": 4651,
      "Ġelna": 4652,
      "Ġeptl": 4653,
      "ĠXABB": 4654,
      "Ġchyt": 4655,
      "Ġarie": 4656,
      "Ġezka": 4657,
      "ĠÄĽnem": 4658,
      "ĠoÅ¾stvi": 4659,
      "Ġmnich": 4660,
      "Ġizku": 4661,
      "Ġdluh": 4662,
      "Ġumrl": 4663,
      "Ġeid": 4664,
      "ĠÃ©kl": 4665,
      "Ġako": 4666,
      "Ġeshl": 4667,
      "ĠeÄįc": 4668,
      "ĠaÄįim": 4669,
      "Ġaba": 4670,
      "Ġentu": 4671,
      "ĠeumÅĻ": 4672,
      "ĠÅ¯zr": 4673,
      "Ġahrad": 4674,
      "Ġvhod": 4675,
      "Ġygr": 4676,
      "Ġovske": 4677,
      "ĠoltaÅĻ": 4678,
      "ĠzÅĪ": 4679,
      "ĠÄĽjk": 4680,
      "Ġdvou": 4681,
      "ĠÃ©nc": 4682,
      "ĠXAAXXX": 4683,
      "Ġetal": 4684,
      "ĠouÅ¾im": 4685,
      "ĠrpÄį": 4686,
      "ĠÃºtn": 4687,
      "Ġolit": 4688,
      "Ġlnil": 4689,
      "ĠÃŃÅĻstv": 4690,
      "ĠeÅ¡la": 4691,
      "ĠuÅ¡tkn": 4692,
      "ĠiÅ¾Å¡i": 4693,
      "Ġumk": 4694,
      "ĠÄĽzda": 4695,
      "Ġejpr": 4696,
      "Ġealy": 4697,
      "Ġadchn": 4698,
      "Ġelych": 4699,
      "Ġejk": 4700,
      "Ġonstr": 4701,
      "Ġestm": 4702,
      "Ġsnum": 4703,
      "ĠiÄįil": 4704,
      "ĠÃ¡pk": 4705,
      "Ġomky": 4706,
      "Ġrda": 4707,
      "Ġapil": 4708,
      "Ġzval": 4709,
      "ĠyÅ¡tv": 4710,
      "ĠatiÅ¡": 4711,
      "Ġejna": 4712,
      "ĠolbÅĻ": 4713,
      "Ġavdu": 4714,
      "ĠÄĽtÅĻi": 4715,
      "Ġifr": 4716,
      "ĠvpÅĻed": 4717,
      "zt": 4718,
      "ÄĽr": 4719,
      "ĠÄĽnym": 4720,
      "Ġbrl": 4721,
      "Ġejml": 4722,
      "Ġodii": 4723,
      "Ġaon": 4724,
      "Ġrty": 4725,
      "Ġptal": 4726,
      "ĠatÅĻil": 4727,
      "Ġeozv": 4728,
      "Ġleh": 4729,
      "ĠloÄı": 4730,
      "Ġalka": 4731,
      "Ġitc": 4732,
      "Ġivt": 4733,
      "ĠABBAAX": 4734,
      "Ġrzi": 4735,
      "Ġitla": 4736,
      "ĠÄįni": 4737,
      "Ġlnach": 4738,
      "ĠÄĽsty": 4739,
      "ĠÄĽstem": 4740,
      "ĠnÄĽj": 4741,
      "Ġalni": 4742,
      "Ġavad": 4743,
      "ĠvÅĻes": 4744,
      "ĠaÄıt": 4745,
      "Ġuel": 4746,
      "Ġadsk": 4747,
      "Ġekat": 4748,
      "ĠABX": 4749,
      "Ġachn": 4750,
      "ĠÄĽmt": 4751,
      "ĠeÅĪsk": 4752,
      "ĠotÄįe": 4753,
      "ĠeÅ¾el": 4754,
      "Ġrval": 4755,
      "Ġozum": 4756,
      "Ġuth": 4757,
      "Ġrdy": 4758,
      "ĠabÄĽ": 4759,
      "ĠÄĽtlem": 4760,
      "Ġojny": 4761,
      "Ġibek": 4762,
      "Ġyry": 4763,
      "Ġezvr": 4764,
      "Ġky": 4765,
      "Ġeohl": 4766,
      "Ġoem": 4767,
      "ĠtiÅ¡": 4768,
      "ĠdÄĽd": 4769,
      "Ġivky": 4770,
      "Ġadnout": 4771,
      "Ġadlem": 4772,
      "ĠjdeÅ¡": 4773,
      "ĠovnÄĽ": 4774,
      "Ġeat": 4775,
      "Ġastkv": 4776,
      "Ġupa": 4777,
      "ĠÃ¡jk": 4778,
      "Ġonny": 4779,
      "ĠuÅ¡im": 4780,
      "Ġsva": 4781,
      "ĠoÅ¾l": 4782,
      "Ġzlost": 4783,
      "ĠupÅĪ": 4784,
      "Ġeos": 4785,
      "Ġoztr": 4786,
      "me": 4787,
      "Ġoved": 4788,
      "Ġylil": 4789,
      "ĠutÅĻ": 4790,
      "Ġynn": 4791,
      "ĠzÅĻiÅ¡": 4792,
      "Ġibat": 4793,
      "ĠÅ¡leh": 4794,
      "ĠaÅ¡tÄĽ": 4795,
      "Ġomne": 4796,
      "Ġustech": 4797,
      "Ġikdo": 4798,
      "Ġoufn": 4799,
      "Ġslast": 4800,
      "Ġevst": 4801,
      "Ġehnal": 4802,
      "Ġinec": 4803,
      "ĠÄĽlal": 4804,
      "Ġokam": 4805,
      "Ġzdar": 4806,
      "ĠÃºz": 4807,
      "ĠÃŃdc": 4808,
      "Ġacp": 4809,
      "Ġoznal": 4810,
      "Ġouzla": 4811,
      "Ġagm": 4812,
      "Ġleb": 4813,
      "Ġya": 4814,
      "ĠÃºtv": 4815,
      "ĠyhÅĻ": 4816,
      "ĠpryÄį": 4817,
      "Ġtaj": 4818,
      "ĠÄĽlÅ¥": 4819,
      "Ġhraz": 4820,
      "Ġytku": 4821,
      "Ġynka": 4822,
      "Ġecku": 4823,
      "ĠÃ¡br": 4824,
      "Ġmil": 4825,
      "Ġouku": 4826,
      "Ġrost": 4827,
      "Ġochy": 4828,
      "Ġsbl": 4829,
      "ĠanÅ¥": 4830,
      "Ġodim": 4831,
      "ĠeÄįÅ¥": 4832,
      "Ġspar": 4833,
      "Ġuse": 4834,
      "Ġasko": 4835,
      "ĠAAAXBB": 4836,
      "Ġokou": 4837,
      "ĠoÅ¾c": 4838,
      "Ġhram": 4839,
      "Ġulc": 4840,
      "Ġodla": 4841,
      "Ġrsty": 4842,
      "Ġvsi": 4843,
      "oÅ¡": 4844,
      "Ġalost": 4845,
      "Ġeuct": 4846,
      "ĠvÄĽÅĻ": 4847,
      "Ġmak": 4848,
      "Ġatum": 4849,
      "Ġedku": 4850,
      "Ġonit": 4851,
      "ĠÃ½chn": 4852,
      "ĠspÄĽ": 4853,
      "ĠAABBBX": 4854,
      "ĠohnÄĽ": 4855,
      "Ġrslek": 4856,
      "oÅ¥": 4857,
      "Ġolky": 4858,
      "ĠÄįel": 4859,
      "Ġojne": 4860,
      "Ġohe": 4861,
      "ĠÃ¡mb": 4862,
      "Ġklec": 4863,
      "Ġzdech": 4864,
      "Ġzbyl": 4865,
      "Ġelke": 4866,
      "Ġhod": 4867,
      "Ġidil": 4868,
      "Ġblud": 4869,
      "ĠÃ¡Äįn": 4870,
      "ĠoupÄĽ": 4871,
      "rak": 4872,
      "ĠvÅ¾": 4873,
      "Ġpstr": 4874,
      "Ġsta": 4875,
      "ĠÃŃÅ¡sk": 4876,
      "CCA": 4877,
      "Ġchci": 4878,
      "ĠÄĽÅ¡tk": 4879,
      "ĠABBCCA": 4880,
      "Ġpot": 4881,
      "Ġaham": 4882,
      "Ġimni": 4883,
      "ĠÃºchv": 4884,
      "ĠAABBAA": 4885,
      "ĠÄĽmÄĽ": 4886,
      "ĠojiÅ¡": 4887,
      "Ġahli": 4888,
      "Ġobh": 4889,
      "ĠoÅ¾en": 4890,
      "ĠaÄįu": 4891,
      "ĠaÅ¾di": 4892,
      "ĠouÅĻk": 4893,
      "ĠÃ©th": 4894,
      "AXB": 4895,
      "ick": 4896,
      "Ġankem": 4897,
      "Ġoesii": 4898,
      "Ġelnic": 4899,
      "Ġetim": 4900,
      "ĠoÅ¾d": 4901,
      "Ġytek": 4902,
      "ĠiÄįne": 4903,
      "ĠtÅĻi": 4904,
      "ĠÄĽsil": 4905,
      "Ġefr": 4906,
      "Ġear": 4907,
      "Ġois": 4908,
      "Ġde": 4909,
      "ĠÃ½dl": 4910,
      "Ġelen": 4911,
      "ĠÃ½chl": 4912,
      "Ġekc": 4913,
      "ĠidÄĽ": 4914,
      "ĠoÄįit": 4915,
      "ĠyÅ¾e": 4916,
      "Ġovzl": 4917,
      "Ġaill": 4918,
      "Ġovech": 4919,
      "Ġstop": 4920,
      "ĠÄĽlm": 4921,
      "ĠÄĽlÄį": 4922,
      "ĠiÄįim": 4923,
      "ĠoÅ¡m": 4924,
      "BAX": 4925,
      "Ġouvr": 4926,
      "Ġjek": 4927,
      "Ġalym": 4928,
      "Ġozzv": 4929,
      "Ġikam": 4930,
      "Ġznit": 4931,
      "Ġauj": 4932,
      "ĠvÄįel": 4933,
      "Ġehrad": 4934,
      "ĠiÄıt": 4935,
      "Ġobit": 4936,
      "ĠÄĽtil": 4937,
      "Ġivka": 4938,
      "Ġerku": 4939,
      "Ġurr": 4940,
      "Ġuvod": 4941,
      "ĠutnÄĽ": 4942,
      "ĠÃŃpr": 4943,
      "ĠÄĽtru": 4944,
      "ĠÅ¯jt": 4945,
      "ĠyÄįka": 4946,
      "ĠiÅ¯": 4947,
      "Ġocit": 4948,
      "Ġusne": 4949,
      "Ġzlem": 4950,
      "Ġtrud": 4951,
      "ĠÅ¯vt": 4952,
      "ĠejÅ¡t": 4953,
      "Ġontr": 4954,
      "ĠÃºÅ¡kl": 4955,
      "Ġies": 4956,
      "Ġader": 4957,
      "Ġodech": 4958,
      "Ġchy": 4959,
      "Ġebne": 4960,
      "Ġezu": 4961,
      "Ġednout": 4962,
      "ĠuvÅĪ": 4963,
      "Ġjdem": 4964,
      "Ġinkou": 4965,
      "Ġvzlyk": 4966,
      "Ġonne": 4967,
      "Ġytou": 4968,
      "Ġijsk": 4969,
      "Ġrna": 4970,
      "ĠÄĽÅ¡en": 4971,
      "Ġocny": 4972,
      "Ġpych": 4973,
      "ĠÃ½hl": 4974,
      "Ġodstv": 4975,
      "Ġaria": 4976,
      "ĠÃŃsv": 4977,
      "kych": 4978,
      "Ġeusm": 4979,
      "ĠÅ¯stk": 4980,
      "Ġidnou": 4981,
      "ĠÃŃpl": 4982,
      "Ġavod": 4983,
      "Ġung": 4984,
      "Ġtrav": 4985,
      "Ġadra": 4986,
      "Ġry": 4987,
      "Ġhou": 4988,
      "ÄĽh": 4989,
      "Ġidni": 4990,
      "ĠumÄĽt": 4991,
      "ĠÄĽchal": 4992,
      "Ġyslil": 4993,
      "Ġztv": 4994,
      "ĠyvÅ¡": 4995,
      "ĠaÅĪsk": 4996,
      "Ġbod": 4997,
      "ĠavÄĽt": 4998,
      "Ġazat": 4999,
      "ĠÄĽÅ¾sk": 5000,
      "Ġrvou": 5001,
      "ĠodnÄĽ": 5002,
      "Ġilii": 5003,
      "Ġuds": 5004,
      "ĠÅ¡er": 5005,
      "Ġevs": 5006,
      "Ġpluk": 5007,
      "ĠazeÅĪ": 5008,
      "Ġytc": 5009,
      "ĠÃ¡hv": 5010,
      "Ġisv": 5011,
      "ĠiÅ¡la": 5012,
      "Ġonna": 5013,
      "Ġirny": 5014,
      "Ġvil": 5015,
      "Ġilen": 5016,
      "ĠetÅ¡": 5017,
      "Ġplout": 5018,
      "Ġzvyk": 5019,
      "ĠÄĽstim": 5020,
      "Ġursk": 5021,
      "Ġenkach": 5022,
      "Ġalin": 5023,
      "Ġibc": 5024,
      "ant": 5025,
      "Ġeuj": 5026,
      "Ġechny": 5027,
      "ett": 5028,
      "Ġadach": 5029,
      "Ġenske": 5030,
      "Ġbil": 5031,
      "Ġenhl": 5032,
      "Ġelv": 5033,
      "Ġzlym": 5034,
      "Ġouhev": 5035,
      "ĠaÅĻit": 5036,
      "ĠÄĽÄįnou": 5037,
      "Ġastny": 5038,
      "ĠstÅĻech": 5039,
      "Ġolou": 5040,
      "Ġolne": 5041,
      "ĠÃ¡mÅ¥": 5042,
      "Ġazek": 5043,
      "Ġeskv": 5044,
      "ĠabÄį": 5045,
      "ĠurÅ¾": 5046,
      "ĠeuÅ¾": 5047,
      "Ġipu": 5048,
      "Ġentr": 5049,
      "Ġvaz": 5050,
      "Ġhav": 5051,
      "Ġolam": 5052,
      "Ġasf": 5053,
      "ĠaÅ¾nÄĽ": 5054,
      "ĠyÅ¡et": 5055,
      "Ġidna": 5056,
      "ĠondÅĻ": 5057,
      "Ġpoj": 5058,
      "Ġolim": 5059,
      "Ġobach": 5060,
      "ĠÄĽtk": 5061,
      "Ġiche": 5062,
      "Ġahm": 5063,
      "ĠÄĽrnÄĽ": 5064,
      "Ġarci": 5065,
      "Ġelze": 5066,
      "Ġuhly": 5067,
      "Ġsvar": 5068,
      "Ġivs": 5069,
      "Ġonf": 5070,
      "ĠÃ©mÅ¾": 5071,
      "ĠuÅ¡it": 5072,
      "Ġdlel": 5073,
      "Ġennou": 5074,
      "Ġyzdn": 5075,
      "Ġictvi": 5076,
      "Ġrust": 5077,
      "Ġike": 5078,
      "ĠAABBAX": 5079,
      "ĠtÅĻesk": 5080,
      "Ġybal": 5081,
      "Ġrys": 5082,
      "ĠÄĽll": 5083,
      "ĠÄĽnku": 5084,
      "ĠiznÄĽ": 5085,
      "Ġostnou": 5086,
      "Ġlil": 5087,
      "ĠoÄįal": 5088,
      "ĠaÅ¡ni": 5089,
      "Ġims": 5090,
      "Ġtma": 5091,
      "ĠÅ¯zk": 5092,
      "Ġedh": 5093,
      "ĠyÅ¾t": 5094,
      "ĠÃ½vl": 5095,
      "Ġouva": 5096,
      "ĠbÄĽs": 5097,
      "Ġlj": 5098,
      "ĠÅĻim": 5099,
      "Ġapa": 5100,
      "Ġyvam": 5101,
      "Ġeukr": 5102,
      "Ġeubl": 5103,
      "Ġesnu": 5104,
      "Ġannou": 5105,
      "ĠiraÅ¡": 5106,
      "Ġstvol": 5107,
      "Ġmez": 5108,
      "Ġizko": 5109,
      "Ġnos": 5110,
      "Ġstar": 5111,
      "Ġebyl": 5112,
      "ĠÃŃsÄį": 5113,
      "Ġirne": 5114,
      "Ġurku": 5115,
      "Ġhvozd": 5116,
      "Ġickou": 5117,
      "ĠAXAXXX": 5118,
      "ĠaskÅĻ": 5119,
      "Ġeskla": 5120,
      "Ġdmou": 5121,
      "Ġectvi": 5122,
      "ĠiaÅ¡": 5123,
      "Ġrka": 5124,
      "Ġandl": 5125,
      "ĠÄĽtel": 5126,
      "Ġtrun": 5127,
      "Ġancie": 5128,
      "Ġudba": 5129,
      "Ġmist": 5130,
      "Ġindr": 5131,
      "Ġokop": 5132,
      "Ġocean": 5133,
      "ĠÄĽlil": 5134,
      "Ġorce": 5135,
      "Ġskon": 5136,
      "Ġychv": 5137,
      "Ġernych": 5138,
      "ĠÄĽzdam": 5139,
      "ĠÄĽcka": 5140,
      "Ġancii": 5141,
      "Ġaid": 5142,
      "ĠodÅ¡": 5143,
      "Ġazim": 5144,
      "Ġosny": 5145,
      "Ġsst": 5146,
      "Ġalstvi": 5147,
      "Ġobce": 5148,
      "Ġorie": 5149,
      "Ġutych": 5150,
      "Ġimh": 5151,
      "ĠÄĽzy": 5152,
      "Ġurb": 5153,
      "Ġuzou": 5154,
      "Ġejvz": 5155,
      "ĠpojÄı": 5156,
      "Ġyen": 5157,
      "ĠlaÅĪ": 5158,
      "ĠiÅ¡ky": 5159,
      "ĠeÅ¡tn": 5160,
      "Ġovnik": 5161,
      "ĠÄĽkdy": 5162,
      "Ġlkat": 5163,
      "Ġydli": 5164,
      "ĠsÅ¡": 5165,
      "ĠdaÅ¡": 5166,
      "ĠÃŃmc": 5167,
      "ĠuÅ¡kl": 5168,
      "ĠazÅ¡": 5169,
      "Ġdve": 5170,
      "ĠiÄįkem": 5171,
      "ĠstÅĻel": 5172,
      "Ġeq": 5173,
      "Ġnit": 5174,
      "Ġesat": 5175,
      "Ġetni": 5176,
      "ĠÅ¡ip": 5177,
      "Ġarnou": 5178,
      "Ġidska": 5179,
      "Ġaslo": 5180,
      "ĠoÅĻkn": 5181,
      "Ġopen": 5182,
      "Ġzmn": 5183,
      "Ġzmr": 5184,
      "ĠinnÄĽ": 5185,
      "ĠÄĽtvich": 5186,
      "ĠÄĽvÄįe": 5187,
      "ĠanÄįi": 5188,
      "Ġostmi": 5189,
      "Ġetkr": 5190,
      "ĠABBC": 5191,
      "Ġalich": 5192,
      "Ġrnc": 5193,
      "Ġidstva": 5194,
      "Ġetba": 5195,
      "Ġlsn": 5196,
      "ĠABBCAC": 5197,
      "Ġelt": 5198,
      "Ġarku": 5199,
      "Ġoral": 5200,
      "Ġirkv": 5201,
      "Ġemnych": 5202,
      "ĠastnÄĽ": 5203,
      "ĠchraÅĪ": 5204,
      "Ġipj": 5205,
      "Ġantsk": 5206,
      "Ġouchal": 5207,
      "ĠaviÅ¡": 5208,
      "ĠydÄĽl": 5209,
      "Ġostry": 5210,
      "Ġoskl": 5211,
      "ĠspÄĽÅ¡": 5212,
      "Ġevt": 5213,
      "Ġytky": 5214,
      "Ġacy": 5215,
      "Ġorna": 5216,
      "ĠeÅ¡ly": 5217,
      "Ġauk": 5218,
      "Ġoulk": 5219,
      "Ġuill": 5220,
      "Ġco": 5221,
      "Ġetsk": 5222,
      "ĠsmÄĽl": 5223,
      "Ġapor": 5224,
      "Ġuss": 5225,
      "ĠiÅ¡ek": 5226,
      "ĠdnÄĽ": 5227,
      "ĠyÅ¡len": 5228,
      "Ġozvr": 5229,
      "Ġymkn": 5230,
      "Ġehly": 5231,
      "Ġvzhled": 5232,
      "Ġuis": 5233,
      "Ġolek": 5234,
      "Ġotka": 5235,
      "Ġidka": 5236,
      "Ġopsk": 5237,
      "Ġumim": 5238,
      "Ġyml": 5239,
      "Ġazna": 5240,
      "Ġvzruch": 5241,
      "Ġchor": 5242,
      "ĠstraÅĪ": 5243,
      "Ġmrav": 5244,
      "Ġastna": 5245,
      "Ġlha": 5246,
      "Ġatru": 5247,
      "ĠyÅĪk": 5248,
      "Ġeurv": 5249,
      "ĠÃ½kv": 5250,
      "Ġisek": 5251,
      "ĠuÅ¾by": 5252,
      "Ġortr": 5253,
      "Ġinx": 5254,
      "Ġasnych": 5255,
      "Ġuncem": 5256,
      "ĠyvaÅ¡": 5257,
      "yr": 5258,
      "ĠÄįar": 5259,
      "Ġoudit": 5260,
      "Ġavni": 5261,
      "ĠÄįtl": 5262,
      "ĠaÅ¡Å¡": 5263,
      "ĠapÄį": 5264,
      "Ġykal": 5265,
      "Ġatnou": 5266,
      "Ġyho": 5267,
      "Ġrhnout": 5268,
      "Ġudky": 5269,
      "Ġstrun": 5270,
      "Ġuba": 5271,
      "ĠiÅ¡li": 5272,
      "ĠÄĽmÅ¾t": 5273,
      "ĠvaÅ¡": 5274,
      "Ġovil": 5275,
      "Ġavky": 5276,
      "Ġasr": 5277,
      "ĠÃ¡km": 5278,
      "ĠstÅĻed": 5279,
      "Ġozkr": 5280,
      "Ġrsky": 5281,
      "Ġsraz": 5282,
      "Ġivec": 5283,
      "Ġorii": 5284,
      "Ġopa": 5285,
      "Ġzvou": 5286,
      "Ġubc": 5287,
      "ĠejÅ¡k": 5288,
      "Ġmdly": 5289,
      "Ġovzb": 5290,
      "Ġpne": 5291,
      "ĠostÄĽ": 5292,
      "Ġeri": 5293,
      "Ġplic": 5294,
      "ĠujÄį": 5295,
      "Ġzbroj": 5296,
      "Ġoar": 5297,
      "ĠelÄį": 5298,
      "ĠonÅ¡": 5299,
      "Ġeval": 5300,
      "ĠÃ¡sÄį": 5301,
      "ĠrdÅ¡": 5302,
      "Ġyse": 5303,
      "Ġyslu": 5304,
      "Ġskvi": 5305,
      "Ġauc": 5306,
      "Ġebkou": 5307,
      "Ġalmy": 5308,
      "ĠÃŃmÅ¥": 5309,
      "Ġivil": 5310,
      "Ġari": 5311,
      "ĠÃ½mÅ¾": 5312,
      "Ġicht": 5313,
      "Ġocen": 5314,
      "ĠÄĽmÄį": 5315,
      "ĠaÅ¾da": 5316,
      "Ġ35": 5317,
      "ĠyÅĻe": 5318,
      "ĠozÅ¡l": 5319,
      "Ġems": 5320,
      "ĠopÄĽ": 5321,
      "Ġuls": 5322,
      "Ġabel": 5323,
      "ĠÄĽÅ¾ce": 5324,
      "ĠeÅĻim": 5325,
      "ĠrnÄĽ": 5326,
      "ĠouÅ¡ku": 5327,
      "Ġavnou": 5328,
      "ĠannÄĽ": 5329,
      "Ġatyr": 5330,
      "Ġenom": 5331,
      "Ġavci": 5332,
      "Ġue": 5333,
      "Ġapas": 5334,
      "Ġivny": 5335,
      "Ġoknem": 5336,
      "Ġenstva": 5337,
      "Ġrbsk": 5338,
      "Ġscv": 5339,
      "Ġsal": 5340,
      "Ġavec": 5341,
      "Ġostal": 5342,
      "Ġehal": 5343,
      "ĠÃŃcl": 5344,
      "ĠÃŃbk": 5345,
      "Ġinci": 5346,
      "ĠodÄĽj": 5347,
      "Ġmor": 5348,
      "Ġovod": 5349,
      "ĠÅ¾eÅĪ": 5350,
      "ĠoÅĻn": 5351,
      "ĠÄĽdne": 5352,
      "Ġisu": 5353,
      "Ġannu": 5354,
      "ĠijeÅ¡": 5355,
      "Ġrbl": 5356,
      "ĠXXAXXA": 5357,
      "Ġeist": 5358,
      "Ġtou": 5359,
      "Ġenil": 5360,
      "Ġlup": 5361,
      "Ġavej": 5362,
      "Ġolh": 5363,
      "Ġchat": 5364,
      "ĠatÅĻim": 5365,
      "Ġezny": 5366,
      "Ġavdy": 5367,
      "ĠoÅĻist": 5368,
      "ĠodÅ¥": 5369,
      "Ġarech": 5370,
      "ĠoÅ¾m": 5371,
      "Ġasten": 5372,
      "Ġypk": 5373,
      "Ġrchu": 5374,
      "ĠaÄįnou": 5375,
      "Ġalnych": 5376,
      "Ġevrl": 5377,
      "Ġedra": 5378,
      "ĠÄĽpn": 5379,
      "Ġkost": 5380,
      "Ġdub": 5381,
      "Ġemm": 5382,
      "Ġsluj": 5383,
      "ĠÃŃkn": 5384,
      "ĠXAXX": 5385,
      "ĠÄĽÅ¾ky": 5386,
      "ĠÄĽjeÅ¡": 5387,
      "Ġansky": 5388,
      "Ġph": 5389,
      "Ġdil": 5390,
      "Ġuchn": 5391,
      "Ġhnizd": 5392,
      "Ġekle": 5393,
      "ĠÄĽrnou": 5394,
      "Ġelnou": 5395,
      "Ġelnych": 5396,
      "Ġezdr": 5397,
      "ĠokÅĻt": 5398,
      "gr": 5399,
      "ib": 5400,
      "Ġsyt": 5401,
      "Ġdce": 5402,
      "Ġinum": 5403,
      "ĠorÄį": 5404,
      "Ġajit": 5405,
      "Ġzdm": 5406,
      "Ġumem": 5407,
      "ĠÄĽvÅ¡": 5408,
      "ĠÄĽrc": 5409,
      "Ġatke": 5410,
      "ĠyÅ¡li": 5411,
      "Ġanti": 5412,
      "Ġerly": 5413,
      "Ġozhr": 5414,
      "Ġozdrav": 5415,
      "Ġilim": 5416,
      "Ġanz": 5417,
      "Ġevne": 5418,
      "Ġikat": 5419,
      "Ġhnat": 5420,
      "Ġiskal": 5421,
      "ĠoÅĪt": 5422,
      "Ġihly": 5423,
      "Ġedii": 5424,
      "Ġvhr": 5425,
      "Ġalech": 5426,
      "ĠivÄį": 5427,
      "Ġidky": 5428,
      "Ġvzor": 5429,
      "Ġdno": 5430,
      "Ġuzu": 5431,
      "Ġysly": 5432,
      "Ġavm": 5433,
      "Ġsvist": 5434,
      "ĠABAX": 5435,
      "Ġirt": 5436,
      "Ġebny": 5437,
      "Ġrbu": 5438,
      "Ġydla": 5439,
      "Ġiskla": 5440,
      "Ġoeth": 5441,
      "Ġtka": 5442,
      "Ġilil": 5443,
      "Ġodach": 5444,
      "ĠodeÅĪ": 5445,
      "Ġstav": 5446,
      "Ġamf": 5447,
      "ĠaÅ¡em": 5448,
      "Ġatkn": 5449,
      "ĠvÅĻe": 5450,
      "Ġovci": 5451,
      "Ġku": 5452,
      "Ġinech": 5453,
      "Ġorech": 5454,
      "Ġestem": 5455,
      "Ġasnym": 5456,
      "Ġaustr": 5457,
      "Ġudnou": 5458,
      "Ġiknout": 5459,
      "Ġenat": 5460,
      "ĠinÅ¾": 5461,
      "Ġitm": 5462,
      "Ġozku": 5463,
      "ent": 5464,
      "ĠztÅĻ": 5465,
      "Ġozdu": 5466,
      "ĠyÄįt": 5467,
      "Ġedie": 5468,
      "Ġojska": 5469,
      "ĠijÄıt": 5470,
      "Ġatuj": 5471,
      "Ġozsk": 5472,
      "ĠiÅ¡Äį": 5473,
      "Ġupne": 5474,
      "Ġuci": 5475,
      "Ġrsku": 5476,
      "Ġesklo": 5477,
      "Ġeusl": 5478,
      "Ġias": 5479,
      "Ġiin": 5480,
      "ĠyuÄį": 5481,
      "ĠejÅĻ": 5482,
      "Ġorku": 5483,
      "ĠzvÄĽsÅ¥": 5484,
      "ĠyvÅĻ": 5485,
      "ĠaÅĪm": 5486,
      "ĠohnÄĽm": 5487,
      "Ġovec": 5488,
      "Ġahlo": 5489,
      "Ġvtl": 5490,
      "ĠozbÅĻ": 5491,
      "ĠAAXBBB": 5492,
      "Ġkyv": 5493,
      "ĠÅ¡n": 5494,
      "Ġalach": 5495,
      "Ġousn": 5496,
      "Ġouvn": 5497,
      "ĠdeÅ¡Å¥": 5498,
      "ysk": 5499,
      "ĠproÄį": 5500,
      "Ġiven": 5501,
      "Ġichou": 5502,
      "ĠopÄĽt": 5503,
      "ĠaÄįit": 5504,
      "Ġimat": 5505,
      "ĠÅ¯jc": 5506,
      "Ġrbk": 5507,
      "ĠXAB": 5508,
      "Ġtkvi": 5509,
      "Ġkal": 5510,
      "Ġudek": 5511,
      "Ġunh": 5512,
      "ĠiÄįit": 5513,
      "Ġuchr": 5514,
      "Ġypi": 5515,
      "Ġojna": 5516,
      "ĠbdÄĽl": 5517,
      "Ġinth": 5518,
      "Ġeobl": 5519,
      "Ġyptsk": 5520,
      "ĠpÄĽn": 5521,
      "Ġamkl": 5522,
      "Ġejne": 5523,
      "Ġkryl": 5524,
      "Ġosem": 5525,
      "Ġusem": 5526,
      "ĠiÅ¡ka": 5527,
      "Ġacch": 5528,
      "Ġenstvim": 5529,
      "Ġardc": 5530,
      "rh": 5531,
      "Ġelnik": 5532,
      "Ġitost": 5533,
      "ĠÄĽtkr": 5534,
      "ĠeÅ¾d": 5535,
      "Ġutce": 5536,
      "ĠeÅ¡v": 5537,
      "ĠoutÄĽ": 5538,
      "Ġovni": 5539,
      "Ġeznou": 5540,
      "Ġevny": 5541,
      "Ġpsat": 5542,
      "ĠÄĽdnou": 5543,
      "Ġickym": 5544,
      "Ġlstn": 5545,
      "ĠeÃ¡ln": 5546,
      "aÄı": 5547,
      "Ġlos": 5548,
      "Ġinf": 5549,
      "Ġejit": 5550,
      "Ġabil": 5551,
      "Ġoutek": 5552,
      "ĠoÅ¡el": 5553,
      "Ġodiv": 5554,
      "ĠurÄįi": 5555,
      "Ġintr": 5556,
      "Ġyx": 5557,
      "ĠdaÅĪ": 5558,
      "ĠÅ¾as": 5559,
      "Ġitan": 5560,
      "Ġhnout": 5561,
      "ĠitiÅ¡": 5562,
      "Ġibky": 5563,
      "ĠyÅĻkl": 5564,
      "Ġvss": 5565,
      "Ġelmi": 5566,
      "Ġondr": 5567,
      "Ġolat": 5568,
      "ĠÃ¡chl": 5569,
      "Ġisc": 5570,
      "ĠÃ¡jsk": 5571,
      "ĠÅ¡la": 5572,
      "ĠrÅ¾t": 5573,
      "ĠÄĽÅ¾ny": 5574,
      "Ġbdi": 5575,
      "th": 5576,
      "Ġood": 5577,
      "Ġuid": 5578,
      "ĠilÄį": 5579,
      "Ġamek": 5580,
      "ĠoÄįm": 5581,
      "Ġednul": 5582,
      "Ġuche": 5583,
      "nech": 5584,
      "ĠmÅĻel": 5585,
      "ĠenÄĽz": 5586,
      "ĠÃºÅ¾l": 5587,
      "Ġdul": 5588,
      "Ġryk": 5589,
      "Ġamw": 5590,
      "Ġukach": 5591,
      "Ġynku": 5592,
      "ĠÃ©hl": 5593,
      "Ġizz": 5594,
      "Ġouzel": 5595,
      "Ġihou": 5596,
      "Ġujme": 5597,
      "ĠebÅ¥": 5598,
      "ĠoÅĻel": 5599,
      "Ġusv": 5600,
      "ĠÅ¯jn": 5601,
      "ĠÃŃsc": 5602,
      "ĠÃ¡chr": 5603,
      "Ġchtit": 5604,
      "Ġrsu": 5605,
      "ĠedaÅ¡": 5606,
      "Ġvuz": 5607,
      "Ġube": 5608,
      "Ġlkal": 5609,
      "Ġeumdl": 5610,
      "Ġavic": 5611,
      "ĠÄĽlat": 5612,
      "Ġadru": 5613,
      "Ġidmi": 5614,
      "Ġeanu": 5615,
      "ĠakÅĻk": 5616,
      "Ġowsk": 5617,
      "Ġejstr": 5618,
      "Ġarek": 5619,
      "Ġekel": 5620,
      "ĠÃ©ms": 5621,
      "ĠaÅ¡il": 5622,
      "Ġrdcy": 5623,
      "ĠiÅ¡ku": 5624,
      "Ġrvni": 5625,
      "Ġyslim": 5626,
      "ĠadaÅ¡": 5627,
      "Ġarvy": 5628,
      "Ġespr": 5629,
      "Ġazyk": 5630,
      "Ġazet": 5631,
      "Ġustit": 5632,
      "ĠoÅ¡ku": 5633,
      "ĠAAXXXX": 5634,
      "ĠouÅ¡tÄĽ": 5635,
      "Ġoufa": 5636,
      "ĠoveÅĪ": 5637,
      "ĠiÃ³": 5638,
      "Ġpnou": 5639,
      "Ġiana": 5640,
      "ĠzaÅ¡Å¥": 5641,
      "Ġemc": 5642,
      "ĠÅ¯kl": 5643,
      "Ġelil": 5644,
      "Ġedzv": 5645,
      "ĠoÅĻt": 5646,
      "Ġelku": 5647,
      "ĠÄĽco": 5648,
      "ezd": 5649,
      "Ġvnik": 5650,
      "Ġbat": 5651,
      "Ġovin": 5652,
      "ĠchoÅ¥": 5653,
      "ĠuÅ¾em": 5654,
      "ĠernÄĽ": 5655,
      "Ġrcha": 5656,
      "Ġanda": 5657,
      "Ġestra": 5658,
      "ĠXABBXA": 5659,
      "Ġovit": 5660,
      "Ġcp": 5661,
      "Ġutem": 5662,
      "ĠÃ¡Äįc": 5663,
      "Ġoubky": 5664,
      "ĠÅ¯ldn": 5665,
      "ĠouÄįku": 5666,
      "Ġouzlo": 5667,
      "Ġ36": 5668,
      "Ġobyt": 5669,
      "Ġalkn": 5670,
      "Ġeobr": 5671,
      "ĠookÅĻ": 5672,
      "Ġerka": 5673,
      "ĠÄĽrem": 5674,
      "ĠÅ¯lm": 5675,
      "Ġevna": 5676,
      "ĠoÅĪk": 5677,
      "ABBB": 5678,
      "ĠaruÄį": 5679,
      "ĠyÃ¡": 5680,
      "Ġrum": 5681,
      "Ġhul": 5682,
      "Ġerky": 5683,
      "Ġokd": 5684,
      "ĠsnÄĽt": 5685,
      "ĠÄĽde": 5686,
      "ĠaÅĻstvi": 5687,
      "ĠoÅ¡Å¥": 5688,
      "Ġptat": 5689,
      "Ġadko": 5690,
      "ĠÅ¡li": 5691,
      "Ġoctvi": 5692,
      "ĠygÅĻ": 5693,
      "Ġelce": 5694,
      "Ġitov": 5695,
      "Ġcar": 5696,
      "Ġajil": 5697,
      "ĠÃŃstÅĻ": 5698,
      "ĠozkÅĻ": 5699,
      "Ġantu": 5700,
      "Ġsfer": 5701,
      "ĠpouÅ¥": 5702,
      "Ġox": 5703,
      "Ġolv": 5704,
      "Ġinv": 5705,
      "Ġomech": 5706,
      "Ġetc": 5707,
      "ĠuÅ¾u": 5708,
      "Å¡ti": 5709,
      "Ġersp": 5710,
      "Ġeost": 5711,
      "Ġklet": 5712,
      "Ġytit": 5713,
      "Ġacha": 5714,
      "Ġanie": 5715,
      "Ġykat": 5716,
      "Ġeuch": 5717,
      "Ġelnym": 5718,
      "Ġilna": 5719,
      "Ġakto": 5720,
      "Ġounka": 5721,
      "ĠkuÅĪ": 5722,
      "Ġeen": 5723,
      "Ġouky": 5724,
      "Ġlen": 5725,
      "Ġinst": 5726,
      "Ġerie": 5727,
      "ĠomÅ¾": 5728,
      "Ġetkl": 5729,
      "Ġehem": 5730,
      "Ġevzn": 5731,
      "Ġestal": 5732,
      "ĠeÅ¾k": 5733,
      "ĠaÅ¾ce": 5734,
      "ĠÃŃlc": 5735,
      "Ġuju": 5736,
      "ĠiÅ¾d": 5737,
      "ĠisaÅĻ": 5738,
      "kus": 5739,
      "Ġipa": 5740,
      "Ġotna": 5741,
      "Ġtep": 5742,
      "ĠaldÅ¡t": 5743,
      "Ġao": 5744,
      "Ġaik": 5745,
      "ĠyÄı": 5746,
      "Ġemk": 5747,
      "ĠeÅ¾h": 5748,
      "Ġastne": 5749,
      "ĠlnÄĽn": 5750,
      "ĠÄĽsy": 5751,
      "Ġhvizd": 5752,
      "Ġybi": 5753,
      "Ġtmu": 5754,
      "ĠouÅ¡e": 5755,
      "Ġinnych": 5756,
      "ĠoÄıstv": 5757,
      "Ġiott": 5758,
      "ĠÄĽbr": 5759,
      "Ġomm": 5760,
      "ĠaÅ¾ne": 5761,
      "Ġoptv": 5762,
      "Ġoutu": 5763,
      "Ġuzen": 5764,
      "Ġolny": 5765,
      "Ġlzi": 5766,
      "ĠinaÅ¡": 5767,
      "Ġoucham": 5768,
      "ĠÃ½Å¾k": 5769,
      "Ġyskla": 5770,
      "Ġanech": 5771,
      "Ġprav": 5772,
      "Ġitej": 5773,
      "Ġslib": 5774,
      "Ġorr": 5775,
      "Ġeztv": 5776,
      "Ġvzkl": 5777,
      "Ġvla": 5778,
      "Ġupem": 5779,
      "Ġvrak": 5780,
      "Ġolni": 5781,
      "Ġivan": 5782,
      "Ġesnou": 5783,
      "Ġouchl": 5784,
      "Ġojnou": 5785,
      "Ġanskych": 5786,
      "Ġcval": 5787,
      "Ġstih": 5788,
      "Ġasit": 5789,
      "Ġudit": 5790,
      "Ġekd": 5791,
      "ĠÃ¡sp": 5792,
      "Ġazka": 5793,
      "Ġeskou": 5794,
      "Ġiju": 5795,
      "ĠeÄįnym": 5796,
      "Ġozdm": 5797,
      "Ġoustl": 5798,
      "ĠepÅ¡i": 5799,
      "Ġexc": 5800,
      "ĠeÃºm": 5801,
      "ĠÃºsl": 5802,
      "Ġempl": 5803,
      "Ġvar": 5804,
      "Ġanne": 5805,
      "ĠodiÅ¡": 5806,
      "Ġesr": 5807,
      "ĠebÄį": 5808,
      "Ġsnah": 5809,
      "Ġedny": 5810,
      "Ġabne": 5811,
      "ĠÃŃzdn": 5812,
      "Ġrsy": 5813,
      "ĠyÅ¥b": 5814,
      "Ġudbou": 5815,
      "ĠuÄįnÄĽ": 5816,
      "Ġstkvi": 5817,
      "Ġrku": 5818,
      "ĠaÅĻen": 5819,
      "ĠeÅĻich": 5820,
      "ĠÃŃzc": 5821,
      "Ġieg": 5822,
      "Ġalna": 5823,
      "Ġysku": 5824,
      "Ġrhli": 5825,
      "sb": 5826,
      "Ġatsk": 5827,
      "Ġechach": 5828,
      "Ġapne": 5829,
      "Ġvlad": 5830,
      "Ġmlyn": 5831,
      "ĠirÅ¡": 5832,
      "Ġasnik": 5833,
      "Ġolnost": 5834,
      "ĠelnÄĽ": 5835,
      "ĠoucnÄĽ": 5836,
      "Ġostla": 5837,
      "Ġazdne": 5838,
      "Ġuac": 5839,
      "ĠÃ¡sÅ¥": 5840,
      "Ġepou": 5841,
      "ĠÄĽzÅĪ": 5842,
      "Ġancl": 5843,
      "ĠejÅ¡Å¥": 5844,
      "Ġmdla": 5845,
      "Ġudby": 5846,
      "iÅ¥": 5847,
      "ĠsuÄı": 5848,
      "Ġalim": 5849,
      "Ġetky": 5850,
      "Ġvlek": 5851,
      "Ġadnul": 5852,
      "Ġucl": 5853,
      "Ġitkou": 5854,
      "Ġmuch": 5855,
      "Ġlov": 5856,
      "Ġode": 5857,
      "Ġotam": 5858,
      "Ġudv": 5859,
      "Ġplec": 5860,
      "ĠrdÄĽ": 5861,
      "ĠiÄįu": 5862,
      "ĠaÅĻich": 5863,
      "asÅ¥": 5864,
      "ĠÄĽÅ¾nou": 5865,
      "ĠvlasÅ¥": 5866,
      "Ġiadem": 5867,
      "Ġhon": 5868,
      "Ġcos": 5869,
      "Ġptam": 5870,
      "Ġajich": 5871,
      "Ġeosl": 5872,
      "Ġaup": 5873,
      "ĠiÅĻu": 5874,
      "ĠÄĽtrem": 5875,
      "ĠuÅ¾eÅ¡": 5876,
      "ĠhÅĻmit": 5877,
      "Ġonci": 5878,
      "Ġobyl": 5879,
      "ĠonÄĽm": 5880,
      "Ġoil": 5881,
      "Ġvest": 5882,
      "Ġatach": 5883,
      "Ġavost": 5884,
      "ĠasÅ¡i": 5885,
      "Ġinit": 5886,
      "Ġomek": 5887,
      "Ġicc": 5888,
      "Ġsnim": 5889,
      "ĠovaÅ¥": 5890,
      "Ġelie": 5891,
      "Ġeodb": 5892,
      "ĠejÄįk": 5893,
      "Ġeujd": 5894,
      "Ġovt": 5895,
      "Ġazce": 5896,
      "Ġulp": 5897,
      "Ġousy": 5898,
      "Ġvtk": 5899,
      "Ġrdla": 5900,
      "ĠiÃŃm": 5901,
      "Ġejhr": 5902,
      "Ġyzdv": 5903,
      "Ġdim": 5904,
      "Ġomov": 5905,
      "Ġonr": 5906,
      "ĠeÅ¾sk": 5907,
      "ĠÄĽju": 5908,
      "Ġijal": 5909,
      "ĠÃ³v": 5910,
      "Ġohli": 5911,
      "Ġavach": 5912,
      "ĠandÄĽl": 5913,
      "Ġlhy": 5914,
      "Ġobna": 5915,
      "Ġrmut": 5916,
      "Ġviz": 5917,
      "ĠpouÅ¡Å¥": 5918,
      "Ġorum": 5919,
      "Ġestk": 5920,
      "ĠÄĽjin": 5921,
      "Ġimam": 5922,
      "ĠubÄĽ": 5923,
      "ĠtmÄĽl": 5924,
      "ĠAAA": 5925,
      "Ġejny": 5926,
      "Ġbys": 5927,
      "Ġihnul": 5928,
      "Ġarth": 5929,
      "of": 5930,
      "Ġye": 5931,
      "Ġebku": 5932,
      "Ġajne": 5933,
      "Ġicych": 5934,
      "Ġestach": 5935,
      "ĠaÅ¡sk": 5936,
      "Ġact": 5937,
      "Ġiskem": 5938,
      "Ġomny": 5939,
      "ĠobÄĽÅ¥": 5940,
      "Ġcti": 5941,
      "Ġjmen": 5942,
      "ĠÅ¯tkl": 5943,
      "Ġenal": 5944,
      "Ġemoh": 5945,
      "Ġaral": 5946,
      "ĠuÅ¾t": 5947,
      "ĠeÅ¡e": 5948,
      "ĠeÅ¡p": 5949,
      "Ġujc": 5950,
      "ĠaÅ¡en": 5951,
      "ĠuÄįne": 5952,
      "Ġepla": 5953,
      "uÅ¡": 5954,
      "Ġostkv": 5955,
      "ĠyÅ¾i": 5956,
      "Ġimkn": 5957,
      "Ġuvk": 5958,
      "Ġoslal": 5959,
      "ĠÄĽcn": 5960,
      "Ġrskem": 5961,
      "ĠuÅ¾bu": 5962,
      "Ġourk": 5963,
      "ĠovÄĽz": 5964,
      "ĠÃ½pk": 5965,
      "ĠlÅĪk": 5966,
      "ĠpaÅ¾": 5967,
      "ĠÅ¯Å¡": 5968,
      "Ġilek": 5969,
      "Ġudku": 5970,
      "ĠÅ¡ik": 5971,
      "Ġvzkaz": 5972,
      "ĠsmÄĽr": 5973,
      "Ġocich": 5974,
      "Ġklast": 5975,
      "Ġazit": 5976,
      "Ġynek": 5977,
      "ĠiÄįÄį": 5978,
      "ĠaÅ¥m": 5979,
      "ĠaÅ¡tk": 5980,
      "ĠistÅĻe": 5981,
      "Ġonat": 5982,
      "ĠABABAA": 5983,
      "ĠoÅ¾ne": 5984,
      "Ġmlh": 5985,
      "ĠouÅ¡c": 5986,
      "ĠaÅ¡la": 5987,
      "ĠiÄįnÄĽ": 5988,
      "Ġespl": 5989,
      "Ġazdna": 5990,
      "Ġakev": 5991,
      "Ġazrak": 5992,
      "Ġrvk": 5993,
      "Ġijet": 5994,
      "Ġhnan": 5995,
      "ĠÃ³p": 5996,
      "ĠÄĽrni": 5997,
      "Ġibku": 5998,
      "ĠrÅ¾el": 5999,
      "Ġornou": 6000,
      "Ġostly": 6001,
      "ĠuÅ¡tÄĽn": 6002,
      "Ġojsko": 6003,
      "Ġadci": 6004,
      "Ġirkve": 6005,
      "iz": 6006,
      "Ġitym": 6007,
      "Ġonstv": 6008,
      "Ġichne": 6009,
      "ĠyÅ¡v": 6010,
      "ĠÄĽdou": 6011,
      "Ġasnem": 6012,
      "Ġadlych": 6013,
      "ĠouÅĻil": 6014,
      "Ġips": 6015,
      "Ġilnou": 6016,
      "Ġovej": 6017,
      "Ġosky": 6018,
      "Ġechci": 6019,
      "ĠmÅĻe": 6020,
      "ĠXABX": 6021,
      "Ġirna": 6022,
      "Ġonsl": 6023,
      "Ġeatr": 6024,
      "ck": 6025,
      "Ġoa": 6026,
      "ĠasÅĪ": 6027,
      "Ġslet": 6028,
      "ĠAXX": 6029,
      "ĠuÅ¾il": 6030,
      "ĠÄĽkal": 6031,
      "Ġdrak": 6032,
      "ĠeÅ¡tv": 6033,
      "Ġurne": 6034,
      "Ġolnou": 6035,
      "ĠrÅ¾en": 6036,
      "Ġzbled": 6037,
      "ĠeÃºn": 6038,
      "Ġvznest": 6039,
      "Ġilce": 6040,
      "Ġoph": 6041,
      "Ġsmim": 6042,
      "Ġapky": 6043,
      "Ġvran": 6044,
      "ĠustÅ¡": 6045,
      "Ġrnu": 6046,
      "Ġurny": 6047,
      "ĠÃ©kn": 6048,
      "Ġozzp": 6049,
      "Ġail": 6050,
      "Ġruk": 6051,
      "Ġlich": 6052,
      "Ġilet": 6053,
      "Ġitt": 6054,
      "ĠpÅĻat": 6055,
      "Ġslep": 6056,
      "Ġichal": 6057,
      "Ġikym": 6058,
      "ĠoÅ¾b": 6059,
      "ĠoÅ¾ar": 6060,
      "Ġubec": 6061,
      "ĠÄĽsem": 6062,
      "BAC": 6063,
      "ĠatÅĻt": 6064,
      "ĠandÅ¾": 6065,
      "Ġobny": 6066,
      "ĠÄĽtve": 6067,
      "Ġytra": 6068,
      "ĠABCBAC": 6069,
      "Ġzad": 6070,
      "Ġasat": 6071,
      "Ġinl": 6072,
      "Ġerych": 6073,
      "Ġidou": 6074,
      "Ġezz": 6075,
      "Ġucho": 6076,
      "Ġlnost": 6077,
      "Ġychou": 6078,
      "ĠeÅĪk": 6079,
      "Ġutnou": 6080,
      "ĠÅ¯rn": 6081,
      "ĠaneÅ¡": 6082,
      "Ġidle": 6083,
      "Ġitbach": 6084,
      "Ġemstvim": 6085,
      "ĠavÅ¾dy": 6086,
      "Ġbez": 6087,
      "Ġotil": 6088,
      "Ġarii": 6089,
      "Ġokym": 6090,
      "ĠeÅ¡ni": 6091,
      "ĠiÅ¾j": 6092,
      "ĠiÅ¾em": 6093,
      "ĠiÅ¾el": 6094,
      "ĠumiÅ¡": 6095,
      "ĠAABBXB": 6096,
      "Ġijak": 6097,
      "ĠouÅ¡i": 6098,
      "Ġyrs": 6099,
      "Ġahnu": 6100,
      "Ġyce": 6101,
      "Ġouett": 6102,
      "Ġenz": 6103,
      "Ġesen": 6104,
      "ĠÄĽlost": 6105,
      "Ġoten": 6106,
      "Ġahat": 6107,
      "Ġulych": 6108,
      "ĠuhÅĻ": 6109,
      "ĠÄĽzne": 6110,
      "Ġurky": 6111,
      "Ġrzc": 6112,
      "ĠoÅ¾ny": 6113,
      "Ġidnym": 6114,
      "Ġoucna": 6115,
      "ĠuÄįny": 6116,
      "Ġosmn": 6117,
      "ĠmÅĻiÅ¾": 6118,
      "Ġetbu": 6119,
      "Ġankyt": 6120,
      "Ġesel": 6121,
      "Ġasie": 6122,
      "ĠaÅ¾el": 6123,
      "ĠytÄį": 6124,
      "Ġimo": 6125,
      "Ġmlat": 6126,
      "Ġuvy": 6127,
      "Ġystal": 6128,
      "Ġrpi": 6129,
      "Ġrci": 6130,
      "ĠÃŃskl": 6131,
      "Ġodzv": 6132,
      "oz": 6133,
      "Ġyor": 6134,
      "Ġdych": 6135,
      "Ġhle": 6136,
      "Ġbloud": 6137,
      "Ġzvat": 6138,
      "ĠdvÄĽ": 6139,
      "Ġybu": 6140,
      "Ġickni": 6141,
      "Ġalnou": 6142,
      "Ġentn": 6143,
      "ĠÄĽÅ¾nÄĽ": 6144,
      "Ġeskly": 6145,
      "Ġejskv": 6146,
      "yz": 6147,
      "ĠbaÅĪ": 6148,
      "Ġaso": 6149,
      "Ġechou": 6150,
      "Ġobre": 6151,
      "Ġecke": 6152,
      "Ġadnym": 6153,
      "Ġyslit": 6154,
      "Ġyvl": 6155,
      "Ġipsk": 6156,
      "Ġuzna": 6157,
      "Ġabla": 6158,
      "Ġelmy": 6159,
      "Ġpst": 6160,
      "Ġsvod": 6161,
      "Ġamh": 6162,
      "Ġylh": 6163,
      "Ġsnest": 6164,
      "Ġstroj": 6165,
      "Ġurce": 6166,
      "Ġibam": 6167,
      "Ġsklon": 6168,
      "ĠvÅĻel": 6169,
      "Ġyda": 6170,
      "Ġebna": 6171,
      "Ġitbou": 6172,
      "ĠveÄı": 6173,
      "ĠelÅ¾": 6174,
      "ĠchuÅ¥": 6175,
      "Ġicym": 6176,
      "ĠaÅ¾m": 6177,
      "Ġgn": 6178,
      "ĠskvÄĽl": 6179,
      "Ġodvl": 6180,
      "Ġanach": 6181,
      "ĠejÅ¡im": 6182,
      "Ġychla": 6183,
      "ĠÄĽzny": 6184,
      "ĠetÅĻi": 6185,
      "Ġuil": 6186,
      "ĠÅ¡eÅĻ": 6187,
      "ĠÄĽnit": 6188,
      "ĠibÅĻ": 6189,
      "Ġotcem": 6190,
      "ĠouÄįek": 6191,
      "Ġmdle": 6192,
      "ĠuÅ¡ko": 6193,
      "Ġrmi": 6194,
      "ĠÃ©Å¥": 6195,
      "ĠilÅ¥": 6196,
      "Ġadj": 6197,
      "Ġelim": 6198,
      "ĠanÅ¡t": 6199,
      "Ġinim": 6200,
      "Ġhles": 6201,
      "Ġikan": 6202,
      "Ġopast": 6203,
      "Ġocel": 6204,
      "ĠeÄįnych": 6205,
      "Ġalie": 6206,
      "Ġouba": 6207,
      "Ġilky": 6208,
      "Ġivce": 6209,
      "Ġytost": 6210,
      "Ġimne": 6211,
      "Ġubt": 6212,
      "ĠuÄįet": 6213,
      "Ġucy": 6214,
      "ĠymÄĽ": 6215,
      "Ġotcu": 6216,
      "ĠkÅĪ": 6217,
      "Ġatstvi": 6218,
      "Ġonech": 6219,
      "Ġoro": 6220,
      "Ġkram": 6221,
      "Ġezsk": 6222,
      "Ġunach": 6223,
      "Ġennym": 6224,
      "ĠalnÄĽ": 6225,
      "Ġydal": 6226,
      "Ġvztah": 6227,
      "ĠevÅĻe": 6228,
      "Ġovska": 6229,
      "ĠyÅĻk": 6230,
      "ĠoÄım": 6231,
      "ĠhÅĻbet": 6232,
      "Ġitlo": 6233,
      "ĠÅ¯sl": 6234,
      "Ġtys": 6235,
      "Ġhas": 6236,
      "ĠÄįim": 6237,
      "Ġamal": 6238,
      "Ġomil": 6239,
      "ĠetÄĽt": 6240,
      "Ġohv": 6241,
      "Ġezy": 6242,
      "Ġutu": 6243,
      "ĠoÅ¾r": 6244,
      "ĠoÅ¾ich": 6245,
      "ĠyÅ¡p": 6246,
      "Ġodre": 6247,
      "ĠanÄĽn": 6248,
      "ĠuÅ¾bÄĽ": 6249,
      "Ġydlo": 6250,
      "ĠtÄĽm": 6251,
      "ĠÃ½pl": 6252,
      "ĠpeÅĪ": 6253,
      "ĠÅ¾id": 6254,
      "ĠÄĽlb": 6255,
      "Ġorp": 6256,
      "Ġkryt": 6257,
      "Ġylku": 6258,
      "Ġevh": 6259,
      "Ġevni": 6260,
      "Ġeza": 6261,
      "ĠiÅ¾im": 6262,
      "ĠXAXB": 6263,
      "Ġzpit": 6264,
      "Ġouty": 6265,
      "Ġiza": 6266,
      "Ġeslem": 6267,
      "Ġehna": 6268,
      "Ġeohr": 6269,
      "Ġyskal": 6270,
      "ĠeÄįkem": 6271,
      "Ġisly": 6272,
      "Ġrscich": 6273,
      "ĠÄĽlky": 6274,
      "Ġamm": 6275,
      "Ġkde": 6276,
      "Ġarev": 6277,
      "Ġylou": 6278,
      "Ġahej": 6279,
      "ĠoÄįet": 6280,
      "Ġhruz": 6281,
      "ĠÃ¡dÄį": 6282,
      "Ġukv": 6283,
      "ĠaziÅ¡": 6284,
      "ĠÃŃvn": 6285,
      "ĠaÅ¾dou": 6286,
      "Ġurm": 6287,
      "Ġemnym": 6288,
      "Ġodnych": 6289,
      "Ġantk": 6290,
      "Ġtyl": 6291,
      "Ġilka": 6292,
      "Ġajky": 6293,
      "ĠÄĽnky": 6294,
      "ĠeÄįen": 6295,
      "Ġopou": 6296,
      "Ġytka": 6297,
      "Ġabstv": 6298,
      "Ġabat": 6299,
      "Ġychne": 6300,
      "Ġadnych": 6301,
      "Ġouchat": 6302,
      "ĠobÅĻi": 6303,
      "ĠÃ©vk": 6304,
      "iÅĻ": 6305,
      "Ġoal": 6306,
      "Ġoel": 6307,
      "ĠÄĽsk": 6308,
      "Ġobstv": 6309,
      "Ġerii": 6310,
      "ĠomeÅĪ": 6311,
      "ĠÅ¡est": 6312,
      "ĠiÅ¾en": 6313,
      "Ġyschn": 6314,
      "Ġuchou": 6315,
      "Ġizim": 6316,
      "Ġvrh": 6317,
      "Ġadnem": 6318,
      "ĠÄĽsnÄĽ": 6319,
      "ĠskÅĻek": 6320,
      "ĠÃŃmÅ¾t": 6321,
      "Ġrdlo": 6322,
      "Ġuhle": 6323,
      "ĠvzkÅĻik": 6324,
      "Ġiac": 6325,
      "Ġezbl": 6326,
      "Ġympsk": 6327,
      "ĠkdyÅ¾": 6328,
      "Ġedstv": 6329,
      "Ġejem": 6330,
      "ĠÃŃct": 6331,
      "ĠABABBA": 6332,
      "Ġplan": 6333,
      "Ġepu": 6334,
      "Ġyvn": 6335,
      "Ġebral": 6336,
      "Ġitnou": 6337,
      "ĠÅ¡tvan": 6338,
      "AAB": 6339,
      "Ġoot": 6340,
      "ĠadosÅ¥": 6341,
      "Ġelum": 6342,
      "ĠÅ¾b": 6343,
      "Ġesal": 6344,
      "Ġkdos": 6345,
      "Ġohni": 6346,
      "ĠÄĽnach": 6347,
      "Ġsnaz": 6348,
      "Ġecj": 6349,
      "ĠAABAAB": 6350,
      "ĠzmÄĽn": 6351,
      "Ġisko": 6352,
      "Ġeubr": 6353,
      "Ġonnou": 6354,
      "Ġaor": 6355,
      "Ġuert": 6356,
      "Ġilsk": 6357,
      "Ġobni": 6358,
      "Ġezem": 6359,
      "ĠiÅ¾m": 6360,
      "Ġytych": 6361,
      "Ġustem": 6362,
      "Ġenit": 6363,
      "ĠzmÄĽÅ¥": 6364,
      "Ġchcem": 6365,
      "ĠouÅ¡ek": 6366,
      "Ġenty": 6367,
      "Ġezla": 6368,
      "Ġistra": 6369,
      "Ġrob": 6370,
      "Ġostil": 6371,
      "Ġotne": 6372,
      "Ġhluch": 6373,
      "ĠÃ¡tsk": 6374,
      "ous": 6375,
      "ĠiÅ¾ka": 6376,
      "Ġijn": 6377,
      "Ġypal": 6378,
      "Ġrnul": 6379,
      "ĠyÄįc": 6380,
      "ĠyzeÅĪ": 6381,
      "Ġoliv": 6382,
      "ĠostÅĻed": 6383,
      "ĠeseÅ¡": 6384,
      "Ġazny": 6385,
      "ĠrÅ¡l": 6386,
      "Ġahnout": 6387,
      "ĠzvlaÅ¡Å¥": 6388,
      "Ġeusn": 6389,
      "ĠapeÅ¾": 6390,
      "Ġyad": 6391,
      "ĠemÄĽl": 6392,
      "ĠÄĽtne": 6393,
      "Ġuzich": 6394,
      "Ġipc": 6395,
      "Ġidskych": 6396,
      "Ġycen": 6397,
      "ĠejtÅĻ": 6398,
      "ĠmaÅ¥": 6399,
      "Ġodzim": 6400,
      "ĠsaÅĪ": 6401,
      "Ġstad": 6402,
      "Ġojak": 6403,
      "XAA": 6404,
      "ĠuÄįky": 6405,
      "Ġernich": 6406,
      "Ġodlit": 6407,
      "ĠatÅĻp": 6408,
      "Ġevnou": 6409,
      "Ġeoch": 6410,
      "ĠudnÄĽ": 6411,
      "Ġiob": 6412,
      "ĠiÅĻem": 6413,
      "Ġevzr": 6414,
      "Ġifl": 6415,
      "ĠlÅĪt": 6416,
      "Ġsup": 6417,
      "Ġedsk": 6418,
      "Ġolech": 6419,
      "Ġejim": 6420,
      "Ġzdat": 6421,
      "Ġimm": 6422,
      "Ġachl": 6423,
      "Ġrsek": 6424,
      "ĠoÅĻiÅ¡": 6425,
      "Ġinkv": 6426,
      "ĠevÅĻt": 6427,
      "Ġezlo": 6428,
      "ĠazpÄĽt": 6429,
      "Ġobsl": 6430,
      "Ġoib": 6431,
      "Ġadhv": 6432,
      "Ġaen": 6433,
      "ĠalÅ¾": 6434,
      "Ġitz": 6435,
      "Ġimpr": 6436,
      "Ġhnul": 6437,
      "ĠÄĽÄįnym": 6438,
      "ĠhÅĻat": 6439,
      "Ġchrt": 6440,
      "Ġlhal": 6441,
      "Ġrpy": 6442,
      "Ġotcy": 6443,
      "Ġestrou": 6444,
      "ĠÃ¡ÅĪk": 6445,
      "Ġourn": 6446,
      "Ġvat": 6447,
      "Ġemen": 6448,
      "ĠinÅ¡": 6449,
      "Ġhloh": 6450,
      "ĠÃ¡dÅĻ": 6451,
      "ĠyÅ¡ky": 6452,
      "Ġacky": 6453,
      "ĠÄĽÅ¡nÄĽ": 6454,
      "Ġivnou": 6455,
      "ĠyÄįil": 6456,
      "Ġyzk": 6457,
      "Ġeknou": 6458,
      "Ġismu": 6459,
      "ĠÄĽtmi": 6460,
      "af": 6461,
      "ĠÃ¡ls": 6462,
      "ĠevÄį": 6463,
      "Ġuben": 6464,
      "Ġenich": 6465,
      "ĠoÅ¡c": 6466,
      "Ġarno": 6467,
      "Ġyrsk": 6468,
      "Ġenstvo": 6469,
      "ĠsiÅ¥": 6470,
      "ĠeÃŃ": 6471,
      "Ġoism": 6472,
      "ĠABAXBX": 6473,
      "ĠpÄĽsÅ¥": 6474,
      "Ġoven": 6475,
      "Ġodum": 6476,
      "ĠÅ¡ij": 6477,
      "ĠehÅĪ": 6478,
      "ĠuÅ¾ne": 6479,
      "Ġisch": 6480,
      "Ġostnych": 6481,
      "Ġostnym": 6482,
      "Ġetny": 6483,
      "ĠÄĽncu": 6484,
      "ĠiÃ³n": 6485,
      "cl": 6486,
      "rl": 6487,
      "Ġoick": 6488,
      "Ġsz": 6489,
      "Ġkos": 6490,
      "Ġilel": 6491,
      "Ġelit": 6492,
      "Ġastl": 6493,
      "Ġistech": 6494,
      "ĠÄĽÅ¾stv": 6495,
      "ĠaÅĻstv": 6496,
      "ĠÃ½vr": 6497,
      "ĠomnÄĽ": 6498,
      "Ġozpn": 6499,
      "ĠebnÄĽ": 6500,
      "ĠoÄįnou": 6501,
      "Ġovskou": 6502,
      "ĠoÄıc": 6503,
      "Ġinde": 6504,
      "Ġevzpl": 6505,
      "Ġait": 6506,
      "Ġovam": 6507,
      "Ġstud": 6508,
      "Ġeschl": 6509,
      "Ġpral": 6510,
      "Ġamky": 6511,
      "Ġarstv": 6512,
      "Ġylb": 6513,
      "Ġylt": 6514,
      "Ġylem": 6515,
      "Ġvznik": 6516,
      "Ġestech": 6517,
      "ĠaÅĻku": 6518,
      "ĠÃ³z": 6519,
      "Ġozny": 6520,
      "Ġechnout": 6521,
      "Ġitrem": 6522,
      "ĠaÄįno": 6523,
      "Ġentsk": 6524,
      "Ġihnou": 6525,
      "ĠhÅĻmi": 6526,
      "Ġensky": 6527,
      "Ġoura": 6528,
      "Ġiemi": 6529,
      "ĠXABAXB": 6530,
      "Ġuar": 6531,
      "Ġchud": 6532,
      "Ġomen": 6533,
      "Ġspas": 6534,
      "Ġednem": 6535,
      "ĠulÄį": 6536,
      "Ġubil": 6537,
      "Ġubit": 6538,
      "Ġmluv": 6539,
      "ĠeÄıte": 6540,
      "Ġvzdych": 6541,
      "Ġuck": 6542,
      "Ġidskou": 6543,
      "Ġoklad": 6544,
      "Ġesmi": 6545,
      "Ġencem": 6546,
      "ĠeÅ¡lo": 6547,
      "Ġuzny": 6548,
      "ĠÄĽzna": 6549,
      "Ġamnou": 6550,
      "Ġvjezd": 6551,
      "Ġalpsk": 6552,
      "Ġator": 6553,
      "ĠÃ¡lsk": 6554,
      "ĠopiÅ¡": 6555,
      "Ġytim": 6556,
      "Ġuno": 6557,
      "Ġistc": 6558,
      "Ġostiv": 6559,
      "Ġpta": 6560,
      "Ġutnych": 6561,
      "ĠaÅĪte": 6562,
      "Ġrpkl": 6563,
      "Ġeok": 6564,
      "ĠÃºstk": 6565,
      "ĠotnÄĽ": 6566,
      "Ġedmn": 6567,
      "Ġokvas": 6568,
      "Ġsok": 6569,
      "Ġemam": 6570,
      "Ġarach": 6571,
      "Ġylv": 6572,
      "Ġicu": 6573,
      "Ġapp": 6574,
      "Ġabit": 6575,
      "Ġoutky": 6576,
      "ĠaÅ¥s": 6577,
      "Ġodruh": 6578,
      "Ġiog": 6579,
      "Ġumny": 6580,
      "ĠoustÅĻ": 6581,
      "Ġytla": 6582,
      "Ġethe": 6583,
      "Ġinkach": 6584,
      "Ġvzmach": 6585,
      "ĠÃºml": 6586,
      "Ġeinr": 6587,
      "Ġvad": 6588,
      "ĠoviÅ¡": 6589,
      "Ġohm": 6590,
      "Ġoram": 6591,
      "ĠutÅ¡": 6592,
      "Ġrdou": 6593,
      "Ġopim": 6594,
      "Ġzdob": 6595,
      "Ġvlat": 6596,
      "ĠAABXXB": 6597,
      "Ġtroud": 6598,
      "ĠÄĽÅ¾Å¡i": 6599,
      "ĠÄĽchou": 6600,
      "Ġvzdm": 6601,
      "Ġvzdal": 6602,
      "ĠÄĽctv": 6603,
      "Ġotva": 6604,
      "Ġojnost": 6605,
      "Ġetnou": 6606,
      "Ġvzrost": 6607,
      "Ġoeta": 6608,
      "Ġendl": 6609,
      "Ġodo": 6610,
      "Ġamych": 6611,
      "Ġerak": 6612,
      "Ġebu": 6613,
      "Ġekot": 6614,
      "Ġytal": 6615,
      "Ġzvan": 6616,
      "Ġimem": 6617,
      "ĠÄĽÅ¡il": 6618,
      "ĠouÅ¡ky": 6619,
      "ĠrÅ¾et": 6620,
      "ĠyÄįe": 6621,
      "Ġycv": 6622,
      "ĠÄĽncem": 6623,
      "ĠlÅ¾i": 6624,
      "ĠedeÅ¡": 6625,
      "Ġubny": 6626,
      "Ġssal": 6627,
      "ĠABCCBA": 6628,
      "Ġaim": 6629,
      "Ġovs": 6630,
      "Ġonen": 6631,
      "ĠÄĽnÄĽn": 6632,
      "Ġvlak": 6633,
      "Ġubou": 6634,
      "Ġernym": 6635,
      "Ġolno": 6636,
      "ĠatÅĻit": 6637,
      "Ġajna": 6638,
      "Ġrby": 6639,
      "ĠejpÅĻ": 6640,
      "Ġaele": 6641,
      "Ġavin": 6642,
      "Ġprch": 6643,
      "Ġivim": 6644,
      "ĠotaÅĻ": 6645,
      "Ġklek": 6646,
      "ĠusiÅ¡": 6647,
      "ĠupÄĽ": 6648,
      "Ġupen": 6649,
      "Ġodnym": 6650,
      "Ġetle": 6651,
      "Ġousek": 6652,
      "Ġotnou": 6653,
      "Ġiost": 6654,
      "Ġedej": 6655,
      "Ġolan": 6656,
      "Ġivit": 6657,
      "Ġevsk": 6658,
      "ĠÄĽjne": 6659,
      "Ġhrej": 6660,
      "ĠiÅ¡Å¡i": 6661,
      "ĠÃ¡csl": 6662,
      "Ġrhat": 6663,
      "Ġied": 6664,
      "Ġacie": 6665,
      "Ġetna": 6666,
      "Ġouna": 6667,
      "ĠitaÅ¡": 6668,
      "Ġezke": 6669,
      "Ġaft": 6670,
      "ĠÃºpr": 6671,
      "Ġetru": 6672,
      "ĠAAAABB": 6673,
      "Ġilni": 6674,
      "Ġohum": 6675,
      "Ġozsm": 6676,
      "ĠÃŃck": 6677,
      "Ġemnem": 6678,
      "Ġohlo": 6679,
      "Ġezni": 6680,
      "Ġyjt": 6681,
      "ĠÄĽrnym": 6682,
      "Ġocna": 6683,
      "Ġpsi": 6684,
      "ĠytiÅĻ": 6685,
      "ĠAAXAXA": 6686,
      "Ġeobv": 6687,
      "Ġtn": 6688,
      "Ġtem": 6689,
      "Ġilstv": 6690,
      "Ġivku": 6691,
      "Ġotni": 6692,
      "Ġamat": 6693,
      "Ġchod": 6694,
      "Ġutym": 6695,
      "Ġocne": 6696,
      "ĠkliÄį": 6697,
      "ĠaÅ¡ek": 6698,
      "Ġuman": 6699,
      "ĠÄĽml": 6700,
      "Ġoudk": 6701,
      "Ġizu": 6702,
      "ĠenÅ¾s": 6703,
      "Ġemni": 6704,
      "Ġarnem": 6705,
      "Ġatnym": 6706,
      "ĠenaÅ¡": 6707,
      "ĠyÄįku": 6708,
      "Ġsplav": 6709,
      "Ġidstvo": 6710,
      "ĠÃŃskn": 6711,
      "Ġexp": 6712,
      "Ġeobj": 6713,
      "ĠoÃ¡": 6714,
      "Ġtw": 6715,
      "Ġasb": 6716,
      "Ġits": 6717,
      "Ġerst": 6718,
      "Ġevkr": 6719,
      "Ġevzk": 6720,
      "Ġizr": 6721,
      "Ġvzdat": 6722,
      "Ġihat": 6723,
      "ĠrpÄĽl": 6724,
      "ĠobnÄĽ": 6725,
      "Ġchmur": 6726,
      "ĠyÅ¡nÄĽ": 6727,
      "ĠimnÄĽ": 6728,
      "Ġsnuv": 6729,
      "ĠABBABX": 6730,
      "ĠAXBBAX": 6731,
      "ĠudÅ¡i": 6732,
      "Ġecham": 6733,
      "Ġepal": 6734,
      "ĠÄĽzu": 6735,
      "ĠuÄįit": 6736,
      "ĠuÄįku": 6737,
      "neÅ¡": 6738,
      "ĠÃ½vk": 6739,
      "Ġibu": 6740,
      "ĠvstaÅĪ": 6741,
      "Ġior": 6742,
      "ĠÅ¯dÄį": 6743,
      "Ġihnout": 6744,
      "ĠÄĽtvi": 6745,
      "Ġindy": 6746,
      "ĠABCAC": 6747,
      "ĠABCACB": 6748,
      "Ġlsk": 6749,
      "Ġerym": 6750,
      "ĠaÅ¾im": 6751,
      "Ġutc": 6752,
      "Ġistk": 6753,
      "ĠaÄįal": 6754,
      "Ġdrah": 6755,
      "ĠeÄįno": 6756,
      "Ġozvzt": 6757,
      "Ġechno": 6758,
      "ĠesnÄĽ": 6759,
      "Ġokno": 6760,
      "ĠoÅĪm": 6761,
      "Ġijdou": 6762,
      "Ġukla": 6763,
      "Ġefn": 6764,
      "ĠovÅ¡em": 6765,
      "Ġezhv": 6766,
      "ĠABXABX": 6767,
      "Ġoab": 6768,
      "Ġathl": 6769,
      "Ġonim": 6770,
      "Ġosel": 6771,
      "ĠuÅ¡Äį": 6772,
      "Ġulu": 6773,
      "Ġulku": 6774,
      "Ġtrh": 6775,
      "Ġchlap": 6776,
      "Ġovnu": 6777,
      "Ġandu": 6778,
      "Ġipem": 6779,
      "Ġospas": 6780,
      "Ġemske": 6781,
      "Ġunkt": 6782,
      "ĠAXXAXX": 6783,
      "ĠivÅ¡e": 6784,
      "Ġyac": 6785,
      "sch": 6786,
      "Ġaer": 6787,
      "ĠmÅĪ": 6788,
      "Ġlit": 6789,
      "Ġilt": 6790,
      "ĠÄįert": 6791,
      "ĠudiÅ¡": 6792,
      "ĠiÅ¾it": 6793,
      "ĠoÅ¡kv": 6794,
      "ĠÃŃstn": 6795,
      "Ġomnost": 6796,
      "Ġrtvych": 6797,
      "Ġanty": 6798,
      "ĠrÅ¾k": 6799,
      "Ġebnou": 6800,
      "Ġerth": 6801,
      "Ġofr": 6802,
      "ĠmÄĽch": 6803,
      "Ġodnes": 6804,
      "ĠeupÅĻ": 6805,
      "Ġryh": 6806,
      "Ġaem": 6807,
      "Ġtyn": 6808,
      "Ġalch": 6809,
      "Ġiluj": 6810,
      "Ġodam": 6811,
      "ĠÅ¾ert": 6812,
      "Ġobsk": 6813,
      "ĠÄĽtstvi": 6814,
      "Ġetku": 6815,
      "Ġajen": 6816,
      "Ġutich": 6817,
      "Ġapce": 6818,
      "ĠiÄįni": 6819,
      "ĠaniÅ¡": 6820,
      "Ġvrch": 6821,
      "ĠÄĽtlu": 6822,
      "Ġystl": 6823,
      "ĠÅ¯zl": 6824,
      "ĠuÅ¡iÅ¡": 6825,
      "Ġztrat": 6826,
      "Ġoule": 6827,
      "ĠÃ½ÅĻsk": 6828,
      "ĠitÅĻk": 6829,
      "Ġytkn": 6830,
      "Ġudrl": 6831,
      "ĠÃ¶r": 6832,
      "oÅĻ": 6833,
      "Ġakon": 6834,
      "Ġedek": 6835,
      "ĠaÅ¾ky": 6836,
      "Ġukc": 6837,
      "ĠyÅ¾s": 6838,
      "Ġimou": 6839,
      "Ġlno": 6840,
      "ĠÃŃdm": 6841,
      "Ġelkem": 6842,
      "Ġovnych": 6843,
      "Ġyrrh": 6844,
      "ĠÃŃjm": 6845,
      "Ġajdu": 6846,
      "Ġaznou": 6847,
      "ĠosmÄĽch": 6848,
      "ĠÄĽlec": 6849,
      "ĠespÅĻ": 6850,
      "Ġeim": 6851,
      "Ġzisk": 6852,
      "Ġmok": 6853,
      "Ġelek": 6854,
      "ĠpÅĻej": 6855,
      "ĠamÅ¥": 6856,
      "Ġozem": 6857,
      "Ġicem": 6858,
      "ĠoÅ¾ky": 6859,
      "ĠiÄįen": 6860,
      "Ġohlav": 6861,
      "Ġtmi": 6862,
      "Ġrnem": 6863,
      "Ġibit": 6864,
      "ĠouÅ¡ka": 6865,
      "Ġrze": 6866,
      "ĠÃ½lc": 6867,
      "Ġervy": 6868,
      "Ġertr": 6869,
      "Ġejvr": 6870,
      "Ġukly": 6871,
      "Ġislav": 6872,
      "ĠeÃºr": 6873,
      "ĠeÃºst": 6874,
      "sp": 6875,
      "vl": 6876,
      "ĠkouÅĻ": 6877,
      "Ġroh": 6878,
      "Ġsved": 6879,
      "Ġolej": 6880,
      "Ġomoz": 6881,
      "ĠspÄĽj": 6882,
      "Ġblah": 6883,
      "Ġastech": 6884,
      "Ġuma": 6885,
      "Ġvryt": 6886,
      "Ġvryl": 6887,
      "ĠchtiÄį": 6888,
      "ĠozkoÅ¡": 6889,
      "Ġalnym": 6890,
      "ĠiÅ¡tich": 6891,
      "Ġezdv": 6892,
      "ĠavÅĻel": 6893,
      "Ġytnou": 6894,
      "Ġunny": 6895,
      "Ġaal": 6896,
      "Ġsic": 6897,
      "ĠÄĽjem": 6898,
      "ĠuÅ¾stvi": 6899,
      "Ġulm": 6900,
      "Ġijou": 6901,
      "Ġupe": 6902,
      "ĠÃ³dn": 6903,
      "Ġoupu": 6904,
      "ĠoÅ¡tv": 6905,
      "Ġlzach": 6906,
      "ĠuÄıte": 6907,
      "Ġodra": 6908,
      "ĠÄĽrnych": 6909,
      "Ġjev": 6910,
      "Ġeokl": 6911,
      "Ġovskych": 6912,
      "Ġialky": 6913,
      "Ġezvl": 6914,
      "ĠleÄį": 6915,
      "Ġenr": 6916,
      "Ġekni": 6917,
      "Ġidit": 6918,
      "Ġednich": 6919,
      "Ġulky": 6920,
      "Ġkvet": 6921,
      "ĠuÄįin": 6922,
      "ĠÄĽdku": 6923,
      "Ġbrod": 6924,
      "Ġoupe": 6925,
      "ĠÃ½Å¡c": 6926,
      "ĠlÄįel": 6927,
      "Ġobnou": 6928,
      "ĠaÄįiÅ¡": 6929,
      "Ġcnost": 6930,
      "ĠAXBABX": 6931,
      "iÄı": 6932,
      "Ġessk": 6933,
      "Ġarky": 6934,
      "Ġepem": 6935,
      "ĠdruÅ¾": 6936,
      "Ġocht": 6937,
      "Ġemno": 6938,
      "ĠÄĽcm": 6939,
      "and": 6940,
      "ĠlÄįt": 6941,
      "Ġatec": 6942,
      "Ġechta": 6943,
      "Ġumna": 6944,
      "Ġltn": 6945,
      "Ġella": 6946,
      "Ġtisk": 6947,
      "Ġaick": 6948,
      "Ġpust": 6949,
      "Ġovky": 6950,
      "Ġavku": 6951,
      "Ġstah": 6952,
      "Ġostel": 6953,
      "Ġetka": 6954,
      "Ġeben": 6955,
      "ĠuÅ¾Å¡i": 6956,
      "Ġchvit": 6957,
      "Ġchlum": 6958,
      "ĠÄĽhne": 6959,
      "ĠÅ¯lkr": 6960,
      "ĠÄĽrnost": 6961,
      "Ġvnuk": 6962,
      "Ġikly": 6963,
      "Ġhmyz": 6964,
      "Ġezti": 6965,
      "ĠABBXAX": 6966,
      "Ġychrl": 6967,
      "Ġadej": 6968,
      "Ġinfr": 6969,
      "Ġivr": 6970,
      "ĠoÄįky": 6971,
      "Ġhrach": 6972,
      "ĠÃŃchl": 6973,
      "Ġstrop": 6974,
      "Ġenic": 6975,
      "ĠÄĽrÄį": 6976,
      "Ġouzd": 6977,
      "Ġadnu": 6978,
      "Ġoubek": 6979,
      "ĠÄĽcku": 6980,
      "Ġyskem": 6981,
      "Ġudbu": 6982,
      "Ġrhnul": 6983,
      "Ġvpad": 6984,
      "Ġihlo": 6985,
      "Ġouvl": 6986,
      "Ġew": 6987,
      "ĠvÄĽt": 6988,
      "Ġrev": 6989,
      "Ġprut": 6990,
      "Ġines": 6991,
      "Ġosc": 6992,
      "Ġezkl": 6993,
      "Ġeskni": 6994,
      "ĠÅ¯jm": 6995,
      "Ġirg": 6996,
      "Ġozval": 6997,
      "ĠiÅ¡lo": 6998,
      "Ġenska": 6999,
      "Ġilla": 7000,
      "Ġmhou": 7001,
      "Ġvjel": 7002,
      "Ġeap": 7003,
      "Ġavzl": 7004,
      "ĠiÃ©r": 7005,
      "Ġatd": 7006,
      "ĠatÅ¡i": 7007,
      "Ġobci": 7008,
      "Ġetat": 7009,
      "ĠidaÅ¡": 7010,
      "Ġezs": 7011,
      "ĠÄĽnek": 7012,
      "Ġapou": 7013,
      "ĠÄĽmÄĽl": 7014,
      "Ġouhu": 7015,
      "Ġbrach": 7016,
      "ĠivnÄĽ": 7017,
      "ĠeoÅ¡": 7018,
      "Ġydne": 7019,
      "ĠÃ½rk": 7020,
      "ĠitÅĻni": 7021,
      "Ġilko": 7022,
      "Ġirnou": 7023,
      "Ġdcer": 7024,
      "Ġeou": 7025,
      "Ġiq": 7026,
      "Ġiav": 7027,
      "Ġryl": 7028,
      "Ġemoc": 7029,
      "Ġadd": 7030,
      "Ġelel": 7031,
      "Ġankr": 7032,
      "ĠÅ¾ni": 7033,
      "Ġolen": 7034,
      "Ġostor": 7035,
      "ĠÄĽtou": 7036,
      "Ġosof": 7037,
      "ĠeÅ¡il": 7038,
      "Ġdrozd": 7039,
      "ĠÃŃÅ¾sk": 7040,
      "ĠiÅ¡sk": 7041,
      "Ġgj": 7042,
      "ĠeneÅ¡": 7043,
      "Ġctit": 7044,
      "ĠouÄįka": 7045,
      "ĠiÄįny": 7046,
      "Ġupny": 7047,
      "Ġolkn": 7048,
      "Ġaksi": 7049,
      "Ġoldr": 7050,
      "ĠchyÅ¾": 7051,
      "Ġaed": 7052,
      "Ġoob": 7053,
      "ĠelÅ¥": 7054,
      "Ġevk": 7055,
      "Ġopat": 7056,
      "ĠaÅ¡ky": 7057,
      "Ġustim": 7058,
      "Ġarnych": 7059,
      "ĠÄĽÅ¡e": 7060,
      "Ġennych": 7061,
      "Ġschm": 7062,
      "Ġitnul": 7063,
      "Ġshled": 7064,
      "Ġedba": 7065,
      "Ġizdo": 7066,
      "ĠeuÅ¡k": 7067,
      "hn": 7068,
      "ĠÄįast": 7069,
      "ĠÄįesÅ¥": 7070,
      "Ġonich": 7071,
      "Ġslok": 7072,
      "Ġarych": 7073,
      "Ġori": 7074,
      "ĠÃŃkÅĻ": 7075,
      "ĠÄĽstou": 7076,
      "ĠÄĽmec": 7077,
      "ĠlhaÅĻ": 7078,
      "Ġennim": 7079,
      "Ġoucho": 7080,
      "Ġokny": 7081,
      "Ġasyl": 7082,
      "Ġotny": 7083,
      "Ġomsty": 7084,
      "ĠemÅĻel": 7085,
      "Ġyjde": 7086,
      "ĠleÅ¥": 7087,
      "ĠXABXAB": 7088,
      "Ġux": 7089,
      "Ġelni": 7090,
      "Ġsvah": 7091,
      "Ġoknech": 7092,
      "Ġosne": 7093,
      "ĠidÅ¡t": 7094,
      "ĠsniÅ¡": 7095,
      "Ġustk": 7096,
      "Ġeckt": 7097,
      "ĠeÄįnik": 7098,
      "Ġeupr": 7099,
      "Ġetnych": 7100,
      "Ġanskou": 7101,
      "ĠaÅĻec": 7102,
      "ĠÄĽznÄĽ": 7103,
      "Ġobzvl": 7104,
      "ĠÄĽÅ¡ti": 7105,
      "Ġiaty": 7106,
      "ĠsmrÅ¥": 7107,
      "Ġaan": 7108,
      "Ġiak": 7109,
      "ĠÃ¡g": 7110,
      "Ġadum": 7111,
      "ĠediÅ¡": 7112,
      "Ġotsk": 7113,
      "Ġome": 7114,
      "Ġezen": 7115,
      "Ġasta": 7116,
      "Ġastup": 7117,
      "Ġstrast": 7118,
      "Ġoudim": 7119,
      "Ġenin": 7120,
      "Ġymem": 7121,
      "Ġostnem": 7122,
      "Ġejno": 7123,
      "ĠevÅĻit": 7124,
      "Ġouval": 7125,
      "Ġykly": 7126,
      "ĠuÅ¾ko": 7127,
      "ĠimÅ¾t": 7128,
      "ĠÄĽpl": 7129,
      "ĠtuÅĪ": 7130,
      "ĠykÅĻik": 7131,
      "Ġabsb": 7132,
      "Ġoyal": 7133,
      "Ġhus": 7134,
      "Ġakch": 7135,
      "Ġaret": 7136,
      "ĠuÅ¡ek": 7137,
      "Ġikych": 7138,
      "Ġapem": 7139,
      "ĠÃ¡zv": 7140,
      "Ġzbor": 7141,
      "Ġenius": 7142,
      "Ġjdu": 7143,
      "Ġenkam": 7144,
      "ĠÄĽjÅ¡k": 7145,
      "ĠAXAABB": 7146,
      "Ġikli": 7147,
      "Ġodml": 7148,
      "Ġaursk": 7149,
      "Ġazdny": 7150,
      "iÅĪ": 7151,
      "ĠenÅ¡i": 7152,
      "Ġodat": 7153,
      "Ġodce": 7154,
      "ĠolesÅ¥": 7155,
      "ĠostÅ¡": 7156,
      "ĠozÅ¡t": 7157,
      "Ġukt": 7158,
      "Ġimsk": 7159,
      "Ġstrh": 7160,
      "Ġuhym": 7161,
      "Ġupce": 7162,
      "nes": 7163,
      "ĠÄĽÄįnem": 7164,
      "Ġiskat": 7165,
      "Ġehnul": 7166,
      "Ġounky": 7167,
      "ĠonÄįi": 7168,
      "ĠimaÅ¡": 7169,
      "ĠÄĽtska": 7170,
      "ĠestnÄĽ": 7171,
      "Ġiter": 7172,
      "ĠuÅ¾ba": 7173,
      "Ġourb": 7174,
      "Ġilly": 7175,
      "ĠechvÄĽn": 7176,
      "Ġibkem": 7177,
      "Ġopis": 7178,
      "Ġivier": 7179,
      "ĠauÄįi": 7180,
      "ĠdÅ¾ban": 7181,
      "ĠAXXABB": 7182,
      "Ġaq": 7183,
      "Ġlom": 7184,
      "Ġilci": 7185,
      "ĠodaÅĻ": 7186,
      "Ġkrad": 7187,
      "Ġosch": 7188,
      "ĠÃ³Å¾": 7189,
      "Ġodlil": 7190,
      "Ġalii": 7191,
      "Ġivna": 7192,
      "ĠbÅĻiz": 7193,
      "Ġyjm": 7194,
      "ĠaÅ¡lo": 7195,
      "Ġezli": 7196,
      "Ġalvan": 7197,
      "Ġakvi": 7198,
      "Ġiate": 7199,
      "Ġozzl": 7200,
      "Ġujde": 7201,
      "Ġujdu": 7202,
      "Ġedky": 7203,
      "Ġotky": 7204,
      "Ġeten": 7205,
      "Ġslz": 7206,
      "ĠsluÅ¾": 7207,
      "Ġikc": 7208,
      "Ġopal": 7209,
      "ĠuknÄĽ": 7210,
      "Ġabor": 7211,
      "ĠÄĽvi": 7212,
      "ĠÄĽÅ¾m": 7213,
      "ĠÄĽzil": 7214,
      "ĠÄĽzni": 7215,
      "ĠuÄįni": 7216,
      "Ġenik": 7217,
      "Ġozdy": 7218,
      "Ġomna": 7219,
      "Ġalnem": 7220,
      "Ġvzrust": 7221,
      "Ġuhli": 7222,
      "ĠÃ½Å¾Äı": 7223,
      "Ġortn": 7224,
      "ĠadeÅ¾": 7225,
      "Ġspjal": 7226,
      "Ġdbal": 7227,
      "Ġadby": 7228,
      "Ġouzvuk": 7229,
      "dh": 7230,
      "Ġead": 7231,
      "Ġoin": 7232,
      "Ġoor": 7233,
      "Ġdz": 7234,
      "Ġolet": 7235,
      "Ġamym": 7236,
      "Ġebil": 7237,
      "ĠeÅ¾r": 7238,
      "ĠÃ¡db": 7239,
      "Ġazan": 7240,
      "ĠiÅ¾ku": 7241,
      "ĠAABABX": 7242,
      "Ġznik": 7243,
      "Ġubem": 7244,
      "Ġbrav": 7245,
      "ĠaÅĻky": 7246,
      "Ġasno": 7247,
      "ĠÃ¡jc": 7248,
      "Ġoubku": 7249,
      "ĠdÅĻev": 7250,
      "ĠyÅ¡lel": 7251,
      "ĠrÅ¾e": 7252,
      "ĠaciÅ¡": 7253,
      "Ġadro": 7254,
      "Ġosby": 7255,
      "Ġytli": 7256,
      "ĠXAXXXA": 7257,
      "och": 7258,
      "Ġyob": 7259,
      "ĠakÅ¥": 7260,
      "Ġalas": 7261,
      "Ġovel": 7262,
      "Ġstisk": 7263,
      "ĠÄĽlam": 7264,
      "Ġarka": 7265,
      "Ġajc": 7266,
      "Ġylen": 7267,
      "Ġezou": 7268,
      "ĠeÅ¾et": 7269,
      "ĠÄĽjnÄĽ": 7270,
      "ĠiÄįel": 7271,
      "Ġuschn": 7272,
      "Ġabz": 7273,
      "ĠAABBBB": 7274,
      "ĠÄĽÄįe": 7275,
      "Ġilich": 7276,
      "Ġavnym": 7277,
      "ĠschÅĻ": 7278,
      "ĠeoÅ¾": 7279,
      "Ġitbu": 7280,
      "Ġmus": 7281,
      "Ġiskup": 7282,
      "Ġorgii": 7283,
      "ĠiaÅ¡e": 7284,
      "ĠemÄį": 7285,
      "Ġotal": 7286,
      "Ġarost": 7287,
      "ĠeÅ¾iÅ¡": 7288,
      "Ġspit": 7289,
      "Ġujou": 7290,
      "ĠÄĽrb": 7291,
      "Ġmrou": 7292,
      "Ġantr": 7293,
      "ĠuÅ¾eb": 7294,
      "ĠuÅ¾na": 7295,
      "Ġitby": 7296,
      "Ġondy": 7297,
      "Ġianu": 7298,
      "ĠizdÄĽ": 7299,
      "Ġogn": 7300,
      "Ġinske": 7301,
      "ĠyÃ¡Å¡": 7302,
      "ĠevzkÅĻ": 7303,
      "Ã©": 7304,
      "ĠÃ©Å¡t": 7305,
      "ĠbiÄį": 7306,
      "Ġinen": 7307,
      "Ġinstr": 7308,
      "Ġostni": 7309,
      "ĠÄĽlit": 7310,
      "Ġonni": 7311,
      "Ġorni": 7312,
      "ĠoÄįb": 7313,
      "Ġecl": 7314,
      "ĠuÅ¾as": 7315,
      "Ġlnu": 7316,
      "ĠhnÄĽt": 7317,
      "Ġirej": 7318,
      "Ġernem": 7319,
      "Ġarnost": 7320,
      "ĠtmÄĽ": 7321,
      "Ġsklad": 7322,
      "ĠÅ¯hv": 7323,
      "Ġozvl": 7324,
      "Ġinkt": 7325,
      "Ġosku": 7326,
      "Ġeteor": 7327,
      "Ġitba": 7328,
      "Ġedmd": 7329,
      "Ġiansk": 7330,
      "Ġalbr": 7331,
      "ĠÃºrn": 7332,
      "Ġaltd": 7333,
      "Ġenul": 7334,
      "Ġstoup": 7335,
      "Ġulek": 7336,
      "Ġync": 7337,
      "ĠiÅ¡il": 7338,
      "Ġernim": 7339,
      "Ġannim": 7340,
      "ĠouÄįky": 7341,
      "Ġatruj": 7342,
      "ĠejÅ¾t": 7343,
      "ĠovÄĽst": 7344,
      "Ġown": 7345,
      "Ġemem": 7346,
      "ĠadiÅ¡": 7347,
      "ĠÅ¾Äı": 7348,
      "Ġamor": 7349,
      "Ġkdo": 7350,
      "Ġslech": 7351,
      "Ġechne": 7352,
      "Ġsmi": 7353,
      "Ġvlal": 7354,
      "ĠÃŃÅ¾c": 7355,
      "Ġacc": 7356,
      "ĠkÅĻest": 7357,
      "ĠeÅĻt": 7358,
      "ĠÄĽsl": 7359,
      "ĠhÅĻeb": 7360,
      "Ġipt": 7361,
      "Ġoufal": 7362,
      "Ġrhly": 7363,
      "Ġuznych": 7364,
      "ĠhÅĻmÄĽl": 7365,
      "ĠupnÄĽ": 7366,
      "ĠoÅ¾sky": 7367,
      "ĠumÅĻel": 7368,
      "Ġcvrl": 7369,
      "Ġealem": 7370,
      "Ġdchn": 7371,
      "Ġalet": 7372,
      "Ġesd": 7373,
      "Ġerz": 7374,
      "Ġekych": 7375,
      "ĠeviÅ¡": 7376,
      "Ġspn": 7377,
      "Ġychat": 7378,
      "ĠÄĽse": 7379,
      "ĠÄĽzdne": 7380,
      "ĠhÅĻe": 7381,
      "Ġodlim": 7382,
      "Ġrnych": 7383,
      "Ġatno": 7384,
      "Ġeoz": 7385,
      "ĠÄĽtry": 7386,
      "Ġestny": 7387,
      "ĠÄĽzdna": 7388,
      "Ġoplach": 7389,
      "Ġeff": 7390,
      "ĠÄĽdna": 7391,
      "Ġetra": 7392,
      "ĠÃ©sÅ¥": 7393,
      "ĠXAAABB": 7394,
      "Ġaclav": 7395,
      "ĠeÅ¯": 7396,
      "ĠemÅ¡": 7397,
      "Ġelci": 7398,
      "Ġojb": 7399,
      "ĠojÅ¡t": 7400,
      "Ġarad": 7401,
      "Ġopce": 7402,
      "Ġacb": 7403,
      "Ġustat": 7404,
      "Ġomnit": 7405,
      "Ġeukl": 7406,
      "Ġivni": 7407,
      "ĠÄĽÅ¾ke": 7408,
      "Ġanno": 7409,
      "Ġeodl": 7410,
      "Ġanck": 7411,
      "Ġater": 7412,
      "Ġilec": 7413,
      "ĠudbÄĽ": 7414,
      "Ġelsky": 7415,
      "ĠÃŃÅĪc": 7416,
      "Ġitvy": 7417,
      "Ġichla": 7418,
      "Ġalby": 7419,
      "ĠABAABB": 7420,
      "Ġazdno": 7421,
      "yÅĪ": 7422,
      "ĠÃ©e": 7423,
      "Ġelin": 7424,
      "Ġejic": 7425,
      "Ġojz": 7426,
      "Ġslab": 7427,
      "Ġudsk": 7428,
      "ÄĽp": 7429,
      "ĠiÅ¾ek": 7430,
      "Ġeskych": 7431,
      "ĠÄĽzit": 7432,
      "Ġhne": 7433,
      "Ġhnus": 7434,
      "Ġeniz": 7435,
      "ĠuvÄį": 7436,
      "Ġuvim": 7437,
      "ĠeÄįnem": 7438,
      "Ġoubil": 7439,
      "ĠuÄıs": 7440,
      "Ġskla": 7441,
      "Ġodpor": 7442,
      "Ġtli": 7443,
      "Ġ37": 7444,
      "Ġanska": 7445,
      "Ġenskych": 7446,
      "ĠetÅĻt": 7447,
      "ĠitbÄĽ": 7448,
      "ĠyÅ¡Å¡im": 7449,
      "Ġalkou": 7450,
      "ĠestÅĻel": 7451,
      "Ġodhr": 7452,
      "ĠitvÄĽ": 7453,
      "Ġodtud": 7454,
      "Ġodchn": 7455,
      "Ġeobst": 7456,
      "Ġysvl": 7457,
      "Ġdnuv": 7458,
      "Ġpyr": 7459,
      "Ġslit": 7460,
      "Ġudim": 7461,
      "Ġarum": 7462,
      "ĠÃ¡nv": 7463,
      "Ġict": 7464,
      "Ġahych": 7465,
      "Ġplul": 7466,
      "Ġrtil": 7467,
      "Ġtram": 7468,
      "ĠÄĽÅ¾el": 7469,
      "Ġacne": 7470,
      "ĠÃ³t": 7471,
      "Ġochod": 7472,
      "Ġiham": 7473,
      "ĠÃ¡bk": 7474,
      "ĠouÄįim": 7475,
      "Ġehli": 7476,
      "Ġezkou": 7477,
      "Ġytny": 7478,
      "Ġyskly": 7479,
      "ĠXABBAA": 7480,
      "Ġienn": 7481,
      "ĠÅ¡prym": 7482,
      "au": 7483,
      "Ġaw": 7484,
      "Ġyon": 7485,
      "Ġhoj": 7486,
      "Ġodci": 7487,
      "ĠamÄĽt": 7488,
      "Ġomim": 7489,
      "Ġestne": 7490,
      "ĠpleÅ¥": 7491,
      "ĠednÄĽ": 7492,
      "ĠzviÅ¡": 7493,
      "Ġuld": 7494,
      "ĠXAABBB": 7495,
      "ĠÃ¡rsk": 7496,
      "ĠÄĽvnÄĽ": 7497,
      "ĠÄĽdci": 7498,
      "Ġisil": 7499,
      "Ġuzky": 7500,
      "ĠstÅĻas": 7501,
      "Ġibej": 7502,
      "Ġatnych": 7503,
      "Ġetlem": 7504,
      "ĠouÅ¡tim": 7505,
      "Ġeknu": 7506,
      "Å¡tr": 7507,
      "Ġurna": 7508,
      "ĠrÅ¡ku": 7509,
      "Ġialn": 7510,
      "Ġazdni": 7511,
      "Ġiosn": 7512,
      "ĠpÄĽj": 7513,
      "Ġakd": 7514,
      "ĠÄĽlt": 7515,
      "Ġidku": 7516,
      "ĠABCBC": 7517,
      "Ġahym": 7518,
      "ĠeÅ¾b": 7519,
      "ĠocÅĪ": 7520,
      "ĠiÅ¾ky": 7521,
      "Ġzlo": 7522,
      "Ġachc": 7523,
      "Ġuhum": 7524,
      "Ġurkr": 7525,
      "Ġadkem": 7526,
      "Ġotrl": 7527,
      "Ġaktn": 7528,
      "Ġehke": 7529,
      "Ġapsy": 7530,
      "ĠspÅĻeÅ¾": 7531,
      "Ġytmy": 7532,
      "Ġetty": 7533,
      "ĠedÄįi": 7534,
      "ĠABCBCA": 7535,
      "Ġee": 7536,
      "Ġvkus": 7537,
      "Ġkul": 7538,
      "Ġalz": 7539,
      "ĠanÄĽt": 7540,
      "Ġaren": 7541,
      "ĠÃ¡vl": 7542,
      "ĠÃ¡vÄį": 7543,
      "ĠaÅ¾ku": 7544,
      "Ġuja": 7545,
      "Ġubsk": 7546,
      "Ġovno": 7547,
      "Ġeznu": 7548,
      "ĠÄįlun": 7549,
      "ĠyÅ¡let": 7550,
      "Ġandsk": 7551,
      "Ġipi": 7552,
      "Ġctil": 7553,
      "Ġervu": 7554,
      "ĠechtÄĽl": 7555,
      "Ġihli": 7556,
      "Ġeodch": 7557,
      "ĠodÄĽk": 7558,
      "Ġzhled": 7559,
      "ĠyÅĪt": 7560,
      "ĠsÅĪal": 7561,
      "Ġinsp": 7562,
      "iel": 7563,
      "ĠiuÄį": 7564,
      "Ġuos": 7565,
      "Ġvit": 7566,
      "Ġrez": 7567,
      "Ġasam": 7568,
      "ĠivÅ¡i": 7569,
      "ĠonÄĽn": 7570,
      "ĠÃŃtc": 7571,
      "ĠABXX": 7572,
      "Ġezich": 7573,
      "Ġezkv": 7574,
      "ĠABABXA": 7575,
      "Ġikej": 7576,
      "Ġhru": 7577,
      "ĠepÄĽ": 7578,
      "Ġistym": 7579,
      "ĠyÅ¡ÅĪ": 7580,
      "Ġdrat": 7581,
      "Ġabem": 7582,
      "Ġizte": 7583,
      "ĠaÅ¾de": 7584,
      "ĠhÅĻal": 7585,
      "Ġlza": 7586,
      "Ġset": 7587,
      "ĠÄĽÅ¡it": 7588,
      "Ġyrk": 7589,
      "ĠaÄįnÄĽ": 7590,
      "ĠouÄįil": 7591,
      "ĠÄĽtske": 7592,
      "ĠedneÅ¡": 7593,
      "ĠestÅĻe": 7594,
      "Ġiala": 7595,
      "ĠodstÅĻ": 7596,
      "Ġeandr": 7597,
      "Ġiove": 7598,
      "Ġitmi": 7599,
      "Ġdit": 7600,
      "Ġouis": 7601,
      "ĠchyÅ¡": 7602,
      "Ġeju": 7603,
      "Ġomsb": 7604,
      "Ġorky": 7605,
      "Ġsmir": 7606,
      "Ġepot": 7607,
      "Ġistus": 7608,
      "ĠaÄįet": 7609,
      "Ġachyn": 7610,
      "Ġznoj": 7611,
      "Ġoutech": 7612,
      "Ġycham": 7613,
      "Ġirsk": 7614,
      "ĠÄĽÅ¡ce": 7615,
      "Ġrham": 7616,
      "Ġavnem": 7617,
      "Ġjez": 7618,
      "Ġinuv": 7619,
      "Ġancich": 7620,
      "ĠonÄįin": 7621,
      "ĠrÅ¡Å¥": 7622,
      "ĠerÅ¡e": 7623,
      "Ġelske": 7624,
      "Ġehdy": 7625,
      "Ġohoum": 7626,
      "Ġobech": 7627,
      "ĠÃŃmk": 7628,
      "ĠozÅ¥": 7629,
      "Ġiden": 7630,
      "Ġvzad": 7631,
      "ĠuÅ¡a": 7632,
      "Ġukot": 7633,
      "ĠÄĽstm": 7634,
      "ĠaÅĻb": 7635,
      "Ġirku": 7636,
      "ĠptaÅ¡": 7637,
      "ĠouÅ¾en": 7638,
      "Ġomni": 7639,
      "Ġtlak": 7640,
      "ĠrÅ¾n": 7641,
      "ĠospÄĽch": 7642,
      "Ġyden": 7643,
      "ĠoÅĪstv": 7644,
      "ĠÄĽkkou": 7645,
      "ĠÄĽÅ¡tn": 7646,
      "Ġapsal": 7647,
      "ĠenÄįi": 7648,
      "Ġovzt": 7649,
      "ĠovÅ¡t": 7650,
      "Ġavek": 7651,
      "ĠobÅ¡": 7652,
      "Ġaman": 7653,
      "Ġekan": 7654,
      "ĠÅ¡eÄı": 7655,
      "Ġosni": 7656,
      "Ġylim": 7657,
      "ĠutÄĽk": 7658,
      "Ġapen": 7659,
      "ĠyÅ¡ni": 7660,
      "Ġlnn": 7661,
      "Ġchvost": 7662,
      "Ġoutc": 7663,
      "Ġoutan": 7664,
      "Ġizich": 7665,
      "ĠaÅ¾dil": 7666,
      "Ġilach": 7667,
      "Ġyvej": 7668,
      "ĠoÅ¾nÄĽ": 7669,
      "Ġycp": 7670,
      "Ġento": 7671,
      "Ġiklo": 7672,
      "Ġegie": 7673,
      "Ġetby": 7674,
      "ĠumÅĻit": 7675,
      "Ġinsky": 7676,
      "Ġodsl": 7677,
      "ĠÅ¾hnou": 7678,
      "ĠadÄįl": 7679,
      "yc": 7680,
      "Ġeak": 7681,
      "Ġper": 7682,
      "Ġakou": 7683,
      "Ġodzn": 7684,
      "Ġivek": 7685,
      "Ġamz": 7686,
      "ĠarÅ¡i": 7687,
      "Ġidej": 7688,
      "ĠABAA": 7689,
      "ĠevÄĽ": 7690,
      "Ġeste": 7691,
      "ĠeÄįim": 7692,
      "ĠaÅ¾k": 7693,
      "ĠaÅ¾te": 7694,
      "ĠiÅ¾iÅ¡": 7695,
      "Ġulg": 7696,
      "ĠiÄįsk": 7697,
      "Ġdral": 7698,
      "ĠuÄįc": 7699,
      "Ġzrat": 7700,
      "Ġouzen": 7701,
      "Ġykne": 7702,
      "ĠeznÄĽ": 7703,
      "Ġvstat": 7704,
      "Ġinnem": 7705,
      "Ġoufam": 7706,
      "Ġerta": 7707,
      "ĠÄĽtÅ¡im": 7708,
      "Ġajny": 7709,
      "ĠÃ½ÅĻk": 7710,
      "Ġarty": 7711,
      "Ġieru": 7712,
      "ĠÄĽdra": 7713,
      "ĠozÅ¡kl": 7714,
      "ĠÃ¶rg": 7715,
      "ĠABAAAB": 7716,
      "ĠdiÅ¡": 7717,
      "Ġenh": 7718,
      "ĠÅ¯sm": 7719,
      "Ġedj": 7720,
      "Ġobku": 7721,
      "Ġeral": 7722,
      "Ġomhl": 7723,
      "Ġudym": 7724,
      "ĠudiÅ¾": 7725,
      "Ġhry": 7726,
      "ĠÄĽkam": 7727,
      "Ġabstr": 7728,
      "Ġouhym": 7729,
      "ĠdliÅ¡": 7730,
      "ĠypÅ¥": 7731,
      "ĠÄĽÅĻm": 7732,
      "Ġasli": 7733,
      "Ġavuj": 7734,
      "Ġerty": 7735,
      "Ġoudrost": 7736,
      "Ġrhnou": 7737,
      "Ġiklad": 7738,
      "ĠitÅĻi": 7739,
      "ĠoÅ¡li": 7740,
      "Ġthr": 7741,
      "ĠAXBA": 7742,
      "Ġextr": 7743,
      "ĠiÃ¡nsk": 7744,
      "Ġaopak": 7745,
      "ĠdceÅĻ": 7746,
      "Ġatan": 7747,
      "Ġstoh": 7748,
      "Ġcep": 7749,
      "Ġrdost": 7750,
      "Ġazz": 7751,
      "Ġysni": 7752,
      "Ġizrak": 7753,
      "Ġurem": 7754,
      "Ġurou": 7755,
      "ĠouÅ¾iÅ¡": 7756,
      "ĠauÅĻ": 7757,
      "ĠÄĽsnou": 7758,
      "ĠajdeÅ¡": 7759,
      "ĠÃ½nc": 7760,
      "ĠvÄĽst": 7761,
      "Ġeumim": 7762,
      "Ġazkou": 7763,
      "Ġaelsk": 7764,
      "Ġvzpjal": 7765,
      "Ġufr": 7766,
      "ĠÄĽjme": 7767,
      "ĠÃ¡stv": 7768,
      "ĠkÅ¡": 7769,
      "Ġenam": 7770,
      "Ġobky": 7771,
      "Ġerce": 7772,
      "Ġozky": 7773,
      "Ġoki": 7774,
      "Ġehka": 7775,
      "Ġehum": 7776,
      "ĠuÅ¾en": 7777,
      "ĠaÅ¡ku": 7778,
      "ĠÃŃrc": 7779,
      "ĠeÅĻstv": 7780,
      "Ġoupim": 7781,
      "Ġohly": 7782,
      "Ġjdi": 7783,
      "ĠÄĽÅĻiÅ¡": 7784,
      "ĠouÅ¡tÄĽl": 7785,
      "Ġudnym": 7786,
      "Ġmdlob": 7787,
      "Ġoulc": 7788,
      "Ġ38": 7789,
      "ĠmiÅĪ": 7790,
      "ĠolaÅ¡": 7791,
      "ĠÃ¡Äįkn": 7792,
      "ĠaÅ¡ny": 7793,
      "Ġorli": 7794,
      "Ġiskry": 7795,
      "Ġinii": 7796,
      "Ġogm": 7797,
      "ĠABAABA": 7798,
      "Ġacke": 7799,
      "Ġooka": 7800,
      "ĠXAXXAX": 7801,
      "Ġtek": 7802,
      "Ġprs": 7803,
      "Ġonak": 7804,
      "Ġohar": 7805,
      "ĠeÅ¾im": 7806,
      "Ġiko": 7807,
      "ĠsnÄĽÅ¥": 7808,
      "ĠyÅ¾b": 7809,
      "Ġvlit": 7810,
      "ĠÃ¡rt": 7811,
      "ĠÄĽzdu": 7812,
      "ĠÃŃhr": 7813,
      "ĠAAXABB": 7814,
      "ĠyÅ¡la": 7815,
      "ĠaÄįnem": 7816,
      "Ġadry": 7817,
      "Ġaktu": 7818,
      "ard": 7819,
      "ĠyÅĻil": 7820,
      "Ġegm": 7821,
      "ĠaÄįkem": 7822,
      "Ġektn": 7823,
      "Ġojde": 7824,
      "ĠauÄįil": 7825,
      "Ġaeol": 7826,
      "ĠABXBAX": 7827,
      "ÃŃ": 7828,
      "Ġduh": 7829,
      "Ġotok": 7830,
      "Ġerch": 7831,
      "Ġerci": 7832,
      "Ġetek": 7833,
      "ĠojÄį": 7834,
      "Ġonek": 7835,
      "Ġohsl": 7836,
      "Ġopel": 7837,
      "Ġytstv": 7838,
      "ĠaÄįou": 7839,
      "Ġtret": 7840,
      "Ġvrou": 7841,
      "ĠiÄįke": 7842,
      "Ġodle": 7843,
      "Ġivach": 7844,
      "Ġatnost": 7845,
      "Ġeskno": 7846,
      "Ġrskn": 7847,
      "ĠyÅĻm": 7848,
      "ĠÃ½bl": 7849,
      "Ġionsk": 7850,
      "Ġtkal": 7851,
      "Ġitly": 7852,
      "ĠavÅ¡e": 7853,
      "ĠaÅ¾nou": 7854,
      "Ġopyr": 7855,
      "ĠiÅ¡tÄĽm": 7856,
      "Ġeolu": 7857,
      "Ġietr": 7858,
      "Ġpuch": 7859,
      "Ġzub": 7860,
      "Ġkyn": 7861,
      "Ġrstvi": 7862,
      "ĠemÅĪ": 7863,
      "Ġemkl": 7864,
      "Ġadchl": 7865,
      "ĠÅ¾m": 7866,
      "Ġolz": 7867,
      "Ġoham": 7868,
      "ĠarÅ¾": 7869,
      "Ġorka": 7870,
      "Ġopar": 7871,
      "Ġklest": 7872,
      "Ġynv": 7873,
      "ĠÄĽstc": 7874,
      "Ġtrysk": 7875,
      "ĠoÅ¡p": 7876,
      "Ġodnik": 7877,
      "ĠÄĽÄįni": 7878,
      "ĠyznÄĽ": 7879,
      "Ġshas": 7880,
      "Ġalez": 7881,
      "ĠiÅĻsk": 7882,
      "Ġehlo": 7883,
      "ĠaÅ¡ly": 7884,
      "Ġoddech": 7885,
      "ĠuÅ¡ny": 7886,
      "Ġaob": 7887,
      "ĠoÅ¯": 7888,
      "Äįn": 7889,
      "Ġlat": 7890,
      "Ġelost": 7891,
      "ĠumÄĽ": 7892,
      "Ġabt": 7893,
      "ĠaÅĻek": 7894,
      "Ġoupky": 7895,
      "ĠÄĽrt": 7896,
      "ĠÄĽtliv": 7897,
      "Ġovnym": 7898,
      "Ġymkl": 7899,
      "Ġrtve": 7900,
      "Ġlhat": 7901,
      "Ġousil": 7902,
      "Ġejsem": 7903,
      "ĠikaÅ¡": 7904,
      "ĠÃ©lc": 7905,
      "Ġormy": 7906,
      "Ġichle": 7907,
      "Ġystra": 7908,
      "Ġeobm": 7909,
      "Ġaian": 7910,
      "Ġaesar": 7911,
      "ĠstaÅĪ": 7912,
      "Ġets": 7913,
      "Ġojl": 7914,
      "Ġozne": 7915,
      "Ġorec": 7916,
      "ĠÄĽnka": 7917,
      "ĠsmiÅ¡": 7918,
      "Ġumal": 7919,
      "ĠÄĽdit": 7920,
      "Ġodnem": 7921,
      "ĠeÄįnu": 7922,
      "ĠÃŃÄįc": 7923,
      "ĠAAABBB": 7924,
      "Ġeznam": 7925,
      "Ġyrn": 7926,
      "Ġidnych": 7927,
      "ĠesknÄĽ": 7928,
      "ĠoniÅ¡": 7929,
      "ĠydÅĻ": 7930,
      "ĠuÅ¾ny": 7931,
      "ĠÄĽkkem": 7932,
      "ĠeruÅ¥": 7933,
      "Ġouru": 7934,
      "Ġiag": 7935,
      "ĠchÅĻest": 7936,
      "ĠvzÅĪal": 7937,
      "ĠkÅ¡tic": 7938,
      "Ġehnej": 7939,
      "ĠrÅĪt": 7940,
      "Ġongl": 7941,
      "oÅ¾": 7942,
      "Ġaest": 7943,
      "Ġtih": 7944,
      "ĠemÅ¡Å¥": 7945,
      "Ġalst": 7946,
      "Ġaten": 7947,
      "ĠotiÅ¾": 7948,
      "Ġudech": 7949,
      "ĠÅ¡iÅĻ": 7950,
      "ĠÄĽjc": 7951,
      "Ġhrud": 7952,
      "ĠachÅĻ": 7953,
      "Ġoudce": 7954,
      "Ġisem": 7955,
      "Ġibo": 7956,
      "Ġencum": 7957,
      "ĠsbÄĽÅĻ": 7958,
      "Ġovskym": 7959,
      "Ġigl": 7960,
      "ĠanÄįn": 7961,
      "ĠyneÅ¡": 7962,
      "Ġialek": 7963,
      "Ġsjel": 7964,
      "Ġeorie": 7965,
      "Ġarrh": 7966,
      "Ġibra": 7967,
      "ĠiÅ¯v": 7968,
      "yÅĻ": 7969,
      "Ġaec": 7970,
      "ĠpÅ¡tr": 7971,
      "ĠzaÄį": 7972,
      "Ġeschv": 7973,
      "Ġozkaz": 7974,
      "Ġechat": 7975,
      "ĠaÅ¡iÅ¡": 7976,
      "ĠaÅ¡eÅĪ": 7977,
      "Ġunka": 7978,
      "Ġrdcich": 7979,
      "ĠoudÄĽ": 7980,
      "ĠeÅĻit": 7981,
      "ĠÄĽzdk": 7982,
      "Ġeklem": 7983,
      "Ġelnost": 7984,
      "Ġehnan": 7985,
      "Ġeosv": 7986,
      "Ġankou": 7987,
      "Ġostlo": 7988,
      "ĠÄĽknÄĽ": 7989,
      "ĠotÅĻe": 7990,
      "Ġvzplat": 7991,
      "Ġisknou": 7992,
      "Ġovcu": 7993,
      "Ġlvi": 7994,
      "ĠaÅ¾na": 7995,
      "ĠABAAXB": 7996,
      "Ġezdna": 7997,
      "Ġezhr": 7998,
      "Ġeorg": 7999,
      "ĠABBABA": 8000,
      "Ġanam": 8001,
      "Ġcev": 8002,
      "Ġerec": 8003,
      "Ġono": 8004,
      "Ġslez": 8005,
      "Ġudych": 8006,
      "Ġardn": 8007,
      "Ġeban": 8008,
      "Ġekk": 8009,
      "Ġidc": 8010,
      "Ġidech": 8011,
      "ĠuÅ¡ne": 8012,
      "Ġsmek": 8013,
      "ĠaÅ¡v": 8014,
      "Ġlnym": 8015,
      "Ġuzdn": 8016,
      "ĠÄĽÅ¡ne": 8017,
      "ĠÃ©tk": 8018,
      "ĠocnÄĽ": 8019,
      "Ġennem": 8020,
      "Ġacii": 8021,
      "Ġonik": 8022,
      "Ġydim": 8023,
      "ĠiÅĻit": 8024,
      "Ġyhy": 8025,
      "Ġejmout": 8026,
      "ĠoÅ¾ske": 8027,
      "Ġzkvet": 8028,
      "Ġeft": 8029,
      "Ġeodm": 8030,
      "Ġotyl": 8031,
      "Ġevzhl": 8032,
      "hm": 8033,
      "Ġaum": 8034,
      "ĠoÃº": 8035,
      "Ġiaz": 8036,
      "Ġsul": 8037,
      "Ġpud": 8038,
      "Ġjun": 8039,
      "Ġilas": 8040,
      "ĠÅ¾bl": 8041,
      "Ġasum": 8042,
      "ĠudÄĽl": 8043,
      "Ġajel": 8044,
      "Ġtrup": 8045,
      "Ġijim": 8046,
      "ĠÄĽdÄĽ": 8047,
      "Ġdlit": 8048,
      "Ġoslav": 8049,
      "ĠybÅĻ": 8050,
      "Ġyvy": 8051,
      "Ġyran": 8052,
      "Ġanta": 8053,
      "Ġalej": 8054,
      "ĠsbÄĽh": 8055,
      "Ġoukem": 8056,
      "Ġikuv": 8057,
      "Ġanout": 8058,
      "Ġshluk": 8059,
      "Ġiskra": 8060,
      "Ġismus": 8061,
      "Ġvbod": 8062,
      "ĠXABABA": 8063,
      "Ġabnou": 8064,
      "ĠoÅ¾mb": 8065,
      "Ġtes": 8066,
      "Ġedkl": 8067,
      "Ġasin": 8068,
      "Ġaschv": 8069,
      "Ġotit": 8070,
      "Ġuddh": 8071,
      "Ġorel": 8072,
      "ĠezÅ¾": 8073,
      "ĠuÅ¡ich": 8074,
      "ĠeÄįet": 8075,
      "Ġutil": 8076,
      "Ġhran": 8077,
      "Ġopej": 8078,
      "Ġepych": 8079,
      "ĠaÅ¡it": 8080,
      "Ġupstv": 8081,
      "Ġodnost": 8082,
      "Ġozdil": 8083,
      "Ġilion": 8084,
      "Ġeodn": 8085,
      "Ġinkem": 8086,
      "ĠouÄįit": 8087,
      "Ġouzlen": 8088,
      "Ġapli": 8089,
      "Ġinie": 8090,
      "Ġspjat": 8091,
      "Ġastmi": 8092,
      "Ġaiss": 8093,
      "Ġuon": 8094,
      "Ġher": 8095,
      "Ġinstvi": 8096,
      "Ġerh": 8097,
      "ĠerÅĪ": 8098,
      "Ġonan": 8099,
      "ĠozÅĪ": 8100,
      "Ġkroj": 8101,
      "Ġesth": 8102,
      "ouk": 8103,
      "ĠoÅ¾ak": 8104,
      "ĠecÄį": 8105,
      "Ġukne": 8106,
      "ĠÅĻeÅ¾": 8107,
      "ĠÃŃchn": 8108,
      "ĠyÅ¡ku": 8109,
      "Ġlnit": 8110,
      "ĠznÄĽt": 8111,
      "ĠiÅ¡im": 8112,
      "Ġouto": 8113,
      "Ġoutal": 8114,
      "Ġupech": 8115,
      "Ġacr": 8116,
      "ĠaÅĻn": 8117,
      "ĠirnÄĽ": 8118,
      "ĠÅ¯Å¾l": 8119,
      "ĠustÅĻ": 8120,
      "ĠoÅ¡stv": 8121,
      "Ġype": 8122,
      "Ġsklal": 8123,
      "Ġiedr": 8124,
      "Ġeotv": 8125,
      "Ġouss": 8126,
      "Ġysky": 8127,
      "Ġechty": 8128,
      "ĠÄĽknou": 8129,
      "Ġiteb": 8130,
      "Ġiknul": 8131,
      "Ġuhla": 8132,
      "ĠaÄįkou": 8133,
      "Ġeodd": 8134,
      "Ġudci": 8135,
      "Ġadkym": 8136,
      "Ġistve": 8137,
      "Ġugg": 8138,
      "ĠehÅĻm": 8139,
      "ĠezneÅ¡": 8140,
      "ĠiÅ¾dÄĽl": 8141,
      "Ġeet": 8142,
      "ĠmÅ¡i": 8143,
      "Ġolkl": 8144,
      "Ġamc": 8145,
      "Ġohych": 8146,
      "ĠÃ½chÅ¾": 8147,
      "ĠÃ¡msk": 8148,
      "ĠorÅ¡i": 8149,
      "Ġylne": 8150,
      "Ġylky": 8151,
      "Ġylek": 8152,
      "ĠÃ©msk": 8153,
      "Ġahni": 8154,
      "Ġistky": 8155,
      "Ġumt": 8156,
      "Ġusit": 8157,
      "ĠenÅ¾b": 8158,
      "Ġoupen": 8159,
      "Ġustu": 8160,
      "Ġesle": 8161,
      "Ġeuhl": 8162,
      "Ġrtvi": 8163,
      "Ġilnych": 8164,
      "Ġouchy": 8165,
      "ĠouÄįe": 8166,
      "Ġentem": 8167,
      "Ġelec": 8168,
      "Ġoudry": 8169,
      "ĠotÅĻp": 8170,
      "Ġofa": 8171,
      "Ġorske": 8172,
      "Ġlsti": 8173,
      "Ġatbu": 8174,
      "Ġejskr": 8175,
      "ĠtyÅ¾": 8176,
      "Ġobouk": 8177,
      "Ġuett": 8178,
      "ĠXAXBAB": 8179,
      "Ġpast": 8180,
      "Ġbos": 8181,
      "Ġadch": 8182,
      "ĠivosÅ¥": 8183,
      "Ġerat": 8184,
      "Ġerech": 8185,
      "ĠeÅ¾v": 8186,
      "Ġapstv": 8187,
      "Ġrtev": 8188,
      "Ġijen": 8189,
      "Ġochn": 8190,
      "Ġirl": 8191,
      "ĠABBAXA": 8192,
      "Ġucp": 8193,
      "Ġatnem": 8194,
      "Ġojnych": 8195,
      "Ġancu": 8196,
      "Ġmdlou": 8197,
      "Ġmdlym": 8198,
      "Ġostra": 8199,
      "ĠuÄįna": 8200,
      "ĠachvÄĽl": 8201,
      "ĠÄĽznou": 8202,
      "ĠnÄĽh": 8203,
      "ĠÄĽjna": 8204,
      "Ġiata": 8205,
      "Ġinoch": 8206,
      "Ġvyr": 8207,
      "Ġvous": 8208,
      "ĠÄĽg": 8209,
      "Ġavte": 8210,
      "Ġetel": 8211,
      "Ġojas": 8212,
      "Ġevit": 8213,
      "ĠoÄįs": 8214,
      "Ġklep": 8215,
      "Ġysch": 8216,
      "ĠyÅ¡te": 8217,
      "Ġznej": 8218,
      "ĠÄĽÅ¾im": 8219,
      "ĠÄĽdem": 8220,
      "Ġychod": 8221,
      "ĠbraÅĪ": 8222,
      "Ġizdn": 8223,
      "Ġochem": 8224,
      "ĠÄĽrku": 8225,
      "ĠouÅ¾e": 8226,
      "Ġsklo": 8227,
      "Ġatnik": 8228,
      "ĠavdÄĽ": 8229,
      "Ġocnym": 8230,
      "ĠrÅ¾im": 8231,
      "Ġinnym": 8232,
      "Ġovaz": 8233,
      "ĠÄĽtin": 8234,
      "Ġiocl": 8235,
      "ĠaseÅĪ": 8236,
      "ĠurnÄĽ": 8237,
      "Ġikle": 8238,
      "Ġegii": 8239,
      "Ġestnou": 8240,
      "erv": 8241,
      "Ġizby": 8242,
      "ĠvÄĽd": 8243,
      "Ġanstva": 8244,
      "Ġanstvo": 8245,
      "Ġiady": 8246,
      "Ġompl": 8247,
      "Ġizke": 8248,
      "ĠnaÄį": 8249,
      "Ġsvil": 8250,
      "ĠaÅ¾u": 8251,
      "Ġocc": 8252,
      "Ġblin": 8253,
      "Ġapci": 8254,
      "Ġysu": 8255,
      "Ġvlil": 8256,
      "ĠyÅ¡ka": 8257,
      "ĠÄĽvne": 8258,
      "ĠupÄĽj": 8259,
      "Ġacku": 8260,
      "Ġanik": 8261,
      "ĠÄĽÄįim": 8262,
      "ĠouÅĻit": 8263,
      "ĠÃ½tn": 8264,
      "Ġipal": 8265,
      "Ġezda": 8266,
      "Ġerla": 8267,
      "ĠoucnosÅ¥": 8268,
      "ĠoviÄį": 8269,
      "ĠezkÅĻ": 8270,
      "ĠyÅĻn": 8271,
      "Ġosna": 8272,
      "ĠiÄįna": 8273,
      "ĠÃºpl": 8274,
      "Ġedmkr": 8275,
      "Ġavcu": 8276,
      "Ġizdu": 8277,
      "Ġismem": 8278,
      "ĠviÄı": 8279,
      "Ġeis": 8280,
      "Ġoist": 8281,
      "ĠdosÅ¥": 8282,
      "Ġetam": 8283,
      "Ġorci": 8284,
      "Ġestkv": 8285,
      "ĠÄĽjstv": 8286,
      "Ġkluk": 8287,
      "Ġapir": 8288,
      "Ġzlob": 8289,
      "Ġbrak": 8290,
      "ĠÃ¡kr": 8291,
      "Ġoupce": 8292,
      "ĠÄĽzdach": 8293,
      "ĠeÄįnosÅ¥": 8294,
      "Ġicie": 8295,
      "Ġastnou": 8296,
      "ĠÃ©Å¾b": 8297,
      "ĠÅ¡lo": 8298,
      "Ġancem": 8299,
      "Ġudnych": 8300,
      "Ġezme": 8301,
      "Ġunko": 8302,
      "Ġanbu": 8303,
      "ĠevÅ¡im": 8304,
      "Ġeumi": 8305,
      "ĠystÅĻe": 8306,
      "Ġatby": 8307,
      "Ġechla": 8308,
      "Ġydny": 8309,
      "Ġuiem": 8310,
      "Ġeir": 8311,
      "Ġeill": 8312,
      "Ġpyl": 8313,
      "ĠÃ©g": 8314,
      "Ġedic": 8315,
      "Ġodhl": 8316,
      "Ġavs": 8317,
      "Ġobhl": 8318,
      "Ġinkl": 8319,
      "Ġinej": 8320,
      "Ġohs": 8321,
      "ĠslasÅ¥": 8322,
      "Ġozil": 8323,
      "Ġebka": 8324,
      "Ġidce": 8325,
      "Ġylka": 8326,
      "ĠÃ¡Å¡sk": 8327,
      "Ġstryc": 8328,
      "Ġirv": 8329,
      "Ġemnost": 8330,
      "Ġuva": 8331,
      "Ġouzdr": 8332,
      "Ġutni": 8333,
      "Ġozdni": 8334,
      "Ġvzpn": 8335,
      "Ġajin": 8336,
      "Ġyvne": 8337,
      "Ġeuill": 8338,
      "Ġipou": 8339,
      "Ġejnou": 8340,
      "Ġpsu": 8341,
      "ĠydÄĽt": 8342,
      "ĠonnÄĽ": 8343,
      "Ġoskr": 8344,
      "Ġounce": 8345,
      "Ġfrak": 8346,
      "ĠuÅĻen": 8347,
      "ĠitÄĽz": 8348,
      "Ġodda": 8349,
      "Ġinck": 8350,
      "ĠÄĽÅ¥t": 8351,
      "Ġytna": 8352,
      "Ġrdle": 8353,
      "Ġisknout": 8354,
      "ĠoÅ¡la": 8355,
      "ĠuÅ¾kou": 8356,
      "Ġelly": 8357,
      "Ġevzt": 8358,
      "Ġessi": 8359,
      "Ġettu": 8360,
      "Ġojcz": 8361,
      "ĠhouÅ¡Å¥": 8362,
      "ĠmyÅ¡": 8363,
      "ĠilÅĪ": 8364,
      "Ġolst": 8365,
      "ĠÄĽjsk": 8366,
      "Ġopyt": 8367,
      "ĠiÅ¡p": 8368,
      "ĠuÄįim": 8369,
      "Ġykam": 8370,
      "ĠysliÅ¡": 8371,
      "Ġolnym": 8372,
      "ĠAAABAB": 8373,
      "Ġgest": 8374,
      "Ġeux": 8375,
      "Ġandt": 8376,
      "Ġehnou": 8377,
      "Ġeoh": 8378,
      "ĠekaÅ¡": 8379,
      "ĠuÅ¡na": 8380,
      "Ġitkem": 8381,
      "Ġykla": 8382,
      "ĠaÅ¡ter": 8383,
      "Ġondo": 8384,
      "Ġomstu": 8385,
      "Ġello": 8386,
      "Ġdbej": 8387,
      "ĠÄĽÄım": 8388,
      "Ġictvim": 8389,
      "Ġeutr": 8390,
      "Ġungm": 8391,
      "Ġamfl": 8392,
      "Ġaost": 8393,
      "Ġvid": 8394,
      "ĠÃ©ch": 8395,
      "Ġavka": 8396,
      "Ġamsk": 8397,
      "Ġomsk": 8398,
      "Ġonum": 8399,
      "Ġorst": 8400,
      "Ġevp": 8401,
      "ĠeÅ¾il": 8402,
      "Ġikh": 8403,
      "ĠoÅĻek": 8404,
      "ĠeÅ¡nÄĽ": 8405,
      "ĠaÅ¡ka": 8406,
      "Ġunem": 8407,
      "ĠXAABBA": 8408,
      "Ġabou": 8409,
      "Ġlnych": 8410,
      "ĠÄĽÅ¾t": 8411,
      "Ġupal": 8412,
      "Ġzral": 8413,
      "Ġirka": 8414,
      "Ġarnym": 8415,
      "Ġoubou": 8416,
      "Ġastnych": 8417,
      "ĠÄĽcech": 8418,
      "Ġrtva": 8419,
      "Ġinkam": 8420,
      "Ġeplo": 8421,
      "Ġouzli": 8422,
      "Ġotkal": 8423,
      "Ġumnych": 8424,
      "old": 8425,
      "Ġialni": 8426,
      "ĠusÅ¥m": 8427,
      "Ġevzl": 8428,
      "Ġebli": 8429,
      "Ġoohl": 8430,
      "Ġuisc": 8431,
      "Ġuov": 8432,
      "ĠvÅ¥": 8433,
      "Ġnot": 8434,
      "Ġembr": 8435,
      "Ġcid": 8436,
      "ĠÄĽlce": 8437,
      "Ġomyl": 8438,
      "ĠosiÅ¡": 8439,
      "ĠiÅ¾et": 8440,
      "Ġrtit": 8441,
      "ĠAABBAB": 8442,
      "ĠÄĽzk": 8443,
      "Ġychem": 8444,
      "Ġupsk": 8445,
      "Ġanii": 8446,
      "Ġurf": 8447,
      "ĠaÅ¥k": 8448,
      "ĠÃ¡bsk": 8449,
      "Ġikde": 8450,
      "Ġrtvy": 8451,
      "ĠejvÅĻ": 8452,
      "Ġosmd": 8453,
      "ĠyÅ¡ny": 8454,
      "Ġahna": 8455,
      "Ġikras": 8456,
      "Ġevrou": 8457,
      "Ġarkem": 8458,
      "Ġampy": 8459,
      "ĠaspoÅĪ": 8460,
      "Ġdme": 8461,
      "Ġealn": 8462,
      "Ġlpi": 8463,
      "ĠABXXAB": 8464,
      "ael": 8465,
      "ial": 8466,
      "Ġiul": 8467,
      "Ġvhl": 8468,
      "Ġbot": 8469,
      "Ġenum": 8470,
      "Ġaden": 8471,
      "Ġadych": 8472,
      "ĠiniÅ¡": 8473,
      "Ġote": 8474,
      "ĠchÅĪ": 8475,
      "ĠozaÅĻ": 8476,
      "ĠÃŃtsk": 8477,
      "ĠaÅ¾Äı": 8478,
      "Ġplest": 8479,
      "Ġopp": 8480,
      "ĠeÅ¡ÅĪ": 8481,
      "Ġocni": 8482,
      "Ġynky": 8483,
      "Ġachne": 8484,
      "Ġuhych": 8485,
      "Ġijc": 8486,
      "Ġouhr": 8487,
      "Ġustych": 8488,
      "ĠoÅ¡ky": 8489,
      "Ġohlas": 8490,
      "Ġieu": 8491,
      "Ġocnych": 8492,
      "Ġornym": 8493,
      "Ġyzbr": 8494,
      "ĠÄĽkde": 8495,
      "Ġlkam": 8496,
      "Ġidlu": 8497,
      "Ġerlu": 8498,
      "ĠeÅ¥m": 8499,
      "Ġsrp": 8500,
      "ĠmiÄį": 8501,
      "Ġelon": 8502,
      "ĠizbÄĽ": 8503,
      "ĠeÅ¡tÄĽm": 8504,
      "Ġisny": 8505,
      "Ġiard": 8506,
      "ĠÃ¶n": 8507,
      "Ġooky": 8508,
      "Ġuij": 8509,
      "ĠaÅ¡pl": 8510,
      "Ġyi": 8511,
      "Ġbuk": 8512,
      "Ġhd": 8513,
      "Ġovum": 8514,
      "Ġedin": 8515,
      "Ġprst": 8516,
      "ĠprsÅ¥": 8517,
      "ĠÄĽlka": 8518,
      "Ġhlod": 8519,
      "Ġajl": 8520,
      "Ġylet": 8521,
      "Ġahum": 8522,
      "Ġutt": 8523,
      "Ġopem": 8524,
      "Ġukor": 8525,
      "Ġepil": 8526,
      "Ġunsk": 8527,
      "Ġynth": 8528,
      "Ġvlk": 8529,
      "Ġdnum": 8530,
      "ĠÃ¡skn": 8531,
      "BAA": 8532,
      "ĠibÄĽ": 8533,
      "Ġyvu": 8534,
      "Ġohnul": 8535,
      "Ġornych": 8536,
      "Ġejdu": 8537,
      "Ġodzbr": 8538,
      "Ġofm": 8539,
      "Ġisknul": 8540,
      "ĠtÄĽÅ¡": 8541,
      "Ġabriel": 8542,
      "ĠÄĽdny": 8543,
      "Ġianc": 8544,
      "ĠoÅ¡tol": 8545,
      "ĠouÄįke": 8546,
      "ĠaÅ¾nym": 8547,
      "Ġysklo": 8548,
      "Ġirkev": 8549,
      "ÅĻe": 8550,
      "ĠadÄĽl": 8551,
      "Ġodej": 8552,
      "Ġsvat": 8553,
      "Ġobec": 8554,
      "ĠÄĽtce": 8555,
      "Ġamit": 8556,
      "Ġeren": 8557,
      "Ġudol": 8558,
      "Ġebek": 8559,
      "Ġosh": 8560,
      "Ġevel": 8561,
      "ĠoÄįne": 8562,
      "ĠoÄįin": 8563,
      "Ġistku": 8564,
      "ĠÄĽmk": 8565,
      "ĠuÄįek": 8566,
      "ĠtÅĻast": 8567,
      "Ġuzka": 8568,
      "Ġastnym": 8569,
      "ĠÃŃstr": 8570,
      "Ġipan": 8571,
      "Ġehnout": 8572,
      "Ġejdou": 8573,
      "Ġestro": 8574,
      "ĠrÄįil": 8575,
      "Ġezdi": 8576,
      "Ġarvu": 8577,
      "Ġajdou": 8578,
      "ĠÄĽÅ¾iv": 8579,
      "Ġable": 8580,
      "ĠohÅĻm": 8581,
      "Ġoutna": 8582,
      "ĠanÄįit": 8583,
      "ĠarÄįe": 8584,
      "Ġuaci": 8585,
      "gh": 8586,
      "Ġads": 8587,
      "Ġstep": 8588,
      "Ġasot": 8589,
      "ĠivÄĽl": 8590,
      "Ġplot": 8591,
      "Ġhrst": 8592,
      "ĠeÅ¡en": 8593,
      "Ġynsk": 8594,
      "ĠaÄįstv": 8595,
      "Ġeskym": 8596,
      "ĠÄĽstech": 8597,
      "Ġupou": 8598,
      "ĠÃ³b": 8599,
      "ĠeÅĻin": 8600,
      "ĠiÄįkam": 8601,
      "ĠÄĽtli": 8602,
      "ĠaliÅĻ": 8603,
      "Ġrnym": 8604,
      "Ġutnym": 8605,
      "Ġutnost": 8606,
      "Ġickem": 8607,
      "Ġyjem": 8608,
      "Ġieb": 8609,
      "Ġeptat": 8610,
      "ĠÄĽkdo": 8611,
      "ĠÃºstÅĻ": 8612,
      "ĠeÄįkou": 8613,
      "Ġanuv": 8614,
      "Ġanskym": 8615,
      "Ġigo": 8616,
      "Ġincem": 8617,
      "Ġastian": 8618,
      "Ġuklo": 8619,
      "Ġetbou": 8620,
      "Ġistru": 8621,
      "Ġrchla": 8622,
      "Ġokyn": 8623,
      "Ġehci": 8624,
      "Ġiany": 8625,
      "ĠtkvÄĽl": 8626,
      "Ġylny": 8627,
      "Ġelda": 8628,
      "Ġeib": 8629,
      "Ġeovl": 8630,
      "ian": 8631,
      "Ġrub": 8632,
      "Ġcz": 8633,
      "Ġerad": 8634,
      "Ġudka": 8635,
      "Ġajhl": 8636,
      "ĠÄĽnne": 8637,
      "ĠaÅ¡et": 8638,
      "ĠapÄĽl": 8639,
      "Ġumm": 8640,
      "ĠÄĽstil": 8641,
      "ĠÄĽvÄĽ": 8642,
      "ĠÄĽmci": 8643,
      "ĠÄĽzte": 8644,
      "Ġoutv": 8645,
      "ĠXAXAAX": 8646,
      "ĠoudiÅ¡": 8647,
      "ĠvraÅ¥": 8648,
      "Ġobro": 8649,
      "Ġzmoh": 8650,
      "ĠÄĽÅ¡ky": 8651,
      "Ġicet": 8652,
      "Ġipky": 8653,
      "ĠoÅ¾nost": 8654,
      "Ġinkej": 8655,
      "ĠÃºtk": 8656,
      "Ġrcen": 8657,
      "Ġertem": 8658,
      "Ġurnych": 8659,
      "Ġrhnu": 8660,
      "ĠineÅ¡": 8661,
      "Ġadcu": 8662,
      "Ġudkem": 8663,
      "ĠvzbuÄı": 8664,
      "Ġalda": 8665,
      "ĠaÅ¾eÅ¡": 8666,
      "ĠiÃ¡r": 8667,
      "Ġadkych": 8668,
      "Ġetta": 8669,
      "Ġovrat": 8670,
      "Ġeusp": 8671,
      "Ġixt": 8672,
      "Ġumpl": 8673,
      "Ġochba": 8674,
      "Ġcm": 8675,
      "Ġeke": 8676,
      "ĠoÅ¾em": 8677,
      "ĠeÅ¡stv": 8678,
      "ĠaÅ¡ne": 8679,
      "Ġednych": 8680,
      "Ġzlih": 8681,
      "Ġupec": 8682,
      "Ġusto": 8683,
      "Ġodnim": 8684,
      "Ġihk": 8685,
      "Ġlhc": 8686,
      "ĠlhÄį": 8687,
      "Ġetlou": 8688,
      "Ġaub": 8689,
      "Ġrbi": 8690,
      "ĠavÅĻen": 8691,
      "ĠyÅĻÄį": 8692,
      "Ġoncu": 8693,
      "Ġuchle": 8694,
      "Ġakve": 8695,
      "Ġinskych": 8696,
      "Ġorgie": 8697,
      "ĠXABBBA": 8698,
      "ĠAXBAXB": 8699,
      "ĠÃ½Å¾d": 8700,
      "Ġanh": 8701,
      "Ġavum": 8702,
      "Ġamv": 8703,
      "ĠvÅ¡i": 8704,
      "Ġudak": 8705,
      "Ġozor": 8706,
      "Ġebal": 8707,
      "ĠuÅ¡ce": 8708,
      "Ġskot": 8709,
      "ĠuÅ¾it": 8710,
      "Ġazech": 8711,
      "ĠÃŃvl": 8712,
      "Ġumf": 8713,
      "Ġustou": 8714,
      "Ġemnu": 8715,
      "Ġasnul": 8716,
      "ĠodpÅĻ": 8717,
      "ĠipÅĻ": 8718,
      "Ġiev": 8719,
      "Ġyzu": 8720,
      "ĠoÄįiv": 8721,
      "Ġrstu": 8722,
      "ĠonÄįil": 8723,
      "Ġardsk": 8724,
      "ĠetÅĻe": 8725,
      "ĠÄĽjny": 8726,
      "Ġuhdy": 8727,
      "Ġatla": 8728,
      "ĠeÅĻmi": 8729,
      "Ġizkou": 8730,
      "Ġaeon": 8731,
      "Ġeotr": 8732,
      "Ġaeth": 8733,
      "ĠXAXBBA": 8734,
      "iat": 8735,
      "Ġeel": 8736,
      "Ġual": 8737,
      "Ġpuk": 8738,
      "Ġemst": 8739,
      "Ġlku": 8740,
      "Ġelr": 8741,
      "Ġstuh": 8742,
      "Ġaschl": 8743,
      "ĠÄĽtum": 8744,
      "Ġompr": 8745,
      "Ġslal": 8746,
      "Ġokum": 8747,
      "ĠoÅ¾ku": 8748,
      "Ġynum": 8749,
      "Ġuszt": 8750,
      "Ġtrs": 8751,
      "Ġupci": 8752,
      "Ġisa": 8753,
      "Ġavan": 8754,
      "ĠÃ©nsk": 8755,
      "Ġlhou": 8756,
      "Ġantem": 8757,
      "Ġobnym": 8758,
      "Ġoufat": 8759,
      "ĠeleÅĪ": 8760,
      "ĠiÅ¡tc": 8761,
      "Ġidstvu": 8762,
      "ĠeseÅĪ": 8763,
      "Ġozbl": 8764,
      "Ġrhlo": 8765,
      "Ġarck": 8766,
      "Ġousta": 8767,
      "ĠuÅ¡no": 8768,
      "Ġiknou": 8769,
      "Ġartn": 8770,
      "Ġoktor": 8771,
      "Ġiast": 8772,
      "Ġovstal": 8773,
      "Ġogl": 8774,
      "Ġwh": 8775,
      "ĠetÄĽz": 8776,
      "Ġoupla": 8777,
      "Ġuzkost": 8778,
      "Ġeeth": 8779,
      "iem": 8780,
      "Ġeit": 8781,
      "Ġoez": 8782,
      "Ġbh": 8783,
      "Ġakych": 8784,
      "Ġaluj": 8785,
      "Ġalfr": 8786,
      "Ġamil": 8787,
      "Ġehv": 8788,
      "Ġahach": 8789,
      "ĠoÅ¾st": 8790,
      "ĠÄĽjic": 8791,
      "Ġukni": 8792,
      "Ġepp": 8793,
      "Ġapit": 8794,
      "Ġaza": 8795,
      "ĠiÅ¾ni": 8796,
      "ĠistÅ¡i": 8797,
      "ĠyÅ¡stv": 8798,
      "Ġizp": 8799,
      "Ġizou": 8800,
      "Ġvrb": 8801,
      "Ġoupost": 8802,
      "ĠÄĽsit": 8803,
      "Ġeznal": 8804,
      "Ġeznym": 8805,
      "ĠknÄĽh": 8806,
      "ĠyÅ¥s": 8807,
      "ĠyÅ¥t": 8808,
      "Ġeochv": 8809,
      "Ġinkn": 8810,
      "ĠÅ¾hne": 8811,
      "Ġiom": 8812,
      "ĠiÅ¡ly": 8813,
      "ĠuÅ¾nou": 8814,
      "Ġitna": 8815,
      "ĠÃ½bn": 8816,
      "ĠejeÅ¡": 8817,
      "Ġarta": 8818,
      "Ġourg": 8819,
      "ĠÄĽnÄįi": 8820,
      "Ġeckych": 8821,
      "Ġouklo": 8822,
      "Ġutrob": 8823,
      "Ġazdnou": 8824,
      "ĠzchÅĻ": 8825,
      "Ġyobr": 8826,
      "ea": 8827,
      "pÅĻ": 8828,
      "Ġram": 8829,
      "ĠlÅ¥": 8830,
      "Ġetich": 8831,
      "ĠeÄįu": 8832,
      "ĠplaÅ¡": 8833,
      "ĠikÅ¡": 8834,
      "ĠoÅ¾p": 8835,
      "Ġrdel": 8836,
      "Ġazej": 8837,
      "Ġednost": 8838,
      "ĠÄĽkce": 8839,
      "Ġvlez": 8840,
      "Ġrtc": 8841,
      "Ġzrad": 8842,
      "Ġobru": 8843,
      "Ġelko": 8844,
      "Ġedliv": 8845,
      "Ġalac": 8846,
      "Ġysla": 8847,
      "Ġeufr": 8848,
      "Ġehnat": 8849,
      "Ġoklid": 8850,
      "Ġevnym": 8851,
      "Ġobnych": 8852,
      "Ġatrem": 8853,
      "Ġezdne": 8854,
      "Ġarvou": 8855,
      "Ġujny": 8856,
      "Ġitny": 8857,
      "Ġousty": 8858,
      "Ġestna": 8859,
      "Ġoleon": 8860,
      "Ġialy": 8861,
      "ĠÄĽpr": 8862,
      "ĠovoÄı": 8863,
      "ey": 8864,
      "ium": 8865,
      "Ġvul": 8866,
      "Ġduj": 8867,
      "Ġatal": 8868,
      "Ġodky": 8869,
      "Ġstich": 8870,
      "Ġosth": 8871,
      "ĠamnÄĽ": 8872,
      "Ġslout": 8873,
      "Ġarym": 8874,
      "Ġtvr": 8875,
      "ĠaÅ¾iÅ¡": 8876,
      "Ġutka": 8877,
      "ĠoÄįku": 8878,
      "Ġukaz": 8879,
      "Ġepne": 8880,
      "Ġapek": 8881,
      "ĠunÅ¡t": 8882,
      "Ġastal": 8883,
      "ĠAABBBA": 8884,
      "Ġtrub": 8885,
      "ĠÄĽvou": 8886,
      "Ġisel": 8887,
      "Ġirc": 8888,
      "ĠÄĽhou": 8889,
      "Ġozdob": 8890,
      "Ġodry": 8891,
      "Ġeptam": 8892,
      "Ġouchu": 8893,
      "Ġejtv": 8894,
      "ĠÅ¡kol": 8895,
      "ĠaÅ¡le": 8896,
      "Ġouzlil": 8897,
      "ĠajnÄĽ": 8898,
      "Ġadiv": 8899,
      "ĠÄĽtna": 8900,
      "ĠÅ¡vec": 8901,
      "Ġbdit": 8902,
      "Ġilkou": 8903,
      "ĠÄĽkuv": 8904,
      "usÅ¥": 8905,
      "ĠÅ¡kleb": 8906,
      "ĠozÅ¡k": 8907,
      "Ġooke": 8908,
      "Ġirnym": 8909,
      "ĠÅ¯jÄįk": 8910,
      "Ġauss": 8911,
      "ĠchyÅ¥": 8912,
      "Ġvyl": 8913,
      "Ġyan": 8914,
      "Ġjam": 8915,
      "ĠouÅĪ": 8916,
      "ĠÃ©ÅĪ": 8917,
      "Ġelp": 8918,
      "Ġodan": 8919,
      "Ġsvest": 8920,
      "Ġasob": 8921,
      "Ġinni": 8922,
      "Ġinet": 8923,
      "Ġojhl": 8924,
      "Ġudni": 8925,
      "Ġarkr": 8926,
      "Ġjsa": 8927,
      "ĠABXA": 8928,
      "Ġicv": 8929,
      "Ġsne": 8930,
      "ĠrdÄĽl": 8931,
      "Ġapku": 8932,
      "Ġabd": 8933,
      "ĠubÅĻ": 8934,
      "ĠkÅĻeÄį": 8935,
      "Ġobrem": 8936,
      "ĠustiÅ¡": 8937,
      "Ġuvu": 8938,
      "ĠoÅ¡v": 8939,
      "ĠoÅ¡em": 8940,
      "ĠeÄįnim": 8941,
      "Ġysle": 8942,
      "Ġrchy": 8943,
      "Ġeuil": 8944,
      "Ġipek": 8945,
      "ĠÄĽlaÅ¡": 8946,
      "Ġornost": 8947,
      "Ġeptm": 8948,
      "Ġertn": 8949,
      "Ġerli": 8950,
      "Ġesej": 8951,
      "Ġakuv": 8952,
      "Ġebrat": 8953,
      "Ġegl": 8954,
      "ĠezpeÄį": 8955,
      "ĠuÅ¾bou": 8956,
      "Ġedru": 8957,
      "Ġament": 8958,
      "Ġmstit": 8959,
      "Ġojmu": 8960,
      "ĠÄĽhly": 8961,
      "ĠÅ¯br": 8962,
      "Ġejska": 8963,
      "Ġejskych": 8964,
      "Ġousku": 8965,
      "Ġientu": 8966,
      "Ġelstn": 8967,
      "Ġchyb": 8968,
      "ĠryÄį": 8969,
      "rt": 8970,
      "sn": 8971,
      "Ġuir": 8972,
      "Ġdesk": 8973,
      "Ġrce": 8974,
      "Ġrun": 8975,
      "Ġadel": 8976,
      "ĠesÅ¡": 8977,
      "ĠÄĽtim": 8978,
      "Ġekej": 8979,
      "Ġorek": 8980,
      "ĠaÅ¾et": 8981,
      "Ġopol": 8982,
      "ĠuÅ¾el": 8983,
      "Ġsmet": 8984,
      "ĠaÅ¾dit": 8985,
      "Ġurka": 8986,
      "ĠÄĽÅ¡im": 8987,
      "Ġomnych": 8988,
      "Ġief": 8989,
      "Ġiest": 8990,
      "Ġesnych": 8991,
      "Ġokle": 8992,
      "Ġinut": 8993,
      "Ġejdem": 8994,
      "Ġikus": 8995,
      "Ġagl": 8996,
      "Ġeknul": 8997,
      "ĠeknÄĽz": 8998,
      "Ġakys": 8999,
      "Ġusnul": 9000,
      "ĠeumÄĽl": 9001,
      "ĠiÃ¡d": 9002,
      "Ġachty": 9003,
      "ĠyÅĪsk": 9004,
      "Ġijme": 9005,
      "ĠiÅ¡Å¥al": 9006,
      "ĠzaÅĪ": 9007,
      "ĠÃ©f": 9008,
      "ĠenÄĽl": 9009,
      "Ġlik": 9010,
      "Ġobim": 9011,
      "Ġotek": 9012,
      "ĠamÅĻ": 9013,
      "ĠudÅ¾": 9014,
      "Ġokol": 9015,
      "Ġylit": 9016,
      "Ġester": 9017,
      "ĠuÅ¡el": 9018,
      "Ġskel": 9019,
      "ĠAXXB": 9020,
      "Ġrdit": 9021,
      "Ġecich": 9022,
      "ĠyÅ¾k": 9023,
      "ĠaÄįum": 9024,
      "ĠÄĽdv": 9025,
      "Ġasnil": 9026,
      "Ġuvm": 9027,
      "Ġuvou": 9028,
      "ĠÅ¡tÄĽp": 9029,
      "Ġodno": 9030,
      "Ġoubl": 9031,
      "Ġomnou": 9032,
      "Ġesmir": 9033,
      "ĠaÄįnych": 9034,
      "Ġvdech": 9035,
      "Ġiop": 9036,
      "Ġsplet": 9037,
      "Ġechtic": 9038,
      "Ġaple": 9039,
      "ĠejvyÅ¡": 9040,
      "Ġrkem": 9041,
      "Ġincu": 9042,
      "ĠesÅ¥an": 9043,
      "ĠaÄįeÅ¡": 9044,
      "Ġzvlh": 9045,
      "Ġalmaj": 9046,
      "ĠiÅĪm": 9047,
      "Ġusli": 9048,
      "Ġurpur": 9049,
      "Ġvkrad": 9050,
      "ĠeÃºhl": 9051,
      "Ġazdr": 9052,
      "Ġarrn": 9053,
      "ĠozÅ¾hn": 9054,
      "Ġurdi": 9055,
      "ĠXABABB": 9056,
      "ion": 9057,
      "Ġuez": 9058,
      "Ġbas": 9059,
      "Ġalkl": 9060,
      "Ġituj": 9061,
      "ĠÄĽlim": 9062,
      "ĠÄĽtci": 9063,
      "Ġojhr": 9064,
      "Ġslil": 9065,
      "ĠajÄį": 9066,
      "ĠylnÄĽ": 9067,
      "ĠspÄĽt": 9068,
      "ĠsmÄĽj": 9069,
      "Ġapis": 9070,
      "Ġazyl": 9071,
      "Ġytam": 9072,
      "ĠiÅ¡it": 9073,
      "ĠÄĽdni": 9074,
      "ĠaÅĻt": 9075,
      "Ġurci": 9076,
      "Ġybam": 9077,
      "ĠÄĽÅĻte": 9078,
      "Ġyvk": 9079,
      "ĠoÅ¾nou": 9080,
      "ĠctÄĽn": 9081,
      "icky": 9082,
      "Ġencie": 9083,
      "Ġencii": 9084,
      "ĠoknÄĽ": 9085,
      "Ġidstvi": 9086,
      "Ġejsou": 9087,
      "Ġezmr": 9088,
      "ĠuÅ¡kou": 9089,
      "Ġofu": 9090,
      "ĠÃ©ln": 9091,
      "Ġlti": 9092,
      "Ġichlo": 9093,
      "Ġusky": 9094,
      "Ġallah": 9095,
      "Ġelkym": 9096,
      "Ġadvl": 9097,
      "Ġisrael": 9098,
      "ĠÃ¼r": 9099,
      "Ġtvrz": 9100,
      "tz": 9101,
      "Ġuy": 9102,
      "Ġues": 9103,
      "ĠÃ¡uÅ¡": 9104,
      "ĠÃ½zk": 9105,
      "Ġha": 9106,
      "Ġelich": 9107,
      "Ġanost": 9108,
      "Ġavoj": 9109,
      "Ġolce": 9110,
      "Ġarat": 9111,
      "Ġehky": 9112,
      "ĠoÅ¾ni": 9113,
      "ĠeÅ¡it": 9114,
      "ĠaÅ¡a": 9115,
      "Ġistek": 9116,
      "ĠiÅ¡ne": 9117,
      "ĠÃ³ÅĻ": 9118,
      "Ġizen": 9119,
      "Ġoupku": 9120,
      "ĠuviÅ¡": 9121,
      "ĠÄĽrky": 9122,
      "Ġadlym": 9123,
      "ĠihaÅ¡": 9124,
      "ĠalaÅĻ": 9125,
      "ĠaliÅ¡": 9126,
      "Ġotcuv": 9127,
      "Ġidnem": 9128,
      "ĠaÄįnym": 9129,
      "Ġejvic": 9130,
      "Ġestie": 9131,
      "ĠuÅ¾nÄĽ": 9132,
      "ĠumnÄĽ": 9133,
      "Ġezpl": 9134,
      "Ġukli": 9135,
      "ĠerÅ¡u": 9136,
      "ĠapÅĻed": 9137,
      "Ġlva": 9138,
      "ĠohaÄį": 9139,
      "Ġoumrak": 9140,
      "Ġamsi": 9141,
      "Ġiskli": 9142,
      "ĠÅ¯bk": 9143,
      "Ġevzdal": 9144,
      "ĠinÄįi": 9145,
      "Ġarhan": 9146,
      "Ġiolk": 9147,
      "ĠÃ½zp": 9148,
      "Ġuff": 9149,
      "Ġeuhn": 9150,
      "ĠiÃ©n": 9151,
      "ĠÃ¡uÅ¡n": 9152,
      "gl": 9153,
      "ius": 9154,
      "Ġlal": 9155,
      "Ġilam": 9156,
      "Ġilit": 9157,
      "Ġodf": 9158,
      "ĠsviÅ¥": 9159,
      "Ġeset": 9160,
      "Ġasim": 9161,
      "ĠaÅ¡kr": 9162,
      "Ġednik": 9163,
      "Ġulem": 9164,
      "ĠÄĽke": 9165,
      "Ġumc": 9166,
      "Ġumsk": 9167,
      "Ġabal": 9168,
      "ĠiÅ¡nÄĽ": 9169,
      "ĠuÄįb": 9170,
      "Ġoutil": 9171,
      "Ġacu": 9172,
      "Ġirst": 9173,
      "Ġustym": 9174,
      "ĠABBAXB": 9175,
      "Ġlzu": 9176,
      "Ġisker": 9177,
      "ĠAAABXB": 9178,
      "Ġoubce": 9179,
      "Ġeznat": 9180,
      "Ġyste": 9181,
      "ĠbÅĻich": 9182,
      "Ġenach": 9183,
      "Ġokruh": 9184,
      "Ġoufej": 9185,
      "Ġpsy": 9186,
      "ĠXXAAAX": 9187,
      "ĠiÅĻkn": 9188,
      "Ġelium": 9189,
      "ĠejÅ¾h": 9190,
      "Ġouma": 9191,
      "Ġoff": 9192,
      "Ġltl": 9193,
      "Ġituv": 9194,
      "Ġoety": 9195,
      "ĠytÅĻe": 9196,
      "Ġorstva": 9197,
      "Ġienc": 9198,
      "Ġayett": 9199,
      "Ġuies": 9200,
      "ĠiaÅ¡i": 9201,
      "ĠiÅ¾di": 9202,
      "Ġoak": 9203,
      "Ġnoh": 9204,
      "Ġedum": 9205,
      "Ġavech": 9206,
      "Ġivci": 9207,
      "Ġcha": 9208,
      "ĠerÅ¾": 9209,
      "Ġehat": 9210,
      "Ġevou": 9211,
      "ĠoÅĻich": 9212,
      "Ġepat": 9213,
      "Ġzvad": 9214,
      "Ġistim": 9215,
      "Ġimek": 9216,
      "Ġimkl": 9217,
      "Ġimej": 9218,
      "ĠAABABB": 9219,
      "ĠyÅ¡en": 9220,
      "ĠiÅ¡ni": 9221,
      "Ġijte": 9222,
      "Ġoudech": 9223,
      "ĠustÄĽ": 9224,
      "Ġdvi": 9225,
      "Ġosly": 9226,
      "Ġovnal": 9227,
      "Ġovnat": 9228,
      "Ġrnka": 9229,
      "ĠÄĽcen": 9230,
      "ĠÃ©Å¾t": 9231,
      "ĠaÅĪh": 9232,
      "Ġojnym": 9233,
      "Ġioch": 9234,
      "ĠspleÅ¥": 9235,
      "Ġotru": 9236,
      "Ġrstem": 9237,
      "ĠoÄıte": 9238,
      "Ġikrov": 9239,
      "Ġouvat": 9240,
      "ĠezpÅĻ": 9241,
      "ĠuÅ¥t": 9242,
      "Ġistry": 9243,
      "Ġavle": 9244,
      "ĠÄĽdÄįil": 9245,
      "Ġmhach": 9246,
      "Ġirnych": 9247,
      "Ġocleh": 9248,
      "Ġimprl": 9249,
      "Ġeakc": 9250,
      "ĠaostÅĻ": 9251,
      "Ġsit": 9252,
      "Ġrky": 9253,
      "ĠodÄĽl": 9254,
      "Ġsvad": 9255,
      "Ġobek": 9256,
      "ĠÄįk": 9257,
      "Ġotku": 9258,
      "Ġotov": 9259,
      "Ġamech": 9260,
      "Ġarz": 9261,
      "ĠyliÅ¡": 9262,
      "Ġesto": 9263,
      "Ġplev": 9264,
      "Ġulil": 9265,
      "ĠubaÅ¡": 9266,
      "Ġisce": 9267,
      "ĠeÅĻk": 9268,
      "Ġybil": 9269,
      "Ġypou": 9270,
      "Ġibou": 9271,
      "ĠyÅ¡lo": 9272,
      "Ġyrm": 9273,
      "ĠozpÄĽv": 9274,
      "ĠlÄįky": 9275,
      "Ġeozd": 9276,
      "Ġenth": 9277,
      "Ġanaan": 9278,
      "ĠaviÅ¥": 9279,
      "Ġrstn": 9280,
      "Ġezdu": 9281,
      "ĠbyÅ¥": 9282,
      "Ġonnem": 9283,
      "ĠskÅĻiÅĪ": 9284,
      "ĠrÅ¡n": 9285,
      "Ġuznou": 9286,
      "ĠavraÅ¥": 9287,
      "ĠhÅĻmot": 9288,
      "ĠeteÅ¡": 9289,
      "Ġukle": 9290,
      "Ġyznam": 9291,
      "Ġymny": 9292,
      "Ġogu": 9293,
      "Ġepnou": 9294,
      "ĠÄĽhla": 9295,
      "Ġeand": 9296,
      "ĠohÅĪu": 9297,
      "ĠAAAAAA": 9298,
      "ĠÃ³sn": 9299,
      "Ġiett": 9300,
      "ĠudÄįi": 9301,
      "ĠchÅĻtan": 9302,
      "ĠÃ¤st": 9303,
      "ĠÃ³ph": 9304,
      "Ġuart": 9305,
      "Ġeer": 9306,
      "Ġoid": 9307,
      "Ġpach": 9308,
      "Ġelech": 9309,
      "Ġedd": 9310,
      "Ġezal": 9311,
      "Ġezam": 9312,
      "ĠÄĽnam": 9313,
      "Ġopm": 9314,
      "ĠuÅ¾ich": 9315,
      "Ġulv": 9316,
      "ĠÃºzd": 9317,
      "Ġstrou": 9318,
      "ĠAABBXA": 9319,
      "itÅĻ": 9320,
      "Ġarnach": 9321,
      "Ġyve": 9322,
      "ĠinnosÅ¥": 9323,
      "ĠouÄįn": 9324,
      "Ġodvd": 9325,
      "Ġyci": 9326,
      "ĠanaÅ¡": 9327,
      "Ġahlou": 9328,
      "Ġotrok": 9329,
      "Ġrstech": 9330,
      "Ġaznu": 9331,
      "Ġchmel": 9332,
      "ĠrÅ¡ky": 9333,
      "Ġavrat": 9334,
      "Ġytnych": 9335,
      "Ġably": 9336,
      "ĠohÅĻeb": 9337,
      "ĠuÅ¡nÄĽ": 9338,
      "ĠedvÄĽd": 9339,
      "Ġordy": 9340,
      "ĠatbÄĽ": 9341,
      "Ġavske": 9342,
      "Ġaint": 9343,
      "ĠeotÅĻ": 9344,
      "Ġjet": 9345,
      "Ġzkus": 9346,
      "ĠÃ©ct": 9347,
      "Ġlyr": 9348,
      "Ġesce": 9349,
      "ĠobÄĽt": 9350,
      "Ġojal": 9351,
      "ĠhluÅ¡": 9352,
      "Ġkrav": 9353,
      "Ġevce": 9354,
      "ĠsnÄĽd": 9355,
      "ĠkleÄį": 9356,
      "Ġunku": 9357,
      "Ġzvi": 9358,
      "ĠaÄįni": 9359,
      "ĠÄĽvce": 9360,
      "ĠÄĽÅ¾ich": 9361,
      "ĠuÄįm": 9362,
      "ĠuÄįen": 9363,
      "ĠtÅĻm": 9364,
      "ĠÄĽsni": 9365,
      "Ġadnim": 9366,
      "ĠoÅ¡ik": 9367,
      "Ġavnost": 9368,
      "Ġystan": 9369,
      "Ġeuc": 9370,
      "Ġouchem": 9371,
      "ĠXXAAXA": 9372,
      "ĠÅ¡kÅĻ": 9373,
      "ĠÄĽsno": 9374,
      "ĠoÄįnich": 9375,
      "Ġehle": 9376,
      "ĠevÅĻen": 9377,
      "Ġejvn": 9378,
      "Ġenskym": 9379,
      "ĠenosÅ¥": 9380,
      "Ġegn": 9381,
      "Ġykle": 9382,
      "Ġonde": 9383,
      "Ġybnost": 9384,
      "ĠstkvÄĽl": 9385,
      "ĠÃ¡ctn": 9386,
      "Ġontu": 9387,
      "Ġudle": 9388,
      "ĠzdÅĻim": 9389,
      "ĠalÅ¾b": 9390,
      "Ġtuh": 9391,
      "ĠÃ©Å¡": 9392,
      "Ġrus": 9393,
      "Ġalum": 9394,
      "Ġovich": 9395,
      "ĠÅ¾ne": 9396,
      "Ġinich": 9397,
      "ĠÄĽtev": 9398,
      "Ġonam": 9399,
      "Ġohym": 9400,
      "Ġokat": 9401,
      "Ġebnik": 9402,
      "Ġekce": 9403,
      "Ġorok": 9404,
      "Ġpluj": 9405,
      "Ġutok": 9406,
      "Ġikost": 9407,
      "Ġynce": 9408,
      "Ġistych": 9409,
      "Ġvloh": 9410,
      "ĠyÅ¡ne": 9411,
      "ĠiÅ¡c": 9412,
      "ĠÄĽÅ¾l": 9413,
      "ĠchviÅ¡": 9414,
      "Ġacos": 9415,
      "ĠeÅĻu": 9416,
      "ĠatÅĻiÅ¡": 9417,
      "Ġastnim": 9418,
      "Ġsklem": 9419,
      "ĠÅ¡laÅĻ": 9420,
      "Ġrzt": 9421,
      "Ġrtvo": 9422,
      "Ġohnut": 9423,
      "Ġante": 9424,
      "ĠrpÄĽt": 9425,
      "ĠeoÄį": 9426,
      "ĠouÅ¡tiÅ¡": 9427,
      "Ġpsa": 9428,
      "Ġoukal": 9429,
      "ĠilosÅ¥": 9430,
      "Ġurnym": 9431,
      "ĠrÅ¡c": 9432,
      "ĠadneÅ¡": 9433,
      "ĠiÃ¡ÅĻ": 9434,
      "ĠiskÅĻi": 9435,
      "ĠAXABAB": 9436,
      "Ġulnoc": 9437,
      "ĠÅ¾dal": 9438,
      "Ġaina": 9439,
      "Ġoemi": 9440,
      "Ġuond": 9441,
      "Ġuo": 9442,
      "Ġuer": 9443,
      "ĠyuÅ¾": 9444,
      "Ġouj": 9445,
      "Ġrab": 9446,
      "Ġolum": 9447,
      "Ġesam": 9448,
      "ĠerÄı": 9449,
      "ĠÃ½chv": 9450,
      "Ġevnik": 9451,
      "Ġichod": 9452,
      "ĠeÄįit": 9453,
      "ĠaÅ¾c": 9454,
      "Ġskyt": 9455,
      "Ġblysk": 9456,
      "Ġazc": 9457,
      "Ġulou": 9458,
      "ĠrtÄį": 9459,
      "ĠÄĽvech": 9460,
      "Ġoutem": 9461,
      "Ġzra": 9462,
      "ĠÃ¡skl": 9463,
      "ĠaÅ¾dÄĽn": 9464,
      "Ġustek": 9465,
      "Ġodnich": 9466,
      "Ġatkl": 9467,
      "Ġyslem": 9468,
      "Ġybd": 9469,
      "ĠÄĽÅ¾ko": 9470,
      "ĠetiÅ¡": 9471,
      "Ġpsot": 9472,
      "ĠiÅ¡tim": 9473,
      "ĠiÅĻen": 9474,
      "Ġoztl": 9475,
      "Ġitbam": 9476,
      "ĠuÅ¡nost": 9477,
      "erk": 9478,
      "Ġavli": 9479,
      "Ġanbuh": 9480,
      "Ġojmy": 9481,
      "Ġisma": 9482,
      "Ġathm": 9483,
      "Ġesse": 9484,
      "Ġylna": 9485,
      "ĠeÄįtl": 9486,
      "Ġelkych": 9487,
      "Ġuanc": 9488,
      "Ġizkem": 9489,
      "Ġivko": 9490,
      "ĠeuÅ¡l": 9491,
      "zl": 9492,
      "Ġvor": 9493,
      "ĠyÃ©": 9494,
      "Ġpni": 9495,
      "Ġkj": 9496,
      "Ġman": 9497,
      "Ġdom": 9498,
      "Ġenes": 9499,
      "Ġadzv": 9500,
      "Ġcop": 9501,
      "ĠÄĽtni": 9502,
      "Ġsloh": 9503,
      "ĠoÅĻm": 9504,
      "Ġklus": 9505,
      "ĠiÄįum": 9506,
      "ĠÃºch": 9507,
      "ĠÄĽdky": 9508,
      "Ġacka": 9509,
      "Ġoucit": 9510,
      "ĠÅ¡tr": 9511,
      "ĠÄĽÄįnych": 9512,
      "Ġybech": 9513,
      "Ġadkost": 9514,
      "Ġeznych": 9515,
      "ĠÅ¯ll": 9516,
      "Ġidskym": 9517,
      "ĠyÄįky": 9518,
      "ĠyÄįej": 9519,
      "Ġejth": 9520,
      "Ġanct": 9521,
      "Ġauer": 9522,
      "Ġebnim": 9523,
      "ĠiÅĻat": 9524,
      "Ġerte": 9525,
      "ĠuÄįnou": 9526,
      "Ġarvach": 9527,
      "Ġurnou": 9528,
      "ĠniÅ¥": 9529,
      "Ġehkou": 9530,
      "Ġumnou": 9531,
      "Ġojskem": 9532,
      "Ġartu": 9533,
      "Ġubna": 9534,
      "Ġeodstr": 9535,
      "Ġudcem": 9536,
[...]
