{
  "version": "1.0",
  "truncation": null,
  "padding": null,
  "added_tokens": [
    {
      "id": 0,
      "content": "<|EOS|>",
      "single_word": false,
      "lstrip": false,
      "rstrip": false,
      "normalized": false,
      "special": true
    },
    {
      "id": 1,
      "content": "<|PAD|>",
      "single_word": false,
      "lstrip": false,
      "rstrip": false,
      "normalized": false,
      "special": true
    },
    {
      "id": 2,
      "content": "<|UNK|>",
      "single_word": false,
      "lstrip": false,
      "rstrip": false,
      "normalized": false,
      "special": true
    }
  ],
  "normalizer": null,
  "pre_tokenizer": {
    "type": "ByteLevel",
    "add_prefix_space": false,
    "trim_offsets": true,
    "use_regex": true
  },
  "post_processor": {
    "type": "ByteLevel",
    "add_prefix_space": true,
    "trim_offsets": false,
    "use_regex": true
  },
  "decoder": {
    "type": "ByteLevel",
    "add_prefix_space": true,
    "trim_offsets": true,
    "use_regex": true
  },
  "model": {
    "type": "BPE",
    "dropout": null,
    "unk_token": null,
    "continuing_subword_prefix": null,
    "end_of_word_suffix": null,
    "fuse_unk": false,
    "byte_fallback": false,
    "vocab": {
      "<|EOS|>": 0,
      "<|PAD|>": 1,
      "<|UNK|>": 2,
      "!": 3,
      "#": 4,
      ",": 5,
      ".": 6,
      "0": 7,
      "1": 8,
      "2": 9,
      "3": 10,
      "4": 11,
      "5": 12,
      "6": 13,
      "7": 14,
      "8": 15,
      "9": 16,
      "?": 17,
      "A": 18,
      "B": 19,
      "C": 20,
      "D": 21,
      "H": 22,
      "J": 23,
      "N": 24,
      "P": 25,
      "T": 26,
      "X": 27,
      "Y": 28,
      "a": 29,
      "b": 30,
      "c": 31,
      "d": 32,
      "e": 33,
      "f": 34,
      "g": 35,
      "h": 36,
      "i": 37,
      "j": 38,
      "k": 39,
      "l": 40,
      "m": 41,
      "n": 42,
      "o": 43,
      "p": 44,
      "q": 45,
      "r": 46,
      "s": 47,
      "t": 48,
      "u": 49,
      "v": 50,
      "w": 51,
      "x": 52,
      "y": 53,
      "z": 54,
      "¡": 55,
      "¤": 56,
      "¥": 57,
      "©": 58,
      "¯": 59,
      "³": 60,
      "¶": 61,
      "º": 62,
      "¼": 63,
      "½": 64,
      "¾": 65,
      "Ã": 66,
      "Ä": 67,
      "Å": 68,
      "Ċ": 69,
      "Ġ": 70,
      "Ī": 71,
      "į": 72,
      "ı": 73,
      "Ļ": 74,
      "Ľ": 75,
      "Ń": 76,
      "Ġ#": 77,
      "Ġe": 78,
      "ĠÃ": 79,
      "Ġa": 80,
      "Ġo": 81,
      "Ġi": 82,
      "Ġ1": 83,
      "ĠÃŃ": 84,
      "Ġs": 85,
      "Ġu": 86,
      "ĠÃ¡": 87,
      "ĠÄ": 88,
      "Ġv": 89,
      "Ġy": 90,
      "ĠÄĽ": 91,
      "Ġp": 92,
      "Ġj": 93,
      "Ġn": 94,
      "Ġt": 95,
      "Å¾": 96,
      "ch": 97,
      "Ġz": 98,
      "Å¡": 99,
      "Ġk": 100,
      "ÅĻ": 101,
      "Ġm": 102,
      "Ġd": 103,
      "ĠÃ½": 104,
      "Ġou": 105,
      "ĠÃ©": 106,
      "Ġr": 107,
      "st": 108,
      "Ġb": 109,
      "Ġen": 110,
      "Ġh": 111,
      "Äį": 112,
      "Ġem": 113,
      "Ġl": 114,
      "Ġak": 115,
      "Ġal": 116,
      "ĠÅ": 117,
      "ĠÅ¯": 118,
      "Ġil": 119,
      "Ġad": 120,
      "Ġ15": 121,
      "XX": 122,
      "Ġ16": 123,
      "Ġov": 124,
      "Ġel": 125,
      "Ġ19": 126,
      "Ġat": 127,
      "Ġ18": 128,
      "Ġan": 129,
      "Ġed": 130,
      "Ġod": 131,
      "Ġ14": 132,
      "Ġ13": 133,
      "Ġav": 134,
      "Ġ12": 135,
      "AB": 136,
      "Ġsv": 137,
      "Ġ17": 138,
      "Ġst": 139,
      "ĠÅ¾": 140,
      "Ġol": 141,
      "Ġes": 142,
      "Ġpr": 143,
      "Ġob": 144,
      "Ġas": 145,
      "Ġ11": 146,
      "Ġin": 147,
      "Ġit": 148,
      "Ġc": 149,
      "ĠpÅĻ": 150,
      "Ġost": 151,
      "ĠÄĽl": 152,
      "ĠÃŃm": 153,
      "ĠÄĽt": 154,
      "Ġiv": 155,
      "ĠÄį": 156,
      "Ġot": 157,
      "Ġam": 158,
      "Ġch": 159,
      "Ġ2": 160,
      "Ġer": 161,
      "Ġej": 162,
      "Ġkd": 163,
      "Ġom": 164,
      "Ġet": 165,
      "Ġoj": 166,
      "Ġon": 167,
      "Ġoh": 168,
      "sk": 169,
      "Ġsl": 170,
      "ĠÃ½ch": 171,
      "ĠvÅ¡": 172,
      "Ġud": 173,
      "Ġoz": 174,
      "ĠÃ¡m": 175,
      "Ġar": 176,
      "Ġok": 177,
      "Ġeb": 178,
      "Ġek": 179,
      "ĠÅ¡": 180,
      "ĠÃ¡l": 181,
      "Ġ10": 182,
      "Ġor": 183,
      "ÄĽ": 184,
      "Ġhl": 185,
      "ĠÃŃt": 186,
      "Ġjs": 187,
      "Ġkr": 188,
      "Ġaj": 189,
      "ĠÃ¡n": 190,
      "ĠÃ½m": 191,
      "Ġos": 192,
      "Ġech": 193,
      "Ġid": 194,
      "Å¥": 195,
      "ĠAB": 196,
      "Ġeh": 197,
      "00": 198,
      "Ġyl": 199,
      "Ġ1900": 200,
      "Ġic": 201,
      "Ġev": 202,
      "Ġez": 203,
      "XXXX": 204,
      "ĠÃŃc": 205,
      "Ġtv": 206,
      "XA": 207,
      "Ġich": 208,
      "Ġvz": 209,
      "ĠÃ©m": 210,
      "Ġ9": 211,
      "Ġah": 212,
      "Ġest": 213,
      "ĠÃ¡t": 214,
      "ĠuÅ¡": 215,
      "ĠÃ¡s": 216,
      "em": 217,
      "ĠABAB": 218,
      "ĠÄĽn": 219,
      "ĠeÅ¾": 220,
      "ĠÃ¡v": 221,
      "ou": 222,
      "ĠeÄį": 223,
      "ĠaÅ¾": 224,
      "Ġpl": 225,
      "Ġut": 226,
      "Ġik": 227,
      "ĠoÅ¾": 228,
      "ĠoÄį": 229,
      "Ġsk": 230,
      "ĠoÅĻ": 231,
      "Ġsn": 232,
      "ĠA": 233,
      "Ġrd": 234,
      "Ġsp": 235,
      "ĠÄĽj": 236,
      "80": 237,
      "Ġ1880": 238,
      "Ġec": 239,
      "Ġhr": 240,
      "ĠÃ¡d": 241,
      "Ġop": 242,
      "ĠuÅ¾": 243,
      "Ġsm": 244,
      "Ġmn": 245,
      "ĠÃŃl": 246,
      "ĠeÅ¡": 247,
      "Ġuk": 248,
      "20": 249,
      "ĠXXXX": 250,
      "Ġuj": 251,
      "Ġep": 252,
      "Ġoc": 253,
      "Ġkl": 254,
      "Ġzd": 255,
      "Ġbl": 256,
      "ÅĪ": 257,
      "Ġ1920": 258,
      "ĠÅĻ": 259,
      "ĠaÅ¡": 260,
      "Äı": 261,
      "ĠÃŃn": 262,
      "ĠÃŃch": 263,
      "Ġap": 264,
      "Ġaz": 265,
      "Ġedn": 266,
      "ĠiÅ¾": 267,
      "Ġyt": 268,
      "ĠÃŃv": 269,
      "ĠyÅ¾": 270,
      "Ġun": 271,
      "Ġzv": 272,
      "Ġul": 273,
      "Ġast": 274,
      "Ġys": 275,
      "Ġ20": 276,
      "ĠÃŃr": 277,
      "Ġyn": 278,
      "ĠÄĽk": 279,
      "Ġ8": 280,
      "Ġist": 281,
      "Ġrdc": 282,
      "ĠÃ¡ÅĻ": 283,
      "Ġum": 284,
      "ĠaÄį": 285,
      "ĠÃ©h": 286,
      "al": 287,
      "Ġim": 288,
      "ĠiÄį": 289,
      "Ġvl": 290,
      "ĠÃ¡Å¡": 291,
      "ĠAAB": 292,
      "Ġus": 293,
      "ĠyÅ¡": 294,
      "Ġesk": 295,
      "ĠÃŃÅ¡": 296,
      "ĠÃ¡z": 297,
      "Ġzl": 298,
      "Ġuch": 299,
      "ĠÅ¯j": 300,
      "ĠÃº": 301,
      "ĠÃŃk": 302,
      "ĠXA": 303,
      "Ġdr": 304,
      "Ġstr": 305,
      "Ġach": 306,
      "Ġkv": 307,
      "Ġab": 308,
      "Ġln": 309,
      "Ġrt": 310,
      "Ġzn": 311,
      "Ġuh": 312,
      "ĠÃŃÅ¾": 313,
      "ĠAABB": 314,
      "ĠÃ¡r": 315,
      "ĠiÅ¡": 316,
      "ĠÄĽst": 317,
      "Ġtr": 318,
      "Ġub": 319,
      "ĠÄĽv": 320,
      "ĠÃ¡h": 321,
      "40": 322,
      "Ġdn": 323,
      "ĠÄĽÅ¾": 324,
      "ĠÄĽm": 325,
      "ĠÄĽz": 326,
      "Ġzp": 327,
      "Ġchv": 328,
      "ĠuÄį": 329,
      "Ġrv": 330,
      "Ġout": 331,
      "ĠÃŃd": 332,
      "Ġij": 333,
      "ĠÄĽd": 334,
      "Ġml": 335,
      "Ġych": 336,
      "ĠXAXA": 337,
      "Ġup": 338,
      "Ġac": 339,
      "ĠÃŃs": 340,
      "Ġouh": 341,
      "Ġ21": 342,
      "Ġzr": 343,
      "ĠÃ¡sk": 344,
      "Ġani": 345,
      "ĠÃ¡ch": 346,
      "Å¾d": 347,
      "Ġoud": 348,
      "il": 349,
      "Ġouc": 350,
      "Ġbr": 351,
      "ĠaÅĻ": 352,
      "Ġhn": 353,
      "ĠÃ¡c": 354,
      "Ġkt": 355,
      "ĠÃ³": 356,
      "Ġiz": 357,
      "en": 358,
      "Ġis": 359,
      "stv": 360,
      "ĠkÅĻ": 361,
      "Ġ7": 362,
      "CC": 363,
      "ĠÃ¡k": 364,
      "Ġoch": 365,
      "Ġvr": 366,
      "ne": 367,
      "ĠeÄı": 368,
      "ĠÃ¡Äį": 369,
      "ĠvÅ¾d": 370,
      "ĠtÅĻ": 371,
      "ĠenÅ¾": 372,
      "Ġobr": 373,
      "ĠaÅ¾d": 374,
      "Ġdl": 375,
      "ky": 376,
      "Ġir": 377,
      "ĠÅ¯Å¾": 378,
      "ĠÄĽch": 379,
      "ĠeÅĻ": 380,
      "ĠXXXXXX": 381,
      "ĠeÅ¡t": 382,
      "Ġoup": 383,
      "ĠÅ¯m": 384,
      "60": 385,
      "Ġust": 386,
      "Ġur": 387,
      "Ġemn": 388,
      "Ġzb": 389,
      "Ġeni": 390,
      "Ġvzd": 391,
      "Ġasn": 392,
      "Ġern": 393,
      "hl": 394,
      "Ġuv": 395,
      "Ġdv": 396,
      "ĠÄĽÄį": 397,
      "ĠiÄįk": 398,
      "ĠÄĽs": 399,
      "at": 400,
      "Ġ22": 401,
      "ĠaÅ¥": 402,
      "Ġzm": 403,
      "Ġosl": 404,
      "Ġiti": 405,
      "am": 406,
      "Ġhv": 407,
      "Ġeck": 408,
      "ĠÄĽr": 409,
      "Ġouz": 410,
      "Ġmr": 411,
      "Ġadn": 412,
      "ĠÅ¡t": 413,
      "ĠoÅ¡": 414,
      "Ġ1940": 415,
      "Ġadl": 416,
      "ĠeÅĪ": 417,
      "ĠÃŃz": 418,
      "Ġohl": 419,
      "im": 420,
      "ĠzÅĻ": 421,
      "BA": 422,
      "Ġyk": 423,
      "ĠÃ¡sn": 424,
      "Ġodn": 425,
      "Ġunc": 426,
      "ĠÄĽÄįn": 427,
      "Ġf": 428,
      "Ġih": 429,
      "Ġelk": 430,
      "ĠÃŃb": 431,
      "Ġatk": 432,
      "Ġedl": 433,
      "ĠÄĽzd": 434,
      "Ġjd": 435,
      "as": 436,
      "it": 437,
      "ĠÃ½v": 438,
      "ĠÃ¡p": 439,
      "ĠÃ¡Å¾": 440,
      "ĠhÅĻ": 441,
      "Ġosti": 442,
      "ĠouÅĻ": 443,
      "ĠeÄįn": 444,
      "ĠÃŃh": 445,
      "Ġuz": 446,
      "Ġesl": 447,
      "Ġici": 448,
      "ĠstÅĻ": 449,
      "ĠÃ¡j": 450,
      "Ġpt": 451,
      "Ġodl": 452,
      "ĠABBA": 453,
      "Ġala": 454,
      "Ġchc": 455,
      "ĠÄĽtl": 456,
      "Ġysl": 457,
      "Ġyb": 458,
      "Ġyp": 459,
      "Ġoln": 460,
      "Ġ1860": 461,
      "Ġlz": 462,
      "Ġuc": 463,
      "Ġarn": 464,
      "Ġenk": 465,
      "Ġchl": 466,
      "Ġali": 467,
      "ĠÄĽÅĻ": 468,
      "Ġtm": 469,
      "Ġisk": 470,
      "Ġ1840": 471,
      "Ġovn": 472,
      "ych": 473,
      "Ġrn": 474,
      "Ġskr": 475,
      "ĠouÅ¾": 476,
      "Ġcht": 477,
      "Ġutn": 478,
      "ĠÃŃÄį": 479,
      "Ġib": 480,
      "ĠÄĽh": 481,
      "ĠÅ¯v": 482,
      "Ġ23": 483,
      "Ġila": 484,
      "Ġzt": 485,
      "Ġse": 486,
      "ĠÃ½Å¡": 487,
      "ĠÃ½t": 488,
      "ĠAA": 489,
      "Ġoub": 490,
      "el": 491,
      "Ġadk": 492,
      "ĠÄĽÅ¡": 493,
      "ĠÃŃsn": 494,
      "Ġjsm": 495,
      "Ġati": 496,
      "Ġ6": 497,
      "ĠuÄı": 498,
      "ĠatÅĻ": 499,
      "Ġozd": 500,
      "Ġastn": 501,
      "Ġozn": 502,
      "Ġvzp": 503,
      "ĠÃ¡b": 504,
      "Ġobl": 505,
      "Ġaji": 506,
      "ĠÃ¡hl": 507,
      "ĠÃŃÅĻ": 508,
      "ĠÃ©t": 509,
      "ek": 510,
      "Ġskl": 511,
      "ym": 512,
      "Ġili": 513,
      "ĠÄĽc": 514,
      "ku": 515,
      "Ġoji": 516,
      "ĠÄĽjÅ¡": 517,
      "Ġezn": 518,
      "ĠÅ¯n": 519,
      "ad": 520,
      "ĠÃ©Å¾": 521,
      "Ġrh": 522,
      "ĠouÅ¡": 523,
      "Ġzk": 524,
      "Ġeho": 525,
      "Ġekl": 526,
      "Ġice": 527,
      "Ġkn": 528,
      "ĠÄįl": 529,
      "Ġyv": 530,
      "ÄĽt": 531,
      "ĠÅ¯l": 532,
      "Ġvst": 533,
      "ce": 534,
      "Ġikd": 535,
      "ĠÃ¡tk": 536,
      "ich": 537,
      "ĠÃŃst": 538,
      "Ġ24": 539,
      "ĠdÅĻ": 540,
      "ech": 541,
      "Ġick": 542,
      "ĠXX": 543,
      "Ġiva": 544,
      "Ġava": 545,
      "Ġodr": 546,
      "Ġodp": 547,
      "kl": 548,
      "Ġrch": 549,
      "ĠÅ¯h": 550,
      "an": 551,
      "Ġaly": 552,
      "Ġchr": 553,
      "ĠAABBCC": 554,
      "ĠyÅ¡l": 555,
      "Ġavn": 556,
      "Ġg": 557,
      "Ġyst": 558,
      "dl": 559,
      "es": 560,
      "Ġozv": 561,
      "Ġavy": 562,
      "ĠÅ¡l": 563,
      "ĠÃ©n": 564,
      "Ġym": 565,
      "ĠAAXX": 566,
      "Ġatn": 567,
      "ÄĽl": 568,
      "ak": 569,
      "Ġomn": 570,
      "Ġrz": 571,
      "Ġrs": 572,
      "ka": 573,
      "Ġeu": 574,
      "ĠaÅĪ": 575,
      "Ġand": 576,
      "ĠÅ¯z": 577,
      "dn": 578,
      "Ġrtv": 579,
      "ĠyÅ¥": 580,
      "Ġivn": 581,
      "Ġip": 582,
      "ĠÃ¡vn": 583,
      "ĠÃ¡dn": 584,
      "Ġlh": 585,
      "ĠbÅĻ": 586,
      "Ġyr": 587,
      "Ġena": 588,
      "Ġyj": 589,
      "Ġechn": 590,
      "ni": 591,
      "Ġie": 592,
      "ĠÄĽla": 593,
      "ĠÄĽni": 594,
      "Ġostn": 595,
      "Ġeny": 596,
      "Ġozk": 597,
      "et": 598,
      "ost": 599,
      "Ġavd": 600,
      "Ġesn": 601,
      "Ġotv": 602,
      "Ġily": 603,
      "Ġohn": 604,
      "ĠÄĽÅ¾k": 605,
      "Ġzh": 606,
      "Ġidsk": 607,
      "ĠÃŃdl": 608,
      "ĠÃ½l": 609,
      "ĠÅ¯r": 610,
      "Ġuje": 611,
      "ĠÄĽrn": 612,
      "Ġeln": 613,
      "Ġtl": 614,
      "Ġozp": 615,
      "Ġjst": 616,
      "Ġehn": 617,
      "Ġzj": 618,
      "Ġokl": 619,
      "ĠoÅ¾n": 620,
      "Ġitr": 621,
      "Ġiny": 622,
      "Ġocn": 623,
      "ĠABABCC": 624,
      "Ġenn": 625,
      "ĠobÄĽ": 626,
      "sm": 627,
      "Ġina": 628,
      "Ġkm": 629,
      "Ġvzn": 630,
      "Ġant": 631,
      "Ġevn": 632,
      "ĠrÅ¾": 633,
      "Ġann": 634,
      "Ġane": 635,
      "Ġiln": 636,
      "Ġrp": 637,
      "Ġorn": 638,
      "ĠÅ¯st": 639,
      "Ġesm": 640,
      "Ġene": 641,
      "Ġejn": 642,
      "Ġada": 643,
      "Ġsch": 644,
      "Ġvn": 645,
      "ĠepÅĻ": 646,
      "AX": 647,
      "ĠyÄį": 648,
      "Ġetl": 649,
      "ĠuÅ¡i": 650,
      "Ġ25": 651,
      "Ġinn": 652,
      "Ġyz": 653,
      "AA": 654,
      "Ġzdr": 655,
      "um": 656,
      "Ġztr": 657,
      "Ġotc": 658,
      "Ġela": 659,
      "Ġct": 660,
      "Ġova": 661,
      "ic": 662,
      "Ġaci": 663,
      "Ġokr": 664,
      "Ġerv": 665,
      "Ġje": 666,
      "Ġosp": 667,
      "ĠABABXX": 668,
      "Ġept": 669,
      "ĠoÅ¥": 670,
      "Ġouch": 671,
      "ĠlÄį": 672,
      "Ġidn": 673,
      "Ġsh": 674,
      "Ġ1960": 675,
      "ĠÃŃp": 676,
      "Ġobn": 677,
      "ĠÃŃj": 678,
      "ĠaÄįn": 679,
      "ĠoÅĻi": 680,
      "Ġenc": 681,
      "ĠÅĪ": 682,
      "ĠaÅĻi": 683,
      "Ġskv": 684,
      "Ġeo": 685,
      "ĠeÅ¡l": 686,
      "ĠvÅĻ": 687,
      "Ġink": 688,
      "ĠouÅ¡t": 689,
      "Ġous": 690,
      "ĠouÄį": 691,
      "Ġouf": 692,
      "ĠÄĽti": 693,
      "Ġaln": 694,
      "ĠÃŃÄįk": 695,
      "Ġany": 696,
      "Ġasl": 697,
      "Ġojn": 698,
      "Ġjm": 699,
      "in": 700,
      "Ġvd": 701,
      "Ġozl": 702,
      "Ġeti": 703,
      "Ġira": 704,
      "ĠÃºt": 705,
      "Ġ5": 706,
      "Ġodv": 707,
      "ĠÃŃdn": 708,
      "Ġeskn": 709,
      "Ġps": 710,
      "Ġyc": 711,
      "Ġady": 712,
      "Ġalo": 713,
      "ed": 714,
      "Ġent": 715,
      "ĠÃ¡nk": 716,
      "Ġele": 717,
      "ĠÄĽkd": 718,
      "Ġrvn": 719,
      "Ġoli": 720,
      "Ġana": 721,
      "Ġale": 722,
      "ĠiÅ¡t": 723,
      "ĠobÅĻ": 724,
      "Ġoje": 725,
      "Ġove": 726,
      "ĠÃºsm": 727,
      "ĠoÄįi": 728,
      "Ġinu": 729,
      "Ġami": 730,
      "Ġejt": 731,
      "ĠÃ¡lk": 732,
      "Ġatr": 733,
      "Ġanc": 734,
      "Ġaje": 735,
      "Ġokn": 736,
      "kr": 737,
      "ĠÃºst": 738,
      "ĠÅ¡Å¥": 739,
      "ach": 740,
      "Ġau": 741,
      "ĠXXAA": 742,
      "kv": 743,
      "ĠÅ¾h": 744,
      "tv": 745,
      "Ġemi": 746,
      "Ġavi": 747,
      "ĠejÅ¡": 748,
      "Ġoni": 749,
      "Ġate": 750,
      "Ġsb": 751,
      "CCB": 752,
      "Ġejd": 753,
      "Ġyd": 754,
      "Ġebe": 755,
      "Ġestr": 756,
      "ĠÅ¡k": 757,
      "Ġahl": 758,
      "Ġychl": 759,
      "Ġudn": 760,
      "ĠÃ¡hn": 761,
      "Ġile": 762,
      "ĠÃ¡st": 763,
      "Ġarm": 764,
      "Ġ1820": 765,
      "ĠoÅĪ": 766,
      "Ġlk": 767,
      "ĠichÅ¾": 768,
      "Ġio": 769,
      "Ġspl": 770,
      "Ġotr": 771,
      "ĠÄĽÅ¾n": 772,
      "ĠÄĽje": 773,
      "Ġavu": 774,
      "ĠÅ¡p": 775,
      "ĠaÄįi": 776,
      "Ġvzt": 777,
      "Ġolu": 778,
      "Ġebn": 779,
      "ĠAXA": 780,
      "ĠAABCCB": 781,
      "Ġahr": 782,
      "ABB": 783,
      "ĠÅ¯d": 784,
      "ĠiÅĻ": 785,
      "Ġysk": 786,
      "ĠÄĽsn": 787,
      "ĠeÄįk": 788,
      "ĠadÅ¡": 789,
      "Ġadr": 790,
      "Ġadu": 791,
      "ĠoÄįn": 792,
      "Ġecht": 793,
      "ĠÃŃzk": 794,
      "ĠoÅĻe": 795,
      "Ġomu": 796,
      "ĠrÄį": 797,
      "Ġetn": 798,
      "Ġouk": 799,
      "Ġehl": 800,
      "Ġmdl": 801,
      "ĠaÅ¡l": 802,
      "Ġask": 803,
      "Ġaty": 804,
      "ĠXAAX": 805,
      "iÅ¾": 806,
      "Ġijd": 807,
      "Ġusm": 808,
      "Ġepl": 809,
      "Ġutk": 810,
      "Ġosv": 811,
      "or": 812,
      "Ġrst": 813,
      "ĠevÅĻ": 814,
      "iÅ¡": 815,
      "Ġouzl": 816,
      "Ġrc": 817,
      "Ġiku": 818,
      "Ġasy": 819,
      "ĠavÄĽ": 820,
      "Ġdc": 821,
      "Ġoci": 822,
      "ĠÃŃnk": 823,
      "Ġata": 824,
      "Ġudb": 825,
      "ĠÃ¡zn": 826,
      "Ġasu": 827,
      "ĠanÄĽ": 828,
      "Ġyh": 829,
      "Ġezd": 830,
      "Ġostr": 831,
      "zd": 832,
      "ĠÃŃvk": 833,
      "Ġovsk": 834,
      "Ġoku": 835,
      "ĠÄĽtr": 836,
      "ĠÄĽsti": 837,
      "Ġakt": 838,
      "Ġobj": 839,
      "Ġzbr": 840,
      "ĠosÅ¥": 841,
      "Ġilo": 842,
      "Ġby": 843,
      "Ġert": 844,
      "Ġvt": 845,
      "Ġeli": 846,
      "ĠÃ¡Å¡t": 847,
      "Ġase": 848,
      "ĠiÅ¡l": 849,
      "Ġenstv": 850,
      "Ġanu": 851,
      "ĠÃ¡Å¾n": 852,
      "Ġapl": 853,
      "Ġ26": 854,
      "ĠostÅĻ": 855,
      "ĠÃ½k": 856,
      "Ġidstv": 857,
      "Ġonn": 858,
      "Ġoval": 859,
      "Ġag": 860,
      "Ġidl": 861,
      "Ġejs": 862,
      "Ġoul": 863,
      "Ġejv": 864,
      "ĠÄĽji": 865,
      "Ġekn": 866,
      "Ġoru": 867,
      "ĠÃ©st": 868,
      "Ġyva": 869,
      "Ġerl": 870,
      "Ġude": 871,
      "ĠÄĽly": 872,
      "Ġely": 873,
      "Ġeda": 874,
      "Ġoucn": 875,
      "ĠÄĽtÅ¡": 876,
      "Å¡t": 877,
      "ĠuÄįn": 878,
      "Ġese": 879,
      "ĠÃ¡zdn": 880,
      "ar": 881,
      "Ġosk": 882,
      "ĠÃºd": 883,
      "Ġotk": 884,
      "ĠÃŃtk": 885,
      "Ġajn": 886,
      "Ġozt": 887,
      "Ġoun": 888,
      "Ġuti": 889,
      "ĠÃ©b": 890,
      "Ġank": 891,
      "Ġdal": 892,
      "ĠÃ©v": 893,
      "ĠÃ¡dk": 894,
      "Ġejm": 895,
      "ĠskÅĻ": 896,
      "Ġazi": 897,
      "Ġypr": 898,
      "Ġfr": 899,
      "Ġoudr": 900,
      "ĠÃŃsk": 901,
      "Ġozb": 902,
      "Ġadi": 903,
      "Ġozm": 904,
      "Ġije": 905,
      "ĠÃ¡rn": 906,
      "ĠvÄį": 907,
      "ĠechÅ¥": 908,
      "Ġzdv": 909,
      "uj": 910,
      "ĠÄĽlo": 911,
      "Ġohr": 912,
      "ev": 913,
      "ĠÃ½r": 914,
      "Ġovy": 915,
      "Ġspr": 916,
      "Ġivy": 917,
      "ĠejÅ¾": 918,
      "Ġechc": 919,
      "ĠÃŃrn": 920,
      "ĠÃ¡Å¡n": 921,
      "ĠsvÄĽt": 922,
      "Ġrsk": 923,
      "Ġemu": 924,
      "Ġarv": 925,
      "Ġozh": 926,
      "ej": 927,
      "Ġurn": 928,
      "Ġotn": 929,
      "ĠÃ½sk": 930,
      "Ġostl": 931,
      "Ġyck": 932,
      "Ġavou": 933,
      "uh": 934,
      "Ġovi": 935,
      "Ġden": 936,
      "Ġvzl": 937,
      "Ġaky": 938,
      "ĠÄįt": 939,
      "Ġichn": 940,
      "ĠÃ½s": 941,
      "ĠeÅ¥": 942,
      "ĠuÅ¾e": 943,
      "Ġita": 944,
      "Ġuji": 945,
      "Ġaku": 946,
      "Ġ3": 947,
      "Ġrb": 948,
      "Ġajd": 949,
      "Ġeta": 950,
      "ĠuÅĻ": 951,
      "ĠÄĽkn": 952,
      "Ġeskl": 953,
      "ĠiÃ": 954,
      "Ġeji": 955,
      "Ġaha": 956,
      "Ġansk": 957,
      "Ġesti": 958,
      "Ġika": 959,
      "Ġig": 960,
      "ĠÃŃzd": 961,
      "ĠÄĽli": 962,
      "ĠotÅĻ": 963,
      "ĠinÄĽ": 964,
      "Ġodu": 965,
      "Ġni": 966,
      "est": 967,
      "Ġezm": 968,
      "Ġsr": 969,
      "Ġazn": 970,
      "Ġezk": 971,
      "ĠitÄĽ": 972,
      "Ġanou": 973,
      "ĠiÅ¾i": 974,
      "Ġame": 975,
      "ĠuÅ¾n": 976,
      "Ġukr": 977,
      "ĠavÅĻ": 978,
      "ĠvstÅĻ": 979,
      "Ġzas": 980,
      "Ġyti": 981,
      "Ġctn": 982,
      "Ġma": 983,
      "uch": 984,
      "ĠuÅ¡k": 985,
      "Ġchm": 986,
      "ĠiÅ¡e": 987,
      "Ġodd": 988,
      "ĠÅ¾l": 989,
      "ĠyÅĻ": 990,
      "Ġakl": 991,
      "ĠÄĽÅ¾i": 992,
      "Ġahy": 993,
      "ĠaÅĻe": 994,
      "ĠoÄı": 995,
      "Ġrm": 996,
      "Ġrk": 997,
      "ĠÃŃÅ¡t": 998,
      "Ġehk": 999,
      "ĠoÄįk": 1000,
      "ĠeÅ¾l": 1001,
      "Ġrhl": 1002,
      "Ġosm": 1003,
      "ĠonÄį": 1004,
      "aÅĻ": 1005,
      "Ġuku": 1006,
      "ĠemÄĽ": 1007,
      "ĠÃ©k": 1008,
      "ĠoÅ¾i": 1009,
      "ĠXAXAXX": 1010,
      "Ġmi": 1011,
      "od": 1012,
      "Ġidi": 1013,
      "Ġrhn": 1014,
      "Ġola": 1015,
      "Ġvp": 1016,
      "Ġodi": 1017,
      "ĠÃ©nk": 1018,
      "ĠÄĽle": 1019,
      "ĠÃ½ÅĻ": 1020,
      "Ġosn": 1021,
      "Ġvzh": 1022,
      "ĠmÅĻ": 1023,
      "ĠAXAX": 1024,
      "Ġihn": 1025,
      "Ġ4": 1026,
      "Ġujn": 1027,
      "ĠÄĽmÅ¾": 1028,
      "Ġto": 1029,
      "ĠrÅ¡": 1030,
      "ĠÃ¡Äįk": 1031,
      "ĠaÅ¡n": 1032,
      "Ġjen": 1033,
      "id": 1034,
      "Ġolem": 1035,
      "ĠÄĽtv": 1036,
      "Ġebr": 1037,
      "Ġind": 1038,
      "Ġima": 1039,
      "ĠÃ¡ÅĪ": 1040,
      "Ġuzn": 1041,
      "Ġatky": 1042,
      "Ġavr": 1043,
      "Ġozdr": 1044,
      "ec": 1045,
      "ul": 1046,
      "Ġvzr": 1047,
      "Ġard": 1048,
      "Ġitn": 1049,
      "ĠhÅĻm": 1050,
      "Ġumn": 1051,
      "ĠÃŃmÅ¾": 1052,
      "Ġouci": 1053,
      "ĠtÅĻp": 1054,
      "Ġvzpl": 1055,
      "Ġsen": 1056,
      "Ġenkr": 1057,
      "out": 1058,
      "Ġoum": 1059,
      "Ġarc": 1060,
      "ĠÄĽtu": 1061,
      "Ġadne": 1062,
      "Ġeka": 1063,
      "ĠÃ©Äį": 1064,
      "Ġonc": 1065,
      "ĠuÅ¡t": 1066,
      "Ġyla": 1067,
      "Ġete": 1068,
      "Ġjest": 1069,
      "ĠyÅ¡n": 1070,
      "ĠiÄįn": 1071,
      "Ġikl": 1072,
      "Ġahn": 1073,
      "ĠÄı": 1074,
      "Ġaf": 1075,
      "Ġinc": 1076,
      "Ġachv": 1077,
      "ĠuÄįi": 1078,
      "Ġork": 1079,
      "ĠeÄįi": 1080,
      "Ġody": 1081,
      "ĠkvÄĽt": 1082,
      "Ġvs": 1083,
      "Ġoml": 1084,
      "Ġesp": 1085,
      "ĠÃ½n": 1086,
      "ĠÄĽck": 1087,
      "Ġorl": 1088,
      "ĠÃ¡ln": 1089,
      "ĠÃ¡sc": 1090,
      "Ġory": 1091,
      "Ġensk": 1092,
      "Ġine": 1093,
      "zn": 1094,
      "Ġano": 1095,
      "ĠÃ½b": 1096,
      "ĠÄĽÅ¥": 1097,
      "ĠÄĽzn": 1098,
      "Ġenou": 1099,
      "Ġobz": 1100,
      "XB": 1101,
      "ĠaÅ¡i": 1102,
      "Ġusn": 1103,
      "ĠÄĽtn": 1104,
      "Ġeno": 1105,
      "ĠÃ¡dc": 1106,
      "ĠuÅ¡e": 1107,
      "Ġii": 1108,
      "Ġytn": 1109,
      "Ġabl": 1110,
      "Ġoust": 1111,
      "ĠamÅ¾": 1112,
      "ĠÃ¡tn": 1113,
      "Ġymi": 1114,
      "ĠitÅĻ": 1115,
      "Ġeg": 1116,
      "ĠetÅĻ": 1117,
      "Ġihl": 1118,
      "Ġodk": 1119,
      "Ġitb": 1120,
      "ABAB": 1121,
      "Ġikr": 1122,
      "ĠÄĽtsk": 1123,
      "Ġouv": 1124,
      "Ġrdl": 1125,
      "Ġion": 1126,
      "Ġera": 1127,
      "ĠÅ¡v": 1128,
      "Ġevr": 1129,
      "Ġsam": 1130,
      "Ġestn": 1131,
      "Ġelo": 1132,
      "Ġudi": 1133,
      "Ġvzk": 1134,
      "ĠÃ½Äį": 1135,
      "ĠÄįas": 1136,
      "Ġbd": 1137,
      "ĠÅ¯jd": 1138,
      "Ġezp": 1139,
      "Ġasti": 1140,
      "Ġite": 1141,
      "ĠojÄı": 1142,
      "ĠohÅĻ": 1143,
      "ĠeÅ¾i": 1144,
      "Ġolt": 1145,
      "ik": 1146,
      "ĠepÅ¡": 1147,
      "Ġodz": 1148,
      "ĠÄĽnc": 1149,
      "Ġelz": 1150,
      "Ġival": 1151,
      "Ġhlas": 1152,
      "Ġupn": 1153,
      "Ġinou": 1154,
      "ĠÄĽvÄį": 1155,
      "Ġouti": 1156,
      "Ġive": 1157,
      "ĠuÅ¡n": 1158,
      "aÅĪ": 1159,
      "aÅ¡": 1160,
      "ĠÅ¯zn": 1161,
      "Ġopr": 1162,
      "Ġohu": 1163,
      "Ġlet": 1164,
      "Ġukl": 1165,
      "ĠÅ¯k": 1166,
      "av": 1167,
      "ol": 1168,
      "Ġark": 1169,
      "Ġstv": 1170,
      "Ġoutn": 1171,
      "Ġelm": 1172,
      "Ġime": 1173,
      "zk": 1174,
      "Ġiky": 1175,
      "Ġshl": 1176,
      "Ġedi": 1177,
      "Ġof": 1178,
      "Ġolk": 1179,
      "Ġ27": 1180,
      "Ġuchl": 1181,
      "ĠuÅ¾b": 1182,
      "Ġimn": 1183,
      "Ġitk": 1184,
      "ĠyÅ¡e": 1185,
      "Ġaru": 1186,
      "Ġsi": 1187,
      "ĠuÅ¥": 1188,
      "ĠÅ¯dc": 1189,
      "ĠiÅ¥": 1190,
      "ĠyÅ¡Å¡": 1191,
      "Ġiji": 1192,
      "Ġzem": 1193,
      "ĠÄĽzdn": 1194,
      "Ġokem": 1195,
      "Ġikn": 1196,
      "Ġepr": 1197,
      "ĠÃ¡cn": 1198,
      "Ġiskn": 1199,
      "ot": 1200,
      "Ġamp": 1201,
      "Ġeje": 1202,
      "ĠotÄį": 1203,
      "Ġemsk": 1204,
      "Ġte": 1205,
      "ĠeÅ¡k": 1206,
      "Ġilk": 1207,
      "ĠhÅĻb": 1208,
      "ABBX": 1209,
      "Ġota": 1210,
      "Ġykl": 1211,
      "Ġuhl": 1212,
      "Ġasp": 1213,
      "oj": 1214,
      "Ġojsk": 1215,
      "Ġart": 1216,
      "Ġovat": 1217,
      "ĠesÅ¥": 1218,
      "ĠeÅĻi": 1219,
      "Ġasky": 1220,
      "Ġetb": 1221,
      "Ġole": 1222,
      "ĠoÅ¾sk": 1223,
      "ĠÃºzk": 1224,
      "ĠaÅ¡t": 1225,
      "Ġedb": 1226,
      "Ġary": 1227,
      "ĠeÃ": 1228,
      "ĠÃ¡zr": 1229,
      "Ġyli": 1230,
      "ĠoÅĻk": 1231,
      "ĠÃºp": 1232,
      "Ġave": 1233,
      "Ġoby": 1234,
      "Ġuce": 1235,
      "ĠaÅ¾i": 1236,
      "Ġopl": 1237,
      "Ġji": 1238,
      "Ġiskr": 1239,
      "Ġetk": 1240,
      "Ġokt": 1241,
      "on": 1242,
      "Ġjsem": 1243,
      "az": 1244,
      "ĠÄĽkk": 1245,
      "eÅĪ": 1246,
      "Ġadc": 1247,
      "Ġbyl": 1248,
      "ĠÃ©l": 1249,
      "ĠerÅ¡": 1250,
      "ĠmÅ¾": 1251,
      "ĠÃ©r": 1252,
      "Ġylo": 1253,
      "Ġezl": 1254,
      "Ġiru": 1255,
      "oc": 1256,
      "ĠÄĽny": 1257,
      "Ġuchu": 1258,
      "ĠÃŃzn": 1259,
      "Ġobu": 1260,
      "ĠiÅ¾e": 1261,
      "ĠÃ¡sl": 1262,
      "Ġedr": 1263,
      "Ġzkv": 1264,
      "ĠanÄį": 1265,
      "Ġounk": 1266,
      "iv": 1267,
      "Ġonu": 1268,
      "Ġakb": 1269,
      "BC": 1270,
      "ĠÃ©ÅĻ": 1271,
      "Ġeru": 1272,
      "Ġmu": 1273,
      "Ġesa": 1274,
      "Ġasem": 1275,
      "er": 1276,
      "Ġedu": 1277,
      "ĠÃŃtr": 1278,
      "Ġovu": 1279,
      "Ġtk": 1280,
      "ok": 1281,
      "Ġakr": 1282,
      "Ġyne": 1283,
      "Ġebk": 1284,
      "Ġetu": 1285,
      "ĠaÄįk": 1286,
      "Ġsvou": 1287,
      "Ġzpr": 1288,
      "Ġef": 1289,
      "stvi": 1290,
      "Ġgr": 1291,
      "ÄĽv": 1292,
      "Ġoct": 1293,
      "ĠumÅĻ": 1294,
      "Ġudu": 1295,
      "Ġond": 1296,
      "ĠlÅ¾": 1297,
      "ĠÄĽtem": 1298,
      "Ġzrak": 1299,
      "ĠÃ³n": 1300,
      "Ġede": 1301,
      "ĠÃ¡zk": 1302,
      "ĠÃ¡dh": 1303,
      "Ġomst": 1304,
      "Ġudy": 1305,
      "ĠÃ©z": 1306,
      "Ġzbl": 1307,
      "ĠoÅ¡l": 1308,
      "ud": 1309,
      "Ġ1800": 1310,
      "CBC": 1311,
      "Ġidu": 1312,
      "Ġodm": 1313,
      "os": 1314,
      "ĠiÃŃ": 1315,
      "Ġista": 1316,
      "Ġedm": 1317,
      "Ġedy": 1318,
      "ĠÃ¡Å¡Å¥": 1319,
      "Ġhm": 1320,
      "ĠÃŃvÄį": 1321,
      "Ġasa": 1322,
      "Ġedne": 1323,
      "ĠopÅĻ": 1324,
      "ĠÄĽta": 1325,
      "Ġamen": 1326,
      "Ġalu": 1327,
      "ĠXXABAB": 1328,
      "Ġestl": 1329,
      "Ġour": 1330,
      "Ġini": 1331,
      "Ġizi": 1332,
      "ĠÃŃbr": 1333,
      "Ġpn": 1334,
      "ĠvzkÅĻ": 1335,
      "Ġrad": 1336,
      "Ġudk": 1337,
      "Ġedv": 1338,
      "ĠÅ¯p": 1339,
      "Ġvzb": 1340,
      "ĠaÄįe": 1341,
      "ĠiÄįka": 1342,
      "Ġzc": 1343,
      "Ġerk": 1344,
      "ĠÄĽtÅĻ": 1345,
      "Ġzvl": 1346,
      "Ġme": 1347,
      "Ġistr": 1348,
      "Ġydl": 1349,
      "ĠupÅĻ": 1350,
      "nÄĽ": 1351,
      "Ġunk": 1352,
      "ĠnÄĽ": 1353,
      "Ġuhu": 1354,
      "ĠeÅ¡Å¥": 1355,
      "Ġapr": 1356,
      "ĠjiÅ¾": 1357,
      "ĠABBACC": 1358,
      "ĠovÅ¡": 1359,
      "Ġichu": 1360,
      "Ġamy": 1361,
      "Ġrti": 1362,
      "Ġalm": 1363,
      "ĠadÄĽ": 1364,
      "ĠuÅ¾k": 1365,
      "Ġsve": 1366,
      "ĠapÅĻ": 1367,
      "aj": 1368,
      "ĠÄĽku": 1369,
      "Ġavl": 1370,
      "uk": 1371,
      "ih": 1372,
      "ĠÄĽna": 1373,
      "Ġalk": 1374,
      "ĠenÄĽ": 1375,
      "Ġatu": 1376,
      "ah": 1377,
      "Ġdnes": 1378,
      "Ġmst": 1379,
      "ĠestÅĻ": 1380,
      "Ġodh": 1381,
      "ĠÄĽjÅ¡i": 1382,
      "ĠAXAA": 1383,
      "ĠXAABBX": 1384,
      "Ġybn": 1385,
      "ĠÃ½h": 1386,
      "Ġiha": 1387,
      "ĠÄĽÅ¡t": 1388,
      "Ġesu": 1389,
      "Ġatku": 1390,
      "Ġitl": 1391,
      "Ġizb": 1392,
      "Ġednou": 1393,
      "Ġazp": 1394,
      "Ġara": 1395,
      "ĠÃ½Å¾": 1396,
      "Ġtak": 1397,
      "ov": 1398,
      "ĠtÄĽ": 1399,
      "ĠÃ¡vr": 1400,
      "Ġial": 1401,
      "ĠovÄĽ": 1402,
      "Ġuky": 1403,
      "ĠÄĽdÄį": 1404,
      "Ġvic": 1405,
      "ĠavÅ¡": 1406,
      "ĠvÄĽ": 1407,
      "Ġodb": 1408,
      "Ġabr": 1409,
      "Ġlt": 1410,
      "Ġezv": 1411,
      "Ġsmich": 1412,
      "Ġonk": 1413,
      "ie": 1414,
      "Ġejl": 1415,
      "Ġoda": 1416,
      "ĠiÄįky": 1417,
      "Ġasne": 1418,
      "ĠiÄįku": 1419,
      "us": 1420,
      "Ġasm": 1421,
      "ĠÃ¡bl": 1422,
      "Ġill": 1423,
      "Ġtam": 1424,
      "ĠÃ¡cl": 1425,
      "ĠunÄĽ": 1426,
      "Ġovc": 1427,
      "Ġenu": 1428,
      "Ġama": 1429,
      "Ġahu": 1430,
      "Ġoes": 1431,
      "Ġatc": 1432,
      "ĠAABCBC": 1433,
      "ob": 1434,
      "Ġusi": 1435,
      "Ġatem": 1436,
      "Ġunn": 1437,
      "Ġorsk": 1438,
      "ĠÄĽdn": 1439,
      "Ġanb": 1440,
      "Ġesv": 1441,
      "Ġubn": 1442,
      "Ġalv": 1443,
      "ĠÄĽÅ¡n": 1444,
      "Ġety": 1445,
      "ĠÃ¡lc": 1446,
      "ĠyÅ¡i": 1447,
      "Ġechu": 1448,
      "Ġrchl": 1449,
      "Ġouze": 1450,
      "ĠÃºÅ¾": 1451,
      "Ġohy": 1452,
      "ĠiÅ¡i": 1453,
      "Ġlv": 1454,
      "Ġeod": 1455,
      "Ġaval": 1456,
      "Ġisl": 1457,
      "Ġelsk": 1458,
      "ĠÃŃÅĪ": 1459,
      "ĠouÅ¾i": 1460,
      "Ġozr": 1461,
      "Ġebi": 1462,
      "Ġcv": 1463,
      "Ġitu": 1464,
      "ĠX": 1465,
      "Ġoky": 1466,
      "Ġkrev": 1467,
      "Ġedni": 1468,
      "Ġetr": 1469,
      "ĠuÅ¾i": 1470,
      "Ġell": 1471,
      "Ġia": 1472,
      "Ġosi": 1473,
      "Ġozkv": 1474,
      "ĠmnÄĽ": 1475,
      "Ġoha": 1476,
      "ĠodÅĻ": 1477,
      "sv": 1478,
      "ĠusÅ¥": 1479,
      "Ġoly": 1480,
      "Ġehd": 1481,
      "uÄı": 1482,
      "Ġstkv": 1483,
      "ĠevÅ¡": 1484,
      "Ġaps": 1485,
      "Ġeum": 1486,
      "ĠÃ¡Å¥": 1487,
      "ĠÃ¡bn": 1488,
      "ĠaÅ¡e": 1489,
      "Ġuka": 1490,
      "ĠasÅ¥": 1491,
      "te": 1492,
      "Ġrdce": 1493,
      "Ġitv": 1494,
      "Ġytk": 1495,
      "Ġotu": 1496,
      "Ġbyt": 1497,
      "Ġnam": 1498,
      "ĠÅ¯ln": 1499,
      "ĠemÅĻ": 1500,
      "Ġehc": 1501,
      "Ġuhy": 1502,
      "ĠÃ©dn": 1503,
      "ĠÃŃdk": 1504,
      "Ġanstv": 1505,
      "Ġomk": 1506,
      "Ġovl": 1507,
      "Ġyhl": 1508,
      "ĠouÅ¡k": 1509,
      "Ġubl": 1510,
      "Ġesy": 1511,
      "Ġicha": 1512,
      "ĠAABBXX": 1513,
      "Ġechv": 1514,
      "Ġavc": 1515,
      "Ġian": 1516,
      "Ġamn": 1517,
      "ĠiÅĻi": 1518,
      "ĠanÅ¾": 1519,
      "ĠivÄĽ": 1520,
      "Ġemstv": 1521,
      "Ġuli": 1522,
      "Ġoho": 1523,
      "ĠodÄĽ": 1524,
      "Ġdech": 1525,
      "ĠÃ½kÅĻ": 1526,
      "ĠimÅ¾": 1527,
      "Ġida": 1528,
      "Ġytr": 1529,
      "Ġisni": 1530,
      "ĠystÅĻ": 1531,
      "ĠÃ¡mk": 1532,
      "Ġezb": 1533,
      "ĠokÅĻ": 1534,
      "Ġichr": 1535,
      "Ġukou": 1536,
      "Ġaze": 1537,
      "Ġaur": 1538,
      "ĠaÄı": 1539,
      "Ġyni": 1540,
      "ĠoÅ¡t": 1541,
      "Ġatil": 1542,
      "Ġehr": 1543,
      "Ġohou": 1544,
      "Ġyzn": 1545,
      "ĠoÅ¾stv": 1546,
      "Ġotl": 1547,
      "Ġejkr": 1548,
      "ĠyÅ¡t": 1549,
      "Ġachu": 1550,
      "ĠABBAXX": 1551,
      "ĠÄĽvn": 1552,
      "Ġoumr": 1553,
      "Ġodt": 1554,
      "ĠavÅ¾d": 1555,
      "ĠÄĽty": 1556,
      "ĠzpÄĽt": 1557,
      "Ġato": 1558,
      "Ġald": 1559,
      "Ġeml": 1560,
      "Ġakv": 1561,
      "ĠeÃ¡": 1562,
      "ĠÄįn": 1563,
      "Ġanim": 1564,
      "Ġavil": 1565,
      "ĠtvaÅĻ": 1566,
      "ĠÃŃÅ¥": 1567,
      "Ġadla": 1568,
      "ist": 1569,
      "ĠÄĽjn": 1570,
      "Ġuru": 1571,
      "Ġapk": 1572,
      "Ġajsk": 1573,
      "ĠeÅ¡n": 1574,
      "ĠiÄįi": 1575,
      "ĠÃ¡dr": 1576,
      "ĠÅ¡tv": 1577,
      "Ġoty": 1578,
      "ĠaÅ¾e": 1579,
      "ĠAAXA": 1580,
      "Ġikem": 1581,
      "Ġ28": 1582,
      "Ġmuj": 1583,
      "Ġumi": 1584,
      "Ġozpl": 1585,
      "Ġudc": 1586,
      "ĠeÅĻe": 1587,
      "Ġex": 1588,
      "Ġisti": 1589,
      "Ġstin": 1590,
      "ĠÅ¯Å¾k": 1591,
      "Ġovem": 1592,
      "ABBA": 1593,
      "Ġevz": 1594,
      "Ġusta": 1595,
      "ĠÃ¡ct": 1596,
      "Ġasi": 1597,
      "ĠABABAB": 1598,
      "Ġnas": 1599,
      "Å¡i": 1600,
      "Ġosb": 1601,
      "Ġalem": 1602,
      "Ġbuh": 1603,
      "Ġity": 1604,
      "ĠÃ©d": 1605,
      "Ġymn": 1606,
      "Ġicich": 1607,
      "Ġschv": 1608,
      "Ġrchn": 1609,
      "Ġstal": 1610,
      "Ġekt": 1611,
      "Ġarl": 1612,
      "Ġfl": 1613,
      "ĠÄįtv": 1614,
      "Ġlhk": 1615,
      "ĠouÅ¥": 1616,
      "ĠÃ¡ÅĻn": 1617,
      "Ġakem": 1618,
      "ĠeÅ¡tÄĽ": 1619,
      "ĠÃ©tl": 1620,
      "Ġony": 1621,
      "Ġort": 1622,
      "Ġrve": 1623,
      "Ġobd": 1624,
      "Ġoubk": 1625,
      "ĠÃŃhl": 1626,
      "ĠouÄįk": 1627,
      "ĠÃ©p": 1628,
      "Ġodst": 1629,
      "Ġrpk": 1630,
      "Ġelem": 1631,
      "ĠÄĽÅĻi": 1632,
      "ĠÅ¯ÅĪ": 1633,
      "ĠÄĽvu": 1634,
      "Ġibk": 1635,
      "Ġorm": 1636,
      "Ġmne": 1637,
      "ĠÄĽp": 1638,
      "Ġoka": 1639,
      "yÅ¡": 1640,
      "ĠXXA": 1641,
      "esk": 1642,
      "Ġedk": 1643,
      "Ġss": 1644,
      "ÄĽzd": 1645,
      "Ġrsn": 1646,
      "ĠÄĽte": 1647,
      "ĠhvÄĽzd": 1648,
      "Ġyhn": 1649,
      "Ġuni": 1650,
      "ĠiÅĪ": 1651,
      "ĠÄĽÅ¾c": 1652,
      "Å¡Å¥": 1653,
      "ĠouÅĻn": 1654,
      "Ġorem": 1655,
      "Ġenych": 1656,
      "ĠuÄįk": 1657,
      "ĠÄĽln": 1658,
      "Ġevi": 1659,
      "Ġenem": 1660,
      "Ġmh": 1661,
      "Ġichl": 1662,
      "Ġouhy": 1663,
      "ĠurÄį": 1664,
      "ĠohÅĻb": 1665,
      "Ġoba": 1666,
      "Ġapn": 1667,
      "ĠaÅ¾n": 1668,
      "Ġvzhl": 1669,
      "Ġzkr": 1670,
      "ĠÃºk": 1671,
      "ĠatÅĻi": 1672,
      "Ġojd": 1673,
      "Ġycha": 1674,
      "ĠÅ¯s": 1675,
      "ĠiÅ¡ti": 1676,
      "Ġusl": 1677,
      "Ġals": 1678,
      "Ġenb": 1679,
      "Ġams": 1680,
      "Ġont": 1681,
      "BB": 1682,
      "Ġeme": 1683,
      "ĠiÄįek": 1684,
      "Ġimi": 1685,
      "Ġochv": 1686,
      "ĠaÅ¡k": 1687,
      "ĠiÃ¡": 1688,
      "yt": 1689,
      "Ġade": 1690,
      "Ġurp": 1691,
      "Ġace": 1692,
      "Ġaka": 1693,
      "Ġovst": 1694,
      "Ġosud": 1695,
      "ĠÄĽvc": 1696,
      "Ġopi": 1697,
      "ĠezÅĻ": 1698,
      "Ġesla": 1699,
      "Ġyje": 1700,
      "Ġypl": 1701,
      "Ġadky": 1702,
      "ĠÅ¯t": 1703,
      "ĠeÄįe": 1704,
      "Ġizd": 1705,
      "Ġenim": 1706,
      "ĠÄĽzstv": 1707,
      "Ġatou": 1708,
      "Ġkral": 1709,
      "Ġasv": 1710,
      "Ġoutk": 1711,
      "Ġarf": 1712,
      "Ġystr": 1713,
      "Ġicky": 1714,
      "ĠÃ½sl": 1715,
      "Ġozs": 1716,
      "Ġoubi": 1717,
      "Ġytl": 1718,
      "ĠÃºÄį": 1719,
      "Ġebou": 1720,
      "Ġupr": 1721,
      "ĠemnÄĽ": 1722,
      "Ġula": 1723,
      "ĠÃŃmn": 1724,
      "ĠitÅĻn": 1725,
      "Ġvkr": 1726,
      "Ġzhl": 1727,
      "Ġeust": 1728,
      "ci": 1729,
      "ĠÅĻv": 1730,
      "ĠlÄįk": 1731,
      "ĠÃ¡Å¾d": 1732,
      "yl": 1733,
      "Ġog": 1734,
      "Ġinsk": 1735,
      "XXA": 1736,
      "Ġojm": 1737,
      "Ġatka": 1738,
      "ĠÃ½Å¡l": 1739,
      "ĠmÄĽ": 1740,
      "Ġeku": 1741,
      "ĠÃŃÅ¡n": 1742,
      "Ġsvym": 1743,
      "Ġoko": 1744,
      "Ġspj": 1745,
      "Ġoste": 1746,
      "ĠmÄĽl": 1747,
      "Ġklid": 1748,
      "Ġilou": 1749,
      "ĠotÄĽ": 1750,
      "ĠatÄĽ": 1751,
      "Ġnoc": 1752,
      "ĠÄĽtÄĽ": 1753,
      "Ġivou": 1754,
      "Ġaska": 1755,
      "Ġyly": 1756,
      "Ġipr": 1757,
      "Ġsvych": 1758,
      "Ġusk": 1759,
      "Ġisi": 1760,
      "Ġodch": 1761,
      "ĠÃºtr": 1762,
      "Ġaks": 1763,
      "BX": 1764,
      "Ġedla": 1765,
      "Ġlkl": 1766,
      "ĠchÅĻ": 1767,
      "Ġivl": 1768,
      "Ġalb": 1769,
      "Ġacht": 1770,
      "Ġodil": 1771,
      "Ġepn": 1772,
      "Ġmam": 1773,
      "Ġedc": 1774,
      "Ġere": 1775,
      "Ġesky": 1776,
      "XABB": 1777,
      "Ġdb": 1778,
      "Ġidla": 1779,
      "Ġozj": 1780,
      "Ġlny": 1781,
      "Ġord": 1782,
      "Ġth": 1783,
      "ĠÃºr": 1784,
      "ĠÃ½zn": 1785,
      "Ġiskl": 1786,
      "Ġerstv": 1787,
      "Ġozdn": 1788,
      "ĠvÅ¡ech": 1789,
      "Ġvh": 1790,
      "ĠuzÅĻ": 1791,
      "Ġanem": 1792,
      "ĠÃ©Äįk": 1793,
      "Ġyta": 1794,
      "Ġadce": 1795,
      "Ġouha": 1796,
      "ĠÅ¾al": 1797,
      "Ġunce": 1798,
      "Ġlid": 1799,
      "Ġelstv": 1800,
      "ÄĽn": 1801,
      "Ġece": 1802,
      "ĠÃŃsm": 1803,
      "Ġotkn": 1804,
      "Ġnim": 1805,
      "ĠiÅ¾n": 1806,
      "ĠÃ¡dl": 1807,
      "Ġtu": 1808,
      "Ġochu": 1809,
      "Ġarem": 1810,
      "Ġadb": 1811,
      "Ġyrv": 1812,
      "Ġduch": 1813,
      "ĠÃ©s": 1814,
      "Ġivi": 1815,
      "Ġhb": 1816,
      "ĠÃŃlk": 1817,
      "ĠiskÅĻ": 1818,
      "Ġuhd": 1819,
      "Ġochr": 1820,
      "ĠÄĽhl": 1821,
      "str": 1822,
      "oud": 1823,
      "Ġickn": 1824,
      "Ġcit": 1825,
      "Ġsnad": 1826,
      "ĠspÅĻ": 1827,
      "ir": 1828,
      "Ġynu": 1829,
      "Ġall": 1830,
      "ĠoÅ¾e": 1831,
      "ĠÄĽtla": 1832,
      "Ġukn": 1833,
      "Ġund": 1834,
      "Ġibl": 1835,
      "Ġven": 1836,
      "ĠoÅĻsk": 1837,
      "Ġekr": 1838,
      "ct": 1839,
      "Ġtkl": 1840,
      "ĠÄĽvy": 1841,
      "ĠiseÅĪ": 1842,
      "Ġeba": 1843,
      "Ġebl": 1844,
      "Ġesku": 1845,
      "ĠozÅ¾": 1846,
      "Ġism": 1847,
      "kn": 1848,
      "Ġurk": 1849,
      "Ġatek": 1850,
      "ii": 1851,
      "ĠABA": 1852,
      "ĠarÅ¡": 1853,
      "ĠXAXABB": 1854,
      "Ġahle": 1855,
      "Ġiat": 1856,
      "ĠÃ¡Å¡l": 1857,
      "Ġcl": 1858,
      "Ġles": 1859,
      "om": 1860,
      "Ġanku": 1861,
      "Ġyjd": 1862,
      "Ġadou": 1863,
      "ĠÃ¡zd": 1864,
      "ĠuÄıt": 1865,
      "Ġytu": 1866,
      "Ġhned": 1867,
      "ĠAXXA": 1868,
      "Ġsnih": 1869,
      "Ġejp": 1870,
      "Ġazem": 1871,
      "ĠÃ¡kl": 1872,
      "Ġvch": 1873,
      "Ġdm": 1874,
      "Ġamb": 1875,
      "Ġepc": 1876,
      "ĠÃ¡ck": 1877,
      "ĠÄĽcht": 1878,
      "ĠejÅ¡i": 1879,
      "Ġold": 1880,
      "ĠyÅĪ": 1881,
      "Ġovzd": 1882,
      "Ġalt": 1883,
      "Ġint": 1884,
      "chl": 1885,
      "Ġazv": 1886,
      "Ġif": 1887,
      "Ġomy": 1888,
      "ĠahÅĻ": 1889,
      "Ġatl": 1890,
      "ĠichÅĻ": 1891,
      "Ġobc": 1892,
      "Ġorc": 1893,
      "ĠaÅ¾Å¡": 1894,
      "Ġlst": 1895,
      "Ġatb": 1896,
      "Ġovo": 1897,
      "Ġoma": 1898,
      "ĠÄĽka": 1899,
      "ĠÃºl": 1900,
      "Ġijm": 1901,
      "ĠÄĽÄı": 1902,
      "Ġupl": 1903,
      "Ġasku": 1904,
      "Ġsem": 1905,
      "ĠÄĽnk": 1906,
      "ĠouÅ¡Å¥": 1907,
      "Ġjsou": 1908,
      "ĠonÄĽ": 1909,
      "Ġmnou": 1910,
      "Ġult": 1911,
      "ĠouÅĻi": 1912,
      "Ġadem": 1913,
      "ĠnÄĽm": 1914,
      "Ġti": 1915,
      "ĠynÄĽ": 1916,
      "ĠÅ¯dn": 1917,
      "Ġnich": 1918,
      "Ġret": 1919,
      "Ġucha": 1920,
      "Ġsd": 1921,
      "Ġejte": 1922,
      "ĠÃ¡tr": 1923,
      "Ġozhl": 1924,
      "ĠzpÄĽv": 1925,
      "ĠoÅ¡n": 1926,
      "Ġejhl": 1927,
      "Ġyval": 1928,
      "Ġinam": 1929,
      "ĠÅ¯b": 1930,
      "ĠoÅ¾k": 1931,
      "Ġoce": 1932,
      "Ġamu": 1933,
      "Ġouzn": 1934,
      "Ġora": 1935,
      "ĠÄĽsi": 1936,
      "ast": 1937,
      "ĠÄĽru": 1938,
      "Ġeob": 1939,
      "Ġeth": 1940,
      "Ġang": 1941,
      "Ġery": 1942,
      "Ġerm": 1943,
      "Ġecko": 1944,
      "ĠiÅ¡Å¥": 1945,
      "ĠXXAABB": 1946,
      "Ġdum": 1947,
      "Ġdost": 1948,
      "ĠiÅ¾k": 1949,
      "Ġodc": 1950,
      "ĠÃ©Å¡Å¥": 1951,
      "Ġekv": 1952,
      "ÄĽs": 1953,
      "ĠbliÅ¾": 1954,
      "ĠAAXB": 1955,
      "ĠÃŃrk": 1956,
      "Ġazy": 1957,
      "yn": 1958,
      "Ġinem": 1959,
      "Ġoutl": 1960,
      "ĠobÄį": 1961,
      "eh": 1962,
      "Ġoet": 1963,
      "ĠÃ©tn": 1964,
      "Ġestu": 1965,
      "Ġath": 1966,
      "Ġpan": 1967,
      "Ġovou": 1968,
      "ĠivÅ¡": 1969,
      "Ġils": 1970,
      "Ġuvn": 1971,
      "ĠÃŃln": 1972,
      "Ġenstvi": 1973,
      "ĠÅ¡kl": 1974,
      "ĠrÅ¥": 1975,
      "ĠÃŃÄįn": 1976,
      "Ġ29": 1977,
      "Ġisty": 1978,
      "Ġetch": 1979,
      "Ġavk": 1980,
      "Ġictv": 1981,
      "Ġstm": 1982,
      "ĠÄĽne": 1983,
      "Ġetem": 1984,
      "Ġona": 1985,
      "Ġcn": 1986,
      "Ġetla": 1987,
      "ĠteÅ¾": 1988,
      "ĠÄĽky": 1989,
      "Ġhor": 1990,
      "ĠorÅ¡": 1991,
      "ĠistÅĻ": 1992,
      "ĠistÄĽ": 1993,
      "Ġods": 1994,
      "Ġier": 1995,
      "Ġahne": 1996,
      "Ġess": 1997,
      "ĠteÄı": 1998,
      "ĠÄĽchu": 1999,
      "Ġinka": 2000,
      "ĠÃ¡ÅĻk": 2001,
      "ĠeÃ¡l": 2002,
      "ĠoÅ¡k": 2003,
      "ĠÄĽnÄį": 2004,
      "Ġtkv": 2005,
      "Ġjas": 2006,
      "Ġiral": 2007,
      "ĠÅ¯rc": 2008,
      "ĠÃ©bk": 2009,
      "Ġvj": 2010,
      "Ġvam": 2011,
      "Ġvlas": 2012,
      "ĠzaÅĻ": 2013,
      "Ġsj": 2014,
      "Ġedem": 2015,
      "Ġejsk": 2016,
      "ĠouÅ¡ti": 2017,
      "Ġovstv": 2018,
      "ĠÃºtl": 2019,
      "Ġign": 2020,
      "Ġovzn": 2021,
      "Ġujt": 2022,
      "Ġenym": 2023,
      "Ġitil": 2024,
      "Ġudl": 2025,
      "Ġeky": 2026,
      "Ġinach": 2027,
      "Ġitra": 2028,
      "Ġodj": 2029,
      "Ġousl": 2030,
      "ĠiÅĻe": 2031,
      "Ġeal": 2032,
      "is": 2033,
      "Ġuly": 2034,
      "ĠÄĽhu": 2035,
      "ĠÃ½p": 2036,
      "Ġomt": 2037,
      "Ġeden": 2038,
      "Ġoudi": 2039,
      "Ġedst": 2040,
      "Ġass": 2041,
      "Ġsvit": 2042,
      "Ġvzch": 2043,
      "Ġence": 2044,
      "Ġsf": 2045,
      "ĠrÄįm": 2046,
      "Ġumdl": 2047,
      "ĠÃ¡tc": 2048,
      "ĠXXXA": 2049,
      "ĠauÄį": 2050,
      "Ġivd": 2051,
      "Ġizn": 2052,
      "Ġoskv": 2053,
      "Ġadlo": 2054,
      "ĠÃŃkr": 2055,
      "Ġekla": 2056,
      "Ġsc": 2057,
      "ĠÅ¯ÅĻ": 2058,
      "Ġoudc": 2059,
      "Ġivot": 2060,
      "Ġuchem": 2061,
      "Ġyka": 2062,
      "ĠuÅ¡l": 2063,
      "Ġeskem": 2064,
      "Ġium": 2065,
      "Ġivat": 2066,
      "ĠÃºct": 2067,
      "Ġycht": 2068,
      "Ġilu": 2069,
      "ĠÃŃkl": 2070,
      "Ġvas": 2071,
      "ĠÃ½c": 2072,
      "ĠÃºn": 2073,
      "Ġiho": 2074,
      "Ġnic": 2075,
      "ĠisnÄĽ": 2076,
      "Ġevzd": 2077,
      "Ġysi": 2078,
      "bl": 2079,
      "ĠyÅ¡el": 2080,
      "ĠÄĽdr": 2081,
      "Ġerc": 2082,
      "Ġytm": 2083,
      "Ġlic": 2084,
      "ĠeÄıt": 2085,
      "Ġobk": 2086,
      "ĠsÅĪ": 2087,
      "ĠiÄı": 2088,
      "ĠÄĽmi": 2089,
      "ĠÅ¾it": 2090,
      "Ġsnu": 2091,
      "Ġudce": 2092,
      "Ġechl": 2093,
      "ĠÃŃrkv": 2094,
      "ĠÃ¡rk": 2095,
      "Ġezdn": 2096,
      "Ġstl": 2097,
      "Ġachr": 2098,
      "Ġpad": 2099,
      "Ġcest": 2100,
      "Ġudou": 2101,
      "Ġyska": 2102,
      "Ġolsk": 2103,
      "Ġenku": 2104,
      "Ġodpl": 2105,
      "Ġadal": 2106,
      "ĠchtÄĽl": 2107,
      "Ġrzk": 2108,
      "oh": 2109,
      "Ġerou": 2110,
      "Ġinky": 2111,
      "Ġovk": 2112,
      "Ġiry": 2113,
      "Ġynou": 2114,
      "Ġidm": 2115,
      "ĠvstÅĻic": 2116,
      "Ġjej": 2117,
      "Ġevl": 2118,
      "Ġyku": 2119,
      "ĠÄĽda": 2120,
      "ĠejÄį": 2121,
      "Ġahou": 2122,
      "Ġezr": 2123,
      "Ġactv": 2124,
      "Ġozdv": 2125,
      "Ġmou": 2126,
      "Ġynk": 2127,
      "Ġehu": 2128,
      "ĠAAAX": 2129,
      "ĠÄĽsta": 2130,
      "ĠoudÅĻ": 2131,
      "ĠÄĽtc": 2132,
      "ĠÄĽmc": 2133,
      "Ġotem": 2134,
      "ĠasnÄĽ": 2135,
      "Ġzjev": 2136,
      "Ġycky": 2137,
      "Ġzni": 2138,
      "ĠÃŃÅ¡k": 2139,
      "ĠiÄįko": 2140,
      "Ġatce": 2141,
      "ĠÃ¡rl": 2142,
      "Ġett": 2143,
      "ĠAX": 2144,
      "Ġatko": 2145,
      "Ġepj": 2146,
      "Ġahla": 2147,
      "Ġho": 2148,
      "Ġsvl": 2149,
      "Ġzvr": 2150,
      "ĠastÅĻ": 2151,
      "Ġelc": 2152,
      "ĠÄĽjt": 2153,
      "Ġrtn": 2154,
      "Ġoupa": 2155,
      "ĠÄĽnou": 2156,
      "Ġezt": 2157,
      "chv": 2158,
      "ĠABABAX": 2159,
      "eÅ¡": 2160,
      "Ġunu": 2161,
      "Ġaut": 2162,
      "Ġspat": 2163,
      "Ġouzv": 2164,
      "ĠeÃº": 2165,
      "Ġsmr": 2166,
      "Ġack": 2167,
      "Ġarsk": 2168,
      "ĠÃ¡pl": 2169,
      "Ġuty": 2170,
      "ĠÃŃÅ¾d": 2171,
      "ĠiÅ¡k": 2172,
      "ĠÄĽtlo": 2173,
      "Ġoudn": 2174,
      "ĠÃºs": 2175,
      "Ġousk": 2176,
      "ĠÄĽlsk": 2177,
      "Ġumy": 2178,
      "Ġlni": 2179,
      "Ġule": 2180,
      "Ġosy": 2181,
      "Ġeur": 2182,
      "Ġvb": 2183,
      "ĠvÅ¡em": 2184,
      "Ġitim": 2185,
      "Ġanek": 2186,
      "Ġomi": 2187,
      "Ġokv": 2188,
      "ĠoÅĻil": 2189,
      "ÄĽst": 2190,
      "Ġohem": 2191,
      "ĠpÅĻec": 2192,
      "Ġzpl": 2193,
      "ĠÄĽdk": 2194,
      "Ġury": 2195,
      "Ġten": 2196,
      "ĠÅ¾n": 2197,
      "Ġutku": 2198,
      "ĠeÅ¾t": 2199,
      "Ġarb": 2200,
      "ĠenÄį": 2201,
      "Ġivem": 2202,
      "Ġiste": 2203,
      "Ġyskl": 2204,
      "Ġty": 2205,
      "Ġiska": 2206,
      "ĠÃ¡Å¡tn": 2207,
      "Ġvzal": 2208,
      "ĠvzÅĪ": 2209,
      "Ġvzdech": 2210,
      "Ġw": 2211,
      "ĠoÅ¾il": 2212,
      "Ġeci": 2213,
      "Ġejr": 2214,
      "Ġechem": 2215,
      "Ġklin": 2216,
      "ĠakÅ¾": 2217,
      "Ġmrak": 2218,
      "Ġobt": 2219,
      "ĠÃŃstk": 2220,
      "Ġend": 2221,
      "ĠXXABBA": 2222,
      "Ġuzd": 2223,
      "Ġerem": 2224,
      "ĠozÅ¡": 2225,
      "ĠÄĽvem": 2226,
      "Ġinku": 2227,
      "ĠmuÅ¾": 2228,
      "Ġitem": 2229,
      "Ġojim": 2230,
      "ĠXXAAXX": 2231,
      "Ġing": 2232,
      "Ġhled": 2233,
      "Ġozpr": 2234,
      "ĠenÅ¡": 2235,
      "Ġejich": 2236,
      "Ġide": 2237,
      "Ġoudu": 2238,
      "Ġodvr": 2239,
      "Ġprach": 2240,
      "Ġobs": 2241,
      "Ġitel": 2242,
      "Ġovr": 2243,
      "Ġonz": 2244,
      "Ġarch": 2245,
      "ĠnaÅ¡": 2246,
      "Ġysv": 2247,
      "Ġvsk": 2248,
      "ĠedÄĽl": 2249,
      "ĠkÅĻiÅ¾": 2250,
      "Ġptak": 2251,
      "ĠÄĽlem": 2252,
      "Ġymb": 2253,
      "nik": 2254,
      "Ġius": 2255,
      "Ġsvem": 2256,
      "ĠÃŃml": 2257,
      "Ġpak": 2258,
      "Ġle": 2259,
      "Ġistv": 2260,
      "ĠÄĽmy": 2261,
      "Ġanky": 2262,
      "ĠidÄĽl": 2263,
      "Ġples": 2264,
      "Ġemnou": 2265,
      "Ġouhou": 2266,
      "Ġajk": 2267,
      "Ġichy": 2268,
      "Ġvzm": 2269,
      "ĠÃŃzr": 2270,
      "Ġupc": 2271,
      "ĠyÅĻi": 2272,
      "ĠÃ½d": 2273,
      "Ġersk": 2274,
      "Ġyzv": 2275,
      "ĠytÅĻ": 2276,
      "Ġalstv": 2277,
      "ĠÄĽtÅ¡i": 2278,
      "Ġopy": 2279,
      "Ġhrob": 2280,
      "ĠÃ¡Å¾c": 2281,
      "Ġasna": 2282,
      "Ġrvi": 2283,
      "Ġbz": 2284,
      "ĠbÄĽ": 2285,
      "ĠÅ¯Äį": 2286,
      "Ġazk": 2287,
      "ĠvyÅ¡": 2288,
      "Ġzkl": 2289,
      "ĠÃºb": 2290,
      "ĠÃ¡str": 2291,
      "Ġicy": 2292,
      "ĠhruÄı": 2293,
      "Ġilc": 2294,
      "Ġavym": 2295,
      "ĠvÅ¡ak": 2296,
      "Ġecky": 2297,
      "Ġovych": 2298,
      "ĠbuÄı": 2299,
      "Ġulk": 2300,
      "Ġyna": 2301,
      "ĠlÅĪ": 2302,
      "ĠXXXAXA": 2303,
      "ĠÄĽdi": 2304,
      "ĠÅĻad": 2305,
      "Ġavb": 2306,
      "Ġazal": 2307,
      "Ġopt": 2308,
      "ĠÃºsv": 2309,
      "ĠXABAB": 2310,
      "Ġadly": 2311,
      "Ġedal": 2312,
      "Ġorstv": 2313,
      "Ġedou": 2314,
      "Ġraz": 2315,
      "Ġodou": 2316,
      "ĠdÄĽl": 2317,
      "Ġouhl": 2318,
      "Ġojt": 2319,
      "Ġels": 2320,
      "zv": 2321,
      "ĠÃ¡nb": 2322,
      "Ġboj": 2323,
      "Ġenky": 2324,
      "Ġosled": 2325,
      "ĠalÄį": 2326,
      "Ġumr": 2327,
      "ip": 2328,
      "Ġuln": 2329,
      "Ġavem": 2330,
      "ĠÃ¡nsk": 2331,
      "ĠoÄįt": 2332,
      "osÅ¥": 2333,
      "ĠykÅĻ": 2334,
      "Ġodne": 2335,
      "Ġtve": 2336,
      "Ġalil": 2337,
      "ĠÅ¾d": 2338,
      "Ġrdn": 2339,
      "Ġectv": 2340,
      "Ġect": 2341,
      "ĠÃ¡chn": 2342,
      "Ġshr": 2343,
      "ĠrÅ¡t": 2344,
      "Ġetv": 2345,
      "Ġkol": 2346,
      "Ġilj": 2347,
      "ĠÄĽls": 2348,
      "Ġiad": 2349,
      "ĠÃŃmsk": 2350,
      "ĠÄĽlk": 2351,
      "ĠÅ¡el": 2352,
      "Ġyln": 2353,
      "ĠeÄįt": 2354,
      "uÅ¾": 2355,
      "ĠeÅ¾n": 2356,
      "Ġovym": 2357,
      "Ġejsl": 2358,
      "Ġmit": 2359,
      "Ġajic": 2360,
      "ĠesÄį": 2361,
      "Ġozi": 2362,
      "ĠtiÅ¾": 2363,
      "Ġidem": 2364,
      "Ġstat": 2365,
      "ĠinÄį": 2366,
      "ĠÄĽsÅ¥": 2367,
      "Ġskal": 2368,
      "Ġichem": 2369,
      "Ġsnem": 2370,
      "Ġdat": 2371,
      "Ġrnk": 2372,
      "Ġelou": 2373,
      "Ġebes": 2374,
      "ĠÃŃÅ¡l": 2375,
      "Ġuby": 2376,
      "Ġymp": 2377,
      "ABXB": 2378,
      "Ġchlad": 2379,
      "ĠÃ¡Å¾k": 2380,
      "ĠiÅ¡tÄĽ": 2381,
      "ĠvpÅĻ": 2382,
      "ĠÄĽmu": 2383,
      "Ġopn": 2384,
      "Ġalc": 2385,
      "Ġesem": 2386,
      "Ġeslo": 2387,
      "Ġelu": 2388,
      "Ġvim": 2389,
      "Ġlist": 2390,
      "ĠÃ½Å¡t": 2391,
      "Ġadny": 2392,
      "Ġvod": 2393,
      "ĠÅ¾hn": 2394,
      "Ġastr": 2395,
      "ĠiÄįc": 2396,
      "ĠÃ¡nc": 2397,
      "Ġvi": 2398,
      "Ġavsk": 2399,
      "Ġepy": 2400,
      "Ġisku": 2401,
      "Ġechy": 2402,
      "Ġdne": 2403,
      "Ġivym": 2404,
      "Ġudem": 2405,
      "Ġ30": 2406,
      "ĠXABABX": 2407,
      "ĠÃ¡vk": 2408,
      "Ġabn": 2409,
      "Ġvpl": 2410,
      "Ġadka": 2411,
      "Ġtom": 2412,
      "Ġuny": 2413,
      "Ġeus": 2414,
      "Ġostm": 2415,
      "ys": 2416,
      "Ġipn": 2417,
      "Ġapc": 2418,
      "Ġykv": 2419,
      "ĠÄĽtstv": 2420,
      "Ġruch": 2421,
      "Ġedli": 2422,
      "Ġea": 2423,
      "Ġorg": 2424,
      "Ġobch": 2425,
      "Ġozbr": 2426,
      "Ġicim": 2427,
      "eÄı": 2428,
      "ĠÄįest": 2429,
      "ĠouÅĻl": 2430,
      "Ġalky": 2431,
      "ĠÄĽÅĻt": 2432,
      "Ġadnou": 2433,
      "Ġinek": 2434,
      "Ġachem": 2435,
      "Ġhost": 2436,
      "ĠÃ©dl": 2437,
      "ĠhÅĻich": 2438,
      "Ġezh": 2439,
      "Ġadost": 2440,
      "ĠoÄįil": 2441,
      "ĠÃŃÅ¡Å¥": 2442,
      "Ġchram": 2443,
      "Ġasny": 2444,
      "ĠaÅ¾b": 2445,
      "Ġumu": 2446,
      "Ġrdci": 2447,
      "ĠrÅ¡k": 2448,
      "Ġproud": 2449,
      "ĠÃŃÅ¾k": 2450,
      "Ġrpn": 2451,
      "Ġino": 2452,
      "Ġlna": 2453,
      "Ġusp": 2454,
      "Ġael": 2455,
      "ĠÃºv": 2456,
      "ĠÃ½Äįk": 2457,
      "Ġobi": 2458,
      "ĠolÅ¡": 2459,
      "pr": 2460,
      "ĠÄĽstsk": 2461,
      "ÄĽk": 2462,
      "Ġejh": 2463,
      "Ġovan": 2464,
      "Ġerg": 2465,
      "Ġjh": 2466,
      "Ġdym": 2467,
      "ĠÄĽdÄĽl": 2468,
      "aÄį": 2469,
      "ĠÃ¡zl": 2470,
      "ĠkÅ¡t": 2471,
      "Ġihu": 2472,
      "ĠÅ¯tk": 2473,
      "ĠXABBA": 2474,
      "Ġiba": 2475,
      "Ġonil": 2476,
      "Ġatstv": 2477,
      "Ġazu": 2478,
      "Ġivam": 2479,
      "ÄĽj": 2480,
      "ĠiÅ¾Å¡": 2481,
      "Ġjsi": 2482,
      "Ġdnu": 2483,
      "ĠÃ¡hr": 2484,
      "ĠumÄį": 2485,
      "Ġerd": 2486,
      "ĠijÄı": 2487,
      "ĠÃ©lk": 2488,
      "Ġezdc": 2489,
      "Ġsvuj": 2490,
      "ĠdÅ¾": 2491,
      "Ġsyn": 2492,
      "ĠÅ¾il": 2493,
      "Ġzvuk": 2494,
      "Ġoctv": 2495,
      "ĠÃºÅĻ": 2496,
      "Ġitky": 2497,
      "Ġdni": 2498,
      "Ġadil": 2499,
      "Ġikm": 2500,
      "Ġurv": 2501,
      "op": 2502,
      "Ġoukl": 2503,
      "ĠvÄĽk": 2504,
      "Ġmoc": 2505,
      "Ġyhr": 2506,
      "Ġenni": 2507,
      "Ġvzduch": 2508,
      "ĠavÅ¡t": 2509,
      "Ġolg": 2510,
      "ĠÄĽstn": 2511,
      "Ġajem": 2512,
      "Ġelky": 2513,
      "Ġock": 2514,
      "ÄĽch": 2515,
      "Ġepe": 2516,
      "Ġenka": 2517,
      "Ġmych": 2518,
      "ĠypÅĻ": 2519,
      "Ġetm": 2520,
      "ĠÅ¾el": 2521,
      "Ġustl": 2522,
      "ĠoÅ¾t": 2523,
      "Ġstrach": 2524,
      "Ġtvuj": 2525,
      "Ġivych": 2526,
      "Ġesta": 2527,
      "Ġhrad": 2528,
      "Ġens": 2529,
      "ĠÅ¥": 2530,
      "ĠahÅĻm": 2531,
      "ĠAAXBBX": 2532,
      "Ġjim": 2533,
      "ĠalÅ¡": 2534,
      "Ġatv": 2535,
      "Ġito": 2536,
      "Ġero": 2537,
      "Ġoze": 2538,
      "ĠÅ¾ar": 2539,
      "ĠozÅĻ": 2540,
      "Ġamt": 2541,
      "Ġanul": 2542,
      "Ġake": 2543,
      "Ġslov": 2544,
      "Ġodni": 2545,
      "Ġovna": 2546,
      "Ġejdr": 2547,
      "Ġjit": 2548,
      "ĠhnÄĽv": 2549,
      "ĠatÄį": 2550,
      "Ġavych": 2551,
      "Ġklam": 2552,
      "Ġjdou": 2553,
      "Ġuct": 2554,
      "ĠÅ¾v": 2555,
      "Ġakal": 2556,
      "Ġuzi": 2557,
      "ĠidnÄĽ": 2558,
      "ĠemÅ¾": 2559,
      "ABX": 2560,
      "ĠÃŃckr": 2561,
      "ĠÃŃsl": 2562,
      "Ġkles": 2563,
      "Ġisp": 2564,
      "ĠÃŃzl": 2565,
      "Ġychn": 2566,
      "Ġital": 2567,
      "Ġopil": 2568,
      "Ġujm": 2569,
      "ĠÃ¡chv": 2570,
      "ĠmÅ¡": 2571,
      "ĠvÄĽc": 2572,
      "Ġevd": 2573,
      "Ġarh": 2574,
      "Ġeps": 2575,
      "Ġisn": 2576,
      "Ġuze": 2577,
      "ĠujeÅ¡": 2578,
      "Ġohd": 2579,
      "ĠÅ¯rÄį": 2580,
      "Ġean": 2581,
      "Ġostem": 2582,
      "Ġesty": 2583,
      "ĠzÄį": 2584,
      "Ġuchv": 2585,
      "Ġedt": 2586,
      "Ġkraj": 2587,
      "Ġazel": 2588,
      "Ġeds": 2589,
      "ĠÃŃtÅĻ": 2590,
      "Ġuha": 2591,
      "ĠaÅĪt": 2592,
      "ĠXABBAX": 2593,
      "ĠetÄĽ": 2594,
      "Ġgl": 2595,
      "Ġatych": 2596,
      "Ġozkl": 2597,
      "ĠtÅĻt": 2598,
      "ĠÄĽnim": 2599,
      "Ġute": 2600,
      "ĠubÅ¡": 2601,
      "ĠÅ¡at": 2602,
      "Ġoupl": 2603,
      "Ġysm": 2604,
      "Ġuta": 2605,
      "Ġrsl": 2606,
      "Ġyskn": 2607,
      "Ġyty": 2608,
      "Ġemdl": 2609,
      "ĠuÅĪ": 2610,
      "ĠÄĽÅ¡Å¥": 2611,
      "Ġobou": 2612,
      "ĠzÅ¾": 2613,
      "Ġiov": 2614,
      "Ġacel": 2615,
      "Ġypt": 2616,
      "ĠoÄık": 2617,
      "Ġmraz": 2618,
      "ĠoztÅĻ": 2619,
      "Ġagd": 2620,
      "Ġsil": 2621,
      "Ġiumf": 2622,
      "ĠzkÅĻ": 2623,
      "Ġoudy": 2624,
      "ĠzÅĻel": 2625,
      "Ġema": 2626,
      "Ġne": 2627,
      "Ġaskou": 2628,
      "Ġiol": 2629,
      "Ġamr": 2630,
      "Ġrha": 2631,
      "Ġeht": 2632,
      "Ġavam": 2633,
      "ĠÄĽjÅ¾": 2634,
      "Ġynul": 2635,
      "Ġimb": 2636,
      "ĠyÄįk": 2637,
      "Ġlkn": 2638,
      "Ġjich": 2639,
      "Ġesou": 2640,
      "ĠasÅ¡": 2641,
      "ĠouÅ¾il": 2642,
      "ĠozÄį": 2643,
      "Ġkruh": 2644,
      "Ġesi": 2645,
      "Ġustr": 2646,
      "ĠeÃ¡n": 2647,
      "Ġyg": 2648,
      "up": 2649,
      "uv": 2650,
      "ĠÃºm": 2651,
      "Ġuhn": 2652,
      "Ġodli": 2653,
      "Ġolb": 2654,
      "Ġivc": 2655,
      "ĠaÄįku": 2656,
      "Ġusy": 2657,
      "ĠaÅĻsk": 2658,
      "Ġasnou": 2659,
      "Ġers": 2660,
      "Ġejsm": 2661,
      "ĠehÄį": 2662,
      "ĠeÄįer": 2663,
      "Ġyma": 2664,
      "ĠÃºstr": 2665,
      "Ġtmou": 2666,
      "ĠeÅĻsk": 2667,
      "Ġezc": 2668,
      "Ġolna": 2669,
      "Ġkrok": 2670,
      "Ġeuv": 2671,
      "Ġnes": 2672,
      "ĠÃºkr": 2673,
      "Ġenci": 2674,
      "Ġdruh": 2675,
      "Ġutr": 2676,
      "Ġrej": 2677,
      "Ġobv": 2678,
      "Ġapi": 2679,
      "ĠÃŃvc": 2680,
      "ĠÄĽÅĪ": 2681,
      "Ġochl": 2682,
      "Ġvzpj": 2683,
      "ĠÄĽci": 2684,
      "Ġusti": 2685,
      "Ġvk": 2686,
      "Ġeska": 2687,
      "Ġahem": 2688,
      "Ġyll": 2689,
      "Ġsbor": 2690,
      "ĠmeÄį": 2691,
      "Ġaven": 2692,
      "ĠouÅ¾n": 2693,
      "Ġshn": 2694,
      "ĠÃ¡vc": 2695,
      "Ġtvych": 2696,
      "ĠÄĽno": 2697,
      "Ġykr": 2698,
      "Ġemne": 2699,
      "ĠÄĽhn": 2700,
      "Ġysy": 2701,
      "ĠÄĽlc": 2702,
      "ĠÃ³m": 2703,
      "Ġzde": 2704,
      "Ġojem": 2705,
      "ĠmaÅ¡": 2706,
      "ĠtÄĽch": 2707,
      "ĠeÄįku": 2708,
      "ĠÅ¯Å¾n": 2709,
      "Ġadle": 2710,
      "Ġinne": 2711,
      "ĠÄĽkc": 2712,
      "Ġrkl": 2713,
      "ĠdÅ¾b": 2714,
      "ĠÅ¾en": 2715,
      "ĠÄĽzdy": 2716,
      "ĠÃ³r": 2717,
      "Ġain": 2718,
      "Ġja": 2719,
      "ĠeÄįek": 2720,
      "eÄį": 2721,
      "ĠÄĽtm": 2722,
      "Ġobkl": 2723,
      "Ġrstv": 2724,
      "Ġudr": 2725,
      "Ġien": 2726,
      "Ġevy": 2727,
      "ĠvdÄĽk": 2728,
      "Ġoll": 2729,
      "Ġdiv": 2730,
      "ĠÅĻk": 2731,
      "ĠÄĽkt": 2732,
      "Ġazd": 2733,
      "ĠaÅ¡el": 2734,
      "ĠdlaÅĪ": 2735,
      "Ġdam": 2736,
      "Ġandr": 2737,
      "Ġook": 2738,
      "ĠÃ¡ml": 2739,
      "Ġenec": 2740,
      "Ġlnou": 2741,
      "Ġuhem": 2742,
      "Ġanych": 2743,
      "ĠimÄĽ": 2744,
      "Ġastni": 2745,
      "Ġrstk": 2746,
      "Ġistn": 2747,
      "Ġalne": 2748,
      "Ġatm": 2749,
      "Ġeor": 2750,
      "aÅ¾": 2751,
      "un": 2752,
      "ĠÃ¡Äı": 2753,
      "Ġybr": 2754,
      "ĠÃ¡lÄį": 2755,
      "ĠÅ¯vk": 2756,
      "ur": 2757,
      "Ġeut": 2758,
      "Ġetou": 2759,
      "Ġirn": 2760,
      "Ġanj": 2761,
      "Ġazni": 2762,
      "ĠaÄįek": 2763,
      "Ġabi": 2764,
      "Ġsmrt": 2765,
      "Ġhlad": 2766,
      "ĠÄĽlou": 2767,
      "Ġidim": 2768,
      "Ġasni": 2769,
      "Ġdav": 2770,
      "ĠedÄį": 2771,
      "Ġkdes": 2772,
      "Ġuan": 2773,
      "ĠÄĽkem": 2774,
      "ĠÅ¡um": 2775,
      "Ġosty": 2776,
      "Ġahe": 2777,
      "ĠÅ¯lk": 2778,
      "Ġyzd": 2779,
      "Ġolal": 2780,
      "Ġadku": 2781,
      "Ġimu": 2782,
      "ĠÃŃpk": 2783,
      "Ġcil": 2784,
      "ĠovÄĽk": 2785,
      "Ġeop": 2786,
      "Ġons": 2787,
      "ĠÄĽrk": 2788,
      "Ġejst": 2789,
      "Ġoudil": 2790,
      "Ġajm": 2791,
      "Ġabk": 2792,
      "ĠejdÅĻ": 2793,
      "Ġipl": 2794,
      "ĠovÅ¾d": 2795,
      "ĠÄįech": 2796,
      "ĠÃºh": 2797,
      "Ġsten": 2798,
      "Ġitne": 2799,
      "Ġirem": 2800,
      "Ġeskne": 2801,
      "Ġizda": 2802,
      "ĠÅĻek": 2803,
      "Ġlnk": 2804,
      "ĠÄĽstu": 2805,
      "Ġstran": 2806,
      "Ġrzl": 2807,
      "Ġinul": 2808,
      "Ġilb": 2809,
      "Ġerp": 2810,
      "Ġarp": 2811,
      "Ġeodv": 2812,
      "Ġai": 2813,
      "Ġyth": 2814,
      "Ġvkl": 2815,
      "Ġazku": 2816,
      "ĠaÄįl": 2817,
      "yk": 2818,
      "Ġaby": 2819,
      "ĠÄĽÅ¡i": 2820,
      "Ġidal": 2821,
      "ĠutÄĽ": 2822,
      "ĠiÅ¡el": 2823,
      "ĠvzpÅĻ": 2824,
      "ĠÄĽcko": 2825,
      "Ġbol": 2826,
      "Ġsnech": 2827,
      "ĠABC": 2828,
      "Ġoubn": 2829,
      "ĠdÅĻiv": 2830,
      "Ġodem": 2831,
      "Ġschr": 2832,
      "Ġoti": 2833,
      "ĠohÅĪ": 2834,
      "Ġouzk": 2835,
      "ĠÅ¯hl": 2836,
      "ĠuÅ¾stv": 2837,
      "ĠamÄĽ": 2838,
      "Ġonem": 2839,
      "ĠÃŃhn": 2840,
      "Ġadv": 2841,
      "Ġerb": 2842,
      "ĠÅ¡tk": 2843,
      "Ġtkn": 2844,
      "ĠÃ½sm": 2845,
      "Ġozc": 2846,
      "ĠuÄįe": 2847,
      "ĠeÄįne": 2848,
      "Ġoupk": 2849,
      "ĠÃŃcn": 2850,
      "ĠÃ¡jn": 2851,
      "Ġonsk": 2852,
      "Ġozst": 2853,
      "Ġupu": 2854,
      "Ġanni": 2855,
      "Ġevu": 2856,
      "ĠrÄįi": 2857,
      "eb": 2858,
      "Ġopc": 2859,
      "Ġavzn": 2860,
      "Ġednu": 2861,
      "ĠkÅĻt": 2862,
      "Ġaes": 2863,
      "ĠaÄįt": 2864,
      "Ġavo": 2865,
      "ĠenÅ¾t": 2866,
      "ĠouÅĻe": 2867,
      "ĠÅĻiÅ¡": 2868,
      "Ġkdys": 2869,
      "Ġsny": 2870,
      "Ġug": 2871,
      "Ġerne": 2872,
      "Ġtva": 2873,
      "Ġysli": 2874,
      "Ġysta": 2875,
      "Ġebc": 2876,
      "Ġuzy": 2877,
      "ĠyÄįn": 2878,
      "ĠzvÄĽst": 2879,
      "Ġutl": 2880,
      "ĠpÄĽt": 2881,
      "Ġraj": 2882,
      "ĠeÄįnÄĽ": 2883,
      "Ġaust": 2884,
      "Ġadam": 2885,
      "Ġizt": 2886,
      "Ġetly": 2887,
      "Ġenl": 2888,
      "Ġagn": 2889,
      "Ġesc": 2890,
      "ĠÃŃms": 2891,
      "Ġsluch": 2892,
      "ĠÃ½lk": 2893,
      "Ġirk": 2894,
      "ĠoÅĻc": 2895,
      "ĠyÄįi": 2896,
      "br": 2897,
      "Ġ31": 2898,
      "Ġousm": 2899,
      "ĠÅ¾r": 2900,
      "Ġsad": 2901,
      "Ġolc": 2902,
      "ĠÃ½skn": 2903,
      "Ġonv": 2904,
      "Ġopu": 2905,
      "ĠÅ¯jÄį": 2906,
      "Ġzved": 2907,
      "Ġoupil": 2908,
      "Ġarny": 2909,
      "Ġulo": 2910,
      "Ġizy": 2911,
      "Ġouhv": 2912,
      "Ġesli": 2913,
      "ĠÄĽho": 2914,
      "ĠÃ½Å¡k": 2915,
      "Ġyle": 2916,
      "ĠÄĽhy": 2917,
      "Ġevzp": 2918,
      "ĠiÃ¡Å¡": 2919,
      "Ġubk": 2920,
      "Ġozpj": 2921,
      "Ġazky": 2922,
      "Ġodkr": 2923,
      "Ġavit": 2924,
      "ĠÃ½ml": 2925,
      "Ġidlo": 2926,
      "Ġrod": 2927,
      "ĠviÅ¡": 2928,
      "Ġuhr": 2929,
      "Ġubu": 2930,
      "ĠskraÅĪ": 2931,
      "ĠÃ½st": 2932,
      "ĠovÄį": 2933,
      "Ġiem": 2934,
      "ĠÄĽzi": 2935,
      "ĠisÅ¥": 2936,
      "Ġinal": 2937,
      "ĠÅ¡tit": 2938,
      "Ġihne": 2939,
      "Ġidny": 2940,
      "Ġuml": 2941,
      "Ġluh": 2942,
      "Ġedna": 2943,
      "Ġaiv": 2944,
      "Ġznam": 2945,
      "Ġhrat": 2946,
      "ĠÄĽstÄĽ": 2947,
      "ĠchvÄĽl": 2948,
      "ĠiÄįkou": 2949,
      "ut": 2950,
      "ĠpÅ¡": 2951,
      "ĠobÅ¾": 2952,
      "ĠÃ½z": 2953,
      "Ġarne": 2954,
      "Ġyzi": 2955,
      "Ġoubr": 2956,
      "Ġalou": 2957,
      "Ġyls": 2958,
      "Ġdob": 2959,
      "Ġatim": 2960,
      "Ġavim": 2961,
      "Ġoubc": 2962,
      "Ġojen": 2963,
      "ez": 2964,
      "Ġekne": 2965,
      "Ġeon": 2966,
      "Ġastv": 2967,
      "Ġetlo": 2968,
      "Ġotkl": 2969,
      "ĠÃŃtn": 2970,
      "ĠusÅ¥t": 2971,
      "Ġusil": 2972,
      "chn": 2973,
      "Ġmir": 2974,
      "Ġoupn": 2975,
      "Ġelka": 2976,
      "Ġoke": 2977,
      "Ġrne": 2978,
      "Ġeha": 2979,
      "ĠsÅ¾": 2980,
      "Ġitek": 2981,
      "Ġekem": 2982,
      "Ġazb": 2983,
      "ĠbÄĽd": 2984,
      "ĠeÄįka": 2985,
      "ĠÃŃnsk": 2986,
      "Ġymf": 2987,
      "ĠABB": 2988,
      "Ġtvou": 2989,
      "ĠAAAA": 2990,
      "Ġls": 2991,
      "Ġicke": 2992,
      "ĠrÅ¾i": 2993,
      "Ġutek": 2994,
      "Ġiss": 2995,
      "ĠÃ½str": 2996,
      "Ġicho": 2997,
      "Ġutkv": 2998,
      "ĠoÅ¡i": 2999,
      "ĠÄĽma": 3000,
      "Ġmym": 3001,
      "Ġelh": 3002,
      "Ġasce": 3003,
      "Ġidne": 3004,
      "ĠojÄıt": 3005,
      "ĠAXABBX": 3006,
      "Ġeto": 3007,
      "Ġamk": 3008,
      "ĠleÅ¾": 3009,
      "Ġekal": 3010,
      "Ġsml": 3011,
      "ĠeÅĻm": 3012,
      "Ġoesie": 3013,
      "Ġpout": 3014,
      "ĠÃ©c": 3015,
      "ĠÄĽnu": 3016,
      "Ġupy": 3017,
      "Ġeuz": 3018,
      "Ġuchy": 3019,
      "aÅ¡Å¥": 3020,
      "Ġdej": 3021,
      "ĠzdÅĻ": 3022,
      "ĠÄĽdy": 3023,
      "ĠÃ½kl": 3024,
      "ĠABABBX": 3025,
      "Ġeva": 3026,
      "Ġizka": 3027,
      "ĠÃ©bl": 3028,
      "Ġeun": 3029,
      "Ġerni": 3030,
      "ĠovÄĽÄı": 3031,
      "Ġein": 3032,
      "Ġozml": 3033,
      "Ġejc": 3034,
      "Ġutim": 3035,
      "ĠaÅ¾dy": 3036,
      "Ġoupi": 3037,
      "ĠavÄį": 3038,
      "Ġozz": 3039,
      "Ġarmo": 3040,
      "ĠyÅ¡ti": 3041,
      "Ġaos": 3042,
      "Ġotce": 3043,
      "Ġesly": 3044,
      "Ġschl": 3045,
      "Ġabb": 3046,
      "Ġirat": 3047,
      "Ġialk": 3048,
      "Ġysn": 3049,
      "Ġurc": 3050,
      "ĠÄįist": 3051,
      "Ġeol": 3052,
      "Ġangl": 3053,
      "Ġidy": 3054,
      "Ġochm": 3055,
      "Ġix": 3056,
      "Ġdar": 3057,
      "Ġedly": 3058,
      "Ġyba": 3059,
      "Ġpes": 3060,
      "ĠXAAXBB": 3061,
      "ĠadÄį": 3062,
      "Ġince": 3063,
      "Ġekou": 3064,
      "ĠytÄĽ": 3065,
      "Ġafr": 3066,
      "Ġalku": 3067,
      "Ġilem": 3068,
      "Ġounc": 3069,
      "Ġzvon": 3070,
      "ĠXAAA": 3071,
      "Ġilku": 3072,
      "Ġda": 3073,
      "Ġled": 3074,
      "ĠeÄįny": 3075,
      "Ġodal": 3076,
      "ĠÃ¡vÅ¡t": 3077,
      "Ġazdn": 3078,
      "Ġvir": 3079,
      "ĠojÅ¾": 3080,
      "Ġajt": 3081,
      "ill": 3082,
      "Ġvm": 3083,
      "Ġemp": 3084,
      "Ġyschl": 3085,
      "ÄĽm": 3086,
      "Ġeld": 3087,
      "Ġlhl": 3088,
      "Ġopk": 3089,
      "ĠsmÄĽs": 3090,
      "Ġzml": 3091,
      "Ġklas": 3092,
      "Ġozsv": 3093,
      "Ġazil": 3094,
      "ĠÅ¯rk": 3095,
      "Ġuf": 3096,
      "ĠÄĽÅĻil": 3097,
      "Ġlc": 3098,
      "Ġodkl": 3099,
      "ĠÅĻeÄį": 3100,
      "Ġotou": 3101,
      "Ġehne": 3102,
      "Ġchvil": 3103,
      "Ġonb": 3104,
      "Ġomc": 3105,
      "Ġuzr": 3106,
      "ĠvÅ¡e": 3107,
      "Ġblesk": 3108,
      "Ġivu": 3109,
      "Ġechce": 3110,
      "Ġisto": 3111,
      "Ġedle": 3112,
      "Ġiel": 3113,
      "ĠoÅĻen": 3114,
      "Ġhral": 3115,
      "Ġepi": 3116,
      "ĠoÅ¡kl": 3117,
      "Ġize": 3118,
      "Ġyte": 3119,
      "Ġavt": 3120,
      "ĠÃŃÅĻsk": 3121,
      "Ġtich": 3122,
      "Ġahly": 3123,
      "Ġaivn": 3124,
      "Ġyto": 3125,
      "Ġanny": 3126,
      "Ġydn": 3127,
      "ĠaÄįky": 3128,
      "ĠÃºsk": 3129,
      "Ġacn": 3130,
      "ĠeÄįna": 3131,
      "Ġnach": 3132,
      "ĠÅ¾iv": 3133,
      "Ġspi": 3134,
      "ĠiÅ¾il": 3135,
      "ĠuvÅ¡": 3136,
      "ĠakÅĻ": 3137,
      "Ġyny": 3138,
      "Ġeze": 3139,
      "Ġukol": 3140,
      "Ġeckd": 3141,
      "Ġoss": 3142,
      "Ġykem": 3143,
      "Ġkras": 3144,
      "Ġyzp": 3145,
      "Ġval": 3146,
      "ĠÄĽÅ¡tc": 3147,
      "ĠÃŃmt": 3148,
      "ĠÃ½hn": 3149,
      "Ġadli": 3150,
      "Ġejbl": 3151,
      "ĠspiÅ¡": 3152,
      "Ġatit": 3153,
      "Ġanch": 3154,
      "Ġodkv": 3155,
      "Ġomp": 3156,
      "ĠÄĽnÄĽ": 3157,
      "Ġyss": 3158,
      "Ġpit": 3159,
      "XAX": 3160,
      "ĠaÅ¾t": 3161,
      "Ġzdvih": 3162,
      "Ġenek": 3163,
      "Ġerny": 3164,
      "Ġlze": 3165,
      "Ġovim": 3166,
      "Ġiram": 3167,
      "Ġsmal": 3168,
      "Ġachm": 3169,
      "Ġacen": 3170,
      "ĠuÅ¾sk": 3171,
      "ĠAAXXBB": 3172,
      "Ġatne": 3173,
      "Ġakhl": 3174,
      "Ġlem": 3175,
      "Ġizk": 3176,
      "Ġyji": 3177,
      "Ġynem": 3178,
      "ĠennÄĽ": 3179,
      "Ġykn": 3180,
      "Ġtah": 3181,
      "Ġrek": 3182,
      "ĠumÄĽl": 3183,
      "Ġybl": 3184,
      "ĠznÄĽl": 3185,
      "ĠÃŃÅ¾t": 3186,
      "Ġstesk": 3187,
      "Ġesum": 3188,
      "Ġvzdor": 3189,
      "Ġyru": 3190,
      "Ġiar": 3191,
      "ĠniÅ¾": 3192,
      "Ġecn": 3193,
      "Ġtim": 3194,
      "ĠÅ¡ÅĪ": 3195,
      "Ġuvi": 3196,
      "ĠÃ½dn": 3197,
      "ĠspÄĽch": 3198,
      "Ġidsky": 3199,
      "Ġolku": 3200,
      "Ġubr": 3201,
      "ĠsÅĻ": 3202,
      "ĠÃ½rsk": 3203,
      "Ġehce": 3204,
      "Ġrzn": 3205,
      "ĠbÅĻeh": 3206,
      "Ġlesk": 3207,
      "Ġatym": 3208,
      "Ġrvy": 3209,
      "ĠistÅ¡": 3210,
      "Ġvln": 3211,
      "Ġnech": 3212,
      "Ġplat": 3213,
      "ĠeuzÅĻ": 3214,
      "ĠuÅ¡il": 3215,
      "Ġistu": 3216,
      "Ġouho": 3217,
      "Ġuvil": 3218,
      "Ġubin": 3219,
      "Ġyrt": 3220,
      "ĠÃ¡ÅĻsk": 3221,
      "Ġmech": 3222,
      "Ġepta": 3223,
      "Ġadna": 3224,
      "Ġsnach": 3225,
      "Ġstrom": 3226,
      "Ġychu": 3227,
      "Ġance": 3228,
      "ĠÄĽnn": 3229,
      "ĠtÅĻas": 3230,
      "Ġemstvi": 3231,
      "Ġesch": 3232,
      "ĠudÅ¡": 3233,
      "Ġavat": 3234,
      "ĠaÅĻm": 3235,
      "ĠÃ½Å¥": 3236,
      "ĠÄĽnce": 3237,
      "Ġvlast": 3238,
      "Ġijt": 3239,
      "Ġaml": 3240,
      "Ġtvym": 3241,
      "ĠiÄįe": 3242,
      "Ġetkn": 3243,
      "Ġakm": 3244,
      "ĠiÅ¡n": 3245,
      "ĠÃºkl": 3246,
      "ĠÃ¡pn": 3247,
      "Ġoctn": 3248,
      "Ġydr": 3249,
      "ĠidÄĽt": 3250,
      "Ġupi": 3251,
      "Ġacich": 3252,
      "Ġohled": 3253,
      "ĠomnÄĽl": 3254,
      "Ġafn": 3255,
      "Ġemr": 3256,
      "ĠÄįiÅ¡": 3257,
      "Ġovz": 3258,
      "Ġsni": 3259,
      "Ġotci": 3260,
      "Ġenne": 3261,
      "ĠeÅ¡i": 3262,
      "Ġuna": 3263,
      "ĠlÄįi": 3264,
      "ĠyÅ¡Å¡i": 3265,
      "Ġimal": 3266,
      "Ġitro": 3267,
      "Ġanci": 3268,
      "Ġatel": 3269,
      "Ġvzkv": 3270,
      "ĠaÅ¾sk": 3271,
      "ĠÃ¡rm": 3272,
      "Ġantn": 3273,
      "Ġzch": 3274,
      "Ġabc": 3275,
      "Ġbrat": 3276,
      "ĠarnÄĽ": 3277,
      "Ġrzy": 3278,
      "ĠehÅĻ": 3279,
      "ĠestÄĽ": 3280,
      "ĠÄĽÅ¾Å¡": 3281,
      "ĠÄĽÄįne": 3282,
      "Ġezna": 3283,
      "Ġvztek": 3284,
      "ĠXAABXB": 3285,
      "ĠÄĽÅ¾e": 3286,
      "hr": 3287,
      "Ġstan": 3288,
      "Ġplal": 3289,
      "Ġobil": 3290,
      "Ġikt": 3291,
      "Ġoucich": 3292,
      "Ġchvat": 3293,
      "Ġiam": 3294,
      "Ġars": 3295,
      "Ġapj": 3296,
      "ĠatnÄĽ": 3297,
      "Ġmzd": 3298,
      "Ġstk": 3299,
      "Ġalce": 3300,
      "Ġplen": 3301,
      "Ġytem": 3302,
      "ĠÃ³l": 3303,
      "Ġrsc": 3304,
      "Ġecha": 3305,
      "Ġabsk": 3306,
      "Ġran": 3307,
      "Ġarr": 3308,
      "oup": 3309,
      "Ġlp": 3310,
      "Ġoblak": 3311,
      "Ġudne": 3312,
      "Ġutna": 3313,
      "Ġojich": 3314,
      "ÄĽz": 3315,
      "Ġlb": 3316,
      "Ġostne": 3317,
      "ĠomÅ¡": 3318,
      "Ġsoud": 3319,
      "Ġytne": 3320,
      "Ġoucim": 3321,
      "Ġibr": 3322,
      "ĠaÄįna": 3323,
      "Ġouka": 3324,
      "sl": 3325,
      "ĠÄįin": 3326,
      "Ġuda": 3327,
      "ĠamÅ¾ik": 3328,
      "ĠvÅ¾dy": 3329,
      "Ġyby": 3330,
      "ĠÄĽb": 3331,
      "Ġidel": 3332,
      "ĠÄĽrne": 3333,
      "ĠsÄį": 3334,
      "Ġtmach": 3335,
      "Ġae": 3336,
      "Ġanna": 3337,
      "Ġivo": 3338,
      "ĠaÅ¡ti": 3339,
      "Ġaskl": 3340,
      "ĠrsÅ¥": 3341,
      "Ġuzdr": 3342,
      "ust": 3343,
      "Ġorv": 3344,
      "ĠeurÄį": 3345,
      "Ġobm": 3346,
      "Ġozchv": 3347,
      "ĠÃ³d": 3348,
      "ep": 3349,
      "Ġotm": 3350,
      "Ġext": 3351,
      "Ġrok": 3352,
      "Ġlan": 3353,
      "Ġvzne": 3354,
      "Ġapal": 3355,
      "Ġimp": 3356,
      "Ġlzy": 3357,
      "Ġadm": 3358,
      "Ġisr": 3359,
      "Ġozch": 3360,
      "Ġenech": 3361,
      "Ġilost": 3362,
      "Ġejkl": 3363,
      "Ġudil": 3364,
      "ĠaÄįil": 3365,
      "Ġschn": 3366,
      "Ġone": 3367,
      "ĠplaÄį": 3368,
      "ĠaÄįne": 3369,
      "Ġahnou": 3370,
      "Ġpar": 3371,
      "ĠoÅĻem": 3372,
      "Ġizv": 3373,
      "ub": 3374,
      "Ġkout": 3375,
      "ĠadÅ¡i": 3376,
      "Ġadech": 3377,
      "Ġavzd": 3378,
      "Ġosil": 3379,
      "Ġomoc": 3380,
      "ĠylÅ¥": 3381,
      "Ġazl": 3382,
      "Ġkmet": 3383,
      "Ġaskv": 3384,
      "Ġinil": 3385,
      "Ġta": 3386,
      "Ġetech": 3387,
      "Ġosim": 3388,
      "Ġouta": 3389,
      "Ġzhn": 3390,
      "Ġozpt": 3391,
      "Ġodit": 3392,
      "ĠzpÅĻ": 3393,
      "Ġves": 3394,
      "Ġprah": 3395,
      "Ġesich": 3396,
      "Ġahv": 3397,
      "Ġyvr": 3398,
      "ĠiÃ¡n": 3399,
      "Ġosu": 3400,
      "ab": 3401,
      "ĠÄĽÅĻe": 3402,
      "Ġejme": 3403,
      "Ġrkn": 3404,
      "ĠÃ©zt": 3405,
      "Ġzdl": 3406,
      "ĠaÅĪk": 3407,
      "Ġavne": 3408,
      "Ġonce": 3409,
      "Ġunci": 3410,
      "Ġdik": 3411,
      "Ġskvost": 3412,
      "ĠÄĽÄįna": 3413,
      "Ġvnad": 3414,
      "Ġare": 3415,
      "ĠÃ¶": 3416,
      "Ġztm": 3417,
      "Ġmoh": 3418,
      "Ġorach": 3419,
      "Ġsna": 3420,
      "kach": 3421,
      "Ġipy": 3422,
      "Ġilny": 3423,
      "Ġbit": 3424,
      "Ġhlav": 3425,
      "Ġimy": 3426,
      "Ġjste": 3427,
      "ĠÅ¡pr": 3428,
      "ĠadnÄĽ": 3429,
      "ĠÄĽÅ¡tb": 3430,
      "ĠpÄĽst": 3431,
      "Ġroj": 3432,
      "ĠomÄĽ": 3433,
      "Ġvstal": 3434,
      "Ġuzk": 3435,
      "Ġinstv": 3436,
      "Ġops": 3437,
      "ĠÃŃbÅĻ": 3438,
      "Ġjde": 3439,
      "Ġakk": 3440,
      "Ġalp": 3441,
      "ĠÄĽzt": 3442,
      "ĠÃ½tk": 3443,
      "ia": 3444,
      "ABC": 3445,
      "ĠÃ½nk": 3446,
      "ĠABCABC": 3447,
      "Ġyky": 3448,
      "Ġmem": 3449,
      "ĠÄĽsic": 3450,
      "Ġitou": 3451,
      "Ġved": 3452,
      "Ġomb": 3453,
      "ĠÃ©bc": 3454,
      "XXB": 3455,
      "ĠarÄį": 3456,
      "ĠzÅĻim": 3457,
      "Ġild": 3458,
      "Ġocl": 3459,
      "Ġorb": 3460,
      "Ġ32": 3461,
      "Ġokrat": 3462,
      "Ġoucha": 3463,
      "Ġax": 3464,
      "XXX": 3465,
      "Ġztl": 3466,
      "ĠslyÅ¡": 3467,
      "Ġinna": 3468,
      "ĠAXABXB": 3469,
      "Ġiot": 3470,
      "Ġilm": 3471,
      "Ġedam": 3472,
      "Ġobst": 3473,
      "Ġotec": 3474,
      "Ġose": 3475,
      "Ġsnil": 3476,
      "Ġvrah": 3477,
      "ĠmÄĽst": 3478,
      "Ġjal": 3479,
      "Ġalsk": 3480,
      "Ġebce": 3481,
      "Ġezi": 3482,
      "ĠÄĽsto": 3483,
      "ĠÄĽchy": 3484,
      "Ġmaj": 3485,
      "Ġeske": 3486,
      "Ġervn": 3487,
      "Ġeom": 3488,
      "ĠABACCB": 3489,
      "Ġarna": 3490,
      "Ġjsme": 3491,
      "Ġekli": 3492,
      "ĠlÅ¾n": 3493,
      "ÄĽÅĻ": 3494,
      "ĠÃ¡Å¾l": 3495,
      "Ġostou": 3496,
      "ĠÄĽdu": 3497,
      "Ġusty": 3498,
      "Ġeuh": 3499,
      "ĠzbraÅĪ": 3500,
      "Ġodsk": 3501,
      "ĠÄĽÅ¡k": 3502,
      "ĠÄĽcha": 3503,
      "Ġjed": 3504,
      "Ġiod": 3505,
      "Ġlev": 3506,
      "Ġapad": 3507,
      "ĠÅ¡pl": 3508,
      "Ġigr": 3509,
      "ĠidiÅ¡": 3510,
      "ĠÃŃnc": 3511,
      "Ġlne": 3512,
      "Ġatkou": 3513,
      "Ġrpc": 3514,
      "ĠoÅ¡e": 3515,
      "ĠÄĽÄįnÄĽ": 3516,
      "Ġibal": 3517,
      "ĠnaÅĪ": 3518,
      "Ġzor": 3519,
      "ĠuÅ¡tv": 3520,
      "ĠÃ¡rc": 3521,
      "Ġentl": 3522,
      "Ġhoch": 3523,
      "Ġezkr": 3524,
      "Ġinny": 3525,
      "Ġebem": 3526,
      "ĠÃ½pr": 3527,
      "Ġuin": 3528,
      "ĠedÄĽ": 3529,
      "Ġzna": 3530,
      "Ġisy": 3531,
      "ĠÅ¯Äįk": 3532,
      "ĠpÄĽl": 3533,
      "Ġonst": 3534,
      "Ġape": 3535,
      "ĠaÄįel": 3536,
      "Ġisic": 3537,
      "Ġaho": 3538,
      "Ġukem": 3539,
      "Ġikdy": 3540,
      "ĠtÅĻpyt": 3541,
      "Ġenkrat": 3542,
      "ĠÃŃÄı": 3543,
      "Ġasou": 3544,
      "Ġanil": 3545,
      "ĠÃŃtl": 3546,
      "Ġodin": 3547,
      "ĠeÅĻn": 3548,
      "Ġmuk": 3549,
      "ĠebÅĻ": 3550,
      "Ġikv": 3551,
      "Ġisky": 3552,
      "ĠÃ©Äįn": 3553,
      "ap": 3554,
      "Ġenost": 3555,
      "Ġusim": 3556,
      "ĠoÅĻit": 3557,
      "Ġaot": 3558,
      "ĠÅ¯sv": 3559,
      "Ġdnem": 3560,
      "ĠeÄįnost": 3561,
      "Ġofl": 3562,
      "ĠjuÅ¾": 3563,
      "Ġostp": 3564,
      "Ġibi": 3565,
      "Ġlip": 3566,
      "Ġechr": 3567,
      "Ġonec": 3568,
      "Ġejtm": 3569,
      "Ġarg": 3570,
      "Ġecc": 3571,
      "ĠÄĽry": 3572,
      "Ġozna": 3573,
      "ĠÃºsp": 3574,
      "Ġeklo": 3575,
      "Ġeud": 3576,
      "Ġjak": 3577,
      "Ġivost": 3578,
      "ĠÄĽjm": 3579,
      "Ġmlad": 3580,
      "Ġihla": 3581,
      "Ġepk": 3582,
      "ĠzÅ¡": 3583,
      "Ġarod": 3584,
      "ĠoÅ¾im": 3585,
      "Ġouzsk": 3586,
      "Ġadkou": 3587,
      "ĠÃŃÅ¾n": 3588,
      "Ġhrom": 3589,
      "Ġovny": 3590,
      "Ġejsv": 3591,
      "ĠbÄĽh": 3592,
      "eÅĻ": 3593,
      "ĠÃ½mk": 3594,
      "ĠeÅ¡el": 3595,
      "Ġey": 3596,
      "Ġadat": 3597,
      "Ġostk": 3598,
      "Ġejz": 3599,
      "ĠknÄĽz": 3600,
      "Ġq": 3601,
      "Ġbral": 3602,
      "ĠÄĽtly": 3603,
      "Ġemna": 3604,
      "Ġodna": 3605,
      "Ġitku": 3606,
      "ĠerÄį": 3607,
      "ĠÃ½j": 3608,
      "Ġpil": 3609,
      "Ġecka": 3610,
      "Ġyra": 3611,
      "ĠaÅ¾Å¡i": 3612,
      "Ġagr": 3613,
      "Ġkvest": 3614,
      "Ġustal": 3615,
      "Ġolest": 3616,
      "Ġzlych": 3617,
      "Ġorou": 3618,
      "ĠrÅ¡i": 3619,
      "Ġejtr": 3620,
      "ĠstraÅ¾": 3621,
      "Ġhaj": 3622,
      "ĠÃ¡dv": 3623,
      "Ġatny": 3624,
      "ĠiÃ¡l": 3625,
      "Å¯": 3626,
      "Ġei": 3627,
      "Ġoo": 3628,
      "Ġkam": 3629,
      "Ġikum": 3630,
      "ĠyÅ¡k": 3631,
      "ĠatÅĻe": 3632,
      "ĠÄĽnych": 3633,
      "Ġavny": 3634,
      "ĠejnÄĽ": 3635,
      "Ã¡": 3636,
      "Ġeobs": 3637,
      "Ġibil": 3638,
      "ĠÅ¯dk": 3639,
      "Ġednim": 3640,
      "Ġdny": 3641,
      "ĠXAXAXA": 3642,
      "ĠzÅĻit": 3643,
      "Ġoukn": 3644,
      "ĠÄĽvk": 3645,
      "Ġustil": 3646,
      "ĠeÃºpr": 3647,
      "Ġilych": 3648,
      "Ġosa": 3649,
      "Ġutv": 3650,
      "Ġeztr": 3651,
      "aÅ¥": 3652,
      "ĠaÅ¾en": 3653,
      "ĠoÅĻad": 3654,
      "ĠaÅ¥t": 3655,
      "ĠolnÄĽ": 3656,
      "Ġehy": 3657,
      "Ġurg": 3658,
      "ĠornÄĽ": 3659,
      "Ġ33": 3660,
      "Ġeub": 3661,
      "iÄį": 3662,
      "ĠiÄįej": 3663,
      "ĠivaÅ¡": 3664,
      "Ġeby": 3665,
      "Ġuhou": 3666,
      "ĠÃŃtm": 3667,
      "ĠÄĽnl": 3668,
      "Ġastm": 3669,
      "Ġionu": 3670,
      "Ġoken": 3671,
      "Ġdan": 3672,
      "Ġokm": 3673,
      "ĠÄĽnec": 3674,
      "Ġplod": 3675,
      "Ġchleb": 3676,
      "ĠÃ½tv": 3677,
      "Ġkmit": 3678,
      "Ġaus": 3679,
      "ĠÃ½skl": 3680,
      "ĠaÅ¾l": 3681,
      "Ġenna": 3682,
      "ĠichÅ¾t": 3683,
      "Ġezky": 3684,
      "Ġolo": 3685,
      "Ġolil": 3686,
      "ĠÅ¡m": 3687,
      "ĠozdÄĽ": 3688,
      "Ġizni": 3689,
      "Ġtmam": 3690,
      "Ġjist": 3691,
      "ĠÄįm": 3692,
      "Ġazne": 3693,
      "Ġytv": 3694,
      "ĠatÅ¡": 3695,
      "ĠetÄĽl": 3696,
      "ĠaÅ¾il": 3697,
      "Ġoupy": 3698,
      "ĠÄĽrny": 3699,
      "Ġujd": 3700,
      "Ġurkm": 3701,
      "ĠiÄįt": 3702,
      "Ġalny": 3703,
      "ĠrÄįk": 3704,
      "ĠABACBC": 3705,
      "ĠAAXBXB": 3706,
      "Ġegr": 3707,
      "ĠdÄĽs": 3708,
      "ĠoÄįich": 3709,
      "Ġylk": 3710,
      "Ġtmy": 3711,
      "Ġitsk": 3712,
      "Ġrtk": 3713,
      "Ġtrest": 3714,
      "Ġybk": 3715,
      "Ġesna": 3716,
      "Ġizky": 3717,
      "Ġzhr": 3718,
      "Ãº": 3719,
      "ĠpÅĻed": 3720,
      "Ġizel": 3721,
      "ĠamÄį": 3722,
      "Ġzmar": 3723,
      "ĠeÅ¡li": 3724,
      "Ġocy": 3725,
      "ĠÄĽÄįny": 3726,
      "ĠuÄım": 3727,
      "Ġlhn": 3728,
      "Ġpla": 3729,
      "Ġasal": 3730,
      "Ġestou": 3731,
      "ĠozÅ¾h": 3732,
      "Ġstuj": 3733,
      "Ġott": 3734,
      "ĠABABXB": 3735,
      "Ġbled": 3736,
      "Ġilh": 3737,
      "ĠÅĻas": 3738,
      "Ġzla": 3739,
      "Ġadke": 3740,
      "Ġocha": 3741,
      "Ġepce": 3742,
      "uÄį": 3743,
      "ĠaÅ¡Å¥": 3744,
      "Ġysp": 3745,
      "Ġychr": 3746,
      "Ġacet": 3747,
      "Ġspor": 3748,
      "Ġaug": 3749,
      "Ġebky": 3750,
      "ĠABCC": 3751,
      "Ġrtech": 3752,
      "Ġerna": 3753,
      "Ġoth": 3754,
      "Ġhluk": 3755,
      "ĠXAA": 3756,
      "Ġrtem": 3757,
      "Ġeot": 3758,
      "Ġvin": 3759,
      "Ġakc": 3760,
      "Ġay": 3761,
      "Ġhad": 3762,
      "Ġrni": 3763,
      "Ġinnou": 3764,
      "Ġiant": 3765,
      "ĠedÄĽt": 3766,
      "Ġevo": 3767,
      "Ġskryt": 3768,
      "Ġzs": 3769,
      "Ġertv": 3770,
      "Ġonal": 3771,
      "ĠaznÄĽ": 3772,
      "Ġejb": 3773,
      "Ġonou": 3774,
      "ĠÄĽzstvi": 3775,
      "ĠzhÅĻ": 3776,
      "ĠÄĽdÄįi": 3777,
      "Ġair": 3778,
      "ĠevnÄĽ": 3779,
      "Ġoustn": 3780,
      "Ġelstvi": 3781,
      "ĠÃ¡sm": 3782,
      "ĠeÄįm": 3783,
      "Ġogr": 3784,
      "Ġui": 3785,
      "Ġdi": 3786,
      "Ġedp": 3787,
      "Ġikal": 3788,
      "ĠepÄį": 3789,
      "Ġanic": 3790,
      "ĠÄĽsna": 3791,
      "ĠÃ¡kn": 3792,
      "Ġalen": 3793,
      "Ġhra": 3794,
      "Ġepa": 3795,
      "ĠeÄįko": 3796,
      "ĠuÅĻi": 3797,
      "Ġorf": 3798,
      "Ġeup": 3799,
      "sÅ¥": 3800,
      "Ġuzl": 3801,
      "oub": 3802,
      "Ġacl": 3803,
      "Ġrny": 3804,
      "Ġkmen": 3805,
      "Ġiony": 3806,
      "Ġeodp": 3807,
      "Ġetne": 3808,
      "ĠaÅĻil": 3809,
      "Ġutny": 3810,
      "ĠsÅ¥": 3811,
      "Ġalych": 3812,
      "Ġzhas": 3813,
      "Ġitru": 3814,
      "Ġomdl": 3815,
      "ouÅĻ": 3816,
      "Ġbych": 3817,
      "ĠÃŃlb": 3818,
      "ĠÃ¡jm": 3819,
      "ĠAABXB": 3820,
      "ĠeÅ¡ti": 3821,
      "ĠymÅĻ": 3822,
      "Ġchrl": 3823,
      "ĠtÄĽl": 3824,
      "Ġsvr": 3825,
      "Ġostech": 3826,
      "Ġors": 3827,
      "ĠÃ³s": 3828,
      "Ġsed": 3829,
      "nic": 3830,
      "ĠvÅ¡im": 3831,
      "Ġyzr": 3832,
      "ĠedÅĻ": 3833,
      "Ġaju": 3834,
      "Ġpln": 3835,
      "Ġutky": 3836,
      "Ġenko": 3837,
      "Ġasla": 3838,
      "ĠyÅĻkn": 3839,
      "ĠouÄįi": 3840,
      "Ġais": 3841,
      "Ġump": 3842,
      "Ġzmdl": 3843,
      "Ġostny": 3844,
      "Ġoucnost": 3845,
      "Ġovd": 3846,
      "ĠaÅĻv": 3847,
      "Ġouby": 3848,
      "ĠaÅ¡li": 3849,
      "ĠaÅ¡nÄĽ": 3850,
      "Ġesne": 3851,
      "Ġutne": 3852,
      "Ġupk": 3853,
      "Ġanich": 3854,
      "Ġarni": 3855,
      "Ġdnech": 3856,
      "ĠaÅĻem": 3857,
      "Ġton": 3858,
      "ĠstÄĽn": 3859,
      "Ġivne": 3860,
      "ĠÅ¡r": 3861,
      "Ġichv": 3862,
      "Ġytil": 3863,
      "Ġzve": 3864,
      "Ġesknou": 3865,
      "Ġatra": 3866,
      "Ġambr": 3867,
      "Ġadit": 3868,
      "ĠelÅ¡": 3869,
      "Ġelne": 3870,
      "Ġans": 3871,
      "Ġavz": 3872,
      "ĠÄĽlu": 3873,
      "Ġklad": 3874,
      "Ġtlum": 3875,
      "Ġins": 3876,
      "ĠivÅĻ": 3877,
      "Ġokoj": 3878,
      "ĠoÄįni": 3879,
      "ĠÃ¡ÅĻstv": 3880,
      "Ġvpr": 3881,
      "Ġlka": 3882,
      "ĠoÅ¾ÅĪ": 3883,
      "Ġusu": 3884,
      "Ġosou": 3885,
      "Ġeskr": 3886,
      "Ġupj": 3887,
      "Ġient": 3888,
      "Ġkvas": 3889,
      "ĠÄĽÄįi": 3890,
      "Ġesny": 3891,
      "Ġaul": 3892,
      "Ġijde": 3893,
      "ÄĽd": 3894,
      "ĠÄĽkka": 3895,
      "Ġipk": 3896,
      "Ġnest": 3897,
      "Ġsled": 3898,
      "Ġelny": 3899,
      "Ġadz": 3900,
      "Ġimk": 3901,
      "Ġolik": 3902,
      "Ġprost": 3903,
      "ĠaÅ¡im": 3904,
      "ĠÄĽdÅĻ": 3905,
      "Ġurd": 3906,
      "Ġouli": 3907,
      "Ġow": 3908,
      "Ġvy": 3909,
      "ĠdÄĽv": 3910,
      "Ġojil": 3911,
      "ĠostnÄĽ": 3912,
      "ĠzeÄı": 3913,
      "ĠÄįp": 3914,
      "Ġamem": 3915,
      "oÄı": 3916,
      "Ġpry": 3917,
      "Ġasil": 3918,
      "Ġedno": 3919,
      "Ġudny": 3920,
      "Ġua": 3921,
      "Ġezst": 3922,
      "ĠÄıas": 3923,
      "Ġejde": 3924,
      "Ġbaj": 3925,
      "Ġatna": 3926,
      "ert": 3927,
      "Ġolm": 3928,
      "Ġtvor": 3929,
      "ĠdÅ¡t": 3930,
      "Ġitat": 3931,
      "ĠhleÄı": 3932,
      "ĠkÅĻik": 3933,
      "Ġiet": 3934,
      "ĠÄĽÅ¾ka": 3935,
      "ĠoÅĪsk": 3936,
      "Ġalit": 3937,
      "Ġadp": 3938,
      "ĠÅ¡kr": 3939,
      "ĠojÄım": 3940,
      "ĠrÅĪ": 3941,
      "ĠÄĽdl": 3942,
      "Ġvzlet": 3943,
      "Ġectn": 3944,
      "Ġomr": 3945,
      "Ġspad": 3946,
      "Ġacim": 3947,
      "ĠchceÅ¡": 3948,
      "Ġestry": 3949,
      "ĠiÃŃch": 3950,
      "fr": 3951,
      "ĠXXAXAX": 3952,
      "Ġideal": 3953,
      "Ġanl": 3954,
      "Ġadno": 3955,
      "Ġvznes": 3956,
      "Ġechal": 3957,
      "Ġulh": 3958,
      "Ġznak": 3959,
      "Ġrva": 3960,
      "Ġrhne": 3961,
      "ĠobÅĻe": 3962,
      "Ġmost": 3963,
      "Ġoto": 3964,
      "Ġichni": 3965,
      "ĠeÄįky": 3966,
      "Ġimr": 3967,
      "Ġustn": 3968,
      "Ġozhn": 3969,
      "ĠÃ½nsk": 3970,
      "Ġamou": 3971,
      "ĠÃŃÅĻk": 3972,
      "Ġoustr": 3973,
      "Ġozen": 3974,
      "Ġikne": 3975,
      "ĠyÅ¡im": 3976,
      "Ġobraz": 3977,
      "Ġavno": 3978,
      "ĠcÅ¾": 3979,
      "Ġevc": 3980,
      "Ġymy": 3981,
      "ĠiÅĪt": 3982,
      "Ġelb": 3983,
      "Ġevim": 3984,
      "Ġovnou": 3985,
      "ĠmÄĽj": 3986,
      "ĠudÄį": 3987,
      "Ġidk": 3988,
      "Ġsmat": 3989,
      "Ġujem": 3990,
      "Ġoupat": 3991,
      "Ġeptal": 3992,
      "Ġamo": 3993,
      "ĠeÄįl": 3994,
      "ĠoÅĻkl": 3995,
      "Ġabu": 3996,
      "Ġilym": 3997,
      "Ġahal": 3998,
      "Ġuschl": 3999,
      "Ġesb": 4000,
      "Ġostu": 4001,
      "Ġestv": 4002,
      "ĠilnÄĽ": 4003,
      "Ġshon": 4004,
      "Ġkat": 4005,
      "ĠÃ¡vsk": 4006,
      "Ġznat": 4007,
      "Ġeuk": 4008,
      "Ġniv": 4009,
      "ĠaÄįny": 4010,
      "Ġistem": 4011,
      "ĠeÄįni": 4012,
      "Ġbal": 4013,
      "Ġarj": 4014,
      "ĠyÅ¡iÅ¡": 4015,
      "ĠoÄıt": 4016,
      "Ġerr": 4017,
      "ĠaÄįka": 4018,
      "Ġbran": 4019,
      "Ġurs": 4020,
      "Ġigm": 4021,
      "Ġjih": 4022,
      "ĠedÅ¡": 4023,
      "Ġinat": 4024,
      "ĠÃ¡Å¡k": 4025,
      "ĠÃŃjn": 4026,
      "Ġidlem": 4027,
      "Ġoju": 4028,
      "Ġiml": 4029,
      "Ġejsp": 4030,
      "Ġeko": 4031,
      "Ġidat": 4032,
      "ĠlnÄĽ": 4033,
      "Ġymu": 4034,
      "ĠenÅ¡t": 4035,
      "Ġodny": 4036,
      "ĠÄĽÅĻim": 4037,
      "Ġaun": 4038,
      "Ġios": 4039,
      "ĠoÄįim": 4040,
      "Ġaro": 4041,
      "Ġertu": 4042,
      "Ġmih": 4043,
      "Ġeodvr": 4044,
      "Ġidske": 4045,
      "izd": 4046,
      "Ġejch": 4047,
      "ĠeÅ¾e": 4048,
      "ĠÅĻev": 4049,
      "Ġanym": 4050,
      "Ġozu": 4051,
      "ĠoÄįl": 4052,
      "ĠÄĽdÄĽt": 4053,
      "Ġehm": 4054,
      "ĠuÄįel": 4055,
      "ĠplaÅ¡Å¥": 4056,
      "Ġikou": 4057,
      "ĠÄĽÅ¾na": 4058,
      "ĠAABXBX": 4059,
      "Ġlad": 4060,
      "Ġebni": 4061,
      "Ġsnes": 4062,
      "Ġypj": 4063,
      "Ġelf": 4064,
      "ĠukÅĻ": 4065,
      "ĠuÅĻe": 4066,
      "Ġpel": 4067,
      "ĠÃ½zv": 4068,
      "Ġorne": 4069,
      "Ġujte": 4070,
      "Ġctnost": 4071,
      "ĠÃ¡nÄį": 4072,
      "Ġalg": 4073,
      "ĠolÅ¡t": 4074,
      "ĠÄįet": 4075,
      "ĠiÅ¡Å¡": 4076,
      "Ġochb": 4077,
      "Ġidly": 4078,
      "ĠÃ½sp": 4079,
      "Ġodie": 4080,
      "ĠÃ¡mc": 4081,
      "ĠspÄĽl": 4082,
      "Ġabe": 4083,
      "ĠABAABX": 4084,
      "ĠaÄįc": 4085,
      "Ġatkem": 4086,
      "Ġaud": 4087,
      "ĠevÅĻel": 4088,
      "Ġejj": 4089,
      "ĠezÄį": 4090,
      "ĠÃ¡sv": 4091,
      "Ġrde": 4092,
      "ĠXXXXAA": 4093,
      "Ġuzne": 4094,
      "ĠÄĽjÅ¡im": 4095,
      "ĠÃºÄįt": 4096,
      "ĠAXB": 4097,
      "Ġijel": 4098,
      "Ġavna": 4099,
      "Ġtch": 4100,
      "ĠemÅ¥": 4101,
      "Ġuste": 4102,
      "Ġaop": 4103,
      "ĠoÅĻim": 4104,
      "Ġise": 4105,
      "ĠeÅĪt": 4106,
      "Ġinnost": 4107,
      "Ġado": 4108,
      "Ġelbl": 4109,
      "Ġatt": 4110,
      "ĠÄĽze": 4111,
      "Ġotach": 4112,
      "ĠomÅĻ": 4113,
      "ĠiÄįem": 4114,
      "Ġubi": 4115,
      "ĠuÄįil": 4116,
      "Ġrsou": 4117,
      "Ġalh": 4118,
      "Ġekam": 4119,
      "Ġznal": 4120,
      "ĠeÄım": 4121,
      "ĠÃ¡pr": 4122,
      "Ġutno": 4123,
      "Ġyvst": 4124,
      "Ġanstvi": 4125,
      "Ġsnit": 4126,
      "ĠzvÄĽÅĻ": 4127,
      "Ġura": 4128,
      "Ġakat": 4129,
      "Ġasek": 4130,
      "ĠiliÅ¡": 4131,
      "Ġhloub": 4132,
      "Ġobry": 4133,
      "Ġuza": 4134,
      "Ġilie": 4135,
      "Ġoi": 4136,
      "Ġchvi": 4137,
      "ĠÅ¯tc": 4138,
      "ĠÃ¼": 4139,
      "Ġorny": 4140,
      "Ġencu": 4141,
      "Ġitka": 4142,
      "ĠÄĽchem": 4143,
      "Ġavce": 4144,
      "Ġomem": 4145,
      "ske": 4146,
      "ĠoÅ¾it": 4147,
      "ĠvznÄĽt": 4148,
      "Ġzdroj": 4149,
      "Ġrhla": 4150,
      "Ġjar": 4151,
      "Ġdol": 4152,
      "Ġluk": 4153,
      "Ġovic": 4154,
      "Ġrtu": 4155,
      "Ġuvit": 4156,
      "ĠouÅ¾k": 4157,
      "Ġenny": 4158,
      "ĠÃ½ms": 4159,
      "Ġidam": 4160,
      "Ġachy": 4161,
      "Ġelkou": 4162,
      "Ġekly": 4163,
      "Ġipp": 4164,
      "ĠoÅ¾na": 4165,
      "ĠÃŃtÅĻk": 4166,
      "Ġyf": 4167,
      "Ġpas": 4168,
      "Ġezhl": 4169,
      "ĠplaÅĪ": 4170,
      "Ġkvil": 4171,
      "Ġuet": 4172,
      "Ġihal": 4173,
      "ĠrnÄį": 4174,
      "ĠAXAXBB": 4175,
      "Ġierr": 4176,
      "Na": 4177,
      "ĠNa": 4178,
      "Ġiu": 4179,
      "Ġezne": 4180,
      "Ġspal": 4181,
      "ĠaÅ¡p": 4182,
      "Ġumb": 4183,
      "ĠouÅ¾it": 4184,
      "Ġyzni": 4185,
      "ĠNaN": 4186,
      "ĠÄĽtech": 4187,
      "ĠunÄį": 4188,
      "Ġoudem": 4189,
      "ĠaÃº": 4190,
      "Ġakum": 4191,
      "Ġirm": 4192,
      "Ġemny": 4193,
      "Ġadni": 4194,
      "Ġx": 4195,
      "ĠÅ¯ch": 4196,
      "Ġinych": 4197,
      "Ġivej": 4198,
      "Ġamkn": 4199,
      "Ġorch": 4200,
      "Ġtvem": 4201,
      "Ġitit": 4202,
      "ĠÃ½vn": 4203,
      "Ġoas": 4204,
      "Ġpou": 4205,
      "ĠodÅĪ": 4206,
      "Ġitam": 4207,
      "ĠudÄĽ": 4208,
      "Ġzdi": 4209,
      "ĠÄĽkÄį": 4210,
      "ĠoÅ¾no": 4211,
      "ĠadÅ¾": 4212,
      "Ġopad": 4213,
      "Ġlzn": 4214,
      "Ġrnou": 4215,
      "ĠejÅ¡l": 4216,
      "ĠÃ½stÅĻ": 4217,
      "Ġanf": 4218,
      "Ġezj": 4219,
      "ĠÃ©rk": 4220,
      "ĠenÅ¥": 4221,
      "Ġplam": 4222,
      "Ġazen": 4223,
      "Ġupt": 4224,
      "Ġdva": 4225,
      "ĠiÅĻil": 4226,
      "ÄĽÅ¥": 4227,
      "Ġull": 4228,
      "ĠÄĽÅĻit": 4229,
      "Ġicka": 4230,
      "Ġovsky": 4231,
      "uz": 4232,
      "Ġmhl": 4233,
      "ĠoÄįka": 4234,
      "Ġistou": 4235,
      "Ġesh": 4236,
      "Ġinym": 4237,
      "ĠÄĽÅ¡c": 4238,
      "ĠozstÅĻ": 4239,
      "AC": 4240,
      "Ġlest": 4241,
      "Ġuto": 4242,
      "Ġunou": 4243,
      "ĠabÅĻ": 4244,
      "Ġrsti": 4245,
      "Ġsval": 4246,
      "Ġonky": 4247,
      "Ġrdi": 4248,
      "ĠÄĽkl": 4249,
      "ĠiÄįkach": 4250,
      "Ġeuzn": 4251,
      "Ġomstv": 4252,
      "ĠoheÅĪ": 4253,
      "Ġopit": 4254,
      "ĠuchÅĻ": 4255,
      "Ġuhe": 4256,
      "Ġouhe": 4257,
      "Ġaskn": 4258,
      "ozd": 4259,
      "Ġzda": 4260,
      "ĠiÅ¾t": 4261,
      "Ġouchn": 4262,
      "Ġezpr": 4263,
      "Ġhrou": 4264,
      "ĠaÄįen": 4265,
      "ĠÄĽzem": 4266,
      "ĠÃ¡bÅĻ": 4267,
      "ĠÃŃpn": 4268,
      "ĠekÅĻ": 4269,
      "ĠÄĽjte": 4270,
      "ÄĽsÅ¥": 4271,
      "ĠchÅĻt": 4272,
      "ĠABAXXB": 4273,
      "Ġmed": 4274,
      "Ġedim": 4275,
      "Ġamku": 4276,
      "Ġonku": 4277,
      "Ġodnou": 4278,
      "Ġenkou": 4279,
      "Ġibn": 4280,
      "Ġeptn": 4281,
      "Ġasly": 4282,
      "Ġadrech": 4283,
      "Ġozmn": 4284,
      "ĠÃ½hr": 4285,
      "Ġkov": 4286,
      "Ġynout": 4287,
      "Ġodstr": 4288,
      "rat": 4289,
      "Ġolf": 4290,
      "Ġoben": 4291,
      "Ġojc": 4292,
      "Ġonie": 4293,
      "ĠozhÅĻ": 4294,
      "Ġrov": 4295,
      "Ġicen": 4296,
      "ĠizeÅĪ": 4297,
      "ĠÄĽsu": 4298,
      "Ġythm": 4299,
      "eÅ¾": 4300,
      "Ġrym": 4301,
      "Ġanum": 4302,
      "ĠÃ¡vs": 4303,
      "Ġouce": 4304,
      "Ġiskne": 4305,
      "ij": 4306,
      "Ġmy": 4307,
      "ĠznaÅ¡": 4308,
      "Ġatry": 4309,
      "ĠeÅ¥t": 4310,
      "Ġston": 4311,
      "ĠudÅĻ": 4312,
      "ĠeÅ¡ka": 4313,
      "Ġlek": 4314,
      "ĠÃ¡zc": 4315,
      "Ġychal": 4316,
      "Ġedlo": 4317,
      "Ġeau": 4318,
      "Ġemch": 4319,
      "Ġovstvi": 4320,
      "ĠÄĽdc": 4321,
      "ĠaÃºp": 4322,
      "Ġong": 4323,
      "ĠÃŃÅĪk": 4324,
      "Ġjel": 4325,
      "Ġadek": 4326,
      "Ġoucy": 4327,
      "Ġvrat": 4328,
      "ĠÄĽjÅ¡ich": 4329,
      "Ġjat": 4330,
      "Ġkus": 4331,
      "Ġbok": 4332,
      "ĠsnÄĽm": 4333,
      "ĠÄĽstk": 4334,
      "Ġanit": 4335,
      "Ġtluk": 4336,
      "Ġpsal": 4337,
      "ĠvÄĽÅ¾": 4338,
      "Ġevzb": 4339,
      "Ġhrot": 4340,
      "ĠaÅ¡ich": 4341,
      "Ġobra": 4342,
      "Ġaet": 4343,
      "Ġpul": 4344,
      "ĠnuÅ¾": 4345,
      "ĠÄĽlych": 4346,
      "Ġhnal": 4347,
      "Ġztich": 4348,
      "Ġezdy": 4349,
      "Ġobzor": 4350,
      "ĠuÅĪk": 4351,
      "ĠuÅ¡ky": 4352,
      "ĠÄĽÅ¾ne": 4353,
      "Ġtuch": 4354,
      "ĠuÅ¾ky": 4355,
      "Ġucht": 4356,
      "Ġabs": 4357,
      "ĠÄĽrou": 4358,
      "Ġikrat": 4359,
      "ĠvÄĽz": 4360,
      "Ġalek": 4361,
      "Ġith": 4362,
      "ĠÃ¡stk": 4363,
      "Ġutkem": 4364,
      "ĠpÅĻal": 4365,
      "Ġapat": 4366,
      "Ġrsa": 4367,
      "Ġyzl": 4368,
      "ĠÃŃzv": 4369,
      "ĠÄĽtle": 4370,
      "Ġyps": 4371,
      "ĠusmÄĽv": 4372,
      "Ġolich": 4373,
      "ĠÃ¡tl": 4374,
      "ĠeÄįem": 4375,
      "Ġernou": 4376,
      "ĠÄĽnci": 4377,
      "Ġivk": 4378,
      "Ġutou": 4379,
      "ĠÄĽkne": 4380,
      "Ġumne": 4381,
      "ĠupÄį": 4382,
      "Ġyvat": 4383,
      "Ġvoj": 4384,
      "ĠuÅ¡ku": 4385,
      "Ġapt": 4386,
      "Ġusch": 4387,
      "Ġrhal": 4388,
      "ĠÄĽrna": 4389,
      "ĠÃ¤": 4390,
      "Ġobne": 4391,
      "Ġvan": 4392,
      "Ġovce": 4393,
      "Ġelym": 4394,
      "Ġojit": 4395,
      "Ġasto": 4396,
      "Ġchce": 4397,
      "ĠskryÅ¡": 4398,
      "Ġarou": 4399,
      "ĠiÃ©": 4400,
      "ĠABCCAB": 4401,
      "eÅ¥": 4402,
      "Ġamhl": 4403,
      "ĠÄĽjich": 4404,
      "Ġodly": 4405,
      "Ġaff": 4406,
      "Ġcr": 4407,
      "Ġicn": 4408,
      "Ġychy": 4409,
      "ĠÄĽra": 4410,
      "Ġihy": 4411,
      "Ġanec": 4412,
      "Ġzdrav": 4413,
      "Ġehla": 4414,
      "ĠiÄįce": 4415,
      "Ġoutku": 4416,
      "ĠavaÅ¡": 4417,
      "Ġemhl": 4418,
      "Ġemkn": 4419,
      "Ġizl": 4420,
      "Ġvzplal": 4421,
      "Ġsdr": 4422,
      "Ġechm": 4423,
      "Ġdna": 4424,
      "ĠÄĽÄįnost": 4425,
      "Ġeul": 4426,
      "ĠXXXAAX": 4427,
      "Ġoe": 4428,
      "ĠÄĽnil": 4429,
      "Ġujic": 4430,
      "Ġouzi": 4431,
      "ĠeuÅ¡": 4432,
      "Ġesni": 4433,
      "Ġitych": 4434,
      "Ġotom": 4435,
      "Ġrvat": 4436,
      "Ġore": 4437,
      "ĠuÅ¾ku": 4438,
      "ĠÃºÅ¡": 4439,
      "ĠÄĽva": 4440,
      "Ġohla": 4441,
      "Ġavda": 4442,
      "Ġetli": 4443,
      "Ġeov": 4444,
      "Ġoy": 4445,
      "ĠbouÅĻ": 4446,
      "Ġoupal": 4447,
      "Ġatni": 4448,
      "Ġahnul": 4449,
      "oÄį": 4450,
      "Ġsah": 4451,
      "Ġkdy": 4452,
      "Ġsloup": 4453,
      "Ġzly": 4454,
      "ĠÃºhl": 4455,
      "Ġiby": 4456,
      "Ġbor": 4457,
      "sky": 4458,
      "Ġudm": 4459,
      "Ġezbr": 4460,
      "Ġiarch": 4461,
      "Ġvem": 4462,
      "Ġhej": 4463,
      "Ġadim": 4464,
      "Ġedat": 4465,
      "Ġamne": 4466,
      "Ġozy": 4467,
      "ĠÃ¡nl": 4468,
      "ĠÅĻic": 4469,
      "ĠAAABBX": 4470,
      "Ġavist": 4471,
      "ĠadÄĽj": 4472,
      "ĠaÅ¾ny": 4473,
      "Ġzchv": 4474,
      "ĠuÅ¡c": 4475,
      "Ġunt": 4476,
      "Ġynd": 4477,
      "Ġusa": 4478,
      "ĠÄĽha": 4479,
      "ĠÄĽsny": 4480,
      "Ġemb": 4481,
      "Ġylu": 4482,
      "ĠuÅ¾c": 4483,
      "Ġulic": 4484,
      "Ġzlou": 4485,
      "Ġdli": 4486,
      "Ġtok": 4487,
      "Ġefl": 4488,
      "Ġosta": 4489,
      "ĠeÅĻil": 4490,
      "ĠozpÅĻ": 4491,
      "ĠsiÅĪ": 4492,
      "Ġektr": 4493,
      "ĠÅ¡kv": 4494,
      "Ġvzpr": 4495,
      "ĠanÄĽl": 4496,
      "Ġpluh": 4497,
      "ĠÄĽkky": 4498,
      "Ġrtum": 4499,
      "Ġoupit": 4500,
      "Ġanth": 4501,
      "Ġounke": 4502,
      "ĠavÄĽl": 4503,
      "Ġapy": 4504,
      "ĠÄĽsne": 4505,
      "ĠmÅ¾ik": 4506,
      "Ġodsv": 4507,
      "Ġasech": 4508,
      "Ġevil": 4509,
      "ĠchvÄĽt": 4510,
      "ĠaÅĻu": 4511,
      "ĠÄĽlym": 4512,
      "ĠoÅĻan": 4513,
      "Ġuvt": 4514,
      "Ġickrat": 4515,
      "Ġodpr": 4516,
      "Ġyskne": 4517,
      "ĠmÅĻit": 4518,
      "Ġickych": 4519,
      "ĠÅ¾eh": 4520,
      "ĠonÅ¥": 4521,
      "Ġire": 4522,
      "Ġanske": 4523,
      "Ġobem": 4524,
      "ĠuÅ¡en": 4525,
      "isk": 4526,
      "Ġzchl": 4527,
      "Ġedch": 4528,
      "ĠodÄį": 4529,
      "Ġestat": 4530,
      "Ġapu": 4531,
      "Ġulost": 4532,
      "Ġrtl": 4533,
      "ĠABBAAB": 4534,
      "ĠÄĽhem": 4535,
      "ĠkeÅĻ": 4536,
      "Ġoupc": 4537,
      "Ġdvur": 4538,
      "Ġostna": 4539,
      "ĠiÃ¡ln": 4540,
      "esÅ¥": 4541,
      "Ġokna": 4542,
      "Ġemt": 4543,
      "Ġoldn": 4544,
      "ĠvÅ¡t": 4545,
      "ĠuÅ¡ka": 4546,
      "ĠuÄįt": 4547,
      "ĠzÅĻi": 4548,
      "Ġoctl": 4549,
      "Ġaotc": 4550,
      "ĠdÄĽj": 4551,
      "Ġalf": 4552,
      "Ġoden": 4553,
      "Ġomku": 4554,
      "Ġkrov": 4555,
      "Ġidr": 4556,
      "Ġousi": 4557,
      "ĠojnÄĽ": 4558,
      "Ġsbr": 4559,
      "Ġychle": 4560,
      "Ġidlech": 4561,
      "Ġoir": 4562,
      "Ġosf": 4563,
      "ĠiÃ¡t": 4564,
      "Ġasc": 4565,
      "Ġinak": 4566,
      "skych": 4567,
      "ĠuÅ¾Å¡": 4568,
      "Ġihr": 4569,
      "Ġypn": 4570,
      "Ġvtip": 4571,
      "ĠindÅĻ": 4572,
      "dr": 4573,
      "Ġelst": 4574,
      "Ġevem": 4575,
      "Ġrdcem": 4576,
      "Ġitko": 4577,
      "ĠadÅĻ": 4578,
      "ĠolÄį": 4579,
      "ĠoÅĻÄį": 4580,
      "ĠaÅĻk": 4581,
      "Ġealu": 4582,
      "uÅ¥": 4583,
      "Ġzle": 4584,
      "Ġknih": 4585,
      "Ġikla": 4586,
      "Ġemy": 4587,
      "Ġinout": 4588,
      "Ġarce": 4589,
      "Ġezku": 4590,
      "Ġskryl": 4591,
      "Ġinko": 4592,
      "ABA": 4593,
      "Ġpruh": 4594,
      "ĠeÄįnou": 4595,
      "ĠavnÄĽ": 4596,
      "Ġgh": 4597,
      "Ġ34": 4598,
      "ĠevÅ¡ad": 4599,
      "Ġpal": 4600,
      "Ġovor": 4601,
      "Ġojk": 4602,
      "Ġvzit": 4603,
      "Ġavnych": 4604,
      "Ġenout": 4605,
      "Ġatech": 4606,
      "ĠseÄį": 4607,
      "Ġudna": 4608,
      "Ġosen": 4609,
      "ĠudeÅ¡": 4610,
      "ĠoldÅĻ": 4611,
      "ĠalÅ¥": 4612,
      "ĠÄĽme": 4613,
      "kaz": 4614,
      "Ġonii": 4615,
      "Ġajde": 4616,
      "Ġadh": 4617,
      "Ġojv": 4618,
      "Ġzdal": 4619,
      "ĠoÅ¡sk": 4620,
      "ĠÄĽtsky": 4621,
      "Ġilne": 4622,
      "Ġovne": 4623,
      "Ġtvar": 4624,
      "Ġirou": 4625,
      "Ġidli": 4626,
      "Ġjan": 4627,
      "ĠaÅ¾it": 4628,
      "Ġurt": 4629,
      "ĠrÅ¡tn": 4630,
      "Ġuit": 4631,
      "ĠÅ¾e": 4632,
      "Ġokych": 4633,
      "Ġosit": 4634,
      "ĠuÅ¾ka": 4635,
      "ĠÃ¡ctv": 4636,
      "oÅĪ": 4637,
      "Ġpj": 4638,
      "Ġanka": 4639,
      "ĠeuÄį": 4640,
      "ĠiÅ¡tn": 4641,
      "Ġydi": 4642,
      "Ġoukr": 4643,
      "ĠbÄĽl": 4644,
      "Ġeng": 4645,
      "Ġstul": 4646,
      "Ġskok": 4647,
      "ĠaÄįem": 4648,
      "ĠabÅ¡": 4649,
      "Ġijem": 4650,
      "Ġelna": 4651,
      "Ġeptl": 4652,
      "ĠXABB": 4653,
      "Ġchyt": 4654,
      "Ġarie": 4655,
      "Ġezka": 4656,
      "ĠÄĽnem": 4657,
      "ĠoÅ¾stvi": 4658,
      "Ġmnich": 4659,
      "Ġizku": 4660,
      "Ġdluh": 4661,
      "Ġumrl": 4662,
      "Ġeid": 4663,
      "ĠÃ©kl": 4664,
      "Ġako": 4665,
      "Ġeshl": 4666,
      "ĠeÄįc": 4667,
      "ĠaÄįim": 4668,
      "Ġaba": 4669,
      "Ġentu": 4670,
      "ĠeumÅĻ": 4671,
      "ĠÅ¯zr": 4672,
      "Ġahrad": 4673,
      "Ġvhod": 4674,
      "Ġygr": 4675,
      "Ġovske": 4676,
      "ĠoltaÅĻ": 4677,
      "ĠzÅĪ": 4678,
      "ĠÄĽjk": 4679,
      "Ġdvou": 4680,
      "ĠÃ©nc": 4681,
      "ĠXAAXXX": 4682,
      "Ġetal": 4683,
      "ĠouÅ¾im": 4684,
      "ĠrpÄį": 4685,
      "ĠÃºtn": 4686,
      "Ġolit": 4687,
      "Ġlnil": 4688,
      "ĠÃŃÅĻstv": 4689,
      "ĠeÅ¡la": 4690,
      "ĠuÅ¡tkn": 4691,
      "ĠiÅ¾Å¡i": 4692,
      "Ġumk": 4693,
      "ĠÄĽzda": 4694,
      "Ġejpr": 4695,
      "Ġealy": 4696,
      "Ġadchn": 4697,
      "Ġelych": 4698,
      "Ġejk": 4699,
      "Ġonstr": 4700,
      "Ġestm": 4701,
      "Ġsnum": 4702,
      "ĠiÄįil": 4703,
      "ĠÃ¡pk": 4704,
      "Ġomky": 4705,
      "Ġrda": 4706,
      "Ġapil": 4707,
      "Ġzval": 4708,
      "ĠyÅ¡tv": 4709,
      "ĠatiÅ¡": 4710,
      "Ġejna": 4711,
      "ĠolbÅĻ": 4712,
      "Ġavdu": 4713,
      "ĠÄĽtÅĻi": 4714,
      "Ġifr": 4715,
      "ĠvpÅĻed": 4716,
      "zt": 4717,
      "ÄĽr": 4718,
      "ĠÄĽnym": 4719,
      "Ġbrl": 4720,
      "Ġejml": 4721,
      "Ġodii": 4722,
      "Ġaon": 4723,
      "Ġrty": 4724,
      "Ġptal": 4725,
      "ĠatÅĻil": 4726,
      "Ġeozv": 4727,
      "Ġleh": 4728,
      "ĠloÄı": 4729,
      "Ġalka": 4730,
      "Ġitc": 4731,
      "Ġivt": 4732,
      "ĠABBAAX": 4733,
      "Ġrzi": 4734,
      "Ġitla": 4735,
      "ĠÄįni": 4736,
      "Ġlnach": 4737,
      "ĠÄĽsty": 4738,
      "ĠÄĽstem": 4739,
      "ĠnÄĽj": 4740,
      "Ġalni": 4741,
      "Ġavad": 4742,
      "ĠvÅĻes": 4743,
      "ĠaÄıt": 4744,
      "Ġuel": 4745,
      "Ġadsk": 4746,
      "Ġekat": 4747,
      "ĠABX": 4748,
      "Ġachn": 4749,
      "ĠÄĽmt": 4750,
      "ĠeÅĪsk": 4751,
      "ĠotÄįe": 4752,
      "ĠeÅ¾el": 4753,
      "Ġrval": 4754,
      "Ġozum": 4755,
      "Ġuth": 4756,
      "Ġrdy": 4757,
      "ĠabÄĽ": 4758,
      "ĠÄĽtlem": 4759,
      "Ġojny": 4760,
      "Ġibek": 4761,
      "Ġyry": 4762,
      "Ġezvr": 4763,
      "Ġky": 4764,
      "Ġeohl": 4765,
      "Ġoem": 4766,
      "ĠtiÅ¡": 4767,
      "ĠdÄĽd": 4768,
      "Ġivky": 4769,
      "Ġadnout": 4770,
      "Ġadlem": 4771,
      "ĠjdeÅ¡": 4772,
      "ĠovnÄĽ": 4773,
      "Ġeat": 4774,
      "Ġastkv": 4775,
      "Ġupa": 4776,
      "ĠÃ¡jk": 4777,
      "Ġonny": 4778,
      "ĠuÅ¡im": 4779,
      "Ġsva": 4780,
      "ĠoÅ¾l": 4781,
      "Ġzlost": 4782,
      "ĠupÅĪ": 4783,
      "Ġeos": 4784,
      "Ġoztr": 4785,
      "me": 4786,
      "Ġoved": 4787,
      "Ġylil": 4788,
      "ĠutÅĻ": 4789,
      "Ġynn": 4790,
      "ĠzÅĻiÅ¡": 4791,
      "Ġibat": 4792,
      "ĠÅ¡leh": 4793,
      "ĠaÅ¡tÄĽ": 4794,
      "Ġomne": 4795,
      "Ġustech": 4796,
      "Ġikdo": 4797,
      "Ġoufn": 4798,
      "Ġslast": 4799,
      "Ġevst": 4800,
      "Ġehnal": 4801,
      "Ġinec": 4802,
      "ĠÄĽlal": 4803,
      "Ġokam": 4804,
      "Ġzdar": 4805,
      "ĠÃºz": 4806,
      "ĠÃŃdc": 4807,
      "Ġacp": 4808,
      "Ġoznal": 4809,
      "Ġouzla": 4810,
      "Ġagm": 4811,
      "Ġleb": 4812,
      "Ġya": 4813,
      "ĠÃºtv": 4814,
      "ĠyhÅĻ": 4815,
      "ĠpryÄį": 4816,
      "Ġtaj": 4817,
      "ĠÄĽlÅ¥": 4818,
      "Ġhraz": 4819,
      "Ġytku": 4820,
      "Ġynka": 4821,
      "Ġecku": 4822,
      "ĠÃ¡br": 4823,
      "Ġmil": 4824,
      "Ġouku": 4825,
      "Ġrost": 4826,
      "Ġochy": 4827,
      "Ġsbl": 4828,
      "ĠanÅ¥": 4829,
      "Ġodim": 4830,
      "ĠeÄįÅ¥": 4831,
      "Ġspar": 4832,
      "Ġuse": 4833,
      "Ġasko": 4834,
      "ĠAAAXBB": 4835,
      "Ġokou": 4836,
      "ĠoÅ¾c": 4837,
      "Ġhram": 4838,
      "Ġulc": 4839,
      "Ġodla": 4840,
      "Ġrsty": 4841,
      "Ġvsi": 4842,
      "oÅ¡": 4843,
      "Ġalost": 4844,
      "Ġeuct": 4845,
      "ĠvÄĽÅĻ": 4846,
      "Ġmak": 4847,
      "Ġatum": 4848,
      "Ġedku": 4849,
      "Ġonit": 4850,
      "ĠÃ½chn": 4851,
      "ĠspÄĽ": 4852,
      "ĠAABBBX": 4853,
      "ĠohnÄĽ": 4854,
      "Ġrslek": 4855,
      "oÅ¥": 4856,
      "Ġolky": 4857,
      "ĠÄįel": 4858,
      "Ġojne": 4859,
      "Ġohe": 4860,
      "ĠÃ¡mb": 4861,
      "Ġklec": 4862,
      "Ġzdech": 4863,
      "Ġzbyl": 4864,
      "Ġelke": 4865,
      "Ġhod": 4866,
      "Ġidil": 4867,
      "Ġblud": 4868,
      "ĠÃ¡Äįn": 4869,
      "ĠoupÄĽ": 4870,
      "rak": 4871,
      "ĠvÅ¾": 4872,
      "Ġpstr": 4873,
      "Ġsta": 4874,
      "ĠÃŃÅ¡sk": 4875,
      "CCA": 4876,
      "Ġchci": 4877,
      "ĠÄĽÅ¡tk": 4878,
      "ĠABBCCA": 4879,
      "Ġpot": 4880,
      "Ġaham": 4881,
      "Ġimni": 4882,
      "ĠÃºchv": 4883,
      "ĠAABBAA": 4884,
      "ĠÄĽmÄĽ": 4885,
      "ĠojiÅ¡": 4886,
      "Ġahli": 4887,
      "Ġobh": 4888,
      "ĠoÅ¾en": 4889,
      "ĠaÄįu": 4890,
      "ĠaÅ¾di": 4891,
      "ĠouÅĻk": 4892,
      "ĠÃ©th": 4893,
      "AXB": 4894,
      "ick": 4895,
      "Ġankem": 4896,
      "Ġoesii": 4897,
      "Ġelnic": 4898,
      "Ġetim": 4899,
      "ĠoÅ¾d": 4900,
      "Ġytek": 4901,
      "ĠiÄįne": 4902,
      "ĠtÅĻi": 4903,
      "ĠÄĽsil": 4904,
      "Ġefr": 4905,
      "Ġear": 4906,
      "Ġois": 4907,
      "Ġde": 4908,
      "ĠÃ½dl": 4909,
      "Ġelen": 4910,
      "ĠÃ½chl": 4911,
      "Ġekc": 4912,
      "ĠidÄĽ": 4913,
      "ĠoÄįit": 4914,
      "ĠyÅ¾e": 4915,
      "Ġovzl": 4916,
      "Ġaill": 4917,
      "Ġovech": 4918,
      "Ġstop": 4919,
      "ĠÄĽlm": 4920,
      "ĠÄĽlÄį": 4921,
      "ĠiÄįim": 4922,
      "ĠoÅ¡m": 4923,
      "BAX": 4924,
      "Ġouvr": 4925,
      "Ġjek": 4926,
      "Ġalym": 4927,
      "Ġozzv": 4928,
      "Ġikam": 4929,
      "Ġznit": 4930,
      "Ġauj": 4931,
      "ĠvÄįel": 4932,
      "Ġehrad": 4933,
      "ĠiÄıt": 4934,
      "Ġobit": 4935,
      "ĠÄĽtil": 4936,
      "Ġivka": 4937,
      "Ġerku": 4938,
      "Ġurr": 4939,
      "Ġuvod": 4940,
      "ĠutnÄĽ": 4941,
      "ĠÃŃpr": 4942,
      "ĠÄĽtru": 4943,
      "ĠÅ¯jt": 4944,
      "ĠyÄįka": 4945,
      "ĠiÅ¯": 4946,
      "Ġocit": 4947,
      "Ġusne": 4948,
      "Ġzlem": 4949,
      "Ġtrud": 4950,
      "ĠÅ¯vt": 4951,
      "ĠejÅ¡t": 4952,
      "Ġontr": 4953,
      "ĠÃºÅ¡kl": 4954,
      "Ġies": 4955,
      "Ġader": 4956,
      "Ġodech": 4957,
      "Ġchy": 4958,
      "Ġebne": 4959,
      "Ġezu": 4960,
      "Ġednout": 4961,
      "ĠuvÅĪ": 4962,
      "Ġjdem": 4963,
      "Ġinkou": 4964,
      "Ġvzlyk": 4965,
      "Ġonne": 4966,
      "Ġytou": 4967,
      "Ġijsk": 4968,
      "Ġrna": 4969,
      "ĠÄĽÅ¡en": 4970,
      "Ġocny": 4971,
      "Ġpych": 4972,
      "ĠÃ½hl": 4973,
      "Ġodstv": 4974,
      "Ġaria": 4975,
      "ĠÃŃsv": 4976,
      "kych": 4977,
      "Ġeusm": 4978,
      "ĠÅ¯stk": 4979,
      "Ġidnou": 4980,
      "ĠÃŃpl": 4981,
      "Ġavod": 4982,
      "Ġung": 4983,
      "Ġtrav": 4984,
      "Ġadra": 4985,
      "Ġry": 4986,
      "Ġhou": 4987,
      "ÄĽh": 4988,
      "Ġidni": 4989,
      "ĠumÄĽt": 4990,
      "ĠÄĽchal": 4991,
      "Ġyslil": 4992,
      "Ġztv": 4993,
      "ĠyvÅ¡": 4994,
      "ĠaÅĪsk": 4995,
      "Ġbod": 4996,
      "ĠavÄĽt": 4997,
      "Ġazat": 4998,
      "ĠÄĽÅ¾sk": 4999,
      "Ġrvou": 5000,
      "ĠodnÄĽ": 5001,
      "Ġilii": 5002,
      "Ġuds": 5003,
      "ĠÅ¡er": 5004,
      "Ġevs": 5005,
      "Ġpluk": 5006,
      "ĠazeÅĪ": 5007,
      "Ġytc": 5008,
      "ĠÃ¡hv": 5009,
      "Ġisv": 5010,
      "ĠiÅ¡la": 5011,
      "Ġonna": 5012,
      "Ġirny": 5013,
      "Ġvil": 5014,
      "Ġilen": 5015,
      "ĠetÅ¡": 5016,
      "Ġplout": 5017,
      "Ġzvyk": 5018,
      "ĠÄĽstim": 5019,
      "Ġursk": 5020,
      "Ġenkach": 5021,
      "Ġalin": 5022,
      "Ġibc": 5023,
      "ant": 5024,
      "Ġeuj": 5025,
      "Ġechny": 5026,
      "ett": 5027,
      "Ġadach": 5028,
      "Ġenske": 5029,
      "Ġbil": 5030,
      "Ġenhl": 5031,
      "Ġelv": 5032,
      "Ġzlym": 5033,
      "Ġouhev": 5034,
      "ĠaÅĻit": 5035,
      "ĠÄĽÄįnou": 5036,
      "Ġastny": 5037,
      "ĠstÅĻech": 5038,
      "Ġolou": 5039,
      "Ġolne": 5040,
      "ĠÃ¡mÅ¥": 5041,
      "Ġazek": 5042,
      "Ġeskv": 5043,
      "ĠabÄį": 5044,
      "ĠurÅ¾": 5045,
      "ĠeuÅ¾": 5046,
      "Ġipu": 5047,
      "Ġentr": 5048,
      "Ġvaz": 5049,
      "Ġhav": 5050,
      "Ġolam": 5051,
      "Ġasf": 5052,
      "ĠaÅ¾nÄĽ": 5053,
      "ĠyÅ¡et": 5054,
      "Ġidna": 5055,
      "ĠondÅĻ": 5056,
      "Ġpoj": 5057,
      "Ġolim": 5058,
      "Ġobach": 5059,
      "ĠÄĽtk": 5060,
      "Ġiche": 5061,
      "Ġahm": 5062,
      "ĠÄĽrnÄĽ": 5063,
      "Ġarci": 5064,
      "Ġelze": 5065,
      "Ġuhly": 5066,
      "Ġsvar": 5067,
      "Ġivs": 5068,
      "Ġonf": 5069,
      "ĠÃ©mÅ¾": 5070,
      "ĠuÅ¡it": 5071,
      "Ġdlel": 5072,
      "Ġennou": 5073,
      "Ġyzdn": 5074,
      "Ġictvi": 5075,
      "Ġrust": 5076,
      "Ġike": 5077,
      "ĠAABBAX": 5078,
      "ĠtÅĻesk": 5079,
      "Ġybal": 5080,
      "Ġrys": 5081,
      "ĠÄĽll": 5082,
      "ĠÄĽnku": 5083,
      "ĠiznÄĽ": 5084,
      "Ġostnou": 5085,
      "Ġlil": 5086,
      "ĠoÄįal": 5087,
      "ĠaÅ¡ni": 5088,
      "Ġims": 5089,
      "Ġtma": 5090,
      "ĠÅ¯zk": 5091,
      "Ġedh": 5092,
      "ĠyÅ¾t": 5093,
      "ĠÃ½vl": 5094,
      "Ġouva": 5095,
      "ĠbÄĽs": 5096,
      "Ġlj": 5097,
      "ĠÅĻim": 5098,
      "Ġapa": 5099,
      "Ġyvam": 5100,
      "Ġeukr": 5101,
      "Ġeubl": 5102,
      "Ġesnu": 5103,
      "Ġannou": 5104,
      "ĠiraÅ¡": 5105,
      "Ġstvol": 5106,
      "Ġmez": 5107,
      "Ġizko": 5108,
      "Ġnos": 5109,
      "Ġstar": 5110,
      "Ġebyl": 5111,
      "ĠÃŃsÄį": 5112,
      "Ġirne": 5113,
      "Ġurku": 5114,
      "Ġhvozd": 5115,
      "Ġickou": 5116,
      "ĠAXAXXX": 5117,
      "ĠaskÅĻ": 5118,
      "Ġeskla": 5119,
      "Ġdmou": 5120,
      "Ġectvi": 5121,
      "ĠiaÅ¡": 5122,
      "Ġrka": 5123,
      "Ġandl": 5124,
      "ĠÄĽtel": 5125,
      "Ġtrun": 5126,
      "Ġancie": 5127,
      "Ġudba": 5128,
      "Ġmist": 5129,
      "Ġindr": 5130,
      "Ġokop": 5131,
      "Ġocean": 5132,
      "ĠÄĽlil": 5133,
      "Ġorce": 5134,
      "Ġskon": 5135,
      "Ġychv": 5136,
      "Ġernych": 5137,
      "ĠÄĽzdam": 5138,
      "ĠÄĽcka": 5139,
      "Ġancii": 5140,
      "Ġaid": 5141,
      "ĠodÅ¡": 5142,
      "Ġazim": 5143,
      "Ġosny": 5144,
      "Ġsst": 5145,
      "Ġalstvi": 5146,
      "Ġobce": 5147,
      "Ġorie": 5148,
      "Ġutych": 5149,
      "Ġimh": 5150,
      "ĠÄĽzy": 5151,
      "Ġurb": 5152,
      "Ġuzou": 5153,
      "Ġejvz": 5154,
      "ĠpojÄı": 5155,
      "Ġyen": 5156,
      "ĠlaÅĪ": 5157,
      "ĠiÅ¡ky": 5158,
      "ĠeÅ¡tn": 5159,
      "Ġovnik": 5160,
      "ĠÄĽkdy": 5161,
      "Ġlkat": 5162,
      "Ġydli": 5163,
      "ĠsÅ¡": 5164,
      "ĠdaÅ¡": 5165,
      "ĠÃŃmc": 5166,
      "ĠuÅ¡kl": 5167,
      "ĠazÅ¡": 5168,
      "Ġdve": 5169,
      "ĠiÄįkem": 5170,
      "ĠstÅĻel": 5171,
      "Ġeq": 5172,
      "Ġnit": 5173,
      "Ġesat": 5174,
      "Ġetni": 5175,
      "ĠÅ¡ip": 5176,
      "Ġarnou": 5177,
      "Ġidska": 5178,
      "Ġaslo": 5179,
      "ĠoÅĻkn": 5180,
      "Ġopen": 5181,
      "Ġzmn": 5182,
      "Ġzmr": 5183,
      "ĠinnÄĽ": 5184,
      "ĠÄĽtvich": 5185,
      "ĠÄĽvÄįe": 5186,
      "ĠanÄįi": 5187,
      "Ġostmi": 5188,
      "Ġetkr": 5189,
      "ĠABBC": 5190,
      "Ġalich": 5191,
      "Ġrnc": 5192,
      "Ġidstva": 5193,
      "Ġetba": 5194,
      "Ġlsn": 5195,
      "ĠABBCAC": 5196,
      "Ġelt": 5197,
      "Ġarku": 5198,
      "Ġoral": 5199,
      "Ġirkv": 5200,
      "Ġemnych": 5201,
      "ĠastnÄĽ": 5202,
      "ĠchraÅĪ": 5203,
      "Ġipj": 5204,
      "Ġantsk": 5205,
      "Ġouchal": 5206,
      "ĠaviÅ¡": 5207,
      "ĠydÄĽl": 5208,
      "Ġostry": 5209,
      "Ġoskl": 5210,
      "ĠspÄĽÅ¡": 5211,
      "Ġevt": 5212,
      "Ġytky": 5213,
      "Ġacy": 5214,
      "Ġorna": 5215,
      "ĠeÅ¡ly": 5216,
      "Ġauk": 5217,
      "Ġoulk": 5218,
      "Ġuill": 5219,
      "Ġco": 5220,
      "Ġetsk": 5221,
      "ĠsmÄĽl": 5222,
      "Ġapor": 5223,
      "Ġuss": 5224,
      "ĠiÅ¡ek": 5225,
      "ĠdnÄĽ": 5226,
      "ĠyÅ¡len": 5227,
      "Ġozvr": 5228,
      "Ġymkn": 5229,
      "Ġehly": 5230,
      "Ġvzhled": 5231,
      "Ġuis": 5232,
      "Ġolek": 5233,
      "Ġotka": 5234,
      "Ġidka": 5235,
      "Ġopsk": 5236,
      "Ġumim": 5237,
      "Ġyml": 5238,
      "Ġazna": 5239,
      "Ġvzruch": 5240,
      "Ġchor": 5241,
      "ĠstraÅĪ": 5242,
      "Ġmrav": 5243,
      "Ġastna": 5244,
      "Ġlha": 5245,
      "Ġatru": 5246,
      "ĠyÅĪk": 5247,
      "Ġeurv": 5248,
      "ĠÃ½kv": 5249,
      "Ġisek": 5250,
      "ĠuÅ¾by": 5251,
      "Ġortr": 5252,
      "Ġinx": 5253,
      "Ġasnych": 5254,
      "Ġuncem": 5255,
      "ĠyvaÅ¡": 5256,
      "yr": 5257,
      "ĠÄįar": 5258,
      "Ġoudit": 5259,
      "Ġavni": 5260,
      "ĠÄįtl": 5261,
      "ĠaÅ¡Å¡": 5262,
      "ĠapÄį": 5263,
      "Ġykal": 5264,
      "Ġatnou": 5265,
      "Ġyho": 5266,
      "Ġrhnout": 5267,
      "Ġudky": 5268,
      "Ġstrun": 5269,
      "Ġuba": 5270,
      "ĠiÅ¡li": 5271,
      "ĠÄĽmÅ¾t": 5272,
      "ĠvaÅ¡": 5273,
      "Ġovil": 5274,
      "Ġavky": 5275,
      "Ġasr": 5276,
      "ĠÃ¡km": 5277,
      "ĠstÅĻed": 5278,
      "Ġozkr": 5279,
      "Ġrsky": 5280,
      "Ġsraz": 5281,
      "Ġivec": 5282,
      "Ġorii": 5283,
      "Ġopa": 5284,
      "Ġzvou": 5285,
      "Ġubc": 5286,
      "ĠejÅ¡k": 5287,
      "Ġmdly": 5288,
      "Ġovzb": 5289,
      "Ġpne": 5290,
      "ĠostÄĽ": 5291,
      "Ġeri": 5292,
      "Ġplic": 5293,
      "ĠujÄį": 5294,
      "Ġzbroj": 5295,
      "Ġoar": 5296,
      "ĠelÄį": 5297,
      "ĠonÅ¡": 5298,
      "Ġeval": 5299,
      "ĠÃ¡sÄį": 5300,
      "ĠrdÅ¡": 5301,
      "Ġyse": 5302,
      "Ġyslu": 5303,
      "Ġskvi": 5304,
      "Ġauc": 5305,
      "Ġebkou": 5306,
      "Ġalmy": 5307,
      "ĠÃŃmÅ¥": 5308,
      "Ġivil": 5309,
      "Ġari": 5310,
      "ĠÃ½mÅ¾": 5311,
      "Ġicht": 5312,
      "Ġocen": 5313,
      "ĠÄĽmÄį": 5314,
      "ĠaÅ¾da": 5315,
      "Ġ35": 5316,
      "ĠyÅĻe": 5317,
      "ĠozÅ¡l": 5318,
      "Ġems": 5319,
      "ĠopÄĽ": 5320,
      "Ġuls": 5321,
      "Ġabel": 5322,
      "ĠÄĽÅ¾ce": 5323,
      "ĠeÅĻim": 5324,
      "ĠrnÄĽ": 5325,
      "ĠouÅ¡ku": 5326,
      "Ġavnou": 5327,
      "ĠannÄĽ": 5328,
      "Ġatyr": 5329,
      "Ġenom": 5330,
      "Ġavci": 5331,
      "Ġue": 5332,
      "Ġapas": 5333,
      "Ġivny": 5334,
      "Ġoknem": 5335,
      "Ġenstva": 5336,
      "Ġrbsk": 5337,
      "Ġscv": 5338,
      "Ġsal": 5339,
      "Ġavec": 5340,
      "Ġostal": 5341,
      "Ġehal": 5342,
      "ĠÃŃcl": 5343,
      "ĠÃŃbk": 5344,
      "Ġinci": 5345,
      "ĠodÄĽj": 5346,
      "Ġmor": 5347,
      "Ġovod": 5348,
      "ĠÅ¾eÅĪ": 5349,
      "ĠoÅĻn": 5350,
      "ĠÄĽdne": 5351,
      "Ġisu": 5352,
      "Ġannu": 5353,
      "ĠijeÅ¡": 5354,
      "Ġrbl": 5355,
      "ĠXXAXXA": 5356,
      "Ġeist": 5357,
      "Ġtou": 5358,
      "Ġenil": 5359,
      "Ġlup": 5360,
      "Ġavej": 5361,
      "Ġolh": 5362,
      "Ġchat": 5363,
      "ĠatÅĻim": 5364,
      "Ġezny": 5365,
      "Ġavdy": 5366,
      "ĠoÅĻist": 5367,
      "ĠodÅ¥": 5368,
      "Ġarech": 5369,
      "ĠoÅ¾m": 5370,
      "Ġasten": 5371,
      "Ġypk": 5372,
      "Ġrchu": 5373,
      "ĠaÄįnou": 5374,
      "Ġalnych": 5375,
      "Ġevrl": 5376,
      "Ġedra": 5377,
      "ĠÄĽpn": 5378,
      "Ġkost": 5379,
      "Ġdub": 5380,
      "Ġemm": 5381,
      "Ġsluj": 5382,
      "ĠÃŃkn": 5383,
      "ĠXAXX": 5384,
      "ĠÄĽÅ¾ky": 5385,
      "ĠÄĽjeÅ¡": 5386,
      "Ġansky": 5387,
      "Ġph": 5388,
      "Ġdil": 5389,
      "Ġuchn": 5390,
      "Ġhnizd": 5391,
      "Ġekle": 5392,
      "ĠÄĽrnou": 5393,
      "Ġelnou": 5394,
      "Ġelnych": 5395,
      "Ġezdr": 5396,
      "ĠokÅĻt": 5397,
      "gr": 5398,
      "ib": 5399,
      "Ġsyt": 5400,
      "Ġdce": 5401,
      "Ġinum": 5402,
      "ĠorÄį": 5403,
      "Ġajit": 5404,
      "Ġzdm": 5405,
      "Ġumem": 5406,
      "ĠÄĽvÅ¡": 5407,
      "ĠÄĽrc": 5408,
      "Ġatke": 5409,
      "ĠyÅ¡li": 5410,
      "Ġanti": 5411,
      "Ġerly": 5412,
      "Ġozhr": 5413,
      "Ġozdrav": 5414,
      "Ġilim": 5415,
      "Ġanz": 5416,
      "Ġevne": 5417,
      "Ġikat": 5418,
      "Ġhnat": 5419,
      "Ġiskal": 5420,
      "ĠoÅĪt": 5421,
      "Ġihly": 5422,
      "Ġedii": 5423,
      "Ġvhr": 5424,
      "Ġalech": 5425,
      "ĠivÄį": 5426,
      "Ġidky": 5427,
      "Ġvzor": 5428,
      "Ġdno": 5429,
      "Ġuzu": 5430,
      "Ġysly": 5431,
      "Ġavm": 5432,
      "Ġsvist": 5433,
      "ĠABAX": 5434,
      "Ġirt": 5435,
      "Ġebny": 5436,
      "Ġrbu": 5437,
      "Ġydla": 5438,
      "Ġiskla": 5439,
      "Ġoeth": 5440,
      "Ġtka": 5441,
      "Ġilil": 5442,
      "Ġodach": 5443,
      "ĠodeÅĪ": 5444,
      "Ġstav": 5445,
      "Ġamf": 5446,
      "ĠaÅ¡em": 5447,
      "Ġatkn": 5448,
      "ĠvÅĻe": 5449,
      "Ġovci": 5450,
      "Ġku": 5451,
      "Ġinech": 5452,
      "Ġorech": 5453,
      "Ġestem": 5454,
      "Ġasnym": 5455,
      "Ġaustr": 5456,
      "Ġudnou": 5457,
      "Ġiknout": 5458,
      "Ġenat": 5459,
      "ĠinÅ¾": 5460,
      "Ġitm": 5461,
      "Ġozku": 5462,
      "ent": 5463,
      "ĠztÅĻ": 5464,
      "Ġozdu": 5465,
      "ĠyÄįt": 5466,
      "Ġedie": 5467,
      "Ġojska": 5468,
      "ĠijÄıt": 5469,
      "Ġatuj": 5470,
      "Ġozsk": 5471,
      "ĠiÅ¡Äį": 5472,
      "Ġupne": 5473,
      "Ġuci": 5474,
      "Ġrsku": 5475,
      "Ġesklo": 5476,
      "Ġeusl": 5477,
      "Ġias": 5478,
      "Ġiin": 5479,
      "ĠyuÄį": 5480,
      "ĠejÅĻ": 5481,
      "Ġorku": 5482,
      "ĠzvÄĽsÅ¥": 5483,
      "ĠyvÅĻ": 5484,
      "ĠaÅĪm": 5485,
      "ĠohnÄĽm": 5486,
      "Ġovec": 5487,
      "Ġahlo": 5488,
      "Ġvtl": 5489,
      "ĠozbÅĻ": 5490,
      "ĠAAXBBB": 5491,
      "Ġkyv": 5492,
      "ĠÅ¡n": 5493,
      "Ġalach": 5494,
      "Ġousn": 5495,
      "Ġouvn": 5496,
      "ĠdeÅ¡Å¥": 5497,
      "ysk": 5498,
      "ĠproÄį": 5499,
      "Ġiven": 5500,
      "Ġichou": 5501,
      "ĠopÄĽt": 5502,
      "ĠaÄįit": 5503,
      "Ġimat": 5504,
      "ĠÅ¯jc": 5505,
      "Ġrbk": 5506,
      "ĠXAB": 5507,
      "Ġtkvi": 5508,
      "Ġkal": 5509,
      "Ġudek": 5510,
      "Ġunh": 5511,
      "ĠiÄįit": 5512,
      "Ġuchr": 5513,
      "Ġypi": 5514,
      "Ġojna": 5515,
      "ĠbdÄĽl": 5516,
      "Ġinth": 5517,
      "Ġeobl": 5518,
      "Ġyptsk": 5519,
      "ĠpÄĽn": 5520,
      "Ġamkl": 5521,
      "Ġejne": 5522,
      "Ġkryl": 5523,
      "Ġosem": 5524,
      "Ġusem": 5525,
      "ĠiÅ¡ka": 5526,
      "Ġacch": 5527,
      "Ġenstvim": 5528,
      "Ġardc": 5529,
      "rh": 5530,
      "Ġelnik": 5531,
      "Ġitost": 5532,
      "ĠÄĽtkr": 5533,
      "ĠeÅ¾d": 5534,
      "Ġutce": 5535,
      "ĠeÅ¡v": 5536,
      "ĠoutÄĽ": 5537,
      "Ġovni": 5538,
      "Ġeznou": 5539,
      "Ġevny": 5540,
      "Ġpsat": 5541,
      "ĠÄĽdnou": 5542,
      "Ġickym": 5543,
      "Ġlstn": 5544,
      "ĠeÃ¡ln": 5545,
      "aÄı": 5546,
      "Ġlos": 5547,
      "Ġinf": 5548,
      "Ġejit": 5549,
      "Ġabil": 5550,
      "Ġoutek": 5551,
      "ĠoÅ¡el": 5552,
      "Ġodiv": 5553,
      "ĠurÄįi": 5554,
      "Ġintr": 5555,
      "Ġyx": 5556,
      "ĠdaÅĪ": 5557,
      "ĠÅ¾as": 5558,
      "Ġitan": 5559,
      "Ġhnout": 5560,
      "ĠitiÅ¡": 5561,
      "Ġibky": 5562,
      "ĠyÅĻkl": 5563,
      "Ġvss": 5564,
      "Ġelmi": 5565,
      "Ġondr": 5566,
      "Ġolat": 5567,
      "ĠÃ¡chl": 5568,
      "Ġisc": 5569,
      "ĠÃ¡jsk": 5570,
      "ĠÅ¡la": 5571,
      "ĠrÅ¾t": 5572,
      "ĠÄĽÅ¾ny": 5573,
      "Ġbdi": 5574,
      "th": 5575,
      "Ġood": 5576,
      "Ġuid": 5577,
      "ĠilÄį": 5578,
      "Ġamek": 5579,
      "ĠoÄįm": 5580,
      "Ġednul": 5581,
      "Ġuche": 5582,
      "nech": 5583,
      "ĠmÅĻel": 5584,
      "ĠenÄĽz": 5585,
      "ĠÃºÅ¾l": 5586,
      "Ġdul": 5587,
      "Ġryk": 5588,
      "Ġamw": 5589,
      "Ġukach": 5590,
      "Ġynku": 5591,
      "ĠÃ©hl": 5592,
      "Ġizz": 5593,
      "Ġouzel": 5594,
      "Ġihou": 5595,
      "Ġujme": 5596,
      "ĠebÅ¥": 5597,
      "ĠoÅĻel": 5598,
      "Ġusv": 5599,
      "ĠÅ¯jn": 5600,
      "ĠÃŃsc": 5601,
      "ĠÃ¡chr": 5602,
      "Ġchtit": 5603,
      "Ġrsu": 5604,
      "ĠedaÅ¡": 5605,
      "Ġvuz": 5606,
      "Ġube": 5607,
      "Ġlkal": 5608,
      "Ġeumdl": 5609,
      "Ġavic": 5610,
      "ĠÄĽlat": 5611,
      "Ġadru": 5612,
      "Ġidmi": 5613,
      "Ġeanu": 5614,
      "ĠakÅĻk": 5615,
      "Ġowsk": 5616,
      "Ġejstr": 5617,
      "Ġarek": 5618,
      "Ġekel": 5619,
      "ĠÃ©ms": 5620,
      "ĠaÅ¡il": 5621,
      "Ġrdcy": 5622,
      "ĠiÅ¡ku": 5623,
      "Ġrvni": 5624,
      "Ġyslim": 5625,
      "ĠadaÅ¡": 5626,
      "Ġarvy": 5627,
      "Ġespr": 5628,
      "Ġazyk": 5629,
      "Ġazet": 5630,
      "Ġustit": 5631,
      "ĠoÅ¡ku": 5632,
      "ĠAAXXXX": 5633,
      "ĠouÅ¡tÄĽ": 5634,
      "Ġoufa": 5635,
      "ĠoveÅĪ": 5636,
      "ĠiÃ³": 5637,
      "Ġpnou": 5638,
      "Ġiana": 5639,
      "ĠzaÅ¡Å¥": 5640,
      "Ġemc": 5641,
      "ĠÅ¯kl": 5642,
      "Ġelil": 5643,
      "Ġedzv": 5644,
      "ĠoÅĻt": 5645,
      "Ġelku": 5646,
      "ĠÄĽco": 5647,
      "ezd": 5648,
      "Ġvnik": 5649,
      "Ġbat": 5650,
      "Ġovin": 5651,
      "ĠchoÅ¥": 5652,
      "ĠuÅ¾em": 5653,
      "ĠernÄĽ": 5654,
      "Ġrcha": 5655,
      "Ġanda": 5656,
      "Ġestra": 5657,
      "ĠXABBXA": 5658,
      "Ġovit": 5659,
      "Ġcp": 5660,
      "Ġutem": 5661,
      "ĠÃ¡Äįc": 5662,
      "Ġoubky": 5663,
      "ĠÅ¯ldn": 5664,
      "ĠouÄįku": 5665,
      "Ġouzlo": 5666,
      "Ġ36": 5667,
      "Ġobyt": 5668,
      "Ġalkn": 5669,
      "Ġeobr": 5670,
      "ĠookÅĻ": 5671,
      "Ġerka": 5672,
      "ĠÄĽrem": 5673,
      "ĠÅ¯lm": 5674,
      "Ġevna": 5675,
      "ĠoÅĪk": 5676,
      "ABBB": 5677,
      "ĠaruÄį": 5678,
      "ĠyÃ¡": 5679,
      "Ġrum": 5680,
      "Ġhul": 5681,
      "Ġerky": 5682,
      "Ġokd": 5683,
      "ĠsnÄĽt": 5684,
      "ĠÄĽde": 5685,
      "ĠaÅĻstvi": 5686,
      "ĠoÅ¡Å¥": 5687,
      "Ġptat": 5688,
      "Ġadko": 5689,
      "ĠÅ¡li": 5690,
      "Ġoctvi": 5691,
      "ĠygÅĻ": 5692,
      "Ġelce": 5693,
      "Ġitov": 5694,
      "Ġcar": 5695,
      "Ġajil": 5696,
      "ĠÃŃstÅĻ": 5697,
      "ĠozkÅĻ": 5698,
      "Ġantu": 5699,
      "Ġsfer": 5700,
      "ĠpouÅ¥": 5701,
      "Ġox": 5702,
      "Ġolv": 5703,
      "Ġinv": 5704,
      "Ġomech": 5705,
      "Ġetc": 5706,
      "ĠuÅ¾u": 5707,
      "Å¡ti": 5708,
      "Ġersp": 5709,
      "Ġeost": 5710,
      "Ġklet": 5711,
      "Ġytit": 5712,
      "Ġacha": 5713,
      "Ġanie": 5714,
      "Ġykat": 5715,
      "Ġeuch": 5716,
      "Ġelnym": 5717,
      "Ġilna": 5718,
      "Ġakto": 5719,
      "Ġounka": 5720,
      "ĠkuÅĪ": 5721,
      "Ġeen": 5722,
      "Ġouky": 5723,
      "Ġlen": 5724,
      "Ġinst": 5725,
      "Ġerie": 5726,
      "ĠomÅ¾": 5727,
      "Ġetkl": 5728,
      "Ġehem": 5729,
      "Ġevzn": 5730,
      "Ġestal": 5731,
      "ĠeÅ¾k": 5732,
      "ĠaÅ¾ce": 5733,
      "ĠÃŃlc": 5734,
      "Ġuju": 5735,
      "ĠiÅ¾d": 5736,
      "ĠisaÅĻ": 5737,
      "kus": 5738,
      "Ġipa": 5739,
      "Ġotna": 5740,
      "Ġtep": 5741,
      "ĠaldÅ¡t": 5742,
      "Ġao": 5743,
      "Ġaik": 5744,
      "ĠyÄı": 5745,
      "Ġemk": 5746,
      "ĠeÅ¾h": 5747,
      "Ġastne": 5748,
      "ĠlnÄĽn": 5749,
      "ĠÄĽsy": 5750,
      "Ġhvizd": 5751,
      "Ġybi": 5752,
      "Ġtmu": 5753,
      "ĠouÅ¡e": 5754,
      "Ġinnych": 5755,
      "ĠoÄıstv": 5756,
      "Ġiott": 5757,
      "ĠÄĽbr": 5758,
      "Ġomm": 5759,
      "ĠaÅ¾ne": 5760,
      "Ġoptv": 5761,
      "Ġoutu": 5762,
      "Ġuzen": 5763,
      "Ġolny": 5764,
      "Ġlzi": 5765,
      "ĠinaÅ¡": 5766,
      "Ġoucham": 5767,
      "ĠÃ½Å¾k": 5768,
      "Ġyskla": 5769,
      "Ġanech": 5770,
      "Ġprav": 5771,
      "Ġitej": 5772,
      "Ġslib": 5773,
      "Ġorr": 5774,
      "Ġeztv": 5775,
      "Ġvzkl": 5776,
      "Ġvla": 5777,
      "Ġupem": 5778,
      "Ġvrak": 5779,
      "Ġolni": 5780,
      "Ġivan": 5781,
      "Ġesnou": 5782,
      "Ġouchl": 5783,
      "Ġojnou": 5784,
      "Ġanskych": 5785,
      "Ġcval": 5786,
      "Ġstih": 5787,
      "Ġasit": 5788,
      "Ġudit": 5789,
      "Ġekd": 5790,
      "ĠÃ¡sp": 5791,
      "Ġazka": 5792,
      "Ġeskou": 5793,
      "Ġiju": 5794,
      "ĠeÄįnym": 5795,
      "Ġozdm": 5796,
      "Ġoustl": 5797,
      "ĠepÅ¡i": 5798,
      "Ġexc": 5799,
      "ĠeÃºm": 5800,
      "ĠÃºsl": 5801,
      "Ġempl": 5802,
      "Ġvar": 5803,
      "Ġanne": 5804,
      "ĠodiÅ¡": 5805,
      "Ġesr": 5806,
      "ĠebÄį": 5807,
      "Ġsnah": 5808,
      "Ġedny": 5809,
      "Ġabne": 5810,
      "ĠÃŃzdn": 5811,
      "Ġrsy": 5812,
      "ĠyÅ¥b": 5813,
      "Ġudbou": 5814,
      "ĠuÄįnÄĽ": 5815,
      "Ġstkvi": 5816,
      "Ġrku": 5817,
      "ĠaÅĻen": 5818,
      "ĠeÅĻich": 5819,
      "ĠÃŃzc": 5820,
      "Ġieg": 5821,
      "Ġalna": 5822,
      "Ġysku": 5823,
      "Ġrhli": 5824,
      "sb": 5825,
      "Ġatsk": 5826,
      "Ġechach": 5827,
      "Ġapne": 5828,
      "Ġvlad": 5829,
      "Ġmlyn": 5830,
      "ĠirÅ¡": 5831,
      "Ġasnik": 5832,
      "Ġolnost": 5833,
      "ĠelnÄĽ": 5834,
      "ĠoucnÄĽ": 5835,
      "Ġostla": 5836,
      "Ġazdne": 5837,
      "Ġuac": 5838,
      "ĠÃ¡sÅ¥": 5839,
      "Ġepou": 5840,
      "ĠÄĽzÅĪ": 5841,
      "Ġancl": 5842,
      "ĠejÅ¡Å¥": 5843,
      "Ġmdla": 5844,
      "Ġudby": 5845,
      "iÅ¥": 5846,
      "ĠsuÄı": 5847,
      "Ġalim": 5848,
      "Ġetky": 5849,
      "Ġvlek": 5850,
      "Ġadnul": 5851,
      "Ġucl": 5852,
      "Ġitkou": 5853,
      "Ġmuch": 5854,
      "Ġlov": 5855,
      "Ġode": 5856,
      "Ġotam": 5857,
      "Ġudv": 5858,
      "Ġplec": 5859,
      "ĠrdÄĽ": 5860,
      "ĠiÄįu": 5861,
      "ĠaÅĻich": 5862,
      "asÅ¥": 5863,
      "ĠÄĽÅ¾nou": 5864,
      "ĠvlasÅ¥": 5865,
      "Ġiadem": 5866,
      "Ġhon": 5867,
      "Ġcos": 5868,
      "Ġptam": 5869,
      "Ġajich": 5870,
      "Ġeosl": 5871,
      "Ġaup": 5872,
      "ĠiÅĻu": 5873,
      "ĠÄĽtrem": 5874,
      "ĠuÅ¾eÅ¡": 5875,
      "ĠhÅĻmit": 5876,
      "Ġonci": 5877,
      "Ġobyl": 5878,
      "ĠonÄĽm": 5879,
      "Ġoil": 5880,
      "Ġvest": 5881,
      "Ġatach": 5882,
      "Ġavost": 5883,
      "ĠasÅ¡i": 5884,
      "Ġinit": 5885,
      "Ġomek": 5886,
      "Ġicc": 5887,
      "Ġsnim": 5888,
      "ĠovaÅ¥": 5889,
      "Ġelie": 5890,
      "Ġeodb": 5891,
      "ĠejÄįk": 5892,
      "Ġeujd": 5893,
      "Ġovt": 5894,
      "Ġazce": 5895,
      "Ġulp": 5896,
      "Ġousy": 5897,
      "Ġvtk": 5898,
      "Ġrdla": 5899,
      "ĠiÃŃm": 5900,
      "Ġejhr": 5901,
      "Ġyzdv": 5902,
      "Ġdim": 5903,
      "Ġomov": 5904,
      "Ġonr": 5905,
      "ĠeÅ¾sk": 5906,
      "ĠÄĽju": 5907,
      "Ġijal": 5908,
      "ĠÃ³v": 5909,
      "Ġohli": 5910,
      "Ġavach": 5911,
      "ĠandÄĽl": 5912,
      "Ġlhy": 5913,
      "Ġobna": 5914,
      "Ġrmut": 5915,
      "Ġviz": 5916,
      "ĠpouÅ¡Å¥": 5917,
      "Ġorum": 5918,
      "Ġestk": 5919,
      "ĠÄĽjin": 5920,
      "Ġimam": 5921,
      "ĠubÄĽ": 5922,
      "ĠtmÄĽl": 5923,
      "ĠAAA": 5924,
      "Ġejny": 5925,
      "Ġbys": 5926,
      "Ġihnul": 5927,
      "Ġarth": 5928,
      "of": 5929,
      "Ġye": 5930,
      "Ġebku": 5931,
      "Ġajne": 5932,
      "Ġicych": 5933,
      "Ġestach": 5934,
      "ĠaÅ¡sk": 5935,
      "Ġact": 5936,
      "Ġiskem": 5937,
      "Ġomny": 5938,
      "ĠobÄĽÅ¥": 5939,
      "Ġcti": 5940,
      "Ġjmen": 5941,
      "ĠÅ¯tkl": 5942,
      "Ġenal": 5943,
      "Ġemoh": 5944,
      "Ġaral": 5945,
      "ĠuÅ¾t": 5946,
      "ĠeÅ¡e": 5947,
      "ĠeÅ¡p": 5948,
      "Ġujc": 5949,
      "ĠaÅ¡en": 5950,
      "ĠuÄįne": 5951,
      "Ġepla": 5952,
      "uÅ¡": 5953,
      "Ġostkv": 5954,
      "ĠyÅ¾i": 5955,
      "Ġimkn": 5956,
      "Ġuvk": 5957,
      "Ġoslal": 5958,
      "ĠÄĽcn": 5959,
      "Ġrskem": 5960,
      "ĠuÅ¾bu": 5961,
      "Ġourk": 5962,
      "ĠovÄĽz": 5963,
      "ĠÃ½pk": 5964,
      "ĠlÅĪk": 5965,
      "ĠpaÅ¾": 5966,
      "ĠÅ¯Å¡": 5967,
      "Ġilek": 5968,
      "Ġudku": 5969,
      "ĠÅ¡ik": 5970,
      "Ġvzkaz": 5971,
      "ĠsmÄĽr": 5972,
      "Ġocich": 5973,
      "Ġklast": 5974,
      "Ġazit": 5975,
      "Ġynek": 5976,
      "ĠiÄįÄį": 5977,
      "ĠaÅ¥m": 5978,
      "ĠaÅ¡tk": 5979,
      "ĠistÅĻe": 5980,
      "Ġonat": 5981,
      "ĠABABAA": 5982,
      "ĠoÅ¾ne": 5983,
      "Ġmlh": 5984,
      "ĠouÅ¡c": 5985,
      "ĠaÅ¡la": 5986,
      "ĠiÄįnÄĽ": 5987,
      "Ġespl": 5988,
      "Ġazdna": 5989,
      "Ġakev": 5990,
      "Ġazrak": 5991,
      "Ġrvk": 5992,
      "Ġijet": 5993,
      "Ġhnan": 5994,
      "ĠÃ³p": 5995,
      "ĠÄĽrni": 5996,
      "Ġibku": 5997,
      "ĠrÅ¾el": 5998,
      "Ġornou": 5999,
      "Ġostly": 6000,
      "ĠuÅ¡tÄĽn": 6001,
      "Ġojsko": 6002,
      "Ġadci": 6003,
      "Ġirkve": 6004,
      "iz": 6005,
      "Ġitym": 6006,
      "Ġonstv": 6007,
      "Ġichne": 6008,
      "ĠyÅ¡v": 6009,
      "ĠÄĽdou": 6010,
      "Ġasnem": 6011,
      "Ġadlych": 6012,
      "ĠouÅĻil": 6013,
      "Ġips": 6014,
      "Ġilnou": 6015,
      "Ġovej": 6016,
      "Ġosky": 6017,
      "Ġechci": 6018,
      "ĠmÅĻe": 6019,
      "ĠXABX": 6020,
      "Ġirna": 6021,
      "Ġonsl": 6022,
      "Ġeatr": 6023,
      "ck": 6024,
      "Ġoa": 6025,
      "ĠasÅĪ": 6026,
      "Ġslet": 6027,
      "ĠAXX": 6028,
      "ĠuÅ¾il": 6029,
      "ĠÄĽkal": 6030,
      "Ġdrak": 6031,
      "ĠeÅ¡tv": 6032,
      "Ġurne": 6033,
      "Ġolnou": 6034,
      "ĠrÅ¾en": 6035,
      "Ġzbled": 6036,
      "ĠeÃºn": 6037,
      "Ġvznest": 6038,
      "Ġilce": 6039,
      "Ġoph": 6040,
      "Ġsmim": 6041,
      "Ġapky": 6042,
      "Ġvran": 6043,
      "ĠustÅ¡": 6044,
      "Ġrnu": 6045,
      "Ġurny": 6046,
      "ĠÃ©kn": 6047,
      "Ġozzp": 6048,
      "Ġail": 6049,
      "Ġruk": 6050,
      "Ġlich": 6051,
      "Ġilet": 6052,
      "Ġitt": 6053,
      "ĠpÅĻat": 6054,
      "Ġslep": 6055,
      "Ġichal": 6056,
      "Ġikym": 6057,
      "ĠoÅ¾b": 6058,
      "ĠoÅ¾ar": 6059,
      "Ġubec": 6060,
      "ĠÄĽsem": 6061,
      "BAC": 6062,
      "ĠatÅĻt": 6063,
      "ĠandÅ¾": 6064,
      "Ġobny": 6065,
      "ĠÄĽtve": 6066,
      "Ġytra": 6067,
      "ĠABCBAC": 6068,
      "Ġzad": 6069,
      "Ġasat": 6070,
      "Ġinl": 6071,
      "Ġerych": 6072,
      "Ġidou": 6073,
      "Ġezz": 6074,
      "Ġucho": 6075,
      "Ġlnost": 6076,
      "Ġychou": 6077,
      "ĠeÅĪk": 6078,
      "Ġutnou": 6079,
      "ĠÅ¯rn": 6080,
      "ĠaneÅ¡": 6081,
      "Ġidle": 6082,
      "Ġitbach": 6083,
      "Ġemstvim": 6084,
      "ĠavÅ¾dy": 6085,
      "Ġbez": 6086,
      "Ġotil": 6087,
      "Ġarii": 6088,
      "Ġokym": 6089,
      "ĠeÅ¡ni": 6090,
      "ĠiÅ¾j": 6091,
      "ĠiÅ¾em": 6092,
      "ĠiÅ¾el": 6093,
      "ĠumiÅ¡": 6094,
      "ĠAABBXB": 6095,
      "Ġijak": 6096,
      "ĠouÅ¡i": 6097,
      "Ġyrs": 6098,
      "Ġahnu": 6099,
      "Ġyce": 6100,
      "Ġouett": 6101,
      "Ġenz": 6102,
      "Ġesen": 6103,
      "ĠÄĽlost": 6104,
      "Ġoten": 6105,
      "Ġahat": 6106,
      "Ġulych": 6107,
      "ĠuhÅĻ": 6108,
      "ĠÄĽzne": 6109,
      "Ġurky": 6110,
      "Ġrzc": 6111,
      "ĠoÅ¾ny": 6112,
      "Ġidnym": 6113,
      "Ġoucna": 6114,
      "ĠuÄįny": 6115,
      "Ġosmn": 6116,
      "ĠmÅĻiÅ¾": 6117,
      "Ġetbu": 6118,
      "Ġankyt": 6119,
      "Ġesel": 6120,
      "Ġasie": 6121,
      "ĠaÅ¾el": 6122,
      "ĠytÄį": 6123,
      "Ġimo": 6124,
      "Ġmlat": 6125,
      "Ġuvy": 6126,
      "Ġystal": 6127,
      "Ġrpi": 6128,
      "Ġrci": 6129,
      "ĠÃŃskl": 6130,
      "Ġodzv": 6131,
      "oz": 6132,
      "Ġyor": 6133,
      "Ġdych": 6134,
      "Ġhle": 6135,
      "Ġbloud": 6136,
      "Ġzvat": 6137,
      "ĠdvÄĽ": 6138,
      "Ġybu": 6139,
      "Ġickni": 6140,
      "Ġalnou": 6141,
      "Ġentn": 6142,
      "ĠÄĽÅ¾nÄĽ": 6143,
      "Ġeskly": 6144,
      "Ġejskv": 6145,
      "yz": 6146,
      "ĠbaÅĪ": 6147,
      "Ġaso": 6148,
      "Ġechou": 6149,
      "Ġobre": 6150,
      "Ġecke": 6151,
      "Ġadnym": 6152,
      "Ġyslit": 6153,
      "Ġyvl": 6154,
      "Ġipsk": 6155,
      "Ġuzna": 6156,
      "Ġabla": 6157,
      "Ġelmy": 6158,
      "Ġpst": 6159,
      "Ġsvod": 6160,
      "Ġamh": 6161,
      "Ġylh": 6162,
      "Ġsnest": 6163,
      "Ġstroj": 6164,
      "Ġurce": 6165,
      "Ġibam": 6166,
      "Ġsklon": 6167,
      "ĠvÅĻel": 6168,
      "Ġyda": 6169,
      "Ġebna": 6170,
      "Ġitbou": 6171,
      "ĠveÄı": 6172,
      "ĠelÅ¾": 6173,
      "ĠchuÅ¥": 6174,
      "Ġicym": 6175,
      "ĠaÅ¾m": 6176,
      "Ġgn": 6177,
      "ĠskvÄĽl": 6178,
      "Ġodvl": 6179,
      "Ġanach": 6180,
      "ĠejÅ¡im": 6181,
      "Ġychla": 6182,
      "ĠÄĽzny": 6183,
      "ĠetÅĻi": 6184,
      "Ġuil": 6185,
      "ĠÅ¡eÅĻ": 6186,
      "ĠÄĽnit": 6187,
      "ĠibÅĻ": 6188,
      "Ġotcem": 6189,
      "ĠouÄįek": 6190,
      "Ġmdle": 6191,
      "ĠuÅ¡ko": 6192,
      "Ġrmi": 6193,
      "ĠÃ©Å¥": 6194,
      "ĠilÅ¥": 6195,
      "Ġadj": 6196,
      "Ġelim": 6197,
      "ĠanÅ¡t": 6198,
      "Ġinim": 6199,
      "Ġhles": 6200,
      "Ġikan": 6201,
      "Ġopast": 6202,
      "Ġocel": 6203,
      "ĠeÄįnych": 6204,
      "Ġalie": 6205,
      "Ġouba": 6206,
      "Ġilky": 6207,
      "Ġivce": 6208,
      "Ġytost": 6209,
      "Ġimne": 6210,
      "Ġubt": 6211,
      "ĠuÄįet": 6212,
      "Ġucy": 6213,
      "ĠymÄĽ": 6214,
      "Ġotcu": 6215,
      "ĠkÅĪ": 6216,
      "Ġatstvi": 6217,
      "Ġonech": 6218,
      "Ġoro": 6219,
      "Ġkram": 6220,
      "Ġezsk": 6221,
      "Ġunach": 6222,
      "Ġennym": 6223,
      "ĠalnÄĽ": 6224,
      "Ġydal": 6225,
      "Ġvztah": 6226,
      "ĠevÅĻe": 6227,
      "Ġovska": 6228,
      "ĠyÅĻk": 6229,
      "ĠoÄım": 6230,
      "ĠhÅĻbet": 6231,
      "Ġitlo": 6232,
      "ĠÅ¯sl": 6233,
      "Ġtys": 6234,
      "Ġhas": 6235,
      "ĠÄįim": 6236,
      "Ġamal": 6237,
      "Ġomil": 6238,
      "ĠetÄĽt": 6239,
      "Ġohv": 6240,
      "Ġezy": 6241,
      "Ġutu": 6242,
      "ĠoÅ¾r": 6243,
      "ĠoÅ¾ich": 6244,
      "ĠyÅ¡p": 6245,
      "Ġodre": 6246,
      "ĠanÄĽn": 6247,
      "ĠuÅ¾bÄĽ": 6248,
      "Ġydlo": 6249,
      "ĠtÄĽm": 6250,
      "ĠÃ½pl": 6251,
      "ĠpeÅĪ": 6252,
      "ĠÅ¾id": 6253,
      "ĠÄĽlb": 6254,
      "Ġorp": 6255,
      "Ġkryt": 6256,
      "Ġylku": 6257,
      "Ġevh": 6258,
      "Ġevni": 6259,
      "Ġeza": 6260,
      "ĠiÅ¾im": 6261,
      "ĠXAXB": 6262,
      "Ġzpit": 6263,
      "Ġouty": 6264,
      "Ġiza": 6265,
      "Ġeslem": 6266,
      "Ġehna": 6267,
      "Ġeohr": 6268,
      "Ġyskal": 6269,
      "ĠeÄįkem": 6270,
      "Ġisly": 6271,
      "Ġrscich": 6272,
      "ĠÄĽlky": 6273,
      "Ġamm": 6274,
      "Ġkde": 6275,
      "Ġarev": 6276,
      "Ġylou": 6277,
      "Ġahej": 6278,
      "ĠoÄįet": 6279,
      "Ġhruz": 6280,
      "ĠÃ¡dÄį": 6281,
      "Ġukv": 6282,
      "ĠaziÅ¡": 6283,
      "ĠÃŃvn": 6284,
      "ĠaÅ¾dou": 6285,
      "Ġurm": 6286,
      "Ġemnym": 6287,
      "Ġodnych": 6288,
      "Ġantk": 6289,
      "Ġtyl": 6290,
      "Ġilka": 6291,
      "Ġajky": 6292,
      "ĠÄĽnky": 6293,
      "ĠeÄįen": 6294,
      "Ġopou": 6295,
      "Ġytka": 6296,
      "Ġabstv": 6297,
      "Ġabat": 6298,
      "Ġychne": 6299,
      "Ġadnych": 6300,
      "Ġouchat": 6301,
      "ĠobÅĻi": 6302,
      "ĠÃ©vk": 6303,
      "iÅĻ": 6304,
      "Ġoal": 6305,
      "Ġoel": 6306,
      "ĠÄĽsk": 6307,
      "Ġobstv": 6308,
      "Ġerii": 6309,
      "ĠomeÅĪ": 6310,
      "ĠÅ¡est": 6311,
      "ĠiÅ¾en": 6312,
      "Ġyschn": 6313,
      "Ġuchou": 6314,
      "Ġizim": 6315,
      "Ġvrh": 6316,
      "Ġadnem": 6317,
      "ĠÄĽsnÄĽ": 6318,
      "ĠskÅĻek": 6319,
      "ĠÃŃmÅ¾t": 6320,
      "Ġrdlo": 6321,
      "Ġuhle": 6322,
      "ĠvzkÅĻik": 6323,
      "Ġiac": 6324,
      "Ġezbl": 6325,
      "Ġympsk": 6326,
      "ĠkdyÅ¾": 6327,
      "Ġedstv": 6328,
      "Ġejem": 6329,
      "ĠÃŃct": 6330,
      "ĠABABBA": 6331,
      "Ġplan": 6332,
      "Ġepu": 6333,
      "Ġyvn": 6334,
      "Ġebral": 6335,
      "Ġitnou": 6336,
      "ĠÅ¡tvan": 6337,
      "AAB": 6338,
      "Ġoot": 6339,
      "ĠadosÅ¥": 6340,
      "Ġelum": 6341,
      "ĠÅ¾b": 6342,
      "Ġesal": 6343,
      "Ġkdos": 6344,
      "Ġohni": 6345,
      "ĠÄĽnach": 6346,
      "Ġsnaz": 6347,
      "Ġecj": 6348,
      "ĠAABAAB": 6349,
      "ĠzmÄĽn": 6350,
      "Ġisko": 6351,
      "Ġeubr": 6352,
      "Ġonnou": 6353,
      "Ġaor": 6354,
      "Ġuert": 6355,
      "Ġilsk": 6356,
      "Ġobni": 6357,
      "Ġezem": 6358,
      "ĠiÅ¾m": 6359,
      "Ġytych": 6360,
      "Ġustem": 6361,
      "Ġenit": 6362,
      "ĠzmÄĽÅ¥": 6363,
      "Ġchcem": 6364,
      "ĠouÅ¡ek": 6365,
      "Ġenty": 6366,
      "Ġezla": 6367,
      "Ġistra": 6368,
      "Ġrob": 6369,
      "Ġostil": 6370,
      "Ġotne": 6371,
      "Ġhluch": 6372,
      "ĠÃ¡tsk": 6373,
      "ous": 6374,
      "ĠiÅ¾ka": 6375,
      "Ġijn": 6376,
      "Ġypal": 6377,
      "Ġrnul": 6378,
      "ĠyÄįc": 6379,
      "ĠyzeÅĪ": 6380,
      "Ġoliv": 6381,
      "ĠostÅĻed": 6382,
      "ĠeseÅ¡": 6383,
      "Ġazny": 6384,
      "ĠrÅ¡l": 6385,
      "Ġahnout": 6386,
      "ĠzvlaÅ¡Å¥": 6387,
      "Ġeusn": 6388,
      "ĠapeÅ¾": 6389,
      "Ġyad": 6390,
      "ĠemÄĽl": 6391,
      "ĠÄĽtne": 6392,
      "Ġuzich": 6393,
      "Ġipc": 6394,
      "Ġidskych": 6395,
      "Ġycen": 6396,
      "ĠejtÅĻ": 6397,
      "ĠmaÅ¥": 6398,
      "Ġodzim": 6399,
      "ĠsaÅĪ": 6400,
      "Ġstad": 6401,
      "Ġojak": 6402,
      "XAA": 6403,
      "ĠuÄįky": 6404,
      "Ġernich": 6405,
      "Ġodlit": 6406,
      "ĠatÅĻp": 6407,
      "Ġevnou": 6408,
      "Ġeoch": 6409,
      "ĠudnÄĽ": 6410,
      "Ġiob": 6411,
      "ĠiÅĻem": 6412,
      "Ġevzr": 6413,
      "Ġifl": 6414,
      "ĠlÅĪt": 6415,
      "Ġsup": 6416,
      "Ġedsk": 6417,
      "Ġolech": 6418,
      "Ġejim": 6419,
      "Ġzdat": 6420,
      "Ġimm": 6421,
      "Ġachl": 6422,
      "Ġrsek": 6423,
      "ĠoÅĻiÅ¡": 6424,
      "Ġinkv": 6425,
      "ĠevÅĻt": 6426,
      "Ġezlo": 6427,
      "ĠazpÄĽt": 6428,
      "Ġobsl": 6429,
      "Ġoib": 6430,
      "Ġadhv": 6431,
      "Ġaen": 6432,
      "ĠalÅ¾": 6433,
      "Ġitz": 6434,
      "Ġimpr": 6435,
      "Ġhnul": 6436,
      "ĠÄĽÄįnym": 6437,
      "ĠhÅĻat": 6438,
      "Ġchrt": 6439,
      "Ġlhal": 6440,
      "Ġrpy": 6441,
      "Ġotcy": 6442,
      "Ġestrou": 6443,
      "ĠÃ¡ÅĪk": 6444,
      "Ġourn": 6445,
      "Ġvat": 6446,
      "Ġemen": 6447,
      "ĠinÅ¡": 6448,
      "Ġhloh": 6449,
      "ĠÃ¡dÅĻ": 6450,
      "ĠyÅ¡ky": 6451,
      "Ġacky": 6452,
      "ĠÄĽÅ¡nÄĽ": 6453,
      "Ġivnou": 6454,
      "ĠyÄįil": 6455,
      "Ġyzk": 6456,
      "Ġeknou": 6457,
      "Ġismu": 6458,
      "ĠÄĽtmi": 6459,
      "af": 6460,
      "ĠÃ¡ls": 6461,
      "ĠevÄį": 6462,
      "Ġuben": 6463,
      "Ġenich": 6464,
      "ĠoÅ¡c": 6465,
      "Ġarno": 6466,
      "Ġyrsk": 6467,
      "Ġenstvo": 6468,
      "ĠsiÅ¥": 6469,
      "ĠeÃŃ": 6470,
      "Ġoism": 6471,
      "ĠABAXBX": 6472,
      "ĠpÄĽsÅ¥": 6473,
      "Ġoven": 6474,
      "Ġodum": 6475,
      "ĠÅ¡ij": 6476,
      "ĠehÅĪ": 6477,
      "ĠuÅ¾ne": 6478,
      "Ġisch": 6479,
      "Ġostnych": 6480,
      "Ġostnym": 6481,
      "Ġetny": 6482,
      "ĠÄĽncu": 6483,
      "ĠiÃ³n": 6484,
      "cl": 6485,
      "rl": 6486,
      "Ġoick": 6487,
      "Ġsz": 6488,
      "Ġkos": 6489,
      "Ġilel": 6490,
      "Ġelit": 6491,
      "Ġastl": 6492,
      "Ġistech": 6493,
      "ĠÄĽÅ¾stv": 6494,
      "ĠaÅĻstv": 6495,
      "ĠÃ½vr": 6496,
      "ĠomnÄĽ": 6497,
      "Ġozpn": 6498,
      "ĠebnÄĽ": 6499,
      "ĠoÄįnou": 6500,
      "Ġovskou": 6501,
      "ĠoÄıc": 6502,
      "Ġinde": 6503,
      "Ġevzpl": 6504,
      "Ġait": 6505,
      "Ġovam": 6506,
      "Ġstud": 6507,
      "Ġeschl": 6508,
      "Ġpral": 6509,
      "Ġamky": 6510,
      "Ġarstv": 6511,
      "Ġylb": 6512,
      "Ġylt": 6513,
      "Ġylem": 6514,
      "Ġvznik": 6515,
      "Ġestech": 6516,
      "ĠaÅĻku": 6517,
      "ĠÃ³z": 6518,
      "Ġozny": 6519,
      "Ġechnout": 6520,
      "Ġitrem": 6521,
      "ĠaÄįno": 6522,
      "Ġentsk": 6523,
      "Ġihnou": 6524,
      "ĠhÅĻmi": 6525,
      "Ġensky": 6526,
      "Ġoura": 6527,
      "Ġiemi": 6528,
      "ĠXABAXB": 6529,
      "Ġuar": 6530,
      "Ġchud": 6531,
      "Ġomen": 6532,
      "Ġspas": 6533,
      "Ġednem": 6534,
      "ĠulÄį": 6535,
      "Ġubil": 6536,
      "Ġubit": 6537,
      "Ġmluv": 6538,
      "ĠeÄıte": 6539,
      "Ġvzdych": 6540,
      "Ġuck": 6541,
      "Ġidskou": 6542,
      "Ġoklad": 6543,
      "Ġesmi": 6544,
      "Ġencem": 6545,
      "ĠeÅ¡lo": 6546,
      "Ġuzny": 6547,
      "ĠÄĽzna": 6548,
      "Ġamnou": 6549,
      "Ġvjezd": 6550,
      "Ġalpsk": 6551,
      "Ġator": 6552,
      "ĠÃ¡lsk": 6553,
      "ĠopiÅ¡": 6554,
      "Ġytim": 6555,
      "Ġuno": 6556,
      "Ġistc": 6557,
      "Ġostiv": 6558,
      "Ġpta": 6559,
      "Ġutnych": 6560,
      "ĠaÅĪte": 6561,
      "Ġrpkl": 6562,
      "Ġeok": 6563,
      "ĠÃºstk": 6564,
      "ĠotnÄĽ": 6565,
      "Ġedmn": 6566,
      "Ġokvas": 6567,
      "Ġsok": 6568,
      "Ġemam": 6569,
      "Ġarach": 6570,
      "Ġylv": 6571,
      "Ġicu": 6572,
      "Ġapp": 6573,
      "Ġabit": 6574,
      "Ġoutky": 6575,
      "ĠaÅ¥s": 6576,
      "Ġodruh": 6577,
      "Ġiog": 6578,
      "Ġumny": 6579,
      "ĠoustÅĻ": 6580,
      "Ġytla": 6581,
      "Ġethe": 6582,
      "Ġinkach": 6583,
      "Ġvzmach": 6584,
      "ĠÃºml": 6585,
      "Ġeinr": 6586,
      "Ġvad": 6587,
      "ĠoviÅ¡": 6588,
      "Ġohm": 6589,
      "Ġoram": 6590,
      "ĠutÅ¡": 6591,
      "Ġrdou": 6592,
      "Ġopim": 6593,
      "Ġzdob": 6594,
      "Ġvlat": 6595,
      "ĠAABXXB": 6596,
      "Ġtroud": 6597,
      "ĠÄĽÅ¾Å¡i": 6598,
      "ĠÄĽchou": 6599,
      "Ġvzdm": 6600,
      "Ġvzdal": 6601,
      "ĠÄĽctv": 6602,
      "Ġotva": 6603,
      "Ġojnost": 6604,
      "Ġetnou": 6605,
      "Ġvzrost": 6606,
      "Ġoeta": 6607,
      "Ġendl": 6608,
      "Ġodo": 6609,
      "Ġamych": 6610,
      "Ġerak": 6611,
      "Ġebu": 6612,
      "Ġekot": 6613,
      "Ġytal": 6614,
      "Ġzvan": 6615,
      "Ġimem": 6616,
      "ĠÄĽÅ¡il": 6617,
      "ĠouÅ¡ky": 6618,
      "ĠrÅ¾et": 6619,
      "ĠyÄįe": 6620,
      "Ġycv": 6621,
      "ĠÄĽncem": 6622,
      "ĠlÅ¾i": 6623,
      "ĠedeÅ¡": 6624,
      "Ġubny": 6625,
      "Ġssal": 6626,
      "ĠABCCBA": 6627,
      "Ġaim": 6628,
      "Ġovs": 6629,
      "Ġonen": 6630,
      "ĠÄĽnÄĽn": 6631,
      "Ġvlak": 6632,
      "Ġubou": 6633,
      "Ġernym": 6634,
      "Ġolno": 6635,
      "ĠatÅĻit": 6636,
      "Ġajna": 6637,
      "Ġrby": 6638,
      "ĠejpÅĻ": 6639,
      "Ġaele": 6640,
      "Ġavin": 6641,
      "Ġprch": 6642,
      "Ġivim": 6643,
      "ĠotaÅĻ": 6644,
      "Ġklek": 6645,
      "ĠusiÅ¡": 6646,
      "ĠupÄĽ": 6647,
      "Ġupen": 6648,
      "Ġodnym": 6649,
      "Ġetle": 6650,
      "Ġousek": 6651,
      "Ġotnou": 6652,
      "Ġiost": 6653,
      "Ġedej": 6654,
      "Ġolan": 6655,
      "Ġivit": 6656,
      "Ġevsk": 6657,
      "ĠÄĽjne": 6658,
      "Ġhrej": 6659,
      "ĠiÅ¡Å¡i": 6660,
      "ĠÃ¡csl": 6661,
      "Ġrhat": 6662,
      "Ġied": 6663,
      "Ġacie": 6664,
      "Ġetna": 6665,
      "Ġouna": 6666,
      "ĠitaÅ¡": 6667,
      "Ġezke": 6668,
      "Ġaft": 6669,
      "ĠÃºpr": 6670,
      "Ġetru": 6671,
      "ĠAAAABB": 6672,
      "Ġilni": 6673,
      "Ġohum": 6674,
      "Ġozsm": 6675,
      "ĠÃŃck": 6676,
      "Ġemnem": 6677,
      "Ġohlo": 6678,
      "Ġezni": 6679,
      "Ġyjt": 6680,
      "ĠÄĽrnym": 6681,
      "Ġocna": 6682,
      "Ġpsi": 6683,
      "ĠytiÅĻ": 6684,
      "ĠAAXAXA": 6685,
      "Ġeobv": 6686,
      "Ġtn": 6687,
      "Ġtem": 6688,
      "Ġilstv": 6689,
      "Ġivku": 6690,
      "Ġotni": 6691,
      "Ġamat": 6692,
      "Ġchod": 6693,
      "Ġutym": 6694,
      "Ġocne": 6695,
      "ĠkliÄį": 6696,
      "ĠaÅ¡ek": 6697,
      "Ġuman": 6698,
      "ĠÄĽml": 6699,
      "Ġoudk": 6700,
      "Ġizu": 6701,
      "ĠenÅ¾s": 6702,
      "Ġemni": 6703,
      "Ġarnem": 6704,
      "Ġatnym": 6705,
      "ĠenaÅ¡": 6706,
      "ĠyÄįku": 6707,
      "Ġsplav": 6708,
      "Ġidstvo": 6709,
      "ĠÃŃskn": 6710,
      "Ġexp": 6711,
      "Ġeobj": 6712,
      "ĠoÃ¡": 6713,
      "Ġtw": 6714,
      "Ġasb": 6715,
      "Ġits": 6716,
      "Ġerst": 6717,
      "Ġevkr": 6718,
      "Ġevzk": 6719,
      "Ġizr": 6720,
      "Ġvzdat": 6721,
      "Ġihat": 6722,
      "ĠrpÄĽl": 6723,
      "ĠobnÄĽ": 6724,
      "Ġchmur": 6725,
      "ĠyÅ¡nÄĽ": 6726,
      "ĠimnÄĽ": 6727,
      "Ġsnuv": 6728,
      "ĠABBABX": 6729,
      "ĠAXBBAX": 6730,
      "ĠudÅ¡i": 6731,
      "Ġecham": 6732,
      "Ġepal": 6733,
      "ĠÄĽzu": 6734,
      "ĠuÄįit": 6735,
      "ĠuÄįku": 6736,
      "neÅ¡": 6737,
      "ĠÃ½vk": 6738,
      "Ġibu": 6739,
      "ĠvstaÅĪ": 6740,
      "Ġior": 6741,
      "ĠÅ¯dÄį": 6742,
      "Ġihnout": 6743,
      "ĠÄĽtvi": 6744,
      "Ġindy": 6745,
      "ĠABCAC": 6746,
      "ĠABCACB": 6747,
      "Ġlsk": 6748,
      "Ġerym": 6749,
      "ĠaÅ¾im": 6750,
      "Ġutc": 6751,
      "Ġistk": 6752,
      "ĠaÄįal": 6753,
      "Ġdrah": 6754,
      "ĠeÄįno": 6755,
      "Ġozvzt": 6756,
      "Ġechno": 6757,
      "ĠesnÄĽ": 6758,
      "Ġokno": 6759,
      "ĠoÅĪm": 6760,
      "Ġijdou": 6761,
      "Ġukla": 6762,
      "Ġefn": 6763,
      "ĠovÅ¡em": 6764,
      "Ġezhv": 6765,
      "ĠABXABX": 6766,
      "Ġoab": 6767,
      "Ġathl": 6768,
      "Ġonim": 6769,
      "Ġosel": 6770,
      "ĠuÅ¡Äį": 6771,
      "Ġulu": 6772,
      "Ġulku": 6773,
      "Ġtrh": 6774,
      "Ġchlap": 6775,
      "Ġovnu": 6776,
      "Ġandu": 6777,
      "Ġipem": 6778,
      "Ġospas": 6779,
      "Ġemske": 6780,
      "Ġunkt": 6781,
      "ĠAXXAXX": 6782,
      "ĠivÅ¡e": 6783,
      "Ġyac": 6784,
      "sch": 6785,
      "Ġaer": 6786,
      "ĠmÅĪ": 6787,
      "Ġlit": 6788,
      "Ġilt": 6789,
      "ĠÄįert": 6790,
      "ĠudiÅ¡": 6791,
      "ĠiÅ¾it": 6792,
      "ĠoÅ¡kv": 6793,
      "ĠÃŃstn": 6794,
      "Ġomnost": 6795,
      "Ġrtvych": 6796,
      "Ġanty": 6797,
      "ĠrÅ¾k": 6798,
      "Ġebnou": 6799,
      "Ġerth": 6800,
      "Ġofr": 6801,
      "ĠmÄĽch": 6802,
      "Ġodnes": 6803,
      "ĠeupÅĻ": 6804,
      "Ġryh": 6805,
      "Ġaem": 6806,
      "Ġtyn": 6807,
      "Ġalch": 6808,
      "Ġiluj": 6809,
      "Ġodam": 6810,
      "ĠÅ¾ert": 6811,
      "Ġobsk": 6812,
      "ĠÄĽtstvi": 6813,
      "Ġetku": 6814,
      "Ġajen": 6815,
      "Ġutich": 6816,
      "Ġapce": 6817,
      "ĠiÄįni": 6818,
      "ĠaniÅ¡": 6819,
      "Ġvrch": 6820,
      "ĠÄĽtlu": 6821,
      "Ġystl": 6822,
      "ĠÅ¯zl": 6823,
      "ĠuÅ¡iÅ¡": 6824,
      "Ġztrat": 6825,
      "Ġoule": 6826,
      "ĠÃ½ÅĻsk": 6827,
      "ĠitÅĻk": 6828,
      "Ġytkn": 6829,
      "Ġudrl": 6830,
      "ĠÃ¶r": 6831,
      "oÅĻ": 6832,
      "Ġakon": 6833,
      "Ġedek": 6834,
      "ĠaÅ¾ky": 6835,
      "Ġukc": 6836,
      "ĠyÅ¾s": 6837,
      "Ġimou": 6838,
      "Ġlno": 6839,
      "ĠÃŃdm": 6840,
      "Ġelkem": 6841,
      "Ġovnych": 6842,
      "Ġyrrh": 6843,
      "ĠÃŃjm": 6844,
      "Ġajdu": 6845,
      "Ġaznou": 6846,
      "ĠosmÄĽch": 6847,
      "ĠÄĽlec": 6848,
      "ĠespÅĻ": 6849,
      "Ġeim": 6850,
      "Ġzisk": 6851,
      "Ġmok": 6852,
      "Ġelek": 6853,
      "ĠpÅĻej": 6854,
      "ĠamÅ¥": 6855,
      "Ġozem": 6856,
      "Ġicem": 6857,
      "ĠoÅ¾ky": 6858,
      "ĠiÄįen": 6859,
      "Ġohlav": 6860,
      "Ġtmi": 6861,
      "Ġrnem": 6862,
      "Ġibit": 6863,
      "ĠouÅ¡ka": 6864,
      "Ġrze": 6865,
      "ĠÃ½lc": 6866,
      "Ġervy": 6867,
      "Ġertr": 6868,
      "Ġejvr": 6869,
      "Ġukly": 6870,
      "Ġislav": 6871,
      "ĠeÃºr": 6872,
      "ĠeÃºst": 6873,
      "sp": 6874,
      "vl": 6875,
      "ĠkouÅĻ": 6876,
      "Ġroh": 6877,
      "Ġsved": 6878,
      "Ġolej": 6879,
      "Ġomoz": 6880,
      "ĠspÄĽj": 6881,
      "Ġblah": 6882,
      "Ġastech": 6883,
      "Ġuma": 6884,
      "Ġvryt": 6885,
      "Ġvryl": 6886,
      "ĠchtiÄį": 6887,
      "ĠozkoÅ¡": 6888,
      "Ġalnym": 6889,
      "ĠiÅ¡tich": 6890,
      "Ġezdv": 6891,
      "ĠavÅĻel": 6892,
      "Ġytnou": 6893,
      "Ġunny": 6894,
      "Ġaal": 6895,
      "Ġsic": 6896,
      "ĠÄĽjem": 6897,
      "ĠuÅ¾stvi": 6898,
      "Ġulm": 6899,
      "Ġijou": 6900,
      "Ġupe": 6901,
      "ĠÃ³dn": 6902,
      "Ġoupu": 6903,
      "ĠoÅ¡tv": 6904,
      "Ġlzach": 6905,
      "ĠuÄıte": 6906,
      "Ġodra": 6907,
      "ĠÄĽrnych": 6908,
      "Ġjev": 6909,
      "Ġeokl": 6910,
      "Ġovskych": 6911,
      "Ġialky": 6912,
      "Ġezvl": 6913,
      "ĠleÄį": 6914,
      "Ġenr": 6915,
      "Ġekni": 6916,
      "Ġidit": 6917,
      "Ġednich": 6918,
      "Ġulky": 6919,
      "Ġkvet": 6920,
      "ĠuÄįin": 6921,
      "ĠÄĽdku": 6922,
      "Ġbrod": 6923,
      "Ġoupe": 6924,
      "ĠÃ½Å¡c": 6925,
      "ĠlÄįel": 6926,
      "Ġobnou": 6927,
      "ĠaÄįiÅ¡": 6928,
      "Ġcnost": 6929,
      "ĠAXBABX": 6930,
      "iÄı": 6931,
      "Ġessk": 6932,
      "Ġarky": 6933,
      "Ġepem": 6934,
      "ĠdruÅ¾": 6935,
      "Ġocht": 6936,
      "Ġemno": 6937,
      "ĠÄĽcm": 6938,
      "and": 6939,
      "ĠlÄįt": 6940,
      "Ġatec": 6941,
      "Ġechta": 6942,
      "Ġumna": 6943,
      "Ġltn": 6944,
      "Ġella": 6945,
      "Ġtisk": 6946,
      "Ġaick": 6947,
      "Ġpust": 6948,
      "Ġovky": 6949,
      "Ġavku": 6950,
      "Ġstah": 6951,
      "Ġostel": 6952,
      "Ġetka": 6953,
      "Ġeben": 6954,
      "ĠuÅ¾Å¡i": 6955,
      "Ġchvit": 6956,
      "Ġchlum": 6957,
      "ĠÄĽhne": 6958,
      "ĠÅ¯lkr": 6959,
      "ĠÄĽrnost": 6960,
      "Ġvnuk": 6961,
      "Ġikly": 6962,
      "Ġhmyz": 6963,
      "Ġezti": 6964,
      "ĠABBXAX": 6965,
      "Ġychrl": 6966,
      "Ġadej": 6967,
      "Ġinfr": 6968,
      "Ġivr": 6969,
      "ĠoÄįky": 6970,
      "Ġhrach": 6971,
      "ĠÃŃchl": 6972,
      "Ġstrop": 6973,
      "Ġenic": 6974,
      "ĠÄĽrÄį": 6975,
      "Ġouzd": 6976,
      "Ġadnu": 6977,
      "Ġoubek": 6978,
      "ĠÄĽcku": 6979,
      "Ġyskem": 6980,
      "Ġudbu": 6981,
      "Ġrhnul": 6982,
      "Ġvpad": 6983,
      "Ġihlo": 6984,
      "Ġouvl": 6985,
      "Ġew": 6986,
      "ĠvÄĽt": 6987,
      "Ġrev": 6988,
      "Ġprut": 6989,
      "Ġines": 6990,
      "Ġosc": 6991,
      "Ġezkl": 6992,
      "Ġeskni": 6993,
      "ĠÅ¯jm": 6994,
      "Ġirg": 6995,
      "Ġozval": 6996,
      "ĠiÅ¡lo": 6997,
      "Ġenska": 6998,
      "Ġilla": 6999,
      "Ġmhou": 7000,
      "Ġvjel": 7001,
      "Ġeap": 7002,
      "Ġavzl": 7003,
      "ĠiÃ©r": 7004,
      "Ġatd": 7005,
      "ĠatÅ¡i": 7006,
      "Ġobci": 7007,
      "Ġetat": 7008,
      "ĠidaÅ¡": 7009,
      "Ġezs": 7010,
      "ĠÄĽnek": 7011,
      "Ġapou": 7012,
      "ĠÄĽmÄĽl": 7013,
      "Ġouhu": 7014,
      "Ġbrach": 7015,
      "ĠivnÄĽ": 7016,
      "ĠeoÅ¡": 7017,
      "Ġydne": 7018,
      "ĠÃ½rk": 7019,
      "ĠitÅĻni": 7020,
      "Ġilko": 7021,
      "Ġirnou": 7022,
      "Ġdcer": 7023,
      "Ġeou": 7024,
      "Ġiq": 7025,
      "Ġiav": 7026,
      "Ġryl": 7027,
      "Ġemoc": 7028,
      "Ġadd": 7029,
      "Ġelel": 7030,
      "Ġankr": 7031,
      "ĠÅ¾ni": 7032,
      "Ġolen": 7033,
      "Ġostor": 7034,
      "ĠÄĽtou": 7035,
      "Ġosof": 7036,
      "ĠeÅ¡il": 7037,
      "Ġdrozd": 7038,
      "ĠÃŃÅ¾sk": 7039,
      "ĠiÅ¡sk": 7040,
      "Ġgj": 7041,
      "ĠeneÅ¡": 7042,
      "Ġctit": 7043,
      "ĠouÄįka": 7044,
      "ĠiÄįny": 7045,
      "Ġupny": 7046,
      "Ġolkn": 7047,
      "Ġaksi": 7048,
      "Ġoldr": 7049,
      "ĠchyÅ¾": 7050,
      "Ġaed": 7051,
      "Ġoob": 7052,
      "ĠelÅ¥": 7053,
      "Ġevk": 7054,
      "Ġopat": 7055,
      "ĠaÅ¡ky": 7056,
      "Ġustim": 7057,
      "Ġarnych": 7058,
      "ĠÄĽÅ¡e": 7059,
      "Ġennych": 7060,
      "Ġschm": 7061,
      "Ġitnul": 7062,
      "Ġshled": 7063,
      "Ġedba": 7064,
      "Ġizdo": 7065,
      "ĠeuÅ¡k": 7066,
      "hn": 7067,
      "ĠÄįast": 7068,
      "ĠÄįesÅ¥": 7069,
      "Ġonich": 7070,
      "Ġslok": 7071,
      "Ġarych": 7072,
      "Ġori": 7073,
      "ĠÃŃkÅĻ": 7074,
      "ĠÄĽstou": 7075,
      "ĠÄĽmec": 7076,
      "ĠlhaÅĻ": 7077,
      "Ġennim": 7078,
      "Ġoucho": 7079,
      "Ġokny": 7080,
      "Ġasyl": 7081,
      "Ġotny": 7082,
      "Ġomsty": 7083,
      "ĠemÅĻel": 7084,
      "Ġyjde": 7085,
      "ĠleÅ¥": 7086,
      "ĠXABXAB": 7087,
      "Ġux": 7088,
      "Ġelni": 7089,
      "Ġsvah": 7090,
      "Ġoknech": 7091,
      "Ġosne": 7092,
      "ĠidÅ¡t": 7093,
      "ĠsniÅ¡": 7094,
      "Ġustk": 7095,
      "Ġeckt": 7096,
      "ĠeÄįnik": 7097,
      "Ġeupr": 7098,
      "Ġetnych": 7099,
      "Ġanskou": 7100,
      "ĠaÅĻec": 7101,
      "ĠÄĽznÄĽ": 7102,
      "Ġobzvl": 7103,
      "ĠÄĽÅ¡ti": 7104,
      "Ġiaty": 7105,
      "ĠsmrÅ¥": 7106,
      "Ġaan": 7107,
      "Ġiak": 7108,
      "ĠÃ¡g": 7109,
      "Ġadum": 7110,
      "ĠediÅ¡": 7111,
      "Ġotsk": 7112,
      "Ġome": 7113,
      "Ġezen": 7114,
      "Ġasta": 7115,
      "Ġastup": 7116,
      "Ġstrast": 7117,
      "Ġoudim": 7118,
      "Ġenin": 7119,
      "Ġymem": 7120,
      "Ġostnem": 7121,
      "Ġejno": 7122,
      "ĠevÅĻit": 7123,
      "Ġouval": 7124,
      "Ġykly": 7125,
      "ĠuÅ¾ko": 7126,
      "ĠimÅ¾t": 7127,
      "ĠÄĽpl": 7128,
      "ĠtuÅĪ": 7129,
      "ĠykÅĻik": 7130,
      "Ġabsb": 7131,
      "Ġoyal": 7132,
      "Ġhus": 7133,
      "Ġakch": 7134,
      "Ġaret": 7135,
      "ĠuÅ¡ek": 7136,
      "Ġikych": 7137,
      "Ġapem": 7138,
      "ĠÃ¡zv": 7139,
      "Ġzbor": 7140,
      "Ġenius": 7141,
      "Ġjdu": 7142,
      "Ġenkam": 7143,
      "ĠÄĽjÅ¡k": 7144,
      "ĠAXAABB": 7145,
      "Ġikli": 7146,
      "Ġodml": 7147,
      "Ġaursk": 7148,
      "Ġazdny": 7149,
      "iÅĪ": 7150,
      "ĠenÅ¡i": 7151,
      "Ġodat": 7152,
      "Ġodce": 7153,
      "ĠolesÅ¥": 7154,
      "ĠostÅ¡": 7155,
      "ĠozÅ¡t": 7156,
      "Ġukt": 7157,
      "Ġimsk": 7158,
      "Ġstrh": 7159,
      "Ġuhym": 7160,
      "Ġupce": 7161,
      "nes": 7162,
      "ĠÄĽÄįnem": 7163,
      "Ġiskat": 7164,
      "Ġehnul": 7165,
      "Ġounky": 7166,
      "ĠonÄįi": 7167,
      "ĠimaÅ¡": 7168,
      "ĠÄĽtska": 7169,
      "ĠestnÄĽ": 7170,
      "Ġiter": 7171,
      "ĠuÅ¾ba": 7172,
      "Ġourb": 7173,
      "Ġilly": 7174,
      "ĠechvÄĽn": 7175,
      "Ġibkem": 7176,
      "Ġopis": 7177,
      "Ġivier": 7178,
      "ĠauÄįi": 7179,
      "ĠdÅ¾ban": 7180,
      "ĠAXXABB": 7181,
      "Ġaq": 7182,
      "Ġlom": 7183,
      "Ġilci": 7184,
      "ĠodaÅĻ": 7185,
      "Ġkrad": 7186,
      "Ġosch": 7187,
      "ĠÃ³Å¾": 7188,
      "Ġodlil": 7189,
      "Ġalii": 7190,
      "Ġivna": 7191,
      "ĠbÅĻiz": 7192,
      "Ġyjm": 7193,
      "ĠaÅ¡lo": 7194,
      "Ġezli": 7195,
      "Ġalvan": 7196,
      "Ġakvi": 7197,
      "Ġiate": 7198,
      "Ġozzl": 7199,
      "Ġujde": 7200,
      "Ġujdu": 7201,
      "Ġedky": 7202,
      "Ġotky": 7203,
      "Ġeten": 7204,
      "Ġslz": 7205,
      "ĠsluÅ¾": 7206,
      "Ġikc": 7207,
      "Ġopal": 7208,
      "ĠuknÄĽ": 7209,
      "Ġabor": 7210,
      "ĠÄĽvi": 7211,
      "ĠÄĽÅ¾m": 7212,
      "ĠÄĽzil": 7213,
      "ĠÄĽzni": 7214,
      "ĠuÄįni": 7215,
      "Ġenik": 7216,
      "Ġozdy": 7217,
      "Ġomna": 7218,
      "Ġalnem": 7219,
      "Ġvzrust": 7220,
      "Ġuhli": 7221,
      "ĠÃ½Å¾Äı": 7222,
      "Ġortn": 7223,
      "ĠadeÅ¾": 7224,
      "Ġspjal": 7225,
      "Ġdbal": 7226,
      "Ġadby": 7227,
      "Ġouzvuk": 7228,
      "dh": 7229,
      "Ġead": 7230,
      "Ġoin": 7231,
      "Ġoor": 7232,
      "Ġdz": 7233,
      "Ġolet": 7234,
      "Ġamym": 7235,
      "Ġebil": 7236,
      "ĠeÅ¾r": 7237,
      "ĠÃ¡db": 7238,
      "Ġazan": 7239,
      "ĠiÅ¾ku": 7240,
      "ĠAABABX": 7241,
      "Ġznik": 7242,
      "Ġubem": 7243,
      "Ġbrav": 7244,
      "ĠaÅĻky": 7245,
      "Ġasno": 7246,
      "ĠÃ¡jc": 7247,
      "Ġoubku": 7248,
      "ĠdÅĻev": 7249,
      "ĠyÅ¡lel": 7250,
      "ĠrÅ¾e": 7251,
      "ĠaciÅ¡": 7252,
      "Ġadro": 7253,
      "Ġosby": 7254,
      "Ġytli": 7255,
      "ĠXAXXXA": 7256,
      "och": 7257,
      "Ġyob": 7258,
      "ĠakÅ¥": 7259,
      "Ġalas": 7260,
      "Ġovel": 7261,
      "Ġstisk": 7262,
      "ĠÄĽlam": 7263,
      "Ġarka": 7264,
      "Ġajc": 7265,
      "Ġylen": 7266,
      "Ġezou": 7267,
      "ĠeÅ¾et": 7268,
      "ĠÄĽjnÄĽ": 7269,
      "ĠiÄįel": 7270,
      "Ġuschn": 7271,
      "Ġabz": 7272,
      "ĠAABBBB": 7273,
      "ĠÄĽÄįe": 7274,
      "Ġilich": 7275,
      "Ġavnym": 7276,
      "ĠschÅĻ": 7277,
      "ĠeoÅ¾": 7278,
      "Ġitbu": 7279,
      "Ġmus": 7280,
      "Ġiskup": 7281,
      "Ġorgii": 7282,
      "ĠiaÅ¡e": 7283,
      "ĠemÄį": 7284,
      "Ġotal": 7285,
      "Ġarost": 7286,
      "ĠeÅ¾iÅ¡": 7287,
      "Ġspit": 7288,
      "Ġujou": 7289,
      "ĠÄĽrb": 7290,
      "Ġmrou": 7291,
      "Ġantr": 7292,
      "ĠuÅ¾eb": 7293,
      "ĠuÅ¾na": 7294,
      "Ġitby": 7295,
      "Ġondy": 7296,
      "Ġianu": 7297,
      "ĠizdÄĽ": 7298,
      "Ġogn": 7299,
      "Ġinske": 7300,
      "ĠyÃ¡Å¡": 7301,
      "ĠevzkÅĻ": 7302,
      "Ã©": 7303,
      "ĠÃ©Å¡t": 7304,
      "ĠbiÄį": 7305,
      "Ġinen": 7306,
      "Ġinstr": 7307,
      "Ġostni": 7308,
      "ĠÄĽlit": 7309,
      "Ġonni": 7310,
      "Ġorni": 7311,
      "ĠoÄįb": 7312,
      "Ġecl": 7313,
      "ĠuÅ¾as": 7314,
      "Ġlnu": 7315,
      "ĠhnÄĽt": 7316,
      "Ġirej": 7317,
      "Ġernem": 7318,
      "Ġarnost": 7319,
      "ĠtmÄĽ": 7320,
      "Ġsklad": 7321,
      "ĠÅ¯hv": 7322,
      "Ġozvl": 7323,
      "Ġinkt": 7324,
      "Ġosku": 7325,
      "Ġeteor": 7326,
      "Ġitba": 7327,
      "Ġedmd": 7328,
      "Ġiansk": 7329,
      "Ġalbr": 7330,
      "ĠÃºrn": 7331,
      "Ġaltd": 7332,
      "Ġenul": 7333,
      "Ġstoup": 7334,
      "Ġulek": 7335,
      "Ġync": 7336,
      "ĠiÅ¡il": 7337,
      "Ġernim": 7338,
      "Ġannim": 7339,
      "ĠouÄįky": 7340,
      "Ġatruj": 7341,
      "ĠejÅ¾t": 7342,
      "ĠovÄĽst": 7343,
      "Ġown": 7344,
      "Ġemem": 7345,
      "ĠadiÅ¡": 7346,
      "ĠÅ¾Äı": 7347,
      "Ġamor": 7348,
      "Ġkdo": 7349,
      "Ġslech": 7350,
      "Ġechne": 7351,
      "Ġsmi": 7352,
      "Ġvlal": 7353,
      "ĠÃŃÅ¾c": 7354,
      "Ġacc": 7355,
      "ĠkÅĻest": 7356,
      "ĠeÅĻt": 7357,
      "ĠÄĽsl": 7358,
      "ĠhÅĻeb": 7359,
      "Ġipt": 7360,
      "Ġoufal": 7361,
      "Ġrhly": 7362,
      "Ġuznych": 7363,
      "ĠhÅĻmÄĽl": 7364,
      "ĠupnÄĽ": 7365,
      "ĠoÅ¾sky": 7366,
      "ĠumÅĻel": 7367,
      "Ġcvrl": 7368,
      "Ġealem": 7369,
      "Ġdchn": 7370,
      "Ġalet": 7371,
      "Ġesd": 7372,
      "Ġerz": 7373,
      "Ġekych": 7374,
      "ĠeviÅ¡": 7375,
      "Ġspn": 7376,
      "Ġychat": 7377,
      "ĠÄĽse": 7378,
      "ĠÄĽzdne": 7379,
      "ĠhÅĻe": 7380,
      "Ġodlim": 7381,
      "Ġrnych": 7382,
      "Ġatno": 7383,
      "Ġeoz": 7384,
      "ĠÄĽtry": 7385,
      "Ġestny": 7386,
      "ĠÄĽzdna": 7387,
      "Ġoplach": 7388,
      "Ġeff": 7389,
      "ĠÄĽdna": 7390,
      "Ġetra": 7391,
      "ĠÃ©sÅ¥": 7392,
      "ĠXAAABB": 7393,
      "Ġaclav": 7394,
      "ĠeÅ¯": 7395,
      "ĠemÅ¡": 7396,
      "Ġelci": 7397,
      "Ġojb": 7398,
      "ĠojÅ¡t": 7399,
      "Ġarad": 7400,
      "Ġopce": 7401,
      "Ġacb": 7402,
      "Ġustat": 7403,
      "Ġomnit": 7404,
      "Ġeukl": 7405,
      "Ġivni": 7406,
      "ĠÄĽÅ¾ke": 7407,
      "Ġanno": 7408,
      "Ġeodl": 7409,
      "Ġanck": 7410,
      "Ġater": 7411,
      "Ġilec": 7412,
      "ĠudbÄĽ": 7413,
      "Ġelsky": 7414,
      "ĠÃŃÅĪc": 7415,
      "Ġitvy": 7416,
      "Ġichla": 7417,
      "Ġalby": 7418,
      "ĠABAABB": 7419,
      "Ġazdno": 7420,
      "yÅĪ": 7421,
      "ĠÃ©e": 7422,
      "Ġelin": 7423,
      "Ġejic": 7424,
      "Ġojz": 7425,
      "Ġslab": 7426,
      "Ġudsk": 7427,
      "ÄĽp": 7428,
      "ĠiÅ¾ek": 7429,
      "Ġeskych": 7430,
      "ĠÄĽzit": 7431,
      "Ġhne": 7432,
      "Ġhnus": 7433,
      "Ġeniz": 7434,
      "ĠuvÄį": 7435,
      "Ġuvim": 7436,
      "ĠeÄįnem": 7437,
      "Ġoubil": 7438,
      "ĠuÄıs": 7439,
      "Ġskla": 7440,
      "Ġodpor": 7441,
      "Ġtli": 7442,
      "Ġ37": 7443,
      "Ġanska": 7444,
      "Ġenskych": 7445,
      "ĠetÅĻt": 7446,
      "ĠitbÄĽ": 7447,
      "ĠyÅ¡Å¡im": 7448,
      "Ġalkou": 7449,
      "ĠestÅĻel": 7450,
      "Ġodhr": 7451,
      "ĠitvÄĽ": 7452,
      "Ġodtud": 7453,
      "Ġodchn": 7454,
      "Ġeobst": 7455,
      "Ġysvl": 7456,
      "Ġdnuv": 7457,
      "Ġpyr": 7458,
      "Ġslit": 7459,
      "Ġudim": 7460,
      "Ġarum": 7461,
      "ĠÃ¡nv": 7462,
      "Ġict": 7463,
      "Ġahych": 7464,
      "Ġplul": 7465,
      "Ġrtil": 7466,
      "Ġtram": 7467,
      "ĠÄĽÅ¾el": 7468,
      "Ġacne": 7469,
      "ĠÃ³t": 7470,
      "Ġochod": 7471,
      "Ġiham": 7472,
      "ĠÃ¡bk": 7473,
      "ĠouÄįim": 7474,
      "Ġehli": 7475,
      "Ġezkou": 7476,
      "Ġytny": 7477,
      "Ġyskly": 7478,
      "ĠXABBAA": 7479,
      "Ġienn": 7480,
      "ĠÅ¡prym": 7481,
      "au": 7482,
      "Ġaw": 7483,
      "Ġyon": 7484,
      "Ġhoj": 7485,
      "Ġodci": 7486,
      "ĠamÄĽt": 7487,
      "Ġomim": 7488,
      "Ġestne": 7489,
      "ĠpleÅ¥": 7490,
      "ĠednÄĽ": 7491,
      "ĠzviÅ¡": 7492,
      "Ġuld": 7493,
      "ĠXAABBB": 7494,
      "ĠÃ¡rsk": 7495,
      "ĠÄĽvnÄĽ": 7496,
      "ĠÄĽdci": 7497,
      "Ġisil": 7498,
      "Ġuzky": 7499,
      "ĠstÅĻas": 7500,
      "Ġibej": 7501,
      "Ġatnych": 7502,
      "Ġetlem": 7503,
      "ĠouÅ¡tim": 7504,
      "Ġeknu": 7505,
      "Å¡tr": 7506,
      "Ġurna": 7507,
      "ĠrÅ¡ku": 7508,
      "Ġialn": 7509,
      "Ġazdni": 7510,
      "Ġiosn": 7511,
      "ĠpÄĽj": 7512,
      "Ġakd": 7513,
      "ĠÄĽlt": 7514,
      "Ġidku": 7515,
      "ĠABCBC": 7516,
      "Ġahym": 7517,
      "ĠeÅ¾b": 7518,
      "ĠocÅĪ": 7519,
      "ĠiÅ¾ky": 7520,
      "Ġzlo": 7521,
      "Ġachc": 7522,
      "Ġuhum": 7523,
      "Ġurkr": 7524,
      "Ġadkem": 7525,
      "Ġotrl": 7526,
      "Ġaktn": 7527,
      "Ġehke": 7528,
      "Ġapsy": 7529,
      "ĠspÅĻeÅ¾": 7530,
      "Ġytmy": 7531,
      "Ġetty": 7532,
      "ĠedÄįi": 7533,
      "ĠABCBCA": 7534,
      "Ġee": 7535,
      "Ġvkus": 7536,
      "Ġkul": 7537,
      "Ġalz": 7538,
      "ĠanÄĽt": 7539,
      "Ġaren": 7540,
      "ĠÃ¡vl": 7541,
      "ĠÃ¡vÄį": 7542,
      "ĠaÅ¾ku": 7543,
      "Ġuja": 7544,
      "Ġubsk": 7545,
      "Ġovno": 7546,
      "Ġeznu": 7547,
      "ĠÄįlun": 7548,
      "ĠyÅ¡let": 7549,
      "Ġandsk": 7550,
      "Ġipi": 7551,
      "Ġctil": 7552,
      "Ġervu": 7553,
      "ĠechtÄĽl": 7554,
      "Ġihli": 7555,
      "Ġeodch": 7556,
      "ĠodÄĽk": 7557,
      "Ġzhled": 7558,
      "ĠyÅĪt": 7559,
      "ĠsÅĪal": 7560,
      "Ġinsp": 7561,
      "iel": 7562,
      "ĠiuÄį": 7563,
      "Ġuos": 7564,
      "Ġvit": 7565,
      "Ġrez": 7566,
      "Ġasam": 7567,
      "ĠivÅ¡i": 7568,
      "ĠonÄĽn": 7569,
      "ĠÃŃtc": 7570,
      "ĠABXX": 7571,
      "Ġezich": 7572,
      "Ġezkv": 7573,
      "ĠABABXA": 7574,
      "Ġikej": 7575,
      "Ġhru": 7576,
      "ĠepÄĽ": 7577,
      "Ġistym": 7578,
      "ĠyÅ¡ÅĪ": 7579,
      "Ġdrat": 7580,
      "Ġabem": 7581,
      "Ġizte": 7582,
      "ĠaÅ¾de": 7583,
      "ĠhÅĻal": 7584,
      "Ġlza": 7585,
      "Ġset": 7586,
      "ĠÄĽÅ¡it": 7587,
      "Ġyrk": 7588,
      "ĠaÄįnÄĽ": 7589,
      "ĠouÄįil": 7590,
      "ĠÄĽtske": 7591,
      "ĠedneÅ¡": 7592,
      "ĠestÅĻe": 7593,
      "Ġiala": 7594,
      "ĠodstÅĻ": 7595,
      "Ġeandr": 7596,
      "Ġiove": 7597,
      "Ġitmi": 7598,
      "Ġdit": 7599,
      "Ġouis": 7600,
      "ĠchyÅ¡": 7601,
      "Ġeju": 7602,
      "Ġomsb": 7603,
      "Ġorky": 7604,
      "Ġsmir": 7605,
      "Ġepot": 7606,
      "Ġistus": 7607,
      "ĠaÄįet": 7608,
      "Ġachyn": 7609,
      "Ġznoj": 7610,
      "Ġoutech": 7611,
      "Ġycham": 7612,
      "Ġirsk": 7613,
      "ĠÄĽÅ¡ce": 7614,
      "Ġrham": 7615,
      "Ġavnem": 7616,
      "Ġjez": 7617,
      "Ġinuv": 7618,
      "Ġancich": 7619,
      "ĠonÄįin": 7620,
      "ĠrÅ¡Å¥": 7621,
      "ĠerÅ¡e": 7622,
      "Ġelske": 7623,
      "Ġehdy": 7624,
      "Ġohoum": 7625,
      "Ġobech": 7626,
      "ĠÃŃmk": 7627,
      "ĠozÅ¥": 7628,
      "Ġiden": 7629,
      "Ġvzad": 7630,
      "ĠuÅ¡a": 7631,
      "Ġukot": 7632,
      "ĠÄĽstm": 7633,
      "ĠaÅĻb": 7634,
      "Ġirku": 7635,
      "ĠptaÅ¡": 7636,
      "ĠouÅ¾en": 7637,
      "Ġomni": 7638,
      "Ġtlak": 7639,
      "ĠrÅ¾n": 7640,
      "ĠospÄĽch": 7641,
      "Ġyden": 7642,
      "ĠoÅĪstv": 7643,
      "ĠÄĽkkou": 7644,
      "ĠÄĽÅ¡tn": 7645,
      "Ġapsal": 7646,
      "ĠenÄįi": 7647,
      "Ġovzt": 7648,
      "ĠovÅ¡t": 7649,
      "Ġavek": 7650,
      "ĠobÅ¡": 7651,
      "Ġaman": 7652,
      "Ġekan": 7653,
      "ĠÅ¡eÄı": 7654,
      "Ġosni": 7655,
      "Ġylim": 7656,
      "ĠutÄĽk": 7657,
      "Ġapen": 7658,
      "ĠyÅ¡ni": 7659,
      "Ġlnn": 7660,
      "Ġchvost": 7661,
      "Ġoutc": 7662,
      "Ġoutan": 7663,
      "Ġizich": 7664,
      "ĠaÅ¾dil": 7665,
      "Ġilach": 7666,
      "Ġyvej": 7667,
      "ĠoÅ¾nÄĽ": 7668,
      "Ġycp": 7669,
      "Ġento": 7670,
      "Ġiklo": 7671,
      "Ġegie": 7672,
      "Ġetby": 7673,
      "ĠumÅĻit": 7674,
      "Ġinsky": 7675,
      "Ġodsl": 7676,
      "ĠÅ¾hnou": 7677,
      "ĠadÄįl": 7678,
      "yc": 7679,
      "Ġeak": 7680,
      "Ġper": 7681,
      "Ġakou": 7682,
      "Ġodzn": 7683,
      "Ġivek": 7684,
      "Ġamz": 7685,
      "ĠarÅ¡i": 7686,
      "Ġidej": 7687,
      "ĠABAA": 7688,
      "ĠevÄĽ": 7689,
      "Ġeste": 7690,
      "ĠeÄįim": 7691,
      "ĠaÅ¾k": 7692,
      "ĠaÅ¾te": 7693,
      "ĠiÅ¾iÅ¡": 7694,
      "Ġulg": 7695,
      "ĠiÄįsk": 7696,
      "Ġdral": 7697,
      "ĠuÄįc": 7698,
      "Ġzrat": 7699,
      "Ġouzen": 7700,
      "Ġykne": 7701,
      "ĠeznÄĽ": 7702,
      "Ġvstat": 7703,
      "Ġinnem": 7704,
      "Ġoufam": 7705,
      "Ġerta": 7706,
      "ĠÄĽtÅ¡im": 7707,
      "Ġajny": 7708,
      "ĠÃ½ÅĻk": 7709,
      "Ġarty": 7710,
      "Ġieru": 7711,
      "ĠÄĽdra": 7712,
      "ĠozÅ¡kl": 7713,
      "ĠÃ¶rg": 7714,
      "ĠABAAAB": 7715,
      "ĠdiÅ¡": 7716,
      "Ġenh": 7717,
      "ĠÅ¯sm": 7718,
      "Ġedj": 7719,
      "Ġobku": 7720,
      "Ġeral": 7721,
      "Ġomhl": 7722,
      "Ġudym": 7723,
      "ĠudiÅ¾": 7724,
      "Ġhry": 7725,
      "ĠÄĽkam": 7726,
      "Ġabstr": 7727,
      "Ġouhym": 7728,
      "ĠdliÅ¡": 7729,
      "ĠypÅ¥": 7730,
      "ĠÄĽÅĻm": 7731,
      "Ġasli": 7732,
      "Ġavuj": 7733,
      "Ġerty": 7734,
      "Ġoudrost": 7735,
      "Ġrhnou": 7736,
      "Ġiklad": 7737,
      "ĠitÅĻi": 7738,
      "ĠoÅ¡li": 7739,
      "Ġthr": 7740,
      "ĠAXBA": 7741,
      "Ġextr": 7742,
      "ĠiÃ¡nsk": 7743,
      "Ġaopak": 7744,
      "ĠdceÅĻ": 7745,
      "Ġatan": 7746,
      "Ġstoh": 7747,
      "Ġcep": 7748,
      "Ġrdost": 7749,
      "Ġazz": 7750,
      "Ġysni": 7751,
      "Ġizrak": 7752,
      "Ġurem": 7753,
      "Ġurou": 7754,
      "ĠouÅ¾iÅ¡": 7755,
      "ĠauÅĻ": 7756,
      "ĠÄĽsnou": 7757,
      "ĠajdeÅ¡": 7758,
      "ĠÃ½nc": 7759,
      "ĠvÄĽst": 7760,
      "Ġeumim": 7761,
      "Ġazkou": 7762,
      "Ġaelsk": 7763,
      "Ġvzpjal": 7764,
      "Ġufr": 7765,
      "ĠÄĽjme": 7766,
      "ĠÃ¡stv": 7767,
      "ĠkÅ¡": 7768,
      "Ġenam": 7769,
      "Ġobky": 7770,
      "Ġerce": 7771,
      "Ġozky": 7772,
      "Ġoki": 7773,
      "Ġehka": 7774,
      "Ġehum": 7775,
      "ĠuÅ¾en": 7776,
      "ĠaÅ¡ku": 7777,
      "ĠÃŃrc": 7778,
      "ĠeÅĻstv": 7779,
      "Ġoupim": 7780,
      "Ġohly": 7781,
      "Ġjdi": 7782,
      "ĠÄĽÅĻiÅ¡": 7783,
      "ĠouÅ¡tÄĽl": 7784,
      "Ġudnym": 7785,
      "Ġmdlob": 7786,
      "Ġoulc": 7787,
      "Ġ38": 7788,
      "ĠmiÅĪ": 7789,
      "ĠolaÅ¡": 7790,
      "ĠÃ¡Äįkn": 7791,
      "ĠaÅ¡ny": 7792,
      "Ġorli": 7793,
      "Ġiskry": 7794,
      "Ġinii": 7795,
      "Ġogm": 7796,
      "ĠABAABA": 7797,
      "Ġacke": 7798,
      "Ġooka": 7799,
      "ĠXAXXAX": 7800,
      "Ġtek": 7801,
      "Ġprs": 7802,
      "Ġonak": 7803,
      "Ġohar": 7804,
      "ĠeÅ¾im": 7805,
      "Ġiko": 7806,
      "ĠsnÄĽÅ¥": 7807,
      "ĠyÅ¾b": 7808,
      "Ġvlit": 7809,
      "ĠÃ¡rt": 7810,
      "ĠÄĽzdu": 7811,
      "ĠÃŃhr": 7812,
      "ĠAAXABB": 7813,
      "ĠyÅ¡la": 7814,
      "ĠaÄįnem": 7815,
      "Ġadry": 7816,
      "Ġaktu": 7817,
      "ard": 7818,
      "ĠyÅĻil": 7819,
      "Ġegm": 7820,
      "ĠaÄįkem": 7821,
      "Ġektn": 7822,
      "Ġojde": 7823,
      "ĠauÄįil": 7824,
      "Ġaeol": 7825,
      "ĠABXBAX": 7826,
      "ÃŃ": 7827,
      "Ġduh": 7828,
      "Ġotok": 7829,
      "Ġerch": 7830,
      "Ġerci": 7831,
      "Ġetek": 7832,
      "ĠojÄį": 7833,
      "Ġonek": 7834,
      "Ġohsl": 7835,
      "Ġopel": 7836,
      "Ġytstv": 7837,
      "ĠaÄįou": 7838,
      "Ġtret": 7839,
      "Ġvrou": 7840,
      "ĠiÄįke": 7841,
      "Ġodle": 7842,
      "Ġivach": 7843,
      "Ġatnost": 7844,
      "Ġeskno": 7845,
      "Ġrskn": 7846,
      "ĠyÅĻm": 7847,
      "ĠÃ½bl": 7848,
      "Ġionsk": 7849,
      "Ġtkal": 7850,
      "Ġitly": 7851,
      "ĠavÅ¡e": 7852,
      "ĠaÅ¾nou": 7853,
      "Ġopyr": 7854,
      "ĠiÅ¡tÄĽm": 7855,
      "Ġeolu": 7856,
      "Ġietr": 7857,
      "Ġpuch": 7858,
      "Ġzub": 7859,
      "Ġkyn": 7860,
      "Ġrstvi": 7861,
      "ĠemÅĪ": 7862,
      "Ġemkl": 7863,
      "Ġadchl": 7864,
      "ĠÅ¾m": 7865,
      "Ġolz": 7866,
      "Ġoham": 7867,
      "ĠarÅ¾": 7868,
      "Ġorka": 7869,
      "Ġopar": 7870,
      "Ġklest": 7871,
      "Ġynv": 7872,
      "ĠÄĽstc": 7873,
      "Ġtrysk": 7874,
      "ĠoÅ¡p": 7875,
      "Ġodnik": 7876,
      "ĠÄĽÄįni": 7877,
      "ĠyznÄĽ": 7878,
      "Ġshas": 7879,
      "Ġalez": 7880,
      "ĠiÅĻsk": 7881,
      "Ġehlo": 7882,
      "ĠaÅ¡ly": 7883,
      "Ġoddech": 7884,
      "ĠuÅ¡ny": 7885,
      "Ġaob": 7886,
      "ĠoÅ¯": 7887,
      "Äįn": 7888,
      "Ġlat": 7889,
      "Ġelost": 7890,
      "ĠumÄĽ": 7891,
      "Ġabt": 7892,
      "ĠaÅĻek": 7893,
      "Ġoupky": 7894,
      "ĠÄĽrt": 7895,
      "ĠÄĽtliv": 7896,
      "Ġovnym": 7897,
      "Ġymkl": 7898,
      "Ġrtve": 7899,
      "Ġlhat": 7900,
      "Ġousil": 7901,
      "Ġejsem": 7902,
      "ĠikaÅ¡": 7903,
      "ĠÃ©lc": 7904,
      "Ġormy": 7905,
      "Ġichle": 7906,
      "Ġystra": 7907,
      "Ġeobm": 7908,
      "Ġaian": 7909,
      "Ġaesar": 7910,
      "ĠstaÅĪ": 7911,
      "Ġets": 7912,
      "Ġojl": 7913,
      "Ġozne": 7914,
      "Ġorec": 7915,
      "ĠÄĽnka": 7916,
      "ĠsmiÅ¡": 7917,
      "Ġumal": 7918,
      "ĠÄĽdit": 7919,
      "Ġodnem": 7920,
      "ĠeÄįnu": 7921,
      "ĠÃŃÄįc": 7922,
      "ĠAAABBB": 7923,
      "Ġeznam": 7924,
      "Ġyrn": 7925,
      "Ġidnych": 7926,
      "ĠesknÄĽ": 7927,
      "ĠoniÅ¡": 7928,
      "ĠydÅĻ": 7929,
      "ĠuÅ¾ny": 7930,
      "ĠÄĽkkem": 7931,
      "ĠeruÅ¥": 7932,
      "Ġouru": 7933,
      "Ġiag": 7934,
      "ĠchÅĻest": 7935,
      "ĠvzÅĪal": 7936,
      "ĠkÅ¡tic": 7937,
      "Ġehnej": 7938,
      "ĠrÅĪt": 7939,
      "Ġongl": 7940,
      "oÅ¾": 7941,
      "Ġaest": 7942,
      "Ġtih": 7943,
      "ĠemÅ¡Å¥": 7944,
      "Ġalst": 7945,
      "Ġaten": 7946,
      "ĠotiÅ¾": 7947,
      "Ġudech": 7948,
      "ĠÅ¡iÅĻ": 7949,
      "ĠÄĽjc": 7950,
      "Ġhrud": 7951,
      "ĠachÅĻ": 7952,
      "Ġoudce": 7953,
      "Ġisem": 7954,
      "Ġibo": 7955,
      "Ġencum": 7956,
      "ĠsbÄĽÅĻ": 7957,
      "Ġovskym": 7958,
      "Ġigl": 7959,
      "ĠanÄįn": 7960,
      "ĠyneÅ¡": 7961,
      "Ġialek": 7962,
      "Ġsjel": 7963,
      "Ġeorie": 7964,
      "Ġarrh": 7965,
      "Ġibra": 7966,
      "ĠiÅ¯v": 7967,
      "yÅĻ": 7968,
      "Ġaec": 7969,
      "ĠpÅ¡tr": 7970,
      "ĠzaÄį": 7971,
      "Ġeschv": 7972,
      "Ġozkaz": 7973,
      "Ġechat": 7974,
      "ĠaÅ¡iÅ¡": 7975,
      "ĠaÅ¡eÅĪ": 7976,
      "Ġunka": 7977,
      "Ġrdcich": 7978,
      "ĠoudÄĽ": 7979,
      "ĠeÅĻit": 7980,
      "ĠÄĽzdk": 7981,
      "Ġeklem": 7982,
      "Ġelnost": 7983,
      "Ġehnan": 7984,
      "Ġeosv": 7985,
      "Ġankou": 7986,
      "Ġostlo": 7987,
      "ĠÄĽknÄĽ": 7988,
      "ĠotÅĻe": 7989,
      "Ġvzplat": 7990,
      "Ġisknou": 7991,
      "Ġovcu": 7992,
      "Ġlvi": 7993,
      "ĠaÅ¾na": 7994,
      "ĠABAAXB": 7995,
      "Ġezdna": 7996,
      "Ġezhr": 7997,
      "Ġeorg": 7998,
      "ĠABBABA": 7999,
      "Ġanam": 8000,
      "Ġcev": 8001,
      "Ġerec": 8002,
      "Ġono": 8003,
      "Ġslez": 8004,
      "Ġudych": 8005,
      "Ġardn": 8006,
      "Ġeban": 8007,
      "Ġekk": 8008,
      "Ġidc": 8009,
      "Ġidech": 8010,
      "ĠuÅ¡ne": 8011,
      "Ġsmek": 8012,
      "ĠaÅ¡v": 8013,
      "Ġlnym": 8014,
      "Ġuzdn": 8015,
      "ĠÄĽÅ¡ne": 8016,
      "ĠÃ©tk": 8017,
      "ĠocnÄĽ": 8018,
      "Ġennem": 8019,
      "Ġacii": 8020,
      "Ġonik": 8021,
      "Ġydim": 8022,
      "ĠiÅĻit": 8023,
      "Ġyhy": 8024,
      "Ġejmout": 8025,
      "ĠoÅ¾ske": 8026,
      "Ġzkvet": 8027,
      "Ġeft": 8028,
      "Ġeodm": 8029,
      "Ġotyl": 8030,
      "Ġevzhl": 8031,
      "hm": 8032,
      "Ġaum": 8033,
      "ĠoÃº": 8034,
      "Ġiaz": 8035,
      "Ġsul": 8036,
      "Ġpud": 8037,
      "Ġjun": 8038,
      "Ġilas": 8039,
      "ĠÅ¾bl": 8040,
      "Ġasum": 8041,
      "ĠudÄĽl": 8042,
      "Ġajel": 8043,
      "Ġtrup": 8044,
      "Ġijim": 8045,
      "ĠÄĽdÄĽ": 8046,
      "Ġdlit": 8047,
      "Ġoslav": 8048,
      "ĠybÅĻ": 8049,
      "Ġyvy": 8050,
      "Ġyran": 8051,
      "Ġanta": 8052,
      "Ġalej": 8053,
      "ĠsbÄĽh": 8054,
      "Ġoukem": 8055,
      "Ġikuv": 8056,
      "Ġanout": 8057,
      "Ġshluk": 8058,
      "Ġiskra": 8059,
      "Ġismus": 8060,
      "Ġvbod": 8061,
      "ĠXABABA": 8062,
      "Ġabnou": 8063,
      "ĠoÅ¾mb": 8064,
      "Ġtes": 8065,
      "Ġedkl": 8066,
      "Ġasin": 8067,
      "Ġaschv": 8068,
      "Ġotit": 8069,
      "Ġuddh": 8070,
      "Ġorel": 8071,
      "ĠezÅ¾": 8072,
      "ĠuÅ¡ich": 8073,
      "ĠeÄįet": 8074,
      "Ġutil": 8075,
      "Ġhran": 8076,
      "Ġopej": 8077,
      "Ġepych": 8078,
      "ĠaÅ¡it": 8079,
      "Ġupstv": 8080,
      "Ġodnost": 8081,
      "Ġozdil": 8082,
      "Ġilion": 8083,
      "Ġeodn": 8084,
      "Ġinkem": 8085,
      "ĠouÄįit": 8086,
      "Ġouzlen": 8087,
      "Ġapli": 8088,
      "Ġinie": 8089,
      "Ġspjat": 8090,
      "Ġastmi": 8091,
      "Ġaiss": 8092,
      "Ġuon": 8093,
      "Ġher": 8094,
      "Ġinstvi": 8095,
      "Ġerh": 8096,
      "ĠerÅĪ": 8097,
      "Ġonan": 8098,
      "ĠozÅĪ": 8099,
      "Ġkroj": 8100,
      "Ġesth": 8101,
      "ouk": 8102,
      "ĠoÅ¾ak": 8103,
      "ĠecÄį": 8104,
      "Ġukne": 8105,
      "ĠÅĻeÅ¾": 8106,
      "ĠÃŃchn": 8107,
      "ĠyÅ¡ku": 8108,
      "Ġlnit": 8109,
      "ĠznÄĽt": 8110,
      "ĠiÅ¡im": 8111,
      "Ġouto": 8112,
      "Ġoutal": 8113,
      "Ġupech": 8114,
      "Ġacr": 8115,
      "ĠaÅĻn": 8116,
      "ĠirnÄĽ": 8117,
      "ĠÅ¯Å¾l": 8118,
      "ĠustÅĻ": 8119,
      "ĠoÅ¡stv": 8120,
      "Ġype": 8121,
      "Ġsklal": 8122,
      "Ġiedr": 8123,
      "Ġeotv": 8124,
      "Ġouss": 8125,
      "Ġysky": 8126,
      "Ġechty": 8127,
      "ĠÄĽknou": 8128,
      "Ġiteb": 8129,
      "Ġiknul": 8130,
      "Ġuhla": 8131,
      "ĠaÄįkou": 8132,
      "Ġeodd": 8133,
      "Ġudci": 8134,
      "Ġadkym": 8135,
      "Ġistve": 8136,
      "Ġugg": 8137,
      "ĠehÅĻm": 8138,
      "ĠezneÅ¡": 8139,
      "ĠiÅ¾dÄĽl": 8140,
      "Ġeet": 8141,
      "ĠmÅ¡i": 8142,
      "Ġolkl": 8143,
      "Ġamc": 8144,
      "Ġohych": 8145,
      "ĠÃ½chÅ¾": 8146,
      "ĠÃ¡msk": 8147,
      "ĠorÅ¡i": 8148,
      "Ġylne": 8149,
      "Ġylky": 8150,
      "Ġylek": 8151,
      "ĠÃ©msk": 8152,
      "Ġahni": 8153,
      "Ġistky": 8154,
      "Ġumt": 8155,
      "Ġusit": 8156,
      "ĠenÅ¾b": 8157,
      "Ġoupen": 8158,
      "Ġustu": 8159,
      "Ġesle": 8160,
      "Ġeuhl": 8161,
      "Ġrtvi": 8162,
      "Ġilnych": 8163,
      "Ġouchy": 8164,
      "ĠouÄįe": 8165,
      "Ġentem": 8166,
      "Ġelec": 8167,
      "Ġoudry": 8168,
      "ĠotÅĻp": 8169,
      "Ġofa": 8170,
      "Ġorske": 8171,
      "Ġlsti": 8172,
      "Ġatbu": 8173,
      "Ġejskr": 8174,
      "ĠtyÅ¾": 8175,
      "Ġobouk": 8176,
      "Ġuett": 8177,
      "ĠXAXBAB": 8178,
      "Ġpast": 8179,
      "Ġbos": 8180,
      "Ġadch": 8181,
      "ĠivosÅ¥": 8182,
      "Ġerat": 8183,
      "Ġerech": 8184,
      "ĠeÅ¾v": 8185,
      "Ġapstv": 8186,
      "Ġrtev": 8187,
      "Ġijen": 8188,
      "Ġochn": 8189,
      "Ġirl": 8190,
      "ĠABBAXA": 8191,
      "Ġucp": 8192,
      "Ġatnem": 8193,
      "Ġojnych": 8194,
      "Ġancu": 8195,
      "Ġmdlou": 8196,
      "Ġmdlym": 8197,
      "Ġostra": 8198,
      "ĠuÄįna": 8199,
      "ĠachvÄĽl": 8200,
      "ĠÄĽznou": 8201,
      "ĠnÄĽh": 8202,
      "ĠÄĽjna": 8203,
      "Ġiata": 8204,
      "Ġinoch": 8205,
      "Ġvyr": 8206,
      "Ġvous": 8207,
      "ĠÄĽg": 8208,
      "Ġavte": 8209,
      "Ġetel": 8210,
      "Ġojas": 8211,
      "Ġevit": 8212,
      "ĠoÄįs": 8213,
      "Ġklep": 8214,
      "Ġysch": 8215,
      "ĠyÅ¡te": 8216,
      "Ġznej": 8217,
      "ĠÄĽÅ¾im": 8218,
      "ĠÄĽdem": 8219,
      "Ġychod": 8220,
      "ĠbraÅĪ": 8221,
      "Ġizdn": 8222,
      "Ġochem": 8223,
      "ĠÄĽrku": 8224,
      "ĠouÅ¾e": 8225,
      "Ġsklo": 8226,
      "Ġatnik": 8227,
      "ĠavdÄĽ": 8228,
      "Ġocnym": 8229,
      "ĠrÅ¾im": 8230,
      "Ġinnym": 8231,
      "Ġovaz": 8232,
      "ĠÄĽtin": 8233,
      "Ġiocl": 8234,
      "ĠaseÅĪ": 8235,
      "ĠurnÄĽ": 8236,
      "Ġikle": 8237,
      "Ġegii": 8238,
      "Ġestnou": 8239,
      "erv": 8240,
      "Ġizby": 8241,
      "ĠvÄĽd": 8242,
      "Ġanstva": 8243,
      "Ġanstvo": 8244,
      "Ġiady": 8245,
      "Ġompl": 8246,
      "Ġizke": 8247,
      "ĠnaÄį": 8248,
      "Ġsvil": 8249,
      "ĠaÅ¾u": 8250,
      "Ġocc": 8251,
      "Ġblin": 8252,
      "Ġapci": 8253,
      "Ġysu": 8254,
      "Ġvlil": 8255,
      "ĠyÅ¡ka": 8256,
      "ĠÄĽvne": 8257,
      "ĠupÄĽj": 8258,
      "Ġacku": 8259,
      "Ġanik": 8260,
      "ĠÄĽÄįim": 8261,
      "ĠouÅĻit": 8262,
      "ĠÃ½tn": 8263,
      "Ġipal": 8264,
      "Ġezda": 8265,
      "Ġerla": 8266,
      "ĠoucnosÅ¥": 8267,
      "ĠoviÄį": 8268,
      "ĠezkÅĻ": 8269,
      "ĠyÅĻn": 8270,
      "Ġosna": 8271,
      "ĠiÄįna": 8272,
      "ĠÃºpl": 8273,
      "Ġedmkr": 8274,
      "Ġavcu": 8275,
      "Ġizdu": 8276,
      "Ġismem": 8277,
      "ĠviÄı": 8278,
      "Ġeis": 8279,
      "Ġoist": 8280,
      "ĠdosÅ¥": 8281,
      "Ġetam": 8282,
      "Ġorci": 8283,
      "Ġestkv": 8284,
      "ĠÄĽjstv": 8285,
      "Ġkluk": 8286,
      "Ġapir": 8287,
      "Ġzlob": 8288,
      "Ġbrak": 8289,
      "ĠÃ¡kr": 8290,
      "Ġoupce": 8291,
      "ĠÄĽzdach": 8292,
      "ĠeÄįnosÅ¥": 8293,
      "Ġicie": 8294,
      "Ġastnou": 8295,
      "ĠÃ©Å¾b": 8296,
      "ĠÅ¡lo": 8297,
      "Ġancem": 8298,
      "Ġudnych": 8299,
      "Ġezme": 8300,
      "Ġunko": 8301,
      "Ġanbu": 8302,
      "ĠevÅ¡im": 8303,
      "Ġeumi": 8304,
      "ĠystÅĻe": 8305,
      "Ġatby": 8306,
      "Ġechla": 8307,
      "Ġydny": 8308,
      "Ġuiem": 8309,
      "Ġeir": 8310,
      "Ġeill": 8311,
      "Ġpyl": 8312,
      "ĠÃ©g": 8313,
      "Ġedic": 8314,
      "Ġodhl": 8315,
      "Ġavs": 8316,
      "Ġobhl": 8317,
      "Ġinkl": 8318,
      "Ġinej": 8319,
      "Ġohs": 8320,
      "ĠslasÅ¥": 8321,
      "Ġozil": 8322,
      "Ġebka": 8323,
      "Ġidce": 8324,
      "Ġylka": 8325,
      "ĠÃ¡Å¡sk": 8326,
      "Ġstryc": 8327,
      "Ġirv": 8328,
      "Ġemnost": 8329,
      "Ġuva": 8330,
      "Ġouzdr": 8331,
      "Ġutni": 8332,
      "Ġozdni": 8333,
      "Ġvzpn": 8334,
      "Ġajin": 8335,
      "Ġyvne": 8336,
      "Ġeuill": 8337,
      "Ġipou": 8338,
      "Ġejnou": 8339,
      "Ġpsu": 8340,
      "ĠydÄĽt": 8341,
      "ĠonnÄĽ": 8342,
      "Ġoskr": 8343,
      "Ġounce": 8344,
      "Ġfrak": 8345,
      "ĠuÅĻen": 8346,
      "ĠitÄĽz": 8347,
      "Ġodda": 8348,
      "Ġinck": 8349,
      "ĠÄĽÅ¥t": 8350,
      "Ġytna": 8351,
      "Ġrdle": 8352,
      "Ġisknout": 8353,
      "ĠoÅ¡la": 8354,
      "ĠuÅ¾kou": 8355,
      "Ġelly": 8356,
      "Ġevzt": 8357,
      "Ġessi": 8358,
      "Ġettu": 8359,
      "Ġojcz": 8360,
      "ĠhouÅ¡Å¥": 8361,
      "ĠmyÅ¡": 8362,
      "ĠilÅĪ": 8363,
      "Ġolst": 8364,
      "ĠÄĽjsk": 8365,
      "Ġopyt": 8366,
      "ĠiÅ¡p": 8367,
      "ĠuÄįim": 8368,
      "Ġykam": 8369,
      "ĠysliÅ¡": 8370,
      "Ġolnym": 8371,
      "ĠAAABAB": 8372,
      "Ġgest": 8373,
      "Ġeux": 8374,
      "Ġandt": 8375,
      "Ġehnou": 8376,
      "Ġeoh": 8377,
      "ĠekaÅ¡": 8378,
      "ĠuÅ¡na": 8379,
      "Ġitkem": 8380,
      "Ġykla": 8381,
      "ĠaÅ¡ter": 8382,
      "Ġondo": 8383,
      "Ġomstu": 8384,
      "Ġello": 8385,
      "Ġdbej": 8386,
      "ĠÄĽÄım": 8387,
      "Ġictvim": 8388,
      "Ġeutr": 8389,
      "Ġungm": 8390,
      "Ġamfl": 8391,
      "Ġaost": 8392,
      "Ġvid": 8393,
      "ĠÃ©ch": 8394,
      "Ġavka": 8395,
      "Ġamsk": 8396,
      "Ġomsk": 8397,
      "Ġonum": 8398,
      "Ġorst": 8399,
      "Ġevp": 8400,
      "ĠeÅ¾il": 8401,
      "Ġikh": 8402,
      "ĠoÅĻek": 8403,
      "ĠeÅ¡nÄĽ": 8404,
      "ĠaÅ¡ka": 8405,
      "Ġunem": 8406,
      "ĠXAABBA": 8407,
      "Ġabou": 8408,
      "Ġlnych": 8409,
      "ĠÄĽÅ¾t": 8410,
      "Ġupal": 8411,
      "Ġzral": 8412,
      "Ġirka": 8413,
      "Ġarnym": 8414,
      "Ġoubou": 8415,
      "Ġastnych": 8416,
      "ĠÄĽcech": 8417,
      "Ġrtva": 8418,
      "Ġinkam": 8419,
      "Ġeplo": 8420,
      "Ġouzli": 8421,
      "Ġotkal": 8422,
      "Ġumnych": 8423,
      "old": 8424,
      "Ġialni": 8425,
      "ĠusÅ¥m": 8426,
      "Ġevzl": 8427,
      "Ġebli": 8428,
      "Ġoohl": 8429,
      "Ġuisc": 8430,
      "Ġuov": 8431,
      "ĠvÅ¥": 8432,
      "Ġnot": 8433,
      "Ġembr": 8434,
      "Ġcid": 8435,
      "ĠÄĽlce": 8436,
      "Ġomyl": 8437,
      "ĠosiÅ¡": 8438,
      "ĠiÅ¾et": 8439,
      "Ġrtit": 8440,
      "ĠAABBAB": 8441,
      "ĠÄĽzk": 8442,
      "Ġychem": 8443,
      "Ġupsk": 8444,
      "Ġanii": 8445,
      "Ġurf": 8446,
      "ĠaÅ¥k": 8447,
      "ĠÃ¡bsk": 8448,
      "Ġikde": 8449,
      "Ġrtvy": 8450,
      "ĠejvÅĻ": 8451,
      "Ġosmd": 8452,
      "ĠyÅ¡ny": 8453,
      "Ġahna": 8454,
      "Ġikras": 8455,
      "Ġevrou": 8456,
      "Ġarkem": 8457,
      "Ġampy": 8458,
      "ĠaspoÅĪ": 8459,
      "Ġdme": 8460,
      "Ġealn": 8461,
      "Ġlpi": 8462,
      "ĠABXXAB": 8463,
      "ael": 8464,
      "ial": 8465,
      "Ġiul": 8466,
      "Ġvhl": 8467,
      "Ġbot": 8468,
      "Ġenum": 8469,
      "Ġaden": 8470,
      "Ġadych": 8471,
      "ĠiniÅ¡": 8472,
      "Ġote": 8473,
      "ĠchÅĪ": 8474,
      "ĠozaÅĻ": 8475,
      "ĠÃŃtsk": 8476,
      "ĠaÅ¾Äı": 8477,
      "Ġplest": 8478,
      "Ġopp": 8479,
      "ĠeÅ¡ÅĪ": 8480,
      "Ġocni": 8481,
      "Ġynky": 8482,
      "Ġachne": 8483,
      "Ġuhych": 8484,
      "Ġijc": 8485,
      "Ġouhr": 8486,
      "Ġustych": 8487,
      "ĠoÅ¡ky": 8488,
      "Ġohlas": 8489,
      "Ġieu": 8490,
      "Ġocnych": 8491,
      "Ġornym": 8492,
      "Ġyzbr": 8493,
      "ĠÄĽkde": 8494,
      "Ġlkam": 8495,
      "Ġidlu": 8496,
      "Ġerlu": 8497,
      "ĠeÅ¥m": 8498,
      "Ġsrp": 8499,
      "ĠmiÄį": 8500,
      "Ġelon": 8501,
      "ĠizbÄĽ": 8502,
      "ĠeÅ¡tÄĽm": 8503,
      "Ġisny": 8504,
      "Ġiard": 8505,
      "ĠÃ¶n": 8506,
      "Ġooky": 8507,
      "Ġuij": 8508,
      "ĠaÅ¡pl": 8509,
      "Ġyi": 8510,
      "Ġbuk": 8511,
      "Ġhd": 8512,
      "Ġovum": 8513,
      "Ġedin": 8514,
      "Ġprst": 8515,
      "ĠprsÅ¥": 8516,
      "ĠÄĽlka": 8517,
      "Ġhlod": 8518,
      "Ġajl": 8519,
      "Ġylet": 8520,
      "Ġahum": 8521,
      "Ġutt": 8522,
      "Ġopem": 8523,
      "Ġukor": 8524,
      "Ġepil": 8525,
      "Ġunsk": 8526,
      "Ġynth": 8527,
      "Ġvlk": 8528,
      "Ġdnum": 8529,
      "ĠÃ¡skn": 8530,
      "BAA": 8531,
      "ĠibÄĽ": 8532,
      "Ġyvu": 8533,
      "Ġohnul": 8534,
      "Ġornych": 8535,
      "Ġejdu": 8536,
      "Ġodzbr": 8537,
      "Ġofm": 8538,
      "Ġisknul": 8539,
      "ĠtÄĽÅ¡": 8540,
      "Ġabriel": 8541,
      "ĠÄĽdny": 8542,
      "Ġianc": 8543,
      "ĠoÅ¡tol": 8544,
      "ĠouÄįke": 8545,
      "ĠaÅ¾nym": 8546,
      "Ġysklo": 8547,
      "Ġirkev": 8548,
      "ÅĻe": 8549,
      "ĠadÄĽl": 8550,
      "Ġodej": 8551,
      "Ġsvat": 8552,
      "Ġobec": 8553,
      "ĠÄĽtce": 8554,
      "Ġamit": 8555,
      "Ġeren": 8556,
      "Ġudol": 8557,
      "Ġebek": 8558,
      "Ġosh": 8559,
      "Ġevel": 8560,
      "ĠoÄįne": 8561,
      "ĠoÄįin": 8562,
      "Ġistku": 8563,
      "ĠÄĽmk": 8564,
      "ĠuÄįek": 8565,
      "ĠtÅĻast": 8566,
      "Ġuzka": 8567,
      "Ġastnym": 8568,
      "ĠÃŃstr": 8569,
      "Ġipan": 8570,
      "Ġehnout": 8571,
      "Ġejdou": 8572,
      "Ġestro": 8573,
      "ĠrÄįil": 8574,
      "Ġezdi": 8575,
      "Ġarvu": 8576,
      "Ġajdou": 8577,
      "ĠÄĽÅ¾iv": 8578,
      "Ġable": 8579,
      "ĠohÅĻm": 8580,
      "Ġoutna": 8581,
      "ĠanÄįit": 8582,
      "ĠarÄįe": 8583,
      "Ġuaci": 8584,
      "gh": 8585,
      "Ġads": 8586,
      "Ġstep": 8587,
      "Ġasot": 8588,
      "ĠivÄĽl": 8589,
      "Ġplot": 8590,
      "Ġhrst": 8591,
      "ĠeÅ¡en": 8592,
      "Ġynsk": 8593,
      "ĠaÄįstv": 8594,
      "Ġeskym": 8595,
      "ĠÄĽstech": 8596,
      "Ġupou": 8597,
      "ĠÃ³b": 8598,
      "ĠeÅĻin": 8599,
      "ĠiÄįkam": 8600,
      "ĠÄĽtli": 8601,
      "ĠaliÅĻ": 8602,
      "Ġrnym": 8603,
      "Ġutnym": 8604,
      "Ġutnost": 8605,
      "Ġickem": 8606,
      "Ġyjem": 8607,
      "Ġieb": 8608,
      "Ġeptat": 8609,
      "ĠÄĽkdo": 8610,
      "ĠÃºstÅĻ": 8611,
      "ĠeÄįkou": 8612,
      "Ġanuv": 8613,
      "Ġanskym": 8614,
      "Ġigo": 8615,
      "Ġincem": 8616,
      "Ġastian": 8617,
      "Ġuklo": 8618,
      "Ġetbou": 8619,
      "Ġistru": 8620,
      "Ġrchla": 8621,
      "Ġokyn": 8622,
      "Ġehci": 8623,
      "Ġiany": 8624,
      "ĠtkvÄĽl": 8625,
      "Ġylny": 8626,
      "Ġelda": 8627,
      "Ġeib": 8628,
      "Ġeovl": 8629,
      "ian": 8630,
      "Ġrub": 8631,
      "Ġcz": 8632,
      "Ġerad": 8633,
      "Ġudka": 8634,
      "Ġajhl": 8635,
      "ĠÄĽnne": 8636,
      "ĠaÅ¡et": 8637,
      "ĠapÄĽl": 8638,
      "Ġumm": 8639,
      "ĠÄĽstil": 8640,
      "ĠÄĽvÄĽ": 8641,
      "ĠÄĽmci": 8642,
      "ĠÄĽzte": 8643,
      "Ġoutv": 8644,
      "ĠXAXAAX": 8645,
      "ĠoudiÅ¡": 8646,
      "ĠvraÅ¥": 8647,
      "Ġobro": 8648,
      "Ġzmoh": 8649,
      "ĠÄĽÅ¡ky": 8650,
      "Ġicet": 8651,
      "Ġipky": 8652,
      "ĠoÅ¾nost": 8653,
      "Ġinkej": 8654,
      "ĠÃºtk": 8655,
      "Ġrcen": 8656,
      "Ġertem": 8657,
      "Ġurnych": 8658,
      "Ġrhnu": 8659,
      "ĠineÅ¡": 8660,
      "Ġadcu": 8661,
      "Ġudkem": 8662,
      "ĠvzbuÄı": 8663,
      "Ġalda": 8664,
      "ĠaÅ¾eÅ¡": 8665,
      "ĠiÃ¡r": 8666,
      "Ġadkych": 8667,
      "Ġetta": 8668,
      "Ġovrat": 8669,
      "Ġeusp": 8670,
      "Ġixt": 8671,
      "Ġumpl": 8672,
      "Ġochba": 8673,
      "Ġcm": 8674,
      "Ġeke": 8675,
      "ĠoÅ¾em": 8676,
      "ĠeÅ¡stv": 8677,
      "ĠaÅ¡ne": 8678,
      "Ġednych": 8679,
      "Ġzlih": 8680,
      "Ġupec": 8681,
      "Ġusto": 8682,
      "Ġodnim": 8683,
      "Ġihk": 8684,
      "Ġlhc": 8685,
      "ĠlhÄį": 8686,
      "Ġetlou": 8687,
      "Ġaub": 8688,
      "Ġrbi": 8689,
      "ĠavÅĻen": 8690,
      "ĠyÅĻÄį": 8691,
      "Ġoncu": 8692,
      "Ġuchle": 8693,
      "Ġakve": 8694,
      "Ġinskych": 8695,
      "Ġorgie": 8696,
      "ĠXABBBA": 8697,
      "ĠAXBAXB": 8698,
      "ĠÃ½Å¾d": 8699,
      "Ġanh": 8700,
      "Ġavum": 8701,
      "Ġamv": 8702,
      "ĠvÅ¡i": 8703,
      "Ġudak": 8704,
      "Ġozor": 8705,
      "Ġebal": 8706,
      "ĠuÅ¡ce": 8707,
      "Ġskot": 8708,
      "ĠuÅ¾it": 8709,
      "Ġazech": 8710,
      "ĠÃŃvl": 8711,
      "Ġumf": 8712,
      "Ġustou": 8713,
      "Ġemnu": 8714,
      "Ġasnul": 8715,
      "ĠodpÅĻ": 8716,
      "ĠipÅĻ": 8717,
      "Ġiev": 8718,
      "Ġyzu": 8719,
      "ĠoÄįiv": 8720,
      "Ġrstu": 8721,
      "ĠonÄįil": 8722,
      "Ġardsk": 8723,
      "ĠetÅĻe": 8724,
      "ĠÄĽjny": 8725,
      "Ġuhdy": 8726,
      "Ġatla": 8727,
      "ĠeÅĻmi": 8728,
      "Ġizkou": 8729,
      "Ġaeon": 8730,
      "Ġeotr": 8731,
      "Ġaeth": 8732,
      "ĠXAXBBA": 8733,
      "iat": 8734,
      "Ġeel": 8735,
      "Ġual": 8736,
      "Ġpuk": 8737,
      "Ġemst": 8738,
      "Ġlku": 8739,
      "Ġelr": 8740,
      "Ġstuh": 8741,
      "Ġaschl": 8742,
      "ĠÄĽtum": 8743,
      "Ġompr": 8744,
      "Ġslal": 8745,
      "Ġokum": 8746,
      "ĠoÅ¾ku": 8747,
      "Ġynum": 8748,
      "Ġuszt": 8749,
      "Ġtrs": 8750,
      "Ġupci": 8751,
      "Ġisa": 8752,
      "Ġavan": 8753,
      "ĠÃ©nsk": 8754,
      "Ġlhou": 8755,
      "Ġantem": 8756,
      "Ġobnym": 8757,
      "Ġoufat": 8758,
      "ĠeleÅĪ": 8759,
      "ĠiÅ¡tc": 8760,
      "Ġidstvu": 8761,
      "ĠeseÅĪ": 8762,
      "Ġozbl": 8763,
      "Ġrhlo": 8764,
      "Ġarck": 8765,
      "Ġousta": 8766,
      "ĠuÅ¡no": 8767,
      "Ġiknou": 8768,
      "Ġartn": 8769,
      "Ġoktor": 8770,
      "Ġiast": 8771,
      "Ġovstal": 8772,
      "Ġogl": 8773,
      "Ġwh": 8774,
      "ĠetÄĽz": 8775,
      "Ġoupla": 8776,
      "Ġuzkost": 8777,
      "Ġeeth": 8778,
      "iem": 8779,
      "Ġeit": 8780,
      "Ġoez": 8781,
      "Ġbh": 8782,
      "Ġakych": 8783,
      "Ġaluj": 8784,
      "Ġalfr": 8785,
      "Ġamil": 8786,
      "Ġehv": 8787,
      "Ġahach": 8788,
      "ĠoÅ¾st": 8789,
      "ĠÄĽjic": 8790,
      "Ġukni": 8791,
      "Ġepp": 8792,
      "Ġapit": 8793,
      "Ġaza": 8794,
      "ĠiÅ¾ni": 8795,
      "ĠistÅ¡i": 8796,
      "ĠyÅ¡stv": 8797,
      "Ġizp": 8798,
      "Ġizou": 8799,
      "Ġvrb": 8800,
      "Ġoupost": 8801,
      "ĠÄĽsit": 8802,
      "Ġeznal": 8803,
      "Ġeznym": 8804,
      "ĠknÄĽh": 8805,
      "ĠyÅ¥s": 8806,
      "ĠyÅ¥t": 8807,
      "Ġeochv": 8808,
      "Ġinkn": 8809,
      "ĠÅ¾hne": 8810,
      "Ġiom": 8811,
      "ĠiÅ¡ly": 8812,
      "ĠuÅ¾nou": 8813,
      "Ġitna": 8814,
      "ĠÃ½bn": 8815,
      "ĠejeÅ¡": 8816,
      "Ġarta": 8817,
      "Ġourg": 8818,
      "ĠÄĽnÄįi": 8819,
      "Ġeckych": 8820,
      "Ġouklo": 8821,
      "Ġutrob": 8822,
      "Ġazdnou": 8823,
      "ĠzchÅĻ": 8824,
      "Ġyobr": 8825,
      "ea": 8826,
      "pÅĻ": 8827,
      "Ġram": 8828,
      "ĠlÅ¥": 8829,
      "Ġetich": 8830,
      "ĠeÄįu": 8831,
      "ĠplaÅ¡": 8832,
      "ĠikÅ¡": 8833,
      "ĠoÅ¾p": 8834,
      "Ġrdel": 8835,
      "Ġazej": 8836,
      "Ġednost": 8837,
      "ĠÄĽkce": 8838,
      "Ġvlez": 8839,
      "Ġrtc": 8840,
      "Ġzrad": 8841,
      "Ġobru": 8842,
      "Ġelko": 8843,
      "Ġedliv": 8844,
      "Ġalac": 8845,
      "Ġysla": 8846,
      "Ġeufr": 8847,
      "Ġehnat": 8848,
      "Ġoklid": 8849,
      "Ġevnym": 8850,
      "Ġobnych": 8851,
      "Ġatrem": 8852,
      "Ġezdne": 8853,
      "Ġarvou": 8854,
      "Ġujny": 8855,
      "Ġitny": 8856,
      "Ġousty": 8857,
      "Ġestna": 8858,
      "Ġoleon": 8859,
      "Ġialy": 8860,
      "ĠÄĽpr": 8861,
      "ĠovoÄı": 8862,
      "ey": 8863,
      "ium": 8864,
      "Ġvul": 8865,
      "Ġduj": 8866,
      "Ġatal": 8867,
      "Ġodky": 8868,
      "Ġstich": 8869,
      "Ġosth": 8870,
      "ĠamnÄĽ": 8871,
      "Ġslout": 8872,
      "Ġarym": 8873,
      "Ġtvr": 8874,
      "ĠaÅ¾iÅ¡": 8875,
      "Ġutka": 8876,
      "ĠoÄįku": 8877,
      "Ġukaz": 8878,
      "Ġepne": 8879,
      "Ġapek": 8880,
      "ĠunÅ¡t": 8881,
      "Ġastal": 8882,
      "ĠAABBBA": 8883,
      "Ġtrub": 8884,
      "ĠÄĽvou": 8885,
      "Ġisel": 8886,
      "Ġirc": 8887,
      "ĠÄĽhou": 8888,
      "Ġozdob": 8889,
      "Ġodry": 8890,
      "Ġeptam": 8891,
      "Ġouchu": 8892,
      "Ġejtv": 8893,
      "ĠÅ¡kol": 8894,
      "ĠaÅ¡le": 8895,
      "Ġouzlil": 8896,
      "ĠajnÄĽ": 8897,
      "Ġadiv": 8898,
      "ĠÄĽtna": 8899,
      "ĠÅ¡vec": 8900,
      "Ġbdit": 8901,
      "Ġilkou": 8902,
      "ĠÄĽkuv": 8903,
      "usÅ¥": 8904,
      "ĠÅ¡kleb": 8905,
      "ĠozÅ¡k": 8906,
      "Ġooke": 8907,
      "Ġirnym": 8908,
      "ĠÅ¯jÄįk": 8909,
      "Ġauss": 8910,
      "ĠchyÅ¥": 8911,
      "Ġvyl": 8912,
      "Ġyan": 8913,
      "Ġjam": 8914,
      "ĠouÅĪ": 8915,
      "ĠÃ©ÅĪ": 8916,
      "Ġelp": 8917,
      "Ġodan": 8918,
      "Ġsvest": 8919,
      "Ġasob": 8920,
      "Ġinni": 8921,
      "Ġinet": 8922,
      "Ġojhl": 8923,
      "Ġudni": 8924,
      "Ġarkr": 8925,
      "Ġjsa": 8926,
      "ĠABXA": 8927,
      "Ġicv": 8928,
      "Ġsne": 8929,
      "ĠrdÄĽl": 8930,
      "Ġapku": 8931,
      "Ġabd": 8932,
      "ĠubÅĻ": 8933,
      "ĠkÅĻeÄį": 8934,
      "Ġobrem": 8935,
      "ĠustiÅ¡": 8936,
      "Ġuvu": 8937,
      "ĠoÅ¡v": 8938,
      "ĠoÅ¡em": 8939,
      "ĠeÄįnim": 8940,
      "Ġysle": 8941,
      "Ġrchy": 8942,
      "Ġeuil": 8943,
      "Ġipek": 8944,
      "ĠÄĽlaÅ¡": 8945,
      "Ġornost": 8946,
      "Ġeptm": 8947,
      "Ġertn": 8948,
      "Ġerli": 8949,
      "Ġesej": 8950,
      "Ġakuv": 8951,
      "Ġebrat": 8952,
      "Ġegl": 8953,
      "ĠezpeÄį": 8954,
      "ĠuÅ¾bou": 8955,
      "Ġedru": 8956,
      "Ġament": 8957,
      "Ġmstit": 8958,
      "Ġojmu": 8959,
      "ĠÄĽhly": 8960,
      "ĠÅ¯br": 8961,
      "Ġejska": 8962,
      "Ġejskych": 8963,
      "Ġousku": 8964,
      "Ġientu": 8965,
      "Ġelstn": 8966,
      "Ġchyb": 8967,
      "ĠryÄį": 8968,
      "rt": 8969,
      "sn": 8970,
      "Ġuir": 8971,
      "Ġdesk": 8972,
      "Ġrce": 8973,
      "Ġrun": 8974,
      "Ġadel": 8975,
      "ĠesÅ¡": 8976,
      "ĠÄĽtim": 8977,
      "Ġekej": 8978,
      "Ġorek": 8979,
      "ĠaÅ¾et": 8980,
      "Ġopol": 8981,
      "ĠuÅ¾el": 8982,
      "Ġsmet": 8983,
      "ĠaÅ¾dit": 8984,
      "Ġurka": 8985,
      "ĠÄĽÅ¡im": 8986,
      "Ġomnych": 8987,
      "Ġief": 8988,
      "Ġiest": 8989,
      "Ġesnych": 8990,
      "Ġokle": 8991,
      "Ġinut": 8992,
      "Ġejdem": 8993,
      "Ġikus": 8994,
      "Ġagl": 8995,
      "Ġeknul": 8996,
      "ĠeknÄĽz": 8997,
      "Ġakys": 8998,
      "Ġusnul": 8999,
      "ĠeumÄĽl": 9000,
      "ĠiÃ¡d": 9001,
      "Ġachty": 9002,
      "ĠyÅĪsk": 9003,
      "Ġijme": 9004,
      "ĠiÅ¡Å¥al": 9005,
      "ĠzaÅĪ": 9006,
      "ĠÃ©f": 9007,
      "ĠenÄĽl": 9008,
      "Ġlik": 9009,
      "Ġobim": 9010,
      "Ġotek": 9011,
      "ĠamÅĻ": 9012,
      "ĠudÅ¾": 9013,
      "Ġokol": 9014,
      "Ġylit": 9015,
      "Ġester": 9016,
      "ĠuÅ¡el": 9017,
      "Ġskel": 9018,
      "ĠAXXB": 9019,
      "Ġrdit": 9020,
      "Ġecich": 9021,
      "ĠyÅ¾k": 9022,
      "ĠaÄįum": 9023,
      "ĠÄĽdv": 9024,
      "Ġasnil": 9025,
      "Ġuvm": 9026,
      "Ġuvou": 9027,
      "ĠÅ¡tÄĽp": 9028,
      "Ġodno": 9029,
      "Ġoubl": 9030,
      "Ġomnou": 9031,
      "Ġesmir": 9032,
      "ĠaÄįnych": 9033,
      "Ġvdech": 9034,
      "Ġiop": 9035,
      "Ġsplet": 9036,
      "Ġechtic": 9037,
      "Ġaple": 9038,
      "ĠejvyÅ¡": 9039,
      "Ġrkem": 9040,
      "Ġincu": 9041,
      "ĠesÅ¥an": 9042,
      "ĠaÄįeÅ¡": 9043,
      "Ġzvlh": 9044,
      "Ġalmaj": 9045,
      "ĠiÅĪm": 9046,
      "Ġusli": 9047,
      "Ġurpur": 9048,
      "Ġvkrad": 9049,
      "ĠeÃºhl": 9050,
      "Ġazdr": 9051,
      "Ġarrn": 9052,
      "ĠozÅ¾hn": 9053,
      "Ġurdi": 9054,
      "ĠXABABB": 9055,
      "ion": 9056,
      "Ġuez": 9057,
      "Ġbas": 9058,
      "Ġalkl": 9059,
      "Ġituj": 9060,
      "ĠÄĽlim": 9061,
      "ĠÄĽtci": 9062,
      "Ġojhr": 9063,
      "Ġslil": 9064,
      "ĠajÄį": 9065,
      "ĠylnÄĽ": 9066,
      "ĠspÄĽt": 9067,
      "ĠsmÄĽj": 9068,
      "Ġapis": 9069,
      "Ġazyl": 9070,
      "Ġytam": 9071,
      "ĠiÅ¡it": 9072,
      "ĠÄĽdni": 9073,
      "ĠaÅĻt": 9074,
      "Ġurci": 9075,
      "Ġybam": 9076,
      "ĠÄĽÅĻte": 9077,
      "Ġyvk": 9078,
      "ĠoÅ¾nou": 9079,
      "ĠctÄĽn": 9080,
      "icky": 9081,
      "Ġencie": 9082,
      "Ġencii": 9083,
      "ĠoknÄĽ": 9084,
      "Ġidstvi": 9085,
      "Ġejsou": 9086,
      "Ġezmr": 9087,
      "ĠuÅ¡kou": 9088,
      "Ġofu": 9089,
      "ĠÃ©ln": 9090,
      "Ġlti": 9091,
      "Ġichlo": 9092,
      "Ġusky": 9093,
      "Ġallah": 9094,
      "Ġelkym": 9095,
      "Ġadvl": 9096,
      "Ġisrael": 9097,
      "ĠÃ¼r": 9098,
      "Ġtvrz": 9099,
      "tz": 9100,
      "Ġuy": 9101,
      "Ġues": 9102,
      "ĠÃ¡uÅ¡": 9103,
      "ĠÃ½zk": 9104,
      "Ġha": 9105,
      "Ġelich": 9106,
      "Ġanost": 9107,
      "Ġavoj": 9108,
      "Ġolce": 9109,
      "Ġarat": 9110,
      "Ġehky": 9111,
      "ĠoÅ¾ni": 9112,
      "ĠeÅ¡it": 9113,
      "ĠaÅ¡a": 9114,
      "Ġistek": 9115,
      "ĠiÅ¡ne": 9116,
      "ĠÃ³ÅĻ": 9117,
      "Ġizen": 9118,
      "Ġoupku": 9119,
      "ĠuviÅ¡": 9120,
      "ĠÄĽrky": 9121,
      "Ġadlym": 9122,
      "ĠihaÅ¡": 9123,
      "ĠalaÅĻ": 9124,
      "ĠaliÅ¡": 9125,
      "Ġotcuv": 9126,
      "Ġidnem": 9127,
      "ĠaÄįnym": 9128,
      "Ġejvic": 9129,
      "Ġestie": 9130,
      "ĠuÅ¾nÄĽ": 9131,
      "ĠumnÄĽ": 9132,
      "Ġezpl": 9133,
      "Ġukli": 9134,
      "ĠerÅ¡u": 9135,
      "ĠapÅĻed": 9136,
      "Ġlva": 9137,
      "ĠohaÄį": 9138,
      "Ġoumrak": 9139,
      "Ġamsi": 9140,
      "Ġiskli": 9141,
      "ĠÅ¯bk": 9142,
      "Ġevzdal": 9143,
      "ĠinÄįi": 9144,
      "Ġarhan": 9145,
      "Ġiolk": 9146,
      "ĠÃ½zp": 9147,
      "Ġuff": 9148,
      "Ġeuhn": 9149,
      "ĠiÃ©n": 9150,
      "ĠÃ¡uÅ¡n": 9151,
      "gl": 9152,
      "ius": 9153,
      "Ġlal": 9154,
      "Ġilam": 9155,
      "Ġilit": 9156,
      "Ġodf": 9157,
      "ĠsviÅ¥": 9158,
      "Ġeset": 9159,
      "Ġasim": 9160,
      "ĠaÅ¡kr": 9161,
      "Ġednik": 9162,
      "Ġulem": 9163,
      "ĠÄĽke": 9164,
      "Ġumc": 9165,
      "Ġumsk": 9166,
      "Ġabal": 9167,
      "ĠiÅ¡nÄĽ": 9168,
      "ĠuÄįb": 9169,
      "Ġoutil": 9170,
      "Ġacu": 9171,
      "Ġirst": 9172,
      "Ġustym": 9173,
      "ĠABBAXB": 9174,
      "Ġlzu": 9175,
      "Ġisker": 9176,
      "ĠAAABXB": 9177,
      "Ġoubce": 9178,
      "Ġeznat": 9179,
      "Ġyste": 9180,
      "ĠbÅĻich": 9181,
      "Ġenach": 9182,
      "Ġokruh": 9183,
      "Ġoufej": 9184,
      "Ġpsy": 9185,
      "ĠXXAAAX": 9186,
      "ĠiÅĻkn": 9187,
      "Ġelium": 9188,
      "ĠejÅ¾h": 9189,
      "Ġouma": 9190,
      "Ġoff": 9191,
      "Ġltl": 9192,
      "Ġituv": 9193,
      "Ġoety": 9194,
      "ĠytÅĻe": 9195,
      "Ġorstva": 9196,
      "Ġienc": 9197,
      "Ġayett": 9198,
      "Ġuies": 9199,
      "ĠiaÅ¡i": 9200,
      "ĠiÅ¾di": 9201,
      "Ġoak": 9202,
      "Ġnoh": 9203,
      "Ġedum": 9204,
      "Ġavech": 9205,
      "Ġivci": 9206,
      "Ġcha": 9207,
      "ĠerÅ¾": 9208,
      "Ġehat": 9209,
      "Ġevou": 9210,
      "ĠoÅĻich": 9211,
      "Ġepat": 9212,
      "Ġzvad": 9213,
      "Ġistim": 9214,
      "Ġimek": 9215,
      "Ġimkl": 9216,
      "Ġimej": 9217,
      "ĠAABABB": 9218,
      "ĠyÅ¡en": 9219,
      "ĠiÅ¡ni": 9220,
      "Ġijte": 9221,
      "Ġoudech": 9222,
      "ĠustÄĽ": 9223,
      "Ġdvi": 9224,
      "Ġosly": 9225,
      "Ġovnal": 9226,
      "Ġovnat": 9227,
      "Ġrnka": 9228,
      "ĠÄĽcen": 9229,
      "ĠÃ©Å¾t": 9230,
      "ĠaÅĪh": 9231,
      "Ġojnym": 9232,
      "Ġioch": 9233,
      "ĠspleÅ¥": 9234,
      "Ġotru": 9235,
      "Ġrstem": 9236,
      "ĠoÄıte": 9237,
      "Ġikrov": 9238,
      "Ġouvat": 9239,
      "ĠezpÅĻ": 9240,
      "ĠuÅ¥t": 9241,
      "Ġistry": 9242,
      "Ġavle": 9243,
      "ĠÄĽdÄįil": 9244,
      "Ġmhach": 9245,
      "Ġirnych": 9246,
      "Ġocleh": 9247,
      "Ġimprl": 9248,
      "Ġeakc": 9249,
      "ĠaostÅĻ": 9250,
      "Ġsit": 9251,
      "Ġrky": 9252,
      "ĠodÄĽl": 9253,
      "Ġsvad": 9254,
      "Ġobek": 9255,
      "ĠÄįk": 9256,
      "Ġotku": 9257,
      "Ġotov": 9258,
      "Ġamech": 9259,
      "Ġarz": 9260,
      "ĠyliÅ¡": 9261,
      "Ġesto": 9262,
      "Ġplev": 9263,
      "Ġulil": 9264,
      "ĠubaÅ¡": 9265,
      "Ġisce": 9266,
      "ĠeÅĻk": 9267,
      "Ġybil": 9268,
      "Ġypou": 9269,
      "Ġibou": 9270,
      "ĠyÅ¡lo": 9271,
      "Ġyrm": 9272,
      "ĠozpÄĽv": 9273,
      "ĠlÄįky": 9274,
      "Ġeozd": 9275,
      "Ġenth": 9276,
      "Ġanaan": 9277,
      "ĠaviÅ¥": 9278,
      "Ġrstn": 9279,
      "Ġezdu": 9280,
      "ĠbyÅ¥": 9281,
      "Ġonnem": 9282,
      "ĠskÅĻiÅĪ": 9283,
      "ĠrÅ¡n": 9284,
      "Ġuznou": 9285,
      "ĠavraÅ¥": 9286,
      "ĠhÅĻmot": 9287,
      "ĠeteÅ¡": 9288,
      "Ġukle": 9289,
      "Ġyznam": 9290,
      "Ġymny": 9291,
      "Ġogu": 9292,
      "Ġepnou": 9293,
      "ĠÄĽhla": 9294,
      "Ġeand": 9295,
      "ĠohÅĪu": 9296,
      "ĠAAAAAA": 9297,
      "ĠÃ³sn": 9298,
      "Ġiett": 9299,
      "ĠudÄįi": 9300,
      "ĠchÅĻtan": 9301,
      "ĠÃ¤st": 9302,
      "ĠÃ³ph": 9303,
      "Ġuart": 9304,
      "Ġeer": 9305,
      "Ġoid": 9306,
      "Ġpach": 9307,
      "Ġelech": 9308,
      "Ġedd": 9309,
      "Ġezal": 9310,
      "Ġezam": 9311,
      "ĠÄĽnam": 9312,
      "Ġopm": 9313,
      "ĠuÅ¾ich": 9314,
      "Ġulv": 9315,
      "ĠÃºzd": 9316,
      "Ġstrou": 9317,
      "ĠAABBXA": 9318,
      "itÅĻ": 9319,
      "Ġarnach": 9320,
      "Ġyve": 9321,
      "ĠinnosÅ¥": 9322,
      "ĠouÄįn": 9323,
      "Ġodvd": 9324,
      "Ġyci": 9325,
      "ĠanaÅ¡": 9326,
      "Ġahlou": 9327,
      "Ġotrok": 9328,
      "Ġrstech": 9329,
      "Ġaznu": 9330,
      "Ġchmel": 9331,
      "ĠrÅ¡ky": 9332,
      "Ġavrat": 9333,
      "Ġytnych": 9334,
      "Ġably": 9335,
      "ĠohÅĻeb": 9336,
      "ĠuÅ¡nÄĽ": 9337,
      "ĠedvÄĽd": 9338,
      "Ġordy": 9339,
      "ĠatbÄĽ": 9340,
      "Ġavske": 9341,
      "Ġaint": 9342,
      "ĠeotÅĻ": 9343,
      "Ġjet": 9344,
      "Ġzkus": 9345,
      "ĠÃ©ct": 9346,
      "Ġlyr": 9347,
      "Ġesce": 9348,
      "ĠobÄĽt": 9349,
      "Ġojal": 9350,
      "ĠhluÅ¡": 9351,
      "Ġkrav": 9352,
      "Ġevce": 9353,
      "ĠsnÄĽd": 9354,
      "ĠkleÄį": 9355,
      "Ġunku": 9356,
      "Ġzvi": 9357,
      "ĠaÄįni": 9358,
      "ĠÄĽvce": 9359,
      "ĠÄĽÅ¾ich": 9360,
      "ĠuÄįm": 9361,
      "ĠuÄįen": 9362,
      "ĠtÅĻm": 9363,
      "ĠÄĽsni": 9364,
      "Ġadnim": 9365,
      "ĠoÅ¡ik": 9366,
      "Ġavnost": 9367,
      "Ġystan": 9368,
      "Ġeuc": 9369,
      "Ġouchem": 9370,
      "ĠXXAAXA": 9371,
      "ĠÅ¡kÅĻ": 9372,
      "ĠÄĽsno": 9373,
      "ĠoÄįnich": 9374,
      "Ġehle": 9375,
      "ĠevÅĻen": 9376,
      "Ġejvn": 9377,
      "Ġenskym": 9378,
      "ĠenosÅ¥": 9379,
      "Ġegn": 9380,
      "Ġykle": 9381,
      "Ġonde": 9382,
      "Ġybnost": 9383,
      "ĠstkvÄĽl": 9384,
      "ĠÃ¡ctn": 9385,
      "Ġontu": 9386,
      "Ġudle": 9387,
      "ĠzdÅĻim": 9388,
      "ĠalÅ¾b": 9389,
      "Ġtuh": 9390,
      "ĠÃ©Å¡": 9391,
      "Ġrus": 9392,
      "Ġalum": 9393,
      "Ġovich": 9394,
      "ĠÅ¾ne": 9395,
      "Ġinich": 9396,
      "ĠÄĽtev": 9397,
      "Ġonam": 9398,
      "Ġohym": 9399,
      "Ġokat": 9400,
      "Ġebnik": 9401,
      "Ġekce": 9402,
      "Ġorok": 9403,
      "Ġpluj": 9404,
      "Ġutok": 9405,
      "Ġikost": 9406,
      "Ġynce": 9407,
      "Ġistych": 9408,
      "Ġvloh": 9409,
      "ĠyÅ¡ne": 9410,
      "ĠiÅ¡c": 9411,
      "ĠÄĽÅ¾l": 9412,
      "ĠchviÅ¡": 9413,
      "Ġacos": 9414,
      "ĠeÅĻu": 9415,
      "ĠatÅĻiÅ¡": 9416,
      "Ġastnim": 9417,
      "Ġsklem": 9418,
      "ĠÅ¡laÅĻ": 9419,
      "Ġrzt": 9420,
      "Ġrtvo": 9421,
      "Ġohnut": 9422,
      "Ġante": 9423,
      "ĠrpÄĽt": 9424,
      "ĠeoÄį": 9425,
      "ĠouÅ¡tiÅ¡": 9426,
      "Ġpsa": 9427,
      "Ġoukal": 9428,
      "ĠilosÅ¥": 9429,
      "Ġurnym": 9430,
      "ĠrÅ¡c": 9431,
      "ĠadneÅ¡": 9432,
      "ĠiÃ¡ÅĻ": 9433,
      "ĠiskÅĻi": 9434,
      "ĠAXABAB": 9435,
      "Ġulnoc": 9436,
      "ĠÅ¾dal": 9437,
      "Ġaina": 9438,
      "Ġoemi": 9439,
      "Ġuond": 9440,
      "Ġuo": 9441,
      "Ġuer": 9442,
      "ĠyuÅ¾": 9443,
      "Ġouj": 9444,
      "Ġrab": 9445,
      "Ġolum": 9446,
      "Ġesam": 9447,
      "ĠerÄı": 9448,
      "ĠÃ½chv": 9449,
      "Ġevnik": 9450,
      "Ġichod": 9451,
      "ĠeÄįit": 9452,
      "ĠaÅ¾c": 9453,
      "Ġskyt": 9454,
      "Ġblysk": 9455,
      "Ġazc": 9456,
      "Ġulou": 9457,
      "ĠrtÄį": 9458,
      "ĠÄĽvech": 9459,
      "Ġoutem": 9460,
      "Ġzra": 9461,
      "ĠÃ¡skl": 9462,
      "ĠaÅ¾dÄĽn": 9463,
      "Ġustek": 9464,
      "Ġodnich": 9465,
      "Ġatkl": 9466,
      "Ġyslem": 9467,
      "Ġybd": 9468,
      "ĠÄĽÅ¾ko": 9469,
      "ĠetiÅ¡": 9470,
      "Ġpsot": 9471,
      "ĠiÅ¡tim": 9472,
      "ĠiÅĻen": 9473,
      "Ġoztl": 9474,
      "Ġitbam": 9475,
      "ĠuÅ¡nost": 9476,
      "erk": 9477,
      "Ġavli": 9478,
      "Ġanbuh": 9479,
      "Ġojmy": 9480,
      "Ġisma": 9481,
      "Ġathm": 9482,
      "Ġesse": 9483,
      "Ġylna": 9484,
      "ĠeÄįtl": 9485,
      "Ġelkych": 9486,
      "Ġuanc": 9487,
      "Ġizkem": 9488,
      "Ġivko": 9489,
      "ĠeuÅ¡l": 9490,
      "zl": 9491,
      "Ġvor": 9492,
      "ĠyÃ©": 9493,
      "Ġpni": 9494,
      "Ġkj": 9495,
      "Ġman": 9496,
      "Ġdom": 9497,
      "Ġenes": 9498,
      "Ġadzv": 9499,
      "Ġcop": 9500,
      "ĠÄĽtni": 9501,
      "Ġsloh": 9502,
      "ĠoÅĻm": 9503,
      "Ġklus": 9504,
      "ĠiÄįum": 9505,
      "ĠÃºch": 9506,
      "ĠÄĽdky": 9507,
      "Ġacka": 9508,
      "Ġoucit": 9509,
      "ĠÅ¡tr": 9510,
      "ĠÄĽÄįnych": 9511,
      "Ġybech": 9512,
      "Ġadkost": 9513,
      "Ġeznych": 9514,
      "ĠÅ¯ll": 9515,
      "Ġidskym": 9516,
      "ĠyÄįky": 9517,
      "ĠyÄįej": 9518,
      "Ġejth": 9519,
      "Ġanct": 9520,
      "Ġauer": 9521,
      "Ġebnim": 9522,
      "ĠiÅĻat": 9523,
      "Ġerte": 9524,
      "ĠuÄįnou": 9525,
      "Ġarvach": 9526,
      "Ġurnou": 9527,
      "ĠniÅ¥": 9528,
      "Ġehkou": 9529,
      "Ġumnou": 9530,
      "Ġojskem": 9531,
      "Ġartu": 9532,
      "Ġubna": 9533,
      "Ġeodstr": 9534,
      "Ġudcem": 9535,
      "Ġogg": 9536,
      "Ġiskly": 9537,
      "ĠistÅĻi": 9538,
      "ĠamÄĽÅ¥": 9539,
      "Ġaxi": 9540,
      "ĠrtuÅ¥": 9541,
      "Ġaonu": 9542,
      "Ġequ": 9543,
      "Ġeuchr": 9544,
      "ĠiostÅĻ": 9545,
      "ĠdÄĽr": 9546,
      "Ġrot": 9547,
      "ĠemaÅ¡": 9548,
[...]
