{
  "version": "1.0",
  "truncation": null,
  "padding": null,
  "added_tokens": [
    {
      "id": 0,
      "content": "<|EOS|>",
      "single_word": false,
      "lstrip": false,
      "rstrip": false,
      "normalized": false,
      "special": true
    },
    {
      "id": 1,
      "content": "<|PAD|>",
      "single_word": false,
      "lstrip": false,
      "rstrip": false,
      "normalized": false,
      "special": true
    },
    {
      "id": 2,
      "content": "<|UNK|>",
      "single_word": false,
      "lstrip": false,
      "rstrip": false,
      "normalized": false,
      "special": true
    }
  ],
  "normalizer": null,
  "pre_tokenizer": {
    "type": "ByteLevel",
    "add_prefix_space": false,
    "trim_offsets": true,
    "use_regex": true
  },
  "post_processor": {
    "type": "ByteLevel",
    "add_prefix_space": true,
    "trim_offsets": false,
    "use_regex": true
  },
  "decoder": {
    "type": "ByteLevel",
    "add_prefix_space": true,
    "trim_offsets": true,
    "use_regex": true
  },
  "model": {
    "type": "Unigram",
    "unk_id": 2,
    "vocab": [
      [
        "<|EOS|>",
        0.0
      ],
      [
        "<|PAD|>",
        0.0
      ],
      [
        "<|UNK|>",
        0.0
      ],
      [
        "Ġ",
        -1.8360767121114172
      ],
      [
        "#",
        -2.4445040857625617
      ],
      [
        "Ċ",
        -2.607589009740547
      ],
      [
        "1",
        -3.104758762850137
      ],
      [
        ",",
        -3.137684099377136
      ],
      [
        "0",
        -3.7360259658603727
      ],
      [
        "a",
        -4.067627406932617
      ],
      [
        "8",
        -4.12770760629247
      ],
      [
        "Ġv",
        -4.538545023209549
      ],
      [
        ".",
        -4.572861926614902
      ],
      [
        "Ġse",
        -4.687084256976883
      ],
      [
        "y",
        -4.81176319711855
      ],
      [
        "i",
        -4.971612095833725
      ],
      [
        "u",
        -5.04954975337645
      ],
      [
        "J",
        -5.060252402781341
      ],
      [
        "9",
        -5.1496509581285235
      ],
      [
        "Ġ18",
        -5.329068927235696
      ],
      [
        "T",
        -5.352430131943466
      ],
      [
        "6",
        -5.353138506457981
      ],
      [
        "7",
        -5.393620914304581
      ],
      [
        "Ġna",
        -5.412747431065075
      ],
      [
        "!",
        -5.417232522231778
      ],
      [
        "Ġ190",
        -5.50125424888931
      ],
      [
        "Ġ19",
        -5.531256565042961
      ],
      [
        "k",
        -5.597379071437389
      ],
      [
        "ABAB",
        -5.692057506860817
      ],
      [
        "2",
        -5.746220861982831
      ],
      [
        "em",
        -5.7748212419888265
      ],
      [
        "Ġz",
        -5.816241325827006
      ],
      [
        "Ġjak",
        -5.846263178981312
      ],
      [
        "20",
        -5.8527941874149345
      ],
      [
        "ch",
        -5.864757859296702
      ],
      [
        "4",
        -5.874919798690144
      ],
      [
        "Ġs",
        -5.898546042541998
      ],
      [
        "m",
        -5.939916020519014
      ],
      [
        "o",
        -5.949821567246058
      ],
      [
        "XXXX",
        -5.971192312879305
      ],
      [
        "3",
        -6.0721155858684135
      ],
      [
        "ou",
        -6.119827093921284
      ],
      [
        "Ġto",
        -6.137062722899229
      ],
      [
        "Ġje",
        -6.1469165882440056
      ],
      [
        "ĠÅ¾e",
        -6.2345681819112215
      ],
      [
        "?",
        -6.259171998855027
      ],
      [
        "5",
        -6.337823412940741
      ],
      [
        "e",
        -6.387004167356581
      ],
      [
        "Ġdo",
        -6.391474568809937
      ],
      [
        "AABB",
        -6.394541069404044
      ],
      [
        "Ã¡",
        -6.447737697084108
      ],
      [
        "Ġjen",
        -6.4732844687611575
      ],
      [
        "Ġco",
        -6.478602626435919
      ],
      [
        "Ġtak",
        -6.5343880798825555
      ],
      [
        "Ġpo",
        -6.548768749815828
      ],
      [
        "Ġjsem",
        -6.566603496384696
      ],
      [
        "XAXA",
        -6.58242461223084
      ],
      [
        "Ġza",
        -6.587662475398858
      ],
      [
        "N",
        -6.644192685560922
      ],
      [
        "ĠkdyÅ¾",
        -6.663909898014454
      ],
      [
        "Ġtu",
        -6.669318908559868
      ],
      [
        "ho",
        -6.727004436917252
      ],
      [
        "ÄĽ",
        -6.764529935917839
      ],
      [
        "nou",
        -6.797471233437253
      ],
      [
        "...",
        -6.8205538061987685
      ],
      [
        "Ġjako",
        -6.83223846866086
      ],
      [
        "XX",
        -6.834615861777731
      ],
      [
        "ĠvÅ¡ak",
        -6.839510645210824
      ],
      [
        "Ġby",
        -6.842112444885213
      ],
      [
        "Ġsi",
        -6.902899292525188
      ],
      [
        "Ġve",
        -6.903056109257376
      ],
      [
        "ĠjÃ¡",
        -6.9176183637418145
      ],
      [
        "ÃŃ",
        -6.919289591782201
      ],
      [
        "CC",
        -6.924638173941172
      ],
      [
        "Ġty",
        -6.964933289261763
      ],
      [
        "Ġmi",
        -6.972860556584909
      ],
      [
        "Ġtam",
        -6.987782670966942
      ],
      [
        "ĠjiÅ¾",
        -7.008872461657868
      ],
      [
        "Ã½ch",
        -7.047049237411509
      ],
      [
        "Ġten",
        -7.04787477614752
      ],
      [
        "Ġkde",
        -7.062010001790442
      ],
      [
        "Ġbyl",
        -7.082613139614098
      ],
      [
        "Ġmu",
        -7.094223635014959
      ],
      [
        "ĠjeÅ¾",
        -7.11415986311961
      ],
      [
        "ĠsvÃ©",
        -7.129167666702399
      ],
      [
        "Ġjeho",
        -7.141823374685444
      ],
      [
        "Ġnad",
        -7.148218877690601
      ],
      [
        "nÃŃ",
        -7.155098191802454
      ],
      [
        "ĠmÃ¡",
        -7.175912808422108
      ],
      [
        "ABBA",
        -7.202737627096386
      ],
      [
        "Ġsrdce",
        -7.211243243583981
      ],
      [
        "s",
        -7.216101570455118
      ],
      [
        "ech",
        -7.264811102437035
      ],
      [
        "Ġzas",
        -7.338798677563052
      ],
      [
        "Ġpak",
        -7.340751334235369
      ],
      [
        "ĠjenÅ¾",
        -7.35594152424518
      ],
      [
        "Ã¡ch",
        -7.361965613394307
      ],
      [
        "Ġpro",
        -7.378779307004244
      ],
      [
        "Ġmne",
        -7.397339202578662
      ],
      [
        "AABC",
        -7.404748090909097
      ],
      [
        "ĠnÃ¡m",
        -7.40807376701976
      ],
      [
        "ĠaÅ¾",
        -7.4091740311267476
      ],
      [
        "Ġod",
        -7.412801519254499
      ],
      [
        "CD",
        -7.426932638814453
      ],
      [
        "ĠÃ³",
        -7.4477868960022455
      ],
      [
        "Å¡",
        -7.44985255647625
      ],
      [
        "Ġne",
        -7.466401656392756
      ],
      [
        "Ġti",
        -7.473924722736735
      ],
      [
        "ĠmÃ©",
        -7.48185381478476
      ],
      [
        "ĠvÅ¡e",
        -7.493073682964809
      ],
      [
        "Ġpod",
        -7.513145331589143
      ],
      [
        "ĠteÄı",
        -7.515658437505509
      ],
      [
        "Ã¡nÃŃ",
        -7.53365936640505
      ],
      [
        "v",
        -7.5392966813235915
      ],
      [
        "enÃŃ",
        -7.549699434414986
      ],
      [
        "Ġjest",
        -7.567337016371965
      ],
      [
        "ĠuÅ¾",
        -7.582304277208086
      ],
      [
        "Ġden",
        -7.588580942036975
      ],
      [
        "Ġji",
        -7.595370039911003
      ],
      [
        "D",
        -7.598075173200517
      ],
      [
        "ĠjÃŃ",
        -7.60643001787987
      ],
      [
        "Ġta",
        -7.610526074699536
      ],
      [
        "te",
        -7.621789774924068
      ],
      [
        "Ġsti",
        -7.628292706874014
      ],
      [
        "Ġkdo",
        -7.629516689514018
      ],
      [
        "Ġbez",
        -7.635292478026223
      ],
      [
        "ĠpÅĻed",
        -7.639953965980954
      ],
      [
        "ĠmnÄĽ",
        -7.64192700008636
      ],
      [
        "ĠmÅ¯j",
        -7.643354694159003
      ],
      [
        "Ġsvou",
        -7.651696570143946
      ],
      [
        "nÃŃm",
        -7.653133411404744
      ],
      [
        "Ġon",
        -7.670921088137268
      ],
      [
        "Ġjsi",
        -7.68616140839517
      ],
      [
        "Ã©",
        -7.687746810696309
      ],
      [
        "ĠvÅ¾dy",
        -7.691180896552913
      ],
      [
        "Ġale",
        -7.697131919597279
      ],
      [
        "ce",
        -7.703818458615157
      ],
      [
        "t",
        -7.710742084367064
      ],
      [
        "Å¯",
        -7.71292922249728
      ],
      [
        "ÃŃch",
        -7.716132758457759
      ],
      [
        "Ġjsou",
        -7.7285758318571744
      ],
      [
        "ĠjeÅ¡tÄĽ",
        -7.732338228055985
      ],
      [
        "ĠsvÄĽt",
        -7.735998705641542
      ],
      [
        "ĠtÄĽ",
        -7.7398717131207295
      ],
      [
        "li",
        -7.749977709474523
      ],
      [
        "ĠduÅ¡e",
        -7.759735387662101
      ],
      [
        "ĠnÃ¡s",
        -7.760404566625418
      ],
      [
        "X",
        -7.766368844581455
      ],
      [
        "ĠneÅ¾",
        -7.773838342115244
      ],
      [
        "Ġtom",
        -7.775146405873938
      ],
      [
        "Ã©ho",
        -7.782737998445683
      ],
      [
        "ĠdÃ¡l",
        -7.783655086631127
      ],
      [
        "Ġjej",
        -7.802065968508224
      ],
      [
        "ĠsÃ¡m",
        -7.809498508670988
      ],
      [
        "ĠtÃ©",
        -7.816824820482044
      ],
      [
        "nÃ¡",
        -7.852834483508749
      ],
      [
        "Ġzrak",
        -7.854174479241896
      ],
      [
        "ĠtvÃ©",
        -7.855727978256402
      ],
      [
        "Ġkdy",
        -7.856512081850957
      ],
      [
        "Ġzde",
        -7.856990079302056
      ],
      [
        "Ġsnad",
        -7.863560546068223
      ],
      [
        "Ġze",
        -7.871925004826711
      ],
      [
        "ĠaÅ¥",
        -7.882854401554928
      ],
      [
        "ĠkvÄĽt",
        -7.889549600462054
      ],
      [
        "ek",
        -7.8988795836036
      ],
      [
        "ĠjejÃŃ",
        -7.909098096268687
      ],
      [
        "ĠÅ¾ivot",
        -7.912558969479951
      ],
      [
        "ovÃ©",
        -7.920820992056681
      ],
      [
        "mi",
        -7.926412842375813
      ],
      [
        "nÄĽ",
        -7.926993813189236
      ],
      [
        "Ġsem",
        -7.953696549675275
      ],
      [
        "ĠduÅ¡i",
        -7.9602206206840265
      ],
      [
        "Ġjsme",
        -7.967268881643463
      ],
      [
        "ĠÄįas",
        -7.968890852925126
      ],
      [
        "ĠpÅĻi",
        -7.98709958884195
      ],
      [
        "Ġdnes",
        -7.994699641928005
      ],
      [
        "ĠnenÃŃ",
        -8.006056071038302
      ],
      [
        "ĠvÃ¡m",
        -8.023097866569458
      ],
      [
        "ĠoÄįi",
        -8.023213304594801
      ],
      [
        "Ġneb",
        -8.033009776916641
      ],
      [
        "ila",
        -8.035312236754214
      ],
      [
        "Ġbych",
        -8.040268365391912
      ],
      [
        "Å¥",
        -8.04923110030791
      ],
      [
        "Ġslunce",
        -8.050178270242496
      ],
      [
        "Ġvy",
        -8.057356914496566
      ],
      [
        "Ġbylo",
        -8.06345054062809
      ],
      [
        "ajÃŃ",
        -8.086131934241159
      ],
      [
        "ĠstÃŃ",
        -8.08903188915363
      ],
      [
        "Ġval",
        -8.091319193406003
      ],
      [
        "Ġach",
        -8.101351779471932
      ],
      [
        "kem",
        -8.103308695890853
      ],
      [
        "ami",
        -8.105720909269255
      ],
      [
        "Ġlet",
        -8.11106555933254
      ],
      [
        "ĠnÄĽm",
        -8.120085000252898
      ],
      [
        "Ġala",
        -8.122357924357356
      ],
      [
        "l",
        -8.123327224186442
      ],
      [
        "ĠtÄĽch",
        -8.125962327327777
      ],
      [
        "Ġbude",
        -8.127073349486293
      ],
      [
        "ĠvÃŃc",
        -8.127535359055466
      ],
      [
        "Ġni",
        -8.128759786120701
      ],
      [
        "Ġkol",
        -8.131271141724554
      ],
      [
        "A",
        -8.135350736181133
      ],
      [
        "ĠtÃŃm",
        -8.136411901092423
      ],
      [
        "Ġzem",
        -8.149557906733875
      ],
      [
        "ĠmÄĽl",
        -8.151320438083863
      ],
      [
        "me",
        -8.16513305085428
      ],
      [
        "Ã½",
        -8.167328934240121
      ],
      [
        "ĠsvÅ¯j",
        -8.16779186080569
      ],
      [
        "Ġjim",
        -8.172570061319789
      ],
      [
        "Ġjich",
        -8.172876827357843
      ],
      [
        "ĠbÅ¯h",
        -8.185110243013305
      ],
      [
        "ĠlÃ¡sky",
        -8.196195148225485
      ],
      [
        "Ġdal",
        -8.197728746546595
      ],
      [
        "ĠvÅ¡ech",
        -8.200011036226153
      ],
      [
        "Ġbyla",
        -8.219247045724117
      ],
      [
        "ĠvÃ¡s",
        -8.225053417692692
      ],
      [
        "ĠtÃ©Å¾",
        -8.230713792935477
      ],
      [
        "Ġnoc",
        -8.230750546140584
      ],
      [
        "Ġani",
        -8.231631875243695
      ],
      [
        "Ġsen",
        -8.23339054089184
      ],
      [
        "ĠÅ¾itÃŃ",
        -8.23936749048273
      ],
      [
        "ĠsobÄĽ",
        -8.250053077515757
      ],
      [
        "Ġhlas",
        -8.250214319794932
      ],
      [
        "Ġkolem",
        -8.252155990369603
      ],
      [
        "Å¯m",
        -8.255053808233772
      ],
      [
        "ĠtvÅ¯j",
        -8.272869903946416
      ],
      [
        "Ġmy",
        -8.27953802425218
      ],
      [
        "ĠproÄį",
        -8.280120121783582
      ],
      [
        "ĠkaÅ¾dÃ½",
        -8.281649535772619
      ],
      [
        "ĠtobÄĽ",
        -8.290272106956001
      ],
      [
        "ĠsvÃ½ch",
        -8.29340141452173
      ],
      [
        "ÄĽnÃŃ",
        -8.297327693410875
      ],
      [
        "Ġhlav",
        -8.297779811149436
      ],
      [
        "ĠobÄĽ",
        -8.300197596421137
      ],
      [
        "Ġhned",
        -8.305163977819683
      ],
      [
        "Ġhle",
        -8.325097096463304
      ],
      [
        "ĠzemÄĽ",
        -8.32900111374666
      ],
      [
        "c",
        -8.337669782591927
      ],
      [
        "CB",
        -8.34153344801034
      ],
      [
        "ĠpÃ¡n",
        -8.342957907592911
      ],
      [
        "ĠrÃ¡d",
        -8.351894970930559
      ],
      [
        "ABBC",
        -8.355650995856992
      ],
      [
        "Ġruce",
        -8.36257333285611
      ],
      [
        "Ġkam",
        -8.364640911953881
      ],
      [
        "ĠleÄį",
        -8.365916361215483
      ],
      [
        "Ġlid",
        -8.37393464709855
      ],
      [
        "Ġchu",
        -8.375284972343605
      ],
      [
        "ĠsvÃ½m",
        -8.378650021312614
      ],
      [
        "Ġku",
        -8.38062062464845
      ],
      [
        "Ġsrdci",
        -8.383885227841287
      ],
      [
        "Ġmoje",
        -8.39043270546687
      ],
      [
        "ĠvÅ¡ecko",
        -8.391284772557345
      ],
      [
        "Ġzemi",
        -8.395873237418243
      ],
      [
        "Ġost",
        -8.397735168656707
      ],
      [
        "Ġlem",
        -8.39857120659616
      ],
      [
        "ĠmÃ¡m",
        -8.3991345087017
      ],
      [
        "ĠnÃ¡Å¡",
        -8.40171278182041
      ],
      [
        "ĠmÄĽ",
        -8.403364454026036
      ],
      [
        "ĠoÄįÃŃ",
        -8.403961472490236
      ],
      [
        "ali",
        -8.406867732246084
      ],
      [
        "Ġjejich",
        -8.41286709225109
      ],
      [
        "ĠpÅĻec",
        -8.431519461380057
      ],
      [
        "Ġmou",
        -8.43209591523259
      ],
      [
        "Ġnebe",
        -8.434585341912625
      ],
      [
        "ĠÅ¡tÄĽstÃŃ",
        -8.434595616957008
      ],
      [
        "Ġvou",
        -8.436014392813496
      ],
      [
        "Ġnich",
        -8.442319190499449
      ],
      [
        "ĠpÅĻes",
        -8.444067373682618
      ],
      [
        "ĠnaÅ¡e",
        -8.445383347834298
      ],
      [
        "ÃŃcÃŃ",
        -8.452863789366448
      ],
      [
        "Ġjste",
        -8.457303582551555
      ],
      [
        "Ġjenom",
        -8.464935033928544
      ],
      [
        "BC",
        -8.47519768251634
      ],
      [
        "Ġtebe",
        -8.476812789749758
      ],
      [
        "Ġtem",
        -8.478898047272937
      ],
      [
        "Ġnoci",
        -8.483562035988351
      ],
      [
        "ĠbuÄı",
        -8.485306619981868
      ],
      [
        "Ġhlavu",
        -8.487258048768565
      ],
      [
        "ĠbÃ½t",
        -8.4907932801363
      ],
      [
        "ĠvÄĽt",
        -8.494034704832652
      ],
      [
        "Ġdne",
        -8.500921532665334
      ],
      [
        "Ġduch",
        -8.504761100383956
      ],
      [
        "ÄĽla",
        -8.506783309721405
      ],
      [
        "Ġnic",
        -8.509338140988577
      ],
      [
        "Ġuje",
        -8.514301014226994
      ],
      [
        "ĠdÄĽl",
        -8.52425574130926
      ],
      [
        "Ġke",
        -8.529630030407748
      ],
      [
        "ĠcelÃ½",
        -8.530378121356325
      ],
      [
        "ĠÅ¡el",
        -8.531971816616348
      ],
      [
        "ÃŃvÃ¡",
        -8.544170034849813
      ],
      [
        "iny",
        -8.550957857066605
      ],
      [
        "ĠojÃŃ",
        -8.55147588471286
      ],
      [
        "ice",
        -8.554356873778884
      ],
      [
        "Ġtou",
        -8.56039213647661
      ],
      [
        "Ġkrev",
        -8.575167497014727
      ],
      [
        "Ġaby",
        -8.577868217278311
      ],
      [
        "ĠtakÃ©",
        -8.57874915055581
      ],
      [
        "ĠÄįi",
        -8.586297321967537
      ],
      [
        "nÃ½m",
        -8.602489626357725
      ],
      [
        "ĠmoÅĻe",
        -8.60299382785672
      ],
      [
        "Ġsta",
        -8.60332674749907
      ],
      [
        "ĠpÃŃseÅĪ",
        -8.605888929439807
      ],
      [
        "ĠnÃ¡hle",
        -8.607703809882793
      ],
      [
        "ĠchvÃŃli",
        -8.608985603573371
      ],
      [
        "Ġles",
        -8.617599251532845
      ],
      [
        "ĠchtÄĽl",
        -8.62237852422217
      ],
      [
        "Ġkou",
        -8.632441894915617
      ],
      [
        "Ġjde",
        -8.633844939302364
      ],
      [
        "Ġtoho",
        -8.639409360554398
      ],
      [
        "ĠtvÃ¡ÅĻ",
        -8.639520109768183
      ],
      [
        "Ġoko",
        -8.641403595809049
      ],
      [
        "ĠÄįlovÄĽk",
        -8.643722203555669
      ],
      [
        "ĠvÅ¾dyÅ¥",
        -8.657078806991509
      ],
      [
        "Ġkdys",
        -8.657676898707505
      ],
      [
        "ĠvÃŃm",
        -8.661963883511547
      ],
      [
        "ĠnynÃŃ",
        -8.667328115070877
      ],
      [
        "ABCD",
        -8.668090616229374
      ],
      [
        "Ġzda",
        -8.670995365510072
      ],
      [
        "ĠsvÃ©ho",
        -8.671792253711518
      ],
      [
        "ĠkrÃ¡l",
        -8.67302428663878
      ],
      [
        "ÃŃce",
        -8.674589592125814
      ],
      [
        "Ġmezi",
        -8.674939360563602
      ],
      [
        "z",
        -8.675386958143829
      ],
      [
        "ĠdÃŃtÄĽ",
        -8.681398213597253
      ],
      [
        "oje",
        -8.686510172965573
      ],
      [
        "ĠlÃ¡ska",
        -8.690920761765078
      ],
      [
        "ĠstarÃ½",
        -8.691207633448428
      ],
      [
        "aly",
        -8.698136753825484
      ],
      [
        "ĠstÃŃn",
        -8.698587760876105
      ],
      [
        "ĠsvÃ©m",
        -8.701461036999616
      ],
      [
        "ĠtvÃ¡",
        -8.711237399577756
      ],
      [
        "Ġvln",
        -8.711556976604797
      ],
      [
        "nÃ½ch",
        -8.713014564561702
      ],
      [
        "aje",
        -8.713692623133191
      ],
      [
        "Ġnes",
        -8.714644344978817
      ],
      [
        "enÃ©",
        -8.717155308473902
      ],
      [
        "Ġela",
        -8.719091208323862
      ],
      [
        "AB",
        -8.726121846020403
      ],
      [
        "ÃŃtÃŃ",
        -8.726308517204354
      ],
      [
        "Ġba",
        -8.728465170523897
      ],
      [
        "ĠstÃ¡le",
        -8.73203938774901
      ],
      [
        "Å¾",
        -8.739087135198021
      ],
      [
        "Ġdech",
        -8.739727215881643
      ],
      [
        "Ã¡m",
        -8.743125114367066
      ],
      [
        "ĠtiÅ¡e",
        -8.751096244911954
      ],
      [
        "Ġjednou",
        -8.752494217040056
      ],
      [
        "Ġnem",
        -8.756222204108651
      ],
      [
        "ĠkterÃ©",
        -8.756266972189449
      ],
      [
        "ĠkterÃ½",
        -8.757902653240567
      ],
      [
        "Ã¡vÃ¡",
        -8.759598439253363
      ],
      [
        "ĠstojÃŃ",
        -8.769943561786723
      ],
      [
        "Ġslova",
        -8.77010245039604
      ],
      [
        "ĠjuÅ¾",
        -8.770776390198373
      ],
      [
        "Ġzase",
        -8.771678202498244
      ],
      [
        "ĠcoÅ¾",
        -8.780836827342634
      ],
      [
        "ĠsvÄĽta",
        -8.781095398523128
      ],
      [
        "Ġoku",
        -8.782780816223475
      ],
      [
        "ĠvÃŃce",
        -8.786465943065568
      ],
      [
        "ĠznÃŃ",
        -8.787453604895704
      ],
      [
        "ku",
        -8.78761889929932
      ],
      [
        "Ġjeden",
        -8.788333404543623
      ],
      [
        "ĠaÄį",
        -8.788448949870132
      ],
      [
        "ĠveÄįer",
        -8.792610299123222
      ],
      [
        "Ġnebes",
        -8.794851415775137
      ],
      [
        "enÃ½",
        -8.796523710197512
      ],
      [
        "ena",
        -8.798120660315115
      ],
      [
        "Ġrukou",
        -8.798812949424688
      ],
      [
        "cky",
        -8.801230433859535
      ],
      [
        "ĠoÅĻe",
        -8.805196608129078
      ],
      [
        "Ġona",
        -8.813468404379392
      ],
      [
        "ĠÅ¾il",
        -8.813822880102586
      ],
      [
        "nul",
        -8.82143553540852
      ],
      [
        "ÃŃti",
        -8.82318266301092
      ],
      [
        "Ġest",
        -8.82597771988752
      ],
      [
        "Ġebe",
        -8.828877531601695
      ],
      [
        "ĠmuÅ¾",
        -8.830159490187256
      ],
      [
        "ÄĽje",
        -8.831840367402439
      ],
      [
        "Ġnebi",
        -8.837110379079128
      ],
      [
        "Ġsebe",
        -8.839573902372033
      ],
      [
        "Ġnikdy",
        -8.839885892540408
      ],
      [
        "ĠrÅ¯Å¾e",
        -8.840049468093657
      ],
      [
        "ĠÃºsmÄĽv",
        -8.84742906873073
      ],
      [
        "Ġas",
        -8.851420171543708
      ],
      [
        "ABCC",
        -8.85393101474604
      ],
      [
        "Ġili",
        -8.859460150798997
      ],
      [
        "ĠÄįÃŃm",
        -8.862855352596215
      ],
      [
        "ĠboÅ¾ÃŃ",
        -8.866489776451768
      ],
      [
        "Ġtomu",
        -8.867232610584763
      ],
      [
        "Ġtys",
        -8.868683471104942
      ],
      [
        "ady",
        -8.870986890711013
      ],
      [
        "Ġmnou",
        -8.872669281559183
      ],
      [
        "Ġhor",
        -8.87463964396119
      ],
      [
        "ĠzpÄĽv",
        -8.87622075125479
      ],
      [
        "ky",
        -8.878584310869545
      ],
      [
        "ĠbÃŃlÃ½",
        -8.879929162847699
      ],
      [
        "ÃŃrÃ¡",
        -8.884018099169179
      ],
      [
        "Ġchce",
        -8.885282839352243
      ],
      [
        "ĠhvÄĽzd",
        -8.891390971220165
      ],
      [
        "to",
        -8.894999855649024
      ],
      [
        "ĠvÅ¡em",
        -8.895352446893497
      ],
      [
        "ĠÅ¾al",
        -8.900876311465368
      ],
      [
        "ĠnÃŃÅ¾",
        -8.90186109980209
      ],
      [
        "ati",
        -8.904118130290431
      ],
      [
        "etÃŃ",
        -8.9049424171356
      ],
      [
        "Ġdruh",
        -8.905739958317293
      ],
      [
        "Ġcit",
        -8.906346314775623
      ],
      [
        "ĠdÃ¡le",
        -8.910039393359854
      ],
      [
        "ilo",
        -8.917807213508917
      ],
      [
        "ĠbÃŃlÃ©",
        -8.919905490883702
      ],
      [
        "Ġemi",
        -8.923690536787596
      ],
      [
        "n",
        -8.929244385741116
      ],
      [
        "Ġsotva",
        -8.929545218652281
      ],
      [
        "Ġvzduch",
        -8.929921957878229
      ],
      [
        "ĠprvnÃŃ",
        -8.935543625932578
      ],
      [
        "avÃŃ",
        -8.939071002622095
      ],
      [
        "ĠstÃ¡l",
        -8.940723410557485
      ],
      [
        "Å¯v",
        -8.94176647364299
      ],
      [
        "ĠsmÃŃch",
        -8.949516799388345
      ],
      [
        "Ġsyn",
        -8.950298328778215
      ],
      [
        "ĠoÅĻÃŃ",
        -8.952879948679193
      ],
      [
        "ĠnovÃ½",
        -8.956782558434687
      ],
      [
        "ĠtvÃ½ch",
        -8.95845544336277
      ],
      [
        "Ġsmrti",
        -8.96256948498826
      ],
      [
        "Ġchci",
        -8.962837703510335
      ],
      [
        "avy",
        -8.97154294585391
      ],
      [
        "nu",
        -8.971939446082292
      ],
      [
        "eny",
        -8.977012823230341
      ],
      [
        "Ġova",
        -8.982136067338123
      ],
      [
        "Ġvod",
        -8.988550323865397
      ],
      [
        "ĠpÅĻece",
        -8.988906849335573
      ],
      [
        "Ġhem",
        -8.990268733707568
      ],
      [
        "ĠvidÄĽl",
        -8.992071726409058
      ],
      [
        "ĠsÃŃl",
        -8.993128158261843
      ],
      [
        "Ġruku",
        -8.99510850615956
      ],
      [
        "nce",
        -8.996317393769743
      ],
      [
        "Ġkraj",
        -8.997839632571303
      ],
      [
        "ĠnÃ¡rod",
        -8.999492913420095
      ],
      [
        "ÄĽti",
        -8.999865226199441
      ],
      [
        "ĠzlatÃ½",
        -9.002836153021844
      ],
      [
        "ĠkterÃ¡",
        -9.005437273374445
      ],
      [
        "nÃ©",
        -9.008516602819467
      ],
      [
        "XB",
        -9.011505876112446
      ],
      [
        "Ġane",
        -9.011771633755611
      ],
      [
        "Ġret",
        -9.013195768478033
      ],
      [
        "ĠduÅ¡ÃŃ",
        -9.019929396615145
      ],
      [
        "avÃ½",
        -9.020361948804682
      ],
      [
        "Ġdlouho",
        -9.020801778903133
      ],
      [
        "ĠdÄĽti",
        -9.023483600506948
      ],
      [
        "Ã¡ti",
        -9.02682110635414
      ],
      [
        "Ġbys",
        -9.030870938159351
      ],
      [
        "Ġoji",
        -9.031876421531162
      ],
      [
        "Ġticho",
        -9.034124734224134
      ],
      [
        "iti",
        -9.040392875359409
      ],
      [
        "ĠleÅ¾ÃŃ",
        -9.040833534531727
      ],
      [
        "Ġven",
        -9.041523674567776
      ],
      [
        "tky",
        -9.044796297914306
      ],
      [
        "Ġtvoje",
        -9.044953474882293
      ],
      [
        "ĠdÃ¡vno",
        -9.046165388225363
      ],
      [
        "ĠutÃŃ",
        -9.048583163408052
      ],
      [
        "j",
        -9.048614896035893
      ],
      [
        "til",
        -9.049875668294026
      ],
      [
        "p",
        -9.050839095033162
      ],
      [
        "Ġsmrt",
        -9.052352535781484
      ],
      [
        "ĠzdÃ¡",
        -9.052418763558064
      ],
      [
        "ĠmÃ½ch",
        -9.053350606311541
      ],
      [
        "Ġled",
        -9.053420155946176
      ],
      [
        "Ġhou",
        -9.05468052462027
      ],
      [
        "Ã¡le",
        -9.055006408153005
      ],
      [
        "Ã½mi",
        -9.055085209487968
      ],
      [
        "ĠuÅ¡ÃŃ",
        -9.061575291474735
      ],
      [
        "ĠzÃ¡ÅĻ",
        -9.063123921800939
      ],
      [
        "Ġboj",
        -9.064433064698681
      ],
      [
        "Ġvlasti",
        -9.065635746655365
      ],
      [
        "Ã©mu",
        -9.067769868812922
      ],
      [
        "Ġdiv",
        -9.076228860508266
      ],
      [
        "Ã¡na",
        -9.080479929606877
      ],
      [
        "ĠletÃŃ",
        -9.084707423535969
      ],
      [
        "onÃŃ",
        -9.087445458061886
      ],
      [
        "Ġpane",
        -9.092420952077985
      ],
      [
        "Ã½vÃ¡",
        -9.093534865152677
      ],
      [
        "ci",
        -9.09429600392649
      ],
      [
        "ĠdobÅĻe",
        -9.095126496303552
      ],
      [
        "Ġele",
        -9.095362454882913
      ],
      [
        "ĠnuÅ¾",
        -9.095804815584533
      ],
      [
        "Ġlas",
        -9.096529797614425
      ],
      [
        "Ġosud",
        -9.096647185634644
      ],
      [
        "ĠcizÃŃ",
        -9.100230012706088
      ],
      [
        "tvÃŃ",
        -9.10220423334256
      ],
      [
        "ĠhvÄĽzdy",
        -9.102797123280991
      ],
      [
        "Ġklid",
        -9.103240327021574
      ],
      [
        "ĠchvÃŃle",
        -9.10437896662708
      ],
      [
        "Ġstran",
        -9.104777656931695
      ],
      [
        "Ġlou",
        -9.110370838253235
      ],
      [
        "ĠboÅ¾e",
        -9.110380202581531
      ],
      [
        "ĠtoÅ¥",
        -9.111144390081993
      ],
      [
        "ĠzlatÃ©",
        -9.111590997840578
      ],
      [
        "Ġdem",
        -9.112163622079757
      ],
      [
        "Ġplamen",
        -9.113709372700615
      ],
      [
        "Ġsvoje",
        -9.114375418929662
      ],
      [
        "Ġdou",
        -9.114749576136878
      ],
      [
        "nÃ©m",
        -9.116160184214381
      ],
      [
        "ĠsnÅ¯",
        -9.119695441277397
      ],
      [
        "ĠvÅ¡ecky",
        -9.120563851870243
      ],
      [
        "ily",
        -9.12264661523374
      ],
      [
        "ici",
        -9.124121042620503
      ],
      [
        "ĠmusÃŃ",
        -9.124961087506982
      ],
      [
        "ÃŃci",
        -9.128942121978197
      ],
      [
        "jÅ¡ÃŃ",
        -9.132857067386794
      ],
      [
        "Ġvat",
        -9.133078583844288
      ],
      [
        "ĠÅ¾ena",
        -9.134629502433828
      ],
      [
        "Ġkrok",
        -9.134823350370748
      ],
      [
        "ÄĽlo",
        -9.135303457528542
      ],
      [
        "ĠsvÄĽtÄĽ",
        -9.136471226194507
      ],
      [
        "Ġpohled",
        -9.136745898278779
      ],
      [
        "Ġhrob",
        -9.137617564197942
      ],
      [
        "Ġadu",
        -9.138036831661001
      ],
      [
        "Ġproto",
        -9.138777807986866
      ],
      [
        "Ġdav",
        -9.138923169422567
      ],
      [
        "ĠnovÃ©",
        -9.139434435392733
      ],
      [
        "Ġstrom",
        -9.142255265611423
      ],
      [
        "Ġjas",
        -9.143153215967988
      ],
      [
        "ĠvÄĽc",
        -9.146107520817495
      ],
      [
        "ĠÄįasto",
        -9.147142480850059
      ],
      [
        "ĠÄįelo",
        -9.147586010299044
      ],
      [
        "ĠmeÄį",
        -9.149036920847847
      ],
      [
        "enÃ¡",
        -9.149139302430457
      ],
      [
        "Ġlist",
        -9.15226233980473
      ],
      [
        "ĠpanÃŃ",
        -9.152728654815602
      ],
      [
        "Ġese",
        -9.153940486124869
      ],
      [
        "r",
        -9.156141026181341
      ],
      [
        "ĠÅ¡at",
        -9.158502487004007
      ],
      [
        "Ġtebou",
        -9.158945014560766
      ],
      [
        "Ġkdes",
        -9.1592201430277
      ],
      [
        "ĠposlednÃŃ",
        -9.15927473189221
      ],
      [
        "Ġsky",
        -9.16014703153879
      ],
      [
        "ĠcelÃ©",
        -9.161637744646068
      ],
      [
        "avu",
        -9.165918589000956
      ],
      [
        "ĠprÃ½",
        -9.169157472899355
      ],
      [
        "Ġdla",
        -9.169513238358759
      ],
      [
        "ĠvlastnÃŃ",
        -9.169715617107988
      ],
      [
        "Ġotec",
        -9.171737138109814
      ],
      [
        "AXAX",
        -9.177183214038797
      ],
      [
        "skÃ©",
        -9.177828255058122
      ],
      [
        "Ġblesk",
        -9.180041152240166
      ],
      [
        "Ġjemu",
        -9.180694412343621
      ],
      [
        "Ġruka",
        -9.180778434138364
      ],
      [
        "ĠtÄĽlo",
        -9.182912480411941
      ],
      [
        "Ġrem",
        -9.184110250895436
      ],
      [
        "itÃŃ",
        -9.184398962325082
      ],
      [
        "anÃŃ",
        -9.184655750384744
      ],
      [
        "edÃ¡",
        -9.18495186178105
      ],
      [
        "ĠdÃ¡m",
        -9.186369267333944
      ],
      [
        "Ġproti",
        -9.188533182618597
      ],
      [
        "Ġuch",
        -9.189131697939107
      ],
      [
        "ÃŃli",
        -9.190058320985646
      ],
      [
        "Ġnimi",
        -9.192322182476525
      ],
      [
        "ĠtÅĻeba",
        -9.192555982445308
      ],
      [
        "ĠÅ¾ivota",
        -9.198733718619959
      ],
      [
        "d",
        -9.199745051582424
      ],
      [
        "pouze",
        -9.200124704100105
      ],
      [
        "Ã¡li",
        -9.202571713639529
      ],
      [
        "ĠsvÄĽtlo",
        -9.202953964164978
      ],
      [
        "ĠnechÅ¥",
        -9.205493714978294
      ],
      [
        "ĠlÃ¡skou",
        -9.208006615560068
      ],
      [
        "Ġnebo",
        -9.209184972114432
      ],
      [
        "Ġproud",
        -9.210465909283396
      ],
      [
        "en",
        -9.21090483763183
      ],
      [
        "ne",
        -9.211219283669513
      ],
      [
        "Ġsvoji",
        -9.21130967513855
      ],
      [
        "Ġdva",
        -9.211730540389484
      ],
      [
        "ĠÅĻÃŃc",
        -9.21264855881389
      ],
      [
        "Ġdce",
        -9.212731043667162
      ],
      [
        "ĠlÃ¡sku",
        -9.215622242093259
      ],
      [
        "ĠuÅ¡i",
        -9.21718526271094
      ],
      [
        "Ġolu",
        -9.21845960639881
      ],
      [
        "Ġsny",
        -9.218881390315673
      ],
      [
        "ĠptÃ¡k",
        -9.219017438962547
      ],
      [
        "ije",
        -9.219671073554315
      ],
      [
        "Ġtady",
        -9.219920546037079
      ],
      [
        "ĠuÄįÃŃ",
        -9.220094788710714
      ],
      [
        "ĠolÃŃ",
        -9.221822956941121
      ],
      [
        "ABCCB",
        -9.226690417327038
      ],
      [
        "ĠvelkÃ©",
        -9.22914458963839
      ],
      [
        "Ġkal",
        -9.22973249130459
      ],
      [
        "ĠdÅĻÃŃv",
        -9.230202314958628
      ],
      [
        "Ġzvuk",
        -9.230228982542087
      ],
      [
        "ĠvelkÃ½",
        -9.230748537612666
      ],
      [
        "avÄĽ",
        -9.232514256043004
      ],
      [
        "ĠvolÃ¡",
        -9.233375221196287
      ],
      [
        "ĠsvÃŃtÃŃ",
        -9.235112615204457
      ],
      [
        "ĠsvatÃ©",
        -9.23571236805599
      ],
      [
        "ĠmilÃ½",
        -9.239892765666193
      ],
      [
        "Ġpan",
        -9.240141939715118
      ],
      [
        "AXBC",
        -9.24052419736969
      ],
      [
        "Ã½m",
        -9.241725351797337
      ],
      [
        "Ġtedy",
        -9.244010763519476
      ],
      [
        "ĠpÄĽt",
        -9.244431194580875
      ],
      [
        "Äįku",
        -9.24572102745855
      ],
      [
        "ĠzÅĻel",
        -9.245956929908703
      ],
      [
        "ĠvÃ½m",
        -9.246062565729108
      ],
      [
        "Ġtvou",
        -9.249696411489634
      ],
      [
        "ĠÅĻad",
        -9.252266609059474
      ],
      [
        "inu",
        -9.252676519463318
      ],
      [
        "nÃ½",
        -9.25499379640363
      ],
      [
        "ĠÅ¾eny",
        -9.256858957842196
      ],
      [
        "Ġmnoho",
        -9.257093531282473
      ],
      [
        "ĠpÃŃsnÄĽ",
        -9.258237304281568
      ],
      [
        "ĠbÃ½ti",
        -9.258366802676075
      ],
      [
        "ĠhledÃŃ",
        -9.261185535451364
      ],
      [
        "Ġhory",
        -9.261637041877915
      ],
      [
        "ĠmÄĽst",
        -9.262992203691274
      ],
      [
        "Ã¡ly",
        -9.263666835795188
      ],
      [
        "Ġvil",
        -9.265943903783176
      ],
      [
        "ĠvÃ½Å¡",
        -9.269588814645195
      ],
      [
        "Ġoci",
        -9.269876010837425
      ],
      [
        "ina",
        -9.270265591479989
      ],
      [
        "Ġpotom",
        -9.271345983281943
      ],
      [
        "ĠjinÃ½",
        -9.272405712565059
      ],
      [
        "Ġoru",
        -9.273091808735801
      ],
      [
        "Ġvzal",
        -9.27414392072626
      ],
      [
        "Ġdost",
        -9.275927784440045
      ],
      [
        "Ġrak",
        -9.276403718157596
      ],
      [
        "ti",
        -9.276994123340684
      ],
      [
        "ĠsvatÃ½",
        -9.278897340759189
      ],
      [
        "Ġalo",
        -9.279834638264417
      ],
      [
        "ĠchrÃ¡m",
        -9.282812710347565
      ],
      [
        "ĠmÃŃr",
        -9.283155544349777
      ],
      [
        "XXXXX",
        -9.283697315200717
      ],
      [
        "ĠnÄĽho",
        -9.283804842175256
      ],
      [
        "Ġslzy",
        -9.284563583969044
      ],
      [
        "ĠsvojÃŃ",
        -9.284625629173805
      ],
      [
        "Ġslz",
        -9.285420696238448
      ],
      [
        "ivÃ½",
        -9.285681166379824
      ],
      [
        "Ġradost",
        -9.285835827008846
      ],
      [
        "ĠvÄĽru",
        -9.286442486469323
      ],
      [
        "ĠÅ¾Ã¡r",
        -9.286994063409804
      ],
      [
        "ĠrÃ¡z",
        -9.28719584249115
      ],
      [
        "ĠvÃŃtr",
        -9.288231820161677
      ],
      [
        "b",
        -9.288682364414093
      ],
      [
        "Ġoba",
        -9.290153383094738
      ],
      [
        "ĠsnÃŃ",
        -9.29048489143031
      ],
      [
        "ĠmÃ¡Å¡",
        -9.292152642748816
      ],
      [
        "ĠkaÅ¾dÃ©",
        -9.292292679751235
      ],
      [
        "tku",
        -9.292553801210417
      ],
      [
        "ĠdÃ¡li",
        -9.29266701525679
      ],
      [
        "ĠjejÅ¾",
        -9.293066498496296
      ],
      [
        "Ġlidu",
        -9.294248835264305
      ],
      [
        "la",
        -9.295362888224101
      ],
      [
        "anÃ©",
        -9.299221556606668
      ],
      [
        "Ġcos",
        -9.299742808480948
      ],
      [
        "ĠmarnÄĽ",
        -9.30085578567866
      ],
      [
        "ĠopÄĽt",
        -9.30202755886702
      ],
      [
        "nku",
        -9.3054741767813
      ],
      [
        "Ġnikdo",
        -9.307948952763601
      ],
      [
        "Ġkdyby",
        -9.30929421848319
      ],
      [
        "ivÃ¡",
        -9.312041207306198
      ],
      [
        "osÅ¥",
        -9.313276835491248
      ],
      [
        "dnÃ©",
        -9.319076382657942
      ],
      [
        "AAXB",
        -9.320967872883369
      ],
      [
        "ĠvÃ¡Å¡",
        -9.321914132590065
      ],
      [
        "Äįky",
        -9.322070542264639
      ],
      [
        "ĠvÃŃ",
        -9.322090136983762
      ],
      [
        "ĠmÃŃt",
        -9.323809699565878
      ],
      [
        "ĠvÅ¡ude",
        -9.323952947394314
      ],
      [
        "ĠmÃ½m",
        -9.324989077029663
      ],
      [
        "ĠstarÃ©",
        -9.327561562440195
      ],
      [
        "Ġrod",
        -9.32778624436831
      ],
      [
        "Ġmatka",
        -9.328082741001648
      ],
      [
        "Ġmoc",
        -9.328421112410478
      ],
      [
        "ĠnÄĽkdy",
        -9.329751745906403
      ],
      [
        "Ã¡la",
        -9.329783648693743
      ],
      [
        "Ġmlh",
        -9.329854253448081
      ],
      [
        "ĠÅ¾en",
        -9.330611016079711
      ],
      [
        "ĠpÃŃsnÃŃ",
        -9.331298036774294
      ],
      [
        "Ġprach",
        -9.331381104268704
      ],
      [
        "Ġkrve",
        -9.335374318976811
      ],
      [
        "Ġzvon",
        -9.335609339392427
      ],
      [
        "ĠplÃ¡Äį",
        -9.338102775556262
      ],
      [
        "Ġdej",
        -9.347920792230505
      ],
      [
        "sud",
        -9.348381788873304
      ],
      [
        "Ġsil",
        -9.348703721030368
      ],
      [
        "Ġcestu",
        -9.349049189001297
      ],
      [
        "ĠdÃŃ",
        -9.349965416980707
      ],
      [
        "Ġasy",
        -9.350616391214874
      ],
      [
        "Ã¡me",
        -9.351825838706045
      ],
      [
        "ĠnÃ¡mi",
        -9.35267261973252
      ],
      [
        "ĠmlÃ¡dÃŃ",
        -9.352721601633654
      ],
      [
        "ĠpadÃ¡",
        -9.35381750493698
      ],
      [
        "ĠprÃ¡vÄĽ",
        -9.35539054971537
      ],
      [
        "cÃŃch",
        -9.358455211030352
      ],
      [
        "ĠpÅĻiÅ¡el",
        -9.359576000518782
      ],
      [
        "ĠvidÃŃm",
        -9.359903678005727
      ],
      [
        "Ġhlava",
        -9.360917519934773
      ],
      [
        "ĠvaÅ¡e",
        -9.362443777211665
      ],
      [
        "ĠdomÅ¯",
        -9.364453749404577
      ],
      [
        "ÄĽÅ¾ÃŃ",
        -9.36486253192876
      ],
      [
        "ĠpÃ¡r",
        -9.365017733910722
      ],
      [
        "Ġase",
        -9.36614290160308
      ],
      [
        "ĠbouÅĻe",
        -9.366379218566863
      ],
      [
        "ÃŃÅ¾ÃŃ",
        -9.367224008678962
      ],
      [
        "ĠrÃ¡na",
        -9.368084731336014
      ],
      [
        "ĠlidÃ©",
        -9.370767180693694
      ],
      [
        "Ġobraz",
        -9.373716276195385
      ],
      [
        "ĠÅĻek",
        -9.37397773027843
      ],
      [
        "Ġjdou",
        -9.374124155137267
      ],
      [
        "ĠmÄĽsÃŃc",
        -9.374299703162606
      ],
      [
        "ĠdnÃŃ",
        -9.37492080194343
      ],
      [
        "ĠjistÄĽ",
        -9.376015970374947
      ],
      [
        "ĠmÃ¡lo",
        -9.379872631975072
      ],
      [
        "ĠzpÄĽt",
        -9.384108927834271
      ],
      [
        "ĠmÃŃsto",
        -9.384448664977818
      ],
      [
        "Ġsvit",
        -9.385624204787591
      ],
      [
        "Ġsama",
        -9.38578142744441
      ],
      [
        "atÃ©",
        -9.386299674030106
      ],
      [
        "rvÃŃ",
        -9.388824220409164
      ],
      [
        "nky",
        -9.39013918358477
      ],
      [
        "ĠsvÄĽtla",
        -9.39031346707739
      ],
      [
        "ABAA",
        -9.391838299602691
      ],
      [
        "ĠnÄĽmÅ¾",
        -9.392127518881221
      ],
      [
        "ÄĽjÃŃ",
        -9.392824838104938
      ],
      [
        "ÃŃme",
        -9.39355517233207
      ],
      [
        "ĠklÃŃn",
        -9.39408663586818
      ],
      [
        "ĠvÅ¡echno",
        -9.394812411176005
      ],
      [
        "ĠprÃ¡ci",
        -9.395066965634314
      ],
      [
        "eho",
        -9.396511341623084
      ],
      [
        "ĠprÃ¡ce",
        -9.39879510501654
      ],
      [
        "ĠmÅ¯Å¾e",
        -9.39889403053616
      ],
      [
        "ĠslÃ¡vy",
        -9.399426877706711
      ],
      [
        "Ġskal",
        -9.402575473411147
      ],
      [
        "Ġout",
        -9.403061487897363
      ],
      [
        "Ã¡ÅĻe",
        -9.405046924204944
      ],
      [
        "ĠzÃ¡ÅĻÃŃ",
        -9.406025470265003
      ],
      [
        "ĠkrÃ¡sy",
        -9.408760298285078
      ],
      [
        "Ġtrochu",
        -9.410573012156535
      ],
      [
        "ĠneÅ¾li",
        -9.411418150181838
      ],
      [
        "ĠvÅ¡eho",
        -9.412914246956754
      ],
      [
        "ĠnÄĽmu",
        -9.413379618359315
      ],
      [
        "na",
        -9.414929758691127
      ],
      [
        "AXBB",
        -9.41509597990467
      ],
      [
        "ĠstÃŃny",
        -9.415719454302995
      ],
      [
        "ĠnaÅ¡ÃŃ",
        -9.417402746854588
      ],
      [
        "Ġvlas",
        -9.42036317757281
      ],
      [
        "ich",
        -9.421207227453738
      ],
      [
        "ĠdÃ¡",
        -9.421902427840468
      ],
      [
        "ĠvzhÅ¯ru",
        -9.422365295297586
      ],
      [
        "val",
        -9.422651872543092
      ],
      [
        "Ġlad",
        -9.423113211504369
      ],
      [
        "Ġeli",
        -9.428435658045371
      ],
      [
        "Ġzvoln",
        -9.42961676075292
      ],
      [
        "ĠÄįech",
        -9.430192432460155
      ],
      [
        "ĠdvÄĽ",
        -9.431217810644865
      ],
      [
        "ĠÅ¾el",
        -9.432554630426532
      ],
      [
        "ĠtvÃ¡ÅĻe",
        -9.433985090677544
      ],
      [
        "Ġaj",
        -9.434208963341009
      ],
      [
        "ĠlidÃŃ",
        -9.434367281666285
      ],
      [
        "uje",
        -9.43449010213874
      ],
      [
        "ĠdÅ¯m",
        -9.436044343889728
      ],
      [
        "atÃ½",
        -9.436063710499988
      ],
      [
        "Ġtolik",
        -9.437729299850133
      ],
      [
        "omu",
        -9.43939803831234
      ],
      [
        "Ġnese",
        -9.439426542851315
      ],
      [
        "ĠzpÃŃvÃ¡",
        -9.441010840740939
      ],
      [
        "Ã¡lo",
        -9.441360339650378
      ],
      [
        "Ġbohu",
        -9.444622087458125
      ],
      [
        "ĠnocÃŃ",
        -9.445794304055307
      ],
      [
        "ĠkvÄĽtÅ¯",
        -9.446640670062871
      ],
      [
        "ĠdÄĽt",
        -9.447320269745665
      ],
      [
        "Ġslovo",
        -9.448410407464287
      ],
      [
        "Ġrok",
        -9.449147203119644
      ],
      [
        "ejÃŃ",
        -9.451366131910984
      ],
      [
        "Ġboha",
        -9.45194991507113
      ],
      [
        "Ġtek",
        -9.452490767043905
      ],
      [
        "Ġude",
        -9.455554544862578
      ],
      [
        "Ġuku",
        -9.458770086592736
      ],
      [
        "ĠvÃŃÅ¡",
        -9.45886136017973
      ],
      [
        "Ġodu",
        -9.459284058534937
      ],
      [
        "ĠuÅ¡e",
        -9.459620024060191
      ],
      [
        "ĠÄįernÃ©",
        -9.460979733767616
      ],
      [
        "Ġspolu",
        -9.461739745651853
      ],
      [
        "ĠslyÅ¡",
        -9.462563808576423
      ],
      [
        "ĠtÅĻi",
        -9.463398290931643
      ],
      [
        "ĠpÅĻijde",
        -9.46649744617733
      ],
      [
        "ĠdolÅ¯",
        -9.46690510184446
      ],
      [
        "ĠvÄĽÄįnÄĽ",
        -9.46923401515646
      ],
      [
        "Ġvzdech",
        -9.469359872025747
      ],
      [
        "Ã¡ÅĻi",
        -9.46991206807032
      ],
      [
        "Ġrychle",
        -9.470693800567787
      ],
      [
        "ĠÅ¾ÃŃt",
        -9.470833796491004
      ],
      [
        "ĠucÃŃ",
        -9.472002257067995
      ],
      [
        "ĠvÅ¡ichn",
        -9.473332894309035
      ],
      [
        "ÄĽli",
        -9.473416858452032
      ],
      [
        "ĠhoÅĻe",
        -9.47363664809402
      ],
      [
        "ÃŃle",
        -9.47442549861809
      ],
      [
        "Ġsku",
        -9.475022998147388
      ],
      [
        "ĠtvÃ¡ÅĻÃŃ",
        -9.47522950239582
      ],
      [
        "AXAB",
        -9.47550152060079
      ],
      [
        "ĠvÄĽk",
        -9.47689827684083
      ],
      [
        "ÃŃly",
        -9.478507683575883
      ],
      [
        "Ġbol",
        -9.480500052428384
      ],
      [
        "ĠkrÃ¡snÃ©",
        -9.481451435165884
      ],
      [
        "Ã¡no",
        -9.481856248178367
      ],
      [
        "Ġmoh",
        -9.482157494369343
      ],
      [
        "ĠÅĻeÄį",
        -9.483055729512003
      ],
      [
        "ĠhruÄı",
        -9.484288731889025
      ],
      [
        "ĠchÃ¡",
        -9.484730699108033
      ],
      [
        "ĠhnÄĽv",
        -9.485202486603752
      ],
      [
        "Ġaky",
        -9.485867350321957
      ],
      [
        "yla",
        -9.486119383484295
      ],
      [
        "ivÃ©",
        -9.48670379203324
      ],
      [
        "h",
        -9.487208221383478
      ],
      [
        "Ġpole",
        -9.490351671272755
      ],
      [
        "ĠjÃŃm",
        -9.491129078530317
      ],
      [
        "Ġpil",
        -9.492589926944559
      ],
      [
        "ovi",
        -9.493422329005623
      ],
      [
        "ĠvidÃŃ",
        -9.494005478019384
      ],
      [
        "ĠÅ¡um",
        -9.497467463768956
      ],
      [
        "ĠzÅĻÃŃm",
        -9.497556937462761
      ],
      [
        "ĠmÄĽsta",
        -9.498917456292682
      ],
      [
        "ete",
        -9.499052677503883
      ],
      [
        "Ã¡zÃŃ",
        -9.499901510800257
      ],
      [
        "Ã¡ci",
        -9.500290852656436
      ],
      [
        "ĠÄįele",
        -9.500791128563552
      ],
      [
        "Ġsebou",
        -9.501912357318366
      ],
      [
        "Ġprsou",
        -9.50333677506993
      ],
      [
        "ĠlÃŃc",
        -9.50344321907289
      ],
      [
        "Ġpad",
        -9.504312602092565
      ],
      [
        "Ġstrach",
        -9.504772543355529
      ],
      [
        "ovÃ½",
        -9.506627351068104
      ],
      [
        "Ġbudu",
        -9.50708025693171
      ],
      [
        "Ġzjev",
        -9.50725731774217
      ],
      [
        "ĠoÅ¾ÃŃ",
        -9.50740528508615
      ],
      [
        "ĠkdoÅ¾",
        -9.508577106475892
      ],
      [
        "eno",
        -9.508771846314017
      ],
      [
        "Ġory",
        -9.509884921979316
      ],
      [
        "ĠplnÃ½",
        -9.51091204602313
      ],
      [
        "Ġody",
        -9.511582664513131
      ],
      [
        "Ġbolest",
        -9.511855664786808
      ],
      [
        "ĠtvÃ¡ÅĻi",
        -9.51352131778999
      ],
      [
        "ĠhoÅĻÃŃ",
        -9.513526162461565
      ],
      [
        "Ġvlast",
        -9.514659347416588
      ],
      [
        "Ġbudou",
        -9.514827441704414
      ],
      [
        "ĠjakÃ½",
        -9.520229784244789
      ],
      [
        "Ġdil",
        -9.52227084115017
      ],
      [
        "Ġtouhy",
        -9.522386955261505
      ],
      [
        "ĠblÃŃÅ¾",
        -9.522486755390226
      ],
      [
        "ĠnaÅ¡ich",
        -9.522969228013677
      ],
      [
        "eje",
        -9.523287308117359
      ],
      [
        "Ġlesy",
        -9.524004067119956
      ],
      [
        "Ġelo",
        -9.524847526277375
      ],
      [
        "Ã¡ÅĻÃŃ",
        -9.525801088724101
      ],
      [
        "Ġhlubin",
        -9.52666327293428
      ],
      [
        "Ã¡ny",
        -9.52666661843216
      ],
      [
        "ĠnichÅ¾",
        -9.52875088120515
      ],
      [
        "Å¯Å¾e",
        -9.528985984399519
      ],
      [
        "ĠlÃ¡sce",
        -9.529085406576053
      ],
      [
        "Ġasu",
        -9.529241849184702
      ],
      [
        "avÃ©",
        -9.530252136816372
      ],
      [
        "ĠnaÄį",
        -9.530288711561901
      ],
      [
        "inÄĽ",
        -9.530464435195338
      ],
      [
        "Ġducha",
        -9.531082820483288
      ],
      [
        "Ġboji",
        -9.532820162490523
      ],
      [
        "ĠudÃŃ",
        -9.535507866114417
      ],
      [
        "Ġokem",
        -9.535631975810812
      ],
      [
        "ĠvÅ¡echn",
        -9.535896745826047
      ],
      [
        "Ġtakto",
        -9.539478650248157
      ],
      [
        "Ġbyly",
        -9.540545907808534
      ],
      [
        "Ġbohem",
        -9.54167896000162
      ],
      [
        "ĠdobrÃ½",
        -9.542794734267734
      ],
      [
        "Ġjedno",
        -9.543740108416257
      ],
      [
        "ÅĻil",
        -9.545454900772521
      ],
      [
        "ĠdÃ¡t",
        -9.547243623449894
      ],
      [
        "Ġran",
        -9.54776961647874
      ],
      [
        "ĠsnÄĽnÃŃ",
        -9.548799852003025
      ],
      [
        "kou",
        -9.550280577852442
      ],
      [
        "ĠvÅ¯nÄĽ",
        -9.551334895865404
      ],
      [
        "Ġznova",
        -9.551712202686778
      ],
      [
        "Ã¡ni",
        -9.551839000249004
      ],
      [
        "ĠtrÃ¡v",
        -9.551929061489979
      ],
      [
        "Ġslov",
        -9.554774550059358
      ],
      [
        "ĠsnÃŃh",
        -9.554901582015692
      ],
      [
        "ovy",
        -9.555252042202385
      ],
      [
        "ÄĽly",
        -9.555853922959278
      ],
      [
        "ĠmnohÃ½",
        -9.556105996017086
      ],
      [
        "ĠvÃ½Å¡e",
        -9.559310358812183
      ],
      [
        "ej",
        -9.56038019111463
      ],
      [
        "ĠznÃ¡",
        -9.5605257932231
      ],
      [
        "ĠtÄĽla",
        -9.56529037931458
      ],
      [
        "ĠpÅĻe",
        -9.566429219277632
      ],
      [
        "ovu",
        -9.566444795627286
      ],
      [
        "Ġdum",
        -9.566869624904776
      ],
      [
        "ĠÅĻÃŃÅ¡",
        -9.568917172717997
      ],
      [
        "ĠandÄĽl",
        -9.569443511709931
      ],
      [
        "eÅ¾ÃŃ",
        -9.569686954783954
      ],
      [
        "ĠlÃŃce",
        -9.569877507747682
      ],
      [
        "ec",
        -9.570484256962523
      ],
      [
        "AC",
        -9.571194132331485
      ],
      [
        "ĠÅĻekl",
        -9.57575160245566
      ],
      [
        "ĠdÃ½m",
        -9.576309845052334
      ],
      [
        "ĠjinÃ©",
        -9.580184845280726
      ],
      [
        "ĠÄįasem",
        -9.580709478849704
      ],
      [
        "atÃŃ",
        -9.581547903866312
      ],
      [
        "ĠzÅĻÃŃ",
        -9.583748099430935
      ],
      [
        "!...",
        -9.584046701177922
      ],
      [
        "Ġjaro",
        -9.585727825434736
      ],
      [
        "Ġzlato",
        -9.586167986924112
      ],
      [
        "ĠjÃŃt",
        -9.588059332952836
      ],
      [
        "Ġvody",
        -9.588461528009923
      ],
      [
        "Ã¡te",
        -9.589418073716336
      ],
      [
        "ĠvÃŃr",
        -9.589521677998112
      ],
      [
        "ĠcelÃ¡",
        -9.592521010839006
      ],
      [
        "Ġmen",
        -9.592873310148704
      ],
      [
        "ĠmÃ©m",
        -9.593017160773991
      ],
      [
        "ĠmojÃŃ",
        -9.593284131186588
      ],
      [
        "ĠsladkÃ©",
        -9.59373591015884
      ],
      [
        "ĠtÄĽm",
        -9.594471131844946
      ],
      [
        "idÃŃ",
        -9.595070871917722
      ],
      [
        "Ġlil",
        -9.595093800069805
      ],
      [
        "Ġsou",
        -9.596245772544648
      ],
      [
        "ĠvÄĽky",
        -9.597267311422971
      ],
      [
        "Ġcha",
        -9.59740949788316
      ],
      [
        "alÃŃ",
        -9.598087979912721
      ],
      [
        "Ġasi",
        -9.598504145032985
      ],
      [
        "Ġroz",
        -9.59985443560639
      ],
      [
        "ĠmalÃ½",
        -9.600810778819387
      ],
      [
        "Ġbyli",
        -9.601642968253554
      ],
      [
        "Ġpln",
        -9.604085627330893
      ],
      [
        "Ġuce",
        -9.605929222494247
      ],
      [
        "Ġtal",
        -9.606028253242195
      ],
      [
        "ni",
        -9.606093990658735
      ],
      [
        "ĠÄįekÃ¡",
        -9.608779704395705
      ],
      [
        "ĠznÃ¡m",
        -9.608833605876821
      ],
      [
        "Ġkterak",
        -9.610060667820997
      ],
      [
        "Ġhoch",
        -9.610268493565304
      ],
      [
        "ĠdlouhÃ½",
        -9.612494991431484
      ],
      [
        "ĠnemÃ¡",
        -9.61331725501375
      ],
      [
        "ĠÃºst",
        -9.61417490528283
      ],
      [
        "Ġsbor",
        -9.61439827304904
      ],
      [
        "ĠstarÃ¡",
        -9.61694800023133
      ],
      [
        "ĠvstÅĻÃŃc",
        -9.617473211049642
      ],
      [
        "Ġhne",
        -9.619389425083204
      ],
      [
        "ABAC",
        -9.620880532419868
      ],
      [
        "ĠtoÅ¾",
        -9.622227664140576
      ],
      [
        "ĠskÃ¡l",
        -9.62223325863419
      ],
      [
        "ĠÅ¡la",
        -9.62307450386331
      ],
      [
        "ĠodÃŃ",
        -9.623167450252206
      ],
      [
        "Ġsoud",
        -9.627312649038643
      ],
      [
        "ost",
        -9.629911145986584
      ],
      [
        "ĠkÅĻÃŃÅ¾",
        -9.63055690352924
      ],
      [
        "ĠkÅĻÃŃdla",
        -9.63066573858971
      ],
      [
        "Äįek",
        -9.630810323264113
      ],
      [
        "Ġcesty",
        -9.631107275817616
      ],
      [
        "ĠsedÃŃ",
        -9.63281095543297
      ],
      [
        "Ġrou",
        -9.633575930362497
      ],
      [
        "nka",
        -9.633689794787815
      ],
      [
        "Ġsto",
        -9.637634019854627
      ],
      [
        "ĠrÃ¡j",
        -9.63934325196063
      ],
      [
        "ĠÅ¡tÄĽ",
        -9.63973833915517
      ],
      [
        "emÄĽ",
        -9.640047238760038
      ],
      [
        "Ġbou",
        -9.640152557350707
      ],
      [
        "ze",
        -9.640407059645806
      ],
      [
        "Ã½Å¡e",
        -9.640559979767845
      ],
      [
        "ĠzÃ¡ÅĻe",
        -9.640899314119128
      ],
      [
        "cÃŃ",
        -9.64187367570921
      ],
      [
        "ĠtichÃ½",
        -9.643292569162238
      ],
      [
        "ĠnÄĽco",
        -9.643333393562287
      ],
      [
        "Ġjedna",
        -9.644574797710213
      ],
      [
        "ral",
        -9.645142925190575
      ],
      [
        "Ã©m",
        -9.645450779548531
      ],
      [
        "ĠujÃŃ",
        -9.64583944720739
      ],
      [
        "ĠtisÃŃc",
        -9.646246875402193
      ],
      [
        "Ġmoji",
        -9.64637795100112
      ],
      [
        "Ġoka",
        -9.646682483278589
      ],
      [
        "ABCB",
        -9.64673153600288
      ],
      [
        "ĠkvÃŃtÃŃ",
        -9.647071060327127
      ],
      [
        "ĠÄįka",
        -9.64708810878798
      ],
      [
        "anÄĽ",
        -9.647251907382085
      ],
      [
        "ĠslÃ¡va",
        -9.647295423426481
      ],
      [
        "anÃ½",
        -9.647569508104755
      ],
      [
        "Ġcestou",
        -9.647857693606925
      ],
      [
        "Ġtouha",
        -9.648687545182714
      ],
      [
        "ĠjarnÃŃ",
        -9.650509253571045
      ],
      [
        "Ġnelze",
        -9.650984746579747
      ],
      [
        "Ġpravil",
        -9.652057039842031
      ],
      [
        "ĠmilÃ¡",
        -9.65283206420644
      ],
      [
        "ĠtvÃ½m",
        -9.654876198349553
      ],
      [
        "ĠvÄĽÄįnÃ½",
        -9.656522393996994
      ],
      [
        "ĠbÃŃlÃ¡",
        -9.656696554138215
      ],
      [
        "ĠmladÃ½",
        -9.657518571902038
      ],
      [
        "ĠpravÃŃ",
        -9.658308334082799
      ],
      [
        "Ġobzor",
        -9.65927666636944
      ],
      [
        "BB",
        -9.659774482310159
      ],
      [
        "ĠumÃŃ",
        -9.659779750362553
      ],
      [
        "ĠstromÅ¯",
        -9.662987876670577
      ],
      [
        "edÃŃ",
        -9.66365923937945
      ],
      [
        "Ġuti",
        -9.66519766407189
      ],
      [
        "Ġmatky",
        -9.665502374416278
      ],
      [
        "mu",
        -9.665946143773553
      ],
      [
        "ĠmoÅĻi",
        -9.66824571422076
      ],
      [
        "ĠvÄĽÄįnÃ©",
        -9.668485537754737
      ],
      [
        "Ġjara",
        -9.668839900299503
      ],
      [
        "aÄįÃŃ",
        -9.67037898847473
      ],
      [
        "Ġslunci",
        -9.670550621182759
      ],
      [
        "ĠdnÅ¯",
        -9.671221652948514
      ],
      [
        "ĠjÃŃÅ¾",
        -9.671428553782274
      ],
      [
        "vÃ©m",
        -9.672334590669138
      ],
      [
        "ĠdÃŃk",
        -9.673377294702808
      ],
      [
        "Ġvedle",
        -9.674914451560792
      ],
      [
        "al",
        -9.67504472305081
      ],
      [
        "Ġdole",
        -9.676308652708748
      ],
      [
        "dny",
        -9.676521510583221
      ],
      [
        "Ġtla",
        -9.677316728570595
      ],
      [
        "Ġnek",
        -9.67759409984485
      ],
      [
        "ÃŃÅ¾e",
        -9.678662117652111
      ],
      [
        "ĠmilÃ©",
        -9.680244504229863
      ],
      [
        "ĠadÃ¡",
        -9.683441798460318
      ],
      [
        "ylo",
        -9.683443912566606
      ],
      [
        "ĠsvÃ©mu",
        -9.683844558695935
      ],
      [
        "ĠslyÅ¡el",
        -9.684169662987436
      ],
      [
        "Ġdob",
        -9.684683038976477
      ],
      [
        "ĠspÃŃ",
        -9.685240407775199
      ],
      [
        "ĠÅ¡li",
        -9.685316040244544
      ],
      [
        "ÃŃte",
        -9.687293755996155
      ],
      [
        "ĠnÄĽj",
        -9.687812464727985
      ],
      [
        "ĠnevÃŃm",
        -9.690616027740347
      ],
      [
        "Ġcelou",
        -9.691476825549737
      ],
      [
        "ĠzÃ¡pad",
        -9.69245399251667
      ],
      [
        "ĠnadÄĽje",
        -9.693815815553844
      ],
      [
        "ĠsladkÃ½",
        -9.694470841383218
      ],
      [
        "Ġnohou",
        -9.695047728114307
      ],
      [
        "Ġhrobu",
        -9.695091961249954
      ],
      [
        "oÅĻi",
        -9.6951132693159
      ],
      [
        "Ġrty",
        -9.695189039612728
      ],
      [
        "ĠkaÅ¾dÃ¡",
        -9.698876549830173
      ],
      [
        "Ġdoma",
        -9.699087093920486
      ],
      [
        "Ġrad",
        -9.699795448835463
      ],
      [
        "ĠbÄĽda",
        -9.699850277456221
      ],
      [
        "ÃŃnÃ¡",
        -9.7009110793535
      ],
      [
        "ĠhlavÄĽ",
        -9.701025483740867
      ],
      [
        "Ã¡cÃŃ",
        -9.703246607975094
      ],
      [
        "ĠlidskÃ©",
        -9.704196845893843
      ],
      [
        "ĠsvÄĽÅ¾ÃŃ",
        -9.704915251666723
      ],
      [
        "ĠÄįela",
        -9.70598939007742
      ],
      [
        "Ġkterou",
        -9.706085593018358
      ],
      [
        "Ġtmy",
        -9.706995051814886
      ],
      [
        "Ġely",
        -9.70713384491916
      ],
      [
        "AAXX",
        -9.708341237830368
      ],
      [
        "poÅĪ",
        -9.708747954686839
      ],
      [
        "no",
        -9.7092810880037
      ],
      [
        "Ġples",
        -9.71048296335115
      ],
      [
        "Ġano",
        -9.71225100637783
      ],
      [
        "Ġhrad",
        -9.714088212058556
      ],
      [
        "Ġkraje",
        -9.71647720792723
      ],
      [
        "vÃ¡",
        -9.71767883185489
      ],
      [
        "lo",
        -9.717856525920155
      ],
      [
        "ĠoheÅĪ",
        -9.71805129102474
      ],
      [
        "ĠplnÃ©",
        -9.71934393250272
      ],
      [
        "ÃŃlÃŃ",
        -9.71981919543435
      ],
      [
        "ĠjakÃ©",
        -9.72044769468693
      ],
      [
        "ĠstÃŃnu",
        -9.720449567355573
      ],
      [
        "ĠstÄĽ",
        -9.72063901631594
      ],
      [
        "Ġera",
        -9.72145376010941
      ],
      [
        "ĠmÄĽla",
        -9.721499131315452
      ],
      [
        "XABB",
        -9.721595560994452
      ],
      [
        "Ġhodin",
        -9.722351423689087
      ],
      [
        "Ġudu",
        -9.723969777729298
      ],
      [
        "ĠbouÅĻÃŃ",
        -9.725048285167578
      ],
      [
        "ĠdÃŃvÃ¡",
        -9.725497948811608
      ],
      [
        "Ġjdu",
        -9.72587626644626
      ],
      [
        "ĠtenkrÃ¡t",
        -9.726672217035631
      ],
      [
        "ĠkrÃ¡snÃ¡",
        -9.726780766988892
      ],
      [
        "Ġruky",
        -9.726957612850565
      ],
      [
        "ĠmuÅ¾i",
        -9.727133259095918
      ],
      [
        "Ġnil",
        -9.728913156909774
      ],
      [
        "Ġluk",
        -9.730888708503809
      ],
      [
        "ĠdÃ¡lky",
        -9.731689342440557
      ],
      [
        "Ġmech",
        -9.73233053833879
      ],
      [
        "ĠzatÃŃm",
        -9.732562054569904
      ],
      [
        "ÃŃru",
        -9.73284613160578
      ],
      [
        "ĠtÄĽl",
        -9.73380689831136
      ],
      [
        "ĠÅ¡tÃŃ",
        -9.735477687037648
      ],
      [
        "ĠdruhÃ½",
        -9.735927975470505
      ],
      [
        "Ġkonec",
        -9.73805066083747
      ],
      [
        "Ġvem",
        -9.738605689495024
      ],
      [
        "ÃŃtÃ¡",
        -9.739760310104542
      ],
      [
        "Ġpoli",
        -9.739932010098121
      ],
      [
        "ĠÅ¾ije",
        -9.741037776843633
      ],
      [
        "ĠrÃ¡no",
        -9.741391816162086
      ],
      [
        "ĠlistÃŃ",
        -9.742283093258493
      ],
      [
        "ĠdrahÃ½",
        -9.743562177835301
      ],
      [
        "Ġata",
        -9.743602093363158
      ],
      [
        "ĠjehoÅ¾",
        -9.744305905074985
      ],
      [
        "Ġoby",
        -9.745428287854184
      ],
      [
        "Ġnebyl",
        -9.74589067776994
      ],
      [
        "ĠtÃ©to",
        -9.746465353211622
      ],
      [
        "ĠbyÅ¥",
        -9.746862724937383
      ],
      [
        "ÃŃtÄĽ",
        -9.746938295857241
      ],
      [
        "ĠklidnÄĽ",
        -9.747388483000037
      ],
      [
        "Ġony",
        -9.748083949774976
      ],
      [
        "ĠÄįel",
        -9.748331462337278
      ],
      [
        "Ġchy",
        -9.748338029374342
      ],
      [
        "ĠznÄĽl",
        -9.74939495136167
      ],
      [
        "Ġstu",
        -9.749817002335721
      ],
      [
        "Ġmrak",
        -9.75135184257758
      ],
      [
        "ĠÅĻÃŃm",
        -9.751473762469796
      ],
      [
        "ĠtichÃ©",
        -9.752887227713638
      ],
      [
        "Ġnech",
        -9.753244606704643
      ],
      [
        "ĠÄįek",
        -9.753790620402798
      ],
      [
        "ĠÃºsta",
        -9.753968733884456
      ],
      [
        "Ġokn",
        -9.754589270540578
      ],
      [
        "Ġrek",
        -9.754946915127793
      ],
      [
        "Ã¡tÃŃ",
        -9.755455829778871
      ],
      [
        "ĠnaÅĪ",
        -9.758347279772114
      ],
      [
        "Ġoblak",
        -9.758431381685487
      ],
      [
        "Ġohu",
        -9.758457315262987
      ],
      [
        "Ġvlasy",
        -9.759523622010914
      ],
      [
        "Ġotce",
        -9.759918311699419
      ],
      [
        "ilÃ½",
        -9.762482823398766
      ],
      [
        "Ã¡dÃ¡",
        -9.764409012002162
      ],
      [
        "ĠmladÃ©",
        -9.765445535743872
      ],
      [
        "ĠlidskÃ½",
        -9.767523681073808
      ],
      [
        "ĠcÃŃtil",
        -9.767635750817927
      ],
      [
        "ĠÄįil",
        -9.767917825010702
      ],
      [
        "Ġjakby",
        -9.768310446344454
      ],
      [
        "Ġsty",
        -9.769169486611826
      ],
      [
        "Ġole",
        -9.769532306063532
      ],
      [
        "ĠkÃ©Å¾",
        -9.770584667190214
      ],
      [
        "skÃ¡",
        -9.770930780280073
      ],
      [
        "Ġkraji",
        -9.771854761436412
      ],
      [
        "ĠdrahÃ¡",
        -9.773047243359427
      ],
      [
        "ĠmuÅ¾e",
        -9.773409075321425
      ],
      [
        "Ġdosti",
        -9.773980852111292
      ],
      [
        "acÃŃ",
        -9.774236696216423
      ],
      [
        "Ġany",
        -9.774315808912881
      ],
      [
        "Ã¡nÄĽ",
        -9.774824321838253
      ],
      [
        "ĠpojÄı",
        -9.776732302526717
      ],
      [
        "Ġpravda",
        -9.778212989296705
      ],
      [
        "ÄĽtÃŃ",
        -9.778860957823127
      ],
      [
        "Ã¡men",
        -9.780104250654892
      ],
      [
        "ĠrÅ¯Å¾ÃŃ",
        -9.780725941727674
      ],
      [
        "Ġkdos",
        -9.781648508398048
      ],
      [
        "Ġdoby",
        -9.782162020804874
      ],
      [
        "ĠtvÃ©m",
        -9.782671259010666
      ],
      [
        "ĠlesÅ¯",
        -9.78275355830161
      ],
      [
        "ĠÅ¡tÃŃt",
        -9.78353569251089
      ],
      [
        "ĠvÄĽÅĻ",
        -9.787917458485305
      ],
      [
        "ĠmluvÃŃ",
        -9.789397441149724
      ],
      [
        "jte",
        -9.789974877950108
      ],
      [
        "avÃ¡",
        -9.790753410521871
      ],
      [
        "Ġplno",
        -9.791094072341966
      ],
      [
        "ĠÄįernÃ½",
        -9.791426728022861
      ],
      [
        "nÃŃk",
        -9.792613832607277
      ],
      [
        "ÃŃmÃ¡",
        -9.79359383190799
      ],
      [
        "ĠvÄĽtÅ¡ÃŃ",
        -9.793747106705107
      ],
      [
        "Ġbrzy",
        -9.795773023450188
      ],
      [
        "ĠkrÃ¡ÄįÃŃ",
        -9.795871313781205
      ],
      [
        "Ġluh",
        -9.796706379827146
      ],
      [
        "rÃ¡t",
        -9.796717695198714
      ],
      [
        "ĠzÃ¡ÅĻi",
        -9.796906380324925
      ],
      [
        "yne",
        -9.796935959621974
      ],
      [
        "ĠcÃŃl",
        -9.798362797022651
      ],
      [
        "ĠdnÄĽ",
        -9.798558892319047
      ],
      [
        "ĠÅĻÃ¡d",
        -9.798603553159444
      ],
      [
        "ĠÄįeskÃ½",
        -9.799019990927302
      ],
      [
        "ĠsÃŃla",
        -9.799577651946006
      ],
      [
        "ĠuÅ¾ÃŃ",
        -9.79997284180159
      ],
      [
        "Ġlidstv",
        -9.800329221459318
      ],
      [
        "ĠmÃ¡me",
        -9.801080444940819
      ],
      [
        "ĠplÃ¡l",
        -9.80164077001833
      ],
      [
        "ĠskÃ¡",
        -9.80198725867163
      ],
      [
        "omÅ¯",
        -9.802128580497705
      ],
      [
        "Ġpal",
        -9.802571103571685
      ],
      [
        "Ã¡va",
        -9.803054059376269
      ],
      [
        "il",
        -9.806098374500909
      ],
      [
        "ĠlÃ©ta",
        -9.806796704693127
      ],
      [
        "Ġcest",
        -9.806812730373395
      ],
      [
        "ĠzÃŃtr",
        -9.806853100888759
      ],
      [
        "Ġsnu",
        -9.80931019399895
      ],
      [
        "ĠdlouhÃ©",
        -9.812990463878021
      ],
      [
        "Ġene",
        -9.813076437726965
      ],
      [
        "elÃ½",
        -9.81382453271152
      ],
      [
        "Ġjinak",
        -9.814323400816733
      ],
      [
        "ĠzÃ¡stup",
        -9.814701861547096
      ],
      [
        "ĠtÄĽÅ¾kÃ½",
        -9.815378561820566
      ],
      [
        "ĠrÃ¡ny",
        -9.815550796823743
      ],
      [
        "ĠsvÃ¡",
        -9.81605581320386
      ],
      [
        "Ġradosti",
        -9.816134137763557
      ],
      [
        "ĠjichÅ¾",
        -9.816522674508168
      ],
      [
        "ĠstÃ¡",
        -9.816560965496231
      ],
      [
        "ĠrtÅ¯",
        -9.816843934146178
      ],
      [
        "Ġobu",
        -9.818393480752686
      ],
      [
        "ĠzdÃ¡lo",
        -9.82078914878958
      ],
      [
        "Ġved",
        -9.821186851110827
      ],
      [
        "ĠpÅĻÃŃliÅ¡",
        -9.821315149171
      ],
      [
        "ĠjÃŃmÅ¾",
        -9.823526555814944
      ],
      [
        "ÃŃkÅ¯",
        -9.82409308603216
      ],
      [
        "ĠcÃŃtÃŃm",
        -9.824643434768461
      ],
      [
        "Ġdni",
        -9.824983596204062
      ],
      [
        "ĠsnÃ¡",
        -9.825033023470876
      ],
      [
        "Ġhlad",
        -9.825854637185497
      ],
      [
        "Ġbeze",
        -9.826510303655988
      ],
      [
        "ĠovÃ¡",
        -9.82729397620384
      ],
      [
        "Ġoli",
        -9.827319948860893
      ],
      [
        "ĠvÄĽkÅ¯",
        -9.82929509718236
      ],
      [
        "ĠplÃ¡",
        -9.829771680964903
      ],
      [
        "Ġuze",
        -9.830148256325597
      ],
      [
        "ĠnaÅ¡i",
        -9.830536015637922
      ],
      [
        "Ġdle",
        -9.830810199260114
      ],
      [
        "Ġkout",
        -9.831121849337308
      ],
      [
        "Ġlze",
        -9.833086758172136
      ],
      [
        "Ġteprv",
        -9.833186876485774
      ],
      [
        "ĠkrÃ¡snÃ½",
        -9.83327332895104
      ],
      [
        "ĠdÃŃvka",
        -9.835341037430165
      ],
      [
        "Ġznovu",
        -9.837136942162452
      ],
      [
        "atÃ¡",
        -9.839059965193567
      ],
      [
        "ĠmÃŃru",
        -9.840747891676138
      ],
      [
        "Ġstromy",
        -9.84125793710644
      ],
      [
        "Ġroste",
        -9.841850467964502
      ],
      [
        "Ġrve",
        -9.841850816874778
      ],
      [
        "ĠmÄĽsto",
        -9.842422506011683
      ],
      [
        "ĠsnÄĽ",
        -9.842700458831857
      ],
      [
        "Ġtento",
        -9.842827959248872
      ],
      [
        "ĠhvÄĽzda",
        -9.842950290797761
      ],
      [
        "Ġhloubi",
        -9.842981692743077
      ],
      [
        "ĠdÃ¡vÃ¡",
        -9.843120248444176
      ],
      [
        "ĠcÃŃtÃŃ",
        -9.843352080807136
      ],
      [
        "oval",
        -9.844152434470256
      ],
      [
        "ÄĽta",
        -9.8455442799283
      ],
      [
        "ĠÅĻeÄįi",
        -9.84712143028893
      ],
      [
        "Ġeru",
        -9.847998422382613
      ],
      [
        "Ġedu",
        -9.848461725018005
      ],
      [
        "Ġsad",
        -9.849805418329304
      ],
      [
        "Ã¡Äįe",
        -9.849925786203332
      ],
      [
        "Ġonu",
        -9.852252766402026
      ],
      [
        "Ġmysl",
        -9.85292688306285
      ],
      [
        "Ġprachu",
        -9.852990030421974
      ],
      [
        "si",
        -9.853584417208715
      ],
      [
        "Ġdarmo",
        -9.85545898478307
      ],
      [
        "ĠmalÃ©",
        -9.856220317600162
      ],
      [
        "ĠdÄĽs",
        -9.856521286619316
      ],
      [
        "ĠdÃŃl",
        -9.857383410010332
      ],
      [
        "ĠsrdcÃŃ",
        -9.858104908331295
      ],
      [
        "ĠchceÅ¡",
        -9.858455854867774
      ],
      [
        "ĠkrÃ¡le",
        -9.858702907105638
      ],
      [
        "ĠovÃŃ",
        -9.860062813479205
      ],
      [
        "ĠvÃŃru",
        -9.860858125241474
      ],
      [
        "Ġboje",
        -9.861243114057242
      ],
      [
        "Ġsrdcem",
        -9.861264537646827
      ],
      [
        "ĠchvÄĽje",
        -9.86192556091069
      ],
      [
        "ĠlÃŃp",
        -9.863788263187072
      ],
      [
        "Ġnade",
        -9.86380099609363
      ],
      [
        "Ġnaposled",
        -9.864887928331544
      ],
      [
        "cÃŃm",
        -9.865408981508683
      ],
      [
        "ÅĻel",
        -9.86552703098744
      ],
      [
        "ĠkrÃ¡se",
        -9.868208650313957
      ],
      [
        "ĠvÅ¡eck",
        -9.869129854010634
      ],
      [
        "onen",
        -9.869618501272061
      ],
      [
        "Ġpat",
        -9.869839663767792
      ],
      [
        "ĠdrahÃ©",
        -9.869950885323458
      ],
      [
        "Ġmysli",
        -9.870105514737453
      ],
      [
        "rÃ¡l",
        -9.871369839983252
      ],
      [
        "ÅĻ",
        -9.872166276487732
      ],
      [
        "ĠbudeÅ¡",
        -9.872923334907513
      ],
      [
        "rnÃ©",
        -9.874402995067022
      ],
      [
        "ĠpÅĻÃŃÅ¡tÃŃ",
        -9.875943706562488
      ],
      [
        "Ġuky",
        -9.87791169497139
      ],
      [
        "Ġjazyk",
        -9.877912066008573
      ],
      [
        "ĠkrÃ¡li",
        -9.878553554112127
      ],
      [
        "Ġcesta",
        -9.880940736774367
      ],
      [
        "ĠsmÃ¡l",
        -9.881916696382866
      ],
      [
        "ilÃ¡",
        -9.882403897669231
      ],
      [
        "Ġrej",
        -9.882902986293047
      ],
      [
        "ĠnÃ¡ruÄį",
        -9.88293940804464
      ],
      [
        "ÃŃnu",
        -9.883176307702318
      ],
      [
        "ĠtÄĽÅ¾ko",
        -9.88332483784039
      ],
      [
        "ĠbÅĻehu",
        -9.883413597411828
      ],
      [
        "Ġhled",
        -9.883456135264552
      ],
      [
        "Ġroj",
        -9.883468678567844
      ],
      [
        "ĠpÅ¯l",
        -9.883522500482755
      ],
      [
        "Ġdar",
        -9.883657625192148
      ],
      [
        "ĠdobÄĽ",
        -9.884694579926041
      ],
      [
        "ĠmajÃŃ",
        -9.884896363090995
      ],
      [
        "ĠÄįin",
        -9.884911201563279
      ],
      [
        "ekÃ¡",
        -9.886469124713127
      ],
      [
        "Ġhal",
        -9.886734158988016
      ],
      [
        "Ġvede",
        -9.886823181618126
      ],
      [
        "ivÄĽ",
        -9.88741063431647
      ],
      [
        "Ġplod",
        -9.887975035401599
      ],
      [
        "ĠÅ¾iv",
        -9.888385650810015
      ],
      [
        "Ġota",
        -9.888741598216143
      ],
      [
        "ĠtÅĻÃŃ",
        -9.890722750570296
      ],
      [
        "C",
        -9.890938361877343
      ],
      [
        "hrudi",
        -9.89122998731194
      ],
      [
        "ĠkteÅĻÃŃ",
        -9.891301143598486
      ],
      [
        "ĠchvÄĽl",
        -9.891314182694
      ],
      [
        "Ġska",
        -9.892905029550244
      ],
      [
        "AA",
        -9.893531931255481
      ],
      [
        "elÃ©",
        -9.894061001760518
      ],
      [
        "tÄĽ",
        -9.894122672533136
      ],
      [
        "ĠzlÃ½",
        -9.894723667808996
      ],
      [
        "Ġstesk",
        -9.895768089145351
      ],
      [
        "nci",
        -9.89587417895447
      ],
      [
        "skÃ½",
        -9.895901094031167
      ],
      [
        "Ġine",
        -9.896297641877503
      ],
      [
        "Ġtouhou",
        -9.896304100978252
      ],
      [
        "ĠkonÄĽ",
        -9.89660698505611
      ],
      [
        "Ã¡ÄįÃŃ",
        -9.89972040028372
      ],
      [
        "Ġkus",
        -9.899728076660896
      ],
      [
        "Ġruch",
        -9.900679454805916
      ],
      [
        "Ġjal",
        -9.902365355892218
      ],
      [
        "Ġchlad",
        -9.903407153161456
      ],
      [
        "Ġokna",
        -9.905347195576208
      ],
      [
        "ĠdlÃŃ",
        -9.907943905915792
      ],
      [
        "tnÃ©",
        -9.908954410429093
      ],
      [
        "rÃ¡zem",
        -9.909935915487171
      ],
      [
        "Ġstrun",
        -9.910305996742357
      ],
      [
        "ĠÄįasu",
        -9.911540674869373
      ],
      [
        "Ġuhy",
        -9.91157151081406
      ],
      [
        "ĠvÅ¯kol",
        -9.911928250870464
      ],
      [
        "ĠÅĪader",
        -9.913427174548504
      ],
      [
        "ĠjakÃ¡",
        -9.91380948076883
      ],
      [
        "Ġposud",
        -9.914063368779328
      ],
      [
        "ĠpryÄį",
        -9.916479326118349
      ],
      [
        "ĠhledÃ¡",
        -9.916707698668851
      ],
      [
        "ÃŃÅ¡e",
        -9.917555542234023
      ],
      [
        "Ġduchu",
        -9.919416235545434
      ],
      [
        "ahÃ¡",
        -9.919475764465528
      ],
      [
        "ĠbÅĻeh",
        -9.920544474667668
      ],
      [
        "aty",
        -9.92083692683919
      ],
      [
        "Ġvichr",
        -9.921924940870007
      ],
      [
        "Ġsluch",
        -9.923639804962091
      ],
      [
        "Ġlese",
        -9.923841461708676
      ],
      [
        "ĠjasnÃ©",
        -9.924251187333681
      ],
      [
        "Ġoh",
        -9.924461016013193
      ],
      [
        "ĠÅ¾Ã¡dnÃ½",
        -9.92494089874846
      ],
      [
        "Ġmuk",
        -9.924964333161896
      ],
      [
        "ĠbratÅĻÃŃ",
        -9.924969067269659
      ],
      [
        "ĠvÅ¯le",
        -9.92519357175821
      ],
      [
        "ÄĽlÃ½",
        -9.925520408142365
      ],
      [
        "Ġpravdu",
        -9.926698858497199
      ],
      [
        "Ġmohl",
        -9.927070438331715
      ],
      [
        "dnÃ½",
        -9.927141482554052
      ],
      [
        "Ġzahrad",
        -9.928640554410123
      ],
      [
        "Ġvenku",
        -9.930189953039722
      ],
      [
        "ĠvÅ¡emi",
        -9.93021852762196
      ],
      [
        "adÃŃ",
        -9.93075335385571
      ],
      [
        "Ġrev",
        -9.931087414065278
      ],
      [
        "ĠnoÄįnÃŃ",
        -9.931653860476175
      ],
      [
        "Ġhlavo",
        -9.93329573634775
      ],
      [
        "Äį",
        -9.933541834418797
      ],
      [
        "Ġkruh",
        -9.933550465924679
      ],
      [
        "ĠsvatÃ¡",
        -9.935517562603609
      ],
      [
        "Ġblaho",
        -9.936531040791355
      ],
      [
        "ĠjmÃ©no",
        -9.937202399623374
      ],
      [
        "ĠbÃ¡snÃŃk",
        -9.937463354451388
      ],
      [
        "Ġrozum",
        -9.938203743691762
      ],
      [
        "ĠovÅ¡em",
        -9.938940203161767
      ],
      [
        "Ġlidstva",
        -9.940527383021125
      ],
      [
        "Ġsna",
        -9.94235989384499
      ],
      [
        "Ġlesa",
        -9.943201972992577
      ],
      [
        "Ġan",
        -9.943704533428718
      ],
      [
        "ĠÄįeskÃ©",
        -9.94418768028602
      ],
      [
        "ĠtÄĽÅ¾kÃ©",
        -9.944971972623907
      ],
      [
        "Ġhla",
        -9.945506106133443
      ],
      [
        "Ġjed",
        -9.945808065637303
      ],
      [
        "ĠbÄĽd",
        -9.946489036452547
      ],
      [
        "eni",
        -9.946946956683623
      ],
      [
        "ĠoÄįÃŃch",
        -9.948913703336913
      ],
      [
        "ĠslyÅ¡ÃŃm",
        -9.950276003395764
      ],
      [
        "Ã¡lÃŃ",
        -9.950453209582648
      ],
      [
        "Ġklas",
        -9.950633848258455
      ],
      [
        "ĠdÄĽv",
        -9.951630013251705
      ],
      [
        "ÅĪ",
        -9.951927993454802
      ],
      [
        "Ġlidem",
        -9.953739385493058
      ],
      [
        "ÄĽji",
        -9.954692227127701
      ],
      [
        "Ã¡vÄĽ",
        -9.955644937752659
      ],
      [
        "Ġsladce",
        -9.95649934017268
      ],
      [
        "ĠdÃŃm",
        -9.957367721378713
      ],
      [
        "Ġvit",
        -9.957448174920408
      ],
      [
        "Ġava",
        -9.958118576557979
      ],
      [
        "Ġjem",
        -9.959245540340707
      ],
      [
        "ĠplÃ¡Äįe",
        -9.95958837080913
      ],
      [
        "jÃŃ",
        -9.961836225166774
      ],
      [
        "ÄĽtu",
        -9.965165767293044
      ],
      [
        "Ġnohy",
        -9.96600227564204
      ],
      [
        "ÄĽlÃ¡",
        -9.96670285572593
      ],
      [
        "Ġudy",
        -9.967070425088348
      ],
      [
        "ujÃŃ",
        -9.967942086186483
      ],
      [
        "ĠstÃ¡t",
        -9.96848436128306
      ],
      [
        "Ġpaprsk",
        -9.969272126950129
      ],
      [
        "Å¡li",
        -9.969741573354742
      ],
      [
        "ĠusÃŃ",
        -9.970008069386719
      ],
      [
        "Ã¡vy",
        -9.970540245481029
      ],
      [
        "ÄĽle",
        -9.972357955176548
      ],
      [
        "ĠnadÅ¡enÃŃ",
        -9.972571558740821
      ],
      [
        "dy",
        -9.973493412619018
      ],
      [
        "Ġkat",
        -9.974244082760695
      ],
      [
        "ĠpÅĻiÅ¡la",
        -9.97482891326241
      ],
      [
        "ĠjasnÃ½",
        -9.97587571828129
      ],
      [
        "ĠmyslÃŃ",
        -9.975890048300467
      ],
      [
        "ĠdobrÃ©",
        -9.976452488374076
      ],
      [
        "Ġsla",
        -9.976844090024358
      ],
      [
        "ĠsvÄĽtu",
        -9.977633106033238
      ],
      [
        "ĠmodrÃ©",
        -9.977998557617102
      ],
      [
        "izÃŃ",
        -9.979539557834759
      ],
      [
        "Ġjitr",
        -9.979916401714066
      ],
      [
        "Ġboku",
        -9.979939341057086
      ],
      [
        "Ġniv",
        -9.980435282225546
      ],
      [
        "ĠtÃŃÅ¾",
        -9.980849042787405
      ],
      [
        "ĠmladÃ¡",
        -9.983473814115415
      ],
      [
        "Ġbil",
        -9.985482276371322
      ],
      [
        "Å¾e",
        -9.985536432673623
      ],
      [
        "ly",
        -9.98837162550759
      ],
      [
        "ĠÄįest",
        -9.989835135131006
      ],
      [
        "ÃŃka",
        -9.9899453717235
      ],
      [
        "Ġdomu",
        -9.990109362823826
      ],
      [
        "Ġvzdor",
        -9.990390638885456
      ],
      [
        "Ġlen",
        -9.992671506728119
      ],
      [
        "ĠrÃ¡m",
        -9.992981695373
      ],
      [
        "Äįe",
        -9.99456847050992
      ],
      [
        "ĠkrÃ¡sa",
        -9.994842139415272
      ],
      [
        "Ġnej",
        -9.99548915370208
      ],
      [
        "ĠklonÃŃ",
        -9.995863041616257
      ],
      [
        "skÃ½ch",
        -9.995982379612885
      ],
      [
        "ĠhrobÄĽ",
        -9.996744078831924
      ],
      [
        "enÄĽ",
        -9.997217554283178
      ],
      [
        "ĠnevÃŃ",
        -9.997410583745431
      ],
      [
        "Ġzal",
        -9.999698929043763
      ],
      [
        "ĠsmutnÄĽ",
        -9.999821205348397
      ],
      [
        "ĠmizÃŃ",
        -9.999830222637865
      ],
      [
        "Ġnal",
        -9.999845701507972
      ],
      [
        "Ġzcela",
        -10.00003528494598
      ],
      [
        "ĠvalÃŃ",
        -10.000524199665477
      ],
      [
        "jÃŃc",
        -10.00161924974461
      ],
      [
        "adÄĽ",
        -10.003647071805867
      ],
      [
        "Å¡ÃŃm",
        -10.003724756980986
      ],
      [
        "ĠdÅĻÃŃve",
        -10.003748182899416
      ],
      [
        "ĠkaÅ¾do",
        -10.003858984683458
      ],
      [
        "Ġvstal",
        -10.004275392827978
      ],
      [
        "Ġstop",
        -10.0043613499519
      ],
      [
        "Ġpl",
        -10.004603700911787
      ],
      [
        "Ġetu",
        -10.004623259793895
      ],
      [
        "ĠzvonÃŃ",
        -10.005185294508866
      ],
      [
        "Ġprsa",
        -10.006165280774738
      ],
      [
        "AAXA",
        -10.007414932874564
      ],
      [
        "Ġnez",
        -10.008502357256727
      ],
      [
        "Ġtma",
        -10.01152201020859
      ],
      [
        "Ġblah",
        -10.01161645913558
      ],
      [
        "ĠlÃ¡n",
        -10.01222903880878
      ],
      [
        "ĠolÃ¡",
        -10.014068350996872
      ],
      [
        "Ġpravdy",
        -10.015139929737558
      ],
      [
        "eÅĻÃŃ",
        -10.01551234621881
      ],
      [
        "Ã¡je",
        -10.016140062791912
      ],
      [
        "Ġjan",
        -10.01667080386791
      ],
      [
        "by",
        -10.016975197470748
      ],
      [
        "ĠÅ¡umÃŃ",
        -10.016981245075268
      ],
      [
        "ĠvelkÃ¡",
        -10.01712528346632
      ],
      [
        "Ġsmute",
        -10.017194060853479
      ],
      [
        "ĠvÅ¡ÃŃm",
        -10.017871671420721
      ],
      [
        "ĠsvÃ½mi",
        -10.018962388581318
      ],
      [
        "Ġdlo",
        -10.021852657806443
      ],
      [
        "ĠmoÅ¾no",
        -10.022305641742442
      ],
      [
        "Ġtka",
        -10.022307136941876
      ],
      [
        "ĠjedinÃ½",
        -10.024145870993461
      ],
      [
        "Ġnim",
        -10.024423451934677
      ],
      [
        "Ġlesk",
        -10.027000361700939
      ],
      [
        "stejnÄĽ",
        -10.027953377155697
      ],
      [
        "Ġblankyt",
        -10.030925671810765
      ],
      [
        "Ġprapor",
        -10.031165199580354
      ],
      [
        "Ġbor",
        -10.031663504210567
      ],
      [
        "Ġjsa",
        -10.031785672444574
      ],
      [
        "ĠbouÅĻ",
        -10.032410055925752
      ],
      [
        "Ġjestli",
        -10.033647685156755
      ],
      [
        "ĠvÃŃn",
        -10.034460894353158
      ],
      [
        "ÃŃku",
        -10.035687360960774
      ],
      [
        "ĠpÅĻede",
        -10.035812431945178
      ],
      [
        "ĠmrtvÃ©",
        -10.035842193732453
      ],
      [
        "ĠbÄĽÅ¾ÃŃ",
        -10.036190324215369
      ],
      [
        "ĠdruhÃ©",
        -10.036315392811261
      ],
      [
        "ĠloÄı",
        -10.036866857018321
      ],
      [
        "ĠslyÅ¡et",
        -10.037793289889327
      ],
      [
        "ĠzlÃ©",
        -10.03797128211417
      ],
      [
        "moci",
        -10.03887835294127
      ],
      [
        "ĠslÃ¡vÄĽ",
        -10.039258315281861
      ],
      [
        "ĠrudÃ©",
        -10.039464763496131
      ],
      [
        "je",
        -10.039826040624865
      ],
      [
        "ÃŃnÄĽ",
        -10.041124613673993
      ],
      [
        "ĠsmutnÃ½",
        -10.042128420537406
      ],
      [
        "Ġhloub",
        -10.042223787560744
      ],
      [
        "ĠpÄĽl",
        -10.043985078688127
      ],
      [
        "Ġaku",
        -10.044790619066383
      ],
      [
        "Ã½ti",
        -10.046358129771832
      ],
      [
        "ĠjednÃ©",
        -10.046725939121776
      ],
      [
        "tce",
        -10.047656710835202
      ],
      [
        "ĠÅĻeÄįÃŃ",
        -10.048175690856457
      ],
      [
        "ĠchtÄĽla",
        -10.048330165310185
      ],
      [
        "ĠtrÅ¯n",
        -10.0487855639497
      ],
      [
        "Ã¡dÃŃ",
        -10.049123182894226
      ],
      [
        "ĠslavnÃ½",
        -10.051170233600656
      ],
      [
        "Ġdala",
        -10.053804664274537
      ],
      [
        "Ġhost",
        -10.053960628997004
      ],
      [
        "ĠkÅĻik",
        -10.054310675080437
      ],
      [
        "ĠneboÅ¥",
        -10.054785074928368
      ],
      [
        "lny",
        -10.055242628995885
      ],
      [
        "Ġidu",
        -10.055897611860768
      ],
      [
        "esy",
        -10.057074642901608
      ],
      [
        "ĠchvÃŃ",
        -10.057209952964271
      ],
      [
        "Ġkla",
        -10.05799595715147
      ],
      [
        "ĠtÅĻetÃŃ",
        -10.058385926830354
      ],
      [
        "ĠsnÃ©",
        -10.059333424504185
      ],
      [
        "ĠstÃ¡la",
        -10.05957367716891
      ],
      [
        "ÃŃm",
        -10.059730170597867
      ],
      [
        "ĠptÃ¡c",
        -10.060779989971689
      ],
      [
        "Ġsilou",
        -10.061028352858429
      ],
      [
        "ĠslÃ¡vu",
        -10.062227715055975
      ],
      [
        "ĠzdÃ¡l",
        -10.06307562772282
      ],
      [
        "Ġpout",
        -10.063747209443873
      ],
      [
        "ĠÄįet",
        -10.064811124521103
      ],
      [
        "ĠcÃŃsaÅĻ",
        -10.06511780295456
      ],
      [
        "Ġjednu",
        -10.065522525033554
      ],
      [
        "ĠrÃ¡n",
        -10.066747241904263
      ],
      [
        "alÃ½",
        -10.067021450324713
      ],
      [
        "ĠrÃ¡da",
        -10.068739271668427
      ],
      [
        "Ġpotok",
        -10.068868068402448
      ],
      [
        "ĠokamÅ¾ik",
        -10.068970790643636
      ],
      [
        "ĠbouÅĻi",
        -10.069784840712629
      ],
      [
        "ĠrÃ¡je",
        -10.070085119425379
      ],
      [
        "Ġbije",
        -10.070118542796479
      ],
      [
        "Ġhoj",
        -10.070592180419554
      ],
      [
        "ĠvracÃŃ",
        -10.07248134072753
      ],
      [
        "lÃ©m",
        -10.074417132856802
      ],
      [
        "ÃŃna",
        -10.075076033446539
      ],
      [
        "Ġzlata",
        -10.076044588176472
      ],
      [
        "Ġsmysl",
        -10.077964078214816
      ],
      [
        "ĠvroucÃŃ",
        -10.078271685908195
      ],
      [
        "Ġnebylo",
        -10.078336186613798
      ],
      [
        "st",
        -10.078745059532128
      ],
      [
        "ĠjmÃ©n",
        -10.079967715335018
      ],
      [
        "ĠknÄĽz",
        -10.08040349522211
      ],
      [
        "ĠchodÃŃ",
        -10.08099090155552
      ],
      [
        "Å¯nÄĽ",
        -10.081426099857003
      ],
      [
        "cko",
        -10.081519151926992
      ],
      [
        "Ġmraky",
        -10.082519407870091
      ],
      [
        "ytÃŃ",
        -10.083397977390213
      ],
      [
        "ĠvÃ¡mi",
        -10.08593661464128
      ],
      [
        "ĠbrÃ¡n",
        -10.087773427133303
      ],
      [
        "Ġoho",
        -10.08889663287548
      ],
      [
        "Ġnec",
        -10.089125659610161
      ],
      [
        "ĠrozkoÅ¡",
        -10.089597400571858
      ],
      [
        "ĠpevnÄĽ",
        -10.090896283463254
      ],
      [
        "Äįko",
        -10.091214203359765
      ],
      [
        "ĠÅ¾ÃŃti",
        -10.091324686133468
      ],
      [
        "eÄįÃŃ",
        -10.091446783171985
      ],
      [
        "iÅ¡e",
        -10.09148995013094
      ],
      [
        "ĠpÅĻÃ¡tel",
        -10.091798162930154
      ],
      [
        "ĠkÅĻÃŃdl",
        -10.09201668489533
      ],
      [
        "uhu",
        -10.092387736026645
      ],
      [
        "Ġhad",
        -10.093970011981927
      ],
      [
        "ĠvrÃ¡til",
        -10.094527044243256
      ],
      [
        "ĠtÃ¡hne",
        -10.09540444633203
      ],
      [
        "Ã©mÄĽ",
        -10.095606230962147
      ],
      [
        "ĠvÄįera",
        -10.095882829786582
      ],
      [
        "Ġdub",
        -10.096164614556475
      ],
      [
        "Ġknih",
        -10.096190164050155
      ],
      [
        "ĠhledÄĽl",
        -10.097060824238511
      ],
      [
        "ABCA",
        -10.097288201853075
      ],
      [
        "Ã¡nu",
        -10.09798204425371
      ],
      [
        "ĠvÅ¯li",
        -10.098312352141832
      ],
      [
        "Ġnechci",
        -10.098660202375253
      ],
      [
        "ÅĻe",
        -10.098680397927497
      ],
      [
        "ĠhleÄı",
        -10.099252549634738
      ],
      [
        "Ġanu",
        -10.099898875515219
      ],
      [
        "Ġkrokem",
        -10.09995548367382
      ],
      [
        "Ġjdi",
        -10.100817823259627
      ],
      [
        "ĠmÄĽnÃŃ",
        -10.101386848872599
      ],
      [
        "Ġtra",
        -10.101404542210538
      ],
      [
        "Ã¡da",
        -10.101678302603728
      ],
      [
        "ĠzemÃŃ",
        -10.102504262852337
      ],
      [
        "Ġlev",
        -10.10257072487007
      ],
      [
        "ĠÅ¾enu",
        -10.102675352298743
      ],
      [
        "Ġslza",
        -10.10285459248074
      ],
      [
        "Ġpoklad",
        -10.103653963186439
      ],
      [
        "ÃŃny",
        -10.103660779427035
      ],
      [
        "ÄĽny",
        -10.103741442085862
      ],
      [
        "ĠzÃ¡hy",
        -10.103754336581412
      ],
      [
        "ĠsklÃ¡nÃŃ",
        -10.104789141191713
      ],
      [
        "ĠzÃ¡zrak",
        -10.104879775592993
      ],
      [
        "Ġzor",
        -10.106057926492525
      ],
      [
        "ĠjejÃŃm",
        -10.10656264209224
      ],
      [
        "Ġhovor",
        -10.10719587101681
      ],
      [
        "ĠsmutnÃ©",
        -10.108396254829696
      ],
      [
        "ĠolÅ¯",
        -10.109589380236569
      ],
      [
        "ĠtemnÃ½",
        -10.110469663600352
      ],
      [
        "ĠbudÃŃ",
        -10.114161280892503
      ],
      [
        "Ġhudba",
        -10.114387239161854
      ],
      [
        "ÄĽlÃ©",
        -10.114400303847226
      ],
      [
        "Ġves",
        -10.11546622325329
      ],
      [
        "ĠvÃ¡ÅĻ",
        -10.12013924666974
      ],
      [
        "ĠbledÃ½",
        -10.120150856381546
      ],
      [
        "ÄĽte",
        -10.12019912795395
      ],
      [
        "Ġplane",
        -10.120677230431468
      ],
      [
        "ĠvaÅ¡ÃŃ",
        -10.121189120516508
      ],
      [
        "ĠÅĻeky",
        -10.12217417639045
      ],
      [
        "ĠbledÃ¡",
        -10.124291044971365
      ],
      [
        "Ġdomov",
        -10.124389334173593
      ],
      [
        "ĠÅĻas",
        -10.124423554365507
      ],
      [
        "Ġsami",
        -10.125408500559058
      ],
      [
        "Ġulic",
        -10.126442480461659
      ],
      [
        "Ġkne",
        -10.12738296189786
      ],
      [
        "Ã¡Å¾e",
        -10.1279111411833
      ],
      [
        "ĠÅĪadra",
        -10.128703745869135
      ],
      [
        "ĠtisÃŃce",
        -10.129091017809124
      ],
      [
        "ĠvÅ¯nÃŃ",
        -10.129371654745807
      ],
      [
        "Ġkmet",
        -10.129482673786924
      ],
      [
        "ĠrytÃŃÅĻ",
        -10.129909930119638
      ],
      [
        "ĠmrÃ¡z",
        -10.131057181970403
      ],
      [
        "edy",
        -10.13133644382722
      ],
      [
        "ĠbÄĽh",
        -10.131588271745255
      ],
      [
        "ĠtvojÃŃ",
        -10.131912115787312
      ],
      [
        "ĠÄįem",
        -10.131912769698326
      ],
      [
        "ĠhrÃ¡l",
        -10.13208748981762
      ],
      [
        "ĠÄįnÃŃ",
        -10.132114024131846
      ],
      [
        "Ġovi",
        -10.132396980819276
      ],
      [
        "Ġpes",
        -10.132469916079803
      ],
      [
        "Ġada",
        -10.133758241691066
      ],
      [
        "ÄĽty",
        -10.13381448942101
      ],
      [
        "ĠÄįÃŃÅ¡",
        -10.13382516789056
      ],
      [
        "Ġotu",
        -10.133833605428153
      ],
      [
        "ĠstavÃŃ",
        -10.135586339946279
      ],
      [
        "rnÃ½",
        -10.13569434364786
      ],
      [
        "Ġola",
        -10.13582923482879
      ],
      [
        "Ġpodle",
        -10.136722462174461
      ],
      [
        "ĠvyÅ¡el",
        -10.137025287084308
      ],
      [
        "ĠstÃ©",
        -10.137192994738822
      ],
      [
        "ĠpÃ¡d",
        -10.13728526450308
      ],
      [
        "ĠslyÅ¡ÃŃ",
        -10.137593810045427
      ],
      [
        "ĠÅ¡er",
        -10.137593877431598
      ],
      [
        "Ġslovem",
        -10.13760986676666
      ],
      [
        "Ġklam",
        -10.140392127740778
      ],
      [
        "Ġoly",
        -10.140564189680433
      ],
      [
        "ĠmalÃ¡",
        -10.143978071024383
      ],
      [
        "ĠotcÅ¯",
        -10.144030708281807
      ],
      [
        "Ġzlatem",
        -10.144091929500771
      ],
      [
        "ĠodÄĽ",
        -10.144233348421519
      ],
      [
        "ĠstÃ¡d",
        -10.145689480803544
      ],
      [
        "Ġkyne",
        -10.145919054166761
      ],
      [
        "ĠchrÃ¡mu",
        -10.146605707725296
      ],
      [
        "aji",
        -10.14737584732898
      ],
      [
        "ĠkrÃ¡su",
        -10.147431287191159
      ],
      [
        "ĠÅĻÃŃÅ¡e",
        -10.147569867602865
      ],
      [
        "ĠÄįlovÄĽka",
        -10.147985896036861
      ],
      [
        "ĠdlaÅĪ",
        -10.148020991613176
      ],
      [
        "Ġsic",
        -10.148046005979626
      ],
      [
        "ÄįnÃ©",
        -10.148489189280973
      ],
      [
        "XAXB",
        -10.148908526087178
      ],
      [
        "ĠmotÃ½l",
        -10.149045453631402
      ],
      [
        "ĠdÃŃval",
        -10.151257426800427
      ],
      [
        "Ġmluvil",
        -10.15142106552372
      ],
      [
        "ĠskrÃ¡ÅĪ",
        -10.152168217579586
      ],
      [
        "Ġste",
        -10.15366568319208
      ],
      [
        "ĠbÃ½vÃ¡",
        -10.153714594193598
      ],
      [
        "ĠnÄĽkdo",
        -10.154374584433302
      ],
      [
        "Ġmodlitb",
        -10.154618813193938
      ],
      [
        "Ġpokoj",
        -10.154881975745223
      ],
      [
        "Ġhrom",
        -10.15515182972927
      ],
      [
        "ĠrudÃ½",
        -10.155713972038377
      ],
      [
        "lnÃ½",
        -10.155836937607823
      ],
      [
        "ovat",
        -10.156218962860589
      ],
      [
        "Ġjel",
        -10.1570779657816
      ],
      [
        "Ġnovou",
        -10.158113080122622
      ],
      [
        "Ġvztek",
        -10.158558649465066
      ],
      [
        "Ġviz",
        -10.15876088166991
      ],
      [
        "ĠlepÅ¡ÃŃ",
        -10.159237952109915
      ],
      [
        "latÃ¡",
        -10.160223230599069
      ],
      [
        "ova",
        -10.160233219965344
      ],
      [
        "ĠmyÅ¡lenk",
        -10.160955840896758
      ],
      [
        "Ã½lÃŃ",
        -10.161595414762367
      ],
      [
        "mÃŃti",
        -10.161747918237118
      ],
      [
        "ÃŃky",
        -10.163146499273665
      ],
      [
        "ĠvÃ½kÅĻik",
        -10.163860137804026
      ],
      [
        "Ġprostor",
        -10.165805200409533
      ],
      [
        "ĠbÃŃlou",
        -10.166460774580099
      ],
      [
        "Ġtvoji",
        -10.166785327241707
      ],
      [
        "ĠtÃŃn",
        -10.166803299193123
      ],
      [
        "ĠmÅ¾ik",
        -10.167116323655844
      ],
      [
        "ĠtÄĽle",
        -10.167345169493437
      ],
      [
        "ĠobjetÃŃ",
        -10.1682843943483
      ],
      [
        "Ġoty",
        -10.168435061789417
      ],
      [
        "ĠblÃŃÅ¾ÃŃ",
        -10.169964404345412
      ],
      [
        "ĠtÃ¡l",
        -10.170095404229198
      ],
      [
        "Ġtato",
        -10.170211147985736
      ],
      [
        "ĠkvÄĽtu",
        -10.170382658467402
      ],
      [
        "tnÃ¡",
        -10.170608913750083
      ],
      [
        "lku",
        -10.17071097296078
      ],
      [
        "ĠvÃŃtÄĽz",
        -10.17107737670532
      ],
      [
        "ĠdÃ¡lk",
        -10.171250191174053
      ],
      [
        "ji",
        -10.17169441663251
      ],
      [
        "ĠrannÃŃ",
        -10.173366755230496
      ],
      [
        "Ġrci",
        -10.173867696892152
      ],
      [
        "ĠvÃ¡Å¡nÃŃ",
        -10.17465919304879
      ],
      [
        "ĠhÅĻÃŃch",
        -10.174731916543596
      ],
      [
        "hradu",
        -10.17473351572259
      ],
      [
        "ny",
        -10.175434816587025
      ],
      [
        "Ġklidu",
        -10.175798072145978
      ],
      [
        "Ġblaha",
        -10.176181238118675
      ],
      [
        "ĠcestÄĽ",
        -10.178399946593533
      ],
      [
        "ĠvelikÃ½",
        -10.178628785375373
      ],
      [
        "ĠnemÄĽl",
        -10.178902139390864
      ],
      [
        "Ġabych",
        -10.178913450095646
      ],
      [
        "ÄĽna",
        -10.17985022343915
      ],
      [
        "ĠmusÃŃm",
        -10.181813515522585
      ],
      [
        "elÃŃ",
        -10.182423745886556
      ],
      [
        "ĠlesnÃŃ",
        -10.182568943159293
      ],
      [
        "ĠtÃ³n",
        -10.182819658648992
      ],
      [
        "ĠblÃŃÅ¾e",
        -10.183405330691274
      ],
      [
        "ĠotÄįe",
        -10.186381590290928
      ],
      [
        "ĠzvedÃ¡",
        -10.188167841553057
      ],
      [
        "asÅ¯",
        -10.189373033565513
      ],
      [
        "ĠaÅ¡e",
        -10.189528921347414
      ],
      [
        "f",
        -10.190602710910683
      ],
      [
        "Ġned",
        -10.190806751546756
      ],
      [
        "ĠzÃ¡kon",
        -10.190840583006443
      ],
      [
        "Ġzvyk",
        -10.192181010424775
      ],
      [
        "ĠskÃ½",
        -10.192233314636134
      ],
      [
        "ÃŃhÃ¡",
        -10.19562468249369
      ],
      [
        "ĠbledÃ©",
        -10.196010760509814
      ],
      [
        "Ġist",
        -10.196378968779916
      ],
      [
        "ĠtemnÃ©",
        -10.196680203884243
      ],
      [
        "Ġzmizel",
        -10.196914745504325
      ],
      [
        "Ġblud",
        -10.197053456161544
      ],
      [
        "Ġvesele",
        -10.198573587620029
      ],
      [
        "ĠtoÄįÃŃ",
        -10.19877164397375
      ],
      [
        "ĠmÃŃsta",
        -10.199737273867457
      ],
      [
        "Ġoud",
        -10.20120618218461
      ],
      [
        "lnÃ©",
        -10.202202618908156
      ],
      [
        "ĠvisÃŃ",
        -10.2029858015127
      ],
      [
        "Ġbok",
        -10.203950782932626
      ],
      [
        "hochu",
        -10.204254082266186
      ],
      [
        "ĠvidÄĽt",
        -10.204792627366377
      ],
      [
        "Ġjih",
        -10.204958096204194
      ],
      [
        "Ã¡mi",
        -10.205114845188547
      ],
      [
        "ĠmyslÃŃm",
        -10.205115381772655
      ],
      [
        "Ġtuto",
        -10.205574454121297
      ],
      [
        "ĠknÃŃÅ¾e",
        -10.205759163230482
      ],
      [
        "ĠpÃ¡nÄĽ",
        -10.20592885202638
      ],
      [
        "Ġtel",
        -10.205938031397672
      ],
      [
        "ÃŃla",
        -10.207217013816805
      ],
      [
        "Ġnechce",
        -10.20730608740217
      ],
      [
        "Ġoky",
        -10.208147744013631
      ],
      [
        "ĠsladkÃ¡",
        -10.208318138309693
      ],
      [
        "Ġhlasy",
        -10.208614796117015
      ],
      [
        "lnÃŃ",
        -10.20924052671871
      ],
      [
        "ĠstÅĻÃŃbr",
        -10.209668812166122
      ],
      [
        "Ġsyna",
        -10.211362915356162
      ],
      [
        "ĠsedÄĽl",
        -10.211403346834848
      ],
      [
        "Ġpomoc",
        -10.212402360644951
      ],
      [
        "ĠvÃŃry",
        -10.21309396600459
      ],
      [
        "Ġpot",
        -10.214463450878817
      ],
      [
        "iku",
        -10.215211580859027
      ],
      [
        "Ġtlo",
        -10.215363440847078
      ],
      [
        "dnu",
        -10.216133571137757
      ],
      [
        "Ġesk",
        -10.216306951290584
      ],
      [
        "ra",
        -10.216430139515966
      ],
      [
        "ĠnovÃ¡",
        -10.21717725645784
      ],
      [
        "Ġvrah",
        -10.220136455652746
      ],
      [
        "Ġha",
        -10.220141186494658
      ],
      [
        "ĠhÅĻbitov",
        -10.220256929516637
      ],
      [
        "Ġode",
        -10.220271278297243
      ],
      [
        "ĠsmÃŃchu",
        -10.220591309774322
      ],
      [
        "icÃŃ",
        -10.220746737203829
      ],
      [
        "ĠohnÄĽm",
        -10.220844244318418
      ],
      [
        "Ġvelkou",
        -10.221499872970812
      ],
      [
        "ĠÄįernÃ½ch",
        -10.22159513003519
      ],
      [
        "ĠmeÄįe",
        -10.222146121190509
      ],
      [
        "enu",
        -10.222242585112102
      ],
      [
        "Ġjiskr",
        -10.225387588884935
      ],
      [
        "ĠvÅĻav",
        -10.225683689438274
      ],
      [
        "Ġruh",
        -10.225994579438485
      ],
      [
        "ĠmodrÃ½",
        -10.227642923161506
      ],
      [
        "Ġvsi",
        -10.2280858222425
      ],
      [
        "ĠzÃ¡pas",
        -10.228122971018742
      ],
      [
        "lÃ½m",
        -10.228255437100572
      ],
      [
        "ĠspÃ¡nk",
        -10.22872766192344
      ],
      [
        "Ġstalo",
        -10.229085698334679
      ],
      [
        "Ġmohu",
        -10.229816919057708
      ],
      [
        "Ġdokud",
        -10.230119161420333
      ],
      [
        "Ġety",
        -10.230344445508816
      ],
      [
        "ĠtÃ¡t",
        -10.230649958256931
      ],
      [
        "Ġkomu",
        -10.230956219725265
      ],
      [
        "ĠÄįernÃ¡",
        -10.23335697934992
      ],
      [
        "Ġpramen",
        -10.234647034282698
      ],
      [
        "dna",
        -10.235806573204975
      ],
      [
        "ABXB",
        -10.237092720243696
      ],
      [
        "ĠklesÃ¡",
        -10.23755894472959
      ],
      [
        "Ġzub",
        -10.237798629236654
      ],
      [
        "Ġsynu",
        -10.238308354346639
      ],
      [
        "Ġdvou",
        -10.238466465166923
      ],
      [
        "DE",
        -10.238981947123452
      ],
      [
        "nÄĽl",
        -10.239106677474645
      ],
      [
        "aÅ¡ÃŃ",
        -10.239285570935579
      ],
      [
        "ahy",
        -10.240037456171262
      ],
      [
        "ĠhrÅ¯z",
        -10.241482488467252
      ],
      [
        "Ġsnil",
        -10.241838799301295
      ],
      [
        "Ġlek",
        -10.242057485275808
      ],
      [
        "Ġbudoucnost",
        -10.242071125305712
      ],
      [
        "ĠdvÃ©",
        -10.242696770703558
      ],
      [
        "ĠdivnÃ½",
        -10.24285225455596
      ],
      [
        "Ġbolesti",
        -10.243445999939185
      ],
      [
        "AXAXB",
        -10.244423836888974
      ],
      [
        "Ġkrajin",
        -10.245499416619687
      ],
      [
        "Ġede",
        -10.245526093404465
      ],
      [
        "ĠÅ¾ene",
        -10.246548317520531
      ],
      [
        "Ġbratr",
        -10.246643808526635
      ],
      [
        "ĠhrÅ¯zou",
        -10.246704324328537
      ],
      [
        "ĠlÃŃci",
        -10.247213920837712
      ],
      [
        "ĠÄĽv",
        -10.248033414411964
      ],
      [
        "Ġhluk",
        -10.24821806118646
      ],
      [
        "ĠmocnÃ½",
        -10.24886061950501
      ],
      [
        "ĠdÃ¡vnÃ½",
        -10.249842279241342
      ],
      [
        "ÃŃlÃ½",
        -10.249885264626641
      ],
      [
        "ĠokÅ¯",
        -10.250241355619938
      ],
      [
        "ĠmÄĽli",
        -10.251398802255613
      ],
      [
        "ĠzpÃ¡tky",
        -10.251469486241103
      ],
      [
        "ĠtmavÃ½",
        -10.252555673707878
      ],
      [
        "evÃŃ",
        -10.253473191408553
      ],
      [
        "ĠtichÃ¡",
        -10.255186883863164
      ],
      [
        "ĠnavÅ¾dy",
        -10.256861115255216
      ],
      [
        "ĠzpÃŃval",
        -10.256985593529048
      ],
      [
        "ĠpÃŃsni",
        -10.257787960651136
      ],
      [
        "ĠtouÅ¾ÃŃ",
        -10.258038991569187
      ],
      [
        "Ġdoba",
        -10.25819317800312
      ],
      [
        "ĠvdÄĽk",
        -10.259276226588826
      ],
      [
        "ĠtmÃ¡",
        -10.260989707275872
      ],
      [
        "ĠlÃŃbÃ¡",
        -10.261907769433119
      ],
      [
        "ĠzÃŃrÃ¡",
        -10.262365515308623
      ],
      [
        "Ġrte",
        -10.262432830699943
      ],
      [
        "ĠjevÃŃ",
        -10.262529835860008
      ],
      [
        "ĠzdravÃŃ",
        -10.26292478252035
      ],
      [
        "ĠkrÃ¡Äįel",
        -10.263177036050664
      ],
      [
        "ĠÅ¡ÃŃj",
        -10.263550942658696
      ],
      [
        "Ġmatko",
        -10.263598646896803
      ],
      [
        "Ġsoumrak",
        -10.264052964754828
      ],
      [
        "ĠloÅ¾e",
        -10.264366638740846
      ],
      [
        "ÄĽzd",
        -10.26467087172836
      ],
      [
        "Ã¡sy",
        -10.265596578207305
      ],
      [
        "ĠpolÃŃ",
        -10.265767729484033
      ],
      [
        "Ġbleskem",
        -10.266535274602038
      ],
      [
        "ĠdivÃ½",
        -10.26656111031516
      ],
      [
        "tnÄĽ",
        -10.266726992589884
      ],
      [
        "tnÃ½",
        -10.267481200204951
      ],
      [
        "Ġnit",
        -10.267628324808893
      ],
      [
        "vÅ¡ak",
        -10.26959065481536
      ],
      [
        "Ġdalek",
        -10.269706845769575
      ],
      [
        "Ġdol",
        -10.270240960038212
      ],
      [
        "Ġjakoby",
        -10.270626014358172
      ],
      [
        "Ġtichu",
        -10.27104983637734
      ],
      [
        "itu",
        -10.272945222633613
      ],
      [
        "ĠvÅ¡emu",
        -10.273418285239348
      ],
      [
        "ĠÄįistÃ©",
        -10.273575977178464
      ],
      [
        "Ġhej",
        -10.27391728061833
      ],
      [
        "Ġzlatou",
        -10.27399277935028
      ],
      [
        "Ã¡vu",
        -10.276769161926115
      ],
      [
        "yje",
        -10.277104256361241
      ],
      [
        "Ġminulost",
        -10.278359825291208
      ],
      [
        "Ġsmutku",
        -10.279155196088666
      ],
      [
        "ĠnedÃ¡",
        -10.279273500748584
      ],
      [
        "Ġcosi",
        -10.279464438839684
      ],
      [
        "Ġpozdrav",
        -10.279840668934845
      ],
      [
        "ĠvÃŃno",
        -10.279920493252202
      ],
      [
        "ÄĽÅĻÃŃ",
        -10.28010379337653
      ],
      [
        "kÃ©m",
        -10.281454406568873
      ],
      [
        "ĠpÃ½ch",
        -10.28209792756547
      ],
      [
        "Ġnikde",
        -10.282243964633983
      ],
      [
        "ĠtÄĽÅ¾ce",
        -10.282897508996943
      ],
      [
        "Ġhod",
        -10.28292029263375
      ],
      [
        "Ġchat",
        -10.283103525948036
      ],
      [
        "ĠohnÄĽ",
        -10.28367396432104
      ],
      [
        "ÄĽst",
        -10.283832622116314
      ],
      [
        "Ġctnost",
        -10.284466287766517
      ],
      [
        "ĠmrtvÃ½ch",
        -10.284897788357673
      ],
      [
        "ĠdrÃ¡h",
        -10.285598610962873
      ],
      [
        "Ġchvat",
        -10.28619536571517
      ],
      [
        "ĠtÅĻpyt",
        -10.286472105772901
      ],
      [
        "ÄĽtÅ¯",
        -10.286525259896662
      ],
      [
        "ĠdÃŃvky",
        -10.286533417479156
      ],
      [
        "ĠbratÅĻi",
        -10.287444448109017
      ],
      [
        "ĠspÃŃÅ¡",
        -10.288048758764926
      ],
      [
        "Ġlky",
        -10.288103645712713
      ],
      [
        "le",
        -10.289482663955404
      ],
      [
        "Ġesa",
        -10.291594580426132
      ],
      [
        "Ġama",
        -10.292345020631432
      ],
      [
        "Ġdaleko",
        -10.293550906828546
      ],
      [
        "ĠmnohÃ©",
        -10.294553512166074
      ],
      [
        "Ġdali",
        -10.296126939404225
      ],
      [
        "tud",
        -10.296234492594923
      ],
      [
        "Ġvrch",
        -10.29647693710288
      ],
      [
        "rnÄĽ",
        -10.296769961592528
      ],
      [
        "ĠtÅĻese",
        -10.298163530305217
      ],
      [
        "ĠhrdÄĽ",
        -10.298236370392168
      ],
      [
        "ĠocÃŃ",
        -10.299070295608718
      ],
      [
        "nÃ©ho",
        -10.29916076984074
      ],
      [
        "ĠvÅ¡ÃŃ",
        -10.299358529995683
      ],
      [
        "itÄĽ",
        -10.299415731199307
      ],
      [
        "ĠtmavÃ©",
        -10.30018390678877
      ],
      [
        "Ġmluv",
        -10.300512774364044
      ],
      [
        "Ġoha",
        -10.3006751473421
      ],
      [
        "Ġvojsk",
        -10.301439863015778
      ],
      [
        "Ġkalich",
        -10.302187398656724
      ],
      [
        "ĠdÅĻÃŃmÃ¡",
        -10.302312609086467
      ],
      [
        "Ġana",
        -10.302387143747122
      ],
      [
        "dly",
        -10.302894222826271
      ],
      [
        "ĠbÃ½val",
        -10.302919930699476
      ],
      [
        "Ġprahu",
        -10.30360955768953
      ],
      [
        "Ġeti",
        -10.304284121578686
      ],
      [
        "ĠÅ¾Ã¡dnÃ©",
        -10.304521872381255
      ],
      [
        "ĠpÅĻÃŃval",
        -10.30504321747554
      ],
      [
        "ĠÅĻekla",
        -10.305343726725367
      ],
      [
        "nnÃ©",
        -10.30744375097721
      ],
      [
        "ĠÄįekal",
        -10.307464904189768
      ],
      [
        "Ġbolu",
        -10.307989867870484
      ],
      [
        "ĠÄįistÃ½",
        -10.30826979763414
      ],
      [
        "Ġula",
        -10.30899556000057
      ],
      [
        "oni",
        -10.310157926400436
      ],
      [
        "ĠumÄĽnÃŃ",
        -10.310260351126647
      ],
      [
        "Ġstane",
        -10.310294649260163
      ],
      [
        "AAAB",
        -10.310443021312945
      ],
      [
        "ĠsmÄĽle",
        -10.310639719826543
      ],
      [
        "ĠjimÅ¾",
        -10.311311233819215
      ],
      [
        "Ġvoda",
        -10.311662008124344
      ],
      [
        "ĠdÃŃlo",
        -10.311817517778877
      ],
      [
        "Ġato",
        -10.313215057702726
      ],
      [
        "Ġdno",
        -10.313708116019969
      ],
      [
        "ĠvonÃŃ",
        -10.314681416446358
      ],
      [
        "ĠmÄĽj",
        -10.315260387351323
      ],
      [
        "Ġsnem",
        -10.315297580787243
      ],
      [
        "Ġsluncem",
        -10.315539225675849
      ],
      [
        "ĠhuÄįÃŃ",
        -10.31573399993482
      ],
      [
        "el",
        -10.316751680283046
      ],
      [
        "Ġmilost",
        -10.317397810383884
      ],
      [
        "ĠtÃ©m",
        -10.3177594479351
      ],
      [
        "kÃ¡",
        -10.318434398291167
      ],
      [
        "ĠhÃ¡j",
        -10.319705219843414
      ],
      [
        "Ġjizb",
        -10.31985651317957
      ],
      [
        "ĠkÃ½m",
        -10.319899081616047
      ],
      [
        "ĠstÄĽny",
        -10.320095691494924
      ],
      [
        "ĠÅ¡kod",
        -10.32035464415639
      ],
      [
        "Ġprah",
        -10.320612148462502
      ],
      [
        "Ġhvozd",
        -10.321657903884908
      ],
      [
        "Ġohy",
        -10.32207131417197
      ],
      [
        "Ġnitru",
        -10.32263085039187
      ],
      [
        "vat",
        -10.322693893261846
      ],
      [
        "ĠdveÅĻÃŃ",
        -10.322777211502999
      ],
      [
        "ĠleÅ¾",
        -10.323491631900163
      ],
      [
        "Ġkorun",
        -10.323586752389783
      ],
      [
        "ĠopÃŃ",
        -10.323885356683167
      ],
      [
        "ĠdÄĽcko",
        -10.323968746217961
      ],
      [
        "Ġzdi",
        -10.324558430836491
      ],
      [
        "ĠÅĪadrech",
        -10.325582889917168
      ],
      [
        "kÃ¡m",
        -10.326232152676763
      ],
      [
        "ĠprosÃŃm",
        -10.326754386512384
      ],
      [
        "ĠdivnÃ©",
        -10.326995597769471
      ],
      [
        "ÄĽtÄĽ",
        -10.327180151170626
      ],
      [
        "Ġmatce",
        -10.32729789378978
      ],
      [
        "ĠvÅ¯ni",
        -10.327987110509701
      ],
      [
        "dnÃ¡",
        -10.328113982884307
      ],
      [
        "Ġtich",
        -10.32824945724785
      ],
      [
        "g",
        -10.328427502343335
      ],
      [
        "Ġjindy",
        -10.328649718147869
      ],
      [
        "Ġvesel",
        -10.328709250880035
      ],
      [
        "ĠvÅ¯dce",
        -10.32915037002126
      ],
      [
        "ĠrokÅ¯",
        -10.32959115686635
      ],
      [
        "ĠoÅ¾e",
        -10.331718853094646
      ],
      [
        "ĠchÅ¯",
        -10.33195134715558
      ],
      [
        "Ġstarost",
        -10.33198766599736
      ],
      [
        "Ġsvatou",
        -10.332736236511778
      ],
      [
        "Ġkonce",
        -10.333422457765048
      ],
      [
        "ĠdÃ½Å¡e",
        -10.33398040803445
      ],
      [
        "ÅĻÃŃ",
        -10.334612896187963
      ],
      [
        "ĠkaÅ¾dÃ©m",
        -10.334618311538634
      ],
      [
        "anÃ¡",
        -10.335142726804257
      ],
      [
        "Ġpodzim",
        -10.337073548214065
      ],
      [
        "ĠÅ¡edÃ½",
        -10.337237092962972
      ],
      [
        "ĠvÄĽtr",
        -10.33741141187317
      ],
      [
        "Ġluny",
        -10.337982828277145
      ],
      [
        "ÄĽvu",
        -10.338469104336987
      ],
      [
        "Ġpoznal",
        -10.338473753248973
      ],
      [
        "ĠdÄĽje",
        -10.339044065736523
      ],
      [
        "Ġstanul",
        -10.339203988555248
      ],
      [
        "Ġmed",
        -10.341336009713839
      ],
      [
        "eÄįe",
        -10.34155572539872
      ],
      [
        "Ġzve",
        -10.34179131019004
      ],
      [
        "ĠsmÄĽje",
        -10.342447269255567
      ],
      [
        "ÄĽku",
        -10.342731834653513
      ],
      [
        "Ġhraje",
        -10.342841829399966
      ],
      [
        "ĠradostÃŃ",
        -10.342866493184008
      ],
      [
        "Ġznal",
        -10.34393042455223
      ],
      [
        "ĠÅ¡ÃŃp",
        -10.344041969280042
      ],
      [
        "ĠmlÄįk",
        -10.344259521049691
      ],
      [
        "ĠposlÃ©z",
        -10.344293590299339
      ],
      [
        "Ġslib",
        -10.344702244446708
      ],
      [
        "AXXA",
        -10.346202136270833
      ],
      [
        "ĠpÃ¡na",
        -10.346917043246675
      ],
      [
        "ĠspÃ¡t",
        -10.347297219396271
      ],
      [
        "ĠvÄĽrnÃ½",
        -10.347449595763186
      ],
      [
        "Ġpravo",
        -10.347845269408479
      ],
      [
        "Ġskvost",
        -10.349332685613767
      ],
      [
        "ĠotÄĽ",
        -10.350175165815367
      ],
      [
        "ĠÅ¾havÃ½",
        -10.350686443612169
      ],
      [
        "Ġvlna",
        -10.35149688699924
      ],
      [
        "ĠdlanÃŃ",
        -10.353060158547613
      ],
      [
        "ĠpravÃ½",
        -10.353091536777864
      ],
      [
        "eÅĪ",
        -10.353259286754811
      ],
      [
        "ahu",
        -10.354169208548486
      ],
      [
        "ĠpatÅĻÃŃ",
        -10.355070718770893
      ],
      [
        "ĠchÃ½lÃŃ",
        -10.355227063058667
      ],
      [
        "ĠsvÄĽtÅ¯",
        -10.355433548887449
      ],
      [
        "Ġmistr",
        -10.355901451667865
      ],
      [
        "ÃŃra",
        -10.356331644831492
      ],
      [
        "Ġeta",
        -10.35739161356529
      ],
      [
        "ĠpÄĽknÄĽ",
        -10.358030859882662
      ],
      [
        "Ġzdali",
        -10.358099104684364
      ],
      [
        "vÅ¯j",
        -10.358859236356114
      ],
      [
        "Ġzlost",
        -10.359090647167536
      ],
      [
        "ĠmocÃŃ",
        -10.359297772709013
      ],
      [
        "ilÃ©",
        -10.360430634765265
      ],
      [
        "Ġslovy",
        -10.36069011838574
      ],
      [
        "ĠmÃ¡te",
        -10.36123011250071
      ],
      [
        "Ġtmou",
        -10.36126145319404
      ],
      [
        "AX",
        -10.362120274199043
      ],
      [
        "Ġjeli",
        -10.362464906689763
      ],
      [
        "ĠkoneÄįnÄĽ",
        -10.362536222310814
      ],
      [
        "Ġmusil",
        -10.363270228223978
      ],
      [
        "Ġsladkou",
        -10.36360148312917
      ],
      [
        "ĠelÃ¡",
        -10.363608634541055
      ],
      [
        "ĠvÄĽÅ¾e",
        -10.364813438487404
      ],
      [
        "ĠztrÃ¡cÃŃ",
        -10.364846313667844
      ],
      [
        "Ã¡Å¾ÃŃ",
        -10.365182234191352
      ],
      [
        "¡",
        -10.365896436604675
      ],
      [
        "ĠstÅĻech",
        -10.366003405425278
      ],
      [
        "Ġmilosti",
        -10.36604971931379
      ],
      [
        "AABA",
        -10.366258285928286
      ],
      [
        "Ġpropast",
        -10.366822172549051
      ],
      [
        "Ġkrov",
        -10.367512629582507
      ],
      [
        "ĠstÅĻel",
        -10.368223272674598
      ],
      [
        "ĠdÄĽck",
        -10.369009676750782
      ],
      [
        "ĠbohÅ¯",
        -10.369310959186844
      ],
      [
        "Ã¡se",
        -10.369473595262953
      ],
      [
        "Ġhlahol",
        -10.369790858679735
      ],
      [
        "Ġkamen",
        -10.369795366724443
      ],
      [
        "Ġcem",
        -10.370211129710183
      ],
      [
        "ĠosÃŃ",
        -10.370395760184556
      ],
      [
        "ĠdÃŃvÄįÃŃ",
        -10.370557126868352
      ],
      [
        "ĠmÃŃst",
        -10.370866776536912
      ],
      [
        "Ġrob",
        -10.371223300105099
      ],
      [
        "Ġeme",
        -10.371728168825005
      ],
      [
        "ĠvidÃŃÅ¡",
        -10.37216721391038
      ],
      [
        "tko",
        -10.372891531739757
      ],
      [
        "ĠmÃ¡j",
        -10.373083054399459
      ],
      [
        "Ġchmur",
        -10.374351603560115
      ],
      [
        "Ġplna",
        -10.376069330135607
      ],
      [
        "Ġbudi",
        -10.376447460113003
      ],
      [
        "ĠnaÅ¡el",
        -10.376577319835022
      ],
      [
        "Ġzel",
        -10.377444323342441
      ],
      [
        "ĠpÅĻÃ¡nÃŃ",
        -10.377670203569682
      ],
      [
        "iÅ¥",
        -10.378383032555918
      ],
      [
        "ĠdÄĽvÄįe",
        -10.378395975143878
      ],
      [
        "Ġduh",
        -10.379067160019611
      ],
      [
        "ece",
        -10.379647946501722
      ],
      [
        "Ġmrtvol",
        -10.38011841498564
      ],
      [
        "ĠlkÃ¡",
        -10.3803207079158
      ],
      [
        "osti",
        -10.38168430424166
      ],
      [
        "Ġstal",
        -10.382030556591442
      ],
      [
        "Ġskoro",
        -10.382056489322697
      ],
      [
        "Ġleh",
        -10.382064509676454
      ],
      [
        "ĠzÅĻÃŃt",
        -10.38245768738068
      ],
      [
        "Ġchleba",
        -10.382665115712815
      ],
      [
        "ĠcitÅ¯",
        -10.382995119496105
      ],
      [
        "ĠskrÃ¡nÃŃ",
        -10.383452842995826
      ],
      [
        "ĠpÃŃt",
        -10.384191815294695
      ],
      [
        "skou",
        -10.384234895813705
      ],
      [
        "ĠvÃ¡Å¡nÄĽ",
        -10.384875489627664
      ],
      [
        "Ġuka",
        -10.385287974804442
      ],
      [
        "esu",
        -10.385290463177522
      ],
      [
        "Ġkletb",
        -10.385733741147158
      ],
      [
        "Ġaha",
        -10.385829097110701
      ],
      [
        "ĠtemnÄĽ",
        -10.386930206462493
      ],
      [
        "ĠjasnÄĽ",
        -10.38765052854568
      ],
      [
        "ta",
        -10.38778471337824
      ],
      [
        "ĠslavÃŃk",
        -10.388156195631602
      ],
      [
        "Ġhledal",
        -10.38828823485377
      ],
      [
        "ĠsnÄĽhu",
        -10.388306415344553
      ],
      [
        "Ġbalvan",
        -10.3885974874317
      ],
      [
        "ĠpÃŃsk",
        -10.388960855327525
      ],
      [
        "ĠjinÃŃ",
        -10.38900229071914
      ],
      [
        "ckÃ½",
        -10.389040570834862
      ],
      [
        "Ġsud",
        -10.389508206731882
      ],
      [
        "Ġpoesi",
        -10.390660673503977
      ],
      [
        "ĠptÃ¡",
        -10.390916600311334
      ],
      [
        "eÄı",
        -10.391435033407262
      ],
      [
        "ĠstÃŃnÅ¯",
        -10.391842990812506
      ],
      [
        "Ġbyt",
        -10.391950347931257
      ],
      [
        "Å¡ly",
        -10.392253176019679
      ],
      [
        "Ġvolnost",
        -10.392300317487015
      ],
      [
        "ĠsamÃ©",
        -10.39247499700421
      ],
      [
        "Ġkov",
        -10.392618118891557
      ],
      [
        "rnÃŃ",
        -10.393148827846684
      ],
      [
        "ĠptÃ¡Äįe",
        -10.393199660869016
      ],
      [
        "ĠvÃ½Å¡i",
        -10.394522893392836
      ],
      [
        "Ġtvor",
        -10.394933264202674
      ],
      [
        "ĠprÅ¯vod",
        -10.395237430460934
      ],
      [
        "Ġpouta",
        -10.39564195095473
      ],
      [
        "ĠprÃ¡vo",
        -10.397245698673029
      ],
      [
        "XABA",
        -10.397291047951942
      ],
      [
        "Ġvelmi",
        -10.39802895536709
      ],
      [
        "ĠvÄĽtvÃŃ",
        -10.398138431612457
      ],
      [
        "ĠvolnÄĽ",
        -10.39854685529048
      ],
      [
        "Ġmatku",
        -10.39934255103775
      ],
      [
        "?!",
        -10.39963993887417
      ],
      [
        "Ġoken",
        -10.400032058029659
      ],
      [
        "eÄįi",
        -10.400791276407112
      ],
      [
        "ĠdobrÃ¡",
        -10.401260669182768
      ],
      [
        "ĠmlÄįÃŃ",
        -10.401631900231665
      ],
      [
        "ĠzÃ¡voj",
        -10.401931075112287
      ],
      [
        "ĠhorÃ¡ch",
        -10.40217755072326
      ],
      [
        "Ġob",
        -10.403241933946536
      ],
      [
        "ĠvÅ¡ickni",
        -10.404187738808673
      ],
      [
        "ĠseÅĪ",
        -10.406652924005243
      ],
      [
        "Ġmluvit",
        -10.407942399394702
      ],
      [
        "ĠtajemstvÃŃ",
        -10.408234896376843
      ],
      [
        "ĠÅ¡ti",
        -10.408871422558178
      ],
      [
        "nnÃŃ",
        -10.409376892210172
      ],
      [
        "Ġnebude",
        -10.409795394413745
      ],
      [
        "Ġstarou",
        -10.410699886688938
      ],
      [
        "ĠvÄĽÄįnosti",
        -10.411322035833319
      ],
      [
        "Ġmiloval",
        -10.412300636424808
      ],
      [
        "ĠsmÄĽl",
        -10.413607362703747
      ],
      [
        "ĠzÅ¯stal",
        -10.414527933730263
      ],
      [
        "ovÃ½ch",
        -10.415085640599228
      ],
      [
        "Ġlidi",
        -10.415512129033695
      ],
      [
        "ÄįnÃ½",
        -10.415703156471126
      ],
      [
        "ĠvelikÃ©",
        -10.416229009670943
      ],
      [
        "Ġrys",
        -10.416561851586106
      ],
      [
        "ĠbÃŃt",
        -10.416725601281684
      ],
      [
        "ĠÅĻev",
        -10.416968039968758
      ],
      [
        "azÃŃ",
        -10.417412462301417
      ],
      [
        "Ġotci",
        -10.417575104212652
      ],
      [
        "se",
        -10.417631853537674
      ],
      [
        "ĠÅ¾ivotem",
        -10.41777388253908
      ],
      [
        "dnem",
        -10.417957147063014
      ],
      [
        "ĠnÄĽmÃ½",
        -10.418016479803757
      ],
      [
        "Ġlesem",
        -10.418033001344147
      ],
      [
        "ĠmuÅ¾Å¯",
        -10.41806735575343
      ],
      [
        "ĠvÄĽtru",
        -10.418194462228016
      ],
      [
        "ĠnemÃ¡m",
        -10.419166709018748
      ],
      [
        "chom",
        -10.41962920369151
      ],
      [
        "ĠvrÃ¡tÃŃ",
        -10.420732212384644
      ],
      [
        "ÃŃÅĻÃŃ",
        -10.421879772068927
      ],
      [
        "ĠÅ¾enou",
        -10.42208201085371
      ],
      [
        "ĠnepÅĻÃ¡tel",
        -10.422190443551598
      ],
      [
        "Ġlov",
        -10.422240307176068
      ],
      [
        "ĠtajÃŃ",
        -10.42253729581823
      ],
      [
        "ĠdÃ¡n",
        -10.423648062396031
      ],
      [
        "Ġhroby",
        -10.42498020697708
      ],
      [
        "Ġpadne",
        -10.424997914685687
      ],
      [
        "ĠsplÃ½vÃ¡",
        -10.42512386246311
      ],
      [
        "Ġkryje",
        -10.425167285554025
      ],
      [
        "Ġnemoh",
        -10.42596901849846
      ],
      [
        "Ġnebem",
        -10.427309790546982
      ],
      [
        "Ġprosb",
        -10.42735305322466
      ],
      [
        "Ġebi",
        -10.427550022707722
      ],
      [
        "ĠtÃ¡h",
        -10.428910095833306
      ],
      [
        "ĠstaÄįÃŃ",
        -10.430605441623253
      ],
      [
        "ĠchladnÃ½",
        -10.43077249934575
      ],
      [
        "Ġtichou",
        -10.430817768125822
      ],
      [
        "Ġjinoch",
        -10.431236162304783
      ],
      [
        "Ġprudce",
        -10.431527177480552
      ],
      [
        "ĠnÄĽkde",
        -10.432867844894089
      ],
      [
        "kÃ½",
        -10.433101710472059
      ],
      [
        "ĠnadÄĽjÃŃ",
        -10.4331261182863
      ],
      [
        "ĠvÃ¡l",
        -10.433727116474198
      ],
      [
        "ĠvÅ¡ady",
        -10.434370886216385
      ],
      [
        "Ġmnich",
        -10.435082059772444
      ],
      [
        "ĠbolÃŃ",
        -10.435109244265519
      ],
      [
        "ĠmlÃ½n",
        -10.435402951868639
      ],
      [
        "Ġsoucit",
        -10.435492706807963
      ],
      [
        "Ġkdybych",
        -10.435731463956724
      ],
      [
        "ĠchladnÃ©",
        -10.436059486288986
      ],
      [
        "eba",
        -10.436458262799144
      ],
      [
        "Ġnoha",
        -10.436920748390992
      ],
      [
        "ĠtÃŃÅ¾ÃŃ",
        -10.438447550620028
      ],
      [
        "rti",
        -10.439106191747054
      ],
      [
        "ĠnÃ¡ruÄįÃŃ",
        -10.439110468637793
      ],
      [
        "Ġnejsem",
        -10.439258335458234
      ],
      [
        "ĠvelkÃ½m",
        -10.440292212842909
      ],
      [
        "Ġkristu",
        -10.44104150890642
      ],
      [
        "ĠkaÅ¾dÃ½m",
        -10.441741559332636
      ],
      [
        "Ġvine",
        -10.441787126052876
      ],
      [
        "ĠpoutnÃŃk",
        -10.44238262757423
      ],
      [
        "ĠjÃŃti",
        -10.44357078324695
      ],
      [
        "aÅĻÃŃ",
        -10.443688925813468
      ],
      [
        "ĠoÄįima",
        -10.443760189211705
      ],
      [
        "Ġkrb",
        -10.443809698324236
      ],
      [
        "mnÃ©",
        -10.443812069722146
      ],
      [
        "ĠneznÃ¡m",
        -10.443922623876297
      ],
      [
        "Ã¡ji",
        -10.444501173778933
      ],
      [
        "ÄĽch",
        -10.444544573165079
      ],
      [
        "ĠhalÃŃ",
        -10.44542368571674
      ],
      [
        "aze",
        -10.446144749538664
      ],
      [
        "yly",
        -10.446453419801767
      ],
      [
        "ÄĽnÃ©",
        -10.446523394195939
      ],
      [
        "ĠdÄĽd",
        -10.447126641315322
      ],
      [
        "ĠchlÃ©b",
        -10.447688507437256
      ],
      [
        "ĠpravÃ©",
        -10.447871589076371
      ],
      [
        "ĠptaÄįÃŃ",
        -10.448164636519422
      ],
      [
        "Ġlehc",
        -10.448176817465008
      ],
      [
        "tu",
        -10.448198564625262
      ],
      [
        "ĠpÃ¡lÃŃ",
        -10.448277398617087
      ],
      [
        "ĠmocnÄĽ",
        -10.449704011552464
      ],
      [
        "ĠvÄĽnec",
        -10.449940193511521
      ],
      [
        "ĠslavnÃ©",
        -10.450173099236467
      ],
      [
        "ĠzvÄĽst",
        -10.45024894060446
      ],
      [
        "ĠÄįasÅ¯",
        -10.450720599033392
      ],
      [
        "Ġvane",
        -10.451037713547066
      ],
      [
        "Ġatu",
        -10.452081082176978
      ],
      [
        "ĠhnÃŃzd",
        -10.452379160844355
      ],
      [
        "tnÃŃ",
        -10.453386868897407
      ],
      [
        "ĠvlasÅ¯",
        -10.453470589697737
      ],
      [
        "Ġstolu",
        -10.454000560558876
      ],
      [
        "ĠkÅĻÃŃÅ¾e",
        -10.454035330482835
      ],
      [
        "ĠpohÃ¡dk",
        -10.454425452484566
      ],
      [
        "ĠstÃ¡ÅĻÃŃ",
        -10.454462263563505
      ],
      [
        "Ã¡hy",
        -10.455024840257096
      ],
      [
        "ĠÅ¾Ã¡dn",
        -10.455484754997041
      ],
      [
        "Ġjezer",
        -10.455556709130924
      ],
      [
        "ĠmÃ©mu",
        -10.455660819319785
      ],
      [
        "Ġhudb",
        -10.455824137098826
      ],
      [
        "ĠlÃŃcÃŃ",
        -10.456050264078907
      ],
      [
        "Ġpomal",
        -10.456580296403022
      ],
      [
        "ĠÃºdolÃŃ",
        -10.457965469372153
      ],
      [
        "Ġkrvi",
        -10.458254719461186
      ],
      [
        "ĠduchÅ¯",
        -10.458611695641022
      ],
      [
        "ĠuhÃ½",
        -10.458789881877632
      ],
      [
        "Ġpadl",
        -10.460379831269366
      ],
      [
        "ĠpÅĻÃŃtel",
        -10.460574237966899
      ],
      [
        "udÃ©",
        -10.460678668237986
      ],
      [
        "ĠvÄįel",
        -10.46109092670331
      ],
      [
        "Ġodkud",
        -10.461172421465704
      ],
      [
        "Ġsnah",
        -10.461558002386031
      ],
      [
        "ĠrÅ¯Å¾i",
        -10.461735745517995
      ],
      [
        "ĠÃºd",
        -10.46274229719593
      ],
      [
        "atÄĽ",
        -10.462780333299122
      ],
      [
        "ĠÅ¡edÃ©",
        -10.463614213856928
      ],
      [
        "ĠsluÅ¾b",
        -10.464153059050304
      ],
      [
        "ĠvÄĽtve",
        -10.465238085481486
      ],
      [
        "Ġpark",
        -10.46526668307844
      ],
      [
        "ĠpÅ¯lnoc",
        -10.465308673935123
      ],
      [
        "Ġdlouhou",
        -10.46593893060618
      ],
      [
        "Ġztratil",
        -10.465976697172131
      ],
      [
        "Ġproudy",
        -10.46636471121413
      ],
      [
        "nÃŃh",
        -10.467459624232973
      ],
      [
        "Ġtehdy",
        -10.468532574348739
      ],
      [
        "Ġhrozn",
        -10.468762339249803
      ],
      [
        "Ġbudem",
        -10.469450226193073
      ],
      [
        "ĠjÃ¡sot",
        -10.469461630550619
      ],
      [
        "Ġzima",
        -10.469671451596678
      ],
      [
        "ĠobliÄįej",
        -10.469924209728154
      ],
      [
        "ĠÄįert",
        -10.470979559563483
      ],
      [
        "dÃ¡ti",
        -10.47151019359272
      ],
      [
        "ĠkoÅĻen",
        -10.472948978865563
      ],
      [
        "ytu",
        -10.473526088075111
      ],
      [
        "ÃŃÅĻe",
        -10.473572421133547
      ],
      [
        "ĠvÃ¡clav",
        -10.47399970041073
      ],
      [
        "Å¡tÃŃ",
        -10.474018171400239
      ],
      [
        "Ġkouzlo",
        -10.4747990092214
      ],
      [
        "ĠvelkÃ½ch",
        -10.474807777149136
      ],
      [
        "ĠstaÅĻec",
        -10.475309624917323
      ],
      [
        "ĠnemÅ¯Å¾e",
        -10.475590676758326
      ],
      [
        "ĠpÄĽv",
        -10.476322535873996
      ],
      [
        "ĠvÄĽdÄĽl",
        -10.476376649729692
      ],
      [
        "ĠsÃŃÅĪ",
        -10.476893441146974
      ],
      [
        "ĠprÃ¡va",
        -10.47760097591889
      ],
      [
        "AXBXB",
        -10.477796103432752
      ],
      [
        "Ġlamp",
        -10.477933991473183
      ],
      [
        "ĠdlouhÃ¡",
        -10.478107874774683
      ],
      [
        "ĠpÅĻedu",
        -10.478724623829121
      ],
      [
        "ĠinÃ½",
        -10.479002133250997
      ],
      [
        "Ġnemoc",
        -10.479014116909394
      ],
      [
        "Ġvolal",
        -10.480910740726621
      ],
      [
        "ĠchudÃ½",
        -10.482075219021665
      ],
      [
        "Ġkolik",
        -10.482931401852722
      ],
      [
        "ĠdlanÄĽ",
        -10.484122461882375
      ],
      [
        "Ġmor",
        -10.484527470452175
      ],
      [
        "Ġlodi",
        -10.484631478664824
      ],
      [
        "Ġkostel",
        -10.484664563169925
      ],
      [
        "Ġleb",
        -10.485336244063634
      ],
      [
        "Ġhnal",
        -10.485862997250013
      ],
      [
        "ÅĻen",
        -10.486062407643193
      ],
      [
        "ĠkÅ¯ÅĪ",
        -10.486990160019392
      ],
      [
        "Ġpouti",
        -10.48810529500707
      ],
      [
        "ĠveÄįera",
        -10.488959255384723
      ],
      [
        "ĠpoÄįal",
        -10.489942622486726
      ],
      [
        "Ġlidsk",
        -10.490326540259481
      ],
      [
        "ĠubÃŃ",
        -10.491093771832942
      ],
      [
        "AABX",
        -10.492520853334808
      ],
      [
        "Ġzle",
        -10.494937771982737
      ],
      [
        "ĠitÃ¡",
        -10.495259924540639
      ],
      [
        "ĠhnÄĽvu",
        -10.496216289310595
      ],
      [
        "ĠÅĻÃŃtÃŃ",
        -10.496419768441548
      ],
      [
        "ĠÅ¡kol",
        -10.496818561392924
      ],
      [
        "ĠzapomnÄĽl",
        -10.49711639895323
      ],
      [
        "ĠkeÅĻ",
        -10.497458636029366
      ],
      [
        "ĠsvÃŃrÃ¡",
        -10.497906482932542
      ],
      [
        "ÄįÃŃ",
        -10.499284348336008
      ],
      [
        "Ġhyne",
        -10.499527567628792
      ],
      [
        "ĠpracÃŃ",
        -10.499811218788624
      ],
      [
        "ĠskrÃ½vÃ¡",
        -10.501323844028821
      ],
      [
        "ĠtÄĽchto",
        -10.501660492645179
      ],
      [
        "Ġbarev",
        -10.50256246120969
      ],
      [
        "ĠcÃŃle",
        -10.502992902723214
      ],
      [
        "ĠdeÅ¡tÄĽ",
        -10.50411774208633
      ],
      [
        "Ġnevy",
        -10.504121396581017
      ],
      [
        "ĠskÃ¡la",
        -10.50466772308053
      ],
      [
        "ĠrodnÃ©",
        -10.504991122413728
      ],
      [
        "Ġmile",
        -10.505224121578085
      ],
      [
        "Ã©tÃ¡",
        -10.505611591764184
      ],
      [
        "Ġbytost",
        -10.50636692774761
      ],
      [
        "ĠÅ¡em",
        -10.50649349681651
      ],
      [
        "Å¡e",
        -10.50762545237325
      ],
      [
        "Ġmnoh",
        -10.507640517769811
      ],
      [
        "ĠrodÃŃ",
        -10.507662240284525
      ],
      [
        "Å¯ru",
        -10.507803118675051
      ],
      [
        "ĠslavnÄĽ",
        -10.50890282340491
      ],
      [
        "ty",
        -10.509719911855312
      ],
      [
        "Ġdobu",
        -10.510063304916237
      ],
      [
        "Ġpel",
        -10.510784760191221
      ],
      [
        "Ġjitro",
        -10.510954879511957
      ],
      [
        "Å¡ÃŃ",
        -10.511552970176993
      ],
      [
        "Ġklesl",
        -10.511713695474619
      ],
      [
        "ĠÅ¡ero",
        -10.512059084198395
      ],
      [
        "snÃ½",
        -10.512395487543312
      ],
      [
        "Ġramen",
        -10.51338649131589
      ],
      [
        "ĠkÅĻÃŃdel",
        -10.513540696833658
      ],
      [
        "Ġkoho",
        -10.514604340096307
      ],
      [
        "Ã¡sÃ¡",
        -10.514919979507845
      ],
      [
        "Ġznak",
        -10.515299972436187
      ],
      [
        "Ġsamot",
        -10.51591124291713
      ],
      [
        "ijÃŃ",
        -10.515938780486326
      ],
      [
        "ĠÄįemu",
        -10.515979097442969
      ],
      [
        "ĠvÃ¡Å¾nÄĽ",
        -10.516293575848977
      ],
      [
        "ĠnadÄĽj",
        -10.517370315920633
      ],
      [
        "ĠÅĻeka",
        -10.517575918849808
      ],
      [
        "ĠpÅĻiÅ¡l",
        -10.51781558953937
      ],
      [
        "ĠÃºzkost",
        -10.518105722806986
      ],
      [
        "ĠjemnÄĽ",
        -10.518273900177576
      ],
      [
        "Ġvoj",
        -10.518428856642736
      ],
      [
        "Ġjat",
        -10.518437205497662
      ],
      [
        "Ġcel",
        -10.518667270622522
      ],
      [
        "ynÄĽ",
        -10.518746252869391
      ],
      [
        "ĠvonnÃ½",
        -10.519092618695323
      ],
      [
        "ĠvÄĽz",
        -10.519381273265973
      ],
      [
        "ĠzpÄĽvu",
        -10.519584842207406
      ],
      [
        "ĠjakÃ½s",
        -10.519916983741048
      ],
      [
        "prostÅĻed",
        -10.520029860136706
      ],
      [
        "Ġvtip",
        -10.520853506945649
      ],
      [
        "ĠtÄĽÅ¾kÃ¡",
        -10.52155997529254
      ],
      [
        "ĠÅ¡eru",
        -10.522936604879998
      ],
      [
        "ĠvÃŃtÄĽzstvÃŃ",
        -10.52432552842471
      ],
      [
        "ĠstÅĻedu",
        -10.524417516303217
      ],
      [
        "ĠbÃŃdy",
        -10.524483928437194
      ],
      [
        "ĠchovÃ¡",
        -10.525212454358167
      ],
      [
        "ĠsmÄĽs",
        -10.52610315400663
      ],
      [
        "ĠbratÅĻe",
        -10.52631310876421
      ],
      [
        "Ġlit",
        -10.526430047370432
      ],
      [
        "Ġskryt",
        -10.526619495022867
      ],
      [
        "ĠvroucnÄĽ",
        -10.526920153923463
      ],
      [
        "ĠhrÃ¡t",
        -10.52704009370872
      ],
      [
        "Ġoma",
        -10.527216710012613
      ],
      [
        "Ġzdroj",
        -10.527477488399455
      ],
      [
        "ĠvÄĽku",
        -10.527959449394606
      ],
      [
        "Ġmyslil",
        -10.528327052094621
      ],
      [
        "ĠznÃ¡t",
        -10.528434128653057
      ],
      [
        "iÄįÃŃ",
        -10.528623967754964
      ],
      [
        "Ġono",
        -10.528656469634399
      ],
      [
        "aru",
        -10.528981907837782
      ],
      [
        "Ġprs",
        -10.529126746849506
      ],
      [
        "ahÃ½",
        -10.529882178354754
      ],
      [
        "Ġkams",
        -10.530311895453107
      ],
      [
        "Ġrov",
        -10.530435528289324
      ],
      [
        "ÃŃjÃŃ",
        -10.531250459156356
      ],
      [
        "ĠalÃ¡",
        -10.53136464860178
      ],
      [
        "ÃŃlÃ©",
        -10.53158223997556
      ],
      [
        "Ġomy",
        -10.531992039627468
      ],
      [
        "Ã©st",
        -10.53382216059842
      ],
      [
        "Ġtrest",
        -10.534221573918352
      ],
      [
        "ĠzlÃ¡",
        -10.534459534617675
      ],
      [
        "ĠhrÅ¯zy",
        -10.535082856604141
      ],
      [
        "ĠdivÃ©",
        -10.535246143670406
      ],
      [
        "ĠbloudÃŃ",
        -10.53576873886805
      ],
      [
        "Ġalu",
        -10.537332868067981
      ],
      [
        "Ã¡dy",
        -10.538125195386899
      ],
      [
        "ivÃŃ",
        -10.53846764970174
      ],
      [
        "ĠptÃ¡kÅ¯",
        -10.538648327584244
      ],
      [
        "Ġtrud",
        -10.538938168148064
      ],
      [
        "Ġbod",
        -10.539017046419758
      ],
      [
        "ĠpohÃ¡r",
        -10.539044192623074
      ],
      [
        "ĠstÃ¡ti",
        -10.539724946952884
      ],
      [
        "Ġnechal",
        -10.539913086749467
      ],
      [
        "ĠtÄĽlem",
        -10.540384973194474
      ],
      [
        "ĠhÃ¡je",
        -10.54068803526636
      ],
      [
        "ĠvstÃ¡vÃ¡",
        -10.541005959170947
      ],
      [
        "Ġkrajem",
        -10.541459030653463
      ],
      [
        "ĠrÃ½m",
        -10.541548337563984
      ],
      [
        "Ġkles",
        -10.541767173141151
      ],
      [
        "ĠvesmÃŃr",
        -10.54180592168935
      ],
      [
        "Ġzbyl",
        -10.542103063544776
      ],
      [
        "Ġmost",
        -10.542456513084215
      ],
      [
        "ĠpoÅ¾Ã¡r",
        -10.543639337782684
      ],
      [
        "ĠvaÅ¡ich",
        -10.543694191647084
      ],
      [
        "ĠnÄĽÅ¾",
        -10.543726930690932
      ],
      [
        "ĠkÃ½vÃ¡",
        -10.544263664229117
      ],
      [
        "ĠletnÃŃ",
        -10.544446587255056
      ],
      [
        "ĠvÃŃte",
        -10.544946609732598
      ],
      [
        "ĠchudÃ©",
        -10.545130724972816
      ],
      [
        "Ġrodin",
        -10.545501427381067
      ],
      [
        "ĠsmrtÃŃ",
        -10.545753243320165
      ],
      [
        "ĠlÃŃÅ¾",
        -10.546483493671015
      ],
      [
        "ĠobÄĽÅ¥",
        -10.547135235972943
      ],
      [
        "Ġkmen",
        -10.547405243302993
      ],
      [
        "ivy",
        -10.547634257197526
      ],
      [
        "Ġsever",
        -10.547750102250422
      ],
      [
        "ĠtrÅ¯nu",
        -10.54794621411811
      ],
      [
        "ĠdÃ½chÃ¡",
        -10.548219744992439
      ],
      [
        "ĠlÃŃbal",
        -10.548803167761243
      ],
      [
        "Ġnesou",
        -10.548865956829305
      ],
      [
        "touze",
        -10.548924112893118
      ],
      [
        "ĠÄįnÄĽ",
        -10.549260967213556
      ],
      [
        "ĠzachvÄĽl",
        -10.550014691414042
      ],
      [
        "rnÃ¡",
        -10.550080182400725
      ],
      [
        "ĠpoÅ¾ehnÃ¡nÃŃ",
        -10.550131196412721
      ],
      [
        "ĠdÄĽjin",
        -10.550185892157803
      ],
      [
        "Ġkrista",
        -10.55062318252228
      ],
      [
        "Ġpomoci",
        -10.550812135495715
      ],
      [
        "Ġspal",
        -10.551437339495557
      ],
      [
        "iky",
        -10.55308617979044
      ],
      [
        "?...",
        -10.55358651282272
      ],
      [
        "Ġklade",
        -10.553599505074551
      ],
      [
        "ĠkrÃ¡tkÃ½",
        -10.553734295984288
      ],
      [
        "ĠbÃŃda",
        -10.55380447895863
      ],
      [
        "ABAX",
        -10.55426777495212
      ],
      [
        "ĠvznÃ¡Å¡ÃŃ",
        -10.554340240206553
      ],
      [
        "Ġeji",
        -10.554835529573953
      ],
      [
        "ĠkrÃ¡sou",
        -10.554973859433112
      ],
      [
        "Ġkare",
        -10.55587282076329
      ],
      [
        "Ġvin",
        -10.55601515808409
      ],
      [
        "Ġkvete",
        -10.556050989773917
      ],
      [
        "ĠkvÄĽtin",
        -10.556821932778913
      ],
      [
        "ĠdennÃŃ",
        -10.557120459625965
      ],
      [
        "ĠpÃ¡s",
        -10.55752778059723
      ],
      [
        "ĠhroznÃ½",
        -10.557977521357572
      ],
      [
        "ĠnepÅĻÃŃtel",
        -10.558022305290745
      ],
      [
        "Ġtit",
        -10.559062677851959
      ],
      [
        "eÅĻe",
        -10.559534615735526
      ],
      [
        "ĠsvÄĽdomÃŃ",
        -10.559755668040527
      ],
      [
        "Ġpadla",
        -10.559897278227098
      ],
      [
        "ĠslzÃŃ",
        -10.559995281498377
      ],
      [
        "ĠlÃŃn",
        -10.56003493402589
      ],
      [
        "ĠspÄĽl",
        -10.560122742192155
      ],
      [
        "ÄĽru",
        -10.561054236322697
      ],
      [
        "Ġkouzl",
        -10.561199396593302
      ],
      [
        "ĠnechtÄĽl",
        -10.561499523433724
      ],
      [
        "ÃŃlÃ¡",
        -10.561857345770887
      ],
      [
        "ÃŃdÃ¡",
        -10.562346766410245
      ],
      [
        "etÃ¡",
        -10.56252704917194
      ],
      [
        "Ġmohla",
        -10.562761674398875
      ],
      [
        "ĠbÃ¡l",
        -10.56290142125923
      ],
      [
        "ABCCD",
        -10.563276103916165
      ],
      [
        "Ġvan",
        -10.5636478057914
      ],
      [
        "ÃŃlu",
        -10.563654996474211
      ],
      [
        "akÅ¯",
        -10.564531935563567
      ],
      [
        "ĠhrÅ¯za",
        -10.56472712345604
      ],
      [
        "ĠdvÃ©ÅĻe",
        -10.564742094722801
      ],
      [
        "Ġhlubok",
        -10.564877727231737
      ],
      [
        "in",
        -10.56503319154172
      ],
      [
        "ĠskÃ¡le",
        -10.566576734293932
      ],
      [
        "ĠonÃ©",
        -10.567142760315551
      ],
      [
        "ĠÅ¡lo",
        -10.56751735484018
      ],
      [
        "ĠvÄĽrnÄĽ",
        -10.568500489261385
      ],
      [
        "ĠjinÃ½m",
        -10.569288334367226
      ],
      [
        "ĠprÃ¡zdno",
        -10.570660307200475
      ],
      [
        "ĠhrÃ¡",
        -10.570817697713657
      ],
      [
        "ĠÄįernou",
        -10.57111858248081
      ],
      [
        "ĠikÃ¡",
        -10.571822593031687
      ],
      [
        "Ġcen",
        -10.572689730690227
      ],
      [
        "Ġvnad",
        -10.57270828088739
      ],
      [
        "ĠÅĻetÄĽz",
        -10.572832380696578
      ],
      [
        "ĠleÅ¾el",
        -10.5728393885614
      ],
      [
        "Ġsloup",
        -10.573057621853906
      ],
      [
        "Ġsed",
        -10.57309215737548
      ],
      [
        "ĠdÃ©Å¡Å¥",
        -10.5738911727289
      ],
      [
        "ĠlaÅĪ",
        -10.5739791777713
      ],
      [
        "Ġzvolal",
        -10.574214647184231
      ],
      [
        "ĠspÃŃcÃŃ",
        -10.574316054989563
      ],
      [
        "Ġminul",
        -10.575549599298672
      ],
      [
        "Ġmil",
        -10.576320778816392
      ],
      [
        "ĠblÃŃzko",
        -10.577009164553038
      ],
      [
        "ĠkrÃ¡snou",
        -10.577398353211645
      ],
      [
        "ĠsvÄĽtlem",
        -10.578113386922135
      ],
      [
        "Ġskok",
        -10.578180587925765
      ],
      [
        "ĠprostÅĻed",
        -10.578251516571441
      ],
      [
        "Ġvysoko",
        -10.578383553799725
      ],
      [
        "Ġdrahou",
        -10.579083171721788
      ],
      [
        "Ġplyne",
        -10.57980650493858
      ],
      [
        "ĠpozdÄĽ",
        -10.5802078550948
      ],
      [
        "Ġovo",
        -10.580360627483682
      ],
      [
        "Ġchodil",
        -10.58039823225763
      ],
      [
        "ĠmrakÅ¯",
        -10.580601908838052
      ],
      [
        "ĠzbraÅĪ",
        -10.58064535965545
      ],
      [
        "ĠspÃ¡s",
        -10.581166667705471
      ],
      [
        "bec",
        -10.581373728710831
      ],
      [
        "ĠdrÅ¾ÃŃ",
        -10.581393019584958
      ],
      [
        "vÄĽ",
        -10.581733394742908
      ],
      [
        "ynÃŃ",
        -10.581793744547838
      ],
      [
        "ĠvÄĽÄįnÃ¡",
        -10.581923925320776
      ],
      [
        "ĠloÅ¾i",
        -10.581953411504525
      ],
      [
        "Ã¡ru",
        -10.5819929731969
      ],
      [
        "Ġuji",
        -10.582083122688847
      ],
      [
        "ĠrozkoÅ¡e",
        -10.582513783527611
      ],
      [
        "ĠrtÃŃ",
        -10.58287879176666
      ],
      [
        "ĠzrakÅ¯",
        -10.583286338359379
      ],
      [
        "Ġhrot",
        -10.583348046771587
      ],
      [
        "ĠuÅĻÃŃ",
        -10.583372859098056
      ],
      [
        "Ã¡Äįi",
        -10.583571499654813
      ],
      [
        "©",
        -10.583761536883166
      ],
      [
        "jednou",
        -10.584015757948624
      ],
      [
        "ĠÅ¾hav",
        -10.584855801314827
      ],
      [
        "Ġuha",
        -10.585370406291826
      ],
      [
        "ĠstoupÃ¡",
        -10.585528328932197
      ],
      [
        "ĠpÅ¯d",
        -10.585537112945296
      ],
      [
        "ĠtvoÅĻÃŃ",
        -10.585680455570046
      ],
      [
        "ĠtÃ¡hnou",
        -10.585778790541632
      ],
      [
        "Ġpanna",
        -10.586051515257992
      ],
      [
        "ĠmrtvÃ½",
        -10.586489201296212
      ],
      [
        "Ġsmutno",
        -10.586736097191014
      ],
      [
        "ĠzdaÅ¾",
        -10.58756595948488
      ],
      [
        "ĠnesmÃŃ",
        -10.587828190890761
      ],
      [
        "ĠplÃ¡nÃŃ",
        -10.588128339794523
      ],
      [
        "Ġjist",
        -10.589074048121693
      ],
      [
        "Ġlal",
        -10.589183807168524
      ],
      [
        "ĠplÃ¡Å¡Å¥",
        -10.589257302894115
      ],
      [
        "ĠsamÃ½",
        -10.589493174346007
      ],
      [
        "Ġmilou",
        -10.590135694136332
      ],
      [
        "lÃŃ",
        -10.590304745152018
      ],
      [
        "ĠnejvÃŃc",
        -10.591451182511731
      ],
      [
        "ĠmoÅĻem",
        -10.591802875334285
      ],
      [
        "ĠlnÄĽ",
        -10.592080293534632
      ],
      [
        "ĠzlatÃ½m",
        -10.592392891874699
      ],
      [
        "ĠmÃ¡ti",
        -10.592665158029424
      ],
      [
        "ĠÃ¡ry",
        -10.593048118293224
      ],
      [
        "vÃŃra",
        -10.593555496062848
      ],
      [
        "Ġstud",
        -10.594172507693798
      ],
      [
        "dky",
        -10.594250084167111
      ],
      [
        "ĠpÅĻÃŃrody",
        -10.595271182740209
      ],
      [
        "ĠsmutnÃ¡",
        -10.595284928572852
      ],
      [
        "Ġrosa",
        -10.595874515977703
      ],
      [
        "manÄĽ",
        -10.59626870757183
      ],
      [
        "nejkrÃ¡snÄĽjÅ¡ÃŃ",
        -10.596276322776777
      ],
      [
        "ĠmÃŃstÄĽ",
        -10.596586822478141
      ],
      [
        "ĠusmÃŃvÃ¡",
        -10.59742519132003
      ],
      [
        "Ġbolem",
        -10.597869947791239
      ],
      [
        "Ġpopel",
        -10.597909089037483
      ],
      [
        "ĠruÄįk",
        -10.598353170087663
      ],
      [
        "ĠsvÃŃtil",
        -10.598424236755218
      ],
      [
        "ĠvÅ¡ednÃŃ",
        -10.600154700883751
      ],
      [
        "Ġrat",
        -10.600538761324156
      ],
      [
        "letu",
        -10.601020666607376
      ],
      [
        "Ġpne",
        -10.601189830375489
      ],
      [
        "ĠzaÄįal",
        -10.60211466667598
      ],
      [
        "tyto",
        -10.602227608785185
      ],
      [
        "Ġzved",
        -10.60231538732098
      ],
      [
        "Ġtlum",
        -10.603287149077183
      ],
      [
        "Ġoce",
        -10.603703343814987
      ],
      [
        "Ġudi",
        -10.604061775158254
      ],
      [
        "kÅ¯",
        -10.604368753840546
      ],
      [
        "ĠmladÃ½ch",
        -10.604510566817385
      ],
      [
        "ĠbÃŃdu",
        -10.604702959482859
      ],
      [
        "kÅ¯m",
        -10.604864306382616
      ],
      [
        "ĠÅ¾havÃ©",
        -10.60490451947998
      ],
      [
        "Ġchas",
        -10.605657291463096
      ],
      [
        "ĠplnÃ¡",
        -10.605984370763958
      ],
      [
        "ĠchvÃŃlÃŃ",
        -10.60653903443228
      ],
      [
        "ĠÅ¾ivÃ©",
        -10.606789582627849
      ],
      [
        "ĠmarnÃ©",
        -10.606828869027186
      ],
      [
        "Ġslo",
        -10.607218126412715
      ],
      [
        "ĠdÄĽj",
        -10.60826410810208
      ],
      [
        "bÅ¯h",
        -10.608520130611186
      ],
      [
        "cÅ¯",
        -10.609298807646269
      ],
      [
        "ĠvÄĽÄįnost",
        -10.609552205656808
      ],
      [
        "ĠtÅĻe",
        -10.609726160006016
      ],
      [
        "Ġnutno",
        -10.610026535316885
      ],
      [
        "Ġperly",
        -10.610872501509274
      ],
      [
        "Ġnepo",
        -10.612114130670111
      ],
      [
        "ĠnazpÄĽt",
        -10.612454843228141
      ],
      [
        "ĠcelÃ©m",
        -10.612687809867955
      ],
      [
        "Ġsne",
        -10.61321530539999
      ],
      [
        "po",
        -10.61375650070853
      ],
      [
        "on",
        -10.614537355452292
      ],
      [
        "ĠhÃ¡v",
        -10.614807196169647
      ],
      [
        "Ġdcera",
        -10.61499886414309
      ],
      [
        "Ġpar",
        -10.615886890594716
      ],
      [
        "ĠnovÃ½m",
        -10.616916802677984
      ],
      [
        "ÃŃho",
        -10.617531485773068
      ],
      [
        "ĠbolestÃŃ",
        -10.61769496223799
      ],
      [
        "ĠvÄĽÅ¾ÃŃ",
        -10.617863158393629
      ],
      [
        "itÃ©",
        -10.617895259875658
      ],
      [
        "Ġprsty",
        -10.618163399395492
      ],
      [
        "ĠchvÄĽla",
        -10.618171260649849
      ],
      [
        "Ġrosy",
        -10.618239561305131
      ],
      [
        "Ġtvar",
        -10.619103882129338
      ],
      [
        "ĠonÄĽ",
        -10.619669341837575
      ],
      [
        "ĠtuÅ¡ÃŃ",
        -10.620941513528308
      ],
      [
        "Ġdnesk",
        -10.621700288668293
      ],
      [
        "ĠzdrÃ¡v",
        -10.62175031012325
      ],
      [
        "ĠprostÃ©",
        -10.622134267863121
      ],
      [
        "ĠÅ¡Å¥astnÃ½",
        -10.6227819426164
      ],
      [
        "ĠpustÃ½",
        -10.623028903651909
      ],
      [
        "Ġpluh",
        -10.62364669722647
      ],
      [
        "Ġnitro",
        -10.623835164070709
      ],
      [
        "ĠÄįÃŃÅ¡e",
        -10.624646878071218
      ],
      [
        "ĠÃºtÄĽch",
        -10.624660454505198
      ],
      [
        "ĠlÃ©pe",
        -10.624801326649354
      ],
      [
        "Ã¡Å¡ÃŃ",
        -10.625152836667418
      ],
      [
        "ĠstrÃ¡nÃŃ",
        -10.625181578654894
      ],
      [
        "ĠvÄĽÅ¾",
        -10.625536457982122
      ],
      [
        "ĠpozdnÃŃ",
        -10.625764024288605
      ],
      [
        "ĠrÃ¡mÄĽ",
        -10.627850591127931
      ],
      [
        "Ġlebk",
        -10.627880405177734
      ],
      [
        "ĠkterÃ½m",
        -10.62804151984414
      ],
      [
        "ĠhnÃŃzdo",
        -10.628752139933265
      ],
      [
        "XAAB",
        -10.629051732500397
      ],
      [
        "ĠkÃ¡Å¾e",
        -10.629075504650775
      ],
      [
        "ĠÄįase",
        -10.629086366138761
      ],
      [
        "Ġneza",
        -10.629569328432925
      ],
      [
        "ĠjinÃ¡",
        -10.62976280121492
      ],
      [
        "ĠhnutÃŃ",
        -10.630028270388234
      ],
      [
        "ĠvÄĽl",
        -10.63039832218276
      ],
      [
        "ĠtÄĽÅ¡ÃŃ",
        -10.630604336407671
      ],
      [
        "ÄĽky",
        -10.632018634459996
      ],
      [
        "ĠstÅ¯l",
        -10.632110438409198
      ],
      [
        "ĠpÅĻelud",
        -10.632280517938607
      ],
      [
        "Ġtrav",
        -10.633995134448416
      ],
      [
        "ĠpalÃ¡c",
        -10.634254261994197
      ],
      [
        "Ġkruhu",
        -10.634315135937516
      ],
      [
        "Ġklo",
        -10.634893820484805
      ],
      [
        "ĠÄıas",
        -10.635004472451563
      ],
      [
        "ĠpamÄĽti",
        -10.635061306314583
      ],
      [
        "Ġcti",
        -10.63549458358186
      ],
      [
        "ÄĽnÃ½",
        -10.635650343610472
      ],
      [
        "ĠsÃŃnÄĽ",
        -10.635675615245209
      ],
      [
        "Ġposled",
        -10.635758882209958
      ],
      [
        "ĠdÃ¡Å¡",
        -10.637171108929948
      ],
      [
        "Ġnach",
        -10.637611128454449
      ],
      [
        "Ġkosti",
        -10.637707112929302
      ],
      [
        "Ġvrchol",
        -10.637889133905734
      ],
      [
        "Ġdli",
        -10.638141269733627
      ],
      [
        "ĠzbranÄĽ",
        -10.638639450211215
      ],
      [
        "ĠskrÃ¡nÄĽ",
        -10.638731793630066
      ],
      [
        "ĠpÃ¡nu",
        -10.6388574410025
      ],
      [
        "ĠvzÃŃt",
        -10.638934623368343
      ],
      [
        "ĠnosÃŃ",
        -10.639144914850693
      ],
      [
        "ĠnejvyÅ¡Å¡ÃŃ",
        -10.639217939637113
      ],
      [
        "ĠvÄĽnce",
        -10.639734185993026
      ],
      [
        "ĠsilnÃ½",
        -10.640342753155167
      ],
      [
        "ĠzÃ¡ÅĻÃŃcÃŃ",
        -10.640443893249225
      ],
      [
        "Ġchcete",
        -10.640569654809266
      ],
      [
        "ĠvlÃ¡dne",
        -10.640658084903542
      ],
      [
        "ĠspatÅĻil",
        -10.641057125282323
      ],
      [
        "Ġjar",
        -10.641243126233702
      ],
      [
        "ĠkvÃŃlÃŃ",
        -10.641398776854452
      ],
      [
        "Ġvida",
        -10.642678923974579
      ],
      [
        "ACCD",
        -10.64276299430875
      ],
      [
        "ĠradÄĽj",
        -10.643618469297536
      ],
      [
        "ÅĻÃŃÅ¾",
        -10.644371529337409
      ],
      [
        "Ġhrdin",
        -10.644373901801933
      ],
      [
        "ĠdÄĽla",
        -10.644849827283968
      ],
      [
        "ĠpÅĻÃŃmo",
        -10.645255322272776
      ],
      [
        "vou",
        -10.646647515862774
      ],
      [
        "hce",
        -10.648481694656617
      ],
      [
        "ĠzelenÃ©",
        -10.648813675684153
      ],
      [
        "ĠznÃ¡mÃ½",
        -10.648928656945888
      ],
      [
        "ĠneznÃ¡",
        -10.649039425826501
      ],
      [
        "ĠzpÃŃvat",
        -10.649193153170785
      ],
      [
        "ĠzdÃŃ",
        -10.64999957823914
      ],
      [
        "ĠmÅ¯Å¾",
        -10.650212813552226
      ],
      [
        "ĠzelenÃ½",
        -10.650439527546041
      ],
      [
        "Ġmimo",
        -10.65078915169382
      ],
      [
        "ĠchvÄĽjÃŃ",
        -10.651000627005153
      ],
      [
        "Ġdat",
        -10.651032214456134
      ],
      [
        "ĠstÃ¡li",
        -10.651770648317777
      ],
      [
        "Ġvot",
        -10.65206214876495
      ],
      [
        "Ġmdlob",
        -10.652146847153745
      ],
      [
        "ĠtÅĻÃ¡sl",
        -10.652364140490882
      ],
      [
        "Ġoda",
        -10.652380493189455
      ],
      [
        "ĠÄįistÃ¡",
        -10.65243322700072
      ],
      [
        "Ã¡Å¡Å¥",
        -10.652972400827341
      ],
      [
        "Ġsvobody",
        -10.65328634026018
      ],
      [
        "Ġozval",
        -10.653596038072708
      ],
      [
        "Ã¡ce",
        -10.654508822209507
      ],
      [
        "Ġvedl",
        -10.654524523559004
      ],
      [
        "ĠznÃ¡Å¡",
        -10.655137262757007
      ],
      [
        "ĠbÃ¡j",
        -10.655490400867865
      ],
      [
        "Ġstan",
        -10.655571852506704
      ],
      [
        "nko",
        -10.655708699800321
      ],
      [
        "Ġtemn",
        -10.655764503333621
      ],
      [
        "ĠÃºÅ¾as",
        -10.655838711680481
      ],
      [
        "Ġtoto",
        -10.656204047475374
      ],
      [
        "ovÃ¡",
        -10.656311784944972
      ],
      [
        "ĠsvÄĽtel",
        -10.656398912867818
      ],
      [
        "ĠstokrÃ¡t",
        -10.657140334441959
      ],
      [
        "ĠtichÃ©m",
        -10.658215621112088
      ],
      [
        "ĠblaÅ¾en",
        -10.658223205698917
      ],
      [
        "ÄĽhu",
        -10.658785518828486
      ],
      [
        "ĠprchÃ¡",
        -10.658838979629776
      ],
      [
        "Ġnesl",
        -10.659094979569097
      ],
      [
        "Ġptal",
        -10.659566217849356
      ],
      [
        "Ġlesku",
        -10.659719018420233
      ],
      [
        "ĠmlÃ¡d",
        -10.660481294633787
      ],
      [
        "ĠtÃ¡bor",
        -10.661326982247875
      ],
      [
        "Ġhejn",
        -10.66137546060903
      ],
      [
        "ĠvÃ¡n",
        -10.661558554288455
      ],
      [
        "Ġora",
        -10.66171489605828
      ],
      [
        "ĠpÅĻÃŃteli",
        -10.66208137250867
      ],
      [
        "esÃ¡",
        -10.662457468145309
      ],
      [
        "ĠplnÃŃ",
        -10.662494987671295
      ],
      [
        "Ġbral",
        -10.66268963597902
      ],
      [
        "ĠÅ¾Ã¡dÃ¡",
        -10.662835646659804
      ],
      [
        "ĠpÃ¡nem",
        -10.663200623767658
      ],
      [
        "ĠjejÃŃch",
        -10.665962360148502
      ],
      [
        "alÃ©",
        -10.666380286422202
      ],
      [
        "Äı",
        -10.666443648159941
      ],
      [
        "ĠÅĻec",
        -10.666721151576187
      ],
      [
        "ĠÅĻada",
        -10.667549614690198
      ],
      [
        "ĠzvonÅ¯",
        -10.669382671219076
      ],
      [
        "Ġshon",
        -10.669616629247223
      ],
      [
        "Ġnejsou",
        -10.669967499049095
      ],
      [
        "ĠrÃ¡ji",
        -10.670258183698309
      ],
      [
        "ĠletÄĽl",
        -10.670906082032548
      ],
      [
        "Ġpruh",
        -10.671336867506756
      ],
      [
        "tmu",
        -10.671538750130914
      ],
      [
        "ĠdÃŃÅ¡",
        -10.671792579903055
      ],
      [
        "Ġbarvy",
        -10.672379313295824
      ],
      [
        "ĠdivnÄĽ",
        -10.67318103026002
      ],
      [
        "ĠpÄĽn",
        -10.67457442124297
      ],
      [
        "ĠjemuÅ¾",
        -10.674864919791805
      ],
      [
        "pekla",
        -10.676431709145838
      ],
      [
        "Ġhra",
        -10.676466340399486
      ],
      [
        "ĠhonÃŃ",
        -10.676610457436196
      ],
      [
        "ĠÅ¡Å¥asten",
        -10.677268992058284
      ],
      [
        "ĠjedinÃ¡",
        -10.67877927095191
      ],
      [
        "ĠverÅ¡e",
        -10.679485842762686
      ],
      [
        "ĠpÅ¯vab",
        -10.679554561457842
      ],
      [
        "Ġpeklo",
        -10.680033480009774
      ],
      [
        "ĠprÃ¡v",
        -10.680303105507313
      ],
      [
        "ĠmanÅ¾el",
        -10.681819530139856
      ],
      [
        "inÃ©",
        -10.682584334938845
      ],
      [
        "ĠpÄĽstÃŃ",
        -10.682594084760655
      ],
      [
        "ĠÅ¾enÄĽ",
        -10.683129450964623
      ],
      [
        "Ġjede",
        -10.683772640392714
      ],
      [
        "aÅ¾ÃŃ",
        -10.685283330928897
      ],
      [
        "Ġstezk",
        -10.686411186217775
      ],
      [
        "ĠlÃŃm",
        -10.68657003257649
      ],
      [
        "ĠmyÅ¡lÃ©nky",
        -10.686816557786901
      ],
      [
        "ĠÅ¾ivÃ½",
        -10.68685463938844
      ],
      [
        "ĠplÃ¡Äįem",
        -10.687189699315146
      ],
      [
        "ĠoltÃ¡ÅĻ",
        -10.688783192936937
      ],
      [
        "ĠvÅ¡udy",
        -10.689624701090901
      ],
      [
        "ĠjÃ¡sÃ¡",
        -10.689855313372034
      ],
      [
        "ĠkÅĻiÄįÃŃ",
        -10.690471666243676
      ],
      [
        "Ġdoktor",
        -10.690692890292887
      ],
      [
        "ABXC",
        -10.69076133253505
      ],
      [
        "ĠvÃ¡Å¡eÅĪ",
        -10.69164856236207
      ],
      [
        "ĠÅ¾alu",
        -10.691912886488971
      ],
      [
        "tÅ¡ÃŃ",
        -10.692713129042192
      ],
      [
        "Ġdit",
        -10.69339872002138
      ],
      [
        "ĠupÃ¡",
        -10.693589992100872
      ],
      [
        "ĠprÃ¡h",
        -10.695606623429345
      ],
      [
        "Ġplanou",
        -10.695854305964593
      ],
      [
        "Ġdruhu",
        -10.69694495403671
      ],
      [
        "Ġmrtvo",
        -10.697387981372213
      ],
      [
        "Ġuby",
        -10.6975119771105
      ],
      [
        "ĠkrÅ¯pÄĽj",
        -10.697600088070013
      ],
      [
        "H",
        -10.697791532660599
      ],
      [
        "rodu",
        -10.698061759596722
      ],
      [
        "ru",
        -10.698508895948454
      ],
      [
        "Ġhledat",
        -10.698755457490574
      ],
      [
        "Ġnos",
        -10.69878652688548
      ],
      [
        "ĠvzpomÃŃnÃ¡m",
        -10.698816643649783
      ],
      [
        "ysi",
        -10.69895344254234
      ],
      [
        "hle",
        -10.698956416488528
      ],
      [
        "Ġdivy",
        -10.699616654372313
      ],
      [
        "Ġlam",
        -10.70040566340816
      ],
      [
        "yli",
        -10.700525817849911
      ],
      [
        "Ġklesla",
        -10.70096081667942
      ],
      [
        "ĠtajnÄĽ",
        -10.701411112902791
      ],
      [
        "Ġtrosk",
        -10.702563493297216
      ],
      [
        "Ġpluk",
        -10.702918223070661
      ],
      [
        "Ġbrzo",
        -10.703144724230713
      ],
      [
        "ĠÅĪadr",
        -10.703468436226974
      ],
      [
        "ĠhroznÃ©",
        -10.70351244228069
      ],
      [
        "Ġumy",
        -10.704077104152582
      ],
      [
        "Ġtaj",
        -10.704208726144598
      ],
      [
        "nice",
        -10.704562312040878
      ],
      [
        "ĠmÃ¡Å¥",
        -10.704723056564859
      ],
      [
        "ĠznamenÃŃ",
        -10.70474703949721
      ],
      [
        "Ġblaze",
        -10.704904162552399
      ],
      [
        "ĠslyÅ¡ÃŃÅ¡",
        -10.705724060425775
      ],
      [
        "Ġdvor",
        -10.705766605490272
      ],
      [
        "ĠsmÄĽr",
        -10.706303394510073
      ],
      [
        "Ġsnech",
        -10.706785385119288
      ],
      [
        "ĠhÅĻmÃŃ",
        -10.708450105495848
      ],
      [
        "ĠhÃ¡zÃŃ",
        -10.710425531153946
      ],
      [
        "lna",
        -10.710658485728395
      ],
      [
        "ĠstÃ½",
        -10.711289434673624
      ],
      [
        "dci",
        -10.711555735118388
      ],
      [
        "ĠvÄĽtrÅ¯",
        -10.711874098710599
      ],
      [
        "Ġslunko",
        -10.712303823152055
      ],
      [
        "nnÃ½",
        -10.713224502651414
      ],
      [
        "ĠsmÄĽlÃ½",
        -10.713309419799312
      ],
      [
        "Ġstrop",
        -10.713451500393727
      ],
      [
        "nÅ¯m",
        -10.71349249367628
      ],
      [
        "ĠpÅĻÃŃroda",
        -10.713598318708677
      ],
      [
        "lce",
        -10.713987820024888
      ],
      [
        "ĠpojÃŃ",
        -10.71456239603964
      ],
      [
        "Ġpsal",
        -10.71493848715653
      ],
      [
        "Ġbrach",
        -10.715452234899148
      ],
      [
        "Ġhloubk",
        -10.715947179032028
      ],
      [
        "Ġnemohu",
        -10.716306580036708
      ],
      [
        "ĠzprÃ¡v",
        -10.717229927449146
      ],
      [
        "ckÃ©",
        -10.71732873523666
      ],
      [
        "Ġzku",
        -10.717851766200258
      ],
      [
        "Ġchvil",
        -10.718039755791754
      ],
      [
        "Ġdobrou",
        -10.718055918877814
      ],
      [
        "ĠnaÅ¡em",
        -10.718434167394378
      ],
      [
        "Ġulice",
        -10.718821643530188
      ],
      [
        "Ġmrav",
        -10.718944235908843
      ],
      [
        "Ġmal",
        -10.719016781883392
      ],
      [
        "ĠÅ¾it",
        -10.72019763328813
      ],
      [
        "ĠvÄĽcÃŃ",
        -10.720240012250951
      ],
      [
        "ĠplaÅ¡e",
        -10.72140226729244
      ],
      [
        "Ġvous",
        -10.721735131068515
      ],
      [
        "orel",
        -10.72184604377247
      ],
      [
        "Ġabys",
        -10.721884596016963
      ],
      [
        "ĠchystÃ¡",
        -10.72233063286614
      ],
      [
        "Ġmladosti",
        -10.72310909724402
      ],
      [
        "Ġstrachu",
        -10.723522230056194
      ],
      [
        "ĠhrozÃŃ",
        -10.723651005264069
      ],
      [
        "edl",
        -10.72401999588725
      ],
      [
        "ĠkrutÃ½",
        -10.724020364403541
      ],
      [
        "Ġkomnat",
        -10.724205453723627
      ],
      [
        "ĠpustÃ©",
        -10.724887918129335
      ],
      [
        "ĠvlnÃ¡ch",
        -10.727026593642904
      ],
      [
        "nat",
        -10.72725168410922
      ],
      [
        "ĠÄįlovÄĽku",
        -10.72803682568361
      ],
      [
        "ĠlÃ¡l",
        -10.72858676396044
      ],
      [
        "ĠbuÅ¡ÃŃ",
        -10.729048106024557
      ],
      [
        "eku",
        -10.729137234597454
      ],
      [
        "Ġpusto",
        -10.729735866563018
      ],
      [
        "Ġsvobodu",
        -10.73007265171589
      ],
      [
        "ĠcÃŃli",
        -10.73014917993698
      ],
      [
        "ÄįnÃ¡",
        -10.730179237804375
      ],
      [
        "Ġsten",
        -10.73050903458913
      ],
      [
        "ĠpestrÃ½",
        -10.731089043999273
      ],
      [
        "Ġbled",
        -10.731350514245419
      ],
      [
        "½",
        -10.732477333362143
      ],
      [
        "Ġluna",
        -10.732588185914578
      ],
      [
        "Ġhospodin",
        -10.732861410023796
      ],
      [
        "ĠprostÃ½",
        -10.733821690367403
      ],
      [
        "Ġsamo",
        -10.734592236438324
      ],
      [
        "ĠjÃŃmÃ¡",
        -10.735896875119256
      ],
      [
        "tÃŃ",
        -10.736207342557964
      ],
      [
        "ÄĽlÃŃ",
        -10.736733491337958
      ],
      [
        "Ġkrvav",
        -10.736900068892318
      ],
      [
        "ĠvÄĽÄįnou",
        -10.737007328731195
      ],
      [
        "Ġspor",
        -10.737045554949741
      ],
      [
        "Ġkola",
        -10.737354457314039
      ],
      [
        "ĠsvÄĽtlÃ½",
        -10.73737587037569
      ],
      [
        "ĠpapeÅ¾",
        -10.737713813103156
      ],
      [
        "ĠsvatÃ½ch",
        -10.739570597843048
      ],
      [
        "Ġpanny",
        -10.741119690553504
      ],
      [
        "Ġobou",
        -10.741567352961383
      ],
      [
        "ĠzÅĻÃŃÅ¡",
        -10.742881236841479
      ],
      [
        "ĠcelÃ½m",
        -10.743293428056896
      ],
      [
        "ĠÅ¾Ã¡rem",
        -10.74433046686487
      ],
      [
        "ĠvÃ¡nek",
        -10.744855309297542
      ],
      [
        "Ġbitv",
        -10.746729333795422
      ],
      [
        "ĠÅ¡ept",
        -10.746840459895925
      ],
      [
        "ĠvÅĻe",
        -10.746936515321487
      ],
      [
        "ĠlÃŃto",
        -10.747506949307084
      ],
      [
        "leskem",
        -10.747621570476285
      ],
      [
        "ĠjedinÃ©",
        -10.748354541847332
      ],
      [
        "Ġjmen",
        -10.748797278760332
      ],
      [
        "onÅ¯",
        -10.748994888548834
      ],
      [
        "ĠstrÃ¡n",
        -10.749249199022422
      ],
      [
        "ĠhrdÃ½",
        -10.749383953894817
      ],
      [
        "Ġuly",
        -10.749473690122883
      ],
      [
        "ĠplÃ¡t",
        -10.750728619700848
      ],
      [
        "ĠkrÃ¡s",
        -10.750772791526135
      ],
      [
        "Ġzlo",
        -10.750880013450379
      ],
      [
        "ĠpravdÄĽ",
        -10.751003690343836
      ],
      [
        "ĠmÅ¯Å¾eÅ¡",
        -10.751620905893462
      ],
      [
        "eÅĻi",
        -10.751729581004465
      ],
      [
        "ĠneznÃ¡mÃ½",
        -10.751819403387794
      ],
      [
        "davu",
        -10.751873105201533
      ],
      [
        "er",
        -10.752308304923314
      ],
      [
        "ĠtrhÃ¡",
        -10.75241239200944
      ],
      [
        "ĠjeÅ¡",
        -10.752902810503306
      ],
      [
        "Ġchvilku",
        -10.753479691577153
      ],
      [
        "Ġspoust",
        -10.753558183667332
      ],
      [
        "ĠvzplÃ¡l",
        -10.753855677210653
      ],
      [
        "ĠspÃ¡nek",
        -10.75397164552449
      ],
      [
        "Ġvzlet",
        -10.755263551062155
      ],
      [
        "ĠnÃŃmÅ¾",
        -10.755414054007534
      ],
      [
        "Ġtamo",
        -10.755534682012708
      ],
      [
        "Ġpochod",
        -10.756047387338352
      ],
      [
        "ala",
        -10.756059482551926
      ],
      [
        "ĠdrobnÃ©",
        -10.756198502726654
      ],
      [
        "ĠdÃŃtky",
        -10.756671369457994
      ],
      [
        "Ġvor",
        -10.75680135988544
      ],
      [
        "ĠpouÅ¡ti",
        -10.75730209739655
      ],
      [
        "ovÃ½m",
        -10.758345497442054
      ],
      [
        "Ġtemno",
        -10.758633407695532
      ],
      [
        "ĠpovÄĽz",
        -10.758687977205813
      ],
      [
        "Ġmalou",
        -10.759182476880014
      ],
      [
        "ĠmoÅ¾nÃ¡",
        -10.75919882571424
      ],
      [
        "Ġjimi",
        -10.75936837098757
      ],
      [
        "Ã¡my",
        -10.759847976313345
      ],
      [
        "Ġctnosti",
        -10.760094914869267
      ],
      [
        "ĠÅĻit",
        -10.760394985524673
      ],
      [
        "ĠukÃ¡",
        -10.76065703491546
      ],
      [
        "Ġbloudil",
        -10.760871298267197
      ],
      [
        "Ġnedo",
        -10.760880530311482
      ],
      [
        "ovou",
        -10.761409201028915
      ],
      [
        "ĠÅ¡eptÃ¡",
        -10.761558647770306
      ],
      [
        "ĠstojÃŃm",
        -10.761567136390703
      ],
      [
        "ĠÄįinÅ¯",
        -10.76160021289871
      ],
      [
        "ĠpÅĻÃ¡l",
        -10.762001335428568
      ],
      [
        "Ġzdy",
        -10.762483087454548
      ],
      [
        "ĠvÃ½chod",
        -10.7626897930609
      ],
      [
        "ĠhlubokÃ½",
        -10.763058377239226
      ],
      [
        "ĠvrÃ¡sk",
        -10.764073150029256
      ],
      [
        "ĠÄįÃŃst",
        -10.76454045236877
      ],
      [
        "ĠÄįeho",
        -10.765029393205452
      ],
      [
        "ĠkonÃŃ",
        -10.765074032340458
      ],
      [
        "ĠhledÃŃm",
        -10.765645168063568
      ],
      [
        "ĠspÄĽch",
        -10.765817647215432
      ],
      [
        "ĠpÅ¯jdu",
        -10.766095877495797
      ],
      [
        "ĠskÅĻivan",
        -10.766097913401119
      ],
      [
        "Ġunaven",
        -10.76634770389194
      ],
      [
        "ĠzbranÃŃ",
        -10.766575307180538
      ],
      [
        "Ġrum",
        -10.766826485371112
      ],
      [
        "Ġzky",
        -10.766942466799986
      ],
      [
        "ĠneÅ¡tÄĽstÃŃ",
        -10.767161618371016
      ],
      [
        "ĠvÃ¡bÃŃ",
        -10.767781077408952
      ],
      [
        "ĠtÄĽmi",
        -10.767832684754975
      ],
      [
        "ĠmÃ¡l",
        -10.768324747837108
      ],
      [
        "ĠÅ¾eno",
        -10.769087950836123
      ],
      [
        "ĠspÄĽchÃ¡",
        -10.769362485164184
      ],
      [
        "ÃŃcÃ½",
        -10.769927454680957
      ],
      [
        "ĠtÅĻikrÃ¡t",
        -10.770200155875575
      ],
      [
        "Ġnitra",
        -10.770439609898302
      ],
      [
        "Ġjinde",
        -10.772415795359567
      ],
      [
        "Ġmladou",
        -10.772482499493826
      ],
      [
        "Ġmem",
        -10.77332318120763
      ],
      [
        "ĠnoÅĻÃŃ",
        -10.773872239724705
      ],
      [
        "Ġpadal",
        -10.774008493942151
      ],
      [
        "ĠÄįinÃŃ",
        -10.77412999747797
      ],
      [
        "ĠzvÃŃÅĻe",
        -10.774186708754282
      ],
      [
        "ĠnÃ¡rodu",
        -10.774382291283192
      ],
      [
        "vÅ¯z",
        -10.77445550367569
      ],
      [
        "ĠÅ¾houcÃŃ",
        -10.775053677715047
      ],
      [
        "ĠsmÃŃ",
        -10.775479958100359
      ],
      [
        "Ġryk",
        -10.775550421542842
      ],
      [
        "Ġhus",
        -10.77566082164611
      ],
      [
        "ĠvlÃŃdnÄĽ",
        -10.776043480030326
      ],
      [
        "Ġzrovna",
        -10.776336751842639
      ],
      [
        "ĠzvuÄįÃŃ",
        -10.776733758715027
      ],
      [
        "Ġkos",
        -10.77675332125039
      ],
      [
        "Ġlos",
        -10.77705060538929
      ],
      [
        "ĠdvÅ¯r",
        -10.77737170011589
      ],
      [
        "ĠhrajÃŃ",
        -10.777373642736034
      ],
      [
        "tr",
        -10.777765928859367
      ],
      [
        "ÄįeskÃ¡",
        -10.777873088981988
      ],
      [
        "ĠdÃ¡vnÃ©",
        -10.778189256476189
      ],
      [
        "ĠpamÃ¡tk",
        -10.77905419104659
      ],
      [
        "Ġara",
        -10.779183815865993
      ],
      [
        "ĠnÄĽjak",
        -10.779380135600633
      ],
      [
        "ÄĽsÃŃ",
        -10.779534110396781
      ],
      [
        "Ġsoch",
        -10.77960902555273
      ],
      [
        "dÄĽtem",
        -10.780050827187214
      ],
      [
        "Ġrtu",
        -10.78055356043253
      ],
      [
        "ĠvÃŃtÃ¡",
        -10.780818446077106
      ],
      [
        "Ġosy",
        -10.780831093928075
      ],
      [
        "Ġpozor",
        -10.781788436711924
      ],
      [
        "Ġtah",
        -10.781835654575172
      ],
      [
        "Ġnadarmo",
        -10.781952868287279
      ],
      [
        "ĠdÄĽva",
        -10.782610677159933
      ],
      [
        "Ġotrok",
        -10.783184463088887
      ],
      [
        "ĠsnÃŃt",
        -10.783249574979557
      ],
      [
        "ĠpouÅ¡tÃŃ",
        -10.784146639415411
      ],
      [
        "Ġpropasti",
        -10.784989478813802
      ],
      [
        "Ġimi",
        -10.785789536702243
      ],
      [
        "itÃ½",
        -10.786339070417995
      ],
      [
        "ĠvÃŃÅĻÃŃ",
        -10.786773415208451
      ],
      [
        "ĠÅ¡il",
        -10.786919754073754
      ],
      [
        "Ġjinou",
        -10.787039375632435
      ],
      [
        "Äįi",
        -10.788638842820095
      ],
      [
        "lÅ¯nÄĽ",
        -10.788850766147682
      ],
      [
        "ro",
        -10.789315412381454
      ],
      [
        "ĠvlÃ¡h",
        -10.790090040954519
      ],
      [
        "ĠbojÃŃ",
        -10.790104761482347
      ],
      [
        "ABABC",
        -10.790366934460058
      ],
      [
        "ĠvodÄĽ",
        -10.790442999989477
      ],
      [
        "Ġvrat",
        -10.790753069895654
      ],
      [
        "ĠperutÃŃ",
        -10.791201898247532
      ],
      [
        "Ġmlha",
        -10.791212128508537
      ],
      [
        "Ġdon",
        -10.791550513874101
      ],
      [
        "stvÃŃ",
        -10.791555386708247
      ],
      [
        "Ġvojsko",
        -10.791673277750629
      ],
      [
        "Ġmilovat",
        -10.79171288188589
      ],
      [
        "Ġmet",
        -10.791811414614873
      ],
      [
        "Ġsice",
        -10.792604010376568
      ],
      [
        "ĠveÄįernÃŃ",
        -10.793523518082466
      ],
      [
        "Ġticha",
        -10.795419263266966
      ],
      [
        "yÅ¡ÃŃ",
        -10.795581944696576
      ],
      [
        "Å¡i",
        -10.795968709063
      ],
      [
        "ĠpouhÃ½",
        -10.796781051355735
      ],
      [
        "ĠhrdÃ©",
        -10.796793430826138
      ],
      [
        "Ġvzala",
        -10.79679768389591
      ],
      [
        "ĠlÃ©k",
        -10.79693011501341
      ],
      [
        "zeÅĪ",
        -10.797005397264336
      ],
      [
        "ĠkrÃ¡snÄĽ",
        -10.797074445000728
      ],
      [
        "Ġjednoho",
        -10.797164459730993
      ],
      [
        "Ġdostal",
        -10.798115852132032
      ],
      [
        "ĠkterÃ½ch",
        -10.798181126120625
      ],
      [
        "Ġmarno",
        -10.798581802142156
      ],
      [
        "sti",
        -10.798879524056892
      ],
      [
        "ĠzmÄĽn",
        -10.798905215808421
      ],
      [
        "Ġkvas",
        -10.799028916282468
      ],
      [
        "Ġsal",
        -10.80025483154191
      ],
      [
        "Ġcitu",
        -10.801053237881217
      ],
      [
        "ĠzÃ¡Å¡tÃŃ",
        -10.80170343968948
      ],
      [
        "ĠdÃŃtk",
        -10.802289758320383
      ],
      [
        "ĠspoleÄįnost",
        -10.80231947427415
      ],
      [
        "Ġstatk",
        -10.802518910485928
      ],
      [
        "ĠzlatÃ©m",
        -10.802655868151948
      ],
      [
        "ĠomÃŃ",
        -10.802717983441248
      ],
      [
        "Ġtluk",
        -10.802754638701447
      ],
      [
        "ĠotvÃŃrÃ¡",
        -10.802832056559389
      ],
      [
        "ĠprosÃŃ",
        -10.80315368068652
      ],
      [
        "ĠlnÃ¡",
        -10.803313323103879
      ],
      [
        "Ġsluje",
        -10.803502452348486
      ],
      [
        "Ġmih",
        -10.80353971434183
      ],
      [
        "Ġbran",
        -10.80364441476924
      ],
      [
        "Ġton",
        -10.803715587276724
      ],
      [
        "ĠmÄĽsÃŃce",
        -10.80412946641324
      ],
      [
        "ĠtmÄĽ",
        -10.80477214134765
      ],
      [
        "Ġraj",
        -10.805763296958714
      ],
      [
        "ĠsmrÅ¥",
        -10.807944264009347
      ],
      [
        "Ġbratra",
        -10.808557761917216
      ],
      [
        "ĠÃºkol",
        -10.80876896391414
      ],
      [
        "ĠvlasÅ¥",
        -10.808992830969439
      ],
      [
        "ĠvolnÃ½",
        -10.810072991311987
      ],
      [
        "ĠsÃŃle",
        -10.810578901781364
      ],
      [
        "Ġpolo",
        -10.811158429852798
      ],
      [
        "Ġston",
        -10.811933278157547
      ],
      [
        "ĠzÃ¡pal",
        -10.811963291176692
      ],
      [
        "tÃ¡k",
        -10.812126079331694
      ],
      [
        "Äįka",
        -10.812144169725876
      ],
      [
        "Ġboz",
        -10.812377295285517
      ],
      [
        "Ġnesla",
        -10.812465105092441
      ],
      [
        "Ġohni",
        -10.81250108688143
      ],
      [
        "ĠprvnÃŃm",
        -10.813483653372266
      ],
      [
        "Ġbratry",
        -10.813828374966175
      ],
      [
        "Ġtemnot",
        -10.813946256082485
      ],
      [
        "ĠvÄĽrnÃ©",
        -10.814250972365137
      ],
      [
        "ĠmdlÃ½",
        -10.814534397091052
      ],
      [
        "ĠÅ¾ert",
        -10.816150783471535
      ],
      [
        "ĠdneÅ¡nÃŃ",
        -10.816351993906547
      ],
      [
        "ĠhlubokÃ©",
        -10.816759646687736
      ],
      [
        "Ġhluboko",
        -10.816770222467095
      ],
      [
        "nÄĽn",
        -10.816882058162058
      ],
      [
        "Ġkdybys",
        -10.816899331040016
      ],
      [
        "ĠbÅĻehÅ¯",
        -10.816923420724653
      ],
      [
        "ĠbrÃ¡nÃŃ",
        -10.817099380672822
      ],
      [
        "ĠsvatÃ½m",
        -10.817397810187376
      ],
      [
        "ĠÅĻÃŃt",
        -10.818571279874277
      ],
      [
        "ĠkvÃ©st",
        -10.819456572382794
      ],
      [
        "Ġohlas",
        -10.82048009831341
      ],
      [
        "ĠsrdcÃŃch",
        -10.820509594987541
      ],
      [
        "ĠjiÅĻÃŃ",
        -10.820865336258803
      ],
      [
        "ĠtvrdÃ©",
        -10.821354407775022
      ],
      [
        "ĠdvojÃŃ",
        -10.821522430369242
      ],
      [
        "Ġsled",
        -10.821769914200988
      ],
      [
        "Ġlav",
        -10.822161146302633
      ],
      [
        "Ġdceru",
        -10.822458594409646
      ],
      [
        "Ġpohledem",
        -10.822574658877684
      ],
      [
        "ĠjdeÅ¡",
        -10.822904496637118
      ],
      [
        "ĠdomÄĽ",
        -10.823209170260395
      ],
      [
        "Ġhon",
        -10.823364892033123
      ],
      [
        "ĠvzpomÃŃnka",
        -10.823409566547289
      ],
      [
        "Ġztracen",
        -10.823451713198473
      ],
      [
        "Ġsly",
        -10.823606696037288
      ],
      [
        "Ġkapk",
        -10.823977807915522
      ],
      [
        "ĠrÃ¡di",
        -10.82450371589676
      ],
      [
        "ĠnenÃ¡vist",
        -10.824577907433667
      ],
      [
        "Ġpraz",
        -10.824692792278405
      ],
      [
        "ĠvÄĽtÅĻÃŃk",
        -10.825199161755563
      ],
      [
        "ĠklÃ¡Å¡ter",
        -10.825778873710544
      ],
      [
        "ĠtichÃ½m",
        -10.825922939260654
      ],
      [
        "ĠkÃ¡zal",
        -10.82618932112478
      ],
      [
        "ÄĽda",
        -10.827098128440117
      ],
      [
        "Ġuli",
        -10.827105378543518
      ],
      [
        "Ġnud",
        -10.82772790095423
      ],
      [
        "Ġptactv",
        -10.828090509722
      ],
      [
        "ĠzlatÃŃ",
        -10.828104135173792
      ],
      [
        "ĠÅĻem",
        -10.828494358548557
      ],
      [
        "Ġtemnou",
        -10.828834562727105
      ],
      [
        "ĠvlnÃŃ",
        -10.828891101051479
      ],
      [
        "ĠpouÅ¡Å¥",
        -10.82914987102272
      ],
      [
        "rav",
        -10.829150860840075
      ],
      [
        "Ġodpor",
        -10.83012703240678
      ],
      [
        "ĠostrÃ½",
        -10.830339594412862
      ],
      [
        "Ġosudu",
        -10.83090673597581
      ],
      [
        "ĠuhÃ¡",
        -10.831525174407414
      ],
      [
        "nost",
        -10.83210189057386
      ],
      [
        "ynu",
        -10.832499339802652
      ],
      [
        "ĠpÄĽnÃŃ",
        -10.832940310936841
      ],
      [
        "Ġryl",
        -10.834085964253998
      ],
      [
        "ĠsluÅ¡ÃŃ",
        -10.834354132692958
      ],
      [
        "Ġtuze",
        -10.834601752239301
      ],
      [
        "ĠperuÅ¥",
        -10.834638262588175
      ],
      [
        "ĠchvÄĽnÃŃ",
        -10.834641186411538
      ],
      [
        "ĠdunÃŃ",
        -10.835211384590723
      ],
      [
        "Ġrom",
        -10.8360134373597
      ],
      [
        "ĠÅ¡ak",
        -10.836232797428291
      ],
      [
        "ĠstrÃ¡Å¾",
        -10.836817066101275
      ],
      [
        "Ġvuk",
        -10.837576058489764
      ],
      [
        "Ġnebesa",
        -10.837606325013963
      ],
      [
        "Ġostrov",
        -10.838042215831095
      ],
      [
        "ĠbÃŃlÃ©m",
        -10.838556685518885
      ],
      [
        "ĠÃºtrob",
        -10.84008682048811
      ],
      [
        "ĠbÃŃlÃ½m",
        -10.840880607624154
      ],
      [
        "ĠsamotÄĽ",
        -10.841566749131793
      ],
      [
        "nutÃŃ",
        -10.841787452352321
      ],
      [
        "ĠnÃ¡dher",
        -10.842405258445176
      ],
      [
        "Ġbledou",
        -10.843628016249506
      ],
      [
        "Ġmiluji",
        -10.84373040902353
      ],
      [
        "Ġbiskup",
        -10.843745522025415
      ],
      [
        "an",
        -10.843756399346823
      ],
      [
        "Ġharf",
        -10.8444809211592
      ],
      [
        "Ã¡ze",
        -10.844890276644467
      ],
      [
        "ĠrovnÄĽ",
        -10.845295764640607
      ],
      [
        "ĠbÄĽl",
        -10.845740305079875
      ],
      [
        "ĠposmÄĽch",
        -10.845742338844174
      ],
      [
        "Ġade",
        -10.845785669741913
      ],
      [
        "nosti",
        -10.846073276911087
      ],
      [
        "dku",
        -10.846729002157899
      ],
      [
        "Ġzastavil",
        -10.846749238663886
      ],
      [
        "ĠkoÅĻist",
        -10.847066021440913
      ],
      [
        "ĠrdÃŃ",
        -10.847093172959863
      ],
      [
        "ĠopuÅ¡tÄĽn",
        -10.84909040162664
      ],
      [
        "hÃ¡m",
        -10.849326326485036
      ],
      [
        "ĠvÄĽÅĻÃŃ",
        -10.84984693260851
      ],
      [
        "ry",
        -10.849911007130872
      ],
      [
        "ĠneÅ¡",
        -10.850698332585832
      ],
      [
        "ĠnekoneÄįn",
        -10.850887214896463
      ],
      [
        "ĠorÅ¯",
        -10.85096996597292
      ],
      [
        "ĠnovÃ©m",
        -10.851504203492222
      ],
      [
        "nnÄĽ",
        -10.852101768131726
      ],
      [
        "ĠhostÃŃ",
        -10.852282424634218
      ],
      [
        "Ġstav",
        -10.853321434458863
      ],
      [
        "letem",
        -10.853388320022145
      ],
      [
        "ĠvÄĽÅĻÃŃm",
        -10.854236274442307
      ],
      [
        "ĠzÅĻela",
        -10.854634434239482
      ],
      [
        "ĠÅ¾ebrÃ¡k",
        -10.855555286798229
      ],
      [
        "ÅĻi",
        -10.855719855115503
      ],
      [
        "ĠpÅ¯du",
        -10.856221248143399
      ],
      [
        "Ġumu",
        -10.85633044321753
      ],
      [
        "oze",
        -10.856467238454343
      ],
      [
        "ĠsÃŃdl",
        -10.856527274720907
      ],
      [
        "ĠobrÃ¡til",
        -10.856682374969363
      ],
      [
        "ĠrodnÃ½",
        -10.856783814158906
      ],
      [
        "Ġmoudrost",
        -10.857293338206148
      ],
      [
        "ĠkrvavÃ½",
        -10.857348901289235
      ],
      [
        "ĠnejvÄĽtÅ¡ÃŃ",
        -10.857459453342116
      ],
      [
        "ĠsvÄĽtle",
        -10.857630512000327
      ],
      [
        "ĠsladkÃ½ch",
        -10.85804992293581
      ],
      [
        "ĠpoÅĻÃ¡d",
        -10.858226070842157
      ],
      [
        "Ġkon",
        -10.859026550979323
      ],
      [
        "ĠslavÃŃ",
        -10.859432680192686
      ],
      [
        "ĠvonnÃ©",
        -10.859548541619928
      ],
      [
        "ĠkrvavÃ©",
        -10.859632774359653
      ],
      [
        "arÃ½",
        -10.861561487772736
      ],
      [
        "ĠdÄĽtskÃ½",
        -10.861786287799852
      ],
      [
        "ĠÄįar",
        -10.862033976677722
      ],
      [
        "Ġtiskne",
        -10.862647602149991
      ],
      [
        "Ã©ÅĻe",
        -10.862792104574833
      ],
      [
        "ĠdivÄĽ",
        -10.862908178910349
      ],
      [
        "Ġtouhu",
        -10.863729769952204
      ],
      [
        "rku",
        -10.863745235965013
      ],
      [
        "Ġmar",
        -10.864738204608985
      ],
      [
        "Ġklenb",
        -10.86499254594091
      ],
      [
        "ĠruÄı",
        -10.865647428265337
      ],
      [
        "Ġroh",
        -10.865813615172646
      ],
      [
        "ĠÅ¡irÃ½",
        -10.866992661840406
      ],
      [
[...]
