{
  "version": "1.0",
  "truncation": null,
  "padding": null,
  "added_tokens": [
    {
      "id": 0,
      "content": "<|endoftext|>",
      "single_word": false,
      "lstrip": false,
      "rstrip": false,
      "normalized": false,
      "special": true
    }
  ],
  "normalizer": null,
  "pre_tokenizer": {
    "type": "ByteLevel",
    "add_prefix_space": false,
    "trim_offsets": true,
    "use_regex": true
  },
  "post_processor": {
    "type": "ByteLevel",
    "add_prefix_space": true,
    "trim_offsets": false,
    "use_regex": true
  },
  "decoder": {
    "type": "ByteLevel",
    "add_prefix_space": true,
    "trim_offsets": true,
    "use_regex": true
  },
  "model": {
    "type": "Unigram",
    "unk_id": 0,
    "vocab": [
      [
        "<|endoftext|>",
        0.0
      ],
      [
        "Ġ",
        -1.9907990682572496
      ],
      [
        "#",
        -2.526241664296675
      ],
      [
        "Ċ",
        -2.6893265882746604
      ],
      [
        "1",
        -3.159247068392645
      ],
      [
        ",",
        -3.2194216779112494
      ],
      [
        "|",
        -3.7270136152433384
      ],
      [
        "a",
        -4.235704858478988
      ],
      [
        "0",
        -4.297518375658093
      ],
      [
        "8",
        -4.346774436407145
      ],
      [
        "f",
        -4.407559930176722
      ],
      [
        "endo",
        -4.42009476626068
      ],
      [
        "text",
        -4.420111809073166
      ],
      [
        "<",
        -4.420161207471102
      ],
      [
        ">",
        -4.420161207471102
      ],
      [
        ".",
        -4.654661846208093
      ],
      [
        "Ġv",
        -4.686512058963592
      ],
      [
        "Ġse",
        -4.772760992434559
      ],
      [
        "y",
        -4.833952132097826
      ],
      [
        "i",
        -5.0520079122976345
      ],
      [
        "9",
        -5.052546063620458
      ],
      [
        "u",
        -5.082274180537377
      ],
      [
        "ĠJ",
        -5.119332877904192
      ],
      [
        "7",
        -5.182118888128123
      ],
      [
        "6",
        -5.357667600111007
      ],
      [
        "ĠT",
        -5.364324271796686
      ],
      [
        "!",
        -5.499233999881657
      ],
      [
        "2",
        -5.50533710663019
      ],
      [
        "Ġna",
        -5.591663406468733
      ],
      [
        "3",
        -5.680994090818087
      ],
      [
        "k",
        -5.724916059391587
      ],
      [
        "em",
        -5.788707496360887
      ],
      [
        "ABAB",
        -5.7925147309079
      ],
      [
        "m",
        -5.854242775171935
      ],
      [
        "5",
        -5.898302329613475
      ],
      [
        "Ġs",
        -5.919613053851812
      ],
      [
        "A",
        -5.923629172273548
      ],
      [
        "o",
        -5.959314383075011
      ],
      [
        "ch",
        -5.972474051832663
      ],
      [
        "Ġz",
        -5.977918753445959
      ],
      [
        "XXXX",
        -6.026649126487783
      ],
      [
        "4",
        -6.0653301503231525
      ],
      [
        "Ġjak",
        -6.094639789607832
      ],
      [
        "ou",
        -6.113423425952698
      ],
      [
        "Ġ189",
        -6.172885666451467
      ],
      [
        "e",
        -6.181886954914807
      ],
      [
        "Ġ188",
        -6.2675717513568365
      ],
      [
        "Ġ190",
        -6.3373817416823215
      ],
      [
        "Ġje",
        -6.338487910357083
      ],
      [
        "?",
        -6.341351071172021
      ],
      [
        "Ġto",
        -6.355063797869974
      ],
      [
        "Ã¡",
        -6.383356296252456
      ],
      [
        "ĠÅ¾e",
        -6.426959237081537
      ],
      [
        "Ġdo",
        -6.545379757501172
      ],
      [
        "AABB",
        -6.57685788846136
      ],
      [
        "ĠN",
        -6.6606852104418355
      ],
      [
        "Ġ191",
        -6.677704368833412
      ],
      [
        "Ġjsem",
        -6.69504362687826
      ],
      [
        "Ġjen",
        -6.699561622982921
      ],
      [
        "Ġpo",
        -6.717581326729803
      ],
      [
        "Ġ192",
        -6.718718569184842
      ],
      [
        "ÄĽ",
        -6.741896199313047
      ],
      [
        "Ġza",
        -6.742115394681184
      ],
      [
        "XAXA",
        -6.750852849595823
      ],
      [
        "ÃŃ",
        -6.805161873929356
      ],
      [
        "Ġco",
        -6.81917037525373
      ],
      [
        "XX",
        -6.847148553718483
      ],
      [
        "nou",
        -6.847737938670559
      ],
      [
        "Ġtak",
        -6.885549744641308
      ],
      [
        "...",
        -6.902642693179857
      ],
      [
        "Ġtu",
        -6.955676398887711
      ],
      [
        "ĠkdyÅ¾",
        -6.964709094343172
      ],
      [
        "Ġby",
        -6.965551182750577
      ],
      [
        "ho",
        -6.970009162466354
      ],
      [
        "Ġsi",
        -6.972307763643535
      ],
      [
        "ĠV",
        -7.014349021429256
      ],
      [
        "Ġ193",
        -7.015403913977504
      ],
      [
        "Ġjako",
        -7.024538594140031
      ],
      [
        "Ã½ch",
        -7.030570830806576
      ],
      [
        "Ġmi",
        -7.04639111279409
      ],
      [
        "Ġve",
        -7.081183201059581
      ],
      [
        "Ġ187",
        -7.121535107121623
      ],
      [
        "CC",
        -7.170390040254629
      ],
      [
        "Ġmu",
        -7.181304378556115
      ],
      [
        "nÃŃ",
        -7.184247909315939
      ],
      [
        "s",
        -7.187973461725273
      ],
      [
        "ĠjeÅ¾",
        -7.211332041085191
      ],
      [
        "ĠjiÅ¾",
        -7.2167185921680215
      ],
      [
        "Ġtam",
        -7.237704221719982
      ],
      [
        "ĠsvÃ©",
        -7.241929906695974
      ],
      [
        "ĠvÅ¡ak",
        -7.249993330868252
      ],
      [
        "Ġbyl",
        -7.260937132267761
      ],
      [
        "Ġten",
        -7.269715808121367
      ],
      [
        "Ġjeho",
        -7.273285596320312
      ],
      [
        "ABBA",
        -7.300977726907803
      ],
      [
        "Ġty",
        -7.317229035670973
      ],
      [
        "Ġkde",
        -7.320441659016227
      ],
      [
        "ech",
        -7.328593538628596
      ],
      [
        "Ġnad",
        -7.342673569656871
      ],
      [
        "Ġsrdce",
        -7.345465347729499
      ],
      [
        "ĠmÃ¡",
        -7.351124831166159
      ],
      [
        "ĠjÃ¡",
        -7.390319729458579
      ],
      [
        "Ã¡ch",
        -7.430029150787867
      ],
      [
        "Ã©",
        -7.435817849842829
      ],
      [
        "Å¡",
        -7.464148999096363
      ],
      [
        "t",
        -7.4745893251476705
      ],
      [
        "Ġzas",
        -7.483493379684413
      ],
      [
        "ĠjenÅ¾",
        -7.495867537520075
      ],
      [
        "Ġpro",
        -7.519558163676088
      ],
      [
        "ĠnÃ¡m",
        -7.522993457459766
      ],
      [
        "Ġmne",
        -7.523738403141788
      ],
      [
        "CD",
        -7.525309095216578
      ],
      [
        "te",
        -7.59188242382308
      ],
      [
        "Ã¡nÃŃ",
        -7.596821000866399
      ],
      [
        "Ġod",
        -7.599385661632137
      ],
      [
        "enÃŃ",
        -7.612102874995086
      ],
      [
        "Ġpak",
        -7.616810798642163
      ],
      [
        "Å¯",
        -7.623444298252327
      ],
      [
        "v",
        -7.6297448219585
      ],
      [
        "ĠmÃ©",
        -7.6408253613302115
      ],
      [
        "ĠaÅ¾",
        -7.6593226133219865
      ],
      [
        "ĠNa",
        -7.687042212661881
      ],
      [
        "Ġji",
        -7.698672550465144
      ],
      [
        "Ġti",
        -7.70109960882065
      ],
      [
        "Ġpod",
        -7.702998366945456
      ],
      [
        "Ġsti",
        -7.710555324742989
      ],
      [
        "ĠjÃŃ",
        -7.723855304107957
      ],
      [
        "nÃŃm",
        -7.73000811448601
      ],
      [
        "X",
        -7.732913543778837
      ],
      [
        "ĠD",
        -7.733897873922279
      ],
      [
        "ĠvÅ¡e",
        -7.738132620981435
      ],
      [
        "Ġjest",
        -7.7382589275772915
      ],
      [
        "Ã©ho",
        -7.742642472154399
      ],
      [
        "Ġden",
        -7.750188349360002
      ],
      [
        "ce",
        -7.751106441775903
      ],
      [
        "li",
        -7.7643204857436885
      ],
      [
        "Ġsvou",
        -7.774126803373209
      ],
      [
        "ĠsvÄĽt",
        -7.775145783569936
      ],
      [
        "ĠuÅ¾",
        -7.7811882318031635
      ],
      [
        "ĠJak",
        -7.791862765898788
      ],
      [
        "ÃŃch",
        -7.795614532894298
      ],
      [
        "Ġne",
        -7.798506720067479
      ],
      [
        "ĠpÅĻed",
        -7.802431607869355
      ],
      [
        "Ġbez",
        -7.806070033963929
      ],
      [
        "ĠmnÄĽ",
        -7.83636266601841
      ],
      [
        "Ġjsi",
        -7.84121127706619
      ],
      [
        "ĠmÅ¯j",
        -7.845224729003522
      ],
      [
        "ĠvÅ¾dy",
        -7.855552415610958
      ],
      [
        "ĠteÄı",
        -7.860167709832597
      ],
      [
        "ĠnÃ¡s",
        -7.867492681190216
      ],
      [
        "Ġtom",
        -7.871152079184517
      ],
      [
        "Ġta",
        -7.876546064544613
      ],
      [
        "l",
        -7.884275525846922
      ],
      [
        "nÃ¡",
        -7.884682147207753
      ],
      [
        "nÄĽ",
        -7.886158394971508
      ],
      [
        "ĠduÅ¡e",
        -7.890507033243086
      ],
      [
        "Ã½",
        -7.892543911867957
      ],
      [
        "ĠdÃ¡l",
        -7.902370345859952
      ],
      [
        "ĠjeÅ¡tÄĽ",
        -7.904051647680172
      ],
      [
        "ĠtÄĽ",
        -7.910492409240131
      ],
      [
        "ek",
        -7.917818569908272
      ],
      [
        "Ġjsou",
        -7.922237079706948
      ],
      [
        "ĠtÃ©",
        -7.928409340692543
      ],
      [
        "Ġjej",
        -7.929531735506584
      ],
      [
        "Å¥",
        -7.9399288282171625
      ],
      [
        "Ġ185",
        -7.949338300051808
      ],
      [
        "Ġ183",
        -7.955280542169948
      ],
      [
        "ovÃ©",
        -7.967730910091431
      ],
      [
        "mi",
        -7.97079535073474
      ],
      [
        "AABC",
        -7.976285585035347
      ],
      [
        "ĠÃĵ",
        -7.983106999923937
      ],
      [
        "ĠÅ¾ivot",
        -7.987286596000006
      ],
      [
        "ĠsÃ¡m",
        -7.988206597051638
      ],
      [
        "Ġzrak",
        -7.9934603383998795
      ],
      [
        "Ġ184",
        -8.00032700422349
      ],
      [
        "Ġ186",
        -8.008159725093533
      ],
      [
        "ĠkvÄĽt",
        -8.009911498191846
      ],
      [
        "ĠneÅ¾",
        -8.025914131508912
      ],
      [
        "ĠS",
        -8.027795877734588
      ],
      [
        "Ġkdy",
        -8.027934054970226
      ],
      [
        "ĠCo",
        -8.028485989436733
      ],
      [
        "ĠjejÃŃ",
        -8.034540239392301
      ],
      [
        "ala",
        -8.0455101716716
      ],
      [
        "ĠTak",
        -8.051528750217965
      ],
      [
        "ĠduÅ¡i",
        -8.055373302384103
      ],
      [
        "ĠZ",
        -8.062109114168788
      ],
      [
        "Ġze",
        -8.062154142796585
      ],
      [
        "ila",
        -8.07083882025351
      ],
      [
        "ĠpÅĻi",
        -8.081611598510564
      ],
      [
        "Ġkdo",
        -8.083065020134127
      ],
      [
        "Ġsem",
        -8.114118135842105
      ],
      [
        "ajÃŃ",
        -8.119266784305923
      ],
      [
        "Ġjsme",
        -8.119411780510061
      ],
      [
        "Ġslunce",
        -8.127174988271358
      ],
      [
        "Ġon",
        -8.132019603848308
      ],
      [
        "ĠÄįas",
        -8.135415727649129
      ],
      [
        "ĠoÄįi",
        -8.138389601644258
      ],
      [
        "ĠJÃ¡",
        -8.139978587015465
      ],
      [
        "ĠtvÃ©",
        -8.155082270736258
      ],
      [
        "Ġbych",
        -8.15618349628446
      ],
      [
        "ĠtÄĽch",
        -8.15832398040927
      ],
      [
        "ami",
        -8.162379849363537
      ],
      [
        "ĠstÃŃ",
        -8.16990668496897
      ],
      [
        "Ġval",
        -8.170402676388823
      ],
      [
        "vÅ¯j",
        -8.170580624046108
      ],
      [
        "kem",
        -8.17121329318311
      ],
      [
        "ĠVÅ¡ak",
        -8.186044027262524
      ],
      [
        "Ġale",
        -8.192603144120994
      ],
      [
        "ĠnenÃŃ",
        -8.195321231303494
      ],
      [
        "Ġlet",
        -8.20392975496177
      ],
      [
        "Ġzde",
        -8.204019127933885
      ],
      [
        "Ġsnad",
        -8.211005809361271
      ],
      [
        "Ġbylo",
        -8.214847269191509
      ],
      [
        "ĠnÄĽm",
        -8.222093657029353
      ],
      [
        "ĠaÅ¥",
        -8.246139634502866
      ],
      [
        "Ġbude",
        -8.251273405864447
      ],
      [
        "Ġni",
        -8.25590100518914
      ],
      [
        "ĠvÃŃc",
        -8.265005432458038
      ],
      [
        "Å¯m",
        -8.270510003196412
      ],
      [
        "Ġzem",
        -8.2857226585447
      ],
      [
        "ĠtÃŃm",
        -8.287135258450329
      ],
      [
        "Ġjim",
        -8.28865740772536
      ],
      [
        "Ġdnes",
        -8.289106221131492
      ],
      [
        "Ġvy",
        -8.289725220457907
      ],
      [
        "ĠmÄĽl",
        -8.293924010804751
      ],
      [
        "ĠvÃ¡m",
        -8.294741538430754
      ],
      [
        "Ġjich",
        -8.298200523724683
      ],
      [
        "ĠvÅ¡ech",
        -8.3068986613788
      ],
      [
        "Ġdal",
        -8.312578705329495
      ],
      [
        "ĠlÃ¡sky",
        -8.317097763286702
      ],
      [
        "ĠTo",
        -8.32740560075249
      ],
      [
        "Ġneb",
        -8.328537124706523
      ],
      [
        "Ġkol",
        -8.333707967126328
      ],
      [
        "ĠÅ¾itÃŃ",
        -8.336336831390986
      ],
      [
        "ABCCB",
        -8.344186849067057
      ],
      [
        "ĠsobÄĽ",
        -8.345059993628873
      ],
      [
        "Ġbyla",
        -8.35832204671769
      ],
      [
        "ÄĽnÃŃ",
        -8.358476956862493
      ],
      [
        "Ġhlav",
        -8.364596983831671
      ],
      [
        "AB",
        -8.372303654334173
      ],
      [
        "Ġsen",
        -8.372684668381417
      ],
      [
        "c",
        -8.373490767708104
      ],
      [
        "ĠKdyÅ¾",
        -8.373803159779083
      ],
      [
        "ĠtÃ©Å¾",
        -8.37994617980512
      ],
      [
        "ĠPo",
        -8.381114153298785
      ],
      [
        "ĠI",
        -8.390935945203015
      ],
      [
        "ĠobÄĽ",
        -8.391470102354594
      ],
      [
        "ĠsvÃ½ch",
        -8.394427650511124
      ],
      [
        "Ġhlas",
        -8.399882212373539
      ],
      [
        "ĠK",
        -8.400669165355877
      ],
      [
        "n",
        -8.404641351094453
      ],
      [
        "Ġkolem",
        -8.409839364610738
      ],
      [
        "Ġani",
        -8.415715612715278
      ],
      [
        "Ġchu",
        -8.416616647081938
      ],
      [
        "ali",
        -8.43451497973347
      ],
      [
        "ĠstÃŃn",
        -8.434797132337515
      ],
      [
        "ĠvÃ¡s",
        -8.463472607629232
      ],
      [
        "ABBC",
        -8.46577402431522
      ],
      [
        "ĠZa",
        -8.466489791962042
      ],
      [
        "Ġruce",
        -8.471952131741244
      ],
      [
        "Ġsrdci",
        -8.473272337564008
      ],
      [
        "ĠzemÄĽ",
        -8.474360646919438
      ],
      [
        "Ġnoc",
        -8.479357575368851
      ],
      [
        "Ġost",
        -8.479591571093907
      ],
      [
        "ĠkaÅ¾dÃ½",
        -8.484346187762913
      ],
      [
        "Ġlem",
        -8.486718779325079
      ],
      [
        "z",
        -8.490910042163835
      ],
      [
        "ĠoÄįÃŃ",
        -8.491731494910788
      ],
      [
        "Ġzemi",
        -8.493082327735348
      ],
      [
        "ÃŃcÃŃ",
        -8.500023197148993
      ],
      [
        "ĠsvÃ½m",
        -8.500465020765162
      ],
      [
        "Ġvou",
        -8.507664062845864
      ],
      [
        "Ġmoje",
        -8.510871883033985
      ],
      [
        "ĠrÃ¡d",
        -8.519422456705989
      ],
      [
        "Ġnich",
        -8.523703316446298
      ],
      [
        "Ġjejich",
        -8.524025208965114
      ],
      [
        "Ġtem",
        -8.527060916491306
      ],
      [
        "ĠmÄĽ",
        -8.528735514015775
      ],
      [
        "Ġhned",
        -8.52896523261832
      ],
      [
        "ĠÃ³",
        -8.544235688569504
      ],
      [
        "ĠTu",
        -8.545379645580894
      ],
      [
        "Ġlid",
        -8.551103659343292
      ],
      [
        "Ġmou",
        -8.556828011400158
      ],
      [
        "Ġku",
        -8.560273120947736
      ],
      [
        "ĠnÃ¡Å¡",
        -8.567115299246003
      ],
      [
        "ÄĽla",
        -8.568196269801815
      ],
      [
        "ĠO",
        -8.568684862217427
      ],
      [
        "ĠÅ¡tÄĽstÃŃ",
        -8.569128966330524
      ],
      [
        "Ġnebe",
        -8.572036134717491
      ],
      [
        "ĠtvÅ¯j",
        -8.573311429642498
      ],
      [
        "ĠvÄĽt",
        -8.57333971290283
      ],
      [
        "ĠnaÅ¡e",
        -8.57417124697336
      ],
      [
        "ĠvÅ¡ecko",
        -8.578621735303683
      ],
      [
        "ĠNe",
        -8.580758312218167
      ],
      [
        "ĠpÅĻec",
        -8.580970361829861
      ],
      [
        "ĠtobÄĽ",
        -8.582122357718385
      ],
      [
        "ice",
        -8.58737889943949
      ],
      [
        "Ġnoci",
        -8.590965231946011
      ],
      [
        "nÃ½m",
        -8.591877385020318
      ],
      [
        "Ġhlavu",
        -8.592331868209865
      ],
      [
        "Ġjste",
        -8.593945361243073
      ],
      [
        "Ġuje",
        -8.595575262018903
      ],
      [
        "Ġdne",
        -8.596130816576188
      ],
      [
        "ÃŃvÃ¡",
        -8.598113173514284
      ],
      [
        "ĠJen",
        -8.609435785295243
      ],
      [
        "ĠbÃ½t",
        -8.611911098326239
      ],
      [
        "ĠBÅ¯h",
        -8.613636747703573
      ],
      [
        "d",
        -8.627050832064779
      ],
      [
        "ĠojÃŃ",
        -8.635360710463738
      ],
      [
        "ĠdÄĽl",
        -8.635823977925556
      ],
      [
        "ĠpÅĻes",
        -8.643835217939033
      ],
      [
        "Ġ182",
        -8.647151351221634
      ],
      [
        "ĠmÃ¡m",
        -8.647377627966401
      ],
      [
        "ĠÅ½e",
        -8.64800582682308
      ],
      [
        "ili",
        -8.650389772154126
      ],
      [
        "p",
        -8.651133663948675
      ],
      [
        "ĠTy",
        -8.65616778202756
      ],
      [
        "Ġke",
        -8.657601994946248
      ],
      [
        "ĠcelÃ½",
        -8.67162330041398
      ],
      [
        "Å¾",
        -8.67207118934546
      ],
      [
        "Ġjenom",
        -8.673900176638828
      ],
      [
        "iny",
        -8.675832413639455
      ],
      [
        "Ġtou",
        -8.676092843630075
      ],
      [
        "to",
        -8.679815566431769
      ],
      [
        "nÃ½ch",
        -8.681082943247553
      ],
      [
        "C",
        -8.685217021778232
      ],
      [
        "ĠJe",
        -8.697440471268639
      ],
      [
        "ku",
        -8.702623449720232
      ],
      [
        "ĠÅ¡el",
        -8.707837277156386
      ],
      [
        "ĠchvÃŃli",
        -8.709147732018932
      ],
      [
        "Ġkam",
        -8.716639822403332
      ],
      [
        "Ġkou",
        -8.718425374904
      ],
      [
        "Ġduch",
        -8.719666522854531
      ],
      [
        "Ġsta",
        -8.721993221839668
      ],
      [
        "ĠmoÅĻe",
        -8.72249516724751
      ],
      [
        "ĠpÃŃseÅĪ",
        -8.724967596255436
      ],
      [
        "Ġtebe",
        -8.73061566977601
      ],
      [
        "j",
        -8.733117436795457
      ],
      [
        "aly",
        -8.734909764328954
      ],
      [
        "Ã¡m",
        -8.736014817120275
      ],
      [
        "ABCD",
        -8.73800295211803
      ],
      [
        "Ġkrev",
        -8.742193723426523
      ],
      [
        "oje",
        -8.74737787115928
      ],
      [
        "ĠtakÃ©",
        -8.75012511754944
      ],
      [
        "ÃŃce",
        -8.750292964998222
      ],
      [
        "Ġles",
        -8.754121571534101
      ],
      [
        "enÃ©",
        -8.754667962738216
      ],
      [
        "aje",
        -8.760784911901753
      ],
      [
        "Ġmy",
        -8.761979691279372
      ],
      [
        "Ġnes",
        -8.764667225682668
      ],
      [
        "nul",
        -8.769566284345952
      ],
      [
        "Ġtoho",
        -8.773058737567128
      ],
      [
        "nÃ©",
        -8.773459143039092
      ],
      [
        "ĠtvÃ¡ÅĻ",
        -8.775383924479929
      ],
      [
        "Ġnic",
        -8.775830946305252
      ],
      [
        "ĠnÃ¡hle",
        -8.77723914023057
      ],
      [
        "ĠsvÃ©ho",
        -8.777944143518836
      ],
      [
        "Ġho",
        -8.786562461258837
      ],
      [
        "ĠchtÄĽl",
        -8.788605840692686
      ],
      [
        "ĠsvÃ©m",
        -8.791440153823425
      ],
      [
        "ĠpÃ¡n",
        -8.79147706461822
      ],
      [
        "Ġ195",
        -8.793655035531097
      ],
      [
        "Ġoko",
        -8.794313522870356
      ],
      [
        "Ġvln",
        -8.798488683937837
      ],
      [
        "ÃŃtÃŃ",
        -8.803282312011428
      ],
      [
        "Ã¡vÃ¡",
        -8.804504590216816
      ],
      [
        "Ġela",
        -8.805540812828456
      ],
      [
        "ky",
        -8.806289402293539
      ],
      [
        "ĠdÃŃtÄĽ",
        -8.8137255462807
      ],
      [
        "ĠÄįlovÄĽk",
        -8.817449548501486
      ],
      [
        "ena",
        -8.831334452363286
      ],
      [
        "Ġnem",
        -8.836167887989548
      ],
      [
        "Ġjde",
        -8.837519843691354
      ],
      [
        "ABBCC",
        -8.842595569115408
      ],
      [
        "ĠstÃ¡le",
        -8.844701393533308
      ],
      [
        "ĠstarÃ½",
        -8.845732689582235
      ],
      [
        "Ġach",
        -8.84857392877706
      ],
      [
        "Ġmezi",
        -8.849977534118358
      ],
      [
        "ĠAle",
        -8.85000350409821
      ],
      [
        "Ġkdys",
        -8.850653175360199
      ],
      [
        "ĠbuÄı",
        -8.854168834861524
      ],
      [
        "enÃ½",
        -8.862812960158774
      ],
      [
        "Ġoku",
        -8.865727335849801
      ],
      [
        "Ġaby",
        -8.868817860154538
      ],
      [
        "ĠDo",
        -8.872438526645572
      ],
      [
        "ĠtiÅ¡e",
        -8.873339192566165
      ],
      [
        "cky",
        -8.873584605370688
      ],
      [
        "ĠKdo",
        -8.8774363564557
      ],
      [
        "ĠsvÄĽta",
        -8.877773616852236
      ],
      [
        "ĠkterÃ©",
        -8.877877695410195
      ],
      [
        "ÃŃti",
        -8.879767019656233
      ],
      [
        "en",
        -8.8852524519796
      ],
      [
        "Ġdruh",
        -8.885348913780614
      ],
      [
        "Ġdech",
        -8.885600993514409
      ],
      [
        "ĠnynÃŃ",
        -8.887797556282559
      ],
      [
        "ĠoÅĻe",
        -8.888883483797574
      ],
      [
        "ĠTam",
        -8.896635242549998
      ],
      [
        "Ġzase",
        -8.897576142934632
      ],
      [
        "Ġrukou",
        -8.89764028877791
      ],
      [
        "Ġnebes",
        -8.898104638654814
      ],
      [
        "ÄĽje",
        -8.898925791024178
      ],
      [
        "ĠleÄį",
        -8.899811863624228
      ],
      [
        "Ġslova",
        -8.899919007670176
      ],
      [
        "ĠAch",
        -8.90005241907065
      ],
      [
        "ĠkterÃ½",
        -8.903926819191812
      ],
      [
        "ĠvÃŃce",
        -8.90643106305346
      ],
      [
        "Ġebe",
        -8.910508018786757
      ],
      [
        "Ġest",
        -8.913809697371416
      ],
      [
        "ati",
        -8.914145440752339
      ],
      [
        "ĠU",
        -8.916340828690686
      ],
      [
        "Ġjednou",
        -8.917852748188038
      ],
      [
        "ĠlÃ¡ska",
        -8.918063934865817
      ],
      [
        "Ġnebi",
        -8.921629599399246
      ],
      [
        "Ġsyn",
        -8.921887535841984
      ],
      [
        "ĠznÃŃ",
        -8.924088436662736
      ],
      [
        "Ġhor",
        -8.925317636906358
      ],
      [
        "ĠÅ¾il",
        -8.934225447312814
      ],
      [
        "ĠrÅ¯Å¾e",
        -8.935168371371951
      ],
      [
        "ĠstojÃŃ",
        -8.936951118528379
      ],
      [
        "ÃŃrÃ¡",
        -8.937284416885092
      ],
      [
        "ĠKde",
        -8.93951993724113
      ],
      [
        "Ġsebe",
        -8.939575940066122
      ],
      [
        "ĠvÃŃm",
        -8.940315505025724
      ],
      [
        "ady",
        -8.940456635728804
      ],
      [
        "Ġas",
        -8.94824474356943
      ],
      [
        "ĠOn",
        -8.951433235324961
      ],
      [
        "ĠveÄįer",
        -8.952019200793163
      ],
      [
        "ĠÃºsmÄĽv",
        -8.958573864753808
      ],
      [
        "ilo",
        -8.96217896618415
      ],
      [
        "Ġmnou",
        -8.964439485739598
      ],
      [
        "ABCC",
        -8.964993924292976
      ],
      [
        "Ġjeden",
        -8.965626713117054
      ],
      [
        "ĠkrÃ¡l",
        -8.96752030696094
      ],
      [
        "Å¯v",
        -8.96790945505381
      ],
      [
        "ĠproÄį",
        -8.969004106865354
      ],
      [
        "etÃŃ",
        -8.983964895758811
      ],
      [
        "nÃ½",
        -8.984524507880433
      ],
      [
        "AXAXB",
        -8.98530756001594
      ],
      [
        "ĠVy",
        -8.985502234226695
      ],
      [
        "ĠbÃŃlÃ½",
        -8.988152524781691
      ],
      [
        "ĠnÃŃÅ¾",
        -8.992483414915714
      ],
      [
        "Ġtomu",
        -8.995711120584748
      ],
      [
        "Ġnikdy",
        -9.001313519295717
      ],
      [
        "Ġemi",
        -9.005397037358813
      ],
      [
        "ĠÅ¾al",
        -9.006999481754312
      ],
      [
        "avÃŃ",
        -9.010536485932397
      ],
      [
        "ĠjuÅ¾",
        -9.01084672579346
      ],
      [
        "Ġled",
        -9.016532503741866
      ],
      [
        "r",
        -9.016654788403756
      ],
      [
        "Ġvod",
        -9.01866647795265
      ],
      [
        "Ã½m",
        -9.020332229206023
      ],
      [
        "ĠhvÄĽzd",
        -9.020916608135057
      ],
      [
        "Ġchce",
        -9.021517593734318
      ],
      [
        "ĠÄįi",
        -9.023638525969647
      ],
      [
        "Ġblesk",
        -9.024175406751194
      ],
      [
        "ĠzpÄĽv",
        -9.026904418964785
      ],
      [
        "la",
        -9.027564920461856
      ],
      [
        "Ġona",
        -9.02789310595398
      ],
      [
        "iti",
        -9.028323012027915
      ],
      [
        "ne",
        -9.029825235849373
      ],
      [
        "eny",
        -9.031689345596712
      ],
      [
        "Ġcit",
        -9.03226580591254
      ],
      [
        "ĠoÅĻÃŃ",
        -9.033904490024431
      ],
      [
        "ĠvÅ¡em",
        -9.035278459408984
      ],
      [
        "ĠdÃ¡le",
        -9.043620095903965
      ],
      [
        "Å¡li",
        -9.045451765544906
      ],
      [
        "ĠnÃ¡rod",
        -9.051195716508143
      ],
      [
        "avy",
        -9.052577401707437
      ],
      [
        "ĠmuÅ¾",
        -9.056609643648972
      ],
      [
        "ĠtvÃ¡",
        -9.059238836614131
      ],
      [
        "Ã©mu",
        -9.059346315290325
      ],
      [
        "Ġhle",
        -9.061783756813078
      ],
      [
        "ĠTeÄı",
        -9.064149992557974
      ],
      [
        "ci",
        -9.067151552695904
      ],
      [
        "Ġova",
        -9.067326826714144
      ],
      [
        "nce",
        -9.070639067337257
      ],
      [
        "avÃ½",
        -9.070755157490973
      ],
      [
        "ÄĽti",
        -9.072857767336682
      ],
      [
        "ĠbÃŃlÃ©",
        -9.073589494790896
      ],
      [
        "Ġhem",
        -9.074678034296156
      ],
      [
        "Ã½mi",
        -9.084581859518421
      ],
      [
        "Ã¡ti",
        -9.089041258596295
      ],
      [
        "ĠsmÃŃch",
        -9.092108012438148
      ],
      [
        "Ġvzduch",
        -9.096354943581371
      ],
      [
        "Ġane",
        -9.096705133406575
      ],
      [
        "ti",
        -9.097074386591899
      ],
      [
        "h",
        -9.09763690953607
      ],
      [
        "ĠprvnÃŃ",
        -9.099036994205449
      ],
      [
        "Ġruku",
        -9.103689200194756
      ],
      [
        "ĠnovÃ½",
        -9.10523163706583
      ],
      [
        "ĠsÃŃl",
        -9.105675563678057
      ],
      [
        "D",
        -9.107880816723759
      ],
      [
        "ĠpÅĻece",
        -9.11186014812021
      ],
      [
        "Ġoji",
        -9.112925461532987
      ],
      [
        "Ġsmrti",
        -9.114930298114245
      ],
      [
        "ĠduÅ¡ÃŃ",
        -9.117111380170032
      ],
      [
        "tky",
        -9.118841651193689
      ],
      [
        "ĠstÃ¡l",
        -9.121098849462065
      ],
      [
        "Ã¡le",
        -9.123060401788889
      ],
      [
        "ĠTen",
        -9.123753750869081
      ],
      [
        "Ġret",
        -9.124010927057657
      ],
      [
        "ĠHle",
        -9.12776105812351
      ],
      [
        "til",
        -9.129959913434956
      ],
      [
        "ĠvidÄĽl",
        -9.13018417059832
      ],
      [
        "ĠutÃŃ",
        -9.132929042325983
      ],
      [
        "Ġhou",
        -9.13608061175198
      ],
      [
        "Ã¡na",
        -9.137746872193382
      ],
      [
        "Ġzda",
        -9.139804693958983
      ],
      [
        "ĠdÄĽti",
        -9.1427400354615
      ],
      [
        "ĠkterÃ¡",
        -9.145792470336541
      ],
      [
        "ĠuÅ¡ÃŃ",
        -9.146806413412676
      ],
      [
        "ĠonÃŃ",
        -9.148053090761305
      ],
      [
        "ĠProÄį",
        -9.151807281427548
      ],
      [
        "ily",
        -9.153910423124932
      ],
      [
        "ĠmÃ½ch",
        -9.154285424925957
      ],
      [
        "Ã½vÃ¡",
        -9.155272998627298
      ],
      [
        "ĠPak",
        -9.155285938319356
      ],
      [
        "ÄĽlo",
        -9.155685495134474
      ],
      [
        "ĠleÅ¾ÃŃ",
        -9.160138686073989
      ],
      [
        "alo",
        -9.160881539676478
      ],
      [
        "ĠÅ¾ÃŃt",
        -9.161081234668583
      ],
      [
        "na",
        -9.162335334429638
      ],
      [
        "Ġlas",
        -9.166372734364936
      ],
      [
        "ĠaÄį",
        -9.166509859330157
      ],
      [
        "Ġbys",
        -9.167664106815657
      ],
      [
        "adu",
        -9.169016137144943
      ],
      [
        "Ġstran",
        -9.169045960202315
      ],
      [
        "jÅ¡ÃŃ",
        -9.169956542012434
      ],
      [
        "Ġdou",
        -9.173126402300925
      ],
      [
        "Ġnebo",
        -9.174287024435726
      ],
      [
        "ĠOd",
        -9.176684094922226
      ],
      [
        "ĠÄįÃŃm",
        -9.17873845997058
      ],
      [
        "Ġele",
        -9.180156342499695
      ],
      [
        "ĠzlatÃ½",
        -9.180679572844008
      ],
      [
        "ĠJako",
        -9.18098297161737
      ],
      [
        "Ġkraj",
        -9.184560032772046
      ],
      [
        "tvÃŃ",
        -9.185835698771806
      ],
      [
        "ĠzÃ¡ÅĻ",
        -9.187088557961276
      ],
      [
        "ÃŃci",
        -9.187463249319046
      ],
      [
        "ici",
        -9.192651966542405
      ],
      [
        "Ġlou",
        -9.195399580574668
      ],
      [
        "skÃ©",
        -9.195565705760453
      ],
      [
        "Ġboj",
        -9.195685467292357
      ],
      [
        "ĠdÃ¡vno",
        -9.196746811140972
      ],
      [
        "Ġdiv",
        -9.197806547354622
      ],
      [
        "enÃ¡",
        -9.198525773499309
      ],
      [
        "nÃ©m",
        -9.199549067954338
      ],
      [
        "ÃŃme",
        -9.201957403931125
      ],
      [
        "Ġdem",
        -9.202391068158402
      ],
      [
        "Ġven",
        -9.203959112384855
      ],
      [
        "ĠJiÅ¾",
        -9.205530779606553
      ],
      [
        "Ġsotva",
        -9.20568085265942
      ],
      [
        "Ġsvoje",
        -9.207308648519467
      ],
      [
        "Ġvat",
        -9.210490404143131
      ],
      [
        "Ġdlouho",
        -9.210648135598708
      ],
      [
        "ĠcizÃŃ",
        -9.21536769018451
      ],
      [
        "ĠtvÃ½ch",
        -9.217068526889477
      ],
      [
        "ĠvÅ¾dyÅ¥",
        -9.218418804240148
      ],
      [
        "ĠsnÅ¯",
        -9.219665578551497
      ],
      [
        "ĠzdÃ¡",
        -9.220336729573397
      ],
      [
        "ĠchvÃŃle",
        -9.220529977390012
      ],
      [
        "ĠsvÄĽtÄĽ",
        -9.220724770779075
      ],
      [
        "ÃŃli",
        -9.226109707753078
      ],
      [
        "Ġvlasti",
        -9.226793317245049
      ],
      [
        "anÃŃ",
        -9.23420920821399
      ],
      [
        "ĠletÃŃ",
        -9.235404593736877
      ],
      [
        "Ġese",
        -9.235650499729521
      ],
      [
        "ĠzlatÃ©",
        -9.237533220788523
      ],
      [
        "Ġ196",
        -9.23850623520585
      ],
      [
        "b",
        -9.240183012091688
      ],
      [
        "Ġplamen",
        -9.2407068136703
      ],
      [
        "Ġuch",
        -9.242357404698986
      ],
      [
        "avu",
        -9.244129165769328
      ],
      [
        "ĠhvÄĽzdy",
        -9.245103051372233
      ],
      [
        "Ġdla",
        -9.245271796947929
      ],
      [
        "Ġjas",
        -9.246486062235288
      ],
      [
        "ĠÄįelo",
        -9.247194047251746
      ],
      [
        "Ġsky",
        -9.248132219856474
      ],
      [
        "edÃ¡",
        -9.248389073288303
      ],
      [
        "Ġpohled",
        -9.260113196993263
      ],
      [
        "itÃŃ",
        -9.260216218585487
      ],
      [
        "Ġstrom",
        -9.263006964605703
      ],
      [
        "ĠvÄĽc",
        -9.266529412977107
      ],
      [
        "Ġhrob",
        -9.266827521056642
      ],
      [
        "Ã¡li",
        -9.269063633483544
      ],
      [
        "Ġklid",
        -9.269635208776759
      ],
      [
        "ĠvÅ¡ecky",
        -9.274712842996914
      ],
      [
        "ije",
        -9.275504931362596
      ],
      [
        "Ġrem",
        -9.275509334659011
      ],
      [
        "Ġdav",
        -9.276623590792154
      ],
      [
        "Ġnimi",
        -9.276947370701539
      ],
      [
        "ĠmusÃŃ",
        -9.277197428794548
      ],
      [
        "ĠnovÃ©",
        -9.27773668345512
      ],
      [
        "ina",
        -9.278976390300981
      ],
      [
        "Ġchci",
        -9.281080567150235
      ],
      [
        "ĠtÅĻeba",
        -9.283025501729938
      ],
      [
        "ĠVe",
        -9.28486868592533
      ],
      [
        "ĠÅ¡at",
        -9.28564804969882
      ],
      [
        "ĠvlastnÃŃ",
        -9.285745401160888
      ],
      [
        "ĠÅ¾ena",
        -9.286390452383655
      ],
      [
        "Ġticho",
        -9.288237317026713
      ],
      [
        "Ã¡me",
        -9.28997378094427
      ],
      [
        "ĠcelÃ©",
        -9.295313261158743
      ],
      [
        "Ġdce",
        -9.295432417357661
      ],
      [
        "Äįku",
        -9.2970125708343
      ],
      [
        "avÄĽ",
        -9.297804717892763
      ],
      [
        "Ġkrok",
        -9.298532515526134
      ],
      [
        "Ġtvoje",
        -9.29952817572094
      ],
      [
        "Ġruka",
        -9.300112966178647
      ],
      [
        "ĠprÃ½",
        -9.30096117098552
      ],
      [
        "ĠuÅ¡i",
        -9.304404310561985
      ],
      [
        "Ġolu",
        -9.304714966196073
      ],
      [
        "ĠÅĻÃŃc",
        -9.30645963777391
      ],
      [
        "Ġsvoji",
        -9.306698873846345
      ],
      [
        "ĠolÃŃ",
        -9.307237746234236
      ],
      [
        "Ġzlat",
        -9.307881867179987
      ],
      [
        "ĠPro",
        -9.31075625882406
      ],
      [
        "Ġlist",
        -9.311822942217752
      ],
      [
        "pouze",
        -9.315770400718655
      ],
      [
        "ĠtÄĽlo",
        -9.316399833172245
      ],
      [
        "ĠdobÅĻe",
        -9.317398159385961
      ],
      [
        "ĠuÄįÃŃ",
        -9.318241242378607
      ],
      [
        "ĠdÃ¡m",
        -9.31896542787028
      ],
      [
        "ĠmeÄį",
        -9.321156368022775
      ],
      [
        "Ġbol",
        -9.32329086670175
      ],
      [
        "ĠrÃ¡n",
        -9.324431892621435
      ],
      [
        "Ġslz",
        -9.327810112134399
      ],
      [
        "ĠsvÃŃtÃŃ",
        -9.328648169047918
      ],
      [
        "ivÃ½",
        -9.331358597626798
      ],
      [
        "ni",
        -9.331483873757758
      ],
      [
        "Ġkal",
        -9.331948933085537
      ],
      [
        "ĠvÃ½m",
        -9.332355181269016
      ],
      [
        "Ġba",
        -9.338386909353614
      ],
      [
        "ĠÅ¾ivota",
        -9.338684490184873
      ],
      [
        "Ã¡ly",
        -9.339920712037813
      ],
      [
        "ĠpanÃŃ",
        -9.34051404055605
      ],
      [
        "Ġjemu",
        -9.34093161089105
      ],
      [
        "AXAX",
        -9.343874678155178
      ],
      [
        "ĠÄįasto",
        -9.343942360477264
      ],
      [
        "Ġproud",
        -9.347175279807747
      ],
      [
        "Ġkdes",
        -9.34796182344564
      ],
      [
        "ĠÅĻad",
        -9.348260493033429
      ],
      [
        "Ġoci",
        -9.350138471954606
      ],
      [
        "Ġosud",
        -9.3504182741488
      ],
      [
        "ĠlÃ¡skou",
        -9.351571154923375
      ],
      [
        "Ġoru",
        -9.35217656787414
      ],
      [
        "anÃ©",
        -9.352260637432094
      ],
      [
        "ĠAÅ¾",
        -9.35300537737054
      ],
      [
        "ĠlÃ¡sku",
        -9.353825623066175
      ],
      [
        "ĠposlednÃŃ",
        -9.356813387790668
      ],
      [
        "ĠbÃ½ti",
        -9.356853345758825
      ],
      [
        "ĠsvÄĽtlo",
        -9.3582184939713
      ],
      [
        "Ġtady",
        -9.358553294018447
      ],
      [
        "ĠvelkÃ©",
        -9.359327722566883
      ],
      [
        "nu",
        -9.360432721313593
      ],
      [
        "Ġrak",
        -9.363644015394211
      ],
      [
        "ĠjÃŃt",
        -9.364826666789225
      ],
      [
        "ABCBC",
        -9.367107739792816
      ],
      [
        "ĠmÃ©m",
        -9.367107944047348
      ],
      [
        "ivÃ¡",
        -9.369222687065024
      ],
      [
        "inu",
        -9.36926251105567
      ],
      [
        "osÅ¥",
        -9.370039550088396
      ],
      [
        "Ġroz",
        -9.370463702240029
      ],
      [
        "nku",
        -9.371156758318039
      ],
      [
        "ĠstarÃ©",
        -9.371530473462746
      ],
      [
        "Ġvil",
        -9.373401893859212
      ],
      [
        "ĠnÄĽho",
        -9.374289814180552
      ],
      [
        "dnÃ©",
        -9.375246512375572
      ],
      [
        "ĠzÅĻel",
        -9.375475815116925
      ],
      [
        "ĠsvatÃ©",
        -9.37646079033579
      ],
      [
        "ĠsvojÃŃ",
        -9.376883456848763
      ],
      [
        "ĠmÄĽst",
        -9.378153474982017
      ],
      [
        "ĠdÃ¡li",
        -9.379263549228527
      ],
      [
        "ĠÅ¾eny",
        -9.37998958830581
      ],
      [
        "tku",
        -9.380266203840119
      ],
      [
        "ĠAÅ¥",
        -9.380386356964147
      ],
      [
        "ĠptÃ¡k",
        -9.381720224402752
      ],
      [
        "Ġsmrt",
        -9.383446473170451
      ],
      [
        "Ġsny",
        -9.385666405433867
      ],
      [
        "ĠpÃŃsnÄĽ",
        -9.388732996168748
      ],
      [
        "Ġzvuk",
        -9.388830538199086
      ],
      [
        "ĠpÄĽt",
        -9.39038646018861
      ],
      [
        "ĠZde",
        -9.390586238459154
      ],
      [
        "Ġtebou",
        -9.3918624751234
      ],
      [
        "ĠboÅ¾ÃŃ",
        -9.392401566625727
      ],
      [
        "Ġ194",
        -9.392917054973754
      ],
      [
        "ĠsnÃŃ",
        -9.395798364802788
      ],
      [
        "ĠmilÃ½",
        -9.396788532130993
      ],
      [
        "ĠvolÃ¡",
        -9.397124900668496
      ],
      [
        "ĠrÃ¡z",
        -9.398047671649534
      ],
      [
        "ĠhledÃŃ",
        -9.401349395322862
      ],
      [
        "ĠSnad",
        -9.403757433736834
      ],
      [
        "Äįky",
        -9.404291971385277
      ],
      [
        "ost",
        -9.406230242137697
      ],
      [
        "Ġtedy",
        -9.407553071658867
      ],
      [
        "Ġrod",
        -9.407726396041392
      ],
      [
        "ĠNad",
        -9.408330063407973
      ],
      [
        "Ġproti",
        -9.40963868535999
      ],
      [
        "Ã¡la",
        -9.410052177106179
      ],
      [
        "sud",
        -9.410486728025623
      ],
      [
        "ĠvelkÃ½",
        -9.410579198821106
      ],
      [
        "Ġdva",
        -9.411375585359735
      ],
      [
        "ĠskÃ¡l",
        -9.411702514285043
      ],
      [
        "ĠvÃ½Å¡",
        -9.412576929707656
      ],
      [
        "cÃŃch",
        -9.41430627253785
      ],
      [
        "Ġslzy",
        -9.415075007100658
      ],
      [
        "Ġlidu",
        -9.418995914355277
      ],
      [
        "ĠchrÃ¡m",
        -9.420075668118445
      ],
      [
        "ĠÅ¾en",
        -9.421741443720169
      ],
      [
        "ĠMy",
        -9.422275477832374
      ],
      [
        "uje",
        -9.424022544392079
      ],
      [
        "ich",
        -9.424838064024279
      ],
      [
        "ĠpÃŃsnÃŃ",
        -9.426869670055243
      ],
      [
        "ec",
        -9.426993581057188
      ],
      [
        "ĠjejÅ¾",
        -9.427251017737115
      ],
      [
        "ĠÅ¾Ã¡r",
        -9.427667834976814
      ],
      [
        "Ġkrve",
        -9.430765798051189
      ],
      [
        "nky",
        -9.430843927518614
      ],
      [
        "ĠVÅ¡e",
        -9.430886382878287
      ],
      [
        "ĠnÃ¡mi",
        -9.431522856886401
      ],
      [
        "Ġvzal",
        -9.431744931393355
      ],
      [
        "ĠmÃŃt",
        -9.431794299852173
      ],
      [
        "Ġoba",
        -9.433213550873546
      ],
      [
        "Ġasy",
        -9.433548019532664
      ],
      [
        "Ġotec",
        -9.435486518247968
      ],
      [
        "al",
        -9.435811904796939
      ],
      [
        "ĠjinÃ½",
        -9.438959051823334
      ],
      [
        "Ġradost",
        -9.439081327258348
      ],
      [
        "ÄĽjÃŃ",
        -9.439249906771924
      ],
      [
        "ĠByl",
        -9.4408811191475
      ],
      [
        "ĠjmÃ©n",
        -9.441922516561606
      ],
      [
        "ÃŃÅ¾ÃŃ",
        -9.442754362892172
      ],
      [
        "ĠkaÅ¾dÃ©",
        -9.443546580657074
      ],
      [
        "Ġ180",
        -9.443628969558272
      ],
      [
        "atÃ©",
        -9.445437369085944
      ],
      [
        "ÄĽÅ¾ÃŃ",
        -9.445843055175777
      ],
      [
        "ĠvÃŃtr",
        -9.446724213137443
      ],
      [
        "Ġase",
        -9.448575837182132
      ],
      [
        "ĠmÃ½m",
        -9.448987005970832
      ],
      [
        "Ġcestu",
        -9.450095788594163
      ],
      [
        "Ġmlh",
        -9.451127031759107
      ],
      [
        "Ġsil",
        -9.453191348271604
      ],
      [
        "ĠLeÄį",
        -9.455848072082475
      ],
      [
        "ĠopÄĽt",
        -9.45621278599225
      ],
      [
        "Ġmnoho",
        -9.458595301587541
      ],
      [
        "ĠmÃŃr",
        -9.462017738581421
      ],
      [
        "ĠplÃ¡Äį",
        -9.46248430968773
      ],
      [
        "ĠdnÃŃ",
        -9.468500186249607
      ],
      [
        "ĠmlÃ¡dÃŃ",
        -9.468581221076612
      ],
      [
        "Ġprach",
        -9.469142165259301
      ],
      [
        "ovi",
        -9.469339798680608
      ],
      [
        "Ġmoc",
        -9.469595151781608
      ],
      [
        "B",
        -9.470890957368798
      ],
      [
        "ĠpadÃ¡",
        -9.471409373288582
      ],
      [
        "ĠnÄĽmÅ¾",
        -9.472356749789894
      ],
      [
        "eho",
        -9.472699922842834
      ],
      [
        "il",
        -9.473467904047332
      ],
      [
        "ĠdÅĻÃŃv",
        -9.473939853951538
      ],
      [
        "ĠNuÅ¾",
        -9.47429564674926
      ],
      [
        "ivÃ©",
        -9.474802788840115
      ],
      [
        "Ã¡ÅĻe",
        -9.475712471487633
      ],
      [
        "ĠMÃ¡",
        -9.476078958586072
      ],
      [
        "ĠmÃ¡Å¡",
        -9.477561357674489
      ],
      [
        "ĠrÃ¡na",
        -9.47775333774969
      ],
      [
        "ĠÅĻek",
        -9.477897815717272
      ],
      [
        "Ġproto",
        -9.478535150188392
      ],
      [
        "atÃ½",
        -9.479941334459962
      ],
      [
        "ABAA",
        -9.48020515645026
      ],
      [
        "ĠklÃŃn",
        -9.482493744385554
      ],
      [
        "ĠdomÅ¯",
        -9.48319847514985
      ],
      [
        "ĠprÃ¡ci",
        -9.483792099671772
      ],
      [
        "Ġzvon",
        -9.484329152805104
      ],
      [
        "Ġout",
        -9.484709030178081
      ],
      [
        "ĠbÅ¯h",
        -9.484829835604799
      ],
      [
        "ĠvÃŃ",
        -9.485436964568375
      ],
      [
        "cÃŃ",
        -9.485750883856845
      ],
      [
        "Ã©m",
        -9.489313041011373
      ],
      [
        "nil",
        -9.491358500288127
      ],
      [
        "ejÃŃ",
        -9.495508335855316
      ],
      [
        "vÄĽru",
        -9.496534262698187
      ],
      [
        "kou",
        -9.499928058317309
      ],
      [
        "ĠprÃ¡vÄĽ",
        -9.502338608970598
      ],
      [
        "ĠvÅ¡ude",
        -9.503545191116824
      ],
      [
        "ĠzÃ¡ÅĻÃŃ",
        -9.503872268531211
      ],
      [
        "omu",
        -9.504819864812672
      ],
      [
        "ĠdÃ¡",
        -9.505133188516243
      ],
      [
        "ĠsvÄĽtla",
        -9.505186178952524
      ],
      [
        "ĠCoÅ¾",
        -9.505695888787558
      ],
      [
        "Ġnikdo",
        -9.505941356248206
      ],
      [
        "ĠnÄĽmu",
        -9.5083499767503
      ],
      [
        "ovÃ½",
        -9.51397399278779
      ],
      [
        "ĠbouÅĻe",
        -9.514486499223995
      ],
      [
        "ĠsvatÃ½",
        -9.51462562556065
      ],
      [
        "ĠnÄĽkdy",
        -9.51476593610977
      ],
      [
        "mu",
        -9.514827438842623
      ],
      [
        "Ġobraz",
        -9.514970435168234
      ],
      [
        "ĠnaÅ¡ÃŃ",
        -9.515678849131524
      ],
      [
        "Ã¡lo",
        -9.517783084151574
      ],
      [
        "ĠpÃ¡r",
        -9.51786048926085
      ],
      [
        "Ġtvou",
        -9.517953526920037
      ],
      [
        "Ġhlava",
        -9.51893362795488
      ],
      [
        "Ġskal",
        -9.519734190928377
      ],
      [
        "Ġdost",
        -9.521779182503067
      ],
      [
        "no",
        -9.525298144818606
      ],
      [
        "ĠprÃ¡ce",
        -9.525950487843573
      ],
      [
        "ĠBoÅ¾e",
        -9.526973635233762
      ],
      [
        "Ã¡ÅĻi",
        -9.527146679453619
      ],
      [
        "hory",
        -9.527645871581553
      ],
      [
        "ĠlidÃŃ",
        -9.52862205468442
      ],
      [
        "Ġodu",
        -9.529128159751767
      ],
      [
        "ĠvÅ¡eho",
        -9.53007748565515
      ],
      [
        "Ġeli",
        -9.531947363240711
      ],
      [
        "ĠmÃ¡lo",
        -9.532612873401177
      ],
      [
        "Ġpotom",
        -9.53347053452861
      ],
      [
        "ĠzpÄĽt",
        -9.534662736682197
      ],
      [
        "ĠÄĮech",
        -9.535453418077486
      ],
      [
        "ete",
        -9.53557191112883
      ],
      [
        "ÃŃly",
        -9.537158955417773
      ],
      [
        "Ġude",
        -9.537253146665602
      ],
      [
        "ĠmÅ¯Å¾e",
        -9.53764376041809
      ],
      [
        "Ġsku",
        -9.537776157569755
      ],
      [
        "ĠkvÄĽtÅ¯",
        -9.538505775990167
      ],
      [
        "ÃŃle",
        -9.539360903202434
      ],
      [
        "ĠpÅĻe",
        -9.539868199705705
      ],
      [
        "Ġuku",
        -9.541093029954054
      ],
      [
        "ĠmarnÄĽ",
        -9.541911984249145
      ],
      [
        "Ġnese",
        -9.542018996594821
      ],
      [
        "ĠuÅ¡e",
        -9.542021766054201
      ],
      [
        "ĠtvÃ¡ÅĻe",
        -9.542047971023793
      ],
      [
        "ĠdÄĽt",
        -9.542252576966769
      ],
      [
        "Ã¡zÃŃ",
        -9.542269438201018
      ],
      [
        "Ġtrochu",
        -9.544865407270898
      ],
      [
        "Ġsvit",
        -9.545231754831487
      ],
      [
        "ĠnocÃŃ",
        -9.545286487859034
      ],
      [
        "ĠmÄĽsÃŃc",
        -9.545633372401078
      ],
      [
        "Ã¡no",
        -9.546250842401529
      ],
      [
        "ÄĽli",
        -9.547166406595604
      ],
      [
        "Ã¡ci",
        -9.54985979879961
      ],
      [
        "Ġsama",
        -9.550047429588824
      ],
      [
        "Ġlad",
        -9.551083835641816
      ],
      [
        "eno",
        -9.552502507791951
      ],
      [
        "ĠkrÃ¡sy",
        -9.552715544579074
      ],
      [
        "Ġzvoln",
        -9.55297394875434
      ],
      [
        "ĠucÃŃ",
        -9.553550982815073
      ],
      [
        "ÅĻil",
        -9.554462745401471
      ],
      [
        "Ġmatka",
        -9.554807193507731
      ],
      [
        "ĠpÅĻiÅ¡el",
        -9.555483152674766
      ],
      [
        "ĠjistÄĽ",
        -9.555944068180526
      ],
      [
        "ĠzpÃŃvÃ¡",
        -9.558534168840566
      ],
      [
        "ĠlidÃ©",
        -9.559747235135589
      ],
      [
        "aky",
        -9.56335126890187
      ],
      [
        "ĠmÃŃsto",
        -9.563489134057827
      ],
      [
        "Ġvlas",
        -9.565486357882076
      ],
      [
        "yla",
        -9.56552349831538
      ],
      [
        "ĠchÃ¡",
        -9.565910867489631
      ],
      [
        "Ġtek",
        -9.567292844957107
      ],
      [
        "Ġspolu",
        -9.567630065560255
      ],
      [
        "ĠTvÃ©",
        -9.572033146699935
      ],
      [
        "ĠÄįele",
        -9.573136677865357
      ],
      [
        "avÃ©",
        -9.573955750157843
      ],
      [
        "ĠtvÃ¡ÅĻÃŃ",
        -9.575067133250123
      ],
      [
        "val",
        -9.577407324805709
      ],
      [
        "ĠvÅ¡echno",
        -9.577448302558752
      ],
      [
        "ĠBa",
        -9.578641674240975
      ],
      [
        "eje",
        -9.580744600389298
      ],
      [
        "ĠPod",
        -9.58185739136752
      ],
      [
        "ĠPÃ¡n",
        -9.582350291897576
      ],
      [
        "Ġcos",
        -9.583172248542292
      ],
      [
        "ĠdolÅ¯",
        -9.584350797677764
      ],
      [
        "ĠdÃŃ",
        -9.586520913701522
      ],
      [
        "Ġprsou",
        -9.587057040863487
      ],
      [
        "ĠoÅ¾ÃŃ",
        -9.588407326972197
      ],
      [
        "AXBB",
        -9.589042389183774
      ],
      [
        "Ġody",
        -9.589333162436995
      ],
      [
        "Ġslovo",
        -9.590454188612428
      ],
      [
        "Ã¡ny",
        -9.59095576928004
      ],
      [
        "Ġpil",
        -9.591097735569308
      ],
      [
        "Ġory",
        -9.591698557820095
      ],
      [
        "Ġsebou",
        -9.592727904672364
      ],
      [
        "ĠslÃ¡vy",
        -9.59390391835474
      ],
      [
        "Å¯Å¾e",
        -9.59469950772439
      ],
      [
        "ABAC",
        -9.596043511297562
      ],
      [
        "ĠvÄĽk",
        -9.598397658825995
      ],
      [
        "ĠhruÄı",
        -9.598792873695128
      ],
      [
        "Ġdil",
        -9.599823429945864
      ],
      [
        "Ġvzdech",
        -9.599951851269536
      ],
      [
        "ĠtvÃ¡ÅĻi",
        -9.60014250910691
      ],
      [
        "ĠlÃŃc",
        -9.601336811201595
      ],
      [
        "ĠcoÅ¾",
        -9.602692875816539
      ],
      [
        "ĠdÅ¯m",
        -9.603284353477154
      ],
      [
        "Ġtolik",
        -9.603666113246097
      ],
      [
        "Ġrok",
        -9.603666553029836
      ],
      [
        "Ã¡ÅĻÃŃ",
        -9.603929509075735
      ],
      [
        "ĠjÃŃm",
        -9.604436840835183
      ],
      [
        "ĠvidÃŃm",
        -9.60523343045423
      ],
      [
        "ral",
        -9.609198891334865
      ],
      [
        "ovy",
        -9.609643261646799
      ],
      [
        "ĠudÃŃ",
        -9.609772074089177
      ],
      [
        "ĠnichÅ¾",
        -9.610765934633555
      ],
      [
        "Ġpole",
        -9.613916361299237
      ],
      [
        "ĠtrÃ¡v",
        -9.615227265137738
      ],
      [
        "Ã¡ni",
        -9.615523218710216
      ],
      [
        "Ġhlubin",
        -9.616510575026565
      ],
      [
        "ĠmÄĽsta",
        -9.617588642749928
      ],
      [
        "Ġelo",
        -9.618431624131205
      ],
      [
        "ĠnaÅ¡ich",
        -9.61859590273058
      ],
      [
        "ĠvÄĽÄįnÄĽ",
        -9.618784272917669
      ],
      [
        "ĠplnÃ½",
        -9.619309050586919
      ],
      [
        "ĠandÄĽl",
        -9.61938043487462
      ],
      [
        "Ġboji",
        -9.620633063917188
      ],
      [
        "Ġpane",
        -9.621142742123824
      ],
      [
        "Ġtouhy",
        -9.621702929911528
      ],
      [
        "ĠÄįernÃ©",
        -9.622832458708745
      ],
      [
        "si",
        -9.623257865055049
      ],
      [
        "Ġmoh",
        -9.62394319357545
      ],
      [
        "ĠhnÄĽv",
        -9.625206859891618
      ],
      [
        "lo",
        -9.625344428249404
      ],
      [
        "ĠneÅ¾li",
        -9.627315210342056
      ],
      [
        "ĠSe",
        -9.627332286753244
      ],
      [
        "ĠÅĻeÄį",
        -9.627552795002849
      ],
      [
        "ĠÅ¡um",
        -9.628415597933454
      ],
      [
        "nÃŃk",
        -9.628769308726337
      ],
      [
        "inÄĽ",
        -9.629341971076473
      ],
      [
        "ÄĽly",
        -9.629613118400048
      ],
      [
        "lÃ¡sc",
        -9.63063617570735
      ],
      [
        "ĠhoÅĻÃŃ",
        -9.631399806708298
      ],
      [
        "Ġzjev",
        -9.6326210431301
      ],
      [
        "ĠhoÅĻe",
        -9.633679834757531
      ],
      [
        "ĠÅ¾el",
        -9.634303517494896
      ],
      [
        "Ġdum",
        -9.634426626661325
      ],
      [
        "ovu",
        -9.635446652826559
      ],
      [
        "ĠvÃ¡Å¡",
        -9.635627019639008
      ],
      [
        "ĠsnÄĽnÃŃ",
        -9.63624263682454
      ],
      [
        "ĠTys",
        -9.636315809311318
      ],
      [
        "Ġlesy",
        -9.637028193763888
      ],
      [
        "Ã¡te",
        -9.638907986297257
      ],
      [
        "ĠdÃ¡t",
        -9.639321053089647
      ],
      [
        "asu",
        -9.639408564962505
      ],
      [
        "Ġbudou",
        -9.641023800744518
      ],
      [
        "Ġpad",
        -9.64121174745552
      ],
      [
        "ĠkrÃ¡snÃ©",
        -9.645620135668162
      ],
      [
        "atÃŃ",
        -9.648785511033443
      ],
      [
        "eÅ¾ÃŃ",
        -9.64880189113266
      ],
      [
        "Ġjdou",
        -9.649091144971663
      ],
      [
        "ĠnechÅ¥",
        -9.650638256166044
      ],
      [
        "Ġbolest",
        -9.652278035832662
      ],
      [
        "Ġran",
        -9.653719067161223
      ],
      [
        "Å¡ichn",
        -9.653850980953589
      ],
      [
        "Ġokem",
        -9.654090803179692
      ],
      [
        "Ġtys",
        -9.654498866812773
      ],
      [
        "ĠvÃ½Å¡e",
        -9.659218304421929
      ],
      [
        "ĠvzhÅ¯ru",
        -9.659377578583532
      ],
      [
        "!...",
        -9.660233710714987
      ],
      [
        "Ġdej",
        -9.660668756180433
      ],
      [
        "ĠpÅĻijde",
        -9.660881902550173
      ],
      [
        "ĠNeb",
        -9.66142440556591
      ],
      [
        "ĠdvÄĽ",
        -9.66250153691804
      ],
      [
        "ĠblÃŃÅ¾",
        -9.664559191657736
      ],
      [
        "ĠvÅ¯nÄĽ",
        -9.664772449204778
      ],
      [
        "alÃŃ",
        -9.666181943695468
      ],
      [
        "Ġbudu",
        -9.669484893770095
      ],
      [
        "ĠtÄĽla",
        -9.670284425223402
      ],
      [
        "idÃŃ",
        -9.670287011410693
      ],
      [
        "Ġpan",
        -9.674020162954355
      ],
      [
        "Ġsou",
        -9.675336992308123
      ],
      [
        "Ġbyly",
        -9.675730892203495
      ],
      [
        "ÅĻ",
        -9.676543980368788
      ],
      [
        "ĠNeÅ¾",
        -9.676577316850462
      ],
      [
        "ĠvaÅ¡e",
        -9.676779316132553
      ],
      [
        "Äįek",
        -9.676780749864362
      ],
      [
        "ĠvidÃŃ",
        -9.67697912490615
      ],
      [
        "ĠdÃ½m",
        -9.677509513078205
      ],
      [
        "ĠmojÃŃ",
        -9.680711240240269
      ],
      [
        "ĠlÃŃce",
        -9.681051973025024
      ],
      [
        "Ġznova",
        -9.682288911468332
      ],
      [
        "ĠÅĻÃŃÅ¡",
        -9.683559211551806
      ],
      [
        "Ġrychle",
        -9.685850928152105
      ],
      [
        "Ġuce",
        -9.686627260894259
      ],
      [
        "ĠvÅ¡echn",
        -9.689686100697966
      ],
      [
        "Ġotce",
        -9.691456782125307
      ],
      [
        "Ġcha",
        -9.692644247780356
      ],
      [
        "Ġducha",
        -9.693572544264098
      ],
      [
        "Ġtal",
        -9.694033898949971
      ],
      [
        "Ġslov",
        -9.696879286902472
      ],
      [
        "Ġhrad",
        -9.697687557659526
      ],
      [
        "anÄĽ",
        -9.697898712271373
      ],
      [
        "ÅĪ",
        -9.69865494974538
      ],
      [
        "ĠznÃ¡",
        -9.69959508813996
      ],
      [
        "ĠÃºst",
        -9.699676143837756
      ],
      [
        "anÃ½",
        -9.69990030508878
      ],
      [
        "ĠVÅ¾dyÅ¥",
        -9.70426294313906
      ],
      [
        "ĠvÄĽky",
        -9.704478976798882
      ],
      [
        "ĠodÃŃ",
        -9.70554366246029
      ],
      [
        "Ġhne",
        -9.70747604703642
      ],
      [
        "ĠjinÃ©",
        -9.710846226413032
      ],
      [
        "Ġkdyby",
        -9.711928356607569
      ],
      [
        "Ġmen",
        -9.712004699721163
      ],
      [
        "ĠvÃŃr",
        -9.71208896563501
      ],
      [
        "Ġjedno",
        -9.712406631766122
      ],
      [
        "Ġlil",
        -9.71306596697169
      ],
      [
        "Ã½Å¡e",
        -9.7137249430916
      ],
      [
        "ÃŃte",
        -9.719353302036303
      ],
      [
        "ĠsnÃŃh",
        -9.720728458378803
      ],
      [
        "ĠÄįka",
        -9.720829539977608
      ],
      [
        "ĠsladkÃ©",
        -9.721585428312899
      ],
      [
        "ĠdlouhÃ½",
        -9.721930680027628
      ],
      [
        "Ġrou",
        -9.722864230789916
      ],
      [
        "Ġstrach",
        -9.723056802122299
      ],
      [
        "emÄĽ",
        -9.725517822145983
      ],
      [
        "Ġpln",
        -9.726329617858614
      ],
      [
        "AAXB",
        -9.727094897541832
      ],
      [
        "ĠcelÃ¡",
        -9.727101002305732
      ],
      [
        "adÃ¡",
        -9.728364183463478
      ],
      [
        "Ġbou",
        -9.729007995430534
      ],
      [
        "ĠÅ¡tÄĽ",
        -9.729380462680588
      ],
      [
        "ĠkÅĻÃŃdla",
        -9.731613794248041
      ],
      [
        "ĠmalÃ½",
        -9.73167632077284
      ],
      [
        "edÃŃ",
        -9.731810911928072
      ],
      [
        "aÄįÃŃ",
        -9.732253355122234
      ],
      [
        "nka",
        -9.732655168833032
      ],
      [
        "Ġzlato",
        -9.732723683109766
      ],
      [
        "Ġasi",
        -9.733201252428366
      ],
      [
        "ĠDnes",
        -9.733521872695295
      ],
      [
        "Ġcesty",
        -9.733705416888041
      ],
      [
        "ĠujÃŃ",
        -9.735721108716103
      ],
      [
        "ĠJsem",
        -9.739329157403699
      ],
      [
        "ĠdobrÃ½",
        -9.739821426678873
      ],
      [
        "Ġnek",
        -9.740191071180831
      ],
      [
        "ĠÄįekÃ¡",
        -9.741445879777466
      ],
      [
        "Ġmoji",
        -9.741568821213297
      ],
      [
        "ĠÄįasem",
        -9.741650613179246
      ],
      [
        "ĠtoÅ¥",
        -9.742006697334642
      ],
      [
        "Ġoka",
        -9.7423915989285
      ],
      [
        "ÃŃÅ¾e",
        -9.74287314992014
      ],
      [
        "ĠvstÅĻÃŃc",
        -9.745265607699114
      ],
      [
        "ĠtÅĻi",
        -9.747549656442484
      ],
      [
        "Ġbyli",
        -9.748697888566578
      ],
      [
        "Ġuti",
        -9.7487724363962
      ],
      [
        "ze",
        -9.751017185019037
      ],
      [
        "ĠstromÅ¯",
        -9.752257954961886
      ],
      [
        "ÃŃnÃ¡",
        -9.75235806510161
      ],
      [
        "er",
        -9.752885734566489
      ],
      [
        "ylo",
        -9.753170321611957
      ],
      [
        "ÃŃm",
        -9.753205089589557
      ],
      [
        "Ġsoud",
        -9.75367016848391
      ],
      [
        "ĠÅĻekl",
        -9.75594651002707
      ],
      [
        "ĠnemÃ¡",
        -9.757224557718468
      ],
      [
        "oÅĻi",
        -9.757521273066587
      ],
      [
        "Ġjaro",
        -9.75802517693447
      ],
      [
        "vÃ¡",
        -9.758878662739875
      ],
      [
        "vÃ©m",
        -9.759166342424091
      ],
      [
        "ĠvÃŃÅ¡",
        -9.75944481786787
      ],
      [
        "ĠzÃ¡ÅĻe",
        -9.759827389959922
      ],
      [
        "Ġtla",
        -9.761329786184561
      ],
      [
        "ĠmoÅĻi",
        -9.761503307266644
      ],
      [
        "ĠumÃŃ",
        -9.76175836380152
      ],
      [
        "ĠtÄĽm",
        -9.765421838383759
      ],
      [
        "Ã¡cÃŃ",
        -9.767596293794623
      ],
      [
        "ĠkvÃŃtÃŃ",
        -9.768156660934558
      ],
      [
        "Ġcestou",
        -9.768270094939247
      ],
      [
        "Ġsbor",
        -9.768481956031234
      ],
      [
        "Ġobzor",
        -9.769449324127926
      ],
      [
        "ĠnÄĽj",
        -9.771044997128325
      ],
      [
        "vody",
        -9.772131767339868
      ],
      [
        "ĠtichÃ½",
        -9.773950703564795
      ],
      [
        "ĠznÃ¡m",
        -9.774188934703883
      ],
      [
        "ĠzÅĻÃŃ",
        -9.77419979129277
      ],
      [
        "Ġslunci",
        -9.774680406640316
      ],
      [
        "Ġtouha",
        -9.775772943502819
      ],
      [
        "Ġrad",
        -9.780155002923799
      ],
      [
        "ly",
        -9.780752476050553
      ],
      [
        "Ġjara",
        -9.780830292829204
      ],
      [
        "heÅĪ",
        -9.78138942703146
      ],
      [
        "Ġnohou",
        -9.781620312135257
      ],
      [
        "ABCB",
        -9.78286797310921
      ],
      [
        "ej",
        -9.783794037438586
      ],
      [
        "ÃŃlÃŃ",
        -9.784930171933901
      ],
      [
        "ĠkÅĻÃŃÅ¾",
        -9.785190104842599
      ],
      [
        "ĠdnÅ¯",
        -9.78559953385748
      ],
      [
        "Ġhrobu",
        -9.786145672580169
      ],
      [
        "ĠrÃ¡j",
        -9.78615642813873
      ],
      [
        "ĠhlavÄĽ",
        -9.787191225318892
      ],
      [
        "ĠzÅĻÃŃm",
        -9.787620342647882
      ],
      [
        "ĠsvÃ©mu",
        -9.790144224705394
      ],
      [
        "ĠtisÃŃc",
        -9.791036469616479
      ],
      [
        "poÅĪ",
        -9.791301806354507
      ],
      [
        "ĠstarÃ¡",
        -9.792019139521031
      ],
      [
        "ĠÄįela",
        -9.793083369469148
      ],
      [
        "ĠjarnÃŃ",
        -9.793332196935289
      ],
      [
        "ĠstÄĽ",
        -9.794731861578445
      ],
      [
        "Ġudu",
        -9.796134487965867
      ],
      [
        "Ġdob",
        -9.796734758257596
      ],
      [
        "ÃŃru",
        -9.796854180382867
      ],
      [
        "Ġsto",
        -9.799372087336856
      ],
      [
        "ĠmilÃ¡",
        -9.799397120243263
      ],
      [
        "ĠmnohÃ½",
        -9.799539899024325
      ],
      [
        "ĠsvÄĽÅ¾ÃŃ",
        -9.802268611956965
      ],
      [
        "any",
        -9.802930524884513
      ],
      [
        "ĠjÃŃÅ¾",
        -9.805193351028267
      ],
      [
        "ĠÅ¡tÃŃ",
        -9.806275240723409
      ],
      [
        "ĠÄįek",
        -9.806516995337248
      ],
      [
        "Ġera",
        -9.806579403128449
      ],
      [
        "Ġely",
        -9.806803634572987
      ],
      [
        "Ġdole",
        -9.807166780600575
      ],
      [
        "ĠbÃŃlÃ¡",
        -9.80833676205014
      ],
      [
        "Ġples",
        -9.80871989064341
      ],
      [
        "Ġkraje",
        -9.809973667345098
      ],
      [
        "ĠnÄĽco",
        -9.81014039064967
      ],
      [
        "Ġcelou",
        -9.81121200112938
      ],
      [
        "ĠtÄĽl",
        -9.811218263767525
      ],
      [
        "ĠvÄĽÄįnÃ©",
        -9.811855242838618
      ],
      [
        "jte",
        -9.81285955700152
      ],
      [
        "ĠsladkÃ½",
        -9.813175804767663
      ],
      [
        "ÃŃtÄĽ",
        -9.813903273045728
      ],
      [
        "Ġtmy",
        -9.814143737031106
      ],
      [
        "Ġhost",
        -9.814767864492657
      ],
      [
        "ĠPÅĻi",
        -9.814998733898367
      ],
      [
        "ÃŃtÃ¡",
        -9.815104784456366
      ],
      [
        "ĠPÅĻed",
        -9.815391099409247
      ],
      [
        "ĠsedÃŃ",
        -9.81547752401064
      ],
      [
        "g",
        -9.815798312958172
      ],
      [
        "ĠdÃ¡lky",
        -9.81673659134605
      ],
      [
        "Ġchy",
        -9.817218132580148
      ],
      [
        "ĠstÃŃnu",
        -9.817572319615344
      ],
      [
        "ĠÄĮi",
        -9.81907108886804
      ],
      [
        "ĠplnÃ©",
        -9.819119030087178
      ],
      [
        "Ġruky",
        -9.81950132741385
      ],
      [
        "Ġmatky",
        -9.821072170803808
      ],
      [
        "Ġstu",
        -9.821110943788282
      ],
      [
        "Ġnebyl",
        -9.821878950222963
      ],
      [
        "omÅ¯",
        -9.822726611931888
      ],
      [
        "acÃŃ",
        -9.82313798190412
      ],
      [
        "ĠmladÃ½",
        -9.823224920133256
      ],
      [
        "ĠlidskÃ©",
        -9.823410603821175
      ],
      [
        "ĠvÄĽÄįnÃ½",
        -9.824506657858983
      ],
      [
        "Ġmech",
        -9.824677892537418
      ],
      [
        "Ġpoli",
        -9.825126140592673
      ],
      [
        "Ġvem",
        -9.825214221783748
      ],
      [
        "Ã¡nÄĽ",
        -9.825755801732775
      ],
      [
        "Ġoby",
        -9.826846557199186
      ],
      [
        "ĠAj",
        -9.829150893907673
      ],
      [
        "Ã¡dÃ¡",
        -9.829538027322947
      ],
      [
        "ĠdÃŃvÃ¡",
        -9.82987362080568
      ],
      [
        "ĠzÃ¡pad",
        -9.83042982278516
      ],
      [
        "ĠmÄĽla",
        -9.831319396808109
      ],
      [
        "ĠbouÅĻÃŃ",
        -9.83245997278918
      ],
      [
        "Äį",
        -9.833058350136135
      ],
      [
        "Ġata",
        -9.833348912317003
      ],
      [
        "rÃ¡t",
        -9.833688764331571
      ],
      [
        "Ġpravil",
        -9.835707454429171
      ],
      [
        "Ġohu",
        -9.836884607637714
      ],
      [
        "ilÃ½",
        -9.838607089378606
      ],
      [
        "Ġrty",
        -9.838981540763577
      ],
      [
        "ĠmilÃ©",
        -9.841000193400696
      ],
      [
        "Ġluk",
        -9.841376354382444
      ],
      [
        "Ã¡tÃŃ",
        -9.842079578999577
      ],
      [
        "Ġvedle",
        -9.843258753849504
      ],
      [
        "ĠÄįel",
        -9.844253713500363
      ],
      [
        "ĠskÃ¡",
        -9.845375139337182
      ],
      [
        "Ġhoch",
        -9.846266247346186
      ],
      [
        "Ġkterou",
        -9.846885008009878
      ],
      [
        "Ġony",
        -9.847006895953747
      ],
      [
        "dny",
        -9.848191746118161
      ],
      [
        "Ġkrv",
        -9.849582272976715
      ],
      [
        "ist",
        -9.850148407022914
      ],
      [
        "ĠtÃ©to",
        -9.850326941551138
      ],
      [
        "Ġokn",
        -9.850336106510927
      ],
      [
        "Ġjedna",
        -9.8505131280517
      ],
      [
        "Ġsty",
        -9.85253039567928
      ],
      [
        "ĠlistÃŃ",
        -9.85266109926085
      ],
      [
        "avÃ¡",
        -9.852739975460455
      ],
      [
        "ÄĽtÃŃ",
        -9.85326215561522
      ],
      [
        "Ġole",
        -9.854660281040113
      ],
      [
        "ÅĻel",
        -9.854833046598351
      ],
      [
        "ĠÅ¡la",
        -9.857098021859564
      ],
      [
        "Ġhodin",
        -9.858046343839822
      ],
      [
        "Ġnelze",
        -9.858577195952634
      ],
      [
        "Ġkraji",
        -9.860816306627733
      ],
      [
        "ĠnaÅĪ",
        -9.861067169390408
      ],
      [
        "ĠÅ¾ije",
        -9.861163293703335
      ],
      [
        "ĠslyÅ¡el",
        -9.863939943842373
      ],
      [
        "ujÃŃ",
        -9.864691190573435
      ],
      [
        "yne",
        -9.86501338156471
      ],
      [
        "Ġdoma",
        -9.866055475822755
      ],
      [
        "ĠklidnÄĽ",
        -9.866225445144426
      ],
      [
        "ĠÄįil",
        -9.866426643547449
      ],
      [
        "ĠVÃ¡m",
        -9.867479384136303
      ],
      [
        "Ã¡va",
        -9.86780952743061
      ],
      [
        "ÃŃmÃ¡",
        -9.868060617224423
      ],
      [
        "ĠlesÅ¯",
        -9.869166147907919
      ],
      [
        "ĠnadÄĽje",
        -9.869713681499814
      ],
      [
        "ĠznÄĽl",
        -9.870617462419998
      ],
      [
        "ĠÃºsta",
        -9.871112680921584
      ],
      [
        "Ã¡men",
        -9.871113126898603
      ],
      [
        "ĠdrahÃ½",
        -9.871535992982345
      ],
      [
        "ĠlidskÃ½",
        -9.872544502246775
      ],
      [
        "AXAB",
        -9.87293761589928
      ],
      [
        "ĠrÅ¯Å¾ÃŃ",
        -9.873452094793546
      ],
      [
        "Ġdoby",
        -9.87468443667385
      ],
      [
        "ÃŃkÅ¯",
        -9.876502722762456
      ],
      [
        "Ġoblak",
        -9.880260610154025
      ],
      [
        "Ġkterak",
        -9.88036013590575
      ],
      [
        "Ġvlasy",
        -9.880931068533773
      ],
      [
        "ĠZda",
        -9.88277870677068
      ],
      [
        "ĠkdoÅ¾",
        -9.883415020160747
      ],
      [
        "skÃ¡",
        -9.88359550440856
      ],
      [
        "konec",
        -9.886094892997678
      ],
      [
        "ĠtichÃ©",
        -9.886428732701576
      ],
      [
        "ĠdrahÃ¡",
        -9.88665744179692
      ],
      [
        "ĠBohu",
        -9.88693842527345
      ],
      [
        "ĠslyÅ¡",
        -9.88757015333887
      ],
      [
        "ĠzÃ¡ÅĻi",
        -9.887728965521953
      ],
      [
        "Ġluh",
        -9.888882229089685
      ],
      [
        "Ġnech",
        -9.889061342080101
      ],
      [
        "ĠdnÄĽ",
        -9.891153655063913
      ],
      [
        "ÅĻe",
        -9.891906059062032
      ],
      [
        "ĠsnÃ¡",
        -9.8927323548703
      ],
      [
        "elÃ½",
        -9.893750751427014
      ],
      [
        "AXBC",
        -9.895139075752798
      ],
      [
        "oval",
        -9.89687906224718
      ],
      [
        "ĠmladÃ©",
        -9.89693519453061
      ],
      [
        "Ġsnu",
        -9.898040710958682
      ],
      [
        "atÃ¡",
        -9.898233423423687
      ],
      [
        "ĠmuÅ¾e",
        -9.899035596508241
      ],
      [
        "ĠkaÅ¾dÃ¡",
        -9.89955849153899
      ],
      [
        "Ã¡Äįe",
        -9.90006134243312
      ],
      [
        "Ġene",
        -9.901658603281458
      ],
      [
        "ĠplÃ¡l",
        -9.902441483329495
      ],
      [
        "ĠÅ¡tÃŃt",
        -9.903774249461406
      ],
      [
        "AAXX",
        -9.904351237715737
      ],
      [
        "ĠvÄĽtÅ¡ÃŃ",
        -9.904575336215292
      ],
      [
        "Ġobu",
        -9.904899362634481
      ],
      [
        "Ġhrom",
        -9.905505068159943
      ],
      [
        "ĠKam",
        -9.906755145970113
      ],
      [
        "XABB",
        -9.907236974968166
      ],
      [
        "ĠMÅ¯j",
        -9.90828151312818
      ],
      [
        "tÄĽ",
        -9.908351142267492
      ],
      [
        "ĠmuÅ¾i",
        -9.909442249639959
      ],
      [
        "Ġplno",
        -9.909661643134992
      ],
      [
        "ĠpravÃŃ",
        -9.909675521033197
      ],
      [
        "ĠstÃ¡",
        -9.909900175970456
      ],
      [
        "cÃŃm",
        -9.910071306401797
      ],
      [
        "ĠrtÅ¯",
        -9.910081788122238
      ],
      [
        "ĠÅĻÃ¡d",
        -9.91101893078788
      ],
      [
        "ĠcÃŃtil",
        -9.911278292821398
      ],
      [
        "Ġcest",
        -9.912506847582755
      ],
      [
        "ĠjehoÅ¾",
        -9.913041371044251
      ],
      [
        "Ġoli",
        -9.913282361430976
      ],
      [
        "ĠovÃ¡",
        -9.917345886377657
      ],
      [
        "Ġrek",
        -9.917552077419629
      ],
      [
        "ĠspÃŃ",
        -9.918689960514664
      ],
      [
        "Ġmrak",
        -9.919748916233578
      ],
      [
        "ĠsvÃ¡",
        -9.920443003387607
      ],
      [
        "ĠuÅ¾ÃŃ",
        -9.92251566874685
      ],
      [
        "ĠsÃŃla",
        -9.92455193734435
      ],
      [
        "ĠkrÃ¡ÄįÃŃ",
        -9.924788492494127
      ],
      [
        "Ġonu",
        -9.925159654765185
      ],
      [
        "Ġuze",
        -9.925494346354872
      ],
      [
        "ĠvÄĽkÅ¯",
        -9.925934418352561
      ],
      [
        "ÄĽta",
        -9.926384367580553
      ],
      [
        "Ġmohl",
        -9.926588270422666
      ],
      [
        "ĠkrÃ¡snÃ¡",
        -9.927784361143132
      ],
      [
        "ĠjakÃ½",
        -9.928142137259734
      ],
      [
        "Ġhloubi",
        -9.928440515242002
      ],
      [
        "ra",
        -9.928975615193742
      ],
      [
        "Ġeru",
        -9.930450666633671
      ],
      [
        "ĠsnÄĽ",
        -9.931023746136571
      ],
      [
        "Ġpal",
        -9.931342268909622
      ],
      [
        "ĠvÄĽtr",
        -9.932206605327725
      ],
      [
        "Ġlidstv",
        -9.932903325838732
      ],
      [
        "Ġedu",
        -9.932989033597881
      ],
      [
        "ĠcÃŃl",
        -9.933026363094712
      ],
      [
        "ĠBuÄı",
        -9.933547371598154
      ],
      [
        "ĠdlouhÃ©",
        -9.933862455703677
      ],
      [
        "ĠlÃ©ta",
        -9.934007974262322
      ],
      [
        "Ġrve",
        -9.934656219020201
      ],
      [
        "ĠtÄĽÅ¾kÃ½",
        -9.934703827135799
      ],
      [
        "ĠjichÅ¾",
        -9.935160865390632
      ],
      [
        "Ġvlast",
        -9.935165083854127
      ],
      [
        "ĠtvÃ½m",
        -9.935607642603088
      ],
      [
        "rnÃ©",
        -9.936664121183586
      ],
      [
        "ĠplÃ¡",
        -9.937031716085485
      ],
      [
        "rÃ¡l",
        -9.937131634591637
      ],
      [
        "ĠBoÅ¾ÃŃ",
        -9.937991653532734
      ],
      [
        "Ġkout",
        -9.938241418040324
      ],
      [
        "ivÄĽ",
        -9.939087949642532
      ],
      [
        "Ġprachu",
        -9.93952178353368
      ],
      [
        "Ġsvobod",
        -9.939571583571865
      ],
      [
        "Ġboje",
        -9.939661270077934
      ],
      [
        "ĠmluvÃŃ",
        -9.940519481423758
      ],
      [
        "nci",
        -9.940527070486997
      ],
      [
        "ĠmÃŃru",
        -9.941753154249906
      ],
      [
        "by",
        -9.942086359455844
      ],
      [
        "ĠpÅĻÃŃliÅ¡",
        -9.942203100769373
      ],
      [
        "ĠdobÄĽ",
        -9.942378190525783
      ],
      [
        "jÃŃ",
        -9.943159384021008
      ],
      [
        "ĠrÃ¡no",
        -9.947346739686823
      ],
      [
        "tnÃ©",
        -9.94758818787189
      ],
      [
        "ĠovÃŃ",
        -9.94766927790469
      ],
      [
        "Ġved",
        -9.948121921429884
      ],
      [
        "Ġdosti",
        -9.948360926013962
      ],
      [
        "ĠdÃ¡vÃ¡",
        -9.948443286087375
      ],
      [
        "ĠdruhÃ½",
        -9.948776022812687
      ],
      [
        "Ġdni",
        -9.949458299932008
      ],
      [
        "ĠÄįernÃ½",
        -9.950358601857424
      ],
      [
        "ĠÅĻeÄįi",
        -9.950393795922533
      ],
      [
        "ĠMnÄĽ",
        -9.951670917786284
      ],
      [
        "ekÃ¡",
        -9.951895000516618
      ],
      [
        "ĠtenkrÃ¡t",
        -9.95271645594169
      ],
      [
        "ĠsrdcÃŃ",
        -9.953004152341638
      ],
      [
        "ĠdÄĽs",
        -9.955952108966645
      ],
      [
        "Ġznovu",
        -9.956113084237426
      ],
      [
        "Ġradosti",
        -9.956258339151592
      ],
      [
        "st",
        -9.957500854950363
      ],
      [
        "je",
        -9.957600567313532
      ],
      [
        "eme",
        -9.957988468238629
      ],
      [
        "Ġbeze",
        -9.958019330686245
      ],
      [
        "Ã¡ÄįÃŃ",
        -9.959435104841269
      ],
      [
        "Ġuky",
        -9.959516029720238
      ],
      [
        "ahÃ¡",
        -9.960119970725945
      ],
      [
        "ĠchvÄĽje",
        -9.96096688804516
      ],
      [
        "ĠdÃŃl",
        -9.961319362245051
      ],
      [
        "ĠnaÅ¡i",
        -9.961516454087537
      ],
      [
        "ilÃ¡",
        -9.962051013992642
      ],
      [
        "ĠcÃŃtÃŃ",
        -9.962392565616558
      ],
      [
        "ĠjÃŃmÅ¾",
        -9.962766660749898
      ],
      [
        "ĠkrÃ¡le",
        -9.962857607039023
      ],
      [
        "ĠvÃŃru",
        -9.963356717023341
      ],
      [
        "dnÃ½",
        -9.963738706711872
      ],
      [
        "ÃŃnu",
        -9.966059137541826
      ],
      [
        "Ġrej",
        -9.966143656514175
      ],
      [
        "ĠUÅ¾",
        -9.967044815783972
      ],
      [
        "ĠdÃŃk",
        -9.967157985260535
      ],
      [
        "skÃ½",
        -9.968849705204786
      ],
      [
        "ĠhÅĻÃŃch",
        -9.968939317371087
      ],
      [
        "Ġkat",
        -9.970018152284748
      ],
      [
        "ĠnÃ¡ruÄį",
        -9.970207331602875
      ],
      [
        "ĠbÅĻehu",
        -9.971424024975768
      ],
      [
        "hrudi",
        -9.973303242905311
      ],
      [
        "ĠzÃ¡stup",
        -9.97676949030844
      ],
      [
        "Ġpat",
        -9.97708744202502
      ],
      [
        "Ġsrdcem",
        -9.97765545184349
      ],
      [
        "ÄĽji",
        -9.977669230127715
      ],
      [
        "ĠmÃ¡me",
        -9.977688175183307
      ],
      [
        "ĠzÃŃtr",
        -9.978091522978122
      ],
      [
        "Ġine",
        -9.978947466653329
      ],
      [
        "ĠkrÃ¡se",
        -9.978966546282667
      ],
      [
        "Ġmysl",
        -9.97922913474854
      ],
      [
        "aty",
        -9.979967396099882
      ],
      [
        "elÃ©",
        -9.980064244007153
      ],
      [
        "Ġpout",
        -9.980143014069153
      ],
      [
        "ĠBoha",
        -9.981318535304757
      ],
      [
        "ĠhvÄĽzda",
        -9.981547548515145
      ],
      [
        "Ġota",
        -9.981923522999129
      ],
      [
        "ĠBez",
        -9.982047756617803
      ],
      [
        "ĠdÄĽv",
        -9.98257660246285
      ],
      [
        "adÃŃ",
        -9.983084598812004
      ],
      [
        "ĠpÅ¯l",
        -9.985822268575049
      ],
      [
        "Ġhled",
        -9.986850174367081
      ],
      [
        "Ġska",
        -9.987405620553254
      ],
      [
        "eni",
        -9.988413422901711
      ],
      [
        "Ġstromy",
        -9.989215001194578
      ],
      [
        "Ġroj",
        -9.989243091777658
      ],
      [
        "ĠcÃŃtÃŃm",
        -9.989462654605676
      ],
      [
        "ĠdobrÃ©",
        -9.9896586871226
      ],
      [
        "Ġteprv",
        -9.98977724625974
      ],
      [
        "Ġtouhou",
        -9.990424646418678
      ],
      [
        "Ġroste",
        -9.991446778663224
      ],
      [
        "Ġnez",
        -9.991972380461478
      ],
      [
        "ĠdrahÃ©",
        -9.9920196773975
      ],
      [
        "ĠÄįeskÃ½",
        -9.993264762197064
      ],
      [
        "Ġlze",
        -9.993496840088874
      ],
      [
        "Ġuhy",
        -9.994644145977176
      ],
      [
        "Ġdle",
        -9.995051629280791
      ],
      [
        "ĠkrÃ¡snÃ½",
        -9.996528543016058
      ],
      [
        "Å¾e",
        -9.996990250093798
      ],
      [
        "Ġjinak",
        -9.997401659376909
      ],
      [
        "Ġhlad",
        -9.997965422278485
      ],
      [
        "ĠpÅĻÃŃÅ¡tÃŃ",
        -9.997998673849303
      ],
      [
        "ĠchvÄĽl",
        -9.998109830704177
      ],
      [
        "ÄĽlÃ½",
        -9.998801256987164
      ],
      [
        "ĠslÃ¡va",
        -9.998863970630623
      ],
      [
        "ĠzdÃ¡lo",
        -9.999651417692728
      ],
      [
        "ĠmalÃ©",
        -10.000588320122645
      ],
      [
        "ÃŃÅ¡e",
        -10.000908177281175
      ],
      [
        "ĠtÅĻÃŃ",
        -10.002251074586335
      ],
      [
        "ĠÅĪader",
        -10.004327121306865
      ],
      [
        "Ġmysli",
        -10.004826448086718
      ],
      [
        "Ġ19",
        -10.005433674392851
      ],
      [
        "ĠÅ¾iv",
        -10.005534969546224
      ],
      [
        "ĠlÃŃp",
        -10.006132293977057
      ],
      [
        "onen",
        -10.006813483161974
      ],
      [
        "Ġsad",
        -10.007244124651773
      ],
      [
        "ĠsmÃ¡l",
        -10.007385264413964
      ],
      [
        "Ġlese",
        -10.007633535173722
      ],
      [
        "Ġokna",
        -10.009104339976673
      ],
      [
        "Ġdar",
        -10.00988582882685
      ],
      [
        "ĠÄįin",
        -10.01020979521144
      ],
      [
        "ĠbÄĽd",
        -10.010341927891755
      ],
      [
        "Ġhal",
        -10.012078760147663
      ],
      [
        "dy",
        -10.012437197307127
      ],
      [
        "Ġbrzy",
        -10.013391147072191
      ],
      [
        "Ġstesk",
        -10.013927840705534
      ],
      [
        "ĠTvÅ¯j",
        -10.013955078172014
      ],
      [
        "ĠmajÃŃ",
        -10.016033401698776
      ],
      [
        "Ġlesa",
        -10.016120976056325
      ],
      [
        "Ġposud",
        -10.016250692748997
      ],
      [
        "Äįe",
        -10.017023712294517
      ],
      [
        "Ġblah",
        -10.017176979332428
      ],
      [
        "Ġstrun",
        -10.017406958096068
      ],
      [
        "Ġjal",
        -10.017531872078695
      ],
      [
        "Ġpl",
        -10.020030771974861
      ],
      [
        "ĠbÃŃd",
        -10.020194789932441
      ],
      [
        "ĠkonÄĽ",
        -10.020268802334675
      ],
      [
        "Ġcesta",
        -10.020449729536438
      ],
      [
        "Ġplod",
        -10.02172988156712
      ],
      [
        "ĠjasnÃ©",
        -10.021897375959085
      ],
      [
        "ĠtvÃ©m",
        -10.022743278202373
      ],
      [
        "ĠvÅ¡eck",
        -10.02290382210059
      ],
      [
        "ĠhledÃ¡",
        -10.023401804951488
      ],
      [
        "Å¡ÃŃm",
        -10.023670620636969
      ],
      [
        "Ġvede",
        -10.024158307953556
      ],
      [
        "ĠdlÃŃ",
        -10.025029730917254
      ],
      [
        "Ġrev",
        -10.0254719387023
      ],
      [
        "ĠmÄĽsto",
        -10.026094239999562
      ],
      [
        "Ġsluch",
        -10.026233023326881
      ],
      [
        "ĠvÅ¡emi",
        -10.027774461858922
      ],
      [
        "Ã¡vÄĽ",
        -10.028360220111956
      ],
      [
        "Ġjazyk",
        -10.02889114168935
      ],
      [
        "Ġtakto",
        -10.029473711302174
      ],
      [
        "ĠoÄįÃŃch",
        -10.029547525347002
      ],
      [
        "le",
        -10.029572876181481
      ],
      [
        "ĠJsou",
        -10.029697979487743
      ],
      [
        "Ġchlad",
        -10.029807945385334
      ],
      [
        "Ġkus",
        -10.032524411593954
      ],
      [
        "ĠbudeÅ¡",
        -10.034966044956125
      ],
      [
        "ĠÄįasu",
        -10.03584310893586
      ],
      [
        "ĠTobÄĽ",
        -10.036985466860223
      ],
      [
        "ĠdÃŃvka",
        -10.037305784316128
      ],
      [
        "ÄĽle",
        -10.03960632420024
      ],
      [
        "ĠkteÅĻÃŃ",
        -10.039626755002878
      ],
      [
        "ovat",
        -10.040020787550045
      ],
      [
        "Ġnaposled",
        -10.040201095234924
      ],
      [
        "Ġhla",
        -10.041042180526826
      ],
      [
        "Ġsna",
        -10.041820998617801
      ],
      [
        "Ġlidstva",
        -10.04224759118167
      ],
      [
        "Ġruch",
        -10.042540294669621
      ],
      [
        "Ġzahrad",
        -10.043048847153331
      ],
      [
        "Ġava",
        -10.044266599598917
      ],
      [
        "Ġmuk",
        -10.044328581278954
      ],
      [
        "ÄĽlÃ¡",
        -10.04465615709474
      ],
      [
        "Ã¡vy",
        -10.04469111243654
      ],
      [
        "ÃŃka",
        -10.046082092642859
      ],
      [
        "ĠvÅ¯le",
        -10.04658195623917
      ],
      [
        "ĠchceÅ¡",
        -10.046910642617888
      ],
      [
        "ĠbÅĻeh",
        -10.04834138570617
      ],
      [
        "ĠnoÄįnÃŃ",
        -10.048700618134298
      ],
      [
        "Ġudy",
        -10.04913866840815
      ],
      [
        "ÄĽtu",
        -10.050053177007744
      ],
      [
        "rÃ¡zem",
        -10.051374205941407
      ],
      [
        "izÃŃ",
        -10.05182867025135
      ],
      [
        "ĠusÃŃ",
        -10.052762444436182
      ],
      [
        "ĠnevÃŃm",
        -10.05358894563979
      ],
      [
        "Ġkruh",
        -10.053806190951473
      ],
      [
        "Ã¡lÃŃ",
        -10.053892155529446
      ],
      [
        "ĠkrÃ¡li",
        -10.053987958623367
      ],
      [
        "ĠRoz",
        -10.054300349731546
      ],
      [
        "Ġklas",
        -10.055372437855233
      ],
      [
        "Ġlidem",
        -10.055775424424494
      ],
      [
        "ĠdÃŃm",
        -10.056349340334947
      ],
      [
        "ĠToÅ¥",
        -10.056771635530591
      ],
      [
        "ĠzlÃ½",
        -10.057603425993907
      ],
      [
        "Ġduchu",
        -10.059466195073774
      ],
      [
        "Ġtento",
        -10.060117331863779
      ],
      [
        "Ġsla",
        -10.060392399003007
      ],
      [
        "Ġboku",
        -10.061429974926671
      ],
      [
        "Ġvichr",
        -10.062677562643973
      ],
      [
        "enÄĽ",
        -10.063313331158199
      ],
      [
        "Ġvit",
        -10.063395977816395
      ],
      [
        "anu",
        -10.06340249940545
      ],
      [
        "eÅĻÃŃ",
        -10.064558553024572
      ],
      [
        "ĠBy",
        -10.068946748925846
      ],
      [
        "Ġzal",
        -10.069242574911517
      ],
      [
        "ĠvÄĽÄįnost",
        -10.069689405089587
      ],
      [
        "Ġpravda",
        -10.069715793111378
      ],
      [
        "Ġvztek",
        -10.071440709481717
      ],
      [
        "Ġstop",
        -10.074234161845245
      ],
      [
        "ĠtÃŃÅ¾",
        -10.075035266911671
      ],
      [
        "ĠtÄĽÅ¾kÃ©",
        -10.076153976651966
      ],
      [
        "ĠrÃ¡m",
        -10.076357471811326
      ],
      [
        "ĠplÃ¡Äįe",
        -10.076641131290518
      ],
      [
        "ĠhrobÄĽ",
        -10.078415362981106
      ],
      [
        "ĠtÄĽÅ¾ko",
        -10.079449572808137
      ],
      [
        "nÃ©ho",
        -10.080851873549852
      ],
      [
        "Ã¡je",
        -10.081146560567579
      ],
      [
        "Ġdomu",
        -10.082842997033627
      ],
      [
        "ĠZas",
        -10.08322615782545
      ],
      [
        "ny",
        -10.083679823498894
      ],
      [
        "Ġkdos",
        -10.08591840811198
      ],
      [
        "Ġsladce",
        -10.086069186332065
      ],
      [
        "ĠnadÅ¡enÃŃ",
        -10.086434848777076
      ],
      [
        "Ġetu",
        -10.086752981802455
      ],
      [
        "Ġvzdor",
        -10.086882265117826
      ],
      [
        "ova",
        -10.086987738917102
      ],
      [
        "ĠstÃ¡t",
        -10.087407501453008
      ],
      [
        "Ġjitr",
        -10.088268208511316
      ],
      [
        "ĠJest",
        -10.089103335980308
      ],
      [
        "ĠbÄĽda",
        -10.089565051484396
      ],
      [
        "adÄĽ",
        -10.090334253766445
      ],
      [
        "nohy",
        -10.092112327644653
      ],
      [
        "ĠklonÃŃ",
        -10.092473595473956
      ],
      [
        "Ġpaprsk",
        -10.09276064561066
      ],
      [
        "ĠbyÅ¥",
        -10.09301183175055
      ],
      [
        "ĠvÄĽÅĻ",
        -10.093050379572663
      ],
      [
        "ĠolÃ¡",
        -10.095909379307313
      ],
      [
        "Ġniv",
        -10.097369525847878
      ],
      [
        "Ġzcela",
        -10.097678256808678
      ],
      [
        "Ġtka",
        -10.097998590941229
      ],
      [
        "kÃ¡",
        -10.098176827516017
      ],
      [
        "Ġjed",
        -10.098230632095738
      ],
      [
        "Äįko",
        -10.099322736295424
      ],
      [
        "Ġbil",
        -10.102907300951252
      ],
      [
        "Ġnal",
        -10.103088272770567
      ],
      [
        "ÃŃku",
        -10.104633075240933
      ],
      [
        "cem",
        -10.10473640807458
      ],
      [
        "AAXA",
        -10.10586028921092
      ],
      [
        "Ã½ti",
        -10.10636056601384
      ],
      [
        "ĠjasnÃ½",
        -10.106387100082198
      ],
      [
        "ĠmyslÃŃ",
        -10.106745783832693
      ],
      [
        "Ġnade",
        -10.108691337135543
      ],
      [
        "ĠzatÃŃm",
        -10.109822391633742
      ],
      [
        "tce",
        -10.11103732442716
      ],
      [
        "ĠmizÃŃ",
        -10.111208061332036
      ],
      [
        "Ġdlo",
        -10.113023276790344
      ],
      [
        "ĠlÃ¡n",
        -10.113334378966387
      ],
      [
        "Ġnim",
        -10.113578345739768
      ],
      [
        "Ġlen",
        -10.113669831493782
      ],
      [
        "ĠvalÃŃ",
        -10.113721384383783
      ],
      [
        "ĠbratÅĻÃŃ",
        -10.114930908836712
      ],
      [
        "Ã¡dÃŃ",
        -10.1152410285331
      ],
      [
        "Ġkla",
        -10.116476944817727
      ],
      [
        "Ġvenku",
        -10.116777940128236
      ],
      [
        "Ġprsa",
        -10.118237663242464
      ],
      [
        "Ġpravdu",
        -10.118485255875122
      ],
      [
        "Ġrozum",
        -10.11870317017444
      ],
      [
        "ĠmodrÃ©",
        -10.119318228822793
      ],
      [
        "ĠsvÃ½mi",
        -10.119431593640934
      ],
      [
        "eÄįÃŃ",
        -10.119916235803064
      ],
      [
        "ĠzvonÃŃ",
        -10.120962540149952
      ],
      [
        "ÃŃna",
        -10.122811302043875
      ],
      [
        "Ġblankyt",
        -10.127684923107736
      ],
      [
        "ĠmladÃ¡",
        -10.129187487959982
      ],
      [
        "Ġaku",
        -10.129870919922627
      ],
      [
        "ĠÅ¡umÃŃ",
        -10.131098903111962
      ],
      [
        "¡",
        -10.131801847605317
      ],
      [
        "ÃŃnÄĽ",
        -10.132389239693271
      ],
      [
        "Ã¡Å¾e",
        -10.132803010987228
      ],
      [
        "ĠsvatÃ¡",
        -10.133321207661387
      ],
      [
        "esy",
        -10.133584486349907
      ],
      [
        "ĠvÅ¡ÃŃm",
        -10.134274664795027
      ],
      [
        "alÃ½",
        -10.134811662176666
      ],
      [
        "ĠÄįest",
        -10.13551093788568
      ],
      [
        "ĠspÃ¡s",
        -10.135963407172088
      ],
      [
        "Ġjem",
        -10.13612898903564
      ],
      [
        "tÃŃn",
        -10.136364916496301
      ],
      [
        "Ġblaho",
        -10.13656842746975
      ],
      [
        "Ġzor",
        -10.136594673725824
      ],
      [
        "jÃŃc",
        -10.137790875410252
      ],
      [
        "ĠkaÅ¾do",
        -10.137794499232161
      ],
      [
        "ĠvÃŃn",
        -10.137936582882894
      ],
      [
        "moci",
        -10.139364410237885
      ],
      [
        "Ġidu",
        -10.139728008631959
      ],
      [
        "skÃ½ch",
        -10.140020870661463
      ],
      [
        "Ġlesk",
        -10.140489807493895
      ],
      [
        "ĠslyÅ¡ÃŃm",
        -10.140565044174158
      ],
      [
        "ĠpÄĽl",
        -10.141035418154994
      ],
      [
        "Ġjakby",
        -10.141163772818036
      ],
      [
        "ĠmoÅ¾no",
        -10.141492199505237
      ],
      [
        "Ġhloub",
        -10.141661406021083
      ],
      [
        "ĠjednÃ©",
        -10.141774328921121
      ],
      [
        "Ġnec",
        -10.141872621670817
      ],
      [
        "aji",
        -10.142108858920468
      ],
      [
        "ĠNoc",
        -10.142174992706043
      ],
      [
        "ĠjakÃ©",
        -10.142381126586272
      ],
      [
        "hle",
        -10.142545685437224
      ],
      [
        "stejnÄĽ",
        -10.142589634690614
      ],
      [
        "ĠsnÃ©",
        -10.14261418997993
      ],
      [
        "ĠbÃ¡snÃŃk",
        -10.142733214336754
      ],
      [
        "ÄįÃŃ",
        -10.143061966035987
      ],
      [
        "ĠvÅ¯kol",
        -10.143099197516761
      ],
      [
        "ÄĽte",
        -10.143995835356012
      ],
      [
        "Ġprapor",
        -10.144042487229132
      ],
      [
        "ĠTi",
        -10.144810637764607
      ],
      [
        "Ġ181",
        -10.146289144471254
      ],
      [
        "ĠslÃ¡vÄĽ",
        -10.147330703412624
      ],
      [
        "lÃ©m",
        -10.147894790667452
      ],
      [
        "Ġbor",
        -10.14832380693315
      ],
      [
        "ĠÄįeskÃ©",
        -10.150888956003637
      ],
      [
        "cko",
        -10.150997119589224
      ],
      [
        "ĠrudÃ©",
        -10.151256596533837
      ],
      [
        "ĠÅĻeÄįÃŃ",
        -10.153191496483277
      ],
      [
        "ĠnevÃŃ",
        -10.15396868562538
      ],
      [
        "Ã¡nu",
        -10.154323635630146
      ],
      [
        "rnÃ½",
        -10.155535928491418
      ],
      [
        "Ġjdu",
        -10.156067536405502
      ],
      [
        "Å¯nÄĽ",
        -10.156390599865418
      ],
      [
        "Ġoho",
        -10.156509032813283
      ],
      [
        "lny",
        -10.157464229974902
      ],
      [
        "Ġsilou",
        -10.157541428077014
      ],
      [
        "Ġdala",
        -10.158534094480716
      ],
      [
        "ytÃŃ",
        -10.159801456550653
      ],
      [
        "ĠJan",
        -10.161604312936483
      ],
      [
        "ÃŃky",
        -10.162975562906105
      ],
      [
        "ĠbouÅĻi",
        -10.164128786385533
      ],
      [
        "ĠÅ¾Ã¡dnÃ½",
        -10.16536691521825
      ],
      [
        "ĠchvÃŃ",
        -10.16548571690594
      ],
      [
        "iÅ¡e",
        -10.16567198962752
      ],
      [
        "lnÃŃ",
        -10.165879753306168
      ],
      [
        "ĠslyÅ¡et",
        -10.166919903987074
      ],
      [
        "Ġbije",
        -10.167830888180792
      ],
      [
        "uhu",
        -10.167882473209911
      ],
      [
        "osti",
        -10.169345235601224
      ],
      [
        "ĠÄįet",
        -10.170121961280845
      ],
      [
        "Ġob",
        -10.170630042705172
      ],
      [
        "ĠvelkÃ¡",
        -10.171057429517766
      ],
      [
        "Ġsmute",
        -10.172304644297068
      ],
      [
        "Ã©mÄĽ",
        -10.172354112572188
      ],
      [
        "Ġjsa",
        -10.175020082044334
      ],
      [
        "ĠrÃ¡je",
        -10.175442857099288
      ],
      [
        "ĠsmutnÃ½",
        -10.17570325606885
      ],
      [
        "Ġtra",
        -10.17771020484378
      ],
      [
        "ÄĽny",
        -10.17787728780565
      ],
      [
        "ĠptÃ¡c",
        -10.179523685471118
      ],
      [
        "ĠzlÃ©",
        -10.180277350954345
      ],
      [
        "ÃŃny",
        -10.180376617301572
      ],
      [
        "ĠmÄĽnÃŃ",
        -10.181330847084123
      ],
      [
        "ĠzdÃ¡l",
        -10.18156024191039
      ],
      [
        "ji",
        -10.181808041905509
      ],
      [
        "ĠbÄĽÅ¾ÃŃ",
        -10.183898028098476
      ],
      [
        "Ã¡da",
        -10.184355822111353
      ],
      [
        "Ġpravdy",
        -10.186269227729795
      ],
      [
        "ĠvroucÃŃ",
        -10.186890771592545
      ],
      [
        "ĠstÃ¡la",
        -10.186986239004604
      ],
      [
        "ĠtrÅ¯n",
        -10.187378586256733
      ],
      [
        "ĠzemÃŃ",
        -10.187731275660308
      ],
      [
        "ĠpÅĻiÅ¡la",
        -10.188569092134902
      ],
      [
        "ĠjejÃŃm",
        -10.18868622187619
      ],
      [
        "ĠjedinÃ½",
        -10.189128278338874
      ],
      [
        "ÄĽlÃ©",
        -10.189227554201484
      ],
      [
        "Ġslza",
        -10.190082746653943
      ],
      [
        "ĠolÅ¯",
        -10.19133876938971
      ],
      [
        "ĠkÅĻik",
        -10.192486015898641
      ],
      [
        "ĠPane",
        -10.193355585616109
      ],
      [
        "Ġjednu",
        -10.193479468797836
      ],
      [
        "ĠdruhÃ©",
        -10.193721344919371
      ],
      [
        "ĠbouÅĻ",
        -10.193782425465717
      ],
      [
        "aÅ¡e",
        -10.194573317591406
      ],
      [
        "ĠchtÄĽla",
        -10.195022924117701
      ],
      [
        "Ġkrokem",
        -10.19514075409844
      ],
      [
        "ĠzpÃŃval",
        -10.195252687429889
      ],
      [
        "ĠDen",
        -10.195499148337834
      ],
      [
        "ĠslavnÃ½",
        -10.196397141767678
      ],
      [
        "Ġotu",
        -10.1973698224808
      ],
      [
        "ĠvracÃŃ",
        -10.197628149145949
      ],
      [
        "Ġmraky",
        -10.198099692535415
      ],
      [
        "Ġhlavo",
        -10.198886125483291
      ],
      [
        "ĠsklÃ¡nÃŃ",
        -10.199680201243996
      ],
      [
        "BB",
        -10.20061434480558
      ],
      [
        "edy",
        -10.2022095285389
      ],
      [
        "ĠvÃ¡ÅĻ",
        -10.20242512727198
      ],
      [
        "ĠokamÅ¾ik",
        -10.202815033372719
      ],
      [
        "ĠbrÃ¡n",
        -10.203228568752102
      ],
      [
        "ĠÄįem",
        -10.203409715354528
      ],
      [
        "ĠvÅ¯li",
        -10.203523294234007
      ],
      [
        "Ġknih",
        -10.2065647613573
      ],
      [
        "ĠsmutnÄĽ",
        -10.207206045135223
      ],
      [
        "ĠrÃ¡da",
        -10.20738352677705
      ],
      [
        "ĠdÅĻÃŃve",
        -10.209593667127383
      ],
      [
        "ĠkÅĻÃŃdl",
        -10.209680379500261
      ],
      [
        "Ġkne",
        -10.210871221299104
      ],
      [
        "ĠslÃ¡vu",
        -10.211607392968855
      ],
      [
        "Ġulic",
        -10.212085499741491
      ],
      [
        "Ġsmysl",
        -10.212745372113833
      ],
      [
        "Ġhovor",
        -10.212779311219343
      ],
      [
        "ĠchodÃŃ",
        -10.212850771443994
      ],
      [
        "Ġneza",
        -10.214237461905828
      ],
      [
        "ÄĽty",
        -10.214490902326444
      ],
      [
        "ĠovÅ¡em",
        -10.214786125612163
      ],
      [
        "Ġoly",
        -10.215536071485204
      ],
      [
        "lnÃ½",
        -10.215907415732316
      ],
      [
        "Ã½lÃŃ",
        -10.2160855445751
      ],
      [
        "ĠtoÅ¾",
        -10.217620734811915
      ],
      [
        "elÃŃ",
        -10.218677333259318
      ],
      [
        "Ġpotok",
        -10.219751022433469
      ],
      [
        "Ġola",
        -10.220299432300873
      ],
      [
        "ÄįnÃ©",
        -10.220724972747622
      ],
      [
        "Ġplane",
        -10.221122542910784
      ],
      [
        "ĠÅĻas",
        -10.222042900316035
      ],
      [
        "ĠÅ¾enu",
        -10.222721772480526
      ],
      [
        "ĠmrtvÃ©",
        -10.223102098398435
      ],
      [
        "uÅ¾",
        -10.223431420891998
      ],
      [
        "Ġzlata",
        -10.223813431751882
      ],
      [
        "ĠstÃ©",
        -10.224402159407159
      ],
      [
        "ĠodÄĽ",
        -10.225249806129312
      ],
      [
        "Ġovi",
        -10.225686051822475
      ],
      [
        "ĠvÅ¯nÃŃ",
        -10.225830857870552
      ],
      [
        "ĠÅ¡er",
        -10.225882919332982
      ],
      [
        "ĠzÃ¡hy",
        -10.226094129956627
      ],
      [
        "ĠcÃŃsaÅĻ",
        -10.22646459775017
      ],
      [
        "ĠbÄĽh",
        -10.228454000405899
      ],
      [
        "ĠnaÄį",
        -10.22957092507291
      ],
      [
        "on",
        -10.229583748274276
      ],
      [
        "ĠvrÃ¡til",
        -10.23014334091739
      ],
      [
        "ĠZe",
        -10.230371497016803
      ],
      [
        "ĠpevnÄĽ",
        -10.230722253545569
      ],
      [
        "ĠpÅĻede",
        -10.231089689472556
      ],
      [
        "ĠzÃ¡zrak",
        -10.232952073938606
      ],
      [
        "ĠkrÃ¡sa",
        -10.233006032709067
      ],
      [
        "ĠVÃ¡s",
        -10.237840568688934
      ],
      [
        "ĠhledÄĽl",
        -10.238117751575569
      ],
      [
        "ĠchrÃ¡mu",
        -10.239131451774213
      ],
      [
        "ĠSvÄĽt",
        -10.239435599982933
      ],
      [
        "ĠmotÃ½l",
        -10.239570400377445
      ],
      [
        "ĠSrdce",
        -10.241588259852122
      ],
      [
        "Ġdomov",
        -10.242398277489384
      ],
      [
        "ĠpÅĻÃ¡tel",
        -10.243150078767513
      ],
      [
        "ĠtÃ¡l",
        -10.24364507417909
      ],
      [
        "ĠbledÃ½",
        -10.244266431202725
      ],
      [
        "ĠloÄı",
        -10.244491197046813
      ],
      [
        "ĠTvÃ¡",
        -10.245259594338975
      ],
      [
        "Ġada",
        -10.245888086290442
      ],
      [
        "Ġblud",
        -10.245934828598317
      ],
      [
        "ABXB",
        -10.246001609258336
      ],
      [
        "ĠÄįÃŃÅ¡",
        -10.24621654890656
      ],
      [
        "ĠÅĪadra",
        -10.246640221206064
      ],
      [
        "Ġned",
        -10.2475968035108
      ],
      [
        "ĠtemnÃ½",
        -10.248167893025629
      ],
      [
        "ĠstÃ¡d",
        -10.248511433553364
      ],
      [
        "ĠJeÅ¡tÄĽ",
        -10.25115898930535
      ],
      [
        "ĠstavÃŃ",
        -10.251508197731727
      ],
      [
        "lku",
        -10.252133522853956
      ],
      [
        "Ġpoklad",
        -10.252464770517909
      ],
      [
        "ĠtÄĽle",
        -10.252550610115456
      ],
      [
        "Ġklam",
        -10.253454553485428
      ],
      [
        "Ġprst",
        -10.253562530452273
      ],
      [
        "ÄĽna",
        -10.254356204059974
      ],
      [
        "ĠpÃ¡d",
        -10.254471826404595
      ],
      [
        "Ġoty",
        -10.255297482147355
      ],
      [
        "ĠÄįnÃŃ",
        -10.25534297029316
      ],
      [
        "ĠkvÄĽtu",
        -10.255427760435
      ],
      [
        "Ġkyne",
        -10.255850836307133
      ],
      [
        "Ġste",
        -10.256359454763288
      ],
      [
        "ĠskÃ½",
        -10.257226516739486
      ],
      [
        "ĠhrÃ¡l",
        -10.257284917386215
      ],
      [
        "el",
        -10.258503350309711
      ],
      [
        "Ġhudba",
        -10.259347263786653
      ],
      [
        "ĠsmutnÃ©",
        -10.260130023354275
      ],
      [
        "lnÃ©",
        -10.260426768908943
      ],
      [
        "ĠbledÃ¡",
        -10.261817899701022
      ],
      [
        "mÃŃti",
        -10.261936450350682
      ],
      [
        "tnÃ¡",
        -10.262704917051494
      ],
      [
        "Ġklidu",
        -10.26275858302996
      ],
      [
        "ĠÅĻÃŃÅ¡e",
        -10.263232000649696
      ],
      [
        "lÃ½m",
        -10.263500891236548
      ],
      [
        "ĠrozkoÅ¡",
        -10.263934471162639
      ],
      [
        "vÄĽ",
        -10.264496371187782
      ],
      [
        "ĠcestÄĽ",
        -10.264673762306499
      ],
      [
        "Ġvstal",
        -10.264690502139151
      ],
      [
        "ĠMÃ©",
        -10.265187768342777
      ],
      [
        "ĠbudÃŃ",
        -10.266130220562069
      ],
      [
        "ĠPan",
        -10.267149582333753
      ],
      [
        "Ġslovem",
        -10.267297843186254
      ],
      [
        "Ġnej",
        -10.268651170277252
      ],
      [
        "ĠdÃŃval",
        -10.269242429219943
      ],
      [
        "ĠbÃ½vÃ¡",
        -10.26965354128987
      ],
      [
        "ĠvÃ¡Å¡nÃŃ",
        -10.270569800759247
      ],
      [
        "ĠdlaÅĪ",
        -10.271280877163532
      ],
      [
        "ĠÄįlovÄĽka",
        -10.27153126349306
      ],
      [
        "ĠobjetÃŃ",
        -10.271546462674978
      ],
      [
        "asÅ¯",
        -10.27338850787002
      ],
      [
        "ĠtÃ¡hne",
        -10.274064489422575
      ],
      [
        "ĠskrÃ¡ÅĪ",
        -10.274530605281345
      ],
      [
        "Ġmodlitb",
        -10.275219665194456
      ],
      [
        "Ġtel",
        -10.275499773197557
      ],
      [
        "ĠrudÃ½",
        -10.276257216244442
      ],
      [
        "ĠSÃ¡m",
        -10.276607183561087
      ],
      [
        "ĠtÅĻetÃŃ",
        -10.27694313126857
      ],
      [
        "esa",
        -10.278173207504626
      ],
      [
        "Ġblaha",
        -10.278216175409483
      ],
      [
        "Ġzvyk",
        -10.278243338079243
      ],
      [
        "ÃŃla",
        -10.280662461542764
      ],
      [
        "Ġtlo",
        -10.280961737228354
      ],
      [
        "Ġnovou",
        -10.28109714168448
      ],
      [
        "Ġsami",
        -10.281401574359606
      ],
      [
        "ĠzÃ¡kon",
        -10.281914606706696
      ],
      [
        "icÃŃ",
        -10.282716226537154
      ],
      [
        "se",
        -10.283845699442681
      ],
      [
        "ahy",
        -10.284448764597801
      ],
      [
        "ĠdÃ¡lk",
        -10.284843192208125
      ],
      [
        "Ġprostor",
        -10.284942082839706
      ],
      [
        "ĠmyÅ¡lenk",
        -10.286186573161523
      ],
      [
        "ĠzvedÃ¡",
        -10.286926232490949
      ],
      [
        "Ã¡mi",
        -10.287865354236732
      ],
      [
        "ĠvÃ¡mi",
        -10.288093430926276
      ],
      [
        "Ġoud",
        -10.288674513747226
      ],
      [
        "Ġoky",
        -10.289771575096612
      ],
      [
        "ĠtisÃŃce",
        -10.290574314739693
      ],
      [
        "hradu",
        -10.29100086779422
      ],
      [
        "iku",
        -10.291647326217896
      ],
      [
        "tnÃ½",
        -10.291673385800621
      ],
      [
        "ĠrannÃŃ",
        -10.29346614248864
      ],
      [
        "ĠAÄį",
        -10.296116292050597
      ],
      [
        "ĠmÃŃsta",
        -10.296351865742945
      ],
      [
        "Ġhad",
        -10.297351425659055
      ],
      [
        "ĠmÅ¾ik",
        -10.297750473008819
      ],
      [
        "ĠvÃ½kÅĻik",
        -10.297881843388303
      ],
      [
        "Ġbok",
        -10.298707609842513
      ],
      [
        "ĠvÄįera",
        -10.30000916357709
      ],
      [
        "ĠTÄĽ",
        -10.300181405235916
      ],
      [
        "ĠbÃŃlou",
        -10.300419565793563
      ],
      [
        "evÃŃ",
        -10.301135327613814
      ],
      [
        "ĠvyÅ¡el",
        -10.301375490001298
      ],
      [
        "itu",
        -10.30261453022349
      ],
      [
        "ĠtoÄįÃŃ",
        -10.302833271519468
      ],
      [
        "ĠotcÅ¯",
        -10.303369357272793
      ],
      [
        "ĠslyÅ¡ÃŃ",
        -10.303400965204142
      ],
      [
        "ĠlepÅ¡ÃŃ",
        -10.303810742556248
      ],
      [
        "Ġpot",
        -10.303898341756494
      ],
      [
        "ĠtemnÃ©",
        -10.3040167232264
      ],
      [
        "ĠblÃŃÅ¾ÃŃ",
        -10.304516162201264
      ],
      [
        "Ġnebylo",
        -10.304659517915509
      ],
      [
        "ĠJeho",
        -10.304694809990583
      ],
      [
        "ĠmalÃ¡",
        -10.30519607920359
      ],
      [
        "enu",
        -10.305922383940933
      ],
      [
        "Ġtma",
        -10.306018143380733
      ],
      [
        "Ġpodle",
        -10.30672353441259
      ],
      [
        "aÅ¡ÃŃ",
        -10.307414361288505
      ],
      [
        "ĠvisÃŃ",
        -10.307501429963336
      ],
      [
        "Ġpes",
        -10.307592337470279
      ],
      [
        "ĠsmÃŃchu",
        -10.30790597815665
      ],
      [
        "ĠknÄĽz",
        -10.307986788368503
      ],
      [
        "ĠlesnÃŃ",
        -10.308909581723466
      ],
      [
        "Ġruh",
        -10.30892058364978
      ],
      [
        "ĠVÅ¾dy",
        -10.309531414648863
      ],
      [
        "Ġesk",
        -10.309579517252576
      ],
      [
        "Ġdub",
        -10.31089528116063
      ],
      [
        "ĠLid",
        -10.310899161430754
      ],
      [
        "ĠbledÃ©",
        -10.311143137492419
      ],
      [
        "Ġan",
        -10.311157545249266
      ],
      [
        "ÃŃhÃ¡",
        -10.311442441583829
      ],
      [
        "ĠblÃŃÅ¾e",
        -10.311941743534977
      ],
      [
        "dna",
        -10.312582885238829
      ],
      [
        "tnÄĽ",
        -10.314059642413554
      ],
      [
        "aÅ¥",
        -10.31409946136857
      ],
      [
        "E",
        -10.315035405715813
      ],
      [
        "ĠvÅĻav",
        -10.31520289748789
      ],
      [
        "nÄĽl",
        -10.31548615892227
      ],
      [
        "ĠKol",
        -10.316355362440238
      ],
      [
        "ĠJenÅ¾",
        -10.316506387310856
      ],
      [
        "Ġlek",
        -10.316556394712217
      ],
      [
        "ĠBohem",
        -10.31671278737603
      ],
      [
        "oni",
        -10.31695822616987
      ],
      [
        "ĠzÃ¡pas",
        -10.317557830094128
      ],
      [
        "ĠvÃŃry",
        -10.317610185826371
      ],
      [
        "krÃ¡su",
        -10.318133306445926
      ],
      [
        "ĠmeÄįe",
        -10.318149587548149
      ],
      [
        "ÃŃlÃ½",
        -10.31845191297984
      ],
      [
        "ĠÄįernÃ½ch",
        -10.318611096408894
      ],
      [
        "ÄĽst",
        -10.318834047999546
      ],
      [
        "ĠÄĽv",
        -10.318950793495114
      ],
      [
        "ĠnÄĽkdo",
        -10.319036016769294
      ],
      [
        "ĠrytÃŃÅĻ",
        -10.319411203009128
      ],
      [
        "Ġbohem",
        -10.319881468927804
      ],
      [
        "Ġpramen",
        -10.320373339025322
      ],
      [
        "ĠspÃ¡nk",
        -10.321465633664271
      ],
      [
        "Ġkmet",
        -10.321674850565639
      ],
      [
        "Ġety",
        -10.32269487895078
      ],
      [
        "ÅĻÃŃ",
        -10.324501980963298
      ],
      [
        "ĠAby",
        -10.324806066548188
      ],
      [
        "ĠhÅĻbitov",
        -10.326081163222959
      ],
      [
        "ĠstÅĻÃŃbr",
        -10.327611453172787
      ],
      [
        "Ġede",
        -10.32771841011676
      ],
      [
        "Ġhlasy",
        -10.327811946154952
      ],
      [
        "ĠtÃ³n",
        -10.32841279194641
      ],
      [
        "ĠlÃŃci",
        -10.328785215469223
      ],
      [
        "rnÄĽ",
        -10.332650243026698
      ],
      [
        "ÄĽÅĻÃŃ",
        -10.332991530756406
      ],
      [
        "ĠtÃ¡t",
        -10.333109514446118
      ],
      [
        "Ġmluvil",
        -10.333284400975462
      ],
      [
        "ĠokÅ¯",
        -10.334207352779453
      ],
      [
        "Ġpadl",
        -10.335536190161386
      ],
      [
        "Ġdalek",
        -10.33691940763473
      ],
      [
        "ĠmrÃ¡z",
        -10.338652925749305
      ],
      [
        "Ġpokoj",
        -10.338946984308514
      ],
      [
        "ĠklesÃ¡",
        -10.339039559057277
      ],
      [
        "Ġjih",
        -10.33940204039089
      ],
      [
        "ĠmodrÃ½",
        -10.340198660555444
      ],
      [
        "ĠvidÄĽt",
        -10.340897698093396
      ],
      [
        "ĠohnÄĽm",
        -10.341898108710343
      ],
      [
        "yje",
        -10.343809988398096
      ],
      [
        "ĠsedÄĽl",
        -10.343926550673395
      ],
      [
        "ÄĽzd",
        -10.344480854615364
      ],
      [
        "Ġvsi",
        -10.344716483937894
      ],
      [
        "Ġnit",
        -10.344815514279205
      ],
      [
        "Ġves",
        -10.347035136308193
      ],
      [
        "ĠtmÃ¡",
        -10.347458156559812
      ],
      [
        "Ġvelkou",
        -10.347792787979671
      ],
      [
        "hochu",
        -10.347963710696437
      ],
      [
        "Ġrte",
        -10.348042774622206
      ],
      [
        "Ã¡sy",
        -10.350126136072635
      ],
      [
        "ĠhrÅ¯z",
        -10.351308298325364
      ],
      [
        "Ġdvou",
        -10.351354069919863
      ],
      [
        "ĠMÃ¡m",
        -10.351797975821636
      ],
      [
        "ĠsladkÃ¡",
        -10.352633690863614
      ],
      [
        "ĠnemÄĽl",
        -10.352959540411234
      ],
      [
        "Ġmohu",
        -10.353351954837837
      ],
      [
        "Ġzub",
        -10.353363673083877
      ],
      [
        "Ġtichu",
        -10.353695133381109
      ],
      [
        "kÃ¡m",
        -10.353710065898522
      ],
      [
        "Ã¡vu",
        -10.353804594737841
      ],
      [
        "Ġjiskr",
        -10.354250733992288
      ],
      [
        "Ġpomoc",
        -10.354998648529708
      ],
      [
        "ĠloÅ¾e",
        -10.355190224290272
      ],
      [
        "ĠtmavÃ½",
        -10.3559518358731
      ],
      [
        "Ġjel",
        -10.356164592266198
      ],
      [
        "AXBXB",
        -10.357325822883595
      ],
      [
        "ĠÅ¡ÃŃj",
        -10.360105842143787
      ],
      [
        "dnÃ¡",
        -10.360308020677124
      ],
      [
        "dly",
        -10.361231295335312
      ],
      [
        "ĠpolÃŃ",
        -10.362208030747396
      ],
      [
        "ĠmusÃŃm",
        -10.36361286117279
      ],
      [
        "Ġmnoh",
        -10.365263326169831
      ],
      [
        "XAXB",
        -10.36565158187244
      ],
      [
        "ĠdÃ¡vnÃ½",
        -10.366011898913019
      ],
      [
        "Ġoha",
        -10.36619879480995
      ],
      [
        "itÄĽ",
        -10.36653550780104
      ],
      [
        "Ġsic",
        -10.367208550100262
      ],
      [
        "ĠzÃŃrÃ¡",
        -10.36735977861574
      ],
      [
        "ĠJsi",
        -10.368438796878115
      ],
      [
        "Ġchvat",
        -10.369548339031297
      ],
      [
        "iÅ¥",
        -10.369659331061175
      ],
      [
        "nnÃ©",
        -10.369951950741623
      ],
      [
        "ÄĽtÅ¯",
        -10.370050432751324
      ],
      [
        "nÃŃh",
        -10.370521193973191
      ],
      [
        "Ġlky",
        -10.370521390532513
      ],
      [
        "ĠpÃŃsni",
        -10.370625606898653
      ],
      [
        "Ġkrajin",
        -10.372375773688304
      ],
      [
        "eÄįe",
        -10.372793857362497
      ],
      [
        "ĠnavÅ¾dy",
        -10.372875984879661
      ],
      [
        "ĠÅ¾ene",
        -10.372967289644299
      ],
      [
        "ovÃ½ch",
        -10.37533097061203
      ],
      [
        "ÅĻeky",
        -10.37652340983859
      ],
      [
        "ĠvonÃŃ",
        -10.376797118008682
      ],
      [
        "Ġvrah",
        -10.377443345270805
      ],
      [
        "ĠzdravÃŃ",
        -10.377524509981882
      ],
      [
        "kÃ©m",
        -10.377633966486407
      ],
      [
        "ĠKdy",
        -10.378236988187401
      ],
      [
        "ĠvdÄĽk",
        -10.378625006304052
      ],
      [
        "vat",
        -10.379612815710423
      ],
      [
        "ĠSlyÅ¡",
        -10.380465706348206
      ],
      [
        "Ġohy",
        -10.381085636689606
      ],
      [
        "ĠtouÅ¾ÃŃ",
        -10.381936011070799
      ],
      [
        "ĠNic",
        -10.382203538943116
      ],
      [
        "ĠmrtvÃ½ch",
        -10.382558486291773
      ],
      [
        "ĠmÄĽli",
        -10.383148463844545
      ],
      [
        "Ġdarmo",
        -10.383297838620674
      ],
      [
        "ĠocÃŃ",
        -10.383378425431676
      ],
      [
        "Ġsmutku",
        -10.383646841832077
      ],
      [
        "Ġhod",
        -10.383685563527907
      ],
      [
        "ĠnovÃ¡",
        -10.383830909600348
      ],
      [
        "ĠvÃŃtÄĽz",
        -10.384184077646681
      ],
      [
        "ahu",
        -10.384610502984566
      ],
      [
        "Ġzlatou",
        -10.384953586526674
      ],
      [
        "ĠlÃŃbÃ¡",
        -10.385297429224437
      ],
      [
        "Ġzmizel",
        -10.386508368669876
      ],
      [
        "ĠÄįistÃ©",
        -10.387043845391409
      ],
      [
        "Ġano",
        -10.387247905246301
      ],
      [
        "Ġlev",
        -10.387565334778166
      ],
      [
        "ĠÅ¡ÃŃp",
        -10.389149052137732
      ],
      [
        "Ġtvoji",
        -10.389949665362543
      ],
      [
        "Ġdol",
        -10.390424754119067
      ],
      [
        "ĠohnÄĽ",
        -10.390503383222113
      ],
      [
        "ĠvÅ¡emu",
        -10.390854199194937
      ],
      [
        "ĠpÃ½ch",
        -10.391122942351753
      ],
      [
        "Ġstalo",
        -10.391467783367453
      ],
      [
        "ĠNaÄį",
        -10.391971015992658
      ],
      [
        "ĠdrÃ¡h",
        -10.392919425563747
      ],
      [
        "Ġdoba",
        -10.392948072791418
      ],
      [
        "ĠHned",
        -10.393166190155075
      ],
      [
        "AXABB",
        -10.393252976682806
      ],
      [
        "ĠdÅĻÃŃmÃ¡",
        -10.393254432291169
      ],
      [
        "Ġsoumrak",
        -10.393890141841279
      ],
      [
        "aha",
        -10.394006587509491
      ],
      [
        "Ġula",
        -10.394047003185209
      ],
      [
        "Ġnechce",
        -10.394322543419484
      ],
      [
        "anÃ¡",
        -10.394435495183771
      ],
      [
        "Ġbolesti",
        -10.39465368546941
      ],
      [
        "Ġchat",
        -10.394811973710427
      ],
      [
        "ĠkrÃ¡Äįel",
        -10.395110240254018
      ],
      [
        "Ġdnu",
        -10.3951773563803
      ],
      [
        "Ġbolu",
        -10.395235271909304
      ],
      [
        "vÅ¡ak",
        -10.395239213922919
      ],
      [
        "ĠdivnÃ½",
        -10.395524552631727
      ],
      [
        "ĠdivÃ½",
        -10.395674577713011
      ],
      [
        "tud",
        -10.39593396356262
      ],
      [
        "ĠtvojÃŃ",
        -10.39597541105205
      ],
      [
        "Ġsnil",
        -10.396525392465772
      ],
      [
        "Ġato",
        -10.396667510699555
      ],
      [
        "Ġtuto",
        -10.397929725539992
      ],
      [
        "ĠvÅ¡ÃŃ",
        -10.399267559478947
      ],
      [
        "ĠtÅĻpyt",
        -10.400037295101551
      ],
      [
        "ĠtÃ©m",
        -10.400885153794558
      ],
      [
        "ĠkÃ©Å¾",
        -10.401057750718177
      ],
      [
        "ĠtÅĻese",
        -10.401186986425806
      ],
      [
        "Ġvesele",
        -10.401632577646769
      ],
      [
        "ĠNenÃŃ",
        -10.401847963811209
      ],
      [
        "ĠnedÃ¡",
        -10.401924397864988
      ],
      [
        "Ġeti",
        -10.403036065640318
      ],
      [
        "Ġdno",
        -10.40343718357413
      ],
      [
        "ĠdveÅĻÃŃ",
        -10.404219355391856
      ],
      [
        "ĠTebe",
        -10.40422621621564
      ],
      [
        "Ġbudoucnost",
        -10.404465713808408
      ],
      [
        "ĠopÃŃ",
        -10.405070602387227
      ],
      [
        "ĠtichÃ¡",
        -10.405296615145987
      ],
      [
        "Ġnitru",
        -10.406910820861496
      ],
      [
        "ĠvelikÃ½",
        -10.407116469780622
      ],
      [
        "ĠÅĪadrech",
        -10.407283411930567
      ],
      [
        "ÄĽku",
        -10.407384330509068
      ],
      [
        "Ã¡Å¾ÃŃ",
        -10.40767771660739
      ],
      [
        "ĠhrÅ¯zou",
        -10.407736191179575
      ],
      [
        "ÃŃra",
        -10.408411482535017
      ],
      [
        "Ġvojsk",
        -10.40970082882993
      ],
      [
        "Ġdali",
        -10.410145605813412
      ],
      [
        "ĠzpÃ¡tky",
        -10.410151699449177
      ],
      [
        "ÄĽtÄĽ",
        -10.411513095688354
      ],
      [
        "ĠchÅ¯",
        -10.412052586005967
      ],
      [
        "Ġvrch",
        -10.412058740252819
      ],
      [
        "skou",
        -10.413406605889083
      ],
      [
        "ĠpÅĻÃŃval",
        -10.413480560237575
      ],
      [
        "Ġjizb",
        -10.413960487441251
      ],
      [
        "ĠtmavÃ©",
        -10.414218556087214
      ],
      [
        "ĠoÅ¾e",
        -10.414335005538305
      ],
      [
        "ĠsmÄĽl",
        -10.417382451447933
      ],
      [
        "ĠÄįistÃ½",
        -10.41765541980039
      ],
      [
        "Ġtato",
        -10.41773109308097
      ],
      [
        "ĠvÃŃno",
        -10.417845005002452
      ],
      [
        "Ġpozdrav",
        -10.418319345878515
      ],
      [
        "ÄĽvu",
        -10.41855987093621
      ],
      [
        "ĠkaÅ¾dÃ©m",
        -10.418717978838492
      ],
      [
        "Ġtich",
        -10.418927450843045
      ],
      [
        "ĠmocnÃ½",
        -10.41985686343363
      ],
      [
        "Ġsyna",
        -10.421433977132148
      ],
      [
        "ĠrokÅ¯",
        -10.421863584420507
      ],
      [
        "ĠstÄĽny",
        -10.421892577121188
      ],
      [
        "ĠkÃ½m",
        -10.422001549527167
      ],
      [
        "ĠdÃŃlo",
        -10.42229988131049
      ],
      [
        "ĠpÄĽn",
        -10.42259246946983
      ],
      [
        "ĠdÃ½Å¡e",
        -10.424158343972525
      ],
      [
        "Ġnepo",
        -10.424405119461078
      ],
      [
        "Ġcosi",
        -10.424780132043988
      ],
      [
        "ĠjakÃ¡",
        -10.425352051672618
      ],
      [
        "Ġsamot",
        -10.426465128835925
      ],
      [
        "Ġkalich",
        -10.427098461135486
      ],
      [
        "Ġjar",
        -10.427650366913166
      ],
      [
        "Ġkonce",
        -10.428186645968557
      ],
      [
        "Ġode",
        -10.428811017155509
      ],
      [
        "esu",
        -10.428893642437771
      ],
      [
        "Å¡tÃŃ",
        -10.429165160221114
      ],
      [
        "Ġskvost",
        -10.430025647587954
      ],
      [
        "Ġama",
        -10.430785334074926
      ],
      [
        "ĠpryÄį",
        -10.43207695973425
      ],
      [
        "ilÃ©",
        -10.432341846218609
      ],
      [
        "itÃ¡",
        -10.433165253060142
      ],
      [
        "ĠKrÃ¡l",
        -10.433511864650946
      ],
      [
        "ĠdÄĽje",
        -10.434456689489698
      ],
      [
        "rnÃŃ",
        -10.434605468566584
      ],
      [
        "Ġpravo",
        -10.436538188812552
      ],
      [
        "ĠmyslÃŃm",
        -10.436931646963393
      ],
      [
        "atu",
        -10.436946187001809
      ],
      [
        "Ġhledal",
        -10.437134255779238
      ],
      [
        "ĠvÅ¯ni",
        -10.437603924725146
      ],
      [
        "Ġminulost",
        -10.438394796247273
      ],
      [
        "ĠdÄĽcko",
        -10.438449569732594
      ],
      [
        "ĠknÃŃÅ¾e",
        -10.439354784618036
      ],
      [
        "©",
        -10.439457735298777
      ],
      [
        "Ġnechci",
        -10.439700379877397
      ],
      [
        "Ġhluk",
        -10.442083905328818
      ],
      [
        "Ã¡se",
        -10.442399178108879
      ],
      [
        "DE",
        -10.442477633448846
      ],
      [
        "Ġbratr",
        -10.44257177656657
      ],
      [
        "ĠboÅ¾e",
        -10.44263316629346
      ],
      [
        "ĠbÃ½val",
        -10.44278046972262
      ],
      [
        "Ġzdi",
        -10.442894343471437
      ],
      [
        "ĠdlanÃŃ",
        -10.442955181409456
      ],
      [
        "Ġsnem",
        -10.44339568764715
      ],
      [
        "Ġmusil",
        -10.443855737952239
      ],
      [
        "ĠchÃ½lÃŃ",
        -10.444280577261658
      ],
      [
        "zeÅĪ",
        -10.444504454209927
      ],
      [
        "ĠelÃ¡",
        -10.445416168548459
      ],
      [
        "ĠjimÅ¾",
        -10.445881923406384
      ],
      [
        "ĠsmÄĽle",
        -10.446397583529139
      ],
      [
        "ĠsvÄĽtÅ¯",
        -10.446644981073845
      ],
      [
        "ckÃ½",
        -10.447258830707073
      ],
      [
        "ĠhrdÄĽ",
        -10.447526387040424
      ],
      [
        "ĠotÄĽ",
        -10.448474263976717
      ],
      [
        "Ġhvozd",
        -10.450209130564922
      ],
      [
        "ĠÅ¡edÃ½",
        -10.45063305879496
      ],
      [
        "ĠdÃŃvky",
        -10.451077558069217
      ],
      [
        "ĠÄįernÃ¡",
        -10.451263056931467
      ],
      [
        "Ġabych",
        -10.452637645469586
      ],
      [
        "AXBCB",
        -10.453031988540385
      ],
      [
        "ĠosÃŃ",
        -10.453387455145652
      ],
      [
        "Ġstarost",
        -10.453895294107104
      ],
      [
        "eÄı",
        -10.454117050271774
      ],
      [
        "po",
        -10.45419358255467
      ],
      [
        "Ġuka",
        -10.455345828703901
      ],
      [
        "ĠhuÄįÃŃ",
        -10.45564465717484
      ],
      [
        "ĠM",
        -10.456060918001345
      ],
      [
        "ĠjevÃŃ",
        -10.45683570636629
      ],
      [
        "Ġstane",
        -10.456939014827423
      ],
      [
        "ÅĻen",
        -10.45754710662088
      ],
      [
        "Ġsud",
        -10.45761228703227
      ],
      [
        "ece",
        -10.458880676450466
      ],
      [
        "ĠÄįekal",
        -10.459202048183712
      ],
      [
        "?!",
        -10.459381476993922
      ],
      [
        "ĠpravÃ½",
        -10.45971246959828
      ],
      [
        "ĠÅ¡ti",
        -10.460025457545974
      ],
      [
        "ÄĽch",
        -10.460065393551833
      ],
      [
        "Ġeta",
        -10.460493962265517
      ],
      [
        "Ġhraje",
        -10.460855629597344
      ],
      [
        "eÄįi",
        -10.46138582719517
      ],
      [
        "ĠzÅ¯stal",
        -10.461734178294567
      ],
      [
        "Ġkrov",
        -10.462429786417157
      ],
      [
        "ĠstÅĻech",
        -10.462484340866455
      ],
      [
        "Ġkorun",
        -10.46260778865673
      ],
      [
        "Ġmed",
        -10.463274222102395
      ],
      [
        "ĠspÃ¡t",
        -10.46390900612148
      ],
      [
        "ĠztrÃ¡cÃŃ",
        -10.46406394645404
      ],
      [
        "Ġslovy",
        -10.464277519917042
      ],
      [
        "Ġzel",
        -10.466145398171015
      ],
      [
        "ĠdÄĽck",
        -10.46681012084467
      ],
      [
        "tnÃŃ",
        -10.467181172762203
      ],
      [
        "ĠskrÃ¡nÃŃ",
        -10.46731224452402
      ],
      [
        "ĠbratÅĻi",
        -10.468382702664327
      ],
      [
        "Ġsvatou",
        -10.468934318142399
      ],
      [
        "cÅ¯",
        -10.469570722498117
      ],
      [
        "nnÃŃ",
        -10.469610521874628
      ],
      [
        "Ġluny",
        -10.470987797516951
      ],
      [
        "ĠdvÃ©",
        -10.471155048800089
      ],
      [
        "ĠÅ¾havÃ½",
        -10.471375113814851
      ],
      [
        "Ġkamen",
        -10.471849551504464
      ],
      [
        "ĠvÄĽÅ¾e",
        -10.471905825056986
      ],
      [
        "ĠHa",
        -10.471981758270562
      ],
      [
        "Ġctnost",
        -10.472329663727088
      ],
      [
        "ĠsmÄĽje",
        -10.472500559995272
      ],
      [
        "Ġpropast",
        -10.472782620688697
      ],
      [
        "ÃŃÅĻÃŃ",
        -10.472791291295229
      ],
      [
        "ĠvaÅ¡ÃŃ",
        -10.473621656650792
      ],
      [
        "ĠcitÅ¯",
        -10.473622379311852
      ],
      [
        "Ġcen",
        -10.473722248665702
      ],
      [
        "ĠbÃ¡",
        -10.473791821363012
      ],
      [
        "ĠpÅĻÃ¡nÃŃ",
        -10.473797469896844
      ],
      [
        "ĠPojÄı",
        -10.47388349634235
      ],
      [
        "ĠVÃŃm",
        -10.473957789701888
      ],
      [
        "Ġstal",
        -10.474291253453227
      ],
      [
        "Ġduh",
        -10.474313227831376
      ],
      [
        "ĠpÅĻÃŃtel",
        -10.474691800343319
      ],
      [
        "ĠPÃ¡nÄĽ",
        -10.47481279099545
      ],
      [
        "Ġzlost",
        -10.475825649783513
      ],
      [
        "aÅĻÃŃ",
        -10.475975679235727
      ],
      [
        "Ġplna",
        -10.476097277412222
      ],
      [
        "ĠmocÃŃ",
        -10.476804648894671
      ],
      [
        "Ġchmur",
        -10.476831997755987
      ],
      [
        "ĠNechÅ¥",
        -10.476995509295168
      ],
      [
        "ĠmraÄįn",
        -10.47719309101523
      ],
      [
        "ĠdÃŃvÄįÃŃ",
        -10.477689499585303
      ],
      [
        "ĠslavnÃ©",
        -10.477754936418322
      ],
      [
        "ĠsnÄĽhu",
        -10.479003705874765
      ],
      [
        "ÃŃlÃ¡",
        -10.479307433288348
      ],
      [
        "ĠpatÅĻÃŃ",
        -10.47961910256521
      ],
      [
        "Ġminul",
        -10.479961057950465
      ],
      [
        "Ġoken",
        -10.480044679225678
      ],
      [
        "aze",
        -10.48004983876266
      ],
      [
        "azÃŃ",
        -10.480101950622942
      ],
      [
        "Ġvlna",
        -10.480116791884516
      ],
      [
        "Ġpouta",
        -10.480445277888947
      ],
      [
        "ĠpÃŃt",
        -10.480547609293097
      ],
      [
        "Ġrob",
        -10.480595304656902
      ],
      [
        "ĠpÃŃsk",
        -10.480777886151067
      ],
      [
        "ĠradostÃŃ",
        -10.48110975886988
      ],
      [
        "ĠOh",
        -10.48147482227593
      ],
      [
        "Ġtvor",
        -10.481811846455972
      ],
      [
        "ĠvÄĽtvÃŃ",
        -10.481984334600707
      ],
      [
        "ĠmÃŃst",
        -10.482150568304304
      ],
      [
        "Å¡e",
        -10.482404249880053
      ],
      [
        "ĠvÅ¯dce",
        -10.483877106494548
      ],
      [
        "ĠvÃ½Å¡i",
        -10.483953429294495
      ],
      [
        "ÄĽnÃ©",
        -10.484285510935445
      ],
      [
        "ÄįnÃ½",
        -10.485155507600474
      ],
      [
        "vÄĽl",
        -10.485426024929902
      ],
      [
        "rti",
        -10.485498924527358
      ],
      [
        "ĠstÃŃnÅ¯",
        -10.485679583177518
      ],
      [
        "ĠspÃŃÅ¡",
        -10.48610640001706
      ],
      [
        "Ġsladkou",
        -10.486769822158934
      ],
      [
        "mnÃ©",
        -10.487239946175631
      ],
      [
        "Ġvoda",
        -10.488034405981526
      ],
      [
        "Ġkov",
        -10.488313185478354
      ],
      [
        "ĠtemnÄĽ",
        -10.489252364026063
      ],
      [
        "nice",
        -10.489454820716894
      ],
      [
        "tu",
        -10.489501349442143
      ],
      [
        "ebi",
        -10.489700506316701
      ],
      [
        "ta",
        -10.490582652241821
      ],
      [
        "ĠmlÄįk",
        -10.49074105423722
      ],
      [
        "ĠprÅ¯vod",
        -10.490890660210983
      ],
      [
        "kÅ¯",
        -10.49198246368711
      ],
      [
        "Ġnikde",
        -10.49240237977266
      ],
      [
        "ĠSlunce",
        -10.493552124941317
      ],
      [
        "Ġchleba",
        -10.494270416358543
      ],
      [
        "ĠÅĻekla",
        -10.494409439310644
      ],
      [
        "Ġlov",
        -10.494749370879962
      ],
      [
        "ĠptÃ¡Äįe",
        -10.495370124488545
      ],
      [
        "ĠdivnÃ©",
        -10.495720832427068
      ],
      [
        "Ġana",
        -10.495816725146073
      ],
      [
        "ĠÅ¾Ã¡dnÃ©",
        -10.495967084493513
      ],
      [
        "ĠhorÃ¡ch",
        -10.496626774366945
      ],
      [
        "ABCCD",
        -10.496848274087089
      ],
      [
        "ĠleÅ¾",
        -10.497100146286318
      ],
      [
        "ĠvÃ¡Å¡nÄĽ",
        -10.497527290610861
      ],
      [
        "eji",
        -10.500140408722272
      ],
      [
        "Ġbalvan",
        -10.500245637258491
      ],
      [
        "ĠvÄĽrnÃ½",
        -10.500440733112951
      ],
      [
        "ro",
        -10.500785677601328
      ],
      [
        "Ġvesel",
        -10.501090842551502
      ],
      [
        "Ġpodzim",
        -10.501118907833789
      ],
      [
        "ĠtÄĽÅ¾c",
        -10.501136973723565
      ],
      [
        "Ġhlahol",
        -10.501301588458016
      ],
      [
        "Ġnevy",
        -10.501308901850802
      ],
      [
        "Ġznal",
        -10.502696407624704
      ],
      [
        "eba",
        -10.502999460092523
      ],
      [
        "Ġstanul",
        -10.50340312720122
      ],
      [
        "ty",
        -10.503486984788012
      ],
      [
        "ĠÄĮÃŃm",
        -10.506055409974735
      ],
      [
        "rvÃŃ",
        -10.506348259187677
      ],
      [
        "ĠmnohÃ©",
        -10.506690686624125
      ],
      [
        "Ġzve",
        -10.506824763012087
      ],
      [
        "Ġkletb",
        -10.507741591907315
      ],
      [
        "chom",
        -10.508162417556996
      ],
      [
        "Ġdobro",
        -10.508491295555654
      ],
      [
        "Ġmatce",
        -10.509099943998017
      ],
      [
        "Ġlehc",
        -10.509370649225069
      ],
      [
        "ĠnaÅ¡el",
        -10.51013501542364
      ],
      [
        "Ġslib",
        -10.510236114657486
      ],
      [
        "ĠumÄĽnÃŃ",
        -10.51080236923561
      ],
      [
        "ĠmÃ¡te",
        -10.510966803236869
      ],
      [
        "ĠzÅĻÃŃt",
        -10.511066380840292
      ],
      [
        "ĠhÃ¡j",
        -10.511829443287606
      ],
      [
        "ovÃ¡",
        -10.511948355729203
      ],
      [
        "ĠÅ¾enou",
        -10.512032819304743
      ],
      [
        "ĠlkÃ¡",
        -10.512903616937383
      ],
      [
        "lÃŃ",
        -10.513591424720946
      ],
      [
        "Ġpoznal",
        -10.514151278076003
      ],
      [
        "ĠzÃ¡voj",
        -10.514636865616334
      ],
      [
        "Ġlidsk",
        -10.51486163537816
      ],
      [
        "ĠsplÃ½vÃ¡",
        -10.514891871168528
      ],
      [
        "Ġtmou",
        -10.515463250688878
      ],
      [
        "ĠtÃ¡h",
        -10.515831218403662
      ],
      [
        "ĠÄĮas",
        -10.51599758660632
      ],
      [
        "ĠÅĻÃŃm",
        -10.51672903246809
      ],
      [
        "Ġmrtvol",
        -10.517550747889334
      ],
      [
        "ĠptÃ¡",
        -10.517675005190155
      ],
      [
        "½",
        -10.517701904009995
      ],
      [
        "Ġbyt",
        -10.518177363471505
      ],
      [
        "yly",
        -10.518553326244952
      ],
      [
        "ĠjasnÄĽ",
        -10.519216932137478
      ],
      [
        "Ġstarou",
        -10.519842892985913
      ],
      [
        "Ã¡ji",
        -10.51998168481924
      ],
      [
        "Ġmluv",
        -10.520965700325942
      ],
      [
        "Ġjev",
        -10.521038670738346
      ],
      [
        "Å¡ÃŃ",
        -10.521049773210844
      ],
      [
        "ĠvÄĽtru",
        -10.521683041436221
      ],
      [
        "ĠsamÃ©",
        -10.524005079600771
      ],
      [
        "ĠnÃ¡ruÄįÃŃ",
        -10.524101145254217
      ],
      [
        "atÄĽ",
        -10.52435246925638
      ],
      [
        "ĠKristu",
        -10.524989967269356
      ],
      [
        "Ġmost",
        -10.526064898413672
      ],
      [
        "ĠpÄĽknÄĽ",
        -10.526091700020991
      ],
      [
        "ÃŃÅĻe",
        -10.52614916631352
      ],
      [
        "Ġkryje",
        -10.526303225394635
      ],
      [
        "Ġhroby",
        -10.526747270163678
      ],
      [
        "Ġmiloval",
        -10.526846089130231
      ],
      [
        "ĠbohÅ¯",
        -10.527214496546643
      ],
      [
        "Ġtemn",
        -10.527232895351116
      ],
      [
        "ĠtajÃŃ",
        -10.527473131970483
      ],
      [
        "ĠbÃŃt",
        -10.527566541821272
      ],
      [
        "ĠpojÄı",
        -10.527625520254876
      ],
      [
        "Ġmluvit",
        -10.529338638625628
      ],
      [
        "Ġskoro",
        -10.52964867673371
      ],
      [
        "ĠmuÅ¾Å¯",
        -10.53005199160064
      ],
      [
        "ĠnÄĽmÃ½",
        -10.530440688464296
      ],
      [
        "ĠhalÃŃ",
        -10.530779457556456
      ],
      [
        "ĠKaÅ¾dÃ½",
        -10.530854661758895
      ],
      [
        "Å¡ly",
        -10.531526658793045
      ],
      [
        "pr",
        -10.531548618063727
      ],
      [
        "ĠÅĻev",
        -10.533395652487918
      ],
      [
        "Ġnebem",
        -10.533811820114723
      ],
      [
        "ĠÄįasÅ¯",
        -10.534912153049467
      ],
      [
        "Ã¡hy",
        -10.536355180721444
      ],
      [
        "udÃ©",
        -10.537307086888356
      ],
      [
        "ĠlÃŃcÃŃ",
        -10.537392791175492
      ],
      [
        "ĠtÃŃÅ¾ÃŃ",
        -10.537715954186435
      ],
      [
        "Ġvelmi",
        -10.53777695638589
      ],
      [
        "ĠprosÃŃm",
        -10.537987423910364
      ],
      [
        "Ġboha",
        -10.5400401989455
      ],
      [
        "aru",
        -10.54014597138961
      ],
      [
        "Ġprudce",
        -10.541369497251917
      ],
      [
        "ĠseÅĪ",
        -10.542075465427278
      ],
      [
        "ĠvolnÄĽ",
        -10.542426706785715
      ],
      [
        "Ġstolu",
        -10.542915774837134
      ],
      [
        "ytu",
        -10.544018597532371
      ],
      [
        "Ġlesem",
        -10.54449262673469
      ],
      [
        "ĠptaÄįÃŃ",
        -10.545213411127184
      ],
      [
        "ĠstaÄįÃŃ",
        -10.545755478885003
      ],
      [
        "AAAB",
        -10.545769156957816
      ],
      [
        "ĠhnÃŃzd",
        -10.547060814717366
      ],
      [
        "ĠnuÅ¾",
        -10.547109553156893
      ],
      [
        "ĠvlasÅ¯",
        -10.547633346143016
      ],
      [
        "Ġhudb",
        -10.54781096352791
      ],
      [
        "Ġmilosti",
        -10.547860827652682
      ],
      [
        "ĠstÅĻel",
        -10.548344090392789
      ],
      [
        "ĠvelkÃ½m",
        -10.548586725570733
      ],
      [
        "ĠvrÃ¡tÃŃ",
        -10.549609802764568
      ],
      [
        "Ġkrb",
        -10.54990077745121
      ],
      [
        "Ġcel",
        -10.550302415163392
      ],
      [
        "ĠpÅĻedu",
        -10.551166440588174
      ],
      [
        "ĠchladnÃ©",
        -10.551854164868644
      ],
      [
        "ĠpÃ¡lÃŃ",
        -10.552883997301269
      ],
      [
        "Ġpoesi",
        -10.553202074703862
      ],
      [
        "alÃ¡",
        -10.553331769457014
      ],
      [
        "ĠuhÃ½",
        -10.553927657776931
      ],
      [
        "ĠduchÅ¯",
        -10.55436554078036
      ],
      [
        "Ġvane",
        -10.554827110959163
      ],
      [
        "Ġsoucit",
        -10.555970006057969
      ],
      [
        "nost",
        -10.556041456905652
      ],
      [
        "Ġvolal",
        -10.556422962287158
      ],
      [
        "Ġprosb",
        -10.5579310297134
      ],
      [
        "Ġkrvi",
        -10.558190739231279
      ],
      [
        "ĠVÃ¡clav",
        -10.558984811289243
      ],
      [
        "ĠpÄĽv",
        -10.559644204254546
      ],
      [
        "ĠbolÃŃ",
        -10.559959320921564
      ],
      [
        "ĠdÄĽvÄįe",
        -10.560055387552467
      ],
      [
        "ĠprÃ¡vo",
        -10.560213810253423
      ],
      [
        "Ġleh",
        -10.560444071396198
      ],
      [
        "ĠpravÃ©",
        -10.561107138594078
      ],
      [
        "ĠmlÄįÃŃ",
        -10.561253731729426
      ],
      [
        "ĠinÃ½",
        -10.561266311334965
      ],
      [
        "Ġmatku",
        -10.562682910050693
      ],
      [
        "ĠvÄĽnce",
        -10.562701153816894
      ],
      [
        "Ã¡sÃ¡",
        -10.562755110530313
      ],
      [
        "Ġnoha",
        -10.562871651266128
      ],
      [
        "Ġrys",
        -10.563551126155955
      ],
      [
        "Ġsnah",
        -10.56368646767686
      ],
      [
        "ĠvÃ¡l",
        -10.563702141462496
      ],
      [
        "ĠpohÃ¡dk",
        -10.563903170917625
      ],
      [
        "Ã©tÃ¡",
        -10.564285652948278
      ],
      [
        "ĠÅ¡edÃ©",
        -10.56509200776425
      ],
      [
        "Ġprahu",
        -10.565206111574604
      ],
      [
        "Ġdaleko",
        -10.566019581960626
      ],
      [
        "ĠvÄįel",
        -10.566559594049853
      ],
      [
        "Ġjestli",
        -10.566585056135985
      ],
      [
        "ĠjinÃŃ",
        -10.566852145748214
      ],
      [
        "ĠDuch",
        -10.566871232705065
      ],
      [
        "ĠnÄĽkde",
        -10.567076091966872
      ],
      [
        "ĠkÅĻÃŃÅ¾e",
        -10.56780002691022
      ],
      [
        "ĠsluÅ¾b",
        -10.56811413416283
      ],
      [
        "ĠÃºdolÃŃ",
        -10.56869086666986
      ],
      [
        "ĠÃºd",
        -10.568739003912949
      ],
      [
        "ÃŃlu",
        -10.5691822460751
      ],
      [
        "ĠveÄįera",
        -10.56934070706885
      ],
      [
        "ĠvÄĽtve",
        -10.569543982209206
      ],
      [
        "ĠdÄĽdin",
        -10.569900141687594
      ],
      [
        "tr",
        -10.571019665361616
      ],
      [
        "Ġjindy",
        -10.571142051996258
      ],
      [
        "ĠnadÄĽjÃŃ",
        -10.571406115635163
      ],
      [
        "Ġjezer",
        -10.57143661322796
      ],
      [
        "Ġvine",
        -10.571922212354014
      ],
      [
        "Ġpadne",
        -10.572373260591124
      ],
      [
        "ĠstÃ¡ÅĻÃŃ",
        -10.572573384259776
      ],
      [
        "ĠdlanÄĽ",
        -10.572793131955377
      ],
      [
        "ĠmlÃ½n",
        -10.57302969316459
      ],
      [
        "dÃ¡ti",
        -10.573274399253723
      ],
      [
        "ĠkaÅ¾dÃ½m",
        -10.574002576737723
      ],
      [
        "XABA",
        -10.57419747962198
      ],
      [
        "ĠmÄĽj",
        -10.574570549988458
      ],
      [
        "ĠvelkÃ½ch",
        -10.576171139289976
      ],
      [
        "ĠtajemstvÃŃ",
        -10.57642460298744
      ],
      [
        "ĠzvÄĽst",
        -10.57661038499461
      ],
      [
        "Ġvolnost",
        -10.57677753716489
      ],
      [
        "Ġlidi",
        -10.577457322417828
      ],
      [
        "ynÄĽ",
        -10.578432353854733
      ],
      [
        "ĠubÃŃ",
        -10.578571959268434
      ],
      [
        "ĠjÃ¡sot",
        -10.57879308067942
      ],
      [
        "Å¯ru",
        -10.580547860340566
      ],
      [
        "ĠÅĺÃŃm",
        -10.580953346704277
      ],
      [
        "ĠchladnÃ½",
        -10.581844391320228
      ],
      [
        "ĠrÃ½m",
        -10.582484263485048
      ],
      [
        "ĠhnÄĽvu",
        -10.582572098893614
      ],
      [
        "hr",
        -10.583119137832206
      ],
      [
        "Ã©st",
        -10.583845993638734
      ],
      [
        "ÄĽru",
        -10.5838537663976
      ],
      [
        "Ġdlouhou",
        -10.583897153824466
      ],
      [
        "ĠvÅ¡ady",
        -10.584089501219799
      ],
      [
        "ĠÅ¡kol",
        -10.584922124205391
      ],
      [
        "ĠnepÅĻÃ¡tel",
        -10.586090386739034
      ],
      [
        "Ġpouti",
        -10.586254213045672
      ],
      [
        "ahÃ½",
        -10.586518370281489
      ],
      [
        "ĠprÃ¡va",
        -10.586826021395314
      ],
      [
        "ĠrÅ¯Å¾i",
        -10.58717551300265
      ],
      [
        "ijÃŃ",
        -10.587393097770718
      ],
      [
        "Ġdobu",
        -10.587884038271216
      ],
      [
        "ĠAno",
        -10.588409407553403
      ],
      [
        "eÅĻe",
        -10.58866697899274
      ],
      [
        "ĠcÃŃle",
        -10.589731528215111
      ],
      [
        "Ġbarev",
        -10.5908630674456
      ],
      [
        "ĠkvÄĽtin",
        -10.591093475131077
      ],
      [
        "ĠpracÃŃ",
        -10.591880983662778
      ],
      [
        "ikÃ¡",
        -10.592010161435155
      ],
      [
        "ivy",
        -10.592232797767899
      ],
      [
        "ivÃŃ",
        -10.59258965149545
      ],
      [
        "ĠmocnÄĽ",
        -10.5928064178113
      ],
      [
        "Ġnemoc",
        -10.592914932048494
      ],
      [
        "Ġkouzlo",
        -10.592930489806761
      ],
      [
        "ru",
        -10.593148955484274
      ],
      [
        "nosti",
        -10.593350873257975
      ],
      [
        "ĠoÄįima",
        -10.59338796619558
      ],
      [
        "iÄįÃŃ",
        -10.594493985716687
      ],
      [
        "ĠdÄĽd",
        -10.594591073538545
      ],
      [
        "ĠkoÅĻen",
        -10.594766058899955
      ],
      [
        "Ġnesou",
        -10.595256132308789
      ],
      [
        "ĠradÄĽj",
        -10.59570092434252
      ],
      [
        "AXXA",
        -10.596710657360418
      ],
      [
        "ĠsvÃŃrÃ¡",
        -10.596898807421812
      ],
      [
        "Ġnemoh",
        -10.597528281103349
      ],
      [
        "ĠÅĻÃŃtÃŃ",
        -10.597754502273213
      ],
      [
        "Ġhrozn",
        -10.598329009449834
      ],
      [
        "ĠdeÅ¡tÄĽ",
        -10.598480086907934
      ],
      [
        "ĠP",
        -10.598971020541612
      ],
      [
        "ĠÅ¡em",
        -10.599092291621066
      ],
      [
        "Ġproudy",
        -10.599177986738757
      ],
      [
        "ĠlÃŃn",
        -10.599884333557736
      ],
      [
        "Ġleb",
        -10.60050223268884
      ],
      [
        "ĠvÄĽnec",
        -10.600860252134918
      ],
      [
        "Ã¡dy",
        -10.60170234625088
      ],
      [
        "Ġlamp",
        -10.602152663252527
      ],
      [
        "Ġtichou",
        -10.602802873027763
      ],
      [
        "Ġrci",
        -10.603099149087504
      ],
      [
        "ĠdÃ¡n",
        -10.60318233647537
      ],
      [
        "ĠrodnÃ©",
        -10.603698153075277
      ],
      [
        "ĠÅ¡eru",
        -10.60430256945573
      ],
      [
        "Ġmatko",
        -10.605254688450604
      ],
      [
        "Ġotci",
        -10.605524558561932
      ],
      [
        "nÄĽjÅ¡ÃŃ",
        -10.605594388017366
      ],
      [
        "ĠChci",
        -10.605675520712854
      ],
      [
        "snÃ½",
        -10.606104641219588
      ],
      [
        "Ġhnal",
        -10.606221298071594
      ],
      [
        "ĠkÅĻÃŃdel",
        -10.606421592332605
      ],
      [
        "Ġkostel",
        -10.606989887783929
      ],
      [
        "Ġztratil",
        -10.607013566060063
      ],
      [
        "ĠobliÄįej",
        -10.607462166316385
      ],
      [
        "Ġlodi",
        -10.60800038070106
      ],
      [
        "ĠsnÄĽh",
        -10.60828355780077
      ],
      [
        "Ġoma",
        -10.609035217384116
      ],
      [
        "vÅ¯r",
        -10.610134296424587
      ],
      [
        "rnÃ¡",
        -10.610333258336858
      ],
      [
        "dnem",
        -10.610362386042496
      ],
      [
        "ĠNu",
        -10.610591605186137
      ],
      [
        "ÃŃlÃ©",
        -10.610940307268631
      ],
      [
        "ĠstÅĻedu",
        -10.612572855510031
      ],
      [
        "ĠskrÃ½vÃ¡",
        -10.612612580154398
      ],
      [
        "ÃŃjÃŃ",
        -10.612896397801372
      ],
      [
        "Ġramen",
        -10.613886552118458
      ],
      [
        "ĠÅ¾it",
        -10.61421120733533
      ],
      [
        "ĠrodÃŃ",
        -10.614313661498954
      ],
      [
        "Ġkles",
        -10.615098030977265
      ],
      [
        "ĠToÅ¾",
        -10.616216632707236
      ],
      [
        "ĠprÃ¡zdn",
        -10.616255469157938
      ],
      [
        "Ġomy",
        -10.616917455009261
      ],
      [
        "ĠdlouhÃ¡",
        -10.617441637531861
      ],
      [
        "ĠzpÄĽvu",
        -10.61761236418982
      ],
      [
        "ĠchlÃ©b",
        -10.618494213541506
      ],
      [
        "ĠvonnÃ½",
        -10.618777777473902
      ],
      [
        "ĠMne",
        -10.619404502347852
      ],
      [
        "ĠotÄįe",
        -10.620184433113465
      ],
      [
        "ĠchudÃ½",
        -10.6202736161547
      ],
      [
        "ĠslavÃŃk",
        -10.62062728756516
      ],
      [
        "Ġalu",
        -10.620859498566329
      ],
      [
        "ĠjemnÄĽ",
        -10.620983811430584
      ],
      [
        "ĠpoutnÃŃk",
        -10.621053396848465
      ],
      [
        "Ġnedo",
        -10.62202017109808
      ],
      [
        "Ġjat",
        -10.622146875855167
      ],
      [
        "ÃŃdÃ¡",
        -10.62219529344497
      ],
      [
        "ĠkeÅĻ",
        -10.622720910895893
      ],
      [
        "Ġslo",
        -10.624007033692706
      ],
      [
        "Ġbytost",
        -10.624564330144612
      ],
      [
        "ĠptÃ¡kÅ¯",
        -10.625217100551588
      ],
      [
        "iky",
        -10.625342073518869
      ],
      [
        "Ġbudem",
        -10.625597099097305
      ],
      [
        "ĠposlÃ©z",
        -10.627444604087785
      ],
      [
        "ĠnadÄĽj",
        -10.627518466043654
      ],
      [
        "ĠlÃŃÅ¾",
        -10.62765277316393
      ],
      [
        "ĠÃºzkost",
        -10.628078374234025
      ],
      [
        "ĠnÄĽÅ¾",
        -10.628432618560733
      ],
      [
        "?...",
        -10.628935978752246
      ],
      [
        "ÅĻi",
        -10.628938815504938
      ],
      [
        "prostÅĻed",
        -10.628980470369552
      ],
      [
        "ĠpÅ¯lnoc",
        -10.629536243306067
      ],
      [
        "ĠvÄĽdÄĽl",
        -10.62970951311858
      ],
      [
        "ĠSmrt",
        -10.630158882042558
      ],
      [
        "ĠÄįnÄĽ",
        -10.630178739044041
      ],
      [
        "tÃŃ",
        -10.630299625779113
      ],
      [
        "Ġjakoby",
        -10.630428049074844
      ],
      [
        "Ġskryt",
        -10.630475187751973
      ],
      [
        "ĠKare",
        -10.630876392206169
      ],
      [
        "Ġpomal",
        -10.63117751102875
      ],
      [
        "Ġrov",
        -10.63135113786201
      ],
      [
        "ĠPrah",
        -10.633500856287469
      ],
      [
        "ĠmÃ¡j",
        -10.635571075080467
      ],
      [
        "ĠvÃ¡Å¾nÄĽ",
        -10.636478375148801
      ],
      [
        "ĠÅ¾Ã¡dn",
        -10.637343986992029
      ],
      [
        "Ġnebude",
        -10.637928361840554
      ],
      [
        "touze",
        -10.638070099141633
      ],
      [
        "ĠKrista",
        -10.638127169212117
      ],
      [
        "AXBCC",
        -10.638161004731373
      ],
      [
        "Ġjinoch",
        -10.638421672802348
      ],
      [
        "etÃ¡",
        -10.63857772078958
      ],
      [
        "ĠstÃ¡ti",
        -10.63872014273916
      ],
      [
        "ĠvelikÃ©",
        -10.640086411751575
      ],
      [
        "ĠtrÅ¯nu",
        -10.640163168713357
      ],
      [
        "ĠkÃ½vÃ¡",
        -10.640284377770833
      ],
      [
        "ĠsÃŃÅĪ",
        -10.641556109813909
      ],
      [
        "Ġznak",
        -10.64335345278246
      ],
      [
        "ĠSem",
        -10.643446114030224
      ],
      [
        "Ġkrajem",
        -10.644287439526778
      ],
      [
        "ĠslavnÄĽ",
        -10.644402830959859
      ],
      [
        "kÅ¯m",
        -10.644798498375314
      ],
      [
        "Ġpark",
        -10.644886200699359
      ],
      [
        "Ã¡Äįi",
        -10.64554008398061
      ],
      [
        "ĠchudÃ©",
        -10.645648355098674
      ],
      [
        "ĠÄįemu",
        -10.64579558498324
      ],
      [
        "akÅ¯",
        -10.64629289910621
      ],
      [
        "ĠuÅĻÃŃ",
        -10.64632952190572
      ],
      [
        "ĠobÄĽÅ¥",
        -10.646524910964729
      ],
      [
        "ĠznÃ¡t",
        -10.64665051616663
      ],
      [
        "ĠhrÃ¡t",
        -10.646685241647234
      ],
      [
        "ĠchovÃ¡",
        -10.648567641054754
      ],
      [
        "ĠdÃ½chÃ¡",
        -10.648754736840022
      ],
      [
        "ĠvÄĽku",
        -10.64924734535954
      ],
      [
        "Ġlit",
        -10.649250483685675
      ],
      [
        "ĠpÃ¡s",
        -10.649420439893074
      ],
      [
        "ĠonÃ©",
        -10.650154121318938
      ],
      [
        "Ġtko",
        -10.650211941104445
      ],
      [
        "Ġkomu",
        -10.651745661351516
      ],
      [
        "Ġmilost",
        -10.652110938693873
      ],
      [
        "Ġklesl",
        -10.652152425520502
      ],
      [
        "ĠÅ¡ero",
        -10.652400155223475
      ],
      [
        "ĠprostÅĻed",
        -10.652445066547113
      ],
      [
        "ĠdivÃ©",
        -10.652648167064742
      ],
      [
        "ĠneznÃ¡m",
        -10.653168734097186
      ],
      [
        "ĠKu",
        -10.653336863021469
      ],
      [
        "ÄĽnÃ½",
        -10.65335834792596
      ],
      [
        "Ġpel",
        -10.653599282239181
      ],
      [
        "Ã¡ru",
        -10.654827907344266
      ],
      [
        "Ġtrud",
        -10.6551776604496
      ],
      [
        "ĠnemÅ¯Å¾e",
        -10.655331668278386
      ],
      [
        "ĠhrÅ¯zy",
        -10.655903025172623
      ],
      [
        "eÅĪ",
        -10.656524016713217
      ],
      [
        "Ġmnich",
        -10.656638363370618
      ],
      [
        "Ġzdroj",
        -10.656761353637917
      ],
      [
        "ĠÅ¾hav",
        -10.657330458291566
      ],
      [
        "ÃŃho",
        -10.65737277021973
      ],
      [
        "Ġoda",
        -10.658101957331866
      ],
      [
        "ĠdennÃŃ",
        -10.658283689919038
      ],
      [
        "Ġkouzl",
        -10.6586047874544
      ],
      [
        "ĠvstÃ¡vÃ¡",
        -10.658872850659012
      ],
      [
        "ĠbloudÃŃ",
        -10.659722278087639
      ],
      [
        "ĠSvÃ©",
        -10.660477274613541
      ],
      [
        "sti",
        -10.660567326089353
      ],
      [
        "Ġlal",
        -10.660926956440917
      ],
      [
        "ĠtÄĽlem",
        -10.661326172768064
      ],
      [
        "ĠpoÅ¾Ã¡r",
        -10.661779452871741
      ],
      [
        "Ġnechal",
        -10.662204094392747
      ],
      [
        "Ġjist",
        -10.662613295285736
      ],
      [
        "Å¡i",
        -10.662984328808998
      ],
      [
        "ĠsmÄĽs",
        -10.663373369124095
      ],
      [
        "Ġtit",
        -10.663687758481553
      ],
      [
        "ynÃŃ",
        -10.663692387701538
      ],
      [
        "ĠletnÃŃ",
        -10.664026284245917
      ],
      [
        "Ġpopel",
        -10.66423542815766
      ],
      [
        "Ġuha",
        -10.664684094671417
      ],
      [
        "ĠspÃŃcÃŃ",
        -10.664851076588725
      ],
      [
        "ĠPÅĻes",
        -10.665238148296066
      ],
      [
        "ĠloÅ¾i",
        -10.665424832032631
      ],
      [
        "ĠrtÃŃ",
        -10.665818322351605
      ],
      [
        "Ġuji",
        -10.667826000963423
      ],
      [
        "ĠzrakÅ¯",
        -10.667982354073196
      ],
      [
        "Ġprs",
        -10.668282398338317
      ],
      [
        "ĠzapomnÄĽl",
        -10.668384963653251
      ],
      [
        "ĠnemÃ¡m",
        -10.668568865181854
      ],
      [
        "Ġzbyl",
        -10.66883597092508
      ],
      [
        "Ġhlubok",
        -10.669010029812334
      ],
      [
        "bec",
        -10.669470373784929
      ],
      [
        "ovou",
        -10.669894288443238
      ],
      [
        "ĠmrakÅ¯",
        -10.669971471602569
      ],
      [
        "ĠJenom",
        -10.670134627574267
      ],
      [
        "ĠslzÃŃ",
        -10.670424588055962
      ],
      [
        "Ġpomoci",
        -10.671088262667407
      ],
      [
        "ĠÅĻeka",
        -10.671198130299
      ],
      [
        "Ġovo",
        -10.671415226603338
      ],
      [
        "ĠplÃ¡nÃŃ",
        -10.672553027512578
      ],
      [
        "ĠhrÃ¡",
        -10.67260595387054
      ],
      [
        "Ġkams",
        -10.672688480092262
      ],
      [
        "Ġklade",
        -10.673164315716484
      ],
      [
        "Ġoce",
        -10.673295977308001
      ],
      [
        "Ġzima",
        -10.673899696746343
      ],
      [
        "ĠAni",
        -10.674305785603076
      ],
      [
        "or",
        -10.674424308921584
      ],
      [
        "ĠdobrÃ¡",
        -10.674475263535491
      ],
      [
        "ĠhÃ¡je",
        -10.674851519742438
      ],
      [
        "ĠÃ¡ry",
        -10.675089734972646
      ],
      [
        "ĠvroucnÄĽ",
        -10.675292965914668
      ],
      [
        "ĠlnÄĽ",
        -10.675565959032719
      ],
      [
        "ĠspÄĽl",
        -10.675946356797755
      ],
      [
        "ĠvÅ¡ickni",
        -10.676010052403342
      ],
      [
        "Ġtrest",
        -10.676344492414906
      ],
      [
        "itÃ©",
        -10.676912460439919
      ],
      [
        "ĠvznÃ¡Å¡ÃŃ",
        -10.678353994055714
      ],
      [
        "stvÃŃ",
        -10.678377193829013
      ],
      [
        "nutÃŃ",
        -10.67840709315923
      ],
      [
        "Ġdokud",
        -10.679450590801405
      ],
      [
        "kÃ½",
        -10.679555514224628
      ],
      [
        "Ġnach",
        -10.679735665911299
      ],
      [
        "Ġjeli",
        -10.679859150836482
      ],
      [
        "ĠsmrtÃŃ",
        -10.680335102397326
      ],
      [
        "Ġvtip",
        -10.680611766879885
      ],
      [
        "Ġjitro",
        -10.680793938441209
      ],
      [
        "ÅĻÃŃÅ¾",
        -10.680830605727536
      ],
      [
        "ĠkrÃ¡tkÃ½",
        -10.681086317517696
      ],
      [
        "ĠjakÃ½s",
        -10.681246255368265
      ],
      [
        "Ġdrahou",
        -10.681774397480371
      ],
      [
        "Ã¡ce",
        -10.682086574809517
      ],
      [
        "ĠpohÃ¡r",
        -10.68261627420113
      ],
      [
        "ĠtvoÅĻÃŃ",
        -10.682752019333975
      ],
      [
        "ĠlaÅĪ",
        -10.683913377317015
      ],
      [
        "ĠKdyby",
        -10.684394678601885
      ],
      [
        "Ġkmen",
        -10.684452271095733
      ],
      [
        "Ġsloup",
        -10.684611716475093
      ],
      [
        "Ġbudi",
        -10.685046541452866
      ],
      [
        "ĠÅ¡kod",
        -10.685873293111316
      ],
      [
        "ĠlÃŃbal",
        -10.686451501271689
      ],
      [
        "ĠdÄĽjin",
        -10.68667162666073
      ],
      [
        "ĠHoj",
        -10.687610723802372
      ],
      [
        "jednou",
        -10.688067855777195
      ],
      [
        "ĠpoÅ¾ehnÃ¡nÃŃ",
        -10.688113155290853
      ],
      [
        "ĠtÄĽÅ¾kÃ¡",
        -10.688167357131842
      ],
      [
        "ĠdÄĽj",
        -10.688719991457907
      ],
      [
        "ĠpoÄįal",
        -10.688725857285963
      ],
      [
        "ĠkrÃ¡sou",
        -10.688940100552486
      ],
      [
        "ĠmÃŃstÄĽ",
        -10.68955670332858
      ],
      [
        "ĠstaÅĻec",
        -10.689793325065667
      ],
      [
        "ĠtuÅ¡ÃŃ",
        -10.690004952718477
      ],
      [
        "nko",
        -10.690471722918282
      ],
      [
        "ĠY",
        -10.690643584874564
      ],
      [
        "Ġmohla",
        -10.691131441250842
      ],
      [
        "dky",
        -10.692104383259622
      ],
      [
        "ĠskÃ¡le",
        -10.692304265815453
      ],
      [
        "ĠstoupÃ¡",
        -10.69298826989959
      ],
      [
        "Ġono",
        -10.693465890507692
      ],
      [
        "Ġzvolal",
        -10.69455341011231
      ],
      [
        "ĠtÅĻe",
        -10.695288999526305
      ],
      [
        "ĠmoÅĻem",
        -10.695601579377822
      ],
      [
        "Ġrodin",
        -10.695954893022574
      ],
      [
        "ĠleÅ¾el",
        -10.696043874394121
      ],
      [
        "ĠÄįert",
        -10.696231794208032
      ],
      [
        "Ġudi",
        -10.696246247800982
      ],
      [
        "ĠdvÃ©ÅĻe",
        -10.696881408024307
      ],
      [
        "ĠonÄĽ",
        -10.697073172790773
      ],
      [
        "Ġmilou",
        -10.697287533031396
      ],
      [
        "ĠsamÃ½",
        -10.69744596653906
      ],
      [
        "ĠvÄĽÅ¾ÃŃ",
        -10.698481370752269
      ],
      [
        "Ġpar",
        -10.698498678292761
      ],
      [
        "ĠProto",
        -10.698868887517381
      ],
      [
        "ĠpÅ¯d",
        -10.70007022674051
      ],
      [
        "alÃ©",
        -10.70028168481158
      ],
      [
        "manÄĽ",
        -10.700701185752399
      ],
      [
        "Ġkvete",
        -10.700863384763332
      ],
      [
        "Ġtlum",
        -10.700948100081732
      ],
      [
        "ĠhroznÃ½",
        -10.701523568438311
      ],
      [
        "ĠchvÄĽla",
        -10.702299826607913
      ],
      [
        "Ġplyne",
        -10.70292859838472
      ],
      [
        "ĠmladÃ½ch",
        -10.703284541973176
      ],
      [
        "Ġmile",
        -10.703454798843456
      ],
      [
        "ĠKÃ©Å¾",
        -10.704229195359726
      ],
      [
        "Ġhrot",
        -10.704570673541951
      ],
      [
        "ĠbÃ¡l",
        -10.704867096573984
      ],
      [
        "ĠvesmÃŃr",
        -10.704901587299332
      ],
      [
        "Ġspal",
        -10.705266694235405
      ],
      [
        "ĠruÄįk",
        -10.705718949357415
      ],
      [
        "Ã¡Å¡ÃŃ",
        -10.705953063694128
      ],
      [
        "ĠzlatÃ½m",
        -10.707643711034521
      ],
      [
        "yli",
        -10.708762165930043
      ],
      [
        "ĠdrÅ¾ÃŃ",
        -10.709160825285728
      ],
      [
        "ĠkrÅ¯pÄĽj",
        -10.709285797480842
      ],
      [
        "Ġrosy",
        -10.709970093433157
      ],
      [
        "ĠsvÄĽtlem",
        -10.710181351938598
      ],
      [
        "Ġskok",
        -10.710242713641795
      ],
      [
        "ĠvÃŃtÄĽzstvÃŃ",
        -10.710828829975277
      ],
      [
        "Ġpne",
        -10.711048064631502
      ],
      [
        "ĠchvÃŃlÃŃ",
        -10.711225545016124
      ],
      [
        "Ġbod",
        -10.711265867908008
      ],
      [
        "Ġvrchol",
        -10.711314193865789
      ],
      [
        "ĠjinÃ½m",
        -10.711444480492897
      ],
      [
        "hce",
        -10.711758218564128
      ],
      [
        "esÃ¡",
        -10.71177930433953
      ],
      [
        "Äı",
        -10.711964048734838
      ],
      [
        "ĠÅĻetÄĽz",
        -10.712274712253826
      ],
      [
        "ĠplÃ¡Å¡Å¥",
        -10.71278039643348
      ],
      [
        "Ġsed",
        -10.712966510506622
      ],
      [
        "Ã¡Å¡Å¥",
        -10.713125757001379
      ],
      [
        "ĠkterÃ½m",
        -10.713286800839889
      ],
      [
        "ĠMuÅ¾",
        -10.713590606367013
      ],
      [
        "Ġposled",
        -10.714038484461923
      ],
      [
        "Ġnejsem",
        -10.714060890428668
      ],
      [
        "ĠstrÃ¡nÃŃ",
        -10.714097593146793
      ],
      [
        "ĠhnutÃŃ",
        -10.714881046525592
      ],
      [
        "ĠcelÃ©m",
        -10.714936409636358
      ],
      [
        "rav",
        -10.715027353569727
      ],
      [
        "edl",
        -10.715098009778965
      ],
      [
        "Ġtehdy",
        -10.715132558802573
      ],
      [
        "ĠkrÃ¡snou",
        -10.71533631289186
      ],
      [
        "ĠhÃ¡v",
        -10.715902760935744
      ],
      [
        "ĠvÅ¡ednÃŃ",
        -10.716903672652174
      ],
      [
        "ĠTakto",
        -10.71695645020333
      ],
      [
        "ĠsvÃŃtil",
        -10.71733604077006
      ],
      [
        "ĠnejvÃŃc",
        -10.717772849522255
      ],
      [
        "ÄĽky",
        -10.717919157992231
      ],
      [
        "Ġsne",
        -10.718553586455066
      ],
      [
        "ĠÄįernou",
        -10.718664220130806
      ],
      [
        "Ġkruhu",
        -10.718696476916652
      ],
      [
        "Ġzved",
        -10.718728708514604
      ],
      [
        "ABCA",
        -10.718836961592315
      ],
      [
        "ĠÅ¾ivÃ©",
        -10.71897140121414
      ],
      [
        "Ġtvar",
        -10.719536033048051
      ],
      [
        "ĠtÃ¡hnou",
        -10.719645203206298
      ],
      [
        "ĠChtÄĽl",
        -10.721122021173667
      ],
      [
        "ĠÅ¾havÃ©",
        -10.721172851069866
      ],
      [
        "ĠprostÃ©",
        -10.721273857839915
      ],
      [
        "Ġnitro",
        -10.72176268600695
      ],
      [
        "Ġvan",
        -10.723495142567828
      ],
      [
        "ĠpamÄĽti",
        -10.724230389463372
      ],
      [
        "Ġrat",
        -10.724419432301222
      ],
      [
        "ĠvÄĽrnÄĽ",
        -10.724691196732266
      ],
      [
        "ĠhnÃŃzdo",
        -10.724733323243914
      ],
      [
        "Ġbohu",
        -10.724772850481978
      ],
      [
        "ĠspatÅĻil",
        -10.72529587288923
      ],
      [
        "ĠzlÃ¡",
        -10.725829583739731
      ],
      [
        "ĠsÃŃnÄĽ",
        -10.726074519870943
      ],
      [
        "dr",
        -10.726964981338522
      ],
      [
        "ĠEj",
        -10.72800132990018
      ],
      [
        "Ġpadla",
        -10.72824467731655
      ],
      [
        "ĠÄįase",
        -10.728398580184914
      ],
      [
        "ĠnosÃŃ",
        -10.728751048426426
      ],
      [
        "letu",
        -10.729636727249392
      ],
      [
        "ĠblÃŃzko",
        -10.729657454826278
      ],
      [
        "ĠskrÃ¡nÄĽ",
        -10.730423231549814
      ],
      [
        "tÅ¡ÃŃ",
        -10.731310073722485
      ],
      [
        "ĠÄįÃŃÅ¡e",
        -10.731718078276405
      ],
      [
        "AABA",
        -10.732095118962821
      ],
      [
        "ysi",
        -10.732330692866883
      ],
      [
        "Ġvin",
        -10.73267891916767
      ],
      [
        "Ġvnad",
        -10.732809279263073
      ],
      [
        "Ġchodil",
        -10.732846242182031
      ],
      [
        "Ġdli",
        -10.733842331173374
      ],
      [
        "Ġperly",
        -10.734192671964944
      ],
      [
        "Ġlebk",
        -10.734595566819817
      ],
      [
        "ĠstÄĽn",
        -10.734615720008685
      ],
      [
        "ĠbÃŃdu",
        -10.735200012917197
      ],
      [
        "ĠplnÃ¡",
        -10.735295070437708
      ],
      [
        "vÃŃra",
        -10.735473339608445
      ],
      [
        "ĠdÄĽla",
        -10.735490781549215
      ],
      [
        "ĠvÃ¡n",
        -10.736089061060605
      ],
      [
        "nÃŃci",
        -10.737350845949013
      ],
      [
        "ÄĽhu",
        -10.737365462331779
      ],
      [
        "Ġsever",
        -10.737425794248447
      ],
      [
        "Ġzlob",
        -10.73743714257257
      ],
      [
        "ĠpustÃ½",
        -10.73793275253869
      ],
      [
        "ĠvidÃŃÅ¡",
        -10.737940547064476
      ],
      [
        "Ġvot",
        -10.738864335803022
      ],
      [
        "ĠkÅ¯ÅĪ",
        -10.739895094675603
      ],
      [
        "Ġtrav",
        -10.74020078243866
      ],
      [
        "ĠÅ¡lo",
        -10.740878778745845
      ],
      [
        "Ġmor",
        -10.741037182405144
      ],
      [
        "ÄįnÃ¡",
        -10.741790944931267
      ],
      [
        "Ġpluh",
        -10.742417624866338
      ],
      [
        "ĠJsme",
        -10.74276365955783
      ],
      [
        "ĠmlÃ¡d",
        -10.742918660178901
      ],
      [
        "nnÃ½",
        -10.743003753914685
      ],
      [
        "Ġlesku",
        -10.744346017743311
      ],
      [
        "ĠpÃ¡na",
        -10.745028287588124
      ],
      [
        "ĠÅ½ivot",
        -10.745203673199876
      ],
      [
        "ĠSotva",
        -10.745905045436539
      ],
      [
        "ĠbolestÃŃ",
        -10.746315212647701
      ],
      [
        "ĠtichÃ©m",
        -10.74674759518346
      ],
      [
        "Ġora",
        -10.746845202429473
      ],
      [
        "Ġmyslil",
        -10.746964497500514
      ],
      [
        "ĠvzÃŃt",
        -10.748401403338516
      ],
      [
        "ĠzÃ¡ÅĻÃŃcÃŃ",
        -10.74883875539911
      ],
      [
        "ĠnechtÄĽl",
        -10.749300283772364
      ],
      [
        "ĠjejÃŃch",
        -10.749411392785266
      ],
      [
        "ĠrÃ¡mÄĽ",
        -10.749465407936594
      ],
      [
        "ĠprÃ¡zdno",
        -10.75050416140777
      ],
      [
        "ĠvlÃ¡dne",
        -10.75088840405208
      ],
      [
        "ĠpalÃ¡c",
        -10.751023395323411
      ],
      [
        "ĠkvÃŃlÃŃ",
        -10.751075286714064
      ],
      [
        "ĠpozdnÃŃ",
        -10.751579345794198
      ],
      [
        "ĠsvÄĽtel",
        -10.752606629904667
      ],
      [
        "ĠVlast",
        -10.75269701832012
      ],
      [
        "lÃ¡",
        -10.753281122415299
      ],
      [
        "Ġmdlob",
        -10.753509628882394
      ],
      [
        "Ġchas",
        -10.753837850313591
      ],
      [
        "ĠzdÃŃ",
        -10.75414172291383
      ],
      [
        "ĠusmÃŃvÃ¡",
        -10.754191746738957
      ],
      [
        "ynu",
        -10.75430979037332
      ],
      [
        "bÅ¯h",
        -10.754446911936189
      ],
      [
        "ĠvÄĽÄįnÃ¡",
        -10.754958092292998
      ],
      [
        "ĠpÅĻelud",
        -10.755527984957077
      ],
      [
        "Ġvedl",
        -10.756491527281845
      ],
      [
        "ĠÅ¾alu",
        -10.75680059851221
      ],
      [
        "ĠchvÄĽjÃŃ",
        -10.756904828928754
      ],
      [
        "ĠmrtvÃ½",
        -10.757633737667597
      ],
      [
        "Ġrosa",
        -10.757785819383077
      ],
      [
        "ĠnovÃ½m",
        -10.758187971864317
      ],
      [
        "ĠzachvÄĽl",
        -10.759610616070251
      ],
      [
        "Ġklo",
        -10.760187998179715
      ],
      [
        "Ġkosti",
        -10.760764020924263
      ],
      [
        "ĠnesmÃŃ",
        -10.760769206366854
      ],
      [
        "ĠsvÄĽdomÃŃ",
        -10.761034373372254
      ],
      [
        "Ġzim",
        -10.761231577965
      ],
      [
        "ĠnazpÄĽt",
        -10.761347193274649
      ],
      [
        "ĠÃºtÄĽch",
        -10.761739843205486
      ],
      [
        "lce",
        -10.761784225793193
      ],
      [
        "ÃŃcÃ½",
        -10.761978221691601
      ],
      [
        "Ġnutno",
        -10.762240135139127
      ],
      [
        "ĠzbranÄĽ",
        -10.762399673249979
      ],
      [
        "ĠzbraÅĪ",
        -10.762905170022394
      ],
      [
        "ĠÅĻec",
        -10.763038789969166
      ],
      [
        "ĠtÅĻÃ¡sl",
        -10.763102881923203
      ],
      [
        "Ġzku",
        -10.764393531506055
      ],
      [
        "Ġvoj",
        -10.764571963065167
      ],
      [
        "ĠrÃ¡ji",
        -10.765009566924608
      ],
      [
        "ĠplnÃŃ",
        -10.765091020263606
      ],
      [
        "ĠhleÄı",
        -10.765794674294893
      ],
      [
        "ÄįistÃ¡",
        -10.765870769399239
      ],
      [
        "inÃ©",
        -10.766146216215175
      ],
      [
        "Ġpsal",
        -10.766282114160038
      ],
      [
        "ĠzaÄįal",
        -10.767085599172962
      ],
      [
        "ĠbÃ¡j",
        -10.767215335591036
      ],
      [
        "ĠoltÃ¡ÅĻ",
        -10.767227365752618
      ],
      [
        "ĠznÃ¡mÃ½",
        -10.767319293767095
      ],
      [
        "Ġdat",
        -10.767402958160954
      ],
      [
        "Ġpruh",
        -10.767771672213389
      ],
      [
        "Ġbled",
        -10.767839697934487
      ],
      [
        "ĠstÅ¯l",
        -10.767880359516667
      ],
      [
        "nejkrÃ¡snÄĽjÅ¡ÃŃ",
        -10.767928624709004
      ],
      [
        "ovÃ½m",
        -10.768756926291633
      ],
      [
        "ABBCD",
        -10.769345278953658
      ],
      [
        "aÅ¾ÃŃ",
        -10.769379928253699
      ],
      [
        "ĠpÅ¯vab",
        -10.76985118956258
      ],
      [
        "ĠzvÄĽÅĻ",
        -10.77086489024771
      ],
      [
        "ovÄĽ",
        -10.771347333970873
      ],
      [
        "ĠOsud",
        -10.771722121596376
      ],
      [
        "ĠÅĻada",
        -10.771854096874499
      ],
      [
        "ĠÃºÅ¾as",
        -10.772190240538642
      ],
      [
        "Ġhrdin",
        -10.772232384923079
      ],
      [
        "Ġmistr",
        -10.772242476492863
      ],
      [
        "ĠLÃ¡ska",
        -10.772307430627936
      ],
      [
        "Ġstud",
        -10.772537720032345
      ],
      [
        "ABABC",
        -10.77265840798741
      ],
      [
        "Ġshon",
        -10.773128518271745
      ],
      [
        "tmu",
        -10.773209256619129
      ],
      [
        "Ġdnesk",
        -10.773964487716698
      ],
      [
        "ĠzvonÅ¯",
        -10.774050273784596
      ],
      [
        "ĠnepÅĻÃŃtel",
        -10.774492823060964
      ],
      [
        "ĠVÅ¡ecko",
        -10.774803890710894
      ],
      [
        "ĠstÃ¡li",
        -10.775259545839024
      ],
      [
        "ĠpozdÄĽ",
        -10.775535991775765
      ],
      [
        "ĠsilnÃ½",
        -10.775720874198043
      ],
      [
        "ĠpÅĻÃ¡l",
        -10.775966230118204
      ],
      [
        "ĠbratÅĻe",
        -10.776132689933352
      ],
      [
        "ĠdÃ¡Å¡",
        -10.779018183389816
      ],
      [
        "ĠrozkoÅ¡e",
        -10.779029077213872
      ],
      [
        "Ġuby",
        -10.779085027921663
      ],
      [
        "ĠsmutnÃ¡",
        -10.779105138922915
      ],
      [
        "Ġstan",
        -10.779232174050357
      ],
      [
        "Ġviz",
        -10.77994686673074
      ],
      [
        "Ġozval",
        -10.780160948038832
      ],
      [
        "Ġnesl",
        -10.780350568822447
      ],
      [
        "ABXC",
        -10.780557845702159
      ],
      [
        "ĠvaÅ¡ich",
        -10.780697511444014
      ],
      [
        "ĠDÃ¡l",
        -10.781316629450375
      ],
      [
        "Ġdit",
        -10.781785828246793
      ],
      [
        "pekla",
        -10.782105683514217
      ],
      [
        "Ġdvor",
        -10.782419259136454
      ],
      [
        "lna",
        -10.782634143632007
      ],
      [
        "ĠupÃ¡",
        -10.783257065440633
      ],
      [
        "ĠprÃ¡h",
        -10.78331548504658
      ],
      [
        "ĠpÄĽstÃŃ",
        -10.783429680383673
      ],
      [
        "dci",
        -10.784097500669903
      ],
      [
        "Ġbral",
        -10.78426080114313
      ],
      [
        "Ġbarvy",
        -10.784325882929851
      ],
      [
        "ĠzpÃŃvat",
        -10.7849677549063
      ],
      [
        "lnÃ¡",
        -10.785679112264216
      ],
      [
        "ĠverÅ¡e",
        -10.786220154773535
      ],
      [
        "ĠPÅĻe",
        -10.786262597239787
      ],
      [
        "ĠkÃ¡Å¾e",
        -10.786595203808325
      ],
      [
        "ĠlÃŃm",
        -10.787362113523102
      ],
      [
        "Ġsnech",
        -10.787469162174915
      ],
      [
        "eku",
        -10.78858570481221
      ],
      [
        "ĠvÄĽÅ¾",
        -10.788757667800704
      ],
      [
        "ĠdÃ©Å¡Å¥",
        -10.7894651472572
      ],
      [
        "Ġumy",
        -10.79000264018339
      ],
      [
        "ĠpÅĻÃŃrody",
        -10.790350285969932
      ],
      [
        "ĠÅ¾ivÃ½",
        -10.792556399273794
      ],
      [
        "ĠÄıas",
        -10.793415075900644
      ],
      [
        "ĠneznÃ¡",
        -10.793834041639936
      ],
      [
        "ÄĽsÃŃ",
        -10.794009667346494
      ],
      [
        "ĠprÃ¡v",
        -10.794338434021764
      ],
      [
        "ĠhonÃŃ",
        -10.795037114499852
      ],
      [
        "ĠNynÃŃ",
        -10.79515119121459
      ],
      [
        "ĠdÃŃÅ¡",
        -10.796906665502824
      ],
      [
        "Ġjdi",
        -10.797019634319131
      ],
      [
        "AABX",
        -10.797217899251786
      ],
      [
        "ĠpÅĻÃŃmo",
        -10.79744730002503
      ],
      [
        "Ġmih",
        -10.798109019869916
      ],
      [
        "ĠprchÃ¡",
        -10.798787440469415
      ],
      [
        "ckÃ©",
        -10.798937219307263
      ],
      [
        "Ġcti",
        -10.799263880945034
      ],
      [
        "rodu",
        -10.800102769476677
      ],
      [
        "Ġzle",
        -10.80064020025958
      ],
      [
        "Ġplanou",
        -10.800662613899476
      ],
      [
        "ĠÅ¾enÄĽ",
        -10.800666165373398
      ],
      [
        "Ġhejn",
        -10.80100766388594
      ],
      [
        "ĠjinÃ¡",
        -10.801259942438271
      ],
      [
        "Ġstezk",
        -10.801900000914495
      ],
      [
        "ĠvÄĽcÃŃ",
        -10.801920786894833
      ],
      [
        "ĠbÃŃda",
        -10.802270827823147
      ],
      [
        "ĠpojÃŃ",
        -10.802507434376345
      ],
      [
        "Ġkola",
        -10.802901556368145
      ],
      [
        "ĠÅĪadr",
        -10.802976395061727
      ],
      [
        "ĠÅ¡Å¥astnÃ½",
        -10.803158394883523
      ],
      [
        "ĠÅ¡ept",
        -10.80389496203842
      ],
      [
        "Ġvysoko",
        -10.804148079959479
      ],
      [
        "ĠjÃ¡sÃ¡",
        -10.805834331216897
      ],
      [
        "ĠÅ¾es",
        -10.8067867328752
      ],
      [
        "Ã¡my",
        -10.80683701955374
      ],
      [
        "Ġhej",
        -10.80686910253679
      ],
      [
        "ry",
        -10.806922253246663
      ],
      [
        "Ġobou",
        -10.808306624425157
      ],
      [
        "ÄĽlÃŃ",
        -10.80850460446113
      ],
      [
        "Ġptal",
        -10.808601895783106
      ],
      [
        "ACCD",
        -10.80895080696375
      ],
      [
        "ĠÅł",
        -10.809043947905947
      ],
      [
        "ĠstÃ½",
        -10.80925081435715
      ],
      [
        "lou",
        -10.809320519578678
      ],
      [
        "ĠplÃ¡Äįem",
        -10.809330223461227
      ],
      [
        "ĠvlnÃ¡ch",
        -10.809428546127933
      ],
      [
        "ve",
        -10.809434004291543
      ],
      [
        "ĠmÅ¯Å¾",
        -10.81010890446603
      ],
      [
        "Ġmil",
        -10.81056714369004
      ],
      [
        "ĠmÃ¡ti",
        -10.811734941655848
      ],
      [
        "Ġhloubk",
        -10.812292242484453
      ],
      [
        "Ġsmutno",
        -10.81229535005562
      ],
      [
        "eÅĻi",
        -10.8124962024315
      ],
      [
        "ĠjeÅ¡",
        -10.81363953939082
      ],
      [
        "onÅ¯",
        -10.813690602124828
      ],
      [
        "Ġdcera",
        -10.814612896597925
      ],
      [
        "ĠhÃ¡zÃŃ",
        -10.814830468370427
      ],
      [
        "ĠznamenÃŃ",
        -10.81497388790497
      ],
      [
        "Ġstrachu",
        -10.8158294520914
      ],
      [
        "ĠÄįinÅ¯",
        -10.816391480654929
      ],
      [
        "ĠvÄĽz",
        -10.816554788707556
      ],
      [
        "Ġvzlet",
        -10.817038473102052
      ],
      [
        "Ġklesla",
        -10.81742007075475
      ],
      [
        "ĠsmÄĽr",
        -10.818213649150877
      ],
      [
        "Ġlam",
        -10.818459179919675
      ],
      [
        "ĠcÃŃli",
        -10.818539972583666
      ],
      [
        "ĠtÄĽÅ¡ÃŃ",
        -10.81912329040583
      ],
      [
        "Ġsten",
        -10.819173459067114
      ],
      [
        "ĠkoneÄįnÄĽ",
        -10.819705327369865
      ],
      [
        "ĠNÃ¡m",
        -10.819787734898311
      ],
      [
        "Ġkomnat",
        -10.820704343105138
      ],
      [
        "Å¡el",
        -10.82115514591854
      ],
      [
        "Ġhledat",
        -10.82155390786178
      ],
      [
        "XXXXX",
        -10.822086248709033
      ],
      [
        "Ġstrop",
        -10.822690726227314
      ],
      [
        "itÃ½",
        -10.822782093770964
      ],
      [
        "ĠnaÅ¡em",
        -10.82279964923324
      ],
      [
        "Ġnos",
        -10.823422740466341
      ],
      [
        "ĠhrÅ¯za",
        -10.82355444977804
      ],
      [
        "Ġvous",
        -10.823708764919793
      ],
      [
        "pÃŃ",
        -10.8246860685557
      ],
      [
        "ĠspÄĽch",
        -10.825563560412737
      ],
      [
        "ĠpustÃ©",
        -10.825796956879813
      ],
      [
        "du",
        -10.825889822077912
      ],
      [
        "ĠZrak",
        -10.825924585192146
      ],
      [
        "ĠAn",
        -10.826083944495945
      ],
      [
        "ĠkrÃ¡s",
        -10.827031699940854
      ],
      [
        "ĠnevÄĽst",
        -10.827720876860075
      ],
      [
        "ĠlÃ©pe",
        -10.82787455975837
      ],
      [
        "Ġtaj",
        -10.82827054482059
      ],
      [
        "ÃŃc",
        -10.828508376573154
      ],
      [
        "Ã¡ze",
        -10.828988793867989
      ],
      [
        "Ġchvil",
        -10.829064124373193
      ],
      [
        "ĠlÃ¡l",
        -10.829109755081774
      ],
      [
        "Ġodkud",
        -10.829150665280705
      ],
      [
        "ĠvÄĽtrÅ¯",
        -10.82945895035066
      ],
      [
        "ĠbuÅ¡ÃŃ",
        -10.829541351555239
      ],
      [
        "ĠÅĻit",
        -10.830122467697658
      ],
      [
        "Ġtrosk",
        -10.8308866783721
      ],
      [
        "ĠÅ¡Å¥asten",
        -10.831198816197407
      ],
      [
        "ĠÅ¾Ã¡rem",
        -10.832134114509202
      ],
      [
        "ĠplaÅ¡e",
        -10.832964006324357
      ],
      [
        "ĠmanÅ¾el",
        -10.833749117096186
      ],
      [
        "ĠpapeÅ¾",
        -10.834098555978645
      ],
      [
        "Ġuly",
        -10.834199569940813
      ],
      [
        "ĠdivnÄĽ",
        -10.8351754175734
      ],
      [
        "Ġmet",
        -10.835809944499307
      ],
      [
        "Ġdostal",
        -10.836146068223655
      ],
      [
        "Ã¡Å¡eÅĪ",
        -10.836329087218159
      ],
      [
        "ĠÅ¾Ã¡dÃ¡",
        -10.837354681145662
      ],
      [
        "ĠkÅĻiÄįÃŃ",
        -10.837579610830637
      ],
      [
        "ĠstokrÃ¡t",
        -10.837918423230992
      ],
      [
        "ĠsÃŃm",
        -10.83793147922444
      ],
      [
        "ĠJde",
        -10.838085235633525
      ],
      [
        "ĠzdrÃ¡v",
        -10.838257585033311
      ],
      [
        "Ġhyne",
        -10.838845383823973
      ],
      [
        "ĠzprÃ¡v",
        -10.839046986964934
      ],
      [
        "ĠukÃ¡",
        -10.839720256021367
      ],
      [
        "ĠsvÄĽtlÃ½",
        -10.840119869960514
      ],
      [
        "ĠtajnÄĽ",
        -10.84021483344069
      ],
      [
        "ĠplÃ¡t",
        -10.8402462152911
      ],
      [
        "Ġbitv",
        -10.840380278120183
      ],
      [
        "ÃŃÅ¡",
        -10.840545795834245
      ],
      [
        "do",
        -10.841151061535864
      ],
      [
        "ĠKvÄĽt",
        -10.841226298092362
      ],
      [
        "Ġhexamet",
        -10.841738973426185
      ],
      [
        "Ġmalou",
        -10.842445498094976
      ],
      [
        "Ġbrach",
        -10.842567327755734
      ],
      [
        "Ġdivy",
        -10.84388780641371
      ],
      [
        "ĠmarnÃ©",
        -10.843952824070026
      ],
      [
        "ĠpouÅ¡ti",
        -10.844064236524131
      ],
      [
        "Ġmimo",
        -10.844269567037006
      ],
      [
        "ĠÄįlovÄĽku",
        -10.844346935373942
      ],
      [
        "Ġzdy",
        -10.844751465886937
      ],
      [
        "ĠletÄĽl",
        -10.845094152307919
      ],
      [
        "ĠpÅĻiÅ¡l",
        -10.845722207906007
      ],
      [
        "ĠpestrÃ½",
        -10.846027327269201
      ],
      [
        "ĠhroznÃ©",
        -10.846039862327462
      ],
      [
        "ĠsmÄĽlÃ½",
        -10.847196689088522
      ],
      [
        "Ġkon",
        -10.847313677006014
      ],
      [
        "davu",
        -10.847623308032277
      ],
      [
        "nÄĽn",
        -10.847831375701032
      ],
      [
        "ĠstrÃ¡n",
        -10.847832393517649
      ],
      [
        "ĠRÃ¡d",
        -10.848245330274112
      ],
      [
        "ĠjÃŃmÃ¡",
        -10.84931859696862
      ],
      [
        "Ġspor",
        -10.849588740949214
      ],
      [
        "ĠcelÃ½m",
        -10.849920629255406
      ],
      [
        "Ġnejsou",
        -10.84999433107181
      ],
      [
        "ĠblaÅ¾en",
        -10.850050785191504
      ],
      [
        "ĠBylo",
        -10.850421310799122
      ],
      [
        "tyto",
        -10.85062989720109
      ],
      [
        "Ġpluk",
        -10.850664718261827
      ],
      [
        "Ġmrav",
        -10.850707577379847
      ],
      [
        "Ġulice",
        -10.8511667287014
      ],
      [
        "ĠkrutÃ½",
        -10.851334085211658
      ],
      [
        "leskem",
        -10.85154030061557
      ],
      [
        "rie",
        -10.85259234699746
      ],
      [
        "ĠnoÅĻÃŃ",
        -10.852761503295113
      ],
      [
        "ĠvÅĻe",
        -10.85379904004144
      ],
      [
        "ĠnÃŃmÅ¾",
        -10.854932412603496
      ],
      [
        "bu",
        -10.855720533275342
      ],
      [
        "ĠvÄĽÄįnou",
        -10.855885621376071
      ],
      [
        "ĠJakÃ½",
        -10.855960598254079
      ],
      [
        "ĠskvÄĽl",
        -10.856318180369328
      ],
      [
        "XAAB",
        -10.857606000212538
      ],
      [
        "ĠzelenÃ©",
        -10.858342629927709
      ],
      [
        "ĠprostÃ½",
        -10.85892819213563
      ],
      [
        "ĠDuÅ¡e",
        -10.859112384438529
      ],
      [
        "Ġpusto",
        -10.85932393443321
      ],
      [
        "Ġprost",
        -10.859847525927291
      ],
      [
        "Ġchvilku",
        -10.860652340674893
      ],
      [
        "Ġmem",
        -10.860860293740915
      ],
      [
        "Ġkoho",
        -10.860925044002629
      ],
      [
        "ĠsvatÃ½ch",
        -10.861287762999197
      ],
      [
        "ĠTvÃ½ch",
        -10.861406506690074
      ],
      [
        "yÅ¡ÃŃ",
        -10.86211340713429
      ],
      [
        "Ġzky",
        -10.862723140384862
      ],
      [
        "Ġohlas",
        -10.86285493356215
      ],
      [
        "ĠTicho",
        -10.863878362083053
      ],
      [
        "Ġrtu",
        -10.864599481858804
      ],
      [
        "ĠvÄĽrnÃ©",
        -10.864909503893735
      ],
      [
        "Ġimi",
        -10.865197398995747
      ],
      [
        "ĠzbranÃŃ",
        -10.86568810151962
      ],
      [
        "Ġspoust",
        -10.86604582438456
      ],
      [
        "Ġpeklo",
        -10.866954879067812
      ],
      [
        "ĠHospodin",
        -10.867549439971885
      ],
      [
        "Ġmraz",
        -10.867881200096082
      ],
      [
        "ĠuhÃ¡",
        -10.8697570337757
      ],
      [
        "Ġsled",
        -10.869777499488151
      ],
      [
        "Ġrum",
        -10.870019775079239
      ],
      [
        "Ġchcete",
        -10.870130566841581
      ],
      [
        "ĠÅĻem",
        -10.870531771227437
      ],
      [
        "ĠnejvyÅ¡Å¡ÃŃ",
        -10.871031765264334
      ],
      [
        "Ãº",
        -10.871436818952274
      ],
      [
        "ĠvÃ¡nek",
        -10.871905259798112
      ],
      [
        "Ġjimi",
        -10.872327943538618
      ],
      [
        "ĠhrozÃŃ",
        -10.872351758533174
      ],
      [
        "ĠsÃ¡l",
        -10.872615478239238
      ],
      [
        "ÄĽda",
        -10.872968600353879
      ],
      [
        "Ġnitra",
        -10.873000786414913
      ],
      [
        "ĠvÃŃÅĻÃŃ",
        -10.873076603770468
      ],
      [
        "Ġvor",
        -10.873347796416208
      ],
      [
        "ĠjedinÃ¡",
        -10.874526473628578
      ],
      [
        "lÅ¯nÄĽ",
        -10.87493885353564
      ],
      [
        "ĠmyÅ¡lÃ©nky",
        -10.875749762748569
      ],
      [
        "Ġsoch",
        -10.87611554175983
      ],
      [
        "ĠkonÃŃ",
        -10.87660707772168
      ],
      [
        "ĠpÄĽnÃŃ",
        -10.877707184152499
      ],
      [
        "ĠvrÃ¡sk",
        -10.877888631458298
      ],
      [
        "ĠR",
        -10.877997259446808
      ],
      [
        "ĠhrajÃŃ",
        -10.878050585078864
      ],
      [
        "ĠomÃŃ",
        -10.878071144340108
      ],
      [
        "Ġjmen",
        -10.879199103018921
      ],
      [
        "ĠzvÃŃÅĻe",
        -10.879440151983648
      ],
      [
        "ĠÅ¾houcÃŃ",
        -10.879483937921385
      ],
      [
        "ĠjemuÅ¾",
        -10.879530113128563
      ],
      [
        "ĠhÅĻmÃŃ",
        -10.879981124751913
      ],
      [
        "ĠpÃ¡nem",
        -10.881689291784218
      ],
      [
        "ĠpravdÄĽ",
        -10.881752522089844
      ],
      [
        "Ġmladosti",
        -10.881965190187508
      ],
      [
        "ĠÄįÃŃst",
        -10.882278754403838
      ],
      [
        "oze",
        -10.882287767256571
      ],
      [
        "ĠlÃŃto",
        -10.883269587021367
      ],
      [
        "Ġpropasti",
        -10.883450720919477
      ],
      [
        "Ġtoto",
        -10.884395187211737
      ],
      [
        "ĠÅ¡eptÃ¡",
        -10.884428487446662
      ],
      [
        "ĠvzplÃ¡l",
        -10.884657307180015
      ],
      [
        "ĠDÅĻÃŃv",
        -10.885205626921696
      ],
      [
        "ĠvodÄĽ",
        -10.885275175970252
      ],
      [
        "ĠstojÃŃm",
        -10.885640042504411
      ],
      [
        "ĠtrhÃ¡",
        -10.885887940402776
      ],
      [
        "Ġkrvav",
        -10.886074465165729
      ],
      [
        "dÄĽtem",
        -10.886589184301126
      ],
      [
        "Ġsly",
        -10.88678643789699
      ],
      [
        "ĠspÃ¡ne",
        -10.886977192883633
      ],
      [
        "Ġosy",
        -10.887139552792611
      ],
      [
        "Ġmladou",
        -10.88720091079384
      ],
      [
        "Ġcitu",
        -10.88737109465938
      ],
      [
        "ĠdrobnÃ©",
        -10.887416535304911
      ],
      [
        "Ġdoktor",
        -10.88803601976323
      ],
      [
        "Ġbran",
        -10.88847244670961
      ],
      [
        "hÃ¡m",
        -10.888673205160861
      ],
      [
        "tÃ¡k",
        -10.88898824909247
      ],
      [
        "ĠvlÃ¡h",
        -10.889158295290391
      ],
      [
        "ĠsnÃŃt",
        -10.889260994328033
      ],
      [
        "ĠÅ¡il",
        -10.889433069111366
      ],
      [
        "hy",
        -10.889509355038605
      ],
      [
        "Ġvrat",
        -10.889601038829882
      ],
      [
        "Ġkolik",
        -10.890112971708508
      ],
      [
        "Ġctnosti",
        -10.891078363391697
      ],
      [
        "ity",
        -10.891109542100295
      ],
      [
        "Ġticha",
        -10.891200344963828
      ],
      [
        "Ġtah",
        -10.891270113528467
      ],
      [
        "Ġkos",
        -10.89161761132662
      ],
      [
        "Ġzdali",
        -10.891901099866091
      ],
      [
        "ĠhrdÃ½",
        -10.89220876334095
      ],
      [
        "skÃ©ho",
        -10.892536791083348
      ],
      [
        "ĠvÃŃtÃ¡",
        -10.892727316440713
      ],
      [
        "ĠdÃ¡vnÃ©",
        -10.89345419589166
      ],
      [
        "ĠtmÄĽ",
        -10.893820847502429
      ],
      [
        "ĠNech",
        -10.894044814830874
      ],
      [
        "Ġohni",
        -10.894536501220822
      ],
      [
        "ĠzlatÃ©m",
        -10.895240061653078
      ],
      [
        "Ġsluje",
        -10.895755965569453
      ],
      [
        "ĠchystÃ¡",
        -10.895881425588609
      ],
      [
        "ĠzmÄĽn",
        -10.896032703278271
      ],
      [
        "Ġpochod",
        -10.896037219181984
      ],
      [
        "ĠMÄĽl",
        -10.89637986930334
      ],
      [
        "ĠbÅĻehÅ¯",
        -10.896756753120947
      ],
      [
        "ostÃŃ",
        -10.896881291325633
      ],
      [
        "Ġmoudrost",
        -10.89692733687204
      ],
      [
        "ĠtÄĽmi",
        -10.897345927948624
      ],
      [
        "ĠsmÃŃ",
        -10.897541284471846
      ],
      [
        "Ġhra",
        -10.89886623501139
      ],
      [
        "ĠzvuÄįÃŃ",
        -10.899116826930978
      ],
      [
        "Ġsoused",
        -10.899372036740328
      ],
      [
        "ĠperutÃŃ",
        -10.89949792263845
      ],
      [
        "ĠJiÅĻÃŃ",
        -10.901304102256836
      ],
      [
        "ĠzelenÃ½",
        -10.90138721404118
      ],
      [
        "ĠzÃ¡Å¡tÃŃ",
        -10.901575453150546
      ],
      [
        "ĠsÃŃle",
        -10.901627060607847
      ],
      [
        "ĠpamÃ¡tk",
        -10.901638167569722
      ],
      [
        "ĠbojÃŃ",
        -10.90334759206321
      ],
      [
        "ĠsrdcÃŃch",
        -10.903513331410313
      ],
      [
        "ĠhlubokÃ½",
        -10.903742620594402
      ],
      [
        "Ġbloudil",
        -10.903749334130808
      ],
      [
        "ĠÅ¾ert",
        -10.904993393446992
      ],
      [
        "ĠmÃ¡l",
        -10.905127673438514
      ],
      [
        "Ġtemno",
        -10.90570939519723
      ],
      [
        "Ġlos",
        -10.906089370513325
      ],
      [
        "Ġharf",
        -10.906277267445105
      ],
      [
        "Ġston",
        -10.906363782579941
      ],
      [
        "ĠÄįinÃŃ",
        -10.906615719419971
      ],
      [
        "ĠvlÃŃdnÄĽ",
        -10.906724108993139
      ],
      [
        "ĠdomÄĽ",
        -10.90721622414833
      ],
      [
        "ĠvÃ¡bÃŃ",
        -10.90859420747553
      ],
      [
        "ĠvÅ¡udy",
        -10.909826819946932
      ],
      [
        "Ġryk",
        -10.911261760034165
[...]
