{
  "version": "1.0",
  "truncation": null,
  "padding": null,
  "added_tokens": [
    {
      "id": 0,
      "content": "<|endoftext|>",
      "single_word": false,
      "lstrip": false,
      "rstrip": false,
      "normalized": false,
      "special": true
    }
  ],
  "normalizer": null,
  "pre_tokenizer": {
    "type": "ByteLevel",
    "add_prefix_space": false,
    "trim_offsets": true,
    "use_regex": true
  },
  "post_processor": {
    "type": "ByteLevel",
    "add_prefix_space": true,
    "trim_offsets": false,
    "use_regex": true
  },
  "decoder": {
    "type": "ByteLevel",
    "add_prefix_space": true,
    "trim_offsets": true,
    "use_regex": true
  },
  "model": {
    "type": "Unigram",
    "unk_id": 0,
    "vocab": [
      [
        "<|endoftext|>",
        0.0
      ],
      [
        "Ġ",
        -1.8306144995261349
      ],
      [
        "#",
        -2.43841769087191
      ],
      [
        "Ċ",
        -2.6015026148498954
      ],
      [
        "1",
        -3.0703247869959647
      ],
      [
        ",",
        -3.1315977044864844
      ],
      [
        "a",
        -4.061750523015251
      ],
      [
        "0",
        -4.209694191011529
      ],
      [
        "8",
        -4.258644101220959
      ],
      [
        "Ġv",
        -4.532303032577278
      ],
      [
        ".",
        -4.5667704789640595
      ],
      [
        "Ġse",
        -4.680970717847963
      ],
      [
        "y",
        -4.8054365157971635
      ],
      [
        "9",
        -4.957978633175561
      ],
      [
        "i",
        -4.962942001409203
      ],
      [
        "u",
        -5.043166025509899
      ],
      [
        "J",
        -5.054166007890689
      ],
      [
        "7",
        -5.0941417592377345
      ],
      [
        "6",
        -5.2698434350683385
      ],
      [
        "T",
        -5.346343737052814
      ],
      [
        "Ġna",
        -5.406617862493233
      ],
      [
        "!",
        -5.411125599064857
      ],
      [
        "2",
        -5.417512938267876
      ],
      [
        "k",
        -5.590315683566676
      ],
      [
        "3",
        -5.593169924657182
      ],
      [
        "ABAB",
        -5.685968909165053
      ],
      [
        "em",
        -5.768481146418152
      ],
      [
        "Ġz",
        -5.809961445177056
      ],
      [
        "5",
        -5.81047816490365
      ],
      [
        "Ġjak",
        -5.840123797020201
      ],
      [
        "ch",
        -5.8582827629888
      ],
      [
        "Ġs",
        -5.892499189435373
      ],
      [
        "m",
        -5.932069335570466
      ],
      [
        "o",
        -5.944481624863037
      ],
      [
        "XXXX",
        -5.965154149177014
      ],
      [
        "4",
        -5.977505987007518
      ],
      [
        "Ġ189",
        -6.0851561535315035
      ],
      [
        "ou",
        -6.113447924388703
      ],
      [
        "Ġto",
        -6.1309977307916625
      ],
      [
        "Ġje",
        -6.140853802693217
      ],
      [
        "Ġ188",
        -6.179953481351079
      ],
      [
        "ĠÅ¾e",
        -6.228380958656933
      ],
      [
        "Ġ190",
        -6.2493278351970165
      ],
      [
        "?",
        -6.2530514320530095
      ],
      [
        "e",
        -6.382307623612652
      ],
      [
        "Ġdo",
        -6.384809717060568
      ],
      [
        "AABB",
        -6.38845015071219
      ],
      [
        "Ã¡",
        -6.440642416541781
      ],
      [
        "Ġjen",
        -6.467208854994626
      ],
      [
        "Ġco",
        -6.472507350048984
      ],
      [
        "Ġtak",
        -6.528213227247198
      ],
      [
        "Ġpo",
        -6.542386017698398
      ],
      [
        "Ġjsem",
        -6.560517111375107
      ],
      [
        "XAXA",
        -6.576353235045998
      ],
      [
        "Ġza",
        -6.5816230964416516
      ],
      [
        "Ġ191",
        -6.588874080202951
      ],
      [
        "Ġ192",
        -6.630793973121186
      ],
      [
        "N",
        -6.65291755484888
      ],
      [
        "ĠkdyÅ¾",
        -6.657823594740401
      ],
      [
        "Ġtu",
        -6.663317796651636
      ],
      [
        "ho",
        -6.720754577185611
      ],
      [
        "ÄĽ",
        -6.757520426413226
      ],
      [
        "nou",
        -6.791618329195602
      ],
      [
        "...",
        -6.8144406760096015
      ],
      [
        "Ġjako",
        -6.826151355201922
      ],
      [
        "XX",
        -6.828698907982858
      ],
      [
        "ĠvÅ¡ak",
        -6.833455497012812
      ],
      [
        "Ġby",
        -6.836017061463714
      ],
      [
        "Ġve",
        -6.896857256800187
      ],
      [
        "Ġsi",
        -6.897027803176751
      ],
      [
        "ĠjÃ¡",
        -6.911528683108317
      ],
      [
        "CC",
        -6.918557932137004
      ],
      [
        "ÃŃ",
        -6.919185698413404
      ],
      [
        "Ġ193",
        -6.927466372569999
      ],
      [
        "Ġty",
        -6.958610316532184
      ],
      [
        "Ġmi",
        -6.967592195664114
      ],
      [
        "Ġtam",
        -6.981681757277119
      ],
      [
        "ĠjiÅ¾",
        -7.00278638324828
      ],
      [
        "Ġ187",
        -7.034056096294512
      ],
      [
        "Ã½ch",
        -7.041112707987578
      ],
      [
        "Ġten",
        -7.041790767992675
      ],
      [
        "Ġkde",
        -7.055913715849165
      ],
      [
        "Ġbyl",
        -7.076274286229257
      ],
      [
        "Ġmu",
        -7.088170566928012
      ],
      [
        "ĠjeÅ¾",
        -7.108075880340802
      ],
      [
        "ĠsvÃ©",
        -7.123053148275433
      ],
      [
        "Ġjeho",
        -7.13575979045576
      ],
      [
        "Ġnad",
        -7.142166395115803
      ],
      [
        "nÃŃ",
        -7.148165873454952
      ],
      [
        "ĠmÃ¡",
        -7.169774451578215
      ],
      [
        "ABBA",
        -7.196646938518393
      ],
      [
        "s",
        -7.205091988665904
      ],
      [
        "Ġsrdce",
        -7.205136160319311
      ],
      [
        "ech",
        -7.258709641641017
      ],
      [
        "Ġzas",
        -7.332760296068161
      ],
      [
        "Ġpak",
        -7.334677285316811
      ],
      [
        "ĠjenÅ¾",
        -7.349856385316141
      ],
      [
        "Ã¡ch",
        -7.355657845694665
      ],
      [
        "Ġpro",
        -7.370708403534879
      ],
      [
        "Ġmne",
        -7.391253282834651
      ],
      [
        "AABC",
        -7.398811786269492
      ],
      [
        "ĠnÃ¡m",
        -7.402005481832136
      ],
      [
        "ĠaÅ¾",
        -7.403145411023045
      ],
      [
        "Ġod",
        -7.406895809699742
      ],
      [
        "CD",
        -7.4208476322813794
      ],
      [
        "ĠÃ³",
        -7.441773482740066
      ],
      [
        "Å¡",
        -7.442639794944238
      ],
      [
        "Ġne",
        -7.458157088592422
      ],
      [
        "Ġti",
        -7.468096154196177
      ],
      [
        "ĠmÃ©",
        -7.475941275597988
      ],
      [
        "ĠvÅ¡e",
        -7.4885518439176195
      ],
      [
        "Ġpod",
        -7.509055466780998
      ],
      [
        "ĠteÄı",
        -7.509572202168844
      ],
      [
        "v",
        -7.525260828040857
      ],
      [
        "Ã¡nÃŃ",
        -7.527526961789345
      ],
      [
        "enÃŃ",
        -7.544213337925559
      ],
      [
        "Ġjest",
        -7.561168565825707
      ],
      [
        "ĠuÅ¾",
        -7.576249947921847
      ],
      [
        "Ġden",
        -7.582506462157587
      ],
      [
        "Ġji",
        -7.589492580316207
      ],
      [
        "D",
        -7.591975717139141
      ],
      [
        "ĠjÃŃ",
        -7.60031732699524
      ],
      [
        "Ġta",
        -7.6043958912648915
      ],
      [
        "te",
        -7.618328977535519
      ],
      [
        "Ġsti",
        -7.622282005068822
      ],
      [
        "Ġkdo",
        -7.6234239049111405
      ],
      [
        "Ġbez",
        -7.630234556866132
      ],
      [
        "ĠpÅĻed",
        -7.633780677787117
      ],
      [
        "ĠmnÄĽ",
        -7.635840308816768
      ],
      [
        "ĠmÅ¯j",
        -7.637268331046387
      ],
      [
        "Ġsvou",
        -7.645610386207432
      ],
      [
        "nÃŃm",
        -7.6472340548122855
      ],
      [
        "Ġon",
        -7.664276968764083
      ],
      [
        "Ġjsi",
        -7.68008203665042
      ],
      [
        "Ã©",
        -7.682213766041317
      ],
      [
        "ĠvÅ¾dy",
        -7.685098163257132
      ],
      [
        "t",
        -7.685903199567468
      ],
      [
        "Ġale",
        -7.690981118374129
      ],
      [
        "ce",
        -7.697493064053091
      ],
      [
        "Å¯",
        -7.710122244548883
      ],
      [
        "ÃŃch",
        -7.710763917798605
      ],
      [
        "Ġjsou",
        -7.722485932758003
      ],
      [
        "ĠjeÅ¡tÄĽ",
        -7.726241634969583
      ],
      [
        "ĠsvÄĽt",
        -7.729727075587519
      ],
      [
        "ĠtÄĽ",
        -7.733767837552373
      ],
      [
        "li",
        -7.747485281822156
      ],
      [
        "ĠduÅ¡e",
        -7.753648136339686
      ],
      [
        "ĠnÃ¡s",
        -7.754159579587574
      ],
      [
        "X",
        -7.760346166918383
      ],
      [
        "ĠneÅ¾",
        -7.7681987082551025
      ],
      [
        "Ġtom",
        -7.769136807956858
      ],
      [
        "Ã©ho",
        -7.776442838137569
      ],
      [
        "ĠdÃ¡l",
        -7.777599066508081
      ],
      [
        "Ġjej",
        -7.79597992175513
      ],
      [
        "ĠsÃ¡m",
        -7.803420193284852
      ],
      [
        "ĠtÃ©",
        -7.81070208817987
      ],
      [
        "nÃ¡",
        -7.845916179373402
      ],
      [
        "Ġzrak",
        -7.848102453963428
      ],
      [
        "ĠtvÃ©",
        -7.849621254054231
      ],
      [
        "Ġkdy",
        -7.850428927556576
      ],
      [
        "Ġzde",
        -7.850888173935118
      ],
      [
        "Ġsnad",
        -7.857475739906148
      ],
      [
        "Ġ185",
        -7.861748396431409
      ],
      [
        "Ġze",
        -7.865232498706412
      ],
      [
        "Ġ183",
        -7.867749197708333
      ],
      [
        "ĠaÅ¥",
        -7.876758002409016
      ],
      [
        "ĠkvÄĽt",
        -7.883533339115878
      ],
      [
        "ek",
        -7.8930393040057645
      ],
      [
        "ĠjejÃŃ",
        -7.902963334184907
      ],
      [
        "ĠÅ¾ivot",
        -7.906302759703575
      ],
      [
        "mi",
        -7.910533833933908
      ],
      [
        "Ġ184",
        -7.912711453077343
      ],
      [
        "ovÃ©",
        -7.914768342729506
      ],
      [
        "Ġ186",
        -7.920762073085902
      ],
      [
        "nÄĽ",
        -7.921355796703244
      ],
      [
        "Ġsem",
        -7.948306780680012
      ],
      [
        "ĠduÅ¡i",
        -7.954134666444357
      ],
      [
        "Ġjsme",
        -7.961182486989832
      ],
      [
        "ĠÄįas",
        -7.9626950090123
      ],
      [
        "ĠpÅĻi",
        -7.979920438159388
      ],
      [
        "Ġdnes",
        -7.988595991359919
      ],
      [
        "ĠnenÃŃ",
        -7.9999829268628115
      ],
      [
        "ĠvÃ¡m",
        -8.016901043949115
      ],
      [
        "ĠoÄįi",
        -8.017128992285594
      ],
      [
        "Ġneb",
        -8.026753169458573
      ],
      [
        "ila",
        -8.029519264034358
      ],
      [
        "Ġbych",
        -8.03424581346685
      ],
      [
        "Å¥",
        -8.044007793400725
      ],
      [
        "Ġslunce",
        -8.044071487567448
      ],
      [
        "Ġvy",
        -8.055317737529412
      ],
      [
        "Ġbylo",
        -8.05740798380345
      ],
      [
        "ajÃŃ",
        -8.078602998040557
      ],
      [
        "ĠstÃŃ",
        -8.082990791921342
      ],
      [
        "Ġval",
        -8.08533749045855
      ],
      [
        "Ġach",
        -8.09557580939449
      ],
      [
        "kem",
        -8.09749872826606
      ],
      [
        "ami",
        -8.1007621495585
      ],
      [
        "Ġlet",
        -8.104766307237284
      ],
      [
        "ĠnÄĽm",
        -8.11395834714283
      ],
      [
        "l",
        -8.115500730895508
      ],
      [
        "Ġala",
        -8.116278961997422
      ],
      [
        "ĠtÄĽch",
        -8.119849354814113
      ],
      [
        "Ġbude",
        -8.120957570696875
      ],
      [
        "ĠvÃŃc",
        -8.121570353320363
      ],
      [
        "Ġni",
        -8.122845721818818
      ],
      [
        "Ġkol",
        -8.125062252614885
      ],
      [
        "A",
        -8.128352653773716
      ],
      [
        "ĠtÃŃm",
        -8.130346235121804
      ],
      [
        "Ġzem",
        -8.14364880220644
      ],
      [
        "ĠmÄĽl",
        -8.14505752880244
      ],
      [
        "Ã½",
        -8.158904822113156
      ],
      [
        "me",
        -8.160043667273875
      ],
      [
        "ĠsvÅ¯j",
        -8.161707577635257
      ],
      [
        "Ġjim",
        -8.166461215211504
      ],
      [
        "Ġjich",
        -8.166829094197519
      ],
      [
        "ĠbÅ¯h",
        -8.179114496850064
      ],
      [
        "ĠlÃ¡sky",
        -8.190140698454032
      ],
      [
        "Ġdal",
        -8.191443872090165
      ],
      [
        "ĠvÅ¡ech",
        -8.193911617856587
      ],
      [
        "Ġbyla",
        -8.213486457029358
      ],
      [
        "ĠvÃ¡s",
        -8.218968109082178
      ],
      [
        "Ġnoc",
        -8.22460267232928
      ],
      [
        "ĠtÃ©Å¾",
        -8.224676923701939
      ],
      [
        "Ġani",
        -8.225561744646264
      ],
      [
        "Ġsen",
        -8.227506063068894
      ],
      [
        "ĠÅ¾itÃŃ",
        -8.233284110756644
      ],
      [
        "ĠsobÄĽ",
        -8.243966523651459
      ],
      [
        "Ġhlas",
        -8.2440501245692
      ],
      [
        "Ġkolem",
        -8.246093681318788
      ],
      [
        "Å¯m",
        -8.2499164590261
      ],
      [
        "ĠtvÅ¯j",
        -8.266783788630008
      ],
      [
        "Ġmy",
        -8.273563169956565
      ],
      [
        "ĠproÄį",
        -8.27403485740229
      ],
      [
        "ĠkaÅ¾dÃ½",
        -8.275544627687681
      ],
      [
        "ĠtobÄĽ",
        -8.284186561983294
      ],
      [
        "ĠsvÃ½ch",
        -8.287315527688323
      ],
      [
        "ÄĽnÃŃ",
        -8.29082625262391
      ],
      [
        "Ġhlav",
        -8.291535073942562
      ],
      [
        "ĠobÄĽ",
        -8.294083304554222
      ],
      [
        "Ġhned",
        -8.299156622462998
      ],
      [
        "Ġhle",
        -8.319102458185002
      ],
      [
        "ĠzemÄĽ",
        -8.32292492321881
      ],
      [
        "c",
        -8.332916207466766
      ],
      [
        "CB",
        -8.335816978362413
      ],
      [
        "ĠpÃ¡n",
        -8.33676271426246
      ],
      [
        "ĠrÃ¡d",
        -8.34557337362743
      ],
      [
        "ABBC",
        -8.349495547401064
      ],
      [
        "Ġruce",
        -8.35648686448528
      ],
      [
        "Ġkam",
        -8.358523205785659
      ],
      [
        "ĠleÄį",
        -8.35983858288063
      ],
      [
        "Ġlid",
        -8.367696344122171
      ],
      [
        "Ġchu",
        -8.37041094239938
      ],
      [
        "ĠsvÃ½m",
        -8.372504574785417
      ],
      [
        "Ġku",
        -8.375647084037183
      ],
      [
        "Ġsrdci",
        -8.377798856290202
      ],
      [
        "Ġmoje",
        -8.384350492418386
      ],
      [
        "ĠvÅ¡ecko",
        -8.38520225980889
      ],
      [
        "Ġzemi",
        -8.389871699636167
      ],
      [
        "Ġost",
        -8.39184640118764
      ],
      [
        "Ġlem",
        -8.392481553646634
      ],
      [
        "ĠmÃ¡m",
        -8.393116512409076
      ],
      [
        "ĠnÃ¡Å¡",
        -8.395629736021318
      ],
      [
        "ĠmÄĽ",
        -8.39726043109266
      ],
      [
        "ĠoÄįÃŃ",
        -8.397845827858674
      ],
      [
        "ali",
        -8.400623778186942
      ],
      [
        "Ġjejich",
        -8.406782958075716
      ],
      [
        "ĠpÅĻec",
        -8.42536050293705
      ],
      [
        "Ġmou",
        -8.426062663590482
      ],
      [
        "Ġnebe",
        -8.42837735747695
      ],
      [
        "ĠÅ¡tÄĽstÃŃ",
        -8.428473483584536
      ],
      [
        "Ġvou",
        -8.43064652159758
      ],
      [
        "Ġnich",
        -8.436259457997243
      ],
      [
        "ĠnaÅ¡e",
        -8.439303891579812
      ],
      [
        "ĠpÅĻes",
        -8.440976462614163
      ],
      [
        "ÃŃcÃŃ",
        -8.446298676421335
      ],
      [
        "Ġjste",
        -8.451216250842451
      ],
      [
        "Ġjenom",
        -8.458853479836595
      ],
      [
        "BC",
        -8.46921291362059
      ],
      [
        "Ġtebe",
        -8.470726491408419
      ],
      [
        "Ġtem",
        -8.47257248664977
      ],
      [
        "Ġnoci",
        -8.477553644963953
      ],
      [
        "ĠbuÄı",
        -8.479220125460726
      ],
      [
        "Ġhlavu",
        -8.481223114755698
      ],
      [
        "ĠbÃ½t",
        -8.484646778613447
      ],
      [
        "ĠvÄĽt",
        -8.487941670285714
      ],
      [
        "Ġdne",
        -8.495893039622935
      ],
      [
        "Ġduch",
        -8.498533664627313
      ],
      [
        "ÄĽla",
        -8.50055750009024
      ],
      [
        "Ġnic",
        -8.503287473121665
      ],
      [
        "Ġuje",
        -8.508596006023527
      ],
      [
        "ĠdÄĽl",
        -8.51814983249391
      ],
      [
        "Ġke",
        -8.523529535709033
      ],
      [
        "ĠcelÃ½",
        -8.524270943595479
      ],
      [
        "ĠÅ¡el",
        -8.525975297340864
      ],
      [
        "ÃŃvÃ¡",
        -8.537218425567296
      ],
      [
        "iny",
        -8.544896799543956
      ],
      [
        "ĠojÃŃ",
        -8.545390974592541
      ],
      [
        "ice",
        -8.548539626634826
      ],
      [
        "Ġtou",
        -8.554809819370536
      ],
      [
        "Ġ182",
        -8.56002432251333
      ],
      [
        "nÃ½m",
        -8.565369984180219
      ],
      [
        "Ġkrev",
        -8.56908931746696
      ],
      [
        "Ġaby",
        -8.571754763671663
      ],
      [
        "ĠtakÃ©",
        -8.572663486525698
      ],
      [
        "ĠÄįi",
        -8.580241384394713
      ],
      [
        "ĠmoÅĻe",
        -8.596886414307226
      ],
      [
        "Ġsta",
        -8.597886383081713
      ],
      [
        "ĠpÃŃseÅĪ",
        -8.599802390277858
      ],
      [
        "ĠnÃ¡hle",
        -8.60161197047038
      ],
      [
        "ĠchvÃŃli",
        -8.602899955559575
      ],
      [
        "Ġles",
        -8.611337268049324
      ],
      [
        "ĠchtÄĽl",
        -8.616055494610693
      ],
      [
        "Ġkou",
        -8.626656920242544
      ],
      [
        "Ġjde",
        -8.62772279495918
      ],
      [
        "ĠtvÃ¡ÅĻ",
        -8.633384773427808
      ],
      [
        "Ġtoho",
        -8.63341639308312
      ],
      [
        "Ġoko",
        -8.635292489756404
      ],
      [
        "ĠÄįlovÄĽk",
        -8.637473862808111
      ],
      [
        "ĠvÅ¾dyÅ¥",
        -8.650996936194074
      ],
      [
        "Ġkdys",
        -8.651608308240933
      ],
      [
        "ĠvÃŃm",
        -8.6558839363929
      ],
      [
        "ĠnynÃŃ",
        -8.661242144944694
      ],
      [
        "ABCD",
        -8.662003738944916
      ],
      [
        "Ġzda",
        -8.66493386703781
      ],
      [
        "ĠsvÃ©ho",
        -8.66574119429646
      ],
      [
        "ĠkrÃ¡l",
        -8.666958400030675
      ],
      [
        "ÃŃce",
        -8.668572302401047
      ],
      [
        "Ġmezi",
        -8.668857790382122
      ],
      [
        "ĠdÃŃtÄĽ",
        -8.675306441195762
      ],
      [
        "z",
        -8.677228515616518
      ],
      [
        "oje",
        -8.680363247210934
      ],
      [
        "ĠlÃ¡ska",
        -8.68483764604254
      ],
      [
        "ĠstarÃ½",
        -8.6850861519298
      ],
      [
        "aly",
        -8.692166586337978
      ],
      [
        "ĠstÃŃn",
        -8.692403838482859
      ],
      [
        "ĠsvÃ©m",
        -8.695438456551155
      ],
      [
        "ĠtvÃ¡",
        -8.70515177648178
      ],
      [
        "Ġ195",
        -8.705290195329027
      ],
      [
        "Ġvln",
        -8.705429341808623
      ],
      [
        "nÃ½ch",
        -8.707246325911344
      ],
      [
        "Ġnes",
        -8.708251899265205
      ],
      [
        "aje",
        -8.708907654051355
      ],
      [
        "enÃ©",
        -8.711197440115365
      ],
      [
        "Ġela",
        -8.713015219102916
      ],
      [
        "AB",
        -8.720059101009094
      ],
      [
        "ÃŃtÃŃ",
        -8.720209904818429
      ],
      [
        "Ġba",
        -8.72210808853903
      ],
      [
        "ĠstÃ¡le",
        -8.725959754174328
      ],
      [
        "Ġdech",
        -8.733612615885948
      ],
      [
        "Å¾",
        -8.733823791530941
      ],
      [
        "Ã¡m",
        -8.73688056933203
      ],
      [
        "ĠtiÅ¡e",
        -8.745019850455217
      ],
      [
        "Ġjednou",
        -8.746600457572635
      ],
      [
        "ĠkterÃ©",
        -8.750148873943917
      ],
      [
        "Ġnem",
        -8.750335414391033
      ],
      [
        "ĠkterÃ½",
        -8.75177336423747
      ],
      [
        "Ã¡vÃ¡",
        -8.754645812806567
      ],
      [
        "ĠstojÃŃ",
        -8.763838285313938
      ],
      [
        "Ġslova",
        -8.764076676833128
      ],
      [
        "ĠjuÅ¾",
        -8.764689999914088
      ],
      [
        "Ġzase",
        -8.766624956208789
      ],
      [
        "ĠcoÅ¾",
        -8.774770285261312
      ],
      [
        "ĠsvÄĽta",
        -8.775305761057739
      ],
      [
        "Ġoku",
        -8.776700550289046
      ],
      [
        "ku",
        -8.779252412488104
      ],
      [
        "ĠvÃŃce",
        -8.780476844794212
      ],
      [
        "Ġjeden",
        -8.782248560336553
      ],
      [
        "ĠaÄį",
        -8.782554714324188
      ],
      [
        "ĠznÃŃ",
        -8.782716590378365
      ],
      [
        "ĠveÄįer",
        -8.786404361580754
      ],
      [
        "Ġnebes",
        -8.788655874363304
      ],
      [
        "enÃ½",
        -8.789920252443267
      ],
      [
        "ena",
        -8.792658742393183
      ],
      [
        "Ġrukou",
        -8.792728024999047
      ],
      [
        "cky",
        -8.79512286450527
      ],
      [
        "ĠoÅĻe",
        -8.799113039012404
      ],
      [
        "ĠÅ¾il",
        -8.807613029023068
      ],
      [
        "Ġona",
        -8.807748690447012
      ],
      [
        "nul",
        -8.813256711751961
      ],
      [
        "ÃŃti",
        -8.81683275131021
      ],
      [
        "Ġest",
        -8.819917330467765
      ],
      [
        "Ġebe",
        -8.822779542889057
      ],
      [
        "ÄĽje",
        -8.82281538625925
      ],
      [
        "ĠmuÅ¾",
        -8.824130411180791
      ],
      [
        "Ġnebi",
        -8.831152476747485
      ],
      [
        "Ġsebe",
        -8.833518520089228
      ],
      [
        "Ġnikdy",
        -8.833799526066827
      ],
      [
        "ĠrÅ¯Å¾e",
        -8.833934652943404
      ],
      [
        "Ġas",
        -8.84529202833929
      ],
      [
        "ĠÃºsmÄĽv",
        -8.846360544311711
      ],
      [
        "ABCC",
        -8.847795855112782
      ],
      [
        "Ġili",
        -8.853415607727362
      ],
      [
        "ĠÄįÃŃm",
        -8.856789208495911
      ],
      [
        "ĠboÅ¾ÃŃ",
        -8.860373011394111
      ],
      [
        "Ġtomu",
        -8.861279038930347
      ],
      [
        "Ġtys",
        -8.86264969408057
      ],
      [
        "ady",
        -8.86486290985797
      ],
      [
        "Ġmnou",
        -8.8666248720293
      ],
      [
        "Ġhor",
        -8.868012605214428
      ],
      [
        "ĠzpÄĽv",
        -8.87019556411281
      ],
      [
        "ky",
        -8.873606319670468
      ],
      [
        "ĠbÃŃlÃ½",
        -8.873796543254853
      ],
      [
        "ÃŃrÃ¡",
        -8.878023294928306
      ],
      [
        "Ġchce",
        -8.879191629604735
      ],
      [
        "ĠhvÄĽzd",
        -8.885418178473103
      ],
      [
        "to",
        -8.887512103031176
      ],
      [
        "ĠvÅ¡em",
        -8.889261029952788
      ],
      [
        "ĠÅ¾al",
        -8.89475954708036
      ],
      [
        "ĠnÃŃÅ¾",
        -8.89577654675295
      ],
      [
        "etÃŃ",
        -8.898788382083922
      ],
      [
        "ati",
        -8.898837426127058
      ],
      [
        "Ġdruh",
        -8.899469849537766
      ],
      [
        "Ġcit",
        -8.900233168219506
      ],
      [
        "ĠdÃ¡le",
        -8.903961930070132
      ],
      [
        "ilo",
        -8.911888639946666
      ],
      [
        "ĠbÃŃlÃ©",
        -8.91379781788773
      ],
      [
        "n",
        -8.914422164412125
      ],
      [
        "Ġemi",
        -8.917990342257053
      ],
      [
        "Ġsotva",
        -8.923460450792643
      ],
      [
        "Ġvzduch",
        -8.9238356189081
      ],
      [
        "ĠprvnÃŃ",
        -8.929432871589619
      ],
      [
        "avÃŃ",
        -8.931360614478928
      ],
      [
        "ĠstÃ¡l",
        -8.934442127245978
      ],
      [
        "Å¯v",
        -8.937389306771951
      ],
      [
        "ĠsmÃŃch",
        -8.943392188960638
      ],
      [
        "Ġsyn",
        -8.944044141242397
      ],
      [
        "nu",
        -8.944143062532113
      ],
      [
        "ĠoÅĻÃŃ",
        -8.946798224860148
      ],
      [
        "ĠnovÃ½",
        -8.950661415882923
      ],
      [
        "ĠtvÃ½ch",
        -8.952369357608143
      ],
      [
        "Ġsmrti",
        -8.956530210711955
      ],
      [
        "Ġchci",
        -8.956757509087913
      ],
      [
        "avy",
        -8.965508811477331
      ],
      [
        "eny",
        -8.970960098724035
      ],
      [
        "Ġova",
        -8.976454763178058
      ],
      [
        "Ġvod",
        -8.982434233631936
      ],
      [
        "ĠpÅĻece",
        -8.982834355562265
      ],
      [
        "Ġhem",
        -8.984221732085432
      ],
      [
        "ĠvidÄĽl",
        -8.98574910759306
      ],
      [
        "ĠsÃŃl",
        -8.986961176346648
      ],
      [
        "Ġruku",
        -8.989025693734511
      ],
      [
        "nce",
        -8.9904177773056
      ],
      [
        "Ġkraj",
        -8.99167825968289
      ],
      [
        "ÄĽti",
        -8.992929790160616
      ],
      [
        "ĠnÃ¡rod",
        -8.993277510110754
      ],
      [
        "ĠzlatÃ½",
        -8.996728938848154
      ],
      [
        "ĠkterÃ¡",
        -8.999367459608328
      ],
      [
        "nÃ©",
        -9.001160665081157
      ],
      [
        "XB",
        -9.005685155406544
      ],
      [
        "Ġane",
        -9.005704924385656
      ],
      [
        "Ġret",
        -9.0070260224295
      ],
      [
        "ĠduÅ¡ÃŃ",
        -9.013842950980587
      ],
      [
        "Ġdlouho",
        -9.014671446801032
      ],
      [
        "avÃ½",
        -9.015600800310358
      ],
      [
        "ĠdÄĽti",
        -9.01742145360238
      ],
      [
        "Ã¡ti",
        -9.020704021392964
      ],
      [
        "Ġbys",
        -9.025021065818414
      ],
      [
        "Ġoji",
        -9.025799408630103
      ],
      [
        "Ġticho",
        -9.02788435438881
      ],
      [
        "iti",
        -9.034659428657928
      ],
      [
        "ĠleÅ¾ÃŃ",
        -9.034721307219487
      ],
      [
        "Ġven",
        -9.035425775498581
      ],
      [
        "Ġtvoje",
        -9.038867132591863
      ],
      [
        "tky",
        -9.03911486232929
      ],
      [
        "ĠdÃ¡vno",
        -9.040079367818556
      ],
      [
        "ĠutÃŃ",
        -9.04250521980638
      ],
      [
        "j",
        -9.043868060250697
      ],
      [
        "til",
        -9.043976346753805
      ],
      [
        "Ã½mi",
        -9.044453682235327
      ],
      [
        "Ġhou",
        -9.04453684111819
      ],
      [
        "Ġsmrt",
        -9.046280442627635
      ],
      [
        "ĠzdÃ¡",
        -9.046299207711561
      ],
      [
        "ĠmÃ½ch",
        -9.047305083359321
      ],
      [
        "Ġled",
        -9.047636484606882
      ],
      [
        "Ã¡le",
        -9.048854958101108
      ],
      [
        "ĠuÅ¡ÃŃ",
        -9.055538917777424
      ],
      [
        "ĠzÃ¡ÅĻ",
        -9.056926844058784
      ],
      [
        "Ġboj",
        -9.058289968400118
      ],
      [
        "Ġvlasti",
        -9.059572613491444
      ],
      [
        "Ã©mu",
        -9.06152561056544
      ],
      [
        "Ġdiv",
        -9.07000703763232
      ],
      [
        "Ã¡na",
        -9.07431500006801
      ],
      [
        "ĠletÃŃ",
        -9.078639852653996
      ],
      [
        "onÃŃ",
        -9.081267367446793
      ],
      [
        "ci",
        -9.083681184572265
      ],
      [
        "Ġpane",
        -9.086325633178358
      ],
      [
        "Ã½vÃ¡",
        -9.087361694398968
      ],
      [
        "ĠdobÅĻe",
        -9.089053769963016
      ],
      [
        "Ġele",
        -9.089313460693685
      ],
      [
        "ĠnuÅ¾",
        -9.089757660013907
      ],
      [
        "Ġlas",
        -9.090520564539796
      ],
      [
        "Ġosud",
        -9.090538756375407
      ],
      [
        "ĠcizÃŃ",
        -9.093785758473592
      ],
      [
        "tvÃŃ",
        -9.096096507128232
      ],
      [
        "ĠhvÄĽzdy",
        -9.096775099853854
      ],
      [
        "Ġklid",
        -9.097133622905337
      ],
      [
        "ĠchvÃŃle",
        -9.0982927968055
      ],
      [
        "Ġstran",
        -9.098579742468797
      ],
      [
        "Ġdou",
        -9.101381914763506
      ],
      [
        "ĠboÅ¾e",
        -9.103895274987146
      ],
      [
        "ĠtoÅ¥",
        -9.10509234018555
      ],
      [
        "ĠzlatÃ©",
        -9.105477811183793
      ],
      [
        "Ġlou",
        -9.106626650743111
      ],
      [
        "Ġplamen",
        -9.107869664214768
      ],
      [
        "Ġdem",
        -9.108156461735188
      ],
      [
        "Ġsvoje",
        -9.108289062574617
      ],
      [
        "nÃ©m",
        -9.110127212724619
      ],
      [
        "ĠsnÅ¯",
        -9.113536647741903
      ],
      [
        "ĠvÅ¡ecky",
        -9.114507123008279
      ],
      [
        "ily",
        -9.116043216507263
      ],
      [
        "ici",
        -9.118139082110899
      ],
      [
        "ĠmusÃŃ",
        -9.118849741594238
      ],
      [
        "d",
        -9.12103593102554
      ],
      [
        "ÃŃci",
        -9.123039438537774
      ],
      [
        "Ġvat",
        -9.126895874241223
      ],
      [
        "jÅ¡ÃŃ",
        -9.126986827597609
      ],
      [
        "Ġkrok",
        -9.128694051367498
      ],
      [
        "ĠÅ¾ena",
        -9.128766955855584
      ],
      [
        "ÄĽlo",
        -9.129259499313712
      ],
      [
        "ĠsvÄĽtÄĽ",
        -9.13041928258876
      ],
      [
        "Ġpohled",
        -9.13061129227434
      ],
      [
        "Ġhrob",
        -9.13142797554788
      ],
      [
        "Ġadu",
        -9.131947658801197
      ],
      [
        "Ġproto",
        -9.132677552713014
      ],
      [
        "Ġdav",
        -9.132900305594267
      ],
      [
        "ĠnovÃ©",
        -9.13332386368236
      ],
      [
        "Ġstrom",
        -9.136102300032702
      ],
      [
        "p",
        -9.136412746042726
      ],
      [
        "Ġjas",
        -9.136850180711138
      ],
      [
        "ĠvÄĽc",
        -9.140055203349316
      ],
      [
        "ĠÄįasto",
        -9.141060870976384
      ],
      [
        "ĠÄįelo",
        -9.14150749280766
      ],
      [
        "ĠmeÄį",
        -9.142779340352192
      ],
      [
        "enÃ¡",
        -9.143337752287243
      ],
      [
        "Ġlist",
        -9.14617468010882
      ],
      [
        "ĠpanÃŃ",
        -9.146636036198098
      ],
      [
        "Ġese",
        -9.147854209461167
      ],
      [
        "Ġ196",
        -9.149233860012043
      ],
      [
        "ĠÅ¡at",
        -9.152439447357613
      ],
      [
        "Ġtebou",
        -9.152858981279266
      ],
      [
        "ĠposlednÃŃ",
        -9.153146325804489
      ],
      [
        "Ġkdes",
        -9.15319866668134
      ],
      [
        "Ġsky",
        -9.154375757663228
      ],
      [
        "ĠcelÃ©",
        -9.1555344843194
      ],
      [
        "r",
        -9.158965020917424
      ],
      [
        "avu",
        -9.159847773766836
      ],
      [
        "ĠprÃ½",
        -9.163066146455703
      ],
      [
        "Ġdla",
        -9.163454610681622
      ],
      [
        "ĠvlastnÃŃ",
        -9.163599811372409
      ],
      [
        "Ġotec",
        -9.165687646614609
      ],
      [
        "AXAX",
        -9.171096134835835
      ],
      [
        "skÃ©",
        -9.17312015665432
      ],
      [
        "Ġblesk",
        -9.173896282324959
      ],
      [
        "Ġjemu",
        -9.174640584380011
      ],
      [
        "Ġruka",
        -9.174675844413311
      ],
      [
        "ĠtÄĽlo",
        -9.1768427937102
      ],
      [
        "Ġrem",
        -9.177921252341788
      ],
      [
        "itÃŃ",
        -9.178311966656006
      ],
      [
        "anÃŃ",
        -9.179628359657617
      ],
      [
        "edÃ¡",
        -9.17984508348642
      ],
      [
        "ĠdÃ¡m",
        -9.180230144065233
      ],
      [
        "Ġproti",
        -9.182474674776405
      ],
      [
        "Ġuch",
        -9.18355825548571
      ],
      [
        "ÃŃli",
        -9.18440765666784
      ],
      [
        "Ġnimi",
        -9.186277712504973
      ],
      [
        "ĠtÅĻeba",
        -9.186462073057486
      ],
      [
        "ĠÅ¾ivota",
        -9.19302371639176
      ],
      [
        "pouze",
        -9.194037107860895
      ],
      [
        "Ã¡li",
        -9.1964298514668
      ],
      [
        "ĠsvÄĽtlo",
        -9.196864260767992
      ],
      [
        "ĠnechÅ¥",
        -9.19940839526714
      ],
      [
        "ĠlÃ¡skou",
        -9.201928108793341
      ],
      [
        "Ġnebo",
        -9.20313384226471
      ],
      [
        "Ġproud",
        -9.204306080048324
      ],
      [
        "en",
        -9.205132256602525
      ],
      [
        "Ġsvoji",
        -9.205223295517161
      ],
      [
        "ne",
        -9.205298504184555
      ],
      [
        "Ġdva",
        -9.205644450997912
      ],
      [
        "ĠÅĻÃŃc",
        -9.206559575078728
      ],
      [
        "Ġdce",
        -9.206721165387888
      ],
      [
        "ĠlÃ¡sku",
        -9.209535856086307
      ],
      [
        "ĠuÅ¡i",
        -9.211117840425047
      ],
      [
        "Ġolu",
        -9.212409979152227
      ],
      [
        "Ġsny",
        -9.212803119859647
      ],
      [
        "ĠptÃ¡k",
        -9.212857873975567
      ],
      [
        "Ġtady",
        -9.21384022602068
      ],
      [
        "ije",
        -9.2139843105211
      ],
      [
        "ĠuÄįÃŃ",
        -9.214017137690686
      ],
      [
        "ĠolÃŃ",
        -9.21575122706238
      ],
      [
        "ABCCB",
        -9.219735055414752
      ],
      [
        "ĠvelkÃ©",
        -9.223038461127128
      ],
      [
        "Ġkal",
        -9.223741198642852
      ],
      [
        "ĠdÅĻÃŃv",
        -9.224111824824124
      ],
      [
        "Ġzvuk",
        -9.2241641366291
      ],
      [
        "ĠvelkÃ½",
        -9.224610621489512
      ],
      [
        "avÄĽ",
        -9.226483269566168
      ],
      [
        "ĠvolÃ¡",
        -9.22728058689091
      ],
      [
        "ĠsvÃŃtÃŃ",
        -9.22904081007952
      ],
      [
        "ĠsvatÃ©",
        -9.229607695973801
      ],
      [
        "Ã½m",
        -9.23268901247933
      ],
      [
        "ĠmilÃ½",
        -9.233818938870254
      ],
      [
        "AXBC",
        -9.234435749253938
      ],
      [
        "Ġpan",
        -9.236140103239363
      ],
      [
        "Ġtedy",
        -9.23792725137489
      ],
      [
        "ĠpÄĽt",
        -9.238377095785651
      ],
      [
        "Äįku",
        -9.239311516959528
      ],
      [
        "ĠzÅĻel",
        -9.239719172182285
      ],
      [
        "ĠvÃ½m",
        -9.240295274116093
      ],
      [
        "Ġtvou",
        -9.243614725368163
      ],
      [
        "ĠÅĻad",
        -9.246070136535264
      ],
      [
        "inu",
        -9.246961536452154
      ],
      [
        "ĠÅ¾eny",
        -9.250832274041972
      ],
      [
        "Ġmnoho",
        -9.250976628262146
      ],
      [
        "ĠpÃŃsnÄĽ",
        -9.252150958764723
      ],
      [
        "ĠbÃ½ti",
        -9.252411195721029
      ],
      [
        "ĠhledÃŃ",
        -9.255094361029737
      ],
      [
        "Ġhory",
        -9.255634251239611
      ],
      [
        "ĠmÄĽst",
        -9.256740420701506
      ],
      [
        "Ã¡ly",
        -9.257557668496837
      ],
      [
        "Ġvil",
        -9.259731715738809
      ],
      [
        "ti",
        -9.262864058386068
      ],
      [
        "ĠvÃ½Å¡",
        -9.263488111155423
      ],
      [
        "Ġoci",
        -9.26378609746801
      ],
      [
        "Ġpotom",
        -9.265274212874667
      ],
      [
        "ĠjinÃ½",
        -9.26622757219515
      ],
      [
        "ina",
        -9.266864536744023
      ],
      [
        "Ġoru",
        -9.267217826314575
      ],
      [
        "Ġvzal",
        -9.267954286359293
      ],
      [
        "Ġdost",
        -9.269706867173038
      ],
      [
        "nÃ½",
        -9.269921375454052
      ],
      [
        "Ġrak",
        -9.270257914488141
      ],
      [
        "ĠsvatÃ½",
        -9.272761782649292
      ],
      [
        "Ġalo",
        -9.273899187806485
      ],
      [
        "b",
        -9.275104529545024
      ],
      [
        "XXXXX",
        -9.27618386755376
      ],
      [
        "ĠchrÃ¡m",
        -9.276688705706993
      ],
      [
        "ĠmÃŃr",
        -9.27710781992812
      ],
      [
        "ĠnÄĽho",
        -9.27773021756046
      ],
      [
        "ĠsvojÃŃ",
        -9.278518340280966
      ],
      [
        "Ġslzy",
        -9.278531592418608
      ],
      [
        "Ġslz",
        -9.279242605115474
      ],
      [
        "Ġradost",
        -9.279872445936492
      ],
      [
        "ĠvÄĽru",
        -9.280377941415285
      ],
      [
        "ĠÅ¾Ã¡r",
        -9.280802794373955
      ],
      [
        "ĠrÃ¡z",
        -9.280847768519763
      ],
      [
        "ĠvÃŃtr",
        -9.282148370281835
      ],
      [
        "Ġoba",
        -9.283553569398192
      ],
      [
        "ĠsnÃŃ",
        -9.28449799160919
      ],
      [
        "ivÃ½",
        -9.285444602773476
      ],
      [
        "la",
        -9.285937273275682
      ],
      [
        "ĠmÃ¡Å¡",
        -9.286102578983586
      ],
      [
        "ĠkaÅ¾dÃ©",
        -9.286185679230861
      ],
      [
        "tku",
        -9.286675471794888
      ],
      [
        "ĠdÃ¡li",
        -9.286829177196177
      ],
      [
        "ĠjejÅ¾",
        -9.28697509331617
      ],
      [
        "Ġlidu",
        -9.288266281539856
      ],
      [
        "Ġcos",
        -9.29372964356476
      ],
      [
        "anÃ©",
        -9.294710896461858
      ],
      [
        "ĠmarnÄĽ",
        -9.294770442262339
      ],
      [
        "ĠopÄĽt",
        -9.29593961275752
      ],
      [
        "na",
        -9.299551712071876
      ],
      [
        "nku",
        -9.300357261083397
      ],
      [
        "Ġnikdo",
        -9.301862606444088
      ],
      [
        "Ġkdyby",
        -9.303175251580221
      ],
      [
        "Ġ194",
        -9.304259854334227
      ],
      [
        "osÅ¥",
        -9.307045652171022
      ],
      [
        "ivÃ¡",
        -9.308644835681886
      ],
      [
        "dnÃ©",
        -9.313026625979614
      ],
      [
        "AAXB",
        -9.314912280887787
      ],
      [
        "ĠvÃŃ",
        -9.315725257289131
      ],
      [
        "ĠvÃ¡Å¡",
        -9.315862616068673
      ],
      [
        "Äįky",
        -9.315996355592285
      ],
      [
        "ĠmÃŃt",
        -9.317628295136418
      ],
      [
        "ĠvÅ¡ude",
        -9.317866552624645
      ],
      [
        "ĠmÃ½m",
        -9.318963324657357
      ],
      [
        "Ġrod",
        -9.321416562126831
      ],
      [
        "ĠstarÃ©",
        -9.321448342658071
      ],
      [
        "Ġmatka",
        -9.321996372148268
      ],
      [
        "Ġmoc",
        -9.322312761303836
      ],
      [
        "Ã¡la",
        -9.32364932553308
      ],
      [
        "ĠnÄĽkdy",
        -9.323665364843238
      ],
      [
        "Ġmlh",
        -9.323696001247988
      ],
      [
        "ĠÅ¾en",
        -9.323863433949542
      ],
      [
        "Ġprach",
        -9.324500556320867
      ],
      [
        "ĠpÃŃsnÃŃ",
        -9.3252121714721
      ],
      [
        "Ġkrve",
        -9.329287726098887
      ],
      [
        "Ġzvon",
        -9.33129393034334
      ],
      [
        "ĠplÃ¡Äį",
        -9.331966815628014
      ],
      [
        "sud",
        -9.341237538531164
      ],
      [
        "Ġdej",
        -9.34180562290569
      ],
      [
        "Ġsil",
        -9.342748890707991
      ],
      [
        "Ġcestu",
        -9.342984868854844
      ],
      [
        "ĠdÃŃ",
        -9.343891134620574
      ],
      [
        "Ġasy",
        -9.34461608678556
      ],
      [
        "Ã¡me",
        -9.345782844489182
      ],
      [
        "ĠmlÃ¡dÃŃ",
        -9.346634092326669
      ],
      [
        "ĠnÃ¡mi",
        -9.34701220700428
      ],
      [
        "ĠpadÃ¡",
        -9.347751227029777
      ],
      [
        "ĠprÃ¡vÄĽ",
        -9.349306654560502
      ],
      [
        "ĠpÅĻiÅ¡el",
        -9.353490354266906
      ],
      [
        "ĠvidÃŃm",
        -9.353825449093982
      ],
      [
        "cÃŃch",
        -9.354151291997207
      ],
      [
        "Ġhlava",
        -9.354928836098054
      ],
      [
        "ĠvaÅ¡e",
        -9.356335873100559
      ],
      [
        "ĠdomÅ¯",
        -9.35836902973786
      ],
      [
        "ÄĽÅ¾ÃŃ",
        -9.358467888383036
      ],
      [
        "ĠpÃ¡r",
        -9.358824932162953
      ],
      [
        "Ġase",
        -9.360072909571288
      ],
      [
        "ĠbouÅĻe",
        -9.360294025347256
      ],
      [
        "Ġ180",
        -9.360991321113685
      ],
      [
        "ÃŃÅ¾ÃŃ",
        -9.361412146302568
      ],
      [
        "ĠrÃ¡na",
        -9.36210712335792
      ],
      [
        "ĠlidÃ©",
        -9.364688363580521
      ],
      [
        "Ġobraz",
        -9.36754125707865
      ],
      [
        "ĠÅĻek",
        -9.36770647165864
      ],
      [
        "Ġjdou",
        -9.368042556926063
      ],
      [
        "ĠmÄĽsÃŃc",
        -9.36818369296351
      ],
      [
        "ĠdnÃŃ",
        -9.368849479617381
      ],
      [
        "ĠjistÄĽ",
        -9.369936122770655
      ],
      [
        "ĠmÃ¡lo",
        -9.37380434473994
      ],
      [
        "ĠzpÄĽt",
        -9.378024802981336
      ],
      [
        "ĠmÃŃsto",
        -9.378372964254153
      ],
      [
        "Ġsvit",
        -9.379509130918429
      ],
      [
        "Ġsama",
        -9.37969596346278
      ],
      [
        "atÃ©",
        -9.380671823259663
      ],
      [
        "rvÃŃ",
        -9.382826510217406
      ],
      [
        "ĠsvÄĽtla",
        -9.384230208367423
      ],
      [
        "ABAA",
        -9.385775814751604
      ],
      [
        "ÄĽjÃŃ",
        -9.385902838658513
      ],
      [
        "ĠnÄĽmÅ¾",
        -9.386023646672939
      ],
      [
        "ÃŃme",
        -9.386074092352906
      ],
      [
        "nky",
        -9.386120264516583
      ],
      [
        "ĠklÃŃn",
        -9.38798683403788
      ],
      [
        "ĠvÅ¡echno",
        -9.38873912110375
      ],
      [
        "ĠprÃ¡ci",
        -9.388982830015786
      ],
      [
        "eho",
        -9.390518552583307
      ],
      [
        "ĠprÃ¡ce",
        -9.392709044799439
      ],
      [
        "ĠmÅ¯Å¾e",
        -9.392763435844875
      ],
      [
        "ĠslÃ¡vy",
        -9.393343608332989
      ],
      [
        "Ġskal",
        -9.396742688902885
      ],
      [
        "Ġout",
        -9.397050776223246
      ],
      [
        "Ã¡ÅĻe",
        -9.398903571107894
      ],
      [
        "ĠzÃ¡ÅĻÃŃ",
        -9.399975675580615
      ],
      [
        "ĠkrÃ¡sy",
        -9.402713292322124
      ],
      [
        "Ġtrochu",
        -9.404489166262751
      ],
      [
        "ĠneÅ¾li",
        -9.405336470810116
      ],
      [
        "ĠvÅ¡eho",
        -9.406880272252641
      ],
      [
        "ĠnÄĽmu",
        -9.407447127201742
      ],
      [
        "AXBB",
        -9.408978805142423
      ],
      [
        "val",
        -9.409124235178469
      ],
      [
        "ĠstÃŃny",
        -9.409742479978068
      ],
      [
        "ĠnaÅ¡ÃŃ",
        -9.411305360758913
      ],
      [
        "Ġvlas",
        -9.41427455152914
      ],
      [
        "ich",
        -9.414822859915919
      ],
      [
        "ĠdÃ¡",
        -9.415863643755973
      ],
      [
        "ĠvzhÅ¯ru",
        -9.416284227450815
      ],
      [
        "Ġlad",
        -9.4172506093114
      ],
      [
        "Ġeli",
        -9.422491512611765
      ],
      [
        "Ġzvoln",
        -9.423550666327415
      ],
      [
        "ĠÄįech",
        -9.423859864378896
      ],
      [
        "ĠdvÄĽ",
        -9.425111630842848
      ],
      [
        "uje",
        -9.427540580906852
      ],
      [
        "ĠÅ¾el",
        -9.427557092859134
      ],
      [
        "ĠtvÃ¡ÅĻe",
        -9.427917897796418
      ],
      [
        "ĠlidÃŃ",
        -9.428283329934992
      ],
      [
        "Ġaj",
        -9.428462616555247
      ],
      [
        "ĠdÅ¯m",
        -9.429962543668825
      ],
      [
        "Ġtolik",
        -9.431521567581255
      ],
      [
        "atÃ½",
        -9.432621946316488
      ],
      [
        "omu",
        -9.433315479277086
      ],
      [
        "ĠzpÃŃvÃ¡",
        -9.434906914555702
      ],
      [
        "Ã¡lo",
        -9.435325183766789
      ],
      [
        "Ġnese",
        -9.435564888122583
      ],
      [
        "Ġbohu",
        -9.438572664948047
      ],
      [
        "ĠnocÃŃ",
        -9.439674862498249
      ],
      [
        "ĠkvÄĽtÅ¯",
        -9.440496513067156
      ],
      [
        "ĠdÄĽt",
        -9.442050752759314
      ],
      [
        "Ġslovo",
        -9.442337393321022
      ],
      [
        "Ġrok",
        -9.442956207741469
      ],
      [
        "ejÃŃ",
        -9.444608608599731
      ],
      [
        "Ġboha",
        -9.445877623004252
      ],
      [
        "Ġtek",
        -9.446389522448413
      ],
      [
        "Ġude",
        -9.449480202260023
      ],
      [
        "Ġuku",
        -9.45272214741474
      ],
      [
        "ĠvÃŃÅ¡",
        -9.452729320983831
      ],
      [
        "Ġodu",
        -9.4535197222885
      ],
      [
        "ĠuÅ¡e",
        -9.453560313679478
      ],
      [
        "ĠÄįernÃ©",
        -9.454872912707302
      ],
      [
        "Ġspolu",
        -9.455655557611244
      ],
      [
        "ĠslyÅ¡",
        -9.456469930743904
      ],
      [
        "ĠtÅĻi",
        -9.457434845429216
      ],
      [
        "ĠpÅĻijde",
        -9.460382109541994
      ],
      [
        "ĠdolÅ¯",
        -9.460816200695605
      ],
      [
        "ĠvÄĽÄįnÄĽ",
        -9.463160124401773
      ],
      [
        "Ġvzdech",
        -9.463260472716863
      ],
      [
        "Ã¡ÅĻi",
        -9.463754696549191
      ],
      [
        "ĠÅ¾ÃŃt",
        -9.464178146976764
      ],
      [
        "Ġrychle",
        -9.464612104246706
      ],
      [
        "ĠucÃŃ",
        -9.465933458844049
      ],
      [
        "ÄĽli",
        -9.466695069677426
      ],
      [
        "ĠvÅ¡ichn",
        -9.467246483094014
      ],
      [
        "ĠhoÅĻe",
        -9.46750593773152
      ],
      [
        "ÃŃle",
        -9.468277918807502
      ],
      [
        "ĠtvÃ¡ÅĻÃŃ",
        -9.46913536644977
      ],
      [
        "AXAB",
        -9.469415557399998
      ],
      [
        "Ġsku",
        -9.469625316071246
      ],
      [
        "ĠvÄĽk",
        -9.470628690732488
      ],
      [
        "ÃŃly",
        -9.472444539561726
      ],
      [
        "Ġbol",
        -9.474361955921053
      ],
      [
        "Ã¡no",
        -9.475264560960316
      ],
      [
        "ĠkrÃ¡snÃ©",
        -9.475350541582442
      ],
      [
        "Ġmoh",
        -9.47603044376573
      ],
      [
        "ĠÅĻeÄį",
        -9.476936110246674
      ],
      [
        "h",
        -9.476938491042032
      ],
      [
        "ĠhruÄı",
        -9.478202365199962
      ],
      [
        "ĠchÃ¡",
        -9.47887803599522
      ],
      [
        "ĠhnÄĽv",
        -9.479161939763848
      ],
      [
        "Ġaky",
        -9.47984467738565
      ],
      [
        "yla",
        -9.48012995307663
      ],
      [
        "ivÃ©",
        -9.48017451878456
      ],
      [
        "ovi",
        -9.48344958724585
      ],
      [
        "ĠjÃŃm",
        -9.48517161310517
      ],
      [
        "Ġpole",
        -9.485222463156957
      ],
      [
        "Ġpil",
        -9.486437586348325
      ],
      [
        "ĠvidÃŃ",
        -9.487954667746353
      ],
      [
        "ĠÅ¡um",
        -9.491433369181198
      ],
      [
        "ĠzÅĻÃŃm",
        -9.491479109347596
      ],
      [
        "ĠmÄĽsta",
        -9.492964059669509
      ],
      [
        "ete",
        -9.49376845223936
      ],
      [
        "Ã¡zÃŃ",
        -9.493782918998548
      ],
      [
        "Ã¡ci",
        -9.49419797096547
      ],
      [
        "ĠÄįele",
        -9.494510219738038
      ],
      [
        "Ġsebou",
        -9.495850397930283
      ],
      [
        "Ġprsou",
        -9.497255513630288
      ],
      [
        "ĠlÃŃc",
        -9.49736332350492
      ],
      [
        "Ġpad",
        -9.498216667216973
      ],
      [
        "Ġstrach",
        -9.498647748554253
      ],
      [
        "ovÃ½",
        -9.500515279296465
      ],
      [
        "Ġbudu",
        -9.501002775707276
      ],
      [
        "Ġzjev",
        -9.50110367539031
      ],
      [
        "ĠoÅ¾ÃŃ",
        -9.501335880926648
      ],
      [
        "eno",
        -9.501913780348993
      ],
      [
        "ĠkdoÅ¾",
        -9.502499725824464
      ],
      [
        "Ġory",
        -9.503801468907046
      ],
      [
        "ĠplnÃ½",
        -9.504812750243252
      ],
      [
        "Ġody",
        -9.505794182805037
      ],
      [
        "Ġbolest",
        -9.505901276113168
      ],
      [
        "ĠhoÅĻÃŃ",
        -9.507458885152495
      ],
      [
        "ĠtvÃ¡ÅĻi",
        -9.507570928014081
      ],
      [
        "Ġvlast",
        -9.508508469482129
      ],
      [
        "Ġbudou",
        -9.508756058582415
      ],
      [
        "ĠjakÃ½",
        -9.514193095563444
      ],
      [
        "Ġdil",
        -9.515771821501355
      ],
      [
        "Ġtouhy",
        -9.516299026439565
      ],
      [
        "ĠblÃŃÅ¾",
        -9.516408299523064
      ],
      [
        "ĠnaÅ¡ich",
        -9.516896580653384
      ],
      [
        "eje",
        -9.517070962062434
      ],
      [
        "Ġlesy",
        -9.518052763265949
      ],
      [
        "Ġelo",
        -9.518770482800772
      ],
      [
        "Ã¡ÅĻÃŃ",
        -9.519676692181744
      ],
      [
        "Ġhlubin",
        -9.520576734661377
      ],
      [
        "Ã¡ny",
        -9.520987435177336
      ],
      [
        "ĠnichÅ¾",
        -9.522666041744841
      ],
      [
        "Å¯Å¾e",
        -9.522884898410068
      ],
      [
        "ĠlÃ¡sce",
        -9.523004662817659
      ],
      [
        "Ġasu",
        -9.523241947326794
      ],
      [
        "ĠnaÄį",
        -9.524126750363198
      ],
      [
        "inÄĽ",
        -9.524436788906813
      ],
      [
        "Ġducha",
        -9.525276035131187
      ],
      [
        "avÃ©",
        -9.526498463630778
      ],
      [
        "Ġboji",
        -9.526834761202556
      ],
      [
        "ĠudÃŃ",
        -9.529026354021282
      ],
      [
        "Ġokem",
        -9.52956606567884
      ],
      [
        "ĠvÅ¡echn",
        -9.52984169386805
      ],
      [
        "Ġtakto",
        -9.533410031863179
      ],
      [
        "Ġbyly",
        -9.535102777047294
      ],
      [
        "Ġbohem",
        -9.535618346850306
      ],
      [
        "ĠdobrÃ½",
        -9.536675457244304
      ],
      [
        "Ġjedno",
        -9.537615517288197
      ],
      [
        "ÅĻil",
        -9.538896041844557
      ],
      [
        "ĠdÃ¡t",
        -9.541019927192993
      ],
      [
        "Ġran",
        -9.541969875738829
      ],
      [
        "ĠsnÄĽnÃŃ",
        -9.5427045857796
      ],
      [
        "kou",
        -9.544795897588775
      ],
      [
        "ĠvÅ¯nÄĽ",
        -9.545289861974654
      ],
      [
        "Ġznova",
        -9.545626440627212
      ],
      [
        "ĠtrÃ¡v",
        -9.545747227800575
      ],
      [
        "Ã¡ni",
        -9.545791554180735
      ],
      [
        "Ġslov",
        -9.548453445001998
      ],
      [
        "ĠsnÃŃh",
        -9.548823881629108
      ],
      [
        "ovy",
        -9.549123274278465
      ],
      [
        "ÄĽly",
        -9.549781220844624
      ],
      [
        "ĠmnohÃ½",
        -9.549976261120358
      ],
      [
        "ĠvÃ½Å¡e",
        -9.553296629900512
      ],
      [
        "ĠznÃ¡",
        -9.554448352115788
      ],
      [
        "ej",
        -9.556775599572394
      ],
      [
        "ĠtÄĽla",
        -9.559305044293279
      ],
      [
        "Ġdum",
        -9.560523132180695
      ],
      [
        "ovu",
        -9.560883281064832
      ],
      [
        "ec",
        -9.562323996368551
      ],
      [
        "ĠÅĻÃŃÅ¡",
        -9.562835024658003
      ],
      [
        "ĠandÄĽl",
        -9.562972684538913
      ],
      [
        "ĠlÃŃce",
        -9.563796461899193
      ],
      [
        "eÅ¾ÃŃ",
        -9.563980155338525
      ],
      [
        "AC",
        -9.56510769226999
      ],
      [
        "ĠpÅĻe",
        -9.566370319154617
      ],
      [
        "ĠÅĻekl",
        -9.569483330931295
      ],
      [
        "ĠdÃ½m",
        -9.570151231097865
      ],
      [
        "atÃŃ",
        -9.573345638517052
      ],
      [
        "ĠjinÃ©",
        -9.574076785918109
      ],
      [
        "ĠÄįasem",
        -9.57472925172633
      ],
      [
        "ĠzÅĻÃŃ",
        -9.577614032317467
      ],
      [
        "!...",
        -9.578392506287146
      ],
      [
        "Ġjaro",
        -9.579506008835548
      ],
      [
        "Ġzlato",
        -9.579621213784819
      ],
      [
        "ĠjÃŃt",
        -9.581997480912248
      ],
      [
        "Ġvody",
        -9.582472845244942
      ],
      [
        "ĠvÃŃr",
        -9.583059451787308
      ],
      [
        "Ã¡te",
        -9.584806263089192
      ],
      [
        "ĠcelÃ¡",
        -9.586439290858108
      ],
      [
        "Ġmen",
        -9.586862257549358
      ],
      [
        "ĠmÃ©m",
        -9.58705789954589
      ],
      [
        "ĠmojÃŃ",
        -9.587197594071062
      ],
      [
        "ĠsladkÃ©",
        -9.587629100765682
      ],
      [
        "ĠtÄĽm",
        -9.588464038213989
      ],
      [
        "idÃŃ",
        -9.588896817294271
      ],
      [
        "Ġlil",
        -9.589059440614225
      ],
      [
        "Ġsou",
        -9.590681036416097
      ],
      [
        "ĠvÄĽky",
        -9.591265398467756
      ],
      [
        "alÃŃ",
        -9.592148371240995
      ],
      [
        "Ġasi",
        -9.59256959913058
      ],
      [
        "Ġcha",
        -9.59322326921073
      ],
      [
        "ĠmalÃ½",
        -9.594681439092778
      ],
      [
        "Ġbyli",
        -9.596261258713954
      ],
      [
        "Ġpln",
        -9.597631041602673
      ],
      [
        "ni",
        -9.59811177981382
      ],
      [
        "Ġtal",
        -9.599826088825834
      ],
      [
        "Ġuce",
        -9.599924505696482
      ],
      [
        "Ġroz",
        -9.600337420238628
      ],
      [
        "ĠÄįekÃ¡",
        -9.602676744220897
      ],
      [
        "ĠznÃ¡m",
        -9.602767711970891
      ],
      [
        "Ġkterak",
        -9.604011676044761
      ],
      [
        "Ġhoch",
        -9.604200797810751
      ],
      [
        "ĠdlouhÃ½",
        -9.606340644619909
      ],
      [
        "ĠnemÃ¡",
        -9.607148516549776
      ],
      [
        "ĠÃºst",
        -9.607949623466878
      ],
      [
        "Ġsbor",
        -9.608314089821702
      ],
      [
        "ĠstarÃ¡",
        -9.610861590984655
      ],
      [
        "ĠvstÅĻÃŃc",
        -9.611386816263968
      ],
      [
        "Ġhne",
        -9.613488348766294
      ],
      [
        "ABAC",
        -9.614800437926915
      ],
      [
        "ĠskÃ¡l",
        -9.61604581791031
      ],
      [
        "ĠtoÅ¾",
        -9.61617214345156
      ],
      [
        "ĠÅ¡la",
        -9.616993217044648
      ],
      [
        "ĠodÃŃ",
        -9.61707884681797
      ],
      [
        "Ġsoud",
        -9.621376269360937
      ],
      [
        "Äįek",
        -9.623129550375198
      ],
      [
        "ost",
        -9.624114984811358
      ],
      [
        "ĠkÅĻÃŃÅ¾",
        -9.624401820586769
      ],
      [
        "ĠkÅĻÃŃdla",
        -9.624651645230884
      ],
      [
        "Ġcesty",
        -9.62506536780164
      ],
      [
        "ĠsedÃŃ",
        -9.62673527252285
      ],
      [
        "Ġrou",
        -9.627520483143542
      ],
      [
        "nka",
        -9.628069045707159
      ],
      [
        "ĠÅ¡tÄĽ",
        -9.6310726003092
      ],
      [
        "Ġsto",
        -9.63140241258656
      ],
      [
        "ĠrÃ¡j",
        -9.633236889875798
      ],
      [
        "emÄĽ",
        -9.634335962493664
      ],
      [
        "Ġbou",
        -9.634412365137539
      ],
      [
        "Ã½Å¡e",
        -9.634435230528132
      ],
      [
        "ze",
        -9.634508431382537
      ],
      [
        "ĠzÃ¡ÅĻe",
        -9.634849270424946
      ],
      [
        "cÃŃ",
        -9.63571753646908
      ],
      [
        "ĠtichÃ½",
        -9.637162474148125
      ],
      [
        "ĠnÄĽco",
        -9.63724710308948
      ],
      [
        "Ġjedna",
        -9.638445721852273
      ],
      [
        "anÃ½",
        -9.638689800411413
      ],
      [
        "Ã©m",
        -9.639293964504722
      ],
      [
        "ĠtisÃŃc",
        -9.640059636829477
      ],
      [
        "Ġmoji",
        -9.640272189438782
      ],
      [
        "ĠujÃŃ",
        -9.640400321711907
      ],
      [
        "Ġoka",
        -9.640606952758747
      ],
      [
        "ABCB",
        -9.640632165776662
      ],
      [
        "ĠkvÃŃtÃŃ",
        -9.640984540040606
      ],
      [
        "ĠslÃ¡va",
        -9.641216970969962
      ],
      [
        "ĠÄįka",
        -9.64135355953336
      ],
      [
        "Ġcestou",
        -9.641783597229006
      ],
      [
        "anÄĽ",
        -9.641834551508799
      ],
      [
        "Ġtouha",
        -9.64260136778679
      ],
      [
        "ĠjarnÃŃ",
        -9.644385069123967
      ],
      [
        "Ġnelze",
        -9.64489878750095
      ],
      [
        "Ġpravil",
        -9.64590776407827
      ],
      [
        "ĠmilÃ¡",
        -9.646655646137395
      ],
      [
        "ral",
        -9.64680526685242
      ],
      [
        "ĠtvÃ½m",
        -9.64879153053597
      ],
      [
        "ĠvÄĽÄįnÃ½",
        -9.650401272292413
      ],
      [
        "ĠbÃŃlÃ¡",
        -9.65061020059058
      ],
      [
        "ĠmladÃ½",
        -9.651381324718937
      ],
      [
        "ĠpravÃŃ",
        -9.65219583390296
      ],
      [
        "Ġobzor",
        -9.653189868458847
      ],
      [
        "ĠumÃŃ",
        -9.653710806749118
      ],
      [
        "BB",
        -9.653903089913623
      ],
      [
        "ĠstromÅ¯",
        -9.656880077808168
      ],
      [
        "Ġuti",
        -9.659149177995701
      ],
      [
        "mu",
        -9.659338647311674
      ],
      [
        "Ġmatky",
        -9.659416443807753
      ],
      [
        "edÃŃ",
        -9.661588076771366
      ],
      [
        "ĠmoÅĻi",
        -9.662128473660772
      ],
      [
        "ĠvÄĽÄįnÃ©",
        -9.662380644380589
      ],
      [
        "aÄįÃŃ",
        -9.662708441801044
      ],
      [
        "Ġjara",
        -9.66279331209303
      ],
      [
        "Ġslunci",
        -9.664464273989278
      ],
      [
        "ĠdnÅ¯",
        -9.665160360064203
      ],
      [
        "vÃ©m",
        -9.665270855648194
      ],
      [
        "ĠjÃŃÅ¾",
        -9.665319369883942
      ],
      [
        "ĠdÃŃk",
        -9.667298707361518
      ],
      [
        "Ġvedle",
        -9.66883105910223
      ],
      [
        "Ġdole",
        -9.6701702205224
      ],
      [
        "dny",
        -9.67061565819662
      ],
      [
        "al",
        -9.670657074086481
      ],
      [
        "Ġtla",
        -9.671292545441109
      ],
      [
        "Ġnek",
        -9.671813016952186
      ],
      [
        "ÃŃÅ¾e",
        -9.672358949358316
      ],
      [
        "ĠmilÃ©",
        -9.674133842839788
      ],
      [
        "ĠadÃ¡",
        -9.677355670667284
      ],
      [
        "ylo",
        -9.677523433685757
      ],
      [
        "ĠsvÃ©mu",
        -9.677876257064838
      ],
      [
        "ĠslyÅ¡el",
        -9.677975909136629
      ],
      [
        "Ġdob",
        -9.678269188214959
      ],
      [
        "ĠÅ¡li",
        -9.680142041939492
      ],
      [
        "ĠspÃŃ",
        -9.680270475174314
      ],
      [
        "ÃŃte",
        -9.681282456050866
      ],
      [
        "ĠnÄĽj",
        -9.681798517953265
      ],
      [
        "ĠnevÃŃm",
        -9.684534909672355
      ],
      [
        "Ġcelou",
        -9.685397149526509
      ],
      [
        "ĠzÃ¡pad",
        -9.68637004801798
      ],
      [
        "ĠnadÄĽje",
        -9.687749592805611
      ],
      [
        "ĠsladkÃ½",
        -9.688333159631267
      ],
      [
        "oÅĻi",
        -9.688623570619471
      ],
      [
        "Ġnohou",
        -9.688963720681821
      ],
      [
        "Ġhrobu",
        -9.68907930067375
      ],
      [
        "Ġrty",
        -9.689105403522145
      ],
      [
        "ĠkaÅ¾dÃ¡",
        -9.692790155561042
      ],
      [
        "Ġdoma",
        -9.69300987695475
      ],
      [
        "Ġrad",
        -9.693748192433027
      ],
      [
        "ĠbÄĽda",
        -9.693837294368855
      ],
      [
        "ĠhlavÄĽ",
        -9.694973588338158
      ],
      [
        "ÃŃnÃ¡",
        -9.69503118811037
      ],
      [
        "lo",
        -9.695295115881807
      ],
      [
        "Ã¡cÃŃ",
        -9.697110943209331
      ],
      [
        "ĠlidskÃ©",
        -9.69808437288341
      ],
      [
        "ĠsvÄĽÅ¾ÃŃ",
        -9.698798943377477
      ],
      [
        "ĠÄįela",
        -9.699994492420647
      ],
      [
        "Ġkterou",
        -9.69999631668168
      ],
      [
        "Ġtmy",
        -9.70090967383427
      ],
      [
        "Ġely",
        -9.701066212563447
      ],
      [
        "AAXX",
        -9.70244138301721
      ],
      [
        "poÅĪ",
        -9.702660922853621
      ],
      [
        "Ġples",
        -9.70412600390599
      ],
      [
        "no",
        -9.70441121541927
      ],
      [
        "Ġano",
        -9.70619955542557
      ],
      [
        "Ġhrad",
        -9.70788431038601
      ],
      [
        "Ġkraje",
        -9.710381568363754
      ],
      [
        "ĠoheÅĪ",
        -9.711965583373239
      ],
      [
        "ĠplnÃ©",
        -9.713321973091253
      ],
      [
        "ĠstÄĽ",
        -9.71407039532729
      ],
      [
        "ÃŃlÃŃ",
        -9.714100420196925
      ],
      [
        "ĠjakÃ©",
        -9.714486416812885
      ],
      [
        "ĠstÃŃnu",
        -9.714498291136923
      ],
      [
        "XABB",
        -9.715469578589031
      ],
      [
        "ĠmÄĽla",
        -9.715931968189498
      ],
      [
        "Ġhodin",
        -9.71619708069188
      ],
      [
        "Ġera",
        -9.716797636101564
      ],
      [
        "Ġudu",
        -9.717893362408695
      ],
      [
        "ĠbouÅĻÃŃ",
        -9.718945659189714
      ],
      [
        "ĠdÃŃvÃ¡",
        -9.719390549627766
      ],
      [
        "Ġjdu",
        -9.719789919278904
      ],
      [
        "ĠtenkrÃ¡t",
        -9.720586333041531
      ],
      [
        "ĠkrÃ¡snÃ¡",
        -9.720697237365904
      ],
      [
        "Ġruky",
        -9.72088064043529
      ],
      [
        "ĠmuÅ¾i",
        -9.721204811104359
      ],
      [
        "Ġnil",
        -9.72297624849418
      ],
      [
        "Ġluk",
        -9.724697154256841
      ],
      [
        "ĠdÃ¡lky",
        -9.725643530662312
      ],
      [
        "Ġmech",
        -9.726329118073822
      ],
      [
        "ĠzatÃŃm",
        -9.726476883125803
      ],
      [
        "ÃŃru",
        -9.726580939930333
      ],
      [
        "ĠtÄĽl",
        -9.727353239089243
      ],
      [
        "ĠÅ¡tÃŃ",
        -9.729181560014904
      ],
      [
        "ĠdruhÃ½",
        -9.729805881804744
      ],
      [
        "Ġkonec",
        -9.73199656820807
      ],
      [
        "ÃŃtÃ¡",
        -9.733546824775305
      ],
      [
        "Ġpoli",
        -9.7338463495348
      ],
      [
        "ĠÅ¾ije",
        -9.734927106187282
      ],
      [
        "ĠrÃ¡no",
        -9.735316331212918
      ],
      [
        "ĠlistÃŃ",
        -9.736168658018016
      ],
      [
        "Ġvem",
        -9.73656349162781
      ],
      [
        "ĠdrahÃ½",
        -9.737435395079665
      ],
      [
        "Ġata",
        -9.738074492522397
      ],
      [
        "ĠjehoÅ¾",
        -9.738184622387429
      ],
      [
        "Ġoby",
        -9.739243704764515
      ],
      [
        "vÃ¡",
        -9.739462881443533
      ],
      [
        "Ġnebyl",
        -9.739563954969828
      ],
      [
        "ĠtÃ©to",
        -9.740386559561545
      ],
      [
        "ĠbyÅ¥",
        -9.740809223482675
      ],
      [
        "ÃŃtÄĽ",
        -9.740829625252871
      ],
      [
        "ĠklidnÄĽ",
        -9.7413066233574
      ],
      [
        "ĠÄįel",
        -9.741537883121588
      ],
      [
        "Ġony",
        -9.742422741070275
      ],
      [
        "Ġchy",
        -9.742972308261754
      ],
      [
        "ĠznÄĽl",
        -9.743206832869152
      ],
      [
        "Ġstu",
        -9.743528544547164
      ],
      [
        "ĠÅĻÃŃm",
        -9.745127212080373
      ],
      [
        "Ġmrak",
        -9.745169303210233
      ],
      [
        "ĠtichÃ©",
        -9.746783093669496
      ],
      [
        "Ġnech",
        -9.747419290223775
      ],
      [
        "ĠÃºsta",
        -9.747993943377285
      ],
      [
        "Ġokn",
        -9.748334728932738
      ],
      [
        "Ġrek",
        -9.748806162205529
      ],
      [
        "ĠÄįek",
        -9.748914694595655
      ],
      [
        "Ã¡tÃŃ",
        -9.749306496171325
      ],
      [
        "Ġoblak",
        -9.752250973544632
      ],
      [
        "ĠnaÅĪ",
        -9.752282464064951
      ],
      [
        "Ġohu",
        -9.752401546989226
      ],
      [
        "Ġvlasy",
        -9.753510686026559
      ],
      [
        "Ġotce",
        -9.753814817575513
      ],
      [
        "ilÃ½",
        -9.756408710776801
      ],
      [
        "Ã¡dÃ¡",
        -9.758299389801618
      ],
      [
        "ĠmladÃ©",
        -9.759330955840046
      ],
      [
        "ĠlidskÃ½",
        -9.761366119373367
      ],
      [
        "ĠcÃŃtil",
        -9.761446821956604
      ],
      [
        "skÃ¡",
        -9.761742048380963
      ],
      [
        "ĠÄįil",
        -9.762005867194658
      ],
      [
        "Ġjakby",
        -9.762236559048382
      ],
      [
        "Ġsty",
        -9.763117051721624
      ],
      [
        "Ġole",
        -9.763558725682472
      ],
      [
        "ĠkÃ©Å¾",
        -9.76449792323184
      ],
      [
        "Ġkraji",
        -9.765914696608647
      ],
      [
        "ĠdrahÃ¡",
        -9.766962889256327
      ],
      [
        "ĠmuÅ¾e",
        -9.767329955822385
      ],
      [
        "Ġdosti",
        -9.768009906026172
      ],
      [
        "Ġany",
        -9.768299739679646
      ],
      [
        "acÃŃ",
        -9.76833123281098
      ],
      [
        "Ã¡nÄĽ",
        -9.768752202291349
      ],
      [
        "ĠpojÄı",
        -9.770643985390446
      ],
      [
        "ÄĽtÃŃ",
        -9.77196980343216
      ],
      [
        "Ġpravda",
        -9.772134414782393
      ],
      [
        "Ã¡men",
        -9.7739903043109
      ],
      [
        "ĠrÅ¯Å¾ÃŃ",
        -9.77463505696384
      ],
      [
        "Ġkdos",
        -9.77563051120039
      ],
      [
        "Ġdoby",
        -9.776170663458224
      ],
      [
        "ĠlesÅ¯",
        -9.776607539311444
      ],
      [
        "ĠtvÃ©m",
        -9.77668445866883
      ],
      [
        "ĠÅ¡tÃŃt",
        -9.77745347539245
      ],
      [
        "ĠvÄĽÅĻ",
        -9.781845058790527
      ],
      [
        "ĠmluvÃŃ",
        -9.783291055560998
      ],
      [
        "jte",
        -9.783560731778294
      ],
      [
        "avÃ¡",
        -9.78387166540271
      ],
      [
        "Ġplno",
        -9.784878047136136
      ],
      [
        "ĠÄįernÃ½",
        -9.785247318564501
      ],
      [
        "nÃŃk",
        -9.786453517023965
      ],
      [
        "ÃŃmÃ¡",
        -9.787507593323923
      ],
      [
        "ĠvÄĽtÅ¡ÃŃ",
        -9.787644193023603
      ],
      [
        "Ġbrzy",
        -9.789687858435151
      ],
      [
        "ĠkrÃ¡ÄįÃŃ",
        -9.789758625300383
      ],
      [
        "Ġluh",
        -9.790552369065274
      ],
      [
        "rÃ¡t",
        -9.79061837335544
      ],
      [
        "yne",
        -9.790868874624884
      ],
      [
        "ĠzÃ¡ÅĻi",
        -9.791175042093691
      ],
      [
        "ĠcÃŃl",
        -9.792305112100228
      ],
      [
        "ĠdnÄĽ",
        -9.79247878699325
      ],
      [
        "ĠÄįeskÃ½",
        -9.792905831139294
      ],
      [
        "ĠÅĻÃ¡d",
        -9.793021309184915
      ],
      [
        "ĠsÃŃla",
        -9.793727077067981
      ],
      [
        "ĠuÅ¾ÃŃ",
        -9.79392255196327
      ],
      [
        "Ã¡va",
        -9.793999310806898
      ],
      [
        "Ġlidstv",
        -9.794144400083926
      ],
      [
        "ĠmÃ¡me",
        -9.7950473635015
      ],
      [
        "ĠplÃ¡l",
        -9.79556069617812
      ],
      [
        "omÅ¯",
        -9.796031881525852
      ],
      [
        "ĠskÃ¡",
        -9.797143465018191
      ],
      [
        "Ġpal",
        -9.79735283763905
      ],
      [
        "ĠlÃ©ta",
        -9.80041273667987
      ],
      [
        "Ġcest",
        -9.80062030969222
      ],
      [
        "ĠzÃŃtr",
        -9.80076933796235
      ],
      [
        "Ġsnu",
        -9.803396549880329
      ],
      [
        "ĠdlouhÃ©",
        -9.806882479009154
      ],
      [
        "Ġene",
        -9.806988216297942
      ],
      [
        "elÃ½",
        -9.807768279391272
      ],
      [
        "Ġjinak",
        -9.808237698852258
      ],
      [
        "il",
        -9.808606221251162
      ],
      [
        "ĠzÃ¡stup",
        -9.808634446667764
      ],
      [
        "ĠtÄĽÅ¾kÃ½",
        -9.809249022527194
      ],
      [
        "ĠrÃ¡ny",
        -9.809633652028875
      ],
      [
        "ĠsvÃ¡",
        -9.809981734341747
      ],
      [
        "Ġradosti",
        -9.810149751395205
      ],
      [
        "ĠjichÅ¾",
        -9.810403790849794
      ],
      [
        "ĠstÃ¡",
        -9.810593425514778
      ],
      [
        "ĠrtÅ¯",
        -9.810763892766044
      ],
      [
        "Ġobu",
        -9.812244368096984
      ],
      [
        "ĠzdÃ¡lo",
        -9.81471683296827
      ],
      [
        "Ġved",
        -9.81496315118569
      ],
      [
        "ĠpÅĻÃŃliÅ¡",
        -9.815228311898752
      ],
      [
        "ĠjÃŃmÅ¾",
        -9.81744034902712
      ],
      [
        "ĠcÃŃtÃŃm",
        -9.818579606609855
      ],
      [
        "ÃŃkÅ¯",
        -9.8186321986345
      ],
      [
        "Ġdni",
        -9.818899904955884
      ],
      [
        "ĠsnÃ¡",
        -9.818956991806013
      ],
      [
        "Ġbeze",
        -9.81955575834144
      ],
      [
        "Ġhlad",
        -9.819747485274299
      ],
      [
        "Ġoli",
        -9.821286513916961
      ],
      [
        "ĠovÃ¡",
        -9.821701502321002
      ],
      [
        "ĠvÄĽkÅ¯",
        -9.823208414398541
      ],
      [
        "ĠplÃ¡",
        -9.823691007142846
      ],
      [
        "Ġuze",
        -9.82406112649862
      ],
      [
        "ĠnaÅ¡i",
        -9.824399234039532
      ],
      [
        "Ġdle",
        -9.824795076102959
      ],
      [
        "Ġkout",
        -9.825035605943944
      ],
      [
        "Ġlze",
        -9.827001484045976
      ],
      [
        "Ġteprv",
        -9.827104385986452
      ],
      [
        "ĠkrÃ¡snÃ½",
        -9.827117112302307
      ],
      [
        "ĠdÃŃvka",
        -9.829254644981877
      ],
      [
        "Ġznovu",
        -9.831053148646209
      ],
      [
        "atÃ¡",
        -9.832972256403322
      ],
      [
        "ĠmÃŃru",
        -9.834775016557309
      ],
      [
        "Ġstromy",
        -9.835277185995634
      ],
      [
        "Ġrve",
        -9.835809220019064
      ],
      [
        "Ġroste",
        -9.83583242784615
      ],
      [
        "ĠmÄĽsto",
        -9.836362306257035
      ],
      [
        "ĠsnÄĽ",
        -9.83671875232568
      ],
      [
        "Ġtento",
        -9.836758821727628
      ],
      [
        "ĠhvÄĽzda",
        -9.836815797189688
      ],
      [
        "Ġhloubi",
        -9.836937960414508
      ],
      [
        "ĠdÃ¡vÃ¡",
        -9.837001829437233
      ],
      [
        "ĠcÃŃtÃŃ",
        -9.837235774963823
      ],
      [
        "oval",
        -9.838048983638537
      ],
      [
        "ÄĽta",
        -9.83944819892155
      ],
      [
        "ĠÅĻeÄįi",
        -9.84111386433673
      ],
      [
        "Ġedu",
        -9.84238020814913
      ],
      [
        "Ġeru",
        -9.842514818371267
      ],
      [
        "Ġsad",
        -9.84367718965622
      ],
      [
        "Ã¡Äįe",
        -9.843742016006217
      ],
      [
        "si",
        -9.844915990515105
      ],
      [
        "Ġonu",
        -9.84652142962888
      ],
      [
        "Ġmysl",
        -9.846931316024936
      ],
      [
        "Ġprachu",
        -9.848233478098644
      ],
      [
        "ÅĻel",
        -9.848386509490377
      ],
      [
        "Ġdarmo",
        -9.849415369286085
      ],
      [
        "ĠmalÃ©",
        -9.850115781984465
      ],
      [
        "ĠdÄĽs",
        -9.850477940161213
      ],
      [
        "ĠdÃŃl",
        -9.8511926060036
      ],
      [
        "ĠsrdcÃŃ",
        -9.852000074575209
      ],
      [
        "ĠchceÅ¡",
        -9.852380321808244
      ],
      [
        "ĠkrÃ¡le",
        -9.852553742870086
      ],
      [
        "ĠovÃŃ",
        -9.854084889450345
      ],
      [
        "ĠvÃŃru",
        -9.854907572119918
      ],
      [
        "Ġboje",
        -9.855162333188272
      ],
      [
        "Ġsrdcem",
        -9.855468868605985
      ],
      [
        "ĠchvÄĽje",
        -9.855840384598578
      ],
      [
        "Ġnade",
        -9.85780686673726
      ],
      [
        "ĠlÃŃp",
        -9.85785023117036
      ],
      [
        "Ġnaposled",
        -9.85880303013948
      ],
      [
        "ĠpÅ¯l",
        -9.86204826906777
      ],
      [
        "ĠkrÃ¡se",
        -9.86214407541411
      ],
      [
        "cÃŃm",
        -9.862250905870795
      ],
      [
        "ĠvÅ¡eck",
        -9.862976074986742
      ],
      [
        "onen",
        -9.863537965152135
      ],
      [
        "Ġpat",
        -9.863829864746844
      ],
      [
        "ĠdrahÃ©",
        -9.863837831780138
      ],
      [
        "Ġmysli",
        -9.864029658339092
      ],
      [
        "rÃ¡l",
        -9.865253475724266
      ],
      [
        "ĠbudeÅ¡",
        -9.866933435253216
      ],
      [
        "er",
        -9.867548468242603
      ],
      [
        "rnÃ©",
        -9.86949555646487
      ],
      [
        "ĠpÅĻÃŃÅ¡tÃŃ",
        -9.86983415217039
      ],
      [
        "Ġjazyk",
        -9.871831926408289
      ],
      [
        "Ġuky",
        -9.87186277840489
      ],
      [
        "ĠkrÃ¡li",
        -9.872677130114624
      ],
      [
        "Ġstesk",
        -9.87404937390706
      ],
      [
        "Ġcesta",
        -9.874850851236816
      ],
      [
        "ĠsmÃ¡l",
        -9.87578940189745
      ],
      [
        "ilÃ¡",
        -9.876200901312304
      ],
      [
        "ÃŃnu",
        -9.876698569132387
      ],
      [
        "ĠnÃ¡ruÄį",
        -9.876786508838101
      ],
      [
        "Ġrej",
        -9.876919911310459
      ],
      [
        "Ġhled",
        -9.877211324961277
      ],
      [
        "ĠtÄĽÅ¾ko",
        -9.87722287928396
      ],
      [
        "Ġroj",
        -9.877302648246275
      ],
      [
        "ĠbÅĻehu",
        -9.877367180488065
      ],
      [
        "Ġdar",
        -9.877413027309363
      ],
      [
        "AA",
        -9.877813176489518
      ],
      [
        "ĠdobÄĽ",
        -9.878775881220628
      ],
      [
        "ĠmajÃŃ",
        -9.878848352105894
      ],
      [
        "ĠÄįin",
        -9.879255097030365
      ],
      [
        "Ġhal",
        -9.879748483840949
      ],
      [
        "ekÃ¡",
        -9.880464892477722
      ],
      [
        "Ġvede",
        -9.880920735525944
      ],
      [
        "ivÄĽ",
        -9.881916215743628
      ],
      [
        "Ġplod",
        -9.88194848806351
      ],
      [
        "Ġota",
        -9.882556673752115
      ],
      [
        "ĠÅ¾iv",
        -9.882862551110634
      ],
      [
        "ÅĻ",
        -9.883982017956832
      ],
      [
        "C",
        -9.884727652539844
      ],
      [
        "ĠchvÄĽl",
        -9.885145135949813
      ],
      [
        "hrudi",
        -9.885172411551698
      ],
      [
        "ĠkteÅĻÃŃ",
        -9.885285439969085
      ],
      [
        "tÄĽ",
        -9.886340151756015
      ],
      [
        "Ġska",
        -9.88675562254291
      ],
      [
        "ĠtÅĻÃŃ",
        -9.887118637391907
      ],
      [
        "skÃ½",
        -9.887415759232281
      ],
      [
        "elÃ©",
        -9.88791187247438
      ],
      [
        "ĠzlÃ½",
        -9.889471366715899
      ],
      [
        "nci",
        -9.890091628226816
      ],
      [
        "Ġtouhou",
        -9.890221122576094
      ],
      [
        "Ġine",
        -9.890293617031716
      ],
      [
        "ĠkonÄĽ",
        -9.890488277302065
      ],
      [
        "Ã¡ÄįÃŃ",
        -9.893611424155797
      ],
      [
        "Ġkus",
        -9.8936206361039
      ],
      [
        "Ġruch",
        -9.894553868369893
      ],
      [
        "Ġjal",
        -9.896093821714121
      ],
      [
        "Ġchlad",
        -9.897094723000638
      ],
      [
        "Ġokna",
        -9.899381487410523
      ],
      [
        "ĠdlÃŃ",
        -9.901874758472736
      ],
      [
        "tnÃ©",
        -9.902971659836957
      ],
      [
        "rÃ¡zem",
        -9.903870131010569
      ],
      [
        "Ġstrun",
        -9.904147232668066
      ],
      [
        "Ġuhy",
        -9.905479986698392
      ],
      [
        "ĠÄįasu",
        -9.905743860078369
      ],
      [
        "ĠvÅ¯kol",
        -9.905847276322127
      ],
      [
        "ĠÅĪader",
        -9.907340779109074
      ],
      [
        "Ġposud",
        -9.90815584957635
      ],
      [
        "ĠjakÃ¡",
        -9.908380960914574
      ],
      [
        "ĠpryÄį",
        -9.910392642559358
      ],
      [
        "ĠhledÃ¡",
        -9.910584210424497
      ],
      [
        "ÃŃÅ¡e",
        -9.91192376087495
      ],
      [
        "ahÃ¡",
        -9.913377799349785
      ],
      [
        "Ġduchu",
        -9.9135053394434
      ],
      [
        "aty",
        -9.91419292300557
      ],
      [
        "ĠbÅĻeh",
        -9.914496843773332
      ],
      [
        "Ġvichr",
        -9.915807161563315
      ],
      [
        "Ġsluch",
        -9.91755438786187
      ],
      [
        "Ġlese",
        -9.917763797986424
      ],
      [
        "Ġoh",
        -9.917913976344458
      ],
      [
        "ĠjasnÃ©",
        -9.918139819614257
      ],
      [
        "ĠÅ¾Ã¡dnÃ½",
        -9.918821660094741
      ],
      [
        "ĠbratÅĻÃŃ",
        -9.918867999505071
      ],
      [
        "Ġmuk",
        -9.919037676078679
      ],
      [
        "ĠvÅ¯le",
        -9.919188337195765
      ],
      [
        "ÄĽlÃ½",
        -9.919493185462445
      ],
      [
        "Ġpravdu",
        -9.920616058038354
      ],
      [
        "Ġmohl",
        -9.920751061138908
      ],
      [
        "dnÃ½",
        -9.920850932249223
      ],
      [
        "Ġzahrad",
        -9.922437807720689
      ],
      [
        "Ġvenku",
        -9.92411737545597
      ],
      [
        "ĠvÅ¡emi",
        -9.924364130424053
      ],
      [
        "adÃŃ",
        -9.924496008787578
      ],
      [
        "Ġrev",
        -9.924860924831265
      ],
      [
        "Äį",
        -9.92548026567882
      ],
      [
        "ĠnoÄįnÃŃ",
        -9.9255391326476
      ],
      [
        "Ġkruh",
        -9.927424338975968
      ],
      [
        "Ġhlavo",
        -9.927561934715762
      ],
      [
        "ĠsvatÃ¡",
        -9.929432172183624
      ],
      [
        "Ġblaho",
        -9.930423086273958
      ],
      [
        "ĠjmÃ©no",
        -9.931128279229991
      ],
      [
        "ĠbÃ¡snÃŃk",
        -9.931344196878442
      ],
      [
        "Ġrozum",
        -9.93246114656368
      ],
      [
        "ĠovÅ¡em",
        -9.932853942170517
      ],
      [
        "Ġlidstva",
        -9.934560048980451
      ],
      [
        "Ġsna",
        -9.936842026920496
      ],
      [
        "Ġlesa",
        -9.937512821114048
      ],
      [
        "ĠÄįeskÃ©",
        -9.938082680128428
      ],
      [
        "Ġan",
        -9.938614519766372
      ],
      [
        "ĠtÄĽÅ¾kÃ©",
        -9.938865526047744
      ],
      [
        "Ġhla",
        -9.939554715521185
      ],
      [
        "Ġjed",
        -9.940026529145019
      ],
      [
        "ĠbÄĽd",
        -9.94027561710504
      ],
      [
        "eni",
        -9.940307473778347
      ],
      [
        "ĠoÄįÃŃch",
        -9.942915427268133
      ],
      [
        "ĠslyÅ¡ÃŃm",
        -9.94419518628043
      ],
      [
        "Ã¡lÃŃ",
        -9.94435699481825
      ],
      [
        "Ġklas",
        -9.94458266816089
      ],
      [
        "ĠdÄĽv",
        -9.945375168491386
      ],
      [
        "ÅĪ",
        -9.94616603851514
      ],
      [
        "Ġlidem",
        -9.947757748101248
      ],
      [
        "ÄĽji",
        -9.948601744375903
      ],
      [
        "Ã¡vÄĽ",
        -9.94946482720634
      ],
      [
        "Ġsladce",
        -9.950412417920361
      ],
      [
        "ĠdÃŃm",
        -9.951308891201602
      ],
      [
        "Ġvit",
        -9.951447057730858
      ],
      [
        "Ġava",
        -9.95200461627651
      ],
      [
        "ĠplÃ¡Äįe",
        -9.953536629683114
      ],
      [
        "Ġjem",
        -9.954083734009965
      ],
      [
        "ÄĽtu",
        -9.959098378402665
      ],
      [
        "Ġnohy",
        -9.959924393452654
      ],
      [
        "ÄĽlÃ¡",
        -9.960422698368784
      ],
      [
        "Å¡li",
        -9.960589377831848
      ],
      [
        "ujÃŃ",
        -9.960795343038352
      ],
      [
        "Ġudy",
        -9.960996636840559
      ],
      [
        "ĠstÃ¡t",
        -9.962397806876849
      ],
      [
        "jÃŃ",
        -9.963069825779753
      ],
      [
        "Ġpaprsk",
        -9.963178847826416
      ],
      [
        "ĠusÃŃ",
        -9.963922492310953
      ],
      [
        "Ã¡vy",
        -9.964331509598175
      ],
      [
        "ÄĽle",
        -9.966231863576901
      ],
      [
        "ĠnadÅ¡enÃŃ",
        -9.966480432614777
      ],
      [
        "Ġkat",
        -9.968190539630102
      ],
      [
        "Ġsla",
        -9.96857542460737
      ],
      [
        "ĠpÅĻiÅ¡la",
        -9.968795878283448
      ],
      [
        "dy",
        -9.96925228864086
      ],
      [
        "ĠjasnÃ½",
        -9.96970520141012
      ],
      [
        "ĠmyslÃŃ",
        -9.969821652157844
      ],
      [
        "ĠdobrÃ©",
        -9.970341522420771
      ],
      [
        "ly",
        -9.971367215321056
      ],
      [
        "ĠmodrÃ©",
        -9.971909366321587
      ],
      [
        "ĠsvÄĽtu",
        -9.971950226359787
      ],
      [
        "izÃŃ",
        -9.973438111774854
      ],
      [
        "Ġjitr",
        -9.973837897555379
      ],
      [
        "Ġboku",
        -9.973886401202575
      ],
      [
        "Ġniv",
        -9.973942021895844
      ],
      [
        "ĠtÃŃÅ¾",
        -9.974710010429902
      ],
      [
        "ĠmladÃ¡",
        -9.977388166048275
      ],
      [
        "Å¾e",
        -9.97813111599885
      ],
      [
        "Ġbil",
        -9.978737517906666
      ],
      [
        "ÃŃka",
        -9.983888604341841
      ],
      [
        "ĠÄįest",
        -9.983891714853396
      ],
      [
        "Ġdomu",
        -9.984048451777669
      ],
      [
        "Ġvzdor",
        -9.984181483573096
      ],
      [
        "ĠrÃ¡m",
        -9.98639535172899
      ],
      [
        "Ġlen",
        -9.986992364585724
      ],
      [
        "ĠkrÃ¡sa",
        -9.988916898949821
      ],
      [
        "Ġnej",
        -9.988926907026189
      ],
      [
        "skÃ½ch",
        -9.989370335248953
      ],
      [
        "ĠklonÃŃ",
        -9.989756052591705
      ],
      [
        "ĠhrobÄĽ",
        -9.990677508789183
      ],
      [
        "ĠnevÃŃ",
        -9.991354617959413
      ],
      [
        "enÄĽ",
        -9.991499427218972
      ],
      [
        "Ġzal",
        -9.993723573333025
      ],
      [
        "ĠsmutnÄĽ",
        -9.993754388232173
      ],
      [
        "ĠmizÃŃ",
        -9.993757891476392
      ],
      [
        "Äįe",
        -9.993852761395393
      ],
      [
        "Ġzcela",
        -9.993949069963223
      ],
      [
        "Ġnal",
        -9.994159536478792
      ],
      [
        "ĠvalÃŃ",
        -9.99458713096016
      ],
      [
        "jÃŃc",
        -9.995486811963026
      ],
      [
        "Å¡ÃŃm",
        -9.997250637320516
      ],
      [
        "adÄĽ",
        -9.997461300554566
      ],
      [
        "ĠdÅĻÃŃve",
        -9.997679655550504
      ],
      [
        "ĠkaÅ¾do",
        -9.99777252310592
      ],
      [
        "Ġstop",
        -9.998079637404665
      ],
      [
        "Ġvstal",
        -9.998083032379961
      ],
      [
        "Ġetu",
        -9.998544090204764
      ],
      [
        "ĠzvonÃŃ",
        -9.998950599607554
      ],
      [
        "Ġprsa",
        -10.000137601381827
      ],
      [
        "AAXA",
        -10.001375369223663
      ],
      [
        "Ġnez",
        -10.003716942524289
      ],
      [
        "Ġpl",
        -10.004351282523155
      ],
      [
        "Ġblah",
        -10.005388450523295
      ],
      [
        "Ġtma",
        -10.005445466010547
      ],
      [
        "ĠlÃ¡n",
        -10.00616457635929
      ],
      [
        "ĠolÃ¡",
        -10.007982898437142
      ],
      [
        "Ġpravdy",
        -10.009074383458245
      ],
      [
        "eÅĻÃŃ",
        -10.009273564594888
      ],
      [
        "by",
        -10.00998337299022
      ],
      [
        "Ã¡je",
        -10.01003560203862
      ],
      [
        "Ġjan",
        -10.010545528160655
      ],
      [
        "ĠÅ¡umÃŃ",
        -10.010898167790652
      ],
      [
        "ĠvelkÃ¡",
        -10.011063228938477
      ],
      [
        "Ġsmute",
        -10.011103383180089
      ],
      [
        "ĠvÅ¡ÃŃm",
        -10.011899098475528
      ],
      [
        "ĠsvÃ½mi",
        -10.013189862206005
      ],
      [
        "Ġdlo",
        -10.016065252434078
      ],
      [
        "ĠmoÅ¾no",
        -10.016200727404875
      ],
      [
        "Ġtka",
        -10.01684103099132
      ],
      [
        "ĠjedinÃ½",
        -10.018041822143969
      ],
      [
        "Ġnim",
        -10.018421576851091
      ],
      [
        "Ġlesk",
        -10.020904879425899
      ],
      [
        "stejnÄĽ",
        -10.021869242460468
      ],
      [
        "Ġprapor",
        -10.025080331720154
      ],
      [
        "Ġblankyt",
        -10.025323536574925
      ],
      [
        "Ġbor",
        -10.025577390519597
      ],
      [
        "Ġjsa",
        -10.025699392968546
      ],
      [
        "je",
        -10.02634362926075
      ],
      [
        "ĠbouÅĻ",
        -10.026344756259146
      ],
      [
        "Ġjestli",
        -10.027569044098662
      ],
      [
        "ĠvÃŃn",
        -10.027863379390634
      ],
      [
        "ĠmrtvÃ©",
        -10.02973602875397
      ],
      [
        "ĠpÅĻede",
        -10.029761415001657
      ],
      [
        "ÃŃku",
        -10.029769086331253
      ],
      [
        "ĠbÄĽÅ¾ÃŃ",
        -10.030083034486143
      ],
      [
        "ĠdruhÃ©",
        -10.030240462003334
      ],
      [
        "ĠloÄı",
        -10.030777452271185
      ],
      [
        "ÃŃnÄĽ",
        -10.031684441273564
      ],
      [
        "ĠslyÅ¡et",
        -10.03171078804429
      ],
      [
        "ĠzlÃ©",
        -10.031885795812947
      ],
      [
        "moci",
        -10.03308827364689
      ],
      [
        "ĠslÃ¡vÄĽ",
        -10.033172772387298
      ],
      [
        "ĠrudÃ©",
        -10.033397578646985
      ],
      [
        "ĠsmutnÃ½",
        -10.036009481208467
      ],
      [
        "Ġhloub",
        -10.036120681589601
      ],
      [
        "ĠpÄĽl",
        -10.037776128862674
      ],
      [
        "Ġaku",
        -10.038859544474054
      ],
      [
        "Ã½ti",
        -10.04025987075213
      ],
      [
        "ĠjednÃ©",
        -10.040667563266055
      ],
      [
        "tce",
        -10.041445864842098
      ],
      [
        "ĠÅĻeÄįÃŃ",
        -10.042085060335598
      ],
      [
        "ĠtrÅ¯n",
        -10.042658867542418
      ],
      [
        "ĠchtÄĽla",
        -10.042684445299168
      ],
      [
        "Ã¡dÃŃ",
        -10.043033249340512
      ],
      [
        "ĠslavnÃ½",
        -10.045048552904952
      ],
      [
        "Ġhost",
        -10.047618535171228
      ],
      [
        "ĠkÅĻik",
        -10.04817998871812
      ],
      [
        "Ġdala",
        -10.048409172937642
      ],
      [
        "ĠneboÅ¥",
        -10.048702795169564
      ],
      [
        "lny",
        -10.049150389432286
      ],
      [
        "Ġidu",
        -10.049816146349425
      ],
      [
        "esy",
        -10.050912707352827
      ],
      [
        "ĠchvÃŃ",
        -10.051089572343074
      ],
      [
        "Ġkla",
        -10.051413785531274
      ],
      [
        "ĠtÅĻetÃŃ",
        -10.052311685110963
      ],
      [
        "ĠsnÃ©",
        -10.05330868199593
      ],
      [
        "ĠstÃ¡la",
        -10.053810204770848
      ],
      [
        "ĠptÃ¡c",
        -10.054705847906533
      ],
      [
        "Ġsilou",
        -10.054978081877122
      ],
      [
        "ĠslÃ¡vu",
        -10.056145920101939
      ],
      [
        "ĠzdÃ¡l",
        -10.056993718249094
      ],
      [
        "Ġpout",
        -10.057411874706304
      ],
      [
        "Ġjednu",
        -10.057590792369194
      ],
      [
        "ĠÄįet",
        -10.058992798879185
      ],
      [
        "ĠcÃŃsaÅĻ",
        -10.060068086867183
      ],
      [
        "ĠrÃ¡n",
        -10.060521676855831
      ],
      [
        "ÃŃm",
        -10.060659065766789
      ],
      [
        "alÃ½",
        -10.060758702721873
      ],
      [
        "Ġpotok",
        -10.062790731273012
      ],
      [
        "ĠokamÅ¾ik",
        -10.062884682190473
      ],
      [
        "ĠrÃ¡da",
        -10.063241063690155
      ],
      [
        "ĠbouÅĻi",
        -10.063704733377163
      ],
      [
        "ĠrÃ¡je",
        -10.063951769384976
      ],
      [
        "Ġbije",
        -10.06408783357261
      ],
      [
        "Ġhoj",
        -10.06478427228862
      ],
      [
        "ĠvracÃŃ",
        -10.066389326337188
      ],
      [
        "lÃ©m",
        -10.067965760375547
      ],
      [
        "Ġoho",
        -10.069350279715007
      ],
      [
        "Ġzlata",
        -10.070017777007465
      ],
      [
        "st",
        -10.070232812232076
      ],
      [
        "ĠvroucÃŃ",
        -10.07215999474852
      ],
      [
        "Ġnebylo",
        -10.072273405890723
      ],
      [
        "ĠjmÃ©n",
        -10.07388784171819
      ],
      [
        "ĠknÄĽz",
        -10.074332228657642
      ],
      [
        "ÃŃna",
        -10.074394929393357
      ],
      [
        "ĠchodÃŃ",
        -10.074888640784799
      ],
      [
        "Å¯nÄĽ",
        -10.075298721194262
      ],
      [
        "cko",
        -10.075651769357354
      ],
      [
        "Ġmraky",
        -10.076506549455292
      ],
      [
        "ytÃŃ",
        -10.077076672784912
      ],
      [
        "ĠvÃ¡mi",
        -10.08039028175018
      ],
      [
        "ĠbrÃ¡n",
        -10.08160581898948
      ],
      [
        "Ġnec",
        -10.083117756558867
      ],
      [
        "ĠpevnÄĽ",
        -10.084814499975966
      ],
      [
        "Äįko",
        -10.085094292013185
      ],
      [
        "eÄįÃŃ",
        -10.085335851688038
      ],
      [
        "ĠÅ¾ÃŃti",
        -10.085353975708365
      ],
      [
        "ĠpÅĻÃ¡tel",
        -10.085536343466465
      ],
      [
        "ĠrozkoÅ¡",
        -10.085748029370848
      ],
      [
        "iÅ¡e",
        -10.086083085002816
      ],
      [
        "uhu",
        -10.086106595918485
      ],
      [
        "ĠkÅĻÃŃdl",
        -10.086119010124264
      ],
      [
        "Ġhad",
        -10.087600261984715
      ],
      [
        "Ġsmysl",
        -10.087747206314841
      ],
      [
        "ĠvrÃ¡til",
        -10.088458923919681
      ],
      [
        "ĠtÃ¡hne",
        -10.089357669725239
      ],
      [
        "Ã©mÄĽ",
        -10.0895735076613
      ],
      [
        "Ġdub",
        -10.089615431144667
      ],
      [
        "ĠvÄįera",
        -10.0897964861173
      ],
      [
        "Ġknih",
        -10.089977867549765
      ],
      [
        "ĠhledÄĽl",
        -10.090858941556501
      ],
      [
        "ABCA",
        -10.091208735345912
      ],
      [
        "Ġ181",
        -10.09183504821433
      ],
      [
        "Ã¡nu",
        -10.092077502996819
      ],
      [
        "ĠvÅ¯li",
        -10.092286162747184
      ],
      [
        "Ġnechci",
        -10.09257547512825
      ],
      [
        "ĠhleÄı",
        -10.093183736775275
      ],
      [
        "ÅĻe",
        -10.093508322295655
      ],
      [
        "Ġkrokem",
        -10.093922810491934
      ],
      [
        "Ġanu",
        -10.09414103750013
      ],
      [
        "ĠmÄĽnÃŃ",
        -10.095391134585846
      ],
      [
        "Ã¡da",
        -10.095534368128375
      ],
      [
        "Ġtra",
        -10.095749314990082
      ],
      [
        "Ġlev",
        -10.0963435669386
      ],
      [
        "ĠzemÃŃ",
        -10.096479654430938
      ],
      [
        "ĠÅ¾enu",
        -10.096888199888678
      ],
      [
        "Ġslza",
        -10.097023112953824
      ],
      [
        "Ġpoklad",
        -10.097531896615262
      ],
      [
        "ÃŃny",
        -10.097595427198147
      ],
      [
        "ÄĽny",
        -10.09762487584688
      ],
      [
        "Ġjdi",
        -10.097663980516595
      ],
      [
        "ĠzÃ¡hy",
        -10.097679717237636
      ],
      [
        "ĠsklÃ¡nÃŃ",
        -10.09868387145315
      ],
      [
        "ĠzÃ¡zrak",
        -10.09879683862902
      ],
      [
        "Ġzor",
        -10.099767052240132
      ],
      [
        "ĠjejÃŃm",
        -10.100597828269134
      ],
      [
        "Ġhovor",
        -10.101549837217064
      ],
      [
        "ĠsmutnÃ©",
        -10.102290439152549
      ],
      [
        "ĠolÅ¯",
        -10.103502916277494
      ],
      [
        "ĠtemnÃ½",
        -10.104062131224282
      ],
      [
        "ĠbudÃŃ",
        -10.10790453166375
      ],
      [
        "ÄĽlÃ©",
        -10.108219651657269
      ],
      [
        "Ġhudba",
        -10.108362463744307
      ],
      [
        "Ġves",
        -10.109396729011461
      ],
      [
        "ĠbledÃ½",
        -10.114033128718972
      ],
      [
        "ĠvÃ¡ÅĻ",
        -10.11406416508143
      ],
      [
        "ÄĽte",
        -10.114657616495485
      ],
      [
        "Ġplane",
        -10.114658047163207
      ],
      [
        "ĠvaÅ¡ÃŃ",
        -10.115238251490556
      ],
      [
        "ĠÅĻeky",
        -10.116202411203986
      ],
      [
        "Ġdomov",
        -10.118193093106697
      ],
      [
        "ĠbledÃ¡",
        -10.118211143177806
      ],
      [
        "ĠÅĻas",
        -10.118328551355228
      ],
      [
        "Ġsami",
        -10.119454448788169
      ],
      [
        "Ġulic",
        -10.120397845094296
      ],
      [
        "Ã¡Å¾e",
        -10.120996236897472
      ],
      [
        "Ġkne",
        -10.121537876939659
      ],
      [
        "ĠÅĪadra",
        -10.122667374073298
      ],
      [
        "ĠtisÃŃce",
        -10.123030787791784
      ],
      [
        "Ġkmet",
        -10.123297535998233
      ],
      [
        "ĠvÅ¯nÃŃ",
        -10.123311895096313
      ],
      [
        "ĠrytÃŃÅĻ",
        -10.12370932734963
      ],
      [
        "ĠmrÃ¡z",
        -10.124969802350506
      ],
      [
        "Ġotu",
        -10.12503046510393
      ],
      [
        "edy",
        -10.125269245523729
      ],
      [
        "ĠbÄĽh",
        -10.125403042555543
      ],
      [
        "ĠÄįem",
        -10.125800307152243
      ],
      [
        "ĠtvojÃŃ",
        -10.125804780176397
      ],
      [
        "ĠhrÃ¡l",
        -10.125817262504885
      ],
      [
        "ĠÄįnÃŃ",
        -10.12612498463169
      ],
      [
        "Ġpes",
        -10.126484016194723
      ],
      [
        "Ġada",
        -10.126815479551514
      ],
      [
        "ĠÄįÃŃÅ¡",
        -10.12767271902166
      ],
      [
        "ÄĽty",
        -10.127689121467034
      ],
      [
        "Ġovi",
        -10.128597784069992
      ],
      [
        "ĠstavÃŃ",
        -10.129486884393888
      ],
      [
        "Ġola",
        -10.129758581229575
      ],
      [
        "rnÃ½",
        -10.130504515075486
      ],
      [
        "Ġpodle",
        -10.130661153358485
      ],
      [
        "ĠvyÅ¡el",
        -10.13094030091871
      ],
      [
        "ĠstÃ©",
        -10.131118256457315
      ],
      [
        "ĠpÃ¡d",
        -10.131373696156338
      ],
      [
        "ĠÅ¡er",
        -10.131389169410989
      ],
      [
        "ĠslyÅ¡ÃŃ",
        -10.131489238091923
      ],
      [
        "Ġslovem",
        -10.131565362036273
      ],
      [
        "Ġklam",
        -10.134358216740594
      ],
      [
        "Ġoly",
        -10.134487530592594
      ],
      [
        "ĠmalÃ¡",
        -10.137894940397116
      ],
      [
        "ĠotcÅ¯",
        -10.137965731232748
      ],
      [
        "Ġzlatem",
        -10.138019135286388
      ],
      [
        "ĠodÄĽ",
        -10.138576799183303
      ],
      [
        "ĠstÃ¡d",
        -10.139610953367235
      ],
      [
        "Ġkyne",
        -10.139818854831237
      ],
      [
        "ĠchrÃ¡mu",
        -10.140618788904266
      ],
      [
        "ĠkrÃ¡su",
        -10.141407746137663
      ],
      [
        "ĠÅĻÃŃÅ¡e",
        -10.141498475671632
      ],
      [
        "aji",
        -10.141573089171967
      ],
      [
        "ĠdlaÅĪ",
        -10.141935089553808
      ],
      [
        "Ġsic",
        -10.142004188647652
      ],
      [
        "ÄįnÃ©",
        -10.142353223347301
      ],
      [
        "ĠÄįlovÄĽka",
        -10.142369334223208
      ],
      [
        "XAXB",
        -10.142871099131185
      ],
      [
        "ĠmotÃ½l",
        -10.142896792930197
      ],
      [
        "ĠdÃŃval",
        -10.145081716821782
      ],
      [
        "Ġmluvil",
        -10.145265258607527
      ],
      [
        "ĠskrÃ¡ÅĪ",
        -10.146081881629442
      ],
      [
        "ĠbÃ½vÃ¡",
        -10.14760474652006
      ],
      [
        "ĠnÄĽkdo",
        -10.148288223070288
      ],
      [
        "Ġste",
        -10.148385739805768
      ],
      [
        "Ġmodlitb",
        -10.148477058011522
      ],
      [
        "Ġpokoj",
        -10.148854324947958
      ],
      [
        "Ġhrom",
        -10.148987266240695
      ],
      [
        "lnÃ½",
        -10.149081921987106
      ],
      [
        "ĠrudÃ½",
        -10.149624857593983
      ],
      [
        "ovat",
        -10.150249971570052
      ],
      [
        "ova",
        -10.150559624840167
      ],
      [
        "Ġjel",
        -10.151515717252133
      ],
      [
        "Ġnovou",
        -10.152033870914648
      ],
      [
        "Ġvztek",
        -10.152487523665705
      ],
      [
        "Ġviz",
        -10.15268026900355
      ],
      [
        "ĠlepÅ¡ÃŃ",
        -10.153139336959
      ],
      [
        "ĠmyÅ¡lenk",
        -10.154887736899022
      ],
      [
        "g",
        -10.155301056238429
      ],
      [
        "Ã½lÃŃ",
        -10.15548926305068
      ],
      [
        "latÃ¡",
        -10.155691237740687
      ],
      [
        "mÃŃti",
        -10.155981302194684
      ],
      [
        "ÃŃky",
        -10.157033205180008
      ],
      [
        "ĠvÃ½kÅĻik",
        -10.157776023218549
      ],
      [
        "Ġprostor",
        -10.159720884372078
      ],
      [
        "ĠbÃŃlou",
        -10.160377296278792
      ],
      [
        "Ġtvoji",
        -10.160674804202223
      ],
      [
        "ĠtÃŃn",
        -10.160795409535698
      ],
      [
        "ĠmÅ¾ik",
        -10.16098614734646
      ],
      [
        "ĠtÄĽle",
        -10.161247946517854
      ],
      [
        "ĠobjetÃŃ",
        -10.162197999283915
      ],
      [
        "Ġoty",
        -10.162254921083356
      ],
      [
        "ĠblÃŃÅ¾ÃŃ",
        -10.163873513440937
      ],
      [
        "ĠtÃ¡l",
        -10.16401696302096
      ],
      [
        "Ġtato",
        -10.164147386082607
      ],
      [
        "ĠkvÄĽtu",
        -10.164703074544668
      ],
      [
        "lku",
        -10.164803538375965
      ],
      [
        "ĠdÃ¡lk",
        -10.165199496737097
      ],
      [
        "ji",
        -10.1657125186528
      ],
      [
        "ĠvÃŃtÄĽz",
        -10.165721787431139
      ],
      [
        "ĠrannÃŃ",
        -10.167261845560938
      ],
      [
        "ny",
        -10.167753584252598
      ],
      [
        "Ġrci",
        -10.16779417716271
      ],
      [
        "tnÃ¡",
        -10.16851084047508
      ],
      [
        "ĠhÅĻÃŃch",
        -10.16857172152665
      ],
      [
        "ĠvÃ¡Å¡nÃŃ",
        -10.168577542377868
      ],
      [
        "hradu",
        -10.16863944825841
      ],
      [
        "Ġklidu",
        -10.169833963058881
      ],
      [
        "Ġblaha",
        -10.170214988486514
      ],
      [
        "f",
        -10.17099577027566
      ],
      [
        "ĠcestÄĽ",
        -10.172325558196412
      ],
      [
        "ĠvelikÃ½",
        -10.172469475236253
      ],
      [
        "ĠnemÄĽl",
        -10.172652838040634
      ],
      [
        "Ġabych",
        -10.172884448284815
      ],
      [
        "ÄĽna",
        -10.174499417078088
      ],
      [
        "ĠmusÃŃm",
        -10.175775880768711
      ],
      [
        "elÃŃ",
        -10.176190286659839
      ],
      [
        "ĠlesnÃŃ",
        -10.176465232671625
      ],
      [
        "ĠtÃ³n",
        -10.176752594226787
      ],
      [
        "ĠblÃŃÅ¾e",
        -10.177357950747485
      ],
      [
        "ĠotÄįe",
        -10.180294816041421
      ],
      [
        "ĠzvedÃ¡",
        -10.1820629746835
      ],
      [
        "asÅ¯",
        -10.183219117278881
      ],
      [
        "ĠaÅ¡e",
        -10.183604556210492
      ],
      [
        "Ġned",
        -10.184405429663974
      ],
      [
        "ĠzÃ¡kon",
        -10.184636175971598
      ],
      [
        "Ġzvyk",
        -10.186156285785348
      ],
      [
        "ĠskÃ½",
        -10.187663136907862
      ],
      [
        "ĠbledÃ©",
        -10.18992181758348
      ],
      [
        "ĠtemnÃ©",
        -10.190561353537937
      ],
      [
        "Ġzmizel",
        -10.190711554376259
      ],
      [
        "Ġblud",
        -10.191074133178468
      ],
      [
        "Ġist",
        -10.191490884363294
      ],
      [
        "Ġvesele",
        -10.192496954012856
      ],
      [
        "ĠtoÄįÃŃ",
        -10.192723981105964
      ],
      [
        "ĠmÃŃsta",
        -10.193738537975609
      ],
      [
        "Ġoud",
        -10.19513277475798
      ],
      [
        "lnÃ©",
        -10.196081406500898
      ],
      [
        "ĠvisÃŃ",
        -10.196925990195346
      ],
      [
        "Ġbok",
        -10.197810254126281
      ],
      [
        "ra",
        -10.197950958658883
      ],
      [
        "hochu",
        -10.198244501774418
      ],
      [
        "ÃŃhÃ¡",
        -10.198593642721208
      ],
      [
        "ĠvidÄĽt",
        -10.19864696667763
      ],
      [
        "Ġjih",
        -10.198947157691887
      ],
      [
        "ĠmyslÃŃm",
        -10.199057842520618
      ],
      [
        "Ã¡mi",
        -10.199459447592496
      ],
      [
        "Ġtuto",
        -10.199525759809696
      ],
      [
        "ĠknÃŃÅ¾e",
        -10.199627193473933
      ],
      [
        "Ġtel",
        -10.199728091224149
      ],
      [
        "ĠpÃ¡nÄĽ",
        -10.199894319574636
      ],
      [
        "Ġnechce",
        -10.201164873384519
      ],
      [
        "ÃŃla",
        -10.201286432524935
      ],
      [
        "Ġoky",
        -10.20208175616835
      ],
      [
        "ĠsladkÃ¡",
        -10.202231805552778
      ],
      [
        "Ġhlasy",
        -10.202898250277737
      ],
      [
        "lnÃŃ",
        -10.203313869235936
      ],
      [
        "ĠstÅĻÃŃbr",
        -10.204023764633735
      ],
      [
        "ĠsedÄĽl",
        -10.205201443194415
      ],
      [
        "Ġsyna",
        -10.20565729903592
      ],
      [
        "Ġpomoc",
        -10.206297794989013
      ],
      [
        "ĠvÃŃry",
        -10.207143022454616
      ],
      [
        "iku",
        -10.207327331305336
      ],
      [
        "Ġtlo",
        -10.20928327764325
      ],
      [
        "Ġesk",
        -10.210225162592074
      ],
      [
        "Ġpot",
        -10.211116471421668
      ],
      [
        "ĠnovÃ¡",
        -10.211122352390197
      ],
      [
        "Ġvrah",
        -10.213962857589829
      ],
      [
        "ĠhÅĻbitov",
        -10.214165627281668
      ],
      [
        "Ġode",
        -10.214316660026773
      ],
      [
        "icÃŃ",
        -10.2145132803997
      ],
      [
        "ĠsmÃŃchu",
        -10.21465441438094
      ],
      [
        "ĠohnÄĽm",
        -10.214777618414036
      ],
      [
        "Ġha",
        -10.214988172785784
      ],
      [
        "Ġvelkou",
        -10.215430706461621
      ],
      [
        "ĠÄįernÃ½ch",
        -10.215537933789797
      ],
      [
        "enu",
        -10.216382522903924
      ],
      [
        "ĠmeÄįe",
        -10.216421244151405
      ],
      [
        "Ġjiskr",
        -10.219316399312575
      ],
      [
        "ĠvÅĻav",
        -10.219594012847725
      ],
      [
        "Ġruh",
        -10.219907750222843
      ],
      [
        "lÃ½m",
        -10.221326752600607
      ],
      [
        "ĠmodrÃ½",
        -10.221501970386829
      ],
      [
        "ĠzÃ¡pas",
        -10.22202556806808
      ],
      [
        "Ġvsi",
        -10.22217281707971
      ],
      [
        "ĠspÃ¡nk",
        -10.222642706965754
      ],
      [
        "Ġstalo",
        -10.223018860907915
      ],
      [
        "Ġmohu",
        -10.223876532244873
      ],
      [
        "Ġdokud",
        -10.224032840525453
      ],
      [
        "ĠtÃ¡t",
        -10.224559677617927
      ],
      [
        "Ġkomu",
        -10.224968833232271
      ],
      [
        "ĠÄįernÃ¡",
        -10.227272221060037
      ],
      [
        "Ġpramen",
        -10.228500649778933
      ],
      [
        "Ġety",
        -10.230840000785705
      ],
      [
        "ABXB",
        -10.230991092327294
      ],
      [
        "ĠklesÃ¡",
        -10.231462670460786
      ],
      [
        "Ġzub",
        -10.231725530987541
      ],
      [
        "Ġdvou",
        -10.232381023159029
      ],
      [
        "Ġsynu",
        -10.232390128230405
      ],
      [
        "nÄĽl",
        -10.232858391848609
      ],
      [
        "DE",
        -10.232891264458333
      ],
      [
        "dna",
        -10.233030670316124
      ],
      [
        "aÅ¡ÃŃ",
        -10.233245676934391
      ],
      [
        "ahy",
        -10.23371318958339
      ],
      [
        "ĠhrÅ¯z",
        -10.235487200172681
      ],
      [
        "Ġsnil",
        -10.235656452747737
      ],
      [
        "Ġbudoucnost",
        -10.235982808782877
      ],
      [
        "Ġlek",
        -10.236355146637315
      ],
      [
        "ĠdvÃ©",
        -10.236614591921159
      ],
      [
        "ĠdivnÃ½",
        -10.236684946390188
      ],
      [
        "Ġbolesti",
        -10.237476456013233
      ],
      [
        "AXAXB",
        -10.237575972937062
      ],
      [
        "Ġkrajin",
        -10.239300274647302
      ],
      [
        "Ġede",
        -10.239396315494595
      ],
      [
        "Ġbratr",
        -10.240414622303774
      ],
      [
        "ĠÅ¾ene",
        -10.240612807362883
      ],
      [
        "ĠhrÅ¯zou",
        -10.240635883373493
      ],
      [
        "ĠlÃŃci",
        -10.241256837654966
      ],
      [
        "ĠÄĽv",
        -10.242001825064996
      ],
      [
        "Ġhluk",
        -10.242100811178025
      ],
      [
        "ĠmocnÃ½",
        -10.242714954549157
      ],
      [
        "ĠdÃ¡vnÃ½",
        -10.243645738989002
      ],
      [
        "ÃŃlÃ½",
        -10.243800805964153
      ],
      [
        "ĠokÅ¯",
        -10.244158427437675
      ],
      [
        "ĠzpÃ¡tky",
        -10.245414000247974
      ],
      [
        "ĠmÄĽli",
        -10.245841527373267
      ],
      [
        "ĠtmavÃ½",
        -10.24642714402274
      ],
      [
        "evÃŃ",
        -10.247397459725338
      ],
      [
        "ĠtichÃ¡",
        -10.24911151921685
      ],
      [
        "ĠzpÃŃval",
        -10.250719238799883
      ],
      [
        "ĠnavÅ¾dy",
        -10.250775949889718
      ],
      [
        "ĠpÃŃsni",
        -10.25170194128872
      ],
      [
        "ĠtouÅ¾ÃŃ",
        -10.252006735070225
      ],
      [
        "Ġdoba",
        -10.252297424411598
      ],
      [
        "ĠvdÄĽk",
        -10.253179356103837
      ],
      [
        "ĠtmÃ¡",
        -10.254900807129909
      ],
      [
        "ĠlÃŃbÃ¡",
        -10.25568562767263
      ],
      [
        "ĠzÃŃrÃ¡",
        -10.256333479837629
      ],
      [
        "Ġrte",
        -10.256421919594292
      ],
      [
        "ĠjevÃŃ",
        -10.25646041076531
      ],
      [
        "ĠzdravÃŃ",
        -10.256823073505462
      ],
      [
        "ĠkrÃ¡Äįel",
        -10.25698640987035
      ],
      [
        "Ġmatko",
        -10.257470574305323
      ],
      [
        "ĠÅ¡ÃŃj",
        -10.257470879346359
      ],
      [
        "Ġsoumrak",
        -10.25796548142616
      ],
      [
        "ĠloÅ¾e",
        -10.25825969908137
      ],
      [
        "ÄĽzd",
        -10.258373241584525
      ],
      [
        "Ã¡sy",
        -10.259496143898417
      ],
      [
        "ĠpolÃŃ",
        -10.259714012466945
      ],
      [
        "tnÃ½",
        -10.260092154986754
      ],
      [
        "ĠdivÃ½",
        -10.260452960468374
      ],
      [
        "Ġbleskem",
        -10.260508865579784
      ],
      [
        "tnÄĽ",
        -10.262079764339031
      ],
      [
        "Ġnit",
        -10.262168513435604
      ],
      [
        "vÅ¡ak",
        -10.26246816858595
      ],
      [
        "Ġdalek",
        -10.263562077738104
      ],
      [
        "Ġjakoby",
        -10.264525391970393
      ],
      [
        "Ġdol",
        -10.264931605207686
      ],
      [
        "Ġtichu",
        -10.265004555491634
      ],
      [
        "itu",
        -10.267077172796533
      ],
      [
        "Ġhej",
        -10.267448905953493
      ],
      [
        "ĠÄįistÃ©",
        -10.267462917132246
      ],
      [
        "ĠvÅ¡emu",
        -10.26750696537557
      ],
      [
        "Ġzlatou",
        -10.268002742102498
      ],
      [
        "Ã¡vu",
        -10.270413179057854
      ],
      [
        "yje",
        -10.27088151736676
      ],
      [
        "Ġminulost",
        -10.272267182023134
      ],
      [
        "Ġsmutku",
        -10.273074001807338
      ],
      [
        "ĠnedÃ¡",
        -10.273111298106077
      ],
      [
        "Ġcosi",
        -10.273561636057968
      ],
      [
        "Ġpozdrav",
        -10.273729022270714
      ],
      [
        "ĠvÃŃno",
        -10.273876687231859
      ],
      [
        "ÄĽÅĻÃŃ",
        -10.273902729845219
      ],
      [
        "kÃ©m",
        -10.275788059547667
      ],
      [
        "ĠpÃ½ch",
        -10.27587385029274
      ],
      [
        "Ġnikde",
        -10.276157749072672
      ],
      [
        "Ġhod",
        -10.276488729955975
      ],
      [
        "Ġchat",
        -10.276575777806466
      ],
      [
        "ĠtÄĽÅ¾ce",
        -10.276812058847048
      ],
      [
        "ÄĽst",
        -10.277528641487098
      ],
      [
        "ĠohnÄĽ",
        -10.27756909631205
      ],
      [
        "Ġctnost",
        -10.27828490470816
      ],
      [
        "ĠmrtvÃ½ch",
        -10.27882532232491
      ],
      [
        "ĠdrÃ¡h",
        -10.279450835104164
      ],
      [
        "Ġchvat",
        -10.280209305502257
      ],
      [
        "ÄĽtÅ¯",
        -10.280438256245843
      ],
      [
        "ĠdÃŃvky",
        -10.280447104710829
      ],
      [
        "ĠtÅĻpyt",
        -10.280653125548403
      ],
      [
        "ĠbratÅĻi",
        -10.281332288309157
      ],
      [
        "ĠspÃŃÅ¡",
        -10.281975182208381
      ],
      [
        "Ġlky",
        -10.28220752117102
      ],
      [
        "le",
        -10.282680742803143
      ],
      [
        "Ġesa",
        -10.285516118538498
      ],
      [
        "Ġama",
        -10.286221195753303
      ],
      [
        "Ġdaleko",
        -10.287420680969102
      ],
      [
        "ĠmnohÃ©",
        -10.288453606558775
      ],
      [
        "Ġvrch",
        -10.290402518246378
      ],
      [
        "Ġdali",
        -10.290551784682318
      ],
      [
        "tud",
        -10.29170785385603
      ],
      [
        "rnÄĽ",
        -10.292040620700634
      ],
      [
        "ĠtÅĻese",
        -10.292121336799354
      ],
      [
        "ĠhrdÄĽ",
        -10.292155417010605
      ],
      [
        "ĠocÃŃ",
        -10.29299714152198
      ],
      [
        "dly",
        -10.293078632632811
      ],
      [
        "nÃ©ho",
        -10.293401355568207
      ],
      [
        "itÄĽ",
        -10.293434256013464
      ],
      [
        "ĠvÅ¡ÃŃ",
        -10.29348654701942
      ],
      [
        "ĠtmavÃ©",
        -10.294079637267473
      ],
      [
        "Ġmluv",
        -10.294422052343378
      ],
      [
        "Ġoha",
        -10.294668534912116
      ],
      [
        "Ġvojsk",
        -10.295298148193352
      ],
      [
        "Ġprah",
        -10.29546653002489
      ],
      [
        "Ġkalich",
        -10.296105355373243
      ],
      [
        "ĠdÅĻÃŃmÃ¡",
        -10.296252945399957
      ],
      [
        "ĠbÃ½val",
        -10.296644138937253
      ],
      [
        "nnÃ©",
        -10.296778222026221
      ],
      [
        "Ġana",
        -10.297301297535665
      ],
      [
        "Ġprahu",
        -10.297692909745077
      ],
      [
        "Ġeti",
        -10.298288306904519
      ],
      [
        "ĠÅ¾Ã¡dnÃ©",
        -10.298425322392529
      ],
      [
        "ĠpÅĻÃŃval",
        -10.29895805179375
      ],
      [
        "ĠÅĻekla",
        -10.299493768278671
      ],
      [
        "ĠÄįekal",
        -10.301251298158196
      ],
      [
        "Ġdnu",
        -10.30153674252831
      ],
      [
        "Ġbolu",
        -10.301995430632864
      ],
      [
        "ĠÄįistÃ½",
        -10.302158478521395
      ],
      [
        "Ġula",
        -10.30257054025573
      ],
      [
        "ĠumÄĽnÃŃ",
        -10.304147972778452
      ],
      [
        "Ġstane",
        -10.304254214659966
      ],
      [
        "ĠsmÄĽle",
        -10.304557081651776
      ],
      [
        "AAAB",
        -10.305035332201788
      ],
      [
        "ĠjimÅ¾",
        -10.305205761048391
      ],
      [
        "Ġvoda",
        -10.30566175588121
      ],
      [
        "ĠdÃŃlo",
        -10.305757664298252
      ],
      [
        "Ġato",
        -10.307255401524941
      ],
      [
        "el",
        -10.307468266680353
      ],
      [
        "oni",
        -10.307493017656707
      ],
      [
        "Ġdno",
        -10.307647574331916
      ],
      [
        "ĠvonÃŃ",
        -10.308878081088114
      ],
      [
        "ĠmÄĽj",
        -10.309175583386093
      ],
      [
        "Ġsnem",
        -10.309236489837179
      ],
      [
        "Ġsluncem",
        -10.309649521282083
      ],
      [
        "ĠhuÄįÃŃ",
        -10.309665678493495
      ],
      [
        "Ġmilost",
        -10.311524132420352
      ],
      [
        "ĠtÃ©m",
        -10.312039703191815
      ],
      [
        "kÃ¡",
        -10.313393132561892
      ],
      [
        "Ġjizb",
        -10.313625708477593
      ],
      [
        "ĠhÃ¡j",
        -10.313772031386627
      ],
      [
        "ĠÅ¡kod",
        -10.313789118891792
      ],
      [
        "ĠkÃ½m",
        -10.313915041758726
      ],
      [
        "ĠstÄĽny",
        -10.314040892419538
      ],
      [
        "Ġhvozd",
        -10.315581615323612
      ],
      [
        "vat",
        -10.315708170213963
      ],
      [
        "Ġohy",
        -10.315984955757248
      ],
      [
        "Ġnitru",
        -10.316551529310189
      ],
      [
        "ĠdveÅĻÃŃ",
        -10.316690166469801
      ],
      [
        "ĠleÅ¾",
        -10.317394712129675
      ],
      [
        "Ġzdi",
        -10.317408994503918
      ],
      [
        "Ġkorun",
        -10.31749679118414
      ],
      [
        "ĠdÄĽcko",
        -10.317894860098436
      ],
      [
        "ĠopÃŃ",
        -10.31808135374106
      ],
      [
        "ĠÅĪadrech",
        -10.319499534404954
      ],
      [
        "ĠprosÃŃm",
        -10.320686037315303
      ],
      [
        "kÃ¡m",
        -10.320733786546235
      ],
      [
        "ĠdivnÃ©",
        -10.320893030152478
      ],
      [
        "ÄĽtÄĽ",
        -10.321102681562717
      ],
      [
        "Ġmatce",
        -10.321212947989142
      ],
      [
        "dnÃ¡",
        -10.321890260091276
      ],
      [
        "ĠvÅ¯ni",
        -10.321919958724596
      ],
      [
        "Ġjindy",
        -10.322564329819825
      ],
      [
        "Ġtich",
        -10.322583634363664
      ],
      [
        "Ġvesel",
        -10.322584601836326
      ],
      [
        "ĠvÅ¯dce",
        -10.323011461917584
      ],
      [
        "ĠrokÅ¯",
        -10.32349526249277
      ],
      [
        "ĠoÅ¾e",
        -10.32532866534199
      ],
      [
        "Ġstarost",
        -10.325801085622116
      ],
      [
        "ĠchÅ¯",
        -10.325938535910336
      ],
      [
        "ÅĻÃŃ",
        -10.326204100786416
      ],
      [
        "Ġsvatou",
        -10.32665778538922
      ],
      [
        "Ġkonce",
        -10.327451862038446
      ],
      [
        "ĠdÃ½Å¡e",
        -10.32789651922544
      ],
      [
        "ĠkaÅ¾dÃ©m",
        -10.328547407469834
      ],
      [
        "Ġpodzim",
        -10.330907753618906
      ],
      [
        "ĠÅ¡edÃ½",
        -10.330993102138127
      ],
      [
        "ĠvÄĽtr",
        -10.331630785084887
      ],
      [
        "Ġluny",
        -10.331899994159386
      ],
      [
        "anÃ¡",
        -10.331963527485803
      ],
      [
        "Ġpoznal",
        -10.332227157475934
      ],
      [
        "ÄĽvu",
        -10.332434174244945
      ],
      [
        "ĠdÄĽje",
        -10.332964698796392
      ],
      [
        "Ġstanul",
        -10.333115716242796
      ],
      [
        "eÄįe",
        -10.33502835605698
      ],
      [
        "Ġmed",
        -10.335079187644702
      ],
      [
        "Ġzve",
        -10.33576373295356
      ],
      [
        "ĠsmÄĽje",
        -10.336356085407408
      ],
      [
        "ÄĽku",
        -10.3365934208955
      ],
      [
        "ĠradostÃŃ",
        -10.336727622526896
      ],
      [
        "Ġhraje",
        -10.336789248518292
      ],
      [
        "Ġznal",
        -10.337653546325102
      ],
      [
        "ĠÅ¡ÃŃp",
        -10.337940216212068
      ],
      [
        "ĠmlÄįk",
        -10.338166499421149
      ],
      [
        "ĠposlÃ©z",
        -10.338207195428845
      ],
      [
        "Ġslib",
        -10.33859029145345
      ],
      [
        "AXXA",
        -10.340112843856488
      ],
      [
        "ĠspÃ¡t",
        -10.34120393116622
      ],
      [
        "ĠvÄĽrnÃ½",
        -10.341326827805627
      ],
      [
        "ĠpÃ¡na",
        -10.341605209579466
      ],
      [
        "Ġpravo",
        -10.34189453822411
      ],
      [
        "Ġskvost",
        -10.343325144917872
      ],
      [
        "ĠotÄĽ",
        -10.344083722801997
      ],
      [
        "ĠÅ¾havÃ½",
        -10.344528793842223
      ],
      [
        "eÅĪ",
        -10.345515468483393
      ],
      [
        "Ġvlna",
        -10.3455323040813
      ],
      [
        "ĠdlanÃŃ",
        -10.346977602047463
      ],
      [
        "ĠpravÃ½",
        -10.346979857951599
      ],
      [
        "ahu",
        -10.347826641502667
      ],
      [
        "ĠpatÅĻÃŃ",
        -10.348945569257722
      ],
      [
        "ĠchÃ½lÃŃ",
        -10.349175688098788
      ],
      [
        "ĠsvÄĽtÅ¯",
        -10.349268895867771
      ],
      [
        "Ġmistr",
        -10.349639523752188
      ],
      [
        "Ġeta",
        -10.351306167646522
      ],
      [
        "ĠpÄĽknÄĽ",
        -10.35194452947334
      ],
      [
        "Ġzdali",
        -10.352015783234464
      ],
      [
        "vÅ¯j",
        -10.352724176488707
      ],
      [
        "ĠmocÃŃ",
        -10.353100590078242
      ],
      [
        "Ġzlost",
        -10.353210319016686
      ],
      [
        "ilÃ©",
        -10.354106249907636
      ],
      [
        "Ġslovy",
        -10.354726826415959
      ],
      [
        "ĠmÃ¡te",
        -10.3551653752352
      ],
      [
        "Ġtmou",
        -10.355176277872502
      ],
      [
        "skou",
        -10.355788564166804
      ],
      [
        "AX",
        -10.3562141532611
      ],
      [
        "ĠkoneÄįnÄĽ",
        -10.356450053995149
      ],
      [
        "Ġjeli",
        -10.356523522651985
      ],
      [
        "Ġmusil",
        -10.35692192805389
      ],
      [
        "ĠelÃ¡",
        -10.357527424755373
      ],
      [
        "Ġsladkou",
        -10.35753099858804
      ],
      [
        "ĠztrÃ¡cÃŃ",
        -10.358739181972018
      ],
      [
        "ĠvÄĽÅ¾e",
        -10.358753778846499
      ],
      [
        "Ã¡Å¾ÃŃ",
        -10.359166918727055
      ],
      [
        "ĠstÅĻech",
        -10.359841267655414
      ],
      [
        "AABA",
        -10.360192584993316
      ],
      [
        "Ġmilosti",
        -10.360337698811312
      ],
      [
        "Ġpropast",
        -10.360686084530428
      ],
      [
        "¡",
        -10.360744260136233
      ],
      [
        "iÅ¥",
        -10.361094506570169
      ],
      [
        "Ġkrov",
        -10.361471064465594
      ],
      [
        "ĠstÅĻel",
        -10.362112239468896
      ],
      [
        "ĠdÄĽck",
        -10.362909827756463
      ],
      [
        "ĠbohÅ¯",
        -10.363198375727983
      ],
      [
        "Ã¡se",
        -10.363460712140007
      ],
      [
        "Ġhlahol",
        -10.363706152736802
      ],
      [
        "Ġkamen",
        -10.363821619444252
      ],
      [
        "ĠosÃŃ",
        -10.364324263638453
      ],
      [
        "Ġcem",
        -10.364409287628046
      ],
      [
        "ĠdÃŃvÄįÃŃ",
        -10.364448197851605
      ],
      [
        "tko",
        -10.364519690885011
      ],
      [
        "ĠmÃŃst",
        -10.36465192063594
      ],
      [
        "Ġrob",
        -10.364975522443025
      ],
      [
        "Ġeme",
        -10.365953857830814
      ],
      [
        "ĠvidÃŃÅ¡",
        -10.366137012766025
      ],
      [
        "ĠmÃ¡j",
        -10.366923667870193
      ],
      [
        "Ġchmur",
        -10.368251617262896
      ],
      [
        "Ġplna",
        -10.370224614388544
      ],
      [
        "Ġbudi",
        -10.370417820499917
      ],
      [
        "ĠnaÅ¡el",
        -10.370571434487399
      ],
      [
        "ĠpÅĻÃ¡nÃŃ",
        -10.371560327004843
      ],
      [
        "Ġzel",
        -10.371615433988353
      ],
      [
        "ĠdÄĽvÄįe",
        -10.37225790765989
      ],
      [
        "ece",
        -10.372366877300177
      ],
      [
        "Ġduh",
        -10.372966156400633
      ],
      [
        "Ġmrtvol",
        -10.3740227563488
      ],
      [
        "ĠlkÃ¡",
        -10.374214616687304
      ],
      [
        "Ġleh",
        -10.3754407714138
      ],
      [
        "Ġstal",
        -10.375700226735567
      ],
      [
        "Ġskoro",
        -10.375972585033828
      ],
      [
        "ĠzÅĻÃŃt",
        -10.376358623248578
      ],
      [
        "Ġchleba",
        -10.376630188233046
      ],
      [
        "ĠcitÅ¯",
        -10.376645238454806
      ],
      [
        "ĠskrÃ¡nÃŃ",
        -10.377349768295936
      ],
      [
        "ĠpÃŃt",
        -10.378370157993054
      ],
      [
        "ĠvÃ¡Å¡nÄĽ",
        -10.37879507531824
      ],
      [
        "osti",
        -10.378948383179942
      ],
      [
        "esu",
        -10.379188057701167
      ],
      [
        "Ġuka",
        -10.379240319256066
      ],
      [
        "Ġkletb",
        -10.379456108854395
      ],
      [
        "Ġaha",
        -10.379809508064598
      ],
      [
        "ĠtemnÄĽ",
        -10.380834128848695
      ],
      [
        "ĠjasnÄĽ",
        -10.381571135648658
      ],
      [
        "Ġhledal",
        -10.382036418208747
      ],
      [
        "ĠslavÃŃk",
        -10.382108219854288
      ],
      [
        "ĠsnÄĽhu",
        -10.382248467664617
      ],
      [
        "Ġbalvan",
        -10.382512692888902
      ],
      [
        "ĠpÃŃsk",
        -10.382772321251839
      ],
      [
        "ĠjinÃŃ",
        -10.383002936558814
      ],
      [
        "ÃŃra",
        -10.38341045581447
      ],
      [
        "Ġpoesi",
        -10.384577726828368
      ],
      [
        "ĠptÃ¡",
        -10.385130489532992
      ],
      [
        "ĠstÃŃnÅ¯",
        -10.385706790238887
      ],
      [
        "eÄı",
        -10.385918674215112
      ],
      [
        "Ġvolnost",
        -10.386216151455752
      ],
      [
        "Ġbyt",
        -10.38622147758257
      ],
      [
        "Å¡ly",
        -10.386229112617544
      ],
      [
        "ĠsamÃ©",
        -10.38636662202932
      ],
      [
        "Ġsud",
        -10.386508520861153
      ],
      [
        "Ġkov",
        -10.387043306476142
      ],
      [
        "ĠptÃ¡Äįe",
        -10.387094674551804
      ],
      [
        "ckÃ½",
        -10.387602351604595
      ],
      [
        "rnÃŃ",
        -10.388018135827082
      ],
      [
        "ĠvÃ½Å¡i",
        -10.38862871242706
      ],
      [
        "Ġtvor",
        -10.38862907842124
      ],
      [
        "ĠprÅ¯vod",
        -10.389151278300822
      ],
      [
        "Ġpouta",
        -10.38966395334279
      ],
      [
        "ĠprÃ¡vo",
        -10.39116668491032
      ],
      [
        "XABA",
        -10.391217266073841
      ],
      [
        "Ġvelmi",
        -10.391944754831513
      ],
      [
        "ĠvÄĽtvÃŃ",
        -10.392055232265601
      ],
      [
        "ĠvolnÄĽ",
        -10.39251684388958
      ],
      [
        "Ġmatku",
        -10.393257295455845
      ],
      [
        "Ġoken",
        -10.39393191357442
      ],
      [
        "eÄįi",
        -10.394632201763795
      ],
      [
        "ĠdobrÃ¡",
        -10.395152682572574
      ],
      [
        "?!",
        -10.395275738549788
      ],
      [
        "ĠmlÄįÃŃ",
        -10.395564012870368
      ],
      [
        "ĠzÃ¡voj",
        -10.395817182175225
      ],
      [
        "ĠhorÃ¡ch",
        -10.396111670423412
      ],
      [
        "ta",
        -10.396990375010027
      ],
      [
        "ĠvÅ¡ickni",
        -10.398101344959276
      ],
      [
        "ĠseÅĪ",
        -10.40042542418755
      ],
      [
        "Ġmluvit",
        -10.401925738128927
      ],
      [
        "ĠtajemstvÃŃ",
        -10.402112873921801
      ],
      [
        "ĠÅ¡ti",
        -10.402930776559357
      ],
      [
        "nnÃŃ",
        -10.403227971237612
      ],
      [
        "Ġnebude",
        -10.403661131515953
      ],
      [
        "Ġstarou",
        -10.40460484086513
      ],
      [
        "ĠvÄĽÄįnosti",
        -10.405285353255646
      ],
      [
        "Ġmiloval",
        -10.406119441435145
      ],
      [
        "ĠsmÄĽl",
        -10.407485330636213
      ],
      [
        "ĠzÅ¯stal",
        -10.408269889553052
      ],
      [
        "ÄįnÃ½",
        -10.409020603989752
      ],
      [
        "ovÃ½ch",
        -10.409195135765827
      ],
      [
        "Ġlidi",
        -10.409875168886254
      ],
      [
        "ĠvelikÃ©",
        -10.4100798844947
      ],
      [
        "Ġrys",
        -10.410475951504873
      ],
      [
        "ĠbÃŃt",
        -10.410671761798381
      ],
      [
        "ĠÅĻev",
        -10.41088842804372
      ],
      [
        "Ġotci",
        -10.411498834573074
      ],
      [
        "ĠmuÅ¾Å¯",
        -10.411761754767811
      ],
      [
        "ĠnÄĽmÃ½",
        -10.41191440106272
      ],
      [
        "ĠÅ¾ivotem",
        -10.41193716115457
      ],
      [
        "Ġlesem",
        -10.412105236395163
      ],
      [
        "ĠvÄĽtru",
        -10.412149874110296
      ],
      [
        "dnem",
        -10.412358082142788
      ],
      [
        "azÃŃ",
        -10.412589909156495
      ],
      [
        "ĠnemÃ¡m",
        -10.413122498031623
      ],
      [
        "chom",
        -10.414104110652733
      ],
      [
        "ĠvrÃ¡tÃŃ",
        -10.41461021920891
      ],
      [
        "tu",
        -10.415122376983078
      ],
      [
        "ÃŃÅĻÃŃ",
        -10.415602413098089
      ],
      [
        "ĠnepÅĻÃ¡tel",
        -10.416015266188293
      ],
      [
        "Ġlov",
        -10.41652354144281
      ],
      [
        "ĠtajÃŃ",
        -10.416550305812518
      ],
      [
        "ĠÅ¾enou",
        -10.416608058489434
      ],
      [
        "ĠdÃ¡n",
        -10.41748094038378
      ],
      [
        "Ġpadne",
        -10.418932616776967
      ],
      [
        "ĠsplÃ½vÃ¡",
        -10.419038588079216
      ],
      [
        "Ġkryje",
        -10.419083688981656
      ],
      [
        "Ġhroby",
        -10.4190851830977
      ],
      [
        "Ġnemoh",
        -10.419813248954718
      ],
      [
        "se",
        -10.419971314355768
      ],
      [
        "Ġprosb",
        -10.421234990906546
      ],
      [
        "Ġebi",
        -10.42141086204294
      ],
      [
        "Ġnebem",
        -10.421599015415985
      ],
      [
        "Ġob",
        -10.421599342623672
      ],
      [
        "ĠtÃ¡h",
        -10.422271409152483
      ],
      [
        "ĠstaÄįÃŃ",
        -10.424520535914088
      ],
      [
        "ĠchladnÃ½",
        -10.42459106461633
      ],
      [
        "Ġtichou",
        -10.424985441841347
      ],
      [
        "Ġjinoch",
        -10.425043234104432
      ],
      [
        "Ġprudce",
        -10.425440848446396
      ],
      [
        "ĠnÄĽkde",
        -10.426780823917092
      ],
      [
        "kÃ½",
        -10.426853786748143
      ],
      [
        "ĠnadÄĽjÃŃ",
        -10.42704633149667
      ],
      [
        "ĠvÃ¡l",
        -10.427901795056293
      ],
      [
        "ĠvÅ¡ady",
        -10.428303078706492
      ],
      [
        "Ġmnich",
        -10.428992029893543
      ],
      [
        "ĠbolÃŃ",
        -10.429096850482486
      ],
      [
        "eba",
        -10.4292988199619
      ],
      [
        "ĠmlÃ½n",
        -10.429320614688947
      ],
      [
        "Ġkdybych",
        -10.429663994232026
      ],
      [
        "Ġsoucit",
        -10.429842586126732
      ],
      [
        "ĠchladnÃ©",
        -10.42995035475069
      ],
      [
        "Ġnoha",
        -10.430802503504832
      ],
      [
        "rti",
        -10.432202065847505
      ],
      [
        "ĠtÃŃÅ¾ÃŃ",
        -10.432367054073406
      ],
      [
        "ĠnÃ¡ruÄįÃŃ",
        -10.433020017801992
      ],
      [
        "Ġnejsem",
        -10.433174648578884
      ],
      [
        "ĠvelkÃ½m",
        -10.43431845036058
      ],
      [
        "Ġkristu",
        -10.434955115617992
      ],
      [
        "Ġvine",
        -10.43573865775548
      ],
      [
        "ĠkaÅ¾dÃ½m",
        -10.435834246694341
      ],
      [
        "ĠpoutnÃŃk",
        -10.436318126638522
      ],
      [
        "ĠoÄįima",
        -10.437680757390869
      ],
      [
        "ĠneznÃ¡m",
        -10.437755763129141
      ],
      [
        "ĠjÃŃti",
        -10.437767714589762
      ],
      [
        "mnÃ©",
        -10.437779676517735
      ],
      [
        "Ġkrb",
        -10.437814012536007
      ],
      [
        "Ã¡ji",
        -10.43806248633021
      ],
      [
        "Å¡e",
        -10.438166012806157
      ],
      [
        "aÅĻÃŃ",
        -10.438236979430075
      ],
      [
        "aze",
        -10.439324177778579
      ],
      [
        "ĠhalÃŃ",
        -10.439333666549423
      ],
      [
        "ÄĽch",
        -10.439345080328081
      ],
      [
        "ÄĽnÃ©",
        -10.440396786138088
      ],
      [
        "yly",
        -10.440624807522113
      ],
      [
        "ĠdÄĽd",
        -10.440996916724977
      ],
      [
        "ĠchlÃ©b",
        -10.441602113142565
      ],
      [
        "ĠpravÃ©",
        -10.44176587881529
      ],
      [
        "ĠptaÄįÃŃ",
        -10.44204099905511
      ],
      [
        "ĠpÃ¡lÃŃ",
        -10.44222479775657
      ],
      [
        "Ġlehc",
        -10.442494313092535
      ],
      [
        "ĠmocnÄĽ",
        -10.443629893179597
      ],
      [
        "ĠvÄĽnec",
        -10.443854040759422
      ],
      [
        "ĠslavnÃ©",
        -10.444060418982719
      ],
      [
        "ĠzvÄĽst",
        -10.44409029136354
      ],
      [
        "ĠÄįasÅ¯",
        -10.444519884452106
      ],
      [
        "Ġvane",
        -10.445066526274243
      ],
      [
        "Ġatu",
        -10.446095188202815
      ],
      [
        "ĠhnÃŃzd",
        -10.446288276740136
      ],
      [
        "ĠvlasÅ¯",
        -10.447375141169147
      ],
      [
        "Ġstolu",
        -10.447907438099833
      ],
      [
        "ĠkÅĻÃŃÅ¾e",
        -10.44791207188278
      ],
      [
        "ĠpohÃ¡dk",
        -10.448222845730536
      ],
      [
        "ĠstÃ¡ÅĻÃŃ",
        -10.448376620794303
      ],
      [
        "Ã¡hy",
        -10.448831619099536
      ],
      [
        "ĠÅ¾Ã¡dn",
        -10.449365115170309
      ],
      [
        "Ġjezer",
        -10.449463994865175
      ],
      [
        "Ġhudb",
        -10.449515195890086
      ],
      [
        "ĠmÃ©mu",
        -10.449705495430722
      ],
      [
        "ĠlÃŃcÃŃ",
        -10.45002512296956
      ],
      [
        "Ġpomal",
        -10.45050016928393
      ],
      [
        "tnÃŃ",
        -10.450976459797985
      ],
      [
        "ĠÃºdolÃŃ",
        -10.451846414392133
      ],
      [
        "Ġkrvi",
        -10.452170807056472
      ],
      [
        "ĠduchÅ¯",
        -10.452444705070217
      ],
      [
        "ĠuhÃ½",
        -10.452707283900605
      ],
      [
        "Ġpadl",
        -10.454098217104839
      ],
      [
        "ĠpÅĻÃŃtel",
        -10.454410144245283
      ],
      [
        "udÃ©",
        -10.454591420827192
      ],
      [
        "ĠvÄįel",
        -10.454801332462004
      ],
      [
        "Ġodkud",
        -10.455078079285904
      ],
      [
        "ĠÃºd",
        -10.455246844350121
      ],
      [
        "Ġsnah",
        -10.455323698024646
      ],
      [
        "ĠrÅ¯Å¾i",
        -10.455623440529212
      ],
      [
        "atÄĽ",
        -10.456602256328232
      ],
      [
        "ĠÅ¡edÃ©",
        -10.45751562392924
      ],
      [
        "ĠsluÅ¾b",
        -10.458099000428508
      ],
      [
        "ĠvÄĽtve",
        -10.458864779063344
      ],
      [
        "Ġpark",
        -10.459131915140881
      ],
      [
        "ĠpÅ¯lnoc",
        -10.459222160685627
      ],
      [
        "Ġztratil",
        -10.459784961628907
      ],
      [
        "Ġdlouhou",
        -10.460030519746066
      ],
      [
        "Ġproudy",
        -10.460463902610726
      ],
      [
        "nÃŃh",
        -10.461301156936194
      ],
      [
        "Ġtehdy",
        -10.462455165801494
      ],
      [
        "Ġhrozn",
        -10.462675137134799
      ],
      [
        "ĠjÃ¡sot",
        -10.463375197681886
      ],
      [
        "Ġbudem",
        -10.463577400002015
      ],
      [
        "Ġzima",
        -10.463611710245363
      ],
      [
        "ĠobliÄįej",
        -10.463835887656053
      ],
      [
        "ĠÄįert",
        -10.46489698013378
      ],
      [
        "dÃ¡ti",
        -10.465801349651843
      ],
      [
        "ÃŃÅĻe",
        -10.465857228664742
      ],
      [
        "Å¡tÃŃ",
        -10.466836539634727
      ],
      [
        "ĠkoÅĻen",
        -10.46690997314301
      ],
      [
        "ytu",
        -10.467785683453755
      ],
      [
        "ĠvÃ¡clav",
        -10.467790472091435
      ],
      [
        "Ġkouzlo",
        -10.468723980362407
      ],
      [
        "ĠvelkÃ½ch",
        -10.468785812249418
      ],
      [
        "ĠstaÅĻec",
        -10.469218259524343
      ],
      [
        "ĠnemÅ¯Å¾e",
        -10.469465630831884
      ],
      [
        "ĠvÄĽdÄĽl",
        -10.470188136575448
      ],
      [
        "ĠpÄĽv",
        -10.470308113854864
      ],
      [
        "ĠsÃŃÅĪ",
        -10.470792253860907
      ],
      [
        "AXBXB",
        -10.471573299852572
      ],
      [
        "ĠprÃ¡va",
        -10.47160244072056
      ],
      [
        "Ġlamp",
        -10.471761830060615
      ],
      [
        "ĠdlouhÃ¡",
        -10.472024551084836
      ],
      [
        "Ġnemoc",
        -10.472674859904192
      ],
      [
        "ĠinÃ½",
        -10.472917721558105
      ],
      [
        "ĠpÅĻedu",
        -10.473459922904354
      ],
      [
        "Ġvolal",
        -10.474526643281438
      ],
      [
        "ĠchudÃ½",
        -10.476215989585803
      ],
      [
        "Ġkolik",
        -10.476810541828259
      ],
      [
        "ĠdlanÄĽ",
        -10.478031189823884
      ],
      [
        "Ġmor",
        -10.478431390699125
      ],
      [
        "Ġlodi",
        -10.478512650299004
      ],
      [
        "Ġkostel",
        -10.478590436741678
      ],
      [
        "ÅĻen",
        -10.478659194003356
      ],
      [
        "Ġleb",
        -10.479246011008415
      ],
      [
        "Ġhnal",
        -10.47977659651701
      ],
      [
        "ĠkÅ¯ÅĪ",
        -10.480903850136873
      ],
      [
        "Ġpouti",
        -10.482106104697124
      ],
      [
        "ĠveÄįera",
        -10.483433463969416
      ],
      [
        "ĠpoÄįal",
        -10.483753123130207
      ],
      [
        "Ġlidsk",
        -10.48466728029292
      ],
      [
        "ĠubÃŃ",
        -10.484682109231784
      ],
      [
        "AABX",
        -10.486467285211162
      ],
      [
        "Ġzle",
        -10.488915869786815
      ],
      [
        "ĠitÃ¡",
        -10.489179956531853
      ],
      [
        "ĠhnÄĽvu",
        -10.490245212896493
      ],
      [
        "ĠÅĻÃŃtÃŃ",
        -10.490303721220434
      ],
      [
        "ĠÅ¡kol",
        -10.49062248099658
      ],
      [
        "ĠzapomnÄĽl",
        -10.490927329765574
      ],
      [
        "ĠkeÅĻ",
        -10.491369513883086
      ],
      [
        "ĠsvÃŃrÃ¡",
        -10.49181977153654
      ],
      [
        "ÄįÃŃ",
        -10.491891541879163
      ],
      [
        "Ġhyne",
        -10.49341557748609
      ],
      [
        "ĠpracÃŃ",
        -10.493720433145299
      ],
      [
        "Ġnevy",
        -10.494646115252205
      ],
      [
        "ĠskrÃ½vÃ¡",
        -10.495216934835316
      ],
      [
        "ĠtÄĽchto",
        -10.495585618435115
      ],
      [
        "ĠcÃŃle",
        -10.496825216231947
      ],
      [
        "Ġbarev",
        -10.497462130794514
      ],
      [
        "ĠdeÅ¡tÄĽ",
        -10.498031013450777
      ],
      [
        "ĠskÃ¡la",
        -10.498832221963642
      ],
      [
        "ĠrodnÃ©",
        -10.498932523092313
      ],
      [
        "Ã©tÃ¡",
        -10.499535642306622
      ],
      [
        "Ġmile",
        -10.49994707042569
      ],
      [
        "Ġbytost",
        -10.500271005898933
      ],
      [
        "ĠÅ¡em",
        -10.500583995405776
      ],
      [
        "Ġmnoh",
        -10.501387598404449
      ],
      [
        "Å¯ru",
        -10.501394774904222
      ],
      [
        "ĠrodÃŃ",
        -10.501635225964591
      ],
      [
        "ĠslavnÄĽ",
        -10.502821000626987
      ],
      [
        "Ġdobu",
        -10.504093885260996
      ],
      [
        "Ġpel",
        -10.50472755587655
      ],
      [
        "Ġjitro",
        -10.504892995086324
      ],
      [
        "Ġklesl",
        -10.505469027064308
      ],
      [
        "Å¡ÃŃ",
        -10.505668499305973
      ],
      [
        "ĠÅ¡ero",
        -10.506004324005296
      ],
      [
        "Ġramen",
        -10.50705801265621
      ],
      [
        "ĠkÅĻÃŃdel",
        -10.507454339864637
      ],
      [
        "snÃ½",
        -10.50791010434612
      ],
      [
        "Ġkoho",
        -10.508518087442413
      ],
      [
        "Ã¡sÃ¡",
        -10.508873245099494
      ],
      [
        "Ġznak",
        -10.509220026536276
      ],
      [
        "Ġsamot",
        -10.509361839251723
      ],
      [
        "ĠÄįemu",
        -10.509951453447
      ],
      [
        "ijÃŃ",
        -10.509977392934323
      ],
      [
        "ĠvÃ¡Å¾nÄĽ",
        -10.510253276929896
      ],
      [
        "ĠnadÄĽj",
        -10.511234296680115
      ],
      [
        "ĠpÅĻiÅ¡l",
        -10.51161033812171
      ],
      [
        "ĠÅĻeka",
        -10.511711846916167
      ],
      [
        "Ġjat",
        -10.511819096576147
      ],
      [
        "ĠjemnÄĽ",
        -10.512223232607724
      ],
      [
        "Ġcel",
        -10.512401879220434
      ],
      [
        "ĠÃºzkost",
        -10.512828704994416
      ],
      [
        "prostÅĻed",
        -10.512897727141628
      ],
      [
        "ĠvonnÃ½",
        -10.512941636524513
      ],
      [
        "ynÄĽ",
        -10.513209013208275
      ],
      [
        "Ġvoj",
        -10.51359083917057
      ],
      [
        "ĠvÄĽz",
        -10.513612635585782
      ],
      [
        "ĠzpÄĽvu",
        -10.513712943019728
      ],
      [
        "ĠjakÃ½s",
        -10.513848212143705
      ],
      [
        "Ġvtip",
        -10.515353167970476
      ],
      [
        "ĠtÄĽÅ¾kÃ¡",
        -10.515474063782108
      ],
      [
        "ĠÅ¡eru",
        -10.51691349917933
      ],
      [
        "ĠvÃŃtÄĽzstvÃŃ",
        -10.518204045263857
      ],
      [
        "ĠstÅĻedu",
        -10.518355475881396
      ],
      [
        "ĠbÃŃdy",
        -10.518412557567146
      ],
      [
        "ĠchovÃ¡",
        -10.519163571419607
      ],
      [
        "Ġlit",
        -10.519763895653432
      ],
      [
        "ĠsmÄĽs",
        -10.520004919497403
      ],
      [
        "ĠbratÅĻe",
        -10.520226903731722
      ],
      [
        "Ġskryt",
        -10.520423145891055
      ],
      [
        "ĠvroucnÄĽ",
        -10.520830623306836
      ],
      [
        "ĠhrÃ¡t",
        -10.520982423905107
      ],
      [
        "Ġoma",
        -10.521349805901966
      ],
      [
        "Ġzdroj",
        -10.521375242773498
      ],
      [
        "ĠvÄĽku",
        -10.522076580380183
      ],
      [
        "Ġmyslil",
        -10.522160748388504
      ],
      [
        "ĠznÃ¡t",
        -10.522451091062461
      ],
      [
        "iÄįÃŃ",
        -10.522617901045454
      ],
      [
        "Ġono",
        -10.522830775698957
      ],
      [
        "Ġprs",
        -10.523005603030718
      ],
      [
        "aru",
        -10.523377373067358
      ],
      [
        "ahÃ½",
        -10.523813347803685
      ],
      [
        "Ġkams",
        -10.524295562345113
      ],
      [
        "Ġrov",
        -10.524727933133793
      ],
      [
        "ĠalÃ¡",
        -10.525315084852721
      ],
      [
        "ÃŃlÃ©",
        -10.525480747568322
      ],
      [
        "Ġomy",
        -10.525900219235453
      ],
      [
        "ÃŃjÃŃ",
        -10.52618151898825
      ],
      [
        "Ã©st",
        -10.527838800415235
      ],
      [
        "Ġtrest",
        -10.528062270078618
      ],
      [
        "ĠzlÃ¡",
        -10.528408100156291
      ],
      [
        "ĠhrÅ¯zy",
        -10.529065454458422
      ],
      [
        "ĠdivÃ©",
        -10.529159038753384
      ],
      [
        "ĠbloudÃŃ",
        -10.529710635648879
      ],
      [
        "Ġalu",
        -10.531297622241652
      ],
      [
        "Ã¡dy",
        -10.53203737854445
      ],
      [
        "ivÃŃ",
        -10.532180751434264
      ],
      [
        "ĠptÃ¡kÅ¯",
        -10.532472801879333
      ],
      [
        "Ġtrud",
        -10.532913959173184
      ],
      [
        "ĠpohÃ¡r",
        -10.53291992289536
      ],
      [
        "Ġnechal",
        -10.533702200293616
      ],
      [
        "ĠstÃ¡ti",
        -10.533749859550536
      ],
      [
        "ĠtÄĽlem",
        -10.534375107215585
      ],
      [
        "ĠhÃ¡je",
        -10.53450415558218
      ],
      [
        "ĠvstÃ¡vÃ¡",
        -10.534974082049487
      ],
      [
        "ĠrÃ½m",
        -10.535416020331738
      ],
      [
        "Ġkles",
        -10.535472164040046
      ],
      [
        "Ġkrajem",
        -10.535515269805977
      ],
      [
        "ĠvesmÃŃr",
        -10.535719669824228
      ],
      [
        "Ġzbyl",
        -10.535882886979707
      ],
      [
        "Ġmost",
        -10.536328016606836
      ],
      [
        "ĠpoÅ¾Ã¡r",
        -10.53755686763482
      ],
      [
        "ĠvaÅ¡ich",
        -10.537621118205642
      ],
      [
        "ĠnÄĽÅ¾",
        -10.537707600859953
      ],
      [
        "ĠkÃ½vÃ¡",
        -10.53821238018428
      ],
      [
        "ĠletnÃŃ",
        -10.538377167714739
      ],
      [
        "ĠvÃŃte",
        -10.539024745074762
      ],
      [
        "ĠchudÃ©",
        -10.539027255615128
      ],
      [
        "Ġrodin",
        -10.539182690011451
      ],
      [
        "ĠsmrtÃŃ",
        -10.539677231196638
      ],
      [
        "ĠlÃŃÅ¾",
        -10.54038937015153
      ],
      [
        "ĠobÄĽÅ¥",
        -10.541065588037984
      ],
      [
        "Ġkmen",
        -10.541191301725783
      ],
      [
        "ivy",
        -10.541298892199018
      ],
      [
        "Ġbod",
        -10.541538368066192
      ],
      [
        "Ġsever",
        -10.541663900095362
      ],
      [
        "ĠtrÅ¯nu",
        -10.54192429241008
      ],
      [
        "ĠdÃ½chÃ¡",
        -10.542167717341266
      ],
      [
        "ĠlÃŃbal",
        -10.542653288068225
      ],
      [
        "touze",
        -10.542834919935263
      ],
      [
        "Ġnesou",
        -10.54286885528676
      ],
      [
        "ĠÄįnÄĽ",
        -10.543299271110438
      ],
      [
        "ĠzachvÄĽl",
        -10.543825985951983
      ],
      [
        "ĠpoÅ¾ehnÃ¡nÃŃ",
        -10.544037992398783
      ],
      [
        "ĠdÄĽjin",
        -10.544102019289571
      ],
      [
        "Ġkrista",
        -10.544536793967001
      ],
      [
        "Ġpomoci",
        -10.544826207288473
      ],
      [
        "Ġspal",
        -10.545264555091851
      ],
      [
        "rnÃ¡",
        -10.546552056389022
      ],
      [
        "Ġklade",
        -10.547473045862166
      ],
      [
        "ĠkrÃ¡tkÃ½",
        -10.54761540355067
      ],
      [
        "ĠbÃŃda",
        -10.547741597316321
      ],
      [
        "?...",
        -10.54799763145136
      ],
      [
        "ABAX",
        -10.548179114655287
      ],
      [
        "iky",
        -10.548186108271999
      ],
      [
        "ĠvznÃ¡Å¡ÃŃ",
        -10.548232831295167
      ],
      [
        "Ġeji",
        -10.54878756073481
      ],
      [
        "ĠkrÃ¡sou",
        -10.54892513395427
      ],
      [
        "Ġvin",
        -10.549715796192196
      ],
      [
        "Ġkare",
        -10.549875693429161
      ],
      [
        "Ġkvete",
        -10.549986486848008
      ],
      [
        "ĠkvÄĽtin",
        -10.550687801079771
      ],
      [
        "ĠdennÃŃ",
        -10.551144555223175
      ],
      [
        "ĠpÃ¡s",
        -10.551275864471787
      ],
      [
        "ĠhroznÃ½",
        -10.55182799331602
      ],
      [
        "ĠnepÅĻÃŃtel",
        -10.551972523163908
      ],
      [
        "Ġtit",
        -10.553321995122669
      ],
      [
        "ĠsvÄĽdomÃŃ",
        -10.5536699629732
      ],
      [
        "ĠspÄĽl",
        -10.55380473370908
      ],
      [
        "ĠslzÃŃ",
        -10.553922366773353
      ],
      [
        "ĠlÃŃn",
        -10.553923966123275
      ],
      [
        "Ġpadla",
        -10.553929308754132
      ],
      [
        "eÅĻe",
        -10.554738065018306
      ],
      [
        "ÄĽru",
        -10.554841195551468
      ],
      [
        "Ġkouzl",
        -10.555018162930947
      ],
      [
        "in",
        -10.55516632285399
      ],
      [
        "ĠnechtÄĽl",
        -10.555246220624603
      ],
      [
        "ÃŃlÃ¡",
        -10.555697540582141
      ],
      [
        "ÃŃdÃ¡",
        -10.556210247255152
      ],
      [
        "etÃ¡",
        -10.556473100887144
      ],
      [
        "ĠbÃ¡l",
        -10.556591806364143
      ],
      [
        "Ġmohla",
        -10.556876603710666
      ],
      [
        "ABCCD",
        -10.557210730744536
      ],
      [
        "ÃŃlu",
        -10.557498439046995
      ],
      [
        "ĠhrÅ¯za",
        -10.55862221583508
      ],
      [
        "akÅ¯",
        -10.558653357089547
      ],
      [
        "ĠdvÃ©ÅĻe",
        -10.55865604271023
      ],
      [
        "Ġhlubok",
        -10.558893873381871
      ],
      [
        "Ġvan",
        -10.558949054162179
      ],
      [
        "ĠskÃ¡le",
        -10.560513298286246
      ],
      [
        "ĠonÃ©",
        -10.561134349957719
      ],
      [
        "ĠÅ¡lo",
        -10.561438588128754
      ],
      [
        "ĠvÄĽrnÄĽ",
        -10.56241596411856
      ],
      [
        "ĠjinÃ½m",
        -10.563347868070956
      ],
      [
        "ĠhrÃ¡",
        -10.564434581012062
      ],
      [
        "ĠprÃ¡zdno",
        -10.564581864018082
      ],
      [
        "Ġsed",
        -10.564613610992106
      ],
      [
        "ĠÄįernou",
        -10.565046237719628
      ],
      [
        "ĠikÃ¡",
        -10.565766272445929
      ],
      [
        "Ġvnad",
        -10.566331004628362
      ],
      [
        "ĠleÅ¾el",
        -10.566634366651208
      ],
      [
        "ĠÅĻetÄĽz",
        -10.566748044848104
      ],
      [
        "Ġsloup",
        -10.566888154137047
      ],
      [
        "Ġcen",
        -10.567653962538333
      ],
      [
        "ĠdÃ©Å¡Å¥",
        -10.567804916789616
      ],
      [
        "ĠlaÅĪ",
        -10.567894628520051
      ],
      [
        "Ġzvolal",
        -10.568122986248138
      ],
      [
        "ĠspÃŃcÃŃ",
        -10.568171878517944
      ],
      [
        "ty",
        -10.568601580287188
      ],
      [
        "Ġminul",
        -10.5694055193289
      ],
      [
        "Ġmil",
        -10.570885408586184
      ],
      [
        "ĠblÃŃzko",
        -10.570919558970413
      ],
      [
        "ĠkrÃ¡snou",
        -10.571333616740866
      ],
      [
        "ĠsvÄĽtlem",
        -10.572045343082724
      ],
      [
        "Ġskok",
        -10.572086456775274
      ],
      [
        "Ġvysoko",
        -10.57226636790347
      ],
      [
        "Ġdrahou",
        -10.573006969932287
      ],
      [
        "ĠprostÅĻed",
        -10.573266778046868
      ],
      [
        "Ġplyne",
        -10.573824183835093
      ],
      [
        "ĠpozdÄĽ",
        -10.574147721098768
      ],
      [
        "Ã¡ru",
        -10.574189712492446
      ],
      [
        "Ġchodil",
        -10.574237967113387
      ],
      [
        "ĠmrakÅ¯",
        -10.5744747670397
      ],
      [
        "ĠzbraÅĪ",
        -10.574559001696407
      ],
      [
        "ĠspÃ¡s",
        -10.574904330933563
      ],
      [
        "Ġovo",
        -10.575166461514574
      ],
      [
        "ĠdrÅ¾ÃŃ",
        -10.575278856905728
      ],
      [
        "bec",
        -10.57529098189681
      ],
      [
        "ĠvÄĽÄįnÃ¡",
        -10.575840812879884
      ],
      [
        "ĠloÅ¾i",
        -10.575863552081188
      ],
      [
        "ĠrozkoÅ¡e",
        -10.576400054363248
      ],
      [
        "vÄĽ",
        -10.57656982584275
      ],
      [
        "Ġuji",
        -10.576624034254403
      ],
      [
        "jednou",
        -10.57669874393708
      ],
      [
        "ĠrtÃŃ",
        -10.576771052209192
      ],
      [
        "ĠzrakÅ¯",
        -10.577028054260573
      ],
      [
        "Ġhrot",
        -10.577282630628233
      ],
      [
        "ĠuÅĻÃŃ",
        -10.577301989865724
      ],
      [
        "Ġmilou",
        -10.577318923002473
      ],
      [
        "Ã¡Äįi",
        -10.577381873482794
      ],
      [
        "ynÃŃ",
        -10.577443416307016
      ],
      [
        "ĠÅ¾hav",
        -10.578817639223107
      ],
      [
        "Ġuha",
        -10.579240709500665
      ],
      [
        "ĠpÅ¯d",
        -10.579356992452787
      ],
      [
        "ĠstoupÃ¡",
        -10.57942310875618
      ],
      [
        "ĠtÃ¡hnou",
        -10.579741305228723
      ],
      [
        "Ġpanna",
        -10.580003644700323
      ],
      [
        "ĠtvoÅĻÃŃ",
        -10.580030415457749
      ],
      [
        "ĠmrtvÃ½",
        -10.58032942324567
      ],
      [
        "Ġsmutno",
        -10.580607502758491
      ],
      [
        "ĠzdaÅ¾",
        -10.58148669541343
      ],
      [
        "ĠnesmÃŃ",
        -10.58173283088506
      ],
      [
        "ĠplÃ¡nÃŃ",
        -10.582026062001596
      ],
      [
        "©",
        -10.582170115152328
      ],
      [
        "Ġjist",
        -10.583056216232748
      ],
      [
        "ĠplÃ¡Å¡Å¥",
        -10.583171179709234
      ],
      [
        "Ġlal",
        -10.583296326002065
      ],
      [
        "ĠsamÃ½",
        -10.58336581959286
      ],
      [
        "ĠnejvÃŃc",
        -10.585371758973132
      ],
      [
        "ĠmoÅĻem",
        -10.585867595371473
      ],
      [
        "vÃŃra",
        -10.585903023023931
      ],
      [
        "ĠlnÄĽ",
        -10.586002185972635
      ],
      [
        "ĠmÃ¡ti",
        -10.58664194329816
      ],
      [
        "ĠzlatÃ½m",
        -10.586644595886042
      ],
      [
        "ĠÃ¡ry",
        -10.58703205115221
      ],
      [
        "Ġstud",
        -10.58777237671032
      ],
      [
        "dky",
        -10.588285395633344
      ],
      [
        "ĠsmutnÃ¡",
        -10.589199509965463
      ],
      [
        "ĠpÅĻÃŃrody",
        -10.589208293224914
      ],
      [
        "Ġrosa",
        -10.589819443860769
      ],
      [
        "nejkrÃ¡snÄĽjÅ¡ÃŃ",
        -10.59018807908631
      ],
      [
        "manÄĽ",
        -10.590213884695357
      ],
      [
        "ĠmÃŃstÄĽ",
        -10.590510885693222
      ],
      [
        "ĠusmÃŃvÃ¡",
        -10.591345445168875
      ],
      [
        "Ġpopel",
        -10.591584048439083
      ],
      [
        "Ġbolem",
        -10.591855926577843
      ],
      [
        "ĠruÄįk",
        -10.59214255933552
      ],
      [
        "ĠsvÃŃtil",
        -10.59221105265208
      ],
      [
        "ĠvÅ¡ednÃŃ",
        -10.594102191101555
      ],
      [
        "Ġpne",
        -10.595240695038191
      ],
      [
        "letu",
        -10.595507428766416
      ],
      [
        "ĠzaÄįal",
        -10.595916464838677
      ],
      [
        "Ġzved",
        -10.596142207681332
      ],
      [
        "tyto",
        -10.596322132309872
      ],
      [
        "kÅ¯",
        -10.596400823356756
      ],
      [
        "po",
        -10.59651688146337
      ],
      [
        "Ġtlum",
        -10.597200219036264
      ],
      [
        "Ġoce",
        -10.597701897852058
      ],
      [
        "ĠmladÃ½ch",
        -10.598472461476383
      ],
      [
        "ĠbÃŃdu",
        -10.598629676468718
      ],
      [
        "ĠÅ¾havÃ©",
        -10.598801885246214
      ],
      [
        "lÃŃ",
        -10.59893402065834
      ],
      [
        "kÅ¯m",
        -10.599472499731785
      ],
      [
        "Ġchas",
        -10.599536896370374
      ],
      [
        "ĠplnÃ¡",
        -10.599966651807078
      ],
      [
        "ĠchvÃŃlÃŃ",
        -10.600449020736576
      ],
      [
        "ĠÅ¾ivÃ©",
        -10.600683163256871
      ],
      [
        "ĠmarnÃ©",
        -10.600721193407697
      ],
      [
        "Ġslo",
        -10.601059323575353
      ],
      [
        "bÅ¯h",
        -10.601494354859717
      ],
      [
        "ĠdÄĽj",
        -10.60218170797414
      ],
      [
        "cÅ¯",
        -10.6027301521869
      ],
      [
        "ĠvÄĽÄįnost",
        -10.60340872023626
      ],
      [
        "Ġrat",
        -10.603553985876122
      ],
      [
        "Ġnutno",
        -10.603926872965195
      ],
      [
        "Ġperly",
        -10.604818488725208
      ],
      [
        "ĠtÅĻe",
        -10.605130696869185
      ],
      [
        "ĠnazpÄĽt",
        -10.606368450075632
      ],
      [
        "ĠcelÃ©m",
        -10.606687847020291
      ],
      [
        "Ġudi",
        -10.607095146322422
      ],
      [
        "Ġsne",
        -10.607148451550927
      ],
      [
        "ĠhÃ¡v",
        -10.608719546682705
      ],
      [
        "Ġdcera",
        -10.608906656338394
      ],
      [
        "Ġnepo",
        -10.609261522884479
      ],
      [
        "Ġpar",
        -10.610760346790752
      ],
      [
        "ĠnovÃ½m",
        -10.611036490624528
      ],
      [
        "ÃŃho",
        -10.611388894285348
      ],
      [
        "ĠbolestÃŃ",
        -10.611599269616121
      ],
      [
        "itÃ©",
        -10.612022382240998
      ],
      [
        "ĠvÄĽÅ¾ÃŃ",
        -10.612026929862278
      ],
      [
        "Ġprsty",
        -10.612107122338632
      ],
      [
        "Ġrosy",
        -10.61216846644391
      ],
      [
        "ĠchvÄĽla",
        -10.612299825331313
      ],
      [
        "Ġtvar",
        -10.613410076450387
      ],
      [
        "ĠonÄĽ",
        -10.613758220473986
      ],
      [
        "ĠtuÅ¡ÃŃ",
        -10.614856340088581
      ],
      [
        "ĠzdrÃ¡v",
        -10.61547473201557
      ],
      [
        "Ġdnesk",
        -10.615941686778328
      ],
      [
        "ĠprostÃ©",
        -10.616034028800707
      ],
      [
        "ĠÅ¡Å¥astnÃ½",
        -10.616663116761039
      ],
      [
        "ĠpustÃ½",
        -10.61671502151868
      ],
      [
        "Ġneza",
        -10.616913174437599
      ],
      [
        "Ġpluh",
        -10.617509008546044
      ],
      [
        "Ġnitro",
        -10.617753108112979
      ],
      [
        "ĠÃºtÄĽch",
        -10.618472942469582
      ],
      [
        "ĠÄįÃŃÅ¡e",
        -10.618574727910065
      ],
      [
        "ĠlÃ©pe",
        -10.61871532860111
      ],
      [
        "ĠstrÃ¡nÃŃ",
        -10.619059194901876
      ],
      [
        "ĠvÄĽÅ¾",
        -10.61944484277633
      ],
      [
        "Ã¡Å¡ÃŃ",
        -10.619480001586311
      ],
      [
        "ĠpozdnÃŃ",
        -10.619652630363206
      ],
      [
        "Ġlebk",
        -10.62170948746353
      ],
      [
        "ĠrÃ¡mÄĽ",
        -10.621778639035234
      ],
      [
        "ĠkterÃ½m",
        -10.622028193667191
      ],
      [
        "ĠhnÃŃzdo",
        -10.622682577282848
      ],
      [
        "XAAB",
        -10.622986981458247
      ],
      [
        "ĠkÃ¡Å¾e",
        -10.62299465165739
      ],
      [
        "ĠÄįase",
        -10.623074335213
      ],
      [
        "ĠjinÃ¡",
        -10.623780443138179
      ],
      [
        "ĠhnutÃŃ",
        -10.62399443607956
      ],
      [
        "ĠvÄĽl",
        -10.624314823010648
      ],
      [
        "ĠtÄĽÅ¡ÃŃ",
        -10.624392258783447
      ],
      [
        "ÄĽky",
        -10.625728999837323
      ],
      [
        "ĠstÅ¯l",
        -10.626024560987808
      ],
      [
        "ĠpÅĻelud",
        -10.626199772571066
      ],
      [
        "ÄĽnÃ½",
        -10.626939713255894
      ],
      [
        "Ġtrav",
        -10.627877187784865
      ],
      [
        "ĠpalÃ¡c",
        -10.628204796516238
      ],
      [
        "Ġkruhu",
        -10.628313562292838
      ],
      [
        "ĠÄıas",
        -10.628924266883054
      ],
      [
        "Ġklo",
        -10.628932104744727
      ],
      [
        "ĠpamÄĽti",
        -10.629014635954135
      ],
      [
        "ĠsÃŃnÄĽ",
        -10.629646814260953
      ],
      [
        "Ġcti",
        -10.629749083183457
      ],
      [
        "Ġposled",
        -10.629752841664207
      ],
      [
        "ĠdÃ¡Å¡",
        -10.631210922127691
      ],
      [
        "Ġkosti",
        -10.63169799489365
      ],
      [
        "Ġvrchol",
        -10.631746189479445
      ],
      [
        "Ġdli",
        -10.632090514391189
      ],
      [
        "ĠzbranÄĽ",
        -10.632552039818112
      ],
      [
        "ĠskrÃ¡nÄĽ",
        -10.632646530155782
      ],
      [
        "ĠvzÃŃt",
        -10.632845268057892
      ],
      [
        "ĠnosÃŃ",
        -10.632988316977421
      ],
      [
        "ĠnejvyÅ¡Å¡ÃŃ",
        -10.63310853106714
      ],
      [
        "ĠpÃ¡nu",
        -10.633196470889445
      ],
      [
        "ĠvÄĽnce",
        -10.633630746039575
      ],
      [
        "ĠsilnÃ½",
        -10.634113862905465
      ],
      [
        "ĠzÃ¡ÅĻÃŃcÃŃ",
        -10.634298162322821
      ],
      [
        "Ġchcete",
        -10.634461492831672
      ],
      [
        "ĠvlÃ¡dne",
        -10.634566184471371
      ],
      [
        "ĠspatÅĻil",
        -10.634910126448183
      ],
      [
        "Ġjar",
        -10.634918960819803
      ],
      [
        "Ġnach",
        -10.63512318689748
      ],
      [
        "on",
        -10.635173934865243
      ],
      [
        "ĠkvÃŃlÃŃ",
        -10.635430251846564
      ],
      [
        "Ġvida",
        -10.636653625067373
      ],
      [
        "ACCD",
        -10.636683538505252
      ],
      [
        "ĠradÄĽj",
        -10.637470107918922
      ],
      [
        "ÅĻÃŃÅ¾",
        -10.638264867232188
      ],
      [
        "Ġhrdin",
        -10.638572873359555
      ],
      [
        "ĠpÅĻÃŃmo",
        -10.639178207856473
      ],
      [
        "ĠdÄĽla",
        -10.640207649454275
      ],
      [
        "hce",
        -10.642354097400418
      ],
      [
        "ĠzelenÃ©",
        -10.64270969321027
      ],
      [
        "ĠznÃ¡mÃ½",
        -10.642808489787672
      ],
      [
        "ĠneznÃ¡",
        -10.642855684006697
      ],
      [
        "ĠzpÃŃvat",
        -10.643108617867762
      ],
      [
        "ĠzdÃŃ",
        -10.644110854092773
      ],
      [
        "ĠmÅ¯Å¾",
        -10.644121010956358
      ],
      [
        "ĠzelenÃ½",
        -10.644245927635183
      ],
      [
        "Ġmimo",
        -10.644688560672925
      ],
      [
        "ĠchvÄĽjÃŃ",
        -10.644910993030805
      ],
      [
        "Ġdat",
        -10.645047316640238
      ],
      [
        "Ġmdlob",
        -10.645921388211498
      ],
      [
        "Ġvot",
        -10.645934192806628
      ],
      [
        "ĠstÃ¡li",
        -10.646079401080273
      ],
      [
        "vou",
        -10.64629011300337
      ],
      [
        "ĠtÅĻÃ¡sl",
        -10.64634429513228
      ],
      [
        "ĠÄįistÃ¡",
        -10.646352911647213
      ],
      [
        "Ã¡Å¡Å¥",
        -10.64689189578825
      ],
      [
        "Ġsvobody",
        -10.647221637766023
      ],
      [
        "Ġozval",
        -10.647495465440954
      ],
      [
        "ovÃ¡",
        -10.64798273799697
      ],
      [
        "Ġvedl",
        -10.648335313451572
      ],
      [
        "Ã¡ce",
        -10.64861117084095
      ],
      [
        "Ġoda",
        -10.648882310852205
      ],
      [
        "ĠznÃ¡Å¡",
        -10.649216284675699
      ],
      [
        "Ġstan",
        -10.64957992619027
      ],
      [
        "ĠbÃ¡j",
        -10.649946401866789
      ],
      [
        "ĠÃºÅ¾as",
        -10.650027245464482
      ],
      [
        "nko",
        -10.650046222907822
      ],
      [
        "Ġtoto",
        -10.650216406616607
      ],
      [
        "ĠstokrÃ¡t",
        -10.651054039589424
      ],
      [
        "ĠblaÅ¾en",
        -10.652142825801935
      ],
      [
        "ĠtichÃ©m",
        -10.652179590167732
      ],
      [
        "ĠsvÄĽtel",
        -10.652412520788083
      ],
      [
        "ÄĽhu",
        -10.652614539521746
      ],
      [
        "Ġtemn",
        -10.652700225111108
      ],
      [
        "ĠprchÃ¡",
        -10.65273585370036
      ],
      [
        "Ġnesl",
        -10.65276587987891
      ],
      [
        "Ġptal",
        -10.653520946634078
      ],
      [
        "Ġlesku",
        -10.653723656084352
      ],
      [
        "ĠmlÃ¡d",
        -10.654336396872019
      ],
      [
        "ĠvÃ¡n",
        -10.654863722522412
      ],
      [
        "ĠtÃ¡bor",
        -10.655208872057482
      ],
      [
        "Ġhejn",
        -10.65551822242702
      ],
      [
        "Ġora",
        -10.655622729990384
      ],
      [
        "ĠpÅĻÃŃteli",
        -10.656069176604394
      ],
      [
        "ĠplnÃŃ",
        -10.656411968332144
      ],
      [
        "Ġbral",
        -10.656437214236474
      ],
      [
        "ĠÅ¾Ã¡dÃ¡",
        -10.656666464678189
      ],
      [
        "ĠpÃ¡nem",
        -10.657323543344365
      ],
      [
        "esÃ¡",
        -10.658141024172746
      ],
      [
        "Äı",
        -10.65835605176812
      ],
      [
        "alÃ©",
        -10.660185960346205
      ],
      [
        "ĠjejÃŃch",
        -10.660211527049993
      ],
      [
        "ĠÅĻec",
        -10.660636642213209
      ],
      [
        "ĠÅĻada",
        -10.661807746399347
      ],
      [
        "ĠzvonÅ¯",
        -10.663263842969236
      ],
      [
        "Ġshon",
        -10.663549192457051
      ],
      [
        "Ġnejsou",
        -10.66388447545258
      ],
      [
        "ĠrÃ¡ji",
        -10.664341127976915
      ],
      [
        "ĠletÄĽl",
        -10.664771724340575
      ],
      [
        "Ġpruh",
        -10.6652544781995
      ],
      [
        "tmu",
        -10.665513401230331
      ],
      [
        "ĠdÃŃÅ¡",
        -10.665843679816424
      ],
      [
        "Ġbarvy",
        -10.666303157410294
      ],
      [
        "ĠdivnÄĽ",
        -10.66709702031809
      ],
      [
        "ĠpÄĽn",
        -10.668450919255278
      ],
      [
        "ĠjemuÅ¾",
        -10.668761744321563
      ],
      [
        "pekla",
        -10.670360323991112
      ],
      [
        "ĠhonÃŃ",
        -10.67066937779745
      ],
      [
        "Ġhra",
        -10.671192450988398
      ],
      [
        "ĠÅ¡Å¥asten",
        -10.671302788887827
      ],
      [
        "ĠjedinÃ¡",
        -10.67269435742485
      ],
      [
        "ĠverÅ¡e",
        -10.673364422629275
      ],
      [
        "Ġpeklo",
        -10.67394951089705
      ],
      [
        "ĠprÃ¡v",
        -10.674080068552822
      ],
      [
        "ĠpÅ¯vab",
        -10.674130055474311
      ],
      [
        "ĠmanÅ¾el",
        -10.675726643430126
      ],
      [
        "ĠpÄĽstÃŃ",
        -10.676503326627858
      ],
      [
        "inÃ©",
        -10.676588518374555
      ],
      [
        "ĠÅ¾enÄĽ",
        -10.677259978485662
      ],
      [
        "Ġjede",
        -10.677776131439728
      ],
      [
        "Ġstezk",
        -10.68024605294253
      ],
      [
        "ĠlÃŃm",
        -10.680483485257103
      ],
      [
        "ĠÅ¾ivÃ½",
        -10.680706654114832
      ],
      [
        "ĠmyÅ¡lÃ©nky",
        -10.680730263545184
      ],
      [
        "aÅ¾ÃŃ",
        -10.680998415019198
      ],
      [
        "ĠplÃ¡Äįem",
        -10.681223312141485
      ],
      [
        "ĠoltÃ¡ÅĻ",
        -10.6827392316969
      ],
      [
        "ĠvÅ¡udy",
        -10.68353830511301
      ],
      [
        "ĠjÃ¡sÃ¡",
        -10.683762077597859
      ],
      [
        "ĠkÅĻiÄįÃŃ",
        -10.684387863899289
      ],
      [
        "Ġdoktor",
        -10.68467485417639
      ],
      [
        "ABXC",
        -10.68480014221938
      ],
      [
        "Ġdit",
        -10.684936180110862
      ],
      [
        "ĠvÃ¡Å¡eÅĪ",
        -10.685563335214752
      ],
      [
        "ĠÅ¾alu",
        -10.686083457273813
      ],
      [
        "tÅ¡ÃŃ",
        -10.686628347893995
      ],
      [
        "ĠupÃ¡",
        -10.68681784659066
      ],
      [
        "ĠprÃ¡h",
        -10.689454215818621
      ],
      [
        "Ġplanou",
        -10.68976117055433
      ],
      [
        "Ġdruhu",
        -10.691116559723303
      ],
      [
        "Ġmrtvo",
        -10.69120399005509
      ],
      [
        "Ġuby",
        -10.691445360590086
      ],
      [
        "ĠkrÅ¯pÄĽj",
        -10.691462247069015
      ],
      [
        "rodu",
        -10.692200605794742
      ],
      [
        "Ġhledat",
        -10.692657031498673
      ],
      [
        "ĠvzpomÃŃnÃ¡m",
        -10.69274558835032
      ],
      [
        "ysi",
        -10.693020631716887
      ],
      [
        "Ġdivy",
        -10.693806072739019
      ],
      [
        "Ġlam",
        -10.694345935746952
      ],
      [
        "yli",
        -10.694797657791774
      ],
      [
        "hle",
        -10.694811985762502
      ],
      [
        "Ġklesla",
        -10.695000292061245
      ],
      [
        "Ġnos",
        -10.695087923435945
      ],
      [
        "ĠtajnÄĽ",
        -10.695327099653923
      ],
      [
        "Ġtrosk",
        -10.696402650223703
      ],
      [
        "Ġpluk",
        -10.69683711503557
      ],
      [
        "Ġbrzo",
        -10.69705910330159
      ],
      [
        "ĠÅĪadr",
        -10.697246118754236
      ],
      [
        "ĠhroznÃ©",
        -10.697412405460334
      ],
      [
        "Ġtaj",
        -10.697935566403066
      ],
      [
        "nice",
        -10.698098105312019
      ],
      [
        "Ġumy",
        -10.698109219066856
      ],
      [
        "ĠznamenÃŃ",
        -10.698611329933215
      ],
      [
        "ĠmÃ¡Å¥",
        -10.698721592544418
      ],
      [
        "Ġblaze",
        -10.698818106023266
      ],
      [
        "Ġdvor",
        -10.699361741580791
      ],
      [
        "ĠslyÅ¡ÃŃÅ¡",
        -10.69968614286075
      ],
      [
        "Ãº",
        -10.700203703482988
      ],
      [
        "ĠsmÄĽr",
        -10.700225440085905
      ],
      [
        "Ġsnech",
        -10.700724708664296
      ],
      [
        "ru",
        -10.701954448705
      ],
      [
        "ĠhÅĻmÃŃ",
        -10.702389582469806
      ],
      [
        "nnÃ½",
        -10.70424688022809
      ],
      [
        "ĠhÃ¡zÃŃ",
        -10.704398176769896
      ],
      [
        "lna",
        -10.70487372324659
      ],
      [
        "ĠstÃ½",
        -10.705208196867051
      ],
      [
        "dci",
        -10.705601904742704
      ],
      [
        "ĠvÄĽtrÅ¯",
        -10.705717357388039
      ],
      [
        "nÅ¯m",
        -10.706119555082523
      ],
      [
        "Ġslunko",
        -10.706225322657552
      ],
      [
        "ĠsmÄĽlÃ½",
        -10.707186327012238
      ],
      [
        "Ġstrop",
        -10.707371372620887
      ],
      [
        "ĠpÅĻÃŃroda",
        -10.707563725128455
      ],
      [
        "lce",
        -10.707842820624299
      ],
      [
        "ĠpojÃŃ",
        -10.708447623031116
      ],
      [
        "Ġpsal",
        -10.708940965776435
      ],
      [
        "Ġbrach",
        -10.709371667016772
      ],
      [
        "Ġhloubk",
        -10.709748136675728
      ],
      [
        "Ġnemohu",
        -10.71027648039491
      ],
      [
        "Ġzku",
        -10.710837985175857
      ],
      [
        "ĠzprÃ¡v",
        -10.711033681978481
      ],
      [
        "Ġdobrou",
        -10.71199332642601
      ],
      [
        "Ġchvil",
        -10.711996206945646
      ],
      [
        "ĠnaÅ¡em",
        -10.712538658174143
      ],
      [
        "Ġulice",
        -10.712768470554678
      ],
      [
        "Ġmrav",
        -10.712877301307364
      ],
      [
        "ckÃ©",
        -10.712895777315667
      ],
      [
        "Ġmal",
        -10.713142700255911
      ],
      [
        "ĠvÄĽcÃŃ",
        -10.714164904500624
      ],
      [
        "ĠÅ¾it",
        -10.715265084377311
      ],
      [
        "ĠplaÅ¡e",
        -10.71531657937549
      ],
      [
        "orel",
        -10.715745105355111
      ],
      [
        "Ġvous",
        -10.715901486848647
      ],
      [
        "Ġabys",
        -10.716022309657163
      ],
      [
        "ĠchystÃ¡",
        -10.71624476341166
      ],
      [
        "Ġmladosti",
        -10.717051645550907
      ],
      [
        "Ġstrachu",
        -10.717565261162466
      ],
      [
        "ĠhrozÃŃ",
        -10.71759692473572
      ],
      [
        "ĠkrutÃ½",
        -10.717903573730172
      ],
      [
        "Ġkomnat",
        -10.718119625509113
      ],
      [
        "ĠpustÃ©",
        -10.718794548915785
      ],
      [
        "ĠvlnÃ¡ch",
        -10.720971073433933
      ],
      [
        "ĠÄįlovÄĽku",
        -10.722293922660063
      ],
      [
        "ĠlÃ¡l",
        -10.722507176102834
      ],
      [
        "ĠbuÅ¡ÃŃ",
        -10.722967516695238
      ],
      [
        "Ġpusto",
        -10.7233561941904
      ],
      [
        "Ġsvobodu",
        -10.724005069360238
      ],
      [
        "ÄįnÃ¡",
        -10.724083056803309
      ],
      [
        "eku",
        -10.724184872576448
      ],
      [
        "ĠcÃŃli",
        -10.724190594181962
      ],
      [
        "Ġsten",
        -10.72435991167487
      ],
      [
        "nat",
        -10.72477285176679
      ],
      [
        "ĠpestrÃ½",
        -10.72492414626632
      ],
      [
        "Ġbled",
        -10.724936188193553
      ],
      [
        "edl",
        -10.726306694841547
      ],
      [
        "Ġluna",
        -10.726507805876754
      ],
      [
        "Ġhospodin",
        -10.726774484164157
      ],
      [
        "ĠprostÃ½",
        -10.727695488473955
      ],
      [
        "Ġsamo",
        -10.728585118542007
      ],
      [
        "ĠjÃŃmÃ¡",
        -10.730048033813297
      ],
      [
        "Ġkrvav",
        -10.730798921989804
      ],
      [
        "Ġspor",
        -10.730927229402358
      ],
      [
        "ĠvÄĽÄįnou",
        -10.730927687134647
      ],
      [
        "ĠpapeÅ¾",
        -10.731315732434826
      ],
      [
        "ĠsvÄĽtlÃ½",
        -10.731461061494418
      ],
      [
        "ÄĽlÃŃ",
        -10.732029759482574
      ],
      [
        "Ġkola",
        -10.732650261190209
      ],
      [
        "½",
        -10.732961115282919
      ],
      [
        "ĠkrÃ¡s",
        -10.733423703282886
      ],
      [
        "ĠsvatÃ½ch",
        -10.733565076610653
      ],
      [
        "Ġpanny",
        -10.73503422869355
      ],
      [
        "Ġobou",
        -10.735410522591728
      ],
      [
        "ĠzÅĻÃŃÅ¡",
        -10.736844388928056
      ],
      [
        "ĠcelÃ½m",
        -10.737407525343848
      ],
      [
        "ĠÅ¾Ã¡rem",
        -10.738331389981418
      ],
      [
        "ĠvÃ¡nek",
        -10.738794754367067
      ],
      [
        "tÃŃ",
        -10.740435034476189
      ],
      [
        "Ġbitv",
        -10.74048659652522
      ],
      [
        "ĠÅ¡ept",
        -10.740688894075145
      ],
      [
        "ĠvÅĻe",
        -10.740977739080751
      ],
      [
        "ĠlÃŃto",
        -10.741407321128257
      ],
      [
        "leskem",
        -10.741526367530756
      ],
      [
        "ĠjedinÃ©",
        -10.742243070230064
      ],
      [
        "onÅ¯",
        -10.742521295104059
      ],
      [
        "Ġjmen",
        -10.742826435220469
      ],
      [
        "ĠstrÃ¡n",
        -10.74304682754505
      ],
      [
        "ĠhrdÃ½",
        -10.743258335537373
      ],
      [
        "Ġuly",
        -10.743437587909362
      ],
      [
        "ĠplÃ¡t",
        -10.744587590454012
      ],
      [
        "Ġzlo",
        -10.744869992520261
      ],
      [
        "ĠpravdÄĽ",
        -10.744969595801907
      ],
      [
        "ĠmÅ¯Å¾eÅ¡",
        -10.745651664688769
      ],
      [
        "ĠneznÃ¡mÃ½",
        -10.745673390321839
      ],
      [
        "eÅĻi",
        -10.74578452692013
      ],
      [
        "davu",
        -10.746005244019452
      ],
      [
        "ĠtrhÃ¡",
        -10.74724399094572
      ],
      [
        "Ġspoust",
        -10.747392350590282
      ],
      [
        "Ġchvilku",
        -10.747403992099905
      ],
      [
        "ĠjeÅ¡",
        -10.747408236524874
      ],
      [
        "ĠvzplÃ¡l",
        -10.747686633243518
      ],
      [
        "ĠspÃ¡nek",
        -10.747885429187793
      ],
      [
        "ĠnÃŃmÅ¾",
        -10.749353970141016
      ],
      [
        "Ġnedo",
        -10.749425422045665
      ],
      [
        "Ġpochod",
        -10.749921890253624
      ],
      [
        "Ġtamo",
        -10.750059245217834
      ],
      [
        "ĠdrobnÃ©",
        -10.750095418392405
      ],
      [
        "ĠdÃŃtky",
        -10.75063808244218
      ],
      [
        "Ġvzlet",
        -10.750994682855703
      ],
      [
        "ĠpouÅ¡ti",
        -10.751216852692174
      ],
      [
        "Ġvor",
        -10.751420001267777
      ],
      [
        "Ġtemno",
        -10.752504723173747
      ],
      [
        "ĠpovÄĽz",
        -10.752698273039432
      ],
      [
        "Ġmalou",
        -10.753108918559532
      ],
      [
        "ĠmoÅ¾nÃ¡",
        -10.753113330535532
      ],
      [
        "ovÃ½m",
        -10.753594306879172
      ],
      [
        "Ã¡my",
        -10.754099367938975
      ],
      [
        "Ġctnosti",
        -10.754107158028756
      ],
      [
        "Ġjimi",
        -10.754214589019096
      ],
      [
        "ĠukÃ¡",
        -10.754370792167872
      ],
      [
        "Ġbloudil",
        -10.754784029709366
      ],
      [
        "ĠÅĻit",
        -10.754890511100411
      ],
      [
        "ĠÄįinÅ¯",
        -10.755284635876917
      ],
      [
        "ĠÅ¡eptÃ¡",
        -10.755441839319849
      ],
      [
        "ovou",
        -10.755442633762687
      ],
      [
        "ĠstojÃŃm",
        -10.75563926764136
      ],
      [
        "ĠpÅĻÃ¡l",
        -10.755688950596479
      ],
      [
        "ala",
        -10.75627305688475
      ],
      [
        "Ġzdy",
        -10.756447180727184
      ],
      [
        "ĠvÃ½chod",
        -10.756557890360714
      ],
      [
        "ĠhlubokÃ½",
        -10.756892556261477
      ],
      [
        "ĠvrÃ¡sk",
        -10.757942149768555
      ],
      [
        "ĠÄįÃŃst",
        -10.758466391838944
      ],
      [
        "ĠÄįeho",
        -10.758935035227186
      ],
      [
        "ĠkonÃŃ",
        -10.758975664594693
      ],
      [
        "Ġzky",
        -10.759321866965644
      ],
      [
        "ĠspÄĽch",
        -10.759598835425804
      ],
      [
        "ĠhledÃŃm",
        -10.759637950789239
      ],
      [
        "ĠpÅ¯jdu",
        -10.76000948260375
      ],
      [
        "ĠskÅĻivan",
        -10.760020417004098
      ],
      [
        "Ġunaven",
        -10.760277675099356
      ],
      [
        "ĠzbranÃŃ",
        -10.760488418211823
      ],
      [
        "Ġrum",
        -10.76085515770812
      ],
      [
        "ĠneÅ¡tÄĽstÃŃ",
        -10.761053433469042
      ],
      [
        "ĠvÃ¡bÃŃ",
        -10.761798087645873
      ],
      [
        "ĠtÄĽmi",
        -10.76203668699187
      ],
      [
        "ĠmÃ¡l",
        -10.762043530641488
      ],
      [
        "ĠÅ¾eno",
        -10.763145420221708
      ],
      [
        "ĠspÄĽchÃ¡",
        -10.763391115486986
      ],
      [
        "ĠtÅĻikrÃ¡t",
        -10.76411389118531
      ],
      [
        "ÃŃcÃ½",
        -10.764124093278202
      ],
      [
        "Ġnitra",
        -10.764169732447407
      ],
      [
        "Ġjinde",
        -10.766330067293852
      ],
      [
        "Ġmladou",
        -10.766412640624509
      ],
      [
        "ĠnoÅĻÃŃ",
        -10.767768747482442
      ],
      [
        "Ġpadal",
        -10.767899140299738
      ],
      [
        "ĠÄįinÃŃ",
        -10.768110920134216
      ],
      [
        "ĠzvÃŃÅĻe",
        -10.768120113858336
      ],
      [
        "tr",
        -10.768124714594151
      ],
      [
        "Ġmem",
        -10.768140420541858
      ],
      [
        "vÅ¯z",
        -10.768359073201403
      ],
      [
        "ĠnÃ¡rodu",
        -10.768547363869253
      ],
      [
        "ĠÅ¾houcÃŃ",
        -10.768942332688564
      ],
      [
        "ĠsmÃŃ",
        -10.769377508676733
      ],
      [
        "Ġryk",
        -10.769413438268156
      ],
      [
        "Ġhus",
        -10.769552128305532
      ],
      [
        "ĠvlÃŃdnÄĽ",
        -10.76995320513534
      ],
      [
        "Ġzrovna",
        -10.770250374001115
      ],
      [
        "ĠzvuÄįÃŃ",
        -10.770659787729661
      ],
      [
        "Ġlos",
        -10.770952659909177
      ],
      [
        "ĠdvÅ¯r",
        -10.77128575878648
      ],
      [
        "ĠhrajÃŃ",
        -10.771355142573768
      ],
      [
        "ÄįeskÃ¡",
        -10.771789459125168
      ],
      [
        "ĠdÃ¡vnÃ©",
        -10.77208628586213
      ],
      [
        "ĠpamÃ¡tk",
        -10.772882166872641
      ],
      [
        "ÄĽsÃŃ",
        -10.773195213806666
      ],
      [
        "Ġara",
        -10.773263467718415
      ],
      [
        "ĠnÄĽjak",
        -10.77327681743079
      ],
      [
        "Ġsoch",
        -10.773459733433146
      ],
      [
        "dÄĽtem",
        -10.77404404332543
      ],
      [
        "Ġrtu",
        -10.774474131358733
      ],
      [
        "Ġosy",
        -10.774849813279477
      ],
      [
        "Ġtah",
        -10.775301596458267
      ],
      [
        "ĠvÃŃtÃ¡",
        -10.775305818875214
      ],
      [
        "Ġnadarmo",
        -10.775869836071518
      ],
      [
        "Ġpozor",
        -10.775992694611181
      ],
      [
        "ro",
        -10.776516505510052
      ],
      [
        "ĠdÄĽva",
        -10.776735206685867
      ],
      [
        "Ġotrok",
        -10.777098599295638
      ],
      [
        "ĠsnÃŃt",
        -10.777323420176241
      ],
      [
        "Ġhexamet",
        -10.777382229999539
      ],
      [
        "Ġkos",
        -10.778078701357089
      ],
      [
        "ĠpouÅ¡tÃŃ",
        -10.778169995349598
      ],
      [
        "Ġpropasti",
        -10.778995483277452
      ],
      [
        "itÃ½",
        -10.779840127759115
      ],
      [
        "Ġimi",
        -10.780156999519388
      ],
      [
        "ĠvÃŃÅĻÃŃ",
        -10.780881683861095
      ],
      [
        "Äįi",
        -10.78099852710764
      ],
      [
        "Ġjinou",
        -10.78111756981812
      ],
      [
        "ĠÅ¡il",
        -10.78186390472438
      ],
      [
        "Å¡i",
        -10.782461039854727
      ],
      [
        "lÅ¯nÄĽ",
        -10.782811536879432
      ],
      [
        "ĠbojÃŃ",
        -10.783914978285772
      ],
      [
        "ĠvlÃ¡h",
        -10.783979029400154
      ],
      [
        "ABABC",
        -10.78425422255241
      ],
      [
        "ĠvodÄĽ",
        -10.784409408699208
      ],
      [
        "ĠperutÃŃ",
        -10.785100149842332
      ],
      [
        "Ġvrat",
        -10.785344020135158
      ],
      [
        "stvÃŃ",
        -10.785378117578608
      ],
      [
        "Ġmet",
        -10.785424569641188
      ],
      [
        "Ġmlha",
        -10.785489596437458
      ],
      [
        "Ġvojsko",
        -10.785605859711826
      ],
      [
        "Ġmilovat",
        -10.785688353652631
      ],
      [
        "Ġsice",
        -10.786846675129407
      ],
      [
        "Ġdon",
        -10.787144300675333
      ],
      [
        "ĠveÄįernÃŃ",
        -10.787463791767594
      ],
      [
        "sti",
        -10.787862119217124
      ],
      [
        "Ġticha",
        -10.789500740014553
      ],
      [
        "yÅ¡ÃŃ",
        -10.789539628333591
      ],
      [
        "ĠpouhÃ½",
        -10.790664680679274
      ],
      [
        "ĠhrdÃ©",
        -10.79069223793569
      ],
      [
        "ĠlÃ©k",
        -10.790817881916782
      ],
      [
        "zeÅĪ",
        -10.790891790324022
      ],
      [
        "ĠkrÃ¡snÄĽ",
        -10.791004528993707
      ],
      [
        "Ġjednoho",
        -10.79110450103909
      ],
      [
        "Ġvzala",
        -10.79118343240792
      ],
      [
        "Ġdostal",
        -10.791909183498365
      ],
      [
        "ĠkterÃ½ch",
        -10.79223750155247
      ],
      [
        "Ġmarno",
        -10.79244218190285
      ],
      [
        "Ġkvas",
        -10.792883246873616
      ],
      [
        "Ġsal",
        -10.794202599908136
      ],
      [
        "Ġcitu",
        -10.795245308838751
      ],
      [
        "ĠzÃ¡Å¡tÃŃ",
        -10.795616013325096
      ],
      [
        "ĠspoleÄįnost",
        -10.796233130591016
      ],
      [
        "ĠdÃŃtk",
        -10.796297362683518
      ],
      [
        "Ġstatk",
        -10.79632941944518
      ],
      [
        "ĠomÃŃ",
        -10.79661263368929
      ],
      [
        "Ġtluk",
        -10.796660150629725
      ],
      [
        "ĠzlatÃ©m",
        -10.79668190531968
      ],
      [
        "ĠotvÃŃrÃ¡",
        -10.796774577561322
      ],
      [
        "ĠprosÃŃ",
        -10.797217654009103
      ],
      [
        "ĠlnÃ¡",
        -10.79724004086886
      ],
      [
        "Ġmih",
        -10.797256941932986
      ],
      [
        "Ġbran",
        -10.797303199314989
      ],
      [
        "Ġsluje",
        -10.797424375613755
      ],
      [
        "ĠmÄĽsÃŃce",
        -10.798054200221971
      ],
      [
        "ĠtmÄĽ",
        -10.798683080086215
      ],
      [
        "Ġraj",
        -10.799677663468811
      ],
      [
        "Ġton",
        -10.79991776936794
      ],
      [
        "ĠsmrÅ¥",
        -10.801859475592137
      ],
      [
        "Ġbratra",
        -10.802654981919918
      ],
      [
        "ĠÃºkol",
        -10.802681207940585
      ],
      [
        "ĠvlasÅ¥",
        -10.802913388239787
      ],
      [
        "ĠvolnÃ½",
        -10.803927610221773
      ],
      [
        "Äįka",
        -10.804032048468589
      ],
      [
        "ĠsÃŃle",
        -10.804585099390774
      ],
      [
        "Ġpolo",
        -10.804877085936425
      ],
      [
        "ĠzÃ¡pal",
        -10.805876953873824
      ],
      [
        "Ġston",
        -10.805910541015786
      ],
      [
        "tÃ¡k",
        -10.806202280457086
      ],
      [
        "Ġboz",
        -10.806301859098024
      ],
      [
        "Ġohni",
        -10.80640534306724
      ],
      [
        "Ġnesla",
        -10.806539161517449
      ],
      [
        "ĠprvnÃŃm",
        -10.807562036706077
      ],
      [
        "Ġbratry",
        -10.807835741633838
      ],
      [
        "Ġtemnot",
        -10.807836107186596
      ],
      [
        "ÅĻi",
        -10.80798290331282
      ],
      [
        "ĠvÄĽrnÃ©",
        -10.80814115656672
      ],
      [
        "nÄĽn",
        -10.808268708828882
      ],
      [
        "ĠmdlÃ½",
        -10.808384184382357
      ],
      [
        "vÅ¡e",
        -10.808873170204137
      ],
      [
        "ĠzmÄĽn",
        -10.809211029886624
      ],
      [
        "ĠÅ¾ert",
        -10.810110533616065
      ],
      [
        "ĠdneÅ¡nÃŃ",
        -10.810243338596743
      ],
      [
        "ĠbÅĻehÅ¯",
        -10.810628314227138
      ],
      [
        "ĠhlubokÃ©",
        -10.810662040789307
      ],
      [
        "Ġhluboko",
        -10.810690000347552
      ],
      [
        "Ġkdybys",
        -10.810940549681895
      ],
      [
        "ĠbrÃ¡nÃŃ",
        -10.810966195411257
      ],
      [
        "ĠsvatÃ½m",
        -10.81145495910338
      ],
      [
        "ĠÅĻÃŃt",
        -10.812284724936841
      ],
      [
        "ĠkvÃ©st",
        -10.813370217468059
      ],
      [
        "Ġohlas",
        -10.814360010123384
      ],
      [
        "ĠsrdcÃŃch",
        -10.81447156201681
      ],
      [
        "ĠjiÅĻÃŃ",
        -10.81474194936248
      ],
      [
        "ĠtvrdÃ©",
        -10.815249151324032
      ],
      [
        "ĠdvojÃŃ",
        -10.815413210334818
      ],
      [
        "Ġsled",
        -10.815699518746987
      ],
      [
        "Ġlav",
        -10.816273684096265
      ],
      [
        "Ġdceru",
        -10.816367053181104
      ],
      [
        "Ġpohledem",
        -10.816598291969495
      ],
      [
        "ĠjdeÅ¡",
        -10.816917432529806
      ],
      [
        "ĠvzpomÃŃnka",
        -10.817123740344943
      ],
      [
        "ĠdomÄĽ",
        -10.817133231863997
      ],
      [
        "Ġztracen",
        -10.81722585196486
      ],
      [
        "Ġhon",
        -10.817298478195044
      ],
      [
        "Ġsly",
        -10.817611167456118
      ],
      [
        "Ġkapk",
        -10.817887929680513
      ],
      [
        "ĠnenÃ¡vist",
        -10.818496929823173
      ],
      [
        "Ġpraz",
        -10.818590813070031
      ],
      [
        "ĠvÄĽtÅĻÃŃk",
        -10.819118311580178
      ],
      [
        "ĠrÃ¡di",
        -10.819149029512875
      ],
      [
        "ĠklÃ¡Å¡ter",
        -10.81969634628324
      ],
      [
        "ĠtichÃ½m",
        -10.81996124888143
      ],
      [
        "ĠkÃ¡zal",
        -10.819998810101184
      ],
      [
        "ÄĽda",
        -10.820992885471027
      ],
      [
        "Ġuli",
        -10.821298919591015
      ],
      [
        "Ġnud",
        -10.821819432533633
      ],
      [
        "ĠzlatÃŃ",
        -10.821882149349815
      ],
      [
        "Ġptactv",
        -10.822004114820336
      ],
      [
        "ĠÅĻem",
        -10.82240890042842
      ],
      [
        "Ġtemnou",
        -10.822874519569286
      ],
      [
        "ĠvlnÃŃ",
        -10.822947754288982
      ],
      [
        "ĠpouÅ¡Å¥",
        -10.823105650282013
      ],
      [
        "rav",
        -10.823327704401454
      ],
      [
        "Ġodpor",
        -10.823991609864242
      ],
      [
        "ĠostrÃ½",
        -10.824212713005211
      ],
      [
        "an",
        -10.824922304593187
      ],
      [
        "Ġosudu",
        -10.825056902763986
      ],
      [
        "nost",
        -10.825415844744196
      ],
      [
        "ĠuhÃ¡",
        -10.826489634861966
      ],
      [
        "ĠpÄĽnÃŃ",
        -10.82658244455449
      ],
      [
        "ynu",
        -10.82771343646765
      ],
      [
        "Ġryl",
        -10.82806618205604
      ],
      [
        "ĠsluÅ¡ÃŃ",
        -10.828287362373617
      ],
      [
        "Ġtuze",
        -10.828539025562165
      ],
      [
        "ĠperuÅ¥",
        -10.828551992624181
      ],
      [
        "ĠchvÄĽnÃŃ",
        -10.828555100504518
      ],
      [
        "ĠdunÃŃ",
        -10.82913562680889
      ],
      [
        "Ġrom",
        -10.829915729634301
      ],
      [
        "ĠÅ¡ak",
        -10.830142346398157
      ],
      [
        "ĠstrÃ¡Å¾",
        -10.830847616929617
      ],
      [
        "nutÃŃ",
        -10.8316809990561
      ],
      [
        "Ġvuk",
        -10.831704493449394
      ],
      [
        "Ġostrov",
        -10.831848568240893
      ],
      [
        "Ġnebesa",
        -10.83230972496769
      ],
      [
        "ĠbÃŃlÃ©m",
        -10.832606846710116
      ],
      [
        "ĠÃºtrob",
        -10.834000456319206
      ],
      [
        "ĠbÃŃlÃ½m",
        -10.83513881011892
      ],
      [
        "ĠsamotÄĽ",
        -10.83550050514431
      ],
      [
        "ĠnÃ¡dher",
        -10.836462672684966
      ],
      [
        "Ġbledou",
        -10.837558101439367
      ],
      [
        "Ġbiskup",
        -10.837663306920481
      ],
      [
        "Ġmiluji",
        -10.837665434003938
      ],
      [
        "Ġharf",
        -10.838280296356189
      ],
      [
        "ĠbÄĽl",
        -10.838509856650278
      ],
      [
        "Ã¡ze",
        -10.838712191716379
      ],
      [
        "ĠrovnÄĽ",
        -10.839212607632222
      ],
      [
        "ĠposmÄĽch",
        -10.8396139389956
      ],
      [
        "Ġade",
        -10.83969268176843
      ],
      [
        "nosti",
        -10.84043409288358
      ],
      [
        "Ġzastavil",
        -10.840687437625729
      ],
      [
        "dku",
        -10.84070212543512
      ],
      [
        "ĠkoÅĻist",
        -10.840923580313824
      ],
      [
        "ĠrdÃŃ",
        -10.841108531044465
      ],
      [
        "ĠopuÅ¡tÄĽn",
        -10.84301723718441
      ],
      [
        "hÃ¡m",
        -10.84340464208644
      ],
      [
        "ĠvÄĽÅĻÃŃ",
        -10.843875141634115
      ],
      [
        "ĠnekoneÄįn",
        -10.844785408954667
      ],
      [
        "ĠorÅ¯",
        -10.844848090794642
      ],
      [
        "ĠnovÃ©m",
        -10.845518422652045
      ],
      [
        "nnÄĽ",
        -10.845933436531535
      ],
      [
        "ĠhostÃŃ",
        -10.846353725717863
      ],
      [
        "ry",
        -10.847356390193015
      ],
      [
        "letem",
        -10.847836161661167
      ],
      [
        "ĠvÄĽÅĻÃŃm",
        -10.848160845353874
      ],
      [
        "Ġoch",
        -10.84903288139466
      ],
      [
        "ĠzÅĻela",
        -10.849069700216019
      ],
      [
        "ovÄĽ",
        -10.849102473509344
      ],
      [
        "oze",
        -10.849393875133877
      ],
      [
        "ĠÅ¾ebrÃ¡k",
        -10.849458199704287
      ],
      [
        "Ġstav",
        -10.849626371509224
      ],
      [
        "ĠpÅ¯du",
        -10.850189980536467
      ],
      [
        "Ġumu",
        -10.850307594905962
      ],
      [
        "ĠsÃŃdl",
        -10.85044179588726
      ],
      [
        "ĠrodnÃ½",
        -10.85056402834671
      ],
      [
        "ĠobrÃ¡til",
        -10.850595988868832
      ],
      [
        "Ġmoudrost",
        -10.85114569239442
      ],
      [
        "ĠkrvavÃ½",
        -10.85115577320151
      ],
      [
        "ĠnejvÄĽtÅ¡ÃŃ",
        -10.851347911367665
      ],
      [
        "ĠsvÄĽtle",
        -10.851513879003424
      ],
      [
        "ĠsladkÃ½ch",
        -10.852022984990015
      ],
      [
        "ĠpoÅĻÃ¡d",
        -10.852660812152116
      ],
      [
        "ĠslavÃŃ",
        -10.853330627836945
      ],
      [
        "ĠvonnÃ©",
        -10.85346153441403
      ],
      [
        "Ġkon",
        -10.853497186617613
      ],
      [
        "ĠkrvavÃ©",
        -10.853533774821232
      ],
      [
        "ĠÄįar",
        -10.855339649927107
      ],
      [
        "arÃ½",
        -10.855433438257556
      ],
      [
        "ĠdÄĽtskÃ½",
        -10.855609173782819
      ],
      [
        "Ġtiskne",
        -10.856547769148474
      ],
      [
        "Ã©ÅĻe",
        -10.856602307557544
      ],
      [
[...]
