{
  "version": "1.0",
  "truncation": null,
  "padding": null,
  "added_tokens": [
    {
      "id": 0,
      "content": "<|EOS|>",
      "single_word": false,
      "lstrip": false,
      "rstrip": false,
      "normalized": false,
      "special": true
    },
    {
      "id": 1,
      "content": "<|PAD|>",
      "single_word": false,
      "lstrip": false,
      "rstrip": false,
      "normalized": false,
      "special": true
    },
    {
      "id": 2,
      "content": "<|UNK|>",
      "single_word": false,
      "lstrip": false,
      "rstrip": false,
      "normalized": false,
      "special": true
    }
  ],
  "normalizer": null,
  "pre_tokenizer": {
    "type": "ByteLevel",
    "add_prefix_space": false,
    "trim_offsets": true,
    "use_regex": true
  },
  "post_processor": {
    "type": "ByteLevel",
    "add_prefix_space": true,
    "trim_offsets": false,
    "use_regex": true
  },
  "decoder": {
    "type": "ByteLevel",
    "add_prefix_space": true,
    "trim_offsets": true,
    "use_regex": true
  },
  "model": {
    "type": "Unigram",
    "unk_id": 2,
    "vocab": [
      [
        "<|EOS|>",
        0.0
      ],
      [
        "<|PAD|>",
        0.0
      ],
      [
        "<|UNK|>",
        0.0
      ],
      [
        "Ċ",
        -2.013965470444493
      ],
      [
        ",",
        -2.6468786399303372
      ],
      [
        "a",
        -3.413725836665023
      ],
      [
        "Ġ",
        -3.6029588381717446
      ],
      [
        ".",
        -3.9283470494538033
      ],
      [
        "y",
        -4.071788338103488
      ],
      [
        "Ġv",
        -4.192618822171051
      ],
      [
        "u",
        -4.209881045722975
      ],
      [
        "Ġse",
        -4.282377016571523
      ],
      [
        "i",
        -4.316621663206723
      ],
      [
        "ĠâĢĵ",
        -4.792068856791612
      ],
      [
        "!",
        -4.901607701844529
      ],
      [
        "ch",
        -5.026626599211157
      ],
      [
        "m",
        -5.069669620061106
      ],
      [
        "em",
        -5.108498747105216
      ],
      [
        "Ġna",
        -5.179557382137752
      ],
      [
        "o",
        -5.202145418002699
      ],
      [
        "v",
        -5.269307885350241
      ],
      [
        "Ġz",
        -5.437686254446726
      ],
      [
        "Ġs",
        -5.4605573828935015
      ],
      [
        "ou",
        -5.524496771649863
      ],
      [
        "Ġk",
        -5.577569229969335
      ],
      [
        ";",
        -5.583847494219821
      ],
      [
        ":",
        -5.593918040046008
      ],
      [
        "e",
        -5.633194390866093
      ],
      [
        "?",
        -5.7551517739988824
      ],
      [
        "Ġje",
        -5.813283730015014
      ],
      [
        "Ã¡",
        -5.8418963180865
      ],
      [
        "Ġto",
        -5.8434292464474495
      ],
      [
        "s",
        -5.902644092516537
      ],
      [
        "na",
        -5.909122268048387
      ],
      [
        "k",
        -5.955949907438592
      ],
      [
        "jak",
        -6.002408188887049
      ],
      [
        "Ġjak",
        -6.02260815890283
      ],
      [
        "ÄĽ",
        -6.037960614617623
      ],
      [
        "Ġdo",
        -6.080707465206338
      ],
      [
        "...",
        -6.1318761765536145
      ],
      [
        "âĢŀ",
        -6.175077693150374
      ],
      [
        "Ġjsem",
        -6.177936423445832
      ],
      [
        "Ġpo",
        -6.201144536147208
      ],
      [
        "Ġza",
        -6.283930013644243
      ],
      [
        "ÃŃ",
        -6.31099272265663
      ],
      [
        "Ġjen",
        -6.342199598919011
      ],
      [
        "ĠÅ¾e",
        -6.3480374333246505
      ],
      [
        "Å¾e",
        -6.35864402432272
      ],
      [
        "ho",
        -6.365998810768183
      ],
      [
        "Å¡",
        -6.44032770137521
      ],
      [
        "z",
        -6.456965035911182
      ],
      [
        "Ġmi",
        -6.482794924978808
      ],
      [
        "Ġne",
        -6.500216270571812
      ],
      [
        "Ġco",
        -6.515320263181206
      ],
      [
        "Ġsi",
        -6.522590499850672
      ],
      [
        "âĢĻ",
        -6.565292703066639
      ],
      [
        "Ġtak",
        -6.581934770699851
      ],
      [
        "se",
        -6.597174844734058
      ],
      [
        "Ġtu",
        -6.6132697766494974
      ],
      [
        "Ġby",
        -6.620725973684934
      ],
      [
        "Ġjako",
        -6.667843221400835
      ],
      [
        "Ġmu",
        -6.678589318304033
      ],
      [
        "!âĢľ",
        -6.690221570072881
      ],
      [
        "Ġve",
        -6.6904283173192844
      ],
      [
        "Ġjeho",
        -6.702420626315721
      ],
      [
        "Ġsrdce",
        -6.721224827224635
      ],
      [
        "li",
        -6.7251381623220805
      ],
      [
        "co",
        -6.731363826062587
      ],
      [
        "to",
        -6.735258257755401
      ],
      [
        "kdyÅ¾",
        -6.76596255941749
      ],
      [
        "Ã©",
        -6.796253989751849
      ],
      [
        "ĠsvÃ©",
        -6.823240029690956
      ],
      [
        "ne",
        -6.826303657651838
      ],
      [
        "aÅ¾",
        -6.841986931269055
      ],
      [
        "tak",
        -6.85766758413423
      ],
      [
        "ce",
        -6.866811457590625
      ],
      [
        "vÅ¡ak",
        -6.867483847754816
      ],
      [
        "Ġbyl",
        -6.869612750941373
      ],
      [
        "je",
        -6.891832393831674
      ],
      [
        "ĠjiÅ¾",
        -6.895803864310462
      ],
      [
        "Ġty",
        -6.896071949044263
      ],
      [
        "Ġtam",
        -6.902098848953063
      ],
      [
        "ĠmÃ¡",
        -6.902375744856936
      ],
      [
        "po",
        -6.911118587546111
      ],
      [
        "Ġten",
        -6.926803370888795
      ],
      [
        "ĠkdyÅ¾",
        -6.928031152911593
      ],
      [
        "jÃ¡",
        -6.9836421888282505
      ],
      [
        "Ġpro",
        -7.00065068940229
      ],
      [
        "te",
        -7.002788576255156
      ],
      [
        "ĠâĢŀ",
        -7.002835018957784
      ],
      [
        "za",
        -7.009363289292624
      ],
      [
        "Ġmne",
        -7.0195231232406385
      ],
      [
        "-",
        -7.043446462003796
      ],
      [
        "Å¯",
        -7.073314150942959
      ],
      [
        "jen",
        -7.079334932348278
      ],
      [
        "Ġnad",
        -7.088709623433445
      ],
      [
        "Ġti",
        -7.092986023564306
      ],
      [
        "Ã³",
        -7.093127683688113
      ],
      [
        "ĠvÅ¡ak",
        -7.109492483649024
      ],
      [
        "do",
        -7.11503351714744
      ],
      [
        "ek",
        -7.1186208581572625
      ],
      [
        "tu",
        -7.118848471649272
      ],
      [
        "Ã¡ch",
        -7.124280628160154
      ],
      [
        "ĠnÃ¡m",
        -7.132906270323854
      ],
      [
        "ĠjÃ¡",
        -7.147544970825953
      ],
      [
        "kde",
        -7.157120800695777
      ],
      [
        "ty",
        -7.159003031720186
      ],
      [
        "Ġji",
        -7.163436060656069
      ],
      [
        "Ġjest",
        -7.1703604017626965
      ],
      [
        "Ġzas",
        -7.1714543678561355
      ],
      [
        "ĠsvÄĽt",
        -7.187180515841817
      ],
      [
        "ĠmÃ©",
        -7.229325787406298
      ],
      [
        "nÃ¡",
        -7.241749640461327
      ],
      [
        "t",
        -7.2424753079277515
      ],
      [
        "ĠduÅ¡e",
        -7.247683759239994
      ],
      [
        "ĠjeÅ¾",
        -7.249274605426436
      ],
      [
        "ĠtÄĽ",
        -7.261456382010596
      ],
      [
        "ĠnÃŃ",
        -7.267878549112375
      ],
      [
        "ĠjÃŃ",
        -7.273204834694141
      ],
      [
        "Ġpak",
        -7.275019390709266
      ],
      [
        "Ġjsi",
        -7.277705609538726
      ],
      [
        "Ġod",
        -7.296703755842223
      ],
      [
        "Ġkde",
        -7.3009310884961955
      ],
      [
        "Ġsvou",
        -7.306977448059019
      ],
      [
        "jeÅ¾",
        -7.31571395702254
      ],
      [
        "Ġtom",
        -7.319381862588621
      ],
      [
        "mi",
        -7.320110269382127
      ],
      [
        "ĠuÅ¾",
        -7.324791957493765
      ],
      [
        "ĠjeÅ¡tÄĽ",
        -7.332268416986141
      ],
      [
        "Ġbez",
        -7.354821310974273
      ],
      [
        "ĠÅ¾ivot",
        -7.357642515725974
      ],
      [
        "by",
        -7.365940606919562
      ],
      [
        "ĠnÃ¡s",
        -7.367204752532615
      ],
      [
        ".âĢľ",
        -7.371818924936717
      ],
      [
        "ech",
        -7.377114028159253
      ],
      [
        "ĠvÅ¡e",
        -7.378898097535128
      ],
      [
        "ĠmÅ¯j",
        -7.401493158702419
      ],
      [
        "ĠjenÅ¾",
        -7.4086746429811985
      ],
      [
        "Ġpod",
        -7.41330586695247
      ],
      [
        "nou",
        -7.418655265275312
      ],
      [
        "ĠduÅ¡i",
        -7.4243995176944395
      ],
      [
        "Ġjsou",
        -7.43494063678431
      ],
      [
        "ĠtÃ©",
        -7.443281677776181
      ],
      [
        "ĠpÅĻed",
        -7.44333608045549
      ],
      [
        "ĠkvÄĽt",
        -7.443842324626985
      ],
      [
        "ĠvÅ¾dy",
        -7.453567977901578
      ],
      [
        "ĠjejÃŃ",
        -7.460371040693595
      ],
      [
        "Ã½",
        -7.470900408841201
      ],
      [
        "Å¥",
        -7.48387404046689
      ],
      [
        "ĠtvÃ©",
        -7.498771114602661
      ],
      [
        "Ġta",
        -7.510883929654103
      ],
      [
        "Ġzrak",
        -7.5171780797475485
      ],
      [
        "Ġslunce",
        -7.531742337769183
      ],
      [
        "Ġjej",
        -7.534300847541136
      ],
      [
        "Ġden",
        -7.538537393053074
      ],
      [
        "c",
        -7.551390044283938
      ],
      [
        "Ġbude",
        -7.5770396365623025
      ],
      [
        "ĠdÃ¡l",
        -7.579881300666891
      ],
      [
        "ĠteÄı",
        -7.580832486418675
      ],
      [
        "Ġjsme",
        -7.583724284922161
      ],
      [
        "ĠmnÄĽ",
        -7.584583112499441
      ],
      [
        "Ġze",
        -7.590226909018346
      ],
      [
        "tam",
        -7.59393641152689
      ],
      [
        "ve",
        -7.5960568730270985
      ],
      [
        "ĠnenÃŃ",
        -7.596138655076173
      ],
      [
        "ĠpÅĻi",
        -7.5979539940810845
      ],
      [
        "nÃŃ",
        -7.598402047345939
      ],
      [
        "jako",
        -7.601960819299425
      ],
      [
        "svÅ¯j",
        -7.627274275918351
      ],
      [
        "ĠÄįas",
        -7.641754651012844
      ],
      [
        "ĠlÃ¡sky",
        -7.649629554438208
      ],
      [
        "Ġbych",
        -7.656610364367399
      ],
      [
        "ale",
        -7.659213635865473
      ],
      [
        "ten",
        -7.665328048522495
      ],
      [
        "ĠvÃ¡m",
        -7.668040259040641
      ],
      [
        "ĠÅ¾itÃŃ",
        -7.671161290939521
      ],
      [
        "on",
        -7.672269806734134
      ],
      [
        "Ġho",
        -7.675717219322049
      ],
      [
        "jenÅ¾",
        -7.67710148195464
      ],
      [
        "Ġbylo",
        -7.6805000013909215
      ],
      [
        "aÅ¥",
        -7.681529407523476
      ],
      [
        "nad",
        -7.684900034134488
      ],
      [
        "nÄĽ",
        -7.686821797838009
      ],
      [
        "ĠsÃ¡m",
        -7.7186581982003535
      ],
      [
        "Ġkdo",
        -7.7219364905354
      ],
      [
        "âĢĵ",
        -7.7287502882605175
      ],
      [
        "ĠnÄĽm",
        -7.734112610902818
      ],
      [
        "n",
        -7.737943681540072
      ],
      [
        "kdo",
        -7.740322137941224
      ],
      [
        "ĠsobÄĽ",
        -7.752696793730545
      ],
      [
        "pro",
        -7.758316799397864
      ],
      [
        "ta",
        -7.7594200089480285
      ],
      [
        "Ġlid",
        -7.760886514280646
      ],
      [
        "ĠtÄĽch",
        -7.761826632866798
      ],
      [
        "ĠoÄįi",
        -7.769234875968696
      ],
      [
        "ĠtobÄĽ",
        -7.772834969006999
      ],
      [
        "jiÅ¾",
        -7.779393751927126
      ],
      [
        "Ġlet",
        -7.7942794277747804
      ],
      [
        "Ġjich",
        -7.8014604309431075
      ],
      [
        "Ġsrdci",
        -7.806017489686685
      ],
      [
        "ĠvÅ¡ech",
        -7.808598779289495
      ],
      [
        "ti",
        -7.81111221636505
      ],
      [
        "od",
        -7.816955211769169
      ],
      [
        "Ġjim",
        -7.819176021533849
      ],
      [
        "neb",
        -7.821806601081406
      ],
      [
        "ĠnÃŃm",
        -7.8247369239266416
      ],
      [
        "pak",
        -7.829416711080537
      ],
      [
        "ku",
        -7.830659080270806
      ],
      [
        "ĠÅ¡tÄĽstÃŃ",
        -7.8319026856186245
      ],
      [
        "ĠvÃ¡s",
        -7.846014718298633
      ],
      [
        "Ġon",
        -7.847374814982164
      ],
      [
        "Ã½ch",
        -7.849667593021001
      ],
      [
        "Ġnebe",
        -7.849683304240662
      ],
      [
        "Ġsnad",
        -7.856703913645399
      ],
      [
        "Ġhlav",
        -7.857439185159713
      ],
      [
        "Ġbyla",
        -7.858059210703976
      ],
      [
        "ĠzemÄĽ",
        -7.8602623812039045
      ],
      [
        "ĠÄįlovÄĽk",
        -7.863603395049935
      ],
      [
        "Å¯m",
        -7.866879150920463
      ],
      [
        "Ġhlas",
        -7.867189900952306
      ],
      [
        "Ġcest",
        -7.868579449947573
      ],
      [
        "Ġdnes",
        -7.869013255342836
      ],
      [
        "ĠsvÃ½ch",
        -7.871604639765144
      ],
      [
        "Ġzemi",
        -7.873096973667769
      ],
      [
        "ĠmÄĽl",
        -7.875853448800161
      ],
      [
        "vÅ¡e",
        -7.877875806840066
      ],
      [
        "ĠneÅ¾",
        -7.877894237685108
      ],
      [
        "Ġzde",
        -7.886829151022468
      ],
      [
        "l",
        -7.894859569092452
      ],
      [
        "Ġnich",
        -7.895956993684356
      ],
      [
        "Ġmoje",
        -7.89631958108518
      ],
      [
        "teÄı",
        -7.901470589219567
      ],
      [
        "Ġruce",
        -7.90427930445008
      ],
      [
        "ĠtvÅ¯j",
        -7.912296575112681
      ],
      [
        "ĠvÃŃc",
        -7.918396784274378
      ],
      [
        "Ġni",
        -7.923366890424555
      ],
      [
        "neÅ¾",
        -7.932318138214319
      ],
      [
        "Ġkolem",
        -7.940065117794049
      ],
      [
        "Ġjejich",
        -7.943423824084832
      ],
      [
        "Ġnoci",
        -7.959574709850786
      ],
      [
        "Ġtebe",
        -7.959684421892362
      ],
      [
        "ĠkaÅ¾dÃ½",
        -7.970043139514175
      ],
      [
        "ĠnaÅ¡e",
        -7.97819928957184
      ],
      [
        "leÄį",
        -7.979208413446365
      ],
      [
        "ĠbÅ¯h",
        -7.9843845877054545
      ],
      [
        "pod",
        -7.997798223075316
      ],
      [
        "mÃ¡",
        -7.999272574254912
      ],
      [
        "?âĢľ",
        -7.999665453277984
      ],
      [
        "ĠtÃ©Å¾",
        -8.00368240651312
      ],
      [
        "ĠvÅ¡ecko",
        -8.010639571566726
      ],
      [
        "ĠpÃ¡n",
        -8.011924417378705
      ],
      [
        "Ġkdy",
        -8.015645189423083
      ],
      [
        "Ġhlavu",
        -8.032268470571282
      ],
      [
        "ze",
        -8.036927398814537
      ],
      [
        "ky",
        -8.045993973597804
      ],
      [
        "ĠsvÃ½m",
        -8.048842518255887
      ],
      [
        "Ġjste",
        -8.050721081810721
      ],
      [
        "ovÃ©",
        -8.051578644994525
      ],
      [
        "Ġnoc",
        -8.057100982192793
      ],
      [
        "ĠmÄĽ",
        -8.063153974636037
      ],
      [
        "ĠpÃŃseÅĪ",
        -8.080483717089525
      ],
      [
        "ĠmoÅĻe",
        -8.09125700206435
      ],
      [
        "ĠcelÃ½",
        -8.091382164535263
      ],
      [
        "ni",
        -8.091548862535143
      ],
      [
        "ĠpÅĻec",
        -8.092327009701929
      ],
      [
        "ĠchtÄĽl",
        -8.10256220125247
      ],
      [
        "kdy",
        -8.10712911130591
      ],
      [
        "nÃ©",
        -8.125629808143149
      ],
      [
        "ĠoÄįÃŃ",
        -8.126011944823269
      ],
      [
        "ĠchvÃŃli",
        -8.12694649653962
      ],
      [
        "proÄį",
        -8.134568263658648
      ],
      [
        "Ġkol",
        -8.14505243828848
      ],
      [
        "Ġvln",
        -8.146958556182666
      ],
      [
        "Ġani",
        -8.152518182272328
      ],
      [
        "ami",
        -8.153340987109548
      ],
      [
        "ĠtÃŃm",
        -8.15632372558742
      ],
      [
        "en",
        -8.157304168044226
      ],
      [
        "Ġduch",
        -8.157791045122748
      ],
      [
        "jsem",
        -8.161434108922583
      ],
      [
        "ci",
        -8.165579701038137
      ],
      [
        "snad",
        -8.185758566941415
      ],
      [
        "byl",
        -8.188337248143945
      ],
      [
        "âĢľ",
        -8.188734954024826
      ],
      [
        "Ġjenom",
        -8.191156796385497
      ],
      [
        "ĠsvÃ©m",
        -8.19175717309289
      ],
      [
        "ĠsvÃ©ho",
        -8.192380363027711
      ],
      [
        "ĠdÃŃtÄĽ",
        -8.196298098148556
      ],
      [
        "Ġsen",
        -8.196958917598403
      ],
      [
        "ĠtakÃ©",
        -8.199007550565053
      ],
      [
        "Ġvod",
        -8.205235185347181
      ],
      [
        "Ġhned",
        -8.206426858239576
      ],
      [
        "ĠaÅ¥",
        -8.207567198312299
      ],
      [
        "jÃŃ",
        -8.209288536565056
      ],
      [
        "Ġtoho",
        -8.213466232390386
      ],
      [
        "Å¾",
        -8.214694013356347
      ],
      [
        "Ġdal",
        -8.215095074334691
      ],
      [
        "ĠnÃ¡Å¡",
        -8.221231018351626
      ],
      [
        "Ġke",
        -8.221246143685107
      ],
      [
        "ĠrÃ¡d",
        -8.222990868828216
      ],
      [
        "aÄį",
        -8.230609796156523
      ],
      [
        "zde",
        -8.237034383483381
      ],
      [
        "Ġroz",
        -8.238067069992104
      ],
      [
        "Ġale",
        -8.23847029371864
      ],
      [
        "hle",
        -8.243116236300494
      ],
      [
        "ĠbÃ½t",
        -8.244161890073254
      ],
      [
        "pÅĻed",
        -8.245509223175114
      ],
      [
        "Ġkrev",
        -8.246473109505974
      ],
      [
        "nu",
        -8.247238535886678
      ],
      [
        "ĠlÃ¡ska",
        -8.247345594227411
      ],
      [
        "Ġmou",
        -8.249389516633824
      ],
      [
        "ĠtiÅ¡e",
        -8.25037291250828
      ],
      [
        "Ġku",
        -8.261151279621016
      ],
      [
        "ĠnÃ¡hle",
        -8.26627166800794
      ],
      [
        "Ġnebes",
        -8.26844996770851
      ],
      [
        "Ġzem",
        -8.272122247913261
      ],
      [
        "Äįi",
        -8.290935007422783
      ],
      [
        "ĠvÃŃce",
        -8.292719330637098
      ],
      [
        "Ġdech",
        -8.294467127378603
      ],
      [
        "Ġnebi",
        -8.296750403786103
      ],
      [
        "ĠstarÃ½",
        -8.30428458935302
      ],
      [
        "ĠstÃ¡le",
        -8.305949399619797
      ],
      [
        "ĠÅ¾en",
        -8.312732918115193
      ],
      [
        "ba",
        -8.314297030986491
      ],
      [
        "ĠtvÃ¡ÅĻ",
        -8.31479091264633
      ],
      [
        "ĠnÃ¡rod",
        -8.31691997975513
      ],
      [
        "Ġslova",
        -8.318559437530066
      ],
      [
        "Ġstrom",
        -8.318614513918543
      ],
      [
        "vÅ¾dyÅ¥",
        -8.319374385748397
      ],
      [
        "ĠsvÄĽta",
        -8.325909690520627
      ],
      [
        "Ġzase",
        -8.326550415132195
      ],
      [
        "mu",
        -8.328970339901966
      ],
      [
        "ĠsÃŃl",
        -8.33392157479787
      ],
      [
        "Ġjednou",
        -8.333968182083021
      ],
      [
        "ĠnynÃŃ",
        -8.337192949558741
      ],
      [
        "ĠrÅ¯Å¾e",
        -8.340236544638516
      ],
      [
        "pÅĻi",
        -8.344969027969956
      ],
      [
        "Ġmnou",
        -8.346292717329753
      ],
      [
        "ĠstÃŃn",
        -8.347445362929381
      ],
      [
        "Ġsebe",
        -8.347574300666372
      ],
      [
        "ĠpÅĻe",
        -8.34768830980877
      ],
      [
        "ĠÃºsmÄĽv",
        -8.35230993059977
      ],
      [
        "ĠmÃ¡m",
        -8.35447458082598
      ],
      [
        "Ġrukou",
        -8.360154306456046
      ],
      [
        "ĠstojÃŃ",
        -8.366244931409907
      ],
      [
        "tvÃ½ch",
        -8.366671407958886
      ],
      [
        "ĠhvÄĽzd",
        -8.36923861318486
      ],
      [
        "vÅ¾dy",
        -8.373812224469177
      ],
      [
        "ĠveÄįer",
        -8.376406787523324
      ],
      [
        "si",
        -8.37933918842285
      ],
      [
        "ĠboÅ¾ÃŃ",
        -8.384997828215315
      ],
      [
        "la",
        -8.391555646285621
      ],
      [
        "bez",
        -8.394052040398082
      ],
      [
        "Ġmezi",
        -8.394174941282849
      ],
      [
        "ĠzpÄĽv",
        -8.395737208034731
      ],
      [
        "ĠbÃŃlÃ½",
        -8.398488459535619
      ],
      [
        "Ġnikdy",
        -8.399526671496872
      ],
      [
        "nÃ½ch",
        -8.40652697933531
      ],
      [
        "Ġkdys",
        -8.40796655276344
      ],
      [
        "Ġdruh",
        -8.414888283535547
      ],
      [
        "Ġsmrti",
        -8.415179421031018
      ],
      [
        "nÃ½",
        -8.417356800683459
      ],
      [
        "Ġosud",
        -8.41809398755439
      ],
      [
        "ĠpÅĻes",
        -8.421651126203995
      ],
      [
        "Ã¡m",
        -8.422236293463405
      ],
      [
        "Ġstran",
        -8.424993614147954
      ],
      [
        "Ġjeden",
        -8.433360128322517
      ],
      [
        "ĠÃ³",
        -8.436437071835604
      ],
      [
        "Ġkrok",
        -8.436872372011033
      ],
      [
        "d",
        -8.456942124747016
      ],
      [
        "Ġtomu",
        -8.458167051292309
      ],
      [
        "dnes",
        -8.462973464998415
      ],
      [
        "Ġsyn",
        -8.469991284262012
      ],
      [
        "Ġoko",
        -8.471025816291982
      ],
      [
        "uÅ¾",
        -8.472267496825413
      ],
      [
        "mÃ½ch",
        -8.472414126330364
      ],
      [
        "ĠbÃŃlÃ©",
        -8.478573181848425
      ],
      [
        "Ġnic",
        -8.486159973513981
      ],
      [
        "ĠduÅ¡ÃŃ",
        -8.490142084210655
      ],
      [
        "ĠdÃ¡le",
        -8.491352138326821
      ],
      [
        "ĠtvÃ¡",
        -8.493741507604936
      ],
      [
        "ĠchrÃ¡m",
        -8.493772046135529
      ],
      [
        "cÃŃ",
        -8.4945861824651
      ],
      [
        "Ġmy",
        -8.495021712947281
      ],
      [
        "ĠmÄĽst",
        -8.4952991621522
      ],
      [
        "kam",
        -8.496555395344906
      ],
      [
        "ĠnaÅ¡i",
        -8.501194772958877
      ],
      [
        "ĠkrÃ¡l",
        -8.503718143231156
      ],
      [
        "ĠnÃŃÅ¾",
        -8.505113980004692
      ],
      [
        "zda",
        -8.505438521342079
      ],
      [
        "Ġjde",
        -8.50873583658695
      ],
      [
        "ji",
        -8.510039132138411
      ],
      [
        "ĠzlatÃ½",
        -8.514843966877947
      ],
      [
        "zas",
        -8.515359995451155
      ],
      [
        "ĠsmÃŃch",
        -8.515699253621474
      ],
      [
        "ĠnovÃ½",
        -8.519960945780484
      ],
      [
        "cÃŃch",
        -8.522446201803602
      ],
      [
        "Ġkam",
        -8.52325442459254
      ],
      [
        "ĠmusÃŃ",
        -8.53246194980542
      ],
      [
        "Ġtvoje",
        -8.533353424757163
      ],
      [
        "ĠpÅĻece",
        -8.53532547568513
      ],
      [
        "Ġdne",
        -8.536141635522537
      ],
      [
        "svÃ©",
        -8.538158693756209
      ],
      [
        "Ġvlas",
        -8.541987130135134
      ],
      [
        "Ġas",
        -8.54789509754728
      ],
      [
        "Ġruku",
        -8.548355987442163
      ],
      [
        "ĠvelkÃ½",
        -8.549741736158333
      ],
      [
        "ĠprvnÃŃ",
        -8.549756167983613
      ],
      [
        "Ġchce",
        -8.550809949997545
      ],
      [
        "ĠvÅ¡em",
        -8.55322812056239
      ],
      [
        "ĠbuÄı",
        -8.55547589731768
      ],
      [
        "mnÄĽ",
        -8.558968297883068
      ],
      [
        "ĠkterÃ©",
        -8.559904938899505
      ],
      [
        "h",
        -8.561298522235923
      ],
      [
        "Ġhrob",
        -8.56385182576644
      ],
      [
        "ĠkterÃ½",
        -8.577210693551015
      ],
      [
        "eÅĪ",
        -8.577600520384417
      ],
      [
        "ĠvÃŃr",
        -8.578007343168155
      ],
      [
        "Ġvlasti",
        -8.580673948502078
      ],
      [
        "jsou",
        -8.580891522984906
      ],
      [
        "kol",
        -8.580896634936186
      ],
      [
        "ĠleÅ¾ÃŃ",
        -8.58392981227618
      ],
      [
        "ĠdÄĽti",
        -8.584840217787981
      ],
      [
        "Ġpohled",
        -8.586151635957572
      ],
      [
        "Ġneb",
        -8.590616785879908
      ],
      [
        "Ġvzduch",
        -8.593620015418647
      ],
      [
        "ĠnovÃ©",
        -8.595118311254279
      ],
      [
        "Ġtebou",
        -8.596120630651358
      ],
      [
        "cky",
        -8.612486822827528
      ],
      [
        "ĠtÄĽl",
        -8.61433651409838
      ],
      [
        "lÃ¡sku",
        -8.61438315258222
      ],
      [
        "ĠsvÄĽtÄĽ",
        -8.620153027983893
      ],
      [
        "ĠletÃŃ",
        -8.62486795024205
      ],
      [
        "ĠdÃ¡lk",
        -8.626202950388327
      ],
      [
        "coÅ¾",
        -8.629484913153957
      ],
      [
        "ĠdÃ¡vno",
        -8.630957897333632
      ],
      [
        "ĠcizÃŃ",
        -8.63200347573467
      ],
      [
        "j",
        -8.632756094468965
      ],
      [
        "Ġblesk",
        -8.632831010933993
      ],
      [
        "Ġsvoje",
        -8.636840899399116
      ],
      [
        "ĠhvÄĽzdy",
        -8.644199783805615
      ],
      [
        "pouze",
        -8.646929559522711
      ],
      [
        "tvou",
        -8.647247252744112
      ],
      [
        "Ġpane",
        -8.648005075311682
      ],
      [
        "ĠzlatÃ©",
        -8.64898097453456
      ],
      [
        "ĠmÃŃt",
        -8.652830650414101
      ],
      [
        "Ġticho",
        -8.654079904463659
      ],
      [
        "Ġnimi",
        -8.655749759661948
      ],
      [
        "ĠvidÄĽl",
        -8.663826621167066
      ],
      [
        "ĠchvÃŃle",
        -8.66413944396932
      ],
      [
        "Ġlidstv",
        -8.667090057912025
      ],
      [
        "r",
        -8.66864775445911
      ],
      [
        "Ġona",
        -8.668756808013033
      ],
      [
        "ĠsvatÃ½",
        -8.669672402768947
      ],
      [
        "aby",
        -8.669904447605848
      ],
      [
        "ĠstÃ¡l",
        -8.676542585001192
      ],
      [
        "ĠjuÅ¾",
        -8.678628391945622
      ],
      [
        "Ġsmrt",
        -8.679440169106927
      ],
      [
        "ĠÅ¾al",
        -8.680409673067244
      ],
      [
        "Ã½m",
        -8.682920362046884
      ],
      [
        "Ġdlouho",
        -8.68447314916815
      ],
      [
        "ĠnÄĽ",
        -8.694033805697485
      ],
      [
        "ĠÄįelo",
        -8.698470168637504
      ],
      [
        "ĠsvÃŃtÃŃ",
        -8.699092199688192
      ],
      [
        "Ġh",
        -8.699412283952842
      ],
      [
        "ÃŃch",
        -8.6996567606508
      ],
      [
        "Ġklid",
        -8.700314625980077
      ],
      [
        ",âĢľ",
        -8.700923114011369
      ],
      [
        "no",
        -8.709503554686425
      ],
      [
        "ĠpanÃŃ",
        -8.711096929441041
      ],
      [
        "ĠvlastnÃŃ",
        -8.713008099650043
      ],
      [
        "Ġkraj",
        -8.713031345245483
      ],
      [
        "Ġplamen",
        -8.714177656568568
      ],
      [
        "Ġles",
        -8.71506230878283
      ],
      [
        "ĠptÃ¡k",
        -8.715946466383597
      ],
      [
        "ĠÅ¾ÃŃt",
        -8.716346181827362
      ],
      [
        "ĠbÃ½ti",
        -8.723533248961894
      ],
      [
        "Ġsvoji",
        -8.72380523109398
      ],
      [
        "Ġdav",
        -8.724121655088938
      ],
      [
        "ĠtÄĽlo",
        -8.725156909520786
      ],
      [
        "vÃ¡",
        -8.726147466944193
      ],
      [
        "Ġhrad",
        -8.727362794277653
      ],
      [
        "ĠsnÅ¯",
        -8.727466419964973
      ],
      [
        "Ġhor",
        -8.728441760850181
      ],
      [
        "ĠcelÃ©",
        -8.729156018931148
      ],
      [
        "(",
        -8.72991690017265
      ],
      [
        "hned",
        -8.73364725946956
      ],
      [
        "ĠznÃŃ",
        -8.73998452775711
      ],
      [
        "nikdo",
        -8.740071745277895
      ],
      [
        "ĠvÅ¡ecky",
        -8.746444129280773
      ],
      [
        "Ġruka",
        -8.748531585474682
      ],
      [
        "ĠsvÄĽtlo",
        -8.749979450381984
      ],
      [
        "jest",
        -8.750521658027937
      ],
      [
        "ĠdobÅĻe",
        -8.751867934426429
      ],
      [
        "ĠproÄį",
        -8.75195564090333
      ],
      [
        "Ġzvuk",
        -8.752035236180195
      ],
      [
        "ĠpÃŃsnÄĽ",
        -8.75518575897677
      ],
      [
        "Ġlist",
        -8.75669057507284
      ],
      [
        "ĠÄįi",
        -8.758117846211418
      ],
      [
        "Ġmatk",
        -8.758527581274045
      ],
      [
        "buÄı",
        -8.759058114923299
      ],
      [
        "ĠnÄĽho",
        -8.762600367378218
      ],
      [
        "Ġsem",
        -8.766965846493456
      ],
      [
        "mÃ©",
        -8.768463229948045
      ],
      [
        "Ġtady",
        -8.77000443429708
      ],
      [
        "mÅ¯j",
        -8.771950849250956
      ],
      [
        "ĠpÃŃsnÃŃ",
        -8.774291987593696
      ],
      [
        "Ġsotva",
        -8.776265043754846
      ],
      [
        "ĠÅ¾ena",
        -8.78249306688396
      ],
      [
        "ĠboÅ¾e",
        -8.78456887711453
      ],
      [
        "ĠnÃ¡mi",
        -8.785555464224146
      ],
      [
        "Ġmoc",
        -8.788137740606567
      ],
      [
        "ĠklÃŃn",
        -8.790778124467014
      ],
      [
        "ĠposlednÃŃ",
        -8.792944833098774
      ],
      [
        "ĠsvatÃ©",
        -8.794732229696224
      ],
      [
        "nuÅ¾",
        -8.795828662847299
      ],
      [
        "Ġjemu",
        -8.79631262943482
      ],
      [
        "ĠsvojÃŃ",
        -8.796425590156154
      ],
      [
        "Ġkrve",
        -8.800460416329566
      ],
      [
        "ĠdÃ¡li",
        -8.80342638022122
      ],
      [
        "ĠÅ¡el",
        -8.8080511010062
      ],
      [
        "âĢĻ,",
        -8.814538954449533
      ],
      [
        "ĠtÅĻeba",
        -8.814996360947267
      ],
      [
        "svou",
        -8.816324981684847
      ],
      [
        "ĠzdÃ¡",
        -8.818602537485887
      ],
      [
        "Ġtedy",
        -8.820712108065482
      ],
      [
        "bou",
        -8.821285530702605
      ],
      [
        "ĠjinÃ½",
        -8.821324274124239
      ],
      [
        "ĠmlÃ¡dÃŃ",
        -8.82214530739704
      ],
      [
        "ĠmÃ©m",
        -8.822600252499363
      ],
      [
        "ĠmuÅ¾",
        -8.823516614293828
      ],
      [
        "ĠvelkÃ©",
        -8.825809680274144
      ],
      [
        "ĠmilÃ½",
        -8.827015361317308
      ],
      [
        "lÃ¡skou",
        -8.829038115256163
      ],
      [
        "bÅ¯h",
        -8.829549467660598
      ],
      [
        "p",
        -8.830015686909196
      ],
      [
        "Ġslzy",
        -8.831497237664765
      ],
      [
        "ĠvolÃ¡",
        -8.831927573259778
      ],
      [
        "ĠpadÃ¡",
        -8.8330689582565
      ],
      [
        "Ġjedno",
        -8.836462275269314
      ],
      [
        "ĠstarÃ©",
        -8.83731605349125
      ],
      [
        "Ġradost",
        -8.838929002696343
      ],
      [
        "ĠdÄĽt",
        -8.839354353601156
      ],
      [
        "Ġhory",
        -8.840893357040237
      ],
      [
        "ĠjmÃ©n",
        -8.840923952752494
      ],
      [
        "ĠskÃ¡l",
        -8.844617558004877
      ],
      [
        "ĠmÅ¯Å¾e",
        -8.84586778373192
      ],
      [
        "Ġlidu",
        -8.848501546788578
      ],
      [
        "ĠÅ¾Ã¡r",
        -8.848522265703387
      ],
      [
        "sÃ¡m",
        -8.848935448720491
      ],
      [
        "ĠÅ¾ivota",
        -8.848996838841282
      ],
      [
        "ĠvaÅ¡e",
        -8.850754138692249
      ],
      [
        "ĠplÃ¡Äį",
        -8.850835120423936
      ],
      [
        "Ġchci",
        -8.854482193700967
      ],
      [
        "ĠvÃŃtr",
        -8.855431618494425
      ],
      [
        "ĠnÄĽmÅ¾",
        -8.860087111365196
      ],
      [
        "nÃ¡m",
        -8.860967617617016
      ],
      [
        "ĠÅĻad",
        -8.870000546873243
      ],
      [
        "Ġret",
        -8.871392089242185
      ],
      [
        "ĠÄįernÃ½",
        -8.877628589307024
      ],
      [
        "pÅĻes",
        -8.879459370849128
      ],
      [
        "ĠzpÃŃvÃ¡",
        -8.8795528658991
      ],
      [
        "ĠnocÃŃ",
        -8.880087100908632
      ],
      [
        "Ġprach",
        -8.88078934027457
      ],
      [
        "ĠdomÅ¯",
        -8.881729879043016
      ],
      [
        "ĠÄįasto",
        -8.88263786128791
      ],
      [
        "Ġach",
        -8.883067507094685
      ],
      [
        "Ġmlh",
        -8.883754398685587
      ],
      [
        "Ġproud",
        -8.884145967315156
      ],
      [
        "ĠandÄĽl",
        -8.884814858353819
      ],
      [
        "ĠvÄĽc",
        -8.885051800531462
      ],
      [
        "ĠsvÄĽtla",
        -8.885933005866226
      ],
      [
        "ĠslÃ¡vy",
        -8.888130252965718
      ],
      [
        "ĠrÃ¡na",
        -8.888645918479869
      ],
      [
        "prÃ¡ci",
        -8.890237011155053
      ],
      [
        "ĠkterÃ¡",
        -8.894831391589399
      ],
      [
        "ĠprÃ½",
        -8.897104872520094
      ],
      [
        "ĠvÃ¡Å¡",
        -8.899832898326784
      ],
      [
        "aj",
        -8.90145290907221
      ],
      [
        "Ġvzal",
        -8.902394012089362
      ],
      [
        "ĠhledÃŃ",
        -8.902534272148696
      ],
      [
        "ĠdÄĽl",
        -8.902664497628015
      ],
      [
        "Ġcestu",
        -8.90325368879836
      ],
      [
        "ĠvÅ¡eho",
        -8.903663662901891
      ],
      [
        "Ã©ho",
        -8.904679854993265
      ],
      [
        "jdu",
        -8.904990555452242
      ],
      [
        "ĠlÃ¡s",
        -8.905270858066011
      ],
      [
        "Å¯v",
        -8.905285323212711
      ],
      [
        "ĠzÃ¡ÅĻÃŃ",
        -8.90532440435187
      ],
      [
        "tÄĽ",
        -8.905927405261883
      ],
      [
        "ĠkvÄĽtÅ¯",
        -8.90672353792223
      ],
      [
        "Ġslov",
        -8.90690576940019
      ],
      [
        "Ġboha",
        -8.907322814336414
      ],
      [
        "ĠvÄĽtr",
        -8.907552554480187
      ],
      [
        "ĠrÃ¡n",
        -8.908045617297244
      ],
      [
        "toÅ¥",
        -8.91064641223839
      ],
      [
        "Äįek",
        -8.91187942309305
      ],
      [
        "Ġbys",
        -8.912187440390307
      ],
      [
        "Ġotec",
        -8.916978571663488
      ],
      [
        "Ġslz",
        -8.920204421407476
      ],
      [
        "ĠnaÅ¡ÃŃ",
        -8.92110850778495
      ],
      [
        "sud",
        -8.922275326236603
      ],
      [
        "ĠsladkÃ½",
        -8.922508178885563
      ],
      [
        "ĠkrÃ¡sy",
        -8.924772456930343
      ],
      [
        "ĠkaÅ¾dÃ©",
        -8.92536971605862
      ],
      [
        "Ġnese",
        -8.926174986512322
      ],
      [
        "ĠopÄĽt",
        -8.927109085634019
      ],
      [
        "ĠvÄĽru",
        -8.930191219956164
      ],
      [
        "ĠÄįele",
        -8.93023220302538
      ],
      [
        "Ġcit",
        -8.932106095534394
      ],
      [
        "ĠmÄĽsÃŃc",
        -8.937308213963021
      ],
      [
        "Ġzvon",
        -8.937726575412338
      ],
      [
        "Ġhoch",
        -8.938635343932752
      ],
      [
        "Ġspolu",
        -8.938834820283995
      ],
      [
        "ĠvÃŃ",
        -8.940543612065728
      ],
      [
        "Ġproti",
        -8.942075686031785
      ],
      [
        "ruÄı",
        -8.942334720948132
      ],
      [
        "Ġbohu",
        -8.945716266604695
      ],
      [
        "ĠnÄĽmu",
        -8.946645986767596
      ],
      [
        "Ġbohem",
        -8.94704865158696
      ],
      [
        "ĠpÅĻijde",
        -8.949142783989641
      ],
      [
        "Ġtroch",
        -8.95019801797973
      ],
      [
        "ĠtvÃ©m",
        -8.950271987421083
      ],
      [
        "ĠprÃ¡ce",
        -8.950351225860993
      ],
      [
        "ĠvÃŃm",
        -8.952399145786172
      ],
      [
        "ĠmÃ¡lo",
        -8.953219724702507
      ],
      [
        "Ġboj",
        -8.956268554237422
      ],
      [
        "svÄĽt",
        -8.956546584634934
      ],
      [
        "ĠjistÄĽ",
        -8.958178832253465
      ],
      [
        "ĠvÄĽÄįnÄĽ",
        -8.960984163201793
      ],
      [
        "ĠmladÃ½",
        -8.961350820659439
      ],
      [
        "ĠzÅĻel",
        -8.963748821905348
      ],
      [
        "bych",
        -8.964438446907806
      ],
      [
        "nic",
        -8.964840719527245
      ],
      [
        "vÅ¡ichn",
        -8.964937593197712
      ],
      [
        "Ġtouhy",
        -8.967812222113343
      ],
      [
        "Ġobraz",
        -8.968199895784727
      ],
      [
        "ĠprÃ¡vÄĽ",
        -8.969105256462543
      ],
      [
        "Ġmnoho",
        -8.969191127658245
      ],
      [
        "ĠÅ¡at",
        -8.970646963619735
      ],
      [
        "ĠlidÃŃ",
        -8.970655609159607
      ],
      [
        "roz",
        -8.971090924539226
      ],
      [
        "ĠbouÅĻe",
        -8.971437334045081
      ],
      [
        "tÃ©",
        -8.972465010916121
      ],
      [
        "Ġsama",
        -8.973182035959413
      ],
      [
        "Ġkdes",
        -8.97418173533812
      ],
      [
        "ĠÅĻek",
        -8.974329854450948
      ],
      [
        "ĠstÃŃny",
        -8.974603422041579
      ],
      [
        "Ġbok",
        -8.978742766868614
      ],
      [
        "ĠhoÅĻÃŃ",
        -8.981455027962504
      ],
      [
        "ĠsrdcÃŃ",
        -8.981521738760277
      ],
      [
        "Ġjas",
        -8.984411539695373
      ],
      [
        "ĠsnÄĽnÃŃ",
        -8.984783034506954
      ],
      [
        "Ġslovo",
        -8.987065296703497
      ],
      [
        "Ġhle",
        -8.987869400113105
      ],
      [
        "ĠdÃ¡t",
        -8.990326727413832
      ],
      [
        "Ġhlava",
        -8.99395849507231
      ],
      [
        "Ġprsou",
        -8.995016286918133
      ],
      [
        "ovi",
        -8.995342156755427
      ],
      [
        "snÃŃh",
        -8.996819285191402
      ],
      [
        "ĠnÄĽkdy",
        -8.998083273831561
      ],
      [
        "Ġhlubin",
        -8.99861597460793
      ],
      [
        "ĠtvÃ¡ÅĻÃŃ",
        -8.99963929160458
      ],
      [
        "Ġrod",
        -9.00166250631529
      ],
      [
        "Ġboji",
        -9.003232960922169
      ],
      [
        "ĠvÅ¡ude",
        -9.006932260302401
      ],
      [
        "ĠdolÅ¯",
        -9.007847462573451
      ],
      [
        "ÄįÃŃm",
        -9.00790814866155
      ],
      [
        "Ġvzdech",
        -9.008774000410689
      ],
      [
        "ĠmarnÄĽ",
        -9.012506915197644
      ],
      [
        "ĠnichÅ¾",
        -9.013322749905761
      ],
      [
        "ĠpÅĻiÅ¡el",
        -9.013330095702795
      ],
      [
        "Ġaby",
        -9.014200350302334
      ],
      [
        "tys",
        -9.015184064830231
      ],
      [
        "Ġzvoln",
        -9.015437450014677
      ],
      [
        "srdce",
        -9.016558177290008
      ],
      [
        "Ġproto",
        -9.016661193200616
      ],
      [
        "ĠtrÃ¡v",
        -9.0191552138119
      ],
      [
        "ĠzpÄĽt",
        -9.019818760798843
      ],
      [
        "Ġtolik",
        -9.020806378084128
      ],
      [
        "ĠdÃ¡",
        -9.02114255468513
      ],
      [
        "Ġpole",
        -9.023238431303145
      ],
      [
        "ĠtvÃ¡ÅĻe",
        -9.023487335256153
      ],
      [
        "ĠnemÃ¡",
        -9.024199862654417
      ],
      [
        "Ġbudou",
        -9.024487384359471
      ],
      [
        "den",
        -9.02512962110007
      ],
      [
        "ĠvÅ¯nÄĽ",
        -9.025463992145475
      ],
      [
        "ĠmÃŃr",
        -9.029254787526606
      ],
      [
        "ĠÅĻÃŃc",
        -9.031887090205892
      ],
      [
        "ĠmeÄį",
        -9.032327251117062
      ],
      [
        "ĠvÄĽky",
        -9.032378651888294
      ],
      [
        "Ġbolest",
        -9.033840260558955
      ],
      [
        "Ġpotom",
        -9.037448693432609
      ],
      [
        "Ġbudu",
        -9.037733726963529
      ],
      [
        "ĠplnÃ½",
        -9.038267624017259
      ],
      [
        "krvÃŃ",
        -9.040248381429524
      ],
      [
        "Ġmrak",
        -9.041846899749139
      ],
      [
        "ĠÄįernÃ©",
        -9.04333334330213
      ],
      [
        "Ġdost",
        -9.044540644911415
      ],
      [
        "ĠdÅĻÃŃv",
        -9.045021557441217
      ],
      [
        "jej",
        -9.046082712507362
      ],
      [
        "ec",
        -9.048362319735752
      ],
      [
        "tÃŃm",
        -9.051042163332
      ],
      [
        "ĠvÅ¡echno",
        -9.055396695967175
      ],
      [
        "ĠvÅ¡echn",
        -9.057348678628745
      ],
      [
        "Ġdiv",
        -9.058146648501202
      ],
      [
        "Ġzlato",
        -9.061018099799526
      ],
      [
        "ĠvidÃŃm",
        -9.0632191003903
      ],
      [
        "Ġsvit",
        -9.063326999257438
      ],
      [
        "ĠtvÃ¡ÅĻi",
        -9.063812910359886
      ],
      [
        "ĠmojÃŃ",
        -9.065433466707121
      ],
      [
        "ĠkrÃ¡snÃ©",
        -9.065590273604908
      ],
      [
        "ej",
        -9.067319833585055
      ],
      [
        "ĠÅ¾il",
        -9.06788445884315
      ],
      [
        "Ġmatka",
        -9.069463905587462
      ],
      [
        "ĠmÃ½m",
        -9.070253489935059
      ],
      [
        "ĠvÃ½Å¡e",
        -9.072930525247637
      ],
      [
        "Ġsny",
        -9.077113039587415
      ],
      [
        "ĠzÃ¡ÅĻ",
        -9.079892245454657
      ],
      [
        "Ġznova",
        -9.08704655753866
      ],
      [
        "ĠmÃŃsto",
        -9.089725509672636
      ],
      [
        "ĠsladkÃ©",
        -9.092124301491472
      ],
      [
        "Ġpln",
        -9.09229243896278
      ],
      [
        "Ġdva",
        -9.094152649334056
      ],
      [
        "Ġzjev",
        -9.0954760652122
      ],
      [
        "Ġvlast",
        -9.09607010820773
      ],
      [
        "ĠjinÃ©",
        -9.096674970731822
      ],
      [
        "Ġslunci",
        -9.097322284455569
      ],
      [
        "ĠÄįekÃ¡",
        -9.10070598252705
      ],
      [
        "Ġlesy",
        -9.102412516564986
      ],
      [
        "ĠkrÃ¡snÃ½",
        -9.10359031012646
      ],
      [
        "ĠhnÄĽv",
        -9.104923168861237
      ],
      [
        "Ġoku",
        -9.105748935495964
      ],
      [
        "ĠvzhÅ¯r",
        -9.106873383870044
      ],
      [
        "tvÃ©",
        -9.107049366767395
      ],
      [
        "Ġskal",
        -9.107121587249885
      ],
      [
        "nechÅ¥",
        -9.1073189716499
      ],
      [
        "Ġducha",
        -9.10756667996732
      ],
      [
        "jsi",
        -9.11075729686261
      ],
      [
        "ĠmÃ¡Å¡",
        -9.111183104270125
      ],
      [
        "ĠlÃŃce",
        -9.1111932033955
      ],
      [
        "ĠmoÅĻi",
        -9.1120442965594
      ],
      [
        "kou",
        -9.113587209747799
      ],
      [
        "poÅĪ",
        -9.11787724853723
      ],
      [
        "Ġjaro",
        -9.120888875737002
      ],
      [
        "ĠvÃŃn",
        -9.12096904855387
      ],
      [
        "Ġknih",
        -9.127878762452829
      ],
      [
        "ĠhoÅĻe",
        -9.12846309226089
      ],
      [
        "Ġjdou",
        -9.131004179352832
      ],
      [
        "ĠmÄĽsta",
        -9.131721528129553
      ],
      [
        "Ġhrobu",
        -9.132578522747284
      ],
      [
        "skÃ©",
        -9.137339264957543
      ],
      [
        "lo",
        -9.139671889294004
      ],
      [
        "Ġokem",
        -9.140933763336086
      ],
      [
        "ĠÃºst",
        -9.141360841060422
      ],
      [
        "Ġjara",
        -9.14216054978317
      ],
      [
        "Ġnes",
        -9.142160660757519
      ],
      [
        "ĠÅ¾ije",
        -9.144460777003953
      ],
      [
        "ĠkÅĻÃŃdla",
        -9.146129788483965
      ],
      [
        "Ġmoji",
        -9.147412163557608
      ],
      [
        "mÃ©ho",
        -9.148714521357348
      ],
      [
        "ĠkvÃŃtÃŃ",
        -9.149282641952585
      ],
      [
        "mne",
        -9.149741428441661
      ],
      [
        "Ġnebo",
        -9.151084642835334
      ],
      [
        "ĠtichÃ½",
        -9.151552673593889
      ],
      [
        "Ġsoud",
        -9.151808737228041
      ],
      [
        "rty",
        -9.152857073827878
      ],
      [
        "ĠdlouhÃ½",
        -9.153285427904562
      ],
      [
        "ĠmalÃ½",
        -9.153745926340708
      ],
      [
        "ĠmÃŃst",
        -9.154132931839499
      ],
      [
        "ĠdÃŃvÃ¡",
        -9.154637996977103
      ],
      [
        "ĠvÄĽÄįnÃ©",
        -9.155906828335393
      ],
      [
        "ĠÄįech",
        -9.157261510816145
      ],
      [
        "ĠdÃŃ",
        -9.16071220481755
      ],
      [
        "ĠÄįÃŃm",
        -9.160741033477347
      ],
      [
        "ĠstÄĽn",
        -9.160893700801285
      ],
      [
        "Ġdum",
        -9.161742450284876
      ],
      [
        "Ġrychle",
        -9.162933834559276
      ],
      [
        "val",
        -9.164297970166436
      ],
      [
        "ĠjarnÃŃ",
        -9.16451634736705
      ],
      [
        "ĠstromÅ¯",
        -9.165668099279907
      ],
      [
        "Ġokn",
        -9.166253313427536
      ],
      [
        "ĠcelÃ¡",
        -9.166378644239213
      ],
      [
        "!...",
        -9.166781485299014
      ],
      [
        "ĠhÅĻÃŃch",
        -9.167699155327327
      ],
      [
        "nÃ½m",
        -9.167855723732263
      ],
      [
        "ĠvÄĽÄįnÃ½",
        -9.168098882508584
      ],
      [
        "ĠzÃ¡ÅĻe",
        -9.17293003865763
      ],
      [
        "Ġobzor",
        -9.17296077758331
      ],
      [
        "ĠdobrÃ½",
        -9.174341911406682
      ],
      [
        "ĠbÃŃd",
        -9.174822230963224
      ],
      [
        "kaÅ¾dÃ¡",
        -9.17522509944899
      ],
      [
        "ĠplÃ¡l",
        -9.182230664358435
      ],
      [
        "Ġtouha",
        -9.184918764948982
      ],
      [
        "ĠÅĻekl",
        -9.187085863650577
      ],
      [
        "ĠlidskÃ©",
        -9.187724678908147
      ],
      [
        "ĠpÃ¡r",
        -9.189209535287546
      ],
      [
        "ny",
        -9.191477739885972
      ],
      [
        "ĠbÃŃlÃ¡",
        -9.192667802558711
      ],
      [
        "Ġples",
        -9.194600143334942
      ],
      [
        "ĠvidÃŃ",
        -9.194665648113194
      ],
      [
        "ĠlidskÃ½",
        -9.194749510251633
      ],
      [
        "Ġdole",
        -9.195421331610756
      ],
      [
        "ĠmilÃ¡",
        -9.197722787250125
      ],
      [
        "oheÅĪ",
        -9.198790661271065
      ],
      [
        "Ã¡men",
        -9.19900698400715
      ],
      [
        "jeÅ¡tÄĽ",
        -9.200338078287103
      ],
      [
        "Ġoblak",
        -9.200444821525107
      ],
      [
        "ĠjÃŃt",
        -9.200548820751647
      ],
      [
        "Ġpomoc",
        -9.203359577564433
      ],
      [
        "ĠhlavÄĽ",
        -9.204609409421664
      ],
      [
        "Ã©m",
        -9.206540221572995
      ],
      [
        "zrak",
        -9.210113841076929
      ],
      [
        "ĠrÃ¡z",
        -9.210360083453622
      ],
      [
        "kvÄĽt",
        -9.211444832802208
      ],
      [
        "ĠnÃ¡ruÄį",
        -9.215578250521855
      ],
      [
        "ĠvÃ½Å¡",
        -9.215583823567698
      ],
      [
        "Ġnohou",
        -9.216015343483654
      ],
      [
        "ĠÄįela",
        -9.216844225303355
      ],
      [
        "ani",
        -9.218025997483954
      ],
      [
        "ĠrÅ¯Å¾ÃŃ",
        -9.221113659736272
      ],
      [
        "oval",
        -9.222152043399891
      ],
      [
        "nech",
        -9.22287606024856
      ],
      [
        "ĠsvÃ©mu",
        -9.223151859217639
      ],
      [
        "Ġstrach",
        -9.224181788763932
      ],
      [
        "Ġhlavo",
        -9.224629792539842
      ],
      [
        "Ġbyly",
        -9.22645587683525
      ],
      [
        "ĠblÃŃÅ¾",
        -9.228495148542073
      ],
      [
        "Ġlese",
        -9.229489941161575
      ],
      [
        "ĠlistÃŃ",
        -9.230665499747746
      ],
      [
        "ĠtvÃ½m",
        -9.232547250847798
      ],
      [
        "Ġnelze",
        -9.234016387378425
      ],
      [
        "Ġotce",
        -9.235135840360254
      ],
      [
        "ĠsvÄĽÅ¾ÃŃ",
        -9.235458431757245
      ],
      [
        "mÃ¡m",
        -9.23547419104867
      ],
      [
        "ĠzÃ¡pad",
        -9.237166898065116
      ],
      [
        "Ġruky",
        -9.237697769921137
      ],
      [
        "Ġhodin",
        -9.238923881352289
      ],
      [
        "ĠznÄĽl",
        -9.23922849150372
      ],
      [
        "Ġhlad",
        -9.239905281037206
      ],
      [
        "Ġpoli",
        -9.24301743270717
      ],
      [
        "Ġkraje",
        -9.243150800073725
      ],
      [
        "skÃ¡",
        -9.243945645791685
      ],
      [
        "chci",
        -9.244444589701196
      ],
      [
        "Ġkonec",
        -9.244754857224944
      ],
      [
        ")",
        -9.24551228754753
      ],
      [
        "Å¡el",
        -9.247265937484842
      ],
      [
        "ĠstarÃ¡",
        -9.247866548736503
      ],
      [
        "ĠstÃŃnu",
        -9.250499229257834
      ],
      [
        "lid",
        -9.251095066538994
      ],
      [
        "Ġbol",
        -9.252951927141075
      ],
      [
        "dÃ¡l",
        -9.25441839441204
      ],
      [
        "toÅ¾",
        -9.255500813959122
      ],
      [
        "'",
        -9.256006875724681
      ],
      [
        "Ġven",
        -9.25687464006862
      ],
      [
        "ĠbouÅĻÃŃ",
        -9.259470260535068
      ],
      [
        "ĠklidnÄĽ",
        -9.259920836046664
      ],
      [
        "pÅĻe",
        -9.260818476935068
      ],
      [
        "ĠsmÃ¡l",
        -9.26206573949339
      ],
      [
        "ĠdÃ¡vÃ¡",
        -9.263357417090313
      ],
      [
        "osÅ¥",
        -9.26418399565826
      ],
      [
        "ĠslÃ¡va",
        -9.264816772332212
      ],
      [
        "ĠtisÃŃc",
        -9.26516799000717
      ],
      [
        "ĠnÄĽco",
        -9.26568484210478
      ],
      [
        "Ġmoh",
        -9.266166356288533
      ],
      [
        "ĠkÅĻÃŃÅ¾",
        -9.26955559303552
      ],
      [
        "ĠnadÄĽje",
        -9.269943095363583
      ],
      [
        "ost",
        -9.270246917812587
      ],
      [
        "Ġcelo",
        -9.272870047539115
      ],
      [
        "ĠdÃŃl",
        -9.273963876993125
      ],
      [
        "ĠlesÅ¯",
        -9.274778351791474
      ],
      [
        "ĠdrahÃ¡",
        -9.276503009186182
      ],
      [
        "ĠzÃ¡ÅĻi",
        -9.277404249618336
      ],
      [
        "jde",
        -9.277735678833297
      ],
      [
        "ĠdÃ½m",
        -9.279309646865958
      ],
      [
        "noc",
        -9.280090028923816
      ],
      [
        "Ġtou",
        -9.28128228797306
      ],
      [
        "ĠvÄĽkÅ¯",
        -9.285059626617368
      ],
      [
        "ĠslyÅ¡el",
        -9.28519565253836
      ],
      [
        "ĠdvÄĽ",
        -9.285353710661054
      ],
      [
        "ĠÃºsta",
        -9.285698956368691
      ],
      [
        "Ġbyli",
        -9.285716961150612
      ],
      [
        "ĠvstÅĻÃŃc",
        -9.286918700443664
      ],
      [
        "ĠÅ¡um",
        -9.287618781867685
      ],
      [
        "ĠdÃ¡m",
        -9.288066294705732
      ],
      [
        "ĠdrahÃ½",
        -9.288081936909792
      ],
      [
        "tvÅ¯j",
        -9.28937965943176
      ],
      [
        "ĠmluvÃŃ",
        -9.290554319558645
      ],
      [
        "Ġdoma",
        -9.290801883254296
      ],
      [
        "ĠtÃ©to",
        -9.291835217818608
      ],
      [
        "ĠkrÃ¡ÄįÃŃ",
        -9.292699478580642
      ],
      [
        "ĠmladÃ©",
        -9.29306656047017
      ],
      [
        "Ġmech",
        -9.293100367730766
      ],
      [
        "ĠznÃ¡m",
        -9.296595298951964
      ],
      [
        "ĠmnohÃ½",
        -9.297086427854827
      ],
      [
        "ĠpÅĻÃŃrod",
        -9.297852560205076
      ],
      [
        "Ġnebyl",
        -9.298727487689156
      ],
      [
        "kaÅ¾dÃ½",
        -9.299504974947805
      ],
      [
        "ĠnÄĽj",
        -9.299801968048286
      ],
      [
        "b",
        -9.30249951127071
      ],
      [
        "il",
        -9.30629469040487
      ],
      [
        "Ġdoby",
        -9.306629792619011
      ],
      [
        "Ġled",
        -9.307173096723517
      ],
      [
        "ĠtichÃ©",
        -9.307741374611162
      ],
      [
        "ĠÅĻeÄį",
        -9.308311583229992
      ],
      [
        "ĠplnÃ©",
        -9.309067191807035
      ],
      [
        "Ġsvobod",
        -9.309366318460807
      ],
      [
        "ĠpÅĻÃŃliÅ¡",
        -9.311976944693935
      ],
      [
        "pan",
        -9.312188420413928
      ],
      [
        "ĠmÄĽla",
        -9.314090953346357
      ],
      [
        "pÅĻec",
        -9.31498355571393
      ],
      [
        "jenom",
        -9.31537034200107
      ],
      [
        "tÃ©Å¾",
        -9.31539404019032
      ],
      [
        "hlas",
        -9.31647383053889
      ],
      [
        "ĠmilÃ©",
        -9.316514108687905
      ],
      [
        "Ġzda",
        -9.317500275606161
      ],
      [
        "ĠvÄĽtÅ¡ÃŃ",
        -9.317722193871326
      ],
      [
        "Ġsmute",
        -9.318058617014762
      ],
      [
        "Ġkout",
        -9.322005674957751
      ],
      [
        "ĠÄįin",
        -9.324649468914682
      ],
      [
        "Ġnej",
        -9.32466882014718
      ],
      [
        "Ġsta",
        -9.32476469152725
      ],
      [
        "Ġtmy",
        -9.326746791777513
      ],
      [
        "Ġrok",
        -9.327928158562779
      ],
      [
        "ÅĻe",
        -9.329816909528535
      ],
      [
        "jsme",
        -9.3303250075395
      ],
      [
        "ĠcÃŃtÃŃ",
        -9.330751746904713
      ],
      [
        "Ġhloubi",
        -9.330789009846669
      ],
      [
        "Äįe",
        -9.333955962744472
      ],
      [
        "Ġvichr",
        -9.335050324402326
      ],
      [
        "ĠpÅĻÃŃÅ¡tÃŃ",
        -9.338890079633167
      ],
      [
        "ĠzÃŃtr",
        -9.34043051303625
      ],
      [
        "Ġpravil",
        -9.341754338825556
      ],
      [
        "ĠchceÅ¡",
        -9.342975485286363
      ],
      [
        "ĠmÃŃru",
        -9.34299441389926
      ],
      [
        "Ġplno",
        -9.34344204522014
      ],
      [
        "ĠlÃ©ta",
        -9.343504678322015
      ],
      [
        "Ġmohl",
        -9.34455893997772
      ],
      [
        "ĠÅ¡tÃŃt",
        -9.345510345999301
      ],
      [
        "Ġstop",
        -9.346006850924585
      ],
      [
        "ĠzÅĻÃŃm",
        -9.347828390215565
      ],
      [
        "ĠchvÄĽje",
        -9.35004614047846
      ],
      [
        "ĠpolÃŃ",
        -9.350764177675298
      ],
      [
        "Ġjedna",
        -9.352466699929606
      ],
      [
        "ĠhrÃ¡l",
        -9.354849132049196
      ],
      [
        "ĠcÃŃtil",
        -9.35644197110912
      ],
      [
        "Ġluh",
        -9.356702758110771
      ],
      [
        "Ġboje",
        -9.357171496391295
      ],
      [
        "Ġznovu",
        -9.35726068157146
      ],
      [
        "nenÃŃ",
        -9.357499770986006
      ],
      [
        "Ġkraji",
        -9.358250620926292
      ],
      [
        "Ġprachu",
        -9.360451935150707
      ],
      [
        "ĠdrahÃ©",
        -9.360648321454
      ],
      [
        "ĠÄįeskÃ½",
        -9.361345089784928
      ],
      [
        "Ġstrun",
        -9.36222192243527
      ],
      [
        "ly",
        -9.365420957429556
      ],
      [
        "ĠkrÃ¡se",
        -9.367260059180774
      ],
      [
        "ĠsÃŃla",
        -9.368398044193976
      ],
      [
        "ĠcÃŃtÃŃm",
        -9.370248526660891
      ],
      [
        "ĠhnÃŃzd",
        -9.370317843707625
      ],
      [
        "ĠbÃ¡snÃŃk",
        -9.370588761136744
      ],
      [
        "ĠrÃ¡no",
        -9.373553826095144
      ],
      [
        "ĠdobÄĽ",
        -9.374955609693565
      ],
      [
        "Ġoba",
        -9.375626640539032
      ],
      [
        "ĠkrÃ¡le",
        -9.379619233025664
      ],
      [
        "dy",
        -9.381635038181358
      ],
      [
        "Ġkdyby",
        -9.38168876334899
      ],
      [
        "tÄĽch",
        -9.381692828766756
      ],
      [
        "Ġasi",
        -9.382305915933237
      ],
      [
        "naÄį",
        -9.383473244211123
      ],
      [
        "ĠkrÃ¡snÃ¡",
        -9.384587347423583
      ],
      [
        "ĠhrobÄĽ",
        -9.384675858200389
      ],
      [
        "ĠpravÃŃ",
        -9.385997954451131
      ],
      [
        "vÃ¡m",
        -9.386698487403546
      ],
      [
        "ĠdlouhÃ©",
        -9.386996688498389
      ],
      [
        "Ġbeze",
        -9.38751735868863
      ],
      [
        "ĠjejÅ¾",
        -9.389757330940911
      ],
      [
        "ĠtÄĽÅ¾kÃ½",
        -9.390270548773955
      ],
      [
        "Ġctnost",
        -9.390493316661708
      ],
      [
        "ĠrÃ¡j",
        -9.390919160809808
      ],
      [
        "Ġvedle",
        -9.39105216380782
      ],
      [
        "enku",
        -9.391110977378792
      ],
      [
        "ĠmÃ¡me",
        -9.391379034597222
      ],
      [
        "ĠneÅ¾li",
        -9.392207839658605
      ],
      [
        "ĠsedÃŃ",
        -9.3936871816789
      ],
      [
        "Ġdosti",
        -9.395076489306177
      ],
      [
        "ĠnevÃŃm",
        -9.396593932132507
      ],
      [
        "Ġvede",
        -9.396844725814312
      ],
      [
        "Ġtouho",
        -9.397060209135855
      ],
      [
        "Ġhudb",
        -9.397463936921383
      ],
      [
        "ĠbudeÅ¡",
        -9.397972976910065
      ],
      [
        "Ġpan",
        -9.399424701268849
      ],
      [
        "ĠnevÃŃ",
        -9.399626619876582
      ],
      [
        "ĠdruhÃ½",
        -9.40001061303779
      ],
      [
        "ĠrtÅ¯",
        -9.40097286724933
      ],
      [
        "Ġhled",
        -9.401239514768395
      ],
      [
        "ĠÅĪader",
        -9.401357984316643
      ],
      [
        "ĠplÃ¡Äįe",
        -9.404614948959768
      ],
      [
        "ĠmuÅ¾i",
        -9.405727925483554
      ],
      [
        "Ġroste",
        -9.406845644958256
      ],
      [
        "Ġteprv",
        -9.406974576613003
      ],
      [
        "ĠvÃŃru",
        -9.407210175467394
      ],
      [
        "ĠmalÃ©",
        -9.409747502283972
      ],
      [
        "ĠvÄĽk",
        -9.41455534301416
      ],
      [
        "krÃ¡l",
        -9.414864121598765
      ],
      [
        "ĠmuÅ¾e",
        -9.415424286547633
      ],
      [
        "ĠchvÄĽl",
        -9.416396491241501
      ],
      [
        "Ġmysli",
        -9.417373055087445
      ],
      [
        "âĢŀâĢŀ",
        -9.417959378631016
      ],
      [
        "ĠdÃŃvk",
        -9.422307118101227
      ],
      [
        "ĠmajÃŃ",
        -9.422760052146153
      ],
      [
        "ĠbÅĻehu",
        -9.423221319507828
      ],
      [
        "ĠvÅ¯le",
        -9.42445326517586
      ],
      [
        "ĠÅĻeÄįi",
        -9.425393510827057
      ],
      [
        "Ġstesk",
        -9.426632688274811
      ],
      [
        "Ġradosti",
        -9.428804073494174
      ],
      [
        "oh",
        -9.429004228278782
      ],
      [
        "vÃŃc",
        -9.430464846992551
      ],
      [
        "mÄĽl",
        -9.43133758109007
      ],
      [
        "ĠÅĻÃŃÅ¡",
        -9.432867657089538
      ],
      [
        "rÃ¡d",
        -9.433064133994492
      ],
      [
        "Ġmuk",
        -9.43336477734797
      ],
      [
        "Ġpravda",
        -9.433528875188292
      ],
      [
        "ĠdnÅ¯",
        -9.433927519445708
      ],
      [
        "Ġsrdcem",
        -9.434626046757813
      ],
      [
        "ĠkonÄĽ",
        -9.434882227529991
      ],
      [
        "Ġhrom",
        -9.435718916855391
      ],
      [
        "ĠtenkrÃ¡t",
        -9.437470684297612
      ],
      [
        "Ġlesa",
        -9.43819141158432
      ],
      [
        "ĠkrÃ¡li",
        -9.442557067100527
      ],
      [
        "ĠhledÃ¡",
        -9.443628653886302
      ],
      [
        "kem",
        -9.445775392728349
      ],
      [
        "Ġdar",
        -9.447577208964294
      ],
      [
        "Ġnoh",
        -9.449497023374535
      ],
      [
        "nÃ©ho",
        -9.451678645294901
      ],
      [
        "Ġsluch",
        -9.452817498941945
      ],
      [
        "kterÃ½",
        -9.45371486160864
      ],
      [
        "duch",
        -9.453731493906524
      ],
      [
        "chtÄĽl",
        -9.454087434240579
      ],
      [
        "Ġdej",
        -9.454621084060745
      ],
      [
        "ĠcoÅ¾",
        -9.454812088839871
      ],
      [
        "ĠjakÃ½",
        -9.45673702649615
      ],
      [
        "Ġjitr",
        -9.45757161271916
      ],
      [
        "ĠmyslÃŃ",
        -9.45829673447004
      ],
      [
        "Ġblaho",
        -9.45882940184903
      ],
      [
        "Ġzahrad",
        -9.459768347929021
      ],
      [
        "Ġpout",
        -9.459948373714365
      ],
      [
        "Ġcos",
        -9.461398440740123
      ],
      [
        "vÃŃm",
        -9.462557216431073
      ],
      [
        "ĠhvÄĽzda",
        -9.4634818378033
      ],
      [
        "Ġlesk",
        -9.464381473859142
      ],
      [
        "Ġjinak",
        -9.466465640064914
      ],
      [
        "ĠkÅĻik",
        -9.466645657312764
      ],
      [
        "Ġchlad",
        -9.467713097216365
      ],
      [
        "Ġrozum",
        -9.468545764414305
      ],
      [
        "Ġniv",
        -9.47091759853134
      ],
      [
        "ĠtÄĽle",
        -9.471294072361497
      ],
      [
        "Ġmysl",
        -9.473941957657045
      ],
      [
        "ÅĪ",
        -9.47431258604491
      ],
      [
        "Ġposud",
        -9.475378429734302
      ],
      [
        "ovat",
        -9.475830310904646
      ],
      [
        "Ġnaposled",
        -9.476041855197682
      ],
      [
        "ĠnoÄįnÃŃ",
        -9.476418872337113
      ],
      [
        "jich",
        -9.477536274069145
      ],
      [
        "Ġplod",
        -9.479332243281334
      ],
      [
        "Ġokna",
        -9.480294261852634
      ],
      [
        "¡",
        -9.480956675435458
      ],
      [
        "ĠzpÃŃval",
        -9.482099369388907
      ],
      [
        "stejnÄĽ",
        -9.482373416425691
      ],
      [
        "Ġbije",
        -9.484009066555771
      ],
      [
        "ĠbÄĽda",
        -9.487150973612037
      ],
      [
        "ĠÄįasu",
        -9.487680094317577
      ],
      [
        "ĠÄįeskÃ©",
        -9.488485769832163
      ],
      [
        "ovÅ¡em",
        -9.488697864514172
      ],
      [
        "ĠvÅ¡eck",
        -9.489281475171028
      ],
      [
        "ĠklonÃŃ",
        -9.4907444420734
      ],
      [
        "Ġsladce",
        -9.492771111753438
      ],
      [
        "ĠlÃŃc",
        -9.492972775890017
      ],
      [
        "Ġpravdu",
        -9.494152153863379
      ],
      [
        "ĠslÃ¡vÄĽ",
        -9.494477134799384
      ],
      [
        "ĠzdÃ¡l",
        -9.49486763945805
      ],
      [
        "skÃ½",
        -9.495915211403249
      ],
      [
        "Ġnez",
        -9.49619657561679
      ],
      [
        "ĠzvonÃŃ",
        -9.498090299970634
      ],
      [
        "kÃ©Å¾",
        -9.498240546535598
      ],
      [
        "Ġneza",
        -9.498337978687456
      ],
      [
        "ĠdÅ¯m",
        -9.498850519685373
      ],
      [
        "ĠrÃ¡je",
        -9.500757947306635
      ],
      [
        "ÄįÃŃ",
        -9.50143100909386
      ],
      [
        "ha",
        -9.502714403334348
      ],
      [
        "ĠjasnÃ©",
        -9.503255920126762
      ],
      [
        "Ġdob",
        -9.504193729086523
      ],
      [
        "ĠvÄĽÄįnost",
        -9.50436889476558
      ],
      [
        "Ġtakto",
        -9.505600628949988
      ],
      [
        "Ġtento",
        -9.50681268573377
      ],
      [
        "âĢĻ.",
        -9.50711198171505
      ],
      [
        "ĠvÅ¡emi",
        -9.508931988774169
      ],
      [
        "ĠnaÅĪ",
        -9.509204621226155
      ],
      [
        "Ġduchu",
        -9.50939696930209
      ],
      [
        "Äįas",
        -9.510512607021113
      ],
      [
        "Ġbrzy",
        -9.510684267117927
      ],
      [
        "darmo",
        -9.512352433640302
      ],
      [
        "Ġba",
        -9.513335368689198
      ],
      [
        "ĠzÃ¡stup",
        -9.515571710772566
      ],
      [
        "Ġsbor",
        -9.51562648380836
      ],
      [
        "tvÃ¡",
        -9.517015396275799
      ],
      [
        "Ġsil",
        -9.517298995120305
      ],
      [
        "Ġdomu",
        -9.517324127861968
      ],
      [
        "jejÅ¾",
        -9.518367403443957
      ],
      [
        "Ġpropast",
        -9.51851244922996
      ],
      [
        "Ġob",
        -9.519113169265712
      ],
      [
        "ĠmoÅ¾no",
        -9.519260301585877
      ],
      [
        "nul",
        -9.519320613633056
      ],
      [
        "ĠlÃŃp",
        -9.519780577142834
      ],
      [
        "ĠleÄį",
        -9.520540239468717
      ],
      [
        "ĠmizÃŃ",
        -9.523239382342558
      ],
      [
        "ĠbÅĻeh",
        -9.523599873145937
      ],
      [
        "ĠbratÅĻÃŃ",
        -9.524338216953417
      ],
      [
        "ĠjednÃ©",
        -9.524351645529702
      ],
      [
        "ĠsvatÃ¡",
        -9.524785188244959
      ],
      [
        "ĠspÃŃ",
        -9.524825276760982
      ],
      [
        "zdÃ¡lo",
        -9.525146775847357
      ],
      [
        "al",
        -9.525951045912443
      ],
      [
        "ĠÅ¾el",
        -9.526094710082646
      ],
      [
        "nÃŃm",
        -9.526104614064845
      ],
      [
        "Ġzcel",
        -9.52627227027288
      ],
      [
        "skÃ½ch",
        -9.526826262639634
      ],
      [
        "proto",
        -9.529895522055206
      ],
      [
        "ĠdÃŃk",
        -9.531146196221815
      ],
      [
        "Ġjazyk",
        -9.532969425158068
      ],
      [
        "ĠdobrÃ©",
        -9.5360574655556
      ],
      [
        "ĠtÄĽÅ¾kÃ©",
        -9.536246189984073
      ],
      [
        "Ġbarv",
        -9.536631503799542
      ],
      [
        "ĠÄįest",
        -9.537079891821818
      ],
      [
        "Ġonen",
        -9.537507805242036
      ],
      [
        "ĠtÄĽÅ¾ko",
        -9.537941000782522
      ],
      [
        "slyÅ¡",
        -9.538276930298606
      ],
      [
        "pÃ¡n",
        -9.539612780738794
      ],
      [
        "ĠtÄĽm",
        -9.542169553390174
      ],
      [
        "ĠjasnÃ½",
        -9.542808217777626
      ],
      [
        "Ġkruh",
        -9.54294094731948
      ],
      [
        "Ġpravdy",
        -9.543164382797485
      ],
      [
        "ĠtÅĻi",
        -9.543689912359692
      ],
      [
        "zpÄĽt",
        -9.544080427685673
      ],
      [
        "ĠzemÃŃ",
        -9.544781905443948
      ],
      [
        "ĠkdoÅ¾",
        -9.544901504915355
      ],
      [
        "ĠchvÃŃ",
        -9.546174231696398
      ],
      [
        "ĠsvÃ½mi",
        -9.54673787441834
      ],
      [
        "ĠslÃ¡vu",
        -9.547870218026997
      ],
      [
        "ĠstÃ¡t",
        -9.547880234972244
      ],
      [
        "sem",
        -9.548650521523065
      ],
      [
        "Ġkterou",
        -9.550390005357777
      ],
      [
        "krev",
        -9.550992689691952
      ],
      [
        "ĠâĢĵâĢľ",
        -9.551578379221692
      ],
      [
        "ĠslyÅ¡ÃŃm",
        -9.551993731042913
      ],
      [
        "juÅ¾",
        -9.55346981969112
      ],
      [
        "ÃŃm",
        -9.554833920733957
      ],
      [
        "ĠmÄĽnÃŃ",
        -9.556259014868047
      ],
      [
        "Ġdomov",
        -9.556343753256717
      ],
      [
        "Ġpaprsk",
        -9.557085043437034
      ],
      [
        "ĠvÅ¡ÃŃm",
        -9.557555207692609
      ],
      [
        "Ġsnil",
        -9.558463474530914
      ],
      [
        "ĠsvÃ¡",
        -9.55919360394218
      ],
      [
        "dej",
        -9.56070287177916
      ],
      [
        "ĠvracÃŃ",
        -9.56131934683615
      ],
      [
        "Ġrte",
        -9.562226184852435
      ],
      [
        "ĠdruhÃ©",
        -9.563607722909737
      ],
      [
        "Ġruch",
        -9.564006772896057
      ],
      [
        "Ġran",
        -9.564099228805313
      ],
      [
        "ĠzÅĻÃŃ",
        -9.564590412245057
      ],
      [
        "svÃ½m",
        -9.565673995963964
      ],
      [
        "krÃ¡ÅĪ",
        -9.566171253205887
      ],
      [
        "ĠvalÃŃ",
        -9.566192961909453
      ],
      [
        "ĠÅ¡umÃŃ",
        -9.566641734262701
      ],
      [
        "ĠtvojÃŃ",
        -9.566960775277812
      ],
      [
        "kolem",
        -9.569624598678459
      ],
      [
        "ĠbouÅĻi",
        -9.570206861737617
      ],
      [
        "Ġvzdor",
        -9.57041182139681
      ],
      [
        "ĠvidÄĽt",
        -9.570665785491649
      ],
      [
        "ĠbohÅ¯",
        -9.571618561183346
      ],
      [
        "ĠsklÃ¡nÃŃ",
        -9.572560581941914
      ],
      [
        "Ġcesta",
        -9.573261213008607
      ],
      [
        "ĠmÅ¾ik",
        -9.574858533668749
      ],
      [
        "kterÃ¡",
        -9.575035133001663
      ],
      [
        "ĠmodrÃ©",
        -9.57618941273088
      ],
      [
        "jÃŃÅ¾",
        -9.576419429054702
      ],
      [
        "ĠptÃ¡c",
        -9.576827882757982
      ],
      [
        "Ġhloub",
        -9.579046661041854
      ],
      [
        "Ġprsa",
        -9.579320978906189
      ],
      [
        "Ġsnu",
        -9.5799584870392
      ],
      [
        "Ġmodlitb",
        -9.583079859581819
      ],
      [
        "ĠsmutnÃ½",
        -9.583365126602377
      ],
      [
        "ĠkrÃ¡sa",
        -9.584011725342343
      ],
      [
        "Ġnitr",
        -9.58478280760485
      ],
      [
        "Ġnim",
        -9.585816590267923
      ],
      [
        "ujÃŃ",
        -9.585872042845342
      ],
      [
        "ĠnadÅ¡enÃŃ",
        -9.586664756031679
      ],
      [
        "ĠcÃŃl",
        -9.587270276385276
      ],
      [
        "Ġkterak",
        -9.587899788824108
      ],
      [
        "ĠmrtvÃ©",
        -9.588551089067327
      ],
      [
        "Ġhluk",
        -9.589719919702251
      ],
      [
        "dÄĽl",
        -9.589853240517133
      ],
      [
        "pojÄı",
        -9.593444036890453
      ],
      [
        "ĠtemnÃ½",
        -9.593476538536036
      ],
      [
        "rÃ¡zem",
        -9.593798981082479
      ],
      [
        "Ġperl",
        -9.59533641986842
      ],
      [
        "Ġtvoji",
        -9.5962106987506
      ],
      [
        "ĠtrÅ¯n",
        -9.596642672865752
      ],
      [
        "ova",
        -9.596838910579844
      ],
      [
        "ĠrudÃ©",
        -9.597285028795767
      ],
      [
        "kdyby",
        -9.597319394570615
      ],
      [
        "...âĢľ",
        -9.597909178508568
      ],
      [
        "nechci",
        -9.598545307746381
      ],
      [
        "ĠjehoÅ¾",
        -9.598700078662784
      ],
      [
        "ĠobjetÃŃ",
        -9.599869676068476
      ],
      [
        "sladkÃ¡",
        -9.599989979568104
      ],
      [
        "Ġblankyt",
        -9.600131898619118
      ],
      [
        "ĠÅĻeÄįÃŃ",
        -9.601901024018353
      ],
      [
        "Ġjednu",
        -9.602146306397437
      ],
      [
        "Ġslza",
        -9.602805164308052
      ],
      [
        "ĠslyÅ¡et",
        -9.603469119671182
      ],
      [
        "dal",
        -9.604115607518974
      ],
      [
        "neboÅ¥",
        -9.60493031009212
      ],
      [
        "vÅ¡ecko",
        -9.605535945532411
      ],
      [
        "jednou",
        -9.6055820601594
      ],
      [
        "ĠnechÅ¥",
        -9.607826976575005
      ],
      [
        "kterÃ©",
        -9.610457334401131
      ],
      [
        "ĠvelkÃ¡",
        -9.610976147356364
      ],
      [
        "Ġhost",
        -9.611865404308993
      ],
      [
        "Ġplane",
        -9.612806120443409
      ],
      [
        "ĠvroucÃŃ",
        -9.613715740124274
      ],
      [
        "ĠmladÃ¡",
        -9.614570284381395
      ],
      [
        "ĠrozkoÅ¡",
        -9.615446832429441
      ],
      [
        "ĠpÅ¯d",
        -9.61583373409644
      ],
      [
        "Å¡li",
        -9.617112684861318
      ],
      [
        "ĠdÃŃvka",
        -9.617391253900154
      ],
      [
        "Ġprapor",
        -9.617519001183345
      ],
      [
        "ĠvÅ¯li",
        -9.617772495581473
      ],
      [
        "Ġmluvil",
        -9.61791021745595
      ],
      [
        "ĠÄįÃŃÅ¡",
        -9.617959223087736
      ],
      [
        "nebo",
        -9.619061571928755
      ],
      [
        "ĠchodÃŃ",
        -9.619239675907581
      ],
      [
        "ĠstÅĻech",
        -9.62329881889102
      ],
      [
        "ĠplÃ¡",
        -9.624214403410328
      ],
      [
        "Ġjizb",
        -9.625381267958286
      ],
      [
        "ĠkaÅ¾do",
        -9.625722653551989
      ],
      [
        "ĠzatÃŃm",
        -9.625724555710013
      ],
      [
        "ĠvÅ¯nÃŃ",
        -9.626069955201439
      ],
      [
        "ĠtÃ¡hne",
        -9.626134637261519
      ],
      [
        "ĠmyÅ¡lenk",
        -9.626248526820179
      ],
      [
        "ĠbrÃ¡n",
        -9.627404499415865
      ],
      [
        "Ġdala",
        -9.629814857151473
      ],
      [
        "ĠÅ¾Ã¡dnÃ½",
        -9.630938736902506
      ],
      [
        "ĠpÅĻiÅ¡la",
        -9.630958849040654
      ],
      [
        "ĠvÅ¯kol",
        -9.632962688780427
      ],
      [
        "Ġchat",
        -9.634804288803018
      ],
      [
        "Ġkyne",
        -9.635934123740359
      ],
      [
        "nÃ¡Å¡",
        -9.636109252356158
      ],
      [
        "ĠzlÃ½",
        -9.636437917790403
      ],
      [
        "ĠptÃ¡Äįe",
        -9.63778175297793
      ],
      [
        "Ġnade",
        -9.638936889400998
      ],
      [
        "ĠÅ¾iv",
        -9.639464230996323
      ],
      [
        "ĠdÄĽv",
        -9.64014375890459
      ],
      [
        "Ġsad",
        -9.641632937132192
      ],
      [
        "jeho",
        -9.642645355176782
      ],
      [
        "Ġjiskr",
        -9.644527138190362
      ],
      [
        "ĠoltÃ¡ÅĻ",
        -9.64455786946898
      ],
      [
        "ĠvÃŃÅ¡",
        -9.644579273101513
      ],
      [
        "ĠsmutnÃ©",
        -9.64545850567789
      ],
      [
        "ĠjejÃŃm",
        -9.64639914378856
      ],
      [
        "ĠzvedÃ¡",
        -9.646816624857747
      ],
      [
        "ĠtmÃ¡",
        -9.646819307402172
      ],
      [
        "Ġpad",
        -9.647746580461401
      ],
      [
        "ĠbÄĽÅ¾ÃŃ",
        -9.648034579403639
      ],
      [
        "vÃŃÅ¡",
        -9.648960976761256
      ],
      [
        "ĠdÅĻÃŃve",
        -9.649241998262966
      ],
      [
        "Ġlidsk",
        -9.649978677009804
      ],
      [
        "ĠÅĻÃŃÅ¡e",
        -9.650083712082747
      ],
      [
        "Ġmraky",
        -9.652671374273623
      ],
      [
        "Ġnevy",
        -9.653144270552742
      ],
      [
        "ĠsmutnÄĽ",
        -9.654217268440132
      ],
      [
        "Ġnepo",
        -9.657627801039972
      ],
      [
        "ĠslyÅ¡",
        -9.659075802350966
      ],
      [
        "ĠlepÅ¡ÃŃ",
        -9.65917917164261
      ],
      [
        "ĠmusÃŃm",
        -9.659390060165727
      ],
      [
        "ĠrudÃ½",
        -9.660891479039847
      ],
      [
        "Ġblaha",
        -9.662440594249816
      ],
      [
        "ĠbudÃŃ",
        -9.66265146997516
      ],
      [
        "Ġkus",
        -9.662856746176331
      ],
      [
        "ĠrÃ¡da",
        -9.664053823521005
      ],
      [
        "Ġklidu",
        -9.66407599409855
      ],
      [
        "ĠzÃ¡zrak",
        -9.664289956597994
      ],
      [
        "ĠkrÃ¡su",
        -9.664708683884243
      ],
      [
        "Ġklam",
        -9.665106047637956
      ],
      [
        "ĠstavÃŃ",
        -9.666331911632046
      ],
      [
        "ĠÅĻeky",
        -9.666416876247489
      ],
      [
        "ĠvrÃ¡til",
        -9.666709521122268
      ],
      [
        "skou",
        -9.666893314230322
      ],
      [
        "ĠkaÅ¾dÃ©m",
        -9.666952740841548
      ],
      [
        "hrudi",
        -9.667465577628358
      ],
      [
        "ĠbÃ½vÃ¡",
        -9.66764620014261
      ],
      [
        "Ġbratr",
        -9.66839466536954
      ],
      [
        "ĠpÅĻÃ¡tel",
        -9.670319756433326
      ],
      [
        "ĠokamÅ¾ik",
        -9.670364726584676
      ],
      [
        "ĠjedinÃ½",
        -9.672159159792074
      ],
      [
        "cos",
        -9.672373541294098
      ],
      [
        "ĠÅ¾enu",
        -9.672528447384789
      ],
      [
        "ĠbledÃ½",
        -9.675428904202729
      ],
      [
        "Ġsami",
        -9.675531335366859
      ],
      [
        "Ġsmysl",
        -9.675578334564007
      ],
      [
        "ĠzÃ¡hy",
        -9.676157738991368
      ],
      [
        "ĠhÅĻbitov",
        -9.676159071268852
      ],
      [
        "ĠvÃ¡Å¡nÃŃ",
        -9.678355328709372
      ],
      [
        "Ġsloup",
        -9.6799159368834
      ],
      [
        "ĠpÅ¯l",
        -9.680362877930548
      ],
      [
        "Ġzlata",
        -9.6810577408072
      ],
      [
        "kÃ¡",
        -9.681902211533636
      ],
      [
        "Ġdny",
        -9.682403550394685
      ],
      [
        "ĠkvÄĽtu",
        -9.683570556344211
      ],
      [
        "novou",
        -9.684868193827857
      ],
      [
        "ĠzÅ¯stal",
        -9.685141028297254
      ],
      [
        "ĠzpÃ¡tk",
        -9.685828373755204
      ],
      [
        "Ġkrajin",
        -9.686545679101805
      ],
      [
        "Ġulic",
        -9.686681621483775
      ],
      [
        "ĠÅĪadra",
        -9.687159147655207
      ],
      [
        "ĠmeÄįe",
        -9.6887253962086
      ],
      [
        "sotva",
        -9.690650803290087
      ],
      [
        "ĠvÅ¾dyÅ¥",
        -9.691537177271627
      ],
      [
        "ĠsmÃŃchu",
        -9.69160442221915
      ],
      [
        "Ġkdos",
        -9.691926778632668
      ],
      [
        "ĠjÃŃm",
        -9.692433878027241
      ],
      [
        "ĠpÃŃsni",
        -9.692441086155991
      ],
      [
        "ĠcÃŃsaÅĻ",
        -9.693210221898184
      ],
      [
        "Ġblud",
        -9.695784173436746
      ],
      [
        "ĠtÅĻetÃŃ",
        -9.696266800675675
      ],
      [
        "ĠtouÅ¾ÃŃ",
        -9.696720487582812
      ],
      [
        "Ġmiloval",
        -9.697175897147718
      ],
      [
        "ĠÅĻÃ¡d",
        -9.697704381099518
      ],
      [
        "bude",
        -9.698910677377631
      ],
      [
        "ĠvonÃŃ",
        -9.700287993442341
      ],
      [
        "ĠslavnÃ½",
        -9.70054688042757
      ],
      [
        "Ġotc",
        -9.701172809957809
      ],
      [
        "f",
        -9.701389628172876
      ],
      [
        "Ġpoklad",
        -9.705981412248239
      ],
      [
        "Ġoka",
        -9.706138654771038
      ],
      [
        "proti",
        -9.706191951246812
      ],
      [
        "Ġjar",
        -9.706504286840252
      ],
      [
        "muÅ¾",
        -9.707523556883254
      ],
      [
        "ĠmrtvÃ½ch",
        -9.707877318008295
      ],
      [
        "ĠobÄĽ",
        -9.708397247366012
      ],
      [
        "ĠtoÅ¥",
        -9.710292827683617
      ],
      [
        "ĠpevnÄĽ",
        -9.711096822985372
      ],
      [
        "ĠbledÃ¡",
        -9.711712052335708
      ],
      [
        "ĠzÃ¡kon",
        -9.711816009201367
      ],
      [
        "ĠdrÃ¡h",
        -9.713032417296384
      ],
      [
        "jdou",
        -9.713201344904993
      ],
      [
        "ĠdÄĽs",
        -9.713787031931325
      ],
      [
        "ĠvÃ½kÅĻik",
        -9.714214296452273
      ],
      [
        "ĠbÃŃlou",
        -9.716935317099079
      ],
      [
        "ĠÄįistÃ©",
        -9.71964323189491
      ],
      [
        "ĠlÃ¡sko",
        -9.720018873654908
      ],
      [
        "ĠdÃ¡vnÃ½",
        -9.720120945062593
      ],
      [
        "Ġsnah",
        -9.720741283528145
      ],
      [
        "ĠnedÃ¡",
        -9.721077762543207
      ],
      [
        "Ġzvyk",
        -9.721880083543237
      ],
      [
        "ĠklesÃ¡",
        -9.721985098199172
      ],
      [
        "Ġpotok",
        -9.722058305243701
      ],
      [
        "ĠlÃŃci",
        -9.72432780656803
      ],
      [
        "Ġhudba",
        -9.72447247700905
      ],
      [
        "ĠvÅ¡ad",
        -9.725228526038453
      ],
      [
        "ĠtoÄįÃŃ",
        -9.726919900513277
      ],
      [
        "Ġkmen",
        -9.727392945011719
      ],
      [
        "kdys",
        -9.729060664606493
      ],
      [
        "Ġhovor",
        -9.730038145885334
      ],
      [
        "ĠvÄįer",
        -9.730650951959472
      ],
      [
        "Ġstal",
        -9.73122291603395
      ],
      [
        "ĠrannÃŃ",
        -9.73361909102482
      ],
      [
        "Ġtys",
        -9.733938266994109
      ],
      [
        "ĠspÃ¡t",
        -9.734894371785847
      ],
      [
        "ĠstÃ¡la",
        -9.735262897333998
      ],
      [
        "le",
        -9.73689519293482
      ],
      [
        "byÅ¥",
        -9.737549156559346
      ],
      [
        "tÃŃ",
        -9.737606762165118
      ],
      [
        "ĠloÅ¾e",
        -9.738425884726158
      ],
      [
        "ĠdlaÅĪ",
        -9.739923014490802
      ],
      [
        "Ġsamot",
        -9.739973166257275
      ],
      [
        "ĠotcÅ¯",
        -9.740712980613928
      ],
      [
        "ĠznÃ¡",
        -9.740913272146155
      ],
      [
        "ĠlesnÃŃ",
        -9.741943054086494
      ],
      [
        "ĠspÃ¡nk",
        -9.743520679812228
      ],
      [
        "ĠmodrÃ½",
        -9.743825089326197
      ],
      [
        "ÃŃme",
        -9.744200007345952
      ],
      [
        "ĠdÃŃval",
        -9.745463274465287
      ],
      [
        "Ġrek",
        -9.746437249702437
      ],
      [
        "ĠnÄĽkdo",
        -9.747427978741452
      ],
      [
        "Ġzbyl",
        -9.747662895194495
      ],
      [
        "tÄĽÅ¾ce",
        -9.748339460904711
      ],
      [
        "dech",
        -9.748370164212751
      ],
      [
        "ÅĻ",
        -9.748925193481739
      ],
      [
        "ÅĻi",
        -9.749184023428928
      ],
      [
        "el",
        -9.749362202675389
      ],
      [
        "Ġdub",
        -9.749888472098327
      ],
      [
        "ĠblÃŃÅ¾ÃŃ",
        -9.750696975528868
      ],
      [
        "jim",
        -9.750760504753146
      ],
      [
        "Ġkorun",
        -9.750866884076302
      ],
      [
        "ĠjakÃ©",
        -9.750993612440492
      ],
      [
        "ĠdivÃ½",
        -9.752375142093332
      ],
      [
        "ĠvÅĻav",
        -9.753007029945607
      ],
      [
        "ĠvÃ½chod",
        -9.753732830483468
      ],
      [
        "slunce",
        -9.753844376571116
      ],
      [
        "Ġvztek",
        -9.754037463944535
      ],
      [
        "ĠnavÅ¾dy",
        -9.755574224990244
      ],
      [
        "ovÃ½ch",
        -9.756622958996306
      ],
      [
        "Ġcen",
        -9.757038424481445
      ],
      [
        "ĠmotÃ½l",
        -9.75822642904253
      ],
      [
        "ĠchtÄĽla",
        -9.758485260016268
      ],
      [
        "ĠtmavÃ½",
        -9.75860371780809
      ],
      [
        "stalo",
        -9.759575403712223
      ],
      [
        "Ġtemn",
        -9.759951753191705
      ],
      [
        "ĠpÅĻede",
        -9.76024102526472
      ],
      [
        "Ġmohu",
        -9.761072559550637
      ],
      [
        "Ġzlat",
        -9.761726266056534
      ],
      [
        "ĠbÄĽd",
        -9.76232474395714
      ],
      [
        "ĠzÃ¡pas",
        -9.762335191539249
      ],
      [
        "Ġtichu",
        -9.762603676256756
      ],
      [
        "ĠhrÅ¯z",
        -9.763293248211891
      ],
      [
        "ĠvisÃŃ",
        -9.76386999799991
      ],
      [
        "zÅĻÃŃm",
        -9.764479564305432
      ],
      [
        "ĠbledÃ©",
        -9.765169636687375
      ],
      [
        "Ġprostor",
        -9.7653135806939
      ],
      [
        "ĠkteÅĻÃŃ",
        -9.766373194962759
      ],
      [
        "ĠhledÄĽl",
        -9.767142991413948
      ],
      [
        "Ġsmutku",
        -9.768378922433072
      ],
      [
        "duÅ¡e",
        -9.771101214563105
      ],
      [
        "mezi",
        -9.7727233989084
      ],
      [
        "tou",
        -9.773069813962191
      ],
      [
        "ĠmalÃ¡",
        -9.77386160790714
      ],
      [
        "ĠtÅĻese",
        -9.774873842053967
      ],
      [
        "cÅ¯",
        -9.774944029001947
      ],
      [
        "Ġbolu",
        -9.775752681181025
      ],
      [
        "ĠpÃ½ch",
        -9.775991428436862
      ],
      [
        "Ġzmizel",
        -9.777028723159548
      ],
      [
        "Ġbudoucnost",
        -9.777216582318346
      ],
      [
        "ĠpÃ¡d",
        -9.777250788680067
      ],
      [
        "st",
        -9.777581065347318
      ],
      [
        "znÃŃ",
        -9.778686477978663
      ],
      [
        "ĠspÄĽl",
        -9.779715461306001
      ],
      [
        "Ġvrah",
        -9.780647043449463
      ],
      [
        "Ġpokoj",
        -9.781258470029677
      ],
      [
        "snem",
        -9.781555578408
      ],
      [
        "Ġskok",
        -9.781963367990215
      ],
      [
        "ĠmrÃ¡z",
        -9.782604410671153
      ],
      [
        "stÃŃn",
        -9.782902498065301
      ],
      [
        "zpÄĽv",
        -9.784205264111316
      ],
      [
        "ĠblÃŃÅ¾e",
        -9.784978047680063
      ],
      [
        "ĠzdravÃŃ",
        -9.786196605749563
      ],
      [
        "nice",
        -9.787375613862842
      ],
      [
        "ĠÅ¡er",
        -9.787977106663456
      ],
      [
        "ĠnemÄĽl",
        -9.788438544197614
      ],
      [
        "dÃŃ",
        -9.789136539405419
      ],
      [
        "ĠtemnÃ©",
        -9.78985437462168
      ],
      [
        "ĠvÅ¡emu",
        -9.790152206677515
      ],
      [
        "tÅĻi",
        -9.792114530816237
      ],
      [
        "ĠÄįistÃ½",
        -9.792272056724244
      ],
      [
        "ĠohnÄĽm",
        -9.793067761863007
      ],
      [
        "sta",
        -9.794146955146921
      ],
      [
        "ĠprÃ¡v",
        -9.794364188828634
      ],
      [
        "ĠvyÅ¡el",
        -9.794769510907848
      ],
      [
        "Ġvelkou",
        -9.795463154217185
      ],
      [
        "ĠvÅ¯ni",
        -9.795947485556916
      ],
      [
        "Ġkalich",
        -9.796528043177041
      ],
      [
        "Ġpekl",
        -9.796689172288264
      ],
      [
        "Ġchvat",
        -9.796700517831002
      ],
      [
        "Ġkonce",
        -9.796785959230917
      ],
      [
        "Ġdalek",
        -9.798185749707688
      ],
      [
        "ĠslyÅ¡ÃŃ",
        -9.798835171609749
      ],
      [
        "ĠvrÃ¡tÃŃ",
        -9.799165900156336
      ],
      [
        "ĠdÅĻÃŃmÃ¡",
        -9.799850489909852
      ],
      [
        "Ġdvou",
        -9.800174011264213
      ],
      [
        "ĠztrÃ¡cÃŃ",
        -9.801614701249132
      ],
      [
        "Ġchvilk",
        -9.801920286171164
      ],
      [
        "ĠÅ¡la",
        -9.802494805568784
      ],
      [
        "Ġbolesti",
        -9.803154773833938
      ],
      [
        "nÃ¡s",
        -9.804901694203448
      ],
      [
        "Ġprahu",
        -9.806496496561984
      ],
      [
        "ĠohnÄĽ",
        -9.807719726543784
      ],
      [
        "Ġprah",
        -9.80819048349277
      ],
      [
        "ĠvÃŃno",
        -9.808459626228407
      ],
      [
        "sen",
        -9.808788431745585
      ],
      [
        "vÅ¡ech",
        -9.810660257516592
      ],
      [
        "ĠkÅĻÃŃdl",
        -9.812057018858177
      ],
      [
        "nÃ©m",
        -9.813178168648776
      ],
      [
        "jÃŃmÅ¾",
        -9.81348649879462
      ],
      [
        "Ġmusil",
        -9.814691455858455
      ],
      [
        "Ġnech",
        -9.816948714033938
      ],
      [
        "Ġdarmo",
        -9.81724092007136
      ],
      [
        "Ġsoumrak",
        -9.817674260316842
      ],
      [
        "ĠdÃ½Å¡e",
        -9.817731369600512
      ],
      [
        "stÃ¡l",
        -9.817760449309787
      ],
      [
        "ĠtichÃ¡",
        -9.817772467112796
      ],
      [
        "Ġpodzim",
        -9.818349136128711
      ],
      [
        "Ġnechce",
        -9.818930309589309
      ],
      [
        "ĠvÃŃtÄĽz",
        -9.818978179739188
      ],
      [
        "ĠbouÅĻ",
        -9.819639357202057
      ],
      [
        "Ġmatko",
        -9.819797179967122
      ],
      [
        "ĠzÃŃrÃ¡",
        -9.821300360429742
      ],
      [
        "ĠknÄĽz",
        -9.821763857311701
      ],
      [
        "ĠdlanÃŃ",
        -9.822615950576349
      ],
      [
        "zlatem",
        -9.823505148214812
      ],
      [
        "osti",
        -9.824019819536158
      ],
      [
        "Ġmdlob",
        -9.824521188650753
      ],
      [
        "Ġvstal",
        -9.82535587816743
      ],
      [
        "ĠnÄĽmÃ½",
        -9.826750754905575
      ],
      [
        "ĠsvÄĽtÅ¯",
        -9.827785780853329
      ],
      [
        "kdoÅ¾",
        -9.828118838778128
      ],
      [
        "hoj",
        -9.829933916007734
      ],
      [
        "jdi",
        -9.830227061115764
      ],
      [
        "ĠrytÃŃÅĻ",
        -9.83150110190301
      ],
      [
        "ĠpatÅĻÃŃ",
        -9.831905949076852
      ],
      [
        "Ġpramen",
        -9.832407160514514
      ],
      [
        "koneÄįnÄĽ",
        -9.832429367735713
      ],
      [
        "ĠlÃŃbÃ¡",
        -9.833059121349164
      ],
      [
        "Ġpozdrav",
        -9.833850663641636
      ],
      [
        "Ġstane",
        -9.834045872394599
      ],
      [
        "Ġskryt",
        -9.834318566168852
      ],
      [
        "ĠÅ¾havÃ½",
        -9.835848200445314
      ],
      [
        "Ġbran",
        -9.836838931649549
      ],
      [
        "Ġminulost",
        -9.837062441644235
      ],
      [
        "ĠdveÅĻÃŃ",
        -9.837367813643123
      ],
      [
        "Ġhlasy",
        -9.839403790291284
      ],
      [
        "Ġsyna",
        -9.839861764207406
      ],
      [
        "ĠknÃŃÅ¾e",
        -9.839869859653913
      ],
      [
        "dÅĻÃŃv",
        -9.84011174012685
      ],
      [
        "Ġlze",
        -9.840324666627433
      ],
      [
        "ĠnovÃ¡",
        -9.841181394385785
      ],
      [
        "ĠsplÃ½vÃ¡",
        -9.842662353988647
      ],
      [
        "Ġjan",
        -9.842917653303498
      ],
      [
        "Ġpoesi",
        -9.843956420181522
      ],
      [
        "ĠtÃ³n",
        -9.84455223410205
      ],
      [
        "ĠvÄĽÅĻ",
        -9.844619505144724
      ],
      [
        "Ġnebylo",
        -9.84498176885093
      ],
      [
        "ĠcitÅ¯",
        -9.846641268873235
      ],
      [
        "Ġpoznal",
        -9.846893043842423
      ],
      [
        "ĠchÃ½lÃŃ",
        -9.8470317447943
      ],
      [
        "ĠÄįekal",
        -9.847205341726852
      ],
      [
        "ĠsnÃŃ",
        -9.84738218340495
      ],
      [
        "Ġtouh",
        -9.847815934145812
      ],
      [
        "ĠÅĪadr",
        -9.848533800281514
      ],
      [
        "ĠtmavÃ©",
        -9.848964523953903
      ],
      [
        "ĠpÄĽt",
        -9.849295845024333
      ],
      [
        "ĠbolÃŃ",
        -9.84958163145393
      ],
      [
        "Ġtuto",
        -9.849608013225913
      ],
      [
        "ĠmyÅ¡lÃ©nk",
        -9.85080127030507
      ],
      [
        "ĠÅĻas",
        -9.851757815913725
      ],
      [
        "ĠspÄĽch",
        -9.851857834343278
      ],
      [
        "ĠdivnÃ½",
        -9.851858849785685
      ],
      [
        "Ġzlatou",
        -9.854053107783194
      ],
      [
        "ĠÅ¾ene",
        -9.854260540147282
      ],
      [
        "ĠstÃŃnÅ¯",
        -9.85440408297466
      ],
      [
        "Ġtich",
        -9.854532202307048
      ],
      [
        "nÃ¡ch",
        -9.855361930485202
      ],
      [
        "Ġpravo",
        -9.857291419408067
      ],
      [
        "ĠrokÅ¯",
        -9.857411933476323
      ],
      [
        "ĠÅ¡li",
        -9.858682532895479
      ],
      [
        "ĠÅ¾ivÃ½",
        -9.859324199447933
      ],
      [
        "ĠpravÃ½",
        -9.85959198189174
      ],
      [
        "iÅ¥",
        -9.860891636685293
      ],
      [
        "Ġbytost",
        -9.861037504018583
      ],
      [
        "ĠvÃ¡Å¡nÄĽ",
        -9.86149591928227
      ],
      [
        "ĠsmÄĽje",
        -9.861865448573013
      ],
      [
        "Ġkmet",
        -9.863612574955269
      ],
      [
        "ĠvÃ½Å¡i",
        -9.863646715370901
      ],
      [
        "ĠhrÅ¯zou",
        -9.864007489538723
      ],
      [
        "Ġvine",
        -9.864683452254997
      ],
      [
        "Å¾ivot",
        -9.864811297856253
      ],
      [
        "Ġkletb",
        -9.86544149738397
      ],
      [
        "Ġdali",
        -9.865585675732369
      ],
      [
        "ĠnÃ¡ruÄįÃŃ",
        -9.866596740956032
      ],
      [
        "ĠdÄĽcko",
        -9.86704540722754
      ],
      [
        "bylo",
        -9.867220600945988
      ],
      [
        "ĠÅĪadre",
        -9.86741434532468
      ],
      [
        "ĠlÃŃcÃŃ",
        -9.868014106917268
      ],
      [
        "ĠhorÃ¡",
        -9.868196735630924
      ],
      [
        "?!",
        -9.869624393859755
      ],
      [
        "ĠdÃŃtk",
        -9.870274739752144
      ],
      [
        "ĠpÃŃt",
        -9.870510640161715
      ],
      [
        "nÄĽjÅ¡ÃŃ",
        -9.870975554051311
      ],
      [
        "ra",
        -9.873997648349883
      ],
      [
        "ĠtisÃŃce",
        -9.87457428279681
      ],
      [
        "Ġhraje",
        -9.874699913157349
      ],
      [
        "Ġluny",
        -9.875593829606466
      ],
      [
        "Ġdoba",
        -9.877220258786522
      ],
      [
        "tvÃ¡ÅĻ",
        -9.877346729473242
      ],
      [
        "Ġpra",
        -9.878037871818265
      ],
      [
        "smrt",
        -9.878420166374688
      ],
      [
        "ĠotÄįe",
        -9.878879348020487
      ],
      [
        "Ġoken",
        -9.878926177465338
      ],
      [
        "ĠbÃ½val",
        -9.879380706150455
      ],
      [
        "Ġpadl",
        -9.881185569582186
      ],
      [
        "ĠvÅ¯dce",
        -9.882035256539464
      ],
      [
        "Ġsvatou",
        -9.88271459108139
      ],
      [
        "Ġchleba",
        -9.88286364088609
      ],
      [
        "ĠpÄĽl",
        -9.884123762665496
      ],
      [
        "Ġmost",
        -9.884410893453536
      ],
      [
        "ĠpÅĻÃŃval",
        -9.88454444331045
      ],
      [
        "neÅ¾li",
        -9.885420870549488
      ],
      [
        "ĠskrÃ¡nÃŃ",
        -9.885958225101522
      ],
      [
        "ĠsnÄĽhu",
        -9.885963454886728
      ],
      [
        "rÃ¡ny",
        -9.887066089814525
      ],
      [
        "Ġzim",
        -9.888668683212837
      ],
      [
        "ĠÅ¾Ã¡dnÃ©",
        -9.889021114871696
      ],
      [
        "ĠdÄĽck",
        -9.889802544573842
      ],
      [
        "Ġpodle",
        -9.890136125585904
      ],
      [
        "ĠÄįernÃ¡",
        -9.890301344949577
      ],
      [
        "Ġnedo",
        -9.890713728196053
      ],
      [
        "ĠprosÃŃm",
        -9.891682227940876
      ],
      [
        "ĠsmÄĽl",
        -9.891957134502373
      ],
      [
        "Ġtato",
        -9.892642455515869
      ],
      [
        "ĠpÅĻÃŃtel",
        -9.89290222616723
      ],
      [
        "ĠvaÅ¡ÃŃ",
        -9.893478112780414
      ],
      [
        "Ġhledal",
        -9.894341091580392
      ],
      [
        "ĠdÄĽje",
        -9.894414849506116
      ],
      [
        "ĠduchÅ¯",
        -9.89464799318447
      ],
      [
        "ĠkrÃ¡Äįel",
        -9.895342204772536
      ],
      [
        "Ġpadne",
        -9.896182476113037
      ],
      [
        "vÃŃ",
        -9.896343209442698
      ],
      [
        "ĠdÃŃvÄįÃŃ",
        -9.896446525858765
      ],
      [
        "zÅĻel",
        -9.896906190088568
      ],
      [
        "ĠpamÄĽt",
        -9.897368136951483
      ],
      [
        "Ġkrvi",
        -9.899352506302744
      ],
      [
        "ĠpÃŃsk",
        -9.900989450957928
      ],
      [
        "ĠstaÄįÃŃ",
        -9.901111211828791
      ],
      [
        "kÅ¯",
        -9.90124897544309
      ],
      [
        "Ġhrud",
        -9.90176978554089
      ],
      [
        "ĠpohÃ¡r",
        -9.902664301702597
      ],
      [
        "©",
        -9.902668738807154
      ],
      [
        "ĠmyslÃŃm",
        -9.902756298090598
      ],
      [
        "Ġduh",
        -9.90395005175692
      ],
      [
        "ĠvÄĽrnÃ½",
        -9.904064584315144
      ],
      [
        "ĠhalÃŃ",
        -9.90414940489471
      ],
      [
        "let",
        -9.904219762979759
      ],
      [
        "Ġvesn",
        -9.904984465654294
      ],
      [
        "mÄĽ",
        -9.90516693228934
      ],
      [
        "ĠloÄı",
        -9.905504618497858
      ],
      [
        "ĠvÄĽtvÃŃ",
        -9.905916417017105
      ],
      [
        "ĠvÄĽne",
        -9.905981777118074
      ],
      [
        "Ġlehc",
        -9.906719941659794
      ],
      [
        "Ġsladkou",
        -9.907511047925986
      ],
      [
        "Ġjsa",
        -9.90775050897583
      ],
      [
        "Ġjih",
        -9.907999062805334
      ],
      [
        "Ġrej",
        -9.908073308078375
      ],
      [
        "ĠtÅĻpyt",
        -9.910044760618023
      ],
      [
        "Ġroh",
        -9.91069866077291
      ],
      [
        "ĠmocnÃ½",
        -9.911111838974936
      ],
      [
        "ĠmÃ¡te",
        -9.912986945786923
      ],
      [
        "Ġtma",
        -9.913597696914373
      ],
      [
        "ĠpÅĻÃ¡nÃŃ",
        -9.91474926163833
      ],
      [
        "ĠÅ¡ÃŃj",
        -9.91530679020547
      ],
      [
        "ĠsmÄĽle",
        -9.916139847047496
      ],
      [
        "zÅĻÃŃ",
        -9.917186012508438
      ],
      [
        "dva",
        -9.917716803399536
      ],
      [
        "ĠpÃ¡lÃŃ",
        -9.917943452749213
      ],
      [
        "Ġpouta",
        -9.918431134811625
      ],
      [
        "Ġlad",
        -9.919080164048733
      ],
      [
        "ĠvelikÃ½",
        -9.919819638258906
      ],
      [
        "syn",
        -9.920583552707535
      ],
      [
        "ĠÄįasÅ¯",
        -9.922272886467635
      ],
      [
        "zem",
        -9.922394838673164
      ],
      [
        "ĠumÄĽnÃŃ",
        -9.92289380743926
      ],
      [
        "Ġvolal",
        -9.923294984166237
      ],
      [
        "Ġzub",
        -9.924343764819728
      ],
      [
        "ĠÄįase",
        -9.925913522172635
      ],
      [
        "ĠmocÃŃ",
        -9.926402536385169
      ],
      [
        "Ġvane",
        -9.926911570794093
      ],
      [
        "ĠstÅĻel",
        -9.927226470270476
      ],
      [
        "Ġhroby",
        -9.927340895971628
      ],
      [
        "ĠtemnÄĽ",
        -9.928314951746593
      ],
      [
        "Ġvin",
        -9.928597147373178
      ],
      [
        "ĠhuÄįÃŃ",
        -9.928678740707014
      ],
      [
        "ĠtajÃŃ",
        -9.929784425794184
      ],
      [
        "bys",
        -9.93100146675541
      ],
      [
        "ĠÅ¡edÃ½",
        -9.931011308468324
      ],
      [
        "Ġode",
        -9.93195637631802
      ],
      [
        "Ġskvost",
        -9.932446201207384
      ],
      [
        "ĠbratÅĻi",
        -9.933342483588468
      ],
      [
        "Ġvrch",
        -9.93357177307799
      ],
      [
        "ĠvÄĽÅ¾e",
        -9.93565095719209
      ],
      [
        "lÃŃ",
        -9.936086496214095
      ],
      [
        "Ġkristu",
        -9.936401029896256
      ],
      [
        "ĠzlÃ©",
        -9.937114712903934
      ],
      [
        "Ġmrtvol",
        -9.937505250995516
      ],
      [
        "Ġsoucit",
        -9.937801562178045
      ],
      [
        "jakÃ½",
        -9.938511311530963
      ],
      [
        "Ġvojsk",
        -9.938668543051865
      ],
      [
        "ĠnaÅ¡el",
        -9.939147141783234
      ],
      [
        "ĠcÃŃle",
        -9.939218054739303
      ],
      [
        "ĠnemÃ¡m",
        -9.940195209991277
      ],
      [
        "Ġhvozd",
        -9.940550707887663
      ],
      [
        "Ġvolnost",
        -9.940772296500514
      ],
      [
        "div",
        -9.941601972764563
      ],
      [
        "ĠvÅ¡ÃŃ",
        -9.94188881638101
      ],
      [
        "ĠchudÃ©",
        -9.943308141173372
      ],
      [
        "boÅ¾e",
        -9.943876909768061
      ],
      [
        "Ġkryje",
        -9.944796513299735
      ],
      [
        "er",
        -9.94700328750883
      ],
      [
        "ĠtÃŃÅ¾ÃŃ",
        -9.947080394390959
      ],
      [
        "Ġhad",
        -9.947789987850557
      ],
      [
        "ĠzachvÄĽl",
        -9.948656823360432
      ],
      [
        "Ġcosi",
        -9.948801136096106
      ],
      [
        "ĠmuÅ¾Å¯",
        -9.949958382957437
      ],
      [
        "ĠÅ¾enou",
        -9.950560890565352
      ],
      [
        "Ġslovy",
        -9.951112406553406
      ],
      [
        "ĠkÅĻÃŃÅ¾e",
        -9.954179030647065
      ],
      [
        "ĠdlanÄĽ",
        -9.954290862569684
      ],
      [
        "latÃ¡",
        -9.955031049847591
      ],
      [
        "Ġmilost",
        -9.955286949362833
      ],
      [
        "ĠptaÄįÃŃ",
        -9.955660179730053
      ],
      [
        "Ġmatc",
        -9.955716379732916
      ],
      [
        "ĠprÅ¯vod",
        -9.95597446647243
      ],
      [
        "kraj",
        -9.957805582541598
      ],
      [
        "Ġmilosti",
        -9.959530270316508
      ],
      [
        "chce",
        -9.959715080395492
      ],
      [
        "ÅĻÃŃ",
        -9.959947822621489
      ],
      [
        "Ġmluvit",
        -9.960645390854381
      ],
      [
        "ĠzÃ¡voj",
        -9.961764692858068
      ],
      [
        "ĠsedÄĽl",
        -9.961913394780538
      ],
      [
        "Ġtvor",
        -9.961993801724146
      ],
      [
        "Ġstarou",
        -9.963487818134752
      ],
      [
        "ĠlÃ¡n",
        -9.963968527381718
      ],
      [
        "ĠchladnÃ©",
        -9.964160543256668
      ],
      [
        "Ġbral",
        -9.964224653035007
      ],
      [
        "ĠjichÅ¾",
        -9.964367393516753
      ],
      [
        "ĠvlasÅ¯",
        -9.96439138302199
      ],
      [
        "Ġvesele",
        -9.965598004486703
      ],
      [
        "ĠstÅĻÃŃbr",
        -9.968265274891536
      ],
      [
        "Ġstarost",
        -9.968959649092502
      ],
      [
        "ĠlÃŃbal",
        -9.969581887669124
      ],
      [
        "ĠmlÄįk",
        -9.969680295173692
      ],
      [
        "ĠpÃ¡na",
        -9.969730271201477
      ],
      [
        "ĠstÃ¡ÅĻÃŃ",
        -9.969835403062104
      ],
      [
        "ĠpÄĽn",
        -9.969937553098706
      ],
      [
        "ĠrodÃŃ",
        -9.970865624875177
      ],
      [
        "ĠdÄĽvÄįe",
        -9.970931199727634
      ],
      [
        "Ġzor",
        -9.971752446818858
      ],
      [
        "kdes",
        -9.972059042559367
      ],
      [
        "Å¡ÃŃ",
        -9.972779807723237
      ],
      [
        "ĠvolnÄĽ",
        -9.976149442332765
      ],
      [
        "Ġsna",
        -9.976407575366661
      ],
      [
        "Ġdni",
        -9.976907260015295
      ],
      [
        "ĠhrdÄĽ",
        -9.977032558839245
      ],
      [
        "poslednÃŃ",
        -9.977181491571255
      ],
      [
        "ĠrÅ¯Å¾i",
        -9.97753173444504
      ],
      [
        "jdeÅ¡",
        -9.977971036224943
      ],
      [
        "ĠkÅĻÃŃdel",
        -9.978317392193883
      ],
      [
        "Ġpouti",
        -9.978341511234502
      ],
      [
        "bÃ½t",
        -9.979749896090752
      ],
      [
        "ĠbloudÃŃ",
        -9.980032873345152
      ],
      [
        "Ġramen",
        -9.980094661239377
      ],
      [
        "Ġvsi",
        -9.980457151553688
      ],
      [
        "takÃ©",
        -9.981042521067398
      ],
      [
        "ovou",
        -9.981204993409484
      ],
      [
        "ĠjevÃŃ",
        -9.981238752367432
      ],
      [
        "ĠÅĻÃŃtÃŃ",
        -9.981483517625218
      ],
      [
        "Ġano",
        -9.981497771304834
      ],
      [
        "ĠnadÄĽjÃŃ",
        -9.981567365790752
      ],
      [
        "Ġkrov",
        -9.981788836526274
      ],
      [
        "ĠjÃŃÅ¾",
        -9.982699207275196
      ],
      [
        "Ġkouzlo",
        -9.982840076819635
      ],
      [
        "chom",
        -9.98353301018648
      ],
      [
        "Ġklas",
        -9.983767102939852
      ],
      [
        "ĠchladnÃ½",
        -9.98436487258728
      ],
      [
        "ĠmnohÃ©",
        -9.984514999042975
      ],
      [
        "ĠpÅ¯lnoc",
        -9.98521735686796
      ],
      [
        "Ġbalvan",
        -9.985492779545233
      ],
      [
        "ĠprÃ¡vo",
        -9.987123329634944
      ],
      [
        "ĠÄįert",
        -9.988077015828175
      ],
      [
        "Ġplna",
        -9.988230731413198
      ],
      [
        "lÃ¡ska",
        -9.988857563366686
      ],
      [
        "ĠjasnÄĽ",
        -9.988923033558688
      ],
      [
        "ĠnadÄĽj",
        -9.990118609165872
      ],
      [
        "ĠpÅĻedu",
        -9.991409480334761
      ],
      [
        "Ġroze",
        -9.991724330567735
      ],
      [
        "Ġhnal",
        -9.99197989154823
      ],
      [
        "Ġpann",
        -9.992872609122342
      ],
      [
        "Ġbudem",
        -9.994169975674318
      ],
      [
        "jichÅ¾",
        -9.994604435861861
      ],
      [
        "dÃ¡",
        -9.99497579176382
      ],
      [
        "ĠÅ¡edÃ©",
        -9.995580506921602
      ],
      [
        "ĠjÃ¡sot",
        -9.995910724173505
      ],
      [
        "ĠdÃ½chÃ¡",
        -9.997255806114568
      ],
      [
        "ĠtajemstvÃŃ",
        -9.998115444824268
      ],
      [
        "ĠÅ¡ÃŃp",
        -9.99863566216142
      ],
      [
        "Ġprudce",
        -9.99871794403846
      ],
      [
        "Ġpil",
        -9.998881562814391
      ],
      [
        "ĠmlÄįÃŃ",
        -10.000061326547456
      ],
      [
        "Ġjal",
        -10.000113542280967
      ],
      [
        "Ġnikde",
        -10.00112759408622
      ],
      [
        "touze",
        -10.002437995493654
      ],
      [
        "Ġmoudrost",
        -10.003102177507198
      ],
      [
        "ĠbyÅ¥",
        -10.003251165946143
      ],
      [
        "Ġlodi",
        -10.003830684444726
      ],
      [
        "Ġrov",
        -10.003907791995335
      ],
      [
        "ĠvdÄĽk",
        -10.00413637274177
      ],
      [
        "ĠslavnÃ©",
        -10.004642081036181
      ],
      [
        "Ġb",
        -10.004781943748284
      ],
      [
        "Ãº",
        -10.005182333841685
      ],
      [
        "Ġprosb",
        -10.005339511185475
      ],
      [
        "ano",
        -10.005696744058827
      ],
      [
        "ĠtuÅ¡ÃŃ",
        -10.005892647222478
      ],
      [
        "?...",
        -10.006213289822307
      ],
      [
        "ĠÅĻekla",
        -10.007007870506971
      ],
      [
        "ĠpravÃ©",
        -10.00725830338744
      ],
      [
        "ĠpryÄį",
        -10.008124873741867
      ],
      [
        "Ġvlna",
        -10.008709121590076
      ],
      [
        "Ġkamen",
        -10.008774067198644
      ],
      [
        "ĠvzplÃ¡l",
        -10.009065933884678
      ],
      [
        "Ġhlahol",
        -10.009068021028625
      ],
      [
        "ĠÅ¡eru",
        -10.0093814990814
      ],
      [
        "ĠradostÃŃ",
        -10.010730561463902
      ],
      [
        "Ġznal",
        -10.010870714028798
      ],
      [
        "ĠplÃ¡nÃŃ",
        -10.011057202357343
      ],
      [
        "ĠdivnÃ©",
        -10.011345506982927
      ],
      [
        "ĠvonnÃ½",
        -10.011557763671536
      ],
      [
        "Ġjakby",
        -10.012773708025433
      ],
      [
        "ĠmraÄįn",
        -10.013261746284346
      ],
      [
        "Ġtmou",
        -10.013753541199279
      ],
      [
        "ĠpohÃ¡dk",
        -10.015370587298484
      ],
      [
        "ĠskrÃ½vÃ¡",
        -10.01541416468195
      ],
      [
        "Ġmnoh",
        -10.01586408677926
      ],
      [
        "ĠhnÄĽvu",
        -10.017079861936264
      ],
      [
        "ĠjinÃŃ",
        -10.017742443449787
      ],
      [
        "jste",
        -10.0181530783338
      ],
      [
        "ĠsvÃŃrÃ¡",
        -10.018378854112392
      ],
      [
        "Å¡e",
        -10.018674400885743
      ],
      [
        "prostÅĻed",
        -10.019007186976953
      ],
      [
        "ĠdeÅ¡tÄĽ",
        -10.019023235552286
      ],
      [
        "Ġvoda",
        -10.019424121882542
      ],
      [
        "ĠhrÃ¡t",
        -10.019940860035259
      ],
      [
        "ĠnÄĽkde",
        -10.020341598627594
      ],
      [
        "g",
        -10.020630948557525
      ],
      [
        "ovÃ¡",
        -10.021597789619463
      ],
      [
        "lÃŃp",
        -10.022124636135556
      ],
      [
        "ĠvÄįel",
        -10.02291139916358
      ],
      [
        "Ġslib",
        -10.023017033407214
      ],
      [
        "oÄįi",
        -10.023047302641562
      ],
      [
        "ĠvaÅ¡ich",
        -10.023382069055263
      ],
      [
        "nost",
        -10.024427240669404
      ],
      [
        "ĠleÅ¾el",
        -10.025125766283027
      ],
      [
        "ĠspÃ¡s",
        -10.025176748948091
      ],
      [
        "nout",
        -10.026168016138795
      ],
      [
        "Ġsto",
        -10.02623179594093
      ],
      [
        "ĠpojÄı",
        -10.026280337340841
      ],
      [
        "Ġposled",
        -10.026827457297294
      ],
      [
        "ĠtÃŃh",
        -10.027182237561053
      ],
      [
        "ĠobÄĽÅ¥",
        -10.027803996173308
      ],
      [
        "Ġztratil",
        -10.028774706802727
      ],
      [
        "Ġpsal",
        -10.029415124775166
      ],
      [
        "ĠsmrtÃŃ",
        -10.029578694849846
      ],
      [
        "Ġjezer",
        -10.030195983832353
      ],
      [
        "Ġstolu",
        -10.030471950505962
      ],
      [
        "ĠpoÅ¾ehnÃ¡nÃŃ",
        -10.030670046819086
      ],
      [
        "Ġskoro",
        -10.030870766643007
      ],
      [
        "mÃŃr",
        -10.032555612253182
      ],
      [
        "Ġhyne",
        -10.032684432296701
      ],
      [
        "Ġmistr",
        -10.032687166872146
      ],
      [
        "nejkrÃ¡snÄĽjÅ¡ÃŃ",
        -10.033342813826359
      ],
      [
        "ĠchovÃ¡",
        -10.03457567203917
      ],
      [
        "ĠsnÄĽh",
        -10.036296030961793
      ],
      [
        "Ġbarev",
        -10.03660381569642
      ],
      [
        "jakby",
        -10.036816264671224
      ],
      [
        "ĠÅ¾ivÃ©",
        -10.03689094398933
      ],
      [
        "ĠslzÃŃ",
        -10.037247782696213
      ],
      [
        "ĠkÃ½vÃ¡",
        -10.037502064643089
      ],
      [
        "Ġjed",
        -10.038225394472676
      ],
      [
        "ĠprÃ¡va",
        -10.038432730780002
      ],
      [
        "smutnÃ¡",
        -10.03893427951953
      ],
      [
        "ĠprÃ¡zdno",
        -10.039043218705686
      ],
      [
        "ĠÃºdolÃŃ",
        -10.039632288310148
      ],
      [
        "ĠjinÃ½m",
        -10.040872805913095
      ],
      [
        "ĠdlouhÃ¡",
        -10.040994699267486
      ],
      [
        "mÃ¡Å¡",
        -10.041036491284025
      ],
      [
        "ĠÅ¡ero",
        -10.041297197839086
      ],
      [
        "ĠvstÃ¡vÃ¡",
        -10.042016416179784
      ],
      [
        "ĠtvoÅĻÃŃ",
        -10.042140156014995
      ],
      [
        "ĠchlÃ©b",
        -10.042334466871223
      ],
      [
        "ĠzpÄĽvu",
        -10.042784242550354
      ],
      [
        "Ġzlost",
        -10.043722873496714
      ],
      [
        "ĠzrakÅ¯",
        -10.043744568340593
      ],
      [
        "ĠsamÃ©",
        -10.043840121898343
      ],
      [
        "ĠpÄĽknÄĽ",
        -10.046131177267341
      ],
      [
        "ĠptÃ¡kÅ¯",
        -10.046808673861655
      ],
      [
        "Ġsilo",
        -10.046857063092222
      ],
      [
        "Ġdol",
        -10.04695510422556
      ],
      [
        "ĠvelkÃ½m",
        -10.047140687094807
      ],
      [
        "Ġjitro",
        -10.047373145704352
      ],
      [
        "ĠÅ¾ivotem",
        -10.049465841043803
      ],
      [
        "Å¡tÃŃ",
        -10.049767357836771
      ],
      [
        "ĠjemnÄĽ",
        -10.04982819723402
      ],
      [
        "ĠvÄĽnce",
        -10.049921253976137
      ],
      [
        "Ġskryl",
        -10.049932746640952
      ],
      [
        "ĠvÄĽÄįnÃ¡",
        -10.049936262910638
      ],
      [
        "vÃ©",
        -10.049997168642138
      ],
      [
        "ÄįlovÄĽk",
        -10.05009894011868
      ],
      [
        "Ġvesel",
        -10.050433665174873
      ],
      [
        "Ġvnad",
        -10.050449950085778
      ],
      [
        "ĠdÄĽjin",
        -10.050583353335263
      ],
      [
        "Ġstanul",
        -10.050964767514849
      ],
      [
        "ĠveÄįera",
        -10.051597137088805
      ],
      [
        "Ġkrista",
        -10.052618330402494
      ],
      [
        "Ġbudi",
        -10.052912667331265
      ],
      [
        "ĠÄįemu",
        -10.05350210722737
      ],
      [
        "Ġpopel",
        -10.053773467539001
      ],
      [
        "ĠchudÃ½",
        -10.054127732285991
      ],
      [
        "Ġvelmi",
        -10.054611006723492
      ],
      [
        "kÃ½",
        -10.054633486173666
      ],
      [
        "Ġlev",
        -10.054966793851165
      ],
      [
        "âĢĺ",
        -10.055262721226807
      ],
      [
        "ĠzvÄĽst",
        -10.055340109675068
      ],
      [
        "jeden",
        -10.055439455348578
      ],
      [
        "ĠblÃŃzk",
        -10.0563184259169
      ],
      [
        "Ġpes",
        -10.056746136362605
      ],
      [
        "Ġzdi",
        -10.05706271148739
      ],
      [
        "Ġpark",
        -10.057351775581022
      ],
      [
        "Ġlamp",
        -10.058089717925672
      ],
      [
        "Ġkvete",
        -10.058675655083213
      ],
      [
        "ĠpracÃŃ",
        -10.059022255141837
      ],
      [
        "ĠÅ¡kol",
        -10.059505454528605
      ],
      [
        "Ġdaleko",
        -10.060843172501864
      ],
      [
        "dost",
        -10.061093634512327
      ],
      [
        "ĠrodnÃ©",
        -10.061632566810182
      ],
      [
        "ĠtÄĽchto",
        -10.064327173545403
      ],
      [
        "Ġzdroj",
        -10.064696356535961
      ],
      [
        "Ġnoha",
        -10.064710880719478
      ],
      [
        "Ġrosy",
        -10.06492551525239
      ],
      [
        "ĠhrÅ¯zy",
        -10.064972025158252
      ],
      [
        "Ġhrozn",
        -10.065356919937958
      ],
      [
        "ĠvesmÃŃr",
        -10.065445817495952
      ],
      [
        "kterak",
        -10.066184713167814
      ],
      [
        "ĠloÅ¾i",
        -10.066567797882957
      ],
      [
        "ĠkrÃ¡sou",
        -10.066637564621992
      ],
      [
        "ĠkoÅĻen",
        -10.066758329172284
      ],
      [
        "Ġminul",
        -10.067370314148805
      ],
      [
        "Ġnemoh",
        -10.068240937012414
      ],
      [
        "ĠdobrÃ¡",
        -10.068258879451129
      ],
      [
        "dvÄĽ",
        -10.06840476472242
      ],
      [
        "Ġkomu",
        -10.068441435871641
      ],
      [
        "Ġkrb",
        -10.068460460824502
      ],
      [
        "Ġkles",
        -10.07008538079841
      ],
      [
        "ĠbÄĽh",
        -10.070739454523137
      ],
      [
        "Ġdobu",
        -10.070742951070454
      ],
      [
        "ĠradÄĽj",
        -10.070903532342545
      ],
      [
        "ĠvÄĽtve",
        -10.070926681672427
      ],
      [
        "ĠstÃ¡ti",
        -10.071248194085879
      ],
      [
        "ĠspÃŃcÃŃ",
        -10.071578802671155
      ],
      [
        "ĠsluÅ¾b",
        -10.071690824998942
      ],
      [
        "ĠnechtÄĽl",
        -10.07271431432314
      ],
      [
        "Ġnemoc",
        -10.073913023976626
      ],
      [
        "ĠdennÃŃ",
        -10.074605027352792
      ],
      [
        "Äı",
        -10.074768942788818
      ],
      [
        "ĠvÃŃtÄĽzstvÃŃ",
        -10.074874805482137
      ],
      [
        "ĠvÄĽÄįn",
        -10.07526903069969
      ],
      [
        "ĠdÃ¡n",
        -10.07568542474487
      ],
      [
        "nynÃŃ",
        -10.07589065911979
      ],
      [
        "ĠnaÄį",
        -10.076664098149346
      ],
      [
        "ĠjakÃ¡",
        -10.077150872446435
      ],
      [
        "ĠdÄĽdin",
        -10.077552741576353
      ],
      [
        "rÃ¡",
        -10.077637738856083
      ],
      [
        "rci",
        -10.078693163255206
      ],
      [
        "svÃ½ch",
        -10.078909503774074
      ],
      [
        "ĠÄįem",
        -10.079077965070297
      ],
      [
        "!âĢľâĢľ",
        -10.079110081167311
      ],
      [
        "cÃ½",
        -10.079325397054934
      ],
      [
        "ĠpoutnÃŃk",
        -10.07955732377059
      ],
      [
        "ĠtrÅ¯nu",
        -10.080371802685558
      ],
      [
        "ĠkaÅ¾dÃ½m",
        -10.080683269475905
      ],
      [
        "ĠvÄĽdÄĽl",
        -10.080693032108933
      ],
      [
        "ĠvÅ¡ednÃŃ",
        -10.08119876228015
      ],
      [
        "ĠslavÃŃk",
        -10.081738375385427
      ],
      [
        "lÃ©",
        -10.081827668347415
      ],
      [
        "ĠspÃŃÅ¡",
        -10.082126567454997
      ],
      [
        "ĠmocnÄĽ",
        -10.082476751407414
      ],
      [
        "vÅ¡em",
        -10.082479269287575
      ],
      [
        "ĠrÃ¡ji",
        -10.082966087014652
      ],
      [
        "ĠhroznÃ½",
        -10.083008757336566
      ],
      [
        "Ġdrahou",
        -10.083692426111792
      ],
      [
        "ĠtÃŃÅ¾",
        -10.08396709491683
      ],
      [
        "Ġtrud",
        -10.084420487256708
      ],
      [
        "ĠstÅĻedu",
        -10.084473526461997
      ],
      [
        "ĠkvÃŃlÃŃ",
        -10.08540299181354
      ],
      [
        "Ġkouzl",
        -10.085567181385354
      ],
      [
        "Ġjinoch",
        -10.08583968715111
      ],
      [
        "jakÃ©",
        -10.087486856613136
      ],
      [
        "ĠusmÃŃvÃ¡",
        -10.087606207647472
      ],
      [
        "ĠsvÄĽtle",
        -10.087697154651536
      ],
      [
        "ovÃ½",
        -10.088182685985664
      ],
      [
        "ĠkrÃ¡tkÃ½",
        -10.089516806930867
      ],
      [
        "ĠmrakÅ¯",
        -10.09170307923793
      ],
      [
        "ĠposlÃ©z",
        -10.092028720256835
      ],
      [
        "ĠpustÃ½",
        -10.093798833776699
      ],
      [
        "Å¯ÅĪ",
        -10.094456515254542
      ],
      [
        "ĠzÃ¡mk",
        -10.094689492032037
      ],
      [
        "ĠÄįet",
        -10.095828285857921
      ],
      [
        "Ġproudy",
        -10.096212736738337
      ],
      [
        "Ġluk",
        -10.096732713058476
      ],
      [
        "ĠÅ¡kod",
        -10.09709409776666
      ],
      [
        "ĠÅ¾alu",
        -10.097371493309263
      ],
      [
        "Ġklade",
        -10.097990907348448
      ],
      [
        "Ġplyne",
        -10.098300610810629
      ],
      [
        "ĠjÃŃmÅ¾",
        -10.098438253733534
      ],
      [
        "ĠzapomnÄĽl",
        -10.099439318619478
      ],
      [
        "Ġmluv",
        -10.100354712214404
      ],
      [
        "ĠzpÃŃvat",
        -10.10044532874252
      ],
      [
        "Ġbolem",
        -10.10111947747805
      ],
      [
        "ĠnepÅĻÃ¡tel",
        -10.10168457394926
      ],
      [
        "ĠnÄĽh",
        -10.102091471655225
      ],
      [
        "Ġhod",
        -10.102231814910539
      ],
      [
        "ĠvÄĽÅ¾ÃŃ",
        -10.102308857442765
      ],
      [
        "ĠÅ¡Å¥ast",
        -10.103476890714305
      ],
      [
        "nohy",
        -10.103736130807441
      ],
      [
        "ĠznÃ¡t",
        -10.103968694185431
      ],
      [
        "Ġdlouhou",
        -10.10408418800025
      ],
      [
        "Ġpostav",
        -10.104112630477513
      ],
      [
        "Ġvedl",
        -10.104219022707511
      ],
      [
        "Ġklesl",
        -10.104724984006399
      ],
      [
        "ĠneznÃ¡",
        -10.105947787545027
      ],
      [
        "Ġzima",
        -10.106062597609075
      ],
      [
        "ĠdivÃ©",
        -10.106154233295928
      ],
      [
        "Ġkostel",
        -10.106252980348062
      ],
      [
        "ĠÄįÃŃÅ¡e",
        -10.106383305414855
      ],
      [
        "Ġobloh",
        -10.106882692758232
      ],
      [
        "ĠobliÄįej",
        -10.106913477175276
      ],
      [
        "Ġkrajem",
        -10.107001574984224
      ],
      [
        "ÄįistÃ¡",
        -10.107178309455028
      ],
      [
        "ĠptÃ¡",
        -10.108145757359052
      ],
      [
        "les",
        -10.10847243439968
      ],
      [
        "ob",
        -10.109574701501774
      ],
      [
        "ĠletnÃŃ",
        -10.110338464153
      ],
      [
        "Ġspal",
        -10.110847688592035
      ],
      [
        "hleÄı",
        -10.111014892703292
      ],
      [
        "ĠmÃŃstÄĽ",
        -10.111628158566672
      ],
      [
        "ĠvzpomÃŃnk",
        -10.112438798554734
      ],
      [
        "ĠzÅĻÃŃt",
        -10.113636105539268
      ],
      [
        "Ġtrest",
        -10.114420430722975
      ],
      [
        "potom",
        -10.114638436640043
      ],
      [
        "ĠprostÅĻed",
        -10.116601713957273
      ],
      [
        "ĠmrtvÃ½",
        -10.116788136264827
      ],
      [
        "dÃŃlo",
        -10.116854304554671
      ],
      [
        "ĠpÅĻiÅ¡l",
        -10.117266297747339
      ],
      [
        "ĠÅ¾havÃ©",
        -10.118438325279108
      ],
      [
        "ĠbÃŃdu",
        -10.12007175850555
      ],
      [
        "byla",
        -10.120202205739744
      ],
      [
        "ĠdÃŃv",
        -10.121173991388005
      ],
      [
        "Ġnitro",
        -10.122740077525176
      ],
      [
        "ĠvznÃ¡Å¡ÃŃ",
        -10.123085623748885
      ],
      [
        "pryÄį",
        -10.12370243505722
      ],
      [
        "ĠÃºzkost",
        -10.124318949063097
      ],
      [
        "Ġvtip",
        -10.12493416495862
      ],
      [
        "ĠmoÅĻem",
        -10.126509709983125
      ],
      [
        "svit",
        -10.12666003421128
      ],
      [
        "Ġmed",
        -10.1270145871406
      ],
      [
        "Ġblah",
        -10.127047229136092
      ],
      [
        "ĠmlÃ½n",
        -10.127451075205217
      ],
      [
        "ĠznÃ¡mÃ½",
        -10.127851690440295
      ],
      [
        "Ġlebk",
        -10.128587294916912
      ],
      [
        "pomalu",
        -10.128717895372567
      ],
      [
        "ĠvÄĽku",
        -10.12951771186967
      ],
      [
        "ĠsamÃ½",
        -10.129659600265818
      ],
      [
        "nosti",
        -10.129880432561741
      ],
      [
        "Ġrosa",
        -10.130566266264829
      ],
      [
        "ĠpoÅ¾Ã¡r",
        -10.13103136216252
      ],
      [
        "jakoby",
        -10.13166603192483
      ],
      [
        "ĠnejvÃŃc",
        -10.131955487359214
      ],
      [
        "ĠtichÃ©m",
        -10.132065430298242
      ],
      [
        "ĠnosÃŃ",
        -10.132880932888558
      ],
      [
        "Ġnesou",
        -10.133257155331233
      ],
      [
        "ĠbÃŃt",
        -10.133641095706157
      ],
      [
        "ĠcelÃ©m",
        -10.134579902287175
      ],
      [
        "ĠpoÄįal",
        -10.134915800429578
      ],
      [
        "Ġrodin",
        -10.13588107236263
      ],
      [
        "ĠstrÃ¡nÃŃ",
        -10.13610870489463
      ],
      [
        "Ġznak",
        -10.136185598554535
      ],
      [
        "Ġjindy",
        -10.136443691265296
      ],
      [
        "Ġlidi",
        -10.136939736094568
      ],
      [
        "ĠhÃ¡je",
        -10.137787572593972
      ],
      [
        "znÃ¡m",
        -10.139911424048723
      ],
      [
        "ĠprostÃ©",
        -10.141231907857016
      ],
      [
        "Ġkosti",
        -10.141238760443855
      ],
      [
        "ĠÄįel",
        -10.141350666779156
      ],
      [
        "manÄĽ",
        -10.141918503188432
      ],
      [
        "Ġdnesk",
        -10.142013087691002
      ],
      [
        "ĠplÃ¡t",
        -10.143141383671358
      ],
      [
        "ĠdrÅ¾ÃŃ",
        -10.143300150973559
      ],
      [
        "druh",
        -10.143443871818338
      ],
      [
        "Ġchodil",
        -10.144565933254167
      ],
      [
        "ĠvroucnÄĽ",
        -10.144790421980824
      ],
      [
        "ĠchvÃŃlÃŃ",
        -10.145699659827972
      ],
      [
        "pln",
        -10.145728583741482
      ],
      [
        "ĠskÃ¡le",
        -10.146588484968095
      ],
      [
        "ĠbratÅĻe",
        -10.146608607510743
      ],
      [
        "Ġmohla",
        -10.14664996369346
      ],
      [
        "ĠvzÃŃt",
        -10.147675145106984
      ],
      [
        "ĠslavnÄĽ",
        -10.149193969150108
      ],
      [
        "ĠcÃŃli",
        -10.149238487256337
      ],
      [
        "ĠmÃ¡ti",
        -10.149624331758172
      ],
      [
        "Ġjestli",
        -10.149760538438755
      ],
      [
        "ĠstoupÃ¡",
        -10.149769742148523
      ],
      [
        "ĠdnÄĽ",
        -10.150392312485607
      ],
      [
        "ĠpozdÄĽ",
        -10.150992071122392
      ],
      [
        "Ġklenb",
        -10.151823076042202
      ],
      [
        "pÃ¡nÄĽ",
        -10.153179116998974
      ],
      [
        "Ġhrdin",
        -10.153236695804491
      ],
      [
        "Ġzdar",
        -10.153550419299874
      ],
      [
        "ĠpozdnÃŃ",
        -10.15375673327624
      ],
      [
        "zÅĻÃŃÅ¡",
        -10.15380391367978
      ],
      [
        "ĠhnutÃŃ",
        -10.154521635468715
      ],
      [
        "Ġnejsem",
        -10.15482038364207
      ],
      [
        "ĠdvÃ©ÅĻe",
        -10.155535573374056
      ],
      [
        "ĠvlÃ¡dne",
        -10.156624513681006
      ],
      [
        "Ġpal",
        -10.15683762707129
      ],
      [
        "Ġzve",
        -10.156936043401053
      ],
      [
        "Ġrys",
        -10.157187693915759
      ],
      [
        "ĠtÄĽÅ¾kÃ¡",
        -10.157343293066472
      ],
      [
        "ĠzvonÅ¯",
        -10.15737236439967
      ],
      [
        "takto",
        -10.157727690502126
      ],
      [
        "jejÃŃ",
        -10.157819590251625
      ],
      [
        "ĠÅĻeka",
        -10.157949223768245
      ],
      [
        "zdÃ¡",
        -10.158030170246217
      ],
      [
        "ĠvÅ¡ickn",
        -10.158506148748865
      ],
      [
        "Ġbor",
        -10.159874600044148
      ],
      [
        "Ġprsty",
        -10.160148094871076
      ],
      [
        "ry",
        -10.160488993552459
      ],
      [
        "ĠstÃ¡d",
        -10.160654204120089
      ],
      [
        "Ġnutno",
        -10.16215836766092
      ],
      [
        "eÄı",
        -10.162287912992294
      ],
      [
        "ĠoÄįim",
        -10.162689434771641
      ],
      [
        "Ã½mi",
        -10.16269181486971
      ],
      [
        "ĠkrÃ¡snou",
        -10.162831680423597
      ],
      [
        "Ġjednom",
        -10.16290591986964
      ],
      [
        "ĠhonÃŃ",
        -10.163555463539126
      ],
      [
        "ĠumÃŃ",
        -10.163763236357534
      ],
      [
        "Ġmor",
        -10.164181767647012
      ],
      [
        "jdeme",
        -10.165311401970396
      ],
      [
        "lÃ¡sky",
        -10.165327221624466
      ],
      [
        "blesk",
        -10.165571990722434
      ],
      [
        "ĠplnÃŃ",
        -10.165577186836947
      ],
      [
        "vzduch",
        -10.16571219441823
      ],
      [
        "jÅ¡ÃŃ",
        -10.166481982714842
      ],
      [
        "ĠnemÅ¯Å¾e",
        -10.166564496161289
      ],
      [
        "ĠskrÃ¡nÄĽ",
        -10.16660335677504
      ],
      [
        "Äį",
        -10.16703248717443
      ],
      [
        "ĠverÅ¡e",
        -10.167331725523475
      ],
      [
        "ĠbojÃŃ",
        -10.16749673437668
      ],
      [
        "Å¡ly",
        -10.168077869331432
      ],
      [
        "ĠchvÄĽla",
        -10.168258321950155
      ],
      [
        "ĠruÄįk",
        -10.168284509967059
      ],
      [
        "ĠpÅĻelud",
        -10.16847267252847
      ],
      [
        "ĠpÅ¯vab",
        -10.17032050946335
      ],
      [
        "Ġprs",
        -10.170780607380314
      ],
      [
        "ĠbÃŃda",
        -10.17116766376928
      ],
      [
        "Ġkov",
        -10.171844178810545
      ],
      [
        "arel",
        -10.172140203262531
      ],
      [
        "ĠvÄĽcÃŃ",
        -10.172848002777748
      ],
      [
        "Ġtrav",
        -10.172862048953913
      ],
      [
        "ĠchvÄĽjÃŃ",
        -10.173489591668773
      ],
      [
        "ĠjÃ¡sÃ¡",
        -10.1742309276141
      ],
      [
        "nes",
        -10.174742928516705
      ],
      [
        "Ġptal",
        -10.174798292928646
      ],
      [
        "ĠblÃŃzko",
        -10.17496478930148
      ],
      [
        "Ġtvar",
        -10.175332914289633
      ],
      [
        "ĠzdrÃ¡v",
        -10.175682220327628
      ],
      [
        "ĠjedinÃ©",
        -10.176592615961543
      ],
      [
        "ĠhÃ¡zÃŃ",
        -10.17702608044613
      ],
      [
        "ĠÅ¾Ã¡dn",
        -10.178773473921622
      ],
      [
        "Ġchas",
        -10.179359238318234
      ],
      [
        "Ã©mu",
        -10.179392026077894
      ],
      [
        "ĠÅ¡Å¥astnÃ½",
        -10.180018697799241
      ],
      [
        "ĠkÃ¡Å¾e",
        -10.180416369440067
      ],
      [
        "Ġvrchol",
        -10.180739880777756
      ],
      [
        "Ġtichou",
        -10.181010798541445
      ],
      [
        "Ġmnich",
        -10.181227874178393
      ],
      [
        "stvÃŃ",
        -10.181266533273096
      ],
      [
        "Ġleb",
        -10.181678758417803
      ],
      [
        "ĠvÃ¡clav",
        -10.182875781080394
      ],
      [
        "ĠbolestÃŃ",
        -10.183535779934253
      ],
      [
        "ĠÄįernou",
        -10.183614668471527
      ],
      [
        "marnÄĽ",
        -10.183988797394495
      ],
      [
        "ĠjednÃŃ",
        -10.184304698582668
      ],
      [
        "ĠdÄĽla",
        -10.184768457077435
      ],
      [
        "Ġpadla",
        -10.184775533885219
      ],
      [
        "ĠvÃ¡Å¾nÄĽ",
        -10.184778006459204
      ],
      [
        "ĠtÃ¡hnou",
        -10.184825045528484
      ],
      [
        "strom",
        -10.185552102270506
      ],
      [
        "ĠsilnÃ½",
        -10.185569371766213
      ],
      [
        "ĠpÄĽstÃŃ",
        -10.18709325989823
      ],
      [
        "Ġdle",
        -10.187305144164581
      ],
      [
        "ĠlÃŃto",
        -10.18744279567541
      ],
      [
        "ĠneznÃ¡m",
        -10.18758304015887
      ],
      [
        "ĠprchÃ¡",
        -10.188025011636409
      ],
      [
        "vat",
        -10.188292215566287
      ],
      [
        "zÃ¡ÅĻ",
        -10.188476130081145
      ],
      [
        "ĠvelikÃ©",
        -10.188726630655083
      ],
      [
        "Å¾el",
        -10.189385716793616
      ],
      [
        "stojÃŃ",
        -10.189978902971763
      ],
      [
        "ĠkrÃ¡s",
        -10.19033813328074
      ],
      [
        "Ġpusto",
        -10.191112027025508
      ],
      [
        "mÅ¯Å¾eÅ¡",
        -10.191561448768182
      ],
      [
        "ĠpÅĻÃ¡l",
        -10.192583997263377
      ],
      [
        "Ġzlob",
        -10.194795923543056
      ],
      [
        "Ġhloubk",
        -10.195943093893074
      ],
      [
        "ĠÅ¾Ã¡dÃ¡",
        -10.196326744818027
      ],
      [
        "Ġmilou",
        -10.196467319026631
      ],
      [
        "ĠvÄĽrnÄĽ",
        -10.196918359213992
      ],
      [
        "ĠpravdÄĽ",
        -10.197696581621877
      ],
      [
        "Ġnebude",
        -10.199172463418893
      ],
      [
        "ĠÅĻÃŃm",
        -10.19942386524577
      ],
      [
        "sÅ¥",
        -10.200797898102405
      ],
      [
        "lÃ¡",
        -10.202158601937562
      ],
      [
        "zvuk",
        -10.202163735669203
      ],
      [
        "Ġtehdy",
        -10.202337502341585
      ],
      [
        "Ġlesku",
        -10.20355254583408
      ],
      [
        "ĠmarnÃ©",
        -10.203723968006083
      ],
      [
        "Ġhlubok",
        -10.20385449500148
      ],
      [
        "ĠsvÄĽdomÃŃ",
        -10.204351260932889
      ],
      [
        "ĠkrÅ¯pÄĽj",
        -10.204816070888938
      ],
      [
        "Ġshon",
        -10.205063530832916
      ],
      [
        "Ġzved",
        -10.205152631483953
      ],
      [
        "ÄĽjÅ¡ÃŃ",
        -10.205780156500206
      ],
      [
        "Ġzvolal",
        -10.205881789681532
      ],
      [
        "ĠsvÄĽtel",
        -10.206334422689734
      ],
      [
        "jestli",
        -10.206471138333253
      ],
      [
        "Ġjist",
        -10.206997122919834
      ],
      [
        "ĠÅ¾enÄĽ",
        -10.207208054480514
      ],
      [
        "ĠvÃ¡lk",
        -10.207676237135525
      ],
      [
        "ĠnevÄĽst",
        -10.20773939965219
      ],
      [
        "ĠprosÃŃ",
        -10.208530350685145
      ],
      [
        "Ġkruhu",
        -10.208828944653394
      ],
      [
        "dokud",
        -10.209517051911396
      ],
      [
        "ĠsÃŃnÄĽ",
        -10.209872379957929
      ],
      [
        "tÄĽm",
        -10.210570673723623
      ],
      [
        "dobÅĻe",
        -10.210875170254415
      ],
      [
        "Ġpluh",
        -10.211984535586712
      ],
      [
        "ĠtÄĽÅ¡ÃŃ",
        -10.212216273461575
      ],
      [
        "Ġplanou",
        -10.21252265209317
      ],
      [
        "ven",
        -10.212609468894579
      ],
      [
        "ĠkvÃ©st",
        -10.21290122647602
      ],
      [
        "spÃŃ",
        -10.213397401433406
      ],
      [
        "Ġsic",
        -10.213529687512185
      ],
      [
        "ovÃ½m",
        -10.213552415628975
      ],
      [
        "Ġmile",
        -10.213792581626482
      ],
      [
        "vÃ¡s",
        -10.21442280577978
      ],
      [
        "Ġan",
        -10.214752044026925
      ],
      [
        "ÄįeskÃ¡",
        -10.215472979940294
      ],
      [
        "Ġstezk",
        -10.21558154899174
      ],
      [
        "ĠkrÃ¡lovn",
        -10.21617619189039
      ],
      [
        "bec",
        -10.216666572439177
      ],
      [
        "Ġnechal",
        -10.21697628427492
      ],
      [
        "Ġpeklo",
        -10.21699063983975
      ],
      [
        "ĠsnÃŃt",
        -10.218920400380968
      ],
      [
        "Ġmilovat",
        -10.21910226891713
      ],
      [
        "ĠzlatÃ½m",
        -10.22052389253839
      ],
      [
        "list",
        -10.221263835611179
      ],
      [
        "ĠbuÅ¡ÃŃ",
        -10.2225314378029
      ],
      [
        "chceÅ¡",
        -10.223317050736949
      ],
      [
        "nutÃŃ",
        -10.225154100404497
      ],
      [
        "starÃ½",
        -10.22587138095402
      ],
      [
        "ĠnovÃ½m",
        -10.225942303628667
      ],
      [
        "ĠstaÅĻec",
        -10.226100270932566
      ],
      [
        "ĠpÃ¡nem",
        -10.226448077756473
      ],
      [
        "Ġhrot",
        -10.226894679807133
      ],
      [
        "ĠpalÃ¡c",
        -10.227079702792274
      ],
      [
        "Ġbrach",
        -10.227093629999917
      ],
      [
        "Äįin",
        -10.227819759470357
      ],
      [
        "Ġstan",
        -10.228125640043068
      ],
      [
        "Ġklad",
        -10.228299521514298
      ],
      [
        "Ġobou",
        -10.22838225863184
      ],
      [
        "ĠlÃ©pe",
        -10.228538024075672
      ],
      [
        "ĠvÄĽÅĻÃŃ",
        -10.228623024987119
      ],
      [
        "ptÃ¡k",
        -10.22942801204615
      ],
      [
        "celÃ½",
        -10.230519857263683
      ],
      [
        "ĠnejvyÅ¡Å¡ÃŃ",
        -10.230536156721433
      ],
      [
        "vidÃŃm",
        -10.23064187085642
      ],
      [
        "ĠlÃ©t",
        -10.231824230506795
      ],
      [
        "ĠbÃ¡l",
        -10.23197332689682
      ],
      [
        "Ġrve",
        -10.23209628375836
      ],
      [
        "Ġsled",
        -10.232637687690826
      ],
      [
        "½",
        -10.23288937286727
      ],
      [
        "ĠtÅĻÃ¡sl",
        -10.233085082904804
      ],
      [
        "ĠkÅĻiÄįÃŃ",
        -10.23309686984108
      ],
      [
        "Ġsmutno",
        -10.233241608677488
      ],
      [
        "ĠrÃ¡mÄĽ",
        -10.233768386314283
      ],
      [
        "Ġsamo",
        -10.23418721910664
      ],
      [
        "Äįasem",
        -10.234309357380283
      ],
      [
        "ĠzaÄįal",
        -10.234621768748315
      ],
      [
        "viz",
        -10.236680649434351
      ],
      [
        "Ġozval",
        -10.237256297987877
      ],
      [
        "ĠjejÃŃch",
        -10.238319180222513
      ],
      [
        "Ġstrachu",
        -10.23882870161054
      ],
      [
        "Ġpar",
        -10.241461504782151
      ],
      [
        "Ġticha",
        -10.24213079859106
      ],
      [
        "hlav",
        -10.24283815073052
      ],
      [
        "orel",
        -10.243670504887703
      ],
      [
        "ĠpÃ¡nu",
        -10.245103418597399
      ],
      [
        "ĠprÃ¡h",
        -10.245618331731984
      ],
      [
        "Ġroj",
        -10.245653387349414
      ],
      [
        "tmu",
        -10.246068648695928
      ],
      [
        "ĠsmÄĽlÃ½",
        -10.246483485040084
      ],
      [
        "ĠÄįinÃŃ",
        -10.246681385745402
      ],
      [
        "sny",
        -10.24699762449541
      ],
      [
        "ĠplÃ¡Äįem",
        -10.247251388867332
      ],
      [
        "Ġved",
        -10.247599954967022
      ],
      [
        "Ġhledat",
        -10.248733261731294
      ],
      [
        "Ġjede",
        -10.2488151455001
      ],
      [
        "Ġhejn",
        -10.249191628392937
      ],
      [
        "ĠÃºÅ¾as",
        -10.24961914045009
      ],
      [
        "ĠmlÃ¡d",
        -10.249750267633141
      ],
      [
        "vidÄĽl",
        -10.249865335703126
      ],
      [
        "ĠpÅ¯jde",
        -10.250079220469807
      ],
      [
        "ĠletÄĽl",
        -10.250317835530002
      ],
      [
        "Ġono",
        -10.251948050330242
      ],
      [
        "ĠsvÃŃtil",
        -10.252050497569108
      ],
      [
        "ĠhrÅ¯za",
        -10.253115249611014
      ],
      [
        "Å¡la",
        -10.253144148774236
      ],
      [
        "ĠnoÅĻÃŃ",
        -10.254729263628418
      ],
      [
        "Ġves",
        -10.25643172196163
      ],
      [
        "Ġpolo",
        -10.25661696040552
      ],
      [
        "ĠjakÃ½s",
        -10.25665611166977
      ],
      [
        "ĠzbranÄĽ",
        -10.25728169601875
      ],
      [
        "ĠplÃ¡Å¡Å¥",
        -10.257338568833198
      ],
      [
        "ĠmÃ¡j",
        -10.258041628080676
      ],
      [
        "Ġzjevil",
        -10.258448310001427
      ],
      [
        "ĠkolÃ©bk",
        -10.258624279747885
      ],
      [
        "ĠslavÃŃ",
        -10.25890772283363
      ],
      [
        "ĠpouÅ¡ti",
        -10.259058802511758
      ],
      [
        "ĠznamenÃŃ",
        -10.260386284194965
      ],
      [
        "Ġmyslil",
        -10.261072717890475
      ],
      [
        "ĠvÃŃte",
        -10.261121316604196
      ],
      [
        "Ġpadal",
        -10.261386446331699
      ],
      [
        "Ġsten",
        -10.261449731351004
      ],
      [
        "ĠpojÃŃ",
        -10.26255277153959
      ],
      [
        "ĠjinÃ¡",
        -10.262744857078655
      ],
      [
        "Ġchcete",
        -10.262853865932172
      ],
      [
        "ĠhroznÃ©",
        -10.26375357495273
      ],
      [
        "ĠsvÄĽtlÃ½",
        -10.264096570836635
      ],
      [
        "ĠrozkoÅ¡e",
        -10.265124679252693
      ],
      [
        "ĠzbraÅĪ",
        -10.266320579510275
      ],
      [
        "Ġstatk",
        -10.266649013136709
      ],
      [
        "ĠstokrÃ¡t",
        -10.266656327634955
      ],
      [
        "ĠjÃŃmÃ¡",
        -10.266741420898299
      ],
      [
        "ĠvÃŃtÃ¡",
        -10.267699658430672
      ],
      [
        "ĠzvuÄįÃŃ",
        -10.267755905135706
      ],
      [
        "ĠkÅĻÃŃdle",
        -10.268144347513186
      ],
      [
        "ĠÅ¡eptÃ¡",
        -10.269199358972532
      ],
      [
        "ĠchvÄĽnÃŃ",
        -10.269237959767993
      ],
      [
        "slovem",
        -10.269658064327569
      ],
      [
        "jakÃ¡",
        -10.270054095130286
      ],
      [
        "Ġcitu",
        -10.2702510362762
      ],
      [
        "ĠonÃ©",
        -10.271389408125946
      ],
      [
        "ĠvÄĽtrÅ¯",
        -10.2714400367846
      ],
      [
        "ĠstÃ¡li",
        -10.271993948032996
      ],
      [
        "ĠstrÃ¡n",
        -10.272822482824726
      ],
      [
        "Ġkoho",
        -10.274018286726843
      ],
      [
        "ĠÅĻetÄĽz",
        -10.274206523406889
      ],
      [
        "Ġmrtvo",
        -10.27463184886161
      ],
      [
        "Ġkomnat",
        -10.274720758875588
      ],
      [
        "ĠtÃ¡hl",
        -10.27492464052007
      ],
      [
        "Ġdcera",
        -10.274997110265527
      ],
      [
        "ĠzÃ¡ÅĻÃŃcÃŃ",
        -10.275127511497367
      ],
      [
        "bÄĽda",
        -10.27558690275216
      ],
      [
        "ĠplaÅ¡e",
        -10.275677673523472
      ],
      [
        "ru",
        -10.275968870943325
      ],
      [
        "ĠsÃŃn",
        -10.276642011064418
      ],
      [
        "Ġhmot",
        -10.276923007331114
      ],
      [
        "Ġbrad",
        -10.276957438397485
      ],
      [
        "Ġpropasti",
        -10.27776277407781
      ],
      [
        "ĠnÃŃmÅ¾",
        -10.278176504295022
      ],
      [
        "ĠdivnÄĽ",
        -10.278643682643292
      ],
      [
        "nÄĽte",
        -10.280606613326135
      ],
      [
        "Ġnitra",
        -10.281514432880773
      ],
      [
        "ĠtÃ¡bor",
        -10.282588657658193
      ],
      [
        "ĠbÅĻehÅ¯",
        -10.283470832608593
      ],
      [
        "ĠnÄĽÅ¾",
        -10.28360948761438
      ],
      [
        "Ġcti",
        -10.284168915371286
      ],
      [
        "ĠnepÅĻÃŃtel",
        -10.28483072624281
      ],
      [
        "ĠhrajÃŃ",
        -10.285005108880947
      ],
      [
        "ĠvidÃŃÅ¡",
        -10.285085205761945
      ],
      [
        "vÄĽÅĻ",
        -10.285142660114587
      ],
      [
        "Ġpolibk",
        -10.285173194578027
      ],
      [
        "ĠpustÃ©",
        -10.285188446734132
      ],
      [
        "Ġvrat",
        -10.285222925514635
      ],
      [
        "ĠstÅ¯l",
        -10.28572754636658
      ],
      [
        "naÅ¡e",
        -10.286683811298474
      ],
      [
        "ĠnesmÃŃ",
        -10.287804702026744
      ],
      [
        "klid",
        -10.288329183907775
      ],
      [
        "ĠÅ¾eno",
        -10.288970293915227
      ],
      [
        "ĠdvÃ©",
        -10.28978361286385
      ],
      [
        "nikdy",
        -10.289849946303452
      ],
      [
        "ĠvrÃ¡sk",
        -10.29017231988422
      ],
      [
        "Ġohlas",
        -10.290404292760797
      ],
      [
        "ĠnevidÄĽl",
        -10.291238657372105
      ],
      [
        "ĠdÄĽlÃ¡",
        -10.291378506770535
      ],
      [
        "ĠpÄĽnÃŃ",
        -10.291600896092355
      ],
      [
        "boj",
        -10.292694136132958
      ],
      [
        "ĠsÃŃle",
        -10.293823054800413
      ],
      [
        "dav",
        -10.29394008520648
      ],
      [
        "ĠhrozÃŃ",
        -10.29428141621111
      ],
      [
        "ĠÃºd",
        -10.295550491485006
      ],
      [
        "ĠleÅ¾",
        -10.295573487906694
      ],
      [
        "vÃ½",
        -10.295814091880402
      ],
      [
        "ĠdnÃŃ",
        -10.295876712233976
      ],
      [
        "iny",
        -10.297561826992663
      ],
      [
        "ĠhlubokÃ½",
        -10.297598137936047
      ],
      [
        "kdos",
        -10.29805696311568
      ],
      [
        "ĠzprÃ¡v",
        -10.298112139864852
      ],
      [
        "ĠvyÅ¡Å¡ÃŃ",
        -10.298586781048225
      ],
      [
        "ĠslzÃ¡",
        -10.298822308088702
      ],
      [
        "ĠkrutÃ½",
        -10.298942966095465
      ],
      [
        "Ġchvil",
        -10.29905289281653
      ],
      [
        "ĠpouhÃ½",
        -10.299574479907587
      ],
      [
        "ĠtÄĽmi",
        -10.299821152453104
      ],
      [
        "ĠzÃ¡Å¡tÃŃ",
        -10.300073410040628
      ],
      [
        "abych",
        -10.300577100257671
      ],
      [
        "Ġdivy",
        -10.300917248342127
      ],
      [
        "ĠÄįÃŃst",
        -10.301492372433263
      ],
      [
        "Ġtemno",
        -10.301981743717329
      ],
      [
        "Ġmarno",
        -10.303468441074873
      ],
      [
        "ĠprostÃ½",
        -10.30472843640246
      ],
      [
        "ĠsmÄĽs",
        -10.305515925121007
      ],
      [
        "jedna",
        -10.305593929759546
      ],
      [
        "ĠÅ¾ebrÃ¡k",
        -10.305726377236166
      ],
      [
        "Ġpot",
        -10.305909342542506
      ],
      [
        "Ġstud",
        -10.306624730626938
      ],
      [
        "oko",
        -10.306683176512308
      ],
      [
        "ĠneznÃ¡mÃ½",
        -10.306943946486431
      ],
      [
        "vÃ¡Å¡",
        -10.307567943169138
      ],
      [
        "Ġtlum",
        -10.307999168612328
      ],
      [
        "ĠpouÅ¡tÃŃ",
        -10.308321250266024
      ],
      [
        "ĠzmÃŃrÃ¡",
        -10.30878419850908
      ],
      [
        "Ġbyt",
        -10.309466667719953
      ],
      [
        "ĠpÅĻÃŃmo",
        -10.309970342747375
      ],
      [
        "ĠkrÃ¡lÅ¯",
        -10.310020293600004
      ],
      [
        "nej",
        -10.310126278619993
      ],
      [
        "ĠchystÃ¡",
        -10.31031848329706
      ],
      [
        "nÃ¡hle",
        -10.310405897311693
      ],
      [
        "ĠmoÅĻÃŃ",
        -10.310527641412092
      ],
      [
        "ĠvÃŃÅĻÃŃ",
        -10.310527786881138
      ],
      [
        "Ġvdov",
        -10.310675443198814
      ],
      [
        "ĠvÃ¡bÃŃ",
        -10.311227526680213
      ],
      [
        "ĠzlatÃŃ",
        -10.31125127491342
      ],
      [
        "kal",
        -10.31193676679327
      ],
      [
        "ĠzmÄĽn",
        -10.31263942115394
      ],
      [
        "Ġzrad",
        -10.313721580146957
      ],
      [
        "Ġnesl",
        -10.314538912958325
      ],
      [
        "ĠnaÅ¡em",
        -10.31466640729725
      ],
      [
        "ĠpestrÃ½",
        -10.31470771280243
      ],
      [
        "Ġmimo",
        -10.315987871767717
      ],
      [
        "ĠpolÃŃbenÃŃ",
        -10.316537208797154
      ],
      [
        "veÄįer",
        -10.316734849649247
      ],
      [
        "ĠkonÃŃ",
        -10.31681129806307
      ],
      [
        "Ġohni",
        -10.317293377461196
      ],
      [
        "ĠneÅ¡tÄĽstÃŃ",
        -10.317900403660857
      ],
      [
        "ĠpÄĽje",
        -10.318041762384997
      ],
      [
        "ĠsmÄĽr",
        -10.318542522099392
      ],
      [
        "Ġlem",
        -10.318657847735839
      ],
      [
        "ĠspÃ¡ne",
        -10.31968996062093
      ],
      [
        "Ġhospodin",
        -10.32026490469444
      ],
      [
        "ĠryzÃŃ",
        -10.320301305006051
      ],
      [
        "ĠzbranÃŃ",
        -10.320452937476698
      ],
      [
        "Ġt",
        -10.320539806522746
      ],
      [
        "ticho",
        -10.321632340940408
      ],
      [
        "Ġnud",
        -10.3219982770594
      ],
      [
        "Ġkola",
        -10.322336872155265
      ],
      [
        "Ġkapk",
        -10.322446889605107
      ],
      [
        "ĠvÃ¡l",
        -10.323260492626304
      ],
      [
        "ĠdÃ¡vnÃ©",
        -10.323284989339363
      ],
      [
        "ĠÅ¾houcÃŃ",
        -10.32354332725809
      ],
      [
        "ĠvlÃ¡h",
        -10.323734218453321
      ],
      [
        "ĠdunÃŃ",
        -10.324046063243479
      ],
      [
        "ĠpamÃ¡tk",
        -10.324659620474499
      ],
      [
        "oj",
        -10.325055834463335
      ],
      [
        "Ġmalou",
        -10.325367754621777
      ],
      [
        "ĠmÄĽj",
        -10.325432787948088
      ],
      [
        "Ġdostal",
        -10.325548494131016
      ],
      [
        "Ġjmen",
        -10.325580908552531
      ],
      [
        "dvÅ¯r",
        -10.326750128562743
      ],
      [
        "musÃŃ",
        -10.32957703114604
      ],
      [
        "Ġnedal",
        -10.329789539912685
      ],
      [
        "lÅ¯nÄĽ",
        -10.330469026267762
      ],
      [
        "cen",
        -10.331084764186109
      ],
      [
        "ĠpapeÅ¾",
        -10.331609802474
      ],
      [
        "Ġklesla",
        -10.331712633410028
      ],
      [
        "ĠhrdÃ½",
        -10.332043841423634
      ],
      [
        "hvÄĽzd",
        -10.332795275257222
      ],
      [
        "Ġmrav",
        -10.332951317877908
      ],
      [
        "ĠsluÅ¡ÃŃ",
        -10.333158538894933
      ],
      [
        "letÃŃ",
        -10.333378502725076
      ],
      [
        "ĠhleÄı",
        -10.334690291644655
      ],
      [
        "Ġsatan",
        -10.334788208655208
      ],
      [
        "ĠzelenÃ©",
        -10.33485910258091
      ],
      [
        "Ġmladosti",
        -10.335138450746305
      ],
      [
        "ĠdomÄĽ",
        -10.33526676133739
      ],
      [
        "ĠzelenÃ½",
        -10.335350520096533
      ],
      [
        "Ġchmur",
        -10.335958178025344
      ],
      [
        "ĠblaÅ¾en",
        -10.336035063811249
      ],
      [
        "ĠsamotÄĽ",
        -10.336555079316597
      ],
      [
        "Ġpluk",
        -10.336743130189777
      ],
      [
        "Ġnejsou",
        -10.337497310501236
      ],
      [
        "ĠrÃ¡di",
        -10.337535881280463
      ],
      [
        "Ġdvor",
        -10.337862289476492
      ],
      [
        "Ġp",
        -10.338923093134891
      ],
      [
        "ĠvlÃŃdnÄĽ",
        -10.339629639625766
      ],
      [
        "ĠcelÃ½m",
        -10.340588180855478
      ],
      [
        "ĠvlnÃŃ",
        -10.34073710951075
      ],
      [
        "jedno",
        -10.340974409715184
      ],
      [
        "Ġcizin",
        -10.341822818527756
      ],
      [
        "Å¾en",
        -10.342052890844048
      ],
      [
        "ĠhvÄĽzdÃ¡",
        -10.342764251644203
      ],
      [
        "Ġtemnou",
        -10.342801194441387
      ],
      [
        "ĠzlatÃ©m",
        -10.342962914605245
      ],
      [
        "nÃ¡rod",
        -10.343083258421016
      ],
      [
        "ĠtrhÃ¡",
        -10.344382811522433
      ],
      [
        "Ġdobrou",
        -10.344429443150386
      ],
      [
        "Ġmrtev",
        -10.344556304561522
      ],
      [
        "Ġsluje",
        -10.344836515735714
      ],
      [
        "ĠdÄĽtskÃ½",
        -10.344850992699225
      ],
      [
        "Ġrval",
        -10.345009069610125
      ],
      [
        "ĠhÃ¡v",
        -10.345221878683063
      ],
      [
        "Ġpruh",
        -10.345626140743128
      ],
      [
        "Ġvzlet",
        -10.346467309927103
      ],
      [
        "ĠhÅĻÃŃchu",
        -10.346610368031953
      ],
      [
        "Å¾il",
        -10.347555186258678
      ],
      [
        "ĠvÄĽrnÃ©",
        -10.347714936376082
      ],
      [
        "kterou",
        -10.34938620884911
      ],
      [
        "ĠtmÄĽ",
        -10.349493978781025
      ],
      [
        "ĠbrÃ¡nÃŃ",
        -10.349494778427555
      ],
      [
        "Ġoni",
        -10.351310384536246
      ],
      [
        "lou",
        -10.351843172601448
      ],
      [
        "Ġpanna",
        -10.352151481785768
      ],
      [
        "Ġkat",
        -10.352772199925488
      ],
      [
        "ĠtajnÄĽ",
        -10.353538750235234
      ],
      [
        "ĠÅĻada",
        -10.353764512902
      ],
      [
        "ĠkvÄĽtin",
        -10.353893680735267
      ],
      [
        "meÄį",
        -10.354034211203226
      ],
      [
        "ĠhÃ¡j",
        -10.354158381446418
      ],
      [
        "svÄĽtlem",
        -10.35432724513147
      ],
      [
        "ĠÅĻekne",
        -10.3549601010516
      ],
      [
        "ĠplÃ©m",
        -10.35632165061535
      ],
      [
        "ĠvodÄĽ",
        -10.356508263280803
      ],
      [
        "ĠslÃ¡vo",
        -10.356713391801659
      ],
      [
        "Ġplen",
        -10.356844570256646
      ],
      [
        "ĠÅĻev",
        -10.357412017559373
      ],
      [
        "Ġmladou",
        -10.358165265285114
      ],
      [
        "ĠvolnÃ½",
        -10.358529200967986
      ],
      [
        "ĠmÅ¯Å¾",
        -10.358585986855296
      ],
      [
        "Ġplakal",
        -10.359013885031182
      ],
      [
        "ĠvÄĽÅĻit",
        -10.359060296904534
      ],
      [
        "Ġstrop",
        -10.359642566490127
      ],
      [
        "Ġbod",
        -10.36043876257352
      ],
      [
        "Ġcity",
        -10.360491793039545
      ],
      [
        "ĠnovÃ©m",
        -10.362915900894674
      ],
      [
        "Ġpraze",
        -10.363332492536035
      ],
      [
        "ĠvrahÅ¯",
        -10.36367147208848
      ],
      [
        "ĠposmÄĽch",
        -10.363959802736268
      ],
      [
        "Ġpochod",
        -10.365638561938582
      ],
      [
        "Ġoblo",
        -10.366187122490121
      ],
      [
        "ĠÅ¾ij",
        -10.366872107780944
      ],
      [
        "Ġslasti",
        -10.36688967014626
      ],
      [
        "Ġha",
        -10.367172197876055
      ],
      [
        "Ġkvas",
        -10.368038043691861
      ],
      [
        "ĠvaÅ¡i",
        -10.368450553066047
      ],
      [
        "ĠhostÃŃ",
        -10.36853112801927
      ],
      [
        "Ġde",
        -10.369285520286857
      ],
      [
        "ĠpoÅĻÃ¡d",
        -10.36947317483312
      ],
      [
        "Ġklec",
        -10.369801845206695
      ],
      [
        "tÅĻeba",
        -10.369884216725175
      ],
      [
        "Ġjimi",
        -10.370796591940724
      ],
      [
        "ĠspatÅĻil",
        -10.371045943694469
      ],
      [
        "Ġbled",
        -10.37112374824181
      ],
      [
        "ĠÃºkol",
        -10.371503229169814
      ],
      [
        "ĠusmÃ¡l",
        -10.371730360950217
      ],
      [
        "Ġkos",
        -10.372222551261629
      ],
      [
        "Ġspoust",
        -10.372331783187118
      ],
      [
        "Ġtah",
        -10.372946132530064
      ],
      [
        "sti",
        -10.373430446132259
      ],
      [
        "ĠhledÃŃm",
        -10.374054857273451
      ],
      [
        "ĠkoÅĻist",
        -10.374275868471091
      ],
      [
        "ĠkÃ©Å¾",
        -10.374888770749816
      ],
      [
        "Ġodtud",
        -10.375443243042902
      ],
      [
        "ĠspÄĽje",
        -10.37568621258071
      ],
      [
        "Ġboz",
        -10.375727700221912
      ],
      [
        "ĠvzpomÃŃnÃ¡m",
        -10.376146769003624
      ],
      [
        "ĠpÃŃÅ¡e",
        -10.376327077048519
      ],
      [
        "ĠskvÄĽl",
        -10.37659297681477
      ],
      [
        "Ġtrosk",
        -10.3774802772453
      ],
      [
        "Ġnesla",
        -10.377630618254681
      ],
      [
        "ĠstojÃŃm",
        -10.377766074453803
      ],
      [
        "ovÃ¡nÃŃ",
        -10.37803375448782
      ],
      [
        "ĠmoÅ¾n",
        -10.378445510565166
      ],
      [
        "hej",
        -10.378571355337563
      ],
      [
        "ĠpÅ¯jdu",
        -10.379326614676327
      ],
      [
        "ĠnenÃ¡vist",
        -10.379722467337736
      ],
      [
        "ĠhrÃ¡",
        -10.379826976591213
      ],
      [
        "ĠkrvavÃ½",
        -10.380375626143987
      ],
      [
        "ĠrodnÃ½",
        -10.380998068071776
      ],
      [
        "ĠvÅ¡udy",
        -10.3812572547425
      ],
      [
        "ĠstrojÃŃ",
        -10.382658543294792
      ],
      [
        "Ġston",
        -10.382839010009109
      ],
      [
        "ĠkterÃ½m",
        -10.383045704492918
      ],
      [
        "ĠskrÃ¡n",
        -10.383085125097484
      ],
      [
        "Ġotrok",
        -10.383281560864573
      ],
      [
        "ĠtratÃŃ",
        -10.38445845653375
      ],
      [
        "Ġkvetl",
        -10.384937849545175
      ],
      [
        "slyÅ¡te",
        -10.385529509128848
      ],
      [
        "Ġsoch",
        -10.386341788464755
      ],
      [
        "ĠmÄĽsÃŃce",
        -10.386618897108377
      ],
      [
        "ĠskÅĻivan",
        -10.38808089162757
      ],
      [
        "ĠpÃ¡nÅ¯",
        -10.388173888758303
      ],
      [
        "Ġplesu",
        -10.389987484782768
      ],
      [
        "ĠvlÃ¡d",
        -10.391125201381122
      ],
      [
        "Ġdceru",
        -10.391125356781174
      ],
      [
        "ĠdrobnÃ½",
        -10.39140559107468
      ],
      [
        "Ġslunko",
        -10.391524344990579
      ],
      [
        "mnoho",
        -10.391570268449598
      ],
      [
        "mÃŃsto",
        -10.391598539641898
      ],
      [
        "cit",
        -10.392236461710272
      ],
      [
        "ĠÅ¾Ã¡ru",
        -10.393212377384707
      ],
      [
        "ĠsvatÃ½m",
        -10.393569579782234
      ],
      [
        "ĠÅ¡ept",
        -10.393739705415486
      ],
      [
        "ĠÅ¡erÃ©",
        -10.39383471356875
      ],
      [
        "ĠodpovÄĽÄı",
        -10.394489151181878
      ],
      [
        "ĠdvojÃŃ",
        -10.395766339712907
      ],
      [
        "ĠspÃ¡sy",
        -10.395857880371793
      ],
      [
        "prvnÃŃ",
        -10.395979626570398
      ],
      [
        "ĠplatÃŃ",
        -10.396472707244536
      ],
      [
        "ĠkrÃ¡snÄĽ",
        -10.397359930416256
      ],
      [
        "Ġmozk",
        -10.397604895041914
      ],
      [
        "ovÄĽ",
        -10.397707493741944
      ],
      [
        "zatÃŃm",
        -10.397749106947522
      ],
      [
        "ĠmanÅ¾el",
        -10.39779732865825
      ],
      [
        "ĠpÅĻÃŃteli",
        -10.397821268593919
      ],
      [
        "ĠÅ¾ert",
        -10.398139956326311
      ],
      [
        "ĠsmÃ¡t",
        -10.398273976902528
      ],
      [
        "ĠkterÃ½ch",
        -10.398711888981264
      ],
      [
        "ĠtlaÄįÃŃ",
        -10.399050574100634
      ],
      [
        "ĠnebeskÃ©",
        -10.39905627669561
      ],
      [
        "dlouho",
        -10.399971769098634
      ],
      [
        "Ġmuka",
        -10.400812849282737
      ],
      [
        "Ġbledou",
        -10.401092269613109
      ],
      [
        "ĠhustÃ©",
        -10.401096321434048
      ],
      [
        "ĠhoÅĻel",
        -10.401269477419202
      ],
      [
        "ĠvÃ¡ne",
        -10.40205542042861
      ],
      [
        "Ġprst",
        -10.402169558542534
      ],
      [
        "ĠÅ¡irÃ½",
        -10.402330766408019
      ],
      [
        "ĠÃºct",
        -10.402744290370542
      ],
      [
        "Ġblaze",
        -10.402991135133416
      ],
      [
        "nechaÅ¥",
        -10.40305218393155
      ],
      [
        "Ġmilo",
        -10.40306717039314
      ],
      [
        "ĠdneÅ¡nÃŃ",
        -10.403180892141965
      ],
      [
        "ĠprvnÃŃm",
        -10.40423980787089
      ],
      [
        "ĠÃºtrob",
        -10.404279170272412
      ],
      [
        "ĠpÃ¡s",
        -10.4049594487494
      ],
      [
        "ĠbÃŃdnÃ½",
        -10.405071169718001
      ],
      [
        "Ġvinu",
        -10.40540496159413
      ],
      [
        "proud",
        -10.405701199568027
      ],
      [
        "zdaÅ¾",
        -10.40577293877408
      ],
      [
        "Ġmlha",
        -10.406420960938359
      ],
      [
        "Ġvrb",
        -10.40661184519534
      ],
      [
        "ĠbÃŃlÃ©m",
        -10.406654813064472
      ],
      [
        "dnem",
        -10.408154036681552
      ],
      [
        "ĠumÃŃrÃ¡",
        -10.40828048987082
      ],
      [
        "ĠspÄĽchÃ¡",
        -10.408724287393651
      ],
      [
        "ĠvrhÃ¡",
        -10.409745316626067
      ],
      [
        "ĠblÃ½skÃ¡",
        -10.410057977307872
      ],
      [
        "ĠspÃ¡r",
        -10.410232948525671
      ],
      [
        "ĠzlÃ¡",
        -10.410437574708244
      ],
      [
        "Ġbratry",
        -10.410975868546466
      ],
      [
        "Ġjind",
        -10.4127821582344
      ],
      [
        "Ġjasu",
        -10.413019556735156
      ],
      [
        "ĠboÅ¾ÃŃm",
        -10.413117592695077
      ],
      [
        "lÃ½",
        -10.41315470706552
      ],
      [
        "Ġspor",
        -10.41390372761812
      ],
      [
        "ĠbrÃ¡zd",
        -10.414377342759721
      ],
      [
        "ĠperutÃŃ",
        -10.414421437705256
      ],
      [
        "ĠlÅ¯Å¾k",
        -10.414599906309139
      ],
      [
        "ĠzeleÅĪ",
        -10.414933693973381
      ],
      [
        "ĠhrdÃ©",
        -10.415127309824044
      ],
      [
        "jimÅ¾",
        -10.415159918338027
      ],
      [
        "Ġztracen",
        -10.415249838574915
      ],
      [
        "ĠzbÃ½vÃ¡",
        -10.416404430529086
      ],
      [
        "ĠpouÅ¡Å¥",
        -10.416458202032896
      ],
      [
        "ĠhlÃŃn",
        -10.416844569351152
      ],
      [
        "Ġluna",
        -10.416913278411105
      ],
      [
        "ĠprÃ¡zdnÃ½",
        -10.416973992358791
      ],
      [
        "Ġtiskne",
        -10.417370559559782
      ],
      [
        "ĠhÅĻmÃŃ",
        -10.417381053997412
      ],
      [
        "ĠsvatÃ©m",
        -10.417627735030585
      ],
      [
        "Ġokno",
        -10.417770265633553
      ],
      [
        "Ã¡n",
        -10.417783808560674
      ],
      [
        "ĠulicÃŃ",
        -10.417950401407557
      ],
      [
        "Ġrady",
        -10.418256949720023
      ],
      [
        "ĠkrokÅ¯",
        -10.418739934931189
      ],
      [
        "ĠutrpenÃŃ",
        -10.419451474472876
      ],
      [
        "ĠotvÃŃrÃ¡",
        -10.419506433777194
      ],
      [
        "ÅĻek",
        -10.41964312240724
      ],
      [
        "ĠperuÅ¥",
        -10.420141230365322
      ],
      [
        "Ġpozor",
        -10.420285496560815
      ],
      [
        "ĠstrÃ¡Å¾",
        -10.420460508190148
      ],
      [
        "Ġtluk",
        -10.420635760577312
      ],
      [
        "dle",
        -10.420648881530287
      ],
      [
        "ĠtesknÄĽ",
        -10.420949302090142
      ],
      [
        "dÃ¡m",
        -10.420964749445853
      ],
      [
        "ila",
        -10.421062498638594
      ],
      [
        "sestry",
        -10.421165432792694
      ],
      [
        "ĠpÅ¯du",
        -10.421439247656686
      ],
      [
        "Ġhrdlo",
        -10.421555101367828
      ],
      [
        "Ġharf",
        -10.421732925483703
      ],
      [
        "ĠhrobÅ¯",
        -10.422776678325254
      ],
      [
        "ĠzmizÃŃ",
        -10.422889064389626
      ],
      [
        "ĠÅĻÃŃz",
        -10.423254629521171
      ],
      [
        "Å¾Ã¡r",
        -10.42354526716292
      ],
      [
        "ĠnutÃŃ",
        -10.4235712151139
      ],
      [
        "Ġpluje",
        -10.423874142831131
      ],
      [
        "ĠbrÃ¡t",
        -10.423945855264371
      ],
      [
        "ĠzÃ¡pal",
        -10.42404782649037
      ],
      [
        "Ġzrovna",
        -10.424243369904183
      ],
      [
        "ĠkÃ¡zal",
        -10.424278159171276
      ],
      [
        "Ġvidin",
        -10.424934706821928
      ],
      [
        "Ġbloudil",
        -10.425149678722804
      ],
      [
        "ĠjedinÃ¡",
        -10.42550576637601
      ],
      [
        "Ġkmit",
        -10.426069551826803
      ],
      [
        "ĠstÅĻÃŃbro",
        -10.42648727572735
      ],
      [
        "Ġbratra",
        -10.426598511878339
      ],
      [
        "Ġhladin",
        -10.426624461526536
      ],
      [
        "ĠlÃ¡kÃ¡",
        -10.426690636920158
      ],
      [
        "ĠpÅĻÃŃklad",
        -10.426902323218254
      ],
      [
        "ĠzvÃŃÅĻe",
        -10.427131495008013
      ],
      [
        "Ġnos",
        -10.427865889838344
      ],
      [
        "ĠpÄĽst",
        -10.427919698477268
      ],
      [
        "ĠÃºsvit",
        -10.429169937992068
      ],
      [
        "ĠtichÃ½m",
        -10.429398092449723
      ],
      [
        "Ġostrov",
        -10.429398454186076
      ],
      [
        "Ġpomst",
        -10.42962712250675
      ],
      [
        "ĠvÄĽÄįno",
        -10.429907043317183
      ],
      [
        "skutku",
        -10.429993898534411
      ],
      [
        "ĠÅ¡eptal",
        -10.430048426052664
      ],
      [
        "ĠrozkoÅ¡ÃŃ",
        -10.43019593725229
      ],
      [
        "Äįasto",
        -10.431315078747422
      ],
      [
        "ĠdivÄĽ",
        -10.431530538876837
      ],
      [
        "rosou",
        -10.43163043763051
      ],
      [
        "ĠklÃ¡Å¡ter",
        -10.432218585175713
      ],
      [
        "Ġvzala",
        -10.432535657502235
      ],
      [
        "ĠsÃŃÅĪ",
        -10.432934979523807
      ],
      [
        "Ġlil",
        -10.432990605110419
      ],
      [
        "ĠtvrdÃ©",
        -10.432997036658616
      ],
      [
        "ĠtuÅ¾b",
        -10.43343122313653
      ],
      [
        "ĠostrÃ½",
        -10.4341543093886
      ],
      [
        "ĠspoleÄįnost",
        -10.4343705428148
      ],
      [
        "pÅĻiÅ¡el",
        -10.434393988528624
      ],
      [
        "Ġsvitu",
        -10.434541391434568
      ],
      [
        "ĠvelÃŃ",
        -10.434725928431842
      ],
      [
        "Ġjdi",
        -10.434911507867056
      ],
      [
        "ĠdrobnÃ©",
        -10.435280125968886
      ],
      [
        "Ġvojsko",
        -10.43637808216598
      ],
      [
        "Ġvous",
        -10.436714832378552
      ],
      [
        "Ġkolena",
        -10.436739977177862
      ],
      [
        "rek",
        -10.436779776658408
      ],
      [
        "ĠlkÃ¡",
        -10.437520918084394
      ],
      [
        "Ġlkal",
        -10.437628894175976
      ],
      [
        "nevÃŃm",
        -10.437870675681346
      ],
      [
        "Ġhesl",
        -10.43821052656837
      ],
      [
        "ĠpÃŃlÃŃ",
        -10.438476905067658
      ],
      [
        "Ġmatkou",
        -10.438546890587856
      ],
      [
        "pÃ¡r",
        -10.439123689693336
      ],
      [
        "Ġtuze",
        -10.440106073454892
      ],
      [
        "ĠkterÃ©m",
        -10.440695474810092
      ],
      [
        "ĠkeÅĻ",
        -10.441875149417612
      ],
      [
        "Ġpel",
        -10.442126285234156
      ],
      [
        "Ġulice",
        -10.442882425839127
      ],
      [
        "ĠboÅ¾skÃ©",
        -10.44344568202057
      ],
      [
        "Å¡ek",
        -10.443446091430337
      ],
      [
        "Ġskutk",
        -10.443834257796507
      ],
      [
        "ĠtouÅ¾il",
        -10.443922636926708
      ],
      [
        "Ġnajde",
        -10.444797499350038
      ],
      [
        "enÃŃ",
        -10.445121677747363
      ],
      [
        "Ġposlal",
        -10.445586364447834
      ],
      [
        "Ġhezk",
        -10.445637536792905
      ],
      [
        "ĠsÃŃdl",
        -10.446150408581774
      ],
      [
        "nce",
        -10.446735867902127
      ],
      [
        "ĠvznÄĽt",
        -10.447168504078736
      ],
      [
        "vÅ¡ecky",
        -10.447668151959547
      ],
      [
        "divnÃ¡",
        -10.4477210465204
      ],
      [
        "ĠozvÄĽn",
        -10.448617653226389
      ],
      [
        "Ġrakev",
        -10.449293949577179
      ],
      [
        "ĠsahÃ¡",
        -10.449660317610887
      ],
      [
        "dna",
        -10.449661072076546
      ],
      [
        "nebe",
        -10.450085431979165
      ],
      [
        "ĠhlÃ¡sÃ¡",
        -10.450223149236157
      ],
      [
        "Ġklasy",
        -10.45117271720111
      ],
      [
        "ĠdÃ©Å¡Å¥",
        -10.451759173016946
      ],
      [
        "ĠhÃ¡ji",
        -10.452205673106334
      ],
      [
        "ĠzimnÃŃ",
        -10.452348822710427
      ],
      [
        "sic",
        -10.452886563652136
      ],
      [
        "ĠtÅĻpytÃŃ",
        -10.454103002919272
      ],
      [
        "Ġbil",
        -10.454745145266656
      ],
      [
        "Ġtemnot",
        -10.455476443745201
      ],
      [
        "Ġodpor",
        -10.455571217011059
      ],
      [
        "ĠpevnÃ½",
        -10.456461808811621
      ],
      [
        "ĠlÅ¯n",
        -10.456916749844595
      ],
      [
        "Ġkams",
        -10.457399523543831
      ],
      [
        "plÃ¡",
        -10.458002863435416
      ],
      [
        "Ġpolem",
        -10.458578430079388
      ],
      [
        "slav",
        -10.458854480031917
      ],
      [
        "Ġpije",
        -10.458921181112395
      ],
      [
        "zemÄĽ",
        -10.459219011375746
      ],
      [
        "kteÅĻÃŃ",
        -10.459754580192325
      ],
      [
        "ĠzvÄĽÅĻ",
        -10.46151309591088
      ],
      [
        "ĠzvukÅ¯",
        -10.461702042388886
      ],
      [
        "Ġlos",
        -10.46263650182627
      ],
      [
        "hoÅĻe",
        -10.462640788932942
      ],
      [
        "ĠzÅĻÃŃti",
        -10.463152859231304
      ],
      [
        "Ġzle",
        -10.46326866827741
      ],
      [
        "mÄĽstÄĽ",
        -10.463543327488882
      ],
      [
        "ĠzaÅ¡lÃ½",
        -10.463741478034448
      ],
      [
        "jÃŃti",
        -10.463741520221301
      ],
      [
        "mÃŃt",
        -10.464118192030424
      ],
      [
        "Ġpocit",
        -10.464354926788257
      ],
      [
        "Ġcele",
        -10.465038706315006
      ],
      [
        "Ġtoto",
        -10.465629795788615
      ],
      [
        "Ġdoktor",
        -10.46571852455195
      ],
      [
        "smÃŃch",
        -10.465978872842829
      ],
      [
        "ĠhlubokÃ©",
        -10.466010183097904
      ],
      [
        "ĠprÃ¡zdn",
        -10.466088771919384
      ],
      [
        "ĠbÃ¡je",
        -10.466696344851702
      ],
      [
        "prÃ½",
        -10.466933661080823
      ],
      [
        "ĠkÅ¯r",
        -10.467597920651329
      ],
      [
        "vÅ¯z",
        -10.467729621745931
      ],
      [
        "ĠhouÅ¡tÃŃ",
        -10.467986980211995
      ],
      [
        "vln",
        -10.468249692040665
      ],
      [
        "ĠtrÃ¡va",
        -10.468765808398032
      ],
      [
        "ĠdlÃŃ",
        -10.468932325465634
      ],
      [
        "ĠsynÅ¯",
        -10.469037837393685
      ],
      [
        "Ġzdvih",
        -10.469148577914318
      ],
      [
        "ostÃŃ",
        -10.470115845771865
      ],
      [
        "ĠvzdychÃ¡",
        -10.47019427868804
      ],
      [
        "Ġproudu",
        -10.470832535300017
      ],
      [
        "ĠvonnÃ©",
        -10.471119117305792
      ],
      [
        "ĠÃºdÄĽl",
        -10.471207662425954
      ],
      [
        "ĠkrvavÃ©",
        -10.472068421393516
      ],
      [
        "Ġpetr",
        -10.472125922545903
      ],
      [
        "ĠronÃŃ",
        -10.472554099681794
      ],
      [
        "ĠnÄĽjak",
        -10.472862400897238
      ],
      [
        "ĠÅ¾hav",
        -10.472870268832418
      ],
      [
        "ĠotÃ¡zk",
        -10.47302784893255
      ],
      [
        "âĢľ,",
        -10.473166773551718
      ],
      [
        "pa",
        -10.473233793500244
      ],
      [
        "ĠmarnÃ½",
        -10.47347882806061
      ],
      [
        "Ġdlan",
        -10.474370805093226
      ],
      [
        "Ġabych",
        -10.474809917596088
      ],
      [
        "otec",
        -10.475480556806488
      ],
      [
        "Ġsouzvuk",
        -10.476070723866048
      ],
      [
        "ĠkamenÃŃ",
        -10.47620819294185
      ],
      [
        "ĠdÄĽsnÃ½",
        -10.476431725696314
      ],
      [
        "ĠrovnÄĽ",
        -10.477447311879857
      ],
      [
        "pohled",
        -10.477469350031697
      ],
      [
        "ĠnejvÄĽtÅ¡ÃŃ",
        -10.477692013965418
      ],
      [
        "ĠideÃ¡l",
        -10.477993352198173
      ],
      [
        "krok",
        -10.478577073209953
      ],
      [
        "Ġman",
        -10.478809850523803
      ],
      [
        "Ġjat",
        -10.478887491260203
      ],
      [
        "ĠmdlÃ½",
        -10.480497786755148
      ],
      [
        "strach",
        -10.481325483621948
      ],
      [
        "inu",
        -10.48180065161367
      ],
      [
        "Ġruchu",
        -10.482055914952433
      ],
      [
        "mou",
        -10.482178778217687
      ],
      [
        "Ġsklonil",
        -10.482187037258175
      ],
      [
        "dÃŃk",
        -10.482277621528493
      ],
      [
        "br",
        -10.482287206573869
      ],
      [
        "ĠvlastnÃŃm",
        -10.482543624735877
      ],
      [
        "vÃ½Å¡",
        -10.482570265748521
      ],
      [
        "ĠplÃ¡ni",
        -10.482672608774966
      ],
      [
        "vÅ¡i",
        -10.483632522916626
      ],
      [
        "ĠvlasÅ¥",
        -10.484057351017174
      ],
      [
        "ĠdivÃ¡",
        -10.48503968139259
      ],
      [
        "Ġrum",
        -10.485209254967463
      ],
      [
        "ÄįnÃŃ",
        -10.485565707007193
      ],
      [
        "ĠnÄĽhoÅ¾",
        -10.485700281820245
      ],
      [
        "Ġkal",
        -10.485749089951142
      ],
      [
        "ĠhÅĻmÄĽl",
        -10.485757736746828
      ],
      [
        "Ġjel",
        -10.487711810126918
      ],
      [
        "jehoÅ¾",
        -10.488148169753927
      ],
      [
        "ĠzÃ¡bav",
        -10.488180018027734
      ],
      [
        "ĠmÄĽkkÃ½",
        -10.488380955455302
      ],
      [
        "cÃŃm",
        -10.48961488415054
      ],
      [
        "volÃ¡",
        -10.490332014733536
      ],
      [
        "ĠpouÅ¥",
        -10.490732099152737
      ],
      [
        "Ġznaven",
        -10.490961636733404
      ],
      [
        "Ġpat",
        -10.491355078704
      ],
      [
        "Ġbohy",
        -10.491695520325777
      ],
      [
        "ajÃŃcÃŃ",
        -10.492708106265779
      ],
      [
        "ĠslednÃŃ",
        -10.493039950641698
      ],
      [
        "ĠretÅ¯",
        -10.493077339876816
      ],
      [
        "hÃ¡",
        -10.49372044310085
      ],
      [
        "snÃŃ",
        -10.494578638490779
      ],
      [
        "ĠÅ¡era",
        -10.495104974071172
      ],
      [
        "ĠzoÅĻe",
        -10.496449779960823
      ],
      [
        "ĠbÃŃlÃ½m",
        -10.496524412589874
      ],
      [
        "ĠnekoneÄįn",
        -10.496609104072471
      ],
      [
        "ĠzavÅĻel",
        -10.496612329849228
      ],
      [
        "ĠnÄĽhy",
        -10.496744118635135
      ],
      [
        "Ġzmar",
        -10.496875547525747
      ],
      [
        "kus",
        -10.4970660673905
      ],
      [
        "ro",
        -10.497240932275465
      ],
      [
        "ĠÄıas",
        -10.49738274350473
      ],
      [
        "ĠhÅĻÃŃchÅ¯",
        -10.497534155368044
      ],
      [
        "pra",
        -10.497534410669086
      ],
      [
        "tanci",
        -10.497811555562366
      ],
      [
        "Ġrci",
        -10.498141099432857
      ],
      [
        "ĠdÃ¡lnÃ©",
        -10.498524363394822
      ],
      [
        "ĠbÅĻÃŃz",
        -10.498552750797403
      ],
      [
        "ĠznÃ¡Å¡",
        -10.49885533194761
      ],
      [
        "ĠÄıÃ¡bel",
        -10.500469007422936
      ],
      [
        "ĠotevÅĻel",
        -10.500605153665171
      ],
      [
        "ĠnuÅ¾",
        -10.50078470618547
      ],
      [
        "Ġhasne",
        -10.500960837672965
      ],
      [
        "ĠmÅĻel",
        -10.501161188011068
      ],
      [
        "ĠnÃ¡ÅĻek",
        -10.502037353492714
      ],
      [
        "Ġony",
        -10.502275642720159
      ],
      [
        "ĠtÅĻikrÃ¡t",
        -10.502840195996763
      ],
      [
        "Ġptactv",
        -10.503087216107982
      ],
      [
        "Ġvysoko",
        -10.503623423889522
      ],
      [
        "ĠdÄĽd",
        -10.503703180626449
      ],
      [
        "ĠsÃŃtÄĽ",
        -10.504025420176127
      ],
      [
        "ĠskuteÄįnost",
        -10.504282306447166
      ],
      [
        "ĠkrÄįm",
        -10.504301153835591
      ],
      [
        "Ġkolik",
        -10.504686711640627
      ],
      [
        "ĠpouÅ¡tÄĽ",
        -10.504868406571713
      ],
      [
        "ĠpovÃŃ",
        -10.504877942309397
      ],
      [
        "ĠÅĻÃŃkÃ¡",
        -10.505066894361278
      ],
      [
        "ĠkvÃŃte",
        -10.505101583243421
      ],
      [
        "Äįka",
        -10.5051877417091
      ],
      [
        "ĠnÃ¡dher",
        -10.50534693602248
      ],
      [
        "Å¡at",
        -10.506029427715276
      ],
      [
        "ĠtrnÃŃ",
        -10.506684773441727
      ],
      [
        "Ġvzor",
        -10.50767539159548
      ],
      [
        "ĠÄįechÅ¯",
        -10.508080288462043
      ],
      [
        "ĠchrÃ¡nÃŃ",
        -10.50831898852376
      ],
      [
        "Ġsice",
        -10.508497961870312
      ],
      [
        "ĠkÅĻÃŃdlo",
        -10.50851179128476
      ],
      [
        "ĠblahÃ½",
        -10.508532714187222
      ],
      [
        "Å¾ÃŃ",
        -10.509173738195328
      ],
      [
        "ĠdÄĽtstvÃŃ",
        -10.509352276221826
      ],
      [
        "skÃ©m",
        -10.509649106085114
      ],
      [
        "Ġkladl",
        -10.509924969009687
      ],
      [
        "hrom",
        -10.510125140785544
      ],
      [
        "re",
        -10.511100949289991
      ],
      [
        "ĠÅ¾ivobytÃŃ",
        -10.511324826954597
      ],
      [
        "ĠopuÅ¡tÄĽn",
        -10.511796864981063
      ],
      [
        "ĠtanÄįÃŃ",
        -10.511870406703501
      ],
      [
        "Ġochran",
        -10.512023246643704
      ],
      [
        "!âĢĺ",
        -10.513244948947062
      ],
      [
        "moje",
        -10.513761413324312
      ],
      [
        "ĠumÅĻÃŃt",
        -10.513877615386084
      ],
      [
        "mÄĽÅĻ",
        -10.514603336980073
      ],
      [
        "Ġspat",
        -10.514828604155628
      ],
      [
        "ĠteplÃ½",
        -10.515148611710185
      ],
      [
        "Ġazur",
        -10.515914791332474
      ],
      [
        "Ġunaven",
        -10.516290843003858
      ],
      [
        ".âĢľâĢľ",
        -10.51708592663904
      ],
      [
        "jÃŃm",
        -10.517836331113603
      ],
      [
        "Ġmohlo",
        -10.517896036628635
      ],
      [
        "Ġbrzo",
        -10.517936412402701
      ],
      [
        "ĠzÃ¡vod",
        -10.518102763816861
      ],
      [
        "ĠsmrÅ¥",
        -10.5183409300107
      ],
      [
        "ĠstarÃ©m",
        -10.518447000531864
      ],
      [
        "Ġrostou",
        -10.519353515703092
      ],
      [
        "Ġlov",
        -10.52028432665146
      ],
      [
        "Ġroucho",
        -10.520603178262308
      ],
      [
        "ĠÅ¡ÃŃÅĻÃŃ",
        -10.520658756877932
      ],
      [
        "Ġd",
        -10.521631265606558
      ],
      [
        "Ġtekl",
        -10.52260192007321
      ],
      [
        "Ġpravdo",
        -10.522895461007874
      ],
      [
        "Ġbiskup",
        -10.52340448412197
      ],
      [
        "ĠhovoÅĻÃŃ",
        -10.523710901563831
      ],
      [
        "ĠbujnÃ½",
        -10.523809262606573
      ],
      [
        "bleskem",
        -10.523856966769483
      ],
      [
        "ĠmroucÃŃ",
        -10.524142212763788
      ],
      [
        "Ġpoupat",
        -10.525081594019206
      ],
      [
        "Å¾al",
        -10.525768060481365
      ],
      [
        "Ġdnu",
        -10.5268316493887
      ],
      [
        "ĠbÃ¡j",
        -10.527008245063875
      ],
      [
        "Ġtaje",
        -10.527575819706218
      ],
      [
        "ĠvÄĽÅĻÃŃm",
        -10.528328371108383
      ],
      [
        "Ġryk",
        -10.528528962658392
      ],
      [
        "ĠlÃ©k",
        -10.528713646555659
      ],
      [
        "ĠzlatÄĽ",
        -10.528744002782851
      ],
      [
        "ĠkvÄĽte",
        -10.528879488075628
      ],
      [
        "novÃ©",
        -10.529398680439284
      ],
      [
        "Ġkryl",
        -10.5299731075916
      ],
      [
        "ĠprvÃ½",
        -10.530101270958422
      ],
      [
        "Ġblahu",
        -10.530549075965148
      ],
      [
        "!)",
        -10.530639038097085
      ],
      [
        "pravÃŃ",
        -10.530791935013113
      ],
      [
        "Å¡tÄĽstÃŃ",
        -10.531628415532007
      ],
      [
        "ĠmodlÃŃ",
        -10.53172640133938
      ],
      [
        "Ġskon",
        -10.531892401087696
      ],
      [
        "Ġhymn",
        -10.532082420713595
      ],
      [
        "Ġzdob",
        -10.532294971434874
      ],
      [
        "ĠsladkÃ½m",
        -10.532392004592527
      ],
      [
        "ĠzmÄĽnil",
        -10.532399333641095
      ],
      [
        "Ġzimy",
        -10.53243108843272
      ],
      [
        "ĠvzpomÃŃnÃ¡",
        -10.53274028042819
      ],
      [
        "ĠzoufalstvÃŃ",
        -10.534860983438712
      ],
      [
        "Ġkrk",
        -10.536187296144938
      ],
      [
        "ĠÅ¾iÅ¾k",
        -10.536637610298062
      ],
      [
        "ĠlistÅ¯",
        -10.538138664620757
      ],
      [
        "ĠÅ¾lutÃ½",
        -10.538294102435756
      ],
      [
        "ĠsrÃ¡z",
        -10.538887928704698
      ],
      [
        "ĠÅ¡erÃ½",
        -10.539173633341573
      ],
      [
        "znÃ¡Å¡",
        -10.539760013945536
      ],
      [
        "ĠslabÃ½",
        -10.539796506054824
      ],
      [
        "ĠprÃ¡zdnÃ©",
        -10.540527911191917
      ],
      [
        "novÃ½",
        -10.540731114325933
      ],
      [
        "zvlÃ¡Å¡Å¥",
        -10.541589350345427
      ],
      [
        "Ġprosil",
        -10.541710764612125
      ],
      [
        "ĠsnivÃ©",
        -10.541748013694871
      ],
      [
        "ĠvodnÃŃ",
        -10.543283996936978
      ],
      [
        "Ġnemohu",
        -10.543623933906977
      ],
      [
        "ret",
        -10.543656869961463
      ],
      [
        "Ġsok",
        -10.545014834391898
      ],
      [
        "ĠklidnÃ½",
        -10.545858378277781
      ],
      [
        "Ġodvah",
        -10.546431499758064
      ],
      [
        "ĠkrÃ¡tc",
        -10.54721461434643
      ],
      [
        "ovy",
        -10.54734863901924
      ],
      [
        "ĠhÅĻbet",
        -10.547852233289415
      ],
      [
        "Ġslast",
        -10.549550889492231
      ],
      [
        "ĠpÄĽknÃ©",
        -10.549590973418976
      ],
      [
        "ĠlÃ©to",
        -10.550516134215613
      ],
      [
        "ĠjimÅ¾",
        -10.551174384333715
      ],
      [
        "ĠÄįnÃŃ",
        -10.551321384929587
      ],
      [
        "ovu",
        -10.551558608973497
      ],
      [
        "ĠveÄįernÃŃ",
        -10.55227333342061
      ],
      [
        "ĠmÄĽlo",
        -10.552513607515284
      ],
      [
        "ĠpÅĻÃŃzrak",
        -10.552694890366766
      ],
      [
        "ĠbleskÅ¯",
        -10.552706158990759
      ],
      [
        "ĠsnovÃ©",
        -10.553076290479888
      ],
      [
        "ĠrekÅ¯",
        -10.553422385221086
      ],
      [
        "ĠÅ¾lutÃ©",
        -10.553791005351083
      ],
      [
        "vzhÅ¯r",
        -10.554359010178757
      ],
      [
        "vÅ¡echno",
        -10.55467805029345
      ],
      [
        "ĠtÅĻesk",
        -10.554953767581111
      ],
      [
        "enÃ©",
        -10.554968189250607
      ],
      [
        "ĠbudoucÃŃ",
        -10.555429094522893
      ],
      [
        "bÃŃ",
        -10.55565090460031
      ],
      [
        "ĠÃºnav",
        -10.555747151714101
      ],
      [
        "ĠpÅĻijdou",
        -10.556244445472275
      ],
      [
        "ĠzdÃŃ",
        -10.556246098971275
      ],
      [
        "ĠhvÄĽzdnÃ½",
        -10.556360928904887
      ],
      [
        "ter",
        -10.556716254469587
      ],
      [
        "ona",
        -10.556776673520279
      ],
      [
        "stÃ¡le",
        -10.5569030465817
      ],
      [
        "ĠhbitÄĽ",
        -10.556939360933558
      ],
      [
        "ruce",
        -10.55731340946244
      ],
      [
        "ĠblahÃ©",
        -10.557359974455492
      ],
      [
        "ĠÄıÃ¡bl",
        -10.557429740437776
      ],
      [
        "toho",
        -10.557776714106712
      ],
      [
        "ĠvÅĻel",
        -10.557897456868371
      ],
      [
        "Ġprost",
        -10.558462469175819
      ],
      [
        "Ġvinou",
        -10.558815331438977
      ],
      [
        "Å¾ÃŃt",
        -10.55958969369607
      ],
      [
        "ĠpÅĻÃŃstav",
        -10.560662156165353
      ],
      [
        "ĠÅ¡ÃŃje",
        -10.560664675441412
      ],
      [
        "ĠtvrdÃ½",
        -10.561171827054828
      ],
      [
        "Ġkoni",
        -10.561467261747445
      ],
      [
        "sil",
        -10.561969612385402
      ],
      [
        "Ġzastavil",
        -10.562527369441515
      ],
      [
        "ĠtajnÃ©",
        -10.56266320465981
      ],
      [
        "vÄĽÄįnosti",
        -10.56354601485373
      ],
      [
        "ĠÅ¡irÃ©",
        -10.563823814574375
      ],
      [
        "ĠplÃ¡pol",
        -10.564389458959525
      ],
      [
        "komu",
        -10.564747761806418
      ],
      [
        "Ġhra",
        -10.564787069516955
      ],
      [
        "budu",
        -10.564864676934398
      ],
      [
        "nec",
        -10.565232243625186
      ],
      [
        "vzal",
        -10.565310730700585
      ],
      [
        "zdali",
        -10.565451021931473
      ],
      [
        "ĠsedÃ¡",
        -10.56545906205203
      ],
      [
        "ĠkrÃ¡lovstvÃŃ",
        -10.56583668948873
      ],
      [
        "Ġspokojen",
        -10.566710415422577
      ],
      [
        "kr",
        -10.566786370344214
      ],
      [
        "ĠbuÄıte",
        -10.56704910593432
      ],
      [
        "ĠnadÄĽji",
        -10.567475553386018
      ],
      [
        "ĠdivÃ©m",
        -10.567599546926484
      ],
      [
        "ĠvzÃ¡cnÃ½",
        -10.568385478266624
      ],
      [
        "ĠmraÄįen",
        -10.568760525112486
      ],
      [
        "Ġkdybych",
        -10.56887136390277
      ],
      [
        "ĠpoupÄĽ",
        -10.569430758071451
      ],
      [
        "sto",
        -10.56961502594924
      ],
      [
        "ĠhoÅĻi",
        -10.569822749595495
      ],
      [
        "ĠlehkÃ½",
        -10.5702015691575
      ],
      [
        "Ġhlasu",
        -10.57045433346279
      ],
      [
        "ĠslyÅ¡ÃŃÅ¡",
        -10.57087929900138
      ],
      [
        "hor",
        -10.571111897514498
      ],
      [
        "tma",
        -10.571636024103725
      ],
      [
        "Ġmohou",
        -10.57201759146653
      ],
      [
        "ĠdivokÃ½",
        -10.57205350927999
      ],
      [
        "Ġpovstal",
        -10.572656283710412
      ],
      [
        "ĠkmitÃ¡",
        -10.572769018085761
      ],
      [
        "ĠlÃŃtÃ¡",
        -10.572985949780161
      ],
      [
        "osud",
        -10.573614528616812
      ],
      [
        "Ġjasnou",
        -10.57405162017584
      ],
      [
        "ĠsvÃ¡r",
        -10.574052320507157
      ],
      [
        "ĠobrÃ¡til",
        -10.574364981122546
      ],
      [
        "Ġrostl",
        -10.574549086448158
      ],
      [
        "pÅ¯l",
        -10.57475834023752
      ],
      [
        "ĠmÅĻÃŃt",
        -10.574936485785486
      ],
      [
        "ovÃ¡n",
        -10.574946276888284
      ],
      [
        "ĠnevÄĽdÄĽl",
        -10.575048122861265
      ],
      [
        "Ġrozkaz",
        -10.57510645795107
      ],
      [
        "ĠÅ¾ili",
        -10.576174644173408
      ],
      [
        "Ġdlel",
        -10.576719883322571
      ],
      [
        "ĠstrÃ¡nÄĽ",
        -10.577300479357856
      ],
      [
        "Ġper",
        -10.57747047126271
      ],
      [
        "ĠvÄĽÅĻil",
        -10.57806641311311
      ],
      [
        "vÅ¡ude",
        -10.578625495337455
      ],
      [
        "Ġdcero",
        -10.578740144014645
      ],
      [
        "kat",
        -10.57897444022916
      ],
      [
        "Ġstav",
        -10.579582915812775
      ],
      [
        "Ġpodob",
        -10.580487764799052
      ],
      [
        "ĠmoudrÃ½",
        -10.58078915754092
      ],
      [
        "Ġodkud",
        -10.5810698709288
      ],
      [
        "ĠvÃ¡Å¾nÃ½",
        -10.58132006639812
      ],
      [
        "Ġradu",
        -10.581637432207447
      ],
      [
        "ĠnÃ©st",
        -10.581715608220836
      ],
      [
        "ĠneznÃ¡mÃ©",
        -10.581945119987239
      ],
      [
        "ĠproudÃŃ",
        -10.582087998490898
      ],
      [
        "ĠvÄĽtÅĻÃŃk",
        -10.582905300075545
      ],
      [
        "ĠkÅĻivd",
        -10.583378766188122
      ],
      [
        "ĠÅ¾ivÃ¡",
        -10.58363030582072
      ],
      [
        "jan",
        -10.584035822946952
      ],
      [
        "ĠpÅĻiÅ¡lo",
        -10.584146501785884
      ],
      [
        "ĠzahradÄĽ",
        -10.585046360471313
      ],
      [
        "ĠmyÅ¡lene",
        -10.585439981910316
      ],
      [
        "ĠteÄįe",
        -10.5854512904242
      ],
      [
        "Ġsmutnou",
        -10.585600499690855
      ],
      [
        "ĠvÄĽÅ¾",
        -10.585602897774937
      ],
      [
        "ĠvojÃ¡k",
        -10.585875074028987
      ],
      [
        "Ġpne",
        -10.586006754323629
      ],
      [
        "hrob",
        -10.586019266932992
      ],
      [
        "Ġpohan",
        -10.586028113656155
      ],
      [
        "ĠpuÄįÃŃ",
        -10.586215398721512
      ],
      [
        "Ġklobouk",
        -10.586254950521973
      ],
      [
        "Ġvedla",
        -10.587238312900645
      ],
      [
        "Ġsudb",
        -10.587640857080757
      ],
      [
        "ĠtakÃ½",
        -10.58806660920541
      ],
      [
        "jistÄĽ",
        -10.588225136926381
      ],
      [
        "hu",
        -10.588332627857088
      ],
      [
        "tiÅ¡e",
        -10.588410420940983
      ],
      [
        "dny",
        -10.588443448025169
      ],
      [
        "Ġkorunu",
        -10.588962171598393
      ],
      [
        "ĠdravÃ½",
        -10.589436895746625
      ],
      [
        "Ġchodb",
        -10.589824822017118
      ],
      [
        "ĠsnivÃ½",
        -10.591715436498284
      ],
      [
        "Ġkouzla",
        -10.591727118464222
      ],
      [
        "ĠzÅĻela",
        -10.592203868409698
      ],
      [
        "ĠuÄįÃŃ",
        -10.592461363564887
      ],
      [
        "ĠpenÄĽz",
        -10.592544599738842
      ],
      [
        "Ġpokoje",
        -10.59274073180046
      ],
      [
        "Ġpovinnost",
        -10.593038576130027
      ],
      [
        "ĠtajemnÃ©",
        -10.593089703185289
      ],
      [
        "ĠsklÃ¡dÃ¡",
        -10.593099879265456
      ],
      [
        "ĠholÃ©",
        -10.593648213417925
      ],
      [
        "ĠplÃ¡ÅĪ",
        -10.593679925446416
      ],
      [
        "kÅĻÃŃÅ¾",
        -10.593850564493223
      ],
      [
        "ĠkÅĻÃŃÅ¾em",
        -10.594409931110494
      ],
      [
        "rychle",
        -10.594455339390299
      ],
      [
        "Ġpomsty",
        -10.594513963628675
      ],
      [
        "Ġsmutk",
        -10.594638569869772
      ],
      [
        "Ġlevo",
        -10.594762575325895
      ],
      [
        "ĠdÃ¡val",
        -10.595464441126278
      ],
      [
        "Ġspanil",
        -10.59577667510069
      ],
      [
        "ĠdruhÅ¯",
        -10.596077041017764
      ],
      [
        "kdybych",
        -10.596527241869087
      ],
      [
        "Ġrtu",
        -10.597331067443065
      ],
      [
        "Ġclon",
        -10.59745636112157
      ],
      [
        "ĠbavÃŃ",
        -10.597629033851254
      ],
      [
        "nek",
        -10.59765628005749
      ],
      [
        "Ġsnesl",
        -10.598248685764082
      ],
      [
        "Äįky",
        -10.598285757568899
      ],
      [
        "ĠtÃ¡h",
        -10.598365889784912
      ],
      [
        "svatÃ½",
        -10.598719666614272
      ],
      [
        "ĠvÃŃsk",
        -10.598760702742819
      ],
      [
        "ĠznÃ¡mÃ©",
        -10.599271995327195
      ],
      [
        "Ġtiskl",
        -10.599454998613535
      ],
      [
        "ĠumÅĻel",
        -10.599583896071454
      ],
      [
        "ĠluÄįin",
        -10.599818990163211
      ],
      [
        "tobÄĽ",
        -10.59995329894894
      ],
      [
        "ĠztrÃ¡t",
        -10.600184785537312
      ],
      [
        "ĠÄįeho",
        -10.600550828514482
      ],
      [
        "ĠlodÃŃ",
        -10.600625707399693
      ],
      [
        "vlast",
        -10.601054684921735
      ],
      [
        "Ġpochyb",
        -10.601536830091241
      ],
      [
        "ĠkvÃŃtk",
        -10.601881741504759
      ],
      [
        "ĠchoÅ¥",
        -10.602021372856264
      ],
      [
        "Ġvznesl",
        -10.602077792082284
      ],
      [
        "Ġhus",
        -10.602100816517826
      ],
      [
        "ĠsmÃŃ",
        -10.602353129119887
      ],
      [
        "Ġpotu",
        -10.602427189275517
[...]
