{
  "version": "1.0",
  "truncation": null,
  "padding": null,
  "added_tokens": [
    {
      "id": 0,
      "content": "<|endoftext|>",
      "single_word": false,
      "lstrip": false,
      "rstrip": false,
      "normalized": false,
      "special": true
    }
  ],
  "normalizer": null,
  "pre_tokenizer": {
    "type": "ByteLevel",
    "add_prefix_space": false,
    "trim_offsets": true,
    "use_regex": true
  },
  "post_processor": {
    "type": "ByteLevel",
    "add_prefix_space": true,
    "trim_offsets": false,
    "use_regex": true
  },
  "decoder": {
    "type": "ByteLevel",
    "add_prefix_space": true,
    "trim_offsets": true,
    "use_regex": true
  },
  "model": {
    "type": "Unigram",
    "unk_id": 0,
    "vocab": [
      [
        "<|endoftext|>",
        0.0
      ],
      [
        "Ċ",
        -2.0273597966804004
      ],
      [
        ",",
        -2.660305258809929
      ],
      [
        "a",
        -3.527733837974642
      ],
      [
        "Ġ",
        -3.5919241833043376
      ],
      [
        ".",
        -3.9417946950716747
      ],
      [
        "y",
        -4.072490346717158
      ],
      [
        "Ġv",
        -4.202444101831359
      ],
      [
        "u",
        -4.205461952672243
      ],
      [
        "Ġse",
        -4.2970513495222455
      ],
      [
        "i",
        -4.3425807754780585
      ],
      [
        "ĠâĢĵ",
        -4.80549738198294
      ],
      [
        "!",
        -4.915096951815439
      ],
      [
        "m",
        -5.049185727229444
      ],
      [
        "em",
        -5.07133544754573
      ],
      [
        "ch",
        -5.109332744846057
      ],
      [
        "Ġna",
        -5.190511219630297
      ],
      [
        "o",
        -5.192732450094015
      ],
      [
        "Ġs",
        -5.3571873163906965
      ],
      [
        "ou",
        -5.450556136635253
      ],
      [
        "Ġz",
        -5.4653597300471155
      ],
      [
        "e",
        -5.512875971018245
      ],
      [
        ";",
        -5.596717048706287
      ],
      [
        "v",
        -5.606548498027069
      ],
      [
        ":",
        -5.607336392291188
      ],
      [
        "Ġk",
        -5.6139893485027965
      ],
      [
        "A",
        -5.658162923097585
      ],
      [
        "Ã¡",
        -5.711076521119637
      ],
      [
        "?",
        -5.768756719056054
      ],
      [
        "Ġje",
        -5.844264926780829
      ],
      [
        "Ġto",
        -5.875862152910349
      ],
      [
        "s",
        -5.9617959003387515
      ],
      [
        "ÄĽ",
        -5.974673386773503
      ],
      [
        "Ġjak",
        -6.056440978432864
      ],
      [
        "Ġdo",
        -6.093613897542106
      ],
      [
        "...",
        -6.145384861638883
      ],
      [
        "k",
        -6.155836062013037
      ],
      [
        "ÃŃ",
        -6.169156108872844
      ],
      [
        "âĢŀ",
        -6.188103683735935
      ],
      [
        "Ġjsem",
        -6.197778689461494
      ],
      [
        "Ġpo",
        -6.206017877595519
      ],
      [
        "na",
        -6.267020988357471
      ],
      [
        "Ġza",
        -6.269489543730103
      ],
      [
        "ho",
        -6.332527293335007
      ],
      [
        "jak",
        -6.3384191571949575
      ],
      [
        "ĠÅ¾e",
        -6.36222754042727
      ],
      [
        "Å¡",
        -6.377276914108066
      ],
      [
        "Ġjen",
        -6.380662184067324
      ],
      [
        "V",
        -6.4558173513518256
      ],
      [
        "Ġmi",
        -6.504814097775752
      ],
      [
        "Ġsi",
        -6.528455759286629
      ],
      [
        "Ġco",
        -6.560602541324341
      ],
      [
        "Å¾e",
        -6.573975183292493
      ],
      [
        "âĢĻ",
        -6.580480722878198
      ],
      [
        "Ġtak",
        -6.613977902812474
      ],
      [
        "Ã©",
        -6.614550558217051
      ],
      [
        "Ġby",
        -6.633415303405926
      ],
      [
        "Ġtu",
        -6.646182637129954
      ],
      [
        "se",
        -6.677152531673125
      ],
      [
        "Ġmu",
        -6.683050309515584
      ],
      [
        "Ġne",
        -6.6863745183581305
      ],
      [
        "Ġjako",
        -6.689751729345602
      ],
      [
        "!âĢľ",
        -6.702074508374112
      ],
      [
        "li",
        -6.708433432835065
      ],
      [
        "Ġve",
        -6.710451904206288
      ],
      [
        "Ġsrdce",
        -6.741383755550773
      ],
      [
        "Ġjeho",
        -6.744988518433843
      ],
      [
        "ce",
        -6.778117505519111
      ],
      [
        "z",
        -6.781615690798198
      ],
      [
        "ĠsvÃ©",
        -6.84281527499558
      ],
      [
        "te",
        -6.846231919144238
      ],
      [
        "Ġbyl",
        -6.900584922483283
      ],
      [
        "Å¯",
        -6.911729969870175
      ],
      [
        "ĠjiÅ¾",
        -6.9198098905278
      ],
      [
        "ĠmÃ¡",
        -6.922936210965862
      ],
      [
        "Ġtam",
        -6.930432632418549
      ],
      [
        "ĠkdyÅ¾",
        -6.946810300575395
      ],
      [
        "Ġten",
        -6.955297097946135
      ],
      [
        "Ġty",
        -6.971620397801129
      ],
      [
        "aÅ¾",
        -7.014271942799143
      ],
      [
        "ĠâĢŀ",
        -7.017260860051882
      ],
      [
        "Ġpro",
        -7.0190098036133115
      ],
      [
        "ek",
        -7.030918610461887
      ],
      [
        "Ġmne",
        -7.036943109288595
      ],
      [
        "Na",
        -7.0472912920981585
      ],
      [
        "-",
        -7.056840788239704
      ],
      [
        "Ã¡ch",
        -7.0988820612564805
      ],
      [
        "to",
        -7.100682738479277
      ],
      [
        "Ġnad",
        -7.1069287362423665
      ],
      [
        "t",
        -7.119298833346241
      ],
      [
        "ĠmÃ©",
        -7.121830778288031
      ],
      [
        "ĠnÃ¡m",
        -7.151197475360233
      ],
      [
        "ĠvÅ¡ak",
        -7.16417470400658
      ],
      [
        "Ġzas",
        -7.18405206245655
      ],
      [
        "Ġji",
        -7.1854520696726265
      ],
      [
        "Ġjest",
        -7.18917579333319
      ],
      [
        "kdyÅ¾",
        -7.197493756379366
      ],
      [
        "Ã½",
        -7.201095233362821
      ],
      [
        "ĠsvÄĽt",
        -7.204409928753805
      ],
      [
        "Ġti",
        -7.205850540141675
      ],
      [
        "Jak",
        -7.223056851508529
      ],
      [
        "ĠjÃ¡",
        -7.2314369935390275
      ],
      [
        "nÃ¡",
        -7.249125048714243
      ],
      [
        "ĠjeÅ¾",
        -7.259231011507822
      ],
      [
        "po",
        -7.259488058734881
      ],
      [
        "ĠduÅ¡e",
        -7.272916538830609
      ],
      [
        "Å¥",
        -7.285597055027321
      ],
      [
        "Ġod",
        -7.2922228147729875
      ],
      [
        "ĠnÃŃ",
        -7.292981530664523
      ],
      [
        "ĠjÃŃ",
        -7.296811499819215
      ],
      [
        "Ġpak",
        -7.303565623072121
      ],
      [
        "mi",
        -7.3043423254159965
      ],
      [
        "ech",
        -7.3090178824080745
      ],
      [
        "Ġjsi",
        -7.313521387191567
      ],
      [
        "Ġsvou",
        -7.327159828015221
      ],
      [
        "ne",
        -7.328512258253653
      ],
      [
        "S",
        -7.332632866767595
      ],
      [
        "Ġkde",
        -7.341479283546352
      ],
      [
        "Ġtom",
        -7.342813699669444
      ],
      [
        "za",
        -7.349863317846836
      ],
      [
        "ĠuÅ¾",
        -7.351643825321215
      ],
      [
        "co",
        -7.354784137965668
      ],
      [
        "ĠjeÅ¡tÄĽ",
        -7.3587580473068215
      ],
      [
        "ĠtÄĽ",
        -7.362918581928273
      ],
      [
        "jeÅ¾",
        -7.368242987377048
      ],
      [
        "Ãĵ",
        -7.368700245992873
      ],
      [
        "Ġbez",
        -7.37324078253981
      ],
      [
        "nou",
        -7.373650637138368
      ],
      [
        "ĠnÃ¡s",
        -7.381789039251469
      ],
      [
        "Z",
        -7.383205850619193
      ],
      [
        ".âĢľ",
        -7.385126174767192
      ],
      [
        "ĠÅ¾ivot",
        -7.396773832929684
      ],
      [
        "ĠvÅ¡e",
        -7.414325450956365
      ],
      [
        "je",
        -7.416130311786619
      ],
      [
        "ĠjenÅ¾",
        -7.4220974662774335
      ],
      [
        "ĠmÅ¯j",
        -7.423771012907411
      ],
      [
        "Ġpod",
        -7.428911081411117
      ],
      [
        "ĠpÅĻed",
        -7.432708553663701
      ],
      [
        "ĠduÅ¡i",
        -7.440569240449765
      ],
      [
        "ĠkvÄĽt",
        -7.449971892549783
      ],
      [
        "do",
        -7.457125417718377
      ],
      [
        "Ġjsou",
        -7.457768550929682
      ],
      [
        "vÅ¡ak",
        -7.461439606228636
      ],
      [
        "ĠtÃ©",
        -7.463542438883939
      ],
      [
        "ĠvÅ¾dy",
        -7.472508746325236
      ],
      [
        "Tak",
        -7.475389588546868
      ],
      [
        "ĠjejÃŃ",
        -7.491510561883205
      ],
      [
        "nÃŃ",
        -7.494974095165427
      ],
      [
        "nÄĽ",
        -7.510982519045161
      ],
      [
        "kde",
        -7.511364074574692
      ],
      [
        "by",
        -7.518645914846086
      ],
      [
        "l",
        -7.5199202006773795
      ],
      [
        "Co",
        -7.521004371128253
      ],
      [
        "Ġzrak",
        -7.538334811333241
      ],
      [
        "Ã½ch",
        -7.54370703166351
      ],
      [
        "c",
        -7.5512232748249595
      ],
      [
        "Ġjej",
        -7.557802523059589
      ],
      [
        "Ġta",
        -7.559270146967501
      ],
      [
        "Ġden",
        -7.55982998096483
      ],
      [
        "Ġslunce",
        -7.568445036698408
      ],
      [
        "ĠpÅĻi",
        -7.572972019879693
      ],
      [
        "jen",
        -7.58497327143302
      ],
      [
        "ĠdÃ¡l",
        -7.593980467291955
      ],
      [
        "tak",
        -7.594883663428007
      ],
      [
        "Ġbude",
        -7.595258739158801
      ],
      [
        "JÃ¡",
        -7.604422338997116
      ],
      [
        "Ġjsme",
        -7.604776531744513
      ],
      [
        "ĠmnÄĽ",
        -7.608129108569219
      ],
      [
        "ĠteÄı",
        -7.624780529297407
      ],
      [
        "VÅ¡ak",
        -7.627566688318469
      ],
      [
        "ĠnenÃŃ",
        -7.629069237293944
      ],
      [
        "ĠÄįas",
        -7.630580222598812
      ],
      [
        "Ġze",
        -7.636686583154228
      ],
      [
        "ĠtvÃ©",
        -7.665806458727721
      ],
      [
        "Ġbych",
        -7.668146343974026
      ],
      [
        "vÅ¯j",
        -7.673639687288578
      ],
      [
        "ĠtÄĽch",
        -7.681875808449703
      ],
      [
        "ĠlÃ¡sky",
        -7.683167992101936
      ],
      [
        "Po",
        -7.684112421609827
      ],
      [
        "ĠÅ¾itÃŃ",
        -7.69540077687831
      ],
      [
        "Ne",
        -7.7002476180622015
      ],
      [
        "n",
        -7.700799983538468
      ],
      [
        "Ġbylo",
        -7.702754517475961
      ],
      [
        "tu",
        -7.706218260654865
      ],
      [
        "Ġho",
        -7.708942875658231
      ],
      [
        "To",
        -7.727212707482437
      ],
      [
        "âĢĵ",
        -7.73701478358894
      ],
      [
        "Ty",
        -7.744455573320295
      ],
      [
        "ĠsÃ¡m",
        -7.7472939052718
      ],
      [
        "ĠnÄĽm",
        -7.764837869063683
      ],
      [
        "I",
        -7.769152697359386
      ],
      [
        "ĠsobÄĽ",
        -7.773047326830625
      ],
      [
        "Ġlid",
        -7.7737033514329585
      ],
      [
        "jÃ¡",
        -7.777086154316411
      ],
      [
        "Za",
        -7.782785359197016
      ],
      [
        "ĠoÄįi",
        -7.786506894727452
      ],
      [
        "ty",
        -7.788770191934356
      ],
      [
        "Ġkdo",
        -7.792937366168649
      ],
      [
        "Ġlet",
        -7.805101681329894
      ],
      [
        "K",
        -7.815618041528234
      ],
      [
        "Ġjich",
        -7.817319590046107
      ],
      [
        "Ġsrdci",
        -7.8218071129514755
      ],
      [
        "ĠvÅ¡ech",
        -7.824783877135733
      ],
      [
        "ku",
        -7.826352628684761
      ],
      [
        "jenÅ¾",
        -7.826965343688105
      ],
      [
        "Å¯m",
        -7.8320778919863585
      ],
      [
        "O",
        -7.834312804285705
      ],
      [
        "Ġjim",
        -7.839635668838007
      ],
      [
        "Ġhlav",
        -7.840786800396691
      ],
      [
        "KdyÅ¾",
        -7.842752168399718
      ],
      [
        "ĠvÃ¡m",
        -7.844912657523874
      ],
      [
        "ĠnÃŃm",
        -7.8462233743300125
      ],
      [
        "ĠÅ¡tÄĽstÃŃ",
        -7.860067639613698
      ],
      [
        "Ġbyla",
        -7.867572744064804
      ],
      [
        "Ġnebe",
        -7.8722480773055015
      ],
      [
        "Tu",
        -7.879021392072644
      ],
      [
        "Ġcest",
        -7.882739942322308
      ],
      [
        "Ġhlas",
        -7.884467376814239
      ],
      [
        "ĠÄįlovÄĽk",
        -7.890398956471902
      ],
      [
        "ĠsvÃ½ch",
        -7.8918035300308755
      ],
      [
        "Ġzemi",
        -7.8953311655929
      ],
      [
        "ĠmÄĽl",
        -7.896995717967631
      ],
      [
        "ĠzemÄĽ",
        -7.897828837794819
      ],
      [
        "Ġdnes",
        -7.899012003083593
      ],
      [
        "ĠneÅ¾",
        -7.900436533698922
      ],
      [
        "Ġnich",
        -7.908867867380618
      ],
      [
        "nÃ©",
        -7.911969335513721
      ],
      [
        "Ġsnad",
        -7.916013207672965
      ],
      [
        "Ġmoje",
        -7.916554528500923
      ],
      [
        "Ġruce",
        -7.920870811354392
      ],
      [
        "Ġni",
        -7.922260968697806
      ],
      [
        "ovÃ©",
        -7.9322674662708845
      ],
      [
        "ĠvÃŃc",
        -7.936072798695934
      ],
      [
        "Ġzde",
        -7.943596323593418
      ],
      [
        "ky",
        -7.948545762210937
      ],
      [
        "ve",
        -7.949142287406923
      ],
      [
        "ti",
        -7.951644817442077
      ],
      [
        "Ġjejich",
        -7.962583563689467
      ],
      [
        "Ġon",
        -7.963304408756223
      ],
      [
        "Ġkolem",
        -7.963792827807723
      ],
      [
        "ĠtobÄĽ",
        -7.9666313911324895
      ],
      [
        "ĠvÃ¡s",
        -7.986139886002517
      ],
      [
        "Ġnoci",
        -7.9891472368207666
      ],
      [
        "ĠkaÅ¾dÃ½",
        -7.992347357328391
      ],
      [
        "ni",
        -7.996843367288344
      ],
      [
        "ĠnaÅ¡e",
        -7.999257667416167
      ],
      [
        "jako",
        -8.010281939245656
      ],
      [
        "?âĢľ",
        -8.01303646644588
      ],
      [
        "aÅ¥",
        -8.019390606522807
      ],
      [
        "ĠtÃ©Å¾",
        -8.021343336501452
      ],
      [
        "Ġhor",
        -8.026850173397772
      ],
      [
        "ĠvÅ¡ecko",
        -8.036853690245364
      ],
      [
        "Jen",
        -8.038307339875802
      ],
      [
        "Ġkdy",
        -8.039682812281084
      ],
      [
        "Å½e",
        -8.04883510411907
      ],
      [
        "Ġhlavu",
        -8.051117214968011
      ],
      [
        "en",
        -8.052908567322643
      ],
      [
        "ĠtvÅ¯j",
        -8.056821600219097
      ],
      [
        "jenom",
        -8.056949578331102
      ],
      [
        "ci",
        -8.06683992435374
      ],
      [
        "ĠsvÃ½m",
        -8.071222244902463
      ],
      [
        "ĠmÄĽ",
        -8.072271994643613
      ],
      [
        "Je",
        -8.073106729448092
      ],
      [
        "nad",
        -8.076903399185921
      ],
      [
        "Å¾",
        -8.077279217490567
      ],
      [
        "Ġjste",
        -8.085662415512676
      ],
      [
        "ta",
        -8.094340683777478
      ],
      [
        "Ġnoc",
        -8.100788970012973
      ],
      [
        "ĠpÃŃseÅĪ",
        -8.102195654713723
      ],
      [
        "Ġtebe",
        -8.105106341305351
      ],
      [
        "ĠpÅĻec",
        -8.108885850374843
      ],
      [
        "ĠcelÃ½",
        -8.110761255194204
      ],
      [
        "ĠmoÅĻe",
        -8.116892846376745
      ],
      [
        "pro",
        -8.12086797776392
      ],
      [
        "ĠchtÄĽl",
        -8.127921323149371
      ],
      [
        "ami",
        -8.138538090485817
      ],
      [
        "ĠoÄįÃŃ",
        -8.140593907624446
      ],
      [
        "ĠchvÃŃli",
        -8.142780872649826
      ],
      [
        "Ġvln",
        -8.148458584575158
      ],
      [
        "U",
        -8.154290180519903
      ],
      [
        "ten",
        -8.16082202617263
      ],
      [
        "la",
        -8.168712059409087
      ],
      [
        "ĠtÃŃm",
        -8.176899109239736
      ],
      [
        "nÃ½",
        -8.177853811963145
      ],
      [
        "Do",
        -8.180884340893416
      ],
      [
        "Ġroz",
        -8.180886925853653
      ],
      [
        "Ġani",
        -8.180944279201642
      ],
      [
        "Ġkol",
        -8.183053385074878
      ],
      [
        "tam",
        -8.195445872756594
      ],
      [
        "neb",
        -8.195683137573086
      ],
      [
        "âĢľ",
        -8.198050372628828
      ],
      [
        "on",
        -8.199044069625325
      ],
      [
        "eÅĪ",
        -8.20071356417645
      ],
      [
        "Ġvod",
        -8.203767920346168
      ],
      [
        "Ġduch",
        -8.211021378198986
      ],
      [
        "ĠsvÃ©m",
        -8.211389291792479
      ],
      [
        "ĠsvÃ©ho",
        -8.213362288747815
      ],
      [
        "ĠdÃŃtÄĽ",
        -8.219371173847101
      ],
      [
        "od",
        -8.222481266747304
      ],
      [
        "ĠtakÃ©",
        -8.223420656522727
      ],
      [
        "Ġsen",
        -8.230571585919344
      ],
      [
        "Ġhned",
        -8.23254487956985
      ],
      [
        "Ġdal",
        -8.232778788824069
      ],
      [
        "Ġtoho",
        -8.235374055353828
      ],
      [
        "ĠrÃ¡d",
        -8.244164241777964
      ],
      [
        "ĠnÃ¡Å¡",
        -8.245871932068743
      ],
      [
        "Ġke",
        -8.251749641117797
      ],
      [
        "j",
        -8.257398800705948
      ],
      [
        "ĠbÃ½t",
        -8.26084070131929
      ],
      [
        "ĠaÅ¥",
        -8.268639144871562
      ],
      [
        "Ġkrev",
        -8.269345184760233
      ],
      [
        "nÃ½ch",
        -8.271231642822082
      ],
      [
        "ĠtiÅ¡e",
        -8.271440889872158
      ],
      [
        "Ġmou",
        -8.272561328392923
      ],
      [
        "jiÅ¾",
        -8.278925664029767
      ],
      [
        "si",
        -8.289239044044175
      ],
      [
        "Ġnebes",
        -8.289911970764752
      ],
      [
        "ze",
        -8.291174189475283
      ],
      [
        "ĠnÃ¡hle",
        -8.292564452489147
      ],
      [
        "Ġstrom",
        -8.295670867476057
      ],
      [
        "Ġku",
        -8.301120692176363
      ],
      [
        "Ġzem",
        -8.303374662587702
      ],
      [
        "neÅ¾",
        -8.30522565765039
      ],
      [
        "ĠlÃ¡ska",
        -8.307079621527325
      ],
      [
        "ĠvÃŃce",
        -8.308274796667469
      ],
      [
        "ĠpÅĻe",
        -8.31199438585184
      ],
      [
        "ĠnÃ¡rod",
        -8.312600200621798
      ],
      [
        "Ġnebi",
        -8.313110913527916
      ],
      [
        "Ġdech",
        -8.314277382806868
      ],
      [
        "Ã¡m",
        -8.315976173573967
      ],
      [
        "Kdo",
        -8.319660605670402
      ],
      [
        "kdy",
        -8.322795206621727
      ],
      [
        "ĠstÃ¡le",
        -8.326428836901721
      ],
      [
        "ĠstarÃ½",
        -8.328130572447698
      ],
      [
        "ĠrÅ¯Å¾e",
        -8.328472054399278
      ],
      [
        "vÅ¡e",
        -8.3286828484576
      ],
      [
        "ĠtvÃ¡ÅĻ",
        -8.331320911101958
      ],
      [
        "Kde",
        -8.33295159970444
      ],
      [
        "ĠÅ¾en",
        -8.334708008383343
      ],
      [
        "ĠsvÄĽta",
        -8.335157858458238
      ],
      [
        "Tam",
        -8.335766354605866
      ],
      [
        "mu",
        -8.336544382407029
      ],
      [
        "Ã³",
        -8.341794158307074
      ],
      [
        "Ġzase",
        -8.345282119954739
      ],
      [
        "ale",
        -8.346296356571937
      ],
      [
        "Ġale",
        -8.346850475897591
      ],
      [
        "ĠsÃŃl",
        -8.350870410708898
      ],
      [
        "pod",
        -8.352186965158266
      ],
      [
        "Ġjednou",
        -8.35769970493697
      ],
      [
        "Ġmnou",
        -8.36105636428361
      ],
      [
        "Ġslova",
        -8.363354174133873
      ],
      [
        "ĠÃºsmÄĽv",
        -8.365010950956604
      ],
      [
        "Ġsebe",
        -8.36771091438089
      ],
      [
        "Ach",
        -8.36898212745697
      ],
      [
        "ĠstÃŃn",
        -8.369529540010497
      ],
      [
        "ĠnynÃŃ",
        -8.370446347209443
      ],
      [
        "Ġrukou",
        -8.37572124078936
      ],
      [
        "ĠpÃ¡n",
        -8.381507606405412
      ],
      [
        "ĠstojÃŃ",
        -8.386647145287212
      ],
      [
        "ĠhvÄĽzd",
        -8.387323176397864
      ],
      [
        "ĠzpÄĽv",
        -8.3907355792911
      ],
      [
        "ĠBÅ¯h",
        -8.390889771312198
      ],
      [
        "Ale",
        -8.391205245312918
      ],
      [
        "ĠmÃ¡m",
        -8.39384869713144
      ],
      [
        "ĠveÄįer",
        -8.404902442763452
      ],
      [
        "ĠmÄĽst",
        -8.408870727638487
      ],
      [
        "r",
        -8.410007879107077
      ],
      [
        "Ġmezi",
        -8.414792245577518
      ],
      [
        "ĠbÃŃlÃ½",
        -8.418917260936418
      ],
      [
        "Ġkdys",
        -8.42714676759118
      ],
      [
        "Ġdruh",
        -8.42810459874976
      ],
      [
        "ĠpÅĻes",
        -8.43613866773302
      ],
      [
        "Ã½m",
        -8.438343119475585
      ],
      [
        "Ġnikdy",
        -8.438637235139351
      ],
      [
        "Ġstran",
        -8.447249941608849
      ],
      [
        "kdo",
        -8.448465693557335
      ],
      [
        "d",
        -8.454489513794172
      ],
      [
        "Ġjeden",
        -8.456372939545446
      ],
      [
        "Vy",
        -8.45748878319268
      ],
      [
        "pak",
        -8.458891944438589
      ],
      [
        "cÃŃ",
        -8.459204651561326
      ],
      [
        "Ġkrok",
        -8.464829636907856
      ],
      [
        "TeÄı",
        -8.473554489174607
      ],
      [
        "Ġtomu",
        -8.476438472433586
      ],
      [
        "mÃ¡",
        -8.483951184433602
      ],
      [
        "Ġoko",
        -8.489184174656081
      ],
      [
        "Ġsmrti",
        -8.48958396915296
      ],
      [
        "leÄį",
        -8.49333724964892
      ],
      [
        "ĠkrÃ¡l",
        -8.49946921932737
      ],
      [
        "ĠchrÃ¡m",
        -8.502679282503651
      ],
      [
        "h",
        -8.507868742239177
      ],
      [
        "ĠduÅ¡ÃŃ",
        -8.510008059971717
      ],
      [
        "mÃ½ch",
        -8.510719243694929
      ],
      [
        "ĠdÃ¡le",
        -8.51535970885435
      ],
      [
        "cÃŃch",
        -8.515900514456693
      ],
      [
        "ĠnÃŃÅ¾",
        -8.51850993645212
      ],
      [
        "ĠnaÅ¡i",
        -8.519940764007789
      ],
      [
        "Ġblesk",
        -8.52552252824859
      ],
      [
        "jÃŃ",
        -8.531090612186736
      ],
      [
        "p",
        -8.531353062749272
      ],
      [
        "Ten",
        -8.532054084442809
      ],
      [
        "Ġjde",
        -8.533495357974578
      ],
      [
        "On",
        -8.535286285960906
      ],
      [
        "ĠbÃŃlÃ©",
        -8.538053225748882
      ],
      [
        "Ġsyn",
        -8.538398676497991
      ],
      [
        "Ġdne",
        -8.54118698205904
      ],
      [
        "ĠsmÃŃch",
        -8.541609733426881
      ],
      [
        "nu",
        -8.541952006835722
      ],
      [
        "Ġvlas",
        -8.54550133085057
      ],
      [
        "ĠzlatÃ½",
        -8.545775809257293
      ],
      [
        "Ġnic",
        -8.546130709015156
      ],
      [
        "ĠmusÃŃ",
        -8.553575060377382
      ],
      [
        "Ġosud",
        -8.553759219027128
      ],
      [
        "ĠpÅĻece",
        -8.553975917062164
      ],
      [
        "ĠnovÃ½",
        -8.554191950158447
      ],
      [
        "tvÃ½ch",
        -8.555444462455393
      ],
      [
        "Pak",
        -8.560142060358157
      ],
      [
        "Ġruku",
        -8.566447532160412
      ],
      [
        "ĠvÅ¡em",
        -8.569025486603168
      ],
      [
        "Ġchce",
        -8.571969252129007
      ],
      [
        "ĠkterÃ©",
        -8.573104167673092
      ],
      [
        "ĠprvnÃŃ",
        -8.57335899451143
      ],
      [
        "Ġhrob",
        -8.578533290260262
      ],
      [
        "ĠÅĻek",
        -8.580329998831372
      ],
      [
        "ji",
        -8.58152526809764
      ],
      [
        "ĠkterÃ½",
        -8.593897873259316
      ],
      [
        "Ġkam",
        -8.594403060124819
      ],
      [
        "Ġas",
        -8.59444866963852
      ],
      [
        "ĠvÃŃr",
        -8.596302352387045
      ],
      [
        "Ġpohled",
        -8.597495035191965
      ],
      [
        "Ġmy",
        -8.599256221612231
      ],
      [
        "ĠleÅ¾ÃŃ",
        -8.599456085403169
      ],
      [
        "jsem",
        -8.605694724743651
      ],
      [
        "ĠvelkÃ½",
        -8.605776383619736
      ],
      [
        "ĠdÄĽti",
        -8.60711974290932
      ],
      [
        "ĠbuÄı",
        -8.61063606850142
      ],
      [
        "ProÄį",
        -8.612518685965295
      ],
      [
        "Ã©ho",
        -8.615411508239253
      ],
      [
        "cky",
        -8.616130442228098
      ],
      [
        "ĠlÃ¡sko",
        -8.618489186921748
      ],
      [
        "Ġvzduch",
        -8.621489384851689
      ],
      [
        "Ġneb",
        -8.625445352725219
      ],
      [
        "ĠnovÃ©",
        -8.626648306355236
      ],
      [
        "Od",
        -8.62749038741402
      ],
      [
        "ÃŃch",
        -8.629679874767275
      ],
      [
        "pÅĻed",
        -8.630972361762264
      ],
      [
        "ĠsvÄĽtÄĽ",
        -8.634683348365462
      ],
      [
        "ĠtÄĽl",
        -8.634863892304985
      ],
      [
        "Pro",
        -8.640558837061903
      ],
      [
        "ĠletÃŃ",
        -8.642569091444022
      ],
      [
        "Ġvlasti",
        -8.64376081351435
      ],
      [
        "ĠdÃ¡lk",
        -8.645481261967657
      ],
      [
        "ĠcizÃŃ",
        -8.648853122850593
      ],
      [
        "ĠdÃ¡vno",
        -8.652695417150472
      ],
      [
        "Ġsvoje",
        -8.654577227874851
      ],
      [
        "ĠtvÃ¡",
        -8.657656955568275
      ],
      [
        "pÅĻi",
        -8.660366496050573
      ],
      [
        "JiÅ¾",
        -8.666062426791823
      ],
      [
        "vÅ¾dy",
        -8.666592203288648
      ],
      [
        "Ġnimi",
        -8.669509033512588
      ],
      [
        "ĠmÃŃt",
        -8.669663847071291
      ],
      [
        "ĠhvÄĽzdy",
        -8.671709304883926
      ],
      [
        "teÄı",
        -8.67191508080924
      ],
      [
        "Jako",
        -8.673689041296411
      ],
      [
        "ĠzlatÃ©",
        -8.67507444511479
      ],
      [
        "ĠchvÃŃle",
        -8.680660357431075
      ],
      [
        "ĠÃ³",
        -8.683042960303847
      ],
      [
        "lÃ¡sku",
        -8.685095002010435
      ],
      [
        "ĠÅ¾al",
        -8.687927558301933
      ],
      [
        "ĠrÃ¡n",
        -8.690068949201422
      ],
      [
        "ĠvidÄĽl",
        -8.69210967418966
      ],
      [
        "Ġlidstv",
        -8.69320557511847
      ],
      [
        "ĠstÃ¡l",
        -8.695473179008705
      ],
      [
        "uÅ¾",
        -8.696154708341426
      ],
      [
        "pouze",
        -8.697017742450372
      ],
      [
        "Ġtvoje",
        -8.697785314179523
      ],
      [
        "Ġdlouho",
        -8.700916689445785
      ],
      [
        "ĠjuÅ¾",
        -8.701638440280618
      ],
      [
        "Äįi",
        -8.703744491361572
      ],
      [
        "vÃ¡",
        -8.70424663980551
      ],
      [
        "Ġticho",
        -8.708727097755709
      ],
      [
        ",âĢľ",
        -8.712803886263128
      ],
      [
        "Hle",
        -8.713165296017158
      ],
      [
        "ĠÄįelo",
        -8.71390346812279
      ],
      [
        "Ġklid",
        -8.71397255569675
      ],
      [
        "ĠsvÃŃtÃŃ",
        -8.714220997015557
      ],
      [
        "Ġona",
        -8.715079348119275
      ],
      [
        "Ġh",
        -8.721241335354737
      ],
      [
        "Ġles",
        -8.72281491326634
      ],
      [
        "Ġplamen",
        -8.723037446255702
      ],
      [
        "ĠvlastnÃŃ",
        -8.729240823748002
      ],
      [
        "AÅ¾",
        -8.732469729447363
      ],
      [
        "ĠptÃ¡k",
        -8.735510083885858
      ],
      [
        "ĠÅ¾ÃŃt",
        -8.736750943847474
      ],
      [
        "ĠbÃ½ti",
        -8.738744710332021
      ],
      [
        "Ġslov",
        -8.741105691855429
      ],
      [
        "(",
        -8.743311226408558
      ],
      [
        "Ġtebou",
        -8.74412916224859
      ],
      [
        "Ġsvoji",
        -8.744407143233403
      ],
      [
        "Ġhrad",
        -8.744537089042096
      ],
      [
        "ĠsvatÃ½",
        -8.745764980348412
      ],
      [
        "Ġdav",
        -8.746097665499144
      ],
      [
        "AÅ¥",
        -8.747321373750808
      ],
      [
        "ĠcelÃ©",
        -8.748678897693901
      ],
      [
        "Ġkraj",
        -8.749972626596593
      ],
      [
        "ĠtÄĽlo",
        -8.752677267573684
      ],
      [
        "ĠsnÅ¯",
        -8.75426701310801
      ],
      [
        "ĠznÃŃ",
        -8.759762695124914
      ],
      [
        "ĠvÅ¡ecky",
        -8.761234915275535
      ],
      [
        "Ġbys",
        -8.762722181124289
      ],
      [
        "svÃ©",
        -8.764046971313318
      ],
      [
        "Å¯v",
        -8.765244674630523
      ],
      [
        "Ġzvuk",
        -8.769409068588379
      ],
      [
        "Ġruka",
        -8.771692194982286
      ],
      [
        "Ġlist",
        -8.773558139861407
      ],
      [
        "ĠnÄĽ",
        -8.77394646517761
      ],
      [
        "ĠpanÃŃ",
        -8.776294883040707
      ],
      [
        "ĠboÅ¾ÃŃ",
        -8.780743938290508
      ],
      [
        "ĠdobÅĻe",
        -8.784005048216049
      ],
      [
        "ĠnÄĽho",
        -8.784521847928266
      ],
      [
        "ĠpÃŃsnÄĽ",
        -8.785967849627742
      ],
      [
        "ĠÅ¾ena",
        -8.791395511492048
      ],
      [
        "ĠpÃŃsnÃŃ",
        -8.794706268084507
      ],
      [
        "Ġtady",
        -8.79511473091314
      ],
      [
        "ĠnÃ¡mi",
        -8.796652131261537
      ],
      [
        "MÃ¡",
        -8.797090823117534
      ],
      [
        "ĠklÃŃn",
        -8.80018678924885
      ],
      [
        "Ve",
        -8.800622061877247
      ],
      [
        "ĠsvÄĽtlo",
        -8.800838570336923
      ],
      [
        "bou",
        -8.801442713214806
      ],
      [
        "VÅ¡e",
        -8.803597882466478
      ],
      [
        "byl",
        -8.804986875019079
      ],
      [
        "Ġmoc",
        -8.807624718838937
      ],
      [
        "Ġmatk",
        -8.807849678164052
      ],
      [
        "Ġsotva",
        -8.810052144014893
      ],
      [
        "lo",
        -8.812216535482277
      ],
      [
        "Nad",
        -8.814803158820649
      ],
      [
        "âĢĻ,",
        -8.815803482482
      ],
      [
        "ĠdÃ¡li",
        -8.815854875511931
      ],
      [
        "ĠsvojÃŃ",
        -8.816937320588037
      ],
      [
        "Ġkrve",
        -8.817404153539792
      ],
      [
        "ĠposlednÃŃ",
        -8.817441249408459
      ],
      [
        "ĠtÅĻeba",
        -8.818497685171552
      ],
      [
        "ĠÄįi",
        -8.822096788538873
      ],
      [
        "ĠsvatÃ©",
        -8.830528952696397
      ],
      [
        "bez",
        -8.830646740552687
      ],
      [
        "no",
        -8.83087829710724
      ],
      [
        "Ġsmrt",
        -8.836490624588391
      ],
      [
        "Ġjemu",
        -8.83765199728657
      ],
      [
        "ba",
        -8.83787705614555
      ],
      [
        "ĠÅ¡el",
        -8.83941075427128
      ],
      [
        "vÅ¾dyÅ¥",
        -8.840912335351248
      ],
      [
        "ĠzdÃ¡",
        -8.841082072513219
      ],
      [
        "ĠmÃ©m",
        -8.845306249266963
      ],
      [
        "ĠmÅ¯Å¾e",
        -8.847648229376405
      ],
      [
        "ĠmilÃ½",
        -8.847963438954894
      ],
      [
        "ĠpadÃ¡",
        -8.849633182705828
      ],
      [
        "Ġslzy",
        -8.84965369952548
      ],
      [
        "ĠvolÃ¡",
        -8.85003035272382
      ],
      [
        "tvou",
        -8.852543906000951
      ],
      [
        "LeÄį",
        -8.852788456649069
      ],
      [
        "ĠvelkÃ©",
        -8.853850611765704
      ],
      [
        "Ġtedy",
        -8.854099910733815
      ],
      [
        "ĠjinÃ½",
        -8.856121262286072
      ],
      [
        "ĠmlÃ¡dÃŃ",
        -8.856556656774618
      ],
      [
        "Ġsem",
        -8.857617282462943
      ],
      [
        "ĠdÄĽt",
        -8.859060108206455
      ],
      [
        "Ġjedno",
        -8.859697052526068
      ],
      [
        "snad",
        -8.860298160680259
      ],
      [
        "ĠjmÃ©n",
        -8.860912967867419
      ],
      [
        "ĠstarÃ©",
        -8.861957712088886
      ],
      [
        "ĠmuÅ¾",
        -8.862219453281583
      ],
      [
        "ĠÅ¾Ã¡r",
        -8.863470243247754
      ],
      [
        "ĠskÃ¡l",
        -8.865685935995923
      ],
      [
        "Ġzlat",
        -8.866558596885975
      ],
      [
        "ĠplÃ¡Äį",
        -8.867023495761597
      ],
      [
        "Ġradost",
        -8.86718199769944
      ],
      [
        "ĠÅ¾ivota",
        -8.869613445702507
      ],
      [
        "ĠnÄĽmÅ¾",
        -8.873907677536375
      ],
      [
        "ĠÅĻad",
        -8.883498459375007
      ],
      [
        "ĠvÃŃtr",
        -8.887286173696518
      ],
      [
        "Ġlidu",
        -8.8920158017297
      ],
      [
        "ĠproÄį",
        -8.892951791735296
      ],
      [
        "Ġret",
        -8.893843057537348
      ],
      [
        "ĠzpÃŃvÃ¡",
        -8.894639016950832
      ],
      [
        "Ġbol",
        -8.895747595435049
      ],
      [
        "ovi",
        -8.895990261138339
      ],
      [
        "Äįek",
        -8.900254197104383
      ],
      [
        "ĠnocÃŃ",
        -8.900430597651727
      ],
      [
        "ĠdomÅ¯",
        -8.900744402039628
      ],
      [
        "Ġproud",
        -8.902460457254515
      ],
      [
        "ĠÄįasto",
        -8.904805574968861
      ],
      [
        "ĠvÄĽtr",
        -8.905018631482122
      ],
      [
        "Ġmlh",
        -8.905170510174997
      ],
      [
        "kol",
        -8.906292147506234
      ],
      [
        "Ġprach",
        -8.907400520445933
      ],
      [
        "ĠkterÃ¡",
        -8.908493395930565
      ],
      [
        "ĠvÄĽc",
        -8.908971048829045
      ],
      [
        "prÃ¡ci",
        -8.909000241276233
      ],
      [
        "ĠzÃ¡ÅĻÃŃ",
        -8.90935223217767
      ],
      [
        "ĠÄįernÃ½",
        -8.910126771710779
      ],
      [
        "My",
        -8.910272592848496
      ],
      [
        "ĠsvÄĽtla",
        -8.911280710800163
      ],
      [
        "Ġslz",
        -8.912772592098934
      ],
      [
        "ĠrÃ¡na",
        -8.913137782644363
      ],
      [
        "ec",
        -8.913233876666645
      ],
      [
        "Zde",
        -8.917034813257505
      ],
      [
        "Ġcestu",
        -8.918326714803163
      ],
      [
        "ĠdÄĽl",
        -8.918467740318913
      ],
      [
        "sud",
        -8.918986023401743
      ],
      [
        "Ta",
        -8.919334967659415
      ],
      [
        "ĠprÃ½",
        -8.919979847846365
      ],
      [
        "Ġchci",
        -8.920714939995767
      ],
      [
        "ĠhledÃŃ",
        -8.920840624052536
      ],
      [
        "Snad",
        -8.924269702537853
      ],
      [
        "Ġvzal",
        -8.924391176203827
      ],
      [
        "zas",
        -8.925527790773712
      ],
      [
        "ĠkvÄĽtÅ¯",
        -8.926448522332132
      ],
      [
        "tÄĽ",
        -8.927373907234363
      ],
      [
        "ĠlÃ¡s",
        -8.928214632602801
      ],
      [
        "Ġboj",
        -8.928934266965886
      ],
      [
        "Ġnese",
        -8.929027663797402
      ],
      [
        "Å¡li",
        -8.929467837460207
      ],
      [
        "ĠvÅ¡eho",
        -8.929941206078862
      ],
      [
        "Ġhoch",
        -8.9387076652607
      ],
      [
        "ĠkaÅ¾dÃ©",
        -8.939009362237591
      ],
      [
        "ĠnaÅ¡ÃŃ",
        -8.939309078200882
      ],
      [
        "nÃ½m",
        -8.93959536385898
      ],
      [
        "Ġcit",
        -8.941233408140945
      ],
      [
        "ĠsladkÃ½",
        -8.943237718298782
      ],
      [
        "ĠopÄĽt",
        -8.944290836147513
      ],
      [
        "ĠÄįele",
        -8.945579307528059
      ],
      [
        "ĠandÄĽl",
        -8.947497945316709
      ],
      [
        "Ġspolu",
        -8.94808556051294
      ],
      [
        "uje",
        -8.952219614774233
      ],
      [
        "Ġzvon",
        -8.953076734882757
      ],
      [
        "ruÄı",
        -8.955792974950448
      ],
      [
        "il",
        -8.963057609412026
      ],
      [
        "Ġproti",
        -8.967851082666812
      ],
      [
        "ĠmÃ¡lo",
        -8.970129598381519
      ],
      [
        "ĠmÄĽsÃŃc",
        -8.970811910693792
      ],
      [
        "NuÅ¾",
        -8.973393478324473
      ],
      [
        "zde",
        -8.973524180787216
      ],
      [
        "Ġtroch",
        -8.974533430019083
      ],
      [
        "ĠkrÃ¡sy",
        -8.97464482475517
      ],
      [
        "Byl",
        -8.975628254049585
      ],
      [
        "Ġrod",
        -8.975718679779831
      ],
      [
        "ĠprÃ¡ce",
        -8.978108473896969
      ],
      [
        "ĠnÄĽmu",
        -8.978687666230815
      ],
      [
        "ĠmladÃ½",
        -8.980061418729136
      ],
      [
        "Ġmnoho",
        -8.98077680657823
      ],
      [
        "ĠvÄĽÄįnÄĽ",
        -8.982053713878615
      ],
      [
        "ĠpÅĻijde",
        -8.982138888986363
      ],
      [
        "Ġobraz",
        -8.986081031049014
      ],
      [
        "ĠlidÃŃ",
        -8.987552760154715
      ],
      [
        "ĠÅ¡at",
        -8.987758138631591
      ],
      [
        "ĠzÅĻel",
        -8.988273346456182
      ],
      [
        "Se",
        -8.988586778342516
      ],
      [
        "ĠjistÄĽ",
        -8.988737663650891
      ],
      [
        "Ġtouhy",
        -8.989545560244068
      ],
      [
        "Ġbok",
        -8.991995296628389
      ],
      [
        "ĠprÃ¡vÄĽ",
        -8.993374944012167
      ],
      [
        "ĠbouÅĻe",
        -8.995752140163818
      ],
      [
        "ĠstÃŃny",
        -8.996744235857353
      ],
      [
        "ĠhoÅĻÃŃ",
        -8.997369707172126
      ],
      [
        "ĠslÃ¡vy",
        -8.999050811773074
      ],
      [
        "Ġnes",
        -8.99933606763361
      ],
      [
        "ĠsrdcÃŃ",
        -8.999751056701433
      ],
      [
        "Ġkdes",
        -9.000464582024652
      ],
      [
        "ĠdÃ¡t",
        -9.003038300902872
      ],
      [
        "ĠsnÄĽnÃŃ",
        -9.003208476798598
      ],
      [
        "vÄĽru",
        -9.007546090397915
      ],
      [
        "Ġprsou",
        -9.008880234352958
      ],
      [
        "aÄį",
        -9.009941128703975
      ],
      [
        "Ġotec",
        -9.010110747072943
      ],
      [
        "ĠvÃŃm",
        -9.012050774339617
      ],
      [
        "Ġsama",
        -9.012194458079836
      ],
      [
        "Ġhlubin",
        -9.0136380919988
      ],
      [
        "ĠvÃŃ",
        -9.01393794207116
      ],
      [
        "kam",
        -9.01451225895111
      ],
      [
        "ĠtvÃ¡ÅĻÃŃ",
        -9.016219083955189
      ],
      [
        "Ġhlava",
        -9.016458940719971
      ],
      [
        "ĠnÄĽkdy",
        -9.01902489816483
      ],
      [
        "CoÅ¾",
        -9.019680548403143
      ],
      [
        "ĠnemÃ¡",
        -9.020219962161502
      ],
      [
        "Ġboji",
        -9.02083983802141
      ],
      [
        "Ġslovo",
        -9.023222867836154
      ],
      [
        "Ġjas",
        -9.02407171498509
      ],
      [
        "ĠdolÅ¯",
        -9.025612860928446
      ],
      [
        "Ġaby",
        -9.025732588774854
      ],
      [
        "Ġvzdech",
        -9.026082708973364
      ],
      [
        "Ġtolik",
        -9.026220403467594
      ],
      [
        "ĠnichÅ¾",
        -9.027578160462514
      ],
      [
        "ĠÃºst",
        -9.030123989300563
      ],
      [
        "Ã©m",
        -9.03398407595946
      ],
      [
        "ĠdÃ¡",
        -9.034021781368757
      ],
      [
        "Ġzvoln",
        -9.034117237344413
      ],
      [
        "Ġnikd",
        -9.035576513008007
      ],
      [
        "Ġnebo",
        -9.03631865661022
      ],
      [
        "ĠvÅ¡ude",
        -9.037012164925175
      ],
      [
        "Ġpane",
        -9.037035207678207
      ],
      [
        "Ġbudou",
        -9.038839540925341
      ],
      [
        "svou",
        -9.039548086898353
      ],
      [
        "Ba",
        -9.040101438386403
      ],
      [
        "ĠtvÃ¡ÅĻe",
        -9.040444927661067
      ],
      [
        "ĠzpÄĽt",
        -9.04124917478195
      ],
      [
        "ĠtrÃ¡v",
        -9.042366038817702
      ],
      [
        "Ġpole",
        -9.042852885478531
      ],
      [
        "ĠpÅĻiÅ¡el",
        -9.042994704956493
      ],
      [
        "ĠvÅ¯nÄĽ",
        -9.046074245138957
      ],
      [
        "ĠvaÅ¡e",
        -9.046349061434459
      ],
      [
        "ĠÅĻÃŃc",
        -9.048474691766618
      ],
      [
        "ĠmeÄį",
        -9.050318520740216
      ],
      [
        "ĠvÄĽky",
        -9.053671469458159
      ],
      [
        "ĠmarnÄĽ",
        -9.054236349546423
      ],
      [
        "Ġdiv",
        -9.054618619150531
      ],
      [
        "Ġbudu",
        -9.057871229395573
      ],
      [
        "Ġproto",
        -9.057991865748523
      ],
      [
        "ĠplnÃ½",
        -9.058666576008612
      ],
      [
        "Ġmrak",
        -9.061096476961108
      ],
      [
        "Ġbolest",
        -9.061897342888024
      ],
      [
        "ĠdÅĻÃŃv",
        -9.067067243616982
      ],
      [
        "ĠmÃŃr",
        -9.067521618759866
      ],
      [
        "ĠvÃ¡Å¡",
        -9.069361806522124
      ],
      [
        "Pod",
        -9.070043540786108
      ],
      [
        "ĠvÅ¡echn",
        -9.071395140228917
      ],
      [
        "ĠtvÃ¡ÅĻi",
        -9.076067578215833
      ],
      [
        "Neb",
        -9.078757755019438
      ],
      [
        "Å¡ichn",
        -9.078817979127678
      ],
      [
        "ĠmojÃŃ",
        -9.079808514041869
      ],
      [
        "ny",
        -9.08153899270274
      ],
      [
        "krvÃŃ",
        -9.081770656289972
      ],
      [
        "ĠkrÃ¡snÃ©",
        -9.084591130978808
      ],
      [
        "Ġdost",
        -9.085139343742398
      ],
      [
        "Ġpotom",
        -9.086291639793787
      ],
      [
        "ĠÄįernÃ©",
        -9.087583861210035
      ],
      [
        "ĠvÅ¡echno",
        -9.088470543031422
      ],
      [
        "aby",
        -9.089622677174745
      ],
      [
        "Ġsvit",
        -9.089674365986951
      ],
      [
        "ĠmÃ½m",
        -9.090336816514121
      ],
      [
        "ost",
        -9.090628402614003
      ],
      [
        "PÅĻi",
        -9.090678184216857
      ],
      [
        "ĠzÃ¡ÅĻ",
        -9.092348164713579
      ],
      [
        "ĠÅ¾il",
        -9.093179433507883
      ],
      [
        "snÃŃh",
        -9.093427179401761
      ],
      [
        "Ġzlato",
        -9.093568484108433
      ],
      [
        "ĠvÃ½Å¡e",
        -9.093778744566002
      ],
      [
        "Ġpln",
        -9.094120291542279
      ],
      [
        "ĠÄįekÃ¡",
        -9.094770324578814
      ],
      [
        "ĠvidÃŃm",
        -9.097341890628925
      ],
      [
        "ÅĻe",
        -9.100298578413714
      ],
      [
        "Ġach",
        -9.10219492033051
      ],
      [
        "Ġcos",
        -9.106598436087612
      ],
      [
        "Ġznova",
        -9.10719129264131
      ],
      [
        "Ġsny",
        -9.108387980022503
      ],
      [
        "NeÅ¾",
        -9.108664658959935
      ],
      [
        "ĠmÃŃsto",
        -9.108703749862642
      ],
      [
        "ĠbÅ¯h",
        -9.109167518640126
      ],
      [
        "Ġdum",
        -9.109172801946828
      ],
      [
        "ĠsladkÃ©",
        -9.10928203019143
      ],
      [
        "zda",
        -9.110178890638977
      ],
      [
        "Ġzjev",
        -9.110230449242092
      ],
      [
        "ĠjinÃ©",
        -9.110683372219556
      ],
      [
        "hned",
        -9.111375949060978
      ],
      [
        "kou",
        -9.111562412171478
      ],
      [
        "b",
        -9.118404537920274
      ],
      [
        "Ġskal",
        -9.1195905357567
      ],
      [
        "Ġlesy",
        -9.11992426468192
      ],
      [
        "Ġoku",
        -9.121092161904267
      ],
      [
        "Ġmatka",
        -9.122365644374156
      ],
      [
        "osÅ¥",
        -9.122877008302787
      ],
      [
        "ĠvÃŃn",
        -9.123290547612573
      ],
      [
        "Ġdva",
        -9.1245417786021
      ],
      [
        "ĠtvÃ©m",
        -9.12574853974634
      ],
      [
        "ĠlÃŃce",
        -9.126181377692898
      ],
      [
        "Dnes",
        -9.127386365897888
      ],
      [
        "ĠmoÅĻi",
        -9.127580241921487
      ],
      [
        "ĠkrÃ¡snÃ½",
        -9.128263137407929
      ],
      [
        "jdu",
        -9.128942076903645
      ],
      [
        "tÃ©",
        -9.130406394393848
      ],
      [
        "poÅĪ",
        -9.13053398104595
      ],
      [
        "Ġslunci",
        -9.131507535077578
      ],
      [
        "val",
        -9.133305181294403
      ],
      [
        "proÄį",
        -9.137471079022575
      ],
      [
        "ĠhnÄĽv",
        -9.137695343501026
      ],
      [
        "ĠvzhÅ¯r",
        -9.139581425776775
      ],
      [
        "hle",
        -9.142922918869814
      ],
      [
        "dnes",
        -9.143080536291272
      ],
      [
        "mnÄĽ",
        -9.147131541441475
      ],
      [
        "Ġjaro",
        -9.148566934406603
      ],
      [
        "Ġhle",
        -9.14952770583276
      ],
      [
        "Ġhrobu",
        -9.150909442284197
      ],
      [
        "ĠmÃ¡Å¡",
        -9.15105897640166
      ],
      [
        "roz",
        -9.154127020422898
      ],
      [
        "Ġjdou",
        -9.154568084302557
      ],
      [
        "Ġokem",
        -9.155814760864462
      ],
      [
        "bych",
        -9.157007514153829
      ],
      [
        "ĠdÃŃ",
        -9.157261622455245
      ],
      [
        "Ġknih",
        -9.157699758037193
      ],
      [
        "ĠkÅĻÃŃdla",
        -9.162237210685749
      ],
      [
        "ĠÅ¾ije",
        -9.162754048968992
      ],
      [
        "jsou",
        -9.162796512200488
      ],
      [
        "ĠkvÃŃtÃŃ",
        -9.163792037439597
      ],
      [
        "Ġokn",
        -9.163839889599261
      ],
      [
        "nÃ¡m",
        -9.163918383504923
      ],
      [
        "ĠmÄĽsta",
        -9.164844802805648
      ],
      [
        "ĠmÃŃst",
        -9.16490428918495
      ],
      [
        "Ġoh",
        -9.16623543855205
      ],
      [
        "Ġmoji",
        -9.166240009277512
      ],
      [
        "oval",
        -9.166275011823299
      ],
      [
        "ÅĪ",
        -9.166327064865602
      ],
      [
        "ĠdÃŃvÃ¡",
        -9.16982078222637
      ],
      [
        "Ġsoud",
        -9.17161569432043
      ],
      [
        "ĠdlouhÃ½",
        -9.17163465206946
      ],
      [
        "ej",
        -9.17341468970065
      ],
      [
        "Ġjara",
        -9.173428120184003
      ],
      [
        "ĠmalÃ½",
        -9.17453314094546
      ],
      [
        "ĠtichÃ½",
        -9.17526325541358
      ],
      [
        "skÃ©",
        -9.177724122734075
      ],
      [
        "!...",
        -9.177921019167007
      ],
      [
        "ĠstÄĽn",
        -9.179104229411482
      ],
      [
        "ĠstromÅ¯",
        -9.181070449501403
      ],
      [
        "ĠbÃŃd",
        -9.18344157658526
      ],
      [
        "Ġducha",
        -9.183545571641588
      ],
      [
        "ĠcelÃ¡",
        -9.184959316038231
      ],
      [
        "ĠrÃ¡z",
        -9.188847686399267
      ],
      [
        "ĠjarnÃŃ",
        -9.189055366891616
      ],
      [
        "ĠzÃ¡ÅĻe",
        -9.191002669893766
      ],
      [
        "Ġobzor",
        -9.192059473259075
      ],
      [
        "ĠhÅĻÃŃch",
        -9.192355437827594
      ],
      [
        "Ġrychle",
        -9.197288466722647
      ],
      [
        "ĠvÄĽÄįnÃ©",
        -9.19779242506624
      ],
      [
        "ĠplÃ¡l",
        -9.198371584867033
      ],
      [
        "ĠlidskÃ©",
        -9.204582923665491
      ],
      [
        "ĠpÃ¡r",
        -9.206876189157436
      ],
      [
        "ĠdobrÃ½",
        -9.206990879159402
      ],
      [
        "Ġples",
        -9.20740334087041
      ],
      [
        "Ã¡men",
        -9.20825047694425
      ],
      [
        "ĠhlavÄĽ",
        -9.209247167111126
      ],
      [
        "Ġtouha",
        -9.21062211654963
      ],
      [
        "ĠhoÅĻe",
        -9.211488573356078
      ],
      [
        "ĠvÄĽÄįnÃ½",
        -9.21165290242567
      ],
      [
        "ĠÄĮech",
        -9.21378632054478
      ],
      [
        "konec",
        -9.21585091651749
      ],
      [
        "ĠvidÃŃ",
        -9.216037445058099
      ],
      [
        "ĠBoÅ¾e",
        -9.216142342390956
      ],
      [
        "ĠÄįÃŃm",
        -9.217363973866547
      ],
      [
        "Ġtou",
        -9.218427154603576
      ],
      [
        "ĠmilÃ¡",
        -9.219290523256884
      ],
      [
        "Ġdole",
        -9.220834727632102
      ],
      [
        "ĠlidskÃ½",
        -9.22105696088843
      ],
      [
        "Ġoblak",
        -9.22128950127763
      ],
      [
        "Ġpomoc",
        -9.22345607667301
      ],
      [
        "ĠjÃŃt",
        -9.224606551587858
      ],
      [
        "Jsem",
        -9.228198240613015
      ],
      [
        "rty",
        -9.228290235109174
      ],
      [
        "ĠnÃ¡ruÄį",
        -9.228437543097522
      ],
      [
        "pÅĻes",
        -9.228954740705337
      ],
      [
        "Ġnohou",
        -9.230808001243403
      ],
      [
        "ĠÄįela",
        -9.231034934624834
      ],
      [
        "ĠÅĻekl",
        -9.233069732438077
      ],
      [
        "ĠvÃ½Å¡",
        -9.236990745240078
      ],
      [
        "ĠrÅ¯Å¾ÃŃ",
        -9.237496668596638
      ],
      [
        "ĠznÄĽl",
        -9.238767809079054
      ],
      [
        "ĠblÃŃÅ¾",
        -9.241229232303786
      ],
      [
        "ĠsvÃ©mu",
        -9.24631792597055
      ],
      [
        "Ġlese",
        -9.24688229996292
      ],
      [
        "Ġbyly",
        -9.248584462557679
      ],
      [
        "ly",
        -9.249220013674833
      ],
      [
        "ĠlistÃŃ",
        -9.250459429173983
      ],
      [
        "ĠbÃŃlÃ¡",
        -9.250987233868937
      ],
      [
        "ĠsvÄĽÅ¾ÃŃ",
        -9.252401745930587
      ],
      [
        "VÅ¾dyÅ¥",
        -9.25248709073107
      ],
      [
        "Ġruky",
        -9.25320377042188
      ],
      [
        "ĠbouÅĻÃŃ",
        -9.25413429114045
      ],
      [
        "ÃŃm",
        -9.256978043123127
      ],
      [
        "Ġkraje",
        -9.259427450435979
      ],
      [
        ")",
        -9.259832871203031
      ],
      [
        "Ġhlad",
        -9.262061452734423
      ],
      [
        "ĠstÃŃnu",
        -9.264983837517368
      ],
      [
        "Ġstrach",
        -9.266848141405617
      ],
      [
        "Ġhodin",
        -9.26851115295797
      ],
      [
        "Ġnelze",
        -9.268947606885302
      ],
      [
        "'",
        -9.269722851228309
      ],
      [
        "BuÄı",
        -9.26993693314553
      ],
      [
        "ĠstarÃ¡",
        -9.270435047467068
      ],
      [
        "ĠsmÃ¡l",
        -9.27131131434819
      ],
      [
        "Ġhudb",
        -9.27155388395487
      ],
      [
        "ĠtisÃŃc",
        -9.274124573056298
      ],
      [
        "Ġpoli",
        -9.276464783384686
      ],
      [
        "ĠdÃ¡vÃ¡",
        -9.278983284320615
      ],
      [
        "ĠmluvÃŃ",
        -9.279209092980864
      ],
      [
        "ĠzÃ¡ÅĻi",
        -9.280942074476549
      ],
      [
        "ĠdÃŃl",
        -9.281146486982305
      ],
      [
        "ĠklidnÄĽ",
        -9.283989210910992
      ],
      [
        "Äįe",
        -9.284883649603074
      ],
      [
        "ĠkÅĻÃŃÅ¾",
        -9.287420581056747
      ],
      [
        "ĠlesÅ¯",
        -9.29036390418322
      ],
      [
        "ĠnÄĽco",
        -9.290411129801134
      ],
      [
        "Ġcelo",
        -9.290542576441693
      ],
      [
        "ĠzÃ¡pad",
        -9.291486664186259
      ],
      [
        "ĠdrahÃ¡",
        -9.292480235172398
      ],
      [
        "MÅ¯j",
        -9.293704697754782
      ],
      [
        "PÅĻed",
        -9.29427277120193
      ],
      [
        "mÃ©",
        -9.294735425838823
      ],
      [
        "Ġhost",
        -9.294823629588926
      ],
      [
        "Ġven",
        -9.295592875235863
      ],
      [
        "ĠdÃ½m",
        -9.296568302969705
      ],
      [
        "ĠÅ¡um",
        -9.296571760528927
      ],
      [
        "Ġmoh",
        -9.298883086615424
      ],
      [
        "Ġbyli",
        -9.30178655614063
      ],
      [
        "Ġdoby",
        -9.301916608270634
      ],
      [
        "nul",
        -9.302101759398175
      ],
      [
        "ĠÃºsta",
        -9.304420976731002
      ],
      [
        "ĠtÃ©to",
        -9.305193172474027
      ],
      [
        "ĠvstÅĻÃŃc",
        -9.305264921719179
      ],
      [
        "jej",
        -9.305371598094489
      ],
      [
        "ĠnadÄĽje",
        -9.305524757222983
      ],
      [
        "ĠdrahÃ½",
        -9.305809353274842
      ],
      [
        "kem",
        -9.308954227359662
      ],
      [
        "ĠdvÄĽ",
        -9.309599851499078
      ],
      [
        "ĠdÃ¡m",
        -9.309685395681402
      ],
      [
        "Ġmech",
        -9.310029603289479
      ],
      [
        "ĠkrÃ¡ÄįÃŃ",
        -9.310079231978094
      ],
      [
        "ĠmladÃ©",
        -9.311232669506467
      ],
      [
        "ĠslyÅ¡el",
        -9.311427181941959
      ],
      [
        "ĠvÄĽkÅ¯",
        -9.311642745520459
      ],
      [
        "kaÅ¾dÃ¡",
        -9.311651059852178
      ],
      [
        "ĠÄįin",
        -9.31549650086819
      ],
      [
        "ĠmÄĽla",
        -9.316472294408845
      ],
      [
        "Ġdoma",
        -9.31726814104392
      ],
      [
        "ĠmnohÃ½",
        -9.317947062743684
      ],
      [
        "ĠPÃ¡n",
        -9.31827831045922
      ],
      [
        "ĠzÅĻÃŃm",
        -9.318289857047617
      ],
      [
        "ÅĻ",
        -9.318500523496166
      ],
      [
        "Ġotce",
        -9.320594756940274
      ],
      [
        "nech",
        -9.320831293311478
      ],
      [
        "dy",
        -9.321229186201556
      ],
      [
        "ĠznÃ¡m",
        -9.321893744296613
      ],
      [
        "ĠnÄĽj",
        -9.323509905399114
      ],
      [
        "BÅ¯h",
        -9.323900735773059
      ],
      [
        "Zda",
        -9.32431657859036
      ],
      [
        "ĠplnÃ©",
        -9.324795119219377
      ],
      [
        "Ġnebyl",
        -9.32521409484622
      ],
      [
        "MnÄĽ",
        -9.325510529524337
      ],
      [
        "ĠtichÃ©",
        -9.327936322990597
      ],
      [
        "skÃ¡",
        -9.32811896179081
      ],
      [
        "Ġvlast",
        -9.328875697648721
      ],
      [
        "kÃ¡",
        -9.331984588473716
      ],
      [
        "ĠmilÃ©",
        -9.333077296797132
      ],
      [
        "ĠpÅĻÃŃliÅ¡",
        -9.333412824134648
      ],
      [
        "TvÅ¯j",
        -9.333554854582815
      ],
      [
        "UÅ¾",
        -9.333628945480857
      ],
      [
        "Ġled",
        -9.33392574052808
      ],
      [
        "ĠvÄĽtÅ¡ÃŃ",
        -9.335106428413837
      ],
      [
        "ĠÅĻeÄį",
        -9.335982424630032
      ],
      [
        "ĠpÅĻÃŃrod",
        -9.336244918875387
      ],
      [
        "Ġkout",
        -9.337716650895945
      ],
      [
        "Ġboje",
        -9.338869485388518
      ],
      [
        "ĠcÃŃtÃŃ",
        -9.341535968293119
      ],
      [
        "Ġhloubi",
        -9.343356954331394
      ],
      [
        "ÄĮi",
        -9.343924135820018
      ],
      [
        "Ġtmy",
        -9.346156174134162
      ],
      [
        "Ġneza",
        -9.349280859122658
      ],
      [
        "ĠBohu",
        -9.351051469627494
      ],
      [
        "Ġsta",
        -9.35230387648063
      ],
      [
        "Ġrok",
        -9.353210691869563
      ],
      [
        "nÃ©ho",
        -9.355899219283927
      ],
      [
        "Aj",
        -9.35691507297047
      ],
      [
        "Ġvichr",
        -9.358035061702326
      ],
      [
        "ÄįÃŃ",
        -9.358429345966755
      ],
      [
        "ĠlÃ©ta",
        -9.360103157261253
      ],
      [
        "Bez",
        -9.360265191031509
      ],
      [
        "Ġplno",
        -9.36249852980595
      ],
      [
        "ĠmÃŃru",
        -9.36298349491288
      ],
      [
        "Ġstop",
        -9.364331868165799
      ],
      [
        "Ġmohl",
        -9.365470257441675
      ],
      [
        "ĠÅ¡tÃŃt",
        -9.366810429320978
      ],
      [
        "ĠchvÄĽje",
        -9.367582208428548
      ],
      [
        "tÃŃm",
        -9.36798496233476
      ],
      [
        "ĠpÅĻÃŃÅ¡tÃŃ",
        -9.368317899874825
      ],
      [
        "Jsou",
        -9.368329215664463
      ],
      [
        "Ġkraji",
        -9.368636868572638
      ],
      [
        "Ġpravil",
        -9.368658480283552
      ],
      [
        "ĠkrÃ¡s",
        -9.369520207483522
      ],
      [
        "Ġnez",
        -9.371806512304996
      ],
      [
        "TobÄĽ",
        -9.371969330012265
      ],
      [
        "Ġluh",
        -9.372126682079989
      ],
      [
        "ĠnevÃŃ",
        -9.372657295787603
      ],
      [
        "Ġprachu",
        -9.373301869689081
      ],
      [
        "ĠhrÃ¡l",
        -9.373398058165506
      ],
      [
        "sÃ¡m",
        -9.373725845133055
      ],
      [
        "ĠdrahÃ©",
        -9.374931928454828
      ],
      [
        "ĠpolÃŃ",
        -9.376003414985256
      ],
      [
        "ĠTi",
        -9.377871858519265
      ],
      [
        "Ġznovu",
        -9.37838930407195
      ],
      [
        "ĠslÃ¡va",
        -9.379658441607912
      ],
      [
        "Ġnoh",
        -9.381462004083682
      ],
      [
        "Ġjedna",
        -9.382894911686828
      ],
      [
        "Ġstrun",
        -9.38353387502632
      ],
      [
        "ĠzÃŃtr",
        -9.383927194466738
      ],
      [
        "ĠhnÃŃzd",
        -9.384206655423316
      ],
      [
        "Ġsvobod",
        -9.38456815706696
      ],
      [
        "ĠdobÄĽ",
        -9.384866085426602
      ],
      [
        "ovat",
        -9.385145509909663
      ],
      [
        "ĠchceÅ¡",
        -9.386232593926348
      ],
      [
        "ĠcÃŃtil",
        -9.38783774852897
      ],
      [
        "ĠsÃŃla",
        -9.39058081337997
      ],
      [
        "ĠBoÅ¾ÃŃ",
        -9.391878297480782
      ],
      [
        "ĠvÄĽÄįnost",
        -9.393599183593327
      ],
      [
        "Ġhled",
        -9.396945828906045
      ],
      [
        "ĠpravÃŃ",
        -9.397135538013865
      ],
      [
        "ĠhrobÄĽ",
        -9.3984021801093
      ],
      [
        "Ġoba",
        -9.3984841827892
      ],
      [
        "al",
        -9.399324974630826
      ],
      [
        "ĠkrÃ¡snÃ¡",
        -9.40084126788456
      ],
      [
        "ĠBoha",
        -9.401262205673888
      ],
      [
        "ĠsedÃŃ",
        -9.402058489856893
      ],
      [
        "ĠtvÃ½m",
        -9.403161029667018
      ],
      [
        "Ġhrom",
        -9.403637507483753
      ],
      [
        "Ġbeze",
        -9.403650234116938
      ],
      [
        "ĠcÃŃtÃŃm",
        -9.403863122381155
      ],
      [
        "ĠjejÅ¾",
        -9.403973363861965
      ],
      [
        "ĠneÅ¾li",
        -9.403997003892268
      ],
      [
        "ĠkrÃ¡se",
        -9.405837659245961
      ],
      [
        "jest",
        -9.406243080943344
      ],
      [
        "ĠrÃ¡no",
        -9.40650023236907
      ],
      [
        "By",
        -9.407438970054649
      ],
      [
        "ToÅ¥",
        -9.407743320018486
      ],
      [
        "ujÃŃ",
        -9.40793061257091
      ],
      [
        "ĠbÃ¡snÃŃk",
        -9.40794151913635
      ],
      [
        "ĠdlouhÃ©",
        -9.40910189889007
      ],
      [
        "ĠtÄĽÅ¾kÃ½",
        -9.409232808953469
      ],
      [
        "Ġvede",
        -9.41082347507631
      ],
      [
        "Ġvedle",
        -9.414063086547696
      ],
      [
        "ĠÅĪader",
        -9.415045075142936
      ],
      [
        "ĠrtÅ¯",
        -9.415710660897446
      ],
      [
        "Kam",
        -9.415908141189457
      ],
      [
        "ĠbudeÅ¡",
        -9.417337334102598
      ],
      [
        "ĠmÃ¡me",
        -9.419174185852924
      ],
      [
        "ĠrÃ¡j",
        -9.419401920401873
      ],
      [
        "ĠvÄĽk",
        -9.419761569417316
      ],
      [
        "Ġroste",
        -9.420524556757467
      ],
      [
        "ĠkrÃ¡le",
        -9.420956549757745
      ],
      [
        "ÅĻi",
        -9.421630551944713
      ],
      [
        "Ġctnost",
        -9.422927839044682
      ],
      [
        "Ġkdyby",
        -9.423091729508702
      ],
      [
        "ĠplÃ¡Äįe",
        -9.42321799385114
      ],
      [
        "ĠvÃŃru",
        -9.423531165941355
      ],
      [
        "enku",
        -9.424756007847055
      ],
      [
        "Ġmuk",
        -9.42753456144524
      ],
      [
        "Ġteprv",
        -9.427708143811987
      ],
      [
        "Ġlesk",
        -9.428383822230407
      ],
      [
        "Ġdosti",
        -9.428663426232035
      ],
      [
        "Ġasi",
        -9.428810170604162
      ],
      [
        "âĢŀâĢŀ",
        -9.429979496588501
      ],
      [
        "ĠmuÅ¾e",
        -9.430248852742222
      ],
      [
        "Roz",
        -9.430745660134857
      ],
      [
        "Ġdar",
        -9.43209976426354
      ],
      [
        "ĠTy",
        -9.432415258384374
      ],
      [
        "Ġmysli",
        -9.43272577957594
      ],
      [
        "ĠÄįeskÃ½",
        -9.433725714381925
      ],
      [
        "Ġstesk",
        -9.434101211028906
      ],
      [
        "nÃŃm",
        -9.434196159880067
      ],
      [
        "ĠbÅĻehu",
        -9.43659040104352
      ],
      [
        "ĠdruhÃ½",
        -9.437734736279834
      ],
      [
        "Ġtouho",
        -9.438314973669101
      ],
      [
        "ĠchvÄĽl",
        -9.439651234242419
      ],
      [
        "ĠdÃŃvk",
        -9.440402497326126
      ],
      [
        "ĠmuÅ¾i",
        -9.441370079472906
      ],
      [
        "Ġnej",
        -9.44150184645444
      ],
      [
        "ĠÅĻeÄįi",
        -9.441693103750891
      ],
      [
        "ĠmajÃŃ",
        -9.441702700823017
      ],
      [
        "dny",
        -9.442245175464684
      ],
      [
        "ĠmalÃ©",
        -9.444502016923852
      ],
      [
        "Ġlesa",
        -9.446118563291728
      ],
      [
        "Ġzda",
        -9.44652082816906
      ],
      [
        "ĠhledÃ¡",
        -9.451518525655414
      ],
      [
        "Ġradosti",
        -9.45212602507055
      ],
      [
        "ĠvÅ¯le",
        -9.452277197689943
      ],
      [
        "Ġsrdcem",
        -9.45449601128259
      ],
      [
        "ĠdnÅ¯",
        -9.45476179790036
      ],
      [
        "ÄįÃŃm",
        -9.455096799851312
      ],
      [
        "ĠkonÄĽ",
        -9.457450845993229
      ],
      [
        "Ġob",
        -9.463513172709956
      ],
      [
        "ĠÅĻÃŃÅ¡",
        -9.463730109754806
      ],
      [
        "ĠnevÃŃm",
        -9.464836519303754
      ],
      [
        "ĠtenkrÃ¡t",
        -9.465095929044288
      ],
      [
        "ra",
        -9.466861219420036
      ],
      [
        "svÄĽt",
        -9.467108410615998
      ],
      [
        "ĠkÅĻik",
        -9.468127784707352
      ],
      [
        "Ġsluch",
        -9.469132689166257
      ],
      [
        "ĠhvÄĽzda",
        -9.46935207715223
      ],
      [
        "ĠaÄį",
        -9.470396816241266
      ],
      [
        "Ġchlad",
        -9.470534599820903
      ],
      [
        "ĠTvÃ©",
        -9.471041453948772
      ],
      [
        "Jest",
        -9.474723044525874
      ],
      [
        "Ġpout",
        -9.474735877163674
      ],
      [
        "Ġzahrad",
        -9.477572419805767
      ],
      [
        "ĠmyslÃŃ",
        -9.47792842434514
      ],
      [
        "Ġnevy",
        -9.477933770823041
      ],
      [
        "Ġjitr",
        -9.480445726598658
      ],
      [
        "ĠkrÃ¡li",
        -9.48297431725204
      ],
      [
        "Ġplod",
        -9.486373581444452
      ],
      [
        "Ġmysl",
        -9.487027352836432
      ],
      [
        "ĠzpÃŃval",
        -9.48987176906639
      ],
      [
        "Ġokna",
        -9.493050764707773
      ],
      [
        "Ġjar",
        -9.493531095902757
      ],
      [
        "Ġposud",
        -9.493998405581669
      ],
      [
        "ĠzdÃ¡l",
        -9.494428277415185
      ],
      [
        "Ġprst",
        -9.494478747168959
      ],
      [
        "ĠtÄĽle",
        -9.49494039223553
      ],
      [
        "Ġrozum",
        -9.496984359972238
      ],
      [
        "Ġdej",
        -9.49764905529845
      ],
      [
        "Ġbije",
        -9.497852268639619
      ],
      [
        "Ġniv",
        -9.499223421424198
      ],
      [
        "ĠnoÄįnÃŃ",
        -9.499364034191505
      ],
      [
        "Ġjinak",
        -9.501480806851927
      ],
      [
        "Ġblah",
        -9.501793248446003
      ],
      [
        "Ġnaposled",
        -9.503463649741459
      ],
      [
        "Ġrek",
        -9.50381266570999
      ],
      [
        "ĠklonÃŃ",
        -9.504431114899642
      ],
      [
        "¡",
        -9.504530443866887
      ],
      [
        "Ġsladce",
        -9.508383845406003
      ],
      [
        "ĠvÅ¡eck",
        -9.509820176002343
      ],
      [
        "Ġsil",
        -9.510066506642604
      ],
      [
        "ĠjasnÃ©",
        -9.510190789221555
      ],
      [
        "ĠzvonÃŃ",
        -9.5135452934514
      ],
      [
        "âĢĻ.",
        -9.514011774494508
      ],
      [
        "Ġblaho",
        -9.5183146755232
      ],
      [
        "kvÄĽt",
        -9.518353703440837
      ],
      [
        "ĠlÃŃc",
        -9.520060908140367
      ],
      [
        "ĠvÅ¡emi",
        -9.522716098945882
      ],
      [
        "Ġpravda",
        -9.523050491069547
      ],
      [
        "buÄı",
        -9.523820527233209
      ],
      [
        "ĠrÃ¡je",
        -9.52383288254879
      ],
      [
        "Ġtento",
        -9.52436204485075
      ],
      [
        "ĠdÅ¯m",
        -9.525220889549441
      ],
      [
        "stejnÄĽ",
        -9.52890021640284
      ],
      [
        "Ġdob",
        -9.529372745439108
      ],
      [
        "Ġdomu",
        -9.531771628771915
      ],
      [
        "ĠÄįasu",
        -9.5322537436848
      ],
      [
        "Ġsbor",
        -9.532944097727208
      ],
      [
        "ĠzÃ¡stup",
        -9.534542003879295
      ],
      [
        "le",
        -9.535421817847048
      ],
      [
        "Ġpropast",
        -9.536812122677198
      ],
      [
        "Ġbarv",
        -9.537153830509927
      ],
      [
        "Ġpan",
        -9.537307753174243
      ],
      [
        "Ġpravdu",
        -9.537893362797636
      ],
      [
        "ĠjednÃ©",
        -9.538567907781673
      ],
      [
        "el",
        -9.538880616548148
      ],
      [
        "Ġbrzy",
        -9.538905570136677
      ],
      [
        "ĠmizÃŃ",
        -9.539460816319092
      ],
      [
        "ĠbÅĻeh",
        -9.539731099969533
      ],
      [
        "pÅĻe",
        -9.541407250852545
      ],
      [
        "ova",
        -9.541618211422804
      ],
      [
        "ĠslÃ¡vÄĽ",
        -9.544534264233864
      ],
      [
        "Ġtakto",
        -9.545965788074763
      ],
      [
        "ĠslyÅ¡",
        -9.546542493894952
      ],
      [
        "st",
        -9.548282518405134
      ],
      [
        "Ġjazyk",
        -9.548405572877936
      ],
      [
        "Ġzcel",
        -9.5501062763278
      ],
      [
        "Ġtemn",
        -9.552325441324367
      ],
      [
        "Ġkterou",
        -9.55265953938509
      ],
      [
        "Ġduchu",
        -9.553665050728346
      ],
      [
        "ÃŃme",
        -9.556200250599725
      ],
      [
        "ĠjakÃ½",
        -9.556285888388743
      ],
      [
        "ĠspÃŃ",
        -9.556489077197472
      ],
      [
        "ĠtÄĽÅ¾kÃ©",
        -9.556987869618151
      ],
      [
        "ĠtÄĽm",
        -9.557683727321946
      ],
      [
        "Ġonen",
        -9.557983621163999
      ],
      [
        "ĠÄįest",
        -9.55846103130104
      ],
      [
        "Ġnepo",
        -9.558794025142955
      ],
      [
        "ĠbÄĽda",
        -9.559339377987227
      ],
      [
        "Ġdomov",
        -9.560034966967702
      ],
      [
        "nebo",
        -9.560532733240649
      ],
      [
        "ĠmoÅ¾no",
        -9.560760003840915
      ],
      [
        "ĠlÃŃp",
        -9.56080326513692
      ],
      [
        "Ġrte",
        -9.561206428993676
      ],
      [
        "Ġsnil",
        -9.561284153538477
      ],
      [
        "Ġkruh",
        -9.561644877374544
      ],
      [
        "Ġpaprsk",
        -9.561686765789455
      ],
      [
        "ĠdobrÃ©",
        -9.561872635175662
      ],
      [
        "ĠbratÅĻÃŃ",
        -9.562709027682729
      ],
      [
        "Ġvzdor",
        -9.563208691267086
      ],
      [
        "ĠchvÃŃ",
        -9.563425671560598
      ],
      [
        "ĠÅ¾el",
        -9.564061569708269
      ],
      [
        "ĠjasnÃ½",
        -9.564459952685045
      ],
      [
        "ĠâĢĵâĢľ",
        -9.564587984728025
      ],
      [
        "Zas",
        -9.564796429978736
      ],
      [
        "ĠtÄĽÅ¾ko",
        -9.565608302388096
      ],
      [
        "ĠtÅĻi",
        -9.566031744560831
      ],
      [
        "ĠsvÃ½mi",
        -9.566707765973812
      ],
      [
        "skÃ½ch",
        -9.56826889047004
      ],
      [
        "Ġruch",
        -9.568830915715836
      ],
      [
        "ĠzemÃŃ",
        -9.569358939342074
      ],
      [
        "ĠmÄĽnÃŃ",
        -9.570242350065554
      ],
      [
        "ĠsvatÃ¡",
        -9.570803819196643
      ],
      [
        "ĠstÃ¡t",
        -9.573415204521499
      ],
      [
        "ĠslyÅ¡ÃŃm",
        -9.573890723462519
      ],
      [
        "ĠvracÃŃ",
        -9.577785882968683
      ],
      [
        "ĠvÅ¡ÃŃm",
        -9.577971517190933
      ],
      [
        "ĠvalÃŃ",
        -9.578935309123633
      ],
      [
        "krÃ¡ÅĪ",
        -9.57955566128613
      ],
      [
        "ĠsvÃ¡",
        -9.58091364424131
      ],
      [
        "ĠÅ¡umÃŃ",
        -9.583295852936155
      ],
      [
        "ĠVÃ¡m",
        -9.58333814276589
      ],
      [
        "Ġcesta",
        -9.583489336874177
      ],
      [
        "ĠdÃŃk",
        -9.583981915295029
      ],
      [
        "ĠslÃ¡vu",
        -9.58434071683207
      ],
      [
        "zrak",
        -9.584555006932451
      ],
      [
        "ĠbouÅĻi",
        -9.584653399185825
      ],
      [
        "mutek",
        -9.585950549190857
      ],
      [
        "ĠsklÃ¡nÃŃ",
        -9.586269809020223
      ],
      [
        "ĠzÅĻÃŃ",
        -9.586371191240447
      ],
      [
        "ĠÄįeskÃ©",
        -9.587576126627393
      ],
      [
        "skÃ½",
        -9.587993743623244
      ],
      [
        "ĠvidÄĽt",
        -9.588028413471314
      ],
      [
        "Ġran",
        -9.590057495836485
      ],
      [
        "ĠdruhÃ©",
        -9.592467120660881
      ],
      [
        "Ġprsa",
        -9.593394495035314
      ],
      [
        "Ġmodlitb",
        -9.59425511020768
      ],
      [
        "ĠkdoÅ¾",
        -9.59535233247894
      ],
      [
        "ĠmodrÃ©",
        -9.595836954802294
      ],
      [
        "Ġhloub",
        -9.59689163954103
      ],
      [
        "ĠmÅ¾ik",
        -9.598226135527142
      ],
      [
        "Ġsnu",
        -9.59925242318299
      ],
      [
        "Ġnim",
        -9.601436265867902
      ],
      [
        "ĠptÃ¡c",
        -9.602670554317623
      ],
      [
        "ĠsmutnÃ½",
        -9.607194175820634
      ],
      [
        "jde",
        -9.609385441432158
      ],
      [
        "Ġnech",
        -9.61002082625733
      ],
      [
        "Ġblankyt",
        -9.611033977263045
      ],
      [
        "...âĢľ",
        -9.611156508164413
      ],
      [
        "Ġhluk",
        -9.611498153800152
      ],
      [
        "Ġnitr",
        -9.612736546980933
      ],
      [
        "ĠjehoÅ¾",
        -9.613220524760042
      ],
      [
        "ĠnadÅ¡enÃŃ",
        -9.614141380946746
      ],
      [
        "ĠcÃŃl",
        -9.61435688080676
      ],
      [
        "Ġperl",
        -9.61451970766537
      ],
      [
        "jednou",
        -9.614921646567684
      ],
      [
        "ĠÅĻeÄįÃŃ",
        -9.61661333327407
      ],
      [
        "Ġslza",
        -9.616842514869512
      ],
      [
        "ĠobjetÃŃ",
        -9.616895633420993
      ],
      [
        "Ġbohem",
        -9.618874141495048
      ],
      [
        "ĠtrÅ¯n",
        -9.619393956458488
      ],
      [
        "osti",
        -9.620659876341763
      ],
      [
        "ĠslyÅ¡et",
        -9.621059607784584
      ],
      [
        "Ġjednu",
        -9.621074433405544
      ],
      [
        "ĠrudÃ©",
        -9.621470778878562
      ],
      [
        "mne",
        -9.621706434541657
      ],
      [
        "ĠmrtvÃ©",
        -9.622031931946003
      ],
      [
        "Ġpravdy",
        -9.6229867745992
      ],
      [
        "pÅĻec",
        -9.62455645476049
      ],
      [
        "ĠtemnÃ½",
        -9.625289410682512
      ],
      [
        "Ġlidsk",
        -9.625393060056226
      ],
      [
        "MÃ©",
        -9.626774874562079
      ],
      [
        "mÅ¯j",
        -9.626821109691546
      ],
      [
        "ĠvroucÃŃ",
        -9.628202401022254
      ],
      [
        "Ġdala",
        -9.628743427218815
      ],
      [
        "Ġkterak",
        -9.628840822286461
      ],
      [
        "Ġprapor",
        -9.629334644562968
      ],
      [
        "Ġjizb",
        -9.63329852390725
      ],
      [
        "ĠbÄĽÅ¾ÃŃ",
        -9.63351802752376
      ],
      [
        "ĠpÅ¯d",
        -9.633858293981351
      ],
      [
        "ĠstÅĻech",
        -9.635880077065725
      ],
      [
        "ĠmladÃ¡",
        -9.635976496741563
      ],
      [
        "Ġplane",
        -9.636094341697216
      ],
      [
        "ĠchodÃŃ",
        -9.636473807349965
      ],
      [
        "ĠvÅ¯li",
        -9.636564626955895
      ],
      [
        "ĠÄįÃŃÅ¡",
        -9.636784784415433
      ],
      [
        "ĠvÅ¯nÃŃ",
        -9.63909736600711
      ],
      [
        "jejÅ¾",
        -9.639159785599936
      ],
      [
        "Ze",
        -9.639605885298355
      ],
      [
        "ĠdÃŃvka",
        -9.639877091353846
      ],
      [
        "ĠNe",
        -9.64077109801384
      ],
      [
        "ĠkaÅ¾do",
        -9.64151566921668
      ],
      [
        "ĠbohÅ¯",
        -9.642109343847878
      ],
      [
        "ĠvelkÃ¡",
        -9.64289916629544
      ],
      [
        "ĠjejÃŃm",
        -9.643308231798457
      ],
      [
        "ĠmyÅ¡lenk",
        -9.644083166405377
      ],
      [
        "kterÃ½",
        -9.644150077615473
      ],
      [
        "ĠplÃ¡",
        -9.644306559335526
      ],
      [
        "hrudi",
        -9.644415117705975
      ],
      [
        "ĠbrÃ¡n",
        -9.645758969923225
      ],
      [
        "ĠtÃ¡hne",
        -9.646441846278933
      ],
      [
        "ĠcoÅ¾",
        -9.647490517677113
      ],
      [
        "hlas",
        -9.647548445926397
      ],
      [
        "Ġmluvil",
        -9.648237852330507
      ],
      [
        "Ġkyne",
        -9.649691410418068
      ],
      [
        "ĠvÅ¯kol",
        -9.65103062736965
      ],
      [
        "Ġchat",
        -9.651750639907656
      ],
      [
        "Ġrad",
        -9.652721501826491
      ],
      [
        "ĠÅ¾iv",
        -9.652957663559981
      ],
      [
        "ĠrozkoÅ¡",
        -9.65653382916907
      ],
      [
        "ĠdÄĽv",
        -9.658003128103132
      ],
      [
        "ĠoltÃ¡ÅĻ",
        -9.658118339822977
      ],
      [
        "ĠptÃ¡Äįe",
        -9.658878047086844
      ],
      [
        "ĠtmÃ¡",
        -9.658931809620777
      ],
      [
        "Ġsad",
        -9.659261321003832
      ],
      [
        "Ġsmysl",
        -9.660001585207038
      ],
      [
        "ĠzvedÃ¡",
        -9.660661865130415
      ],
      [
        "ĠÅ¾Ã¡dnÃ½",
        -9.66145333461869
      ],
      [
        "ĠpÅĻiÅ¡la",
        -9.663124061652741
      ],
      [
        "JeÅ¡tÄĽ",
        -9.66338266647169
      ],
      [
        "ĠnechÅ¥",
        -9.663430301523446
      ],
      [
        "Noc",
        -9.664637572248857
      ],
      [
        "ĠdÅĻÃŃve",
        -9.664698359885659
      ],
      [
        "ĠrÃ¡da",
        -9.664734598060654
      ],
      [
        "ĠsmutnÃ©",
        -9.665240103152495
      ],
      [
        "jsi",
        -9.666324080785788
      ],
      [
        "ĠkaÅ¾dÃ©m",
        -9.666342504255681
      ],
      [
        "Å¡ÃŃ",
        -9.667713518249993
      ],
      [
        "ĠÅ¡er",
        -9.668969517907048
      ],
      [
        "©",
        -9.66933325112278
      ],
      [
        "Äį",
        -9.669977461359787
      ],
      [
        "ĠleÄį",
        -9.670117829931042
      ],
      [
        "sladkÃ¡",
        -9.671077684541068
      ],
      [
        "Ġmraky",
        -9.671961497590665
      ],
      [
        "skou",
        -9.672024329375956
      ],
      [
        "ĠmusÃŃm",
        -9.672383759697864
      ],
      [
        "cÅ¯",
        -9.672488712424482
      ],
      [
        "zdÃ¡lo",
        -9.67259597100869
      ],
      [
        "dÃ¡l",
        -9.673766094288322
      ],
      [
        "Ġba",
        -9.674517610319416
      ],
      [
        "ĠlepÅ¡ÃŃ",
        -9.675331517282853
      ],
      [
        "Ġkus",
        -9.676067864517524
      ],
      [
        "ĠzatÃŃm",
        -9.676176059461643
      ],
      [
        "ĠstavÃŃ",
        -9.677254202418773
      ],
      [
        "Ġklidu",
        -9.677308193403677
      ],
      [
        "Ġklam",
        -9.680689423483265
      ],
      [
        "ĠbÃ½vÃ¡",
        -9.68220535575804
      ],
      [
        "tÃ©Å¾",
        -9.682357791475155
      ],
      [
        "ĠÅĻÃŃÅ¡e",
        -9.683024947690786
      ],
      [
        "tÄĽch",
        -9.68368702664355
      ],
      [
        "Ġsloup",
        -9.68377847866389
      ],
      [
        "zpÄĽt",
        -9.68451210201502
      ],
      [
        "ĠzÃ¡zrak",
        -9.684742457520919
      ],
      [
        "nic",
        -9.684767941276675
      ],
      [
        "ĠokamÅ¾ik",
        -9.68509807496968
      ],
      [
        "ĠpÅĻÃ¡tel",
        -9.686333384726463
      ],
      [
        "ĠsmutnÄĽ",
        -9.687267760404893
      ],
      [
        "Ġjiskr",
        -9.687617064082263
      ],
      [
        "Ġnade",
        -9.68865032237522
      ],
      [
        "ĠvrÃ¡til",
        -9.688734442114844
      ],
      [
        "ĠBohem",
        -9.690721714148012
      ],
      [
        "ĠrudÃ½",
        -9.691005414414537
      ],
      [
        "J",
        -9.691128474528593
      ],
      [
        "Ġblaha",
        -9.69125779414076
      ],
      [
        "ĠzlÃ½",
        -9.691438736958363
      ],
      [
        "ĠhÅĻbitov",
        -9.691856038867906
      ],
      [
        "ĠsvÄĽtle",
        -9.693459353926052
      ],
      [
        "ovÅ¡em",
        -9.693960724278666
      ],
      [
        "Ġblud",
        -9.694224746530228
      ],
      [
        "ajÃŃ",
        -9.694462267476549
      ],
      [
        "naÅĪ",
        -9.694480339358904
      ],
      [
        "ĠkrÃ¡sa",
        -9.69465920397656
      ],
      [
        "ĠbledÃ½",
        -9.69488479058827
      ],
      [
        "ĠvÃ¡Å¡nÃŃ",
        -9.694910800572469
      ],
      [
        "ĠdÃŃtk",
        -9.69577990661234
      ],
      [
        "ĠjedinÃ½",
        -9.695807915447734
      ],
      [
        "ĠzÃ¡hy",
        -9.696415808942483
      ],
      [
        "Ġpad",
        -9.696813001185507
      ],
      [
        "Jsi",
        -9.697575621431609
      ],
      [
        "ĠÅ¾enu",
        -9.698918000546195
      ],
      [
        "ĠkvÄĽtu",
        -9.699788730649704
      ],
      [
        "kÅ¯",
        -9.70061230880718
      ],
      [
        "rÃ¡zem",
        -9.701237380162553
      ],
      [
        "ĠÅĪadra",
        -9.70136776168767
      ],
      [
        "ĠTÄĽ",
        -9.703387854046952
      ],
      [
        "Ġbratr",
        -9.705046520686455
      ],
      [
        "toÅ¥",
        -9.705524667126536
      ],
      [
        "ĠzÅ¯stal",
        -9.706429059885576
      ],
      [
        "ĠsmÃŃchu",
        -9.706636883285835
      ],
      [
        "Srdce",
        -9.707049175925654
      ],
      [
        "Ġsami",
        -9.708122810338846
      ],
      [
        "tÃŃ",
        -9.708145950309394
      ],
      [
        "Ġulic",
        -9.70839182954457
      ],
      [
        "Ġkrajin",
        -9.708919265549783
      ],
      [
        "ĠtouÅ¾ÃŃ",
        -9.70929427349887
      ],
      [
        "f",
        -9.709344781609971
      ],
      [
        "rÃ¡",
        -9.709356566954277
      ],
      [
        "T",
        -9.710054039632663
      ],
      [
        "ĠÅĻÃ¡d",
        -9.710740022341389
      ],
      [
        "ĠmeÄįe",
        -9.711525033412933
      ],
      [
        "Ġtich",
        -9.712350741314935
      ],
      [
        "Ġmiloval",
        -9.714718179580434
      ],
      [
        "ĠvÃŃÅ¡",
        -9.715128061036257
      ],
      [
        "ĠpÃŃsni",
        -9.715568483031891
      ],
      [
        "Den",
        -9.71653560212875
      ],
      [
        "den",
        -9.716879763250528
      ],
      [
        "VÅ¾dy",
        -9.717259987239444
      ],
      [
        "ĠvonÃŃ",
        -9.717639822389994
      ],
      [
        "ĠbudÃŃ",
        -9.717828876860935
      ],
      [
        "Ġoka",
        -9.718189332487746
      ],
      [
        "Kol",
        -9.718447815610961
      ],
      [
        "SvÄĽt",
        -9.718910981494187
      ],
      [
        "Ġrej",
        -9.719577322336246
      ],
      [
        "Ġpoklad",
        -9.720123504333447
      ],
      [
        "ĠjÃŃm",
        -9.720884454679627
      ],
      [
        "ĠzpÃ¡tk",
        -9.721368636078278
      ],
      [
        "ĠslavnÃ½",
        -9.722859533175349
      ],
      [
        "ĠpÅ¯l",
        -9.723884261070175
      ],
      [
        "ĠnedÃ¡",
        -9.725112794151219
      ],
      [
        "ĠbledÃ¡",
        -9.725389110391827
      ],
      [
        "dal",
        -9.726888179726384
      ],
      [
        "Ġzvyk",
        -9.727020480713072
      ],
      [
        "Ġzbyl",
        -9.727110717453186
      ],
      [
        "nechÅ¥",
        -9.728280236884604
      ],
      [
        "ĠmrtvÃ½ch",
        -9.729115727650948
      ],
      [
        "ovÃ½ch",
        -9.729608750265742
      ],
      [
        "ĠtÅĻetÃŃ",
        -9.729713230539858
      ],
      [
        "ĠmotÃ½l",
        -9.729804852539218
      ],
      [
        "Å¡el",
        -9.730869825222737
      ],
      [
        "ĠpevnÄĽ",
        -9.731517021218956
      ],
      [
        "ĠdrÃ¡h",
        -9.73152052882061
      ],
      [
        "ĠobÄĽ",
        -9.731917407616624
      ],
      [
        "JenÅ¾",
        -9.732805698754685
      ],
      [
        "Ġsnah",
        -9.733513552427537
      ],
      [
        "Ġzlata",
        -9.733873121439945
      ],
      [
        "PojÄı",
        -9.734118700245737
      ],
      [
        "ĠÄįistÃ©",
        -9.734275843869476
      ],
      [
        "Ġtvoji",
        -9.735292079833727
      ],
      [
        "Ġpotok",
        -9.736850169522839
      ],
      [
        "ĠlÃŃci",
        -9.7370506567521
      ],
      [
        "Ġsamot",
        -9.737884110762328
      ],
      [
        "ĠbÄĽd",
        -9.737934886682016
      ],
      [
        "ĠtoÄįÃŃ",
        -9.73959778578208
      ],
      [
        "ĠvÃ½kÅĻik",
        -9.739671860090738
      ],
      [
        "srdce",
        -9.73990206443369
      ],
      [
        "AÄį",
        -9.740536627236825
      ],
      [
        "ĠklesÃ¡",
        -9.740701539823283
      ],
      [
        "ĠdÃ¡vnÃ½",
        -9.74170942850865
      ],
      [
        "ĠvrÃ¡tÃŃ",
        -9.742566980909107
      ],
      [
        "ĠblÃŃÅ¾ÃŃ",
        -9.743135905738196
      ],
      [
        "ĠvÅ¡ad",
        -9.7436588442301
      ],
      [
        "ĠstÃ¡la",
        -9.744004660877923
      ],
      [
        "jÃŃÅ¾",
        -9.744634896980468
      ],
      [
        "ani",
        -9.744981447282449
      ],
      [
        "ĠCo",
        -9.745844649486553
      ],
      [
        "Aby",
        -9.745858363883437
      ],
      [
        "Ġkmen",
        -9.746792419531584
      ],
      [
        "ĠcÃŃsaÅĻ",
        -9.747651156432026
      ],
      [
        "ĠrannÃŃ",
        -9.748276478002015
      ],
      [
        "Ġhudba",
        -9.748346865347056
      ],
      [
        "lÃŃ",
        -9.750650292725727
      ],
      [
        "nice",
        -9.751122674232121
      ],
      [
        "er",
        -9.751839257788205
      ],
      [
        "ĠloÅ¾e",
        -9.7522939964863
      ],
      [
        "Ġstal",
        -9.753118616876844
      ],
      [
        "Ġd",
        -9.754117627884902
      ],
      [
        "ĠspÃ¡t",
        -9.754602464091587
      ],
      [
        "vÃ¡m",
        -9.754724727725618
      ],
      [
        "ĠtvojÃŃ",
        -9.755097993927226
      ],
      [
        "Ġhovor",
        -9.756091372097679
      ],
      [
        "ĠzÃ¡kon",
        -9.756697799957223
      ],
      [
        "ĠdlaÅĪ",
        -9.758818428496507
      ],
      [
        "Kdy",
        -9.759013031598876
      ],
      [
        "ĠlesnÃŃ",
        -9.759365388439448
      ],
      [
        "ĠchtÄĽla",
        -9.75993757929262
      ],
      [
        "nÄĽjÅ¡ÃŃ",
        -9.761578282785269
      ],
      [
        "Ġkorun",
        -9.76220335035001
      ],
      [
        "novou",
        -9.762242884240518
      ],
      [
        "ĠvÄįer",
        -9.762323449775934
      ],
      [
        "Ġkdos",
        -9.763602296342942
      ],
      [
        "ĠspÃ¡nk",
        -9.763750324431212
      ],
      [
        "ĠdÃŃval",
        -9.765314730790237
      ],
      [
        "ÅĻÃŃ",
        -9.766609093995651
      ],
      [
        "ĠvÅĻav",
        -9.767352058026379
      ],
      [
        "ĠznÃ¡",
        -9.767838028484057
      ],
      [
        "ĠbÃŃlou",
        -9.768984746408286
      ],
      [
        "tvÃ©",
        -9.769735808737877
      ],
      [
        "ĠkteÅĻÃŃ",
        -9.770401225170232
      ],
      [
        "ĠmodrÃ½",
        -9.77227459346123
      ],
      [
        "Ġvztek",
        -9.773503403036692
      ],
      [
        "vÃŃ",
        -9.773692448026763
      ],
      [
        "Ġpekl",
        -9.77377554715087
      ],
      [
        "jich",
        -9.774067596842983
      ],
      [
        "ĠnavÅ¾dy",
        -9.775827796558053
      ],
      [
        "ĠtmavÃ½",
        -9.777177598229656
      ],
      [
        "Ġtichu",
        -9.778109584251496
      ],
      [
        "ĠdivÃ½",
        -9.778448631458325
      ],
      [
        "ĠhrÅ¯z",
        -9.778696271436399
      ],
      [
        "ĠslyÅ¡ÃŃ",
        -9.779046320450886
      ],
      [
        "nÃ©m",
        -9.77916982986876
      ],
      [
        "ĠnÄĽkdo",
        -9.779500568481335
      ],
      [
        "ĠzÃ¡pas",
        -9.780106991680276
      ],
      [
        "ĠvisÃŃ",
        -9.782156567919316
      ],
      [
        "ĠbledÃ©",
        -9.782539341325826
      ],
      [
        "Ġotc",
        -9.785937970762202
      ],
      [
        "bÅ¯h",
        -9.785987755853846
      ],
      [
        "ĠtÅĻese",
        -9.788425849006092
      ],
      [
        "Ġsmutku",
        -9.78851975572189
      ],
      [
        "kterÃ©",
        -9.788935305017958
      ],
      [
        "Ġdalek",
        -9.790456469044804
      ],
      [
        "Ġprostor",
        -9.790820015808212
      ],
      [
        "svÃ½m",
        -9.791050633569967
      ],
      [
        "coÅ¾",
        -9.792426251805846
      ],
      [
        "ĠhledÄĽl",
        -9.79374132464115
      ],
      [
        "Ġvrah",
        -9.794163608130166
      ],
      [
        "Ġcen",
        -9.795927810436263
      ],
      [
        "Ġmohu",
        -9.796099340537907
      ],
      [
        "SÃ¡m",
        -9.796099721392089
      ],
      [
        "ĠpÃ½ch",
        -9.79692158734674
      ],
      [
        "ĠpÃ¡d",
        -9.797460835193132
      ],
      [
        "MÃ¡m",
        -9.798507432053725
      ],
      [
        "ĠspÄĽl",
        -9.798598028749762
      ],
      [
        "ĠpÅĻede",
        -9.798749536530583
      ],
      [
        "Ġskok",
        -9.799915892292965
      ],
      [
        "ĠzdravÃŃ",
        -9.802787952369531
      ],
      [
        "Ġbolu",
        -9.802955767240526
      ],
      [
        "Oh",
        -9.804330324705841
      ],
      [
        "ĠblÃŃÅ¾e",
        -9.805644321795391
      ],
      [
        "ĠmalÃ¡",
        -9.806286091199647
      ],
      [
        "ĠotcÅ¯",
        -9.806524404245042
      ],
      [
        "Ġzim",
        -9.806735059177342
      ],
      [
        "ĠtemnÃ©",
        -9.807390221031977
      ],
      [
        "ĠÄįistÃ½",
        -9.807701842260961
      ],
      [
        "ĠvÅ¡emu",
        -9.80817406184126
      ],
      [
        "Ġkonce",
        -9.808524755773682
      ],
      [
        "ĠohnÄĽm",
        -9.808675536164218
      ],
      [
        "ĠkÅĻÃŃdl",
        -9.810551201785334
      ],
      [
        "Ġnechce",
        -9.810571585830242
      ],
      [
        "Ġchvat",
        -9.81075073950912
      ],
      [
        "ĠvÅ¯ni",
        -9.812499875562365
      ],
      [
        "Ġbudoucnost",
        -9.812756738925287
      ],
      [
        "Ġzmizel",
        -9.813123293069438
      ],
      [
        "Ġkalich",
        -9.813216939644889
      ],
      [
        "ĠvyÅ¡el",
        -9.813982974570775
      ],
      [
        "ĠdÅĻÃŃmÃ¡",
        -9.814644503642798
      ],
      [
        "Ġnedo",
        -9.814950138417968
      ],
      [
        "Ġvelkou",
        -9.816212026861606
      ],
      [
        "ĠztrÃ¡cÃŃ",
        -9.816258658910783
      ],
      [
        "ĠnemÄĽl",
        -9.81643830040526
      ],
      [
        "ĠmrÃ¡z",
        -9.81765866977042
      ],
      [
        "Ġdvou",
        -9.818347765136467
      ],
      [
        "lid",
        -9.819114000305039
      ],
      [
        "Ġpokoj",
        -9.819828684827886
      ],
      [
        "ĠprÃ¡v",
        -9.821163880352465
      ],
      [
        "Ġtouh",
        -9.822476829073786
      ],
      [
        "ĠPane",
        -9.822719592320757
      ],
      [
        "stalo",
        -9.82379649651918
      ],
      [
        "Nu",
        -9.826336890381295
      ],
      [
        "ĠohnÄĽ",
        -9.82708441332075
      ],
      [
        "Ġchvilk",
        -9.828200506546327
      ],
      [
        "ĠvÃŃno",
        -9.828362125552044
      ],
      [
        "ĠTo",
        -9.829186583418323
      ],
      [
        "Ġbolesti",
        -9.829952705394101
      ],
      [
        "iti",
        -9.832299870056765
      ],
      [
        "Ġskryt",
        -9.832529900282417
      ],
      [
        "ĠdÃ½Å¡e",
        -9.832654950032449
      ],
      [
        "ĠjakÃ©",
        -9.83382105112928
      ],
      [
        "ĠbouÅĻ",
        -9.83487211697242
      ],
      [
        "ĠzÃŃrÃ¡",
        -9.837891466587775
      ],
      [
        "Ġsoumrak",
        -9.8388526524778
      ],
      [
        "ĠdlanÃŃ",
        -9.839159918544912
      ],
      [
        "kterÃ¡",
        -9.840752259548218
      ],
      [
        "Ġmoudrost",
        -9.841088054345736
      ],
      [
        "PÅĻe",
        -9.841226110782367
      ],
      [
        "ĠÅĻas",
        -9.841289285856854
      ],
      [
        "ĠvÃ½chod",
        -9.841387603954402
      ],
      [
        "Ġpramen",
        -9.842779870269794
      ],
      [
        "Ġmusil",
        -9.843309680774002
      ],
      [
        "Ġmdlob",
        -9.844007965806732
      ],
      [
        "ĠÅ¡la",
        -9.84420699705749
      ],
      [
        "ĠlÃŃbÃ¡",
        -9.846595318653446
      ],
      [
        "ĠpatÅĻÃŃ",
        -9.846834195101902
      ],
      [
        "ĠknÄĽz",
        -9.84833731435118
      ],
      [
        "ĠÅĪadr",
        -9.848855588609837
      ],
      [
        "ĠdveÅĻÃŃ",
        -9.85057862537947
      ],
      [
        "Ġstane",
        -9.850597885691219
      ],
      [
        "ĠsvÄĽtÅ¯",
        -9.851303580877701
      ],
      [
        "½",
        -9.851978753351062
      ],
      [
        "NenÃŃ",
        -9.852726002079482
      ],
      [
        "ĠspÄĽch",
        -9.852895041770633
      ],
      [
        "ĠrytÃŃÅĻ",
        -9.853846020563907
      ],
      [
        "ĠJÃ¡",
        -9.854424739374952
      ],
      [
        "NechÅ¥",
        -9.856069361827576
      ],
      [
        "Ġpodzim",
        -9.856184325260674
      ],
      [
        "ĠsplÃ½vÃ¡",
        -9.856732276221372
      ],
      [
        "Ġbran",
        -9.857334720076057
      ],
      [
        "Ġpadl",
        -9.85742633145697
      ],
      [
        "Ġhlasy",
        -9.857820775389275
      ],
      [
        "tichÃ¡",
        -9.858266138346824
      ],
      [
        "ĠÅ¾havÃ½",
        -9.858441014823697
      ],
      [
        "Ġpozdrav",
        -9.858888965465631
      ],
      [
        "Ġpravo",
        -9.859741587383969
      ],
      [
        "TvÃ©",
        -9.86030103375644
      ],
      [
        "snem",
        -9.860449037428378
      ],
      [
        "Ġdarmo",
        -9.860929411057084
      ],
      [
        "ĠÅ¾ene",
        -9.860971747452494
      ],
      [
        "ĠsnÃŃ",
        -9.861121026811535
      ],
      [
        "Ġode",
        -9.861261126668092
      ],
      [
        "ĠnÄĽmÃ½",
        -9.861568757217485
      ],
      [
        "ĠchÃ½lÃŃ",
        -9.862078567512796
      ],
      [
        "lÃ©",
        -9.862496032976038
      ],
      [
        "D",
        -9.863452404492232
      ],
      [
        "ĠpÄĽt",
        -9.863549736557816
      ],
      [
        "ĠcitÅ¯",
        -9.863639099215671
      ],
      [
        "nechci",
        -9.86392510426182
      ],
      [
        "Hned",
        -9.864800002227135
      ],
      [
        "Ġtuto",
        -9.865723490914275
      ],
      [
        "Ġvstal",
        -9.865809575850072
      ],
      [
        "ĠJan",
        -9.866616993958196
      ],
      [
        "ĠtmavÃ©",
        -9.866945030805555
      ],
      [
        "ĠmyÅ¡lÃ©nk",
        -9.867696662175995
      ],
      [
        "toÅ¾",
        -9.868666390325739
      ],
      [
        "nÃ¡ch",
        -9.869066176985257
      ],
      [
        "chci",
        -9.870507541681459
      ],
      [
        "Ġpoznal",
        -9.870755035214852
      ],
      [
        "Ġnebylo",
        -9.871046372045342
      ],
      [
        "M",
        -9.871410385206023
      ],
      [
        "vÃŃc",
        -9.871581748702525
      ],
      [
        "ĠstÃŃnÅ¯",
        -9.871910859419586
      ],
      [
        "nout",
        -9.872348537272355
      ],
      [
        "ĠpravÃ½",
        -9.873015858533032
      ],
      [
        "ĠrokÅ¯",
        -9.873872665059796
      ],
      [
        "ĠboÅ¾e",
        -9.875070578801491
      ],
      [
        "ĠÄįekal",
        -9.875187516022635
      ],
      [
        "?!",
        -9.875877968577548
      ],
      [
        "Ġmnoh",
        -9.87611146533386
      ],
      [
        "mÄĽl",
        -9.877597786045781
      ],
      [
        "ĠbolÃŃ",
        -9.877598313222475
      ],
      [
        "ĠsmÄĽje",
        -9.878887200030725
      ],
      [
        "ĠdivnÃ½",
        -9.878967734597262
      ],
      [
        "Ġpadne",
        -9.87901383098115
      ],
      [
        "ĠvÃ¡Å¡nÄĽ",
        -9.880301966331817
      ],
      [
        "ĠnÃ¡ruÄįÃŃ",
        -9.881506083546261
      ],
      [
        "Ġlze",
        -9.882061147912111
      ],
      [
        "ĠvÄĽÅĻ",
        -9.882384951359072
      ],
      [
        "iÅ¥",
        -9.882520426753842
      ],
      [
        "jsme",
        -9.882561197386703
      ],
      [
        "ĠvÃ½Å¡i",
        -9.882633967178768
      ],
      [
        "ĠsmÄĽl",
        -9.882705981459686
      ],
      [
        "Ġdub",
        -9.883294692523027
      ],
      [
        "ĠhrÅ¯zou",
        -9.88331071665019
      ],
      [
        "ĠvÃŃtÄĽz",
        -9.884467251460006
      ],
      [
        "ĠÅ¾ivÃ½",
        -9.885219502773687
      ],
      [
        "ĠnovÃ¡",
        -9.885711495301077
      ],
      [
        "lÃ¡",
        -9.886139557988972
      ],
      [
        "ĠlÃŃcÃŃ",
        -9.886664056474228
      ],
      [
        "ĠdÄĽcko",
        -9.886730357355912
      ],
      [
        "Ġminulost",
        -9.88705332023034
      ],
      [
        "Ġkletb",
        -9.888003650391695
      ],
      [
        "Ġbytost",
        -9.888047010700848
      ],
      [
        "tou",
        -9.888777865891488
      ],
      [
        "ĠbÃ½val",
        -9.889338726737444
      ],
      [
        "Ġhraje",
        -9.890380012493384
      ],
      [
        "Ġdali",
        -9.89054191107471
      ],
      [
        "Ġzlatou",
        -9.891114921700506
      ],
      [
        "Ġkmet",
        -9.89128133729455
      ],
      [
        "Ġoken",
        -9.892754001659089
      ],
      [
        "ĠtisÃŃce",
        -9.893066401906314
      ],
      [
        "ĠpÃŃt",
        -9.893492557427525
      ],
      [
        "Ġdoba",
        -9.894410101729921
      ],
      [
        "Ġobloh",
        -9.894815941467893
      ],
      [
        "ĠsnÄĽhu",
        -9.897342873469231
      ],
      [
        "ĠpÄĽl",
        -9.898951547054441
      ],
      [
        "ĠÅĪadre",
        -9.899110084582825
      ],
      [
        "ÄĮÃŃm",
        -9.899846665302043
      ],
      [
        "ĠknÃŃÅ¾e",
        -9.900081282550804
      ],
      [
        "Ġboha",
        -9.900085484263911
      ],
      [
        "Ãº",
        -9.900508095470753
      ],
      [
        "ĠskrÃ¡nÃŃ",
        -9.90096161315631
      ],
      [
        "ry",
        -9.901463207033888
      ],
      [
        "ĠpÅĻÃŃval",
        -9.901591542276336
      ],
      [
        "Ġchleba",
        -9.90310355826669
      ],
      [
        "ĠtÃ³n",
        -9.904311128681403
      ],
      [
        "Ġtvor",
        -9.904711959048827
      ],
      [
        "Ġmost",
        -9.905188893713582
      ],
      [
        "SlyÅ¡",
        -9.905673063044304
      ],
      [
        "Ġpodle",
        -9.905988361800393
      ],
      [
        "Ġsvatou",
        -9.9063054723843
      ],
      [
        "rÃ¡d",
        -9.908581174334113
      ],
      [
        "ĠdÄĽck",
        -9.908898592288494
      ],
      [
        "ĠsmÄĽle",
        -9.909654588228241
      ],
      [
        "Lid",
        -9.910241714281721
      ],
      [
        "ĠÅ¾Ã¡dnÃ©",
        -9.911118645917277
      ],
      [
        "ĠdÄĽje",
        -9.911255786301648
      ],
      [
        "ĠvÅ¯dce",
        -9.912086446822439
      ],
      [
        "Ã½mi",
        -9.912147326123497
      ],
      [
        "Ġtato",
        -9.91224695487783
      ],
      [
        "Ã©mu",
        -9.912354774028401
      ],
      [
        "ĠtÄĽÅ¾c",
        -9.912506505581431
      ],
      [
        "ĠdÃŃvÄįÃŃ",
        -9.912689379928395
      ],
      [
        "ĠpamÄĽt",
        -9.912826431348423
      ],
      [
        "ĠÄįase",
        -9.913164791538694
      ],
      [
        "Ġpoesi",
        -9.913678202385617
      ],
      [
        "Nic",
        -9.913684968130358
      ],
      [
        "Ġdobro",
        -9.91379716059379
      ],
      [
        "ĠduchÅ¯",
        -9.913875652940854
      ],
      [
        "NaÄį",
        -9.914436401899152
      ],
      [
        "Ġkrvi",
        -9.914472608553893
      ],
      [
        "Ġhledal",
        -9.915554044763434
      ],
      [
        "ĠkrÃ¡Äįel",
        -9.915663594686901
      ],
      [
        "ĠhalÃŃ",
        -9.917662945656069
      ],
      [
        "ĠvÄĽtvÃŃ",
        -9.91879360079555
      ],
      [
        "Ġsladkou",
        -9.921173061163499
      ],
      [
        "Ġduh",
        -9.92142382495901
      ],
      [
        "ĠpÅĻÃŃtel",
        -9.921866490401964
      ],
      [
        "ĠtoÅ¥",
        -9.922556506854663
      ],
      [
        "Chci",
        -9.923321512941255
      ],
      [
        "ĠpohÃ¡r",
        -9.923464182754904
      ],
      [
        "Pan",
        -9.923530672242439
      ],
      [
        "Ġvine",
        -9.925452550038091
      ],
      [
        "nost",
        -9.92623295638419
      ],
      [
        "ĠvÄĽrnÃ½",
        -9.92703529636033
      ],
      [
        "darmo",
        -9.927243488040045
      ],
      [
        "cos",
        -9.927589517393422
      ],
      [
        "ĠpÃŃsk",
        -9.927905931129066
      ],
      [
        "Ġpouta",
        -9.928862577629381
      ],
      [
        "Ġjsa",
        -9.929055724626025
      ],
      [
        "ĠloÄı",
        -9.929269129048825
      ],
      [
        "ĠstaÄįÃŃ",
        -9.929942326607247
      ],
      [
        "ĠpÅĻÃ¡nÃŃ",
        -9.93034247134384
      ],
      [
        "ĠÅ¡ÃŃj",
        -9.930848999205015
      ],
      [
        "jÃŃmÅ¾",
        -9.930852013059582
      ],
      [
        "PÃ¡n",
        -9.93095332262159
      ],
      [
        "Ġzub",
        -9.931139570201184
      ],
      [
        "ĠpÃ¡lÃŃ",
        -9.933614862129883
      ],
      [
        "ĠprosÃŃm",
        -9.934285395823638
      ],
      [
        "ĠstÅĻel",
        -9.93466357637869
      ],
      [
        "Ġluny",
        -9.934772194121035
      ],
      [
        "Ġpil",
        -9.9358404329963
      ],
      [
        "Ti",
        -9.93636027401723
      ],
      [
        "ĠmyslÃŃm",
        -9.937208155914373
      ],
      [
        "Å¡e",
        -9.937447142641528
      ],
      [
        "Ġsyna",
        -9.937698701500825
      ],
      [
        "Ġlehc",
        -9.937790091139611
      ],
      [
        "ĠtajÃŃ",
        -9.938487133670876
      ],
      [
        "ĠmocnÃ½",
        -9.939245067968312
      ],
      [
        "Ġhroby",
        -9.940406432128313
      ],
      [
        "ĠpohÃ¡dk",
        -9.940510201388644
      ],
      [
        "Å¡tÃŃ",
        -9.940825887035672
      ],
      [
        "Ġvane",
        -9.941572245776548
      ],
      [
        "ovÃ½",
        -9.942142831412337
      ],
      [
        "znÃŃ",
        -9.94288417461296
      ],
      [
        "Ġroze",
        -9.944122689888939
      ],
      [
        "Ġvolal",
        -9.94430727629158
      ],
      [
        "ĠdÄĽs",
        -9.944604772349733
      ],
      [
        "ĠtemnÄĽ",
        -9.945206400899128
      ],
      [
        "Ġskvost",
        -9.945492970815454
      ],
      [
        "ĠpÄĽn",
        -9.946616601223507
      ],
      [
        "ĠÄįasÅ¯",
        -9.946621082396632
      ],
      [
        "P",
        -9.946744649164696
      ],
      [
        "ĠvÄĽne",
        -9.946910962164527
      ],
      [
        "ĠhuÄįÃŃ",
        -9.947713957619804
      ],
      [
        "ĠtÅĻpyt",
        -9.948385115240555
      ],
      [
        "ĠÄįernÃ¡",
        -9.948717845613338
      ],
      [
        "ĠmocÃŃ",
        -9.949442125541992
      ],
      [
        "ĠmÃ¡te",
        -9.9503583656881
      ],
      [
        "ĠKristu",
        -9.952333636023937
      ],
      [
        "Ġjih",
        -9.953283851279226
      ],
      [
        "Ġvrch",
        -9.954417452523838
      ],
      [
        "ĠÅ¡edÃ½",
        -9.954465803116467
      ],
      [
        "ĠcÃŃle",
        -9.954618699957013
      ],
      [
        "ĠvÄĽÅ¾e",
        -9.954977141711895
      ],
      [
        "jim",
        -9.955370844118393
      ],
      [
        "ĠbratÅĻi",
        -9.95646772202204
      ],
      [
        "ĠnaÅ¡el",
        -9.957062506777193
      ],
      [
        "Ġhvozd",
        -9.957230603381985
      ],
      [
        "Ġvojsk",
        -9.957576345944645
      ],
      [
        "ĠchudÃ©",
        -9.957592507047936
      ],
      [
        "dÄĽl",
        -9.95779397185628
      ],
      [
        "Ġkryje",
        -9.958261028345646
      ],
      [
        "ĠzlÃ©",
        -9.95836999067418
      ],
      [
        "Ġmrtvol",
        -9.959509144809267
      ],
      [
        "PÃ¡nÄĽ",
        -9.960057659956394
      ],
      [
        "ĠtÃŃÅ¾ÃŃ",
        -9.960648003255052
      ],
      [
        "ĠmlÄįÃŃ",
        -9.960950616301387
      ],
      [
        "KaÅ¾dÃ½",
        -9.963586619922463
      ],
      [
        "Ġtys",
        -9.964029833332553
      ],
      [
        "ĠvÅ¡ÃŃ",
        -9.964136785376162
      ],
      [
        "Ġtma",
        -9.96467847524401
      ],
      [
        "ĠslavnÃ©",
        -9.96559413885134
      ],
      [
        "ĠzachvÄĽl",
        -9.966392359575103
      ],
      [
        "ĠmuÅ¾Å¯",
        -9.966825996873682
      ],
      [
        "KrÃ¡l",
        -9.967767722025153
      ],
      [
        "ĠdlanÄĽ",
        -9.967780814591721
      ],
      [
        "ĠÄįert",
        -9.967956237304598
      ],
      [
        "ĠmraÄįn",
        -9.968489388365231
      ],
      [
        "ĠptaÄįÃŃ",
        -9.969190741011886
      ],
      [
        "ĠnemÃ¡m",
        -9.969694611521696
      ],
      [
        "Ġroh",
        -9.971068613167795
      ],
      [
        "let",
        -9.971096284689114
      ],
      [
        "bys",
        -9.973463128958961
      ],
      [
        "duch",
        -9.974158534192412
      ],
      [
        "ĠÅ¾enou",
        -9.97435465873761
      ],
      [
        "ĠspÃŃÅ¡",
        -9.975468369826553
      ],
      [
        "Ġslovy",
        -9.97596458891033
      ],
      [
        "ĠjichÅ¾",
        -9.976008769106837
      ],
      [
        "tvÅ¯j",
        -9.976023317111068
      ],
      [
        "krev",
        -9.976631197911093
      ],
      [
        "Ġstarou",
        -9.977310070320605
      ],
      [
        "Ġsoucit",
        -9.977822808750197
      ],
      [
        "Ġmluvit",
        -9.978448721926735
      ],
      [
        "ĠjevÃŃ",
        -9.978456824250944
      ],
      [
        "ila",
        -9.979561480664891
      ],
      [
        "ĠzÃ¡voj",
        -9.980008026586152
      ],
      [
        "ĠvlasÅ¯",
        -9.980709594990014
      ],
      [
        "ToÅ¾",
        -9.980790621660931
      ],
      [
        "ĠchladnÃ©",
        -9.980804108800305
      ],
      [
        "Ġbral",
        -9.980900237297831
      ],
      [
        "Ġvesele",
        -9.980902352680774
      ],
      [
        "ĠstÅĻÃŃbr",
        -9.981291079406052
      ],
      [
        "ĠprÅ¯vod",
        -9.981581025417913
      ],
      [
        "kaÅ¾dÃ½",
        -9.981870531613215
      ],
      [
        "Ġklas",
        -9.982423483172202
      ],
      [
        "Ġhrud",
        -9.98334735274517
      ],
      [
        "Ġmrtv",
        -9.984534733964583
      ],
      [
        "ĠlÃ¡n",
        -9.985129134992224
      ],
      [
        "ĠlÃŃbal",
        -9.985258458720361
      ],
      [
        "ĠsedÄĽl",
        -9.986115632848586
      ],
      [
        "ĠdÃ¡n",
        -9.987338802414243
      ],
      [
        "chom",
        -9.987486925456246
      ],
      [
        "Ġmatko",
        -9.989356863851357
      ],
      [
        "ovou",
        -9.98936812023684
      ],
      [
        "ĠvelikÃ½",
        -9.989530140900213
      ],
      [
        "ĠVÃ¡s",
        -9.989653295775275
      ],
      [
        "Ġpouti",
        -9.990361471769347
      ],
      [
        "ĠrodÃŃ",
        -9.991068455682257
      ],
      [
        "ĠkÅĻÃŃdel",
        -9.991453638860701
      ],
      [
        "ĠhrdÄĽ",
        -9.993101364391311
      ],
      [
        "ĠrÅ¯Å¾i",
        -9.994297641515388
      ],
      [
        "ĠkÅĻÃŃÅ¾e",
        -9.994527151786897
      ],
      [
        "Ġramen",
        -9.995254826331418
      ],
      [
        "ĠjÃŃÅ¾",
        -9.995314083964814
      ],
      [
        "VÃŃm",
        -9.995696826370109
      ],
      [
        "Ġkrov",
        -9.995986091648373
      ],
      [
        "ĠdÄĽvÄįe",
        -9.996104894757568
      ],
      [
        "ĠÅĻÃŃtÃŃ",
        -9.996714785382277
      ],
      [
        "ĠmnohÃ©",
        -9.997303117175587
      ],
      [
        "KÃ©Å¾",
        -9.997664625964104
      ],
      [
        "Ġstarost",
        -9.998458920834675
      ],
      [
        "ĠstÃ¡ÅĻÃŃ",
        -9.998893151559422
      ],
      [
        "Ġplna",
        -9.999295057194594
      ],
      [
        "Ġprahu",
        -9.999592370477377
      ],
      [
        "Ġslib",
        -9.99967754333805
      ],
      [
        "ĠbloudÃŃ",
        -10.000224617782997
      ],
      [
        "ĠmlÄįk",
        -10.000511345523195
      ],
      [
        "ÄĽjÅ¡ÃŃ",
        -10.000656436956668
      ],
      [
        "Ġvsi",
        -10.000831025078124
      ],
      [
        "Ġdni",
        -10.000850461752936
      ],
      [
        "Ġkouzlo",
        -10.001400538433561
      ],
      [
        "ĠvolnÄĽ",
        -10.001774454180907
      ],
      [
        "Ġbalvan",
        -10.002733410757486
      ],
      [
        "ĠvÅ¾dyÅ¥",
        -10.003815005545903
      ],
      [
        "g",
        -10.005201508899543
      ],
      [
        "Ġvlna",
        -10.005589705800107
      ],
      [
        "ĠnadÄĽjÃŃ",
        -10.00575440414585
      ],
      [
        "ĠchladnÃ½",
        -10.007456669932704
      ],
      [
        "Ġvnad",
        -10.007549077879936
      ],
      [
        "ĠjasnÄĽ",
        -10.007723426717806
      ],
      [
        "ĠpÅĻedu",
        -10.00832553468114
      ],
      [
        "Ġzor",
        -10.008344629576367
      ],
      [
        "stvÃŃ",
        -10.00860733856642
      ],
      [
        "ĠumÄĽnÃŃ",
        -10.009507137123709
      ],
      [
        "ĠÅ¡ÃŃp",
        -10.010257714817037
      ],
      [
        "ĠdÃ½chÃ¡",
        -10.010621785481888
      ],
      [
        "Ġmatc",
        -10.011450696011892
      ],
      [
        "Ġhnal",
        -10.011689977521598
      ],
      [
        "Ġprudce",
        -10.015432073545837
      ],
      [
        "ĠpÅ¯lnoc",
        -10.0156665459875
      ],
      [
        "ĠjÃ¡sot",
        -10.015751954147913
      ],
      [
        "ĠÅ¡edÃ©",
        -10.015797319422358
      ],
      [
        "ĠprÃ¡vo",
        -10.016063929334253
      ],
      [
        "Ġbudem",
        -10.017044779629117
      ],
      [
        "Ġvolnost",
        -10.017081183445992
      ],
      [
        "?...",
        -10.017361329000892
      ],
      [
        "ĠvdÄĽk",
        -10.018208315530362
      ],
      [
        "Ġrov",
        -10.020557006678896
      ],
      [
        "ob",
        -10.021761672490165
      ],
      [
        "Ġkamen",
        -10.022838054295825
      ],
      [
        "Ġprosb",
        -10.023113461312448
      ],
      [
        "Ġlad",
        -10.023177365316931
      ],
      [
        "ĠtuÅ¡ÃŃ",
        -10.023473364456773
      ],
      [
        "ĠneznÃ¡",
        -10.02350394341309
      ],
      [
        "Ġjakby",
        -10.023842903183136
      ],
      [
        "ĠpravÃ©",
        -10.023883141067238
      ],
      [
        "ĠvzplÃ¡l",
        -10.024944539313594
      ],
      [
        "ĠÅ¡eru",
        -10.02511782428224
      ],
      [
        "ĠplÃ¡nÃŃ",
        -10.025212036679033
      ],
      [
        "Ġvoda",
        -10.02565202831789
      ],
      [
        "Proto",
        -10.028721657121991
      ],
      [
        "ĠvonnÃ½",
        -10.029460767423677
      ],
      [
        "Äįas",
        -10.029679304941064
      ],
      [
        "ĠhnÄĽvu",
        -10.029817776181048
      ],
      [
        "ĠradostÃŃ",
        -10.029827574686697
      ],
      [
        "ĠskrÃ½vÃ¡",
        -10.02983862474802
      ],
      [
        "ĠÅĻekla",
        -10.030011306977094
      ],
      [
        "Ġhlahol",
        -10.030094250276164
      ],
      [
        "touze",
        -10.030185624424874
      ],
      [
        "pan",
        -10.03069282607921
      ],
      [
        "ĠvÄĽnce",
        -10.031587321062515
      ],
      [
        "ĠdivnÃ©",
        -10.03234042071124
      ],
      [
        "Ġmilosti",
        -10.032666341670662
      ],
      [
        "ovÃ¡",
        -10.032705048178633
      ],
      [
        "Ġzlost",
        -10.033099502002061
      ],
      [
        "Ġtmou",
        -10.03311447907386
      ],
      [
        "ĠbyÅ¥",
        -10.033762186877084
      ],
      [
        "ĠvÄįel",
        -10.033889028841077
      ],
      [
        "Ġposled",
        -10.034357087561357
      ],
      [
        "ĠnadÄĽj",
        -10.034393482383955
      ],
      [
        "ĠdeÅ¡tÄĽ",
        -10.035077649718682
      ],
      [
        "ĠsvÃŃrÃ¡",
        -10.035436930685457
      ],
      [
        "ĠhrÃ¡t",
        -10.035929736354912
      ],
      [
        "vÅ¡ech",
        -10.036127980000797
      ],
      [
        "ĠleÅ¾el",
        -10.036590284310655
      ],
      [
        "ĠslzÃŃ",
        -10.037040967767656
      ],
      [
        "Ġhad",
        -10.037875766669735
      ],
      [
        "Ġpopel",
        -10.038757388771405
      ],
      [
        "dÃ¡",
        -10.040199672629537
      ],
      [
        "ĠtÃŃh",
        -10.042223890047934
      ],
      [
        "Ġjal",
        -10.042644853451066
      ],
      [
        "Ġbarev",
        -10.043507129118272
      ],
      [
        "Ġvin",
        -10.04363157853027
      ],
      [
        "Ġlodi",
        -10.0436600100143
      ],
      [
        "vat",
        -10.044065757792112
      ],
      [
        "ĠjinÃŃ",
        -10.0446061019284
      ],
      [
        "ĠobÄĽÅ¥",
        -10.044790216672173
      ],
      [
        "ĠveÄįera",
        -10.044809012263249
      ],
      [
        "ĠnÄĽkde",
        -10.045307419908085
      ],
      [
        "ĠsamÃ©",
        -10.047000353685046
      ],
      [
        "ĠotÄįe",
        -10.04776168353915
      ],
      [
        "Ġstolu",
        -10.048095334872022
      ],
      [
        "ĠchovÃ¡",
        -10.048725654009804
      ],
      [
        "ĠsnÄĽh",
        -10.049989311218699
      ],
      [
        "nosti",
        -10.051211510718218
      ],
      [
        "Ġjezer",
        -10.051753546732588
      ],
      [
        "ĠprÃ¡va",
        -10.052101934592134
      ],
      [
        "Ġnikde",
        -10.05224975464188
      ],
      [
        "Ġztratil",
        -10.052420250296414
      ],
      [
        "ĠpoÅ¾ehnÃ¡nÃŃ",
        -10.053172760101184
      ],
      [
        "jeÅ¡tÄĽ",
        -10.054001056419606
      ],
      [
        "ĠbÃ¡l",
        -10.054402725802127
      ],
      [
        "ĠÅ¡kol",
        -10.05450428346006
      ],
      [
        "Ġpsal",
        -10.054977258924904
      ],
      [
        "ĠÅ¾ivÃ©",
        -10.055075146253888
      ],
      [
        "ĠkÃ½vÃ¡",
        -10.055460696555103
      ],
      [
        "tys",
        -10.055487359317922
      ],
      [
        "Ġtrud",
        -10.05627988314377
      ],
      [
        "ĠspÃ¡s",
        -10.056281829950807
      ],
      [
        "ĠtvoÅĻÃŃ",
        -10.057081813519556
      ],
      [
        "ĠjinÃ½m",
        -10.05727508063795
      ],
      [
        "ĠblÃŃzk",
        -10.057315268112589
      ],
      [
        "ĠzpÄĽvu",
        -10.057814640728356
      ],
      [
        "Ġbor",
        -10.059041279109309
      ],
      [
        "Ġvesel",
        -10.059738895167833
      ],
      [
        "ĠdlouhÃ¡",
        -10.060133081608331
      ],
      [
        "Ġskoro",
        -10.060262864774332
      ],
      [
        "Ġsna",
        -10.061445758612166
      ],
      [
        "Ġjinoch",
        -10.061519536036187
      ],
      [
        "ĠJe",
        -10.06165402862299
      ],
      [
        "ĠdÄĽjin",
        -10.062294803292861
      ],
      [
        "ĠptÃ¡kÅ¯",
        -10.06278191890142
      ],
      [
        "Ġjed",
        -10.063604050669008
      ],
      [
        "ĠÃºdolÃŃ",
        -10.064035962236797
      ],
      [
        "sta",
        -10.064142643621675
      ],
      [
        "ĠzrakÅ¯",
        -10.064252502568102
      ],
      [
        "ĠTebe",
        -10.064831631113446
      ],
      [
        "ĠvstÃ¡vÃ¡",
        -10.065000810695395
      ],
      [
        "Ġskryl",
        -10.065818949026331
      ],
      [
        "Ġlamp",
        -10.06676707781733
      ],
      [
        "âĢĺ",
        -10.066817132081614
      ],
      [
        "vÃ©",
        -10.067811850358135
      ],
      [
        "ĠÅ¡ero",
        -10.070672623601965
      ],
      [
        "ĠchlÃ©b",
        -10.070752751872021
      ],
      [
        "ĠradÄĽj",
        -10.071377648969726
      ],
      [
        "ĠtajemstvÃŃ",
        -10.071719573427838
      ],
      [
        "Ġvelmi",
        -10.071822425487477
      ],
      [
        "Ġkvete",
        -10.072452459666156
      ],
      [
        "Ġvedl",
        -10.072643291945006
      ],
      [
        "Ġstanul",
        -10.073137495376264
      ],
      [
        "ĠpÄĽknÄĽ",
        -10.073317814440164
      ],
      [
        "ĠjemnÄĽ",
        -10.073868234919649
      ],
      [
        "lou",
        -10.073973987365491
      ],
      [
        "ĠvelkÃ½m",
        -10.074237958384742
      ],
      [
        "Ġpes",
        -10.074738477720782
      ],
      [
        "ĠKrista",
        -10.075778229041372
      ],
      [
        "ĠÄįemu",
        -10.076238857631923
      ],
      [
        "ĠsluÅ¾b",
        -10.076295489477282
      ],
      [
        "ĠrodnÃ©",
        -10.076812634408324
      ],
      [
        "ĠchudÃ½",
        -10.076936610615576
      ],
      [
        "Ġminul",
        -10.07698665461449
      ],
      [
        "ĠpracÃŃ",
        -10.07740801987341
      ],
      [
        "dÃŃ",
        -10.077791026380867
      ],
      [
        "dej",
        -10.078638656153835
      ],
      [
        "ĠsmrtÃŃ",
        -10.079183556523084
      ],
      [
        "proti",
        -10.079252346567989
      ],
      [
        "ĠloÅ¾i",
        -10.079535781497844
      ],
      [
        "Äı",
        -10.079624661395892
      ],
      [
        "ĠkoÅĻen",
        -10.081083038272734
      ],
      [
        "Ġjitro",
        -10.08213373191725
      ],
      [
        "Ġzdroj",
        -10.082158215043949
      ],
      [
        "ĠvÄĽtve",
        -10.08249304007302
      ],
      [
        "ĠvÄĽÄįnÃ¡",
        -10.08271092646435
      ],
      [
        "kolem",
        -10.08274653704552
      ],
      [
        "ĠstÃ¡ti",
        -10.083145079840008
      ],
      [
        "Ġkrb",
        -10.083357494416555
      ],
      [
        "Ġzdi",
        -10.08387899265689
      ],
      [
        "Ġrosy",
        -10.084137893492844
      ],
      [
        "ĠhrÅ¯zy",
        -10.085296687713052
      ],
      [
        "Ġsto",
        -10.085374943428707
      ],
      [
        "Ġdobu",
        -10.085506160440982
      ],
      [
        "Ġhrozn",
        -10.086165992810841
      ],
      [
        "Ġznal",
        -10.086544257279513
      ],
      [
        "ĠptÃ¡",
        -10.086763985733564
      ],
      [
        "ĠpryÄį",
        -10.086941819458604
      ],
      [
        "Ġnoha",
        -10.08717249729311
      ],
      [
        "Ġmraz",
        -10.087288711170011
      ],
      [
        "ĠspÃŃcÃŃ",
        -10.088202332756396
      ],
      [
        "ĠdennÃŃ",
        -10.089020304425501
      ],
      [
        "Å¯ÅĪ",
        -10.089254302769778
      ],
      [
        "ĠÅ¾ivotem",
        -10.089413886054892
      ],
      [
        "Ġnemoh",
        -10.089625607918935
      ],
      [
        "prostÅĻed",
        -10.089667592992129
      ],
      [
        "ĠPrah",
        -10.089884262747319
      ],
      [
        "Ġkles",
        -10.090676619382972
      ],
      [
        "Ġdaleko",
        -10.09080705293994
      ],
      [
        "ĠnechtÄĽl",
        -10.09213669038191
      ],
      [
        "zpÄĽv",
        -10.092778210162543
      ],
      [
        "!âĢľâĢľ",
        -10.092780278392663
      ],
      [
        "ĠdÄĽdin",
        -10.093280697912043
      ],
      [
        "Ġdrahou",
        -10.093839876531755
      ],
      [
        "ĠprÃ¡zdno",
        -10.094308849040551
      ],
      [
        "ĠÄįem",
        -10.095267000389162
      ],
      [
        "Ġmluv",
        -10.095805198574652
      ],
      [
        "ĠmocnÄĽ",
        -10.096246915091752
      ],
      [
        "chtÄĽl",
        -10.096376916502324
      ],
      [
        "ĠtÃŃÅ¾",
        -10.096727137871234
      ],
      [
        "ĠvÅ¡ednÃŃ",
        -10.0968294771399
      ],
      [
        "Ġkouzl",
        -10.096956919861118
      ],
      [
        "ĠvÃŃtÄĽzstvÃŃ",
        -10.097526222317066
      ],
      [
        "ĠprostÅĻed",
        -10.098357090673208
      ],
      [
        "ĠkaÅ¾dÃ½m",
        -10.098751220161397
      ],
      [
        "ĠkrÃ¡sou",
        -10.099597474719804
      ],
      [
        "ĠÃºzkost",
        -10.099638906116333
      ],
      [
        "ĠtrÅ¯nu",
        -10.100005644707588
      ],
      [
        "ĠkvÃŃlÃŃ",
        -10.100280026715577
      ],
      [
        "dech",
        -10.100385395324173
      ],
      [
        "ĠÅ¾Ã¡dÃ¡",
        -10.10047347794139
      ],
      [
        "Ġpra",
        -10.100675465222672
      ],
      [
        "nÃ¡Å¡",
        -10.101487285111078
      ],
      [
        "enÃŃ",
        -10.104112681881869
      ],
      [
        "ĠstÅĻedu",
        -10.10421788784521
      ],
      [
        "Ġluk",
        -10.104765081467821
      ],
      [
        "Ani",
        -10.105690998259835
      ],
      [
        "ÄĮas",
        -10.106884813513677
      ],
      [
        "jichÅ¾",
        -10.107181150848037
      ],
      [
        "zÅĻel",
        -10.107285188052517
      ],
      [
        "Ġbohu",
        -10.107327663383881
      ],
      [
        "ĠusmÃŃvÃ¡",
        -10.108426550092204
      ],
      [
        "ĠposlÃ©z",
        -10.10911558673725
      ],
      [
        "ĠpoutnÃŃk",
        -10.10975494907483
      ],
      [
        "ĠjÃŃmÅ¾",
        -10.109932440322687
      ],
      [
        "ĠmrakÅ¯",
        -10.1101160784498
      ],
      [
        "ĠrÃ¡ji",
        -10.110217099117392
      ],
      [
        "ĠzvÄĽst",
        -10.110763816198162
      ],
      [
        "Ġproudy",
        -10.111190535628685
      ],
      [
        "Ġkomu",
        -10.11142620553758
      ],
      [
        "Ġplyne",
        -10.111638018279713
      ],
      [
        "ĠpÅĻÃ¡l",
        -10.1121588354995
      ],
      [
        "ĠzÃ¡mk",
        -10.112274916421656
      ],
      [
        "ĠpustÃ½",
        -10.112307815272812
      ],
      [
        "ĠkrÃ¡tkÃ½",
        -10.112374094121705
      ],
      [
        "Mne",
        -10.112611689788832
      ],
      [
        "Ġnemoc",
        -10.112706460543556
      ],
      [
        "Ġklade",
        -10.112785739645293
      ],
      [
        "ĠÄįet",
        -10.113030687338817
      ],
      [
        "ĠslavÃŃk",
        -10.113662317351793
      ],
      [
        "BoÅ¾e",
        -10.113689147464704
      ],
      [
        "ĠvÄĽdÄĽl",
        -10.11465012105513
      ],
      [
        "ĠnÄĽh",
        -10.114944355286253
      ],
      [
        "Ġnesou",
        -10.115024710694655
      ],
      [
        "iny",
        -10.115643296710036
      ],
      [
        "ĠznÃ¡t",
        -10.11595286456353
      ],
      [
        "Ġpostav",
        -10.116340150660285
      ],
      [
        "mÃ¡m",
        -10.117358667448102
      ],
      [
        "ĠnepÅĻÃ¡tel",
        -10.117537371685877
      ],
      [
        "ĠzpÃŃvat",
        -10.118164827048249
      ],
      [
        "ĠhroznÃ½",
        -10.118912268512116
      ],
      [
        "ĠvÄĽÅ¾ÃŃ",
        -10.119350231966008
      ],
      [
        "Ġdlouhou",
        -10.119662538206054
      ],
      [
        "LÃ¡ska",
        -10.11990860731876
      ],
      [
        "ĠvaÅ¡ÃŃ",
        -10.121454269878187
      ],
      [
        "ĠobliÄįej",
        -10.121661141159235
      ],
      [
        "ĠvesmÃŃr",
        -10.12206026100397
      ],
      [
        "Ġdol",
        -10.122189766817865
      ],
      [
        "ovÃ½m",
        -10.122409546412479
      ],
      [
        "Ġpark",
        -10.122567894412192
      ],
      [
        "ĠÅ¾alu",
        -10.12273554892353
      ],
      [
        "ĠdivÃ©",
        -10.123421362302572
      ],
      [
        "ĠÄįÃŃÅ¡e",
        -10.124023097101212
      ],
      [
        "ĠdobrÃ¡",
        -10.124027734366656
      ],
      [
        "Ġhod",
        -10.12426795083989
      ],
      [
        "ĠstoupÃ¡",
        -10.124351005287629
      ],
      [
        "Ġkrajem",
        -10.125381417530313
      ],
      [
        "ĠmÃŃstÄĽ",
        -10.125442423647915
      ],
      [
        "Ġklesl",
        -10.125609525663688
      ],
      [
        "ĠnosÃŃ",
        -10.125695553626956
      ],
      [
        "Kdyby",
        -10.125786574553496
      ],
      [
        "ĠzapomnÄĽl",
        -10.12683226776634
      ],
      [
        "PÅĻes",
        -10.127467469681031
      ],
      [
        "ĠletnÃŃ",
        -10.128196376475678
      ],
      [
        "nejkrÃ¡snÄĽjÅ¡ÃŃ",
        -10.130180463107926
      ],
      [
        "Ġmed",
        -10.130736505596632
      ],
      [
        "ĠbÄĽh",
        -10.131225829960805
      ],
      [
        "ĠzÅĻÃŃt",
        -10.131801699906529
      ],
      [
        "ChtÄĽl",
        -10.132065306741271
      ],
      [
        "Ġbudi",
        -10.132222878770598
      ],
      [
        "ĠvzpomÃŃnk",
        -10.132441708493474
      ],
      [
        "Ġkostel",
        -10.132746195158013
      ],
      [
        "mÄĽ",
        -10.132963517206068
      ],
      [
        "Ġmilost",
        -10.134081742344943
      ],
      [
        "Ġspal",
        -10.134360690889487
      ],
      [
        "ĠÅ¡Å¥ast",
        -10.134584295414207
      ],
      [
        "Ġtrest",
        -10.137212736811211
      ],
      [
        "ĠvznÃ¡Å¡ÃŃ",
        -10.137829815342082
      ],
      [
        "ĠpojÄı",
        -10.1389341408976
      ],
      [
        "ĠÅ¾havÃ©",
        -10.141119253850746
      ],
      [
        "Ġhloubk",
        -10.143697697871294
      ],
      [
        "ĠmoÅĻem",
        -10.144260952226148
      ],
      [
        "Ġnitro",
        -10.144808207751563
      ],
      [
        "ĠnejvÃŃc",
        -10.145825036149729
      ],
      [
        "ĠcelÃ©m",
        -10.1473446209861
      ],
      [
        "ĠmrtvÃ½",
        -10.147549534310798
      ],
      [
        "Ġzve",
        -10.147682027283818
      ],
      [
        "Ġlebk",
        -10.147962305807877
      ],
      [
        "Ġlev",
        -10.148280991440519
      ],
      [
        "Ġjist",
        -10.148636526758885
      ],
      [
        "ĠmlÃ½n",
        -10.149461841835514
      ],
      [
        "ĠdÃŃv",
        -10.14963820763645
      ],
      [
        "ĠprÃ¡zdn",
        -10.149734274423308
      ],
      [
        "Ġvtip",
        -10.149747452198884
      ],
      [
        "ĠtichÃ©m",
        -10.150198859847805
      ],
      [
        "ĠpoÅ¾Ã¡r",
        -10.150679083181569
      ],
      [
        "ĠsamÃ½",
        -10.150762068647172
      ],
      [
        "Ġlidi",
        -10.150965863346748
      ],
      [
        "Ġjindy",
        -10.151490100219851
      ],
      [
        "ĠvÄĽku",
        -10.151647732172076
      ],
      [
        "ĠslavnÄĽ",
        -10.151899354787782
      ],
      [
        "ĠstrÃ¡nÃŃ",
        -10.151919367073237
      ],
      [
        "Ġznak",
        -10.154206886381113
      ],
      [
        "ĠplÃ¡t",
        -10.154946716637568
      ],
      [
        "ĠbÃŃt",
        -10.155293394618962
      ],
      [
        "Ġmohla",
        -10.155392240772498
      ],
      [
        "ĠznÃ¡mÃ½",
        -10.155520778895628
      ],
      [
        "ĠprostÃ©",
        -10.155606473243992
      ],
      [
        "ĠbÃŃdu",
        -10.156466214138357
      ],
      [
        "L",
        -10.156866257194942
      ],
      [
        "ĠÄįel",
        -10.157228165656296
      ],
      [
        "cÃ½",
        -10.157433745992737
      ],
      [
        "VÅ¡ecko",
        -10.157546367141038
      ],
      [
        "ĠpoÄįal",
        -10.158500696437015
      ],
      [
        "Ġzima",
        -10.158605251378914
      ],
      [
        "eÄı",
        -10.158663116587753
      ],
      [
        "ĠvroucnÄĽ",
        -10.158694758362527
      ],
      [
        "Ġchodil",
        -10.159449166372013
      ],
      [
        "ĠdrÅ¾ÃŃ",
        -10.161000268859055
      ],
      [
        "Ġsilo",
        -10.161031283379884
      ],
      [
        "Ġrodin",
        -10.162228210658876
      ],
      [
        "bec",
        -10.16285965169705
      ],
      [
        "ĠchvÃŃlÃŃ",
        -10.163142838138967
      ],
      [
        "Jenom",
        -10.163519225825247
      ],
      [
        "ĠcÃŃli",
        -10.1640652172245
      ],
      [
        "div",
        -10.164596145544433
      ],
      [
        "Hoj",
        -10.16602586694358
      ],
      [
        "ĠÅ¡kod",
        -10.166068154318504
      ],
      [
        "Ġhrdin",
        -10.16628562410598
      ],
      [
        "Ġdnesk",
        -10.166697710152611
      ],
      [
        "ĠhÃ¡je",
        -10.167199522174808
      ],
      [
        "Ġtrav",
        -10.167959481702896
      ],
      [
        "Ġkosti",
        -10.168379240473385
      ],
      [
        "ĠvzÃŃt",
        -10.16848118543237
      ],
      [
        "Ġjestli",
        -10.170266414333303
      ],
      [
        "ĠpozdnÃŃ",
        -10.17039290605903
      ],
      [
        "ĠhnutÃŃ",
        -10.170407099121427
      ],
      [
        "Ġklenb",
        -10.1708500266937
      ],
      [
        "ĠchvÄĽla",
        -10.171795816756715
      ],
      [
        "ÄįistÃ¡",
        -10.173232233369959
      ],
      [
        "Ġprs",
        -10.174872533273778
      ],
      [
        "ĠzvonÅ¯",
        -10.174894260443882
      ],
      [
        "Ġp",
        -10.175243747756628
      ],
      [
        "ĠnemÅ¯Å¾e",
        -10.175298185313913
      ],
      [
        "ĠvlÃ¡dne",
        -10.175816569919778
      ],
      [
        "ĠdvÃ©ÅĻe",
        -10.175999572862908
      ],
      [
        "nutÃŃ",
        -10.176217096606692
      ],
      [
        "Ġmilou",
        -10.176401396081712
      ],
      [
        "Jde",
        -10.177244175689584
      ],
      [
        "Ġlun",
        -10.177288289167134
      ],
      [
        "Ġb",
        -10.177350789780498
      ],
      [
        "Ġjednom",
        -10.178458437435978
      ],
      [
        "nÃ¡s",
        -10.179355342217999
      ],
      [
        "ĠvÅ¡ickn",
        -10.180000868034863
      ],
      [
        "ĠoÄįim",
        -10.180106352865995
      ],
      [
        "ĠkrÃ¡snou",
        -10.180255243745082
      ],
      [
        "ĠumÃŃ",
        -10.18067773926522
      ],
      [
        "ĠstÃ¡d",
        -10.180704810275824
      ],
      [
        "ĠpozdÄĽ",
        -10.181102010507438
      ],
      [
        "sÅ¥",
        -10.181151557296197
      ],
      [
        "Ġzdar",
        -10.181194262172792
      ],
      [
        "ĠhonÃŃ",
        -10.18130098712294
      ],
      [
        "ĠdnÄĽ",
        -10.181604384367223
      ],
      [
        "juÅ¾",
        -10.181958067624944
      ],
      [
        "ĠskrÃ¡nÄĽ",
        -10.182263974834566
      ],
      [
        "ĠplnÃŃ",
        -10.182570438227241
      ],
      [
        "jdeÅ¡",
        -10.182751297800152
      ],
      [
        "ĠdÄĽla",
        -10.183948140216454
      ],
      [
        "ĠpÅ¯vab",
        -10.18407840283512
      ],
      [
        "C",
        -10.184610545142565
      ],
      [
        "ĠÅĺÃŃm",
        -10.18522689214442
      ],
      [
        "ĠtÄĽÅ¾kÃ¡",
        -10.18561555900915
      ],
      [
        "ĠruÄįk",
        -10.185916979924222
      ],
      [
        "ĠverÅ¡e",
        -10.186565841302848
      ],
      [
        "Ġhyne",
        -10.186880346148484
      ],
      [
        "Ha",
        -10.187680523061118
      ],
      [
        "Ġhanb",
        -10.18819722849014
      ],
      [
        "ĠbojÃŃ",
        -10.188894442764145
      ],
      [
        "ĠvÄĽcÃŃ",
        -10.189150574458129
      ],
      [
        "Ġrosa",
        -10.18917179389695
      ],
      [
        "ĠjÃ¡sÃ¡",
        -10.18941392311091
      ],
      [
        "lÃ½",
        -10.189895553506158
      ],
      [
        "stÃ¡l",
        -10.1903067174146
      ],
      [
        "manÄĽ",
        -10.19092966828402
      ],
      [
        "Ġtvar",
        -10.191628214346327
      ],
      [
        "ĠhÃ¡zÃŃ",
        -10.191747424418955
      ],
      [
        "Jsme",
        -10.19175658634854
      ],
      [
        "Ġnebude",
        -10.191774686869177
      ],
      [
        "ĠvaÅ¡ich",
        -10.191833708183642
      ],
      [
        "Ġptal",
        -10.19209208083577
      ],
      [
        "koneÄįnÄĽ",
        -10.192341839578866
      ],
      [
        "ĠskÃ¡le",
        -10.192699374353754
      ],
      [
        "mÃŃr",
        -10.195103751516285
      ],
      [
        "Ġchas",
        -10.195292934138037
      ],
      [
        "Ġkov",
        -10.195423034710801
      ],
      [
        "Ġvrchol",
        -10.195670945100648
      ],
      [
        "Ġrys",
        -10.19578679799669
      ],
      [
        "ĠpÅĻelud",
        -10.19583729987893
      ],
      [
        "ĠkÃ¡Å¾e",
        -10.195874812154983
      ],
      [
        "ĠÅ¾Ã¡dn",
        -10.196174406680964
      ],
      [
        "ĠtÃ¡hnou",
        -10.19688398578503
      ],
      [
        "ĠVÃ¡clav",
        -10.197431500798189
      ],
      [
        "bude",
        -10.198186177322183
      ],
      [
        "ĠjedinÃ©",
        -10.200698293645061
      ],
      [
        "Ġpadla",
        -10.201866766410893
      ],
      [
        "zÅĻÃŃ",
        -10.202381148603402
      ],
      [
        "TvÃ¡",
        -10.202405304682621
      ],
      [
        "ĠbolestÃŃ",
        -10.203471986337664
      ],
      [
        "NÃ¡m",
        -10.203576491344421
      ],
      [
        "Ġhlubok",
        -10.203762354873822
      ],
      [
        "ĠblÃŃzko",
        -10.203970503828105
      ],
      [
        "Ġtichou",
        -10.20401075488052
      ],
      [
        "Ġnejsem",
        -10.20408732349642
      ],
      [
        "ĠpÄĽstÃŃ",
        -10.20533807247988
      ],
      [
        "Ġmnich",
        -10.205449934885506
      ],
      [
        "Duch",
        -10.205494704018912
      ],
      [
        "ĠjednÃŃ",
        -10.206002212804185
      ],
      [
        "ĠvÃ¡Å¾nÄĽ",
        -10.206547611876307
      ],
      [
        "Å¾ÃŃ",
        -10.206775534344196
      ],
      [
        "Ġsic",
        -10.207431396417729
      ],
      [
        "Ġdle",
        -10.20760559756835
      ],
      [
        "ĠÃºÅ¾as",
        -10.20765535157885
      ],
      [
        "dÃŃlo",
        -10.209443336657742
      ],
      [
        "Ġleb",
        -10.211927517691791
      ],
      [
        "ĠprchÃ¡",
        -10.212102056180036
      ],
      [
        "ĠlÃŃto",
        -10.213443391842677
      ],
      [
        "Ġnutno",
        -10.214286035397537
      ],
      [
        "ĠÅ¡Å¥astnÃ½",
        -10.215470372155902
      ],
      [
        "ĠsilnÃ½",
        -10.215583058597902
      ],
      [
        "zÅĻÃŃÅ¡",
        -10.21568660294217
      ],
      [
        "byÅ¥",
        -10.215746022691565
      ],
      [
        "ĠvÄĽrnÄĽ",
        -10.21661151761513
      ],
      [
        "Ġshon",
        -10.217264169527098
      ],
      [
        "ĠbratÅĻe",
        -10.217268719223942
      ],
      [
        "Slunce",
        -10.217525188756525
      ],
      [
        "SvÃ©",
        -10.217631048005995
      ],
      [
        "Ġlesku",
        -10.218456641298427
      ],
      [
        "ĠkÅĻiÄįÃŃ",
        -10.218665284121258
      ],
      [
        "ĠpÅĻiÅ¡l",
        -10.21933195062532
      ],
      [
        "Ġzved",
        -10.219845775495862
      ],
      [
        "DÃ¡l",
        -10.220136218328701
      ],
      [
        "ĠkrÅ¯pÄĽj",
        -10.220492651244742
      ],
      [
        "ĠÄįinÃŃ",
        -10.221224280775008
      ],
      [
        "ĠsvÄĽtel",
        -10.221785429872103
      ],
      [
        "Ġkruhu",
        -10.222120120466535
      ],
      [
        "ĠchvÄĽjÃŃ",
        -10.222716790614056
      ],
      [
        "ĠsÃŃnÄĽ",
        -10.223461590939579
      ],
      [
        "noc",
        -10.223692565152128
      ],
      [
        "ĠneznÃ¡m",
        -10.224290501896064
      ],
      [
        "ĠvÄĽÅĻÃŃ",
        -10.22516891088624
      ],
      [
        "ĠzdrÃ¡v",
        -10.226205269633706
      ],
      [
        "Ġsever",
        -10.226443438179398
      ],
      [
        "ĠprÃ¡h",
        -10.226963922958934
      ],
      [
        "ĠkvÃ©st",
        -10.227025819890592
      ],
      [
        "nes",
        -10.227244324987234
      ],
      [
        "Ġplanou",
        -10.227727229979152
      ],
      [
        "Ġpluh",
        -10.228110616500544
      ],
      [
        "Ġzvolal",
        -10.228127181600302
      ],
      [
        "stÃŃn",
        -10.230856610207098
      ],
      [
        "KvÄĽt",
        -10.23164936763384
      ],
      [
        "Ġtehdy",
        -10.231990387494145
      ],
      [
        "ĠmÃ¡ti",
        -10.233234593549188
      ],
      [
        "ĠnevÄĽst",
        -10.23360961963493
      ],
      [
        "ĠÄįernou",
        -10.23427094255187
      ],
      [
        "Ġmilovat",
        -10.234804806636994
      ],
      [
        "ĠsnÃŃt",
        -10.234966280525306
      ],
      [
        "ĠvÃ¡lk",
        -10.235862074802075
      ],
      [
        "Takto",
        -10.23586412691224
      ],
      [
        "Ġnechal",
        -10.235954785769032
      ],
      [
        "Ġstezk",
        -10.236686775356395
      ],
      [
        "svÃ½ch",
        -10.237376286335511
      ],
      [
        "ĠOn",
        -10.237596182133345
      ],
      [
        "ĠÅĻeka",
        -10.238538859044333
      ],
      [
        "ĠzlatÃ½m",
        -10.238845134855783
      ],
      [
        "Ġstan",
        -10.239163203950797
      ],
      [
        "Ġzlob",
        -10.239599084248844
      ],
      [
        "Ġmistr",
        -10.239789022309228
      ],
      [
        "ĠjakÃ¡",
        -10.239837601543194
      ],
      [
        "Ġluz",
        -10.241551148151546
      ],
      [
        "ajÃŃcÃŃ",
        -10.241690366304395
      ],
      [
        "Ġhrot",
        -10.241697711202885
      ],
      [
        "ĠbuÅ¡ÃŃ",
        -10.241783333996505
      ],
      [
        "ĠTv",
        -10.24276896213064
      ],
      [
        "tvÃ¡",
        -10.244154908366749
      ],
      [
        "Ġobou",
        -10.244420449359119
      ],
      [
        "ĠÅ¾enÄĽ",
        -10.244455658555193
      ],
      [
        "Ġbrach",
        -10.245486264420713
      ],
      [
        "tvÃ¡ÅĻ",
        -10.24565925533022
      ],
      [
        "ĠrÃ¡mÄĽ",
        -10.24602286263837
      ],
      [
        "RÃ¡d",
        -10.246150077046803
      ],
      [
        "ĠjejÃŃch",
        -10.246179366254907
      ],
      [
        "Ku",
        -10.246539525311483
      ],
      [
        "Ġpeklo",
        -10.246620871787421
      ],
      [
        "Ġpann",
        -10.247661303370716
      ],
      [
        "Ġano",
        -10.248148958178307
      ],
      [
        "ĠmarnÃ©",
        -10.248170790549516
      ],
      [
        "ĠnovÃ½m",
        -10.248334281417193
      ],
      [
        "jdou",
        -10.249041192674742
      ],
      [
        "Ej",
        -10.249042544890465
      ],
      [
        "Ġrve",
        -10.249086933527852
      ],
      [
        "ĠpravdÄĽ",
        -10.249921867323001
      ],
      [
        "ĠÅĻekne",
        -10.2499963237304
      ],
      [
        "ĠsvÄĽdomÃŃ",
        -10.250261596744295
      ],
      [
        "Ġozval",
        -10.250645540949261
      ],
      [
        "ĠtÅĻÃ¡sl",
        -10.250921981834805
      ],
      [
        "Ni",
        -10.251262621848184
      ],
      [
        "ĠpalÃ¡c",
        -10.251301979026511
      ],
      [
        "ĠvelikÃ©",
        -10.25149088786598
      ],
      [
        "Ġved",
        -10.25390453759406
      ],
      [
        "ĠlÃ©pe",
        -10.2542484063145
      ],
      [
        "Ġklad",
        -10.25427779129425
      ],
      [
        "ĠpÅ¯jde",
        -10.25435831252879
      ],
      [
        "Ġpolo",
        -10.255462027610204
      ],
      [
        "Å¡ly",
        -10.255745503954039
      ],
      [
        "ĠpÄĽnÃŃ",
        -10.256874556559033
      ],
      [
        "ĠkolÃ©bk",
        -10.257013873449225
      ],
      [
        "vÃ½",
        -10.257209294359537
      ],
      [
        "Ġroj",
        -10.257286088984813
      ],
      [
        "eÅ¡el",
        -10.258968858630645
      ],
      [
        "ĠJen",
        -10.259019962903029
      ],
      [
        "nÄĽte",
        -10.259277556243447
      ],
      [
        "Ġstrachu",
        -10.259315734925714
      ],
      [
        "Ġhejn",
        -10.259358939962226
      ],
      [
        "lÃŃp",
        -10.25956049382794
      ],
      [
        "ĠstaÅĻec",
        -10.25978307242827
      ],
      [
        "zÅĻÃŃm",
        -10.260003080229865
      ],
      [
        "kÃ½",
        -10.260364770279825
      ],
      [
        "Ġsled",
        -10.260389985959332
      ],
      [
        "vÄĽ",
        -10.26077025355077
      ],
      [
        "ru",
        -10.260806179410775
      ],
      [
        "Ġzrad",
        -10.262090834602082
      ],
      [
        "ĠhrajÃŃ",
        -10.262521782058936
      ],
      [
        "Ġsmutno",
        -10.263574245916288
      ],
      [
        "krÃ¡l",
        -10.264712038515054
      ],
      [
        "Ġsten",
        -10.265166699968756
      ],
      [
        "Sem",
        -10.265803176904868
      ],
      [
        "ĠplÃ¡Äįem",
        -10.265864537759159
      ],
      [
        "ĠtÄĽÅ¡ÃŃ",
        -10.266333497689137
      ],
      [
        "Ġjede",
        -10.267649317281245
      ],
      [
        "ĠlÃ©t",
        -10.267657367994143
      ],
      [
        "Ġslavn",
        -10.267956441549547
      ],
      [
        "ĠnoÅĻÃŃ",
        -10.26933628458113
      ],
      [
        "jdeme",
        -10.269877902770059
      ],
      [
        "Ġhledat",
        -10.269962129501128
      ],
      [
        "ĠkrÃ¡lovn",
        -10.271003714172572
      ],
      [
        "ĠpouÅ¡ti",
        -10.271973976981606
      ],
      [
        "Ġzjevil",
        -10.272597068904865
      ],
      [
        "ĠzbranÄĽ",
        -10.273366748940527
      ],
      [
        "ĠnaÄį",
        -10.273851341409639
      ],
      [
        "ĠletÄĽl",
        -10.274620858676652
      ],
      [
        "ĠplÃ¡Å¡Å¥",
        -10.274656105955547
      ],
      [
        "ĠznamenÃŃ",
        -10.274692060986688
      ],
      [
        "ĠtÃ¡hl",
        -10.275163055838231
      ],
      [
        "ĠjÃŃmÃ¡",
        -10.27521215234082
      ],
      [
        "ĠbÃŃda",
        -10.275524231749355
      ],
      [
        "ĠzmÃŃrÃ¡",
        -10.27571818427133
      ],
      [
        "Ġticha",
        -10.275901939847902
      ],
      [
        "ĠzaÄįal",
        -10.276217190926252
      ],
      [
        "ĠpojÃŃ",
        -10.27623891932856
      ],
      [
        "ĠmlÃ¡d",
        -10.27856085283554
      ],
      [
        "ĠsvÃŃtil",
        -10.278587320814147
      ],
      [
        "muÅ¾",
        -10.280000392081309
      ],
      [
        "ĠzvuÄįÃŃ",
        -10.280214840492889
      ],
      [
        "Ġpadal",
        -10.280772736545627
      ],
      [
        "Ġstatk",
        -10.282139928119804
      ],
      [
        "tmu",
        -10.282368519229813
      ],
      [
        "ĠchvÄĽnÃŃ",
        -10.28256624688553
      ],
      [
        "Ġsamo",
        -10.282693783206806
      ],
      [
        "ĠryzÃŃ",
        -10.283165497239043
      ],
      [
        "ĠvÃŃtÃ¡",
        -10.28319989148197
      ],
      [
        "ĠsmÄĽlÃ½",
        -10.283948125348523
      ],
      [
        "ĠjakÃ½s",
        -10.28424597545009
      ],
      [
        "ĠjinÃ¡",
        -10.284636570726374
      ],
      [
        "Sotva",
        -10.284686687621953
      ],
      [
        "Ġbod",
        -10.28478606893887
      ],
      [
        "ĠKare",
        -10.284808594186538
      ],
      [
        "ĠÅ¡eptÃ¡",
        -10.28510281005963
      ],
      [
        "Ġono",
        -10.285767095157786
      ],
      [
        "ĠÅĻetÄĽz",
        -10.285796255152889
      ],
      [
        "ĠnÄĽÅ¾",
        -10.28581457269673
      ],
      [
        "Ġpusto",
        -10.286215812402776
      ],
      [
        "ostÃŃ",
        -10.28679033279698
      ],
      [
        "Ã¡n",
        -10.286903541537919
      ],
      [
        "ĠzbraÅĪ",
        -10.287026912560787
      ],
      [
        "sti",
        -10.287179503947428
      ],
      [
        "ĠonÃ©",
        -10.287439131977406
      ],
      [
        "ĠstokrÃ¡t",
        -10.287538613234425
      ],
      [
        "Ġstud",
        -10.288024680499454
      ],
      [
        "ĠzvÄĽÅĻ",
        -10.288428927686297
      ],
      [
        "sen",
        -10.288730671566817
      ],
      [
        "Ġcitu",
        -10.289477002936145
      ],
      [
        "ĠstÃ¡li",
        -10.28961779587819
      ],
      [
        "ĠrozkoÅ¡e",
        -10.289979248342147
      ],
      [
        "Ġpropasti",
        -10.290390505610368
      ],
      [
        "ĠhroznÃ©",
        -10.290701842740846
      ],
      [
        "ĠzÃ¡ÅĻÃŃcÃŃ",
        -10.291074470209459
      ],
      [
        "ĠvÄĽtrÅ¯",
        -10.291079944080057
      ],
      [
        "Ġkomnat",
        -10.291623530238715
      ],
      [
        "ĠsÃŃn",
        -10.291957570267694
      ],
      [
        "ĠnÃŃmÅ¾",
        -10.292028215171786
      ],
      [
        "Ġchcete",
        -10.292455763576871
      ],
      [
        "ĠprosÃŃ",
        -10.292478851643356
      ],
      [
        "Ġhmot",
        -10.292943872716023
      ],
      [
        "ĠsvÄĽtlÃ½",
        -10.293315022096767
      ],
      [
        "Ġmyslil",
        -10.293414332228163
      ],
      [
        "ĠstrÃ¡n",
        -10.294180431022273
      ],
      [
        "Ġvesn",
        -10.295929109913256
      ],
      [
        "ĠdvÃ©",
        -10.296560153398744
      ],
      [
        "mÅ¯Å¾eÅ¡",
        -10.296750418832875
      ],
      [
        "Ġdcera",
        -10.297684658789322
      ],
      [
        "ĠplaÅ¡e",
        -10.298152569586748
      ],
      [
        "ĠbÅĻehÅ¯",
        -10.29822329646153
      ],
      [
        "Ġves",
        -10.298648773848383
      ],
      [
        "Ġbyt",
        -10.298714263834468
      ],
      [
        "ĠpÃ¡na",
        -10.298969947066562
      ],
      [
        "ĠpustÃ©",
        -10.299644329717365
      ],
      [
        "ĠnesmÃŃ",
        -10.301089833450735
      ],
      [
        "mezi",
        -10.301760688278744
      ],
      [
        "Ġchvil",
        -10.302688360537381
      ],
      [
        "MuÅ¾",
        -10.30298349093141
      ],
      [
        "ĠdivnÄĽ",
        -10.303313607853704
      ],
      [
        "pomalu",
        -10.303463000678235
      ],
      [
        "Ġvrat",
        -10.304472248000607
      ],
      [
        "ĠslavÃŃ",
        -10.304681041014462
      ],
      [
        "Ġpolibk",
        -10.304977411070679
      ],
      [
        "hlav",
        -10.305333534003037
      ],
      [
        "Ġvzlet",
        -10.30593332732018
      ],
      [
        "ĠzprÃ¡v",
        -10.306174652997743
      ],
      [
        "neÅ¾li",
        -10.306451339371796
      ],
      [
        "ĠstÅ¯l",
        -10.308483691739458
      ],
      [
        "ĠnepÅĻÃŃtel",
        -10.308607711464523
      ],
      [
        "ĠkÅĻÃŃdle",
        -10.308748280321762
      ],
      [
        "ĠÃºd",
        -10.309164329785201
      ],
      [
        "jeho",
        -10.31180134518447
      ],
      [
        "TÃŃm",
        -10.312149967172868
      ],
      [
        "Ġtlum",
        -10.312238429772439
      ],
      [
        "Ġbrad",
        -10.312311500417218
      ],
      [
        "ĠtÄĽmi",
        -10.312363562153115
      ],
      [
        "Ġkat",
        -10.312661354600397
      ],
      [
        "ĠvrÃ¡sk",
        -10.313286662627394
      ],
      [
        "ĠsÃŃle",
        -10.313558897449806
      ],
      [
        "ĠhrozÃŃ",
        -10.314006085692114
      ],
      [
        "Ġpar",
        -10.3140978220884
      ],
      [
        "ĠnevidÄĽl",
        -10.315183776601565
      ],
      [
        "Ano",
        -10.3155000398174
      ],
      [
        "Ġcti",
        -10.315700374876032
      ],
      [
        "ĠdnÃŃ",
        -10.31591834843531
      ],
      [
        "Ġnesl",
        -10.316233918411115
      ],
      [
        "Ġohlas",
        -10.316447440972686
      ],
      [
        "ĠpouhÃ½",
        -10.31667499859732
      ],
      [
        "ĠhrÅ¯za",
        -10.317404766035736
      ],
      [
        "Ġnitra",
        -10.318061544228357
      ],
      [
        "Ġkoho",
        -10.318237571675354
      ],
      [
        "ĠzÃ¡Å¡tÃŃ",
        -10.318396980668805
      ],
      [
        "vÅ¯r",
        -10.318419048917317
      ],
      [
        "ĠvÄĽÄįn",
        -10.318546851635189
      ],
      [
        "Ġdvor",
        -10.32007835195725
      ],
      [
        "Ġpal",
        -10.32097069002095
      ],
      [
        "ĠÄįÃŃst",
        -10.321943779305322
      ],
      [
        "Ġmimo",
        -10.32202072663827
      ],
      [
        "ĠkrutÃ½",
        -10.32214241804687
      ],
      [
        "Ġkola",
        -10.322249321137999
      ],
      [
        "Ġkvetl",
        -10.322261211147893
      ],
      [
        "ĠhlubokÃ½",
        -10.32239996783937
      ],
      [
        "ĠchystÃ¡",
        -10.323043347316212
      ],
      [
        "ĠvÃŃÅĻÃŃ",
        -10.323130039325719
      ],
      [
        "ĠpapeÅ¾",
        -10.32404461651846
      ],
      [
        "ĠpouÅ¡tÃŃ",
        -10.324324140286976
      ],
      [
        "ĠvÃ¡bÃŃ",
        -10.325065887000914
      ],
      [
        "Ġdivy",
        -10.32587397068074
      ],
      [
        "ĠprostÃ½",
        -10.326520689345411
      ],
      [
        "ĠvlÃ¡d",
        -10.326630040510818
      ],
      [
        "jste",
        -10.3280374021034
      ],
      [
        "ĠnaÅ¡em",
        -10.328271221872178
      ],
      [
        "DÅĻÃŃv",
        -10.329075684907984
      ],
      [
        "ĠpÅĻÃŃmo",
        -10.330120491162493
      ],
      [
        "Ġtemnot",
        -10.330438043675308
      ],
      [
        "nce",
        -10.330454397176105
      ],
      [
        "ĠsmÄĽs",
        -10.33062640688982
      ],
      [
        "Ġpot",
        -10.331673303528612
      ],
      [
        "MÄĽl",
        -10.331716195604272
      ],
      [
        "ĠzmÄĽn",
        -10.331805890575662
      ],
      [
        "ĠpÄĽje",
        -10.332586158413893
      ],
      [
        "Ġohni",
        -10.332675347323441
      ],
      [
        "An",
        -10.332805923504592
      ],
      [
        "ĠmoÅĻÃŃ",
        -10.33299043934458
      ],
      [
        "Ġmrav",
        -10.333214233788413
      ],
      [
        "ĠsmÄĽr",
        -10.333215635315607
      ],
      [
        "ĠdÄĽlÃ¡",
        -10.33418385311894
      ],
      [
        "ĠzbranÃŃ",
        -10.334858210794529
      ],
      [
        "ĠvÃ¡l",
        -10.33491078460975
      ],
      [
        "ĠpolÃŃbenÃŃ",
        -10.33563159211339
      ],
      [
        "ĠpestrÃ½",
        -10.335635279100888
      ],
      [
        "ĠneÅ¡tÄĽstÃŃ",
        -10.33569333467127
      ],
      [
        "ĠÅ¾ebrÃ¡k",
        -10.336108867497316
      ],
      [
        "ĠzlatÃŃ",
        -10.336981911948751
      ],
      [
        "ĠÅ¾houcÃŃ",
        -10.337173104930084
      ],
      [
        "Ġmile",
        -10.337725637331724
      ],
      [
        "naÄį",
        -10.338270000856124
      ],
      [
        "ĠvidÃŃÅ¡",
        -10.33882751676876
      ],
      [
        "ĠvlÃ¡h",
        -10.339129295669105
      ],
      [
        "Ġpochod",
        -10.339371223610144
      ],
      [
        "pÃŃ",
        -10.339399926478617
      ],
      [
        "ĠmÄĽj",
        -10.340753164323727
      ],
      [
        "Ġtemno",
        -10.340834267743588
      ],
      [
        "ĠblaÅ¾en",
        -10.341403407786103
      ],
      [
        "ĠdunÃŃ",
        -10.341610015710893
      ],
      [
        "nec",
        -10.341763698929467
      ],
      [
        "nenÃŃ",
        -10.34182718208777
      ],
      [
        "ĠdÃ¡vnÃ©",
        -10.342276163697715
      ],
      [
        "Ġdostal",
        -10.34243014297606
      ],
      [
        "ĠvyÅ¡Å¡ÃŃ",
        -10.342559287825006
      ],
      [
        "tÅĻi",
        -10.342895531348525
      ],
      [
        "ĠpamÃ¡tk",
        -10.343286646152423
      ],
      [
        "ĠnejvyÅ¡Å¡ÃŃ",
        -10.34358947116754
      ],
      [
        "Ġklesla",
        -10.34471950668679
      ],
      [
        "ovÃ¡nÃŃ",
        -10.34483904274966
      ],
      [
        "kdes",
        -10.34618105461172
      ],
      [
        "ĠsluÅ¡ÃŃ",
        -10.34626994321625
      ],
      [
        "Ġkapk",
        -10.346763813052654
      ],
      [
        "lÅ¯nÄĽ",
        -10.347640648286653
      ],
      [
        "ĠdomÄĽ",
        -10.347993155119728
      ],
      [
        "ĠÅ¡ept",
        -10.348062555606251
      ],
      [
        "Ġvdov",
        -10.348222711942999
      ],
      [
        "kdys",
        -10.349462244991827
      ],
      [
        "Ġmalou",
        -10.349525461247238
      ],
      [
        "Å¡ek",
        -10.350225333494643
      ],
      [
        "Ġnejsou",
        -10.350226148351089
      ],
      [
        "ĠkonÃŃ",
        -10.3507050671674
      ],
      [
        "ĠsamotÄĽ",
        -10.351569682962658
      ],
      [
        "ĠhrdÃ½",
        -10.351927699135588
      ],
      [
        "Ġmladosti",
        -10.352683262362088
      ],
      [
        "Ġchmur",
        -10.353329573368491
      ],
      [
        "Ġnedal",
        -10.353440503901712
      ],
      [
        "bÃ½t",
        -10.354036255408204
      ],
      [
        "ĠleÅ¾",
        -10.354129465854292
      ],
      [
        "ĠrÃ¡di",
        -10.354132026909754
      ],
      [
        "pln",
        -10.354504014758948
      ],
      [
        "B",
        -10.354821588205368
      ],
      [
        "Ġlem",
        -10.355196521784027
      ],
      [
        "Ġpluk",
        -10.355350680409618
      ],
      [
        "ĠÅĻada",
        -10.355650901146527
      ],
      [
        "sem",
        -10.355724971958189
      ],
      [
        "ĠkrÃ¡lÅ¯",
        -10.356317483029237
      ],
      [
        "ĠvlnÃŃ",
        -10.3564324452099
      ],
      [
        "ĠtrhÃ¡",
        -10.356610323093303
      ],
      [
        "vÅ¡ecko",
        -10.356734987744908
      ],
      [
        "ĠvlÃŃdnÄĽ",
        -10.357296359696033
      ],
      [
        "svit",
        -10.358033241777978
      ],
      [
        "ĠcelÃ½m",
        -10.358610917915872
      ],
      [
        "Ġtemnou",
        -10.35957514421655
      ],
      [
        "vÃŃÅ¡",
        -10.360189935990935
      ],
      [
        "ĠzlatÃ©m",
        -10.360381256401176
      ],
      [
        "Ġpruh",
        -10.36070422993836
      ],
      [
        "ĠhÃ¡v",
        -10.360738778515245
      ],
      [
        "nohy",
        -10.361497579996547
      ],
      [
        "Ġrval",
        -10.3618049447695
      ],
      [
        "Ġcizin",
        -10.361838074693146
      ],
      [
        "proto",
        -10.362497075997448
      ],
      [
        "ĠtmÄĽ",
        -10.3625054445053
      ],
      [
        "Ġsluje",
        -10.363270568548003
      ],
      [
        "ĠmÃ¡j",
        -10.363315958477544
      ],
      [
        "ĠvÄĽrnÃ©",
        -10.363410692273241
      ],
      [
        "kÃ©Å¾",
        -10.363439704683886
      ],
      [
        "ĠÅ¾ij",
        -10.363668186223313
      ],
      [
        "Ġmor",
        -10.364033292587898
      ],
      [
        "KdoÅ¾",
        -10.364045487715146
      ],
      [
        "Ġprost",
        -10.364205296337513
      ],
      [
        "Ġkrvav",
        -10.36563618429727
      ],
      [
        "ĠpÃ¡s",
        -10.365859622200261
      ],
      [
        "br",
        -10.366246219557565
      ],
      [
        "Ġpomst",
        -10.366293499076225
      ],
      [
        "Ġnud",
        -10.366755628050395
      ],
      [
        "ĠhÅĻÃŃchu",
        -10.367404508026759
      ],
      [
        "Ġjmen",
        -10.368140343176169
      ],
      [
        "ĠvelÃŃ",
        -10.368875313009205
      ],
      [
        "Ġdceru",
        -10.36914827265916
      ],
      [
        "ĠÅ¾eno",
        -10.369900290349094
      ],
      [
        "Ġoni",
        -10.37002485134575
      ],
      [
        "jÅ¡ÃŃ",
        -10.370558404035286
      ],
      [
        "Svo",
        -10.370757788537233
      ],
      [
        "nuÅ¾",
        -10.371314901650138
      ],
      [
        "ĠdÄĽtskÃ½",
        -10.371317509089884
      ],
      [
        "Ġoblo",
        -10.371379157511084
      ],
      [
        "ĠkvÄĽtin",
        -10.371636463995362
      ],
      [
        "ĠslzÃ¡",
        -10.371713879074115
      ],
      [
        "Ġplen",
        -10.371717876014273
      ],
      [
        "ĠneznÃ¡mÃ½",
        -10.372326696939023
      ],
      [
        "Ġmladou",
        -10.372472753218137
      ],
      [
        "ĠplÃ©m",
        -10.372829979487236
      ],
      [
        "ĠhledÃŃm",
        -10.37313550087774
      ],
      [
        "Ġstrop",
        -10.373670427207276
      ],
      [
        "ĠtajnÄĽ",
        -10.37422945743146
      ],
      [
        "ĠbrÃ¡nÃŃ",
        -10.37437637531523
      ],
      [
        "Ġcity",
        -10.374911632541021
      ],
      [
        "ĠvodÄĽ",
        -10.37538683232794
      ],
      [
        "Äįin",
        -10.376365399804847
      ],
      [
        "ĠkterÃ½m",
        -10.377535430396044
      ],
      [
        "ĠvrahÅ¯",
        -10.377964820012753
      ],
      [
        "Åłel",
        -10.378199869917136
      ],
      [
        "ĠskvÄĽl",
        -10.37850177248135
      ],
      [
        "ĠslÃ¡vo",
        -10.378904554069347
      ],
      [
        "Ġjimi",
        -10.380431329054218
      ],
      [
        "vÃ½ch",
        -10.380552943415909
      ],
      [
        "Dej",
        -10.380992931037348
      ],
      [
        "Ġslasti",
        -10.381422409411059
      ],
      [
        "ĠhvÄĽzdÃ¡",
        -10.381640565635056
      ],
      [
        "ĠSmrt",
        -10.38267718436474
      ],
      [
        "ĠvÄĽÅĻit",
        -10.382867254479772
      ],
      [
        "kal",
        -10.38358784856988
      ],
      [
        "ĠÅĻev",
        -10.383640227036624
      ],
      [
        "Jeho",
        -10.3845198884054
      ],
      [
        "Ġplakal",
        -10.384920374720632
      ],
      [
        "ĠÃºkol",
        -10.384955133016966
      ],
      [
        "cen",
        -10.385286673312573
      ],
      [
        "ĠhostÃŃ",
        -10.385343648597317
      ],
      [
        "ĠmÅ¯Å¾",
        -10.385528336141284
      ],
      [
        "ĠspatÅĻil",
        -10.385620729075695
      ],
      [
        "Ġklec",
        -10.386619855343948
      ],
      [
        "tek",
        -10.386971756807176
      ],
      [
        "ĠHospodin",
        -10.387294694771526
      ],
      [
        "Ġkvas",
        -10.387412614830156
      ],
      [
        "orel",
        -10.387414467582252
      ],
      [
        "ĠhÃ¡j",
        -10.3876823825251
      ],
      [
        "ĠposmÄĽch",
        -10.387802447255108
      ],
      [
        "Ġmrtvo",
        -10.38822497968956
      ],
      [
        "Ġbled",
        -10.388447897922497
      ],
      [
        "ĠpÃ¡nÅ¯",
        -10.388479823832835
      ],
      [
        "Ġmarno",
        -10.3890506543566
      ],
      [
        "Ġmrtev",
        -10.389257460089704
      ],
      [
        "ĠspÄĽje",
        -10.389530816324836
      ],
      [
        "ÃŃcÃŃ",
        -10.389628915885257
      ],
      [
        "Jdi",
        -10.390549483328865
      ],
      [
        "ĠpoÅĻÃ¡d",
        -10.391285889009728
      ],
      [
        "Ġkos",
        -10.39247207203126
      ],
      [
        "Ġodtud",
        -10.393553700098806
      ],
      [
        "Ġtah",
        -10.394272207896272
      ],
      [
        "ĠkoÅĻist",
        -10.394334627038322
      ],
      [
        "Ob",
        -10.394850545957937
      ],
      [
        "ĠskrÃ¡n",
        -10.395083566468163
      ],
      [
        "Ġston",
        -10.3957016742871
      ],
      [
        "ĠpÃ¡nem",
        -10.396114992058585
      ],
      [
        "Ġkryl",
        -10.396479757033532
      ],
      [
        "ĠhleÄı",
        -10.396571449391747
      ],
      [
        "hÃ¡",
        -10.396731413818852
      ],
      [
        "ĠpÃŃÅ¡e",
        -10.397367110791883
      ],
      [
        "Ġvid",
        -10.397664612178797
      ],
      [
        "ĠsmÃ¡t",
        -10.398329749616163
      ],
      [
        "ĠspÃ¡ne",
        -10.398373324721282
      ],
      [
        "ĠtratÃŃ",
        -10.398740478058851
      ],
      [
        "ĠstrojÃŃ",
        -10.399815407551797
      ],
      [
        "ĠhorÃ¡",
        -10.40008420592224
      ],
      [
        "ĠnenÃ¡vist",
        -10.400289963753515
      ],
      [
        "ĠPraz",
        -10.400396801645263
      ],
      [
        "Ġspoust",
        -10.400640834225882
      ],
      [
        "Ġnesla",
        -10.400674110551588
      ],
      [
        "ĠvolnÃ½",
        -10.40094674942553
      ],
      [
        "ĠskÅĻivan",
        -10.401474578056764
      ],
      [
        "ĠVy",
        -10.401620594224514
      ],
      [
        "ĠJeho",
        -10.40163191315531
      ],
      [
        "Hlas",
        -10.401892397746508
      ],
      [
        "ĠvÄĽr",
        -10.402561117317992
      ],
      [
        "ĠtuÅ¾b",
        -10.403453138981106
      ],
      [
        "Ġplesu",
        -10.403664044578338
      ],
      [
        "ĠvÅ¡udy",
        -10.403804000541246
      ],
      [
        "Ġhezk",
        -10.403838343259778
      ],
      [
        "ĠusmÃ¡l",
        -10.403860216589177
      ],
      [
        "ÄįeskÃ¡",
        -10.403915249828316
      ],
      [
        "ĠÅ¾ert",
        -10.405084219917292
      ],
      [
        "ĠstojÃŃm",
        -10.405393625332158
      ],
      [
        "nek",
        -10.405902288496367
      ],
      [
        "Zrak",
        -10.406338105574783
      ],
      [
        "ĠzelenÃ©",
        -10.406480396029211
      ],
      [
        "ĠÅ¾Ã¡ru",
        -10.406651391071932
      ],
      [
        "Ġsoch",
        -10.406689085007873
      ],
      [
        "ĠvÄĽÄįno",
        -10.407118079019323
      ],
      [
        "divnÃ¡",
        -10.407823584508343
      ],
      [
        "Ġotrok",
        -10.408292514016496
      ],
      [
        "ĠvzpomÃŃnÃ¡m",
        -10.408503597473906
      ],
      [
        "Ġkmit",
        -10.40893496780004
      ],
      [
        "ĠkterÃ½ch",
        -10.408956159565774
      ],
      [
        "Ġmuka",
        -10.409521913050106
      ],
      [
        "ĠrodnÃ½",
        -10.409718525363857
      ],
      [
        "ĠzelenÃ½",
        -10.410667973006223
      ],
      [
        "ĠdvojÃŃ",
        -10.410946742802068
      ],
      [
        "ĠmoÅ¾n",
        -10.411764441484035
      ],
      [
        "Nebo",
        -10.41235700467442
      ],
      [
        "ĠtlaÄįÃŃ",
        -10.413585592999048
      ],
      [
        "ĠÅ¡erÃ©",
        -10.413608401353951
      ],
      [
        "NynÃŃ",
        -10.413892981061093
      ],
      [
        "Ġbledou",
        -10.41443859023861
      ],
      [
        "ĠÅ¡irÃ½",
        -10.414709408771238
      ],
      [
        "kr",
        -10.415144487334464
      ],
      [
        "ĠmanÅ¾el",
        -10.415677495501594
      ],
      [
        "cÃŃm",
        -10.41621704592274
      ],
      [
        "ĠnebeskÃ©",
        -10.416512183992918
      ],
      [
        "ĠhrdÃ©",
        -10.416880741797572
      ],
      [
        "Ġtrosk",
        -10.416911442435559
      ],
      [
        "sotva",
        -10.416951960157867
      ],
      [
        "ĠhrÃ¡",
        -10.41700431156859
      ],
      [
        "ĠhustÃ©",
        -10.417138168710085
      ],
      [
        "ĠÃºtrob",
        -10.417359026858971
      ],
      [
        "ĠodpovÄĽÄı",
        -10.417914130339263
      ],
      [
        "ĠzvÃŃÅĻe",
        -10.418239790958374
      ],
      [
        "ĠdneÅ¡nÃŃ",
        -10.418452512297844
      ],
      [
        "ĠkrÃ¡snÄĽ",
        -10.418645396766841
      ],
      [
        "ĠplatÃŃ",
        -10.418657318666128
      ],
      [
        "Ġblaze",
        -10.418682224789416
      ],
      [
        "ĠprvnÃŃm",
        -10.418809946081671
      ],
      [
        "ĠbÃŃlÃ©m",
        -10.418911914065697
      ],
      [
        "ĠspÃ¡sy",
        -10.41901999018849
      ],
      [
        "chce",
        -10.419401065936121
      ],
      [
        "Ġmlha",
        -10.419442853574033
      ],
      [
        "Ġneroz",
        -10.419988162868957
      ],
      [
        "Ġvinu",
        -10.420230935758699
      ],
      [
        "ovÄĽ",
        -10.420280514623496
      ],
      [
        "ĠÃºct",
        -10.42122997619267
      ],
      [
        "ĠvrhÃ¡",
        -10.422479352996735
      ],
      [
        "ĠsvatÃ½m",
        -10.422545899052825
      ],
      [
        "ĠdrobnÃ½",
        -10.422587507000305
      ],
      [
        "ĠnovÃ©m",
        -10.423114940973207
      ],
      [
        "Ġslunko",
        -10.42344835311739
      ],
      [
        "Ġmozk",
        -10.423458640201877
      ],
      [
        "ĠspÃ¡r",
        -10.423623624142852
      ],
      [
        "Ġztracen",
        -10.424419056531594
      ],
      [
        "ĠumÃŃrÃ¡",
        -10.424533426545697
      ],
      [
        "ĠblÃ½skÃ¡",
        -10.424674359113986
      ],
      [
        "ĠspÄĽchÃ¡",
        -10.424773046152144
      ],
      [
        "duÅ¡e",
        -10.42551901439464
      ],
      [
        "Ġodpor",
        -10.426408878770586
      ],
      [
        "ĠhoÅĻel",
        -10.427001463412607
      ],
      [
        "ĠpÄĽst",
        -10.42701029317955
      ],
      [
        "Ġspor",
        -10.42723967344948
      ],
      [
        "pÅ¯jdu",
        -10.427324619919982
      ],
      [
        "ĠlÅ¯Å¾k",
        -10.427903512128509
      ],
      [
        "ĠmÄĽsÃŃce",
        -10.428130231354835
      ],
      [
        "Ġjasu",
        -10.428284480860803
      ],
      [
        "ĠperutÃŃ",
        -10.428566034200413
      ],
      [
        "ĠlÃ¡kÃ¡",
        -10.429137325856214
      ],
      [
        "Ġbratry",
        -10.429465880418576
      ],
      [
        "ĠvÃ¡ne",
        -10.429783229303416
      ],
      [
        "ĠpÅĻÃŃteli",
        -10.430238623604163
      ],
      [
        "ĠkrvavÃ½",
        -10.43032216713654
      ],
      [
        "vÅ¡em",
        -10.430544803329823
      ],
      [
        "Ġvzala",
        -10.43189715574367
      ],
      [
        "ĠperuÅ¥",
        -10.43276266084971
      ],
      [
        "Ġnajde",
        -10.432922559592392
      ],
      [
        "dva",
        -10.433757522738453
      ],
      [
        "ĠotvÃŃrÃ¡",
        -10.433874267224688
      ],
      [
        "ĠbÃŃdnÃ½",
        -10.4339057400114
      ],
      [
        "JakÃ½",
        -10.434443339198465
      ],
      [
        "Ġtiskne",
        -10.435857795304909
      ],
      [
        "Ġros",
        -10.435932537475393
      ],
      [
        "ĠhlÃŃn",
        -10.43597062824277
      ],
      [
        "Ġhesl",
        -10.436186458295598
      ],
      [
        "Ġvrb",
        -10.436199047370977
      ],
      [
        "ĠpÅ¯du",
        -10.436209430951461
      ],
      [
        "dÅĻÃŃv",
        -10.436505669113972
      ],
      [
        "lit",
        -10.4367944225338
      ],
      [
        "ĠzeleÅĪ",
        -10.436945450553841
      ],
      [
        "Ġpluje",
        -10.437138503768324
      ],
      [
        "ĠsÃŃdl",
        -10.437358856680904
      ],
      [
        "Ġharf",
        -10.437620706870026
      ],
      [
        "Jdu",
        -10.437886066634242
      ],
      [
        "ĠÅĻÃŃz",
        -10.437949756226368
      ],
      [
        "ovu",
        -10.438301050186896
      ],
      [
        "ĠulicÃŃ",
        -10.438932105682477
      ],
      [
        "ĠpouÅ¡Å¥",
        -10.439042904910922
      ],
      [
        "Ġtluk",
        -10.439165975528779
      ],
      [
        "tÃ¡",
        -10.43995189922381
      ],
      [
        "ĠzmizÃŃ",
        -10.440099182420004
      ],
      [
        "ĠutrpenÃŃ",
        -10.440346247225147
      ],
      [
        "ĠtesknÄĽ",
        -10.440787979299138
      ],
      [
        "Ġbratra",
        -10.44088786087813
      ],
      [
        "ĠhrobÅ¯",
        -10.441545800334378
      ],
      [
        "Ġboz",
        -10.441575370809487
      ],
      [
        "enÃ©",
        -10.441607247786234
      ],
      [
        "ĠbrÃ¡t",
        -10.441615431115293
      ],
      [
        "ĠdivÄĽ",
        -10.441657944468492
      ],
      [
        "kdyby",
        -10.44165828716151
      ],
      [
        "ĠnutÃŃ",
        -10.441713970155202
      ],
      [
        "Bylo",
        -10.442612145304517
      ],
      [
        "ĠzÃ¡pal",
        -10.442644574989076
      ],
      [
        "Ġpere",
        -10.442737987948963
      ],
      [
        "ĠtÃ¡bor",
        -10.443192139011131
      ],
      [
        "Ġbloudil",
        -10.444641537789714
      ],
      [
        "ĠÃºsvit",
        -10.444845950477326
      ],
      [
        "Ġvous",
        -10.444955793709916
      ],
      [
        "skutku",
        -10.44506672495855
      ],
      [
        "Ġokno",
        -10.44522628142801
      ],
      [
        "ĠstÅĻÃŃbro",
        -10.445298952751042
      ],
      [
        "Ġhladin",
        -10.445758444443154
      ],
      [
        "ĠvÃŃte",
        -10.445932656315613
      ],
      [
        "PryÄį",
        -10.446340624790109
      ],
      [
        "Ġhrdlo",
        -10.446375762330842
      ],
      [
        "Ġsvitu",
        -10.447306549631907
      ],
      [
        "ĠpÅĻÃŃklad",
        -10.4473959437161
      ],
      [
        "ĠkrokÅ¯",
        -10.447571735765532
      ],
      [
        "jÃŃti",
        -10.447607552462465
      ],
      [
        "ĠrozkoÅ¡ÃŃ",
        -10.447791160722785
      ],
      [
        "ĠstrÃ¡Å¾",
        -10.448036137925175
      ],
      [
        "ĠÅ¡eptal",
        -10.448206174919914
      ],
      [
        "Smrt",
        -10.4482749351523
      ],
      [
        "Nech",
        -10.449038250533935
      ],
      [
        "Ġtuze",
        -10.449042171064573
      ],
      [
        "ujÃŃcÃŃ",
        -10.449306331540473
      ],
      [
        "Ġostrov",
        -10.44938950744305
      ],
      [
        "Ġjat",
        -10.449447752084584
      ],
      [
        "ĠklÃ¡Å¡ter",
        -10.449694676805223
      ],
      [
        "Ġkolena",
        -10.449717848418942
      ],
      [
        "ĠprÃ¡zdnÃ½",
        -10.450797324290772
      ],
      [
        "JeÅ¾",
        -10.450997952490223
      ],
      [
        "ĠkeÅĻ",
        -10.451007736455658
      ],
      [
        "Ġzrovna",
        -10.45103730908604
      ],
      [
        "ĠtvrdÃ©",
        -10.451377944119193
      ],
      [
        "ĠkÃ¡zal",
        -10.451726842158035
      ],
      [
        "ĠsvatÃ©m",
        -10.451750469114922
      ],
      [
        "ĠzbÃ½vÃ¡",
        -10.451792730778454
      ],
      [
        "ĠOsud",
        -10.452092949384049
      ],
      [
        "ĠÅ¾hav",
        -10.452105130204055
      ],
      [
        "Ġpodob",
        -10.452115398711603
      ],
      [
        "ĠpÃŃlÃŃ",
        -10.452710316208986
      ],
      [
        "ĠtichÃ½m",
        -10.453060642402757
      ],
      [
        "Ġvidin",
        -10.453104210501632
      ],
      [
        "ĠkterÃ©m",
        -10.45313285856998
      ],
      [
        "ovy",
        -10.453684817508098
      ],
      [
        "ĠjedinÃ¡",
        -10.453961107138301
      ],
      [
        "ĠdrobnÃ©",
        -10.454024216555924
      ],
      [
        "Ġlkal",
        -10.454918020405348
      ],
      [
        "Kolem",
        -10.454966971660578
      ],
      [
        "ĠlkÃ¡",
        -10.45503779545222
      ],
      [
        "ĠostrÃ½",
        -10.45615673017518
      ],
      [
        "Ġtoto",
        -10.456341925037133
      ],
      [
        "Ġzdvih",
        -10.456556596519274
      ],
      [
        "ÃŃc",
        -10.4567166606782
      ],
      [
        "ĠsÃŃÅĪ",
        -10.456887831587242
      ],
      [
        "Ġpozor",
        -10.457184583406203
      ],
      [
        "ĠhÅĻmÃŃ",
        -10.457493982647229
      ],
      [
        "zem",
        -10.457562443914085
      ],
      [
        "re",
        -10.458101893258203
      ],
      [
        "Ġskutk",
        -10.459478609304366
      ],
      [
        "ĠzlÃ¡",
        -10.460118709702897
      ],
      [
        "VÃŃc",
        -10.460613957814617
      ],
      [
        "Ġulice",
        -10.461046101038466
      ],
      [
        "Ġt",
        -10.46153290633375
      ],
      [
        "tÄĽm",
        -10.463003857929483
      ],
      [
        "ĠvznÄĽt",
        -10.463107236062527
      ],
      [
        "Ġnos",
        -10.464158805505448
      ],
      [
        "ĠhlÃ¡sÃ¡",
        -10.464515779045445
      ],
      [
        "ĠtouÅ¾il",
        -10.465490257696676
      ],
      [
        "Ġvojsko",
        -10.466125811233013
      ],
      [
        "Ġklasy",
        -10.46622074684758
      ],
      [
        "tÅĻeba",
        -10.466352208763594
      ],
      [
        "ĠsahÃ¡",
        -10.466813085010324
      ],
      [
        "Ġposlal",
        -10.46782591294848
      ],
      [
        "ĠtÅĻpytÃŃ",
        -10.468069198483406
      ],
      [
        "blesk",
        -10.468106014192948
      ],
      [
        "Ġdoktor",
        -10.468332283107465
      ],
      [
        "oÄįi",
        -10.468933512189501
      ],
      [
        "ĠozvÄĽn",
        -10.468993669025636
      ],
      [
        "ĠzimnÃŃ",
        -10.469205651506819
      ],
      [
        "ĠdÃ©Å¡Å¥",
        -10.469675122092273
      ],
      [
        "ĠbrÃ¡zd",
        -10.47265680243676
      ],
      [
        "Ġhan",
        -10.472972263836219
      ],
      [
        "Ġrakev",
        -10.474432461817571
      ],
      [
        "TÃ©Å¾",
        -10.475240364136702
      ],
      [
        "ĠpevnÃ½",
        -10.475613763187212
      ],
      [
        "Ġpije",
        -10.475976102924719
      ],
      [
        "âĢľ,",
        -10.475981454486593
      ],
      [
        "vÅ¡i",
        -10.476083346169906
      ],
      [
        "ĠTvÃ¡",
        -10.47642026820515
      ],
      [
        "ĠP",
        -10.476854980392716
      ],
      [
        "JÃŃ",
        -10.476866683006815
      ],
      [
        "sestry",
        -10.477605524709968
      ],
      [
        "Ġvzor",
        -10.477647687990522
      ],
      [
        "lÃ¡sky",
        -10.47786549178867
      ],
      [
        "hu",
        -10.477916424315765
      ],
      [
        "ĠtrÃ¡va",
        -10.478210662739333
      ],
      [
        "ĠzÅĻÃŃti",
        -10.47823578050865
      ],
      [
        "ĠspoleÄįnost",
        -10.478801125785127
      ],
      [
        "ĠkÅ¯r",
        -10.47899046272614
      ],
      [
        "ĠzvukÅ¯",
        -10.47902843769386
      ],
      [
        "ĠzaÅ¡lÃ½",
        -10.479676943886183
      ],
      [
        "Ġunaven",
        -10.479900475779083
      ],
      [
        "Ġjind",
        -10.480425699147748
      ],
      [
        "Ġlos",
        -10.481032356457348
      ],
      [
        "Ġzle",
        -10.481132577856432
      ],
      [
        "Ġkams",
        -10.481427067824622
      ],
      [
        "Ġpocit",
        -10.48165353765281
      ],
      [
        "pad",
        -10.481766028581383
      ],
      [
        "ĠhouÅ¡tÃŃ",
        -10.481794940413069
      ],
      [
        "ĠbÃ¡je",
        -10.482596116727283
      ],
      [
        "vÃŃm",
        -10.483160665819382
      ],
      [
        "ant",
        -10.483485484587042
      ],
      [
        "Jestli",
        -10.483920644544039
      ],
      [
        "ÄįnÃŃ",
        -10.484699383777812
      ],
      [
        "ĠnÄĽjak",
        -10.484876096922044
      ],
      [
        "ĠhÃ¡ji",
        -10.48530619454463
      ],
      [
        "ĠvonnÃ©",
        -10.485330057961052
      ],
      [
        "ĠdlÃŃ",
        -10.486707469721427
      ],
      [
        "Ġdlan",
        -10.487147014546292
      ],
      [
        "ĠsynÅ¯",
        -10.48730514883767
      ],
      [
        "DuÅ¡e",
        -10.48736895075745
      ],
      [
        "ĠÃºdÄĽl",
        -10.487494270952478
      ],
      [
        "ĠronÃŃ",
        -10.488477692984652
      ],
      [
        "ĠvzdychÃ¡",
        -10.489048076592876
      ],
      [
        "ĠnejvÄĽtÅ¡ÃŃ",
        -10.489553696314584
      ],
      [
        "Ġproudu",
        -10.48956357596293
      ],
      [
        "ĠhlubokÃ©",
        -10.49011354574726
      ],
      [
        "Syn",
        -10.490768210397828
      ],
      [
        "ĠrovnÄĽ",
        -10.49108446074415
      ],
      [
        "kraj",
        -10.491258865258647
      ],
      [
        "ĠotÃ¡zk",
        -10.492368944752164
      ],
      [
        "letÃŃ",
        -10.493373788941145
      ],
      [
        "ĠkamenÃŃ",
        -10.493584623983283
      ],
      [
        "Kdys",
        -10.493593982719043
      ],
      [
        "ĠkrvavÃ©",
        -10.494506155897522
      ],
      [
        "Ġrostou",
        -10.495095683502559
      ],
      [
        "ĠTvoj",
        -10.49548522416891
      ],
      [
        "NÃ¡Å¡",
        -10.495554580707614
      ],
      [
        "ĠplÃ¡ni",
        -10.495878142148225
      ],
      [
        "Ġsouzvuk",
        -10.496959627122529
      ],
      [
        "Ġruchu",
        -10.497342596458608
      ],
      [
        "Ġochran",
        -10.497601638694722
      ],
      [
        "ĠPetr",
        -10.498500838794982
      ],
      [
        "ĠdÄĽsnÃ½",
        -10.498720105500833
      ],
      [
        "R",
        -10.49881686281217
      ],
      [
        "Ġmilo",
        -10.499289487035787
      ],
      [
        "rosou",
        -10.499558966111628
      ],
      [
        "Ġazur",
        -10.499614747810924
      ],
      [
        "ĠmdlÃ½",
        -10.499923974395132
      ],
      [
        "Ġony",
        -10.499944331558645
      ],
      [
        "Ġznaven",
        -10.500254094461987
      ],
      [
        "ĠkÃ©Å¾",
        -10.500428443346966
      ],
      [
        "ĠnÄĽhoÅ¾",
        -10.500919817624226
      ],
      [
        "ĠhÅĻmÄĽl",
        -10.501041783254916
      ],
      [
        "Ġsklonil",
        -10.501227721568707
      ],
      [
        "ĠvlastnÃŃm",
        -10.501548725586282
      ],
      [
        "Ġmatkou",
        -10.501590002749397
      ],
      [
        "Ġrum",
        -10.501941415066188
      ],
      [
        "ĠzÃ¡bav",
        -10.502345315840381
      ],
      [
        "ĠÅ½iÅ¾k",
        -10.503043913069709
      ],
      [
        "ĠmarnÃ½",
        -10.503587981324927
      ],
      [
        "Ġcele",
        -10.504037321383446
      ],
      [
        "ĠpouÅ¥",
        -10.504797498825237
      ],
      [
        "Ġpat",
        -10.50532437933821
      ],
      [
        "VÃŃÅ¡",
        -10.505548134868889
      ],
      [
        "ĠÅĻÃŃkÃ¡",
        -10.506414748241369
      ],
      [
        "Ġan",
        -10.506896099008365
      ],
      [
        "ĠdivÃ¡",
        -10.507508382834454
      ],
      [
        "neÅ¡",
        -10.507942228284215
      ],
      [
        "ĠslednÃŃ",
        -10.509180714379362
      ],
      [
        "Å¾ivot",
        -10.50927197467667
      ],
      [
        "ĠÅ¡era",
        -10.509849974319785
      ],
      [
        "ĠretÅ¯",
        -10.509915255278674
      ],
      [
        "ĠvÅĻel",
        -10.51042654179588
      ],
      [
        "ĠtanÄįÃŃ",
        -10.511046331074493
      ],
      [
        "poslednÃŃ",
        -10.511381975313542
      ],
      [
        "Ġabych",
        -10.512161304534043
      ],
      [
        "ĠmÄĽkkÃ½",
        -10.512315639118839
      ],
      [
        "Ġpel",
        -10.512367797763657
      ],
      [
        "Ġbil",
        -10.512469992333436
      ],
      [
        "Ġspat",
        -10.513038262141961
      ],
      [
        "pÃ¡n",
        -10.513678852839927
      ],
      [
        "Ġsoused",
        -10.514250439763618
      ],
      [
        "Ġskon",
        -10.514422224930243
      ],
      [
        "ĠnÃ¡dher",
        -10.514705343769801
      ],
      [
        "ĠbÅĻÃŃz",
        -10.514737554534669
      ],
      [
        "ĠhÅĻÃŃchÅ¯",
        -10.514852727818926
      ],
      [
        "ĠpovÃŃ",
        -10.515067900619972
      ],
      [
        "ĠbÃ¡j",
        -10.51567990567983
      ],
      [
        "ĠdÃ¡lnÃ©",
        -10.515915652281706
      ],
      [
        "Ġpolem",
        -10.515999047281923
      ],
      [
        "ĠbÃŃlÃ½m",
        -10.516315450589296
      ],
      [
        "Ġptactv",
        -10.516768332327526
      ],
      [
        "Ticho",
        -10.51709121826499
      ],
      [
        "Otec",
        -10.51715499383744
      ],
      [
        "Ġtaje",
        -10.517298463587615
      ],
      [
        "ĠvlasÅ¥",
        -10.517881416624613
      ],
      [
        "Ġhasne",
        -10.51831160498315
      ],
      [
        "hoÅĻe",
        -10.518375568901686
      ],
      [
        "ĠmÅĻel",
        -10.518515493082404
      ],
      [
        "ĠpouÅ¡tÄĽ",
        -10.518708705502593
      ],
      [
        "ĠsÃŃtÄĽ",
        -10.519049622146696
      ],
      [
        "ĠkrÄįm",
        -10.519122280887975
      ],
      [
        "ĠSlÃ¡v",
        -10.520402905774068
      ],
      [
        "HleÄı",
        -10.52062587962072
      ],
      [
        "Ġzmar",
        -10.521444607068823
      ],
      [
        "Krev",
        -10.521823849656627
      ],
      [
        "ĠtrnÃŃ",
        -10.521886783717381
      ],
      [
        "ĠkvÃŃte",
        -10.52244311646778
      ],
      [
        "dna",
        -10.522785845896944
      ],
      [
        "tanci",
        -10.522999381650784
      ],
      [
        "ĠlÅ¯n",
        -10.523327027065443
      ],
      [
        "ĠnekoneÄįn",
        -10.523533383340029
      ],
      [
        "ĠopuÅ¡tÄĽn",
        -10.52363720282191
      ],
      [
        "Ġrostl",
        -10.523717633662965
      ],
      [
        "ĠdÄĽtstvÃŃ",
        -10.523760031000695
      ],
      [
        "ĠzavÅĻel",
        -10.523886195894487
      ],
      [
        "ĠÄĮechÅ¯",
        -10.524098111412602
      ],
      [
        "Ġvysoko",
        -10.524236485136132
      ],
      [
        "ChceÅ¡",
        -10.525072521465857
      ],
      [
        "ĠÅ¾ivobytÃŃ",
        -10.52554302399729
      ],
      [
        "Ġkladl",
        -10.525702293651491
      ],
      [
        "!âĢĺ",
        -10.526582131352828
      ],
      [
        "ĠchrÃ¡nÃŃ",
        -10.52683918359734
      ],
      [
        "ĠzoÅĻe",
        -10.527918002309129
      ],
      [
        "zÃ¡ÅĻ",
        -10.52803576720767
      ],
      [
        ".âĢľâĢľ",
        -10.530830120301275
      ],
      [
        "ĠzÃ¡vod",
        -10.530916133304508
      ],
      [
        "ĠnÃ¡ÅĻek",
        -10.53164685195119
      ],
      [
        "ĠkÅĻÃŃdlo",
        -10.53251014601976
      ],
      [
        "ter",
        -10.532631083358867
      ],
      [
        "ĠÅ¡ÃŃÅĻÃŃ",
        -10.532880687711918
      ],
      [
        "VÃ¡m",
        -10.532951983863333
      ],
      [
        "Ġzdob",
        -10.533757642480005
      ],
      [
        "nej",
        -10.533793151827131
      ],
      [
        "Tvou",
        -10.533957774162136
      ],
      [
        "ĠotevÅĻel",
        -10.534304307289187
      ],
      [
        "Ġroucho",
        -10.534991718156899
      ],
      [
        "ĠdÄĽd",
        -10.535388457481911
      ],
      [
        "Ġmohlo",
        -10.535565725432413
      ],
      [
        "ĠtÅĻikrÃ¡t",
        -10.535658091592737
      ],
      [
        "ĠteplÃ½",
        -10.535952603393186
      ],
      [
        "snÃŃ",
        -10.536033666310963
      ],
      [
        "Ġde",
        -10.536250932899161
      ],
      [
        "Ġbrzo",
        -10.537325590409557
      ],
      [
        "ĠbujnÃ½",
        -10.538316302675529
      ],
      [
        "ĠumÅĻÃŃt",
        -10.539105189645634
      ],
      [
        "ĠhovoÅĻÃŃ",
        -10.540885543729601
      ],
      [
        "Ġpoupat",
        -10.541359510680568
      ],
      [
        "ĠmroucÃŃ",
        -10.541804896593803
      ],
      [
        "ĠÄıas",
        -10.541991849445587
      ],
      [
        "!)",
        -10.543666830724568
      ],
      [
        "Ġdnu",
        -10.543728363058552
      ],
      [
        "ĠsrÃ¡z",
        -10.544554796249427
      ],
      [
        "jimÅ¾",
        -10.54469556569933
      ],
      [
        "nÃ½mi",
        -10.545975025618873
      ],
      [
        "ĠideÃ¡l",
        -10.54621721158192
      ],
      [
        "ĠsladkÃ½m",
        -10.54662080637155
      ],
      [
        "ĠlÃ©k",
        -10.547233677215877
      ],
      [
        "Ġsok",
        -10.547288198449852
      ],
      [
        "x",
        -10.548305005390745
      ],
      [
        "Ġtekl",
        -10.548429529403766
      ],
      [
        "ĠmodlÃŃ",
        -10.548662266642662
      ],
      [
        "druh",
        -10.54999643733493
      ],
      [
        "ĠnÄĽhy",
        -10.55017138785172
      ],
      [
        "Ã¡nÃŃ",
        -10.55089700217121
      ],
      [
        "Ġhymn",
        -10.551491151207514
      ],
      [
        "ĠAle",
        -10.551746102031222
      ],
      [
        "ĠstarÃ©m",
        -10.551937413301689
      ],
      [
        "ĠzlatÄĽ",
        -10.551996792229147
      ],
      [
        "Ġlov",
        -10.552384487989848
      ],
      [
        "ĠskuteÄįnost",
        -10.552608031662718
      ],
      [
        "nem",
        -10.553548052122448
      ],
      [
        "Ġpanna",
        -10.55402802629743
      ],
      [
        "Ġjel",
        -10.55476974204111
      ],
      [
        "Ġkrk",
        -10.55478922698336
      ],
      [
        "ĠzmÄĽnil",
        -10.55522214006694
      ],
      [
        "ĠÅ¾lutÃ½",
        -10.555578812907864
      ],
      [
        "ĠlistÅ¯",
        -10.555938994216287
      ],
      [
        "ĠsnivÃ©",
        -10.556534774111686
      ],
      [
        "hvÄĽzd",
        -10.556950490154598
      ],
      [
        "ĠznÃ¡Å¡",
        -10.55775570314099
      ],
      [
        "Ġvinou",
        -10.557949634751104
      ],
      [
        "ĠblahÃ½",
        -10.558517729482077
      ],
      [
        "Ġryk",
        -10.559048775822347
      ],
      [
        "Ġprosil",
        -10.55956887615925
      ],
      [
        "BÄĽd",
        -10.559619781123502
      ],
      [
        "ĠÄıÃ¡bel",
        -10.56086262344633
      ],
      [
        "ven",
        -10.560970629873136
      ],
      [
        "ĠkÅĻivd",
        -10.560971159105941
      ],
      [
        "Ġkoni",
        -10.56104052697365
      ],
      [
        "Ġslast",
        -10.561489399469469
      ],
      [
        "H",
        -10.56151218278666
      ],
      [
        "les",
        -10.562194234982965
      ],
      [
        "ĠjimÅ¾",
        -10.5622136205562
      ],
      [
        "Å½ivot",
        -10.562350749797016
      ],
      [
        "ĠhÅĻbet",
        -10.564034366814369
      ],
      [
        "ĠvaÅ¡i",
        -10.56524633893349
      ],
      [
        "mÄĽÅĻ",
        -10.566007882998498
      ],
      [
        "sil",
        -10.566243213217163
      ],
      [
        "bÃŃ",
        -10.56628316012927
      ],
      [
        "ĠprvÃ½",
        -10.566448069928022
      ],
      [
        "Ġstav",
        -10.566650844201664
      ],
      [
        "Darmo",
        -10.566888656730223
      ],
      [
        "ĠE",
        -10.567807483502925
      ],
      [
        "Äįky",
        -10.568733096483019
      ],
      [
        "ĠprÃ¡zdnÃ©",
        -10.5689061863114
      ],
      [
        "ĠmÄĽlo",
        -10.568922529699837
      ],
      [
        "ĠtÅĻesk",
        -10.569122581335296
      ],
      [
        "stÅĻe",
        -10.569197542823296
      ],
      [
        "zvuk",
        -10.569317809388616
      ],
      [
        "ĠÅ¾lutÃ©",
        -10.569508226295572
      ],
      [
        "ĠsedÃ¡",
        -10.569626356586753
      ],
      [
        "ĠvodnÃŃ",
        -10.569649522888884
      ],
      [
        "Ġkolik",
        -10.570649717939657
      ],
      [
        "ĠklidnÃ½",
        -10.570901993760737
      ],
      [
        "Ġzimy",
        -10.571091250908571
      ],
      [
        "ÄįlovÄĽk",
        -10.571120299504198
      ],
      [
        "ĠvzpomÃŃnÃ¡",
        -10.571299412549752
      ],
      [
        "list",
        -10.571392248940644
      ],
      [
        "ĠveÄįernÃŃ",
        -10.571602431223425
      ],
      [
        "pa",
        -10.571617272598093
      ],
      [
        "Ġbiskup",
        -10.572071144870268
      ],
      [
        "ĠsnovÃ©",
        -10.572598262781895
      ],
      [
        "ĠbleskÅ¯",
        -10.572617277690432
      ],
      [
        "ĠpÅĻÃŃstav",
        -10.572842124802271
      ],
      [
        "oh",
        -10.57294574456093
      ],
      [
        "ĠslabÃ½",
        -10.573380802995846
      ],
      [
        "ĠÃºnav",
        -10.573447409771514
      ],
      [
        "ĠuÅ¡i",
        -10.5734975390343
      ],
      [
        "ĠboÅ¾skÃ©",
        -10.574162155805723
      ],
      [
        "ĠvÃ¡nk",
        -10.574180899536447
      ],
      [
        "ĠvÄĽÅĻÃŃm",
        -10.574375054564566
      ],
      [
        "ĠÅ¡ÃŃje",
        -10.574889598199736
      ],
      [
        "ĠkrÃ¡tc",
        -10.575260364802386
      ],
      [
        "ĠrekÅ¯",
        -10.575463218858498
      ],
      [
        "ĠhbitÄĽ",
        -10.575759309423884
      ],
      [
        "ĠtajnÃ©",
        -10.576304794659846
      ],
      [
        "nit",
        -10.576336057489751
      ],
      [
        "ĠzoufalstvÃŃ",
        -10.57635385837352
      ],
      [
        "ĠbudoucÃŃ",
        -10.57660765687102
      ],
      [
        "ĠplÃ¡pol",
        -10.577056773111616
      ],
      [
        "pÄĽt",
        -10.577198888704308
      ],
      [
        "ĠpÄĽknÃ©",
        -10.577822940322783
      ],
      [
        "ĠÄįnÃŃ",
        -10.578101127936915
      ],
      [
        "ĠÅ¡erÃ½",
        -10.578375666813766
      ],
      [
        "ĠblahÃ©",
        -10.578815016155117
      ],
      [
        "Ġzastavil",
        -10.579380756984916
      ],
      [
        "ĠhorkÃ©",
        -10.579815800303196
      ],
      [
        "mutnÃ¡",
        -10.581020744156106
      ],
      [
        "ĠdivÃ©m",
        -10.581321649503348
      ],
      [
        "ĠÅ¡irÃ©",
        -10.581511464595478
      ],
      [
        "plÃ¡",
        -10.582512914703631
      ],
      [
        "slunce",
        -10.582635643785071
      ],
      [
        "ĠpÅĻijdou",
        -10.583085137330448
      ],
      [
        "ĠlÃ©to",
        -10.583173943700078
      ],
      [
        "lek",
        -10.58405546316591
      ],
      [
        "ĠpoupÄĽ",
        -10.5845848542414
      ],
      [
        "ĠzdÃŃ",
        -10.584853464984509
      ],
      [
        "Ġjdi",
        -10.585304437983725
      ],
      [
        "ĠtvrdÃ½",
        -10.585444095752186
      ],
      [
        "ĠpÅĻÃŃzrak",
        -10.58545172454195
      ],
      [
        "bit",
        -10.585659585965534
      ],
      [
        "Ġokov",
        -10.587147390789795
      ],
      [
        "ĠverÅ¡",
        -10.587199133713781
      ],
      [
        "Ġjasnou",
        -10.587294673276539
      ],
      [
        "Ġnebesa",
        -10.587632199688219
      ],
      [
        "Ġnemohu",
        -10.587727559034061
      ],
      [
        "ĠkmitÃ¡",
        -10.58822290837973
      ],
      [
        "ĠmÅĻÃŃt",
        -10.588386893708208
      ],
      [
        "ĠblaÅ¾enost",
        -10.588516419375608
      ],
      [
        "Ġmohou",
        -10.588576426212677
      ],
      [
        "ĠhoÅĻi",
        -10.589097412142443
      ],
      [
        "Ġhlasu",
        -10.589172915666722
      ],
      [
        "ĠlÃŃtÃ¡",
        -10.589408736266098
      ],
      [
        "ĠzÅĻela",
        -10.589700900773604
      ],
      [
        "Ġspokojen",
        -10.589968945241353
      ],
      [
        "ĠhvÄĽzdnÃ½",
        -10.589995604272914
      ],
      [
        "Ġpotu",
        -10.59123251529093
      ],
      [
        "ĠmraÄįen",
        -10.591505670434476
      ],
      [
        "Ġbohy",
        -10.591620440351097
      ],
      [
        "ĠstrÃ¡nÄĽ",
        -10.591766368338515
      ],
      [
        "ĠnadÄĽji",
        -10.59183415611329
      ],
      [
        "Ġkal",
        -10.591885164642248
      ],
      [
        "Ġpohan",
        -10.59377136561671
      ],
      [
        "Ġpochyb",
        -10.594038043328208
      ],
      [
        "ĠÄıÃ¡bl",
        -10.594068032665938
      ],
      [
        "kterou",
        -10.59436846870443
      ],
      [
        "Ġodvah",
        -10.594714711533445
      ],
      [
        "skÃ©m",
        -10.595093556503338
      ],
      [
        "Ġrozkaz",
        -10.59589849886249
      ],
      [
        "dle",
        -10.595988701687038
      ],
      [
        "ĠpÅĻedc",
        -10.596465219122608
      ],
      [
        "ĠlehkÃ½",
        -10.59652083134728
      ],
      [
        "ĠproudÃŃ",
        -10.596611245291427
      ],
      [
        "Ġdlel",
        -10.596727836295296
      ],
      [
        "ĠvÄĽÅĻil",
[...]
