{
  "version": "1.0",
  "truncation": null,
  "padding": null,
  "added_tokens": [
    {
      "id": 0,
      "content": "<|EOS|>",
      "single_word": false,
      "lstrip": false,
      "rstrip": false,
      "normalized": false,
      "special": true
    },
    {
      "id": 1,
      "content": "<|PAD|>",
      "single_word": false,
      "lstrip": false,
      "rstrip": false,
      "normalized": false,
      "special": true
    },
    {
      "id": 2,
      "content": "<|UNK|>",
      "single_word": false,
      "lstrip": false,
      "rstrip": false,
      "normalized": false,
      "special": true
    }
  ],
  "normalizer": null,
  "pre_tokenizer": {
    "type": "ByteLevel",
    "add_prefix_space": false,
    "trim_offsets": true,
    "use_regex": true
  },
  "post_processor": {
    "type": "ByteLevel",
    "add_prefix_space": true,
    "trim_offsets": false,
    "use_regex": true
  },
  "decoder": {
    "type": "ByteLevel",
    "add_prefix_space": true,
    "trim_offsets": true,
    "use_regex": true
  },
  "model": {
    "type": "Unigram",
    "unk_id": 2,
    "vocab": [
      [
        "<|EOS|>",
        0.0
      ],
      [
        "<|PAD|>",
        0.0
      ],
      [
        "<|UNK|>",
        0.0
      ],
      [
        "Ġ",
        -1.3857374154502224
      ],
      [
        "e",
        -3.164510096444495
      ],
      [
        "a",
        -3.2485096485164497
      ],
      [
        "o",
        -3.2674091458109267
      ],
      [
        "#",
        -3.2878015654681363
      ],
      [
        "Ċ",
        -3.358469854883719
      ],
      [
        "1",
        -3.520996116976466
      ],
      [
        "n",
        -3.638659617458268
      ],
      [
        "l",
        -3.655771258526711
      ],
      [
        "t",
        -3.7194017790772023
      ],
      [
        "i",
        -3.8614051734646324
      ],
      [
        "s",
        -3.9375432306649696
      ],
      [
        "u",
        -3.949253399138067
      ],
      [
        "m",
        -3.982520728526257
      ],
      [
        "d",
        -4.017750424261136
      ],
      [
        "k",
        -4.049024518604995
      ],
      [
        "v",
        -4.072726594808296
      ],
      [
        "y",
        -4.279920670848513
      ],
      [
        ",",
        -4.370304337826493
      ],
      [
        "0",
        -4.375407208265711
      ],
      [
        "j",
        -4.501189059139707
      ],
      [
        "r",
        -4.515631262005151
      ],
      [
        "p",
        -4.68932339263746
      ],
      [
        "h",
        -4.749853819175801
      ],
      [
        "z",
        -4.762292049240209
      ],
      [
        "c",
        -4.835980605003009
      ],
      [
        "8",
        -4.845271856664681
      ],
      [
        "b",
        -4.892419604062207
      ],
      [
        ".",
        -5.285321702103147
      ],
      [
        "9",
        -5.558851415242575
      ],
      [
        "ĠnÃŃ",
        -5.902366074178522
      ],
      [
        "2",
        -6.048638007488828
      ],
      [
        "ĠÅ¾e",
        -6.103167457802913
      ],
      [
        "ĠnÄĽ",
        -6.164277182055777
      ],
      [
        "ĠjÃŃ",
        -6.225149335003806
      ],
      [
        "ĠnÃ©",
        -6.263522657892182
      ],
      [
        "6",
        -6.451563568852736
      ],
      [
        "7",
        -6.459588762912164
      ],
      [
        "Ã",
        -6.481303373266524
      ],
      [
        "ĠnÃ¡",
        -6.53678029285396
      ],
      [
        "!",
        -6.550910988857963
      ],
      [
        "¡",
        -6.560766640432167
      ],
      [
        "ĠnÃ½",
        -6.56936605724154
      ],
      [
        "Ġjak",
        -6.646260228311638
      ],
      [
        "3",
        -6.661398628657773
      ],
      [
        "J",
        -6.69451556219833
      ],
      [
        "ĠÅ¡e",
        -6.70330815639076
      ],
      [
        "ĠtÄĽ",
        -6.7039283295004655
      ],
      [
        "ĠvÄĽ",
        -6.7253623262992335
      ],
      [
        "ĠvÃ¡",
        -6.7567422547062
      ],
      [
        "ĠdÃŃ",
        -6.777379113993758
      ],
      [
        "nÃŃ",
        -6.7781259077820515
      ],
      [
        "Ġsti",
        -6.785792354457282
      ],
      [
        "Ġpro",
        -6.793144134305949
      ],
      [
        "ĠdÄĽ",
        -6.845711518403219
      ],
      [
        "Ġnou",
        -6.860904161602749
      ],
      [
        "ĠtÃŃ",
        -6.865039171035296
      ],
      [
        "ĠÅ¡ÃŃ",
        -6.870620595706141
      ],
      [
        "ĠmÄĽ",
        -6.887273540582358
      ],
      [
        "ĠÄįe",
        -6.928845193851869
      ],
      [
        "Ġjsem",
        -6.9344784258458
      ],
      [
        "ĠÄįi",
        -6.942168878598119
      ],
      [
        "Ġsta",
        -6.980109890844364
      ],
      [
        "T",
        -6.986693291360455
      ],
      [
        "ĠÄįÃŃ",
        -6.9911646214736205
      ],
      [
        "ĠcÃŃ",
        -7.012121156575949
      ],
      [
        "ĠvÃŃ",
        -7.018711132054406
      ],
      [
        "4",
        -7.0209313523109245
      ],
      [
        "ĠdÃ¡",
        -7.024310710620302
      ],
      [
        "¾",
        -7.06657194303448
      ],
      [
        "ĠÅ¾i",
        -7.07754446571079
      ],
      [
        "nÄĽ",
        -7.0841813911807865
      ],
      [
        "ĠÅ¾ÃŃ",
        -7.091501628907244
      ],
      [
        "5",
        -7.122023521407941
      ],
      [
        "ĠbÄĽ",
        -7.147724222918477
      ],
      [
        "ĠstÃŃ",
        -7.159087271242393
      ],
      [
        "?",
        -7.193855973477435
      ],
      [
        "ĠmÃ¡",
        -7.2113472232637275
      ],
      [
        "ĠvÃ½",
        -7.234080114799417
      ],
      [
        "ĠsvÄĽ",
        -7.262340868927151
      ],
      [
        "ĠvÃ©",
        -7.279730547918245
      ],
      [
        "ĠÅĻe",
        -7.302067294865047
      ],
      [
        "ĠkÃ¡",
        -7.323400212148092
      ],
      [
        "ĠkdyÅ¾",
        -7.338799065036746
      ],
      [
        "ĠmÃŃ",
        -7.365026167566185
      ],
      [
        "ĠpÅĻi",
        -7.373303846405353
      ],
      [
        "ĠvÅ¡ak",
        -7.396478674964767
      ],
      [
        "ĠÅ¡i",
        -7.418190815011556
      ],
      [
        "Ń",
        -7.452716008150727
      ],
      [
        "ĠjÃ¡",
        -7.4580324739906985
      ],
      [
        "Äį",
        -7.479330047901371
      ],
      [
        "ĠsvÃ©",
        -7.498242353070193
      ],
      [
        "ĠlÃŃ",
        -7.498609438951526
      ],
      [
        "ĠkrÃ¡",
        -7.501494305402041
      ],
      [
        "Ġkou",
        -7.505860197717151
      ],
      [
        "ĠzÃ¡",
        -7.510607226930844
      ],
      [
        "Ġpo",
        -7.517224278988483
      ],
      [
        "ĠpÅĻe",
        -7.524275131632551
      ],
      [
        "ĠkÃ©",
        -7.546804690449504
      ],
      [
        "ABAB",
        -7.564614083146065
      ],
      [
        "Å",
        -7.566921789432399
      ],
      [
        "Ġby",
        -7.570805499632449
      ],
      [
        "ĠkÅ¯",
        -7.57345116734227
      ],
      [
        "ÅĻe",
        -7.588699318264867
      ],
      [
        "Ġbyl",
        -7.590189494875908
      ],
      [
        "ĠÅĻÃŃ",
        -7.592735370489557
      ],
      [
        "Ġchu",
        -7.595340292811146
      ],
      [
        "Ġtak",
        -7.601974403800316
      ],
      [
        "ĠbÃŃ",
        -7.606295456272349
      ],
      [
        "Ġhla",
        -7.616501480237147
      ],
      [
        "ĠtÃ©",
        -7.65317543637585
      ],
      [
        "Ġcho",
        -7.6634745026059985
      ],
      [
        "vÄĽ",
        -7.670013711737804
      ],
      [
        "ÅĻÃŃ",
        -7.682135922502118
      ],
      [
        "aÅ¾",
        -7.6982340812393915
      ],
      [
        "Ġpra",
        -7.704968485121819
      ],
      [
        "ĠstÃ¡",
        -7.706094768611566
      ],
      [
        "ĠlÃ©",
        -7.716155833912289
      ],
      [
        "ĠsÃŃ",
        -7.719004105537461
      ],
      [
        "rÃ¡",
        -7.7197959191059216
      ],
      [
        "Ġjen",
        -7.754921563918208
      ],
      [
        "Å¾",
        -7.762419050859545
      ],
      [
        "ĠkÃ½",
        -7.763091544046194
      ],
      [
        "ĠvÅ¡e",
        -7.773040699836605
      ],
      [
        "ĠhÃ¡",
        -7.775505061163916
      ],
      [
        "ĠnÃ½ch",
        -7.796988494124047
      ],
      [
        "lÃŃ",
        -7.798176801044896
      ],
      [
        "ĠtÃ¡",
        -7.813269578910319
      ],
      [
        "ĠzÃŃ",
        -7.8233832760371325
      ],
      [
        "vÃŃ",
        -7.836186622928862
      ],
      [
        "Ã½ch",
        -7.844660346912875
      ],
      [
        "ĠpÅĻÃŃ",
        -7.853422114933499
      ],
      [
        "ĠÅĻi",
        -7.855024770512676
      ],
      [
        "Ġhle",
        -7.873678284800791
      ],
      [
        "ĠdÃ½",
        -7.898844039054014
      ],
      [
        "Ġsto",
        -7.900033677463563
      ],
      [
        "Å¥",
        -7.902961472179959
      ],
      [
        "ĠjiÅ¾",
        -7.9032310149992995
      ],
      [
        "ĠnÃ½m",
        -7.905561530914271
      ],
      [
        "ĠpÃ¡",
        -7.937797358085218
      ],
      [
        "nou",
        -7.9492181753343285
      ],
      [
        "ĠpÃŃ",
        -7.950122001833996
      ],
      [
        "vÃ¡",
        -7.954033763908507
      ],
      [
        "ĠpÄĽ",
        -7.9541003080560735
      ],
      [
        "eÄį",
        -7.955443749021526
      ],
      [
        "ĠjeÅ¾",
        -7.955919732407814
      ],
      [
        "Ġsla",
        -7.968295216421948
      ],
      [
        "Ġje",
        -7.971990269817432
      ],
      [
        "ĠÅ¡el",
        -8.022075204268535
      ],
      [
        "ĠdÃ©",
        -8.030860366570593
      ],
      [
        "uÅ¾",
        -8.036212559801902
      ],
      [
        "nÃ©",
        -8.038565310886241
      ],
      [
        "ĠmÃ©",
        -8.040678241005283
      ],
      [
        "ĠnÃŃm",
        -8.041391517436649
      ],
      [
        "ĠdÄĽl",
        -8.049932520754298
      ],
      [
        "tÃŃ",
        -8.052616823433324
      ],
      [
        "ĠrÃ¡",
        -8.065107997627315
      ],
      [
        "Ġbou",
        -8.06945052180087
      ],
      [
        "Å¾e",
        -8.071136337250023
      ],
      [
        "Ġkdy",
        -8.072336125289741
      ],
      [
        "nÃ¡",
        -8.075810409892592
      ],
      [
        "ĠpÅĻed",
        -8.078254783188957
      ],
      [
        "ch",
        -8.086978908543708
      ],
      [
        "X",
        -8.092902991111135
      ],
      [
        "Ġzra",
        -8.095350089871909
      ],
      [
        "ĠtÃ½",
        -8.098371076758164
      ],
      [
        "XXXX",
        -8.10308437474075
      ],
      [
        "tÄĽ",
        -8.121888798302042
      ],
      [
        "Ã¡ch",
        -8.137112831148963
      ],
      [
        "Ġroz",
        -8.152363320753846
      ],
      [
        "Ġcha",
        -8.155490425954046
      ],
      [
        "Ġpla",
        -8.155510335637976
      ],
      [
        "ĠÄįer",
        -8.162471207018045
      ],
      [
        "Ġbra",
        -8.165691283124934
      ],
      [
        "Ġchy",
        -8.166333530764376
      ],
      [
        "ĠjenÅ",
        -8.172950748173347
      ],
      [
        "vÃ½ch",
        -8.17507585514003
      ],
      [
        "ĠlÃ½",
        -8.184358805699427
      ],
      [
        "lÃ¡s",
        -8.184377124872533
      ],
      [
        "ĠprÃ¡",
        -8.18968978497246
      ],
      [
        "lÃ¡",
        -8.18988659594442
      ],
      [
        "Ġst",
        -8.190128999599606
      ],
      [
        "ĠlÃ¡",
        -8.190131707805707
      ],
      [
        "Ġkde",
        -8.19075451957172
      ],
      [
        "ÃŃch",
        -8.20112608234886
      ],
      [
        "ĠbÃ½",
        -8.20742250889958
      ],
      [
        "Ã¡Å¡",
        -8.22880485920832
      ],
      [
        "ĠchÃ¡",
        -8.243383079690915
      ],
      [
        "ĠtÃŃm",
        -8.246885993379102
      ],
      [
        "Ġsvou",
        -8.261845857510872
      ],
      [
        "ĠÄįa",
        -8.275049631211187
      ],
      [
        "N",
        -8.279417833789642
      ],
      [
        "ĠteÄı",
        -8.283853508351774
      ],
      [
        "Ġbez",
        -8.291801306679707
      ],
      [
        "Ġpak",
        -8.300064456291242
      ],
      [
        "Ġho",
        -8.301420515142812
      ],
      [
        "Ġval",
        -8.302730432626891
      ],
      [
        "Ġdou",
        -8.310388048630893
      ],
      [
        "Ġjich",
        -8.311227650298909
      ],
      [
        "ĠjeÅ¡",
        -8.31138513354926
      ],
      [
        "roz",
        -8.312793643559688
      ],
      [
        "ĠmnÄĽ",
        -8.313321276958892
      ],
      [
        "ĠnÃ¡m",
        -8.31650910283932
      ],
      [
        "ĠstÄĽ",
        -8.318041461358844
      ],
      [
        "ĠmÅ¯j",
        -8.322125793438177
      ],
      [
        "XAXA",
        -8.337895032141978
      ],
      [
        "ĠmÅ¯",
        -8.340451167031164
      ],
      [
        "mÄĽ",
        -8.349505170212472
      ],
      [
        "Ġzla",
        -8.351926903687872
      ],
      [
        "Ġdra",
        -8.352016970073663
      ],
      [
        "ĠtÅĻe",
        -8.352907186168393
      ],
      [
        "Ġstra",
        -8.356359992012617
      ],
      [
        "Ġslo",
        -8.365230868763861
      ],
      [
        "Ġhro",
        -8.369801361096831
      ],
      [
        "ĠbÃ¡",
        -8.378144018099043
      ],
      [
        "nÃ½",
        -8.384986641455283
      ],
      [
        "Ġsnad",
        -8.38718093284126
      ],
      [
        "Ġ19",
        -8.390812651080152
      ],
      [
        "Ġkla",
        -8.391779823929921
      ],
      [
        "ĠskÃ©",
        -8.392375916631467
      ],
      [
        "ĠÅ¾Ã¡",
        -8.392781704692602
      ],
      [
        "į",
        -8.392881974318303
      ],
      [
        "ĠstvÃŃ",
        -8.394286032919567
      ],
      [
        "ĠkvÄĽ",
        -8.395953074019957
      ],
      [
        "Ġhou",
        -8.396552617637214
      ],
      [
        "Ġslu",
        -8.399958853262413
      ],
      [
        "vÃ©",
        -8.406562870749365
      ],
      [
        "lÃ©",
        -8.406924983487018
      ],
      [
        "ĠnÃ©m",
        -8.419847264178363
      ],
      [
        "ĠvÅ¾dy",
        -8.420957359122829
      ],
      [
        "Ġspo",
        -8.42267961579723
      ],
      [
        "Ļ",
        -8.427306201741862
      ],
      [
        "AABB",
        -8.434662591238693
      ],
      [
        "Ġbych",
        -8.436228274940767
      ],
      [
        "Ġtou",
        -8.438485971078508
      ],
      [
        "ĠneÅ¾",
        -8.439789282904215
      ],
      [
        "ĠsÃ¡m",
        -8.441485351832199
      ],
      [
        "Ġkem",
        -8.442524715933517
      ],
      [
        "Ġjsou",
        -8.44406536100294
      ],
      [
        "dÄĽ",
        -8.455507321836429
      ],
      [
        "Ġsou",
        -8.457729277561965
      ],
      [
        "XXXXX",
        -8.458447625841442
      ],
      [
        "dÃŃ",
        -8.460816958183962
      ],
      [
        "ĠvÅ¡ech",
        -8.461884965232635
      ],
      [
        "Ġhra",
        -8.4631416849839
      ],
      [
        "Ġstu",
        -8.469841857916169
      ],
      [
        "nÃ½ch",
        -8.482733051238181
      ],
      [
        "ÅĻi",
        -8.493545095094296
      ],
      [
        "jÃŃ",
        -8.497415485660015
      ],
      [
        "ĠvÃ¡m",
        -8.501971327642943
      ],
      [
        "iÄį",
        -8.504973433196769
      ],
      [
        "Ġza",
        -8.509987666073213
      ],
      [
        "ÃŃÅ¡",
        -8.511030497218666
      ],
      [
        "D",
        -8.514865686038538
      ],
      [
        "ĠdÅ¯",
        -8.514906319269869
      ],
      [
        "Ġvou",
        -8.523928261862448
      ],
      [
        "ÅĻ",
        -8.531099841991253
      ],
      [
        "Ġkdo",
        -8.536086192268797
      ],
      [
        "ÃŃ",
        -8.541271641019827
      ],
      [
        "Å¡e",
        -8.548110897540269
      ],
      [
        "vÃ½",
        -8.549057349394815
      ],
      [
        "Ġch",
        -8.552804163036393
      ],
      [
        "ĠvÅ¯",
        -8.554838022686912
      ],
      [
        "Ġpr",
        -8.555007158098698
      ],
      [
        "aÅ¥",
        -8.558328118674464
      ],
      [
        "ĠrÃ©",
        -8.581759994414591
      ],
      [
        "Ġstro",
        -8.58472480229306
      ],
      [
        "Ġse",
        -8.58515856293627
      ],
      [
        "A",
        -8.590239968276178
      ],
      [
        "ĠchvÃŃ",
        -8.591472140884973
      ],
      [
        "kÃ¡",
        -8.593591077285083
      ],
      [
        "ĠstÅĻe",
        -8.605700444776009
      ],
      [
        "Ġstou",
        -8.606072856226127
      ],
      [
        "ĠhÃ½",
        -8.609138620871102
      ],
      [
        "Ġdru",
        -8.612292335487242
      ],
      [
        "dÃ¡",
        -8.616375423610197
      ],
      [
        "ĠÃº",
        -8.63014958455038
      ],
      [
        "ĠzdÃ¡",
        -8.631077347634479
      ],
      [
        "Ġbla",
        -8.638710024574314
      ],
      [
        "Ġjsme",
        -8.649335019078459
      ],
      [
        "ĠrÅ¯",
        -8.656217179674206
      ],
      [
        "Ġhned",
        -8.66248496728042
      ],
      [
        "lÃ½",
        -8.664973305139574
      ],
      [
        "Ã¡",
        -8.66624923729457
      ],
      [
        "ĠrÃ½",
        -8.672834387219506
      ],
      [
        "Ã¡ÅĻ",
        -8.675311033727015
      ],
      [
        "Ġdlou",
        -8.684003633247963
      ],
      [
        "ĠÅ¡",
        -8.684658531711209
      ],
      [
        "ĠvÅ¡ec",
        -8.688480403086247
      ],
      [
        "ĠtvÃ¡",
        -8.695012122161765
      ],
      [
        "Ġkra",
        -8.699443832127315
      ],
      [
        "ĠtvÃ©",
        -8.699752188775209
      ],
      [
        "ÅĪ",
        -8.705135729236352
      ],
      [
        "ĠmÄĽl",
        -8.711586000986347
      ],
      [
        "ĠÅ¾",
        -8.712499891482326
      ],
      [
        "Ġpou",
        -8.713456940676076
      ],
      [
        "ĠplÃ¡",
        -8.713497647220757
      ],
      [
        "ĠnÅ¯",
        -8.716264262656537
      ],
      [
        "Ġdla",
        -8.717871841603195
      ],
      [
        "uÄı",
        -8.727602087375955
      ],
      [
        "Ġnech",
        -8.739875775788875
      ],
      [
        "ĠtÅ¯",
        -8.742028870716407
      ],
      [
        "Ġzas",
        -8.743486579100804
      ],
      [
        "ĠsvÃ½",
        -8.747615582975959
      ],
      [
        "C",
        -8.750688257427921
      ],
      [
        "©",
        -8.755484262594083
      ],
      [
        "ĠhvÄĽz",
        -8.765018043075633
      ],
      [
        "Ġkli",
        -8.774026032353628
      ],
      [
        "Ġche",
        -8.775890842395818
      ],
      [
        "ĠbÅĻe",
        -8.78458976329144
      ],
      [
        "ost",
        -8.78891602846934
      ],
      [
        "f",
        -8.797060985339247
      ],
      [
        "ĠchvÄĽ",
        -8.797095149365198
      ],
      [
        "Ġjste",
        -8.80372541492636
      ],
      [
        "ĠÅ¾il",
        -8.808401129530573
      ],
      [
        "Ġste",
        -8.815873601140007
      ],
      [
        "ĠskÃ¡",
        -8.815993464507011
      ],
      [
        "ĠÅ¡tÄĽ",
        -8.823587972319714
      ],
      [
        "mÃŃ",
        -8.824496122806229
      ],
      [
        "Ġkro",
        -8.828226157497992
      ],
      [
        "ĠÄįil",
        -8.83284208161035
      ],
      [
        "ĠslÃ¡",
        -8.835861185182486
      ],
      [
        "Ġkle",
        -8.840804677075385
      ],
      [
        "Ġzde",
        -8.841144495404635
      ],
      [
        "ĠbÅ¯h",
        -8.842141449282154
      ],
      [
        "eÅĪ",
        -8.846291501404696
      ],
      [
        "jak",
        -8.84661929082765
      ],
      [
        "ĠkrÃ¡s",
        -8.847047724933361
      ],
      [
        "Ã©Å¾",
        -8.850909367339773
      ],
      [
        "ĠnÃ¡s",
        -8.851521034072222
      ],
      [
        "pro",
        -8.857098913368256
      ],
      [
        "ĠsÃ¡",
        -8.859810555504701
      ],
      [
        "ĠhÃ©",
        -8.863335824511172
      ],
      [
        "Ġsmr",
        -8.864380702748864
      ],
      [
        "Äįe",
        -8.86586241504528
      ],
      [
        "Å¡",
        -8.866785603533641
      ],
      [
        "Ġce",
        -8.869992530710467
      ],
      [
        "Ġsly",
        -8.873583895414503
      ],
      [
        "Å¡ÃŃ",
        -8.878019124301618
      ],
      [
        "ĠbrÃ¡",
        -8.88029397894524
      ],
      [
        "Ġdost",
        -8.89132594067162
      ],
      [
        "ĠcÃ½",
        -8.892855188109667
      ],
      [
        "ĠstÃ©",
        -8.894805092558874
      ],
      [
        "Ġvra",
        -8.897991611273019
      ],
      [
        "ĠÅ¡li",
        -8.898103529685372
      ],
      [
        "ĠzpÄĽ",
        -8.902898093320637
      ],
      [
        "ĠpÅ¯",
        -8.908798754224893
      ],
      [
        "ĠsvÃŃ",
        -8.909349962122896
      ],
      [
        "hla",
        -8.910237807227551
      ],
      [
        "Ġsvo",
        -8.91131200167716
      ],
      [
        "Ġkte",
        -8.916632975597887
      ],
      [
        "½",
        -8.916830223024034
      ],
      [
        "Ġna",
        -8.918355318997044
      ],
      [
        "ĠÅ¡la",
        -8.921807463322638
      ],
      [
        "Ġvtom",
        -8.924351014993597
      ],
      [
        "Ġvy",
        -8.924832231996243
      ],
      [
        "ĠvrÃ¡",
        -8.925684779693606
      ],
      [
        "ĠdÅĻÃŃ",
        -8.930167991437765
      ],
      [
        "aÄį",
        -8.932448268751873
      ],
      [
        "Ġky",
        -8.933600308089693
      ],
      [
        "Ġko",
        -8.934765711369447
      ],
      [
        "ĠnÄĽj",
        -8.943392527093081
      ],
      [
        "ĠcÅ¯",
        -8.9462754246461
      ],
      [
        "Ġtam",
        -8.948053888093414
      ],
      [
        "ech",
        -8.954966379848646
      ],
      [
        "ĠvÅĻe",
        -8.958872454685485
      ],
      [
        "Å¾i",
        -8.964265697364821
      ],
      [
        "ABABC",
        -8.964433016558765
      ],
      [
        "Ġv",
        -8.967109257983314
      ],
      [
        "Ġpod",
        -8.980552029358432
      ],
      [
        "Å¾ÃŃ",
        -8.99249947817743
      ],
      [
        "Ġchla",
        -8.994101107951485
      ],
      [
        "ĠvÃŃm",
        -9.000538334405631
      ],
      [
        "Ġhlas",
        -9.000890921945858
      ],
      [
        "ÄįÃŃ",
        -9.002180466653389
      ],
      [
        "ĠkrÃ¡t",
        -9.002544999287903
      ],
      [
        "Ġs",
        -9.003410416347293
      ],
      [
        "ĠvÃŃc",
        -9.003457772762603
      ],
      [
        "ĠproÄį",
        -9.003743100092723
      ],
      [
        "tÃ¡",
        -9.004230502953918
      ],
      [
        "Ã³",
        -9.013572433784882
      ],
      [
        "ĠlÅ¯",
        -9.015978292369615
      ],
      [
        "Ġslou",
        -9.016669023482407
      ],
      [
        "ĠsmÄĽ",
        -9.017193734706355
      ],
      [
        "ĠptÃ¡",
        -9.018810318798913
      ],
      [
        "ĠsvÅ¯",
        -9.01901084973803
      ],
      [
        "g",
        -9.023697262386063
      ],
      [
        "kÃ©",
        -9.025718074800512
      ],
      [
        "ĠsÅ¯",
        -9.030350278686177
      ],
      [
        "ĠÅ¡le",
        -9.035180651664417
      ],
      [
        "ĠÃ³",
        -9.035184716768391
      ],
      [
        "ĠkÅĻÃŃ",
        -9.037770523679656
      ],
      [
        "ĠznÃ¡",
        -9.04399284021949
      ],
      [
        "ĠdÃ¡l",
        -9.045194431562432
      ],
      [
        "ĠÄįas",
        -9.046821002158012
      ],
      [
        "Ġvlas",
        -9.051221811727112
      ],
      [
        "Ġjej",
        -9.059694845018702
      ],
      [
        "Ġvla",
        -9.062010100839524
      ],
      [
        "ĠÄį",
        -9.063157764889196
      ],
      [
        "sÅ¥",
        -9.066516647364596
      ],
      [
        "lou",
        -9.069402423463227
      ],
      [
        "bÄĽ",
        -9.074313551438651
      ],
      [
        "Ġmou",
        -9.076795719521634
      ],
      [
        "ĠvlÃ¡",
        -9.08274593366795
      ],
      [
        "Ġsva",
        -9.088575040256478
      ],
      [
        "ĠtÅĻÃŃ",
        -9.090571636065174
      ],
      [
        "ABBA",
        -9.09082069162529
      ],
      [
        "Ġzvo",
        -9.092085295715448
      ],
      [
        "ĠkÅĻi",
        -9.095075840343622
      ],
      [
        "ĠÄįÃŃm",
        -9.101828372488377
      ],
      [
        "Ġzlo",
        -9.104607827234458
      ],
      [
        "Ġli",
        -9.114387712206666
      ],
      [
        "Ġtra",
        -9.115564058813215
      ],
      [
        "Ãº",
        -9.118366454949792
      ],
      [
        "Ġsli",
        -9.123572941273933
      ],
      [
        "Ġsty",
        -9.124921959800336
      ],
      [
        "nÃ½m",
        -9.124923729723555
      ],
      [
        "nÃŃch",
        -9.12987177635914
      ],
      [
        "ĠskÃ½",
        -9.130437043647316
      ],
      [
        "ĠtÅĻi",
        -9.13247070262474
      ],
      [
        "ĠdÃŃm",
        -9.139595140352563
      ],
      [
        "mÃ¡",
        -9.14579788422461
      ],
      [
        "ĠsnÃŃ",
        -9.146370402034428
      ],
      [
        "Ġlou",
        -9.150084276561333
      ],
      [
        "ĠÄįl",
        -9.150151097855193
      ],
      [
        "hÃ¡",
        -9.151084519549585
      ],
      [
        "oÅ¾",
        -9.151880022481805
      ],
      [
        "Ġnic",
        -9.152167308539129
      ],
      [
        "Ġkru",
        -9.154395979137117
      ],
      [
        "kou",
        -9.156306525769672
      ],
      [
        "ĠspÃ¡",
        -9.15741072030312
      ],
      [
        "ĠpÅĻec",
        -9.162485306993215
      ],
      [
        "Ġjim",
        -9.163711422293972
      ],
      [
        "Ġvil",
        -9.163742865819614
      ],
      [
        "Ġstr",
        -9.169569268966141
      ],
      [
        "Ġchce",
        -9.17231062177335
      ],
      [
        "Ġzda",
        -9.17737101723122
      ],
      [
        "ĠkÃ½m",
        -9.183530473669947
      ],
      [
        "uch",
        -9.18411916526464
      ],
      [
        "Äįi",
        -9.18444498927141
      ],
      [
        "ĠkÃ½ch",
        -9.186540485947152
      ],
      [
        "uÄį",
        -9.191490152216446
      ],
      [
        "Ġtro",
        -9.193096105927713
      ],
      [
        "Ġmra",
        -9.195032566920363
      ],
      [
        "rÅ¯",
        -9.197006004438823
      ],
      [
        "Ġku",
        -9.198568277451669
      ],
      [
        "Ġz",
        -9.198695118270475
      ],
      [
        "Ġsle",
        -9.19942355553971
      ],
      [
        "ĠmuÅ¾",
        -9.199802896938381
      ],
      [
        "Ġdle",
        -9.200195457061865
      ],
      [
        "Ī",
        -9.20108454524458
      ],
      [
        "ĠsvÃ¡",
        -9.202723099666594
      ],
      [
        "Ġprav",
        -9.20325959391579
      ],
      [
        "Ġne",
        -9.20350034220086
      ],
      [
        "nÃŃm",
        -9.204710000898302
      ],
      [
        "ĠÅ¾a",
        -9.20550295436933
      ],
      [
        "Ġspa",
        -9.208461513161595
      ],
      [
        "Ġrou",
        -9.215306017039113
      ],
      [
        "ĠspÄĽ",
        -9.216446075930758
      ],
      [
        "ĠpÃŃs",
        -9.217108271191494
      ],
      [
        "ĠchÃ½",
        -9.217609896032773
      ],
      [
        "Ġvpo",
        -9.222756631673057
      ],
      [
        "Ġbro",
        -9.228010159177579
      ],
      [
        "Ġdech",
        -9.232210020298906
      ],
      [
        "cÃŃ",
        -9.233758304562132
      ],
      [
        "ĠpÅĻÃ¡",
        -9.236154507237437
      ],
      [
        "Ġjes",
        -9.244063871522142
      ],
      [
        "sti",
        -9.247590283187684
      ],
      [
        "ĠmÃ¡m",
        -9.252888304993137
      ],
      [
        "Ġmi",
        -9.25466945474012
      ],
      [
        "ĠstÅĻÃŃ",
        -9.258087134138723
      ],
      [
        "ĠknÄĽ",
        -9.263702158434125
      ],
      [
        "ĠvÄĽÄ",
        -9.263773051174555
      ],
      [
        "ĠtÄĽÅ¾",
        -9.26814510855188
      ],
      [
        "Ġdli",
        -9.268300974889618
      ],
      [
        "Ġble",
        -9.27004569809536
      ],
      [
        "ĠchrÃ¡",
        -9.270495776448964
      ],
      [
        "Ġkrev",
        -9.271126452550806
      ],
      [
        "ĠtÄĽc",
        -9.274000250210948
      ],
      [
        "ĠÅ¡ÃŃm",
        -9.274349540987883
      ],
      [
        "ĠchtÄĽl",
        -9.274945593589235
      ],
      [
        "Ġbo",
        -9.275730939471298
      ],
      [
        "ĠzÅĻÃŃ",
        -9.276547153965653
      ],
      [
        "Ġjsi",
        -9.279366427296791
      ],
      [
        "ĠstÃ½",
        -9.28399664797375
      ],
      [
        "ĠzvÄĽ",
        -9.284296474155363
      ],
      [
        "Ġdil",
        -9.287101612776523
      ],
      [
        "Ġk",
        -9.295520692774618
      ],
      [
        "Ġprou",
        -9.298411967206839
      ],
      [
        "ĠvÄĽk",
        -9.303009489420521
      ],
      [
        "po",
        -9.303850724587234
      ],
      [
        "Ġklo",
        -9.303973049843245
      ],
      [
        "Ġden",
        -9.311862846941322
      ],
      [
        "ĠslÃŃ",
        -9.318501743288747
      ],
      [
        "ĠjÃŃm",
        -9.320002156920754
      ],
      [
        "Ġhlu",
        -9.325323310291267
      ],
      [
        "ĠÅĻil",
        -9.325527052404675
      ],
      [
        "Ġbles",
        -9.326362279777541
      ],
      [
        "st",
        -9.328310436781583
      ],
      [
        "Ġzje",
        -9.329351838006732
      ],
      [
        "ĠhlÃŃ",
        -9.337361151767587
      ],
      [
        "stÃŃ",
        -9.339507474201119
      ],
      [
        "Ġhled",
        -9.339656101315775
      ],
      [
        "Ġmnou",
        -9.347402346896045
      ],
      [
        "ĠsnÄĽ",
        -9.356851959874334
      ],
      [
        "ĠtvÅ¯j",
        -9.364329506090625
      ],
      [
        "Ġji",
        -9.371373651645442
      ],
      [
        "Ġkry",
        -9.373354338658096
      ],
      [
        "ABBCC",
        -9.375976724971808
      ],
      [
        "sta",
        -9.380713329776611
      ],
      [
        "Ġzve",
        -9.383665610014445
      ],
      [
        "ĠhÅĻÃŃ",
        -9.383690376472488
      ],
      [
        "ĠÅ¡u",
        -9.386543400070721
      ],
      [
        "Ġdo",
        -9.391615060462959
      ],
      [
        "Ġzou",
        -9.393811649719098
      ],
      [
        "Å¯m",
        -9.398054417591231
      ],
      [
        "kÃ½",
        -9.398185448344666
      ],
      [
        "ĠhrÅ¯",
        -9.405015089312336
      ],
      [
        "Ġtru",
        -9.406578677475402
      ],
      [
        "ĠhÅ¯",
        -9.408649262485078
      ],
      [
        "vÃ¡s",
        -9.409033407869064
      ],
      [
        "ĠdÃ¡m",
        -9.409882086435294
      ],
      [
        "ĠmÃ½",
        -9.411767432843929
      ],
      [
        "Ġblou",
        -9.412381360280206
      ],
      [
        "ĠhrÃ¡",
        -9.41335634589947
      ],
      [
        "ĠzÅ¯",
        -9.413637381576727
      ],
      [
        "ĠspÃŃ",
        -9.413649637914926
      ],
      [
        "skÃ©",
        -9.420031662034333
      ],
      [
        "ĠcoÅ¾",
        -9.421448218356623
      ],
      [
        "Ã½m",
        -9.422005816829767
      ],
      [
        "ĠklÃŃ",
        -9.435819994527952
      ],
      [
        "yÅ¡",
        -9.436119146253835
      ],
      [
        "Ġmlu",
        -9.451467277222472
      ],
      [
        "pÄĽ",
        -9.453198202198076
      ],
      [
        "ĠnnÃ©",
        -9.453281640978126
      ],
      [
        "chu",
        -9.453802417504996
      ],
      [
        "ĠmlÃ¡",
        -9.45465322649205
      ],
      [
        "Ġti",
        -9.45812406201541
      ],
      [
        "ĠchtÄĽ",
        -9.460806869884685
      ],
      [
        "Ġchle",
        -9.462872702590586
      ],
      [
        "ĠjÃŃc",
        -9.463972111812284
      ],
      [
        "Ġsko",
        -9.464505597886314
      ],
      [
        "ĠvÅ¾dyÅ¥",
        -9.467365155817854
      ],
      [
        "Ġsmu",
        -9.467651680269475
      ],
      [
        "rou",
        -9.469752122278663
      ],
      [
        "Äı",
        -9.471427781661992
      ],
      [
        "vou",
        -9.472613879591147
      ],
      [
        "ĠchvÃ¡",
        -9.475190019451594
      ],
      [
        "jsem",
        -9.477101558482223
      ],
      [
        "ĠcÃŃm",
        -9.477607418525857
      ],
      [
        "hle",
        -9.479328058328594
      ],
      [
        "Ġci",
        -9.4892076767254
      ],
      [
        "ĠskÃ½ch",
        -9.491393122745231
      ],
      [
        "ĠblÃŃ",
        -9.492419324052563
      ],
      [
        "oÄį",
        -9.495384119274215
      ],
      [
        "ĠvzÃ¡",
        -9.499538079595121
      ],
      [
        "ĠÄįes",
        -9.500967523706825
      ],
      [
        "ĠdvÄĽ",
        -9.50208424010468
      ],
      [
        "ĠtvÃŃ",
        -9.505184582116811
      ],
      [
        "ĠchÅ¯",
        -9.50573697162167
      ],
      [
        "ĠzpÃŃ",
        -9.510609987005163
      ],
      [
        "ĠnÄĽm",
        -9.51122320092895
      ],
      [
        "ĠklÃ¡",
        -9.512807116609462
      ],
      [
        "ĠhnÄĽ",
        -9.519208902545024
      ],
      [
        "Ġneb",
        -9.519902995576354
      ],
      [
        "krÃ¡",
        -9.524942901897466
      ],
      [
        "ach",
        -9.52594629353953
      ],
      [
        "ĠvdÃ¡",
        -9.526249073434244
      ],
      [
        "ĠvnÄĽm",
        -9.533555946079229
      ],
      [
        "ĠvÄįe",
        -9.537141625208461
      ],
      [
        "ĠznÃŃ",
        -9.537892530824228
      ],
      [
        "ĠÅ¡tÃŃ",
        -9.539210732167149
      ],
      [
        "Ġnad",
        -9.540878272653096
      ],
      [
        "Ġtil",
        -9.542853695203066
      ],
      [
        "ĠtrÃ¡",
        -9.54320070580744
      ],
      [
        "ĠtÃ½ch",
        -9.544042473348101
      ],
      [
        "ĠpÅĻes",
        -9.547231095321852
      ],
      [
        "zÃ¡",
        -9.547322048645851
      ],
      [
        "nÄĽÅ¾",
        -9.54942029341004
      ],
      [
        "ĠprÃ½",
        -9.554201308825865
      ],
      [
        "Ġstvo",
        -9.555939205552699
      ],
      [
        "Ġmoc",
        -9.556484778701073
      ],
      [
        "svÃ©",
        -9.558603796200929
      ],
      [
        "ÃŃÄį",
        -9.559724259620111
      ],
      [
        "AABC",
        -9.562885799352125
      ],
      [
        "ĠaÅ¾",
        -9.563170001384531
      ],
      [
        "Ġmne",
        -9.563773845960243
      ],
      [
        "ĠkvÃŃ",
        -9.56529128216664
      ],
      [
        "ĠkÃ¡ch",
        -9.56551317095907
      ],
      [
        "Ġstal",
        -9.566627912590322
      ],
      [
        "Ġvzpo",
        -9.568119057484765
      ],
      [
        "Ġsl",
        -9.569284650636716
      ],
      [
        "pra",
        -9.572729508764862
      ],
      [
        "ĠchÃ©",
        -9.574074835432217
      ],
      [
        "Ġchal",
        -9.577244295643878
      ],
      [
        "ĠtvÃ¡Å",
        -9.577592523479705
      ],
      [
        "Ġfa",
        -9.580779049104043
      ],
      [
        "Ġpil",
        -9.584807365194699
      ],
      [
        "ĠpÃ½",
        -9.590621933303629
      ],
      [
        "pÃ¡",
        -9.591663586848624
      ],
      [
        "ĠzÃ½",
        -9.593500244314717
      ],
      [
        "ĠknÃŃ",
        -9.60154300633987
      ],
      [
        "ĠÅ¾el",
        -9.603275989243603
      ],
      [
        "ĠsÃŃc",
        -9.615356400009698
      ],
      [
        "ĠvtÃ©",
        -9.6182170439463
      ],
      [
        "jich",
        -9.61973874115826
      ],
      [
        "ĠpÅĻij",
        -9.620402377011157
      ],
      [
        "ĠaÅ¥",
        -9.624274831722062
      ],
      [
        "bÃŃ",
        -9.625483202366693
      ],
      [
        "Ġskou",
        -9.62850642786431
      ],
      [
        "ĠdlÃŃ",
        -9.6328385801723
      ],
      [
        "ĠpÃ¡n",
        -9.645479494893138
      ],
      [
        "pÅĻe",
        -9.645648783864484
      ],
      [
        "ĠkÃ©m",
        -9.646345059700396
      ],
      [
        "pÃŃ",
        -9.65282916775928
      ],
      [
        "li",
        -9.65482743038675
      ],
      [
        "ĠdeÅ¡",
        -9.659263057128955
      ],
      [
        "Ġten",
        -9.659664932323892
      ],
      [
        "pÅĻÃŃ",
        -9.660186833735569
      ],
      [
        "ĠznÄĽ",
        -9.662308553405149
      ],
      [
        "ĠrÃ¡d",
        -9.662695115571104
      ],
      [
        "Ġzpo",
        -9.664536004743482
      ],
      [
        "cho",
        -9.66890162109547
      ],
      [
        "Ġhlou",
        -9.671487558856473
      ],
      [
        "Ġvzdu",
        -9.671727033782377
      ],
      [
        "ĠsmÃŃ",
        -9.672192380333057
      ],
      [
        "Ġsem",
        -9.674669413832563
      ],
      [
        "Ã©m",
        -9.677824150755402
      ],
      [
        "ou",
        -9.67787880388998
      ],
      [
        "Å¡i",
        -9.677880711003038
      ],
      [
        "kÅ¯",
        -9.679852467921888
      ],
      [
        "ĠÅĻa",
        -9.68288635238038
      ],
      [
        "tÃ©",
        -9.685406047635999
      ],
      [
        "Ġpa",
        -9.686136405309766
      ],
      [
        "ĠvÅ¡u",
        -9.687526865545056
      ],
      [
        "svÄĽ",
        -9.689431151866277
      ],
      [
        "Ä",
        -9.694598750545806
      ],
      [
        "ĠstÃ¡l",
        -9.696907597017448
      ],
      [
        "ĠdrÃ¡",
        -9.697660391599394
      ],
      [
        "ĠvÅ¡em",
        -9.705677979503838
      ],
      [
        "ĠstrÃ¡",
        -9.706214726243239
      ],
      [
        "Ġzvu",
        -9.708875245816925
      ],
      [
        "ĠÄįem",
        -9.71013402896797
      ],
      [
        "ĠÄįÃ¡",
        -9.711590395530282
      ],
      [
        "ĠÅĻek",
        -9.71176252723318
      ],
      [
        "ĠÄįel",
        -9.712340023465948
      ],
      [
        "ho",
        -9.719192527178237
      ],
      [
        "rÃ½",
        -9.721125655095802
      ],
      [
        "hro",
        -9.725867908517074
      ],
      [
        "Ġdlo",
        -9.727589819649126
      ],
      [
        "vÃŃc",
        -9.727590771467998
      ],
      [
        "Ã¡Å¾",
        -9.729115439930425
      ],
      [
        "tÃ½",
        -9.729223177137884
      ],
      [
        "ĠtrÅ¯",
        -9.731859202194485
      ],
      [
        "Ġtem",
        -9.734637606204858
      ],
      [
        "Ġbu",
        -9.735589575432973
      ],
      [
        "pÅĻed",
        -9.738696560595345
      ],
      [
        "eÄı",
        -9.741825926216038
      ],
      [
        "vÅ¯",
        -9.743703929406237
      ],
      [
        "ĠÅ¾en",
        -9.74571484593774
      ],
      [
        "ĠÅ¡Å¥as",
        -9.746687864964954
      ],
      [
        "ĠhlÃ¡",
        -9.747726206187721
      ],
      [
        "dÄĽl",
        -9.75099198640406
      ],
      [
        "la",
        -9.753449978408877
      ],
      [
        "ĠvlÃŃ",
        -9.759766850110463
      ],
      [
        "ĠÅĪa",
        -9.760588647811614
      ],
      [
        "bez",
        -9.761036111009533
      ],
      [
        "aÅĪ",
        -9.76384162077992
      ],
      [
        "ĠzrÃ¡",
        -9.76629024261379
      ],
      [
        "ro",
        -9.76734061188305
      ],
      [
        "ĠsnÃŃm",
        -9.767908829732276
      ],
      [
        "val",
        -9.77051188833904
      ],
      [
        "Ġnul",
        -9.775823277650282
      ],
      [
        "ĠsÃ½",
        -9.77946629100833
      ],
      [
        "Ã¡Äį",
        -9.780025244522093
      ],
      [
        "Ã©",
        -9.781436332783205
      ],
      [
        "¥",
        -9.781702182904985
      ],
      [
        "by",
        -9.784754001273784
      ],
      [
        "Ġstli",
        -9.787528599005341
      ],
      [
        "pÅĻi",
        -9.788074996370506
      ],
      [
        "ĠzvÃŃ",
        -9.790158750162396
      ],
      [
        "Ġja",
        -9.790676510288455
      ],
      [
        "ĠzmÄĽ",
        -9.79297345228861
      ],
      [
        "ĠsÃŃm",
        -9.7960044445012
      ],
      [
        "ĠstÅ¯",
        -9.796349154582247
      ],
      [
        "ĠÅ¾li",
        -9.802054880156511
      ],
      [
        "ĠvdÄĽ",
        -9.805730328122719
      ],
      [
        "Ġstej",
        -9.805882678110699
      ],
      [
        "ĠzÅĻe",
        -9.811737091738895
      ],
      [
        "nÃ¡m",
        -9.81476665488725
      ],
      [
        "Ġro",
        -9.818119908258538
      ],
      [
        "ĠÅ¡a",
        -9.830272514970636
      ],
      [
        "lÃŃÅ¡",
        -9.832021312334385
      ],
      [
        "stÃ¡",
        -9.834252320881898
      ],
      [
        "Ġvnich",
        -9.834585474863394
      ],
      [
        "nech",
        -9.836154087543346
      ],
      [
        "ĠbrÃ½",
        -9.8388988548152
      ],
      [
        "Ġzna",
        -9.840373380093853
      ],
      [
        "Ġhl",
        -9.842091089064779
      ],
      [
        "ĠbrÃ©",
        -9.84251139116377
      ],
      [
        "Ġchci",
        -9.84553344160282
      ],
      [
        "ĠvÅ¡ic",
        -9.84877241139914
      ],
      [
        "º",
        -9.851108259241945
      ],
      [
        "Ġmno",
        -9.852012520828138
      ],
      [
        "ĠÅ¡ep",
        -9.853393355636909
      ],
      [
        "mÃ©",
        -9.861848452355515
      ],
      [
        "ĠÅ¡lo",
        -9.86361165893971
      ],
      [
        "Ġznich",
        -9.864702768561537
      ],
      [
        "Ġmla",
        -9.865703710315126
      ],
      [
        "prÃ¡",
        -9.868128399014655
      ],
      [
        "neÅ¡",
        -9.874403461609386
      ],
      [
        "Ġchou",
        -9.87792775680962
      ],
      [
        "Ġskry",
        -9.88565849016878
      ],
      [
        "oÅ¥",
        -9.885807021743982
      ],
      [
        "ĠmÃ½m",
        -9.891305467041052
      ],
      [
        "Ġvje",
        -9.892020072562078
      ],
      [
        "tÅĻe",
        -9.894540346402199
      ],
      [
        "Ġdne",
        -9.895083802343411
      ],
      [
        "tou",
        -9.897564377087168
      ],
      [
        "Ġmar",
        -9.899117583753878
      ],
      [
        "sÃŃ",
        -9.900055887846708
      ],
      [
        "Ġto",
        -9.903178747513568
      ],
      [
        "Ġbil",
        -9.903473752163142
      ],
      [
        "ĠtÃ¡h",
        -9.90379003581498
      ],
      [
        "ĠnnÃŃ",
        -9.904396644786663
      ],
      [
        "Ġvdu",
        -9.904977432229192
      ],
      [
        "Ġvpra",
        -9.908799613957383
      ],
      [
        "je",
        -9.909211334159343
      ],
      [
        "ĠdlÃ©",
        -9.910685025537926
      ],
      [
        "tak",
        -9.910804115581087
      ],
      [
        "ĠdÄĽj",
        -9.91180653469
      ],
      [
        "Ġtvo",
        -9.913574261188442
      ],
      [
        "uÅ¡",
        -9.916204532752765
      ],
      [
        "Ġru",
        -9.91807070255807
      ],
      [
        "Ġbr",
        -9.919884107206913
      ],
      [
        "ĠzÅĻel",
        -9.922870691280387
      ],
      [
        "Ġple",
        -9.92735328854166
      ],
      [
        "Ġdal",
        -9.927434816431294
      ],
      [
        "ĠvÃº",
        -9.927520429785613
      ],
      [
        "Ġka",
        -9.930060648043849
      ],
      [
        "lech",
        -9.932590172387327
      ],
      [
        "B",
        -9.933680513020423
      ],
      [
        "ĠÃºs",
        -9.933743170089759
      ],
      [
        "ĠÅ¡ko",
        -9.935360713408249
      ],
      [
        "ĠskrÃ¡",
        -9.93548801178728
      ],
      [
        "Ġkr",
        -9.940985553477242
      ],
      [
        "Å¯Å¾",
        -9.944283403647537
      ],
      [
        "hou",
        -9.945384250004267
      ],
      [
        "Ġvsr",
        -9.946718647840914
      ],
      [
        "lÅ¯",
        -9.94679753867146
      ],
      [
        "ĠzlÃ©",
        -9.947010463315184
      ],
      [
        "Ã½",
        -9.950079321674894
      ],
      [
        "ĠhoÅ¾",
        -9.950249056350605
      ],
      [
        "Ġhr",
        -9.95073414720399
      ],
      [
        "jÃ¡",
        -9.95086478925481
      ],
      [
        "ĠmÃ¡Å¡",
        -9.951530758974497
      ],
      [
        "Ġpl",
        -9.952540558579022
      ],
      [
        "Ġvsta",
        -9.957437632128181
      ],
      [
        "ĠtÃ½m",
        -9.95768856178852
      ],
      [
        "uÅ¥",
        -9.957813584067072
      ],
      [
        "ĠstrÃ½",
        -9.959938257535406
      ],
      [
        "kem",
        -9.963081859426824
      ],
      [
        "ĠtvÃ½ch",
        -9.965786044818111
      ],
      [
        "ĠÅ¡lÃ©",
        -9.966033149824819
      ],
      [
        "Ġnej",
        -9.969041226592271
      ],
      [
        "Ġsvi",
        -9.970395404378081
      ],
      [
        "rÃ©",
        -9.970961928303183
      ],
      [
        "Ġnich",
        -9.975836659541553
      ],
      [
        "Ġbraz",
        -9.979564172755632
      ],
      [
        "Ġztra",
        -9.981512194827845
      ],
      [
        "ĠsmÃ¡",
        -9.981897100153574
      ],
      [
        "jiÅ¾",
        -9.985784109735357
      ],
      [
        "Ġmu",
        -9.986129006545383
      ],
      [
        "ĠjmÃ©",
        -9.988025926832513
      ],
      [
        "kÃ½ch",
        -9.994087988977023
      ],
      [
        "Ġdu",
        -9.995871415128532
      ],
      [
        "ĠuÅ¾",
        -10.002487036247533
      ],
      [
        "Ġze",
        -10.00908041675206
      ],
      [
        "ĠvsvÃ©",
        -10.013994528909153
      ],
      [
        "Ġstva",
        -10.014995094380819
      ],
      [
        "ĠtoÅ¾",
        -10.018942446155721
      ],
      [
        "Ġcem",
        -10.021048433308698
      ],
      [
        "ĠblÃ¡",
        -10.022788509242792
      ],
      [
        "Äįer",
        -10.026698457624445
      ],
      [
        "Ġvza",
        -10.027815653667073
      ],
      [
        "Ġsklo",
        -10.02788456407472
      ],
      [
        "ĠsmÃŃc",
        -10.029440772480276
      ],
      [
        "ĠtÃ©m",
        -10.030834216095778
      ],
      [
        "ĠÅ¡il",
        -10.030933659850374
      ],
      [
        "ĠsnÃ¡",
        -10.037292164845281
      ],
      [
        "ĠjÅ¯",
        -10.039190528964326
      ],
      [
        "Ġvzal",
        -10.041985100508409
      ],
      [
        "vÄĽt",
        -10.045202465202312
      ],
      [
        "ĠvzhÅ¯",
        -10.053097927549524
      ],
      [
        "ĠÅ¥a",
        -10.058019241481254
      ],
      [
        "Ġkam",
        -10.062211790622104
      ],
      [
        "Ġtr",
        -10.06631591719825
      ],
      [
        "Ġtvou",
        -10.066866634261416
      ],
      [
        "ÄįÃŃch",
        -10.06741801754864
      ],
      [
        "nÄĽj",
        -10.06752776085652
      ],
      [
        "rÃ¡d",
        -10.069751592836113
      ],
      [
        "ĠtÄĽz",
        -10.069812760330137
      ],
      [
        "Ġjem",
        -10.071153456772336
      ],
      [
        "vÅ¡ech",
        -10.07192473309952
      ],
      [
        "Ġp",
        -10.072042416627117
      ],
      [
        "Ġstar",
        -10.07362434153195
      ],
      [
        "Ġdem",
        -10.074007975349009
      ],
      [
        "ĠrÃ½ch",
        -10.074029871708646
      ],
      [
        "hÃ©",
        -10.077209338923872
      ],
      [
        "Ġla",
        -10.083787934700764
      ],
      [
        "ra",
        -10.084453969387383
      ],
      [
        "ĠhlÃ©",
        -10.08632073882454
      ],
      [
        "ĠÅ¾ÃŃm",
        -10.088025226952356
      ],
      [
        "Ġhor",
        -10.088052686352144
      ],
      [
        "ĠjÃŃÅ¾",
        -10.09959586919096
      ],
      [
        "ĠnnÃ½",
        -10.100244276838184
      ],
      [
        "ĠÅĻ",
        -10.101631195713642
      ],
      [
        "lÃ½m",
        -10.105396883834551
      ],
      [
        "nÃ©m",
        -10.106323938500571
      ],
      [
        "pla",
        -10.106575618909433
      ],
      [
        "ĠÅ¾eh",
        -10.10675393602575
      ],
      [
        "vÃŃm",
        -10.106831798027779
      ],
      [
        "Ġsil",
        -10.108994880909787
      ],
      [
        "Ġply",
        -10.110254296503753
      ],
      [
        "Ġstru",
        -10.116495180006613
      ],
      [
        "ĠÅ¡ÃŃc",
        -10.118665702049709
      ],
      [
        "Ġskal",
        -10.121040604512677
      ],
      [
        "Å¡el",
        -10.123776352209672
      ],
      [
        "skÃ½ch",
        -10.123841398786572
      ],
      [
        "skÃ½",
        -10.125634935991545
      ],
      [
        "Ġvbo",
        -10.126758690065216
      ],
      [
        "Ġkni",
        -10.128469534421734
      ],
      [
        "ĠÅ¾al",
        -10.129301959382904
      ],
      [
        "iÅ¾",
        -10.133541818748228
      ],
      [
        "ĠsnÅ¯",
        -10.133719439313548
      ],
      [
        "ĠdÅĻe",
        -10.135929360017865
      ],
      [
        "tÃŃm",
        -10.136486190977994
      ],
      [
        "ĠzlÃŃ",
        -10.139381588385605
      ],
      [
        "vÅ¡e",
        -10.13998393108006
      ],
      [
        "Å¯",
        -10.140934049617869
      ],
      [
        "rÃ¡z",
        -10.141858842469915
      ],
      [
        "Ġzro",
        -10.143092584293742
      ],
      [
        "ĠpouÅ¡",
        -10.14638681800473
      ],
      [
        "ĠheÅĪ",
        -10.147180379912166
      ],
      [
        "ĠprÅ¯",
        -10.147657967292586
      ],
      [
        "ĠbÅ¯",
        -10.148178742598418
      ],
      [
        "dech",
        -10.149299909609496
      ],
      [
        "ĠkÅĻe",
        -10.149577659070879
      ],
      [
        "ĠdlÃ¡",
        -10.149620457103673
      ],
      [
        "ĠstraÅ",
        -10.150880828840013
      ],
      [
        "jeÅ¡",
        -10.151664701193797
      ],
      [
        "Ġdro",
        -10.153613415615332
      ],
      [
        "Ġzdra",
        -10.156175017109259
      ],
      [
        "Ġchra",
        -10.158568235757961
      ],
      [
        "ĠsklÃ¡",
        -10.161997732939206
      ],
      [
        "Ġstec",
        -10.164619527259283
      ],
      [
        "ĠblÃŃÅ",
        -10.165108143984591
      ],
      [
        "hra",
        -10.16633699101413
      ],
      [
        "Ġsten",
        -10.16874393378288
      ],
      [
        "ĠÅ¡ich",
        -10.170077171876336
      ],
      [
        "tÅĻ",
        -10.171351700600427
      ],
      [
        "bÃ¡",
        -10.17402730059999
      ],
      [
        "ABCCB",
        -10.175577924136004
      ],
      [
        "ĠvnÃŃ",
        -10.17593419937213
      ],
      [
        "ĠcÃŃc",
        -10.177252116304695
      ],
      [
        "nÅ¯",
        -10.179018112644782
      ],
      [
        "vÃ¡m",
        -10.180885796495923
      ],
      [
        "Ġdy",
        -10.18332314022876
      ],
      [
        "ĠlÃ½m",
        -10.184984738975848
      ],
      [
        "ĠÅ¾ha",
        -10.1881404034453
      ],
      [
        "dÃ¡l",
        -10.193031733462643
      ],
      [
        "ĠneÅ¡",
        -10.193216765957537
      ],
      [
        "Ġjdou",
        -10.19368065282161
      ],
      [
        "Ġsbo",
        -10.19434153561555
      ],
      [
        "Ġspra",
        -10.195263693643218
      ],
      [
        "ĠrÃ©m",
        -10.195573645436582
      ],
      [
        "Ġta",
        -10.196555166092109
      ],
      [
        "Ġdvo",
        -10.196812649624121
      ],
      [
        "eÅ¡",
        -10.19755070977889
      ],
      [
        "Ġsku",
        -10.198092648464499
      ],
      [
        "Ġno",
        -10.19911105618943
      ],
      [
        "ĠfÃ¡",
        -10.201587819988537
      ],
      [
        "dÃ½",
        -10.201594348502395
      ],
      [
        "Ġvzte",
        -10.205135794752723
      ],
      [
        "ĠkÃ¡m",
        -10.205983468190599
      ],
      [
        "jeÅ¾",
        -10.207003332061651
      ],
      [
        "tÄĽÅ¾",
        -10.207774746910712
      ],
      [
        "jen",
        -10.208464577782404
      ],
      [
        "ĠtvÃ½",
        -10.214178888300802
      ],
      [
        "ĠskrÃ½",
        -10.21500730450491
      ],
      [
        "Ġplo",
        -10.216096771386292
      ],
      [
        "ĠhÅĻe",
        -10.217355878821625
      ],
      [
        "ĠzvÃ¡",
        -10.217957446669667
      ],
      [
        "dou",
        -10.219948017262151
      ],
      [
        "rÃ½ch",
        -10.221119441814455
      ],
      [
        "le",
        -10.221619575127699
      ],
      [
        "ÅĻil",
        -10.221887581518569
      ],
      [
        "Ġvzne",
        -10.224840400690328
      ],
      [
        "est",
        -10.227314946716234
      ],
      [
        "zÃŃ",
        -10.228913802076054
      ],
      [
        "ĠliÅ¡",
        -10.231439732166013
      ],
      [
        "dlou",
        -10.2320580461824
      ],
      [
        "Ġfi",
        -10.233456622322265
      ],
      [
        "ĠÅĻÃ¡d",
        -10.234755553660198
      ],
      [
        "chy",
        -10.236551419558822
      ],
      [
        "Ġzli",
        -10.238161048415577
      ],
      [
        "ĠjÃŃt",
        -10.24094110213988
      ],
      [
        "ĠvnÃ¡",
        -10.241295626747508
      ],
      [
        "ĠdrÃ½",
        -10.241381556608482
      ],
      [
        "Ġchva",
        -10.242532580596828
      ],
      [
        "Ġpru",
        -10.24505697880702
      ],
      [
        "ĠjÃŃch",
        -10.245211692625334
      ],
      [
        "bou",
        -10.245572669307206
      ],
      [
        "kdyÅ¾",
        -10.246206609933035
      ],
      [
        "ÄĽ",
        -10.248808814459485
      ],
      [
        "ĠnuÅ¾",
        -10.249277908506555
      ],
      [
        "ĠzeÅĪ",
        -10.25010937565437
      ],
      [
        "ĠÅ¡em",
        -10.250863549703734
      ],
      [
        "Ġb",
        -10.253913503827599
      ],
      [
        "ĠbÅĻÃŃ",
        -10.256690600564662
      ],
      [
        "ĠvsvÄĽ",
        -10.260073578958126
      ],
      [
        "ĠÅĻÃŃm",
        -10.262268494981086
      ],
      [
        "byl",
        -10.262565141153374
      ],
      [
        "ĠnaÄį",
        -10.263324028222803
      ],
      [
        "ĠskÃ½m",
        -10.26413773006486
      ],
      [
        "ĠtÄĽl",
        -10.267132889716368
      ],
      [
        "Ġzva",
        -10.267463694481936
      ],
      [
        "ĠbÃ©",
        -10.267969482183638
      ],
      [
        "ĠpÅ¯j",
        -10.271311752425975
      ],
      [
        "ÅĻÃŃÅ¡",
        -10.273206216471342
      ],
      [
        "ĠvzdÃ¡",
        -10.27342645650172
      ],
      [
        "ru",
        -10.275865876534983
      ],
      [
        "ĠÅ¾lu",
        -10.27669665813929
      ],
      [
        "bych",
        -10.277282352196936
      ],
      [
        "Ġni",
        -10.280211697480745
      ],
      [
        "Ġscho",
        -10.28040342420298
      ],
      [
        "Ġhru",
        -10.28107261984482
      ],
      [
        "Äįa",
        -10.281250489262936
      ],
      [
        "ĠzvlÃ¡Å¡",
        -10.282210326202167
      ],
      [
        "ĠvtÄĽ",
        -10.283942073819572
      ],
      [
        "sou",
        -10.286844084918442
      ],
      [
        "Ġvzdo",
        -10.28938773920612
      ],
      [
        "Ġvi",
        -10.291498569689915
      ],
      [
        "Ġle",
        -10.291983712587
      ],
      [
        "kvÄĽ",
        -10.292357997669018
      ],
      [
        "Ġbli",
        -10.29484907401249
      ],
      [
        "ĠÄįen",
        -10.297718104773836
      ],
      [
        "Ġtla",
        -10.299878350595419
      ],
      [
        "Ġzle",
        -10.300347109291584
      ],
      [
        "ĠdrÃ©",
        -10.301798568105069
      ],
      [
        "ĠÅ¡Ã¡",
        -10.30300789105864
      ],
      [
        "pod",
        -10.30347748284659
      ],
      [
        "vÅ¡ak",
        -10.303892614340016
      ],
      [
        "cha",
        -10.305899295828658
      ],
      [
        "Ġvzde",
        -10.306714431403497
      ],
      [
        "mÄĽl",
        -10.307997780994674
      ],
      [
        "ĠpÃ©",
        -10.308303675655992
      ],
      [
        "Ġbys",
        -10.311307117672294
      ],
      [
        "ĠvstÅĻÃŃ",
        -10.318589755077758
      ],
      [
        "hvÄĽz",
        -10.31972579083533
      ],
      [
        "Ġt",
        -10.320989427456148
      ],
      [
        "ĠdvÃ©",
        -10.322638896849393
      ],
      [
        "Ġdouc",
        -10.326605876900164
      ],
      [
        "skÃ¡",
        -10.326635072392532
      ],
      [
        "bra",
        -10.326949493436505
      ],
      [
        "Ġbrou",
        -10.327726258862063
      ],
      [
        "Ġzby",
        -10.328935445547563
      ],
      [
        "tvÃ©",
        -10.330270917358673
      ],
      [
        "Ġ18",
        -10.330988130266539
      ],
      [
        "ĠÄįet",
        -10.331439826275062
      ],
      [
        "Ġchl",
        -10.332722801631618
      ],
      [
        "sla",
        -10.335036743058286
      ],
      [
        "Ġsud",
        -10.335404640745853
      ],
      [
        "Ġzbo",
        -10.336849164976147
      ],
      [
        "AABBC",
        -10.340876491786965
      ],
      [
        "ĠvÃ¡n",
        -10.344737800815455
      ],
      [
        "Ġd",
        -10.347964766726767
      ],
      [
        "ĠzmÃŃ",
        -10.349518476008218
      ],
      [
        "ĠÅĻÃ¡",
        -10.350283865129963
      ],
      [
        "Å¡Å¥",
        -10.352328132439029
      ],
      [
        "Ġga",
        -10.352988312860841
      ],
      [
        "ĠmÅĻe",
        -10.3531378870382
      ],
      [
        "ĠvÅ¾i",
        -10.3578205279167
      ],
      [
        "sto",
        -10.362789906130043
      ],
      [
        "ĠsluÅ",
        -10.363488461335686
      ],
      [
        "³",
        -10.364449298662342
      ],
      [
        "tem",
        -10.364660551332587
      ],
      [
        "Ġnec",
        -10.367142772997033
      ],
      [
        "sem",
        -10.373740850749426
      ],
      [
        "mou",
        -10.373863972602436
      ],
      [
        "ABBAC",
        -10.375903529833508
      ],
      [
        "Ġkri",
        -10.37636383934336
      ],
      [
        "Ġkl",
        -10.376727012573214
      ],
      [
        "Ġzv",
        -10.378284866958793
      ],
      [
        "ĠvÅ¡ÃŃ",
        -10.37925356651382
      ],
      [
        "ĠbyÅ¥",
        -10.383829661536002
      ],
      [
        "Ġmrou",
        -10.386652684314935
      ],
      [
        "Ġte",
        -10.38934450769675
      ],
      [
        "Ġvle",
        -10.39149029558045
      ],
      [
        "ĠskvÄĽ",
        -10.392171998543656
      ],
      [
        "dÅ¯",
        -10.395647443018154
      ],
      [
        "Ġtrou",
        -10.398001272839702
      ],
      [
        "Ġzdvi",
        -10.398309491711316
      ],
      [
        "Ġvrou",
        -10.399759279782842
      ],
      [
        "ÅĻem",
        -10.401350250879995
      ],
      [
        "Ġdva",
        -10.401934909870857
      ],
      [
        "Ġchr",
        -10.402494659589722
      ],
      [
        "ĠÄıa",
        -10.405848120797605
      ],
      [
        "krÃ¡t",
        -10.406683229424718
      ],
      [
        "Ġzvy",
        -10.407710965015474
      ],
      [
        "ĠblÃŃz",
        -10.408214542705814
      ],
      [
        "ĠÅĻÅ¯",
        -10.411337575818067
      ],
      [
        "ĠvÃ¡Å",
        -10.411677948900175
      ],
      [
        "ĠchlÃ©",
        -10.411776882229983
      ],
      [
        "ĠkdoÅ¾",
        -10.41190005843205
      ],
      [
        "ĠhÃ½m",
        -10.412281074473858
      ],
      [
        "ĠvÃ½Å",
        -10.412557452952294
      ],
      [
        "ABBC",
        -10.415831178458017
      ],
      [
        "kla",
        -10.415994337982271
      ],
      [
        "ĠzdÄĽ",
        -10.416250076612853
      ],
      [
        "Å¾Ã¡",
        -10.417896579636649
      ],
      [
        "Ġnik",
        -10.4232180639004
      ],
      [
        "ĠplÃ©",
        -10.424245987369547
      ],
      [
        "hÃ½",
        -10.43008447101854
      ],
      [
        "chÃ¡",
        -10.432271056075464
      ],
      [
        "Ġchvi",
        -10.433221016993675
      ],
      [
        "Ġfal",
        -10.433628151737286
      ],
      [
        "ĠÄįÅ¯",
        -10.433634281629029
      ],
      [
        "Ġfe",
        -10.434157967206549
      ],
      [
        "Ġva",
        -10.437770927312597
      ],
      [
        "krÃ¡s",
        -10.43855367545972
      ],
      [
        "vÅ¯j",
        -10.441509975349529
      ],
      [
        "Ġpout",
        -10.442562316655838
      ],
      [
        "hlu",
        -10.446284286859083
      ],
      [
        "Ġslil",
        -10.44885848113178
      ],
      [
        "ĠnaÅĪ",
        -10.449417163754235
      ],
      [
        "ĠnnÄĽ",
        -10.452009591056283
      ],
      [
        "ĠkrÃ½",
        -10.452714055920522
      ],
      [
        "Ġskle",
        -10.460508441896861
      ],
      [
        "ĠznÃ¡m",
        -10.46057622765666
      ],
      [
        "Ġbe",
        -10.46072441105711
      ],
      [
        "ĠÄįej",
        -10.461067123005478
      ],
      [
        "Ġzval",
        -10.464380068661082
      ],
      [
        "Ġsmy",
        -10.466162827593722
      ],
      [
        "ĠzboÅ",
        -10.467752496370354
      ],
      [
        "ĠtÅĻpy",
        -10.470403503669274
      ],
      [
        "Ġdi",
        -10.472786152820701
      ],
      [
        "Ġzdo",
        -10.474088659088743
      ],
      [
        "Ġstil",
        -10.474371545381457
      ],
      [
        "Ġnem",
        -10.476420550396211
      ],
      [
        "mÅ¯",
        -10.485803639571131
      ],
      [
        "ĠztrÃ¡",
        -10.489541529697766
      ],
      [
        "Ġgi",
        -10.489615024105701
      ],
      [
        "Ġvhro",
        -10.497007317014397
      ],
      [
        "Ġkrou",
        -10.49750585767813
      ],
      [
        "Ġknou",
        -10.499259409141356
      ],
      [
        "ĠhoÅĻ",
        -10.499509947615646
      ],
      [
        "ĠÄįal",
        -10.50205471345048
      ],
      [
        "Ġzma",
        -10.503906728464095
      ],
      [
        "tÅ¯",
        -10.506549713668244
      ],
      [
        "ĠmÅ¾i",
        -10.511486734304668
      ],
      [
        "Ġzbra",
        -10.51178189751891
      ],
      [
        "Ġve",
        -10.515291909266923
      ],
      [
        "slu",
        -10.516596955594261
      ],
      [
        "ĠnÄĽl",
        -10.519110156811912
      ],
      [
        "ĠzÅĻÃŃm",
        -10.52081371492339
      ],
      [
        "tÄĽc",
        -10.521678976767818
      ],
      [
        "Ġbral",
        -10.522411912234459
      ],
      [
        "ĠboÅ¥",
        -10.52991431854431
      ],
      [
        "kÃ©m",
        -10.530178401287063
      ],
      [
        "svou",
        -10.532612600386262
      ],
      [
        "Ġctnos",
        -10.53355789013496
      ],
      [
        "vÄĽz",
        -10.533862938196435
      ],
      [
        "Ġvpro",
        -10.534775724843497
      ],
      [
        "Ġplu",
        -10.535407605313221
      ],
      [
        "pou",
        -10.535916640990772
      ],
      [
        "Ġtrem",
        -10.538447706347934
      ],
      [
        "ĠÅ¾iv",
        -10.540336857395095
      ],
      [
        "ĠrÃ½m",
        -10.542403693167289
      ],
      [
        "ĠÅ¡pa",
        -10.542531818959306
      ],
      [
        "Ġdrob",
        -10.543657166446186
      ],
      [
        "Ġvpr",
        -10.545654944594975
      ],
      [
        "Ġblo",
        -10.548745728077208
      ],
      [
        "dÃ©",
        -10.548860065759184
      ],
      [
        "Ġchmu",
        -10.55420267664873
      ],
      [
        "Ġach",
        -10.554477354416889
      ],
      [
        "Ġvslu",
        -10.556256550919295
      ],
      [
        "ĠtÄĽm",
        -10.556825968787795
      ],
      [
        "ĠnnÃ¡",
        -10.560318595145167
      ],
      [
        "Ġlo",
        -10.560560291953434
      ],
      [
        "Ġhli",
        -10.566653804773049
      ],
      [
        "Ġbal",
        -10.566759828809666
      ],
      [
        "ÅĻa",
        -10.570626679854602
      ],
      [
        "ĠzprÃ¡",
        -10.576591003829503
      ],
      [
        "ti",
        -10.57740286387784
      ],
      [
        "ĠvnÄĽmÅ",
        -10.578899932380724
      ],
      [
        "Ġc",
        -10.580000351533993
      ],
      [
        "ĠvÅĻel",
        -10.580990259980242
      ],
      [
        "ĠvstÃ¡",
        -10.58302791454118
      ],
      [
        "dra",
        -10.584562591720376
      ],
      [
        "ĠchtÃŃ",
        -10.584750227049463
      ],
      [
        "ĠtÅĻÃ¡",
        -10.585025479973908
      ],
      [
        "Å¡ich",
        -10.587609328857337
      ],
      [
        "ĠÅ¾o",
        -10.588758333462494
      ],
      [
        "Ġstrac",
        -10.590605240109205
      ],
      [
        "ĠvÅ¡a",
        -10.596287026159727
      ],
      [
        "Ġsv",
        -10.596663232275477
      ],
      [
        "ĠspoÅ",
        -10.596930129747877
      ],
      [
        "ĠdnÃ©",
        -10.597398989631634
      ],
      [
        "ĠnÃ¡c",
        -10.599531199523982
      ],
      [
        "Ġkles",
        -10.600324974284941
      ],
      [
        "ne",
        -10.60195744262918
      ],
      [
        "ĠklÃ©",
        -10.601970075219844
      ],
      [
        "tra",
        -10.602038736442376
      ],
      [
        "snad",
        -10.603337727516099
      ],
      [
        "eÅ¾",
        -10.603715868516835
      ],
      [
        "Ġnnou",
        -10.604407485066183
      ],
      [
        "ĠkÅĻÃŃÅ",
        -10.606132143882688
      ],
      [
        "nad",
        -10.606490943656482
      ],
      [
        "Ġtom",
        -10.607635109379968
      ],
      [
        "Ġvroz",
        -10.608064330402822
      ],
      [
        "ĠzpÃ¡",
        -10.608493642905572
      ],
      [
        "ĠÃºz",
        -10.609900468439243
      ],
      [
        "vÅ¡ec",
        -10.611842863933635
      ],
      [
        "ĠhlÃ½",
        -10.612312679578064
      ],
      [
        "bÃ½",
        -10.61311998929487
      ],
      [
        "pak",
        -10.617111911455043
      ],
      [
        "ĠvmÃ©",
        -10.619827710299901
      ],
      [
        "prav",
        -10.62147484435665
      ],
      [
        "ĠÄıÃ¡",
        -10.622258715980774
      ],
      [
        "Ġzmi",
        -10.62318158840018
      ],
      [
        "Ġhem",
        -10.624468400344782
      ],
      [
        "tvÃ¡",
        -10.62582641658082
      ],
      [
        "ĠsvÄĽd",
        -10.62589022905263
      ],
      [
        "Ġvz",
        -10.628352224052103
      ],
      [
        "ĠsÃ¡h",
        -10.628430514875875
      ],
      [
        "Ġbar",
        -10.629890990905663
      ],
      [
        "Ġvru",
        -10.630219158791057
      ],
      [
        "nich",
        -10.630648009977625
      ],
      [
        "ABCC",
        -10.633884910652217
      ],
      [
        "Ġhlo",
        -10.635509313182736
      ],
      [
        "ĠvtvÃ¡",
        -10.635893112820781
      ],
      [
        "ĠpÄĽl",
        -10.638775802613713
      ],
      [
        "vÄĽÄ",
        -10.63910410094051
      ],
      [
        "ĠvraÅ¾",
        -10.640827392026592
      ],
      [
        "kÃ½m",
        -10.641232433107124
      ],
      [
        "ĠztÄĽ",
        -10.642037018106578
      ],
      [
        "ĠzlÃ½",
        -10.643624727558837
      ],
      [
        "Ġvzdy",
        -10.64466033607139
      ],
      [
        "ĠkÅĻes",
        -10.644692402299775
      ],
      [
        "Ġmo",
        -10.645704823680564
      ],
      [
        "Ġzno",
        -10.650388927595882
      ],
      [
        "ĠvÄĽc",
        -10.651427663712221
      ],
      [
        "ĠdruÅ",
        -10.652544533554027
      ],
      [
        "zdÃ¡",
        -10.654222275449435
      ],
      [
        "ĠtlÃ©",
        -10.666248352455193
      ],
      [
        "vlas",
        -10.669167014650727
      ],
      [
        "ĠjÃŃmÅ",
        -10.66940350009613
      ],
      [
        "ĠÅĪÃ¡",
        -10.669834714369332
      ],
      [
        "ĠchceÅ",
        -10.670215590873303
      ],
      [
        "Ġctno",
        -10.670748051229166
      ],
      [
        "Ġbes",
        -10.674626528495219
      ],
      [
        "hÅĻ",
        -10.67596106124113
      ],
      [
        "Äįas",
        -10.682566082442197
      ],
      [
        "nÃŃÅ¾",
        -10.685830217122179
      ],
      [
        "Ġblu",
        -10.686485303713095
      ],
      [
        "Ġdr",
        -10.687858552140709
      ],
      [
        "Ġdl",
        -10.688790861375123
      ],
      [
        "Ġdej",
        -10.691168169234217
      ],
      [
        "ĠÅ¾Å¯",
        -10.691553643015624
      ],
      [
        "stra",
        -10.692997411569525
      ],
      [
        "Ġples",
        -10.695244132040315
      ],
      [
        "kro",
        -10.698034520410395
      ],
      [
        "ĠdlÃ½",
        -10.704609846271754
      ],
      [
        "Ġzlou",
        -10.705751663502415
      ],
      [
        "ĠslÅ¯",
        -10.706427549759416
      ],
      [
        "Ġvstou",
        -10.706695336908469
      ],
      [
        "Ġchej",
        -10.712369248158243
      ],
      [
        "Ġskro",
        -10.713126564209146
      ],
      [
        "pr",
        -10.714012797477103
      ],
      [
        "ĠÅ¡lech",
        -10.715252679022754
      ],
      [
        "jenÅ",
        -10.715484024450115
      ],
      [
        "kÅĻÃŃ",
        -10.716756659413772
      ],
      [
        "ĠslÃ½",
        -10.716921288973651
      ],
      [
        "Ġnez",
        -10.716997603406034
      ],
      [
        "ĠvÅĻÃŃ",
        -10.718287480881184
      ],
      [
        "ĠtÃ¡m",
        -10.718362808142741
      ],
      [
        "zpÄĽ",
        -10.718364916082475
      ],
      [
        "tÅĻÃŃ",
        -10.718403749389402
      ],
      [
        "Ġspro",
        -10.718444792784743
      ],
      [
        "stÄĽ",
        -10.719318840360247
      ],
      [
        "Ġry",
        -10.721908353635923
      ],
      [
        "bles",
        -10.722285494716964
      ],
      [
        "nic",
        -10.725260476994924
      ],
      [
        "Ġtec",
        -10.72555128485538
      ],
      [
        "ĠvÅ¡ÃŃm",
        -10.727384401361551
      ],
      [
        "ĠvkrÃ¡",
        -10.728363370282247
      ],
      [
        "ko",
        -10.733945396356553
      ],
      [
        "Ġco",
        -10.738213684851596
      ],
      [
        "rem",
        -10.74050270627339
      ],
      [
        "lo",
        -10.742283495410975
      ],
      [
        "Ġvhlou",
        -10.742570799911524
      ],
      [
        "ĠdnÃŃ",
        -10.743164199560118
      ],
      [
        "tam",
        -10.74716192095951
      ],
      [
        "ĠÅ¡ly",
        -10.747787744869427
      ],
      [
        "ĠÅĪo",
        -10.748601028278433
      ],
      [
        "Å¡tÄĽ",
        -10.749134222780434
      ],
      [
        "Ġtva",
        -10.74936136144392
      ],
      [
        "Ġzal",
        -10.749461371917983
      ],
      [
        "rech",
        -10.749594091262406
      ],
      [
        "ĠmraÄ",
        -10.753555067233632
      ],
      [
        "ĠbouÅ",
        -10.754273518740074
      ],
      [
        "Ġzd",
        -10.754559219646596
      ],
      [
        "ĠrtÅ¯",
        -10.754627164825646
      ],
      [
        "ĠzlÃ¡",
        -10.755817866550858
      ],
      [
        "ĠmÅĻÃŃ",
        -10.756267344148894
      ],
      [
        "Ġfran",
        -10.756981445733457
      ],
      [
        "ĠslÃŃm",
        -10.75766547293952
      ],
      [
        "Ġvo",
        -10.7579055651781
      ],
      [
        "Ġge",
        -10.75938429542795
      ],
      [
        "tro",
        -10.759933495382143
      ],
      [
        "ı",
        -10.76054780687011
      ],
      [
        "nÃŃz",
        -10.760759396811054
      ],
      [
        "nÃ¡s",
        -10.762399534787841
      ],
      [
        "Ġn",
        -10.763725068641676
      ],
      [
        "ĠknÃ¡",
        -10.764060405769593
      ],
      [
        "Ġdar",
        -10.766944673499646
      ],
      [
        "plÃ¡",
        -10.771191055533262
      ],
      [
        "Ġgo",
        -10.772049354738828
      ],
      [
        "ĠhÅ¯m",
        -10.776205646175429
      ],
      [
        "AB",
        -10.777768658453176
      ],
      [
        "ĠznÄĽl",
        -10.778685348583776
      ],
      [
        "ĠÅ¡l",
        -10.784145930786144
      ],
      [
        "Ġper",
        -10.785128434412215
      ],
      [
        "Ġvstal",
        -10.786502866448245
      ],
      [
        "ĠdnÅ¯",
        -10.78716796385464
      ],
      [
        "Ġzru",
        -10.790060296279504
      ],
      [
        "Ġskr",
        -10.790793301945467
      ],
      [
        "Ġzba",
        -10.79197027465736
      ],
      [
        "mÅ¯j",
        -10.792065314555707
      ],
      [
        "ĠkrÅ¯",
        -10.795744632276323
      ],
      [
        "q",
        -10.798326368000055
      ],
      [
        "Ġzkou",
        -10.800899966663403
      ],
      [
        "ĠskÅĻÃŃ",
        -10.8057295036931
      ],
      [
        "ĠpÅĻÃŃÅ¡",
        -10.807171843916613
      ],
      [
        "Ġgra",
        -10.81129657359938
      ],
      [
        "Ġchli",
        -10.813808290151213
      ],
      [
        "dÃŃm",
        -10.816364954823237
      ],
      [
        "Ġkol",
        -10.820628065558854
      ],
      [
        "pÅ¯",
        -10.82108504811243
      ],
      [
        "Ġboj",
        -10.821463853866957
      ],
      [
        "Ġzbu",
        -10.821699100096325
      ],
      [
        "ĠnÃŃÅ¾",
        -10.823491036067326
      ],
      [
        "ABCD",
        -10.824048617098443
      ],
      [
        "zra",
        -10.824550251270827
      ],
      [
        "chvÄĽ",
        -10.824916151404024
      ],
      [
        "Ġspou",
        -10.825309990367533
      ],
      [
        "Ġkne",
        -10.82541334845421
      ],
      [
        "stvÃŃ",
        -10.825955480205781
      ],
      [
        "teÄı",
        -10.826162971115227
      ],
      [
        "stou",
        -10.826805739593905
      ],
      [
        "hlas",
        -10.827154991666402
      ],
      [
        "ĠstrÃ©",
        -10.829526564063162
      ],
      [
        "ĠvÄĽÅ¡",
        -10.82964570035803
      ],
      [
        "Ġde",
        -10.83167770767922
      ],
      [
        "ĠmlÃ½",
        -10.833148939022657
      ],
      [
        "ĠstrÃ¡Å",
        -10.833207091554186
      ],
      [
        "Ã¡Å¥",
        -10.836018298715828
      ],
      [
        "Ġzce",
        -10.83688908301709
      ],
      [
        "Ġra",
        -10.83702092237753
      ],
      [
        "Ġvpa",
        -10.838826324777324
      ],
      [
        "ĠÅ¾dy",
        -10.841668653966718
      ],
      [
        "vil",
        -10.844037020330564
      ],
      [
        "ĠtÃ©Å",
        -10.845523914560268
      ],
      [
        "ĠpsÃ¡",
        -10.84638945697862
      ],
      [
        "kle",
        -10.84641447918778
      ],
      [
        "Ġska",
        -10.848117068029143
      ],
      [
        "ĠslÃ©z",
        -10.848813041052026
      ],
      [
        "ĠvÅ¡",
        -10.849378581421844
      ],
      [
        "chvÃŃ",
        -10.84951555173064
      ],
      [
        "ÃŃÅ¾",
        -10.850434794252205
      ],
      [
        "ĠzpÅ¯",
        -10.851583121793373
      ],
      [
        "Ġchlu",
        -10.855074096500788
      ],
      [
        "ĠloÄı",
        -10.85549347758848
      ],
      [
        "chla",
        -10.856310509419002
      ],
      [
        "bla",
        -10.859835113867714
      ],
      [
        "Ġvel",
        -10.860133590343713
      ],
      [
        "jsou",
        -10.860197934774094
      ],
      [
        "Ġsni",
        -10.861185394177445
      ],
      [
        "ĠvÅĻa",
        -10.86344603594546
      ],
      [
        "Ġzka",
        -10.864205663598883
      ],
      [
        "ĠzÃŃm",
        -10.865003193355966
      ],
      [
        "Ġba",
        -10.866816698491437
      ],
      [
        "Ġpry",
        -10.867062347882381
      ],
      [
        "x",
        -10.8677309135827
      ],
      [
        "Ġsp",
        -10.86779245323388
      ],
      [
        "Ãºs",
        -10.86803384456663
      ],
      [
        "Ġtlou",
        -10.86830175929644
      ],
      [
        "ce",
        -10.868958193197592
      ],
      [
        "ĠaÄį",
        -10.869080110338212
      ],
      [
        "Ġkd",
        -10.870499311925485
      ],
      [
        "AXAXB",
        -10.873442926349442
      ],
      [
        "dru",
        -10.873745695992158
      ],
      [
        "stÅĻe",
        -10.873960101857469
      ],
      [
        "muÅ¾",
        -10.876410340547247
      ],
      [
        "se",
        -10.877345945305544
      ],
      [
        "Ġnil",
        -10.878512192213973
      ],
      [
        "nul",
        -10.879817476368649
      ],
      [
        "Ġvni",
        -10.880154523120522
      ],
      [
        "ĠtÅĻil",
        -10.881477837753701
      ],
      [
        "ĠkÃ©Å¾",
        -10.882190161631598
      ],
      [
        "Ġbuj",
        -10.883072765855035
      ],
      [
        "ĠvznÃ¡",
        -10.883376996957965
      ],
      [
        "Ġstes",
        -10.884161233454334
      ],
      [
        "kÅĻi",
        -10.8847588623904
      ],
      [
        "Ġplou",
        -10.884898310187692
      ],
      [
        "ĠblÃ½s",
        -10.888498440759964
      ],
      [
        "tvÃ½ch",
        -10.888838791364854
      ],
      [
        "ĠÅ¥Ã¡",
        -10.88929738574315
      ],
      [
        "ĠstÅĻi",
        -10.889541395442018
      ],
      [
        "kra",
        -10.8909585705663
      ],
      [
        "Å¾il",
        -10.891325769491512
      ],
      [
        "ste",
        -10.891368295004494
      ],
      [
        "ĠvmÄĽ",
        -10.893560642826241
      ],
      [
        "hlou",
        -10.894781916211072
      ],
      [
        "Ġzpra",
        -10.895043897468653
      ],
      [
        "Ġj",
        -10.89544604020322
      ],
      [
        "Å¡ÃŃm",
        -10.896448706452349
      ],
      [
        "ABCBC",
        -10.897901724650861
      ],
      [
        "stu",
        -10.897942858944988
      ],
      [
        "mnÄĽ",
        -10.898625158101815
      ],
      [
        "ĠvklÃŃ",
        -10.899610990584954
      ],
      [
        "Ġvkra",
        -10.899965020997918
      ],
      [
        "Ġvzle",
        -10.901833615296061
      ],
      [
        "ĠmÄĽj",
        -10.904990343257696
      ],
      [
        "Ġkve",
        -10.905882962229645
      ],
      [
        "che",
        -10.909130190847087
      ],
      [
        "svÃ½",
        -10.910318640683235
      ],
      [
        "Ġjde",
        -10.916546219990684
      ],
      [
        "hned",
        -10.916954136811563
      ],
      [
        "ĠbÅĻi",
        -10.91738598540675
      ],
      [
        "ĠpÅĻÃŃs",
        -10.917473639474185
      ],
      [
        "Ġpros",
        -10.917649573745633
      ],
      [
        "Ã¡m",
        -10.91805891503667
      ],
      [
        "tÃ½ch",
        -10.918827888050506
      ],
      [
        "bÅĻe",
        -10.920077684674622
      ],
      [
        "ĠmÃŃm",
        -10.920633314376522
      ],
      [
        "ĠÄįÃŃÅ",
        -10.921516250205256
      ],
      [
        "Ġdce",
        -10.922718117665326
      ],
      [
        "ĠdvÃ¡",
        -10.925330051495537
      ],
      [
        "Ġvhla",
        -10.926186409191772
      ],
      [
        "ĠschvÃ¡",
        -10.926581735462824
      ],
      [
        "ĠdÄĽc",
        -10.928619082435373
      ],
      [
        "ĠvbÃŃ",
        -10.929045996563293
      ],
      [
        "slo",
        -10.930298745546997
      ],
      [
        "Ġpad",
        -10.93319836077404
      ],
      [
        "Ġbi",
        -10.933895474598202
      ],
      [
        "ĠvnÃŃÅ¾",
        -10.934301142148206
      ],
      [
        "na",
        -10.935131127909317
      ],
      [
        "tich",
        -10.935278064274534
      ],
      [
        "stro",
        -10.93574661830798
      ],
      [
        "lÃ¡Å¡",
        -10.93708545647212
      ],
      [
        "Ġklou",
        -10.938149839864227
      ],
      [
        "ĠvÃ¡l",
        -10.938875864361137
      ],
      [
        "Ġprac",
        -10.944562085761508
      ],
      [
        "ĠsprÃ¡",
        -10.944818121359027
      ],
      [
        "Ġvho",
        -10.944998937873795
      ],
      [
        "ĠskÅĻi",
        -10.946892942898751
      ],
      [
        "ĠvÄĽÅ",
        -10.947796932866266
      ],
      [
        "ĠvstÃŃ",
        -10.950399462839323
      ],
      [
        "Ġtrys",
        -10.95093145810742
      ],
      [
        "kdy",
        -10.951723765614242
      ],
      [
        "ĠklÃ½",
        -10.956994538294259
      ],
      [
        "ĠniÅ¾",
        -10.957676677415316
      ],
      [
        "Ġtlo",
        -10.95871478930228
      ],
      [
        "Ġvro",
        -10.959914597719253
      ],
      [
        "ĠÅ¡et",
        -10.961636555292648
      ],
      [
        "chrÃ¡",
        -10.96242016867565
      ],
      [
        "ĠdvÅ¯",
        -10.962579173260771
      ],
      [
        "AXAX",
        -10.965756989976109
      ],
      [
        "ĠlÃŃm",
        -10.966813327307966
      ],
      [
        "Ġvze",
        -10.967590604883718
      ],
      [
        "dÃ¡m",
        -10.968502742186493
      ],
      [
        "ĠÄįty",
        -10.968760415636384
      ],
      [
        "ĠÅ¾to",
        -10.969409636839309
      ],
      [
        "Ġzku",
        -10.969592091683477
      ],
      [
        "sÃ¡",
        -10.973483433117114
      ],
      [
        "hlÃŃ",
        -10.973760888015496
      ],
      [
        "ĠspÃŃÅ",
        -10.974971278629672
      ],
      [
        "ĠtÃ³",
        -10.975130237292207
      ],
      [
        "Ġchlo",
        -10.97601960619463
      ],
      [
        "Ġnnos",
        -10.978900563669749
      ],
      [
        "Ġzdr",
        -10.980061424848424
      ],
      [
        "ĠvÅ¡i",
        -10.980291312971476
      ],
      [
        "neÅ¾",
        -10.980645085092922
      ],
      [
        "ĠhnÃŃz",
        -10.982209972276925
      ],
      [
        "ĠhrÃ¡l",
        -10.98238452019583
      ],
      [
        "ĠstÃ½ch",
        -10.984158866082243
      ],
      [
        "pÃ¡n",
        -10.984635451014586
      ],
      [
        "ÃŃm",
        -10.984899293861448
      ],
      [
        "Ġskvos",
        -10.985834895661132
      ],
      [
        "spo",
        -10.987658828391481
      ],
      [
        "Ġvmo",
        -10.987870804650374
      ],
      [
        "hrÃ¡",
        -10.988830437023994
      ],
      [
        "ĠmiÅ¾",
        -10.98903324772389
      ],
      [
        "Ġvkr",
        -10.989157411851966
      ],
      [
        "ĠlkÃ¡",
        -10.990162038718086
      ],
      [
        "ĠvlÃ¡s",
        -10.990807251311331
      ],
      [
        "Ġzbro",
        -10.991184348949062
      ],
      [
        "Ġsna",
        -10.993774010501733
      ],
      [
        "pÃŃs",
        -10.995849039718125
      ],
      [
        "kli",
        -10.996218144472406
      ],
      [
        "ĠÅĪu",
        -10.997530315515196
      ],
      [
        "Ġly",
        -10.998281004332574
      ],
      [
        "Ġstran",
        -10.998403532478633
      ],
      [
        "ÅĻÃŃm",
        -11.002572671228098
      ],
      [
        "Ġny",
        -11.003044182042496
      ],
      [
        "ĠplÃŃ",
        -11.003881979018367
      ],
      [
        "em",
        -11.005689932400706
      ],
      [
        "hled",
        -11.005963089999202
      ],
      [
        "nÄĽm",
        -11.008040109335596
      ],
      [
        "Ġzble",
        -11.010850775106105
      ],
      [
        "Ġvkou",
        -11.010890041967643
      ],
      [
        "Ġzdro",
        -11.011333586261772
      ],
      [
        "Ġbru",
        -11.012033329557365
      ],
      [
        "zla",
        -11.012624918022158
      ],
      [
        "Ġzhou",
        -11.013936379769305
      ],
      [
        "Ġdvou",
        -11.013989419249995
      ],
      [
        "Ġhrou",
        -11.01513548668655
      ],
      [
        "hÅ¯",
        -11.018149909737348
      ],
      [
        "Ġcit",
        -11.020134407943788
      ],
      [
        "ĠsbÃŃ",
        -11.021594112824266
      ],
      [
        "Ġty",
        -11.021641149807209
      ],
      [
        "ky",
        -11.024013026579029
      ],
      [
        "cÅ¯",
        -11.024288181623513
      ],
      [
        "ĠzÃ¡Å¡",
        -11.026544992730729
      ],
      [
        "ĠzdaÅ¾",
        -11.027743736875355
      ],
      [
        "Ġvzbu",
        -11.028922947219234
      ],
      [
        "Ġznal",
        -11.02948645691235
      ],
      [
        "ĠslÃ©",
        -11.02964301148317
      ],
      [
        "Ġstry",
        -11.02973731160436
      ],
      [
        "Ġvsku",
        -11.029974924164762
      ],
      [
        "les",
        -11.032989741638264
      ],
      [
        "Ġkmi",
        -11.034728906191747
      ],
      [
        "ĠÅĻÃŃc",
        -11.035150514783972
      ],
      [
        "ĠvsÃŃ",
        -11.035199962199336
      ],
      [
        "ĠÅ¡en",
        -11.035231322965798
      ],
      [
        "Ġsi",
        -11.036104910694895
      ],
      [
        "Ġvko",
        -11.037138171031748
      ],
      [
        "Ġvsla",
        -11.040270657714194
      ],
      [
        "Ġtu",
        -11.044481284701885
      ],
      [
        "deÅ¡",
        -11.048350643050924
      ],
      [
        "Ġhu",
        -11.052125661660925
      ],
      [
        "Ġzha",
        -11.053404720499984
      ],
      [
        "Å¡tÃŃ",
        -11.054010441339052
      ],
      [
        "ĠtlÃ½",
        -11.055012421158414
      ],
      [
        "trÃ¡",
        -11.055269610514824
      ],
      [
        "ĠzÄįe",
        -11.057132820901112
      ],
      [
        "Å¾a",
        -11.059278938601128
      ],
      [
        "ÅĻek",
        -11.059379320212127
      ],
      [
        "Ġmen",
        -11.061319146476723
      ],
      [
        "ĠÅ¾rou",
        -11.062321165672696
      ],
      [
        "Ġnos",
        -11.063369726427357
      ],
      [
        "Ġstla",
        -11.065291146833424
      ],
      [
        "plÃ½",
        -11.06615924032948
      ],
      [
        "Ġspi",
        -11.066831748241922
      ],
      [
        "Ġblan",
        -11.06863313704823
      ],
      [
        "AABCC",
        -11.068971298065328
      ],
      [
        "ĠÅ¾u",
        -11.070347510880252
      ],
      [
        "Ġhy",
        -11.072683198509692
      ],
      [
        "za",
        -11.074114740396935
      ],
      [
        "ĠvzkÅĻi",
        -11.074733731397894
      ],
      [
        "Ġma",
        -11.076007134318719
      ],
      [
        "ĠvzÃŃ",
        -11.076013374824427
      ],
      [
        "ĠÅ¡vi",
        -11.078451890252948
      ],
      [
        "Ġzhy",
        -11.078484694566333
      ],
      [
        "vra",
        -11.079686064039747
      ],
      [
        "Ġknim",
        -11.080168829898117
      ],
      [
        "ABAA",
        -11.080914875812402
      ],
      [
        "vrÃ¡",
        -11.081654843650345
      ],
      [
        "ĠmÅĻel",
        -11.082404853175678
      ],
      [
        "ĠkdeÅ¾",
        -11.083668538463877
      ],
      [
        "Ġtry",
        -11.085045347379527
      ],
      [
        "ĠhÅĻb",
        -11.089148853482163
      ],
      [
        "ĠÅ¡er",
        -11.089162728302663
      ],
      [
        "Ġm",
        -11.089597598912107
      ],
      [
        "Ġha",
        -11.091116207818555
      ],
      [
        "Ġkal",
        -11.091653825547713
      ],
      [
        "aÅĻ",
        -11.091678879199055
      ],
      [
        "Ġtel",
        -11.092813542852468
      ],
      [
        "Ġdly",
        -11.094678727442677
      ],
      [
        "ĠvpÅĻe",
        -11.096778936893346
      ],
      [
        "ĠÄįte",
        -11.096906251251545
      ],
      [
        "kde",
        -11.099020981584165
      ],
      [
        "sÃ¡m",
        -11.099742517059552
      ],
      [
        "Ġpan",
        -11.100053349572141
      ],
      [
        "Ġlil",
        -11.103357566927976
      ],
      [
        "Ġda",
        -11.103861783381177
      ],
      [
        "ouÅ¡",
        -11.106991158028354
      ],
      [
        "Ġkpo",
        -11.108895444388137
      ],
      [
        "ĠmrÃ¡",
        -11.109744453254189
      ],
      [
        "ĠplÃ¡Å¡",
        -11.109827902636104
      ],
      [
        "dÅĻÃŃ",
        -11.110459968518791
      ],
      [
        "Äįes",
        -11.114128631910392
      ],
      [
        "ĠvzplÃ¡",
        -11.12058477127203
      ],
      [
        "Ġvrouc",
        -11.12157943089521
      ],
      [
        "ĠbÃ¡l",
        -11.124176796182473
      ],
      [
        "ĠkÅĻiv",
        -11.124545784560285
      ],
      [
        "zpÃŃ",
        -11.124812799328655
      ],
      [
        "ĠstrÃ½c",
        -11.12567468048092
      ],
      [
        "mra",
        -11.125840029094894
      ],
      [
        "til",
        -11.126540793085102
      ],
      [
        "ĠvÄįa",
        -11.129065385851106
      ],
      [
        "Ġh",
        -11.13126804476396
      ],
      [
        "ĠvÄĽt",
        -11.13197173088894
      ],
      [
        "hnÄĽ",
        -11.13292088028502
      ],
      [
        "ĠzdrÃ¡",
        -11.13458016098049
      ],
      [
        "Ġnes",
        -11.13689614274468
      ],
      [
        "Ġfer",
        -11.137209408777359
      ],
      [
        "ÅĻÃ¡",
        -11.137795676723034
      ],
      [
        "ĠkaÅ",
        -11.140344237853844
      ],
      [
        "ĠvlÅ¯",
        -11.141737760140144
      ],
      [
        "Ġgu",
        -11.142465685972995
      ],
      [
        "ĠÅ¾em",
        -11.143078349377248
      ],
      [
        "Ġzum",
        -11.143160983121438
      ],
      [
        "Ġzel",
        -11.144752463169242
      ],
      [
        "ĠÅ¡kle",
        -11.145021712064363
      ],
      [
        "vy",
        -11.147659288036044
      ],
      [
        "Ġvdo",
        -11.148260255656274
      ],
      [
        "ĠÅ¾er",
        -11.149168764567829
      ],
      [
        "Ġhvoz",
        -11.149211142183955
      ],
      [
        "Ġvhlu",
        -11.149837103559058
      ],
      [
        "Ġkud",
        -11.15129825563289
      ],
      [
        "Ġtres",
        -11.156593264326114
      ],
      [
        "ĠÅĻeÄ",
        -11.159835566464096
      ],
      [
        "Ġstvu",
        -11.160877802015557
      ],
      [
        "Ġles",
        -11.16161706913419
      ],
      [
        "tÅĻi",
        -11.165364677231405
      ],
      [
        "Ġnoc",
        -11.165659177010786
      ],
      [
        "oÅ¡",
        -11.166006246925095
      ],
      [
        "ĠstÃ½m",
        -11.16858002947375
      ],
      [
        "Ġpar",
        -11.168689382050955
      ],
      [
        "Ġvr",
        -11.169575404449121
      ],
      [
        "vÅ¾dy",
        -11.17316182831456
      ],
      [
        "moc",
        -11.173611517201758
      ],
      [
        "Ġbre",
        -11.17460405482982
      ],
      [
        "hrÅ¯",
        -11.17885049736892
      ],
      [
        "Ġpsal",
        -11.181037082374196
      ],
      [
        "Ġzl",
        -11.182241132131667
      ],
      [
        "ĠzvÄĽs",
        -11.182286432359634
      ],
      [
        "Ġzpu",
        -11.183014163898006
      ],
      [
        "hor",
        -11.183116731067122
      ],
      [
        "hÅĻÃŃ",
        -11.184463821680119
      ],
      [
        "ten",
        -11.184519499002793
      ],
      [
        "tru",
        -11.185222401456171
      ],
      [
        "ĠhnÃ¡",
        -11.186285362457967
      ],
      [
        "Ġzhro",
        -11.188432993816937
      ],
      [
        "Ġbl",
        -11.189438950356175
      ],
      [
        "ĠÅ¥as",
        -11.189479535986047
      ],
      [
        "ĠhlÃ©d",
        -11.189699733671723
      ],
      [
        "Ã½Å¾",
        -11.191008050117272
      ],
      [
        "ĠvkaÅ",
        -11.191505071510397
      ],
      [
        "jÃŃc",
        -11.19244040515393
      ],
      [
        "Ġmdlo",
        -11.192794863687881
      ],
      [
        "Ġhnal",
        -11.192892169943585
      ],
      [
        "prou",
        -11.194457100359935
      ],
      [
        "Ġsnil",
        -11.195050189578879
      ],
      [
        "ĠvnÄĽ",
        -11.195482858031928
      ],
      [
        "ĠvpÅĻÃŃ",
        -11.200860194562138
      ],
      [
        "ĠzkrÃ¡",
        -11.201826578732486
      ],
      [
        "ABCDC",
        -11.20233268913619
      ],
      [
        "ych",
        -11.202487734572944
      ],
      [
        "kÃ¡m",
        -11.204028799207542
      ],
      [
        "ĠspÄĽÅ",
        -11.206098767294487
      ],
      [
        "ĠmÄĽÅ",
        -11.206939303320805
      ],
      [
        "dla",
        -11.211354785542106
      ],
      [
        "kÃ¡ch",
        -11.2127998321036
      ],
      [
        "ĠtÄĽj",
        -11.214940828663241
      ],
      [
        "Å¾en",
        -11.215028798835833
      ],
      [
        "Ġvzru",
        -11.216520828883615
      ],
      [
        "Ġtlu",
        -11.219212895758558
      ],
      [
        "ĠzmÃ¡",
        -11.220704390783188
      ],
      [
        "ĠlÃŃc",
        -11.221010670714186
      ],
      [
        "Ġfra",
        -11.221786502241182
      ],
      [
        "ĠvpÃŃ",
        -11.2233664194093
      ],
      [
        "Ġhal",
        -11.224302681700777
      ],
      [
        "ĠstÅĻel",
        -11.224690637994305
      ],
      [
        "ĠÅ¡pi",
        -11.225891254810668
      ],
      [
        "ĠjimÅ",
        -11.226690572931151
      ],
      [
        "ĠvÄįer",
        -11.22813098403422
      ],
      [
        "mi",
        -11.228426525940025
      ],
      [
        "ku",
        -11.2292032331725
      ],
      [
        "ich",
        -11.229640836375186
      ],
      [
        "ĠÅ¡Å¯",
        -11.230261349769135
      ],
      [
        "sva",
        -11.232017211822138
      ],
      [
        "ĠdnÃ½",
        -11.232051235745478
      ],
      [
        "ĠÄįu",
        -11.233639974036791
      ],
      [
        "ĠvprÃ¡",
        -11.234452901540614
      ],
      [
        "blou",
        -11.234635973537008
      ],
      [
        "Ġvbou",
        -11.235832205293221
      ],
      [
        "ĠctÃŃ",
        -11.241562583393092
      ],
      [
        "ptÃ¡",
        -11.242068812840714
      ],
      [
        "zas",
        -11.24297056450318
      ],
      [
        "ĠhÅĻÃŃÅ¡",
        -11.243079162816755
      ],
      [
        "ĠÄįnÃŃ",
        -11.244282923001096
      ],
      [
        "Ġpal",
        -11.245912637941531
      ],
      [
        "zde",
        -11.246202959850855
      ],
      [
        "Ġvyz",
        -11.24800780206369
      ],
      [
        "ĠtÃŃÅ",
        -11.248691536036697
      ],
      [
        "Ġvsou",
        -11.248855760565444
      ],
      [
        "Ġvem",
        -11.249303111161177
      ],
      [
        "lÃŃc",
        -11.24941356137185
      ],
      [
        "Ġvot",
        -11.25000349648071
      ],
      [
        "Ġskla",
        -11.251775916126695
      ],
      [
        "chÅ¯",
        -11.252049545875817
      ],
      [
        "ĠhÅĻmÃŃ",
        -11.253957594592624
      ],
      [
        "Ġprs",
        -11.256265138863176
      ],
      [
        "Ġvzni",
        -11.256691440623117
      ],
      [
        "Ġfor",
        -11.260532465186435
      ],
      [
        "Ġgon",
        -11.261385622503266
      ],
      [
        "Ġslal",
        -11.261985833885031
      ],
      [
        "Äįil",
        -11.262536679964564
      ],
      [
        "Ġkre",
        -11.263728251043121
      ],
      [
        "ĠÅ¡Å¥a",
        -11.26725026737261
      ],
      [
        "Ġvne",
        -11.267502600072477
      ],
      [
        "ĠchlÃ½",
        -11.268906497802506
      ],
      [
        "skÃ½m",
        -11.270781417658224
      ],
      [
        "chÃ½",
        -11.271070648151266
      ],
      [
        "kru",
        -11.272496674868147
      ],
      [
        "Ġspal",
        -11.274383441142902
      ],
      [
        "vlÃ¡",
        -11.274781255172858
      ],
      [
        "Ġtek",
        -11.276311105263101
      ],
      [
        "mÃ½",
        -11.28034958492846
      ],
      [
        "ĠnÃ",
        -11.28065203191241
      ],
      [
        "19",
        -11.282596714908879
      ],
      [
        "Ġspla",
        -11.283471795683912
      ],
      [
        "XAXAX",
        -11.283573560713004
      ],
      [
        "smr",
        -11.28480004694087
      ],
      [
        "ĠzkÃ¡",
        -11.28493975022438
      ],
      [
        "slÃ¡",
        -11.28533528627001
      ],
      [
        "ĠtrÃ½",
        -11.285681143825856
      ],
      [
        "Ġvkro",
        -11.289715877037125
      ],
      [
        "ĠÅĻec",
        -11.292683441318175
      ],
      [
        "vla",
        -11.293181430763765
      ],
      [
        "ĠztÃ©",
        -11.294713504148726
      ],
      [
        "ĠzhlÃŃ",
        -11.295018406527243
      ],
      [
        "chvÃ¡",
        -11.295235869834356
      ],
      [
        "ÄįÃŃm",
        -11.295860835333787
      ],
      [
        "ĠstÅĻÃ¡",
        -11.300605118675541
      ],
      [
        "ĠkÄįe",
        -11.303768486828101
      ],
      [
        "ĠvmÃŃ",
        -11.30592931782346
      ],
      [
        "ĠdÃ¡n",
        -11.306734813353774
      ],
      [
        "rÃ©m",
        -11.308003091299726
      ],
      [
        "Ġcti",
        -11.309154293303447
      ],
      [
        "Ġfan",
        -11.30919923254315
      ],
      [
        "Ġzni",
        -11.312657142284229
      ],
      [
        "Ġvple",
        -11.31342400703456
      ],
      [
        "ĠvplÃ¡",
        -11.313775669378764
      ],
      [
        "Ġzlos",
        -11.314664726999485
      ],
      [
        "ĠstÅ¯j",
        -11.314736350174083
      ],
      [
        "ĠtÅĻÃ¡s",
        -11.315290684686644
      ],
      [
        "ĠhÅĻmÄĽ",
        -11.316942747688291
      ],
      [
        "Ġmat",
        -11.317348405604697
      ],
      [
        "brÃ¡",
        -11.319074562532958
      ],
      [
        "Ġzko",
        -11.319797048568105
      ],
      [
        "Ġsho",
        -11.319973690422383
      ],
      [
        "ĠplÃ½",
        -11.321175984909717
      ],
      [
        "raÅ¾",
        -11.324670884444608
      ],
      [
        "bo",
        -11.32557634867389
      ],
      [
        "hem",
        -11.325993308135974
      ],
      [
        "sly",
        -11.326335985291564
      ],
      [
        "mÃ¡m",
        -11.327758655938691
      ],
      [
        "ĠvsnÄĽ",
        -11.32890372077583
      ],
      [
        "Ġstrh",
        -11.329067268798457
      ],
      [
        "hlÃ©",
        -11.329812254588388
      ],
      [
        "kvÃŃ",
        -11.331578876457566
      ],
      [
        "kte",
        -11.33161814848344
      ],
      [
        "ĠÅ¾ÃŃÅ",
        -11.332542121053528
      ],
      [
        "Ġstih",
        -11.332787818550633
      ],
      [
        "Ġzpr",
        -11.332922836006974
      ],
      [
        "Ġber",
        -11.334080827133622
      ],
      [
        "ĠÅ¾eÅ",
        -11.33682922481788
      ],
      [
        "ĠzdÃŃ",
        -11.3381036710605
      ],
      [
        "Ġstl",
        -11.338770126590667
      ],
      [
        "ĠvlÃ©",
        -11.340052667336963
      ],
      [
        "ĠpÃ¡s",
        -11.340060433692308
      ],
      [
        "liÅ¡",
        -11.341262083162091
      ],
      [
        "Ġztr",
        -11.345458810397137
      ],
      [
        "ĠÅĻis",
        -11.346234027676886
      ],
      [
        "Ġdros",
        -11.346409986643199
      ],
      [
        "ĠtmÄĽ",
        -11.347529747204394
      ],
      [
        "Ġmy",
        -11.349745458009458
      ],
      [
        "Ġspja",
        -11.350595497714185
      ],
      [
        "ĠhÅĻbe",
        -11.351490602546448
      ],
      [
        "pÅĻes",
        -11.352102973978724
      ],
      [
        "Ã¡s",
        -11.353146252409818
      ],
      [
        "ĠÅ¡lÃŃ",
        -11.353591995723086
      ],
      [
        "blÃŃz",
        -11.35457597912935
      ],
      [
        "do",
        -11.35593965451821
      ],
      [
        "Ġklu",
        -11.35640839871169
      ],
      [
        "ĠhÅĻÃ¡",
        -11.357346570143537
      ],
      [
        "Ġvzd",
        -11.359076426303702
      ],
      [
        "slou",
        -11.359266939451308
      ],
      [
        "ĠvtvÃ©",
        -11.359270582874853
      ],
      [
        "hoÅĻ",
        -11.360162193449444
      ],
      [
        "ĠkvÃ¡",
        -11.361842923426826
      ],
      [
        "Ġvzla",
        -11.363484741599372
      ],
      [
        "ĠchÅĻi",
        -11.363746536642282
      ],
      [
        "Ġnu",
        -11.365751847660416
      ],
      [
        "Ġmsti",
        -11.367512490050595
      ],
      [
        "vÃ¡Å",
        -11.367646277484043
      ],
      [
        "ĠtÅĻeÅ¡",
        -11.367749864869722
      ],
      [
        "AAXB",
        -11.371731583767232
      ],
      [
        "ĠmrÅ¡",
        -11.37206054720757
      ],
      [
        "Ġvzpla",
        -11.373193635811969
      ],
      [
        "ĠtlÃ¡",
        -11.37421520434689
      ],
      [
        "Ġzhlu",
        -11.374588692863385
      ],
      [
        "pÅĻec",
        -11.374826170530486
      ],
      [
        "ĠbÃ¡m",
        -11.376170146915161
      ],
      [
        "ĠzbraÅ",
        -11.377988680055008
      ],
      [
        "Ġplach",
        -11.378136390019712
      ],
      [
        "Ġvten",
        -11.37840599163745
      ],
      [
        "Ġzmo",
        -11.381512523675013
      ],
      [
        "ĠvÅĪa",
        -11.383003501331112
      ],
      [
        "Ġkryl",
        -11.383237564890447
      ],
      [
        "kÅĻou",
        -11.384467278902246
      ],
      [
        "ĠnÄĽmÅ",
        -11.387779086974904
      ],
      [
        "znÃŃ",
        -11.392387509211845
      ],
      [
        "lÃŃm",
        -11.394152548585417
      ],
      [
        "Ġstv",
        -11.395565381100464
      ],
      [
        "nem",
        -11.39849414232632
      ],
      [
        "svo",
        -11.398761405103278
      ],
      [
        "Ġsr",
        -11.39892896452942
      ],
      [
        "Ġbec",
        -11.399777981266837
      ],
      [
        "Ġvist",
        -11.399897281367162
      ],
      [
        "Ġvles",
        -11.402268625619277
      ],
      [
        "ĠsrÃ¡",
        -11.404929045582438
      ],
      [
        "ĠÅ¡va",
        -11.40661751436931
      ],
      [
        "tvÅ¯j",
        -11.409049189161689
      ],
      [
        "pÅĻÃ¡",
        -11.412140578723873
      ],
      [
        "smÄĽ",
        -11.412508358376327
      ],
      [
        "dost",
        -11.412923753190077
      ],
      [
        "ĠvkvÄĽ",
        -11.41381075988237
      ],
      [
        "ĠbdÃŃ",
        -11.414994093560818
      ],
      [
        "Ġvat",
        -11.415780819944114
      ],
      [
        "sÅ¯",
        -11.417023689003408
      ],
      [
        "mlu",
        -11.417318980537384
      ],
      [
        "ĠvpÅ¯",
        -11.417592482624489
      ],
      [
        "ĠstvÃ¡",
        -11.418021100378049
      ],
      [
        "Ġjis",
        -11.418207439114589
      ],
      [
        "Å¡Å¥as",
        -11.418227475080625
      ],
      [
        "spÃ¡",
        -11.419268344955883
      ],
      [
        "Ġzho",
        -11.422021675796191
      ],
      [
        "ĠsmÃ½",
        -11.42377229352087
      ],
      [
        "Ġsk",
        -11.424293337682368
      ],
      [
        "rÃ½m",
        -11.42618194483099
      ],
      [
        "trÅ¯",
        -11.42632317359104
      ],
      [
        "Ġstez",
        -11.426647603103156
      ],
      [
        "nej",
        -11.427670127223648
      ],
      [
        "svÅ¯",
        -11.429713822585184
      ],
      [
        "Ġl",
        -11.429731401427697
      ],
      [
        "svÃŃ",
        -11.432090702533603
      ],
      [
        "Ġpoj",
        -11.43519442596275
      ],
      [
        "ĠvbÄĽ",
        -11.43688581630186
      ],
      [
        "Ġdrou",
        -11.438051726717704
      ],
      [
        "ĠÄįtvr",
        -11.43819134425985
      ],
      [
        "tvo",
        -11.438682735309978
      ],
      [
        "ĠvchrÃ¡",
        -11.439231989823401
      ],
      [
        "ĠpÅĻ",
        -11.440399148145874
      ],
      [
        "klÃ¡",
        -11.440928959356244
      ],
      [
        "kdo",
        -11.441595942851512
      ],
      [
        "krev",
        -11.442788099421055
      ],
      [
        "ĠschÃ¡",
        -11.442906167183523
      ],
      [
        "ĠÅ¥u",
        -11.446391846402447
      ],
      [
        "ĠvzÃ½",
        -11.447219362189358
      ],
      [
        "ĠÅ¾hou",
        -11.447272873639808
      ],
      [
        "knÄĽ",
        -11.44767892733952
      ],
      [
        "Ġvprac",
        -11.447853638782188
      ],
      [
        "vÅĻe",
        -11.449994038250288
      ],
      [
        "Ġzkr",
        -11.457196532849368
      ],
      [
        "Ġprin",
        -11.461343982303042
      ],
      [
        "Ġvkru",
        -11.461416202330401
      ],
      [
        "ĠÄįec",
        -11.464728684843795
      ],
      [
        "Ġkmen",
        -11.465215708071504
      ],
      [
        "ĠvznÄĽ",
        -11.46529398913147
      ],
      [
        "Ġmoh",
        -11.467294180743853
      ],
      [
        "Ġvti",
        -11.47118066522777
      ],
      [
        "Ġvl",
        -11.471370093123522
      ],
      [
        "ĠmdlÃ½",
        -11.47265301829467
      ],
      [
        "ĠbrÃ¡z",
        -11.472925037870677
      ],
      [
        "Ġshla",
        -11.473636896355494
      ],
      [
        "ĠplÃ¡l",
        -11.473815746785593
      ],
      [
        "skou",
        -11.475217187781567
      ],
      [
        "ĠhouÅ¡",
        -11.475854278469619
      ],
      [
        "Ġpras",
        -11.476011728380538
      ],
      [
        "Ġzne",
        -11.476806095493796
      ],
      [
        "ĠsÃºs",
        -11.477070471695015
      ],
      [
        "ĠveÅĪ",
        -11.477773189429499
      ],
      [
        "ĠvÃ½s",
        -11.479840665885142
      ],
      [
        "Ġvrh",
        -11.480000990498453
      ],
      [
        "tvÃŃ",
        -11.48108982485366
      ],
      [
        "ĠkzÃ¡",
        -11.481526229692228
      ],
      [
        "ĠzÃº",
        -11.482101340451578
      ],
      [
        "Ġtvr",
        -11.482422945285997
      ],
      [
        "ĠtvÅ¯",
        -11.483189342234294
      ],
      [
        "mlou",
        -11.48446460221804
      ],
      [
        "Ġvzma",
        -11.484883988139767
      ],
      [
        "sÃŃm",
        -11.485394791649753
      ],
      [
        "ĠtÅĻÃŃÅ¡",
        -11.486231009044905
      ],
      [
        "Ġzdi",
        -11.487093195533069
      ],
      [
        "ĠbdÄĽ",
        -11.487629972409117
      ],
      [
        "Ġzdu",
        -11.489112550252173
      ],
      [
        "bÅ¯h",
        -11.490131326089356
      ],
      [
        "ĠvpouÅ¡",
        -11.491658136983485
      ],
      [
        "XABB",
        -11.491763960617504
      ],
      [
        "ĠspÄĽl",
        -11.491879719905695
      ],
      [
        "ry",
        -11.493045254691449
      ],
      [
        "AXBC",
        -11.4954886508292
      ],
      [
        "Ġknul",
        -11.497240431063478
      ],
      [
        "Ġsple",
        -11.497880210509628
      ],
      [
        "Ġvmra",
        -11.497904954824582
      ],
      [
        "ĠsdÄĽ",
        -11.498251113776789
      ],
      [
        "kry",
        -11.506504776129692
      ],
      [
        "ble",
        -11.506847413951554
      ],
      [
        "Ġzr",
        -11.50747629245285
      ],
      [
        "ĠblÃ©",
        -11.508890485725097
      ],
      [
        "va",
        -11.512435072825232
      ],
      [
        "ĠzÃºs",
        -11.512595452072812
      ],
      [
        "hl",
        -11.51626396744851
      ],
      [
        "rach",
        -11.518710143008157
      ],
      [
        "ĠchlÃ¡",
        -11.519010012828986
      ],
      [
        "Äįel",
        -11.519899479289805
      ],
      [
        "Å¾al",
        -11.521034312525671
      ],
      [
        "Ġvsva",
        -11.522684718913492
      ],
      [
        "rak",
        -11.522732853134428
      ],
      [
        "ĠsÄįe",
        -11.523526572144846
      ],
      [
        "bro",
        -11.523544728110764
      ],
      [
        "Ġkva",
        -11.524451606718987
      ],
      [
        "cÃ½",
        -11.524870870806621
      ],
      [
        "Ġvpla",
        -11.5256623772344
      ],
      [
        "ĠÄıte",
        -11.526547647823184
      ],
      [
        "Ġfou",
        -11.526997731879579
      ],
      [
        "ĠÅ¡ÃŃÅ",
        -11.527797318591025
      ],
      [
        "pouÅ¡",
        -11.530029803457133
      ],
      [
        "ji",
        -11.530083086922538
      ],
      [
        "Ġchti",
        -11.530457202933205
      ],
      [
        "no",
        -11.533668656142865
      ],
      [
        "ĠnÃ¡Å",
        -11.534266563030844
      ],
      [
        "pa",
        -11.534381449435097
      ],
      [
        "dal",
        -11.535130780552727
      ],
      [
        "Ġzhlou",
        -11.535438995964213
      ],
      [
        "ĠzdrÃ¡v",
        -11.539875126879553
      ],
      [
        "mlÃ¡",
        -11.540858820964186
      ],
      [
        "Ġvcho",
        -11.540955818718562
      ],
      [
        "ĠvstÅĻe",
        -11.54102124858536
      ],
      [
        "ĠznÃ¡Å",
        -11.541488924052597
      ],
      [
        "ĠkvÃ½",
        -11.54248544557819
      ],
      [
        "ĠÄįÃ¡s",
        -11.545367161727189
      ],
      [
        "AAXX",
        -11.549810346270135
      ],
      [
        "ĠÅĪÅ¯",
        -11.550481969511118
      ],
      [
        "jes",
        -11.551079032062361
      ],
      [
        "Ġbor",
        -11.551456141549641
      ],
      [
        "jem",
        -11.551744983543006
      ],
      [
        "vÄĽk",
        -11.554702192629893
      ],
      [
        "ĠÅ¾ÃŃc",
        -11.554712716980635
      ],
      [
        "Äįl",
        -11.55585160289532
      ],
      [
        "ABABA",
        -11.556141810423165
      ],
      [
        "ĠÄįtve",
        -11.556867588999557
      ],
      [
        "ĠzbÃŃ",
        -11.559197202901327
      ],
      [
        "Ġvhr",
        -11.560536740779622
      ],
      [
        "pÄĽj",
        -11.560667064868081
      ],
      [
        "Ġshro",
        -11.562556219561609
      ],
      [
        "to",
        -11.563812748888354
      ],
      [
        "ĠstkvÄĽ",
        -11.564227168490696
      ],
      [
        "stÅĻÃŃ",
        -11.567556137406847
      ],
      [
        "Å¡u",
        -11.568848724643292
      ],
      [
        "ĠschÃ½",
        -11.570378237353452
      ],
      [
        "Ġtkli",
        -11.570968752581651
      ],
      [
        "Å¡la",
        -11.574058616002532
      ],
      [
        "ĠstrÅ¯",
        -11.575302548015419
      ],
      [
        "Å¡le",
        -11.575381269949844
      ],
      [
        "laÅ¡",
        -11.575890898523818
      ],
      [
        "hlÃ¡",
        -11.576312307952463
      ],
      [
        "ĠviÅ¡",
        -11.57667811178718
      ],
      [
        "pil",
        -11.576986732465521
      ],
      [
        "prÃ½",
        -11.577596559628272
      ],
      [
        "ĠsplÃ¡",
        -11.581676839745912
      ],
      [
        "jÃŃÅ¾",
        -11.582945819741344
      ],
      [
        "Ġvprou",
        -11.58678873371445
      ],
      [
        "ÅĻÃŃc",
        -11.58724901134234
      ],
      [
        "Å¡a",
        -11.589002697145009
      ],
      [
        "ĠvtrÃ¡",
        -11.589104488300261
      ],
      [
        "AXAB",
        -11.589511638125291
      ],
      [
        "AXBB",
        -11.5903546853472
      ],
      [
        "Ġspl",
        -11.591242641722417
      ],
      [
        "Ġzpro",
        -11.591782148682146
      ],
      [
        "Ġstrou",
        -11.592258300340802
      ],
      [
        "Ľ",
        -11.593937632858903
      ],
      [
        "Ġksou",
        -11.594249413402364
      ],
      [
        "ĠkÃº",
        -11.595822961936113
      ],
      [
        "AXABB",
        -11.595953469355045
      ],
      [
        "Ġzor",
        -11.596998899114492
      ],
      [
        "jsme",
        -11.597923903093916
      ],
      [
        "ĠtiÅ¡",
        -11.59957673427126
      ],
      [
        "deÅ¾",
        -11.600418266081128
      ],
      [
        "mrou",
        -11.601944989341566
      ],
      [
        "ĠdnÄĽ",
        -11.605723805920245
      ],
      [
        "te",
        -11.606199657172844
      ],
      [
        "ĠjiÅ¡",
        -11.609280320513069
      ],
      [
        "stal",
        -11.609446615345654
      ],
      [
        "nes",
        -11.612285560855256
      ],
      [
        "sty",
        -11.612596434577165
      ],
      [
        "ĠvpÃ¡",
        -11.614849052809816
      ],
      [
        "stÃ©",
        -11.614950265672427
      ],
      [
        "zda",
        -11.615802359055127
      ],
      [
        "zvo",
        -11.615822996473849
      ],
      [
        "ĠvhÃ¡",
        -11.616508368308764
      ],
      [
        "ĠsdÃŃ",
        -11.616821078793372
      ],
      [
        "ly",
        -11.616857893253139
      ],
      [
        "Ġvno",
        -11.617043060670689
      ],
      [
        "ĠshlÃŃ",
        -11.618556652868103
      ],
      [
        "ĠÅĻku",
        -11.618969446774969
      ],
      [
        "Ġzkve",
        -11.61918017754516
      ],
      [
        "vÄĽj",
        -11.620567113792196
      ],
      [
        "Ġvry",
        -11.620843146342644
      ],
      [
        "Ġksmr",
        -11.621025197512811
      ],
      [
        "vi",
        -11.622255193951773
      ],
      [
        "klÃŃ",
        -11.623581303868653
      ],
      [
        "ĠjvÄĽ",
        -11.625759725408965
      ],
      [
        "Ġhly",
        -11.62603128022993
      ],
      [
        "ĠÅ¡ka",
        -11.626210237736787
      ],
      [
        "¯",
        -11.626359389885309
      ],
      [
        "Ġfri",
        -11.626504542721404
      ],
      [
        "Ġstor",
        -11.626579838819
      ],
      [
        "ĠkvÅ¯",
        -11.629444386791777
      ],
      [
        "Ġklen",
        -11.631752794342521
      ],
      [
        "ni",
        -11.63331632183516
      ],
      [
        "Ġnach",
        -11.634590170238482
      ],
      [
        "ĠkÅ¾i",
        -11.634648781780761
      ],
      [
        "ĠspÅĻÃ¡",
        -11.6372784960903
      ],
      [
        "ĠtÅĻÃŃs",
        -11.63768185736329
      ],
      [
        "hr",
        -11.637770391706866
      ],
      [
        "Ġbrat",
        -11.642156464250194
      ],
      [
        "tÃ¡h",
        -11.643982451083232
      ],
      [
        "ĠtnÃŃ",
        -11.645143825727384
      ],
      [
        "ĠÅ¡leh",
        -11.646260930924582
      ],
      [
        "Ġkze",
        -11.647347759238498
      ],
      [
        "Ġspor",
        -11.647910718784026
      ],
      [
        "ĠjÃŃÅ¡",
        -11.652129681517355
      ],
      [
        "ĠÅ¡ak",
        -11.652145955081084
      ],
      [
        "Ġstan",
        -11.65470948269844
      ],
      [
        "dem",
        -11.656464456627887
      ],
      [
        "Ġkbo",
        -11.660765066886352
      ],
      [
        "Ġvzhle",
        -11.663627610943761
      ],
      [
        "klo",
        -11.664659058649615
      ],
      [
        "hru",
        -11.665115573684503
      ],
      [
        "snÃŃ",
        -11.66549748360951
      ],
      [
        "ÅĻÃ¡d",
        -11.667005903230951
      ],
      [
        "Ġme",
        -11.667228142314043
      ],
      [
        "ĠpÅĻej",
        -11.667452330222547
      ],
      [
        "Ġzmra",
        -11.670460248823893
      ],
      [
        "Ġgic",
        -11.67141536564339
      ],
      [
        "tvÃ¡Å",
        -11.67310585721799
      ],
      [
        "oÄı",
        -11.675506662703636
      ],
      [
        "ta",
        -11.675655775095779
      ],
      [
        "Ġkslu",
        -11.67566725158747
      ],
      [
        "mu",
        -11.67695693402413
      ],
      [
        "Ġzil",
        -11.677242772584439
      ],
      [
        "ĠsmÄĽÅ",
        -11.677289059753353
      ],
      [
        "mÃ½m",
        -11.677914085938188
      ],
      [
        "Ġchlou",
        -11.679772574985243
      ],
      [
        "ĠvzrÅ¯",
        -11.680615501928532
      ],
      [
        "Ġzpla",
        -11.681397430952554
      ],
      [
        "Ġchro",
        -11.683945970319764
      ],
      [
        "AAXA",
        -11.684329142007664
      ],
      [
        "Ġvbla",
        -11.685565051152455
      ],
      [
        "ÅĻeÄ",
        -11.685794883110333
      ],
      [
        "ĠÅ¡per",
        -11.687238669723262
      ],
      [
        "Ġvzly",
        -11.689450159803997
      ],
      [
        "sle",
        -11.689807517591213
      ],
      [
        "Ãºz",
        -11.690228599344572
      ],
      [
        "ĠchÅĻe",
        -11.69133843260367
      ],
      [
        "ĠmÄĽs",
        -11.691717185848928
      ],
      [
        "vÃ½Å",
        -11.692198919055894
      ],
      [
        "Å¡ep",
        -11.692802813911841
      ],
      [
        "zÅĻÃŃ",
        -11.692968994426227
      ],
      [
        "ÅĪa",
        -11.694003396703618
      ],
      [
        "str",
        -11.696650840441258
      ],
      [
        "Ġsy",
        -11.69721704037287
      ],
      [
        "vÃ¡n",
        -11.699354398410835
      ],
      [
        "Ġtrh",
        -11.699441074816324
      ],
      [
        "ĠniÅ¡",
        -11.700179505462577
      ],
      [
        "ĠÅ¾ÃŃz",
        -11.700917174845394
      ],
      [
        "Ġpnou",
        -11.701704081190575
      ],
      [
        "ĠkÅĻo",
        -11.7032564439372
      ],
      [
        "ĠlÅ¾i",
        -11.70348051486176
      ],
      [
        "ĠmÃ¡Å¾",
        -11.703925471801313
      ],
      [
        "ka",
        -11.705030541297488
      ],
      [
        "loÄı",
        -11.707029575275762
      ],
      [
        "Ġkous",
        -11.70779504521147
      ],
      [
        "Ġvli",
        -11.708946023643755
      ],
      [
        "Ġf",
        -11.709883383988133
      ],
      [
        "znÃ¡",
        -11.710622862114793
      ],
      [
        "Ġrech",
        -11.710967893370672
      ],
      [
        "sko",
        -11.711047687989748
      ],
      [
        "Ġztem",
        -11.712272934028206
      ],
      [
        "blÃŃ",
        -11.713473053730233
      ],
      [
        "ĠdÃŃc",
        -11.713575000152225
      ],
      [
        "vo",
        -11.713841715162516
      ],
      [
        "ĠdÅĻi",
        -11.714211664371451
      ],
      [
        "Ġtre",
        -11.714463674972341
      ],
      [
        "Ġral",
        -11.716045463313549
      ],
      [
        "Ġvzbo",
        -11.716243243628202
      ],
      [
        "snÄĽ",
        -11.717082874662243
      ],
      [
        "Ġvjich",
        -11.72036296551002
      ],
      [
        "ĠvzÅĪa",
        -11.722039896475938
      ],
      [
        "zlo",
        -11.72282059578733
      ],
      [
        "ĠvdÅ¯",
        -11.72306920812234
      ],
      [
        "Ġvji",
        -11.72583936327101
      ],
      [
        "ĠzbÄĽ",
        -11.728400952976209
      ],
      [
        "ĠmdlÃ©",
        -11.72935596264091
      ],
      [
        "Ġsdru",
        -11.730017742000754
      ],
      [
        "Ġstic",
        -11.730521473132317
      ],
      [
        "ÅĻas",
        -11.731469238471703
      ],
      [
        "ĠsmÄĽs",
        -11.731676417285613
      ],
      [
        "ĠskvÃŃ",
        -11.731687752152702
      ],
      [
        "ÅĻej",
        -11.731898075549916
      ],
      [
        "ĠssÃ¡",
        -11.733045551691864
      ],
      [
        "Ġzvi",
        -11.733076327130089
      ],
      [
        "ĠnoÅ¡",
        -11.733221097361206
      ],
      [
        "Ġkryt",
        -11.733603685242159
      ],
      [
        "Ġtros",
        -11.733965731586427
      ],
      [
        "vÅ¡em",
        -11.734864997685776
      ],
      [
        "Ġzblou",
        -11.73571688012063
      ],
      [
        "ĠfÃŃ",
        -11.736043918562377
      ],
      [
        "Ġvzty",
        -11.736230774451986
      ],
      [
        "ĠdnÃ¡",
        -11.736603037959592
      ],
      [
        "jmÃ©",
        -11.740908333361375
      ],
      [
        "svÃ¡",
        -11.741284912170006
      ],
      [
        "Ġzp",
        -11.741858043495984
      ],
      [
        "spÄĽ",
        -11.741916370756705
      ],
      [
        "ĠgÃ¡",
        -11.742536768161003
      ],
      [
        "Ġvnit",
        -11.743179347436307
      ],
      [
        "ĠzbÃ½",
        -11.74385691246744
      ],
      [
        "ĠktÃ©",
        -11.744465069298471
      ],
      [
        "ĠsÃŃÅ",
        -11.74509862251221
      ],
      [
        "Ġvpl",
        -11.745377165498553
      ],
      [
        "ĠdÃ³",
        -11.74657200419708
      ],
      [
        "ĠjdÄĽ",
        -11.747632499638453
      ],
      [
        "Ġzpou",
        -11.748186114538612
      ],
      [
        "ABCB",
        -11.748418994539467
      ],
      [
        "Ġpor",
        -11.748515766525351
      ],
      [
        "ja",
        -11.74981887853735
      ],
      [
        "ĠÅ¡lÃ½",
        -11.749900010243435
      ],
      [
        "ÅĻec",
        -11.75196895770181
      ],
      [
        "jste",
        -11.752452649960144
      ],
      [
        "ĠvÅ¾a",
        -11.754210914465103
      ],
      [
        "tÃ©m",
        -11.75463383884725
      ],
      [
        "Ġstel",
        -11.756186847646152
      ],
      [
        "Ġvstu",
        -11.756397463060122
      ],
      [
        "ci",
        -11.756773461493994
      ],
      [
        "ĠvÄĽs",
        -11.757335076443507
      ],
      [
        "ĠchlÃŃ",
        -11.757639088750707
      ],
      [
        "Ġvpod",
        -11.758327115771213
      ],
      [
        "lil",
        -11.758378743800257
      ],
      [
        "tÃ½m",
        -11.758748563425767
      ],
      [
        "luÅ¡",
        -11.76095900959038
      ],
      [
        "ĠzvÃ½",
        -11.7617812437596
      ],
      [
        "Ġsne",
        -11.764846085180558
      ],
      [
        "Å¡li",
        -11.764888928619015
      ],
      [
        "ABAC",
        -11.765225556167945
      ],
      [
        "Ġsm",
        -11.765905564389206
      ],
      [
        "ĠsÅĪa",
        -11.766715613101422
      ],
      [
        "zÅ¯",
        -11.767447844512695
      ],
      [
        "ĠlÃ¡m",
        -11.767881248595566
      ],
      [
        "pÃ½",
        -11.767941172073591
      ],
      [
        "ĠvzlÃ©",
        -11.768917063265391
      ],
      [
        "ĠzÅĪa",
        -11.770215596460279
      ],
      [
        "Ġvzcho",
        -11.770880506113144
      ],
      [
        "Å¾eh",
        -11.771172703657427
      ],
      [
        "AXBBC",
        -11.771223629435035
      ],
      [
        "ĠchÅ¯m",
        -11.77200002479702
      ],
      [
        "Ġkme",
        -11.77470731366861
      ],
      [
        "Ġstis",
        -11.775054974616669
      ],
      [
        "ĠsÃº",
        -11.776013715416767
      ],
      [
        "Ġshlu",
        -11.776126333098752
      ],
      [
        "chyt",
        -11.776564566260095
      ],
      [
        "ĠjvÃŃ",
        -11.777208809992063
      ],
      [
        "ĠzrÅ¯",
        -11.778558979702801
      ],
      [
        "Ġshle",
        -11.77889560073665
      ],
      [
        "Ġvmy",
        -11.781819821705863
      ],
      [
        "ĠzvÄĽÅ",
        -11.781872102108345
      ],
      [
        "nec",
        -11.782360417832859
      ],
      [
        "Ġduc",
        -11.782833756267124
      ],
      [
        "Ġpu",
        -11.783687449465411
      ],
      [
        "drÃ¡",
        -11.785470524879209
      ],
      [
        "Ġg",
        -11.78550021256657
      ],
      [
        "ĠlÃ¡c",
        -11.785854963122297
      ],
      [
        "Ġgen",
        -11.787863080791775
      ],
      [
        "Ġven",
        -11.78831860197995
      ],
      [
        "Ġkpra",
        -11.791040218562792
      ],
      [
        "ABBCD",
        -11.791399296902005
      ],
      [
        "ĠÄįeÅ",
        -11.791816930313349
      ],
      [
        "Ġslel",
        -11.791957207492073
      ],
      [
        "Ġvhru",
        -11.792758499482058
      ],
      [
        "Ġvzra",
        -11.792764244459207
      ],
      [
        "Ġhnu",
        -11.79326535506454
      ],
      [
        "Ġdob",
        -11.794153392646695
      ],
      [
        "Ġkto",
        -11.794937743329228
      ],
      [
        "rÃ¡Å¡",
        -11.795863517957752
      ],
      [
        "ĠtÃŃc",
        -11.79617441247078
      ],
      [
        "zvu",
        -11.79625351876426
      ],
      [
        "Ġstlo",
        -11.79909141504015
      ],
      [
        "Ġsky",
        -11.79916475619309
      ],
      [
        "Ġnouc",
        -11.800262698836654
      ],
      [
        "Ġtrap",
        -11.801428721375077
      ],
      [
        "yÅĪ",
        -11.801637663527826
      ],
      [
        "Ġchly",
        -11.805133436299725
      ],
      [
        "strÃ¡",
        -11.805831757135717
      ],
      [
        "ĠshÃ¡",
        -11.805898931760117
      ],
      [
        "ĠsklÃŃ",
        -11.80774865887107
      ],
      [
        "ĠvslÃ¡",
        -11.810009102506125
      ],
      [
        "Ġdit",
        -11.813562346311153
      ],
      [
        "ĠdrÅ¯",
        -11.814161390849337
      ],
      [
        "Ġvp",
        -11.817172382689375
      ],
      [
        "sli",
        -11.817876323192385
      ],
      [
        "Ġzdvo",
        -11.818301011136768
      ],
      [
        "smu",
        -11.818832280856011
      ],
      [
        "mar",
        -11.818980146987816
      ],
      [
        "ĠtlÃŃ",
        -11.819876037102876
      ],
      [
        "zou",
        -11.821112730457692
      ],
      [
        "Ġzpi",
        -11.82155255839584
      ],
      [
        "ĠpÅĻÃ¡l",
        -11.822598733398628
      ],
      [
        "Ġzvou",
        -11.823041753264881
      ],
      [
        "ĠfÃ¡m",
        -11.825337775099616
      ],
      [
        "ĠnÄĽc",
        -11.825642003734867
      ],
      [
        "ĠmlÃ©",
        -11.826099995325546
      ],
      [
        "ĠctÄĽ",
        -11.826487074516969
      ],
      [
        "Ġpi",
        -11.827649767944282
      ],
      [
        "Ġkly",
        -11.82792470763
      ],
      [
        "Å¾el",
        -11.82819102668071
      ],
      [
        "Ġtys",
        -11.82909890334285
      ],
      [
        "ĠvdÃŃ",
        -11.829136345908939
      ],
      [
        "Ġrag",
        -11.829798344213021
      ],
      [
        "Ġzvl",
        -11.832866082368854
      ],
      [
        "bu",
        -11.834334735478947
      ],
      [
        "CD",
        -11.835711888642571
      ],
      [
        "ĠtÄĽs",
        -11.836430793003744
      ],
      [
        "ĠvzkÅĻÃŃ",
        -11.840072889034099
      ],
      [
        "ĠlÃŃp",
        -11.840176798396433
      ],
      [
        "tr",
        -11.840515567128367
      ],
      [
        "dle",
        -11.84077987012543
      ],
      [
        "ĠvrÅ¯",
        -11.842945509376149
      ],
      [
        "ĠdvÃŃ",
        -11.84410969223744
      ],
      [
        "Ġnal",
        -11.845296610907653
      ],
      [
        "mla",
        -11.84596628371811
      ],
      [
        "eÅĻ",
        -11.84697553755319
      ],
      [
        "Ġster",
        -11.850717278611084
      ],
      [
        "ABCCD",
        -11.853926657812979
      ],
      [
        "ĠkpÅĻe",
        -11.856534742940813
      ],
      [
        "ĠsplÃ",
        -11.856858713604257
      ],
      [
        "Ġtroc",
        -11.858938844701164
      ],
      [
        "kal",
        -11.861074843485454
      ],
      [
        "E",
        -11.861310487248431
      ],
      [
        "tvou",
        -11.861857851539444
      ],
      [
        "ÄĽÅ¾",
        -11.862386222828075
      ],
      [
        "ĠskÅĻe",
        -11.86282400305824
      ],
      [
        "ĠpyÅ",
        -11.864947285480195
      ],
      [
        "sÃŃc",
        -11.865357939027891
      ],
      [
        "Ġvs",
        -11.86706445598281
      ],
      [
        "ĠboÅ",
        -11.867282650919527
      ],
      [
        "ĠsbÄĽ",
        -11.867524181857918
      ],
      [
        "ĠvztÃ¡",
        -11.868061848258602
      ],
      [
        "Ġslas",
        -11.868106685544273
      ],
      [
        "ĠtÅĻ",
        -11.869370565617178
      ],
      [
        "zje",
        -11.869824994973536
      ],
      [
        "Ġbol",
        -11.870067871275847
      ],
      [
        "spa",
        -11.872846550294472
      ],
      [
        "vtom",
        -11.873095873052156
      ],
      [
        "ĠstkvÃŃ",
        -11.87673897582151
      ],
      [
        "Ġklas",
        -11.877771942443967
      ],
      [
        "Ġvys",
        -11.87813589432897
      ],
      [
        "laÅ¥",
        -11.879072368506446
      ],
      [
        "oÅĻ",
        -11.880528426370317
      ],
      [
        "Ġvsmu",
        -11.88343222371077
      ],
      [
        "Ġcen",
        -11.88365025838514
      ],
      [
        "jÃŃt",
        -11.885160916288987
      ],
      [
        "chle",
        -11.885921958795823
      ],
      [
        "ĠvchÃ¡",
        -11.886106375606893
      ],
      [
        "ĠÄįo",
        -11.887020129056362
      ],
      [
        "Ġvmou",
        -11.889952539839612
      ],
      [
        "ĠhÅĻmo",
        -11.893052933530853
      ],
      [
        "ĠvbÃ¡",
        -11.894689401659093
      ],
      [
        "dne",
        -11.89507978655739
      ],
      [
        "ĠkvÃ©",
        -11.895578435705826
      ],
      [
        "drob",
        -11.896104992958682
      ],
      [
        "ĠtÅĻes",
        -11.89832162480747
      ],
      [
        "stej",
        -11.899494208440323
      ],
      [
        "Ġzhu",
        -11.89963293302156
      ],
      [
        "tÄĽl",
        -11.900812612360404
      ],
      [
        "knÃŃ",
        -11.902865503949158
      ],
      [
        "Ġzhr",
        -11.903197582391314
      ],
      [
        "ĠzvrÃ¡",
        -11.90386541973167
      ],
      [
        "Ġher",
        -11.906768327957192
      ],
      [
        "ĠÄįnÄĽ",
        -11.908004688989053
      ],
      [
        "Ġspol",
        -11.908485550686244
      ],
      [
        "zpo",
        -11.908619149727873
      ],
      [
        "ĠÄįlu",
        -11.909310178653534
      ],
      [
        "Ġzkra",
        -11.909892102289763
      ],
      [
        "ĠsmÄĽl",
        -11.910902886809433
      ],
      [
        "Ġtrp",
        -11.911265225488897
      ],
      [
        "proÄį",
        -11.911451676878299
      ],
      [
        "ĠzpÅĻÃŃ",
        -11.912911647280616
      ],
      [
        "Ġpoh",
        -11.913187756288291
      ],
      [
        "ĠdiÅ¡",
        -11.917189267942145
      ],
      [
        "ĠÅĻva",
        -11.919177058936578
      ],
      [
        "Ġbran",
        -11.91953809605759
      ],
      [
        "zvÄĽ",
        -11.921077527248219
      ],
      [
        "Ġvbez",
        -11.92196186560641
      ],
      [
        "Å¾ha",
        -11.922508376526427
      ],
      [
        "lu",
        -11.922776232742361
      ],
      [
        "hÅĻe",
        -11.923829539363531
      ],
      [
        "Ġdlel",
        -11.924206810258905
      ],
      [
        "ĠvzdÄĽ",
        -11.925579430106975
      ],
      [
        "ĠkcÃŃ",
        -11.926189620295222
      ],
      [
        "ĠctnÃ©",
        -11.927151460298337
      ],
      [
        "Ġvoj",
        -11.928903547998953
      ],
      [
        "ĠvmlÃ¡",
        -11.932968698171111
      ],
      [
        "ĠfÃ©",
        -11.93429963383499
      ],
      [
        "stvo",
        -11.93430257957548
      ],
      [
        "dy",
        -11.935689974801296
      ],
      [
        "Ġzpa",
        -11.936530860091178
      ],
      [
        "Ãºc",
        -11.938644775709985
      ],
      [
        "ĠÅ¥te",
        -11.938947150948941
      ],
      [
        "ĠÅ¡lÃ¡",
        -11.94035446466112
      ],
      [
        "chou",
        -11.945588921259464
      ],
      [
        "XAXB",
        -11.946370133851698
      ],
      [
        "nÄĽl",
        -11.948908295675334
      ],
      [
        "ĠknÃ©",
        -11.949411919343433
      ],
      [
        "ĠÅĻli",
        -11.949601972390594
      ],
      [
        "Ġtma",
        -11.95019908880689
      ],
      [
        "Äįem",
        -11.951616625836394
      ],
      [
        "ĠduÅ¡",
        -11.951949121453215
      ],
      [
        "ple",
        -11.95276694146166
      ],
      [
        "ĠstvÅ¯",
        -11.953819594057528
      ],
      [
        "Ġzbyl",
        -11.959771467287485
      ],
      [
        "ĠÅ¡kÅ¯",
        -11.961215282988293
      ],
      [
        "ĠdrÃ¡Å",
        -11.961395230686847
      ],
      [
        "Ġsen",
        -11.961598443132484
      ],
      [
        "dvÄĽ",
        -11.963133349449016
      ],
      [
        "ĠvÄįi",
        -11.963234273961195
      ],
      [
        "ĠvlaÅ",
        -11.96338988254611
      ],
      [
        "ÄĽÅ¡",
        -11.964169961046569
      ],
      [
        "Ġlos",
        -11.96424057746162
      ],
      [
        "Ġman",
        -11.964933995817196
      ],
      [
        "Äįet",
        -11.965694264655358
      ],
      [
        "spÃŃ",
        -11.966474197581435
      ],
      [
        "znÄĽ",
        -11.967305596664477
      ],
      [
        "Ġtri",
        -11.967373585918661
      ],
      [
        "ABABX",
        -11.968467983224272
      ],
      [
        "Ġslit",
        -11.969897073886983
      ],
      [
        "ĠÅ¡tva",
        -11.971480692817892
      ],
      [
        "Ġvnej",
        -11.971765321297276
      ],
      [
        "Ġvzro",
        -11.972642063468363
      ],
      [
        "skal",
        -11.973593550889358
      ],
      [
        "ĠmÃ³",
        -11.973635104739419
      ],
      [
        "Ġzto",
        -11.975403444152285
      ],
      [
        "ĠmstÃŃ",
        -11.976163259819435
      ],
      [
        "du",
        -11.976925084267187
      ],
      [
        "roÅ¡",
        -11.977515440841414
      ],
      [
        "Ġbem",
        -11.979295787082485
      ],
      [
        "Ġvpou",
        -11.979703511527957
      ],
      [
        "zlÃ©",
        -11.979925136231277
      ],
      [
        "Ġvna",
        -11.981186796139664
      ],
      [
        "Ġvzou",
        -11.98452627279435
      ],
      [
        "Ġzkla",
        -11.986060163979236
      ],
      [
        "Ġvhra",
        -11.9862329792244
      ],
      [
        "Ġchvo",
        -11.986485623435076
      ],
      [
        "Ġkrad",
        -11.987374661924608
      ],
      [
        "ĠvtÃ½",
        -11.98748541364038
      ],
      [
        "Ġzja",
        -11.990116535806429
      ],
      [
        "pÅĻÃŃÅ¡",
        -11.992579756611619
      ],
      [
        "dlÃ¡",
        -11.997565648905153
      ],
      [
        "ĠvÃŃÅ",
        -11.999527940595902
      ],
      [
        "dlo",
        -11.999920493951917
      ],
      [
        "ĠzlÅ¯",
        -12.000962009931119
      ],
      [
        "Ġschu",
        -12.001654568517754
      ],
      [
        "Ġdrec",
        -12.004554163838424
      ],
      [
        "ĠÄįiÅ¡",
        -12.005386813642456
      ],
      [
        "Ġvto",
        -12.007080348646875
      ],
      [
        "Ġvcha",
        -12.012289551217268
      ],
      [
        "chal",
        -12.012762035128976
      ],
      [
        "Ġdmou",
        -12.014162223829324
      ],
      [
        "slÃŃ",
        -12.014312205782064
      ],
      [
        "ĠvnÄĽj",
        -12.014496134017362
      ],
      [
        "Ġskvou",
        -12.014999025755841
      ],
      [
        "ĠbliÅ",
        -12.015925534408622
      ],
      [
        "ĠvchvÃŃ",
        -12.018059779560797
      ],
      [
        "cem",
        -12.018551177488693
      ],
      [
        "Ġplul",
        -12.020087966355455
      ],
      [
        "cÃŃm",
        -12.020317554486795
      ],
      [
        "AXBCB",
        -12.021015597948315
      ],
      [
        "straÅ",
        -12.021341059285593
      ],
      [
        "naÄį",
        -12.022083249539502
      ],
      [
        "ĠÅ¡ku",
        -12.022763029411044
      ],
      [
        "Ġlik",
        -12.02293305753617
      ],
      [
        "neb",
        -12.024071613074039
      ],
      [
        "Ġvmla",
        -12.024441527418805
      ],
      [
        "ĠtkÃ¡",
        -12.024454267759461
      ],
      [
        "ĠvÅ¾Ã¡",
        -12.024873120672002
      ],
      [
        "kÅĻÃŃÅ",
        -12.025664580741049
      ],
      [
        "kÅĻe",
        -12.026466300298843
      ],
      [
        "cÃŃc",
        -12.02679061224757
      ],
      [
        "Ġtic",
        -12.027719948048862
      ],
      [
        "ĠzdvÃŃ",
        -12.02850325509131
      ],
      [
        "Ġvspo",
        -12.028860478858572
      ],
      [
        "ĠÅ¾lou",
        -12.029583785628109
      ],
      [
        "ĠmnÃŃ",
        -12.031214127999945
      ],
      [
        "tvÃ½",
        -12.03188302047322
      ],
      [
        "Ġvsvo",
        -12.032226468325682
      ],
      [
        "ĠksvÄĽ",
        -12.035040557271532
      ],
      [
        "ĠvÄĽl",
        -12.03547885234174
      ],
      [
        "Ġsma",
        -12.035827477806055
      ],
      [
        "ĠrÃ©Å¾",
        -12.03747919620509
      ],
      [
        "Ġztro",
        -12.037632757626044
      ],
      [
        "Å¾dy",
        -12.038789446918486
      ],
      [
        "Ġzmr",
        -12.03938462502535
      ],
      [
        "Ġbit",
        -12.039979376570553
      ],
      [
        "chtÄĽ",
        -12.040942944334747
      ],
      [
        "ĠhvÃŃz",
        -12.041104907387462
      ],
      [
        "Ġznej",
        -12.043439651958632
      ],
      [
        "stva",
        -12.04376791859973
      ],
      [
        "Ġvkli",
        -12.044044618748124
      ],
      [
        "jÃŃm",
        -12.045140310333966
      ],
      [
        "nos",
        -12.047164278521558
      ],
      [
        "Ġdnou",
        -12.047415805871161
      ],
      [
        "ĠnÃ¡t",
        -12.047443282251947
      ],
      [
        "Ġvzdyc",
        -12.047759524515428
      ],
      [
        "Ġvsmr",
        -12.048801222610933
      ],
      [
        "Ġskvr",
        -12.049166961052878
      ],
      [
        "ĠsÅ¾e",
        -12.04992541690379
      ],
      [
        "ĠveÄį",
        -12.052076752318682
      ],
      [
        "vzpo",
        -12.053046277960492
      ],
      [
        "ĠstlÃ¡",
        -12.054114375211686
      ],
      [
        "vdÄĽ",
        -12.05494288916655
      ],
      [
        "ĠlhÃ¡",
        -12.055673083710845
      ],
      [
        "Ġvznes",
        -12.056318457604599
      ],
      [
        "ĠtvÄĽ",
        -12.056645464922301
      ],
      [
        "ĠvÃ",
        -12.05753588606894
      ],
      [
        "Å¾ÃŃm",
        -12.057952474587747
      ],
      [
        "Ġpsa",
        -12.058047212563135
      ],
      [
        "Ġvkni",
        -12.059177630453537
      ],
      [
        "Ġpta",
        -12.05973122147477
      ],
      [
        "Ġzry",
        -12.059746296289909
      ],
      [
        "ĠpsÃŃ",
        -12.060433740184774
      ],
      [
        "niÅ¾",
        -12.060709484681587
      ],
      [
        "ĠvpÄĽ",
        -12.061397661785783
      ],
      [
        "nik",
        -12.06149401769088
      ],
      [
        "den",
        -12.06238973973452
      ],
      [
        "Ġspr",
        -12.06247588751032
      ],
      [
        "Ġflo",
        -12.062498789184062
      ],
      [
        "Å¡ak",
        -12.062553349818621
      ],
      [
        "vÄįe",
        -12.062654622863512
      ],
      [
        "AXBCC",
        -12.062943258861132
      ],
      [
        "vÃ¡l",
        -12.063866614044407
      ],
      [
        "ĠrdÃŃ",
        -12.064057127376133
      ],
      [
        "ĠshÅ¯",
        -12.064105882073303
      ],
      [
        "ĠstvÃ©",
        -12.065826690290976
      ],
      [
        "Ġpoc",
        -12.066047178938017
      ],
      [
        "sluÅ",
        -12.066508826437804
      ],
      [
        "Ġzmu",
        -12.067922588132511
      ],
      [
        "smÃŃ",
        -12.06795439790587
      ],
      [
        "ĠÄįis",
        -12.067975812852998
      ],
      [
        "ĠÅ¡tvÃ¡",
        -12.068310416079928
      ],
      [
        "Ġdvoj",
        -12.068851515512982
      ],
      [
        "tÅĻÃ¡",
        -12.069559532973592
      ],
      [
        "ABXB",
        -12.070488400617915
      ],
      [
        "ĠvztÄĽ",
        -12.071117227089655
      ],
      [
        "ĠslÃ¡b",
        -12.071458982706584
      ],
      [
        "Ġchi",
        -12.071534086993822
      ],
      [
        "Ġgan",
        -12.071630758153216
      ],
      [
        "ĠdbÃ¡",
        -12.0719494206209
      ],
      [
        "AXBXB",
        -12.073119712676059
      ],
      [
        "Ġstoup",
        -12.073562065397638
      ],
      [
        "Ġzu",
        -12.07397432857594
      ],
      [
        "ĠhleÄ",
        -12.074595277400478
      ],
      [
        "Ġvpu",
        -12.07498306263141
      ],
      [
        "ĠkmÃŃ",
        -12.075220188980817
      ],
      [
        "chmu",
        -12.075414958489445
      ],
      [
        "Ġshni",
        -12.075603410019827
      ],
      [
        "jej",
        -12.07616366871357
      ],
      [
        "Ġsply",
        -12.076947958121858
      ],
      [
        "ĠstlÃ½",
        -12.078747628102974
      ],
      [
        "ĠdÃŃÅ",
        -12.079162190728283
      ],
      [
        "coÅ¾",
        -12.080756899752158
      ],
      [
        "ĠdÃ©Å¡",
        -12.081044555965805
      ],
      [
        "mno",
        -12.082011955502358
      ],
      [
        "Å¡em",
        -12.083827058106921
      ],
      [
        "ĠÅ¥al",
        -12.08522147609392
      ],
      [
        "Ġvtis",
        -12.085515478320708
      ],
      [
        "ĠzraÄ",
        -12.085806222477302
      ],
      [
        "Ġzkad",
        -12.08718327259559
      ],
      [
        "ĠvhouÅ¡",
        -12.088281463335628
      ],
      [
        "ve",
        -12.089716402319123
      ],
      [
        "ĠvsÃ¡",
        -12.09125506760466
      ],
      [
        "ĠlÃ³",
        -12.091400292023554
      ],
      [
        "fa",
        -12.09320616496289
      ],
      [
        "zchÃ¡",
        -12.094172615745894
      ],
      [
        "Ġlis",
        -12.0948225763346
      ],
      [
        "Ġtli",
        -12.095103830124572
      ],
      [
        "tÅĻpy",
        -12.095516990032099
      ],
      [
        "ĠstlÃ©",
        -12.095710765851967
      ],
      [
        "ĠkprÃ¡",
        -12.095885498649904
      ],
      [
        "ĠksmÃŃ",
        -12.095951743537062
      ],
      [
        "vat",
        -12.098407400450927
      ],
      [
        "Ġzji",
        -12.098483201087902
      ],
      [
        "Ġskvo",
        -12.098892091492793
      ],
      [
        "vzdu",
        -12.100821772428917
      ],
      [
        "tom",
        -12.101029459930547
      ],
      [
        "Ġzb",
        -12.101324772865745
      ],
      [
        "Å¡ko",
        -12.101469829395988
      ],
      [
        "Ġzhla",
        -12.101847913643496
      ],
      [
        "Ġfo",
        -12.103318251062445
      ],
      [
        "Ġmor",
        -12.104439787009103
      ],
      [
        "mnou",
        -12.1049552167941
      ],
      [
        "Ġspas",
        -12.105049900458328
      ],
      [
        "Ġvkle",
        -12.10716124282935
      ],
      [
        "vzÃ¡",
        -12.108913257040257
      ],
      [
        "Ġshr",
        -12.109682361420559
      ],
      [
        "Ġvdla",
        -12.109824614523081
      ],
      [
        "ply",
        -12.112391872334648
      ],
      [
        "vraÅ¾",
        -12.11440657860754
      ],
      [
        "ĠfÅ¯",
        -12.115386560436022
      ],
      [
        "ÅĪÃ¡",
        -12.11574318958795
      ],
      [
        "Ġchru",
        -12.116367399149166
      ],
      [
        "ĠÅ¡ti",
        -12.119177544561957
      ],
      [
        "chce",
        -12.120974930608519
      ],
      [
        "Ġsnech",
        -12.121172446333414
      ],
      [
        "ÄįÃ¡",
        -12.12198350290026
      ],
      [
        "pru",
        -12.123093613442393
      ],
      [
        "Ġnek",
        -12.126184806471784
      ],
      [
        "Ġtles",
        -12.127392990342905
      ],
      [
        "Ġstras",
        -12.127943551534612
      ],
      [
        "hlo",
        -12.12797558207829
      ],
      [
        "krou",
        -12.129556369281861
      ],
      [
        "Ġklek",
        -12.131589189911557
      ],
      [
        "hrou",
        -12.13178631452124
      ],
      [
        "ĠsmrÅ",
        -12.132524154925054
      ],
      [
        "ĠkmÄĽ",
        -12.132705882975294
      ],
      [
        "dlÃ©",
        -12.133729424396726
      ],
      [
        "tÄĽm",
        -12.13471858623668
      ],
      [
        "ĠvsÃŃÅ",
        -12.135396375294725
      ],
      [
        "ĠÅ¾iÅ",
        -12.136966054307834
      ],
      [
        "ĠspÅĻe",
        -12.13706345251107
      ],
      [
        "ĠflÃŃ",
        -12.137379518065181
      ],
      [
        "ĠkdÃŃ",
        -12.138278402005723
      ],
      [
        "kr",
        -12.138624382031797
      ],
      [
        "Ġgro",
        -12.13970586870748
      ],
      [
        "ĠÅ¡ve",
        -12.140454599630814
      ],
      [
        "Ġdve",
        -12.141217632897852
      ],
      [
        "ĠvspÃ¡",
        -12.141546200429095
      ],
      [
        "Ġvtma",
        -12.141669216393069
      ],
      [
        "Ġjil",
        -12.141706844802002
      ],
      [
        "zve",
        -12.14182260825081
      ],
      [
        "ĠvsvÅ¯",
        -12.144293357081153
      ],
      [
        "nil",
        -12.14616450753105
      ],
      [
        "ĠchÃ¡c",
        -12.146258806645136
      ],
      [
        "hu",
        -12.147870971870647
      ],
      [
        "pÄĽl",
        -12.148070710554366
      ],
      [
        "ĠdlaÅ",
        -12.149004219087388
      ],
      [
        "prÅ¯",
        -12.150613093372538
      ],
      [
        "Ġskli",
        -12.153168100513152
      ],
      [
        "Ġsvla",
        -12.153673100890337
      ],
      [
        "chtÄĽl",
        -12.15458743696933
      ],
      [
        "ĠzvÅ¯",
        -12.155310432920999
      ],
      [
        "ĠrvÃ¡",
        -12.156315744362384
      ],
      [
        "Ġmem",
        -12.158713870952681
      ],
      [
        "dÄĽj",
        -12.158936607490562
      ],
      [
        "dlÃ½",
        -12.160005354508586
      ],
      [
        "Ġsic",
        -12.160370506753097
      ],
      [
        "dli",
        -12.161211188044657
      ],
      [
        "jÃŃch",
        -12.161453712751687
      ],
      [
        "dlÃŃ",
        -12.162065876123162
      ],
      [
        "stÃ½",
        -12.162166463742192
      ],
      [
        "Ġger",
        -12.162624517516356
      ],
      [
        "Ġzar",
        -12.165630614030682
      ],
      [
        "Ġkhro",
        -12.167553534746421
      ],
      [
        "Ġbry",
        -12.167976923898419
      ],
      [
        "blÃ¡",
        -12.169325482273532
      ],
      [
        "ĠkslÃ¡",
        -12.16968364145495
      ],
      [
        "Ġpe",
        -12.170085865614345
      ],
      [
        "Ġbri",
        -12.17276483891746
      ],
      [
        "nez",
        -12.174316645033823
      ],
      [
        "Ġchech",
        -12.17444877922529
      ],
      [
        "ĠvtÃŃ",
        -12.175529059090351
      ],
      [
        "Ġfon",
        -12.175794168187743
      ],
      [
        "ĠzÅ¾ÃŃ",
        -12.17880363117813
      ],
      [
        "jim",
        -12.178828907166356
      ],
      [
        "ĠdÃ",
        -12.180706092300161
      ],
      [
        "XABA",
        -12.181653891743812
      ],
      [
        "Ġkvla",
        -12.183188755428713
      ],
      [
        "ĠzkÅĻi",
        -12.184083364842078
      ],
      [
        "ĠÅ¾ou",
        -12.184507770635554
      ],
      [
        "Ġzi",
        -12.185289290536637
      ],
      [
        "Ġspat",
        -12.185365091532823
      ],
      [
        "rÄį",
        -12.185802594489422
      ],
      [
        "Ã¡n",
        -12.187279008778802
      ],
      [
        "Ġvzpja",
        -12.189431642192599
      ],
      [
        "Ġvchla",
        -12.189472476825593
      ],
      [
        "Ġvic",
        -12.18959102872957
      ],
      [
        "Ġskryl",
        -12.190157784320448
      ],
      [
        "Ġr",
        -12.190332364485258
      ],
      [
        "Ġvpar",
        -12.195844371949594
      ],
      [
        "ĠÅ¡al",
        -12.197949155373164
      ],
      [
        "snÅ¯",
        -12.198037672420966
      ],
      [
        "ĠshÃ½",
        -12.19818626425344
      ],
      [
        "vÄĽc",
        -12.19909706949747
      ],
      [
        "star",
        -12.201465980833312
      ],
      [
        "Ġver",
        -12.201493971692049
      ],
      [
        "rÃ¡l",
        -12.202361376121253
      ],
      [
        "sl",
        -12.202491632031153
      ],
      [
        "buj",
        -12.203096867238001
      ],
      [
        "ĠvzhlÃ©",
        -12.203235061754174
      ],
      [
        "ĠÅ¾ra",
        -12.20328108185511
      ],
      [
        "hnÃŃz",
        -12.205822919050942
      ],
      [
        "sÃ½",
        -12.206918701735777
      ],
      [
        "ĠvyÅĻ",
        -12.20830957214563
      ],
      [
        "Ġzy",
        -12.208803660015285
      ],
      [
        "Ġkras",
        -12.208827577855399
      ],
      [
        "ĠmÅ¡i",
        -12.20958198340973
      ],
      [
        "Ġbur",
        -12.210489448033258
      ],
      [
        "pl",
        -12.211049183039785
      ],
      [
        "ĠÅ¾va",
        -12.211954605863681
      ],
      [
        "Ġpur",
        -12.215596296421705
      ],
      [
        "blÃŃÅ",
        -12.216427143265726
      ],
      [
        "hy",
        -12.217337196245692
      ],
      [
        "Ġhbi",
        -12.218362551416824
      ],
      [
        "ĠÅ¾ol",
        -12.218510537409907
      ],
      [
        "Ġvol",
        -12.224345319920175
      ],
      [
        "brou",
        -12.22503533250217
      ],
      [
        "ĠdÄĽd",
        -12.22746227451896
      ],
      [
        "Ġvnez",
        -12.227895713743447
      ],
      [
        "iÅ¡",
        -12.22876882095802
      ],
      [
        "chra",
        -12.229691942134709
      ],
      [
        "ĠjlÃŃ",
        -12.23037130762098
      ],
      [
        "ĠrtÃŃ",
        -12.230494157430535
      ],
      [
        "ÅĻiÅ¡",
        -12.230970706546554
      ],
      [
        "Ġsnou",
        -12.231380424961728
      ],
      [
        "ĠtrÃ©",
        -12.232762624785266
      ],
      [
        "Ġvstra",
        -12.232891647926305
      ],
      [
        "Ġvsl",
        -12.233357952598682
      ],
      [
        "mut",
        -12.233711715128848
      ],
      [
        "ÅĪou",
        -12.233804065886542
      ],
      [
        "ĠtÅĻti",
        -12.234463832420785
      ],
      [
        "led",
        -12.23562572583421
      ],
      [
        "vpo",
        -12.236600882888855
      ],
      [
        "Ġsroz",
        -12.238316403173247
      ],
      [
        "pout",
        -12.240381484312959
      ],
      [
        "ĠtmÃŃ",
        -12.240824153528507
      ],
      [
        "Å¥a",
        -12.24188360846387
      ],
      [
        "mne",
        -12.242368823664648
      ],
      [
        "Ġhej",
        -12.243210795690988
      ],
      [
        "Ġzbou",
        -12.24512442871367
      ],
      [
        "Ġdec",
        -12.247863780433164
      ],
      [
        "ĠkÅ¡ti",
        -12.248033345046794
      ],
      [
        "ĠÅ¡kr",
        -12.24840425684343
      ],
      [
        "ĠdÅ¾bÃ¡",
        -12.248455686983595
      ],
      [
        "ĠstvÃ½",
        -12.251423082169715
      ],
      [
        "skrÃ¡",
        -12.251478130417375
      ],
      [
        "zrÃ¡",
        -12.252038425336867
      ],
      [
        "Ġvce",
        -12.252673990793705
      ],
      [
        "ĠrdÄĽ",
        -12.253635212126012
      ],
      [
        "AAAB",
        -12.254456589844981
      ],
      [
        "las",
        -12.255331939466915
      ],
      [
        "ĠchaÅ",
        -12.25680016376229
      ],
      [
        "kam",
        -12.257427136364479
      ],
      [
        "Ġcos",
        -12.257653796750233
      ],
      [
        "Ġnit",
        -12.258792921991843
      ],
      [
        "Ġcour",
        -12.259156098549937
      ],
      [
        "Ġfau",
        -12.259653227031578
      ],
      [
        "ĠspouÅ¡",
        -12.260278855809155
      ],
      [
        "Ġglo",
        -12.260687400716993
      ],
      [
        "Ġzti",
        -12.260873189959305
      ],
      [
        "pros",
        -12.262131677136988
      ],
      [
        "vzhÅ¯",
        -12.263063855802793
      ],
      [
        "Ġvod",
        -12.26488488260441
      ],
      [
        "stÅĻÃŃc",
        -12.265191719489003
      ],
      [
        "Ġfu",
        -12.265892489424807
      ],
      [
        "ĠÅ¡pÃŃ",
        -12.266695944842937
      ],
      [
        "Ġvka",
        -12.26902380225122
      ],
      [
        "Ġmhou",
        -12.2694255290509
      ],
      [
        "strÃ½",
        -12.270586688678806
      ],
      [
        "ĠvhrÅ¯",
        -12.27181791081951
      ],
      [
        "toÅ¾",
        -12.272235233198867
      ],
      [
        "Ġkt",
        -12.273294791072495
      ],
      [
        "ÃŃc",
        -12.275051818451555
      ],
      [
        "Ġml",
        -12.275219736853181
      ],
      [
        "ĠÄįou",
        -12.276052876105766
      ],
      [
        "Ġzroz",
        -12.280576041109047
      ],
      [
        "ĠsliÄ",
        -12.282191490696288
      ],
      [
        "Ã¡l",
        -12.282450642297793
      ],
      [
        "dÄĽc",
        -12.283949745019099
      ],
      [
        "Ġvzda",
        -12.285440780846738
      ],
      [
        "trou",
        -12.285458585217743
      ],
      [
        "Ġtaj",
        -12.285907451574193
      ],
      [
        "Ġzm",
        -12.286232133551996
      ],
      [
        "lÃŃp",
        -12.287409278174422
      ],
      [
        "Ġspu",
        -12.290472059045385
      ],
      [
        "ĠvhnÄĽ",
        -12.290487932007496
      ],
      [
        "ĠkÄįi",
        -12.290564634373935
      ],
      [
        "Ġzlil",
        -12.292220555007953
      ],
      [
        "dvo",
        -12.292707632326751
      ],
      [
        "Ġhry",
        -12.293214299330543
      ],
      [
        "ĠkrÃ©",
        -12.294030715893536
      ],
      [
        "jsi",
        -12.295727304262401
      ],
      [
        "ÅĻÅ¯",
        -12.297071203126048
      ],
      [
        "Ġvbu",
        -12.29905045542749
      ],
      [
        "Å¡Ã¡",
        -12.299433523169025
      ],
      [
        "ĠskrÃ½Å",
        -12.299568141624206
      ],
      [
        "ÃŃk",
        -12.30065068792237
      ],
      [
        "sil",
        -12.30084051090099
      ],
      [
        "AXXA",
        -12.302603668668805
      ],
      [
        "dil",
        -12.303189205440244
      ],
      [
        "ÅĪu",
        -12.306646073469548
      ],
      [
        "Ġsmlou",
        -12.307211932993505
      ],
      [
        "ĠtkvÃŃ",
        -12.30832527190795
      ],
      [
        "Ġzmla",
        -12.308842849526542
      ],
      [
        "Ġstkvo",
        -12.308866855785352
      ],
      [
        "vÄĽÅ¡",
        -12.311810171321529
      ],
      [
        "knou",
        -12.312127632395555
      ],
      [
        "Ġsbra",
        -12.312324168270276
      ],
      [
        "ĠhÅ¯Å",
        -12.313820090243778
      ],
      [
        "stÃ¡l",
        -12.314026829367226
      ],
      [
        "Ġleh",
        -12.314802512781712
      ],
      [
        "Ġvrhl",
        -12.315191274068567
      ],
      [
        "vlÃŃ",
        -12.318671720588162
      ],
      [
        "ABCA",
        -12.320327505859304
      ],
      [
        "Å¡lÃ©",
        -12.320759227176428
      ],
      [
        "ĠchÅĻÃŃ",
        -12.320843064206874
      ],
      [
        "boj",
        -12.320879352528344
      ],
      [
        "Ġvtou",
        -12.322979782430775
      ],
      [
        "Ġpli",
        -12.322999597834862
      ],
      [
        "chva",
        -12.324833469436687
      ],
      [
        "ĠpÄĽs",
        -12.32486263468591
      ],
      [
        "ĠblÃ½",
        -12.325737906358153
      ],
      [
        "vÅ¾dyÅ¥",
        -12.32647131375913
      ],
      [
        "Äįen",
        -12.327297551509545
      ],
      [
        "bil",
        -12.32885490792758
      ],
      [
        "Å¡ÃŃc",
        -12.329300294834404
      ],
      [
        "houÅ¡",
        -12.32931833053929
      ],
      [
        "nÃ¡c",
        -12.329501748646022
      ],
      [
        "il",
        -12.329533665256156
      ],
      [
        "Ġvtu",
        -12.331411712209889
      ],
      [
        "ĠÅ¥o",
        -12.333100742761236
      ],
      [
        "Ġkrej",
        -12.333293108329084
      ],
      [
        "Ġvzp",
        -12.335686413176077
      ],
      [
        "Ġcou",
        -12.337326322469186
      ],
      [
        "chÃ©",
        -12.338657231284131
      ],
      [
        "ĠzkvÄĽ",
        -12.33875809431849
      ],
      [
        "mat",
        -12.34005115376485
      ],
      [
        "los",
        -12.340893777609569
      ],
      [
        "ĠÅ¡ou",
        -12.341350100848924
      ],
      [
        "vzte",
        -12.341696307466734
      ],
      [
        "Ġdin",
        -12.343135194752865
      ],
      [
        "ĠzÅ¡e",
        -12.343878397461324
      ],
      [
        "tla",
        -12.344055296166571
      ],
      [
        "Äįty",
        -12.345670915326977
      ],
      [
        "Ġgr",
        -12.349879167244756
      ],
      [
        "leÅ¡",
        -12.350242716759283
      ],
      [
        "ĠschÅ¯",
        -12.353220775144507
      ],
      [
        "ze",
        -12.353402331202373
      ],
      [
        "mo",
        -12.353486860694943
      ],
      [
        "ĠctnÃ½",
        -12.353517146414614
      ],
      [
        "skry",
        -12.355630337668696
      ],
      [
        "ĠÅ¡pe",
        -12.355752686042987
      ],
      [
        "Ġrvou",
        -12.356651613734137
      ],
      [
        "Ġhnul",
        -12.357906041838795
      ],
      [
        "ĠÄįÃŃc",
        -12.359470250084218
      ],
      [
        "ĠÅĻve",
        -12.359936155944215
      ],
      [
        "ĠzdÅĻÃŃ",
        -12.360023911437363
      ],
      [
        "Ġsmi",
        -12.361524372133452
      ],
      [
        "ĠÅ¾es",
        -12.361801115234282
      ],
      [
        "Ġkbra",
        -12.362342122264597
      ],
      [
        "ha",
        -12.362722440670304
      ],
      [
        "zmÄĽ",
        -12.363830975944166
      ],
      [
        "vrou",
        -12.364718603419423
      ],
      [
        "ĠvlÃŃc",
        -12.36552770082628
      ],
      [
        "ĠsfÃ©",
        -12.366262966233242
      ],
      [
        "ÄıÃ¡",
        -12.366732545399241
      ],
      [
        "pÅĻÃŃs",
        -12.367355519346678
      ],
      [
        "vzne",
        -12.368327025018576
      ],
      [
        "Å¾iv",
        -12.368355936618165
      ],
      [
        "ĠvmÃ¡",
        -12.368523183483429
      ],
      [
        "ĠÅĻin",
        -12.36904205713055
      ],
      [
        "ĠkbÅĻe",
        -12.37205485405277
      ],
      [
        "chlu",
        -12.372769138811611
      ],
      [
        "ĠvdlaÅ",
        -12.373480304328623
      ],
      [
        "Ġvzdal",
        -12.373491817181046
      ],
      [
        "H",
        -12.374585199647978
      ],
      [
        "XAXAB",
        -12.377422454755745
      ],
      [
        "vdÃ¡",
        -12.37790097065328
      ],
      [
        "ĠklÃ¡s",
        -12.37838003533841
      ],
      [
        "ĠstmÃŃ",
        -12.37940857889103
      ],
      [
        "ĠleÅ¡",
        -12.37970086802507
      ],
      [
        "tÅĻeÅ¡",
        -12.380190483791822
      ],
      [
        "skrÃ½",
        -12.380548190805584
      ],
      [
        "Ġkvi",
        -12.381420757525628
      ],
      [
        "ĠÅĻkou",
        -12.381709435033146
      ],
      [
        "Ġxi",
        -12.382321289024041
      ],
      [
        "brÃ©",
        -12.382705715187038
      ],
      [
        "zÃ½",
        -12.383178284234328
      ],
      [
        "ĠvÅ¡tÄĽ",
        -12.383654016984664
      ],
      [
        "Ġsme",
        -12.38412092798477
      ],
      [
        "Ġvsko",
        -12.384430002010326
      ],
      [
        "zboÅ",
        -12.385944024873817
      ],
      [
        "ĠshlÃ©",
        -12.386518630318967
      ],
      [
        "ĠkspÃ¡",
        -12.38675201952755
      ],
      [
        "kÅĻes",
        -12.387685809329351
      ],
      [
        "Ġvlou",
        -12.388918089363932
      ],
      [
        "AABA",
        -12.393020328949506
      ],
      [
        "ĠÅ¡ej",
        -12.393146320617415
      ],
      [
        "Ġpos",
        -12.393312752601997
      ],
      [
        "Ġvst",
        -12.393515198663096
      ],
      [
        "ĠfrÃ¡",
        -12.39366473590615
      ],
      [
        "Ġhar",
        -12.394536247417822
      ],
      [
        "ĠbÄĽl",
        -12.394801146758724
      ],
      [
        "out",
        -12.395686535853244
      ],
      [
        "ĠÅ¾dÃ¡",
        -12.396570362196588
      ],
      [
        "Ġtis",
        -12.400180196657043
      ],
      [
        "hlÃ©d",
        -12.400833993636496
      ],
      [
        "Ġvja",
        -12.40086189980564
      ],
      [
        "Ġvec",
        -12.401161194690346
      ],
      [
        "Å¡lech",
        -12.40219992477189
      ],
      [
        "nnÃ©",
        -12.402225555355155
      ],
      [
        "ĠhÅĻi",
        -12.403540658415498
      ],
      [
        "Ġmr",
        -12.404570636533018
      ],
      [
        "Ġfr",
        -12.405460984684389
      ],
      [
        "smÃŃc",
        -12.406077933961821
      ],
      [
        "ĠpÅ¡e",
        -12.407482221804576
      ],
      [
        "tva",
        -12.407540794920031
      ],
      [
        "Ġstrej",
        -12.40864125276194
      ],
      [
        "Å¡en",
        -12.409395698876015
      ],
      [
        "ĠzÃ¡c",
        -12.411825768313435
      ],
      [
        "ĠkÅĻ",
        -12.413483171989686
      ],
      [
        "Ġvdru",
        -12.415680553114534
      ],
      [
        "ĠvÃ©s",
        -12.415863537636639
      ],
      [
        "zvÃŃ",
        -12.41733023465727
      ],
      [
        "Å¡af",
        -12.420380758374744
      ],
      [
        "vzdo",
        -12.42201963971764
      ],
      [
        "hÅĻÃŃÅ¡",
        -12.422378133173506
      ],
      [
        "Ġstre",
        -12.422948107114749
      ],
      [
        "tmÄĽ",
        -12.4241787698035
      ],
      [
        "ĠzkvÃ©",
        -12.429297639775964
      ],
      [
        "Ġsro",
        -12.431435618176142
      ],
      [
        "ĠkvÃ©s",
        -12.432859048809602
      ],
      [
        "sklo",
        -12.434202187463239
      ],
      [
        "Ġtroj",
        -12.434320408758753
      ],
      [
        "ĠshrÅ¯",
        -12.435978463767562
      ],
      [
        "tu",
        -12.436253025008238
      ],
      [
        "Ġkno",
        -12.436468062082971
      ],
      [
        "hli",
        -12.437683852759559
      ],
      [
        "vnÄĽm",
        -12.441536387890531
      ],
      [
        "ĠÅ¡lel",
        -12.443766740691638
      ],
      [
        "Ġkso",
        -12.444068045104562
      ],
      [
        "Ġtv",
        -12.444544471824365
      ],
      [
        "Ġschla",
        -12.445620047518194
      ],
      [
        "Ġstit",
        -12.44591699102545
      ],
      [
        "plo",
        -12.447898414439003
      ],
      [
        "chlÃ©",
        -12.448338294770227
      ],
      [
        "br",
        -12.44920169441929
      ],
      [
        "Ġschy",
        -12.451584737761245
      ],
      [
        "CC",
        -12.45492395035118
      ],
      [
        "Ġhnou",
        -12.456877353761879
      ],
      [
        "Ġzhra",
        -12.457224920509343
      ],
      [
        "tec",
        -12.457263970069523
      ],
      [
        "ĠtÃ",
        -12.45744027558382
      ],
      [
        "Ġhouf",
        -12.460847695139691
      ],
      [
        "Ġlu",
        -12.462276661479965
      ],
      [
        "Ġxe",
        -12.463467765657725
      ],
      [
        "Ġhviz",
        -12.46462887288343
      ],
      [
        "bouÅ",
        -12.465194913772969
      ],
      [
        "ĠblÅ¯",
        -12.46608084365856
      ],
      [
        "Ġfle",
        -12.466256846522588
      ],
      [
        "prac",
        -12.46627938163477
      ],
      [
        "Ġzkle",
        -12.468119689581506
      ],
      [
        "Ġvchu",
        -12.468659234978059
      ],
      [
        "Ġknu",
        -12.4693527758415
      ],
      [
        "Ġvyh",
        -12.470589266816145
      ],
      [
        "Ġchar",
        -12.472159677549541
      ],
      [
        "Ġvu",
        -12.475294458513737
      ],
      [
        "Ġdles",
        -12.476859285718087
      ],
      [
        "bor",
        -12.477533971479616
      ],
      [
        "Ġzkru",
        -12.47812540774093
      ],
      [
        "Ġgar",
        -12.479236806944703
      ],
      [
        "Ġdral",
        -12.480405987698212
      ],
      [
        "per",
        -12.482360156197856
      ],
      [
        "zÅĻe",
        -12.484959675196272
      ],
      [
        "krÃ½",
        -12.486804870767472
      ],
      [
        "AABX",
        -12.489028663662818
      ],
      [
        "Ġvej",
        -12.492552570517486
      ],
      [
        "dÅĻe",
        -12.493123578946891
      ],
      [
        "Å¡pa",
        -12.493296040914657
      ],
      [
        "blÃ½s",
        -12.49334835129023
      ],
      [
        "zdra",
        -12.493551013638637
      ],
      [
        "Å¾lu",
        -12.49448564654512
      ],
      [
        "snech",
        -12.494669117223628
      ],
      [
        "zna",
        -12.495904697283063
      ],
      [
        "ÄĽt",
        -12.496008033066667
      ],
      [
        "AABCB",
        -12.49708066344882
      ],
      [
        "ĠktÄĽ",
        -12.499493666713537
      ],
      [
        "vzde",
        -12.500839802406368
      ],
      [
        "ĠvyÅ",
        -12.501335613348662
      ],
      [
        "ĠkÅ¯Å",
        -12.501675411114089
      ],
      [
        "ztrÃ¡",
        -12.502000404412055
      ],
      [
        "Ġder",
        -12.503332484169825
      ],
      [
        "heÅĪ",
        -12.503590326933942
      ],
      [
        "Ġzkrou",
        -12.50409611674053
      ],
      [
        "bÅĻÃŃ",
        -12.50516648037829
      ],
      [
        "ĠkÅĻÃ¡",
        -12.506885835755988
      ],
      [
        "ctnos",
        -12.508287914327651
      ],
      [
        "ĠstmÄĽ",
        -12.509320841254125
      ],
      [
        "mraÄ",
        -12.510849048934872
      ],
      [
        "Ġvslo",
        -12.512842832919219
      ],
      [
        "dnÅ¯",
        -12.513980756956212
      ],
      [
        "ĠschrÃ¡",
        -12.514184172174902
      ],
      [
        "Ġvska",
        -12.514230025968756
      ],
      [
        "vÄĽÅ",
        -12.514740083174729
      ],
      [
        "Ġzkro",
        -12.515705240851771
      ],
      [
        "ÃŃr",
        -12.518021307628553
      ],
      [
        "lÃ¡n",
        -12.518904346512802
      ],
      [
        "bÅ¯",
        -12.518969889024426
      ],
      [
        "Ġzbi",
        -12.521499157118512
      ],
      [
        "ty",
        -12.521943551857737
      ],
      [
        "Ġkmo",
        -12.522186991094772
      ],
      [
        "Ġzen",
        -12.522309618476694
      ],
      [
        "braz",
        -12.52286870061247
      ],
      [
        "Ġrej",
        -12.523115809603354
      ],
      [
        "Ġvstro",
        -12.526240549959095
      ],
      [
        "ĠvklÃ¡",
        -12.528082771391908
      ],
      [
        "pÅĻij",
        -12.52842365731811
      ],
      [
        "ĠradÅ",
        -12.528574724387099
      ],
      [
        "sku",
        -12.534169235173167
      ],
      [
        "trÃ½",
        -12.534355294051798
      ],
      [
        "Ġvzka",
        -12.53625368032743
      ],
      [
        "ĠÅ¡tve",
        -12.536535088677532
      ],
      [
        "Ġgal",
        -12.53686421019474
      ],
      [
        "ĠÄįt",
        -12.53742059626186
      ],
      [
        "ĠspÅĻÃŃ",
        -12.5376549607515
      ],
      [
        "al",
        -12.537690364034304
      ],
      [
        "ĠvcÃŃ",
        -12.537809705895883
      ],
      [
        "Ġtal",
        -12.537836420723083
      ],
      [
        "Ġksr",
        -12.537909521100712
      ],
      [
        "hÃ½m",
        -12.540851518731767
      ],
      [
        "Ġchma",
        -12.54192566356497
      ],
      [
        "ĠcÃ¡",
        -12.54193913809145
      ],
      [
        "Ġvsle",
        -12.542645083120885
      ],
      [
        "ĠvnÄĽÅ¾",
        -12.543988414947169
      ],
      [
        "brÃ½",
        -12.54415033647432
      ],
      [
        "ples",
        -12.544233442032551
      ],
      [
        "Äıa",
        -12.545430632733293
      ],
      [
        "zvlÃ¡Å¡",
        -12.545548806269412
      ],
      [
        "Ġkroz",
        -12.546781433070944
      ],
      [
        "ĠchrÅ¯",
        -12.547488185298867
      ],
      [
        "ĠÅ¡k",
        -12.548411044966244
      ],
      [
        "ĠdoÅ¡",
        -12.548736985219765
      ],
      [
        "Ġsnes",
        -12.548789455326578
      ],
      [
        "ĠsÃ©",
        -12.549397058588664
      ],
      [
        "Ġspros",
        -12.554202158243976
      ],
      [
        "Ġzmno",
        -12.555030944971723
      ],
      [
        "ĠÅĪou",
        -12.557440001457904
      ],
      [
        "dro",
        -12.557975195772336
      ],
      [
        "ĠzÅĻÃŃÅ",
        -12.55816537676057
      ],
      [
        "ĠÅ¡o",
        -12.55819216812931
      ],
      [
        "zdo",
        -12.559105569875854
      ],
      [
        "ĠÅ¡Å¥Ã¡",
        -12.561360213536386
      ],
      [
        "XAAB",
        -12.561910090782007
      ],
      [
        "stru",
        -12.562732664413652
      ],
      [
        "AXABC",
        -12.56274499701332
      ],
      [
        "svi",
        -12.56343032114674
      ],
      [
        "ĠchÅĻa",
        -12.564070765251811
      ],
      [
        "de",
        -12.564881098876514
      ],
      [
        "Ġztvr",
        -12.565558173566812
      ],
      [
        "chvi",
        -12.56680703348
      ],
      [
        "vtÃ©",
        -12.567221448104302
      ],
      [
        "Ġschva",
        -12.567990474297456
      ],
      [
        "Ġvte",
        -12.570916573765576
      ],
      [
        "ABAX",
        -12.571017852665946
      ],
      [
        "Ġvzpou",
        -12.571024076369081
      ],
      [
        "Ġzbla",
        -12.572141121747332
      ],
      [
        "Ġstve",
        -12.57243352720579
      ],
      [
        "Ġgre",
        -12.573320153588636
      ],
      [
        "ĠvblÃ¡",
        -12.573449124330756
      ],
      [
        "ĠbdÄĽl",
        -12.574795923000725
      ],
      [
        "Ġsed",
        -12.577823715192732
      ],
      [
        "ĠpÃ³",
        -12.578896853057081
      ],
      [
        "ĠksvÃ½",
        -12.579229095592442
      ],
      [
        "Ġvlek",
        -12.579601300567756
      ],
      [
        "ĠdÅĻej",
        -12.581220980666645
      ],
      [
        "ĠvprÅ¯",
        -12.581613057420782
      ],
      [
        "Ġsa",
        -12.581902128944758
      ],
      [
        "stÅ¯",
        -12.582492966336822
      ],
      [
        "ÅĻeÅ¡",
        -12.58300189614409
      ],
      [
        "ĠkhvÄĽz",
        -12.585266640640153
      ],
      [
        "Ġvdech",
        -12.586029817478572
      ],
      [
        "Ã¡t",
        -12.586880541201532
      ],
      [
        "Ġhan",
        -12.587719519557083
      ],
      [
        "Ġzple",
        -12.588893116388629
      ],
      [
        "ztra",
        -12.589060209792972
      ],
      [
        "ĠÅ¥ou",
        -12.589119818042667
      ],
      [
        "Ġsnich",
        -12.590773862523678
      ],
      [
        "ĠlÅ¾ÃŃ",
        -12.59084169302245
      ],
      [
        "for",
        -12.591652126809016
      ],
      [
        "Ġfej",
        -12.593257237332786
      ],
      [
        "druÅ",
        -12.594173926569914
      ],
      [
        "vem",
        -12.594451378512595
      ],
      [
        "ĠvskrÃ¡",
        -12.594470871654805
      ],
      [
        "ĠvkrÃ¡s",
        -12.595241567951152
      ],
      [
        "be",
        -12.595294270453035
      ],
      [
        "Ġvlo",
        -12.595374961832665
      ],
      [
        "Ġvt",
        -12.596679631962614
      ],
      [
        "lÃ¡m",
        -12.59677864395823
      ],
      [
        "ĠÅĻvou",
        -12.60019146451988
      ],
      [
        "ÃŃst",
        -12.603132197395983
      ],
      [
        "ĠÄįli",
        -12.604851316729432
      ],
      [
        "Å¾er",
        -12.606756830866143
      ],
      [
        "ĠcvÃ¡",
        -12.607024954121389
      ],
      [
        "ztÃ½",
        -12.607409373913878
      ],
      [
        "blan",
        -12.609696603345633
      ],
      [
        "ĠÅĻo",
        -12.609935607938887
      ],
      [
        "kol",
        -12.610395661648163
      ],
      [
        "ABCDD",
        -12.613753644564301
      ],
      [
        "ĠspÄĽj",
        -12.614235185529692
      ],
      [
        "Ġsstou",
        -12.617053042148875
      ],
      [
        "ĠÅ¡eÅ",
        -12.618371377753952
      ],
      [
        "bar",
        -12.618786438439779
      ],
      [
        "ĠscÃ©",
        -12.619025012612285
      ],
      [
        "plÃ©",
        -12.621389145251758
      ],
      [
        "plÃ¡Å¡",
        -12.621614799963172
      ],
      [
        "Ġzml",
        -12.621744571106966
      ],
      [
        "men",
        -12.621987300332925
      ],
      [
        "vor",
        -12.622849473902372
      ],
      [
        "trys",
        -12.623013478299443
      ],
      [
        "ĠprÅ¡",
        -12.623444911946265
      ],
      [
        "ĠkÅ¾e",
        -12.626288006734498
      ],
      [
        "Å¥as",
        -12.62824021865553
      ],
      [
        "ĠvrÃ½",
        -12.628240576177259
      ],
      [
        "tvr",
        -12.629593600231114
      ],
      [
        "Ġjme",
        -12.629799446299309
      ],
      [
        "ĠvdÃ½",
        -12.630003409020258
      ],
      [
        "zpÅ¯",
        -12.631016140891086
      ],
      [
        "ĠpsÅ¯",
        -12.63144494712618
      ],
      [
        "ctno",
        -12.631902501056668
      ],
      [
        "ĠzmlÃ¡",
        -12.632542188357931
      ],
      [
        "AAAA",
        -12.632809265700743
      ],
      [
        "ĠzhÃ¡",
        -12.63336137575735
      ],
      [
        "ĠÅ¡ar",
        -12.633564562094813
      ],
      [
        "ĠvtmÃ¡",
        -12.635081247004829
      ],
      [
        "vÅ¡u",
        -12.636762514788401
      ],
      [
        "fran",
        -12.639661379418978
      ],
      [
        "ĠÅ¡kra",
        -12.640891097189296
      ],
      [
        "ABACC",
        -12.642185806399704
      ],
      [
        "hvoz",
        -12.643088560109202
      ],
      [
        "ĠzÅ¾e",
        -12.64324126293452
      ],
      [
        "ĠflÃ©",
        -12.64324966305269
      ],
      [
        "kni",
        -12.643672595070937
      ],
      [
        "Ġvnes",
        -12.645001252970456
      ],
      [
        "ĠmÃŃÅ",
        -12.64506115137289
      ],
      [
        "zdvi",
        -12.645563490977352
      ],
      [
        "ĠÅĻu",
        -12.646324363446418
      ],
      [
        "ral",
        -12.647193745606405
      ],
      [
        "Ġkpro",
        -12.648048125759804
      ],
      [
        "ĠvspÄĽ",
        -12.648077086223326
      ],
      [
        "ĠsplÃŃ",
        -12.65020938471768
      ],
      [
        "mÅĻÃŃ",
        -12.65063403608695
      ],
      [
        "mrÅ¡",
        -12.650775228595121
      ],
      [
        "blu",
        -12.650784412001073
      ],
      [
        "ĠvmÅ¾i",
        -12.650892947001509
      ],
      [
        "ACCD",
        -12.650906072978813
      ],
      [
        "ĠhÃ¡v",
        -12.651488099065945
      ],
      [
        "Ġsny",
        -12.653546875695822
      ],
      [
        "ĠkÅĻiÅ",
        -12.654863100195165
      ],
      [
        "sud",
        -12.656218169392695
      ],
      [
        "Ġksva",
        -12.656722498154046
      ],
      [
        "Ġsra",
        -12.6579507284593
      ],
      [
        "Ġgli",
        -12.659471629814268
      ],
      [
        "voj",
        -12.660102460198196
      ],
      [
        "ĠvtÃ¡",
        -12.662423671649792
      ],
      [
        "nu",
        -12.662545603327452
      ],
      [
        "chl",
        -12.663989850201496
      ],
      [
        "ĠkpÃ¡",
        -12.66412418693965
      ],
      [
        "ĠzblÃ¡",
        -12.664426076948871
      ],
      [
        "ĠvbÅĻe",
        -12.665538190196148
      ],
      [
        "lun",
        -12.665623184211771
      ],
      [
        "Ġzo",
        -12.66683081414211
      ],
      [
        "yÅ¥",
        -12.667841376437718
      ],
      [
        "ĠvstaÅ",
        -12.668475245172845
      ],
      [
        "ĠzbÅ¯",
        -12.668743903960268
      ],
      [
        "Ġzn",
        -12.669357736461198
      ],
      [
        "Ġkbla",
        -12.671257895263164
      ],
      [
        "ĠzpÅĻe",
        -12.671598710821616
      ],
      [
        "ĠstÃ½Å",
        -12.67206116352478
      ],
      [
        "ĠvzrÅ¯s",
        -12.672262019420957
      ],
      [
        "Ġdlu",
        -12.672606976777065
      ],
      [
        "Ġlet",
        -12.673959866486557
      ],
      [
        "tek",
        -12.674494743758817
      ],
      [
        "vÃº",
        -12.675404350955723
      ],
      [
        "chr",
        -12.67577995011754
      ],
      [
        "snÃŃm",
        -12.67608265181963
      ],
      [
        "ĠmiÄį",
        -12.677906631168534
      ],
      [
        "Ġcnos",
        -12.6787285414246
      ],
      [
        "ĠmÃ",
        -12.681299408001411
      ],
      [
        "ĠzhÅ¯",
        -12.681336277515218
      ],
      [
        "Ġskl",
        -12.68221650348973
      ],
      [
        "Ġrouc",
        -12.682951228599471
      ],
      [
        "ĠÅ¡vec",
        -12.684410960179552
      ],
      [
        "Ġsmra",
        -12.685712315477293
      ],
      [
        "ĠbÅĻin",
        -12.686416437325892
      ],
      [
        "zbo",
        -12.68709217480936
      ],
      [
        "Ġblys",
        -12.68982882872368
      ],
      [
        "ĠvzkÃ¡",
        -12.691276676832775
      ],
      [
        "ĠkdÄĽ",
        -12.691418644204749
      ],
      [
        "tÃ©Å",
        -12.692393495691007
      ],
      [
        "rad",
        -12.692835601101908
      ],
      [
        "Ġcla",
        -12.693255366862012
      ],
      [
        "ĠgÃ©",
        -12.694432140242888
      ],
      [
        "Ġstrop",
        -12.69529042031464
      ],
      [
        "snÃ¡",
        -12.695582487470318
      ],
      [
        "Ġlej",
        -12.695930126316465
      ],
      [
        "Ġmsty",
        -12.69595036159894
      ],
      [
        "Ġvzr",
        -12.696851331214704
      ],
      [
        "kl",
        -12.697342152905964
      ],
      [
        "zlÃ½",
        -12.699934761083814
      ],
      [
        "ĠbrÅ¯",
        -12.700435377454776
      ],
      [
        "vel",
        -12.70068289919179
      ],
      [
        "Ġkhla",
        -12.701148786327572
      ],
      [
        "pÅ¯j",
        -12.702013271067775
      ],
      [
        "ĠbrÃ¡c",
        -12.703854497802565
      ],
      [
        "ĠsÃ½c",
        -12.70493063125463
      ],
      [
        "spra",
        -12.705921951661633
      ],
      [
        "Ġdry",
        -12.70691942432386
      ],
      [
        "plu",
        -12.707230450176283
      ],
      [
        "stec",
        -12.708172296419349
      ],
      [
        "tros",
        -12.708176586477101
      ],
      [
        "tiÅ¡",
        -12.709259446582202
      ],
      [
        "Ġso",
        -12.711228830516346
      ],
      [
        "Äįej",
        -12.712981906860616
      ],
      [
        "ABABB",
        -12.71324178002975
      ],
      [
        "dÃ¡n",
        -12.713599670596807
      ],
      [
        "ĠzhÅĻÃŃ",
        -12.713787894714075
      ],
      [
        "pal",
        -12.715613233801957
      ],
      [
        "Ġvtru",
        -12.7168262876779
      ],
      [
        "ĠplÃŃs",
        -12.718038935366925
      ],
      [
        "ABACB",
        -12.718797001686063
      ],
      [
        "fi",
        -12.718880553292625
      ],
      [
        "hÅ¯m",
        -12.719014383176669
      ],
      [
        "Ġsch",
        -12.71921863166405
      ],
      [
        "ĠpuÅ",
        -12.719753609082325
      ],
      [
        "Å¡kle",
        -12.72342130223474
      ],
      [
        "Ġfek",
        -12.724107185458168
      ],
      [
        "vrouc",
        -12.724759430854117
      ],
      [
        "zby",
        -12.725097180574213
      ],
      [
        "ĠmÃ¡c",
        -12.725319197835056
      ],
      [
        "roÄį",
        -12.727922349045242
      ],
      [
        "ĠnÃŃmÅ",
        -12.72870648930133
      ],
      [
        "ĠhÅĻ",
        -12.728928869830758
      ],
      [
        "ĠjuÅ",
        -12.729465437516378
      ],
      [
        "Ġkon",
        -12.729578661615932
      ],
      [
        "ĠkruÅ",
        -12.73092301339597
      ],
      [
        "Ġdroz",
        -12.731614305124406
      ],
      [
        "ĠsÅ¾i",
        -12.732023564462715
      ],
      [
        "Ġgyp",
        -12.733439987357535
      ],
      [
        "scho",
        -12.735561114048753
      ],
      [
        "Ġjez",
        -12.736321378956855
      ],
      [
        "stli",
        -12.736787367664855
      ],
      [
        "Ġsfin",
        -12.738414837691312
      ],
      [
        "bal",
        -12.738672810649557
      ],
      [
        "ABCAB",
        -12.739125128229873
      ],
      [
        "vzdÃ¡",
        -12.73952617160365
      ],
      [
        "ĠstÄĽj",
        -12.741631986229757
      ],
      [
        "ĠvsluÅ",
        -12.741844807165567
      ],
      [
        "Ġvmdlo",
        -12.742041407522924
      ],
      [
        "vnich",
        -12.742784348720562
      ],
      [
        "Ġkpr",
        -12.743402212990286
      ],
      [
        "Ġre",
        -12.746715834787889
      ],
      [
        "ĠÅ¡klu",
        -12.746797396722545
      ],
      [
        "Ġsdra",
        -12.747568519017229
      ],
      [
        "ĠÄįÃŃs",
        -12.74869171762152
      ],
      [
        "Ġkar",
        -12.750110058941583
      ],
      [
        "skvÄĽ",
        -12.750469809941986
      ],
      [
        "ĠvÄį",
        -12.750911523242552
      ],
      [
        "Å¾li",
        -12.751156134747777
      ],
      [
        "ÅĻÃ¡s",
        -12.751218404122781
      ],
      [
        "vist",
        -12.752567620706543
      ],
      [
        "ĠpÅĻel",
        -12.753274544495081
      ],
      [
        "mÄĽÅ",
        -12.75443802077428
      ],
      [
        "ĠlÅ¾e",
        -12.7560720434839
      ],
      [
        "Å¡il",
        -12.756778519890045
      ],
      [
        "vÅ¡ic",
        -12.757010978524555
      ],
      [
        "Ġtknu",
        -12.757205004742625
      ],
      [
        "Ġzvla",
        -12.758619731680728
      ],
      [
        "aÅ¡",
        -12.760942692937883
      ],
      [
        "ĠkÅ¡tÄĽ",
        -12.761119167136705
      ],
      [
        "ĠÄįtou",
        -12.763225469082279
      ],
      [
        "Ġvsa",
        -12.763526499654873
      ],
      [
        "Ġtle",
        -12.764606467162107
      ],
      [
        "ĠklÃ¡Å",
        -12.76571666969281
      ],
      [
        "Ġzvra",
        -12.766756264681074
      ],
      [
        "ex",
        -12.767810172126879
      ],
      [
        "ĠvmrÃ¡",
        -12.769577189915989
      ],
      [
        "Ġvbles",
        -12.770166480384697
      ],
      [
        "di",
        -12.771976551039758
      ],
      [
        "Ġvtro",
        -12.772515517879341
      ],
      [
        "ĠstÅĻ",
        -12.77268681347671
      ],
      [
        "znich",
        -12.772919777239068
      ],
      [
        "fer",
        -12.774513727932325
      ],
      [
        "pÃ©",
        -12.775017317451619
      ],
      [
        "ĠnÃ©s",
        -12.775021852480037
      ],
      [
        "Ġthe",
        -12.775340070603168
      ],
      [
        "ABBAA",
        -12.778589650964307
      ],
      [
        "pÅĻ",
        -12.77892469191876
      ],
      [
        "zbra",
        -12.779392061465995
      ],
      [
        "try",
        -12.779451978581694
      ],
      [
        "vpra",
        -12.78081903890544
      ],
      [
        "ĠstÃ",
        -12.781257470128754
      ],
      [
        "mÄĽs",
        -12.781312802270332
      ],
      [
        "ĠknÃ½",
        -12.781462773791185
      ],
      [
        "nuÅ¾",
        -12.781985281500637
      ],
      [
        "zlÃŃ",
        -12.78305319449394
      ],
      [
        "Ġzlit",
        -12.783428145267642
      ],
      [
        "ĠplÃ¡Å",
        -12.783875652941049
      ],
      [
        "Ġkdru",
        -12.78480692644233
      ],
      [
        "ĠvjÃŃ",
        -12.785220661453225
      ],
      [
        "ber",
        -12.785414292138611
      ],
      [
        "hal",
        -12.786340671502643
      ],
      [
        "ĠvtÅ¯",
        -12.786643365808526
      ],
      [
        "Ġzchla",
        -12.787491513681807
      ],
      [
        "tÃŃÅ",
        -12.788867126043353
      ],
      [
        "Ġzte",
        -12.789037283878965
      ],
      [
        "ĠnÃŃc",
        -12.78990441889127
      ],
      [
        "Ġvchva",
        -12.790067767743434
      ],
      [
        "ĠmÅĻÃŃÅ",
        -12.79108096275235
      ],
      [
        "ĠvÅĻes",
        -12.79141625872998
      ],
      [
        "zdÄĽ",
        -12.791436304632537
      ],
      [
        "ĠchÃ¡Å",
        -12.791906025391473
      ],
      [
        "dce",
        -12.793035662629237
      ],
      [
        "ĠtnÃ½",
        -12.793175869365218
      ],
      [
        "ĠkÅĪa",
        -12.79425165844244
      ],
      [
        "chci",
        -12.794705955450556
      ],
      [
        "mdlo",
        -12.795164966512292
      ],
      [
        "ĠkÃ½v",
        -12.796152740859899
      ],
      [
        "zle",
        -12.79631157699832
      ],
      [
        "ĠvstrÃ¡",
        -12.796451948809295
      ],
      [
        "ĠpouÅ",
        -12.797073246182316
      ],
      [
        "AAXBB",
        -12.797460844987771
      ],
      [
        "ĠzplÃ¡",
        -12.79942212640293
      ],
      [
        "ĠzvÅ¡e",
        -12.79945887734598
      ],
      [
        "ĠztÃ¡",
        -12.802233842138204
      ],
      [
        "Ġzpl",
        -12.802286089172078
      ],
      [
        "ĠvsmÃŃ",
        -12.802482923775283
      ],
      [
        "tÃ¡m",
        -12.807573554570165
      ],
      [
        "ÄĽk",
        -12.808741208542626
      ],
      [
        "Ġcel",
        -12.810162113082175
      ],
      [
        "ĠkouÅ",
        -12.811277936686025
      ],
      [
        "ĠtouÅ",
        -12.811678455151817
      ],
      [
        "en",
        -12.812033588631103
      ],
      [
        "Å¡lo",
        -12.812869099664635
      ],
      [
        "ÃŃt",
        -12.812963803544628
      ],
      [
        "Ġzbr",
        -12.813043893242325
      ],
      [
        "Ġmn",
        -12.813829006073611
      ],
      [
        "Ġpit",
        -12.814017073010099
      ],
      [
        "tÅĻÃŃÅ¡",
        -12.814960794688812
      ],
      [
        "let",
        -12.816880078926648
      ],
      [
        "ĠzkÅĻÃŃ",
        -12.817127979779384
      ],
      [
        "Ġjs",
        -12.818242562681228
      ],
      [
        "ĠbÄĽÅ",
        -12.818367769954737
      ],
      [
        "ĠspÅ¯",
        -12.818714666787438
      ],
      [
        "ĠpraÅ¡",
        -12.818916134678362
      ],
      [
        "Ġskrej",
        -12.81926439763973
      ],
      [
        "rej",
        -12.819323637765404
      ],
      [
        "rob",
        -12.820009585372517
      ],
      [
        "Ġkstro",
        -12.821551625466585
      ],
      [
        "Ġtl",
        -12.82288003121683
      ],
      [
        "Ġvdra",
        -12.823321514798305
      ],
      [
        "mÅ¾i",
        -12.823681580842408
      ],
      [
        "sklÃ¡",
        -12.824539614079018
      ],
      [
        "Ġklel",
        -12.824744946557153
      ],
      [
        "sten",
        -12.825390427467351
      ],
      [
        "Ġfar",
        -12.825810830233753
      ],
      [
        "Ġvdi",
        -12.827990897438028
      ],
      [
        "Ġtur",
        -12.828487622134043
      ],
      [
        "ĠmnÃŃm",
        -12.830641447963544
      ],
      [
        "zÅĻel",
        -12.831160993411473
      ],
      [
        "Ġplic",
        -12.832381191082794
      ],
      [
        "lÃ¡c",
        -12.833197346086447
      ],
      [
        "ĠzblÃŃ",
        -12.83323137901049
      ],
      [
        "ĠvhnÃŃz",
        -12.833680364460424
      ],
      [
        "Ġvble",
        -12.83793024724633
      ],
      [
        "douc",
        -12.838120109732461
      ],
      [
        "ĠzdÃ½",
        -12.838125820074424
      ],
      [
        "strÃ¡Å",
        -12.838694250641971
      ],
      [
        "svÄĽd",
        -12.83973759756407
      ],
      [
        "ĠdcÅ¯",
        -12.840660598405485
      ],
      [
        "ĠvzpÄĽ",
        -12.841924627253357
      ],
      [
        "ĠkoÅ",
        -12.842329286673532
      ],
      [
        "zro",
        -12.842691115682822
      ],
      [
        "Ġbzu",
        -12.8438333888262
      ],
      [
        "Ġzfo",
        -12.843936051886686
      ],
      [
        "kri",
        -12.844556588094171
      ],
      [
        "Ġvtak",
        -12.844998790504695
      ],
      [
        "ĠtmÃ¡",
        -12.846179714073797
      ],
      [
        "ĠÅ¡es",
        -12.850084946881383
      ],
      [
        "Ġvd",
        -12.850111255165501
      ],
      [
        "Ġchre",
        -12.850894143542988
      ],
      [
        "Ġvstr",
        -12.852005258196993
      ],
      [
        "Ġsvr",
        -12.853017958547753
      ],
      [
        "ĠvsmÄĽ",
        -12.853546646556985
      ],
      [
        "mlÃ½",
        -12.853754299878496
      ],
      [
        "nnÃŃ",
        -12.853925590014935
      ],
      [
        "skle",
        -12.854354810143818
      ],
      [
        "ĠvzpÃ",
        -12.85525394194239
      ],
      [
        "zma",
        -12.855574858609529
      ],
      [
        "fÃ¡",
        -12.857105332701469
      ],
      [
        "ma",
        -12.85736679394514
      ],
      [
        "zpÅĻÃŃ",
        -12.857417319738175
      ],
      [
        "Ġzk",
        -12.857537457825027
      ],
      [
        "ĠskÅĻou",
        -12.857850602961593
      ],
      [
        "Ġkv",
        -12.858376882572916
      ],
      [
        "vÅĻa",
        -12.859209428730587
      ],
      [
        "mÃ¡Å¡",
        -12.859873470742949
      ],
      [
        "vje",
        -12.860067741744473
      ],
      [
        "Ġpat",
        -12.863870696438955
      ],
      [
        "Ġvyj",
        -12.864691680288
      ],
      [
        "Ġslec",
        -12.865610995167762
      ],
      [
        "Ġvsi",
        -12.866053707814295
      ],
      [
        "mÄĽj",
        -12.866243235252274
      ],
      [
        "ĠÅ¡aÅ",
        -12.867273565036735
      ],
      [
        "ACAC",
        -12.867922880582714
      ],
      [
        "Ġvtrh",
        -12.868046155499954
      ],
      [
        "Ġfre",
        -12.8690573579599
      ],
      [
        "Ġstvou",
        -12.869720466571124
      ],
      [
        "Ġksta",
        -12.869872216875404
      ],
      [
        "ĠvÃºs",
        -12.870292751884808
      ],
      [
        "Ġtit",
        -12.872570021794388
      ],
      [
        "strÃ©",
        -12.874762916087516
      ],
      [
        "leh",
        -12.874905238528616
      ],
      [
        "krÅ¯",
        -12.876012091149564
      ],
      [
        "ĠjÃ",
        -12.878136047721117
      ],
      [
        "ABBX",
        -12.87848889913161
      ],
      [
        "ĠvkÅĻe",
        -12.88177656466729
      ],
      [
        "Y",
        -12.883386417140747
      ],
      [
        "Ġsu",
        -12.883406082735839
      ],
      [
        "ĠsviÅ¡",
        -12.884107160926284
      ],
      [
        "stil",
        -12.88486342589793
      ],
      [
        "Ġkhra",
        -12.885297231611997
      ],
      [
        "Ġvslou",
        -12.885684466702568
      ],
      [
        "XX",
        -12.886121652477922
      ],
      [
        "bli",
        -12.887456371093155
      ],
      [
        "nouc",
        -12.889283768714979
      ],
      [
        "ĠzÃŃc",
        -12.891532860742185
      ],
      [
        "ĠctÃŃm",
        -12.892994687602409
      ],
      [
        "stes",
        -12.89576628576047
      ],
      [
        "Ġzpe",
        -12.896779487862135
      ],
      [
        "Ġctil",
[...]
