{
  "version": "1.0",
  "truncation": null,
  "padding": null,
  "added_tokens": [
    {
      "id": 0,
      "content": "<|endoftext|>",
      "single_word": false,
      "lstrip": false,
      "rstrip": false,
      "normalized": false,
      "special": true
    }
  ],
  "normalizer": null,
  "pre_tokenizer": {
    "type": "ByteLevel",
    "add_prefix_space": false,
    "trim_offsets": true,
    "use_regex": true
  },
  "post_processor": {
    "type": "ByteLevel",
    "add_prefix_space": true,
    "trim_offsets": false,
    "use_regex": true
  },
  "decoder": {
    "type": "ByteLevel",
    "add_prefix_space": true,
    "trim_offsets": true,
    "use_regex": true
  },
  "model": {
    "type": "Unigram",
    "unk_id": 0,
    "vocab": [
      [
        "<|endoftext|>",
        0.0
      ],
      [
        "Ġ",
        -1.3874327290463455
      ],
      [
        "e",
        -3.1570537198317155
      ],
      [
        "a",
        -3.241238068198136
      ],
      [
        "o",
        -3.2601608977148118
      ],
      [
        "#",
        -3.2811622758712637
      ],
      [
        "Ċ",
        -3.3518305652868463
      ],
      [
        "1",
        -3.5839451953989645
      ],
      [
        "n",
        -3.631563689092884
      ],
      [
        "l",
        -3.6482251553667524
      ],
      [
        "t",
        -3.7119314785776485
      ],
      [
        "i",
        -3.8542871665761727
      ],
      [
        "s",
        -3.929966966151552
      ],
      [
        "u",
        -3.9419112277766573
      ],
      [
        "m",
        -3.9749922888055877
      ],
      [
        "d",
        -4.010514912566732
      ],
      [
        "k",
        -4.041506425532614
      ],
      [
        "v",
        -4.0653655655097864
      ],
      [
        "y",
        -4.27292063356191
      ],
      [
        ",",
        -4.36366504822962
      ],
      [
        "j",
        -4.493746226249462
      ],
      [
        "r",
        -4.507589273132428
      ],
      [
        "0",
        -4.654467697625009
      ],
      [
        "p",
        -4.681874748667827
      ],
      [
        "h",
        -4.741921581758939
      ],
      [
        "z",
        -4.754692848480511
      ],
      [
        "c",
        -4.828742346970879
      ],
      [
        "b",
        -4.885004622407063
      ],
      [
        "8",
        -5.020872894530074
      ],
      [
        ".",
        -5.278682412506274
      ],
      [
        "9",
        -5.890347590683026
      ],
      [
        "ĠnÃŃ",
        -5.895740537444954
      ],
      [
        "ĠÅ¾e",
        -6.096476747999144
      ],
      [
        "ĠnÄĽ",
        -6.157448548745224
      ],
      [
        "2",
        -6.189065310655659
      ],
      [
        "ĠjÃŃ",
        -6.218476998285281
      ],
      [
        "ĠnÃ©",
        -6.256866040070685
      ],
      [
        "7",
        -6.277159485479272
      ],
      [
        "6",
        -6.399021648359163
      ],
      [
        "3",
        -6.461949000531698
      ],
      [
        "Ã",
        -6.46875208682537
      ],
      [
        "ĠnÃ¡",
        -6.530365907661638
      ],
      [
        "!",
        -6.54427169926109
      ],
      [
        "¡",
        -6.550661110301718
      ],
      [
        "ĠnÃ½",
        -6.562709855245544
      ],
      [
        "Ġjak",
        -6.640432392228403
      ],
      [
        "J",
        -6.687876272601457
      ],
      [
        "ĠÅ¡e",
        -6.696697897149518
      ],
      [
        "ĠtÄĽ",
        -6.697109235910512
      ],
      [
        "ĠvÄĽ",
        -6.718456549611242
      ],
      [
        "ĠvÃ¡",
        -6.750008277095432
      ],
      [
        "ĠdÃŃ",
        -6.770912179635058
      ],
      [
        "nÃŃ",
        -6.771953095951165
      ],
      [
        "Ġsti",
        -6.779525345707425
      ],
      [
        "Ġpro",
        -6.78652576344561
      ],
      [
        "ĠdÄĽ",
        -6.838903705958252
      ],
      [
        "Ġnou",
        -6.855072935551476
      ],
      [
        "ĠtÃŃ",
        -6.858628952084128
      ],
      [
        "5",
        -6.8589045902329175
      ],
      [
        "ĠÅ¡ÃŃ",
        -6.863840660925247
      ],
      [
        "ĠmÄĽ",
        -6.880473152164631
      ],
      [
        "ĠÄįe",
        -6.9219747545620045
      ],
      [
        "Ġjsem",
        -6.927810761040277
      ],
      [
        "ĠÄįi",
        -6.935465114872709
      ],
      [
        "Ġsta",
        -6.974373163273773
      ],
      [
        "T",
        -6.980054001763582
      ],
      [
        "ĠÄįÃŃ",
        -6.9843757620415285
      ],
      [
        "ĠcÃŃ",
        -7.005544263882497
      ],
      [
        "ĠvÃŃ",
        -7.012140775564971
      ],
      [
        "ĠdÃ¡",
        -7.017791977237858
      ],
      [
        "¾",
        -7.059463301385275
      ],
      [
        "ĠÅ¾i",
        -7.07084513239888
      ],
      [
        "nÄĽ",
        -7.077721322457256
      ],
      [
        "4",
        -7.080460747315115
      ],
      [
        "ĠÅ¾ÃŃ",
        -7.084716607198837
      ],
      [
        "ĠbÄĽ",
        -7.141014533612816
      ],
      [
        "ĠstÃŃ",
        -7.152407286821264
      ],
      [
        "?",
        -7.187216683880562
      ],
      [
        "ĠmÃ¡",
        -7.205008931176325
      ],
      [
        "ĠvÃ½",
        -7.227383950723384
      ],
      [
        "ĠsvÄĽ",
        -7.2556346773411455
      ],
      [
        "ĠvÃ©",
        -7.273052206492199
      ],
      [
        "ĠÅĻe",
        -7.295148852640361
      ],
      [
        "ĠkÃ¡",
        -7.317068082347287
      ],
      [
        "ĠkdyÅ¾",
        -7.332132988374582
      ],
      [
        "ĠmÃŃ",
        -7.3587154292135235
      ],
      [
        "ĠpÅĻi",
        -7.366586966929617
      ],
      [
        "ĠvÅ¡ak",
        -7.389821642426938
      ],
      [
        "ĠÅ¡i",
        -7.411707018063419
      ],
      [
        "Ń",
        -7.440154419949426
      ],
      [
        "ĠjÃ¡",
        -7.451791352942429
      ],
      [
        "Äį",
        -7.4720267095952035
      ],
      [
        "ĠsvÃ©",
        -7.491564456586412
      ],
      [
        "ĠlÃŃ",
        -7.492132143640383
      ],
      [
        "ĠkrÃ¡",
        -7.49461937301872
      ],
      [
        "Ġkou",
        -7.500021396697912
      ],
      [
        "ĠzÃ¡",
        -7.504106217062487
      ],
      [
        "Ġpo",
        -7.513025196708822
      ],
      [
        "ĠpÅĻe",
        -7.517392542479833
      ],
      [
        "ĠkÃ©",
        -7.540176391354358
      ],
      [
        "Å",
        -7.556326265831446
      ],
      [
        "ABAB",
        -7.557972751647089
      ],
      [
        "Ġby",
        -7.566205312032276
      ],
      [
        "ĠkÅ¯",
        -7.566762978886473
      ],
      [
        "ÅĻe",
        -7.582130468154272
      ],
      [
        "Ġbyl",
        -7.583788590496615
      ],
      [
        "ĠÅĻÃŃ",
        -7.585802085974482
      ],
      [
        "Ġchu",
        -7.58895062576895
      ],
      [
        "Ġtak",
        -7.598109010479105
      ],
      [
        "ĠbÃŃ",
        -7.5997959073405
      ],
      [
        "Ġhla",
        -7.610777555928509
      ],
      [
        "ĠtÃ©",
        -7.6466567190941355
      ],
      [
        "Ġcho",
        -7.65715758841311
      ],
      [
        "vÄĽ",
        -7.663510201709812
      ],
      [
        "ÅĻÃŃ",
        -7.675422900477583
      ],
      [
        "aÅ¾",
        -7.692186666736507
      ],
      [
        "Ġpra",
        -7.698469203658032
      ],
      [
        "ĠstÃ¡",
        -7.699358096943616
      ],
      [
        "ĠlÃ©",
        -7.70946881183977
      ],
      [
        "ĠsÃŃ",
        -7.713057167803189
      ],
      [
        "rÃ¡",
        -7.71337694782407
      ],
      [
        "Ġjen",
        -7.751184382957943
      ],
      [
        "Å¾",
        -7.754789953796749
      ],
      [
        "ĠkÃ½",
        -7.7564209065682075
      ],
      [
        "ĠvÅ¡e",
        -7.766339589273416
      ],
      [
        "Ġ189",
        -7.767216171483302
      ],
      [
        "ĠhÃ¡",
        -7.769128312431395
      ],
      [
        "ĠnÃ½ch",
        -7.790231546526567
      ],
      [
        "lÃŃ",
        -7.792138013793517
      ],
      [
        "ĠtÃ¡",
        -7.807370039335224
      ],
      [
        "ĠzÃŃ",
        -7.816959923315608
      ],
      [
        "vÃŃ",
        -7.8300717452018755
      ],
      [
        "Ã½ch",
        -7.837735226030203
      ],
      [
        "ĠpÅĻÃŃ",
        -7.846674739452373
      ],
      [
        "ĠÅĻi",
        -7.848127154296078
      ],
      [
        "Ġ188",
        -7.862791094409284
      ],
      [
        "Ġhle",
        -7.868526688406808
      ],
      [
        "ĠdÃ½",
        -7.892291974451355
      ],
      [
        "Ġsto",
        -7.894945343868395
      ],
      [
        "Å¥",
        -7.89617855125846
      ],
      [
        "ĠjiÅ¾",
        -7.896536608546507
      ],
      [
        "ĠnÃ½m",
        -7.898903043470469
      ],
      [
        "ĠpÃ¡",
        -7.93134330164313
      ],
      [
        "Ġ190",
        -7.93189012882422
      ],
      [
        "ĠpÃŃ",
        -7.943653682763117
      ],
      [
        "nou",
        -7.943822626243451
      ],
      [
        "ĠpÄĽ",
        -7.947291825686127
      ],
      [
        "vÃ¡",
        -7.947747942382021
      ],
      [
        "ĠjeÅ¾",
        -7.9492339252758235
      ],
      [
        "eÄį",
        -7.949392208923586
      ],
      [
        "Ġsla",
        -7.963695882138483
      ],
      [
        "Ġje",
        -7.968087668562413
      ],
      [
        "ĠÅ¡el",
        -8.015566363075145
      ],
      [
        "ĠdÃ©",
        -8.024400375852176
      ],
      [
        "uÅ¾",
        -8.029781117019526
      ],
      [
        "nÃ©",
        -8.032362129044145
      ],
      [
        "ĠmÃ©",
        -8.034297168128356
      ],
      [
        "ĠnÃŃm",
        -8.034791510928384
      ],
      [
        "ĠdÄĽl",
        -8.043415671052283
      ],
      [
        "tÃŃ",
        -8.046695359644607
      ],
      [
        "ĠrÃ¡",
        -8.058318145385014
      ],
      [
        "Ġbou",
        -8.06326065891997
      ],
      [
        "Å¾e",
        -8.064901104221631
      ],
      [
        "Ġkdy",
        -8.066234359110194
      ],
      [
        "nÃ¡",
        -8.069834323723075
      ],
      [
        "ĠpÅĻed",
        -8.071679261238483
      ],
      [
        "ch",
        -8.080531035561524
      ],
      [
        "X",
        -8.08626763246
      ],
      [
        "Ġzra",
        -8.089137328206235
      ],
      [
        "ĠtÃ½",
        -8.09189614350615
      ],
      [
        "XXXX",
        -8.09644003988506
      ],
      [
        "tÄĽ",
        -8.11550878442816
      ],
      [
        "Ã¡ch",
        -8.130474800855465
      ],
      [
        "Ġroz",
        -8.146587447577408
      ],
      [
        "Ġcha",
        -8.149277606735096
      ],
      [
        "Ġpla",
        -8.149832003191023
      ],
      [
        "ĠÄįer",
        -8.155882602303087
      ],
      [
        "Ġbra",
        -8.159163611836183
      ],
      [
        "Ġchy",
        -8.159747103311012
      ],
      [
        "ĠjenÅ",
        -8.166327694406771
      ],
      [
        "vÃ½ch",
        -8.16854193372349
      ],
      [
        "ĠlÃ½",
        -8.177801754270558
      ],
      [
        "lÃ¡s",
        -8.17805660257465
      ],
      [
        "Ġst",
        -8.181398309859492
      ],
      [
        "ĠprÃ¡",
        -8.182975237365248
      ],
      [
        "ĠlÃ¡",
        -8.18366704893147
      ],
      [
        "lÃ¡",
        -8.183802636964879
      ],
      [
        "Ġkde",
        -8.186820075097208
      ],
      [
        "ÃŃch",
        -8.194489340389177
      ],
      [
        "ĠbÃ½",
        -8.200828187164781
      ],
      [
        "Ã¡Å¡",
        -8.222141358780076
      ],
      [
        "ĠchÃ¡",
        -8.23668332968482
      ],
      [
        "ĠtÃŃm",
        -8.240280944649474
      ],
      [
        "Ġsvou",
        -8.255209632071029
      ],
      [
        "ĠÄįa",
        -8.268640052776398
      ],
      [
        "ĠteÄı",
        -8.277181373275125
      ],
      [
        "Ġ191",
        -8.278532496330177
      ],
      [
        "Ġbez",
        -8.28625803641494
      ],
      [
        "N",
        -8.286627819559648
      ],
      [
        "Ġpak",
        -8.295897036000309
      ],
      [
        "Ġho",
        -8.297757182193022
      ],
      [
        "Ġval",
        -8.299498926387034
      ],
      [
        "Ġjich",
        -8.304483809666646
      ],
      [
        "ĠjeÅ¡",
        -8.304688218630654
      ],
      [
        "Ġdou",
        -8.305239101185629
      ],
      [
        "ĠmnÄĽ",
        -8.306703802198378
      ],
      [
        "roz",
        -8.307472592969274
      ],
      [
        "ĠnÃ¡m",
        -8.30995529033599
      ],
      [
        "ĠstÄĽ",
        -8.311371528779178
      ],
      [
        "Ġ192",
        -8.312590928049387
      ],
      [
        "ĠmÅ¯j",
        -8.315473070632384
      ],
      [
        "XAXA",
        -8.331252724914924
      ],
      [
        "ĠmÅ¯",
        -8.333763713848896
      ],
      [
        "mÄĽ",
        -8.343093107762506
      ],
      [
        "ĠtÅĻe",
        -8.34621098490147
      ],
      [
        "Ġdra",
        -8.346337059625636
      ],
      [
        "Ġzla",
        -8.346596356094803
      ],
      [
        "Ġstra",
        -8.349614669072986
      ],
      [
        "Ġslo",
        -8.361060343000855
      ],
      [
        "Ġhro",
        -8.363826026744709
      ],
      [
        "ĠbÃ¡",
        -8.371698461803247
      ],
      [
        "nÃ½",
        -8.378792207630758
      ],
      [
        "Ġsnad",
        -8.380571374646545
      ],
      [
        "į",
        -8.385575628856502
      ],
      [
        "ĠskÃ©",
        -8.385607326014638
      ],
      [
        "ĠÅ¾Ã¡",
        -8.38609738045431
      ],
      [
        "Ġkla",
        -8.387438508365587
      ],
      [
        "ĠstvÃŃ",
        -8.387610774322013
      ],
      [
        "ĠkvÄĽ",
        -8.389247969567503
      ],
      [
        "Ġhou",
        -8.390699919849386
      ],
      [
        "Ġslu",
        -8.394973035091166
      ],
      [
        "vÃ©",
        -8.400340373639116
      ],
      [
        "lÃ©",
        -8.400600477517107
      ],
      [
        "ĠnÃ©m",
        -8.413279226991877
      ],
      [
        "ĠvÅ¾dy",
        -8.414288100470758
      ],
      [
        "Ġspo",
        -8.416804944053672
      ],
      [
        "Ļ",
        -8.420377514209248
      ],
      [
        "AABB",
        -8.428019391369466
      ],
      [
        "Ġbych",
        -8.429519806472078
      ],
      [
        "ĠneÅ¾",
        -8.433130589195303
      ],
      [
        "Ġtou",
        -8.434165014475154
      ],
      [
        "ĠsÃ¡m",
        -8.434874443325777
      ],
      [
        "Ġjsou",
        -8.43740054958388
      ],
      [
        "Ġkem",
        -8.440038949037811
      ],
      [
        "dÄĽ",
        -8.449096522576639
      ],
      [
        "XXXXX",
        -8.451810081819145
      ],
      [
        "Ġsou",
        -8.453117682642345
      ],
      [
        "dÃŃ",
        -8.454828700095595
      ],
      [
        "ĠvÅ¡ech",
        -8.455204129702219
      ],
      [
        "Ġhra",
        -8.457223544606805
      ],
      [
        "Ġstu",
        -8.464977337264369
      ],
      [
        "nÃ½ch",
        -8.476463845787054
      ],
      [
        "ÅĻi",
        -8.487001762715682
      ],
      [
        "jÃŃ",
        -8.491239500403626
      ],
      [
        "ĠvÃ¡m",
        -8.495502034151372
      ],
      [
        "iÄį",
        -8.498504555448156
      ],
      [
        "ÃŃÅ¡",
        -8.5043678085592
      ],
      [
        "Ġza",
        -8.50592027190884
      ],
      [
        "ĠdÅ¯",
        -8.50821309367909
      ],
      [
        "D",
        -8.508224940617605
      ],
      [
        "Ġvou",
        -8.519145489278307
      ],
      [
        "ÅĻ",
        -8.52418955490464
      ],
      [
        "Ġkdo",
        -8.53133293460367
      ],
      [
        "ÃŃ",
        -8.531981244452034
      ],
      [
        "Å¡e",
        -8.54197626010607
      ],
      [
        "vÃ½",
        -8.54282259073595
      ],
      [
        "Ġch",
        -8.543522053865361
      ],
      [
        "ĠvÅ¯",
        -8.548119092296162
      ],
      [
        "Ġpr",
        -8.549230489812983
      ],
      [
        "aÅ¥",
        -8.55184755988666
      ],
      [
        "ĠrÃ©",
        -8.575201925167512
      ],
      [
        "Ġstro",
        -8.578093035312259
      ],
      [
        "Ġse",
        -8.581790253852194
      ],
      [
        "A",
        -8.583602760105016
      ],
      [
        "ĠchvÃŃ",
        -8.584786623917674
      ],
      [
        "kÃ¡",
        -8.587719368205105
      ],
      [
        "ĠstÅĻe",
        -8.598943073994391
      ],
      [
        "Ġstou",
        -8.599429499263431
      ],
      [
        "ĠhÃ½",
        -8.602539022543898
      ],
      [
        "Ġdru",
        -8.606506692561831
      ],
      [
        "Ġ193",
        -8.609282410430644
      ],
      [
        "dÃ¡",
        -8.610358823300055
      ],
      [
        "ĠÃº",
        -8.623715645222791
      ],
      [
        "ĠzdÃ¡",
        -8.624384323526604
      ],
      [
        "Ġbla",
        -8.633091522240044
      ],
      [
        "Ġjsme",
        -8.642700816026542
      ],
      [
        "ĠrÅ¯",
        -8.649405026199098
      ],
      [
        "Ġhned",
        -8.655836137837547
      ],
      [
        "Ã¡",
        -8.657108858466325
      ],
      [
        "lÃ½",
        -8.658829542247085
      ],
      [
        "ĠrÃ½",
        -8.666185803936793
      ],
      [
        "Ã¡ÅĻ",
        -8.668312854125332
      ],
      [
        "ĠÅ¡",
        -8.675461035446196
      ],
      [
        "Ġdlou",
        -8.67734864786472
      ],
      [
        "ĠvÅ¡ec",
        -8.681799330272677
      ],
      [
        "ĠtvÃ¡",
        -8.688362570803722
      ],
      [
        "ĠtvÃ©",
        -8.69307446849605
      ],
      [
        "Ġkra",
        -8.69397486599335
      ],
      [
        "ÅĪ",
        -8.698401310179092
      ],
      [
        "ĠÅ¾",
        -8.703115980234642
      ],
      [
        "ĠmÄĽl",
        -8.705168006039093
      ],
      [
        "ĠplÃ¡",
        -8.70680898052148
      ],
      [
        "Ġpou",
        -8.70761983972942
      ],
      [
        "ĠnÅ¯",
        -8.709586540943311
      ],
      [
        "Ġdla",
        -8.713932333220706
      ],
      [
        "Ġ187",
        -8.720685790695427
      ],
      [
        "uÄı",
        -8.720961208873248
      ],
      [
        "Ġnech",
        -8.733164897107523
      ],
      [
        "ĠtÅ¯",
        -8.735394023821994
      ],
      [
        "Ġzas",
        -8.740052161072887
      ],
      [
        "ĠsvÃ½",
        -8.740932135032473
      ],
      [
        "©",
        -8.743164860996286
      ],
      [
        "C",
        -8.744045341987679
      ],
      [
        "ĠhvÄĽz",
        -8.758294852717214
      ],
      [
        "Ġkli",
        -8.768778281350395
      ],
      [
        "Ġche",
        -8.770624693631012
      ],
      [
        "ĠbÅĻe",
        -8.777903996233078
      ],
      [
        "ost",
        -8.786775200814258
      ],
      [
        "f",
        -8.788964375052357
      ],
      [
        "ĠchvÄĽ",
        -8.790400034155208
      ],
      [
        "Ġjste",
        -8.797125052103105
      ],
      [
        "ĠÅ¾il",
        -8.801980892610256
      ],
      [
        "ĠskÃ¡",
        -8.80930890231271
      ],
      [
        "Ġste",
        -8.811482687124142
      ],
      [
        "ĠÅ¡tÄĽ",
        -8.81687017303949
      ],
      [
        "mÃŃ",
        -8.8186466542681
      ],
      [
        "Ġkro",
        -8.822893508057133
      ],
      [
        "ĠÄįil",
        -8.826521075456787
      ],
      [
        "ĠslÃ¡",
        -8.829203649275394
      ],
      [
        "ĠbÅ¯h",
        -8.835477783658407
      ],
      [
        "Ġzde",
        -8.835909392017376
      ],
      [
        "Ġkle",
        -8.836560270998886
      ],
      [
        "eÅĪ",
        -8.839783036684501
      ],
      [
        "ĠkrÃ¡s",
        -8.84064964601317
      ],
      [
        "jak",
        -8.841316035149609
      ],
      [
        "Ã©Å¾",
        -8.844296077816345
      ],
      [
        "ĠnÃ¡s",
        -8.845264566914569
      ],
      [
        "pro",
        -8.850941214564324
      ],
      [
        "ĠsÃ¡",
        -8.854372857360024
      ],
      [
        "ĠhÃ©",
        -8.856987933456042
      ],
      [
        "Ġsmr",
        -8.858815561128385
      ],
      [
        "Äįe",
        -8.85941501052761
      ],
      [
        "Å¡",
        -8.859924876672826
      ],
      [
        "Ġce",
        -8.866555959596358
      ],
      [
        "Ġsly",
        -8.86937689327307
      ],
      [
        "Å¡ÃŃ",
        -8.871663647995032
      ],
      [
        "ĠbrÃ¡",
        -8.873584173637381
      ],
      [
        "Ġdost",
        -8.884759635440906
      ],
      [
        "ĠcÃ½",
        -8.886389721302729
      ],
      [
        "ĠstÃ©",
        -8.888154222703124
      ],
      [
        "ĠÅ¡li",
        -8.891481510294147
      ],
      [
        "Ġvra",
        -8.893206729937102
      ],
      [
        "ĠzpÄĽ",
        -8.89619488802609
      ],
      [
        "ĠpÅ¯",
        -8.902095384578715
      ],
      [
        "ĠsvÃŃ",
        -8.902741078459984
      ],
      [
        "½",
        -8.904419815283568
      ],
      [
        "hla",
        -8.904996493621347
      ],
      [
        "Ġsvo",
        -8.907311617688922
      ],
      [
        "Ġkte",
        -8.914626930838807
      ],
      [
        "Ġna",
        -8.914656527974698
      ],
      [
        "ĠÅ¡la",
        -8.915256680300491
      ],
      [
        "Ġvtom",
        -8.917756889038262
      ],
      [
        "ĠvrÃ¡",
        -8.919039323622656
      ],
      [
        "Ġvy",
        -8.920868157002216
      ],
      [
        "ĠdÅĻÃŃ",
        -8.92357857149568
      ],
      [
        "aÄį",
        -8.926242919688985
      ],
      [
        "Ġky",
        -8.929738357388276
      ],
      [
        "Ġko",
        -8.930729722869081
      ],
      [
        "ĠnÄĽj",
        -8.936951080810275
      ],
      [
        "ĠcÅ¯",
        -8.939590517504259
      ],
      [
        "ech",
        -8.949438513176196
      ],
      [
        "Ġtam",
        -8.95091020508181
      ],
      [
        "ĠvÅĻe",
        -8.952159787606526
      ],
      [
        "ABABC",
        -8.957795441266102
      ],
      [
        "Å¾i",
        -8.957951836739365
      ],
      [
        "Ġv",
        -8.959271864309224
      ],
      [
        "Ġpod",
        -8.977093408043096
      ],
      [
        "Å¾ÃŃ",
        -8.986128581900209
      ],
      [
        "Ġchla",
        -8.987505270221613
      ],
      [
        "ĠvÃŃm",
        -8.993978080748986
      ],
      [
        "Ġhlas",
        -8.994332551472679
      ],
      [
        "Ġs",
        -8.995403275469261
      ],
      [
        "ÄįÃŃ",
        -8.99585184571726
      ],
      [
        "ĠkrÃ¡t",
        -8.996237284467778
      ],
      [
        "ĠvÃŃc",
        -8.996751703739841
      ],
      [
        "ĠproÄį",
        -8.997078491829074
      ],
      [
        "tÃ¡",
        -8.998814394882531
      ],
      [
        "Ã³",
        -9.007448270917857
      ],
      [
        "ĠlÅ¯",
        -9.009274159992698
      ],
      [
        "Ġslou",
        -9.010098020461642
      ],
      [
        "ĠsmÄĽ",
        -9.010421435024456
      ],
      [
        "ĠptÃ¡",
        -9.012178794571037
      ],
      [
        "ĠsvÅ¯",
        -9.012263983995384
      ],
      [
        "g",
        -9.01559374353584
      ],
      [
        "kÃ©",
        -9.019595561676873
      ],
      [
        "ĠsÅ¯",
        -9.02377581370891
      ],
      [
        "ĠÅ¡le",
        -9.028558879925535
      ],
      [
        "ĠÃ³",
        -9.028652072693694
      ],
      [
        "ĠkÅĻÃŃ",
        -9.031133791041004
      ],
      [
        "ĠznÃ¡",
        -9.037262655890512
      ],
      [
        "ĠdÃ¡l",
        -9.038763722249804
      ],
      [
        "ĠÄįas",
        -9.040239602182814
      ],
      [
        "Ġvlas",
        -9.044681984430515
      ],
      [
        "ĠÄį",
        -9.05361386787416
      ],
      [
        "Ġjej",
        -9.056739641765377
      ],
      [
        "Ġvla",
        -9.057940922776352
      ],
      [
        "sÅ¥",
        -9.05993355497395
      ],
      [
        "lou",
        -9.064908197575887
      ],
      [
        "bÄĽ",
        -9.068051996299033
      ],
      [
        "Ġmou",
        -9.07281927906108
      ],
      [
        "ĠvlÃ¡",
        -9.076056176848155
      ],
      [
        "ĠtÅĻÃŃ",
        -9.083947169354381
      ],
      [
        "ABBA",
        -9.08417921242843
      ],
      [
        "Ġsva",
        -9.085409016758451
      ],
      [
        "Ġzvo",
        -9.087194060546988
      ],
      [
        "ĠkÅĻi",
        -9.088336609591925
      ],
      [
        "ĠÄįÃŃm",
        -9.095627802515898
      ],
      [
        "Ġzlo",
        -9.099378387865825
      ],
      [
        "Ġli",
        -9.110494416082098
      ],
      [
        "Ġtra",
        -9.110793740526324
      ],
      [
        "Ãº",
        -9.112358938205189
      ],
      [
        "nÃ½m",
        -9.118740959522764
      ],
      [
        "Ġsli",
        -9.118815816701812
      ],
      [
        "Ġsty",
        -9.119873133784669
      ],
      [
        "nÃŃch",
        -9.1235238139233
      ],
      [
        "ĠskÃ½",
        -9.12361801813485
      ],
      [
        "ĠtÅĻi",
        -9.125792220206362
      ],
      [
        "ĠdÃŃm",
        -9.133128198982334
      ],
      [
        "ĠsnÃŃ",
        -9.139726882310132
      ],
      [
        "mÃ¡",
        -9.139940660681672
      ],
      [
        "ĠÄįl",
        -9.143967260403528
      ],
      [
        "hÃ¡",
        -9.14515679908377
      ],
      [
        "Ġlou",
        -9.145348362540693
      ],
      [
        "oÅ¾",
        -9.146480762845679
      ],
      [
        "Ġnic",
        -9.147479163266135
      ],
      [
        "Ġkru",
        -9.148862068696562
      ],
      [
        "ĠspÃ¡",
        -9.150746670431118
      ],
      [
        "kou",
        -9.150975746685303
      ],
      [
        "ĠpÅĻec",
        -9.155981240792523
      ],
      [
        "Ġjim",
        -9.159271005141301
      ],
      [
        "Ġvil",
        -9.160778570130942
      ],
      [
        "Ġstr",
        -9.162567410883327
      ],
      [
        "Ġchce",
        -9.165654837242888
      ],
      [
        "Ġzda",
        -9.172293189849338
      ],
      [
        "ĠkÃ½m",
        -9.176923106477103
      ],
      [
        "Äįi",
        -9.17818672892418
      ],
      [
        "uch",
        -9.178697034801617
      ],
      [
        "ĠkÃ½ch",
        -9.179838868750593
      ],
      [
        "Ġne",
        -9.183224556999345
      ],
      [
        "uÄį",
        -9.18499879253054
      ],
      [
        "Ġtro",
        -9.188187693945363
      ],
      [
        "rÅ¯",
        -9.190500779693505
      ],
      [
        "Ġz",
        -9.190602713356652
      ],
      [
        "Ġmra",
        -9.19085164868761
      ],
      [
        "ĠmuÅ¾",
        -9.193121173547302
      ],
      [
        "Ī",
        -9.194375071546458
      ],
      [
        "Ġku",
        -9.19472824000119
      ],
      [
        "ĠsvÃ¡",
        -9.196125923081206
      ],
      [
        "Ġsle",
        -9.196629626807262
      ],
      [
        "Ġprav",
        -9.196715638376782
      ],
      [
        "Ġdle",
        -9.197014508848923
      ],
      [
        "nÃŃm",
        -9.198563653918734
      ],
      [
        "ĠÅ¾a",
        -9.199908588817069
      ],
      [
        "Ġspa",
        -9.203502763135077
      ],
      [
        "ĠspÄĽ",
        -9.209661020308669
      ],
      [
        "Ġrou",
        -9.20985126675394
      ],
      [
        "ĠpÃŃs",
        -9.21051943285609
      ],
      [
        "ĠchÃ½",
        -9.210878999667118
      ],
      [
        "Ġvpo",
        -9.21744541393472
      ],
      [
        "Ġbro",
        -9.221873149274801
      ],
      [
        "Ġdech",
        -9.225507689527722
      ],
      [
        "cÃŃ",
        -9.227672599905038
      ],
      [
        "ĠpÅĻÃ¡",
        -9.2294192995098
      ],
      [
        "Ġjes",
        -9.241210538656297
      ],
      [
        "sti",
        -9.241962945673356
      ],
      [
        "ĠmÃ¡m",
        -9.246476039217027
      ],
      [
        "Ġmi",
        -9.251179844528462
      ],
      [
        "ĠstÅĻÃŃ",
        -9.251424281936398
      ],
      [
        "ĠvÄĽÄ",
        -9.257130714962907
      ],
      [
        "ĠknÄĽ",
        -9.257140381202682
      ],
      [
        "ĠtÄĽÅ¾",
        -9.26141090943151
      ],
      [
        "ĠchrÃ¡",
        -9.263786882867137
      ],
      [
        "Ġdli",
        -9.263916896781248
      ],
      [
        "Ġkrev",
        -9.264516055770686
      ],
      [
        "Ġble",
        -9.264991437193734
      ],
      [
        "ĠtÄĽc",
        -9.267456726923648
      ],
      [
        "ĠÅ¡ÃŃm",
        -9.268223066228279
      ],
      [
        "ĠchtÄĽl",
        -9.268369632158137
      ],
      [
        "ĠzÅĻÃŃ",
        -9.269839122597354
      ],
      [
        "Ġbo",
        -9.271539039637133
      ],
      [
        "Ġjsi",
        -9.27580754081434
      ],
      [
        "ĠstÃ½",
        -9.277287202077904
      ],
      [
        "ĠzvÄĽ",
        -9.277589953938113
      ],
      [
        "Ġdil",
        -9.284205455259553
      ],
      [
        "Ġk",
        -9.287597232588704
      ],
      [
        "Ġprou",
        -9.291952557614868
      ],
      [
        "ĠvÄĽk",
        -9.29683509710378
      ],
      [
        "Ġklo",
        -9.300058778129085
      ],
      [
        "po",
        -9.300075526756741
      ],
      [
        "ĠslÃŃ",
        -9.311855893219283
      ],
      [
        "Ġden",
        -9.312115889343103
      ],
      [
        "ĠjÃŃm",
        -9.313711567440816
      ],
      [
        "ĠÅĻil",
        -9.31904725076985
      ],
      [
        "Ġbles",
        -9.319721630973996
      ],
      [
        "Ġhlu",
        -9.320603183639442
      ],
      [
        "st",
        -9.321824504017359
      ],
      [
        "Ġzje",
        -9.324191128399136
      ],
      [
        "ĠhlÃŃ",
        -9.330681361485345
      ],
      [
        "Ġhled",
        -9.333073591930368
      ],
      [
        "stÃŃ",
        -9.333258054859863
      ],
      [
        "Ġmnou",
        -9.340843078456317
      ],
      [
        "ĠsnÄĽ",
        -9.350328810911025
      ],
      [
        "ĠtvÅ¯j",
        -9.357658497516159
      ],
      [
        "Ġkry",
        -9.3671542483213
      ],
      [
        "Ġji",
        -9.367312347329124
      ],
      [
        "ABBCC",
        -9.36933676829885
      ],
      [
        "sta",
        -9.375513652753662
      ],
      [
        "ĠhÅĻÃŃ",
        -9.377061826284116
      ],
      [
        "Ġzve",
        -9.379625937878215
      ],
      [
        "ĠÅ¡u",
        -9.381151959980867
      ],
      [
        "Ġdo",
        -9.387673591486696
      ],
      [
        "Ġzou",
        -9.389209233701655
      ],
      [
        "Å¯m",
        -9.391835675105527
      ],
      [
        "kÃ½",
        -9.392004914508282
      ],
      [
        "ĠhrÅ¯",
        -9.398325980352936
      ],
      [
        "Ġtru",
        -9.401531906075892
      ],
      [
        "ĠhÅ¯",
        -9.401920450746848
      ],
      [
        "ĠdÃ¡m",
        -9.403476611645955
      ],
      [
        "vÃ¡s",
        -9.404310066558612
      ],
      [
        "ĠmÃ½",
        -9.405550288745145
      ],
      [
        "Ġblou",
        -9.405710732873494
      ],
      [
        "ĠhrÃ¡",
        -9.406603705891111
      ],
      [
        "ĠspÃŃ",
        -9.406971770221071
      ],
      [
        "ĠzÅ¯",
        -9.4070190370431
      ],
      [
        "skÃ©",
        -9.413745553578241
      ],
      [
        "ĠcoÅ¾",
        -9.41478274155139
      ],
      [
        "Ã½m",
        -9.415440007626524
      ],
      [
        "ĠklÃŃ",
        -9.429233745713567
      ],
      [
        "yÅ¡",
        -9.430933193428551
      ],
      [
        "ĠnnÃ©",
        -9.446709902474
      ],
      [
        "pÄĽ",
        -9.446819151138152
      ],
      [
        "chu",
        -9.447903184305607
      ],
      [
        "ĠmlÃ¡",
        -9.448048441880466
      ],
      [
        "Ġmlu",
        -9.448589775680512
      ],
      [
        "ĠchtÄĽ",
        -9.454025841842478
      ],
      [
        "Ġti",
        -9.454464656818647
      ],
      [
        "Ġchle",
        -9.456411864495735
      ],
      [
        "ĠjÃŃc",
        -9.457441120800341
      ],
      [
        "Ġsko",
        -9.460615891068452
      ],
      [
        "ĠvÅ¾dyÅ¥",
        -9.460698654857737
      ],
      [
        "Ġsmu",
        -9.464180926234095
      ],
      [
        "rou",
        -9.46459527941988
      ],
      [
        "Äı",
        -9.464769370831938
      ],
      [
        "vou",
        -9.46822990436119
      ],
      [
        "ĠchvÃ¡",
        -9.468503569387055
      ],
      [
        "jsem",
        -9.470956253755592
      ],
      [
        "ĠcÃŃm",
        -9.471193791813189
      ],
      [
        "hle",
        -9.474667455183845
      ],
      [
        "ĠskÃ½ch",
        -9.484626129618567
      ],
      [
        "Ġci",
        -9.485327328459793
      ],
      [
        "ĠblÃŃ",
        -9.485707078768886
      ],
      [
        "oÄį",
        -9.490029657743742
      ],
      [
        "ĠvzÃ¡",
        -9.49288458737351
      ],
      [
        "ĠÄįes",
        -9.494852428557456
      ],
      [
        "ĠdvÄĽ",
        -9.495524626060233
      ],
      [
        "ĠtvÃŃ",
        -9.498579180289747
      ],
      [
        "ĠchÅ¯",
        -9.498988165901611
      ],
      [
        "ĠzpÃŃ",
        -9.503935816678492
      ],
      [
        "ĠnÄĽm",
        -9.505165623713717
      ],
      [
        "ĠklÃ¡",
        -9.506114608787088
      ],
      [
        "ĠhnÄĽ",
        -9.512605065264564
      ],
      [
        "Ġneb",
        -9.51808122307713
      ],
      [
        "krÃ¡",
        -9.51843523178464
      ],
      [
        "ĠvdÃ¡",
        -9.519603804231677
      ],
      [
        "ach",
        -9.521584782879042
      ],
      [
        "ĠvnÄĽm",
        -9.526897464928712
      ],
      [
        "ĠvÄįe",
        -9.530458159459707
      ],
      [
        "ĠznÃŃ",
        -9.531257690507081
      ],
      [
        "ĠÅ¡tÃŃ",
        -9.532484935182183
      ],
      [
        "ĠtrÃ¡",
        -9.536594987628835
      ],
      [
        "ĠtÃ½ch",
        -9.537489178470704
      ],
      [
        "Ġnad",
        -9.539224648880413
      ],
      [
        "Ġtil",
        -9.540678465290632
      ],
      [
        "ĠpÅĻes",
        -9.541132944696852
      ],
      [
        "zÃ¡",
        -9.541309956989489
      ],
      [
        "nÄĽÅ¾",
        -9.542833734519226
      ],
      [
        "Ġ185",
        -9.543426557146711
      ],
      [
        "ĠprÃ½",
        -9.547512170117662
      ],
      [
        "Ġstvo",
        -9.549436977264516
      ],
      [
        "Ġ183",
        -9.549688536328423
      ],
      [
        "svÃ©",
        -9.55231241659156
      ],
      [
        "ÃŃÄį",
        -9.552957468511808
      ],
      [
        "Ġmoc",
        -9.553444974957195
      ],
      [
        "AABC",
        -9.556244780229852
      ],
      [
        "ĠaÅ¾",
        -9.556673468821794
      ],
      [
        "ĠkvÃŃ",
        -9.558641282891463
      ],
      [
        "ĠkÃ¡ch",
        -9.558852123593907
      ],
      [
        "Ġstal",
        -9.560630036962952
      ],
      [
        "Ġvzpo",
        -9.56145463840321
      ],
      [
        "Ġsl",
        -9.562738314869943
      ],
      [
        "Ġmne",
        -9.562902562633266
      ],
      [
        "pra",
        -9.566684318587285
      ],
      [
        "ĠchÃ©",
        -9.567416461218226
      ],
      [
        "Ġchal",
        -9.570829230333157
      ],
      [
        "ĠtvÃ¡Å",
        -9.571551651438606
      ],
      [
        "Ġfa",
        -9.574860851912478
      ],
      [
        "Ġpil",
        -9.581419863843697
      ],
      [
        "ĠpÃ½",
        -9.584404334393138
      ],
      [
        "pÃ¡",
        -9.585685063764013
      ],
      [
        "ĠzÃ½",
        -9.58714867977931
      ],
      [
        "Ġ184",
        -9.59436511007773
      ],
      [
        "ĠknÃŃ",
        -9.594974356147496
      ],
      [
        "ĠÅ¾el",
        -9.597439677342958
      ],
      [
        "Ġ186",
        -9.602348530112646
      ],
      [
        "ĠsÃŃc",
        -9.608726247140375
      ],
      [
        "ĠvtÃ©",
        -9.61157085773534
      ],
      [
        "jich",
        -9.613443427170763
      ],
      [
        "ĠpÅĻij",
        -9.614111457252198
      ],
      [
        "ĠaÅ¥",
        -9.617414812721297
      ],
      [
        "bÃŃ",
        -9.619457836970613
      ],
      [
        "Ġskou",
        -9.621908270174794
      ],
      [
        "ĠdlÃŃ",
        -9.626240048495081
      ],
      [
        "ĠpÃ¡n",
        -9.639017866273717
      ],
      [
        "pÅĻe",
        -9.639127186567196
      ],
      [
        "ĠkÃ©m",
        -9.639721256297952
      ],
      [
        "pÃŃ",
        -9.64681763566412
      ],
      [
        "li",
        -9.65117231819489
      ],
      [
        "ĠdeÅ¡",
        -9.652621922061986
      ],
      [
        "pÅĻÃŃ",
        -9.653777221648104
      ],
      [
        "ĠznÄĽ",
        -9.65560283432421
      ],
      [
        "ĠrÃ¡d",
        -9.656122405785467
      ],
      [
        "Ġzpo",
        -9.658629991322082
      ],
      [
        "Ġten",
        -9.659287383374783
      ],
      [
        "cho",
        -9.66303972302222
      ],
      [
        "Ġhlou",
        -9.66479795137978
      ],
      [
        "Ġvzdu",
        -9.665068640190377
      ],
      [
        "ĠsmÃŃ",
        -9.665539194266385
      ],
      [
        "ou",
        -9.67014695125809
      ],
      [
        "Ã©m",
        -9.671557864189843
      ],
      [
        "Å¡i",
        -9.671853444129939
      ],
      [
        "Ġsem",
        -9.673380269304566
      ],
      [
        "kÅ¯",
        -9.673647643797192
      ],
      [
        "ĠÅĻa",
        -9.676862577185569
      ],
      [
        "tÃ©",
        -9.679349563459503
      ],
      [
        "ĠvÅ¡u",
        -9.68121540226949
      ],
      [
        "Ġpa",
        -9.681848012474102
      ],
      [
        "svÄĽ",
        -9.683111514926908
      ],
      [
        "Ä",
        -9.68346373670528
      ],
      [
        "ĠstÃ¡l",
        -9.690699218171273
      ],
      [
        "ĠdrÃ¡",
        -9.691047109292066
      ],
      [
        "ĠvÅ¡em",
        -9.699389138223378
      ],
      [
        "ĠstrÃ¡",
        -9.699519576885768
      ],
      [
        "ĠÄįem",
        -9.7040747327948
      ],
      [
        "Ġzvu",
        -9.704499892280086
      ],
      [
        "ĠÄįÃ¡",
        -9.704879056605686
      ],
      [
        "ĠÅĻek",
        -9.705461701853531
      ],
      [
        "ĠÄįel",
        -9.706386189890564
      ],
      [
        "rÃ½",
        -9.714865269393645
      ],
      [
        "ho",
        -9.715976569101981
      ],
      [
        "hro",
        -9.720359700155921
      ],
      [
        "vÃŃc",
        -9.721336786594788
      ],
      [
        "Ã¡Å¾",
        -9.722467241362837
      ],
      [
        "tÃ½",
        -9.723248963797143
      ],
      [
        "Ġdlo",
        -9.724110659580099
      ],
      [
        "ĠtrÅ¯",
        -9.725208644030158
      ],
      [
        "Ġbu",
        -9.731591600858842
      ],
      [
        "pÅĻed",
        -9.732569623081469
      ],
      [
        "Ġtem",
        -9.73404127307618
      ],
      [
        "eÄı",
        -9.734898480109804
      ],
      [
        "vÅ¯",
        -9.737373747647984
      ],
      [
        "ĠÅ¡Å¥as",
        -9.739999160593904
      ],
      [
        "ĠÅ¾en",
        -9.74020597280395
      ],
      [
        "ĠhlÃ¡",
        -9.741080232660877
      ],
      [
        "dÄĽl",
        -9.744969893790095
      ],
      [
        "la",
        -9.74931211389302
      ],
      [
        "ĠvlÃŃ",
        -9.753187822421577
      ],
      [
        "ĠÅĪa",
        -9.753936643236703
      ],
      [
        "bez",
        -9.756047189491587
      ],
      [
        "aÅĪ",
        -9.756942516644393
      ],
      [
        "ĠzrÃ¡",
        -9.759608196183981
      ],
      [
        "ĠsnÃŃm",
        -9.761396139091131
      ],
      [
        "ro",
        -9.763328841538666
      ],
      [
        "val",
        -9.76783186849366
      ],
      [
        "Ã©",
        -9.772333236896964
      ],
      [
        "Ã¡Äį",
        -9.77295799060511
      ],
      [
        "Ġnul",
        -9.77376534247218
      ],
      [
        "ĠsÃ½",
        -9.773944178364674
      ],
      [
        "¥",
        -9.77441532120893
      ],
      [
        "by",
        -9.780668812096314
      ],
      [
        "Ġstli",
        -9.780988952630734
      ],
      [
        "pÅĻi",
        -9.781808728185577
      ],
      [
        "ĠzvÃŃ",
        -9.78351626322294
      ],
      [
        "Ġja",
        -9.78625240306217
      ],
      [
        "ĠzmÄĽ",
        -9.786314605619417
      ],
      [
        "ĠsÃŃm",
        -9.789623442288226
      ],
      [
        "ĠstÅ¯",
        -9.789657601936085
      ],
      [
        "ĠÅ¾li",
        -9.795433020732563
      ],
      [
        "ĠvdÄĽ",
        -9.799145043836779
      ],
      [
        "Ġstej",
        -9.799410096001754
      ],
      [
        "ĠzÅĻe",
        -9.805040782629437
      ],
      [
        "nÃ¡m",
        -9.808729561008676
      ],
      [
        "Ġro",
        -9.814152275967768
      ],
      [
        "ĠÅ¡a",
        -9.8254826532373
      ],
      [
        "lÃŃÅ¡",
        -9.825689018250527
      ],
      [
        "Ġvnich",
        -9.827930111171
      ],
      [
        "stÃ¡",
        -9.827967182890475
      ],
      [
        "nech",
        -9.829846171929193
      ],
      [
        "ĠbrÃ½",
        -9.832215509485502
      ],
      [
        "Ġhl",
        -9.834947403878418
      ],
      [
        "ĠbrÃ©",
        -9.835844915748952
      ],
      [
        "Ġzna",
        -9.83659436699564
      ],
      [
        "Ġchci",
        -9.838900216722628
      ],
      [
        "º",
        -9.84165019122173
      ],
      [
        "ĠvÅ¡ic",
        -9.841969536759569
      ],
      [
        "ĠÅ¡ep",
        -9.84706849993653
      ],
      [
        "Ġmno",
        -9.850005122355709
      ],
      [
        "mÃ©",
        -9.856144181045545
      ],
      [
        "ĠÅ¡lo",
        -9.857206184207273
      ],
      [
        "Ġznich",
        -9.858040843995235
      ],
      [
        "prÃ¡",
        -9.861766087966307
      ],
      [
        "Ġmla",
        -9.86369127113193
      ],
      [
        "neÅ¡",
        -9.868121433781258
      ],
      [
        "Ġchou",
        -9.871446110793876
      ],
      [
        "Ġskry",
        -9.878938495599082
      ],
      [
        "oÅ¥",
        -9.879964573071788
      ],
      [
        "ĠmÃ½m",
        -9.884725678211256
      ],
      [
        "tÅĻe",
        -9.888254580111802
      ],
      [
        "Ġvje",
        -9.888521575859786
      ],
      [
        "Ġdne",
        -9.89365249766098
      ],
      [
        "tou",
        -9.89372743721648
      ],
      [
        "sÃŃ",
        -9.89463735892289
      ],
      [
        "Ġmar",
        -9.896638880371938
      ],
      [
        "ĠtÃ¡h",
        -9.897212586879954
      ],
      [
        "ĠnnÃŃ",
        -9.898144694257773
      ],
      [
        "Ġto",
        -9.899430723367153
      ],
      [
        "Ġbil",
        -9.899583195794063
      ],
      [
        "Ġvdu",
        -9.901350823018047
      ],
      [
        "Ġvpra",
        -9.902186412858192
      ],
      [
        "ĠdlÃ©",
        -9.904069265481866
      ],
      [
        "ĠdÄĽj",
        -9.905553135634449
      ],
      [
        "je",
        -9.9057797944619
      ],
      [
        "tak",
        -9.907461682240523
      ],
      [
        "uÅ¡",
        -9.911383610901842
      ],
      [
        "Ġtvo",
        -9.91155264062845
      ],
      [
        "Ġbr",
        -9.914081440766273
      ],
      [
        "Ġru",
        -9.91459717886053
      ],
      [
        "ĠzÅĻel",
        -9.916326632009923
      ],
      [
        "ĠvÃº",
        -9.92084677758643
      ],
      [
        "Ġple",
        -9.923502967246948
      ],
      [
        "Ġdal",
        -9.926054778108371
      ],
      [
        "Ġka",
        -9.926214568615332
      ],
      [
        "lech",
        -9.926317647812246
      ],
      [
        "B",
        -9.927034649856576
      ],
      [
        "ĠÃºs",
        -9.927146353422891
      ],
      [
        "ĠÅ¡ko",
        -9.928770871960632
      ],
      [
        "ĠskrÃ¡",
        -9.928901997259501
      ],
      [
        "Ġkr",
        -9.9349740314968
      ],
      [
        "Å¯Å¾",
        -9.937636777634598
      ],
      [
        "hou",
        -9.939986842893859
      ],
      [
        "ĠzlÃ©",
        -9.940357175784408
      ],
      [
        "lÅ¯",
        -9.940482548345377
      ],
      [
        "Ã½",
        -9.940547854662428
      ],
      [
        "Ġvsr",
        -9.942792983333351
      ],
      [
        "ĠhoÅ¾",
        -9.943606069116617
      ],
      [
        "ĠmÃ¡Å¡",
        -9.944955491899895
      ],
      [
        "jÃ¡",
        -9.945250604964029
      ],
      [
        "Ġhr",
        -9.945767447407519
      ],
      [
        "Ġpl",
        -9.946875507478856
      ],
      [
        "Ġvsta",
        -9.950899942694749
      ],
      [
        "uÅ¥",
        -9.951136498819464
      ],
      [
        "ĠtÃ½m",
        -9.951235429278263
      ],
      [
        "ĠstrÃ½",
        -9.95323429926916
      ],
      [
        "ĠtvÃ½ch",
        -9.959185562784187
      ],
      [
        "ĠÅ¡lÃ©",
        -9.959354490290469
      ],
      [
        "kem",
        -9.961147934937562
      ],
      [
        "rÃ©",
        -9.96483495814882
      ],
      [
        "Ġsvi",
        -9.966664096637784
      ],
      [
        "Ġnej",
        -9.967816937964901
      ],
      [
        "Ġnich",
        -9.969134727857142
      ],
      [
        "Ġbraz",
        -9.972979821324609
      ],
      [
        "Ġztra",
        -9.97491837100664
      ],
      [
        "ĠsmÃ¡",
        -9.975312366093066
      ],
      [
        "jiÅ¾",
        -9.979605189622726
      ],
      [
        "ĠjmÃ©",
        -9.981328532631222
      ],
      [
        "Ġmu",
        -9.982688774853228
      ],
      [
        "kÃ½ch",
        -9.987808292595265
      ],
      [
        "Ġdu",
        -9.992074176335061
      ],
      [
        "ĠuÅ¾",
        -9.995687880969609
      ],
      [
        "Ġze",
        -10.005708412956999
      ],
      [
        "ĠvsvÃ©",
        -10.007381611960346
      ],
      [
        "Ġstva",
        -10.008973415133045
      ],
      [
        "ĠtoÅ¾",
        -10.012307554260143
      ],
      [
        "ĠblÃ¡",
        -10.016198311807134
      ],
      [
        "Ġcem",
        -10.019123453889835
      ],
      [
        "Äįer",
        -10.020552063284416
      ],
      [
        "Ġsklo",
        -10.021375846660973
      ],
      [
        "ĠsmÃŃc",
        -10.023034221995767
      ],
      [
        "Ġvza",
        -10.023346415884554
      ],
      [
        "ĠtÃ©m",
        -10.024426779924845
      ],
      [
        "ĠÅ¡il",
        -10.024663020156968
      ],
      [
        "ĠsnÃ¡",
        -10.030789546539166
      ],
      [
        "ĠjÅ¯",
        -10.032711238652212
      ],
      [
        "Ġvzal",
        -10.035451141376225
      ],
      [
        "vÄĽt",
        -10.039581172406308
      ],
      [
        "ĠvzhÅ¯",
        -10.046408270806875
      ],
      [
        "ĠÅ¥a",
        -10.051399417606987
      ],
      [
        "Ġtvou",
        -10.06038021157273
      ],
      [
        "Ġkam",
        -10.060676602296246
      ],
      [
        "ÄįÃŃch",
        -10.060923422032875
      ],
      [
        "Ġtr",
        -10.06136217851435
      ],
      [
        "nÄĽj",
        -10.061535352398025
      ],
      [
        "Ġp",
        -10.06315876610587
      ],
      [
        "ĠtÄĽz",
        -10.063566309145044
      ],
      [
        "rÃ¡d",
        -10.063673267163882
      ],
      [
        "vÅ¡ech",
        -10.065714095572158
      ],
      [
        "Ġstar",
        -10.06734668252352
      ],
      [
        "ĠrÃ½ch",
        -10.067385835568293
      ],
      [
        "Ġjem",
        -10.069764038535222
      ],
      [
        "hÃ©",
        -10.071363854417474
      ],
      [
        "Ġdem",
        -10.073256625511238
      ],
      [
        "ĠhlÃ©",
        -10.079578889656796
      ],
      [
        "Ġla",
        -10.080133398359486
      ],
      [
        "ra",
        -10.080244480475283
      ],
      [
        "ĠÅ¾ÃŃm",
        -10.082277676566335
      ],
      [
        "Ġhor",
        -10.0850751286736
      ],
      [
        "ĠÅĻ",
        -10.092456877997693
      ],
      [
        "ĠjÃŃÅ¾",
        -10.09290239379171
      ],
      [
        "ĠnnÃ½",
        -10.09369666929996
      ],
      [
        "lÃ½m",
        -10.099247464222517
      ],
      [
        "nÃ©m",
        -10.100257059349762
      ],
      [
        "ĠÅ¾eh",
        -10.100769416242448
      ],
      [
        "vÃŃm",
        -10.100782877031552
      ],
      [
        "pla",
        -10.101369254026272
      ],
      [
        "Ġply",
        -10.105306958811584
      ],
      [
        "Ġsil",
        -10.107164191016562
      ],
      [
        "Ġstru",
        -10.11006742345408
      ],
      [
        "ĠÅ¡ÃŃc",
        -10.112433778278367
      ],
      [
        "Ġskal",
        -10.114635281024757
      ],
      [
        "skÃ½ch",
        -10.117567227115442
      ],
      [
        "Å¡el",
        -10.117777448921071
      ],
      [
        "skÃ½",
        -10.119280048298862
      ],
      [
        "Ġvbo",
        -10.122155647318944
      ],
      [
        "ĠÅ¾al",
        -10.122829357328033
      ],
      [
        "Ġkni",
        -10.125114264787696
      ],
      [
        "ĠsnÅ¯",
        -10.127059000573084
      ],
      [
        "iÅ¾",
        -10.127479443161938
      ],
      [
        "ĠdÅĻe",
        -10.12941912421288
      ],
      [
        "tÃŃm",
        -10.130403894613037
      ],
      [
        "Å¯",
        -10.131596053250288
      ],
      [
        "ĠzlÃŃ",
        -10.13278167489012
      ],
      [
        "vÅ¡e",
        -10.13371428587856
      ],
      [
        "rÃ¡z",
        -10.135486840537974
      ],
      [
        "Ġzro",
        -10.13815975880394
      ],
      [
        "ĠpouÅ¡",
        -10.13968470767988
      ],
      [
        "ĠheÅĪ",
        -10.14052093935313
      ],
      [
        "ĠprÅ¯",
        -10.14099622973129
      ],
      [
        "ĠbÅ¯",
        -10.141484919476433
      ],
      [
        "dech",
        -10.142917999132344
      ],
      [
        "ĠkÅĻe",
        -10.143052202368121
      ],
      [
        "ĠdlÃ¡",
        -10.143076650661316
      ],
      [
        "ĠstraÅ",
        -10.144367398916167
      ],
      [
        "jeÅ¡",
        -10.145487063966819
      ],
      [
        "Ġdro",
        -10.149131500141827
      ],
      [
        "Ġzdra",
        -10.149583726931747
      ],
      [
        "Ġchra",
        -10.152034527155942
      ],
      [
        "ĠsklÃ¡",
        -10.1553439206303
      ],
      [
        "Ġstec",
        -10.158433733508216
      ],
      [
        "ĠblÃŃÅ",
        -10.158512879673411
      ],
      [
        "hra",
        -10.16087767638267
      ],
      [
        "Ġsten",
        -10.16312819182828
      ],
      [
        "ĠÅ¡ich",
        -10.163314240476323
      ],
      [
        "tÅĻ",
        -10.16446722414208
      ],
      [
        "bÃ¡",
        -10.168040109651528
      ],
      [
        "ABCCB",
        -10.16893618759577
      ],
      [
        "ĠvnÃŃ",
        -10.169512393501929
      ],
      [
        "ĠcÃŃc",
        -10.16993937422092
      ],
      [
        "nÅ¯",
        -10.172800518140043
      ],
      [
        "vÃ¡m",
        -10.174937365658963
      ],
      [
        "ĠlÃ½m",
        -10.178326655448464
      ],
      [
        "Ġdy",
        -10.17954329522581
      ],
      [
        "ĠÅ¾ha",
        -10.18151882929263
      ],
      [
        "ĠneÅ¡",
        -10.186466135242958
      ],
      [
        "Ġjdou",
        -10.187076607887878
      ],
      [
        "dÃ¡l",
        -10.187082704998524
      ],
      [
        "Ġspra",
        -10.188696500853188
      ],
      [
        "ĠrÃ©m",
        -10.188969398563932
      ],
      [
        "Ġsbo",
        -10.190279665458926
      ],
      [
        "eÅ¡",
        -10.192872192592684
      ],
      [
        "Ġta",
        -10.192933835132742
      ],
      [
        "Ġdvo",
        -10.194133791284196
      ],
      [
        "Ġsku",
        -10.194699245261893
      ],
      [
        "Ġno",
        -10.194757434071503
      ],
      [
        "ĠfÃ¡",
        -10.194870107303684
      ],
      [
        "dÃ½",
        -10.195536895840638
      ],
      [
        "Ġvzte",
        -10.198638995569816
      ],
      [
        "ĠkÃ¡m",
        -10.199654101532554
      ],
      [
        "jeÅ¾",
        -10.200838392907098
      ],
      [
        "tÄĽÅ¾",
        -10.201442606169731
      ],
      [
        "jen",
        -10.205250041372992
      ],
      [
        "ĠtvÃ½",
        -10.207629457495633
      ],
      [
        "ĠskrÃ½",
        -10.208295983774029
      ],
      [
        "ĠhÅĻe",
        -10.210844800507076
      ],
      [
        "ĠzvÃ¡",
        -10.211334238337361
      ],
      [
        "Ġplo",
        -10.21246596249048
      ],
      [
        "rÃ½ch",
        -10.214994936803466
      ],
      [
        "dou",
        -10.215350909584151
      ],
      [
        "ÅĻil",
        -10.215870479499113
      ],
      [
        "le",
        -10.218149722397042
      ],
      [
        "Ġvzne",
        -10.218293816079028
      ],
      [
        "zÃŃ",
        -10.223003754329142
      ],
      [
        "ĠliÅ¡",
        -10.224724483224154
      ],
      [
        "est",
        -10.225559309943113
      ],
      [
        "dlou",
        -10.22584810543488
      ],
      [
        "Ġfi",
        -10.227095929401047
      ],
      [
        "ĠÅĻÃ¡d",
        -10.228089268732518
      ],
      [
        "chy",
        -10.230445680632203
      ],
      [
        "Ġzli",
        -10.233145611948434
      ],
      [
        "ĠdrÃ½",
        -10.234723602945762
      ],
      [
        "ĠvnÃ¡",
        -10.234810353101516
      ],
      [
        "ĠjÃŃt",
        -10.235464874140376
      ],
      [
        "Ġchva",
        -10.235959089707869
      ],
      [
        "ĠjÃŃch",
        -10.238676446478927
      ],
      [
        "ÄĽ",
        -10.238910961524464
      ],
      [
        "bou",
        -10.239866953555573
      ],
      [
        "Ġpru",
        -10.239950174727884
      ],
      [
        "kdyÅ¾",
        -10.240062949375677
      ],
      [
        "ĠnuÅ¾",
        -10.24273415836944
      ],
      [
        "Ġ182",
        -10.242929339275888
      ],
      [
        "ĠzeÅĪ",
        -10.243460962768731
      ],
      [
        "ĠÅ¡em",
        -10.244999156234519
      ],
      [
        "Ġb",
        -10.24598695555592
      ],
      [
        "ĠbÅĻÃŃ",
        -10.250135828269542
      ],
      [
        "ĠvsvÄĽ",
        -10.253509468029828
      ],
      [
        "ĠÅĻÃŃm",
        -10.256275554111935
      ],
      [
        "byl",
        -10.256683038387237
      ],
      [
        "ĠnaÄį",
        -10.256716360504232
      ],
      [
        "ĠskÃ½m",
        -10.257594599558702
      ],
      [
        "ĠtÄĽl",
        -10.261496687719434
      ],
      [
        "ĠbÃ©",
        -10.26204039411739
      ],
      [
        "Ġzva",
        -10.263406176573568
      ],
      [
        "ĠpÅ¯j",
        -10.264728526804817
      ],
      [
        "ÅĻÃŃÅ¡",
        -10.266651128620355
      ],
      [
        "ĠvzdÃ¡",
        -10.266779728853479
      ],
      [
        "ĠÅ¾lu",
        -10.270107144727328
      ],
      [
        "bych",
        -10.271093225445625
      ],
      [
        "ru",
        -10.272404217789878
      ],
      [
        "Ġscho",
        -10.27389427517089
      ],
      [
        "Äįa",
        -10.275294980714607
      ],
      [
        "ĠzvlÃ¡Å¡",
        -10.275525301579908
      ],
      [
        "Ġhru",
        -10.276039803017404
      ],
      [
        "Ġni",
        -10.27616466048481
      ],
      [
        "ĠvtÄĽ",
        -10.27754607151691
      ],
      [
        "sou",
        -10.282720803462531
      ],
      [
        "Ġvzdo",
        -10.282908908150224
      ],
      [
        "kvÄĽ",
        -10.285949177815802
      ],
      [
        "Ġvi",
        -10.287415856693903
      ],
      [
        "Ġle",
        -10.288601202851714
      ],
      [
        "Ġbli",
        -10.28987804646741
      ],
      [
        "ĠÄįen",
        -10.292375158425683
      ],
      [
        "ĠdrÃ©",
        -10.295157022117774
      ],
      [
        "ĠÅ¡Ã¡",
        -10.296402292541542
      ],
      [
        "Ġzle",
        -10.297309189104498
      ],
      [
        "vÅ¡ak",
        -10.297758000180481
      ],
      [
        "Ġtla",
        -10.298349050058704
      ],
      [
        "cha",
        -10.300160172315355
      ],
      [
        "Ġvzde",
        -10.30019809257918
      ],
      [
        "pod",
        -10.300500097931598
      ],
      [
        "mÄĽl",
        -10.302038998733124
      ],
      [
        "ĠpÃ©",
        -10.302523423752842
      ],
      [
        "Ġbys",
        -10.307235996949997
      ],
      [
        "ĠvstÅĻÃŃ",
        -10.311888200602807
      ],
      [
        "hvÄĽz",
        -10.313374666779817
      ],
      [
        "Ġt",
        -10.313605717402597
      ],
      [
        "ĠdvÃ©",
        -10.31603457767834
      ],
      [
        "Ġdouc",
        -10.3200512870435
      ],
      [
        "skÃ¡",
        -10.320435773057174
      ],
      [
        "bra",
        -10.320864463761405
      ],
      [
        "Ġbrou",
        -10.321143850332994
      ],
      [
        "Ġzby",
        -10.322708896959156
      ],
      [
        "tvÃ©",
        -10.324019716035643
      ],
      [
        "Ġchl",
        -10.325054975682598
      ],
      [
        "ĠÄįet",
        -10.326006705420978
      ],
      [
        "sla",
        -10.330930043670577
      ],
      [
        "Ġzbo",
        -10.331078458179416
      ],
      [
        "Ġsud",
        -10.333719031126886
      ],
      [
        "AABBC",
        -10.334242662367467
      ],
      [
        "ĠvÃ¡n",
        -10.339278013540167
      ],
      [
        "Ġd",
        -10.340256111984173
      ],
      [
        "ĠzmÃŃ",
        -10.342874844335578
      ],
      [
        "ĠÅĻÃ¡",
        -10.343365446465395
      ],
      [
        "Å¡Å¥",
        -10.345554550459664
      ],
      [
        "ĠmÅĻe",
        -10.346627574239552
      ],
      [
        "Ġga",
        -10.347272617738632
      ],
      [
        "ĠvÅ¾i",
        -10.351268497169004
      ],
      [
        "³",
        -10.354846470236694
      ],
      [
        "ĠsluÅ",
        -10.357191719094509
      ],
      [
        "sto",
        -10.35819763444095
      ],
      [
        "tem",
        -10.364453622312174
      ],
      [
        "Ġnec",
        -10.365100071513206
      ],
      [
        "ABBAC",
        -10.369265867768652
      ],
      [
        "Ġkl",
        -10.370009359693418
      ],
      [
        "Ġzv",
        -10.370562045400831
      ],
      [
        "mou",
        -10.370683535047934
      ],
      [
        "Ġkri",
        -10.372354608752413
      ],
      [
        "ĠvÅ¡ÃŃ",
        -10.372680729257505
      ],
      [
        "sem",
        -10.37292159438696
      ],
      [
        "ĠbyÅ¥",
        -10.377166442635605
      ],
      [
        "Ġmrou",
        -10.38009148061664
      ],
      [
        "ĠskvÄĽ",
        -10.385567108201812
      ],
      [
        "Ġte",
        -10.38596678853438
      ],
      [
        "Ġ195",
        -10.387179814453125
      ],
      [
        "dÅ¯",
        -10.389406617152316
      ],
      [
        "Ġvle",
        -10.389417238703897
      ],
      [
        "Ġtrou",
        -10.39146121317446
      ],
      [
        "Ġzdvi",
        -10.391652776363928
      ],
      [
        "Ġvrou",
        -10.39317364502197
      ],
      [
        "Ġchr",
        -10.39591725176919
      ],
      [
        "ÅĻem",
        -10.396456952646291
      ],
      [
        "ĠÄıa",
        -10.399234222757991
      ],
      [
        "Ġdva",
        -10.399751101683583
      ],
      [
        "krÃ¡t",
        -10.400834743243115
      ],
      [
        "ĠblÃŃz",
        -10.401568446728117
      ],
      [
        "Ġzvy",
        -10.40263738071725
      ],
      [
        "ĠÅĻÅ¯",
        -10.404637100636974
      ],
      [
        "ĠvÃ¡Å",
        -10.404698326836376
      ],
      [
        "ĠchlÃ©",
        -10.405098653473457
      ],
      [
        "ĠkdoÅ¾",
        -10.405223174329135
      ],
      [
        "ĠhÃ½m",
        -10.405810652970748
      ],
      [
        "ĠvÃ½Å",
        -10.40603909126938
      ],
      [
        "ABBC",
        -10.40918975482799
      ],
      [
        "ĠzdÄĽ",
        -10.409630986791116
      ],
      [
        "Å¾Ã¡",
        -10.41158044535506
      ],
      [
        "kla",
        -10.412140736190253
      ],
      [
        "ĠplÃ©",
        -10.417586748609661
      ],
      [
        "Ġnik",
        -10.421751030604273
      ],
      [
        "hÃ½",
        -10.423958573130056
      ],
      [
        "chÃ¡",
        -10.425808911078812
      ],
      [
        "Ġchvi",
        -10.426605025702397
      ],
      [
        "ĠÄįÅ¯",
        -10.42697165855253
      ],
      [
        "Ġfal",
        -10.427110793121576
      ],
      [
        "Ġfe",
        -10.429405455870556
      ],
      [
        "krÃ¡s",
        -10.432625104889835
      ],
      [
        "Ġva",
        -10.433613357300606
      ],
      [
        "vÅ¯j",
        -10.435163662175537
      ],
      [
        "Ġpout",
        -10.43622043838879
      ],
      [
        "hlu",
        -10.442037001285858
      ],
      [
        "Ġslil",
        -10.44258963147099
      ],
      [
        "ĠnaÅĪ",
        -10.442797283029536
      ],
      [
        "ĠkrÃ½",
        -10.446060284323016
      ],
      [
        "ĠnnÄĽ",
        -10.446061065498656
      ],
      [
        "Ġskle",
        -10.454148883945294
      ],
      [
        "ĠznÃ¡m",
        -10.454149354877197
      ],
      [
        "ĠÄįej",
        -10.455144720754019
      ],
      [
        "Ġbe",
        -10.456729765968522
      ],
      [
        "Ġzval",
        -10.457937412577687
      ],
      [
        "ĠzboÅ",
        -10.46114384199701
      ],
      [
        "Ġsmy",
        -10.462234560528326
      ],
      [
        "ĠtÅĻpy",
        -10.463683712746061
      ],
      [
        "Ġstil",
        -10.46865958913489
      ],
      [
        "Ġdi",
        -10.468693399838665
      ],
      [
        "Ġzdo",
        -10.47005778309582
      ],
      [
        "Ġnem",
        -10.476303610017492
      ],
      [
        "mÅ¯",
        -10.479596373680646
      ],
      [
        "ĠztrÃ¡",
        -10.482862301940498
      ],
      [
        "Ġgi",
        -10.483690682073313
      ],
      [
        "Ġvhro",
        -10.49044621174152
      ],
      [
        "Ġkrou",
        -10.49097512117347
      ],
      [
        "ĠhoÅĻ",
        -10.492746939053601
      ],
      [
        "Ġknou",
        -10.492836785616419
      ],
      [
        "ĠÄįal",
        -10.495969332255312
      ],
      [
        "Ġzma",
        -10.500164464135024
      ],
      [
        "tÅ¯",
        -10.500371302366167
      ],
      [
        "ĠmÅ¾i",
        -10.50491150865539
      ],
      [
        "Ġzbra",
        -10.505133970790151
      ],
      [
        "Ġve",
        -10.51189214942553
      ],
      [
        "slu",
        -10.512100921751928
      ],
      [
        "ĠnÄĽl",
        -10.513927841499347
      ],
      [
        "ĠzÅĻÃŃm",
        -10.514426433121999
      ],
      [
        "tÄĽc",
        -10.515110725543295
      ],
      [
        "Ġbral",
        -10.51621216738653
      ],
      [
        "ĠboÅ¥",
        -10.523258746429144
      ],
      [
        "kÃ©m",
        -10.524089809961053
      ],
      [
        "svou",
        -10.52648773334699
      ],
      [
        "Ġctnos",
        -10.526901975274743
      ],
      [
        "Ġvpro",
        -10.528270002053278
      ],
      [
        "vÄĽz",
        -10.52858428740514
      ],
      [
        "pou",
        -10.530550564259118
      ],
      [
        "Ġplu",
        -10.531407407588423
      ],
      [
        "Ġtrem",
        -10.532098129784627
      ],
      [
        "ĠÅ¾iv",
        -10.534493451237548
      ],
      [
        "ĠrÃ½m",
        -10.535863727581875
      ],
      [
        "ĠÅ¡pa",
        -10.53594261561118
      ],
      [
        "Ġdrob",
        -10.536993313828846
      ],
      [
        "Ġvpr",
        -10.539277432810346
      ],
      [
        "dÃ©",
        -10.54292165276941
      ],
      [
        "Ġblo",
        -10.544369948023286
      ],
      [
        "Ġchmu",
        -10.54753580188357
      ],
      [
        "Ġach",
        -10.549657180357958
      ],
      [
        "Ġvslu",
        -10.549734685302669
      ],
      [
        "ĠtÄĽm",
        -10.55125346506632
      ],
      [
        "ĠnnÃ¡",
        -10.554132689115573
      ],
      [
        "Ġlo",
        -10.556577886355553
      ],
      [
        "Ġhli",
        -10.563118470203843
      ],
      [
        "Ġbal",
        -10.564353497449233
      ],
      [
        "ÅĻa",
        -10.565064060058093
      ],
      [
        "ĠzprÃ¡",
        -10.56994379052067
      ],
      [
        "ĠvnÄĽmÅ",
        -10.572322461816588
      ],
      [
        "Ġc",
        -10.57253936473517
      ],
      [
        "ti",
        -10.574073205053441
      ],
      [
        "ĠvÅĻel",
        -10.574737291626088
      ],
      [
        "ĠvstÃ¡",
        -10.576446327253494
      ],
      [
        "ĠchtÃŃ",
        -10.57809437941638
      ],
      [
        "ĠtÅĻÃ¡",
        -10.578277382517102
      ],
      [
        "dra",
        -10.579359593226682
      ],
      [
        "Å¡ich",
        -10.581509039537854
      ],
      [
        "ĠÅ¾o",
        -10.584069693389974
      ],
      [
        "Ġstrac",
        -10.584160324976496
      ],
      [
        "ĠvÅ¡a",
        -10.589650837019404
      ],
      [
        "Ġsv",
        -10.589953331096341
      ],
      [
        "ĠspoÅ",
        -10.590638703214317
      ],
      [
        "ĠdnÃ©",
        -10.59087521029287
      ],
      [
        "ĠnÃ¡c",
        -10.592845838425523
      ],
      [
        "Ġkles",
        -10.594223227465971
      ],
      [
        "ne",
        -10.595097518818328
      ],
      [
        "ĠklÃ©",
        -10.595443039308488
      ],
      [
        "snad",
        -10.597256135675657
      ],
      [
        "tra",
        -10.597698592346969
      ],
      [
        "Ġnnou",
        -10.598763406190152
      ],
      [
        "eÅ¾",
        -10.598795382672352
      ],
      [
        "ĠkÅĻÃŃÅ",
        -10.599571572630555
      ],
      [
        "Ġvroz",
        -10.601514913555162
      ],
      [
        "ĠzpÃ¡",
        -10.601860256055792
      ],
      [
        "ĠÃºz",
        -10.60324106885047
      ],
      [
        "nad",
        -10.605335064428422
      ],
      [
        "vÅ¡ec",
        -10.605677147645313
      ],
      [
        "ĠhlÃ½",
        -10.60569322529882
      ],
      [
        "Ġtom",
        -10.606966141386765
      ],
      [
        "bÃ½",
        -10.607050749102823
      ],
      [
        "ĠvmÃ©",
        -10.613253512912463
      ],
      [
        "pak",
        -10.613474441437116
      ],
      [
        "prav",
        -10.615423293970055
      ],
      [
        "ĠÄıÃ¡",
        -10.615525462241031
      ],
      [
        "Ġzmi",
        -10.619281899403278
      ],
      [
        "tvÃ¡",
        -10.619608927636033
      ],
      [
        "ĠsvÄĽd",
        -10.6202622671443
      ],
      [
        "Ġvz",
        -10.62158852980078
      ],
      [
        "ĠsÃ¡h",
        -10.622000885079727
      ],
      [
        "Ġhem",
        -10.623440693171517
      ],
      [
        "nich",
        -10.624294098141979
      ],
      [
        "Ġbar",
        -10.626947755677104
      ],
      [
        "Ġvru",
        -10.62713568190955
      ],
      [
        "ABCC",
        -10.627243748484835
      ],
      [
        "ĠvtvÃ¡",
        -10.629843385320685
      ],
      [
        "Ġhlo",
        -10.632492633365217
      ],
      [
        "ĠpÄĽl",
        -10.632657467981032
      ],
      [
        "vÄĽÄ",
        -10.632915106030412
      ],
      [
        "ĠvraÅ¾",
        -10.634128746079774
      ],
      [
        "kÃ½m",
        -10.635070694719102
      ],
      [
        "ĠztÄĽ",
        -10.635638051327554
      ],
      [
        "ĠzlÃ½",
        -10.636962656613695
      ],
      [
        "Ġvzdy",
        -10.638040173405875
      ],
      [
        "ĠkÅĻes",
        -10.638143842018449
      ],
      [
        "Ġmo",
        -10.641746757497906
      ],
      [
        "ĠvÄĽc",
        -10.645400977085792
      ],
      [
        "ĠdruÅ",
        -10.646216722611715
      ],
      [
        "Ġzno",
        -10.64792081332505
      ],
      [
        "zdÃ¡",
        -10.647987214603766
      ],
      [
        "tam",
        -10.651537085201555
      ],
      [
        "ĠtlÃ©",
        -10.659881991433533
      ],
      [
        "ĠjÃŃmÅ",
        -10.662852342718086
      ],
      [
        "vlas",
        -10.663123061686516
      ],
      [
        "ĠÅĪÃ¡",
        -10.663135429507157
      ],
      [
        "ĠchceÅ",
        -10.663657028097404
      ],
      [
        "Ġctno",
        -10.664145206328062
      ],
      [
        "hÅĻ",
        -10.66971519158574
      ],
      [
        "Ġbes",
        -10.672979086762815
      ],
      [
        "Äįas",
        -10.676473572844193
      ],
      [
        "nÃŃÅ¾",
        -10.679476731880452
      ],
      [
        "Ġdr",
        -10.681968034309993
      ],
      [
        "Ġdl",
        -10.682659431055594
      ],
      [
        "Ġblu",
        -10.682754305864826
      ],
      [
        "ĠÅ¾Å¯",
        -10.684892681833388
      ],
      [
        "stra",
        -10.68666236154396
      ],
      [
        "Ġples",
        -10.68887128995748
      ],
      [
        "Ġdej",
        -10.68936781978734
      ],
      [
        "kro",
        -10.69317062807227
      ],
      [
        "ĠdlÃ½",
        -10.697966285309803
      ],
      [
        "Ġzlou",
        -10.699256246064387
      ],
      [
        "ĠslÅ¯",
        -10.699837374835004
      ],
      [
        "Ġvstou",
        -10.700043335832309
      ],
      [
        "Ġchej",
        -10.705898569775325
      ],
      [
        "Ġskro",
        -10.706629451633543
      ],
      [
        "ĠÅ¡lech",
        -10.708543498313318
      ],
      [
        "pr",
        -10.70866872149494
      ],
      [
        "jenÅ",
        -10.709383466339492
      ],
      [
        "ĠslÃ½",
        -10.710379931923113
      ],
      [
        "kÅĻÃŃ",
        -10.710504372298711
      ],
      [
        "Ġspro",
        -10.711903844269925
      ],
      [
        "ĠvÅĻÃŃ",
        -10.712015205552834
      ],
      [
        "zpÄĽ",
        -10.712100978582779
      ],
      [
        "tÅĻÃŃ",
        -10.712197866872522
      ],
      [
        "ĠtÃ¡m",
        -10.712304343445384
      ],
      [
        "stÄĽ",
        -10.713098576688267
      ],
      [
        "bles",
        -10.716137784052533
      ],
      [
        "Ġnez",
        -10.71639766271899
      ],
      [
        "Ġry",
        -10.718466159899837
      ],
      [
        "ĠvÅ¡ÃŃm",
        -10.7208699711827
      ],
      [
        "nic",
        -10.72109084604243
      ],
      [
        "ĠvkrÃ¡",
        -10.72170769332678
      ],
      [
        "Ġtec",
        -10.724107029828792
      ],
      [
        "ko",
        -10.730335668871033
      ],
      [
        "x",
        -10.733210192667393
      ],
      [
        "Ġco",
        -10.734466109108434
      ],
      [
        "Ġvhlou",
        -10.735935307192372
      ],
      [
        "ĠdnÃŃ",
        -10.736883946071906
      ],
      [
        "lo",
        -10.738240774983973
      ],
      [
        "rem",
        -10.740967338984419
      ],
      [
        "ĠÅ¡ly",
        -10.741414579346896
      ],
      [
        "ĠÅĪo",
        -10.742085083968485
      ],
      [
        "Å¡tÄĽ",
        -10.742788194916036
      ],
      [
        "rech",
        -10.743397237235445
      ],
      [
        "Ġzd",
        -10.74634998363494
      ],
      [
        "Ġzal",
        -10.747508868206152
      ],
      [
        "ĠmraÄ",
        -10.747634452502762
      ],
      [
        "ĠbouÅ",
        -10.747807346353952
      ],
      [
        "ĠrtÅ¯",
        -10.747999775381759
      ],
      [
        "Ġtva",
        -10.748070528162016
      ],
      [
        "ĠzlÃ¡",
        -10.749234769681523
      ],
      [
        "ĠmÅĻÃŃ",
        -10.75009854095071
      ],
      [
        "Ġfran",
        -10.750366937958653
      ],
      [
        "ĠslÃŃm",
        -10.751260996286003
      ],
      [
        "Ġvo",
        -10.753750342854225
      ],
      [
        "ı",
        -10.754198147028301
      ],
      [
        "Ġge",
        -10.754234117472134
      ],
      [
        "Ġn",
        -10.754476661067374
      ],
      [
        "tro",
        -10.755458622777105
      ],
      [
        "nÃŃz",
        -10.75577524203342
      ],
      [
        "nÃ¡s",
        -10.756646517715039
      ],
      [
        "ĠknÃ¡",
        -10.757349325466654
      ],
      [
        "plÃ¡",
        -10.764859703467332
      ],
      [
        "Ġdar",
        -10.765424767451135
      ],
      [
        "Ġgo",
        -10.766380982019479
      ],
      [
        "ĠhÅ¯m",
        -10.769724630358077
      ],
      [
        "AB",
        -10.771136698790185
      ],
      [
        "ĠznÄĽl",
        -10.772314589768841
      ],
      [
        "ĠÅ¡l",
        -10.775442511394715
      ],
      [
        "Ġvstal",
        -10.779980537809982
      ],
      [
        "ĠdnÅ¯",
        -10.780506548848953
      ],
      [
        "189",
        -10.780571652228058
      ],
      [
        "Ġper",
        -10.783013186448525
      ],
      [
        "Ġskr",
        -10.785206705967047
      ],
      [
        "Ġzru",
        -10.785335173520199
      ],
      [
        "mÅ¯j",
        -10.785907662839433
      ],
      [
        "Ġzba",
        -10.78715835207033
      ],
      [
        "ĠkrÅ¯",
        -10.78916419623486
      ],
      [
        "q",
        -10.791699057258658
      ],
      [
        "Ġzkou",
        -10.794346849937837
      ],
      [
        "ĠskÅĻÃŃ",
        -10.799133648554664
      ],
      [
        "ĠpÅĻÃŃÅ¡",
        -10.800493425028614
      ],
      [
        "Ġgra",
        -10.804642344632365
      ],
      [
        "Ġchli",
        -10.807401681221146
      ],
      [
        "dÃŃm",
        -10.810411590534953
      ],
      [
        "pÅ¯",
        -10.814794211146923
      ],
      [
        "Ġzbu",
        -10.816042800102803
      ],
      [
        "ĠnÃŃÅ¾",
        -10.816734889812672
      ],
      [
        "ABCD",
        -10.8174068776361
      ],
      [
        "chvÄĽ",
        -10.818653085863232
      ],
      [
        "Ġboj",
        -10.818682509016346
      ],
      [
        "zra",
        -10.818879221030974
      ],
      [
        "Ġspou",
        -10.81890408839438
      ],
      [
        "Ġkol",
        -10.819570893983636
      ],
      [
        "stvÃŃ",
        -10.819797412667578
      ],
      [
        "teÄı",
        -10.820013108557161
      ],
      [
        "stou",
        -10.820586949946756
      ],
      [
        "hlas",
        -10.82111779746129
      ],
      [
        "ĠstrÃ©",
        -10.822848952564193
      ],
      [
        "ĠvÄĽÅ¡",
        -10.823030164830486
      ],
      [
        "Ġkne",
        -10.82429776724417
      ],
      [
        "ĠmlÃ½",
        -10.826562804530129
      ],
      [
        "ĠstrÃ¡Å",
        -10.826611456865852
      ],
      [
        "Ġde",
        -10.828171703255453
      ],
      [
        "Ã¡Å¥",
        -10.829330098063917
      ],
      [
        "Ġ196",
        -10.83179653722299
      ],
      [
        "Ġzce",
        -10.833484449059522
      ],
      [
        "Ġra",
        -10.83355654195685
      ],
      [
        "ĠÅ¾dy",
        -10.834949547375354
      ],
      [
        "Ġvpa",
        -10.835695189192531
      ],
      [
        "ĠtÃ©Å",
        -10.838681433461746
      ],
      [
        "ĠvÅ¡",
        -10.839274688470981
      ],
      [
        "ĠpsÃ¡",
        -10.8397856187579
      ],
      [
        "vil",
        -10.841613784021888
      ],
      [
        "ĠslÃ©z",
        -10.842164228712575
      ],
      [
        "kle",
        -10.842627628505705
      ],
      [
        "chvÃŃ",
        -10.843264403765147
      ],
      [
        "ÃŃÅ¾",
        -10.843671470676782
      ],
      [
        "ĠzpÅ¯",
        -10.844903217269637
      ],
      [
        "Ġska",
        -10.845337994232963
      ],
      [
        "Ġchlu",
        -10.848712427811034
      ],
      [
        "ĠloÄı",
        -10.848752321080685
      ],
      [
        "chla",
        -10.850101636224974
      ],
      [
        "jsou",
        -10.854049669946045
      ],
      [
        "bla",
        -10.854674680567653
      ],
      [
        "ĠvÅĻa",
        -10.856987310032434
      ],
      [
        "ĠzÃŃm",
        -10.858841560980634
      ],
      [
        "Ġsni",
        -10.859003002853989
      ],
      [
        "Ġsp",
        -10.859832994369743
      ],
      [
        "Ġvel",
        -10.859882799827346
      ],
      [
        "Ġzka",
        -10.860540837795158
      ],
      [
        "Ãºs",
        -10.861909494696
      ],
      [
        "Ġtlou",
        -10.861963562629287
      ],
      [
        "Ġpry",
        -10.8620644033448
      ],
      [
        "Ġkd",
        -10.862472691228803
      ],
      [
        "ĠaÄį",
        -10.862643172287905
      ],
      [
        "Ġba",
        -10.862877246348022
      ],
      [
        "ce",
        -10.865986548797332
      ],
      [
        "AXAXB",
        -10.866806660360472
      ],
      [
        "stÅĻe",
        -10.867617634381226
      ],
      [
        "dru",
        -10.868420859224024
      ],
      [
        "muÅ¾",
        -10.870189395044859
      ],
      [
        "se",
        -10.87449226818026
      ],
      [
        "ĠtÅĻil",
        -10.875316698399512
      ],
      [
        "ĠkÃ©Å¾",
        -10.87561245938615
      ],
      [
        "188",
        -10.876174168431199
      ],
      [
        "ĠvznÃ¡",
        -10.87674563395186
      ],
      [
        "Ġnil",
        -10.877338048791628
      ],
      [
        "Ġvni",
        -10.877500225138444
      ],
      [
        "nul",
        -10.878243226470081
      ],
      [
        "Ġplou",
        -10.878395357509625
      ],
      [
        "kÅĻi",
        -10.878398040843118
      ],
      [
        "Ġstes",
        -10.879035359496656
      ],
      [
        "Ġbuj",
        -10.879128954037638
      ],
      [
        "ĠblÃ½s",
        -10.881810285889008
      ],
      [
        "ĠÅ¥Ã¡",
        -10.88262298853783
      ],
      [
        "tvÃ½ch",
        -10.882810435750093
      ],
      [
        "ĠstÅĻi",
        -10.882946993297992
      ],
      [
        "Å¾il",
        -10.885422934168796
      ],
      [
        "kra",
        -10.885976430554672
      ],
      [
        "ĠvmÄĽ",
        -10.887108464162848
      ],
      [
        "ste",
        -10.887426651919386
      ],
      [
        "Ġj",
        -10.887555548550687
      ],
      [
        "Ġzpra",
        -10.888475098743791
      ],
      [
        "hlou",
        -10.888517197390442
      ],
      [
        "Å¡ÃŃm",
        -10.89074978093887
      ],
      [
        "ABCBC",
        -10.891262383543836
      ],
      [
        "mnÄĽ",
        -10.892531586643413
      ],
      [
        "ĠvklÃŃ",
        -10.892974770278276
      ],
      [
        "Ġvkra",
        -10.893530454315943
      ],
      [
        "stu",
        -10.89365324337942
      ],
      [
        "Ġvzle",
        -10.895426082531722
      ],
      [
        "ĠmÄĽj",
        -10.89917567397585
      ],
      [
        "svÃ½",
        -10.904069765925518
      ],
      [
        "che",
        -10.904382962359273
      ],
      [
        "Ġkve",
        -10.904471039777409
      ],
      [
        "Ã¡m",
        -10.910076099670658
      ],
      [
        "ĠbÅĻi",
        -10.91076143422337
      ],
      [
        "hned",
        -10.910827711735068
      ],
      [
        "ĠpÅĻÃŃs",
        -10.911852415240547
      ],
      [
        "Ġpros",
        -10.91207149508509
      ],
      [
        "tÃ½ch",
        -10.912736222046961
      ],
      [
        "bÅĻe",
        -10.913733357284382
      ],
      [
        "ĠmÃŃm",
        -10.914804405944151
      ],
      [
        "Ġjde",
        -10.915303181294254
      ],
      [
        "ĠÄįÃŃÅ",
        -10.915583691700073
      ],
      [
        "ĠdvÃ¡",
        -10.918946853544309
      ],
      [
        "Ġvhla",
        -10.919767385811813
      ],
      [
        "ĠschvÃ¡",
        -10.91993779366527
      ],
      [
        "Ġdce",
        -10.921048010416332
      ],
      [
        "ĠvbÃŃ",
        -10.922469445641765
      ],
      [
        "ĠdÄĽc",
        -10.922632380433054
      ],
      [
        "slo",
        -10.926636197037013
      ],
      [
        "ĠvnÃŃÅ¾",
        -10.927661776835109
      ],
      [
        "tich",
        -10.929182261159298
      ],
      [
        "stro",
        -10.929528743993556
      ],
      [
        "Ġbi",
        -10.92967279167738
      ],
      [
        "lÃ¡Å¡",
        -10.931115300754108
      ],
      [
        "Ġpad",
        -10.93176319590653
      ],
      [
        "Ġklou",
        -10.93183483747652
      ],
      [
        "na",
        -10.931902831393074
      ],
      [
        "ĠvÃ¡l",
        -10.933630399915096
      ],
      [
        "Ġprac",
        -10.937964057636032
      ],
      [
        "ĠsprÃ¡",
        -10.938241012390442
      ],
      [
        "ĠskÅĻi",
        -10.940292524772603
      ],
      [
        "ĠvÄĽÅ",
        -10.941268808916734
      ],
      [
        "Ġvho",
        -10.942287394402028
      ],
      [
        "ĠvstÃŃ",
        -10.943917069661708
      ],
      [
        "Ġtrys",
        -10.944313555041344
      ],
      [
        "190",
        -10.945272832641256
      ],
      [
        "kdy",
        -10.946145346569073
      ],
      [
        "ĠklÃ½",
        -10.950413618898054
      ],
      [
        "ĠniÅ¾",
        -10.951056738525939
      ],
      [
        "ĠdvÅ¯",
        -10.955969833821488
      ],
      [
        "chrÃ¡",
        -10.95604600986848
      ],
      [
        "Ġvro",
        -10.956624281717371
      ],
      [
        "ĠÅ¡et",
        -10.956805060334618
      ],
      [
        "Ġtlo",
        -10.95729777960252
      ],
      [
        "AXAX",
        -10.959116205597034
      ],
      [
        "ĠlÃŃm",
        -10.96092045071403
      ],
      [
        "ĠÄįty",
        -10.962092470212989
      ],
      [
        "dÃ¡m",
        -10.962618334432069
      ],
      [
        "ĠÅ¾to",
        -10.963054154353099
      ],
      [
        "Ġzku",
        -10.965241006552132
      ],
      [
        "Ġvze",
        -10.965303600118286
      ],
      [
        "hlÃŃ",
        -10.967464958046074
      ],
      [
        "sÃ¡",
        -10.968490929264922
      ],
      [
        "ĠtÃ³",
        -10.968565853593956
      ],
      [
        "ĠspÃŃÅ",
        -10.96857186121824
      ],
      [
        "Ġchlo",
        -10.969777198737308
      ],
      [
        "Ġnnos",
        -10.973617466826516
      ],
      [
        "Ġzdr",
        -10.973780471684972
      ],
      [
        "ĠvÅ¡i",
        -10.974064659163446
      ],
      [
        "neÅ¾",
        -10.974508399912848
      ],
      [
        "ĠhnÃŃz",
        -10.97547991199103
      ],
      [
        "ĠhrÃ¡l",
        -10.976095354521908
      ],
      [
        "ÃŃm",
        -10.976382887945581
      ],
      [
        "ĠstÃ½ch",
        -10.977592639050586
      ],
      [
        "pÃ¡n",
        -10.978674231498857
      ],
      [
        "Ġskvos",
        -10.9791649959993
      ],
      [
        "spo",
        -10.982295690638269
      ],
      [
        "ĠmiÅ¾",
        -10.982440016271688
      ],
      [
        "hrÃ¡",
        -10.982489812866763
      ],
      [
        "Ġvkr",
        -10.983602297264179
      ],
      [
        "ĠlkÃ¡",
        -10.983802718545956
      ],
      [
        "ĠvlÃ¡s",
        -10.984568651831669
      ],
      [
        "Ġzbro",
        -10.984583274518952
      ],
      [
        "Ġvmo",
        -10.985768793740696
      ],
      [
        "Ġ194",
        -10.98616160440208
      ],
      [
        "pÃŃs",
        -10.989726945375963
      ],
      [
        "ĠÅĪu",
        -10.99097551683219
      ],
      [
        "Ġsna",
        -10.991335079989245
      ],
      [
        "kli",
        -10.991384450716087
      ],
      [
        "Ġstran",
        -10.992626815639255
      ],
      [
        "Ġly",
        -10.994567957792807
      ],
      [
        "ÅĻÃŃm",
        -10.996979699877707
      ],
      [
        "ĠplÃŃ",
        -10.997291241652178
      ],
      [
        "Ġny",
        -10.999380639772257
      ],
      [
        "hled",
        -10.99989815369872
      ],
      [
        "em",
        -11.00188825312549
      ],
      [
        "nÄĽm",
        -11.002415312510601
      ],
      [
        "Ġzble",
        -11.004264119442373
      ],
      [
        "Ġvkou",
        -11.004518233529698
      ],
      [
        "Ġzdro",
        -11.004831458068415
      ],
      [
        "Ġbru",
        -11.006940801322475
      ],
      [
        "Ġzhou",
        -11.007280987270507
      ],
      [
        "Ġdvou",
        -11.007562474631223
      ],
      [
        "zla",
        -11.007833413348383
      ],
      [
        "Ġhrou",
        -11.008672746493174
      ],
      [
        "hÅ¯",
        -11.011793670197752
      ],
      [
        "ĠsbÃŃ",
        -11.015023441606044
      ],
      [
        "cÅ¯",
        -11.018084336221511
      ],
      [
        "Ġty",
        -11.01815035965292
      ],
      [
        "Ġcit",
        -11.018375218124437
      ],
      [
        "ĠzÃ¡Å¡",
        -11.019986962321342
      ],
      [
        "ky",
        -11.020653997371362
      ],
      [
        "ĠzdaÅ¾",
        -11.021080640018855
      ],
      [
        "Ġvzbu",
        -11.022339566391441
      ],
      [
        "ĠslÃ©",
        -11.023185920902108
      ],
      [
        "Ġznal",
        -11.023233794413079
      ],
      [
        "Ġstry",
        -11.02346084570982
      ],
      [
        "Ġvsku",
        -11.023535873954344
      ],
      [
        "ĠvsÃŃ",
        -11.028665315246158
      ],
      [
        "ĠÅĻÃŃc",
        -11.028888800836574
      ],
      [
        "ĠÅ¡en",
        -11.030379123078507
      ],
      [
        "les",
        -11.032184034758677
      ],
      [
        "Ġsi",
        -11.032189164252289
      ],
      [
        "Ġkmi",
        -11.032548616371248
      ],
      [
        "Ġvsla",
        -11.03407196660228
      ],
      [
        "Ġvko",
        -11.034755867078164
      ],
      [
        "Ġtu",
        -11.04102883441739
      ],
      [
        "deÅ¡",
        -11.042177330043854
      ],
      [
        "Å¡tÃŃ",
        -11.047702290493026
      ],
      [
        "ĠtlÃ½",
        -11.048532339588297
      ],
      [
        "Ġhu",
        -11.04880476632754
      ],
      [
        "trÃ¡",
        -11.049034375457795
      ],
      [
        "Ġzha",
        -11.049865553691214
      ],
      [
        "ĠzÄįe",
        -11.050450920346892
      ],
      [
        "ÅĻek",
        -11.053569440390154
      ],
      [
        "Å¾a",
        -11.054085872406116
      ],
      [
        "ĠÅ¾rou",
        -11.055640823056486
      ],
      [
        "Ġstla",
        -11.059295189221453
      ],
      [
        "plÃ½",
        -11.059955045042301
      ],
      [
        "Ġnos",
        -11.060732971574913
      ],
      [
        "Ġmen",
        -11.061298851181407
      ],
      [
        "AABCC",
        -11.062340410628467
      ],
      [
        "Ġblan",
        -11.062412195523667
      ],
      [
        "Ġspi",
        -11.063382033854008
      ],
      [
        "ĠÅ¾u",
        -11.065561610658353
      ],
      [
        "ĠvzkÅĻi",
        -11.068062744343214
      ],
      [
        "Ġhy",
        -11.069295368137245
      ],
      [
        "ĠvzÃŃ",
        -11.06944209920164
      ],
      [
        "za",
        -11.070536444392005
      ],
      [
        "ĠÅ¡vi",
        -11.071890647356232
      ],
      [
        "Ġma",
        -11.07241268553048
      ],
      [
        "Ġzhy",
        -11.073168999269916
      ],
      [
        "Ġknim",
        -11.073710537864583
      ],
      [
        "ABAA",
        -11.074274450722992
      ],
      [
        "vra",
        -11.075383644427697
      ],
      [
        "vrÃ¡",
        -11.075477775320303
      ],
      [
        "ĠmÅĻel",
        -11.075949644793331
      ],
      [
        "ĠkdeÅ¾",
        -11.077007180329856
      ],
      [
        "Ġtry",
        -11.08143858327825
      ],
      [
        "Ġm",
        -11.082295013482664
      ],
      [
        "ĠhÅĻb",
        -11.08232593760509
      ],
      [
        "ĠÅ¡er",
        -11.08339481961604
      ],
      [
        "aÅĻ",
        -11.08756276537326
      ],
      [
        "Ġha",
        -11.087749084304125
      ],
      [
        "ĠvpÅĻe",
        -11.090123343362038
      ],
      [
        "ĠÄįte",
        -11.090543234725924
      ],
      [
        "Ġkal",
        -11.090665138396883
      ],
      [
        "Ġdly",
        -11.09266124308466
      ],
      [
        "Ġtel",
        -11.09282334278183
      ],
      [
        "sÃ¡m",
        -11.093654328736724
      ],
      [
        "kde",
        -11.09560956157859
      ],
      [
        "Ġ180",
        -11.097558801792468
      ],
      [
        "Ġpan",
        -11.098857492707603
      ],
      [
        "Ġda",
        -11.099978317353246
      ],
      [
        "ouÅ¡",
        -11.100602288646254
      ],
      [
        "Ġlil",
        -11.10196792129531
      ],
      [
        "ĠplÃ¡Å¡",
        -11.103115512725026
      ],
      [
        "ĠmrÃ¡",
        -11.103429047084724
      ],
      [
        "dÅĻÃŃ",
        -11.104332315540058
      ],
      [
        "Ġkpo",
        -11.105611571481619
      ],
      [
        "Äįes",
        -11.108486034561656
      ],
      [
        "ĠvzplÃ¡",
        -11.113915243981513
      ],
      [
        "Ġvrouc",
        -11.114913813252343
      ],
      [
        "ĠbÃ¡l",
        -11.118043699511048
      ],
      [
        "ĠkÅĻiv",
        -11.118294757352439
      ],
      [
        "zpÃŃ",
        -11.118606953360938
      ],
      [
        "ĠstrÃ½c",
        -11.119127172840974
      ],
      [
        "Ġh",
        -11.121268616308777
      ],
      [
        "mra",
        -11.122125645103058
      ],
      [
        "ĠvÄįa",
        -11.122506175903927
      ],
      [
        "til",
        -11.124858733988336
      ],
      [
        "ĠvÄĽt",
        -11.12609354649607
      ],
      [
        "hnÄĽ",
        -11.126683523716489
      ],
      [
        "ĠzdrÃ¡",
        -11.127842092876623
      ],
      [
        "Ġfer",
        -11.130686049997037
      ],
      [
        "ÅĻÃ¡",
        -11.131165593030728
      ],
      [
        "ĠkaÅ",
        -11.134340276769024
      ],
      [
        "ĠvlÅ¯",
        -11.13519168936791
      ],
      [
        "Ġnes",
        -11.136706861096501
      ],
      [
        "Ġgu",
        -11.136865868568188
      ],
      [
        "ĠÅ¾em",
        -11.138216452163702
      ],
      [
        "ĠÅ¡kle",
        -11.13832821177731
      ],
      [
        "Ġzum",
        -11.141078557094936
      ],
      [
        "Ġhvoz",
        -11.142554609469943
      ],
      [
        "Ġvhlu",
        -11.143333423386565
      ],
      [
        "Ġzel",
        -11.143637782209035
      ],
      [
        "ĠÅ¾er",
        -11.143821427507715
      ],
      [
        "vy",
        -11.144176862322524
      ],
      [
        "Ġvdo",
        -11.146234420982292
      ],
      [
        "Ġkud",
        -11.149337624043877
      ],
      [
        "Ġtres",
        -11.150438755482138
      ],
      [
        "ĠÅĻeÄ",
        -11.153161415337046
      ],
      [
        "Ġstvu",
        -11.154929774291789
      ],
      [
        "tÅĻi",
        -11.159121549227452
      ],
      [
        "Ġles",
        -11.160582553309135
      ],
      [
        "ĠstÃ½m",
        -11.162310798433223
      ],
      [
        "oÅ¡",
        -11.163434306263905
      ],
      [
        "Ġvr",
        -11.164460334039093
      ],
      [
        "Ġnoc",
        -11.164484987062906
      ],
      [
        "Ġpar",
        -11.166268548716479
      ],
      [
        "vÅ¾dy",
        -11.167014602410347
      ],
      [
        "moc",
        -11.17108342324301
      ],
      [
        "Ġbre",
        -11.171383645096677
      ],
      [
        "hrÅ¯",
        -11.172486736464084
      ],
      [
        "Ġpsal",
        -11.174620938437679
      ],
      [
        "Ġzl",
        -11.174778024388269
      ],
      [
        "ĠzvÄĽs",
        -11.176006805088049
      ],
      [
        "hÅĻÃŃ",
        -11.178173073453824
      ],
      [
        "Ġzpu",
        -11.178417374534448
      ],
      [
        "ĠhnÃ¡",
        -11.179873374432631
      ],
      [
        "tru",
        -11.180639865082869
      ],
      [
        "hor",
        -11.180697273811923
      ],
      [
        "Ġbl",
        -11.181445320664185
      ],
      [
        "Ġzhro",
        -11.181863171061872
      ],
      [
        "ĠÅ¥as",
        -11.182973174842806
      ],
      [
        "ĠhlÃ©d",
        -11.18313166906548
      ],
      [
        "Ã½Å¾",
        -11.184546212311973
      ],
      [
        "ten",
        -11.184577475610334
      ],
      [
        "ĠvkaÅ",
        -11.1860908615513
      ],
      [
        "jÃŃc",
        -11.18638719944845
      ],
      [
        "Ġmdlo",
        -11.186484771974852
      ],
      [
        "Ġhnal",
        -11.186692253055673
      ],
      [
        "prou",
        -11.188405186271755
      ],
      [
        "Ġsnil",
        -11.189125809337805
      ],
      [
        "ĠvnÄĽ",
        -11.189187184964775
      ],
      [
        "ĠvpÅĻÃŃ",
        -11.194368837094762
      ],
      [
        "ĠzkrÃ¡",
        -11.195168350812741
      ],
      [
        "ABCDC",
        -11.195694120986127
      ],
      [
        "ych",
        -11.197802361410426
      ],
      [
        "kÃ¡m",
        -11.198213139225171
      ],
      [
        "ĠspÄĽÅ",
        -11.199661988521623
      ],
      [
        "ĠmÄĽÅ",
        -11.200605861045727
      ],
      [
        "kÃ¡ch",
        -11.206660838302327
      ],
      [
        "dla",
        -11.207904925901238
      ],
      [
        "ĠtÄĽj",
        -11.209385312079792
      ],
      [
        "Ġvzru",
        -11.209906711943015
      ],
      [
        "Å¾en",
        -11.209978781955662
      ],
      [
        "ĠzmÃ¡",
        -11.214134006491577
      ],
      [
        "ĠlÃŃc",
        -11.214472778502921
      ],
      [
        "Ġfra",
        -11.214970822156577
      ],
      [
        "ĠvpÃŃ",
        -11.216719954850342
      ],
      [
        "Ġtlu",
        -11.217830520108564
      ],
      [
        "ĠstÅĻel",
        -11.218922746966667
      ],
      [
        "ĠÅ¡pi",
        -11.219344657393181
      ],
      [
        "ĠjimÅ",
        -11.220214477288158
      ],
      [
        "ĠvÄįer",
        -11.221811280077791
      ],
      [
        "Ġhal",
        -11.223031295370552
      ],
      [
        "ich",
        -11.223353291198823
      ],
      [
        "ĠÅ¡Å¯",
        -11.223605875409314
      ],
      [
        "mi",
        -11.225387156404961
      ],
      [
        "ĠdnÃ½",
        -11.225571573257467
      ],
      [
        "ku",
        -11.22580370121834
      ],
      [
        "ĠvprÃ¡",
        -11.227953083844824
      ],
      [
        "blou",
        -11.228434133062564
      ],
      [
        "ĠÄįu",
        -11.22864814534299
      ],
      [
        "sva",
        -11.229334698302317
      ],
      [
        "Ġvbou",
        -11.22941290061992
      ],
      [
        "ĠctÃŃ",
        -11.234986668125012
      ],
      [
        "ptÃ¡",
        -11.235884858384182
      ],
      [
        "ĠhÅĻÃŃÅ¡",
        -11.23638235100771
      ],
      [
        "ĠÄįnÃŃ",
        -11.237627787442221
      ],
      [
        "zas",
        -11.240058522696039
      ],
      [
        "zde",
        -11.241469708895037
      ],
      [
        "ĠtÃŃÅ",
        -11.24218766081484
      ],
      [
        "Ġvsou",
        -11.242534207090916
      ],
      [
        "lÃŃc",
        -11.2433315945694
      ],
      [
        "Ġpal",
        -11.244568305266718
      ],
      [
        "Ġvyz",
        -11.244851561426325
      ],
      [
        "Ġskla",
        -11.245662561137976
      ],
      [
        "chÅ¯",
        -11.245681923609027
      ],
      [
        "ĠhÅĻmÃŃ",
        -11.247273219219766
      ],
      [
        "Ġvem",
        -11.2491912776953
      ],
      [
        "Ġvot",
        -11.249617869505713
      ],
      [
        "Ġvzni",
        -11.250180887213222
      ],
      [
        "Ġprs",
        -11.253239050728903
      ],
      [
        "Ġfor",
        -11.253927401712584
      ],
      [
        "Ġgon",
        -11.255057889749425
      ],
      [
        "Äįil",
        -11.256735821677575
      ],
      [
        "Ġslal",
        -11.257117118506178
      ],
      [
        "Ġkre",
        -11.260140710585171
      ],
      [
        "ĠÅ¡Å¥a",
        -11.260508359837411
      ],
      [
        "ĠchlÃ½",
        -11.26221638164194
      ],
      [
        "chÃ½",
        -11.26470474370491
      ],
      [
        "skÃ½m",
        -11.264739757161234
      ],
      [
        "Ġvne",
        -11.266295247657379
      ],
      [
        "kru",
        -11.267450975472558
      ],
      [
        "Ġspal",
        -11.268307801836265
      ],
      [
        "vlÃ¡",
        -11.268538157937083
      ],
      [
        "ĠnÃ",
        -11.270611728988017
      ],
      [
        "mÃ½",
        -11.274592471275348
      ],
      [
        "Ġtek",
        -11.276304133680606
      ],
      [
        "XAXAX",
        -11.276943769425207
      ],
      [
        "Ġspla",
        -11.27711159843033
      ],
      [
        "ĠzkÃ¡",
        -11.278376156325082
      ],
      [
        "ĠtrÃ½",
        -11.27905115445284
      ],
      [
        "slÃ¡",
        -11.27909858147998
      ],
      [
        "smr",
        -11.279736206794711
      ],
      [
        "Ġvkro",
        -11.283357800835457
      ],
      [
        "ĠÅĻec",
        -11.286547172802889
      ],
      [
        "ĠztÃ©",
        -11.288096286879162
      ],
      [
        "ĠzhlÃŃ",
        -11.288366466113782
      ],
      [
        "chvÃ¡",
        -11.28890419391128
      ],
      [
        "vla",
        -11.289561030299751
      ],
      [
        "ÄįÃŃm",
        -11.290143979586201
      ],
      [
        "191",
        -11.292039585385973
      ],
      [
        "ĠstÅĻÃ¡",
        -11.29391878896137
      ],
      [
        "ĠkÄįe",
        -11.297332227370566
      ],
      [
        "ĠvmÃŃ",
        -11.299511800067597
      ],
      [
        "ĠdÃ¡n",
        -11.301570450189837
      ],
      [
        "rÃ©m",
        -11.301907180889511
      ],
      [
        "Ġfan",
        -11.303027669633124
      ],
      [
        "Ġcti",
        -11.306556015210393
      ],
      [
        "Ġvple",
        -11.30703335124178
      ],
      [
        "ĠvplÃ¡",
        -11.307259216204343
      ],
      [
        "ĠstÅ¯j",
        -11.308265099449086
      ],
      [
        "Ġzlos",
        -11.308533023016835
      ],
      [
        "ĠtÅĻÃ¡s",
        -11.308751209385118
      ],
      [
        "Ġzni",
        -11.309687858907804
      ],
      [
        "ĠhÅĻmÄĽ",
        -11.31026907932744
      ],
      [
        "brÃ¡",
        -11.312763731347115
      ],
      [
        "ĠplÃ½",
        -11.314500148933007
      ],
      [
        "Ġzko",
        -11.316185994049935
      ],
      [
        "Ġmat",
        -11.31716549734606
      ],
      [
        "Ġsho",
        -11.317882772833373
      ],
      [
        "raÅ¾",
        -11.318502578453334
      ],
      [
        "bo",
        -11.32173583919125
      ],
      [
        "mÃ¡m",
        -11.321864349065596
      ],
      [
        "ĠvsnÄĽ",
        -11.322342913443498
      ],
      [
        "sly",
        -11.322653830094454
      ],
      [
        "Ġstrh",
        -11.323171627811295
      ],
      [
        "hlÃ©",
        -11.323492627259503
      ],
      [
        "hem",
        -11.324993123539471
      ],
      [
        "kvÃŃ",
        -11.325260455878986
      ],
      [
        "192",
        -11.326027040369723
      ],
      [
        "Ġzpr",
        -11.32651229414492
      ],
      [
        "ĠÅ¾ÃŃÅ",
        -11.326673389419703
      ],
      [
        "Ġstih",
        -11.327047658294987
      ],
      [
        "kte",
        -11.330322383990794
      ],
      [
        "ĠÅ¾eÅ",
        -11.330840433315533
      ],
      [
        "ĠzdÃŃ",
        -11.331550436132364
      ],
      [
        "Ġber",
        -11.331788785239688
      ],
      [
        "ĠvlÃ©",
        -11.333632774842634
      ],
      [
        "ĠpÃ¡s",
        -11.334064400112798
      ],
      [
        "Ġstl",
        -11.334571778577175
      ],
      [
        "liÅ¡",
        -11.335048639132904
      ],
      [
        "Ġztr",
        -11.339203824019485
      ],
      [
        "Ġdros",
        -11.340294194195252
      ],
      [
        "ĠÅĻis",
        -11.340510652437434
      ],
      [
        "ĠtmÄĽ",
        -11.341238927329936
      ],
      [
        "Ġspja",
        -11.343978446224419
      ],
      [
        "ĠhÅĻbe",
        -11.344977026150843
      ],
      [
        "Ã¡s",
        -11.345388522258322
      ],
      [
        "Ġmy",
        -11.346327661058693
      ],
      [
        "pÅĻes",
        -11.346525294060617
      ],
      [
        "ĠÅ¡lÃŃ",
        -11.346948578017908
      ],
      [
        "blÃŃz",
        -11.348290032796427
      ],
      [
        "ĠhÅĻÃ¡",
        -11.35070727882852
      ],
      [
        "Ġvzd",
        -11.35117250682758
      ],
      [
        "do",
        -11.352343716342956
      ],
      [
        "ĠvtvÃ©",
        -11.352683474309755
      ],
      [
        "slou",
        -11.353171725173386
      ],
      [
        "hoÅĻ",
        -11.353816117168943
      ],
      [
        "Ġklu",
        -11.35420480351779
      ],
      [
        "ĠkvÃ¡",
        -11.355257550524602
      ],
      [
        "ĠchÅĻi",
        -11.357062971232411
      ],
      [
        "Ġvzla",
        -11.357369977847213
      ],
      [
        "ĠtÅĻeÅ¡",
        -11.361043556126322
      ],
      [
        "vÃ¡Å",
        -11.361068339565625
      ],
      [
        "Ġmsti",
        -11.361192693695706
      ],
      [
        "Ġnu",
        -11.361851925296541
      ],
      [
        "AAXB",
        -11.365090591405604
      ],
      [
        "ĠmrÅ¡",
        -11.365378689029138
      ],
      [
        "Ġvzpla",
        -11.366550808112855
      ],
      [
        "Ġzhlu",
        -11.368000278536663
      ],
      [
        "ĠtlÃ¡",
        -11.368192764619943
      ],
      [
        "pÅĻec",
        -11.368842185789367
      ],
      [
        "ĠbÃ¡m",
        -11.370071893854234
      ],
      [
        "ĠzbraÅ",
        -11.3713946406131
      ],
      [
        "Ġplach",
        -11.371435855780913
      ],
      [
        "Ġvten",
        -11.373715139845352
      ],
      [
        "ĠvÅĪa",
        -11.376396818519613
      ],
      [
        "Ġkryl",
        -11.376919639428378
      ],
      [
        "kÅĻou",
        -11.378017038949302
      ],
      [
        "Ġzmo",
        -11.378635702265168
      ],
      [
        "ĠnÄĽmÅ",
        -11.3813803513128
      ],
      [
        "znÃŃ",
        -11.3863240653643
      ],
      [
        "Ġstv",
        -11.387147542892494
      ],
      [
        "lÃŃm",
        -11.38873111267138
      ],
      [
        "Ġvist",
        -11.393629609255491
      ],
      [
        "svo",
        -11.395246014243208
      ],
      [
        "Ġsr",
        -11.395523361565683
      ],
      [
        "Ġvles",
        -11.396703606990272
      ],
      [
        "Ġbec",
        -11.39730327495715
      ],
      [
        "ĠsrÃ¡",
        -11.398744972398454
      ],
      [
        "nem",
        -11.398816091422319
      ],
      [
        "ĠÅ¡va",
        -11.400254188797843
      ],
      [
        "tvÅ¯j",
        -11.402861449380636
      ],
      [
        "pÅĻÃ¡",
        -11.405736819942119
      ],
      [
        "smÄĽ",
        -11.406188648236181
      ],
      [
        "dost",
        -11.406895894296602
      ],
      [
        "ĠvkvÄĽ",
        -11.407333360970082
      ],
      [
        "ĠbdÃŃ",
        -11.408363572000443
      ],
      [
        "sÅ¯",
        -11.410962304838094
      ],
      [
        "ĠvpÅ¯",
        -11.410978547901394
      ],
      [
        "ĠstvÃ¡",
        -11.41150046437033
      ],
      [
        "Å¡Å¥as",
        -11.412022197296016
      ],
      [
        "spÃ¡",
        -11.41303195427864
      ],
      [
        "mlu",
        -11.414939668813542
      ],
      [
        "Ġvat",
        -11.415338665502777
      ],
      [
        "Ġjis",
        -11.41653922587735
      ],
      [
        "ĠsmÃ½",
        -11.417162456374626
      ],
      [
        "Ġsk",
        -11.417516718271049
      ],
      [
        "Ġzho",
        -11.41804915731608
      ],
      [
        "trÅ¯",
        -11.420096266915719
      ],
      [
        "rÃ½m",
        -11.420170130022257
      ],
      [
        "Ġstez",
        -11.420732395427269
      ],
      [
        "Ġl",
        -11.422335734691664
      ],
      [
        "svÅ¯",
        -11.423442195326857
      ],
      [
        "187",
        -11.42556300815942
      ],
      [
        "svÃŃ",
        -11.425978387198427
      ],
      [
        "nej",
        -11.426914004242844
      ],
      [
        "ĠvbÄĽ",
        -11.430450704426242
      ],
      [
        "ĠpÅĻ",
        -11.430632210076315
      ],
      [
        "ĠÄįtvr",
        -11.431488329333298
      ],
      [
        "Ġdrou",
        -11.431727112854905
      ],
      [
        "ĠvchrÃ¡",
        -11.432640905869583
      ],
      [
        "Ġpoj",
        -11.433111928489446
      ],
      [
        "klÃ¡",
        -11.434655483666837
      ],
      [
        "ĠschÃ¡",
        -11.436389445104092
      ],
      [
        "krev",
        -11.436734795429373
      ],
      [
        "tvo",
        -11.43710639812699
      ],
      [
        "kdo",
        -11.437372588433469
      ],
      [
        "ĠÅ¥u",
        -11.440062760771859
      ],
      [
        "ĠÅ¾hou",
        -11.440580971496482
      ],
      [
        "ĠvzÃ½",
        -11.440596467382136
      ],
      [
        "Ġvprac",
        -11.441331239697366
      ],
      [
        "knÄĽ",
        -11.441613837123999
      ],
      [
        "vÅĻe",
        -11.443752084374387
      ],
      [
        "Ġzkr",
        -11.451567441352104
      ],
      [
        "Ġprin",
        -11.45480550092157
      ],
      [
        "Ġvkru",
        -11.454938537214382
      ],
      [
        "ĠvznÄĽ",
        -11.458676498391
      ],
      [
        "ĠÄįec",
        -11.45875975225432
      ],
      [
        "Ġkmen",
        -11.459442682975787
      ],
      [
        "ĠmdlÃ½",
        -11.466163926308747
      ],
      [
        "Ġvl",
        -11.466242319562324
      ],
      [
        "Ġmoh",
        -11.466426330485998
      ],
      [
        "ĠbrÃ¡z",
        -11.466613471759487
      ],
      [
        "Ġshla",
        -11.467441619549094
      ],
      [
        "ĠplÃ¡l",
        -11.468008662737846
      ],
      [
        "skou",
        -11.469142936625376
      ],
      [
        "ĠhouÅ¡",
        -11.469173287784969
      ],
      [
        "Ġvti",
        -11.46983339191291
      ],
      [
        "ĠsÃºs",
        -11.470486109534551
      ],
      [
        "Ġpras",
        -11.470506033742613
      ],
      [
        "ĠveÅĪ",
        -11.471215977940062
      ],
      [
        "ĠvÃ½s",
        -11.474132213024333
      ],
      [
        "tvÃŃ",
        -11.474962923821693
      ],
      [
        "ĠkzÃ¡",
        -11.474997415693155
      ],
      [
        "Ġzne",
        -11.475026544607218
      ],
      [
        "ĠzÃº",
        -11.475413333732142
      ],
      [
        "ĠtvÅ¯",
        -11.476547374691606
      ],
      [
        "Ġvrh",
        -11.477685745688529
      ],
      [
        "Ġvzma",
        -11.478406396932058
      ],
      [
        "sÃŃm",
        -11.479536126437047
      ],
      [
        "ĠtÅĻÃŃÅ¡",
        -11.479603411357648
      ],
      [
        "mlou",
        -11.48084098328553
      ],
      [
        "Ġtvr",
        -11.48102283798875
      ],
      [
        "ĠbdÄĽ",
        -11.481039018799056
      ],
      [
        "Ġzdi",
        -11.483973323172677
      ],
      [
        "bÅ¯h",
        -11.483987085074373
      ],
      [
        "ĠvpouÅ¡",
        -11.4850403658852
      ],
      [
        "XABB",
        -11.485122424281691
      ],
      [
        "Ġzdu",
        -11.485215440586334
      ],
      [
        "ĠspÄĽl",
        -11.485919289783448
      ],
      [
        "AXBC",
        -11.488847370229292
      ],
      [
        "ry",
        -11.489751908947095
      ],
      [
        "Ġknul",
        -11.491152132378435
      ],
      [
        "Ġvmra",
        -11.491578272880446
      ],
      [
        "Ġsple",
        -11.491774759924294
      ],
      [
        "ĠsdÄĽ",
        -11.491995461541283
      ],
      [
        "Ġzr",
        -11.500719785226009
      ],
      [
        "kry",
        -11.500775773916356
      ],
      [
        "ble",
        -11.502254882819194
      ],
      [
        "ĠblÃ©",
        -11.502355943250645
      ],
      [
        "ĠzÃºs",
        -11.506024970487783
      ],
      [
        "va",
        -11.508516359946615
      ],
      [
        "hl",
        -11.50962083541258
      ],
      [
        "ĠchlÃ¡",
        -11.512369172295802
      ],
      [
        "rach",
        -11.51265348240171
      ],
      [
        "Äįel",
        -11.514408712039216
      ],
      [
        "Å¾al",
        -11.515049169566176
      ],
      [
        "Ġvsva",
        -11.516595919581711
      ],
      [
        "ĠsÄįe",
        -11.517185857369107
      ],
      [
        "bro",
        -11.517895071735234
      ],
      [
        "cÃ½",
        -11.51893966810763
      ],
      [
        "Ġvpla",
        -11.51934116956171
      ],
      [
        "ĠÄıte",
        -11.519895796559616
      ],
      [
        "rak",
        -11.520226923797413
      ],
      [
        "Ġfou",
        -11.520474421546185
      ],
      [
        "ĠÅ¡ÃŃÅ",
        -11.522088120393413
      ],
      [
        "Ġkva",
        -11.523068559231964
      ],
      [
        "pouÅ¡",
        -11.523703708286048
      ],
      [
        "Ġchti",
        -11.523987141895642
      ],
      [
        "ji",
        -11.526509019664223
      ],
      [
        "ĠnÃ¡Å",
        -11.527222066108425
      ],
      [
        "Ġzhlou",
        -11.52880570835939
      ],
      [
        "no",
        -11.529721602602175
      ],
      [
        "pa",
        -11.530466258082438
      ],
      [
        "ĠzdrÃ¡v",
        -11.53331075073611
      ],
      [
        "dal",
        -11.534267808228018
      ],
      [
        "ĠvstÅĻe",
        -11.534483608126955
      ],
      [
        "Ġvcho",
        -11.534645332730971
      ],
      [
        "mlÃ¡",
        -11.534665622049936
      ],
      [
        "ĠznÃ¡Å",
        -11.53538559099361
      ],
      [
        "ĠkvÃ½",
        -11.536039637729651
      ],
      [
        "ĠÄįÃ¡s",
        -11.539102018895711
      ],
      [
        "AAXX",
        -11.543168697816462
      ],
      [
        "ĠÅĪÅ¯",
        -11.543772188987461
      ],
      [
        "jes",
        -11.548746496045975
      ],
      [
        "ĠÅ¾ÃŃc",
        -11.54884803480048
      ],
      [
        "vÄĽk",
        -11.549051941295831
      ],
      [
        "Ġbor",
        -11.54933947979455
      ],
      [
        "ABABA",
        -11.549519808844137
      ],
      [
        "Äįl",
        -11.5500873259657
      ],
      [
        "ĠÄįtve",
        -11.550178744659481
      ],
      [
        "jem",
        -11.550866577297308
      ],
      [
        "ĠzbÃŃ",
        -11.55259234404809
      ],
      [
        "Ġvhr",
        -11.554988550677905
      ],
      [
        "pÄĽj",
        -11.555853435032496
      ],
      [
        "Ġshro",
        -11.556098147918867
      ],
      [
        "ĠstkvÄĽ",
        -11.557560876739757
      ],
      [
        "to",
        -11.560395245310456
      ],
      [
        "stÅĻÃŃ",
        -11.561308047655183
      ],
      [
        "ĠschÃ½",
        -11.563793723069896
      ],
      [
        "Å¡u",
        -11.563916692501284
      ],
      [
        "Ġtkli",
        -11.564823851489836
      ],
      [
        "Å¡la",
        -11.568041663623873
      ],
      [
        "ĠstrÅ¯",
        -11.568704495981496
      ],
      [
        "Å¡le",
        -11.569254248007631
      ],
      [
        "ĠviÅ¡",
        -11.570067156852875
      ],
      [
        "laÅ¡",
        -11.570130852373564
      ],
      [
        "hlÃ¡",
        -11.57015940669761
      ],
      [
        "prÃ½",
        -11.571423235649615
      ],
      [
        "pil",
        -11.57413665820857
      ],
      [
        "ĠsplÃ¡",
        -11.57516390309391
      ],
      [
        "jÃŃÅ¾",
        -11.576650584275097
      ],
      [
        "Ġvprou",
        -11.580351480528382
      ],
      [
        "Ľ",
        -11.580702133459875
      ],
      [
        "ÅĻÃŃc",
        -11.58102670569678
      ],
      [
        "ĠvtrÃ¡",
        -11.582535916419122
      ],
      [
        "AXAB",
        -11.582871611173623
      ],
      [
        "AXBB",
        -11.583712746808892
      ],
      [
        "Å¡a",
        -11.584691514990002
      ],
      [
        "Ġzpro",
        -11.58533707766774
      ],
      [
        "Ġspl",
        -11.58595651641767
      ],
      [
        "Ġstrou",
        -11.58634943514955
      ],
      [
        "Ġksou",
        -11.5880474491511
      ],
      [
        "ĠkÃº",
        -11.589274033420583
      ],
      [
        "AXABB",
        -11.589318136722648
      ],
      [
        "te",
        -11.5910394068927
      ],
      [
        "jsme",
        -11.59181225185429
      ],
      [
        "ĠtiÅ¡",
        -11.593056620910115
      ],
      [
        "deÅ¾",
        -11.595030534820506
      ],
      [
        "Ġzor",
        -11.59570421891814
      ],
      [
        "mrou",
        -11.596218321471843
      ],
      [
        "ĠdnÄĽ",
        -11.599941521987223
      ],
      [
        "ĠjiÅ¡",
        -11.602722799901771
      ],
      [
        "stal",
        -11.603967947579445
      ],
      [
        "sty",
        -11.608041141149377
      ],
      [
        "ĠvpÃ¡",
        -11.608385220876443
      ],
      [
        "stÃ©",
        -11.60881540855695
      ],
      [
        "ĠvhÃ¡",
        -11.610121166919944
      ],
      [
        "ĠsdÃŃ",
        -11.610658819082275
      ],
      [
        "zda",
        -11.611259788078288
      ],
      [
        "zvo",
        -11.611448754631382
      ],
      [
        "nes",
        -11.611965804380699
      ],
      [
        "ĠshlÃŃ",
        -11.6119920175415
      ],
      [
        "ĠÅĻku",
        -11.612345418581635
      ],
      [
        "Ġzkve",
        -11.612755450167498
      ],
      [
        "ly",
        -11.613199698037533
      ],
      [
        "¯",
        -11.613564237186702
      ],
      [
        "Ġksmr",
        -11.614550257901014
      ],
      [
        "Ġvno",
        -11.61594599009441
      ],
      [
        "vÄĽj",
        -11.616377962393557
      ],
      [
        "Ġvry",
        -11.617081212554751
      ],
      [
        "klÃŃ",
        -11.61735628524762
      ],
      [
        "vi",
        -11.61857153817872
      ],
      [
        "ĠjvÄĽ",
        -11.619180345779538
      ],
      [
        "Ġfri",
        -11.619905871388935
      ],
      [
        "ĠÅ¡ka",
        -11.62012859902947
      ],
      [
        "Ġstor",
        -11.62137287371707
      ],
      [
        "193",
        -11.622791079040098
      ],
      [
        "ĠkvÅ¯",
        -11.622918701071217
      ],
      [
        "Ġhly",
        -11.624044149026956
      ],
      [
        "Ġklen",
        -11.626975202858178
      ],
      [
        "Ġnach",
        -11.628285846046243
      ],
      [
        "ĠkÅ¾i",
        -11.628336848405512
      ],
      [
        "ni",
        -11.629611332902826
      ],
      [
        "ĠspÅĻÃ¡",
        -11.6306995347851
      ],
      [
        "ĠtÅĻÃŃs",
        -11.631827429116898
      ],
      [
        "hr",
        -11.63319536526571
      ],
      [
        "Ġbrat",
        -11.636606160296115
      ],
      [
        "tÃ¡h",
        -11.637916044712522
      ],
      [
        "ĠtnÃŃ",
        -11.639610721410275
      ],
      [
        "ĠÅ¡leh",
        -11.639981018253827
      ],
      [
        "Ġspor",
        -11.64188313280456
      ],
      [
        "ĠÅ¡ak",
        -11.645677810123491
      ],
      [
        "ĠjÃŃÅ¡",
        -11.645714369118949
      ],
      [
        "Ġkze",
        -11.6459665444306
      ],
      [
        "Ġstan",
        -11.650178090115272
      ],
      [
        "dem",
        -11.656226658175926
      ],
      [
        "Ġvzhle",
        -11.65697171438109
      ],
      [
        "Ġkbo",
        -11.658254016216716
      ],
      [
        "snÃŃ",
        -11.659319789074718
      ],
      [
        "hru",
        -11.66055143081551
      ],
      [
        "ÅĻÃ¡d",
        -11.660839916016467
      ],
      [
        "klo",
        -11.661218165426536
      ],
      [
        "ĠpÅĻej",
        -11.662135914298347
      ],
      [
        "Ġzmra",
        -11.663976169794392
      ],
      [
        "Ġme",
        -11.664213930780004
      ],
      [
        "Ġgic",
        -11.664807035637946
      ],
      [
        "ta",
        -11.666689610556988
      ],
      [
        "tvÃ¡Å",
        -11.667303374784305
      ],
      [
        "Ġkslu",
        -11.669386886297337
      ],
      [
        "oÄı",
        -11.669444397321326
      ],
      [
        "ĠsmÄĽÅ",
        -11.671039095857331
      ],
      [
        "mÃ½m",
        -11.67187745898574
      ],
      [
        "Ġchlou",
        -11.673272479408492
      ],
      [
        "mu",
        -11.673874438984708
      ],
      [
        "ĠvzrÅ¯",
        -11.67387594004209
      ],
      [
        "Ġzpla",
        -11.674903856827495
      ],
      [
        "Ġzil",
        -11.675582139512061
      ],
      [
        "AAXA",
        -11.677687900433725
      ],
      [
        "Ġchro",
        -11.677758844295335
      ],
      [
        "Ġvbla",
        -11.679178460274654
      ],
      [
        "ÅĻeÄ",
        -11.679589214153237
      ],
      [
        "ĠÅ¡per",
        -11.680563478797055
      ],
      [
        "Ġvzly",
        -11.6828965936349
      ],
      [
        "Ãºz",
        -11.684072299510863
      ],
      [
        "ĠchÅĻe",
        -11.684762170685927
      ],
      [
        "vÃ½Å",
        -11.685996500832134
      ],
      [
        "ĠmÄĽs",
        -11.686670023452155
      ],
      [
        "zÅĻÃŃ",
        -11.686826263271367
      ],
      [
        "Å¡ep",
        -11.686996925109474
      ],
      [
        "sle",
        -11.687511867499397
      ],
      [
        "ÅĪa",
        -11.687680740497417
      ],
      [
        "str",
        -11.690109071197499
      ],
      [
        "Ġsy",
        -11.693521172136155
      ],
      [
        "ĠniÅ¡",
        -11.693741059992231
      ],
      [
        "vÃ¡n",
        -11.69437945000557
      ],
      [
        "Ġpnou",
        -11.695462953945942
      ],
      [
        "ĠÅ¾ÃŃz",
        -11.695599422209213
      ],
      [
        "ĠkÅĻo",
        -11.696806670554762
      ],
      [
        "Ġ19",
        -11.696954498487006
      ],
      [
        "ĠlÅ¾i",
        -11.697264298792764
      ],
      [
        "ĠmÃ¡Å¾",
        -11.697378418552104
      ],
      [
        "Ġtrh",
        -11.69788714104336
      ],
      [
        "loÄı",
        -11.70069236937325
      ],
      [
        "Ġf",
        -11.701012552543055
      ],
      [
        "ka",
        -11.701624889182638
      ],
      [
        "Ġkous",
        -11.702517069485076
      ],
      [
        "Ġrech",
        -11.704199189095217
      ],
      [
        "znÃ¡",
        -11.704355324939709
      ],
      [
        "Ġztem",
        -11.706062759827791
      ],
      [
        "Ġvli",
        -11.707059675578302
      ],
      [
        "blÃŃ",
        -11.70719475103202
      ],
      [
        "ĠdÃŃc",
        -11.707637703303647
      ],
      [
        "sko",
        -11.707646257413597
      ],
      [
        "ĠdÅĻi",
        -11.707972103143241
      ],
      [
        "Ġvzbo",
        -11.709695470041101
      ],
      [
        "vo",
        -11.709761457492359
      ],
      [
        "snÄĽ",
        -11.710985123163635
      ],
      [
        "Ġtre",
        -11.712559089417214
      ],
      [
        "Ġvjich",
        -11.713931154750298
      ],
      [
        "Ġral",
        -11.71520154204306
      ],
      [
        "ĠvzÅĪa",
        -11.71537393009233
      ],
      [
        "ĠvdÅ¯",
        -11.716545735298164
      ],
      [
        "zlo",
        -11.718074487500262
      ],
      [
        "ĠzbÄĽ",
        -11.721861598093135
      ],
      [
        "ĠmdlÃ©",
        -11.722685105910669
      ],
      [
        "Ġvji",
        -11.723010274430992
      ],
      [
        "Ġsdru",
        -11.723704204201525
      ],
      [
        "Ġstic",
        -11.724634613723225
      ],
      [
        "ĠskvÃŃ",
        -11.725090723177537
      ],
      [
        "ĠsmÄĽs",
        -11.725862948478273
      ],
      [
        "ÅĻas",
        -11.725891205180636
      ],
      [
        "ĠssÃ¡",
        -11.72695759916857
      ],
      [
        "ĠnoÅ¡",
        -11.727179485916864
      ],
      [
        "ÅĻej",
        -11.727232961854146
      ],
      [
        "Ġkryt",
        -11.727343625788013
      ],
      [
        "Ġtros",
        -11.72802965657163
      ],
      [
        "vÅ¡em",
        -11.729030498776982
      ],
      [
        "Ġzblou",
        -11.729064224482626
      ],
      [
        "ĠfÃŃ",
        -11.729455125840396
      ],
      [
        "Ġvzty",
        -11.729683731942917
      ],
      [
        "Ġzvi",
        -11.729943940228303
      ],
      [
        "ĠdnÃ¡",
        -11.730831296704205
      ],
      [
        "Ġzp",
        -11.734325068132517
      ],
      [
        "jmÃ©",
        -11.734706559709238
      ],
      [
        "svÃ¡",
        -11.735134940036641
      ],
      [
        "spÄĽ",
        -11.735559534612939
      ],
      [
        "ĠgÃ¡",
        -11.73591764908728
      ],
      [
        "ĠzbÃ½",
        -11.737212702114638
      ],
      [
        "ĠktÃ©",
        -11.738039903603312
      ],
      [
        "Ġvnit",
        -11.73859924559058
      ],
      [
        "ĠsÃŃÅ",
        -11.738888795779424
      ],
      [
        "ĠdÃ³",
        -11.740045537849852
      ],
      [
        "Ġvpl",
        -11.740156406224266
      ],
      [
        "ĠjdÄĽ",
        -11.741363684048256
      ],
      [
        "Ġzpou",
        -11.741744624655384
      ],
      [
        "ABCB",
        -11.74177663993191
      ],
      [
        "ĠÅ¡lÃ½",
        -11.743078462368704
      ],
      [
        "ja",
        -11.74590552843178
      ],
      [
        "ÅĻec",
        -11.746280543978813
      ],
      [
        "jste",
        -11.746374887141606
      ],
      [
        "Ġpor",
        -11.746938873949489
      ],
      [
        "ĠvÅ¾a",
        -11.74779873811514
      ],
      [
        "tÃ©m",
        -11.74875044932499
      ],
      [
        "Ġvstu",
        -11.750455158051757
      ],
      [
        "ĠchlÃŃ",
        -11.751025405934733
      ],
      [
        "Ġvpod",
        -11.752300423857818
      ],
      [
        "Ġstel",
        -11.752328295581648
      ],
      [
        "ĠvÄĽs",
        -11.752374240767669
      ],
      [
        "tÃ½m",
        -11.752786782591045
      ],
      [
        "ci",
        -11.75339788205991
      ],
      [
        "luÅ¡",
        -11.754810212616157
      ],
      [
        "ĠzvÃ½",
        -11.755239642290478
      ],
      [
        "lil",
        -11.757352187190222
      ],
      [
        "ABAC",
        -11.758584427540201
      ],
      [
        "Å¡li",
        -11.758788843163437
      ],
      [
        "Ġsm",
        -11.759584196677284
      ],
      [
        "ĠsÅĪa",
        -11.760018587386028
      ],
      [
        "zÅ¯",
        -11.761366458665394
      ],
      [
        "ĠvzlÃ©",
        -11.762286965424455
      ],
      [
        "pÃ½",
        -11.76228749342182
      ],
      [
        "ĠlÃ¡m",
        -11.762538925014168
      ],
      [
        "ĠzÅĪa",
        -11.76354342098183
      ],
      [
        "Ġsne",
        -11.76394608064043
      ],
      [
        "Ġvzcho",
        -11.764240933773554
      ],
      [
        "AXBBC",
        -11.764584567975653
      ],
      [
        "Å¾eh",
        -11.765652919368225
      ],
      [
        "ĠchÅ¯m",
        -11.765875313762777
      ],
      [
        "ĠsÃº",
        -11.769503117080932
      ],
      [
        "Ġshlu",
        -11.769754966280262
      ],
      [
        "Ġstis",
        -11.770253936115575
      ],
      [
        "ĠjvÃŃ",
        -11.770698169204625
      ],
      [
        "ĠzrÅ¯",
        -11.771936498261645
      ],
      [
        "chyt",
        -11.772343781094975
      ],
      [
        "Ġshle",
        -11.77307850403259
      ],
      [
        "Ġkme",
        -11.774245682161814
      ],
      [
        "ĠzvÄĽÅ",
        -11.775442928263288
      ],
      [
        "Ġg",
        -11.776294454873376
      ],
      [
        "Ġduc",
        -11.776534485791881
      ],
      [
        "drÃ¡",
        -11.779241719635387
      ],
      [
        "ĠlÃ¡c",
        -11.779542303221202
      ],
      [
        "Ġvmy",
        -11.779779056121832
      ],
      [
        "Ġpu",
        -11.779838469177207
      ],
      [
        "nec",
        -11.780811176130527
      ],
      [
        "Ġgen",
        -11.781600970860811
      ],
      [
        "Ġkpra",
        -11.784586666500733
      ],
      [
        "ABBCD",
        -11.784759491977946
      ],
      [
        "ĠÄįeÅ",
        -11.785786181083523
      ],
      [
        "Ġvhru",
        -11.786378683090916
      ],
      [
        "Ġvzra",
        -11.786497252713406
      ],
      [
        "Ġslel",
        -11.787971981942018
      ],
      [
        "Ġven",
        -11.788180975830272
      ],
      [
        "ĠtÃŃc",
        -11.790225510375958
      ],
      [
        "rÃ¡Å¡",
        -11.790228406900267
      ],
      [
        "Ġhnu",
        -11.791571700130842
      ],
      [
        "zvu",
        -11.792385737322707
      ],
      [
        "Ġdob",
        -11.792630645498212
      ],
      [
        "Ġstlo",
        -11.794075177478064
      ],
      [
        "Ġkto",
        -11.79421953009523
      ],
      [
        "Ġnouc",
        -11.7943973605574
      ],
      [
        "Ġtrap",
        -11.795210900369158
      ],
      [
        "yÅĪ",
        -11.795231497602828
      ],
      [
        "Ġsky",
        -11.796766428182998
      ],
      [
        "Ġchly",
        -11.798944323480747
      ],
      [
        "strÃ¡",
        -11.799524600371313
      ],
      [
        "ĠshÃ¡",
        -11.799677834693153
      ],
      [
        "ĠsklÃŃ",
        -11.801212296381639
      ],
      [
        "ĠvslÃ¡",
        -11.80342946069301
      ],
      [
        "ĠdrÅ¯",
        -11.807772152314676
      ],
      [
        "Ġvp",
        -11.810046503615709
      ],
      [
        "Ġzdvo",
        -11.81188272621608
      ],
      [
        "Ġdit",
        -11.812896775334744
      ],
      [
        "sli",
        -11.813638903734404
      ],
      [
        "ĠtlÃŃ",
        -11.814036288157084
      ],
      [
        "smu",
        -11.815867162255632
      ],
      [
        "ĠpÅĻÃ¡l",
        -11.8167552679501
      ],
      [
        "Ġzvou",
        -11.816827414429731
      ],
      [
        "zou",
        -11.817014301568454
      ],
      [
        "mar",
        -11.817041977660173
      ],
      [
        "Ġzpi",
        -11.817672818824272
      ],
      [
        "ĠfÃ¡m",
        -11.818949234346409
      ],
      [
        "ĠnÄĽc",
        -11.819918623099795
      ],
      [
        "ĠmlÃ©",
        -11.819970305534452
      ],
      [
        "ĠctÄĽ",
        -11.82016218013169
      ],
      [
        "Å¾el",
        -11.822868241747578
      ],
      [
        "ĠvdÃŃ",
        -11.822899148496148
      ],
      [
        "Ġrag",
        -11.82318499033357
      ],
      [
        "Ġpi",
        -11.82321873730735
      ],
      [
        "Ġkly",
        -11.826351388753483
      ],
      [
        "Ġtys",
        -11.828221107677692
      ],
      [
        "CD",
        -11.829075545233666
      ],
      [
        "Ġzvl",
        -11.829407587121922
      ],
      [
        "bu",
        -11.830809813260732
      ],
      [
        "ĠtÄĽs",
        -11.831630535758617
      ],
      [
        "ĠvzkÅĻÃŃ",
        -11.83341394060464
      ],
      [
        "ĠlÃŃp",
        -11.834219664439463
      ],
      [
        "tr",
        -11.835967422880284
      ],
      [
        "ĠvrÅ¯",
        -11.836600263570968
      ],
      [
        "ĠdvÃŃ",
        -11.83799230041613
      ],
      [
        "dle",
        -11.838092386219698
      ],
      [
        "eÅĻ",
        -11.843682072578485
      ],
      [
        "mla",
        -11.84439273102813
      ],
      [
        "Ġnal",
        -11.844777810319638
      ],
      [
        "Ġster",
        -11.846065683057958
      ],
      [
        "ABCCD",
        -11.847286687515666
      ],
      [
        "ĠsplÃ",
        -11.850009821661192
      ],
      [
        "ĠkpÅĻe",
        -11.850275231004446
      ],
      [
        "Ġtroc",
        -11.852728188058219
      ],
      [
        "E",
        -11.854678428071445
      ],
      [
        "ÄĽÅ¾",
        -11.855635022014699
      ],
      [
        "tvou",
        -11.855974306726118
      ],
      [
        "ĠskÅĻe",
        -11.856327783834676
      ],
      [
        "sÃŃc",
        -11.85924778088837
      ],
      [
        "ĠpyÅ",
        -11.859420762028645
      ],
      [
        "ĠtÅĻ",
        -11.8602427266548
      ],
      [
        "kal",
        -11.860431652983277
      ],
      [
        "Ġvs",
        -11.861223236602104
      ],
      [
        "ĠsbÄĽ",
        -11.861245826234759
      ],
      [
        "ĠvztÃ¡",
        -11.86142860230421
      ],
      [
        "ĠboÅ",
        -11.861441748045907
      ],
      [
        "Ġslas",
        -11.863182379124478
      ],
      [
        "zje",
        -11.865201686719553
      ],
      [
        "vtom",
        -11.867024343852833
      ],
      [
        "spa",
        -11.868389334407276
      ],
      [
        "Ġbol",
        -11.868780113049905
      ],
      [
        "ĠstkvÃŃ",
        -11.870063747241137
      ],
      [
        "Ġklas",
        -11.872773802708956
      ],
      [
        "laÅ¥",
        -11.87333613360115
      ],
      [
        "oÅĻ",
        -11.876481470735902
      ],
      [
        "Ġvys",
        -11.876543018207052
      ],
      [
        "Ġvsmu",
        -11.877322612851795
      ],
      [
        "ĠvchÃ¡",
        -11.879636826771176
      ],
      [
        "chle",
        -11.879992212547325
      ],
      [
        "jÃŃt",
        -11.8801651941741
      ],
      [
        "ĠÄįo",
        -11.882679335554005
      ],
      [
        "Ġcen",
        -11.883128578454384
      ],
      [
        "Ġvmou",
        -11.884243343125735
      ],
      [
        "ĠhÅĻmo",
        -11.886377341926742
      ],
      [
        "ĠvbÃ¡",
        -11.888214390485533
      ],
      [
        "ĠkvÃ©",
        -11.889168465549803
      ],
      [
        "drob",
        -11.889911985031222
      ],
      [
        "ĠtÅĻes",
        -11.8929448782945
      ],
      [
        "stej",
        -11.893621959675908
      ],
      [
        "dne",
        -11.89415810276537
      ],
      [
        "tÄĽl",
        -11.895689569434257
      ],
      [
        "Ġzhu",
        -11.896128632667356
      ],
      [
        "knÃŃ",
        -11.896790481279092
      ],
      [
        "Ġzhr",
        -11.89719617479238
      ],
      [
        "ĠzvrÃ¡",
        -11.897243768948567
      ],
      [
        "ĠÄįnÄĽ",
        -11.901396714210115
      ],
      [
        "Ġspol",
        -11.903160373231817
      ],
      [
        "zpo",
        -11.903206265162751
      ],
      [
        "ĠÄįlu",
        -11.903228328154677
      ],
      [
        "Ġzkra",
        -11.90349424555366
      ],
      [
        "proÄį",
        -11.905309613492513
      ],
      [
        "ĠsmÄĽl",
        -11.905340305536168
      ],
      [
        "Ġher",
        -11.906205322322453
      ],
      [
        "ĠzpÅĻÃŃ",
        -11.90639458799295
      ],
      [
        "Ġtrp",
        -11.91009525870967
      ],
      [
        "ĠdiÅ¡",
        -11.910666880946103
      ],
      [
        "Ġpoh",
        -11.91157782778885
      ],
      [
        "ĠÅĻva",
        -11.912639417192814
      ],
      [
        "Ġbran",
        -11.914211135650213
      ],
      [
        "zvÄĽ",
        -11.914856044700315
      ],
      [
        "Ġvbez",
        -11.915451720154262
      ],
      [
        "Å¾ha",
        -11.916382078912202
      ],
      [
        "hÅĻe",
        -11.917693757349152
      ],
      [
        "lu",
        -11.91840394017508
      ],
      [
        "ĠvzdÄĽ",
        -11.918933222821362
      ],
      [
        "Ġdlel",
        -11.919589877635515
      ],
      [
        "ĠkcÃŃ",
        -11.919767995503815
      ],
      [
        "ĠctnÃ©",
        -11.920453942199583
      ],
      [
        "ĠvmlÃ¡",
        -11.926367897932922
      ],
      [
        "ĠfÃ©",
        -11.927652838475368
      ],
      [
        "Ġvoj",
        -11.927853232722443
      ],
      [
        "stvo",
        -11.928312313061593
      ],
      [
        "dy",
        -11.93227573070457
      ],
      [
        "ĠÅ¥te",
        -11.932352764514818
      ],
      [
        "Ãºc",
        -11.933067891000578
      ],
      [
        "Ġzpa",
        -11.933319195899777
      ],
      [
        "ĠÅ¡lÃ¡",
        -11.933732222579104
      ],
      [
        "chou",
        -11.939582232958795
      ],
      [
        "XAXB",
        -11.93972880142945
      ],
      [
        "ĠÅĻli",
        -11.94301455122513
      ],
      [
        "ĠknÃ©",
        -11.943325880119076
      ],
      [
        "nÄĽl",
        -11.944181564476004
      ],
      [
        "ĠduÅ¡",
        -11.945345604951502
      ],
      [
        "Äįem",
        -11.946047294117184
      ],
      [
        "ĠstvÅ¯",
        -11.947179621105809
      ],
      [
        "ple",
        -11.949305996505664
      ],
      [
        "Ġtma",
        -11.949950163000139
      ],
      [
        "Ġzbyl",
        -11.95330300499105
      ],
      [
        "ĠÅ¡kÅ¯",
        -11.954540376800114
      ],
      [
        "ĠdrÃ¡Å",
        -11.955221102045623
      ],
      [
        "ĠvÄįi",
        -11.957094508707282
      ],
      [
        "dvÄĽ",
        -11.957159324041804
      ],
      [
        "ĠvlaÅ",
        -11.957423941213257
      ],
      [
        "ÄĽÅ¡",
        -11.958194058248733
      ],
      [
        "spÃŃ",
        -11.960291591792839
      ],
      [
        "Äįet",
        -11.960739884489227
      ],
      [
        "znÄĽ",
        -11.961053398795915
      ],
      [
        "Ġsen",
        -11.961501540734346
      ],
      [
        "Ġlos",
        -11.961699725709346
      ],
      [
        "ABABX",
        -11.961883245857123
      ],
      [
        "Ġman",
        -11.96456243556053
      ],
      [
        "Ġslit",
        -11.96473527703132
      ],
      [
        "ĠÅ¡tva",
        -11.9647722693267
      ],
      [
        "Ġtri",
        -11.965057843582365
      ],
      [
        "Ġvnej",
        -11.966041241781886
      ],
      [
        "Ġvzro",
        -11.96622843070759
      ],
      [
        "ĠmÃ³",
        -11.967187347204852
      ],
      [
        "den",
        -11.967370826545055
      ],
      [
        "skal",
        -11.967840556940402
      ],
      [
        "ĠmstÃŃ",
        -11.969888913675028
      ],
      [
        "roÅ¡",
        -11.971628209981118
      ],
      [
        "Ġvpou",
        -11.973452313430077
      ],
      [
        "du",
        -11.9735433824166
      ],
      [
        "zlÃ©",
        -11.973710047162122
      ],
      [
        "Ġzto",
        -11.974060097009499
      ],
      [
        "Ġvzou",
        -11.978276984378157
      ],
      [
        "Ġbem",
        -11.978832600862365
      ],
      [
        "Ġzkla",
        -11.97976807702733
      ],
      [
        "Ġvhra",
        -11.980012748200078
      ],
      [
        "Ġvna",
        -11.980264673809225
      ],
      [
        "Ġchvo",
        -11.980403053463156
      ],
      [
        "ĠvtÃ½",
        -11.981022183801834
      ],
      [
        "Ġkrad",
        -11.981586585022221
      ],
      [
        "pÅĻÃŃÅ¡",
        -11.98635170487459
      ],
      [
        "Ġzja",
        -11.987625994573742
      ],
      [
        "dlÃ¡",
        -11.991625667905854
      ],
      [
        "ĠvÃŃÅ",
        -11.992532724266002
      ],
      [
        "ĠzlÅ¯",
        -11.994444176363835
      ],
      [
        "Ġschu",
        -11.9954034205863
      ],
      [
        "dlo",
        -11.996867307366792
      ],
      [
        "Ġdrec",
        -11.997493767356522
      ],
      [
        "ĠÄįiÅ¡",
        -11.99885919908818
      ],
      [
        "Ġvto",
        -12.004761401446435
      ],
      [
        "Ġvcha",
        -12.006015783951693
      ],
      [
        "chal",
        -12.006869639177397
      ],
      [
        "Ġdmou",
        -12.008069828195126
      ],
      [
        "slÃŃ",
        -12.008183214239052
      ],
      [
        "ĠvnÄĽj",
        -12.008204619573592
      ],
      [
        "Ġskvou",
        -12.008375450317821
      ],
      [
        "ĠbliÅ",
        -12.009760146975232
      ],
      [
        "ĠvchvÃŃ",
        -12.011556056716472
      ],
      [
        "Ġplul",
        -12.013984773067895
      ],
      [
        "AXBCB",
        -12.014376696275937
      ],
      [
        "cÃŃm",
        -12.014426576143943
      ],
      [
        "straÅ",
        -12.015277112322956
      ],
      [
        "naÄį",
        -12.016032495629815
      ],
      [
        "ĠÅ¡ku",
        -12.016524036898682
      ],
      [
        "cem",
        -12.017159255919568
      ],
      [
        "ĠtkÃ¡",
        -12.018289844638229
      ],
      [
        "ĠvÅ¾Ã¡",
        -12.018424563389843
      ],
      [
        "Ġvmla",
        -12.018859275618581
      ],
      [
        "kÅĻÃŃÅ",
        -12.01952579684448
      ],
      [
        "cÃŃc",
        -12.020000129924284
      ],
      [
        "kÅĻe",
        -12.020300097779064
      ],
      [
        "ĠzdvÃŃ",
        -12.021839218805841
      ],
      [
        "Ġlik",
        -12.021955656177774
      ],
      [
        "Ġvspo",
        -12.022496048513965
      ],
      [
        "neb",
        -12.02277442200388
      ],
      [
        "ĠÅ¾lou",
        -12.022887075750422
      ],
      [
        "ĠmnÃŃ",
        -12.025357966053647
      ],
      [
        "tvÃ½",
        -12.025780122216831
      ],
      [
        "Ġtic",
        -12.026134349185448
      ],
      [
        "Ġvsvo",
        -12.026272020306926
      ],
      [
        "ĠksvÄĽ",
        -12.028813534260536
      ],
      [
        "ĠvÄĽl",
        -12.030914246020767
      ],
      [
        "ĠrÃ©Å¾",
        -12.031013416755282
      ],
      [
        "Ġztro",
        -12.031374266831925
      ],
      [
        "Å¾dy",
        -12.032555159667496
      ],
      [
        "ĠhvÃŃz",
        -12.034432661019299
      ],
      [
        "Ġsma",
        -12.034553818874809
      ],
      [
        "chtÄĽ",
        -12.034681845802439
      ],
      [
        "Ġzmr",
        -12.035303104696018
      ],
      [
        "Ġznej",
        -12.037138740376456
      ],
      [
        "Ġvkli",
        -12.03789037312506
      ],
      [
        "stva",
        -12.03827373980541
      ],
      [
        "Ġbit",
        -12.03835498122381
      ],
      [
        "jÃŃm",
        -12.039372407228642
      ],
      [
        "Ġvzdyc",
        -12.041187225237312
      ],
      [
        "Ġdnou",
        -12.042250557709506
      ],
      [
        "Ġvsmr",
        -12.042362232408266
      ],
      [
        "Ġskvr",
        -12.04280764003111
      ],
      [
        "ĠnÃ¡t",
        -12.043198734384818
      ],
      [
        "ĠsÅ¾e",
        -12.044102981709724
      ],
      [
        "nos",
        -12.044928240325731
      ],
      [
        "ĠveÄį",
        -12.045837076588278
      ],
      [
        "vzpo",
        -12.046848727935119
      ],
      [
        "ĠvÃ",
        -12.04738131406003
      ],
      [
        "ĠstlÃ¡",
        -12.047515126329074
      ],
      [
        "vdÄĽ",
        -12.048728858083873
      ],
      [
        "ĠlhÃ¡",
        -12.04955423408133
      ],
      [
        "Ġvznes",
        -12.049870988906347
      ],
      [
        "ĠtvÄĽ",
        -12.051167629615062
      ],
      [
        "Å¾ÃŃm",
        -12.052718179814832
      ],
      [
        "Ġvkni",
        -12.053259597178045
      ],
      [
        "ĠpsÃŃ",
        -12.05398129735351
      ],
      [
        "niÅ¾",
        -12.054656851548323
      ],
      [
        "ĠvpÄĽ",
        -12.054976950834444
      ],
      [
        "Ġzry",
        -12.055310759240728
      ],
      [
        "Ġspr",
        -12.056153685213243
      ],
      [
        "Ġflo",
        -12.056172570724279
      ],
      [
        "AXBCC",
        -12.056304712426861
      ],
      [
        "Ġpsa",
        -12.056452039993193
      ],
      [
        "vÄįe",
        -12.056463729998827
      ],
      [
        "Å¡ak",
        -12.056637761284392
      ],
      [
        "ĠshÅ¯",
        -12.057545119543141
      ],
      [
        "ĠrdÃŃ",
        -12.057747446156817
      ],
      [
        "Ġpta",
        -12.058953399776001
      ],
      [
        "vÃ¡l",
        -12.059109811974656
      ],
      [
        "ĠstvÃ©",
        -12.05936755800076
      ],
      [
        "nik",
        -12.060490409384483
      ],
      [
        "sluÅ",
        -12.060661251333826
      ],
      [
        "ĠÅ¡tvÃ¡",
        -12.061651173120607
      ],
      [
        "smÃŃ",
        -12.061746489160788
      ],
      [
        "Ġdvoj",
        -12.062685228419106
      ],
      [
        "ĠÄįis",
        -12.063175946591791
      ],
      [
        "tÅĻÃ¡",
        -12.063256217422975
      ],
      [
        "ABXB",
        -12.063845817995633
      ],
      [
        "Ġpoc",
        -12.063957653356685
      ],
      [
        "ĠvztÄĽ",
        -12.06447907104816
      ],
      [
        "Ġzmu",
        -12.065116862643027
      ],
      [
        "ĠslÃ¡b",
        -12.065211837035335
      ],
      [
        "Ġgan",
        -12.065441607935487
      ],
      [
        "ĠdbÃ¡",
        -12.065451986634612
      ],
      [
        "AXBXB",
        -12.066480346322152
      ],
      [
        "Ġchi",
        -12.067462929792404
      ],
      [
        "Ġstoup",
        -12.067493467855925
      ],
      [
        "ĠkmÃŃ",
        -12.069025183203244
      ],
      [
        "chmu",
        -12.069165403332427
      ],
      [
        "Ġshni",
        -12.069385828231642
      ],
      [
        "Ġzu",
        -12.07010064661038
      ],
      [
        "ĠhleÄ",
        -12.070340479177158
      ],
      [
        "Ġsply",
        -12.070486547928207
      ],
      [
        "Ġvpu",
        -12.072089440642182
      ],
      [
        "ĠstlÃ½",
        -12.072182032767728
      ],
      [
        "ĠdÃŃÅ",
        -12.072201420109245
      ],
      [
        "jej",
        -12.073732864126583
      ],
      [
        "ĠdÃ©Å¡",
        -12.074430492191418
      ],
      [
        "coÅ¾",
        -12.074613452125993
      ],
      [
        "Å¡em",
        -12.078431570382687
      ],
      [
        "ĠÅ¥al",
        -12.079077635743587
      ],
      [
        "ĠzraÄ",
        -12.07972788615838
      ],
      [
        "Ġvtis",
        -12.079770285928985
      ],
      [
        "mno",
        -12.080475011581541
      ],
      [
        "Ġzkad",
        -12.080928493673332
      ],
      [
        "ĠvhouÅ¡",
        -12.081641124981276
      ],
      [
        "ve",
        -12.08184776706372
      ],
      [
        "ĠvsÃ¡",
        -12.085022297875694
      ],
      [
        "ĠlÃ³",
        -12.085064646403445
      ],
      [
        "fa",
        -12.087768905979775
      ],
      [
        "zchÃ¡",
        -12.088184713576506
      ],
      [
        "ĠstlÃ©",
        -12.089104830936495
      ],
      [
        "tÅĻpy",
        -12.089265557281326
      ],
      [
        "ĠksmÃŃ",
        -12.089334581360696
      ],
      [
        "ĠkprÃ¡",
        -12.089546986622949
      ],
      [
        "Ġskvo",
        -12.092569635333088
      ],
      [
        "Ġzb",
        -12.093124464922862
      ],
      [
        "Ġlis",
        -12.093316623764213
      ],
      [
        "Ġtli",
        -12.094054416198906
      ],
      [
        "vzdu",
        -12.094676124169855
      ],
      [
        "Ġzji",
        -12.094814087454822
      ],
      [
        "Å¡ko",
        -12.095311482684926
      ],
      [
        "Ġzhla",
        -12.095604740492199
      ],
      [
        "Ġfo",
        -12.098159121967083
      ],
      [
        "vat",
        -12.098382647686119
      ],
      [
        "mnou",
        -12.098924993471218
      ],
      [
        "Ġspas",
        -12.099504378624943
      ],
      [
        "tom",
        -12.100828822441887
      ],
      [
        "Ġvkle",
        -12.101398895274265
      ],
      [
        "vzÃ¡",
        -12.102752888214617
      ],
      [
        "Ġmor",
        -12.10388398636922
      ],
      [
        "Ġvdla",
        -12.104307406525054
      ],
      [
        "Ġshr",
        -12.105654555071727
      ],
      [
        "ply",
        -12.107927992627623
      ],
      [
        "vraÅ¾",
        -12.108107874388402
      ],
      [
        "ĠfÅ¯",
        -12.108720499229149
      ],
      [
        "ÅĪÃ¡",
        -12.109373378355333
      ],
      [
        "Ġchru",
        -12.110119745106566
      ],
      [
        "ĠÅ¡ti",
        -12.112802655956823
      ],
      [
        "Ġsnech",
        -12.114616205695564
      ],
      [
        "chce",
        -12.114841743689134
      ],
      [
        "ÄįÃ¡",
        -12.115665391226589
      ],
      [
        "pru",
        -12.11846456637998
      ],
      [
        "Ġstras",
        -12.122479654998152
      ],
      [
        "krou",
        -12.12347659820113
      ],
      [
        "Ġtles",
        -12.123706455808492
      ],
      [
        "hlo",
        -12.125449753321895
      ],
      [
        "hrou",
        -12.125807506377306
      ],
      [
        "ĠsmrÅ",
        -12.126472069945125
      ],
      [
        "Ġnek",
        -12.126472770068355
      ],
      [
        "ĠkmÄĽ",
        -12.1266319692079
      ],
      [
        "Ġklek",
        -12.126700524238087
      ],
      [
        "dlÃ©",
        -12.127557431575404
      ],
      [
        "ĠvsÃŃÅ",
        -12.128824864635384
      ],
      [
        "tÄĽm",
        -12.129537640589117
      ],
      [
        "ĠÅ¾iÅ",
        -12.130687273000536
      ],
      [
        "ĠflÃŃ",
        -12.130748865426177
      ],
      [
        "ĠspÅĻe",
        -12.130931952192082
      ],
      [
        "ĠkdÃŃ",
        -12.132151866769885
      ],
      [
        "kr",
        -12.133008752564967
      ],
      [
        "Ġgro",
        -12.133191788245313
      ],
      [
        "ĠÅ¡ve",
        -12.134402193437984
      ],
      [
        "ĠvspÃ¡",
        -12.134986502641798
      ],
      [
        "Ġvtma",
        -12.136289084844107
      ],
      [
        "Ġpe",
        -12.13706550219467
      ],
      [
        "ĠvsvÅ¯",
        -12.137938016960952
      ],
      [
        "zve",
        -12.138304161950074
      ],
      [
        "ĠchÃ¡c",
        -12.140089504915974
      ],
      [
        "Ġjil",
        -12.140269299031857
      ],
      [
        "Ġdve",
        -12.14045996274273
      ],
      [
        "pÄĽl",
        -12.142374962402151
      ],
      [
        "ĠdlaÅ",
        -12.14413773385937
      ],
      [
        "prÅ¯",
        -12.14433844939018
      ],
      [
        "hu",
        -12.144925278509072
      ],
      [
        "nil",
        -12.145400487621583
      ],
      [
        "Ġskli",
        -12.147122241773209
      ],
      [
        "Ġsvla",
        -12.148196259228925
      ],
      [
        "chtÄĽl",
        -12.148534097321008
      ],
      [
        "ĠzvÅ¯",
        -12.148729074108589
      ],
      [
        "ĠrvÃ¡",
        -12.150270388597395
      ],
      [
        "dÄĽj",
        -12.153202972605424
      ],
      [
        "dlÃ½",
        -12.153837632963459
      ],
      [
        "jÃŃch",
        -12.15545405965322
      ],
      [
        "dlÃŃ",
        -12.15594628733837
      ],
      [
        "stÃ½",
        -12.155979450767298
      ],
      [
        "Ġger",
        -12.156223284725808
      ],
      [
        "dli",
        -12.157349564882601
      ],
      [
        "Ġsic",
        -12.158922357776373
      ],
      [
        "Ġmem",
        -12.15908181760583
      ],
      [
        "Ġkhro",
        -12.161209246661763
      ],
      [
        "blÃ¡",
        -12.163117335701418
      ],
      [
        "ĠkslÃ¡",
        -12.163134816323007
      ],
      [
        "Ġbry",
        -12.163224824212206
      ],
      [
        "Ġzar",
        -12.164317704275076
      ],
      [
        "Ġchech",
        -12.167739619464594
      ],
      [
        "Ġbri",
        -12.168866061412308
      ],
      [
        "ĠvtÃŃ",
        -12.169691631445042
      ],
      [
        "Ġfon",
        -12.16990758373275
      ],
      [
        "ĠdÃ",
        -12.1707140219693
      ],
      [
        "ĠzÅ¾ÃŃ",
        -12.172555145306426
      ],
      [
        "nez",
        -12.174181329019339
      ],
      [
        "jim",
        -12.174912101515513
      ],
      [
        "XABA",
        -12.17501472771969
      ],
      [
        "Ġkvla",
        -12.177465387201302
      ],
      [
        "ĠzkÅĻi",
        -12.177505230621488
      ],
      [
        "ĠÅ¾ou",
        -12.178376219337178
      ],
      [
        "Ġspat",
        -12.180086847086447
      ],
      [
        "rÄį",
        -12.181194002854163
      ],
      [
        "Ġzi",
        -12.181464352437938
      ],
      [
        "Ã¡n",
        -12.18275636674106
      ],
      [
        "Ġvzpja",
        -12.18277894650751
      ],
      [
        "Ġvchla",
        -12.18300823181813
      ],
      [
        "Ġr",
        -12.183150422887952
      ],
      [
        "Ġskryl",
        -12.184087782367456
      ],
      [
        "Ġvic",
        -12.187850720166665
      ],
      [
        "Ġvpar",
        -12.189537495633466
      ],
      [
        "ĠshÃ½",
        -12.191739160893503
      ],
      [
        "snÅ¯",
        -12.191840908389445
      ],
      [
        "ĠÅ¡al",
        -12.192841607233206
      ],
      [
        "vÄĽc",
        -12.193590765052681
      ],
      [
        "star",
        -12.19574383052342
      ],
      [
        "sl",
        -12.196452867439273
      ],
      [
        "ĠvzhlÃ©",
        -12.196581892656564
      ],
      [
        "ĠÅ¾ra",
        -12.196958950631263
      ],
      [
        "rÃ¡l",
        -12.197551088249273
      ],
      [
        "hnÃŃz",
        -12.19947842857275
      ],
      [
        "buj",
        -12.199786542149631
      ],
      [
        "Ġver",
        -12.200895605743813
      ],
      [
        "ĠvyÅĻ",
        -12.201664569557412
      ],
      [
        "sÃ½",
        -12.201915491496258
      ],
      [
        "ĠmÅ¡i",
        -12.203292768818159
      ],
      [
        "Ġkras",
        -12.203537214289573
      ],
      [
        "Ġzy",
        -12.205091056019244
      ],
      [
        "ĠÅ¾va",
        -12.20575703764609
      ],
      [
        "pl",
        -12.205813209091007
      ],
      [
        "Ġbur",
        -12.207254074979303
      ],
      [
        "blÃŃÅ",
        -12.210343896009935
      ],
      [
        "ĠÅ¾ol",
        -12.212852657477187
      ],
      [
        "Ġpur",
        -12.213983074843696
      ],
      [
        "hy",
        -12.214371634314169
      ],
      [
        "Ġhbi",
        -12.216303400435079
      ],
      [
        "brou",
        -12.218937662385127
      ],
      [
        "Ġvnez",
        -12.222251430467217
      ],
      [
        "ĠdÄĽd",
        -12.222747935417623
      ],
      [
        "chra",
        -12.223597826281457
      ],
      [
        "Ġvol",
        -12.22373989836133
      ],
      [
        "iÅ¡",
        -12.223958819390576
      ],
      [
        "ĠjlÃŃ",
        -12.224091222428475
      ],
      [
        "ĠrtÃŃ",
        -12.224675310351563
      ],
      [
        "ÅĻiÅ¡",
        -12.225094576233595
      ],
      [
        "ĠtrÃ©",
        -12.226281797196716
      ],
      [
        "Ġsnou",
        -12.226302062994662
      ],
      [
        "Ġvstra",
        -12.226440156229032
      ],
      [
        "ÅĪou",
        -12.227418586402694
      ],
      [
        "ĠtÅĻti",
        -12.227782110011402
      ],
      [
        "Ġvsl",
        -12.229004670275938
      ],
      [
        "mut",
        -12.23150187639972
      ],
      [
        "vpo",
        -12.231812812355292
      ],
      [
        "Ġsroz",
        -12.232177684810477
      ],
      [
        "led",
        -12.234243864224759
      ],
      [
        "pout",
        -12.234567021745052
      ],
      [
        "ĠtmÃŃ",
        -12.23501365338998
      ],
      [
        "Å¥a",
        -12.235726908733174
      ],
      [
        "Ġzbou",
        -12.238676640498426
      ],
      [
        "ĠkÅ¡ti",
        -12.241348281495465
      ],
      [
        "ĠÅ¡kr",
        -12.24170565231929
      ],
      [
        "ĠdÅ¾bÃ¡",
        -12.241713192641877
      ],
      [
        "mne",
        -12.24202345764052
      ],
      [
        "Ġhej",
        -12.242809331014449
      ],
      [
        "ĠstvÃ½",
        -12.24486749924034
      ],
      [
        "skrÃ¡",
        -12.245386312116525
      ],
      [
        "zrÃ¡",
        -12.24583383039706
      ],
      [
        "Ġdec",
        -12.24607686825809
      ],
      [
        "ĠrdÄĽ",
        -12.247483339624313
      ],
      [
        "AAAB",
        -12.24782640042097
      ],
      [
        "ĠchaÅ",
        -12.250635928084662
      ],
      [
        "Ġvce",
        -12.251804254202646
      ],
      [
        "Ġcour",
        -12.252716017513649
      ],
      [
        "Ġfau",
        -12.253505890955173
      ],
      [
        "ĠspouÅ¡",
        -12.253695393793599
      ],
      [
        "las",
        -12.253794168554126
      ],
      [
        "Ġglo",
        -12.254323659460187
      ],
      [
        "kam",
        -12.256416963562467
      ],
      [
        "Ġcos",
        -12.256859134036905
      ],
      [
        "vzhÅ¯",
        -12.256895143359804
      ],
      [
        "pros",
        -12.25694473059308
      ],
      [
        "Ġnit",
        -12.258200468785603
      ],
      [
        "stÅĻÃŃc",
        -12.25903927996099
      ],
      [
        "Ġzti",
        -12.25930428591305
      ],
      [
        "ĠÅ¡pÃŃ",
        -12.260021390234005
      ],
      [
        "Ġfu",
        -12.261104941363719
      ],
      [
        "Ġmhou",
        -12.26334718888951
      ],
      [
        "Ġvod",
        -12.264222219344491
      ],
      [
        "strÃ½",
        -12.264377182693512
      ],
      [
        "ĠvhrÅ¯",
        -12.265292915222975
      ],
      [
        "ÃŃc",
        -12.265780589835943
      ],
      [
        "toÅ¾",
        -12.266122722956897
      ],
      [
        "Ġvka",
        -12.267536289057585
      ],
      [
        "Ġkt",
        -12.267676950516652
      ],
      [
        "ĠÄįou",
        -12.26985618523568
      ],
      [
        "Ġml",
        -12.270300677762886
      ],
      [
        "Ġzroz",
        -12.274169774330728
      ],
      [
        "ĠsliÄ",
        -12.277439112267132
      ],
      [
        "Ã¡l",
        -12.278055904180142
      ],
      [
        "dÄĽc",
        -12.278391254512742
      ],
      [
        "trou",
        -12.279325323232055
      ],
      [
        "Ġzm",
        -12.27952495807738
      ],
      [
        "Ġvzda",
        -12.279627725557262
      ],
      [
        "lÃŃp",
        -12.281867369867793
      ],
      [
        "ĠvhnÄĽ",
        -12.28401142370982
      ],
      [
        "ĠkÄįi",
        -12.284553964239834
      ],
      [
        "Ġtaj",
        -12.285442443283298
      ],
      [
        "Ġzlil",
        -12.286307561027195
      ],
      [
        "ĠkrÃ©",
        -12.287624760450974
      ],
      [
        "Ġspu",
        -12.28807013697128
      ],
      [
        "Ġhry",
        -12.290327170731373
      ],
      [
        "dvo",
        -12.290465792686113
      ],
      [
        "ÅĻÅ¯",
        -12.290828962335164
      ],
      [
        "jsi",
        -12.292692193077727
      ],
      [
        "ĠskrÃ½Å",
        -12.293124997806594
      ],
      [
        "Å¡Ã¡",
        -12.293274486028242
      ],
      [
        "ÃŃk",
        -12.294576858089826
      ],
      [
        "AXXA",
        -12.295961840320507
      ],
      [
        "Ġvbu",
        -12.296199804363802
      ],
      [
        "sil",
        -12.299538925486194
      ],
      [
        "Ġsmlou",
        -12.300549650541651
      ],
      [
        "ÅĪu",
        -12.300563194467642
      ],
      [
        "dil",
        -12.30081714784651
      ],
      [
        "ĠtkvÃŃ",
        -12.301794328244089
      ],
      [
        "Ġstkvo",
        -12.302216885565734
      ],
      [
        "Ġzmla",
        -12.302659989816844
      ],
      [
        "vÄĽÅ¡",
        -12.305689228367171
      ],
      [
        "Ġsbra",
        -12.306011965630365
      ],
      [
        "knou",
        -12.306176884784403
      ],
      [
        "ĠhÅ¯Å",
        -12.307354802327653
      ],
      [
        "ex",
        -12.307621670040184
      ],
      [
        "stÃ¡l",
        -12.308340496452656
      ],
      [
        "Ġvrhl",
        -12.308781124751054
      ],
      [
        "vlÃŃ",
        -12.312598982573563
      ],
      [
        "ABCA",
        -12.313686369368103
      ],
      [
        "ĠchÅĻÃŃ",
        -12.314315959409715
      ],
      [
        "Å¡lÃ©",
        -12.314590174714333
      ],
      [
        "Ġleh",
        -12.314865110276537
      ],
      [
        "Ġvtou",
        -12.317442925169399
      ],
      [
        "boj",
        -12.318447430185415
      ],
      [
        "chva",
        -12.318661541349925
      ],
      [
        "ĠblÃ½",
        -12.319079122108985
      ],
      [
        "ĠpÄĽs",
        -12.319392038183208
      ],
      [
        "vÅ¾dyÅ¥",
        -12.320327438413486
      ],
      [
        "Ġpli",
        -12.320569644352098
      ],
      [
        "Äįen",
        -12.322475163221563
      ],
      [
        "houÅ¡",
        -12.323087457398689
      ],
      [
        "nÃ¡c",
        -12.323245412281157
      ],
      [
        "Å¡ÃŃc",
        -12.323589769366503
      ],
      [
        "il",
        -12.324251257695197
      ],
      [
        "bil",
        -12.325502936244149
      ],
      [
        "Ġkrej",
        -12.327070346041193
      ],
      [
        "ĠÅ¥o",
        -12.327602863047236
      ],
      [
        "Ġvzp",
        -12.32786249034162
      ],
      [
        "Ġvtu",
        -12.330299268863541
      ],
      [
        "ĠzkvÄĽ",
        -12.332279298897264
      ],
      [
        "chÃ©",
        -12.332520949798866
      ],
      [
        "ĠÅ¡ou",
        -12.335175859448258
      ],
      [
        "Ġcou",
        -12.335323589976326
      ],
      [
        "vzte",
        -12.335760991004012
      ],
      [
        "ĠzÅ¡e",
        -12.33761930806385
      ],
      [
        "los",
        -12.33877874611231
      ],
      [
        "Äįty",
        -12.339449413666493
      ],
      [
        "mat",
        -12.340301863513918
      ],
      [
        "Ġdin",
        -12.3424512178233
      ],
      [
        "Ġgr",
        -12.342621683887641
      ],
      [
        "tla",
        -12.342942238007456
      ],
      [
        "leÅ¡",
        -12.344964373506562
      ],
      [
        "ĠschÅ¯",
        -12.34667167588864
      ],
      [
        "ĠctnÃ½",
        -12.346872438992271
      ],
      [
        "skry",
        -12.34937813937406
      ],
      [
        "ĠÅ¡pe",
        -12.34957648291767
      ],
      [
        "mo",
        -12.349965349419126
      ],
      [
        "ze",
        -12.350481328366223
      ],
      [
        "Ġrvou",
        -12.350874006068832
      ],
      [
        "Ġhnul",
        -12.35191877904936
      ],
      [
        "ĠzdÅĻÃŃ",
        -12.35351947619159
      ],
      [
        "ĠÅĻve",
        -12.353567933020656
      ],
      [
        "ĠÄįÃŃc",
        -12.354022322979056
      ],
      [
        "Ġkbra",
        -12.356037547883851
      ],
      [
        "ĠÅ¾es",
        -12.35747335968695
      ],
      [
        "zmÄĽ",
        -12.357636757146194
      ],
      [
        "vrou",
        -12.358588224162606
      ],
      [
        "ĠvlÃŃc",
        -12.359224355015527
      ],
      [
        "ĠsfÃ©",
        -12.359593292617221
      ],
      [
        "ha",
        -12.359725653605587
      ],
      [
        "Ġsmi",
        -12.360328134261348
      ],
      [
        "ÄıÃ¡",
        -12.360403727664817
      ],
      [
        "pÅĻÃŃs",
        -12.362170489806012
      ],
      [
        "vzne",
        -12.36234349359491
      ],
      [
        "ĠvmÃ¡",
        -12.362592985944469
      ],
      [
        "Å¾iv",
        -12.36302383557505
      ],
      [
        "ĠÅĻin",
        -12.364215707595637
      ],
      [
        "ĠkbÅĻe",
        -12.365608304476817
      ],
      [
        "chlu",
        -12.366800932861803
      ],
      [
        "Ġvzdal",
        -12.366986448327975
      ],
      [
        "ĠvdlaÅ",
        -12.367468029829219
      ],
      [
        "XAXAB",
        -12.3707907328345
      ],
      [
        "vdÃ¡",
        -12.371778757742838
      ],
      [
        "ĠklÃ¡s",
        -12.372624591556452
      ],
      [
        "ĠstmÃŃ",
        -12.372776363230654
      ],
      [
        "ĠleÅ¡",
        -12.373719541919215
      ],
      [
        "tÅĻeÅ¡",
        -12.373944205623891
      ],
      [
        "skrÃ½",
        -12.374301280750203
      ],
      [
        "ĠÅĻkou",
        -12.375049193265163
      ],
      [
        "brÃ©",
        -12.376558884547485
      ],
      [
        "ĠvÅ¡tÄĽ",
        -12.377186431086841
      ],
      [
        "zÃ½",
        -12.377328062480291
      ],
      [
        "Ġvsko",
        -12.378836726020786
      ],
      [
        "zboÅ",
        -12.379757285689642
      ],
      [
        "Ġkvi",
        -12.379785569746643
      ],
      [
        "ĠshlÃ©",
        -12.379905970363003
      ],
      [
        "ĠkspÃ¡",
        -12.380214414150327
      ],
      [
        "kÅĻes",
        -12.381625417344463
      ],
      [
        "Ġsme",
        -12.383634408749558
      ],
      [
        "Ġvlou",
        -12.383698187806296
      ],
      [
        "Ġvst",
        -12.385170677946077
      ],
      [
        "AABA",
        -12.38638112713262
      ],
      [
        "ĠfrÃ¡",
        -12.387007476588785
      ],
      [
        "ĠÅ¡ej",
        -12.388099911536507
      ],
      [
        "ĠÅ¾dÃ¡",
        -12.389925729249189
      ],
      [
        "ĠbÄĽl",
        -12.390130675999464
      ],
      [
        "out",
        -12.390621372297357
      ],
      [
        "Ġpos",
        -12.392005153147664
      ],
      [
        "Ġxi",
        -12.393242131980495
      ],
      [
        "Ġhar",
        -12.39355368851928
      ],
      [
        "hlÃ©d",
        -12.394699189616501
      ],
      [
        "Å¡lech",
        -12.395983730022405
      ],
      [
        "nnÃ©",
        -12.396176495405836
      ],
      [
        "ĠhÅĻi",
        -12.397423683449723
      ],
      [
        "Ġfr",
        -12.398548812568931
      ],
      [
        "Ġtis",
        -12.399522794291396
      ],
      [
        "Ġvja",
        -12.39968302703953
      ],
      [
        "smÃŃc",
        -12.400174967793081
      ],
      [
        "Ġmr",
        -12.400325797673002
      ],
      [
        "Ġvec",
        -12.40044125677089
      ],
      [
        "ĠpÅ¡e",
        -12.401338249038606
      ],
      [
        "Ġstrej",
        -12.402151286168715
      ],
      [
        "ĠkÅĻ",
        -12.404111073743536
      ],
      [
        "Å¡en",
        -12.40499602359058
      ],
      [
        "ĠzÃ¡c",
        -12.405347116142801
      ],
      [
        "tva",
        -12.40662492903957
      ],
      [
        "Ġvdru",
        -12.40959058313501
      ],
      [
        "ĠvÃ©s",
        -12.410592933362516
      ],
      [
        "zvÃŃ",
        -12.411212120971669
      ],
      [
        "Å¡af",
        -12.413765001178676
      ],
      [
        "vzdo",
        -12.415993948108506
      ],
      [
        "hÅĻÃŃÅ¡",
        -12.416154039563484
      ],
      [
        "Ġstre",
        -12.418225050148012
      ],
      [
        "tmÄĽ",
        -12.41863989931928
      ],
      [
        "ĠzkvÃ©",
        -12.422630050758414
      ],
      [
        "ĠkvÃ©s",
        -12.426312435326096
      ],
      [
        "sklo",
        -12.428182100330265
      ],
      [
        "Ġtroj",
        -12.428387540193542
      ],
      [
        "ĠshrÅ¯",
        -12.429503865300216
      ],
      [
        "Ġsro",
        -12.430085524952267
      ],
      [
        "tu",
        -12.433060748837129
      ],
      [
        "hli",
        -12.434651137376399
      ],
      [
        "Ġkno",
        -12.435295522190724
      ],
      [
        "vnÄĽm",
        -12.435400566847868
      ],
      [
        "ĠÅ¡lel",
        -12.438346159685455
      ],
      [
        "Ġschla",
        -12.439223277951736
      ],
      [
        "Ġtv",
        -12.439422886683612
      ],
      [
        "Ġstit",
        -12.441792765321974
      ],
      [
        "chlÃ©",
        -12.44208695949709
      ],
      [
        "Ġkso",
        -12.443075019662935
      ],
      [
        "br",
        -12.443882490505969
      ],
      [
        "plo",
        -12.44469452552369
      ],
      [
        "Ġschy",
        -12.445371467776571
      ],
      [
        "ĠtÃ",
        -12.447736097148573
      ],
      [
        "CC",
        -12.448303751569382
      ],
      [
        "Ġzhra",
        -12.450936586338141
      ],
      [
        "Ġhnou",
        -12.451081342211658
      ],
      [
        "Ġhouf",
        -12.454165965380591
      ],
      [
        "tec",
        -12.456183218735472
      ],
      [
        "Ġhviz",
        -12.458027702249801
      ],
      [
        "Ġlu",
        -12.458577352725301
      ],
      [
        "bouÅ",
        -12.45910472437413
      ],
      [
        "ĠblÅ¯",
        -12.459520937563312
      ],
      [
        "prac",
        -12.460165391974304
      ],
      [
        "Ġfle",
        -12.461571178832816
      ],
      [
        "Ġzkle",
        -12.462037146732904
      ],
      [
        "Ġvchu",
        -12.462486552741005
      ],
      [
        "Ġchar",
        -12.46651918348072
      ],
      [
        "Ġknu",
        -12.468125554393646
      ],
      [
        "Ġvyh",
        -12.469107132279813
      ],
      [
        "Ġvu",
        -12.47162806206055
      ],
      [
        "Ġzkru",
        -12.471695437379594
      ],
      [
        "Ġdles",
        -12.47282138746531
      ],
      [
        "Ġgar",
        -12.472899093983942
      ],
      [
        "bor",
        -12.475432546413874
      ],
      [
        "Ġdral",
        -12.475469480613006
      ],
      [
        "zÅĻe",
        -12.478763346389076
      ],
      [
        "krÃ½",
        -12.480596681200893
      ],
      [
        "per",
        -12.480817846226797
      ],
      [
        "AABX",
        -12.482388080784483
      ],
      [
        "dÅĻe",
        -12.487022457344237
      ],
      [
        "blÃ½s",
        -12.48712075348438
      ],
      [
        "Å¡pa",
        -12.487147561233739
      ],
      [
        "zdra",
        -12.48752404680939
      ],
      [
        "Å¾lu",
        -12.488344362068485
      ],
      [
        "snech",
        -12.488830018699023
      ],
      [
        "ÄĽt",
        -12.489699612302836
      ],
      [
        "AABCB",
        -12.490448115233127
      ],
      [
        "Ġvej",
        -12.492065380875243
      ],
      [
        "zna",
        -12.49263955108361
      ],
      [
        "ĠktÄĽ",
        -12.493333625393845
      ],
      [
        "vzde",
        -12.494845090252575
      ],
      [
        "ĠkÅ¯Å",
        -12.49524137414663
      ],
      [
        "ztrÃ¡",
        -12.495831688285733
      ],
      [
        "ĠvyÅ",
        -12.49588052642535
      ],
      [
        "heÅĪ",
        -12.49742927811305
      ],
      [
        "Ġzkrou",
        -12.497517678786398
      ],
      [
        "bÅĻÃŃ",
        -12.499036466500868
      ],
      [
        "ĠkÅĻÃ¡",
        -12.5002930126087
      ],
      [
        "ctnos",
        -12.502124738992716
      ],
      [
        "ĠstmÄĽ",
        -12.50279397813889
      ],
      [
        "Ġder",
        -12.503383889406663
      ],
      [
        "mraÄ",
        -12.505350634005172
      ],
      [
        "ĠschrÃ¡",
        -12.50774624924471
      ],
      [
        "dnÅ¯",
        -12.507799873542933
      ],
      [
        "Ġvslo",
        -12.507887836263281
      ],
      [
        "vÄĽÅ",
        -12.508671060472034
      ],
      [
        "Ġvska",
        -12.509216710873261
      ],
      [
        "Ġzkro",
        -12.509405635658016
      ],
      [
        "ÃŃr",
        -12.512329914970923
      ],
      [
        "bÅ¯",
        -12.512733976477922
      ],
      [
        "Ġxe",
        -12.514616477482546
      ],
      [
        "lÃ¡n",
        -12.515458814723706
      ],
      [
        "braz",
        -12.516807065489184
      ],
      [
        "Ġzbi",
        -12.518196250726401
      ],
      [
        "ty",
        -12.518820024197211
      ],
      [
        "Ġvstro",
        -12.519876907522093
      ],
      [
        "Ġ181",
        -12.519994369254878
      ],
      [
        "Ġkmo",
        -12.521291045608233
      ],
      [
        "ĠvklÃ¡",
        -12.521724484458142
      ],
      [
        "Ġzen",
        -12.522054706862978
      ],
      [
        "Ġrej",
        -12.522420941604263
      ],
      [
        "ĠradÅ",
        -12.522484471428765
      ],
      [
        "pÅĻij",
        -12.522655621804862
      ],
      [
        "trÃ½",
        -12.52815654583143
      ],
      [
        "ĠÅ¡tve",
        -12.529996750318897
      ],
      [
        "Ġvzka",
        -12.530235125318022
      ],
      [
        "Ġgal",
        -12.531191481312751
      ],
      [
        "sku",
        -12.53128197806934
      ],
      [
        "ĠvcÃŃ",
        -12.531589143659762
      ],
      [
        "ĠÄįt",
        -12.531604241186535
      ],
      [
        "ĠspÅĻÃŃ",
        -12.531644318268718
      ],
      [
        "al",
        -12.533045323883806
      ],
      [
        "hÃ½m",
        -12.534909730319418
      ],
      [
        "Ġchma",
        -12.53603704336682
      ],
      [
        "Ġksr",
        -12.536868886374826
      ],
      [
        "ĠvnÄĽÅ¾",
        -12.537618039029116
      ],
      [
        "Ġtal",
        -12.537687335719372
      ],
      [
        "brÃ½",
        -12.53798424525073
      ],
      [
        "Ġvsle",
        -12.53803679640908
      ],
      [
        "ples",
        -12.538373559324874
      ],
      [
        "ĠÅ¡k",
        -12.53917834424717
      ],
      [
        "Äıa",
        -12.539343359068479
      ],
      [
        "zvlÃ¡Å¡",
        -12.539357011763268
      ],
      [
        "ĠcÃ¡",
        -12.539364529734367
      ],
      [
        "Ġkroz",
        -12.540880260752209
      ],
      [
        "ĠchrÅ¯",
        -12.540924813481844
      ],
      [
        "ĠdoÅ¡",
        -12.542581687605836
      ],
      [
        "Ġsnes",
        -12.54597109516541
      ],
      [
        "ĠsÃ©",
        -12.546736966924684
      ],
      [
        "Ġspros",
        -12.547968860811004
      ],
      [
        "Ġzmno",
        -12.549395371046794
      ],
      [
        "ĠÅĪou",
        -12.550883266506236
      ],
      [
        "ĠzÅĻÃŃÅ",
        -12.55150922935347
      ],
      [
        "de",
        -12.553237798962588
      ],
      [
        "dro",
        -12.553979174965118
      ],
      [
        "ĠÅ¡Å¥Ã¡",
        -12.55464669496603
      ],
      [
        "ĠÅ¡o",
        -12.555006365649902
      ],
      [
        "XAAB",
        -12.555270084726537
      ],
      [
        "zdo",
        -12.555546227433013
      ],
      [
        "AXABC",
        -12.556113523373089
      ],
      [
        "stru",
        -12.556711793615014
      ],
      [
        "185",
        -12.557387072418212
      ],
      [
        "ĠchÅĻa",
        -12.55749983453768
      ],
      [
        "Ġztvr",
        -12.559048313148754
      ],
      [
        "svi",
        -12.560205629519238
      ],
      [
        "chvi",
        -12.560644111734767
      ],
      [
        "vtÃ©",
        -12.561097967122432
      ],
      [
        "Ġschva",
        -12.561439579320375
      ],
      [
        "183",
        -12.56366384248242
      ],
      [
        "ABAX",
        -12.564378369858595
      ],
      [
        "Ġvzpou",
        -12.565109759148374
      ],
      [
        "Ġzbla",
        -12.565877916309862
      ],
      [
        "ĠvblÃ¡",
        -12.566863641509322
      ],
      [
        "Ġgre",
        -12.567130082592922
      ],
      [
        "Ġstve",
        -12.568173021845093
      ],
      [
        "ĠbdÄĽl",
        -12.568594830132689
      ],
      [
        "Ġvte",
        -12.569954832782994
      ],
      [
        "ĠpÃ³",
        -12.572382322931901
      ],
      [
        "ĠksvÃ½",
        -12.572799076803173
      ],
      [
        "ĠvprÅ¯",
        -12.57503501930374
      ],
      [
        "ĠdÅĻej",
        -12.57504894660906
      ],
      [
        "Ġvlek",
        -12.575435403596558
      ],
      [
        "stÅ¯",
        -12.576315370869079
      ],
      [
        "ÅĻeÅ¡",
        -12.577132452818015
      ],
      [
        "Ġsed",
        -12.577708508053387
      ],
      [
        "Ġsa",
        -12.578300772507571
      ],
      [
        "ĠkhvÄĽz",
        -12.578943638929449
      ],
      [
        "Ġvdech",
        -12.579519098125676
      ],
      [
        "Ã¡t",
        -12.581608300116486
      ],
      [
        "ĠÅ¥ou",
        -12.582607786930868
      ],
      [
        "Ġzple",
        -12.58275719342553
      ],
      [
        "ztra",
        -12.582989961129385
      ],
      [
        "Ġsnich",
        -12.58426047312806
      ],
      [
        "ĠlÅ¾ÃŃ",
        -12.585215414916892
      ],
      [
        "for",
        -12.585619025706976
      ],
      [
        "Ġfej",
        -12.58721453888446
      ],
      [
        "Ġhan",
        -12.587355748801125
      ],
      [
        "ĠvskrÃ¡",
        -12.587934868303593
      ],
      [
        "druÅ",
        -12.588197506664423
      ],
      [
        "ĠvkrÃ¡s",
        -12.589282320191465
      ],
      [
        "Ġvt",
        -12.59163772943627
      ],
      [
        "be",
        -12.591816270222317
      ],
      [
        "lÃ¡m",
        -12.591939837374701
      ],
      [
        "ĠÅĻvou",
        -12.593523585319002
      ],
      [
        "Ġvlo",
        -12.594187378694741
      ],
      [
        "vem",
        -12.594828273880314
      ],
      [
        "ÃŃst",
        -12.598811610090685
      ],
      [
        "ĠÄįli",
        -12.599275643278032
      ],
      [
        "ĠcvÃ¡",
        -12.60119343053984
      ],
      [
        "ztÃ½",
        -12.601566909948897
      ],
      [
        "Å¾er",
        -12.601772261011309
      ],
      [
        "blan",
        -12.603978846295107
      ],
      [
        "ĠÅĻo",
        -12.605855529133724
      ],
      [
        "ABCDD",
        -12.607119662626658
      ],
      [
        "184",
        -12.608359366292056
      ],
      [
        "ĠspÄĽj",
        -12.60846502149003
      ],
      [
        "kol",
        -12.609854968419569
      ],
      [
        "Ġsstou",
        -12.610643152092056
      ],
      [
        "ĠscÃ©",
        -12.612443082285722
      ],
      [
        "ĠÅ¡eÅ",
        -12.612464133183874
      ],
      [
        "plÃ©",
        -12.615116335399494
      ],
      [
        "plÃ¡Å¡",
        -12.615329823646057
      ],
      [
        "186",
        -12.616363200918121
      ],
      [
        "bar",
        -12.616395022735801
      ],
      [
        "ĠprÅ¡",
        -12.6168709946214
      ],
      [
        "trys",
        -12.616890696216759
      ],
      [
        "Ġzml",
        -12.618767440749991
      ],
      [
        "ĠkÅ¾e",
        -12.620612661865078
      ],
      [
        "vor",
        -12.62182418643291
      ],
      [
        "ĠvrÃ½",
        -12.621895285430835
      ],
      [
        "Å¥as",
        -12.622253795096048
      ],
      [
        "men",
        -12.622421145871435
      ],
      [
        "ĠvdÃ½",
        -12.623775807664622
      ],
      [
        "zpÅ¯",
        -12.62473026930309
      ],
      [
        "ĠpsÅ¯",
        -12.62487603178591
      ],
      [
        "ctno",
        -12.625743926407182
      ],
      [
        "ĠzmlÃ¡",
        -12.625932098648303
      ],
      [
        "AAAA",
        -12.626048500812946
      ],
      [
        "ĠzhÃ¡",
        -12.626950606154976
      ],
      [
        "ĠÅ¡ar",
        -12.62785943350378
      ],
      [
        "tvr",
        -12.628633383449966
      ],
      [
        "Ġjme",
        -12.629648418805843
      ],
      [
        "ĠvtmÃ¡",
        -12.630288689607221
      ],
      [
        "vÅ¡u",
        -12.630973962035675
      ],
      [
        "fran",
        -12.633459565066797
      ],
      [
        "ĠÅ¡kra",
        -12.634439257909335
      ],
      [
        "ABACC",
        -12.6355478811377
      ],
      [
        "ĠflÃ©",
        -12.63657825494905
      ],
      [
        "hvoz",
        -12.63691722835449
      ],
      [
        "ĠzÅ¾e",
        -12.63699634939806
      ],
      [
        "ĠmÃŃÅ",
        -12.638737878217452
      ],
      [
        "zdvi",
        -12.639418445487674
      ],
      [
        "kni",
        -12.640733953297676
      ],
      [
        "ĠvspÄĽ",
        -12.641549780320357
      ],
      [
        "Ġvnes",
        -12.641941701170424
      ],
      [
        "Ġkpro",
        -12.642030427827446
      ],
      [
        "ĠÅĻu",
        -12.64212064386195
      ],
      [
        "ĠsplÃŃ",
        -12.643728408894805
      ],
      [
        "ACCD",
        -12.644263790672994
      ],
      [
        "ĠvmÅ¾i",
        -12.64430953064996
      ],
      [
        "mrÅ¡",
        -12.644556824868605
      ],
      [
        "mÅĻÃŃ",
        -12.644954881326528
      ],
      [
        "ĠhÃ¡v",
        -12.646399924880686
      ],
      [
        "ral",
        -12.646737164406959
      ],
      [
        "blu",
        -12.647519758647153
      ],
      [
        "ĠkÅĻiÅ",
        -12.648497435047306
      ],
      [
        "Ġksva",
        -12.651227481718522
      ],
      [
        "Ġsny",
        -12.652735803468474
      ],
      [
        "Ġgli",
        -12.652999496336768
      ],
      [
        "sud",
        -12.655059614524193
      ],
      [
        "chl",
        -12.656775284044913
      ],
      [
        "ĠvtÃ¡",
        -12.65697725114628
      ],
      [
        "Ġsra",
        -12.657335207935146
      ],
      [
        "ĠzblÃ¡",
        -12.657799280315114
      ],
      [
        "ĠkpÃ¡",
        -12.657883642978565
      ],
      [
        "nu",
        -12.659114234295714
      ],
      [
        "ĠvbÅĻe",
        -12.659165863290518
      ],
      [
        "voj",
        -12.659499196090739
      ],
      [
        "lun",
        -12.66120870860087
      ],
      [
        "ĠzbÅ¯",
        -12.662129900621458
      ],
      [
        "yÅ¥",
        -12.66227493545297
      ],
      [
        "ĠvstaÅ",
        -12.662372695378718
      ],
      [
        "Ġzo",
        -12.662462168141333
      ],
      [
        "Ġzn",
        -12.662956319063866
      ],
      [
        "Ġkbla",
        -12.665154431744291
      ],
      [
        "ĠzpÅĻe",
        -12.665384247082281
      ],
      [
        "ĠstÃ½Å",
        -12.665701551293926
      ],
      [
        "ĠvzrÅ¯s",
        -12.66581009025586
      ],
      [
        "vÃº",
        -12.669238449732486
      ],
      [
        "chr",
        -12.669631444803292
      ],
      [
        "snÃŃm",
        -12.670092787688931
      ],
      [
        "Ġdlu",
        -12.671389056754876
      ],
      [
        "ĠmÃ",
        -12.671472859237301
      ],
      [
        "ĠmiÄį",
        -12.67174925089543
      ],
      [
        "Ġskl",
        -12.673321796250146
      ],
      [
        "Ġcnos",
        -12.673596358039331
      ],
      [
        "Ġlet",
        -12.674147175245835
      ],
      [
        "ĠzhÅ¯",
        -12.674681425688016
      ],
      [
        "tek",
        -12.674930331829174
      ],
      [
        "Ġrouc",
        -12.676682194912608
      ],
      [
        "ĠÅ¡vec",
        -12.677789335972717
      ],
      [
        "ĠbÅĻin",
        -12.680330543231058
      ],
      [
        "Ġsmra",
        -12.680362152083148
      ],
      [
        "zbo",
        -12.681784376825394
      ],
      [
        "Ġblys",
        -12.683368835628247
      ],
      [
        "ĠvzkÃ¡",
        -12.684641626034974
      ],
      [
        "ĠkdÄĽ",
        -12.685526242053715
      ],
      [
        "tÃ©Å",
        -12.686071113662916
      ],
      [
        "ĠgÃ©",
        -12.687805960692334
      ],
      [
        "snÃ¡",
        -12.68959635201526
      ],
      [
        "Ġstrop",
        -12.689727996664907
      ],
      [
        "Ġmsty",
        -12.689941292622407
      ],
      [
        "rad",
        -12.690951367127173
      ],
      [
        "kl",
        -12.691098309845831
      ],
      [
        "Ġvzr",
        -12.69152860597433
      ],
      [
        "Ġcla",
        -12.692441838043516
      ],
      [
        "zlÃ½",
        -12.69377187390245
      ],
      [
        "ĠbrÅ¯",
        -12.694043340305068
      ],
      [
        "Ġlej",
        -12.695507459450518
      ],
      [
        "Ġkhla",
        -12.695625399361344
      ],
      [
        "pÅ¯j",
        -12.695951183015008
      ],
      [
        "ĠbrÃ¡c",
        -12.698059378568217
      ],
      [
        "ĠsÃ½c",
        -12.698544426155621
      ],
      [
        "spra",
        -12.699910086783158
      ],
      [
        "vel",
        -12.700942296539809
      ],
      [
        "stec",
        -12.702509271417929
      ],
      [
        "tros",
        -12.70272926259054
      ],
      [
        "tiÅ¡",
        -12.703565606947704
      ],
      [
        "plu",
        -12.70377194552223
      ],
      [
        "Ġdry",
        -12.704555072174571
      ],
      [
        "ABABB",
        -12.706624396994474
      ],
      [
        "Ġso",
        -12.706823541498032
      ],
      [
        "ĠzhÅĻÃŃ",
        -12.707279928882173
      ],
      [
        "Äįej",
        -12.707581778051189
      ],
      [
        "dÃ¡n",
        -12.708951369265346
      ],
      [
        "Ġsch",
        -12.709947312930314
      ],
      [
        "Ġvtru",
        -12.71076325236015
      ],
      [
        "ĠplÃŃs",
        -12.711747301171144
      ],
      [
        "ABACB",
        -12.71215851206065
      ],
      [
        "fi",
        -12.712996798864195
      ],
      [
        "hÅ¯m",
        -12.713032193428841
      ],
      [
        "ĠpuÅ",
        -12.71464295534562
      ],
      [
        "pal",
        -12.714715150992507
      ],
      [
        "Å¡kle",
        -12.717150694607689
      ],
      [
        "Ġfek",
        -12.718556148759458
      ],
      [
        "vrouc",
        -12.718559122332135
      ],
      [
        "zby",
        -12.719391245998303
      ],
      [
        "ĠmÃ¡c",
        -12.719493027784381
      ],
      [
        "roÄį",
        -12.721772912924827
      ],
      [
        "ĠhÅĻ",
        -12.722289827123525
      ],
      [
        "ĠnÃŃmÅ",
        -12.722460064442684
      ],
      [
        "ĠjuÅ",
        -12.7227043814363
      ],
      [
        "ĠkruÅ",
        -12.724861654148963
      ],
      [
        "Ġdroz",
        -12.725605228794524
      ],
      [
        "ĠsÅ¾i",
        -12.72615479170868
      ],
      [
        "Ġgyp",
        -12.726817993878129
      ],
      [
        "Ġkon",
        -12.729078153763297
      ],
      [
        "scho",
        -12.729568210422325
      ],
      [
        "stli",
        -12.730770559142654
      ],
      [
        "Ġsfin",
        -12.731755200336906
      ],
      [
        "ABCAB",
        -12.73248599862632
      ],
      [
        "vzdÃ¡",
        -12.733388145450647
      ],
      [
        "Ġvmdlo",
        -12.735432913029342
      ],
      [
        "Ġjez",
        -12.735464565088492
      ],
      [
        "ĠvsluÅ",
        -12.735505320738158
      ],
      [
        "ĠstÄĽj",
        -12.736420261504115
      ],
      [
        "vnich",
        -12.736651742389547
      ],
      [
        "bal",
        -12.736791464459234
      ],
      [
        "Ġkpr",
        -12.73907372069581
      ],
      [
        "ĠÅ¡klu",
        -12.740189512706952
      ],
      [
        "ĠvÄį",
        -12.741700651053936
      ],
      [
        "Ġsdra",
        -12.741763764445086
      ],
      [
        "Ġre",
        -12.743529761096259
      ],
      [
        "ĠÄįÃŃs",
        -12.744397975564262
      ],
      [
        "skvÄĽ",
        -12.744416670613209
      ],
      [
        "Å¾li",
        -12.74505705193507
      ],
      [
        "ÅĻÃ¡s",
        -12.74596287961226
      ],
      [
        "vist",
        -12.747158735151064
      ],
      [
        "mÄĽÅ",
        -12.748506771862733
      ],
      [
        "ĠpÅĻel",
        -12.749052237576079
      ],
      [
        "Ġkar",
        -12.749626926729292
      ],
      [
        "ĠlÅ¾e",
        -12.750727187132798
      ],
      [
        "vÅ¡ic",
        -12.750730755530746
      ],
      [
        "Å¡il",
        -12.751030889099258
      ],
      [
        "Ġtknu",
        -12.751624165979166
      ],
      [
        "Ġzvla",
        -12.752703922905226
      ],
      [
        "ĠkÅ¡tÄĽ",
        -12.754753915121
      ],
      [
        "ĠÄįtou",
        -12.756588165690765
      ],
      [
        "aÅ¡",
        -12.758419294156013
      ],
      [
        "ĠklÃ¡Å",
        -12.759366646815964
      ],
      [
        "Ġzvra",
        -12.760473261695768
      ],
      [
        "Ġvsa",
        -12.762625314807527
      ],
      [
        "ĠvmrÃ¡",
        -12.7631227945843
      ],
      [
        "Ġvbles",
        -12.763689755090063
      ],
      [
        "ĠstÅĻ",
        -12.763903308069306
      ],
      [
        "Ġtle",
        -12.764293155616024
      ],
      [
        "Ġvtro",
        -12.766618337808971
      ],
      [
        "znich",
        -12.766780616196538
      ],
      [
        "di",
        -12.76837427298214
      ],
      [
        "fer",
        -12.7685387705916
      ],
      [
        "pÃ©",
        -12.769802098293788
      ],
      [
        "ĠnÃ©s",
        -12.770430977453948
      ],
      [
        "ĠstÃ",
        -12.771112311316267
      ],
      [
        "pÅĻ",
        -12.771258788333515
      ],
      [
        "ABBAA",
        -12.772016640162079
      ],
      [
        "zbra",
        -12.77320423029696
      ],
      [
        "vpra",
        -12.774729072149272
      ],
      [
        "Ġthe",
        -12.775198564620593
      ],
      [
        "ĠknÃ½",
        -12.775415799119784
      ],
      [
        "nuÅ¾",
        -12.77597175026974
      ],
      [
        "try",
        -12.776312538692734
      ],
      [
        "mÄĽs",
        -12.77665005686163
      ],
      [
        "zlÃŃ",
        -12.776928808028678
      ],
      [
        "ĠplÃ¡Å",
        -12.777303452833287
      ],
      [
        "Ġzlit",
        -12.777807716807063
      ],
      [
        "Ġkdru",
        -12.778560521176079
      ],
      [
        "ĠvjÃŃ",
        -12.779194206158415
      ],
      [
        "ĠvtÅ¯",
        -12.780225629100379
      ],
      [
        "Ġzchla",
        -12.780987246437588
      ],
      [
        "tÃŃÅ",
        -12.782873179786957
      ],
      [
        "Ġvchva",
        -12.783525411460811
      ],
      [
        "ber",
        -12.783613891725015
      ],
      [
        "ĠnÃŃc",
        -12.784530254291361
      ],
      [
        "ĠmÅĻÃŃÅ",
        -12.78476171059918
      ],
      [
        "zdÄĽ",
        -12.7852638511314
      ],
      [
        "hal",
        -12.785485060922166
      ],
      [
        "ĠchÃ¡Å",
        -12.786103408035585
      ],
      [
        "ĠvÅĻes",
        -12.786265668737883
      ],
      [
        "ĠtnÃ½",
        -12.787396925096079
      ],
      [
        "ĠkÅĪa",
        -12.787745413545121
      ],
      [
        "Ġzte",
        -12.788032586342506
      ],
      [
        "chci",
        -12.788595528019458
      ],
      [
        "mdlo",
        -12.78930617140755
      ],
      [
        "ĠvstrÃ¡",
        -12.789916576324922
      ],
      [
        "AAXBB",
        -12.790828062811414
      ],
      [
        "ĠkÃ½v",
        -12.791194421303725
      ],
      [
        "ĠpouÅ",
        -12.791814871539472
      ],
      [
        "dce",
        -12.791822299549846
      ],
      [
        "ĠzplÃ¡",
        -12.792869398072392
      ],
      [
        "ĠzvÅ¡e",
        -12.793052223672191
      ],
      [
        "zle",
        -12.793746341730902
      ],
      [
        "ĠvsmÃŃ",
        -12.796154209718726
      ],
      [
        "ĠztÃ¡",
        -12.796209846534328
      ],
      [
        "Ġzpl",
        -12.796689210485885
      ],
      [
        "en",
        -12.799518651792939
      ],
      [
        "tÃ¡m",
        -12.802034439464382
      ],
      [
        "ÄĽk",
        -12.802202077789548
      ],
      [
        "ĠkouÅ",
        -12.805517003328406
      ],
      [
        "Ġzbr",
        -12.806013957867233
      ],
      [
        "ĠtouÅ",
        -12.806641164804137
      ],
      [
        "ÃŃt",
        -12.806963495648645
      ],
      [
        "Å¡lo",
        -12.8069865758454
      ],
      [
        "Ġmn",
        -12.808831307136188
      ],
      [
        "tÅĻÃŃÅ¡",
        -12.808896947579345
      ],
      [
        "Ġcel",
        -12.809832960346352
      ],
      [
        "ĠzkÅĻÃŃ",
        -12.810705381938288
      ],
      [
        "ĠbÄĽÅ",
        -12.811868362454412
      ],
      [
        "Ġjs",
        -12.81195506957646
      ],
      [
        "ĠspÅ¯",
        -12.812272081372463
      ],
      [
        "ĠpraÅ¡",
        -12.812283239889432
      ],
      [
        "Ġskrej",
        -12.812599183760605
      ],
      [
        "Ġpit",
        -12.81335170630264
      ],
      [
        "Ġkstro",
        -12.815230126774136
      ],
      [
        "rob",
        -12.816802391410981
      ],
      [
        "let",
        -12.817082898468128
      ],
      [
        "Ġvdra",
        -12.817418557551521
      ],
      [
        "mÅ¾i",
        -12.817572455966124
      ],
      [
        "Ġtl",
        -12.81822074131112
      ],
      [
        "sklÃ¡",
        -12.818403793115165
      ],
      [
        "rej",
        -12.818989438814194
      ],
      [
        "Ġfar",
        -12.820061454768554
      ],
      [
        "sten",
        -12.820301564982191
      ],
      [
        "Ġklel",
        -12.821333766655986
      ],
      [
        "ĠmnÃŃm",
        -12.824716230906457
      ],
      [
        "zÅĻel",
        -12.825139807863607
      ],
      [
        "Ġplic",
        -12.825960455382816
      ],
      [
        "ĠzblÃŃ",
        -12.826366279207075
      ],
      [
        "Ġvdi",
        -12.827022176653312
      ],
      [
        "ĠvhnÃŃz",
        -12.827088554727773
      ],
      [
        "lÃ¡c",
        -12.827393951879436
      ],
      [
        "Ġtur",
        -12.828066035966533
      ],
      [
        "ĠzdÃ½",
        -12.831678177700656
      ],
      [
        "Ġvble",
        -12.832054523143274
      ],
      [
        "douc",
        -12.832087062454466
      ],
      [
        "strÃ¡Å",
        -12.832560875644912
      ],
      [
        "ĠdcÅ¯",
        -12.834119036530044
      ],
      [
        "svÄĽd",
        -12.834632459205116
      ],
      [
        "ĠvzpÄĽ",
        -12.835597679922097
      ],
      [
        "Ġzfo",
        -12.837515979144335
      ],
      [
        "zro",
        -12.838261855777205
      ],
      [
        "ĠkoÅ",
        -12.839398134385945
      ],
      [
        "ĠtmÃ¡",
        -12.84003382630494
      ],
      [
        "Ġvtak",
        -12.840791913255847
      ],
      [
        "Ġbzu",
        -12.840855330477543
      ],
      [
        "kri",
        -12.841020167944894
      ],
      [
        "Ġvd",
        -12.84450559643815
      ],
      [
        "Ġvstr",
        -12.845346078080825
      ],
      [
        "Ġchre",
        -12.8458348156529
      ],
      [
        "ĠÅ¡es",
        -12.845954850555543
      ],
      [
        "ĠvsmÄĽ",
        -12.84714379804441
      ],
      [
        "mlÃ½",
        -12.84758755772667
      ],
      [
        "nnÃŃ",
        -12.848196717347427
      ],
      [
        "skle",
        -12.848471024087093
      ],
      [
        "ĠvzpÃ",
        -12.848488319222206
      ],
      [
        "Ġzk",
        -12.850628525654365
      ],
      [
        "fÃ¡",
        -12.850871051902665
      ],
      [
        "Ġsvr",
        -12.851141462006638
      ],
      [
        "ĠskÅĻou",
        -12.85126856584053
      ],
      [
        "zpÅĻÃŃ",
        -12.851516814431923
      ],
      [
        "zma",
        -12.852304517977036
      ],
      [
        "Ġkv",
        -12.85318700256766
      ],
      [
        "vÅĻa",
        -12.853258131136204
      ],
      [
        "mÃ¡Å¡",
        -12.853821070756851
      ],
      [
        "ma",
        -12.854179279866797
      ],
      [
        "vje",
        -12.857094369532248
      ],
      [
        "Ġslec",
        -12.858460986905541
      ],
      [
        "mÄĽj",
        -12.860924577083239
      ],
      [
        "ACAC",
        -12.861281558950504
      ],
      [
        "ĠÅ¡aÅ",
        -12.861567892893273
      ],
      [
        "Ġvtrh",
        -12.861953562072882
      ],
      [
        "Ġfre",
        -12.862956613579046
      ],
      [
        "Ġvyj",
        -12.863259302964924
      ],
      [
        "Ġpat",
        -12.86336878391977
      ],
      [
        "Ġstvou",
        -12.863744956560943
      ],
      [
        "Ġvsi",
        -12.86433547982934
      ],
      [
        "ĠvÃºs",
        -12.864426452418154
      ],
      [
        "Ġksta",
        -12.8649558308656
      ],
      [
        "ĠjÃ",
        -12.86827912168801
      ],
      [
        "strÃ©",
        -12.868557755559827
      ],
      [
        "krÅ¯",
        -12.870097645432509
      ],
      [
        "ABBX",
[...]
