{
  "version": "1.0",
  "truncation": null,
  "padding": null,
  "added_tokens": [
    {
      "id": 0,
      "content": "<|endoftext|>",
      "single_word": false,
      "lstrip": false,
      "rstrip": false,
      "normalized": false,
      "special": true
    }
  ],
  "normalizer": null,
  "pre_tokenizer": {
    "type": "ByteLevel",
    "add_prefix_space": false,
    "trim_offsets": true,
    "use_regex": true
  },
  "post_processor": {
    "type": "ByteLevel",
    "add_prefix_space": true,
    "trim_offsets": false,
    "use_regex": true
  },
  "decoder": {
    "type": "ByteLevel",
    "add_prefix_space": true,
    "trim_offsets": true,
    "use_regex": true
  },
  "model": {
    "type": "Unigram",
    "unk_id": 0,
    "vocab": [
      [
        "<|endoftext|>",
        0.0
      ],
      [
        "Ċ",
        -2.027359796680404
      ],
      [
        ",",
        -2.660305258809931
      ],
      [
        "a",
        -3.527733837974518
      ],
      [
        "Ġ",
        -3.5919241833043465
      ],
      [
        ".",
        -3.9417946950716782
      ],
      [
        "y",
        -4.072490346717169
      ],
      [
        "Ġv",
        -4.202444101831439
      ],
      [
        "u",
        -4.205461952672234
      ],
      [
        "Ġse",
        -4.297051349522256
      ],
      [
        "i",
        -4.342580775478066
      ],
      [
        "ĠâĢĵ",
        -4.805497381982944
      ],
      [
        "!",
        -4.915096951815443
      ],
      [
        "m",
        -5.049185727229439
      ],
      [
        "em",
        -5.071335447545724
      ],
      [
        "ch",
        -5.109332744846062
      ],
      [
        "Ġna",
        -5.190511219630263
      ],
      [
        "o",
        -5.192732450094001
      ],
      [
        "Ġs",
        -5.357187316390679
      ],
      [
        "ou",
        -5.450556136635246
      ],
      [
        "Ġz",
        -5.4653597300469805
      ],
      [
        "e",
        -5.512875971018259
      ],
      [
        ";",
        -5.5967170487062905
      ],
      [
        "v",
        -5.606548498027086
      ],
      [
        ":",
        -5.607336392291192
      ],
      [
        "Ġk",
        -5.613989348502784
      ],
      [
        "A",
        -5.658162923097592
      ],
      [
        "Ã¡",
        -5.711076521119644
      ],
      [
        "?",
        -5.768756719056057
      ],
      [
        "Ġje",
        -5.844264926780834
      ],
      [
        "Ġto",
        -5.875862152910351
      ],
      [
        "s",
        -5.961795900338775
      ],
      [
        "ÄĽ",
        -5.974673386773501
      ],
      [
        "Ġjak",
        -6.056440978432867
      ],
      [
        "Ġdo",
        -6.093613897542086
      ],
      [
        "...",
        -6.145384861638885
      ],
      [
        "k",
        -6.155836062013057
      ],
      [
        "ÃŃ",
        -6.169156108872862
      ],
      [
        "âĢŀ",
        -6.188103683735939
      ],
      [
        "Ġjsem",
        -6.197778689461499
      ],
      [
        "Ġpo",
        -6.206017877595492
      ],
      [
        "na",
        -6.267020988357546
      ],
      [
        "Ġza",
        -6.269489543730119
      ],
      [
        "ho",
        -6.33252729333501
      ],
      [
        "jak",
        -6.338419157194961
      ],
      [
        "ĠÅ¾e",
        -6.362227540427272
      ],
      [
        "Å¡",
        -6.377276914108071
      ],
      [
        "Ġjen",
        -6.380662184067326
      ],
      [
        "V",
        -6.4558173513518415
      ],
      [
        "Ġmi",
        -6.504814097775753
      ],
      [
        "Ġsi",
        -6.528455759286629
      ],
      [
        "Ġco",
        -6.560602541324345
      ],
      [
        "Å¾e",
        -6.573975183292497
      ],
      [
        "âĢĻ",
        -6.580480722878201
      ],
      [
        "Ġtak",
        -6.613977902812477
      ],
      [
        "Ã©",
        -6.614550558217049
      ],
      [
        "Ġby",
        -6.633415303405931
      ],
      [
        "Ġtu",
        -6.6461826371299555
      ],
      [
        "se",
        -6.677152531673119
      ],
      [
        "Ġmu",
        -6.683050309515586
      ],
      [
        "Ġne",
        -6.686374518358132
      ],
      [
        "Ġjako",
        -6.6897517293456055
      ],
      [
        "!âĢľ",
        -6.702074508374116
      ],
      [
        "li",
        -6.708433432835051
      ],
      [
        "Ġve",
        -6.710451904206284
      ],
      [
        "Ġsrdce",
        -6.7413837555507765
      ],
      [
        "Ġjeho",
        -6.744988518433846
      ],
      [
        "ce",
        -6.7781175055191145
      ],
      [
        "z",
        -6.7816156907980965
      ],
      [
        "ĠsvÃ©",
        -6.842815274995582
      ],
      [
        "te",
        -6.8462319191442305
      ],
      [
        "Ġbyl",
        -6.90058492248329
      ],
      [
        "Å¯",
        -6.911729969870182
      ],
      [
        "ĠjiÅ¾",
        -6.919809890527803
      ],
      [
        "ĠmÃ¡",
        -6.922936210965865
      ],
      [
        "Ġtam",
        -6.930432632418553
      ],
      [
        "ĠkdyÅ¾",
        -6.9468103005753985
      ],
      [
        "Ġten",
        -6.955297097946138
      ],
      [
        "Ġty",
        -6.971620397801132
      ],
      [
        "aÅ¾",
        -7.014271942799141
      ],
      [
        "ĠâĢŀ",
        -7.017260860051884
      ],
      [
        "Ġpro",
        -7.019009803613313
      ],
      [
        "ek",
        -7.030918610461892
      ],
      [
        "Ġmne",
        -7.036943109288599
      ],
      [
        "Na",
        -7.047291292098164
      ],
      [
        "-",
        -7.0568407882397075
      ],
      [
        "Ã¡ch",
        -7.098882061256482
      ],
      [
        "to",
        -7.1006827384792786
      ],
      [
        "Ġnad",
        -7.106928736242372
      ],
      [
        "t",
        -7.119298833346255
      ],
      [
        "ĠmÃ©",
        -7.121830778288032
      ],
      [
        "ĠnÃ¡m",
        -7.151197475360236
      ],
      [
        "ĠvÅ¡ak",
        -7.164174704006584
      ],
      [
        "Ġzas",
        -7.18405206245655
      ],
      [
        "Ġji",
        -7.185452069672632
      ],
      [
        "Ġjest",
        -7.1891757933331935
      ],
      [
        "kdyÅ¾",
        -7.1974937563793695
      ],
      [
        "Ã½",
        -7.201095233362825
      ],
      [
        "ĠsvÄĽt",
        -7.204409928753808
      ],
      [
        "Ġti",
        -7.205850540141682
      ],
      [
        "Jak",
        -7.223056851508533
      ],
      [
        "ĠjÃ¡",
        -7.2314369935390275
      ],
      [
        "nÃ¡",
        -7.24912504871425
      ],
      [
        "ĠjeÅ¾",
        -7.259231011507826
      ],
      [
        "po",
        -7.259488058734897
      ],
      [
        "ĠduÅ¡e",
        -7.2729165388306125
      ],
      [
        "Å¥",
        -7.285597055027324
      ],
      [
        "Ġod",
        -7.292222814773023
      ],
      [
        "ĠnÃŃ",
        -7.292981530664527
      ],
      [
        "ĠjÃŃ",
        -7.296811499819219
      ],
      [
        "Ġpak",
        -7.303565623072124
      ],
      [
        "mi",
        -7.304342325415998
      ],
      [
        "ech",
        -7.309017882408076
      ],
      [
        "Ġjsi",
        -7.313521387191571
      ],
      [
        "Ġsvou",
        -7.327159828015224
      ],
      [
        "ne",
        -7.32851225825366
      ],
      [
        "S",
        -7.332632866767597
      ],
      [
        "Ġkde",
        -7.341479283546356
      ],
      [
        "Ġtom",
        -7.342813699669447
      ],
      [
        "za",
        -7.349863317846809
      ],
      [
        "ĠuÅ¾",
        -7.351643825321219
      ],
      [
        "co",
        -7.354784137965677
      ],
      [
        "ĠjeÅ¡tÄĽ",
        -7.358758047306825
      ],
      [
        "ĠtÄĽ",
        -7.362918581928277
      ],
      [
        "jeÅ¾",
        -7.368242987377053
      ],
      [
        "Ãĵ",
        -7.368700245992876
      ],
      [
        "Ġbez",
        -7.373240782539822
      ],
      [
        "nou",
        -7.3736506371383825
      ],
      [
        "ĠnÃ¡s",
        -7.381789039251473
      ],
      [
        "Z",
        -7.3832058506192215
      ],
      [
        ".âĢľ",
        -7.385126174767198
      ],
      [
        "ĠÅ¾ivot",
        -7.396773832929691
      ],
      [
        "ĠvÅ¡e",
        -7.414325450956369
      ],
      [
        "je",
        -7.416130311786624
      ],
      [
        "ĠjenÅ¾",
        -7.422097466277437
      ],
      [
        "ĠmÅ¯j",
        -7.423771012907414
      ],
      [
        "Ġpod",
        -7.428911081411119
      ],
      [
        "ĠpÅĻed",
        -7.432708553663707
      ],
      [
        "ĠduÅ¡i",
        -7.4405692404497685
      ],
      [
        "ĠkvÄĽt",
        -7.449971892549785
      ],
      [
        "do",
        -7.457125417718375
      ],
      [
        "Ġjsou",
        -7.457768550929687
      ],
      [
        "vÅ¡ak",
        -7.461439606228641
      ],
      [
        "ĠtÃ©",
        -7.463542438883943
      ],
      [
        "ĠvÅ¾dy",
        -7.472508746325241
      ],
      [
        "Tak",
        -7.4753895885468715
      ],
      [
        "ĠjejÃŃ",
        -7.491510561883208
      ],
      [
        "nÃŃ",
        -7.49497409516543
      ],
      [
        "nÄĽ",
        -7.51098251904517
      ],
      [
        "kde",
        -7.511364074574697
      ],
      [
        "by",
        -7.5186459148460845
      ],
      [
        "l",
        -7.519920200677369
      ],
      [
        "Co",
        -7.521004371128257
      ],
      [
        "Ġzrak",
        -7.538334811333245
      ],
      [
        "Ã½ch",
        -7.543707031663519
      ],
      [
        "c",
        -7.551223274824974
      ],
      [
        "Ġjej",
        -7.557802523059593
      ],
      [
        "Ġta",
        -7.5592701469675045
      ],
      [
        "Ġden",
        -7.5598299809648335
      ],
      [
        "Ġslunce",
        -7.568445036698412
      ],
      [
        "ĠpÅĻi",
        -7.5729720198797
      ],
      [
        "jen",
        -7.584973271433023
      ],
      [
        "ĠdÃ¡l",
        -7.593980467291958
      ],
      [
        "tak",
        -7.594883663428012
      ],
      [
        "Ġbude",
        -7.595258739158805
      ],
      [
        "JÃ¡",
        -7.6044223389971215
      ],
      [
        "Ġjsme",
        -7.604776531744516
      ],
      [
        "ĠmnÄĽ",
        -7.608129108569223
      ],
      [
        "ĠteÄı",
        -7.624780529297411
      ],
      [
        "VÅ¡ak",
        -7.627566688318472
      ],
      [
        "ĠnenÃŃ",
        -7.6290692372939475
      ],
      [
        "ĠÄįas",
        -7.630580222598814
      ],
      [
        "Ġze",
        -7.636686583154244
      ],
      [
        "ĠtvÃ©",
        -7.665806458727724
      ],
      [
        "Ġbych",
        -7.66814634397403
      ],
      [
        "vÅ¯j",
        -7.673639687288581
      ],
      [
        "ĠtÄĽch",
        -7.681875808449707
      ],
      [
        "ĠlÃ¡sky",
        -7.683167992101939
      ],
      [
        "Po",
        -7.684112421609827
      ],
      [
        "ĠÅ¾itÃŃ",
        -7.695400776878314
      ],
      [
        "Ne",
        -7.7002476180622175
      ],
      [
        "n",
        -7.70079998353847
      ],
      [
        "Ġbylo",
        -7.702754517475965
      ],
      [
        "tu",
        -7.706218260654877
      ],
      [
        "Ġho",
        -7.708942875658236
      ],
      [
        "To",
        -7.727212707482442
      ],
      [
        "âĢĵ",
        -7.737014783588945
      ],
      [
        "Ty",
        -7.744455573320298
      ],
      [
        "ĠsÃ¡m",
        -7.747293905271803
      ],
      [
        "ĠnÄĽm",
        -7.764837869063687
      ],
      [
        "I",
        -7.76915269735939
      ],
      [
        "ĠsobÄĽ",
        -7.773047326830628
      ],
      [
        "Ġlid",
        -7.773703351432962
      ],
      [
        "jÃ¡",
        -7.777086154316413
      ],
      [
        "Za",
        -7.782785359196998
      ],
      [
        "ĠoÄįi",
        -7.786506894727456
      ],
      [
        "ty",
        -7.788770191934358
      ],
      [
        "Ġkdo",
        -7.792937366168653
      ],
      [
        "Ġlet",
        -7.8051016813299
      ],
      [
        "K",
        -7.8156180415282375
      ],
      [
        "Ġjich",
        -7.817319590046113
      ],
      [
        "Ġsrdci",
        -7.821807112951479
      ],
      [
        "ĠvÅ¡ech",
        -7.8247838771357365
      ],
      [
        "ku",
        -7.826352628684775
      ],
      [
        "jenÅ¾",
        -7.82696534368811
      ],
      [
        "Å¯m",
        -7.832077891986357
      ],
      [
        "O",
        -7.834312804285702
      ],
      [
        "Ġjim",
        -7.83963566883801
      ],
      [
        "Ġhlav",
        -7.840786800396696
      ],
      [
        "KdyÅ¾",
        -7.842752168399722
      ],
      [
        "ĠvÃ¡m",
        -7.844912657523876
      ],
      [
        "ĠnÃŃm",
        -7.846223374330016
      ],
      [
        "ĠÅ¡tÄĽstÃŃ",
        -7.8600676396137015
      ],
      [
        "Ġbyla",
        -7.8675727440648
      ],
      [
        "Ġnebe",
        -7.872248077305507
      ],
      [
        "Tu",
        -7.87902139207265
      ],
      [
        "Ġcest",
        -7.882739942322312
      ],
      [
        "Ġhlas",
        -7.884467376814241
      ],
      [
        "ĠÄįlovÄĽk",
        -7.8903989564719055
      ],
      [
        "ĠsvÃ½ch",
        -7.891803530030879
      ],
      [
        "Ġzemi",
        -7.895331165592905
      ],
      [
        "ĠmÄĽl",
        -7.896995717967636
      ],
      [
        "ĠzemÄĽ",
        -7.897828837794824
      ],
      [
        "Ġdnes",
        -7.899012003083596
      ],
      [
        "ĠneÅ¾",
        -7.900436533698926
      ],
      [
        "Ġnich",
        -7.908867867380621
      ],
      [
        "nÃ©",
        -7.911969335513735
      ],
      [
        "Ġsnad",
        -7.916013207672968
      ],
      [
        "Ġmoje",
        -7.916554528500926
      ],
      [
        "Ġruce",
        -7.920870811354396
      ],
      [
        "Ġni",
        -7.922260968697811
      ],
      [
        "ovÃ©",
        -7.93226746627089
      ],
      [
        "ĠvÃŃc",
        -7.936072798695937
      ],
      [
        "Ġzde",
        -7.9435963235934235
      ],
      [
        "ky",
        -7.948545762210946
      ],
      [
        "ve",
        -7.949142287406929
      ],
      [
        "ti",
        -7.951644817442078
      ],
      [
        "Ġjejich",
        -7.962583563689471
      ],
      [
        "Ġon",
        -7.963304408756228
      ],
      [
        "Ġkolem",
        -7.963792827807726
      ],
      [
        "ĠtobÄĽ",
        -7.966631391132493
      ],
      [
        "ĠvÃ¡s",
        -7.986139886002521
      ],
      [
        "Ġnoci",
        -7.98914723682077
      ],
      [
        "ĠkaÅ¾dÃ½",
        -7.992347357328395
      ],
      [
        "ni",
        -7.9968433672883545
      ],
      [
        "ĠnaÅ¡e",
        -7.99925766741617
      ],
      [
        "jako",
        -8.01028193924566
      ],
      [
        "?âĢľ",
        -8.013036466445884
      ],
      [
        "aÅ¥",
        -8.019390606522807
      ],
      [
        "ĠtÃ©Å¾",
        -8.021343336501456
      ],
      [
        "Ġhor",
        -8.026850173397774
      ],
      [
        "ĠvÅ¡ecko",
        -8.036853690245367
      ],
      [
        "Jen",
        -8.038307339875805
      ],
      [
        "Ġkdy",
        -8.039682812281086
      ],
      [
        "Å½e",
        -8.048835104119073
      ],
      [
        "Ġhlavu",
        -8.051117214968015
      ],
      [
        "en",
        -8.052908567322643
      ],
      [
        "ĠtvÅ¯j",
        -8.0568216002191
      ],
      [
        "jenom",
        -8.056949578331107
      ],
      [
        "ci",
        -8.066839924353738
      ],
      [
        "ĠsvÃ½m",
        -8.071222244902467
      ],
      [
        "ĠmÄĽ",
        -8.072271994643616
      ],
      [
        "Je",
        -8.073106729448098
      ],
      [
        "nad",
        -8.076903399185928
      ],
      [
        "Å¾",
        -8.077279217490574
      ],
      [
        "Ġjste",
        -8.08566241551268
      ],
      [
        "ta",
        -8.094340683777475
      ],
      [
        "Ġnoc",
        -8.100788970012976
      ],
      [
        "ĠpÃŃseÅĪ",
        -8.102195654713727
      ],
      [
        "Ġtebe",
        -8.105106341305355
      ],
      [
        "ĠpÅĻec",
        -8.108885850374847
      ],
      [
        "ĠcelÃ½",
        -8.110761255194207
      ],
      [
        "ĠmoÅĻe",
        -8.116892846376748
      ],
      [
        "pro",
        -8.120867977763924
      ],
      [
        "ĠchtÄĽl",
        -8.127921323149376
      ],
      [
        "ami",
        -8.138538090485811
      ],
      [
        "ĠoÄįÃŃ",
        -8.14059390762445
      ],
      [
        "ĠchvÃŃli",
        -8.14278087264983
      ],
      [
        "Ġvln",
        -8.148458584575161
      ],
      [
        "U",
        -8.154290180519906
      ],
      [
        "ten",
        -8.160822026172633
      ],
      [
        "la",
        -8.16871205940908
      ],
      [
        "ĠtÃŃm",
        -8.17689910923974
      ],
      [
        "nÃ½",
        -8.177853811963148
      ],
      [
        "Do",
        -8.18088434089341
      ],
      [
        "Ġroz",
        -8.18088692585365
      ],
      [
        "Ġani",
        -8.180944279201643
      ],
      [
        "Ġkol",
        -8.183053385074883
      ],
      [
        "tam",
        -8.195445872756597
      ],
      [
        "neb",
        -8.19568313757309
      ],
      [
        "âĢľ",
        -8.198050372628831
      ],
      [
        "on",
        -8.199044069625332
      ],
      [
        "eÅĪ",
        -8.200713564176452
      ],
      [
        "Ġvod",
        -8.20376792034617
      ],
      [
        "Ġduch",
        -8.211021378198991
      ],
      [
        "ĠsvÃ©m",
        -8.211389291792482
      ],
      [
        "ĠsvÃ©ho",
        -8.213362288747819
      ],
      [
        "ĠdÃŃtÄĽ",
        -8.219371173847104
      ],
      [
        "od",
        -8.222481266747323
      ],
      [
        "ĠtakÃ©",
        -8.22342065652273
      ],
      [
        "Ġsen",
        -8.230571585919352
      ],
      [
        "Ġhned",
        -8.232544879569854
      ],
      [
        "Ġdal",
        -8.232778788824076
      ],
      [
        "Ġtoho",
        -8.235374055353832
      ],
      [
        "ĠrÃ¡d",
        -8.24416424177797
      ],
      [
        "ĠnÃ¡Å¡",
        -8.245871932068747
      ],
      [
        "Ġke",
        -8.251749641117804
      ],
      [
        "j",
        -8.257398800705943
      ],
      [
        "ĠbÃ½t",
        -8.260840701319294
      ],
      [
        "ĠaÅ¥",
        -8.268639144871566
      ],
      [
        "Ġkrev",
        -8.269345184760237
      ],
      [
        "nÃ½ch",
        -8.271231642822086
      ],
      [
        "ĠtiÅ¡e",
        -8.271440889872162
      ],
      [
        "Ġmou",
        -8.272561328392928
      ],
      [
        "jiÅ¾",
        -8.27892566402977
      ],
      [
        "si",
        -8.289239044044184
      ],
      [
        "Ġnebes",
        -8.289911970764757
      ],
      [
        "ze",
        -8.291174189475283
      ],
      [
        "ĠnÃ¡hle",
        -8.29256445248915
      ],
      [
        "Ġstrom",
        -8.29567086747606
      ],
      [
        "Ġku",
        -8.301120692176374
      ],
      [
        "Ġzem",
        -8.303374662587737
      ],
      [
        "neÅ¾",
        -8.305225657650391
      ],
      [
        "ĠlÃ¡ska",
        -8.307079621527329
      ],
      [
        "ĠvÃŃce",
        -8.308274796667474
      ],
      [
        "ĠpÅĻe",
        -8.311994385851845
      ],
      [
        "ĠnÃ¡rod",
        -8.312600200621802
      ],
      [
        "Ġnebi",
        -8.313110913527922
      ],
      [
        "Ġdech",
        -8.314277382806871
      ],
      [
        "Ã¡m",
        -8.315976173573965
      ],
      [
        "Kdo",
        -8.319660605670407
      ],
      [
        "kdy",
        -8.32279520662173
      ],
      [
        "ĠstÃ¡le",
        -8.326428836901725
      ],
      [
        "ĠstarÃ½",
        -8.328130572447701
      ],
      [
        "ĠrÅ¯Å¾e",
        -8.328472054399281
      ],
      [
        "vÅ¡e",
        -8.328682848457605
      ],
      [
        "ĠtvÃ¡ÅĻ",
        -8.331320911101962
      ],
      [
        "Kde",
        -8.332951599704444
      ],
      [
        "ĠÅ¾en",
        -8.334708008383348
      ],
      [
        "ĠsvÄĽta",
        -8.335157858458233
      ],
      [
        "Tam",
        -8.33576635460587
      ],
      [
        "mu",
        -8.336544382407041
      ],
      [
        "Ã³",
        -8.34179415830708
      ],
      [
        "Ġzase",
        -8.345282119954742
      ],
      [
        "ale",
        -8.346296356571939
      ],
      [
        "Ġale",
        -8.346850475897593
      ],
      [
        "ĠsÃŃl",
        -8.350870410708904
      ],
      [
        "pod",
        -8.352186965158275
      ],
      [
        "Ġjednou",
        -8.357699704936973
      ],
      [
        "Ġmnou",
        -8.361056364283614
      ],
      [
        "Ġslova",
        -8.363354174133875
      ],
      [
        "ĠÃºsmÄĽv",
        -8.365010950956606
      ],
      [
        "Ġsebe",
        -8.367710914380892
      ],
      [
        "Ach",
        -8.368982127456974
      ],
      [
        "ĠstÃŃn",
        -8.3695295400105
      ],
      [
        "ĠnynÃŃ",
        -8.370446347209446
      ],
      [
        "Ġrukou",
        -8.375721240789364
      ],
      [
        "ĠpÃ¡n",
        -8.381507606405414
      ],
      [
        "ĠstojÃŃ",
        -8.386647145287215
      ],
      [
        "ĠhvÄĽzd",
        -8.387323176397869
      ],
      [
        "ĠzpÄĽv",
        -8.390735579291102
      ],
      [
        "ĠBÅ¯h",
        -8.390889771312201
      ],
      [
        "Ale",
        -8.391205245312923
      ],
      [
        "ĠmÃ¡m",
        -8.393848697131443
      ],
      [
        "ĠveÄįer",
        -8.404902442763458
      ],
      [
        "ĠmÄĽst",
        -8.408870727638494
      ],
      [
        "r",
        -8.410007879107106
      ],
      [
        "Ġmezi",
        -8.414792245577521
      ],
      [
        "ĠbÃŃlÃ½",
        -8.418917260936421
      ],
      [
        "Ġkdys",
        -8.427146767591184
      ],
      [
        "Ġdruh",
        -8.428104598749767
      ],
      [
        "ĠpÅĻes",
        -8.436138667733026
      ],
      [
        "Ã½m",
        -8.438343119475583
      ],
      [
        "Ġnikdy",
        -8.438637235139355
      ],
      [
        "Ġstran",
        -8.44724994160885
      ],
      [
        "kdo",
        -8.44846569355734
      ],
      [
        "d",
        -8.454489513794172
      ],
      [
        "Ġjeden",
        -8.45637293954545
      ],
      [
        "Vy",
        -8.4574887831927
      ],
      [
        "pak",
        -8.458891944438593
      ],
      [
        "cÃŃ",
        -8.45920465156133
      ],
      [
        "Ġkrok",
        -8.46482963690786
      ],
      [
        "TeÄı",
        -8.47355448917461
      ],
      [
        "Ġtomu",
        -8.47643847243359
      ],
      [
        "mÃ¡",
        -8.483951184433614
      ],
      [
        "Ġoko",
        -8.489184174656085
      ],
      [
        "Ġsmrti",
        -8.489583969152962
      ],
      [
        "leÄį",
        -8.493337249648922
      ],
      [
        "ĠkrÃ¡l",
        -8.499469219327374
      ],
      [
        "ĠchrÃ¡m",
        -8.502679282503655
      ],
      [
        "h",
        -8.507868742239198
      ],
      [
        "ĠduÅ¡ÃŃ",
        -8.510008059971721
      ],
      [
        "mÃ½ch",
        -8.510719243694934
      ],
      [
        "ĠdÃ¡le",
        -8.515359708854353
      ],
      [
        "cÃŃch",
        -8.515900514456696
      ],
      [
        "ĠnÃŃÅ¾",
        -8.518509936452123
      ],
      [
        "ĠnaÅ¡i",
        -8.519940764007792
      ],
      [
        "Ġblesk",
        -8.525522528248594
      ],
      [
        "jÃŃ",
        -8.531090612186752
      ],
      [
        "p",
        -8.53135306274927
      ],
      [
        "Ten",
        -8.532054084442812
      ],
      [
        "Ġjde",
        -8.53349535797458
      ],
      [
        "On",
        -8.535286285960913
      ],
      [
        "ĠbÃŃlÃ©",
        -8.538053225748886
      ],
      [
        "Ġsyn",
        -8.538398676497994
      ],
      [
        "Ġdne",
        -8.541186982059042
      ],
      [
        "ĠsmÃŃch",
        -8.541609733426885
      ],
      [
        "nu",
        -8.541952006835738
      ],
      [
        "Ġvlas",
        -8.545501330850572
      ],
      [
        "ĠzlatÃ½",
        -8.545775809257298
      ],
      [
        "Ġnic",
        -8.54613070901516
      ],
      [
        "ĠmusÃŃ",
        -8.553575060377385
      ],
      [
        "Ġosud",
        -8.553759219027134
      ],
      [
        "ĠpÅĻece",
        -8.553975917062168
      ],
      [
        "ĠnovÃ½",
        -8.554191950158451
      ],
      [
        "tvÃ½ch",
        -8.555444462455396
      ],
      [
        "Pak",
        -8.560142060358158
      ],
      [
        "Ġruku",
        -8.566447532160415
      ],
      [
        "ĠvÅ¡em",
        -8.56902548660317
      ],
      [
        "Ġchce",
        -8.57196925212901
      ],
      [
        "ĠkterÃ©",
        -8.573104167673096
      ],
      [
        "ĠprvnÃŃ",
        -8.573358994511434
      ],
      [
        "Ġhrob",
        -8.578533290260266
      ],
      [
        "ĠÅĻek",
        -8.580329998831377
      ],
      [
        "ji",
        -8.581525268097641
      ],
      [
        "ĠkterÃ½",
        -8.59389787325932
      ],
      [
        "Ġkam",
        -8.594403060124822
      ],
      [
        "Ġas",
        -8.594448669638522
      ],
      [
        "ĠvÃŃr",
        -8.596302352387049
      ],
      [
        "Ġpohled",
        -8.597495035191969
      ],
      [
        "Ġmy",
        -8.599256221612233
      ],
      [
        "ĠleÅ¾ÃŃ",
        -8.599456085403173
      ],
      [
        "jsem",
        -8.605694724743655
      ],
      [
        "ĠvelkÃ½",
        -8.60577638361974
      ],
      [
        "ĠdÄĽti",
        -8.607119742909322
      ],
      [
        "ĠbuÄı",
        -8.610636068501423
      ],
      [
        "ProÄį",
        -8.6125186859653
      ],
      [
        "Ã©ho",
        -8.61541150823925
      ],
      [
        "cky",
        -8.616130442228101
      ],
      [
        "ĠlÃ¡sko",
        -8.61848918692175
      ],
      [
        "Ġvzduch",
        -8.62148938485169
      ],
      [
        "Ġneb",
        -8.625445352725219
      ],
      [
        "ĠnovÃ©",
        -8.62664830635524
      ],
      [
        "Od",
        -8.627490387414031
      ],
      [
        "ÃŃch",
        -8.629679874767282
      ],
      [
        "pÅĻed",
        -8.63097236176227
      ],
      [
        "ĠsvÄĽtÄĽ",
        -8.634683348365465
      ],
      [
        "ĠtÄĽl",
        -8.634863892304985
      ],
      [
        "Pro",
        -8.640558837061908
      ],
      [
        "ĠletÃŃ",
        -8.642569091444026
      ],
      [
        "Ġvlasti",
        -8.643760813514353
      ],
      [
        "ĠdÃ¡lk",
        -8.64548126196766
      ],
      [
        "ĠcizÃŃ",
        -8.648853122850596
      ],
      [
        "ĠdÃ¡vno",
        -8.652695417150476
      ],
      [
        "Ġsvoje",
        -8.654577227874855
      ],
      [
        "ĠtvÃ¡",
        -8.657656955568278
      ],
      [
        "pÅĻi",
        -8.660366496050585
      ],
      [
        "JiÅ¾",
        -8.666062426791827
      ],
      [
        "vÅ¾dy",
        -8.666592203288651
      ],
      [
        "Ġnimi",
        -8.669509033512592
      ],
      [
        "ĠmÃŃt",
        -8.669663847071295
      ],
      [
        "ĠhvÄĽzdy",
        -8.67170930488393
      ],
      [
        "teÄı",
        -8.671915080809244
      ],
      [
        "Jako",
        -8.673689041296416
      ],
      [
        "ĠzlatÃ©",
        -8.675074445114793
      ],
      [
        "ĠchvÃŃle",
        -8.680660357431078
      ],
      [
        "ĠÃ³",
        -8.68304296030385
      ],
      [
        "lÃ¡sku",
        -8.685095002010438
      ],
      [
        "ĠÅ¾al",
        -8.687927558301936
      ],
      [
        "ĠrÃ¡n",
        -8.690068949201427
      ],
      [
        "ĠvidÄĽl",
        -8.692109674189666
      ],
      [
        "Ġlidstv",
        -8.693205575118474
      ],
      [
        "ĠstÃ¡l",
        -8.695473179008712
      ],
      [
        "uÅ¾",
        -8.696154708341432
      ],
      [
        "pouze",
        -8.697017742450376
      ],
      [
        "Ġtvoje",
        -8.697785314179526
      ],
      [
        "Ġdlouho",
        -8.700916689445789
      ],
      [
        "ĠjuÅ¾",
        -8.701638440280622
      ],
      [
        "Äįi",
        -8.703744491361588
      ],
      [
        "vÃ¡",
        -8.704246639805522
      ],
      [
        "Ġticho",
        -8.70872709775571
      ],
      [
        ",âĢľ",
        -8.712803886263131
      ],
      [
        "Hle",
        -8.713165296017161
      ],
      [
        "ĠÄįelo",
        -8.713903468122794
      ],
      [
        "Ġklid",
        -8.713972555696754
      ],
      [
        "ĠsvÃŃtÃŃ",
        -8.71422099701556
      ],
      [
        "Ġona",
        -8.715079348119275
      ],
      [
        "Ġh",
        -8.721241335354744
      ],
      [
        "Ġles",
        -8.722814913266344
      ],
      [
        "Ġplamen",
        -8.723037446255706
      ],
      [
        "ĠvlastnÃŃ",
        -8.729240823748006
      ],
      [
        "AÅ¾",
        -8.732469729447367
      ],
      [
        "ĠptÃ¡k",
        -8.735510083885861
      ],
      [
        "ĠÅ¾ÃŃt",
        -8.736750943847477
      ],
      [
        "ĠbÃ½ti",
        -8.738744710332025
      ],
      [
        "Ġslov",
        -8.741105691855436
      ],
      [
        "(",
        -8.743311226408562
      ],
      [
        "Ġtebou",
        -8.744129162248594
      ],
      [
        "Ġsvoji",
        -8.744407143233408
      ],
      [
        "Ġhrad",
        -8.7445370890421
      ],
      [
        "ĠsvatÃ½",
        -8.745764980348415
      ],
      [
        "Ġdav",
        -8.746097665499148
      ],
      [
        "AÅ¥",
        -8.747321373750811
      ],
      [
        "ĠcelÃ©",
        -8.748678897693905
      ],
      [
        "Ġkraj",
        -8.749972626596596
      ],
      [
        "ĠtÄĽlo",
        -8.752677267573688
      ],
      [
        "ĠsnÅ¯",
        -8.754267013108013
      ],
      [
        "ĠznÃŃ",
        -8.759762695124923
      ],
      [
        "ĠvÅ¡ecky",
        -8.761234915275539
      ],
      [
        "Ġbys",
        -8.762722181124293
      ],
      [
        "svÃ©",
        -8.764046971313324
      ],
      [
        "Å¯v",
        -8.765244674630543
      ],
      [
        "Ġzvuk",
        -8.769409068588383
      ],
      [
        "Ġruka",
        -8.77169219498229
      ],
      [
        "Ġlist",
        -8.773558139861409
      ],
      [
        "ĠnÄĽ",
        -8.77394646517761
      ],
      [
        "ĠpanÃŃ",
        -8.77629488304071
      ],
      [
        "ĠboÅ¾ÃŃ",
        -8.780743938290511
      ],
      [
        "ĠdobÅĻe",
        -8.784005048216052
      ],
      [
        "ĠnÄĽho",
        -8.78452184792827
      ],
      [
        "ĠpÃŃsnÄĽ",
        -8.785967849627745
      ],
      [
        "ĠÅ¾ena",
        -8.791395511492047
      ],
      [
        "ĠpÃŃsnÃŃ",
        -8.79470626808451
      ],
      [
        "Ġtady",
        -8.795114730913143
      ],
      [
        "ĠnÃ¡mi",
        -8.79665213126154
      ],
      [
        "MÃ¡",
        -8.79709082311754
      ],
      [
        "ĠklÃŃn",
        -8.80018678924885
      ],
      [
        "Ve",
        -8.800622061877254
      ],
      [
        "ĠsvÄĽtlo",
        -8.800838570336927
      ],
      [
        "bou",
        -8.801442713214808
      ],
      [
        "VÅ¡e",
        -8.803597882466482
      ],
      [
        "byl",
        -8.804986875019083
      ],
      [
        "Ġmoc",
        -8.807624718838941
      ],
      [
        "Ġmatk",
        -8.807849678164056
      ],
      [
        "Ġsotva",
        -8.810052144014895
      ],
      [
        "lo",
        -8.812216535482294
      ],
      [
        "Nad",
        -8.814803158820654
      ],
      [
        "âĢĻ,",
        -8.815803482482004
      ],
      [
        "ĠdÃ¡li",
        -8.815854875511935
      ],
      [
        "ĠsvojÃŃ",
        -8.81693732058804
      ],
      [
        "Ġkrve",
        -8.817404153539796
      ],
      [
        "ĠposlednÃŃ",
        -8.817441249408462
      ],
      [
        "ĠtÅĻeba",
        -8.818497685171554
      ],
      [
        "ĠÄįi",
        -8.82209678853888
      ],
      [
        "ĠsvatÃ©",
        -8.830528952696401
      ],
      [
        "bez",
        -8.83064674055269
      ],
      [
        "no",
        -8.830878297107247
      ],
      [
        "Ġsmrt",
        -8.836490624588395
      ],
      [
        "Ġjemu",
        -8.837651997286574
      ],
      [
        "ba",
        -8.83787705614556
      ],
      [
        "ĠÅ¡el",
        -8.839410754271283
      ],
      [
        "vÅ¾dyÅ¥",
        -8.840912335351254
      ],
      [
        "ĠzdÃ¡",
        -8.841082072513222
      ],
      [
        "ĠmÃ©m",
        -8.845306249266965
      ],
      [
        "ĠmÅ¯Å¾e",
        -8.847648229376409
      ],
      [
        "ĠmilÃ½",
        -8.847963438954897
      ],
      [
        "ĠpadÃ¡",
        -8.849633182705832
      ],
      [
        "Ġslzy",
        -8.849653699525483
      ],
      [
        "ĠvolÃ¡",
        -8.850030352723826
      ],
      [
        "tvou",
        -8.852543906000955
      ],
      [
        "LeÄį",
        -8.852788456649073
      ],
      [
        "ĠvelkÃ©",
        -8.853850611765708
      ],
      [
        "Ġtedy",
        -8.854099910733819
      ],
      [
        "ĠjinÃ½",
        -8.856121262286075
      ],
      [
        "ĠmlÃ¡dÃŃ",
        -8.856556656774622
      ],
      [
        "Ġsem",
        -8.85761728246294
      ],
      [
        "ĠdÄĽt",
        -8.859060108206457
      ],
      [
        "Ġjedno",
        -8.859697052526071
      ],
      [
        "snad",
        -8.860298160680262
      ],
      [
        "ĠjmÃ©n",
        -8.860912967867423
      ],
      [
        "ĠstarÃ©",
        -8.86195771208889
      ],
      [
        "ĠmuÅ¾",
        -8.862219453281586
      ],
      [
        "ĠÅ¾Ã¡r",
        -8.863470243247757
      ],
      [
        "ĠskÃ¡l",
        -8.865685935995927
      ],
      [
        "Ġzlat",
        -8.866558596885994
      ],
      [
        "ĠplÃ¡Äį",
        -8.8670234957616
      ],
      [
        "Ġradost",
        -8.867181997699442
      ],
      [
        "ĠÅ¾ivota",
        -8.869613445702498
      ],
      [
        "ĠnÄĽmÅ¾",
        -8.873907677536378
      ],
      [
        "ĠÅĻad",
        -8.883498459375014
      ],
      [
        "ĠvÃŃtr",
        -8.887286173696522
      ],
      [
        "Ġlidu",
        -8.892015801729706
      ],
      [
        "ĠproÄį",
        -8.8929517917353
      ],
      [
        "Ġret",
        -8.89384305753735
      ],
      [
        "ĠzpÃŃvÃ¡",
        -8.894639016950835
      ],
      [
        "Ġbol",
        -8.895747595435052
      ],
      [
        "ovi",
        -8.895990261138346
      ],
      [
        "Äįek",
        -8.90025419710439
      ],
      [
        "ĠnocÃŃ",
        -8.90043059765173
      ],
      [
        "ĠdomÅ¯",
        -8.900744402039631
      ],
      [
        "Ġproud",
        -8.902460457254518
      ],
      [
        "ĠÄįasto",
        -8.904805574968865
      ],
      [
        "ĠvÄĽtr",
        -8.905018631482127
      ],
      [
        "Ġmlh",
        -8.905170510175004
      ],
      [
        "kol",
        -8.90629214750624
      ],
      [
        "Ġprach",
        -8.907400520445936
      ],
      [
        "ĠkterÃ¡",
        -8.908493395930568
      ],
      [
        "ĠvÄĽc",
        -8.908971048829047
      ],
      [
        "prÃ¡ci",
        -8.90900024127624
      ],
      [
        "ĠzÃ¡ÅĻÃŃ",
        -8.909352232177673
      ],
      [
        "ĠÄįernÃ½",
        -8.910126771710782
      ],
      [
        "My",
        -8.910272592848502
      ],
      [
        "ĠsvÄĽtla",
        -8.911280710800167
      ],
      [
        "Ġslz",
        -8.912772592098943
      ],
      [
        "ĠrÃ¡na",
        -8.91313778264436
      ],
      [
        "ec",
        -8.913233876666649
      ],
      [
        "Zde",
        -8.917034813257509
      ],
      [
        "Ġcestu",
        -8.918326714803168
      ],
      [
        "ĠdÄĽl",
        -8.91846774031892
      ],
      [
        "sud",
        -8.918986023401748
      ],
      [
        "Ta",
        -8.919334967659418
      ],
      [
        "ĠprÃ½",
        -8.919979847846365
      ],
      [
        "Ġchci",
        -8.92071493999577
      ],
      [
        "ĠhledÃŃ",
        -8.92084062405254
      ],
      [
        "Snad",
        -8.924269702537856
      ],
      [
        "Ġvzal",
        -8.924391176203832
      ],
      [
        "zas",
        -8.925527790773714
      ],
      [
        "ĠkvÄĽtÅ¯",
        -8.926448522332135
      ],
      [
        "tÄĽ",
        -8.927373907234372
      ],
      [
        "ĠlÃ¡s",
        -8.928214632602804
      ],
      [
        "Ġboj",
        -8.92893426696589
      ],
      [
        "Ġnese",
        -8.92902766379741
      ],
      [
        "Å¡li",
        -8.92946783746021
      ],
      [
        "ĠvÅ¡eho",
        -8.929941206078865
      ],
      [
        "Ġhoch",
        -8.938707665260699
      ],
      [
        "ĠkaÅ¾dÃ©",
        -8.939009362237595
      ],
      [
        "ĠnaÅ¡ÃŃ",
        -8.939309078200885
      ],
      [
        "nÃ½m",
        -8.939595363858976
      ],
      [
        "Ġcit",
        -8.941233408140949
      ],
      [
        "ĠsladkÃ½",
        -8.943237718298786
      ],
      [
        "ĠopÄĽt",
        -8.944290836147516
      ],
      [
        "ĠÄįele",
        -8.945579307528064
      ],
      [
        "ĠandÄĽl",
        -8.947497945316714
      ],
      [
        "Ġspolu",
        -8.948085560512943
      ],
      [
        "uje",
        -8.952219614774236
      ],
      [
        "Ġzvon",
        -8.95307673488276
      ],
      [
        "ruÄı",
        -8.955792974950452
      ],
      [
        "il",
        -8.963057609412036
      ],
      [
        "Ġproti",
        -8.967851082666815
      ],
      [
        "ĠmÃ¡lo",
        -8.970129598381522
      ],
      [
        "ĠmÄĽsÃŃc",
        -8.970811910693795
      ],
      [
        "NuÅ¾",
        -8.973393478324478
      ],
      [
        "zde",
        -8.97352418078722
      ],
      [
        "Ġtroch",
        -8.974533430019086
      ],
      [
        "ĠkrÃ¡sy",
        -8.974644824755174
      ],
      [
        "Byl",
        -8.975628254049592
      ],
      [
        "Ġrod",
        -8.975718679779835
      ],
      [
        "ĠprÃ¡ce",
        -8.978108473896972
      ],
      [
        "ĠnÄĽmu",
        -8.978687666230822
      ],
      [
        "ĠmladÃ½",
        -8.98006141872914
      ],
      [
        "Ġmnoho",
        -8.980776806578234
      ],
      [
        "ĠvÄĽÄįnÄĽ",
        -8.982053713878619
      ],
      [
        "ĠpÅĻijde",
        -8.982138888986366
      ],
      [
        "Ġobraz",
        -8.986081031049018
      ],
      [
        "ĠlidÃŃ",
        -8.987552760154719
      ],
      [
        "ĠÅ¡at",
        -8.987758138631595
      ],
      [
        "ĠzÅĻel",
        -8.988273346456188
      ],
      [
        "Se",
        -8.988586778342517
      ],
      [
        "ĠjistÄĽ",
        -8.988737663650895
      ],
      [
        "Ġtouhy",
        -8.989545560244071
      ],
      [
        "Ġbok",
        -8.991995296628392
      ],
      [
        "ĠprÃ¡vÄĽ",
        -8.99337494401217
      ],
      [
        "ĠbouÅĻe",
        -8.995752140163821
      ],
      [
        "ĠstÃŃny",
        -8.996744235857356
      ],
      [
        "ĠhoÅĻÃŃ",
        -8.99736970717213
      ],
      [
        "ĠslÃ¡vy",
        -8.999050811773076
      ],
      [
        "Ġnes",
        -8.999336067633612
      ],
      [
        "ĠsrdcÃŃ",
        -8.999751056701436
      ],
      [
        "Ġkdes",
        -9.000464582024655
      ],
      [
        "ĠdÃ¡t",
        -9.003038300902876
      ],
      [
        "ĠsnÄĽnÃŃ",
        -9.003208476798601
      ],
      [
        "vÄĽru",
        -9.00754609039793
      ],
      [
        "Ġprsou",
        -9.008880234352965
      ],
      [
        "aÄį",
        -9.009941128703975
      ],
      [
        "Ġotec",
        -9.010110747072947
      ],
      [
        "ĠvÃŃm",
        -9.012050774339615
      ],
      [
        "Ġsama",
        -9.012194458079838
      ],
      [
        "Ġhlubin",
        -9.013638091998804
      ],
      [
        "ĠvÃŃ",
        -9.013937942071129
      ],
      [
        "kam",
        -9.014512258951115
      ],
      [
        "ĠtvÃ¡ÅĻÃŃ",
        -9.016219083955193
      ],
      [
        "Ġhlava",
        -9.016458940719968
      ],
      [
        "ĠnÄĽkdy",
        -9.019024898164831
      ],
      [
        "CoÅ¾",
        -9.019680548403148
      ],
      [
        "ĠnemÃ¡",
        -9.020219962161505
      ],
      [
        "Ġboji",
        -9.020839838021413
      ],
      [
        "Ġslovo",
        -9.023222867836157
      ],
      [
        "Ġjas",
        -9.024071714985094
      ],
      [
        "ĠdolÅ¯",
        -9.02561286092845
      ],
      [
        "Ġaby",
        -9.025732588774854
      ],
      [
        "Ġvzdech",
        -9.026082708973368
      ],
      [
        "Ġtolik",
        -9.026220403467597
      ],
      [
        "ĠnichÅ¾",
        -9.027578160462518
      ],
      [
        "ĠÃºst",
        -9.03012398930057
      ],
      [
        "Ã©m",
        -9.03398407595946
      ],
      [
        "ĠdÃ¡",
        -9.034021781368759
      ],
      [
        "Ġzvoln",
        -9.034117237344416
      ],
      [
        "Ġnikd",
        -9.035576513008007
      ],
      [
        "Ġnebo",
        -9.036318656610225
      ],
      [
        "ĠvÅ¡ude",
        -9.037012164925178
      ],
      [
        "Ġpane",
        -9.037035207678212
      ],
      [
        "Ġbudou",
        -9.038839540925345
      ],
      [
        "svou",
        -9.039548086898357
      ],
      [
        "Ba",
        -9.040101438386401
      ],
      [
        "ĠtvÃ¡ÅĻe",
        -9.04044492766107
      ],
      [
        "ĠzpÄĽt",
        -9.041249174781953
      ],
      [
        "ĠtrÃ¡v",
        -9.042366038817708
      ],
      [
        "Ġpole",
        -9.042852885478535
      ],
      [
        "ĠpÅĻiÅ¡el",
        -9.042994704956497
      ],
      [
        "ĠvÅ¯nÄĽ",
        -9.04607424513896
      ],
      [
        "ĠvaÅ¡e",
        -9.046349061434462
      ],
      [
        "ĠÅĻÃŃc",
        -9.048474691766621
      ],
      [
        "ĠmeÄį",
        -9.050318520740216
      ],
      [
        "ĠvÄĽky",
        -9.053671469458163
      ],
      [
        "ĠmarnÄĽ",
        -9.054236349546427
      ],
      [
        "Ġdiv",
        -9.054618619150538
      ],
      [
        "Ġbudu",
        -9.057871229395577
      ],
      [
        "Ġproto",
        -9.057991865748527
      ],
      [
        "ĠplnÃ½",
        -9.058666576008616
      ],
      [
        "Ġmrak",
        -9.061096476961112
      ],
      [
        "Ġbolest",
        -9.061897342888027
      ],
      [
        "ĠdÅĻÃŃv",
        -9.067067243616986
      ],
      [
        "ĠmÃŃr",
        -9.06752161875987
      ],
      [
        "ĠvÃ¡Å¡",
        -9.069361806522128
      ],
      [
        "Pod",
        -9.070043540786115
      ],
      [
        "ĠvÅ¡echn",
        -9.071395140228924
      ],
      [
        "ĠtvÃ¡ÅĻi",
        -9.076067578215836
      ],
      [
        "Neb",
        -9.078757755019442
      ],
      [
        "Å¡ichn",
        -9.078817979127681
      ],
      [
        "ĠmojÃŃ",
        -9.079808514041872
      ],
      [
        "ny",
        -9.081538992702747
      ],
      [
        "krvÃŃ",
        -9.081770656289976
      ],
      [
        "ĠkrÃ¡snÃ©",
        -9.084591130978811
      ],
      [
        "Ġdost",
        -9.085139343742402
      ],
      [
        "Ġpotom",
        -9.08629163979379
      ],
      [
        "ĠÄįernÃ©",
        -9.087583861210039
      ],
      [
        "ĠvÅ¡echno",
        -9.088470543031425
      ],
      [
        "aby",
        -9.089622677174738
      ],
      [
        "Ġsvit",
        -9.089674365986953
      ],
      [
        "ĠmÃ½m",
        -9.090336816514125
      ],
      [
        "ost",
        -9.090628402614009
      ],
      [
        "PÅĻi",
        -9.09067818421686
      ],
      [
        "ĠzÃ¡ÅĻ",
        -9.09234816471358
      ],
      [
        "ĠÅ¾il",
        -9.093179433507888
      ],
      [
        "snÃŃh",
        -9.093427179401765
      ],
      [
        "Ġzlato",
        -9.093568484108436
      ],
      [
        "ĠvÃ½Å¡e",
        -9.093778744566006
      ],
      [
        "Ġpln",
        -9.094120291542282
      ],
      [
        "ĠÄįekÃ¡",
        -9.094770324578818
      ],
      [
        "ĠvidÃŃm",
        -9.097341890628929
      ],
      [
        "ÅĻe",
        -9.10029857841371
      ],
      [
        "Ġach",
        -9.102194920330508
      ],
      [
        "Ġcos",
        -9.106598436087612
      ],
      [
        "Ġznova",
        -9.107191292641314
      ],
      [
        "Ġsny",
        -9.108387980022503
      ],
      [
        "NeÅ¾",
        -9.108664658959938
      ],
      [
        "ĠmÃŃsto",
        -9.108703749862645
      ],
      [
        "ĠbÅ¯h",
        -9.10916751864013
      ],
      [
        "Ġdum",
        -9.109172801946832
      ],
      [
        "ĠsladkÃ©",
        -9.109282030191434
      ],
      [
        "zda",
        -9.110178890638979
      ],
      [
        "Ġzjev",
        -9.110230449242096
      ],
      [
        "ĠjinÃ©",
        -9.110683372219558
      ],
      [
        "hned",
        -9.111375949060983
      ],
      [
        "kou",
        -9.111562412171487
      ],
      [
        "b",
        -9.118404537920288
      ],
      [
        "Ġskal",
        -9.119590535756704
      ],
      [
        "Ġlesy",
        -9.119924264681924
      ],
      [
        "Ġoku",
        -9.12109216190427
      ],
      [
        "Ġmatka",
        -9.122365644374156
      ],
      [
        "osÅ¥",
        -9.122877008302789
      ],
      [
        "ĠvÃŃn",
        -9.12329054761258
      ],
      [
        "Ġdva",
        -9.124541778602104
      ],
      [
        "ĠtvÃ©m",
        -9.125748539746343
      ],
      [
        "ĠlÃŃce",
        -9.126181377692902
      ],
      [
        "Dnes",
        -9.127386365897891
      ],
      [
        "ĠmoÅĻi",
        -9.12758024192149
      ],
      [
        "ĠkrÃ¡snÃ½",
        -9.128263137407933
      ],
      [
        "jdu",
        -9.12894207690365
      ],
      [
        "tÃ©",
        -9.130406394393852
      ],
      [
        "poÅĪ",
        -9.130533981045954
      ],
      [
        "Ġslunci",
        -9.131507535077581
      ],
      [
        "val",
        -9.13330518129441
      ],
      [
        "proÄį",
        -9.137471079022578
      ],
      [
        "ĠhnÄĽv",
        -9.137695343501028
      ],
      [
        "ĠvzhÅ¯r",
        -9.139581425776779
      ],
      [
        "hle",
        -9.142922918869822
      ],
      [
        "dnes",
        -9.143080536291276
      ],
      [
        "mnÄĽ",
        -9.14713154144148
      ],
      [
        "Ġjaro",
        -9.148566934406606
      ],
      [
        "Ġhle",
        -9.149527705832764
      ],
      [
        "Ġhrobu",
        -9.1509094422842
      ],
      [
        "ĠmÃ¡Å¡",
        -9.151058976401664
      ],
      [
        "roz",
        -9.154127020422909
      ],
      [
        "Ġjdou",
        -9.15456808430256
      ],
      [
        "Ġokem",
        -9.155814760864466
      ],
      [
        "bych",
        -9.15700751415383
      ],
      [
        "ĠdÃŃ",
        -9.157261622455247
      ],
      [
        "Ġknih",
        -9.157699758037197
      ],
      [
        "ĠkÅĻÃŃdla",
        -9.16223721068575
      ],
      [
        "ĠÅ¾ije",
        -9.162754048968996
      ],
      [
        "jsou",
        -9.162796512200492
      ],
      [
        "ĠkvÃŃtÃŃ",
        -9.1637920374396
      ],
      [
        "Ġokn",
        -9.163839889599267
      ],
      [
        "nÃ¡m",
        -9.163918383504924
      ],
      [
        "ĠmÄĽsta",
        -9.164844802805645
      ],
      [
        "ĠmÃŃst",
        -9.164904289184953
      ],
      [
        "Ġoh",
        -9.16623543855205
      ],
      [
        "Ġmoji",
        -9.166240009277516
      ],
      [
        "oval",
        -9.166275011823306
      ],
      [
        "ÅĪ",
        -9.166327064865595
      ],
      [
        "ĠdÃŃvÃ¡",
        -9.169820782226374
      ],
      [
        "Ġsoud",
        -9.171615694320433
      ],
      [
        "ĠdlouhÃ½",
        -9.171634652069464
      ],
      [
        "ej",
        -9.173414689700646
      ],
      [
        "Ġjara",
        -9.173428120184006
      ],
      [
        "ĠmalÃ½",
        -9.174533140945464
      ],
      [
        "ĠtichÃ½",
        -9.175263255413583
      ],
      [
        "skÃ©",
        -9.177724122734078
      ],
      [
        "!...",
        -9.177921019167012
      ],
      [
        "ĠstÄĽn",
        -9.179104229411488
      ],
      [
        "ĠstromÅ¯",
        -9.181070449501407
      ],
      [
        "ĠbÃŃd",
        -9.183441576585267
      ],
      [
        "Ġducha",
        -9.183545571641583
      ],
      [
        "ĠcelÃ¡",
        -9.184959316038235
      ],
      [
        "ĠrÃ¡z",
        -9.188847686399262
      ],
      [
        "ĠjarnÃŃ",
        -9.189055366891619
      ],
      [
        "ĠzÃ¡ÅĻe",
        -9.19100266989377
      ],
      [
        "Ġobzor",
        -9.192059473259079
      ],
      [
        "ĠhÅĻÃŃch",
        -9.192355437827596
      ],
      [
        "Ġrychle",
        -9.19728846672265
      ],
      [
        "ĠvÄĽÄįnÃ©",
        -9.197792425066243
      ],
      [
        "ĠplÃ¡l",
        -9.198371584867036
      ],
      [
        "ĠlidskÃ©",
        -9.204582923665495
      ],
      [
        "ĠpÃ¡r",
        -9.206876189157441
      ],
      [
        "ĠdobrÃ½",
        -9.206990879159406
      ],
      [
        "Ġples",
        -9.207403340870412
      ],
      [
        "Ã¡men",
        -9.208250476944254
      ],
      [
        "ĠhlavÄĽ",
        -9.20924716711113
      ],
      [
        "Ġtouha",
        -9.210622116549631
      ],
      [
        "ĠhoÅĻe",
        -9.211488573356082
      ],
      [
        "ĠvÄĽÄįnÃ½",
        -9.211652902425673
      ],
      [
        "ĠÄĮech",
        -9.213786320544784
      ],
      [
        "konec",
        -9.215850916517494
      ],
      [
        "ĠvidÃŃ",
        -9.216037445058102
      ],
      [
        "ĠBoÅ¾e",
        -9.21614234239096
      ],
      [
        "ĠÄįÃŃm",
        -9.21736397386655
      ],
      [
        "Ġtou",
        -9.21842715460359
      ],
      [
        "ĠmilÃ¡",
        -9.219290523256888
      ],
      [
        "Ġdole",
        -9.220834727632106
      ],
      [
        "ĠlidskÃ½",
        -9.221056960888433
      ],
      [
        "Ġoblak",
        -9.221289501277635
      ],
      [
        "Ġpomoc",
        -9.223456076673013
      ],
      [
        "ĠjÃŃt",
        -9.224606551587854
      ],
      [
        "Jsem",
        -9.228198240613018
      ],
      [
        "rty",
        -9.228290235109178
      ],
      [
        "ĠnÃ¡ruÄį",
        -9.228437543097526
      ],
      [
        "pÅĻes",
        -9.228954740705337
      ],
      [
        "Ġnohou",
        -9.230808001243407
      ],
      [
        "ĠÄįela",
        -9.231034934624834
      ],
      [
        "ĠÅĻekl",
        -9.233069732438082
      ],
      [
        "ĠvÃ½Å¡",
        -9.236990745240082
      ],
      [
        "ĠrÅ¯Å¾ÃŃ",
        -9.237496668596641
      ],
      [
        "ĠznÄĽl",
        -9.23876780907905
      ],
      [
        "ĠblÃŃÅ¾",
        -9.24122923230379
      ],
      [
        "ĠsvÃ©mu",
        -9.246317925970555
      ],
      [
        "Ġlese",
        -9.246882299962925
      ],
      [
        "Ġbyly",
        -9.248584462557684
      ],
      [
        "ly",
        -9.249220013674837
      ],
      [
        "ĠlistÃŃ",
        -9.250459429173986
      ],
      [
        "ĠbÃŃlÃ¡",
        -9.25098723386894
      ],
      [
        "ĠsvÄĽÅ¾ÃŃ",
        -9.252401745930591
      ],
      [
        "VÅ¾dyÅ¥",
        -9.252487090731075
      ],
      [
        "Ġruky",
        -9.253203770421884
      ],
      [
        "ĠbouÅĻÃŃ",
        -9.254134291140453
      ],
      [
        "ÃŃm",
        -9.256978043123123
      ],
      [
        "Ġkraje",
        -9.259427450435982
      ],
      [
        ")",
        -9.259832871203034
      ],
      [
        "Ġhlad",
        -9.262061452734425
      ],
      [
        "ĠstÃŃnu",
        -9.264983837517374
      ],
      [
        "Ġstrach",
        -9.266848141405621
      ],
      [
        "Ġhodin",
        -9.268511152957977
      ],
      [
        "Ġnelze",
        -9.268947606885305
      ],
      [
        "'",
        -9.269722851228313
      ],
      [
        "BuÄı",
        -9.269936933145534
      ],
      [
        "ĠstarÃ¡",
        -9.270435047467071
      ],
      [
        "ĠsmÃ¡l",
        -9.271311314348193
      ],
      [
        "Ġhudb",
        -9.271553883954875
      ],
      [
        "ĠtisÃŃc",
        -9.274124573056302
      ],
      [
        "Ġpoli",
        -9.276464783384688
      ],
      [
        "ĠdÃ¡vÃ¡",
        -9.278983284320617
      ],
      [
        "ĠmluvÃŃ",
        -9.279209092980867
      ],
      [
        "ĠzÃ¡ÅĻi",
        -9.280942074476553
      ],
      [
        "ĠdÃŃl",
        -9.28114648698229
      ],
      [
        "ĠklidnÄĽ",
        -9.283989210910995
      ],
      [
        "Äįe",
        -9.284883649603083
      ],
      [
        "ĠkÅĻÃŃÅ¾",
        -9.28742058105675
      ],
      [
        "ĠlesÅ¯",
        -9.290363904183224
      ],
      [
        "ĠnÄĽco",
        -9.290411129801138
      ],
      [
        "Ġcelo",
        -9.290542576441696
      ],
      [
        "ĠzÃ¡pad",
        -9.291486664186262
      ],
      [
        "ĠdrahÃ¡",
        -9.292480235172402
      ],
      [
        "MÅ¯j",
        -9.293704697754785
      ],
      [
        "PÅĻed",
        -9.294272771201934
      ],
      [
        "mÃ©",
        -9.294735425838828
      ],
      [
        "Ġhost",
        -9.29482362958893
      ],
      [
        "Ġven",
        -9.295592875235855
      ],
      [
        "ĠdÃ½m",
        -9.296568302969707
      ],
      [
        "ĠÅ¡um",
        -9.29657176052893
      ],
      [
        "Ġmoh",
        -9.298883086615426
      ],
      [
        "Ġbyli",
        -9.30178655614063
      ],
      [
        "Ġdoby",
        -9.30191660827064
      ],
      [
        "nul",
        -9.30210175939818
      ],
      [
        "ĠÃºsta",
        -9.304420976730999
      ],
      [
        "ĠtÃ©to",
        -9.30519317247403
      ],
      [
        "ĠvstÅĻÃŃc",
        -9.305264921719182
      ],
      [
        "jej",
        -9.305371598094494
      ],
      [
        "ĠnadÄĽje",
        -9.305524757222987
      ],
      [
        "ĠdrahÃ½",
        -9.305809353274846
      ],
      [
        "kem",
        -9.308954227359663
      ],
      [
        "ĠdvÄĽ",
        -9.309599851499081
      ],
      [
        "ĠdÃ¡m",
        -9.309685395681406
      ],
      [
        "Ġmech",
        -9.310029603289482
      ],
      [
        "ĠkrÃ¡ÄįÃŃ",
        -9.310079231978097
      ],
      [
        "ĠmladÃ©",
        -9.31123266950647
      ],
      [
        "ĠslyÅ¡el",
        -9.311427181941962
      ],
      [
        "ĠvÄĽkÅ¯",
        -9.311642745520462
      ],
      [
        "kaÅ¾dÃ¡",
        -9.311651059852181
      ],
      [
        "ĠÄįin",
        -9.315496500868193
      ],
      [
        "ĠmÄĽla",
        -9.316472294408836
      ],
      [
        "Ġdoma",
        -9.317268141043924
      ],
      [
        "ĠmnohÃ½",
        -9.317947062743688
      ],
      [
        "ĠPÃ¡n",
        -9.318278310459224
      ],
      [
        "ĠzÅĻÃŃm",
        -9.31828985704762
      ],
      [
        "ÅĻ",
        -9.31850052349617
      ],
      [
        "Ġotce",
        -9.32059475694028
      ],
      [
        "nech",
        -9.320831293311482
      ],
      [
        "dy",
        -9.321229186201558
      ],
      [
        "ĠznÃ¡m",
        -9.321893744296617
      ],
      [
        "ĠnÄĽj",
        -9.323509905399117
      ],
      [
        "BÅ¯h",
        -9.323900735773062
      ],
      [
        "Zda",
        -9.324316578590365
      ],
      [
        "ĠplnÃ©",
        -9.324795119219381
      ],
      [
        "Ġnebyl",
        -9.32521409484623
      ],
      [
        "MnÄĽ",
        -9.32551052952434
      ],
      [
        "ĠtichÃ©",
        -9.3279363229906
      ],
      [
        "skÃ¡",
        -9.328118961790818
      ],
      [
        "Ġvlast",
        -9.328875697648725
      ],
      [
        "kÃ¡",
        -9.331984588473723
      ],
      [
        "ĠmilÃ©",
        -9.333077296797136
      ],
      [
        "ĠpÅĻÃŃliÅ¡",
        -9.333412824134651
      ],
      [
        "TvÅ¯j",
        -9.333554854582818
      ],
      [
        "UÅ¾",
        -9.33362894548086
      ],
      [
        "Ġled",
        -9.333925740528086
      ],
      [
        "ĠvÄĽtÅ¡ÃŃ",
        -9.335106428413841
      ],
      [
        "ĠÅĻeÄį",
        -9.335982424630036
      ],
      [
        "ĠpÅĻÃŃrod",
        -9.33624491887539
      ],
      [
        "Ġkout",
        -9.337716650895949
      ],
      [
        "Ġboje",
        -9.338869485388521
      ],
      [
        "ĠcÃŃtÃŃ",
        -9.341535968293119
      ],
      [
        "Ġhloubi",
        -9.343356954331398
      ],
      [
        "ÄĮi",
        -9.343924135820021
      ],
      [
        "Ġtmy",
        -9.346156174134165
      ],
      [
        "Ġneza",
        -9.349280859122658
      ],
      [
        "ĠBohu",
        -9.3510514696275
      ],
      [
        "Ġsta",
        -9.35230387648063
      ],
      [
        "Ġrok",
        -9.353210691869567
      ],
      [
        "nÃ©ho",
        -9.355899219283929
      ],
      [
        "Aj",
        -9.356915072970473
      ],
      [
        "Ġvichr",
        -9.35803506170233
      ],
      [
        "ÄįÃŃ",
        -9.358429345966764
      ],
      [
        "ĠlÃ©ta",
        -9.360103157261253
      ],
      [
        "Bez",
        -9.360265191031512
      ],
      [
        "Ġplno",
        -9.362498529805952
      ],
      [
        "ĠmÃŃru",
        -9.362983494912884
      ],
      [
        "Ġstop",
        -9.364331868165802
      ],
      [
        "Ġmohl",
        -9.36547025744168
      ],
      [
        "ĠÅ¡tÃŃt",
        -9.366810429320982
      ],
      [
        "ĠchvÄĽje",
        -9.367582208428551
      ],
      [
        "tÃŃm",
        -9.367984962334763
      ],
      [
        "ĠpÅĻÃŃÅ¡tÃŃ",
        -9.368317899874828
      ],
      [
        "Jsou",
        -9.368329215664467
      ],
      [
        "Ġkraji",
        -9.368636868572642
      ],
      [
        "Ġpravil",
        -9.368658480283557
      ],
      [
        "ĠkrÃ¡s",
        -9.369520207483507
      ],
      [
        "Ġnez",
        -9.371806512305003
      ],
      [
        "TobÄĽ",
        -9.371969330012268
      ],
      [
        "Ġluh",
        -9.372126682079992
      ],
      [
        "ĠnevÃŃ",
        -9.372657295787606
      ],
      [
        "Ġprachu",
        -9.373301869689085
      ],
      [
        "ĠhrÃ¡l",
        -9.37339805816551
      ],
      [
        "sÃ¡m",
        -9.373725845133059
      ],
      [
        "ĠdrahÃ©",
        -9.374931928454831
      ],
      [
        "ĠpolÃŃ",
        -9.37600341498526
      ],
      [
        "ĠTi",
        -9.377871858519269
      ],
      [
        "Ġznovu",
        -9.378389304071952
      ],
      [
        "ĠslÃ¡va",
        -9.379658441607916
      ],
      [
        "Ġnoh",
        -9.381462004083662
      ],
      [
        "Ġjedna",
        -9.38289491168683
      ],
      [
        "Ġstrun",
        -9.383533875026323
      ],
      [
        "ĠzÃŃtr",
        -9.383927194466741
      ],
      [
        "ĠhnÃŃzd",
        -9.38420665542332
      ],
      [
        "Ġsvobod",
        -9.384568157066965
      ],
      [
        "ĠdobÄĽ",
        -9.384866085426605
      ],
      [
        "ovat",
        -9.385145509909666
      ],
      [
        "ĠchceÅ¡",
        -9.386232593926351
      ],
      [
        "ĠcÃŃtil",
        -9.387837748528975
      ],
      [
        "ĠsÃŃla",
        -9.390580813379966
      ],
      [
        "ĠBoÅ¾ÃŃ",
        -9.391878297480785
      ],
      [
        "ĠvÄĽÄįnost",
        -9.39359918359333
      ],
      [
        "Ġhled",
        -9.396945828906048
      ],
      [
        "ĠpravÃŃ",
        -9.397135538013869
      ],
      [
        "ĠhrobÄĽ",
        -9.398402180109304
      ],
      [
        "Ġoba",
        -9.3984841827892
      ],
      [
        "al",
        -9.399324974630813
      ],
      [
        "ĠkrÃ¡snÃ¡",
        -9.400841267884564
      ],
      [
        "ĠBoha",
        -9.401262205673891
      ],
      [
        "ĠsedÃŃ",
        -9.402058489856897
      ],
      [
        "ĠtvÃ½m",
        -9.403161029667022
      ],
      [
        "Ġhrom",
        -9.403637507483754
      ],
      [
        "Ġbeze",
        -9.403650234116942
      ],
      [
        "ĠcÃŃtÃŃm",
        -9.403863122381159
      ],
      [
        "ĠjejÅ¾",
        -9.403973363861969
      ],
      [
        "ĠneÅ¾li",
        -9.403997003892272
      ],
      [
        "ĠkrÃ¡se",
        -9.405837659245968
      ],
      [
        "jest",
        -9.406243080943348
      ],
      [
        "ĠrÃ¡no",
        -9.406500232369073
      ],
      [
        "By",
        -9.407438970054654
      ],
      [
        "ToÅ¥",
        -9.407743320018492
      ],
      [
        "ujÃŃ",
        -9.407930612570915
      ],
      [
        "ĠbÃ¡snÃŃk",
        -9.407941519136353
      ],
      [
        "ĠdlouhÃ©",
        -9.409101898890073
      ],
      [
        "ĠtÄĽÅ¾kÃ½",
        -9.409232808953472
      ],
      [
        "Ġvede",
        -9.410823475076313
      ],
      [
        "Ġvedle",
        -9.4140630865477
      ],
      [
        "ĠÅĪader",
        -9.41504507514294
      ],
      [
        "ĠrtÅ¯",
        -9.41571066089745
      ],
      [
        "Kam",
        -9.415908141189462
      ],
      [
        "ĠbudeÅ¡",
        -9.417337334102601
      ],
      [
        "ĠmÃ¡me",
        -9.419174185852928
      ],
      [
        "ĠrÃ¡j",
        -9.419401920401876
      ],
      [
        "ĠvÄĽk",
        -9.419761569417318
      ],
      [
        "Ġroste",
        -9.42052455675747
      ],
      [
        "ĠkrÃ¡le",
        -9.420956549757749
      ],
      [
        "ÅĻi",
        -9.421630551944709
      ],
      [
        "Ġctnost",
        -9.422927839044686
      ],
      [
        "Ġkdyby",
        -9.423091729508705
      ],
      [
        "ĠplÃ¡Äįe",
        -9.423217993851143
      ],
      [
        "ĠvÃŃru",
        -9.423531165941359
      ],
      [
        "enku",
        -9.424756007847066
      ],
      [
        "Ġmuk",
        -9.427534561445245
      ],
      [
        "Ġteprv",
        -9.42770814381199
      ],
      [
        "Ġlesk",
        -9.428383822230401
      ],
      [
        "Ġdosti",
        -9.428663426232038
      ],
      [
        "Ġasi",
        -9.428810170604166
      ],
      [
        "âĢŀâĢŀ",
        -9.429979496588505
      ],
      [
        "ĠmuÅ¾e",
        -9.430248852742226
      ],
      [
        "Roz",
        -9.43074566013486
      ],
      [
        "Ġdar",
        -9.432099764263544
      ],
      [
        "ĠTy",
        -9.432415258384374
      ],
      [
        "Ġmysli",
        -9.432725779575941
      ],
      [
        "ĠÄįeskÃ½",
        -9.433725714381929
      ],
      [
        "Ġstesk",
        -9.43410121102891
      ],
      [
        "nÃŃm",
        -9.434196159880068
      ],
      [
        "ĠbÅĻehu",
        -9.436590401043524
      ],
      [
        "ĠdruhÃ½",
        -9.437734736279838
      ],
      [
        "Ġtouho",
        -9.438314973669105
      ],
      [
        "ĠchvÄĽl",
        -9.439651234242426
      ],
      [
        "ĠdÃŃvk",
        -9.440402497326131
      ],
      [
        "ĠmuÅ¾i",
        -9.44137007947291
      ],
      [
        "Ġnej",
        -9.44150184645444
      ],
      [
        "ĠÅĻeÄįi",
        -9.441693103750893
      ],
      [
        "ĠmajÃŃ",
        -9.44170270082302
      ],
      [
        "dny",
        -9.442245175464688
      ],
      [
        "ĠmalÃ©",
        -9.444502016923856
      ],
      [
        "Ġlesa",
        -9.446118563291725
      ],
      [
        "Ġzda",
        -9.446520828169064
      ],
      [
        "ĠhledÃ¡",
        -9.451518525655418
      ],
      [
        "Ġradosti",
        -9.452126025070555
      ],
      [
        "ĠvÅ¯le",
        -9.452277197689947
      ],
      [
        "Ġsrdcem",
        -9.454496011282593
      ],
      [
        "ĠdnÅ¯",
        -9.454761797900364
      ],
      [
        "ÄįÃŃm",
        -9.455096799851315
      ],
      [
        "ĠkonÄĽ",
        -9.457450845993232
      ],
      [
        "Ġob",
        -9.463513172709963
      ],
      [
        "ĠÅĻÃŃÅ¡",
        -9.463730109754808
      ],
      [
        "ĠnevÃŃm",
        -9.464836519303757
      ],
      [
        "ĠtenkrÃ¡t",
        -9.465095929044292
      ],
      [
        "ra",
        -9.466861219420025
      ],
      [
        "svÄĽt",
        -9.467108410616003
      ],
      [
        "ĠkÅĻik",
        -9.468127784707356
      ],
      [
        "Ġsluch",
        -9.469132689166262
      ],
      [
        "ĠhvÄĽzda",
        -9.469352077152227
      ],
      [
        "ĠaÄį",
        -9.470396816241268
      ],
      [
        "Ġchlad",
        -9.470534599820905
      ],
      [
        "ĠTvÃ©",
        -9.471041453948775
      ],
      [
        "Jest",
        -9.474723044525877
      ],
      [
        "Ġpout",
        -9.474735877163681
      ],
      [
        "Ġzahrad",
        -9.477572419805774
      ],
      [
        "ĠmyslÃŃ",
        -9.477928424345142
      ],
      [
        "Ġnevy",
        -9.477933770823043
      ],
      [
        "Ġjitr",
        -9.480445726598662
      ],
      [
        "ĠkrÃ¡li",
        -9.482974317252044
      ],
      [
        "Ġplod",
        -9.486373581444456
      ],
      [
        "Ġmysl",
        -9.487027352836435
      ],
      [
        "ĠzpÃŃval",
        -9.489871769066394
      ],
      [
        "Ġokna",
        -9.493050764707773
      ],
      [
        "Ġjar",
        -9.493531095902762
      ],
      [
        "Ġposud",
        -9.493998405581673
      ],
      [
        "ĠzdÃ¡l",
        -9.494428277415174
      ],
      [
        "Ġprst",
        -9.494478747168962
      ],
      [
        "ĠtÄĽle",
        -9.494940392235536
      ],
      [
        "Ġrozum",
        -9.49698435997224
      ],
      [
        "Ġdej",
        -9.497649055298453
      ],
      [
        "Ġbije",
        -9.497852268639623
      ],
      [
        "Ġniv",
        -9.499223421424201
      ],
      [
        "ĠnoÄįnÃŃ",
        -9.499364034191508
      ],
      [
        "Ġjinak",
        -9.50148080685193
      ],
      [
        "Ġblah",
        -9.50179324844601
      ],
      [
        "Ġnaposled",
        -9.503463649741462
      ],
      [
        "Ġrek",
        -9.503812665709994
      ],
      [
        "ĠklonÃŃ",
        -9.504431114899646
      ],
      [
        "¡",
        -9.504530443866901
      ],
      [
        "Ġsladce",
        -9.508383845406007
      ],
      [
        "ĠvÅ¡eck",
        -9.509820176002346
      ],
      [
        "Ġsil",
        -9.510066506642604
      ],
      [
        "ĠjasnÃ©",
        -9.510190789221559
      ],
      [
        "ĠzvonÃŃ",
        -9.513545293451406
      ],
      [
        "âĢĻ.",
        -9.514011774494511
      ],
      [
        "Ġblaho",
        -9.518314675523204
      ],
      [
        "kvÄĽt",
        -9.518353703440841
      ],
      [
        "ĠlÃŃc",
        -9.52006090814037
      ],
      [
        "ĠvÅ¡emi",
        -9.522716098945885
      ],
      [
        "Ġpravda",
        -9.52305049106955
      ],
      [
        "buÄı",
        -9.523820527233212
      ],
      [
        "ĠrÃ¡je",
        -9.523832882548794
      ],
      [
        "Ġtento",
        -9.524362044850754
      ],
      [
        "ĠdÅ¯m",
        -9.525220889549445
      ],
      [
        "stejnÄĽ",
        -9.528900216402844
      ],
      [
        "Ġdob",
        -9.529372745439112
      ],
      [
        "Ġdomu",
        -9.531771628771919
      ],
      [
        "ĠÄįasu",
        -9.532253743684807
      ],
      [
        "Ġsbor",
        -9.53294409772721
      ],
      [
        "ĠzÃ¡stup",
        -9.534542003879299
      ],
      [
        "le",
        -9.535421817847059
      ],
      [
        "Ġpropast",
        -9.536812122677201
      ],
      [
        "Ġbarv",
        -9.537153830509931
      ],
      [
        "Ġpan",
        -9.53730775317425
      ],
      [
        "Ġpravdu",
        -9.53789336279764
      ],
      [
        "ĠjednÃ©",
        -9.538567907781676
      ],
      [
        "el",
        -9.538880616548147
      ],
      [
        "Ġbrzy",
        -9.53890557013668
      ],
      [
        "ĠmizÃŃ",
        -9.539460816319096
      ],
      [
        "ĠbÅĻeh",
        -9.539731099969536
      ],
      [
        "pÅĻe",
        -9.541407250852554
      ],
      [
        "ova",
        -9.541618211422804
      ],
      [
        "ĠslÃ¡vÄĽ",
        -9.544534264233867
      ],
      [
        "Ġtakto",
        -9.545965788074767
      ],
      [
        "ĠslyÅ¡",
        -9.546542493894954
      ],
      [
        "st",
        -9.548282518405136
      ],
      [
        "Ġjazyk",
        -9.54840557287794
      ],
      [
        "Ġzcel",
        -9.550106276327808
      ],
      [
        "Ġtemn",
        -9.55232544132437
      ],
      [
        "Ġkterou",
        -9.552659539385093
      ],
      [
        "Ġduchu",
        -9.553665050728352
      ],
      [
        "ÃŃme",
        -9.55620025059974
      ],
      [
        "ĠjakÃ½",
        -9.556285888388748
      ],
      [
        "ĠspÃŃ",
        -9.556489077197476
      ],
      [
        "ĠtÄĽÅ¾kÃ©",
        -9.556987869618155
      ],
      [
        "ĠtÄĽm",
        -9.55768372732195
      ],
      [
        "Ġonen",
        -9.557983621164002
      ],
      [
        "ĠÄįest",
        -9.558461031301043
      ],
      [
        "Ġnepo",
        -9.558794025142962
      ],
      [
        "ĠbÄĽda",
        -9.559339377987225
      ],
      [
        "Ġdomov",
        -9.560034966967708
      ],
      [
        "nebo",
        -9.56053273324066
      ],
      [
        "ĠmoÅ¾no",
        -9.560760003840919
      ],
      [
        "ĠlÃŃp",
        -9.560803265136926
      ],
      [
        "Ġrte",
        -9.561206428993676
      ],
      [
        "Ġsnil",
        -9.56128415353848
      ],
      [
        "Ġkruh",
        -9.561644877374547
      ],
      [
        "Ġpaprsk",
        -9.561686765789457
      ],
      [
        "ĠdobrÃ©",
        -9.561872635175664
      ],
      [
        "ĠbratÅĻÃŃ",
        -9.562709027682732
      ],
      [
        "Ġvzdor",
        -9.563208691267088
      ],
      [
        "ĠchvÃŃ",
        -9.5634256715606
      ],
      [
        "ĠÅ¾el",
        -9.564061569708272
      ],
      [
        "ĠjasnÃ½",
        -9.564459952685048
      ],
      [
        "ĠâĢĵâĢľ",
        -9.564587984728028
      ],
      [
        "Zas",
        -9.564796429978738
      ],
      [
        "ĠtÄĽÅ¾ko",
        -9.565608302388098
      ],
      [
        "ĠtÅĻi",
        -9.566031744560835
      ],
      [
        "ĠsvÃ½mi",
        -9.566707765973815
      ],
      [
        "skÃ½ch",
        -9.568268890470044
      ],
      [
        "Ġruch",
        -9.56883091571584
      ],
      [
        "ĠzemÃŃ",
        -9.569358939342077
      ],
      [
        "ĠmÄĽnÃŃ",
        -9.570242350065557
      ],
      [
        "ĠsvatÃ¡",
        -9.570803819196646
      ],
      [
        "ĠstÃ¡t",
        -9.573415204521503
      ],
      [
        "ĠslyÅ¡ÃŃm",
        -9.573890723462522
      ],
      [
        "ĠvracÃŃ",
        -9.577785882968687
      ],
      [
        "ĠvÅ¡ÃŃm",
        -9.577971517190935
      ],
      [
        "ĠvalÃŃ",
        -9.578935309123636
      ],
      [
        "krÃ¡ÅĪ",
        -9.579555661286136
      ],
      [
        "ĠsvÃ¡",
        -9.580913644241313
      ],
      [
        "ĠÅ¡umÃŃ",
        -9.58329585293616
      ],
      [
        "ĠVÃ¡m",
        -9.583338142765893
      ],
      [
        "Ġcesta",
        -9.583489336874168
      ],
      [
        "ĠdÃŃk",
        -9.583981915295032
      ],
      [
        "ĠslÃ¡vu",
        -9.584340716832074
      ],
      [
        "zrak",
        -9.584555006932455
      ],
      [
        "ĠbouÅĻi",
        -9.584653399185827
      ],
      [
        "mutek",
        -9.58595054919087
      ],
      [
        "ĠsklÃ¡nÃŃ",
        -9.586269809020227
      ],
      [
        "ĠzÅĻÃŃ",
        -9.586371191240453
      ],
      [
        "ĠÄįeskÃ©",
        -9.587576126627397
      ],
      [
        "skÃ½",
        -9.587993743623242
      ],
      [
        "ĠvidÄĽt",
        -9.588028413471317
      ],
      [
        "Ġran",
        -9.59005749583648
      ],
      [
        "ĠdruhÃ©",
        -9.592467120660885
      ],
      [
        "Ġprsa",
        -9.593394495035316
      ],
      [
        "Ġmodlitb",
        -9.594255110207687
      ],
      [
        "ĠkdoÅ¾",
        -9.595352332478942
      ],
      [
        "ĠmodrÃ©",
        -9.595836954802298
      ],
      [
        "Ġhloub",
        -9.596891639541035
      ],
      [
        "ĠmÅ¾ik",
        -9.598226135527145
      ],
      [
        "Ġsnu",
        -9.599252423182994
      ],
      [
        "Ġnim",
        -9.601436265867905
      ],
      [
        "ĠptÃ¡c",
        -9.602670554317626
      ],
      [
        "ĠsmutnÃ½",
        -9.607194175820638
      ],
      [
        "jde",
        -9.609385441432162
      ],
      [
        "Ġnech",
        -9.610020826257333
      ],
      [
        "Ġblankyt",
        -9.611033977263048
      ],
      [
        "...âĢľ",
        -9.611156508164417
      ],
      [
        "Ġhluk",
        -9.611498153800156
      ],
      [
        "Ġnitr",
        -9.612736546980939
      ],
      [
        "ĠjehoÅ¾",
        -9.613220524760045
      ],
      [
        "ĠnadÅ¡enÃŃ",
        -9.61414138094675
      ],
      [
        "ĠcÃŃl",
        -9.614356880806763
      ],
      [
        "Ġperl",
        -9.614519707665373
      ],
      [
        "jednou",
        -9.614921646567687
      ],
      [
        "ĠÅĻeÄįÃŃ",
        -9.616613333274074
      ],
      [
        "Ġslza",
        -9.616842514869509
      ],
      [
        "ĠobjetÃŃ",
        -9.616895633420997
      ],
      [
        "Ġbohem",
        -9.618874141495052
      ],
      [
        "ĠtrÅ¯n",
        -9.619393956458492
      ],
      [
        "osti",
        -9.620659876341765
      ],
      [
        "ĠslyÅ¡et",
        -9.621059607784588
      ],
      [
        "Ġjednu",
        -9.621074433405548
      ],
      [
        "ĠrudÃ©",
        -9.621470778878566
      ],
      [
        "mne",
        -9.621706434541661
      ],
      [
        "ĠmrtvÃ©",
        -9.622031931946008
      ],
      [
        "Ġpravdy",
        -9.622986774599203
      ],
      [
        "pÅĻec",
        -9.624556454760496
      ],
      [
        "ĠtemnÃ½",
        -9.625289410682516
      ],
      [
        "Ġlidsk",
        -9.625393060056226
      ],
      [
        "MÃ©",
        -9.62677487456208
      ],
      [
        "mÅ¯j",
        -9.626821109691551
      ],
      [
        "ĠvroucÃŃ",
        -9.628202401022257
      ],
      [
        "Ġdala",
        -9.628743427218808
      ],
      [
        "Ġkterak",
        -9.628840822286463
      ],
      [
        "Ġprapor",
        -9.629334644562972
      ],
      [
        "Ġjizb",
        -9.633298523907257
      ],
      [
        "ĠbÄĽÅ¾ÃŃ",
        -9.633518027523763
      ],
      [
        "ĠpÅ¯d",
        -9.633858293981351
      ],
      [
        "ĠstÅĻech",
        -9.63588007706573
      ],
      [
        "ĠmladÃ¡",
        -9.635976496741566
      ],
      [
        "Ġplane",
        -9.63609434169722
      ],
      [
        "ĠchodÃŃ",
        -9.636473807349969
      ],
      [
        "ĠvÅ¯li",
        -9.636564626955899
      ],
      [
        "ĠÄįÃŃÅ¡",
        -9.636784784415436
      ],
      [
        "ĠvÅ¯nÃŃ",
        -9.639097366007114
      ],
      [
        "jejÅ¾",
        -9.63915978559994
      ],
      [
        "Ze",
        -9.639605885298359
      ],
      [
        "ĠdÃŃvka",
        -9.639877091353846
      ],
      [
        "ĠNe",
        -9.640771098013833
      ],
      [
        "ĠkaÅ¾do",
        -9.641515669216684
      ],
      [
        "ĠbohÅ¯",
        -9.642109343847881
      ],
      [
        "ĠvelkÃ¡",
        -9.642899166295443
      ],
      [
        "ĠjejÃŃm",
        -9.64330823179846
      ],
      [
        "ĠmyÅ¡lenk",
        -9.64408316640538
      ],
      [
        "kterÃ½",
        -9.644150077615478
      ],
      [
        "ĠplÃ¡",
        -9.64430655933553
      ],
      [
        "hrudi",
        -9.644415117706
      ],
      [
        "ĠbrÃ¡n",
        -9.645758969923232
      ],
      [
        "ĠtÃ¡hne",
        -9.646441846278936
      ],
      [
        "ĠcoÅ¾",
        -9.647490517677117
      ],
      [
        "hlas",
        -9.6475484459264
      ],
      [
        "Ġmluvil",
        -9.648237852330508
      ],
      [
        "Ġkyne",
        -9.649691410418072
      ],
      [
        "ĠvÅ¯kol",
        -9.651030627369654
      ],
      [
        "Ġchat",
        -9.651750639907657
      ],
      [
        "Ġrad",
        -9.652721501826496
      ],
      [
        "ĠÅ¾iv",
        -9.652957663559986
      ],
      [
        "ĠrozkoÅ¡",
        -9.656533829169074
      ],
      [
        "ĠdÄĽv",
        -9.658003128103138
      ],
      [
        "ĠoltÃ¡ÅĻ",
        -9.65811833982298
      ],
      [
        "ĠptÃ¡Äįe",
        -9.658878047086846
      ],
      [
        "ĠtmÃ¡",
        -9.65893180962078
      ],
      [
        "Ġsad",
        -9.659261321003829
      ],
      [
        "Ġsmysl",
        -9.660001585207041
      ],
      [
        "ĠzvedÃ¡",
        -9.660661865130418
      ],
      [
        "ĠÅ¾Ã¡dnÃ½",
        -9.661453334618693
      ],
      [
        "ĠpÅĻiÅ¡la",
        -9.663124061652741
      ],
      [
        "JeÅ¡tÄĽ",
        -9.663382666471692
      ],
      [
        "ĠnechÅ¥",
        -9.663430301523448
      ],
      [
        "Noc",
        -9.66463757224886
      ],
      [
        "ĠdÅĻÃŃve",
        -9.664698359885662
      ],
      [
        "ĠrÃ¡da",
        -9.664734598060647
      ],
      [
        "ĠsmutnÃ©",
        -9.665240103152499
      ],
      [
        "jsi",
        -9.666324080785792
      ],
      [
        "ĠkaÅ¾dÃ©m",
        -9.666342504255681
      ],
      [
        "Å¡ÃŃ",
        -9.66771351825
      ],
      [
        "ĠÅ¡er",
        -9.668969517907053
      ],
      [
        "©",
        -9.669333251122778
      ],
      [
        "Äį",
        -9.669977461359803
      ],
      [
        "ĠleÄį",
        -9.670117829931044
      ],
      [
        "sladkÃ¡",
        -9.671077684541071
      ],
      [
        "Ġmraky",
        -9.671961497590669
      ],
      [
        "skou",
        -9.672024329375965
      ],
      [
        "ĠmusÃŃm",
        -9.672383759697865
      ],
      [
        "cÅ¯",
        -9.672488712424482
      ],
      [
        "zdÃ¡lo",
        -9.672595971008707
      ],
      [
        "dÃ¡l",
        -9.673766094288325
      ],
      [
        "Ġba",
        -9.674517610319414
      ],
      [
        "ĠlepÅ¡ÃŃ",
        -9.675331517282856
      ],
      [
        "Ġkus",
        -9.676067864517528
      ],
      [
        "ĠzatÃŃm",
        -9.676176059461646
      ],
      [
        "ĠstavÃŃ",
        -9.677254202418776
      ],
      [
        "Ġklidu",
        -9.677308193403682
      ],
      [
        "Ġklam",
        -9.680689423483269
      ],
      [
        "ĠbÃ½vÃ¡",
        -9.682205355758043
      ],
      [
        "tÃ©Å¾",
        -9.682357791475159
      ],
      [
        "ĠÅĻÃŃÅ¡e",
        -9.68302494769079
      ],
      [
        "tÄĽch",
        -9.683687026643556
      ],
      [
        "Ġsloup",
        -9.683778478663893
      ],
      [
        "zpÄĽt",
        -9.684512102015024
      ],
      [
        "ĠzÃ¡zrak",
        -9.684742457520922
      ],
      [
        "nic",
        -9.684767941276682
      ],
      [
        "ĠokamÅ¾ik",
        -9.685098074969684
      ],
      [
        "ĠpÅĻÃ¡tel",
        -9.686333384726467
      ],
      [
        "ĠsmutnÄĽ",
        -9.687267760404897
      ],
      [
        "Ġjiskr",
        -9.68761706408227
      ],
      [
        "Ġnade",
        -9.688650322375224
      ],
      [
        "ĠvrÃ¡til",
        -9.688734442114848
      ],
      [
        "ĠBohem",
        -9.690721714148015
      ],
      [
        "ĠrudÃ½",
        -9.691005414414537
      ],
      [
        "J",
        -9.691128474528593
      ],
      [
        "Ġblaha",
        -9.69125779414076
      ],
      [
        "ĠzlÃ½",
        -9.691438736958391
      ],
      [
        "ĠhÅĻbitov",
        -9.691856038867908
      ],
      [
        "ĠsvÄĽtle",
        -9.693459353926059
      ],
      [
        "ovÅ¡em",
        -9.69396072427867
      ],
      [
        "Ġblud",
        -9.694224746530232
      ],
      [
        "ajÃŃ",
        -9.694462267476545
      ],
      [
        "naÅĪ",
        -9.694480339358925
      ],
      [
        "ĠkrÃ¡sa",
        -9.694659203976556
      ],
      [
        "ĠbledÃ½",
        -9.694884790588274
      ],
      [
        "ĠvÃ¡Å¡nÃŃ",
        -9.694910800572472
      ],
      [
        "ĠdÃŃtk",
        -9.695779906612348
      ],
      [
        "ĠjedinÃ½",
        -9.695807915447737
      ],
      [
        "ĠzÃ¡hy",
        -9.696415808942486
      ],
      [
        "Ġpad",
        -9.696813001185513
      ],
      [
        "Jsi",
        -9.697575621431612
      ],
      [
        "ĠÅ¾enu",
        -9.6989180005462
      ],
      [
        "ĠkvÄĽtu",
        -9.699788730649711
      ],
      [
        "kÅ¯",
        -9.700612308807182
      ],
      [
        "rÃ¡zem",
        -9.701237380162574
      ],
      [
        "ĠÅĪadra",
        -9.70136776168767
      ],
      [
        "ĠTÄĽ",
        -9.703387854046955
      ],
      [
        "Ġbratr",
        -9.705046520686462
      ],
      [
        "toÅ¥",
        -9.70552466712654
      ],
      [
        "ĠzÅ¯stal",
        -9.70642905988558
      ],
      [
        "ĠsmÃŃchu",
        -9.706636883285839
      ],
      [
        "Srdce",
        -9.707049175925658
      ],
      [
        "Ġsami",
        -9.70812281033885
      ],
      [
        "tÃŃ",
        -9.708145950309394
      ],
      [
        "Ġulic",
        -9.708391829544574
      ],
      [
        "Ġkrajin",
        -9.708919265549788
      ],
      [
        "ĠtouÅ¾ÃŃ",
        -9.709294273498873
      ],
      [
        "f",
        -9.709344781609975
      ],
      [
        "rÃ¡",
        -9.70935656695428
      ],
      [
        "T",
        -9.71005403963267
      ],
      [
        "ĠÅĻÃ¡d",
        -9.710740022341392
      ],
      [
        "ĠmeÄįe",
        -9.711525033412936
      ],
      [
        "Ġtich",
        -9.712350741314934
      ],
      [
        "Ġmiloval",
        -9.714718179580437
      ],
      [
        "ĠvÃŃÅ¡",
        -9.71512806103626
      ],
      [
        "ĠpÃŃsni",
        -9.715568483031895
      ],
      [
        "Den",
        -9.716535602128754
      ],
      [
        "den",
        -9.71687976325053
      ],
      [
        "VÅ¾dy",
        -9.717259987239448
      ],
      [
        "ĠvonÃŃ",
        -9.717639822389996
      ],
      [
        "ĠbudÃŃ",
        -9.717828876860938
      ],
      [
        "Ġoka",
        -9.718189332487748
      ],
      [
        "Kol",
        -9.718447815610965
      ],
      [
        "SvÄĽt",
        -9.718910981494192
      ],
      [
        "Ġrej",
        -9.719577322336248
      ],
      [
        "Ġpoklad",
        -9.72012350433345
      ],
      [
        "ĠjÃŃm",
        -9.72088445467963
      ],
      [
        "ĠzpÃ¡tk",
        -9.721368636078282
      ],
      [
        "ĠslavnÃ½",
        -9.722859533175352
      ],
      [
        "ĠpÅ¯l",
        -9.72388426107018
      ],
      [
        "ĠnedÃ¡",
        -9.725112794151222
      ],
      [
        "ĠbledÃ¡",
        -9.72538911039183
      ],
      [
        "dal",
        -9.726888179726394
      ],
      [
        "Ġzvyk",
        -9.727020480713078
      ],
      [
        "Ġzbyl",
        -9.727110717453199
      ],
      [
        "nechÅ¥",
        -9.728280236884608
      ],
      [
        "ĠmrtvÃ½ch",
        -9.729115727650951
      ],
      [
        "ovÃ½ch",
        -9.729608750265745
      ],
      [
        "ĠtÅĻetÃŃ",
        -9.729713230539861
      ],
      [
        "ĠmotÃ½l",
        -9.729804852539221
      ],
      [
        "Å¡el",
        -9.730869825222733
      ],
      [
        "ĠpevnÄĽ",
        -9.73151702121896
      ],
      [
        "ĠdrÃ¡h",
        -9.731520528820614
      ],
      [
        "ĠobÄĽ",
        -9.73191740761663
      ],
      [
        "JenÅ¾",
        -9.732805698754689
      ],
      [
        "Ġsnah",
        -9.733513552427539
      ],
      [
        "Ġzlata",
        -9.733873121439942
      ],
      [
        "PojÄı",
        -9.734118700245741
      ],
      [
        "ĠÄįistÃ©",
        -9.73427584386948
      ],
      [
        "Ġtvoji",
        -9.73529207983373
      ],
      [
        "Ġpotok",
        -9.736850169522842
      ],
      [
        "ĠlÃŃci",
        -9.737050656752103
      ],
      [
        "Ġsamot",
        -9.737884110762332
      ],
      [
        "ĠbÄĽd",
        -9.737934886682025
      ],
      [
        "ĠtoÄįÃŃ",
        -9.739597785782083
      ],
      [
        "ĠvÃ½kÅĻik",
        -9.739671860090741
      ],
      [
        "srdce",
        -9.739902064433693
      ],
      [
        "AÄį",
        -9.740536627236828
      ],
      [
        "ĠklesÃ¡",
        -9.740701539823286
      ],
      [
        "ĠdÃ¡vnÃ½",
        -9.741709428508653
      ],
      [
        "ĠvrÃ¡tÃŃ",
        -9.74256698090911
      ],
      [
        "ĠblÃŃÅ¾ÃŃ",
        -9.7431359057382
      ],
      [
        "ĠvÅ¡ad",
        -9.743658844230104
      ],
      [
        "ĠstÃ¡la",
        -9.74400466087792
      ],
      [
        "jÃŃÅ¾",
        -9.744634896980472
      ],
      [
        "ani",
        -9.744981447282436
      ],
      [
        "ĠCo",
        -9.74584464948655
      ],
      [
        "Aby",
        -9.74585836388344
      ],
      [
        "Ġkmen",
        -9.746792419531587
      ],
      [
        "ĠcÃŃsaÅĻ",
        -9.74765115643203
      ],
      [
        "ĠrannÃŃ",
        -9.748276478002019
      ],
      [
        "Ġhudba",
        -9.748346865347052
      ],
      [
        "lÃŃ",
        -9.750650292725727
      ],
      [
        "nice",
        -9.751122674232125
      ],
      [
        "er",
        -9.751839257788212
      ],
      [
        "ĠloÅ¾e",
        -9.752293996486301
      ],
      [
        "Ġstal",
        -9.753118616876836
      ],
      [
        "Ġd",
        -9.754117627884892
      ],
      [
        "ĠspÃ¡t",
        -9.75460246409159
      ],
      [
        "vÃ¡m",
        -9.754724727725621
      ],
      [
        "ĠtvojÃŃ",
        -9.75509799392723
      ],
      [
        "Ġhovor",
        -9.756091372097682
      ],
      [
        "ĠzÃ¡kon",
        -9.756697799957227
      ],
      [
        "ĠdlaÅĪ",
        -9.758818428496511
      ],
      [
        "Kdy",
        -9.75901303159888
      ],
      [
        "ĠlesnÃŃ",
        -9.759365388439452
      ],
      [
        "ĠchtÄĽla",
        -9.759937579292611
      ],
      [
        "nÄĽjÅ¡ÃŃ",
        -9.761578282785274
      ],
      [
        "Ġkorun",
        -9.762203350350015
      ],
      [
        "novou",
        -9.762242884240539
      ],
      [
        "ĠvÄįer",
        -9.762323449775938
      ],
      [
        "Ġkdos",
        -9.763602296342945
      ],
      [
        "ĠspÃ¡nk",
        -9.763750324431216
      ],
      [
        "ĠdÃŃval",
        -9.765314730790243
      ],
      [
        "ÅĻÃŃ",
        -9.766609093995653
      ],
      [
        "ĠvÅĻav",
        -9.767352058026383
      ],
      [
        "ĠznÃ¡",
        -9.767838028484078
      ],
      [
        "ĠbÃŃlou",
        -9.76898474640829
      ],
      [
        "tvÃ©",
        -9.769735808737881
      ],
      [
        "ĠkteÅĻÃŃ",
        -9.770401225170236
      ],
      [
        "ĠmodrÃ½",
        -9.772274593461233
      ],
      [
        "Ġvztek",
        -9.773503403036695
      ],
      [
        "vÃŃ",
        -9.773692448026761
      ],
      [
        "Ġpekl",
        -9.773775547150873
      ],
      [
        "jich",
        -9.774067596842986
      ],
      [
        "ĠnavÅ¾dy",
        -9.775827796558058
      ],
      [
        "ĠtmavÃ½",
        -9.77717759822966
      ],
      [
        "Ġtichu",
        -9.778109584251498
      ],
      [
        "ĠdivÃ½",
        -9.778448631458328
      ],
      [
        "ĠhrÅ¯z",
        -9.778696271436406
      ],
      [
        "ĠslyÅ¡ÃŃ",
        -9.77904632045089
      ],
      [
        "nÃ©m",
        -9.77916982986876
      ],
      [
        "ĠnÄĽkdo",
        -9.779500568481339
      ],
      [
        "ĠzÃ¡pas",
        -9.780106991680277
      ],
      [
        "ĠvisÃŃ",
        -9.78215656791932
      ],
      [
        "ĠbledÃ©",
        -9.78253934132583
      ],
      [
        "Ġotc",
        -9.785937970762205
      ],
      [
        "bÅ¯h",
        -9.78598775585385
      ],
      [
        "ĠtÅĻese",
        -9.788425849006096
      ],
      [
        "Ġsmutku",
        -9.788519755721893
      ],
      [
        "kterÃ©",
        -9.788935305017961
      ],
      [
        "Ġdalek",
        -9.790456469044807
      ],
      [
        "Ġprostor",
        -9.790820015808215
      ],
      [
        "svÃ½m",
        -9.79105063356997
      ],
      [
        "coÅ¾",
        -9.79242625180585
      ],
      [
        "ĠhledÄĽl",
        -9.793741324641154
      ],
      [
        "Ġvrah",
        -9.794163608130173
      ],
      [
        "Ġcen",
        -9.795927810436265
      ],
      [
        "Ġmohu",
        -9.79609934053791
      ],
      [
        "SÃ¡m",
        -9.796099721392094
      ],
      [
        "ĠpÃ½ch",
        -9.796921587346747
      ],
      [
        "ĠpÃ¡d",
        -9.797460835193135
      ],
      [
        "MÃ¡m",
        -9.798507432053729
      ],
      [
        "ĠspÄĽl",
        -9.798598028749765
      ],
      [
        "ĠpÅĻede",
        -9.798749536530588
      ],
      [
        "Ġskok",
        -9.799915892292969
      ],
      [
        "ĠzdravÃŃ",
        -9.802787952369535
      ],
      [
        "Ġbolu",
        -9.80295576724053
      ],
      [
        "Oh",
        -9.804330324705845
      ],
      [
        "ĠblÃŃÅ¾e",
        -9.805644321795395
      ],
      [
        "ĠmalÃ¡",
        -9.80628609119965
      ],
      [
        "ĠotcÅ¯",
        -9.806524404245046
      ],
      [
        "Ġzim",
        -9.806735059177354
      ],
      [
        "ĠtemnÃ©",
        -9.807390221031978
      ],
      [
        "ĠÄįistÃ½",
        -9.807701842260965
      ],
      [
        "ĠvÅ¡emu",
        -9.808174061841267
      ],
      [
        "Ġkonce",
        -9.808524755773686
      ],
      [
        "ĠohnÄĽm",
        -9.808675536164221
      ],
      [
        "ĠkÅĻÃŃdl",
        -9.810551201785337
      ],
      [
        "Ġnechce",
        -9.810571585830246
      ],
      [
        "Ġchvat",
        -9.810750739509123
      ],
      [
        "ĠvÅ¯ni",
        -9.812499875562368
      ],
      [
        "Ġbudoucnost",
        -9.812756738925291
      ],
      [
        "Ġzmizel",
        -9.813123293069445
      ],
      [
        "Ġkalich",
        -9.813216939644892
      ],
      [
        "ĠvyÅ¡el",
        -9.813982974570779
      ],
      [
        "ĠdÅĻÃŃmÃ¡",
        -9.814644503642802
      ],
      [
        "Ġnedo",
        -9.81495013841797
      ],
      [
        "Ġvelkou",
        -9.81621202686161
      ],
      [
        "ĠztrÃ¡cÃŃ",
        -9.816258658910789
      ],
      [
        "ĠnemÄĽl",
        -9.816438300405265
      ],
      [
        "ĠmrÃ¡z",
        -9.817658669770424
      ],
      [
        "Ġdvou",
        -9.818347765136469
      ],
      [
        "lid",
        -9.819114000305042
      ],
      [
        "Ġpokoj",
        -9.81982868482789
      ],
      [
        "ĠprÃ¡v",
        -9.821163880352472
      ],
      [
        "Ġtouh",
        -9.822476829073793
      ],
      [
        "ĠPane",
        -9.822719592320759
      ],
      [
        "stalo",
        -9.8237964965192
      ],
      [
        "Nu",
        -9.826336890381299
      ],
      [
        "ĠohnÄĽ",
        -9.827084413320753
      ],
      [
        "Ġchvilk",
        -9.828200506546331
      ],
      [
        "ĠvÃŃno",
        -9.828362125552047
      ],
      [
        "ĠTo",
        -9.82918658341832
      ],
      [
        "Ġbolesti",
        -9.829952705394104
      ],
      [
        "iti",
        -9.832299870056765
      ],
      [
        "Ġskryt",
        -9.832529900282417
      ],
      [
        "ĠdÃ½Å¡e",
        -9.832654950032449
      ],
      [
        "ĠjakÃ©",
        -9.833821051129284
      ],
      [
        "ĠbouÅĻ",
        -9.834872116972424
      ],
      [
        "ĠzÃŃrÃ¡",
        -9.837891466587779
      ],
      [
        "Ġsoumrak",
        -9.838852652477804
      ],
      [
        "ĠdlanÃŃ",
        -9.839159918544915
      ],
      [
        "kterÃ¡",
        -9.840752259548221
      ],
      [
        "Ġmoudrost",
        -9.84108805434574
      ],
      [
        "PÅĻe",
        -9.841226110782372
      ],
      [
        "ĠÅĻas",
        -9.841289285856856
      ],
      [
        "ĠvÃ½chod",
        -9.841387603954404
      ],
      [
        "Ġpramen",
        -9.842779870269798
      ],
      [
        "Ġmusil",
        -9.843309680774007
      ],
      [
        "Ġmdlob",
        -9.844007965806737
      ],
      [
        "ĠÅ¡la",
        -9.844206997057494
      ],
      [
        "ĠlÃŃbÃ¡",
        -9.84659531865345
      ],
      [
        "ĠpatÅĻÃŃ",
        -9.846834195101906
      ],
      [
        "ĠknÄĽz",
        -9.848337314351184
      ],
      [
        "ĠÅĪadr",
        -9.848855588609842
      ],
      [
        "ĠdveÅĻÃŃ",
        -9.850578625379473
      ],
      [
        "Ġstane",
        -9.850597885691222
      ],
      [
        "ĠsvÄĽtÅ¯",
        -9.851303580877705
      ],
      [
        "½",
        -9.851978753351073
      ],
      [
        "NenÃŃ",
        -9.85272600207949
      ],
      [
        "ĠspÄĽch",
        -9.852895041770637
      ],
      [
        "ĠrytÃŃÅĻ",
        -9.85384602056391
      ],
      [
        "ĠJÃ¡",
        -9.854424739374949
      ],
      [
        "NechÅ¥",
        -9.85606936182758
      ],
      [
        "Ġpodzim",
        -9.856184325260678
      ],
      [
        "ĠsplÃ½vÃ¡",
        -9.856732276221376
      ],
      [
        "Ġbran",
        -9.85733472007606
      ],
      [
        "Ġpadl",
        -9.857426331456978
      ],
      [
        "Ġhlasy",
        -9.857820775389278
      ],
      [
        "tichÃ¡",
        -9.858266138346831
      ],
      [
        "ĠÅ¾havÃ½",
        -9.8584410148237
      ],
      [
        "Ġpozdrav",
        -9.858888965465635
      ],
      [
        "Ġpravo",
        -9.85974158738397
      ],
      [
        "TvÃ©",
        -9.860301033756443
      ],
      [
        "snem",
        -9.860449037428381
      ],
      [
        "Ġdarmo",
        -9.860929411057086
      ],
      [
        "ĠÅ¾ene",
        -9.860971747452497
      ],
      [
        "ĠsnÃŃ",
        -9.861121026811539
      ],
      [
        "Ġode",
        -9.861261126668094
      ],
      [
        "ĠnÄĽmÃ½",
        -9.86156875721749
      ],
      [
        "ĠchÃ½lÃŃ",
        -9.8620785675128
      ],
      [
        "lÃ©",
        -9.862496032976042
      ],
      [
        "D",
        -9.863452404492236
      ],
      [
        "ĠpÄĽt",
        -9.86354973655782
      ],
      [
        "ĠcitÅ¯",
        -9.863639099215675
      ],
      [
        "nechci",
        -9.863925104261824
      ],
      [
        "Hned",
        -9.864800002227136
      ],
      [
        "Ġtuto",
        -9.865723490914279
      ],
      [
        "Ġvstal",
        -9.865809575850072
      ],
      [
        "ĠJan",
        -9.866616993958198
      ],
      [
        "ĠtmavÃ©",
        -9.866945030805557
      ],
      [
        "ĠmyÅ¡lÃ©nk",
        -9.867696662176002
      ],
      [
        "toÅ¾",
        -9.868666390325743
      ],
      [
        "nÃ¡ch",
        -9.86906617698526
      ],
      [
        "chci",
        -9.87050754168146
      ],
      [
        "Ġpoznal",
        -9.870755035214858
      ],
      [
        "Ġnebylo",
        -9.871046372045347
      ],
      [
        "M",
        -9.87141038520603
      ],
      [
        "vÃŃc",
        -9.871581748702527
      ],
      [
        "ĠstÃŃnÅ¯",
        -9.87191085941959
      ],
      [
        "nout",
        -9.872348537272359
      ],
      [
        "ĠpravÃ½",
        -9.873015858533035
      ],
      [
        "ĠrokÅ¯",
        -9.8738726650598
      ],
      [
        "ĠboÅ¾e",
        -9.875070578801495
      ],
      [
        "ĠÄįekal",
        -9.875187516022642
      ],
      [
        "?!",
        -9.875877968577552
      ],
      [
        "Ġmnoh",
        -9.876111465333866
      ],
      [
        "mÄĽl",
        -9.877597786045785
      ],
      [
        "ĠbolÃŃ",
        -9.877598313222478
      ],
      [
        "ĠsmÄĽje",
        -9.878887200030727
      ],
      [
        "ĠdivnÃ½",
        -9.878967734597264
      ],
      [
        "Ġpadne",
        -9.879013830981153
      ],
      [
        "ĠvÃ¡Å¡nÄĽ",
        -9.880301966331821
      ],
      [
        "ĠnÃ¡ruÄįÃŃ",
        -9.881506083546263
      ],
      [
        "Ġlze",
        -9.882061147912115
      ],
      [
        "ĠvÄĽÅĻ",
        -9.882384951359077
      ],
      [
        "iÅ¥",
        -9.882520426753846
      ],
      [
        "jsme",
        -9.882561197386707
      ],
      [
        "ĠvÃ½Å¡i",
        -9.882633967178771
      ],
      [
        "ĠsmÄĽl",
        -9.88270598145969
      ],
      [
        "Ġdub",
        -9.88329469252303
      ],
      [
        "ĠhrÅ¯zou",
        -9.883310716650193
      ],
      [
        "ĠvÃŃtÄĽz",
        -9.88446725146001
      ],
      [
        "ĠÅ¾ivÃ½",
        -9.88521950277369
      ],
      [
        "ĠnovÃ¡",
        -9.88571149530108
      ],
      [
        "lÃ¡",
        -9.886139557988974
      ],
      [
        "ĠlÃŃcÃŃ",
        -9.886664056474231
      ],
      [
        "ĠdÄĽcko",
        -9.886730357355916
      ],
      [
        "Ġminulost",
        -9.887053320230343
      ],
      [
        "Ġkletb",
        -9.888003650391703
      ],
      [
        "Ġbytost",
        -9.888047010700852
      ],
      [
        "tou",
        -9.888777865891502
      ],
      [
        "ĠbÃ½val",
        -9.88933872673745
      ],
      [
        "Ġhraje",
        -9.890380012493388
      ],
      [
        "Ġdali",
        -9.890541911074713
      ],
      [
        "Ġzlatou",
        -9.89111492170051
      ],
      [
        "Ġkmet",
        -9.891281337294554
      ],
      [
        "Ġoken",
        -9.892754001659092
      ],
      [
        "ĠtisÃŃce",
        -9.893066401906317
      ],
      [
        "ĠpÃŃt",
        -9.893492557427518
      ],
      [
        "Ġdoba",
        -9.894410101729921
      ],
      [
        "Ġobloh",
        -9.894815941467897
      ],
      [
        "ĠsnÄĽhu",
        -9.897342873469235
      ],
      [
        "ĠpÄĽl",
        -9.898951547054445
      ],
      [
        "ĠÅĪadre",
        -9.899110084582828
      ],
      [
        "ÄĮÃŃm",
        -9.899846665302046
      ],
      [
        "ĠknÃŃÅ¾e",
        -9.900081282550806
      ],
      [
        "Ġboha",
        -9.900085484263915
      ],
      [
        "Ãº",
        -9.900508095470759
      ],
      [
        "ĠskrÃ¡nÃŃ",
        -9.900961613156314
      ],
      [
        "ry",
        -9.901463207033895
      ],
      [
        "ĠpÅĻÃŃval",
        -9.90159154227634
      ],
      [
        "Ġchleba",
        -9.903103558266693
      ],
      [
        "ĠtÃ³n",
        -9.904311128681407
      ],
      [
        "Ġtvor",
        -9.90471195904883
      ],
      [
        "Ġmost",
        -9.905188893713586
      ],
      [
        "SlyÅ¡",
        -9.905673063044311
      ],
      [
        "Ġpodle",
        -9.905988361800397
      ],
      [
        "Ġsvatou",
        -9.906305472384304
      ],
      [
        "rÃ¡d",
        -9.908581174334117
      ],
      [
        "ĠdÄĽck",
        -9.908898592288498
      ],
      [
        "ĠsmÄĽle",
        -9.909654588228245
      ],
      [
        "Lid",
        -9.910241714281725
      ],
      [
        "ĠÅ¾Ã¡dnÃ©",
        -9.911118645917282
      ],
      [
        "ĠdÄĽje",
        -9.911255786301652
      ],
      [
        "ĠvÅ¯dce",
        -9.912086446822443
      ],
      [
        "Ã½mi",
        -9.912147326123502
      ],
      [
        "Ġtato",
        -9.912246954877833
      ],
      [
        "Ã©mu",
        -9.912354774028412
      ],
      [
        "ĠtÄĽÅ¾c",
        -9.912506505581435
      ],
      [
        "ĠdÃŃvÄįÃŃ",
        -9.912689379928398
      ],
      [
        "ĠpamÄĽt",
        -9.912826431348428
      ],
      [
        "ĠÄįase",
        -9.9131647915387
      ],
      [
        "Ġpoesi",
        -9.91367820238562
      ],
      [
        "Nic",
        -9.913684968130362
      ],
      [
        "Ġdobro",
        -9.913797160593793
      ],
      [
        "ĠduchÅ¯",
        -9.913875652940856
      ],
      [
        "NaÄį",
        -9.914436401899158
      ],
      [
        "Ġkrvi",
        -9.914472608553897
      ],
      [
        "Ġhledal",
        -9.91555404476344
      ],
      [
        "ĠkrÃ¡Äįel",
        -9.915663594686908
      ],
      [
        "ĠhalÃŃ",
        -9.917662945656073
      ],
      [
        "ĠvÄĽtvÃŃ",
        -9.918793600795553
      ],
      [
        "Ġsladkou",
        -9.921173061163502
      ],
      [
        "Ġduh",
        -9.921423824959017
      ],
      [
        "ĠpÅĻÃŃtel",
        -9.921866490401968
      ],
      [
        "ĠtoÅ¥",
        -9.922556506854667
      ],
      [
        "Chci",
        -9.923321512941259
      ],
      [
        "ĠpohÃ¡r",
        -9.923464182754907
      ],
      [
        "Pan",
        -9.923530672242443
      ],
      [
        "Ġvine",
        -9.925452550038095
      ],
      [
        "nost",
        -9.926232956384194
      ],
      [
        "ĠvÄĽrnÃ½",
        -9.927035296360335
      ],
      [
        "darmo",
        -9.927243488040048
      ],
      [
        "cos",
        -9.927589517393427
      ],
      [
        "ĠpÃŃsk",
        -9.927905931129068
      ],
      [
        "Ġpouta",
        -9.928862577629381
      ],
      [
        "Ġjsa",
        -9.929055724626028
      ],
      [
        "ĠloÄı",
        -9.929269129048828
      ],
      [
        "ĠstaÄįÃŃ",
        -9.92994232660725
      ],
      [
        "ĠpÅĻÃ¡nÃŃ",
        -9.930342471343842
      ],
      [
        "ĠÅ¡ÃŃj",
        -9.930848999205018
      ],
      [
        "jÃŃmÅ¾",
        -9.930852013059587
      ],
      [
        "PÃ¡n",
        -9.930953322621598
      ],
      [
        "Ġzub",
        -9.9311395702012
      ],
      [
        "ĠpÃ¡lÃŃ",
        -9.933614862129886
      ],
      [
        "ĠprosÃŃm",
        -9.934285395823641
      ],
      [
        "ĠstÅĻel",
        -9.934663576378696
      ],
      [
        "Ġluny",
        -9.934772194121038
      ],
      [
        "Ġpil",
        -9.935840432996308
      ],
      [
        "Ti",
        -9.936360274017234
      ],
      [
        "ĠmyslÃŃm",
        -9.937208155914377
      ],
      [
        "Å¡e",
        -9.937447142641535
      ],
      [
        "Ġsyna",
        -9.937698701500818
      ],
      [
        "Ġlehc",
        -9.937790091139615
      ],
      [
        "ĠtajÃŃ",
        -9.938487133670879
      ],
      [
        "ĠmocnÃ½",
        -9.939245067968315
      ],
      [
        "Ġhroby",
        -9.940406432128317
      ],
      [
        "ĠpohÃ¡dk",
        -9.940510201388651
      ],
      [
        "Å¡tÃŃ",
        -9.940825887035675
      ],
      [
        "Ġvane",
        -9.941572245776548
      ],
      [
        "ovÃ½",
        -9.94214283141234
      ],
      [
        "znÃŃ",
        -9.942884174612962
      ],
      [
        "Ġroze",
        -9.944122689888944
      ],
      [
        "Ġvolal",
        -9.944307276291585
      ],
      [
        "ĠdÄĽs",
        -9.944604772349738
      ],
      [
        "ĠtemnÄĽ",
        -9.945206400899131
      ],
      [
        "Ġskvost",
        -9.945492970815458
      ],
      [
        "ĠpÄĽn",
        -9.94661660122351
      ],
      [
        "ĠÄįasÅ¯",
        -9.946621082396632
      ],
      [
        "P",
        -9.946744649164698
      ],
      [
        "ĠvÄĽne",
        -9.946910962164528
      ],
      [
        "ĠhuÄįÃŃ",
        -9.947713957619808
      ],
      [
        "ĠtÅĻpyt",
        -9.948385115240558
      ],
      [
        "ĠÄįernÃ¡",
        -9.948717845613338
      ],
      [
        "ĠmocÃŃ",
        -9.949442125541996
      ],
      [
        "ĠmÃ¡te",
        -9.950358365688103
      ],
      [
        "ĠKristu",
        -9.95233363602394
      ],
      [
        "Ġjih",
        -9.953283851279227
      ],
      [
        "Ġvrch",
        -9.954417452523842
      ],
      [
        "ĠÅ¡edÃ½",
        -9.95446580311647
      ],
      [
        "ĠcÃŃle",
        -9.954618699957017
      ],
      [
        "ĠvÄĽÅ¾e",
        -9.954977141711899
      ],
      [
        "jim",
        -9.955370844118395
      ],
      [
        "ĠbratÅĻi",
        -9.956467722022044
      ],
      [
        "ĠnaÅ¡el",
        -9.957062506777197
      ],
      [
        "Ġhvozd",
        -9.957230603381989
      ],
      [
        "Ġvojsk",
        -9.957576345944648
      ],
      [
        "ĠchudÃ©",
        -9.95759250704794
      ],
      [
        "dÄĽl",
        -9.957793971856283
      ],
      [
        "Ġkryje",
        -9.95826102834565
      ],
      [
        "ĠzlÃ©",
        -9.958369990674228
      ],
      [
        "Ġmrtvol",
        -9.959509144809273
      ],
      [
        "PÃ¡nÄĽ",
        -9.960057659956405
      ],
      [
        "ĠtÃŃÅ¾ÃŃ",
        -9.960648003255056
      ],
      [
        "ĠmlÄįÃŃ",
        -9.96095061630139
      ],
      [
        "KaÅ¾dÃ½",
        -9.963586619922467
      ],
      [
        "Ġtys",
        -9.964029833332557
      ],
      [
        "ĠvÅ¡ÃŃ",
        -9.964136785376162
      ],
      [
        "Ġtma",
        -9.964678475244014
      ],
      [
        "ĠslavnÃ©",
        -9.965594138851344
      ],
      [
        "ĠzachvÄĽl",
        -9.966392359575106
      ],
      [
        "ĠmuÅ¾Å¯",
        -9.966825996873686
      ],
      [
        "KrÃ¡l",
        -9.967767722025158
      ],
      [
        "ĠdlanÄĽ",
        -9.967780814591725
      ],
      [
        "ĠÄįert",
        -9.967956237304602
      ],
      [
        "ĠmraÄįn",
        -9.968489388365235
      ],
      [
        "ĠptaÄįÃŃ",
        -9.96919074101189
      ],
      [
        "ĠnemÃ¡m",
        -9.9696946115217
      ],
      [
        "Ġroh",
        -9.971068613167798
      ],
      [
        "let",
        -9.971096284689121
      ],
      [
        "bys",
        -9.97346312895897
      ],
      [
        "duch",
        -9.974158534192417
      ],
      [
        "ĠÅ¾enou",
        -9.974354658737616
      ],
      [
        "ĠspÃŃÅ¡",
        -9.975468369826547
      ],
      [
        "Ġslovy",
        -9.975964588910333
      ],
      [
        "ĠjichÅ¾",
        -9.97600876910684
      ],
      [
        "tvÅ¯j",
        -9.976023317111071
      ],
      [
        "krev",
        -9.976631197911098
      ],
      [
        "Ġstarou",
        -9.977310070320609
      ],
      [
        "Ġsoucit",
        -9.9778228087502
      ],
      [
        "Ġmluvit",
        -9.978448721926739
      ],
      [
        "ĠjevÃŃ",
        -9.978456824250948
      ],
      [
        "ila",
        -9.979561480664879
      ],
      [
        "ĠzÃ¡voj",
        -9.980008026586155
      ],
      [
        "ĠvlasÅ¯",
        -9.980709594990017
      ],
      [
        "ToÅ¾",
        -9.980790621660935
      ],
      [
        "ĠchladnÃ©",
        -9.980804108800308
      ],
      [
        "Ġbral",
        -9.980900237297835
      ],
      [
        "Ġvesele",
        -9.980902352680776
      ],
      [
        "ĠstÅĻÃŃbr",
        -9.981291079406057
      ],
      [
        "ĠprÅ¯vod",
        -9.981581025417917
      ],
      [
        "kaÅ¾dÃ½",
        -9.981870531613218
      ],
      [
        "Ġklas",
        -9.982423483172205
      ],
      [
        "Ġhrud",
        -9.983347352745145
      ],
      [
        "Ġmrtv",
        -9.984534733964587
      ],
      [
        "ĠlÃ¡n",
        -9.985129134992228
      ],
      [
        "ĠlÃŃbal",
        -9.985258458720367
      ],
      [
        "ĠsedÄĽl",
        -9.986115632848591
      ],
      [
        "ĠdÃ¡n",
        -9.98733880241424
      ],
      [
        "chom",
        -9.987486925456254
      ],
      [
        "Ġmatko",
        -9.989356863851363
      ],
      [
        "ovou",
        -9.989368120236845
      ],
      [
        "ĠvelikÃ½",
        -9.989530140900216
      ],
      [
        "ĠVÃ¡s",
        -9.989653295775279
      ],
      [
        "Ġpouti",
        -9.99036147176935
      ],
      [
        "ĠrodÃŃ",
        -9.99106845568226
      ],
      [
        "ĠkÅĻÃŃdel",
        -9.991453638860705
      ],
      [
        "ĠhrdÄĽ",
        -9.993101364391315
      ],
      [
        "ĠrÅ¯Å¾i",
        -9.994297641515391
      ],
      [
        "ĠkÅĻÃŃÅ¾e",
        -9.994527151786901
      ],
      [
        "Ġramen",
        -9.995254826331426
      ],
      [
        "ĠjÃŃÅ¾",
        -9.995314083964818
      ],
      [
        "VÃŃm",
        -9.995696826370114
      ],
      [
        "Ġkrov",
        -9.995986091648376
      ],
      [
        "ĠdÄĽvÄįe",
        -9.99610489475757
      ],
      [
        "ĠÅĻÃŃtÃŃ",
        -9.99671478538228
      ],
      [
        "ĠmnohÃ©",
        -9.99730311717559
      ],
      [
        "KÃ©Å¾",
        -9.997664625964108
      ],
      [
        "Ġstarost",
        -9.998458920834679
      ],
      [
        "ĠstÃ¡ÅĻÃŃ",
        -9.998893151559425
      ],
      [
        "Ġplna",
        -9.999295057194592
      ],
      [
        "Ġprahu",
        -9.99959237047738
      ],
      [
        "Ġslib",
        -9.999677543338054
      ],
      [
        "ĠbloudÃŃ",
        -10.000224617783
      ],
      [
        "ĠmlÄįk",
        -10.000511345523199
      ],
      [
        "ÄĽjÅ¡ÃŃ",
        -10.00065643695667
      ],
      [
        "Ġvsi",
        -10.000831025078114
      ],
      [
        "Ġdni",
        -10.00085046175294
      ],
      [
        "Ġkouzlo",
        -10.001400538433565
      ],
      [
        "ĠvolnÄĽ",
        -10.001774454180909
      ],
      [
        "Ġbalvan",
        -10.00273341075749
      ],
      [
        "ĠvÅ¾dyÅ¥",
        -10.003815005545906
      ],
      [
        "g",
        -10.005201508899553
      ],
      [
        "Ġvlna",
        -10.005589705800098
      ],
      [
        "ĠnadÄĽjÃŃ",
        -10.005754404145854
      ],
      [
        "ĠchladnÃ½",
        -10.007456669932708
      ],
      [
        "Ġvnad",
        -10.007549077879924
      ],
      [
        "ĠjasnÄĽ",
        -10.00772342671781
      ],
      [
        "ĠpÅĻedu",
        -10.008325534681148
      ],
      [
        "Ġzor",
        -10.008344629576376
      ],
      [
        "stvÃŃ",
        -10.008607338566422
      ],
      [
        "ĠumÄĽnÃŃ",
        -10.009507137123713
      ],
      [
        "ĠÅ¡ÃŃp",
        -10.01025771481704
      ],
      [
        "ĠdÃ½chÃ¡",
        -10.010621785481892
      ],
      [
        "Ġmatc",
        -10.011450696011895
      ],
      [
        "Ġhnal",
        -10.011689977521605
      ],
      [
        "Ġprudce",
        -10.01543207354584
      ],
      [
        "ĠpÅ¯lnoc",
        -10.015666545987504
      ],
      [
        "ĠjÃ¡sot",
        -10.015751954147916
      ],
      [
        "ĠÅ¡edÃ©",
        -10.015797319422362
      ],
      [
        "ĠprÃ¡vo",
        -10.016063929334257
      ],
      [
        "Ġbudem",
        -10.01704477962912
      ],
      [
        "Ġvolnost",
        -10.017081183445995
      ],
      [
        "?...",
        -10.017361329000895
      ],
      [
        "ĠvdÄĽk",
        -10.018208315530366
      ],
      [
        "Ġrov",
        -10.0205570066789
      ],
      [
        "ob",
        -10.021761672490172
      ],
      [
        "Ġkamen",
        -10.02283805429583
      ],
      [
        "Ġprosb",
        -10.023113461312455
      ],
      [
        "Ġlad",
        -10.023177365316933
      ],
      [
        "ĠtuÅ¡ÃŃ",
        -10.023473364456777
      ],
      [
        "ĠneznÃ¡",
        -10.023503943413093
      ],
      [
        "Ġjakby",
        -10.023842903183139
      ],
      [
        "ĠpravÃ©",
        -10.023883141067241
      ],
      [
        "ĠvzplÃ¡l",
        -10.024944539313598
      ],
      [
        "ĠÅ¡eru",
        -10.025117824282244
      ],
      [
        "ĠplÃ¡nÃŃ",
        -10.025212036679036
      ],
      [
        "Ġvoda",
        -10.025652028317879
      ],
      [
        "Proto",
        -10.028721657121995
      ],
      [
        "ĠvonnÃ½",
        -10.02946076742368
      ],
      [
        "Äįas",
        -10.02967930494107
      ],
      [
        "ĠhnÄĽvu",
        -10.029817776181051
      ],
      [
        "ĠradostÃŃ",
        -10.029827574686701
      ],
      [
        "ĠskrÃ½vÃ¡",
        -10.029838624748024
      ],
      [
        "ĠÅĻekla",
        -10.03001130697709
      ],
      [
        "Ġhlahol",
        -10.030094250276168
      ],
      [
        "touze",
        -10.030185624424881
      ],
      [
        "pan",
        -10.03069282607921
      ],
      [
        "ĠvÄĽnce",
        -10.03158732106252
      ],
      [
        "ĠdivnÃ©",
        -10.032340420711243
      ],
      [
        "Ġmilosti",
        -10.032666341670666
      ],
      [
        "ovÃ¡",
        -10.032705048178638
      ],
      [
        "Ġzlost",
        -10.03309950200208
      ],
      [
        "Ġtmou",
        -10.033114479073863
      ],
      [
        "ĠbyÅ¥",
        -10.033762186877087
      ],
      [
        "ĠvÄįel",
        -10.033889028841081
      ],
      [
        "Ġposled",
        -10.03435708756136
      ],
      [
        "ĠnadÄĽj",
        -10.034393482383958
      ],
      [
        "ĠdeÅ¡tÄĽ",
        -10.035077649718685
      ],
      [
        "ĠsvÃŃrÃ¡",
        -10.03543693068546
      ],
      [
        "ĠhrÃ¡t",
        -10.035929736354916
      ],
      [
        "vÅ¡ech",
        -10.0361279800008
      ],
      [
        "ĠleÅ¾el",
        -10.036590284310655
      ],
      [
        "ĠslzÃŃ",
        -10.037040967767659
      ],
      [
        "Ġhad",
        -10.03787576666974
      ],
      [
        "Ġpopel",
        -10.038757388771408
      ],
      [
        "dÃ¡",
        -10.04019967262954
      ],
      [
        "ĠtÃŃh",
        -10.042223890047936
      ],
      [
        "Ġjal",
        -10.042644853451073
      ],
      [
        "Ġbarev",
        -10.043507129118275
      ],
      [
        "Ġvin",
        -10.043631578530245
      ],
      [
        "Ġlodi",
        -10.043660010014303
      ],
      [
        "vat",
        -10.044065757792112
      ],
      [
        "ĠjinÃŃ",
        -10.044606101928403
      ],
      [
        "ĠobÄĽÅ¥",
        -10.044790216672176
      ],
      [
        "ĠveÄįera",
        -10.04480901226324
      ],
      [
        "ĠnÄĽkde",
        -10.045307419908088
      ],
      [
        "ĠsamÃ©",
        -10.04700035368505
      ],
      [
        "ĠotÄįe",
        -10.047761683539154
      ],
      [
        "Ġstolu",
        -10.048095334872027
      ],
      [
        "ĠchovÃ¡",
        -10.048725654009807
      ],
      [
        "ĠsnÄĽh",
        -10.049989311218702
      ],
      [
        "nosti",
        -10.051211510718224
      ],
      [
        "Ġjezer",
        -10.051753546732591
      ],
      [
        "ĠprÃ¡va",
        -10.052101934592134
      ],
      [
        "Ġnikde",
        -10.052249754641883
      ],
      [
        "Ġztratil",
        -10.052420250296422
      ],
      [
        "ĠpoÅ¾ehnÃ¡nÃŃ",
        -10.053172760101187
      ],
      [
        "jeÅ¡tÄĽ",
        -10.05400105641961
      ],
      [
        "ĠbÃ¡l",
        -10.054402725802131
      ],
      [
        "ĠÅ¡kol",
        -10.054504283460066
      ],
      [
        "Ġpsal",
        -10.054977258924904
      ],
      [
        "ĠÅ¾ivÃ©",
        -10.055075146253891
      ],
      [
        "ĠkÃ½vÃ¡",
        -10.055460696555107
      ],
      [
        "tys",
        -10.055487359317926
      ],
      [
        "Ġtrud",
        -10.056279883143771
      ],
      [
        "ĠspÃ¡s",
        -10.056281829950812
      ],
      [
        "ĠtvoÅĻÃŃ",
        -10.057081813519556
      ],
      [
        "ĠjinÃ½m",
        -10.057275080637954
      ],
      [
        "ĠblÃŃzk",
        -10.057315268112593
      ],
      [
        "ĠzpÄĽvu",
        -10.057814640728363
      ],
      [
        "Ġbor",
        -10.059041279109312
      ],
      [
        "Ġvesel",
        -10.059738895167836
      ],
      [
        "ĠdlouhÃ¡",
        -10.060133081608335
      ],
      [
        "Ġskoro",
        -10.060262864774336
      ],
      [
        "Ġsna",
        -10.061445758612166
      ],
      [
        "Ġjinoch",
        -10.06151953603619
      ],
      [
        "ĠJe",
        -10.061654028622986
      ],
      [
        "ĠdÄĽjin",
        -10.062294803292865
      ],
      [
        "ĠptÃ¡kÅ¯",
        -10.062781918901424
      ],
      [
        "Ġjed",
        -10.063604050669008
      ],
      [
        "ĠÃºdolÃŃ",
        -10.064035962236801
      ],
      [
        "sta",
        -10.064142643621668
      ],
      [
        "ĠzrakÅ¯",
        -10.064252502568106
      ],
      [
        "ĠTebe",
        -10.06483163111345
      ],
      [
        "ĠvstÃ¡vÃ¡",
        -10.065000810695398
      ],
      [
        "Ġskryl",
        -10.065818949026335
      ],
      [
        "Ġlamp",
        -10.066767077817335
      ],
      [
        "âĢĺ",
        -10.066817132081617
      ],
      [
        "vÃ©",
        -10.06781185035815
      ],
      [
        "ĠÅ¡ero",
        -10.070672623601968
      ],
      [
        "ĠchlÃ©b",
        -10.070752751872025
      ],
      [
        "ĠradÄĽj",
        -10.071377648969726
      ],
      [
        "ĠtajemstvÃŃ",
        -10.071719573427842
      ],
      [
        "Ġvelmi",
        -10.07182242548748
      ],
      [
        "Ġkvete",
        -10.07245245966616
      ],
      [
        "Ġvedl",
        -10.072643291945012
      ],
      [
        "Ġstanul",
        -10.073137495376267
      ],
      [
        "ĠpÄĽknÄĽ",
        -10.073317814440168
      ],
      [
        "ĠjemnÄĽ",
        -10.073868234919653
      ],
      [
        "lou",
        -10.073973987365502
      ],
      [
        "ĠvelkÃ½m",
        -10.074237958384746
      ],
      [
        "Ġpes",
        -10.074738477720786
      ],
      [
        "ĠKrista",
        -10.075778229041376
      ],
      [
        "ĠÄįemu",
        -10.076238857631926
      ],
      [
        "ĠsluÅ¾b",
        -10.076295489477285
      ],
      [
        "ĠrodnÃ©",
        -10.076812634408327
      ],
      [
        "ĠchudÃ½",
        -10.07693661061558
      ],
      [
        "Ġminul",
        -10.076986654614494
      ],
      [
        "ĠpracÃŃ",
        -10.077408019873413
      ],
      [
        "dÃŃ",
        -10.077791026380872
      ],
      [
        "dej",
        -10.07863865615384
      ],
      [
        "ĠsmrtÃŃ",
        -10.079183556523088
      ],
      [
        "proti",
        -10.079252346567992
      ],
      [
        "ĠloÅ¾i",
        -10.079535781497846
      ],
      [
        "Äı",
        -10.079624661395918
      ],
      [
        "ĠkoÅĻen",
        -10.081083038272737
      ],
      [
        "Ġjitro",
        -10.082133731917253
      ],
      [
        "Ġzdroj",
        -10.08215821504395
      ],
      [
        "ĠvÄĽtve",
        -10.082493040073023
      ],
      [
        "ĠvÄĽÄįnÃ¡",
        -10.082710926464353
      ],
      [
        "kolem",
        -10.082746537045523
      ],
      [
        "ĠstÃ¡ti",
        -10.083145079840012
      ],
      [
        "Ġkrb",
        -10.083357494416559
      ],
      [
        "Ġzdi",
        -10.083878992656896
      ],
      [
        "Ġrosy",
        -10.084137893492848
      ],
      [
        "ĠhrÅ¯zy",
        -10.085296687713056
      ],
      [
        "Ġsto",
        -10.085374943428706
      ],
      [
        "Ġdobu",
        -10.085506160440985
      ],
      [
        "Ġhrozn",
        -10.086165992810841
      ],
      [
        "Ġznal",
        -10.08654425727952
      ],
      [
        "ĠptÃ¡",
        -10.086763985733567
      ],
      [
        "ĠpryÄį",
        -10.086941819458607
      ],
      [
        "Ġnoha",
        -10.08717249729311
      ],
      [
        "Ġmraz",
        -10.087288711170014
      ],
      [
        "ĠspÃŃcÃŃ",
        -10.0882023327564
      ],
      [
        "ĠdennÃŃ",
        -10.089020304425505
      ],
      [
        "Å¯ÅĪ",
        -10.089254302769781
      ],
      [
        "ĠÅ¾ivotem",
        -10.089413886054896
      ],
      [
        "Ġnemoh",
        -10.089625607918938
      ],
      [
        "prostÅĻed",
        -10.089667592992132
      ],
      [
        "ĠPrah",
        -10.089884262747326
      ],
      [
        "Ġkles",
        -10.090676619382975
      ],
      [
        "Ġdaleko",
        -10.090807052939944
      ],
      [
        "ĠnechtÄĽl",
        -10.092136690381913
      ],
      [
        "zpÄĽv",
        -10.092778210162548
      ],
      [
        "!âĢľâĢľ",
        -10.092780278392667
      ],
      [
        "ĠdÄĽdin",
        -10.093280697912046
      ],
      [
        "Ġdrahou",
        -10.093839876531758
      ],
      [
        "ĠprÃ¡zdno",
        -10.094308849040555
      ],
      [
        "ĠÄįem",
        -10.095267000389166
      ],
      [
        "Ġmluv",
        -10.095805198574656
      ],
      [
        "ĠmocnÄĽ",
        -10.096246915091758
      ],
      [
        "chtÄĽl",
        -10.09637691650233
      ],
      [
        "ĠtÃŃÅ¾",
        -10.096727137871238
      ],
      [
        "ĠvÅ¡ednÃŃ",
        -10.096829477139902
      ],
      [
        "Ġkouzl",
        -10.096956919861125
      ],
      [
        "ĠvÃŃtÄĽzstvÃŃ",
        -10.097526222317068
      ],
      [
        "ĠprostÅĻed",
        -10.098357090673211
      ],
      [
        "ĠkaÅ¾dÃ½m",
        -10.0987512201614
      ],
      [
        "ĠkrÃ¡sou",
        -10.099597474719808
      ],
      [
        "ĠÃºzkost",
        -10.099638906116336
      ],
      [
        "ĠtrÅ¯nu",
        -10.100005644707593
      ],
      [
        "ĠkvÃŃlÃŃ",
        -10.10028002671558
      ],
      [
        "dech",
        -10.100385395324178
      ],
      [
        "ĠÅ¾Ã¡dÃ¡",
        -10.100473477941396
      ],
      [
        "Ġpra",
        -10.100675465222672
      ],
      [
        "nÃ¡Å¡",
        -10.10148728511108
      ],
      [
        "enÃŃ",
        -10.104112681881869
      ],
      [
        "ĠstÅĻedu",
        -10.104217887845213
      ],
      [
        "Ġluk",
        -10.104765081467828
      ],
      [
        "Ani",
        -10.105690998259838
      ],
      [
        "ÄĮas",
        -10.106884813513682
      ],
      [
        "jichÅ¾",
        -10.10718115084804
      ],
      [
        "zÅĻel",
        -10.107285188052522
      ],
      [
        "Ġbohu",
        -10.107327663383884
      ],
      [
        "ĠusmÃŃvÃ¡",
        -10.108426550092208
      ],
      [
        "ĠposlÃ©z",
        -10.109115586737254
      ],
      [
        "ĠpoutnÃŃk",
        -10.109754949074832
      ],
      [
        "ĠjÃŃmÅ¾",
        -10.109932440322687
      ],
      [
        "ĠmrakÅ¯",
        -10.110116078449803
      ],
      [
        "ĠrÃ¡ji",
        -10.110217099117396
      ],
      [
        "ĠzvÄĽst",
        -10.110763816198165
      ],
      [
        "Ġproudy",
        -10.111190535628689
      ],
      [
        "Ġkomu",
        -10.111426205537581
      ],
      [
        "Ġplyne",
        -10.111638018279717
      ],
      [
        "ĠpÅĻÃ¡l",
        -10.112158835499503
      ],
      [
        "ĠzÃ¡mk",
        -10.11227491642166
      ],
      [
        "ĠpustÃ½",
        -10.112307815272816
      ],
      [
        "ĠkrÃ¡tkÃ½",
        -10.112374094121709
      ],
      [
        "Mne",
        -10.112611689788835
      ],
      [
        "Ġnemoc",
        -10.11270646054356
      ],
      [
        "Ġklade",
        -10.112785739645297
      ],
      [
        "ĠÄįet",
        -10.113030687338824
      ],
      [
        "ĠslavÃŃk",
        -10.113662317351796
      ],
      [
        "BoÅ¾e",
        -10.11368914746471
      ],
      [
        "ĠvÄĽdÄĽl",
        -10.114650121055135
      ],
      [
        "ĠnÄĽh",
        -10.114944355286259
      ],
      [
        "Ġnesou",
        -10.115024710694659
      ],
      [
        "iny",
        -10.115643296710067
      ],
      [
        "ĠznÃ¡t",
        -10.115952864563534
      ],
      [
        "Ġpostav",
        -10.116340150660289
      ],
      [
        "mÃ¡m",
        -10.117358667448102
      ],
      [
        "ĠnepÅĻÃ¡tel",
        -10.11753737168588
      ],
      [
        "ĠzpÃŃvat",
        -10.118164827048252
      ],
      [
        "ĠhroznÃ½",
        -10.11891226851212
      ],
      [
        "ĠvÄĽÅ¾ÃŃ",
        -10.119350231966012
      ],
      [
        "Ġdlouhou",
        -10.119662538206057
      ],
      [
        "LÃ¡ska",
        -10.119908607318763
      ],
      [
        "ĠvaÅ¡ÃŃ",
        -10.121454269878189
      ],
      [
        "ĠobliÄįej",
        -10.121661141159239
      ],
      [
        "ĠvesmÃŃr",
        -10.122060261003973
      ],
      [
        "Ġdol",
        -10.122189766817865
      ],
      [
        "ovÃ½m",
        -10.122409546412484
      ],
      [
        "Ġpark",
        -10.122567894412196
      ],
      [
        "ĠÅ¾alu",
        -10.122735548923536
      ],
      [
        "ĠdivÃ©",
        -10.123421362302576
      ],
      [
        "ĠÄįÃŃÅ¡e",
        -10.124023097101215
      ],
      [
        "ĠdobrÃ¡",
        -10.12402773436666
      ],
      [
        "Ġhod",
        -10.12426795083989
      ],
      [
        "ĠstoupÃ¡",
        -10.124351005287632
      ],
      [
        "Ġkrajem",
        -10.125381417530317
      ],
      [
        "ĠmÃŃstÄĽ",
        -10.125442423647918
      ],
      [
        "Ġklesl",
        -10.125609525663695
      ],
      [
        "ĠnosÃŃ",
        -10.125695553626958
      ],
      [
        "Kdyby",
        -10.125786574553498
      ],
      [
        "ĠzapomnÄĽl",
        -10.126832267766344
      ],
      [
        "PÅĻes",
        -10.127467469681035
      ],
      [
        "ĠletnÃŃ",
        -10.128196376475682
      ],
      [
        "nejkrÃ¡snÄĽjÅ¡ÃŃ",
        -10.13018046310793
      ],
      [
        "Ġmed",
        -10.130736505596635
      ],
      [
        "ĠbÄĽh",
        -10.131225829960806
      ],
      [
        "ĠzÅĻÃŃt",
        -10.131801699906532
      ],
      [
        "ChtÄĽl",
        -10.132065306741275
      ],
      [
        "Ġbudi",
        -10.132222878770602
      ],
      [
        "ĠvzpomÃŃnk",
        -10.13244170849348
      ],
      [
        "Ġkostel",
        -10.132746195158017
      ],
      [
        "mÄĽ",
        -10.132963517206061
      ],
      [
        "Ġmilost",
        -10.134081742344947
      ],
      [
        "Ġspal",
        -10.13436069088949
      ],
      [
        "ĠÅ¡Å¥ast",
        -10.134584295414205
      ],
      [
        "Ġtrest",
        -10.137212736811215
      ],
      [
        "ĠvznÃ¡Å¡ÃŃ",
        -10.137829815342085
      ],
      [
        "ĠpojÄı",
        -10.138934140897604
      ],
      [
        "ĠÅ¾havÃ©",
        -10.14111925385075
      ],
      [
        "Ġhloubk",
        -10.143697697871298
      ],
      [
        "ĠmoÅĻem",
        -10.144260952226151
      ],
      [
        "Ġnitro",
        -10.144808207751566
      ],
      [
        "ĠnejvÃŃc",
        -10.145825036149732
      ],
      [
        "ĠcelÃ©m",
        -10.147344620986102
      ],
      [
        "ĠmrtvÃ½",
        -10.147549534310802
      ],
      [
        "Ġzve",
        -10.147682027283837
      ],
      [
        "Ġlebk",
        -10.147962305807882
      ],
      [
        "Ġlev",
        -10.148280991440522
      ],
      [
        "Ġjist",
        -10.14863652675889
      ],
      [
        "ĠmlÃ½n",
        -10.149461841835517
      ],
      [
        "ĠdÃŃv",
        -10.149638207636453
      ],
      [
        "ĠprÃ¡zdn",
        -10.149734274423311
      ],
      [
        "Ġvtip",
        -10.149747452198888
      ],
      [
        "ĠtichÃ©m",
        -10.150198859847809
      ],
      [
        "ĠpoÅ¾Ã¡r",
        -10.150679083181572
      ],
      [
        "ĠsamÃ½",
        -10.150762068647172
      ],
      [
        "Ġlidi",
        -10.150965863346752
      ],
      [
        "Ġjindy",
        -10.151490100219855
      ],
      [
        "ĠvÄĽku",
        -10.15164773217208
      ],
      [
        "ĠslavnÄĽ",
        -10.151899354787785
      ],
      [
        "ĠstrÃ¡nÃŃ",
        -10.15191936707324
      ],
      [
        "Ġznak",
        -10.154206886381116
      ],
      [
        "ĠplÃ¡t",
        -10.15494671663757
      ],
      [
        "ĠbÃŃt",
        -10.155293394618965
      ],
      [
        "Ġmohla",
        -10.155392240772494
      ],
      [
        "ĠznÃ¡mÃ½",
        -10.155520778895633
      ],
      [
        "ĠprostÃ©",
        -10.155606473243996
      ],
      [
        "ĠbÃŃdu",
        -10.156466214138362
      ],
      [
        "L",
        -10.15686625719495
      ],
      [
        "ĠÄįel",
        -10.1572281656563
      ],
      [
        "cÃ½",
        -10.157433745992742
      ],
      [
        "VÅ¡ecko",
        -10.157546367141041
      ],
      [
        "ĠpoÄįal",
        -10.158500696437018
      ],
      [
        "Ġzima",
        -10.158605251378916
      ],
      [
        "eÄı",
        -10.158663116587736
      ],
      [
        "ĠvroucnÄĽ",
        -10.15869475836253
      ],
      [
        "Ġchodil",
        -10.159449166372017
      ],
      [
        "ĠdrÅ¾ÃŃ",
        -10.161000268859059
      ],
      [
        "Ġsilo",
        -10.161031283379884
      ],
      [
        "Ġrodin",
        -10.162228210658881
      ],
      [
        "bec",
        -10.162859651697051
      ],
      [
        "ĠchvÃŃlÃŃ",
        -10.16314283813897
      ],
      [
        "Jenom",
        -10.163519225825251
      ],
      [
        "ĠcÃŃli",
        -10.164065217224504
      ],
      [
        "div",
        -10.16459614554444
      ],
      [
        "Hoj",
        -10.166025866943583
      ],
      [
        "ĠÅ¡kod",
        -10.166068154318507
      ],
      [
        "Ġhrdin",
        -10.166285624105985
      ],
      [
        "Ġdnesk",
        -10.166697710152615
      ],
      [
        "ĠhÃ¡je",
        -10.167199522174812
      ],
      [
        "Ġtrav",
        -10.167959481702898
      ],
      [
        "Ġkosti",
        -10.168379240473389
      ],
      [
        "ĠvzÃŃt",
        -10.168481185432373
      ],
      [
        "Ġjestli",
        -10.170266414333307
      ],
      [
        "ĠpozdnÃŃ",
        -10.170392906059034
      ],
      [
        "ĠhnutÃŃ",
        -10.17040709912143
      ],
      [
        "Ġklenb",
        -10.170850026693707
      ],
      [
        "ĠchvÄĽla",
        -10.171795816756712
      ],
      [
        "ÄįistÃ¡",
        -10.173232233369966
      ],
      [
        "Ġprs",
        -10.174872533273783
      ],
      [
        "ĠzvonÅ¯",
        -10.174894260443885
      ],
      [
        "Ġp",
        -10.175243747756625
      ],
      [
        "ĠnemÅ¯Å¾e",
        -10.175298185313917
      ],
      [
        "ĠvlÃ¡dne",
        -10.175816569919782
      ],
      [
        "ĠdvÃ©ÅĻe",
        -10.175999572862912
      ],
      [
        "nutÃŃ",
        -10.176217096606699
      ],
      [
        "Ġmilou",
        -10.176401396081715
      ],
      [
        "Jde",
        -10.177244175689587
      ],
      [
        "Ġlun",
        -10.177288289167135
      ],
      [
        "Ġb",
        -10.177350789780494
      ],
      [
        "Ġjednom",
        -10.178458437435982
      ],
      [
        "nÃ¡s",
        -10.179355342218003
      ],
      [
        "ĠvÅ¡ickn",
        -10.180000868034867
      ],
      [
        "ĠoÄįim",
        -10.180106352865998
      ],
      [
        "ĠkrÃ¡snou",
        -10.180255243745085
      ],
      [
        "ĠumÃŃ",
        -10.180677739265224
      ],
      [
        "ĠstÃ¡d",
        -10.180704810275827
      ],
      [
        "ĠpozdÄĽ",
        -10.181102010507441
      ],
      [
        "sÅ¥",
        -10.1811515572962
      ],
      [
        "Ġzdar",
        -10.181194262172795
      ],
      [
        "ĠhonÃŃ",
        -10.181300987122944
      ],
      [
        "ĠdnÄĽ",
        -10.181604384367226
      ],
      [
        "juÅ¾",
        -10.181958067624947
      ],
      [
        "ĠskrÃ¡nÄĽ",
        -10.18226397483457
      ],
      [
        "ĠplnÃŃ",
        -10.182570438227245
      ],
      [
        "jdeÅ¡",
        -10.182751297800163
      ],
      [
        "ĠdÄĽla",
        -10.183948140216451
      ],
      [
        "ĠpÅ¯vab",
        -10.184078402835123
      ],
      [
        "C",
        -10.184610545142565
      ],
      [
        "ĠÅĺÃŃm",
        -10.185226892144426
      ],
      [
        "ĠtÄĽÅ¾kÃ¡",
        -10.185615559009154
      ],
      [
        "ĠruÄįk",
        -10.185916979924228
      ],
      [
        "ĠverÅ¡e",
        -10.186565841302853
      ],
      [
        "Ġhyne",
        -10.186880346148488
      ],
      [
        "Ha",
        -10.187680523061118
      ],
      [
        "Ġhanb",
        -10.188197228490141
      ],
      [
        "ĠbojÃŃ",
        -10.188894442764148
      ],
      [
        "ĠvÄĽcÃŃ",
        -10.189150574458132
      ],
      [
        "Ġrosa",
        -10.18917179389695
      ],
      [
        "ĠjÃ¡sÃ¡",
        -10.189413923110912
      ],
      [
        "lÃ½",
        -10.189895553506158
      ],
      [
        "stÃ¡l",
        -10.190306717414607
      ],
      [
        "manÄĽ",
        -10.190929668284026
      ],
      [
        "Ġtvar",
        -10.19162821434633
      ],
      [
        "ĠhÃ¡zÃŃ",
        -10.191747424418958
      ],
      [
        "Jsme",
        -10.191756586348543
      ],
      [
        "Ġnebude",
        -10.19177468686918
      ],
      [
        "ĠvaÅ¡ich",
        -10.191833708183646
      ],
      [
        "Ġptal",
        -10.192092080835774
      ],
      [
        "koneÄįnÄĽ",
        -10.192341839578868
      ],
      [
        "ĠskÃ¡le",
        -10.192699374353758
      ],
      [
        "mÃŃr",
        -10.195103751516289
      ],
      [
        "Ġchas",
        -10.195292934138038
      ],
      [
        "Ġkov",
        -10.195423034710807
      ],
      [
        "Ġvrchol",
        -10.195670945100652
      ],
      [
        "Ġrys",
        -10.195786797996693
      ],
      [
        "ĠpÅĻelud",
        -10.195837299878933
      ],
      [
        "ĠkÃ¡Å¾e",
        -10.195874812154987
      ],
      [
        "ĠÅ¾Ã¡dn",
        -10.196174406680965
      ],
      [
        "ĠtÃ¡hnou",
        -10.196883985785034
      ],
      [
        "ĠVÃ¡clav",
        -10.197431500798192
      ],
      [
        "bude",
        -10.198186177322185
      ],
      [
        "ĠjedinÃ©",
        -10.200698293645065
      ],
      [
        "Ġpadla",
        -10.201866766410893
      ],
      [
        "zÅĻÃŃ",
        -10.202381148603406
      ],
      [
        "TvÃ¡",
        -10.202405304682625
      ],
      [
        "ĠbolestÃŃ",
        -10.203471986337668
      ],
      [
        "NÃ¡m",
        -10.203576491344425
      ],
      [
        "Ġhlubok",
        -10.203762354873826
      ],
      [
        "ĠblÃŃzko",
        -10.203970503828106
      ],
      [
        "Ġtichou",
        -10.204010754880525
      ],
      [
        "Ġnejsem",
        -10.204087323496424
      ],
      [
        "ĠpÄĽstÃŃ",
        -10.205338072479883
      ],
      [
        "Ġmnich",
        -10.20544993488551
      ],
      [
        "Duch",
        -10.205494704018918
      ],
      [
        "ĠjednÃŃ",
        -10.206002212804188
      ],
      [
        "ĠvÃ¡Å¾nÄĽ",
        -10.20654761187631
      ],
      [
        "Å¾ÃŃ",
        -10.206775534344201
      ],
      [
        "Ġsic",
        -10.207431396417729
      ],
      [
        "Ġdle",
        -10.207605597568353
      ],
      [
        "ĠÃºÅ¾as",
        -10.207655351578854
      ],
      [
        "dÃŃlo",
        -10.209443336657785
      ],
      [
        "Ġleb",
        -10.211927517691795
      ],
      [
        "ĠprchÃ¡",
        -10.21210205618004
      ],
      [
        "ĠlÃŃto",
        -10.21344339184268
      ],
      [
        "Ġnutno",
        -10.21428603539754
      ],
      [
        "ĠÅ¡Å¥astnÃ½",
        -10.215470372155906
      ],
      [
        "ĠsilnÃ½",
        -10.215583058597906
      ],
      [
        "zÅĻÃŃÅ¡",
        -10.215686602942183
      ],
      [
        "byÅ¥",
        -10.21574602269157
      ],
      [
        "ĠvÄĽrnÄĽ",
        -10.216611517615133
      ],
      [
        "Ġshon",
        -10.217264169527102
      ],
      [
        "ĠbratÅĻe",
        -10.217268719223945
      ],
      [
        "Slunce",
        -10.217525188756529
      ],
      [
        "SvÃ©",
        -10.217631048005998
      ],
      [
        "Ġlesku",
        -10.218456641298435
      ],
      [
        "ĠkÅĻiÄįÃŃ",
        -10.218665284121261
      ],
      [
        "ĠpÅĻiÅ¡l",
        -10.219331950625325
      ],
      [
        "Ġzved",
        -10.219845775495871
      ],
      [
        "DÃ¡l",
        -10.220136218328705
      ],
      [
        "ĠkrÅ¯pÄĽj",
        -10.220492651244745
      ],
      [
        "ĠÄįinÃŃ",
        -10.221224280775012
      ],
      [
        "ĠsvÄĽtel",
        -10.221785429872106
      ],
      [
        "Ġkruhu",
        -10.222120120466538
      ],
      [
        "ĠchvÄĽjÃŃ",
        -10.22271679061406
      ],
      [
        "ĠsÃŃnÄĽ",
        -10.223461590939582
      ],
      [
        "noc",
        -10.223692565152135
      ],
      [
        "ĠneznÃ¡m",
        -10.224290501896068
      ],
      [
        "ĠvÄĽÅĻÃŃ",
        -10.225168910886243
      ],
      [
        "ĠzdrÃ¡v",
        -10.226205269633711
      ],
      [
        "Ġsever",
        -10.226443438179402
      ],
      [
        "ĠprÃ¡h",
        -10.226963922958934
      ],
      [
        "ĠkvÃ©st",
        -10.227025819890596
      ],
      [
        "nes",
        -10.227244324987241
      ],
      [
        "Ġplanou",
        -10.227727229979156
      ],
      [
        "Ġpluh",
        -10.228110616500548
      ],
      [
        "Ġzvolal",
        -10.228127181600305
      ],
      [
        "stÃŃn",
        -10.230856610207104
      ],
      [
        "KvÄĽt",
        -10.231649367633844
      ],
      [
        "Ġtehdy",
        -10.231990387494148
      ],
      [
        "ĠmÃ¡ti",
        -10.233234593549192
      ],
      [
        "ĠnevÄĽst",
        -10.233609619634937
      ],
      [
        "ĠÄįernou",
        -10.234270942551873
      ],
      [
        "Ġmilovat",
        -10.234804806636998
      ],
      [
        "ĠsnÃŃt",
        -10.23496628052531
      ],
      [
        "ĠvÃ¡lk",
        -10.23586207480208
      ],
      [
        "Takto",
        -10.235864126912244
      ],
      [
        "Ġnechal",
        -10.235954785769039
      ],
      [
        "Ġstezk",
        -10.2366867753564
      ],
      [
        "svÃ½ch",
        -10.237376286335515
      ],
      [
        "ĠOn",
        -10.237596182133345
      ],
      [
        "ĠÅĻeka",
        -10.238538859044322
      ],
      [
        "ĠzlatÃ½m",
        -10.238845134855783
      ],
      [
        "Ġstan",
        -10.239163203950799
      ],
      [
        "Ġzlob",
        -10.239599084248852
      ],
      [
        "Ġmistr",
        -10.239789022309235
      ],
      [
        "ĠjakÃ¡",
        -10.2398376015432
      ],
      [
        "Ġluz",
        -10.241551148151547
      ],
      [
        "ajÃŃcÃŃ",
        -10.241690366304393
      ],
      [
        "Ġhrot",
        -10.241697711202889
      ],
      [
        "ĠbuÅ¡ÃŃ",
        -10.241783333996509
      ],
      [
        "ĠTv",
        -10.24276896213064
      ],
      [
        "tvÃ¡",
        -10.244154908366752
      ],
      [
        "Ġobou",
        -10.244420449359122
      ],
      [
        "ĠÅ¾enÄĽ",
        -10.244455658555196
      ],
      [
        "Ġbrach",
        -10.245486264420716
      ],
      [
        "tvÃ¡ÅĻ",
        -10.245659255330226
      ],
      [
        "ĠrÃ¡mÄĽ",
        -10.246022862638373
      ],
      [
        "RÃ¡d",
        -10.24615007704681
      ],
      [
        "ĠjejÃŃch",
        -10.246179366254909
      ],
      [
        "Ku",
        -10.24653952531149
      ],
      [
        "Ġpeklo",
        -10.246620871787425
      ],
      [
        "Ġpann",
        -10.24766130337072
      ],
      [
        "Ġano",
        -10.24814895817831
      ],
      [
        "ĠmarnÃ©",
        -10.248170790549521
      ],
      [
        "ĠnovÃ½m",
        -10.248334281417197
      ],
      [
        "jdou",
        -10.249041192674746
      ],
      [
        "Ej",
        -10.249042544890468
      ],
      [
        "Ġrve",
        -10.249086933527856
      ],
      [
        "ĠpravdÄĽ",
        -10.249921867323005
      ],
      [
        "ĠÅĻekne",
        -10.249996323730404
      ],
      [
        "ĠsvÄĽdomÃŃ",
        -10.250261596744298
      ],
      [
        "Ġozval",
        -10.250645540949265
      ],
      [
        "ĠtÅĻÃ¡sl",
        -10.250921981834809
      ],
      [
        "Ni",
        -10.251262621848184
      ],
      [
        "ĠpalÃ¡c",
        -10.251301979026515
      ],
      [
        "ĠvelikÃ©",
        -10.251490887865982
      ],
      [
        "Ġved",
        -10.253904537594064
      ],
      [
        "ĠlÃ©pe",
        -10.254248406314504
      ],
      [
        "Ġklad",
        -10.254277791294252
      ],
      [
        "ĠpÅ¯jde",
        -10.254358312528794
      ],
      [
        "Ġpolo",
        -10.255462027610207
      ],
      [
        "Å¡ly",
        -10.255745503954042
      ],
      [
        "ĠpÄĽnÃŃ",
        -10.256874556559037
      ],
      [
        "ĠkolÃ©bk",
        -10.257013873449228
      ],
      [
        "vÃ½",
        -10.257209294359544
      ],
      [
        "Ġroj",
        -10.257286088984817
      ],
      [
        "eÅ¡el",
        -10.25896885863066
      ],
      [
        "ĠJen",
        -10.259019962903025
      ],
      [
        "nÄĽte",
        -10.25927755624345
      ],
      [
        "Ġstrachu",
        -10.259315734925718
      ],
      [
        "Ġhejn",
        -10.25935893996223
      ],
      [
        "lÃŃp",
        -10.259560493827944
      ],
      [
        "ĠstaÅĻec",
        -10.259783072428274
      ],
      [
        "zÅĻÃŃm",
        -10.260003080229868
      ],
      [
        "kÃ½",
        -10.260364770279832
      ],
      [
        "Ġsled",
        -10.260389985959334
      ],
      [
        "vÄĽ",
        -10.260770253550795
      ],
      [
        "ru",
        -10.260806179410789
      ],
      [
        "Ġzrad",
        -10.262090834602091
      ],
      [
        "ĠhrajÃŃ",
        -10.26252178205894
      ],
      [
        "Ġsmutno",
        -10.263574245916292
      ],
      [
        "krÃ¡l",
        -10.264712038515057
      ],
      [
        "Ġsten",
        -10.265166699968757
      ],
      [
        "Sem",
        -10.265803176904873
      ],
      [
        "ĠplÃ¡Äįem",
        -10.265864537759162
      ],
      [
        "ĠtÄĽÅ¡ÃŃ",
        -10.266333497689143
      ],
      [
        "Ġjede",
        -10.26764931728125
      ],
      [
        "ĠlÃ©t",
        -10.267657367994152
      ],
      [
        "Ġslavn",
        -10.26795644154955
      ],
      [
        "ĠnoÅĻÃŃ",
        -10.269336284581133
      ],
      [
        "jdeme",
        -10.269877902770062
      ],
      [
        "Ġhledat",
        -10.269962129501131
      ],
      [
        "ĠkrÃ¡lovn",
        -10.271003714172577
      ],
      [
        "ĠpouÅ¡ti",
        -10.27197397698161
      ],
      [
        "Ġzjevil",
        -10.272597068904867
      ],
      [
        "ĠzbranÄĽ",
        -10.27336674894053
      ],
      [
        "ĠnaÄį",
        -10.27385134140964
      ],
      [
        "ĠletÄĽl",
        -10.27462085867666
      ],
      [
        "ĠplÃ¡Å¡Å¥",
        -10.27465610595555
      ],
      [
        "ĠznamenÃŃ",
        -10.274692060986691
      ],
      [
        "ĠtÃ¡hl",
        -10.275163055838235
      ],
      [
        "ĠjÃŃmÃ¡",
        -10.275212152340824
      ],
      [
        "ĠbÃŃda",
        -10.275524231749348
      ],
      [
        "ĠzmÃŃrÃ¡",
        -10.275718184271334
      ],
      [
        "Ġticha",
        -10.2759019398479
      ],
      [
        "ĠzaÄįal",
        -10.276217190926257
      ],
      [
        "ĠpojÃŃ",
        -10.276238919328563
      ],
      [
        "ĠmlÃ¡d",
        -10.278560852835543
      ],
      [
        "ĠsvÃŃtil",
        -10.278587320814152
      ],
      [
        "muÅ¾",
        -10.280000392081314
      ],
      [
        "ĠzvuÄįÃŃ",
        -10.280214840492892
      ],
      [
        "Ġpadal",
        -10.28077273654563
      ],
      [
        "Ġstatk",
        -10.282139928119808
      ],
      [
        "tmu",
        -10.282368519229816
      ],
      [
        "ĠchvÄĽnÃŃ",
        -10.282566246885533
      ],
      [
        "Ġsamo",
        -10.282693783206806
      ],
      [
        "ĠryzÃŃ",
        -10.283165497239047
      ],
      [
        "ĠvÃŃtÃ¡",
        -10.283199891481974
      ],
      [
        "ĠsmÄĽlÃ½",
        -10.283948125348527
      ],
      [
        "ĠjakÃ½s",
        -10.284245975450094
      ],
      [
        "ĠjinÃ¡",
        -10.284636570726377
      ],
      [
        "Sotva",
        -10.284686687621956
      ],
      [
        "Ġbod",
        -10.284786068938873
      ],
      [
        "ĠKare",
        -10.284808594186542
      ],
      [
        "ĠÅ¡eptÃ¡",
        -10.285102810059634
      ],
      [
        "Ġono",
        -10.28576709515779
      ],
      [
        "ĠÅĻetÄĽz",
        -10.285796255152892
      ],
      [
        "ĠnÄĽÅ¾",
        -10.285814572696735
      ],
      [
        "Ġpusto",
        -10.286215812402782
      ],
      [
        "ostÃŃ",
        -10.28679033279698
      ],
      [
        "Ã¡n",
        -10.286903541537932
      ],
      [
        "ĠzbraÅĪ",
        -10.28702691256079
      ],
      [
        "sti",
        -10.287179503947431
      ],
      [
        "ĠonÃ©",
        -10.28743913197741
      ],
      [
        "ĠstokrÃ¡t",
        -10.287538613234428
      ],
      [
        "Ġstud",
        -10.288024680499454
      ],
      [
        "ĠzvÄĽÅĻ",
        -10.2884289276863
      ],
      [
        "sen",
        -10.288730671566825
      ],
      [
        "Ġcitu",
        -10.289477002936149
      ],
      [
        "ĠstÃ¡li",
        -10.289617795878195
      ],
      [
        "ĠrozkoÅ¡e",
        -10.289979248342153
      ],
      [
        "Ġpropasti",
        -10.290390505610372
      ],
      [
        "ĠhroznÃ©",
        -10.29070184274085
      ],
      [
        "ĠzÃ¡ÅĻÃŃcÃŃ",
        -10.291074470209463
      ],
      [
        "ĠvÄĽtrÅ¯",
        -10.29107994408006
      ],
      [
        "Ġkomnat",
        -10.291623530238718
      ],
      [
        "ĠsÃŃn",
        -10.291957570267698
      ],
      [
        "ĠnÃŃmÅ¾",
        -10.29202821517179
      ],
      [
        "Ġchcete",
        -10.292455763576875
      ],
      [
        "ĠprosÃŃ",
        -10.29247885164336
      ],
      [
        "Ġhmot",
        -10.292943872716029
      ],
      [
        "ĠsvÄĽtlÃ½",
        -10.29331502209677
      ],
      [
        "Ġmyslil",
        -10.293414332228169
      ],
      [
        "ĠstrÃ¡n",
        -10.294180431022276
      ],
      [
        "Ġvesn",
        -10.295929109913262
      ],
      [
        "ĠdvÃ©",
        -10.296560153398747
      ],
      [
        "mÅ¯Å¾eÅ¡",
        -10.296750418832882
      ],
      [
        "Ġdcera",
        -10.297684658789324
      ],
      [
        "ĠplaÅ¡e",
        -10.298152569586751
      ],
      [
        "ĠbÅĻehÅ¯",
        -10.298223296461533
      ],
      [
        "Ġves",
        -10.298648773848383
      ],
      [
        "Ġbyt",
        -10.29871426383447
      ],
      [
        "ĠpÃ¡na",
        -10.29896994706655
      ],
      [
        "ĠpustÃ©",
        -10.299644329717369
      ],
      [
        "ĠnesmÃŃ",
        -10.301089833450739
      ],
      [
        "mezi",
        -10.301760688278748
      ],
      [
        "Ġchvil",
        -10.302688360537385
      ],
      [
        "MuÅ¾",
        -10.302983490931414
      ],
      [
        "ĠdivnÄĽ",
        -10.303313607853708
      ],
      [
        "pomalu",
        -10.303463000678242
      ],
      [
        "Ġvrat",
        -10.304472248000614
      ],
      [
        "ĠslavÃŃ",
        -10.304681041014465
      ],
      [
        "Ġpolibk",
        -10.304977411070682
      ],
      [
        "hlav",
        -10.305333534003044
      ],
      [
        "Ġvzlet",
        -10.305933327320183
      ],
      [
        "ĠzprÃ¡v",
        -10.306174652997756
      ],
      [
        "neÅ¾li",
        -10.306451339371801
      ],
      [
        "ĠstÅ¯l",
        -10.308483691739461
      ],
      [
        "ĠnepÅĻÃŃtel",
        -10.308607711464527
      ],
      [
        "ĠkÅĻÃŃdle",
        -10.30874828032177
      ],
      [
        "ĠÃºd",
        -10.309164329785204
      ],
      [
        "jeho",
        -10.311801345184474
      ],
      [
        "TÃŃm",
        -10.31214996717287
      ],
      [
        "Ġtlum",
        -10.312238429772442
      ],
      [
        "Ġbrad",
        -10.312311500417223
      ],
      [
        "ĠtÄĽmi",
        -10.312363562153118
      ],
      [
        "Ġkat",
        -10.312661354600401
      ],
      [
        "ĠvrÃ¡sk",
        -10.3132866626274
      ],
      [
        "ĠsÃŃle",
        -10.313558897449811
      ],
      [
        "ĠhrozÃŃ",
        -10.314006085692116
      ],
      [
        "Ġpar",
        -10.314097822088403
      ],
      [
        "ĠnevidÄĽl",
        -10.315183776601568
      ],
      [
        "Ano",
        -10.315500039817403
      ],
      [
        "Ġcti",
        -10.315700374876036
      ],
      [
        "ĠdnÃŃ",
        -10.315918348435314
      ],
      [
        "Ġnesl",
        -10.316233918411122
      ],
      [
        "Ġohlas",
        -10.31644744097269
      ],
      [
        "ĠpouhÃ½",
        -10.316674998597323
      ],
      [
        "ĠhrÅ¯za",
        -10.317404766035736
      ],
      [
        "Ġnitra",
        -10.318061544228353
      ],
      [
        "Ġkoho",
        -10.318237571675356
      ],
      [
        "ĠzÃ¡Å¡tÃŃ",
        -10.318396980668808
      ],
      [
        "vÅ¯r",
        -10.31841904891732
      ],
      [
        "ĠvÄĽÄįn",
        -10.318546851635194
      ],
      [
        "Ġdvor",
        -10.320078351957257
      ],
      [
        "Ġpal",
        -10.320970690020953
      ],
      [
        "ĠÄįÃŃst",
        -10.321943779305325
      ],
      [
        "Ġmimo",
        -10.322020726638273
      ],
      [
        "ĠkrutÃ½",
        -10.322142418046873
      ],
      [
        "Ġkola",
        -10.322249321137985
      ],
      [
        "Ġkvetl",
        -10.322261211147888
      ],
      [
        "ĠhlubokÃ½",
        -10.322399967839374
      ],
      [
        "ĠchystÃ¡",
        -10.323043347316215
      ],
      [
        "ĠvÃŃÅĻÃŃ",
        -10.323130039325724
      ],
      [
        "ĠpapeÅ¾",
        -10.324044616518464
      ],
      [
        "ĠpouÅ¡tÃŃ",
        -10.32432414028698
      ],
      [
        "ĠvÃ¡bÃŃ",
        -10.325065887000918
      ],
      [
        "Ġdivy",
        -10.325873970680746
      ],
      [
        "ĠprostÃ½",
        -10.326520689345415
      ],
      [
        "ĠvlÃ¡d",
        -10.326630040510823
      ],
      [
        "jste",
        -10.328037402103405
      ],
      [
        "ĠnaÅ¡em",
        -10.328271221872182
      ],
      [
        "DÅĻÃŃv",
        -10.329075684907988
      ],
      [
        "ĠpÅĻÃŃmo",
        -10.330120491162496
      ],
      [
        "Ġtemnot",
        -10.330438043675313
      ],
      [
        "nce",
        -10.330454397176108
      ],
      [
        "ĠsmÄĽs",
        -10.330626406889824
      ],
      [
        "Ġpot",
        -10.331673303528614
      ],
      [
        "MÄĽl",
        -10.331716195604278
      ],
      [
        "ĠzmÄĽn",
        -10.33180589057567
      ],
      [
        "ĠpÄĽje",
        -10.332586158413896
      ],
      [
        "Ġohni",
        -10.332675347323445
      ],
      [
        "An",
        -10.332805923504596
      ],
      [
        "ĠmoÅĻÃŃ",
        -10.332990439344584
      ],
      [
        "Ġmrav",
        -10.333214233788416
      ],
      [
        "ĠsmÄĽr",
        -10.333215635315613
      ],
      [
        "ĠdÄĽlÃ¡",
        -10.334183853118944
      ],
      [
        "ĠzbranÃŃ",
        -10.334858210794533
      ],
      [
        "ĠvÃ¡l",
        -10.334910784609749
      ],
      [
        "ĠpolÃŃbenÃŃ",
        -10.335631592113394
      ],
      [
        "ĠpestrÃ½",
        -10.335635279100892
      ],
      [
        "ĠneÅ¡tÄĽstÃŃ",
        -10.335693334671273
      ],
      [
        "ĠÅ¾ebrÃ¡k",
        -10.33610886749732
      ],
      [
        "ĠzlatÃŃ",
        -10.336981911948754
      ],
      [
        "ĠÅ¾houcÃŃ",
        -10.337173104930088
      ],
      [
        "Ġmile",
        -10.33772563733173
      ],
      [
        "naÄį",
        -10.338270000856127
      ],
      [
        "ĠvidÃŃÅ¡",
        -10.338827516768763
      ],
      [
        "ĠvlÃ¡h",
        -10.339129295669109
      ],
      [
        "Ġpochod",
        -10.339371223610145
      ],
      [
        "pÃŃ",
        -10.33939992647862
      ],
      [
        "ĠmÄĽj",
        -10.340753164323731
      ],
      [
        "Ġtemno",
        -10.340834267743594
      ],
      [
        "ĠblaÅ¾en",
        -10.341403407786107
      ],
      [
        "ĠdunÃŃ",
        -10.341610015710895
      ],
      [
        "nec",
        -10.341763698929476
      ],
      [
        "nenÃŃ",
        -10.341827182087773
      ],
      [
        "ĠdÃ¡vnÃ©",
        -10.342276163697719
      ],
      [
        "Ġdostal",
        -10.342430142976063
      ],
      [
        "ĠvyÅ¡Å¡ÃŃ",
        -10.342559287825011
      ],
      [
        "tÅĻi",
        -10.342895531348528
      ],
      [
        "ĠpamÃ¡tk",
        -10.343286646152428
      ],
      [
        "ĠnejvyÅ¡Å¡ÃŃ",
        -10.343589471167544
      ],
      [
        "Ġklesla",
        -10.344719506686788
      ],
      [
        "ovÃ¡nÃŃ",
        -10.344839042749662
      ],
      [
        "kdes",
        -10.346181054611726
      ],
      [
        "ĠsluÅ¡ÃŃ",
        -10.346269943216253
      ],
      [
        "Ġkapk",
        -10.34676381305266
      ],
      [
        "lÅ¯nÄĽ",
        -10.347640648286657
      ],
      [
        "ĠdomÄĽ",
        -10.347993155119731
      ],
      [
        "ĠÅ¡ept",
        -10.348062555606255
      ],
      [
        "Ġvdov",
        -10.348222711943
      ],
      [
        "kdys",
        -10.34946224499183
      ],
      [
        "Ġmalou",
        -10.349525461247243
      ],
      [
        "Å¡ek",
        -10.350225333494649
      ],
      [
        "Ġnejsou",
        -10.350226148351092
      ],
      [
        "ĠkonÃŃ",
        -10.350705067167404
      ],
      [
        "ĠsamotÄĽ",
        -10.351569682962662
      ],
      [
        "ĠhrdÃ½",
        -10.351927699135592
      ],
      [
        "Ġmladosti",
        -10.352683262362092
      ],
      [
        "Ġchmur",
        -10.353329573368498
      ],
      [
        "Ġnedal",
        -10.353440503901716
      ],
      [
        "bÃ½t",
        -10.354036255408207
      ],
      [
        "ĠleÅ¾",
        -10.354129465854296
      ],
      [
        "ĠrÃ¡di",
        -10.35413202690976
      ],
      [
        "pln",
        -10.354504014758954
      ],
      [
        "B",
        -10.354821588205379
      ],
      [
        "Ġlem",
        -10.355196521784029
      ],
      [
        "Ġpluk",
        -10.355350680409622
      ],
      [
        "ĠÅĻada",
        -10.355650901146518
      ],
      [
        "sem",
        -10.355724971958189
      ],
      [
        "ĠkrÃ¡lÅ¯",
        -10.356317483029237
      ],
      [
        "ĠvlnÃŃ",
        -10.356432445209904
      ],
      [
        "ĠtrhÃ¡",
        -10.356610323093307
      ],
      [
        "vÅ¡ecko",
        -10.356734987744911
      ],
      [
        "ĠvlÃŃdnÄĽ",
        -10.357296359696036
      ],
      [
        "svit",
        -10.358033241777983
      ],
      [
        "ĠcelÃ½m",
        -10.358610917915875
      ],
      [
        "Ġtemnou",
        -10.359575144216553
      ],
      [
        "vÃŃÅ¡",
        -10.360189935990933
      ],
      [
        "ĠzlatÃ©m",
        -10.36038125640118
      ],
      [
        "Ġpruh",
        -10.360704229938362
      ],
      [
        "ĠhÃ¡v",
        -10.360738778515246
      ],
      [
        "nohy",
        -10.36149757999661
      ],
      [
        "Ġrval",
        -10.361804944769503
      ],
      [
        "Ġcizin",
        -10.36183807469315
      ],
      [
        "proto",
        -10.362497075997453
      ],
      [
        "ĠtmÄĽ",
        -10.362505444505302
      ],
      [
        "Ġsluje",
        -10.363270568548007
      ],
      [
        "ĠmÃ¡j",
        -10.363315958477548
      ],
      [
        "ĠvÄĽrnÃ©",
        -10.363410692273245
      ],
      [
        "kÃ©Å¾",
        -10.363439704683891
      ],
      [
        "ĠÅ¾ij",
        -10.363668186223316
      ],
      [
        "Ġmor",
        -10.364033292587902
      ],
      [
        "KdoÅ¾",
        -10.364045487715149
      ],
      [
        "Ġprost",
        -10.364205296337516
      ],
      [
        "Ġkrvav",
        -10.365636184297273
      ],
      [
        "ĠpÃ¡s",
        -10.365859622200265
      ],
      [
        "br",
        -10.366246219557572
      ],
      [
        "Ġpomst",
        -10.366293499076226
      ],
      [
        "Ġnud",
        -10.366755628050399
      ],
      [
        "ĠhÅĻÃŃchu",
        -10.367404508026764
      ],
      [
        "Ġjmen",
        -10.368140343176172
      ],
      [
        "ĠvelÃŃ",
        -10.368875313009209
      ],
      [
        "Ġdceru",
        -10.369148272659164
      ],
      [
        "ĠÅ¾eno",
        -10.369900290349099
      ],
      [
        "Ġoni",
        -10.370024851345754
      ],
      [
        "jÅ¡ÃŃ",
        -10.370558404035293
      ],
      [
        "Svo",
        -10.37075778853724
      ],
      [
        "nuÅ¾",
        -10.371314901650141
      ],
      [
        "ĠdÄĽtskÃ½",
        -10.371317509089888
      ],
      [
        "Ġoblo",
        -10.37137915751109
      ],
      [
        "ĠkvÄĽtin",
        -10.371636463995369
      ],
      [
        "ĠslzÃ¡",
        -10.371713879074118
      ],
      [
        "Ġplen",
        -10.371717876014277
      ],
      [
        "ĠneznÃ¡mÃ½",
        -10.372326696939027
      ],
      [
        "Ġmladou",
        -10.37247275321814
      ],
      [
        "ĠplÃ©m",
        -10.372829979487236
      ],
      [
        "ĠhledÃŃm",
        -10.373135500877744
      ],
      [
        "Ġstrop",
        -10.37367042720728
      ],
      [
        "ĠtajnÄĽ",
        -10.374229457431461
      ],
      [
        "ĠbrÃ¡nÃŃ",
        -10.374376375315233
      ],
      [
        "Ġcity",
        -10.374911632541025
      ],
      [
        "ĠvodÄĽ",
        -10.375386832327944
      ],
      [
        "Äįin",
        -10.37636539980485
      ],
      [
        "ĠkterÃ½m",
        -10.377535430396048
      ],
      [
        "ĠvrahÅ¯",
        -10.377964820012757
      ],
      [
        "Åłel",
        -10.37819986991714
      ],
      [
        "ĠskvÄĽl",
        -10.378501772481354
      ],
      [
        "ĠslÃ¡vo",
        -10.37890455406935
      ],
      [
        "Ġjimi",
        -10.380431329054222
      ],
      [
        "vÃ½ch",
        -10.38055294341592
      ],
      [
        "Dej",
        -10.380992931037351
      ],
      [
        "Ġslasti",
        -10.381422409411062
      ],
      [
        "ĠhvÄĽzdÃ¡",
        -10.381640565635065
      ],
      [
        "ĠSmrt",
        -10.382677184364736
      ],
      [
        "ĠvÄĽÅĻit",
        -10.382867254479775
      ],
      [
        "kal",
        -10.383587848569885
      ],
      [
        "ĠÅĻev",
        -10.383640227036627
      ],
      [
        "Jeho",
        -10.384519888405404
      ],
      [
        "Ġplakal",
        -10.38492037472064
      ],
      [
        "ĠÃºkol",
        -10.38495513301697
      ],
      [
        "cen",
        -10.385286673312574
      ],
      [
        "ĠhostÃŃ",
        -10.38534364859732
      ],
      [
        "ĠmÅ¯Å¾",
        -10.385528336141288
      ],
      [
        "ĠspatÅĻil",
        -10.3856207290757
      ],
      [
        "Ġklec",
        -10.386619855343952
      ],
      [
        "tek",
        -10.386971756807181
      ],
      [
        "ĠHospodin",
        -10.38729469477153
      ],
      [
        "Ġkvas",
        -10.38741261483016
      ],
      [
        "orel",
        -10.387414467582255
      ],
      [
        "ĠhÃ¡j",
        -10.387682382525103
      ],
      [
        "ĠposmÄĽch",
        -10.387802447255112
      ],
      [
        "Ġmrtvo",
        -10.388224979689562
      ],
      [
        "Ġbled",
        -10.3884478979225
      ],
      [
        "ĠpÃ¡nÅ¯",
        -10.388479823832839
      ],
      [
        "Ġmarno",
        -10.389050654356604
      ],
      [
        "Ġmrtev",
        -10.389257460089707
      ],
      [
        "ĠspÄĽje",
        -10.38953081632484
      ],
      [
        "ÃŃcÃŃ",
        -10.389628915885261
      ],
      [
        "Jdi",
        -10.39054948332887
      ],
      [
        "ĠpoÅĻÃ¡d",
        -10.391285889009731
      ],
      [
        "Ġkos",
        -10.392472072031268
      ],
      [
        "Ġodtud",
        -10.39355370009881
      ],
      [
        "Ġtah",
        -10.394272207896273
      ],
      [
        "ĠkoÅĻist",
        -10.394334627038326
      ],
      [
        "Ob",
        -10.394850545957944
      ],
      [
        "ĠskrÃ¡n",
        -10.395083566468166
      ],
      [
        "Ġston",
        -10.395701674287103
      ],
      [
        "ĠpÃ¡nem",
        -10.396114992058589
      ],
      [
        "Ġkryl",
        -10.396479757033536
      ],
      [
        "ĠhleÄı",
        -10.39657144939175
      ],
      [
        "hÃ¡",
        -10.396731413818856
      ],
      [
        "ĠpÃŃÅ¡e",
        -10.397367110791887
      ],
      [
        "Ġvid",
        -10.397664612178787
      ],
      [
        "ĠsmÃ¡t",
        -10.398329749616167
      ],
      [
        "ĠspÃ¡ne",
        -10.398373324721293
      ],
      [
        "ĠtratÃŃ",
        -10.398740478058855
      ],
      [
        "ĠstrojÃŃ",
        -10.399815407551802
      ],
      [
        "ĠhorÃ¡",
        -10.400084205922248
      ],
      [
        "ĠnenÃ¡vist",
        -10.400289963753519
      ],
      [
        "ĠPraz",
        -10.400396801645266
      ],
      [
        "Ġspoust",
        -10.40064083422589
      ],
      [
        "Ġnesla",
        -10.400674110551584
      ],
      [
        "ĠvolnÃ½",
        -10.400946749425534
      ],
      [
        "ĠskÅĻivan",
        -10.401474578056767
      ],
      [
        "ĠVy",
        -10.401620594224514
      ],
      [
        "ĠJeho",
        -10.401631913155313
      ],
      [
        "Hlas",
        -10.401892397746511
      ],
      [
        "ĠvÄĽr",
        -10.402561117317932
      ],
      [
        "ĠtuÅ¾b",
        -10.403453138981112
      ],
      [
        "Ġplesu",
        -10.403664044578345
      ],
      [
        "ĠvÅ¡udy",
        -10.40380400054125
      ],
      [
        "Ġhezk",
        -10.403838343259768
      ],
      [
        "ĠusmÃ¡l",
        -10.403860216589178
      ],
      [
        "ÄįeskÃ¡",
        -10.40391524982832
      ],
      [
        "ĠÅ¾ert",
        -10.405084219917292
      ],
      [
        "ĠstojÃŃm",
        -10.40539362533216
      ],
      [
        "nek",
        -10.405902288496376
      ],
      [
        "Zrak",
        -10.406338105574788
      ],
      [
        "ĠzelenÃ©",
        -10.406480396029213
      ],
      [
        "ĠÅ¾Ã¡ru",
        -10.40665139107194
      ],
      [
        "Ġsoch",
        -10.40668908500788
      ],
      [
        "ĠvÄĽÄįno",
        -10.407118079019327
      ],
      [
        "divnÃ¡",
        -10.40782358450835
      ],
      [
        "Ġotrok",
        -10.4082925140165
      ],
      [
        "ĠvzpomÃŃnÃ¡m",
        -10.40850359747391
      ],
      [
        "Ġkmit",
        -10.408934967800043
      ],
      [
        "ĠkterÃ½ch",
        -10.408956159565777
      ],
      [
        "Ġmuka",
        -10.409521913050101
      ],
      [
        "ĠrodnÃ½",
        -10.409718525363859
      ],
      [
        "ĠzelenÃ½",
        -10.410667973006227
      ],
      [
        "ĠdvojÃŃ",
        -10.410946742802071
      ],
      [
        "ĠmoÅ¾n",
        -10.411764441484035
      ],
      [
        "Nebo",
        -10.412357004674423
      ],
      [
        "ĠtlaÄįÃŃ",
        -10.413585592999052
      ],
      [
        "ĠÅ¡erÃ©",
        -10.413608401353954
      ],
      [
        "NynÃŃ",
        -10.413892981061096
      ],
      [
        "Ġbledou",
        -10.414438590238614
      ],
      [
        "ĠÅ¡irÃ½",
        -10.414709408771241
      ],
      [
        "kr",
        -10.415144487334471
      ],
      [
        "ĠmanÅ¾el",
        -10.415677495501598
      ],
      [
        "cÃŃm",
        -10.416217045922743
      ],
      [
        "ĠnebeskÃ©",
        -10.416512183992921
      ],
      [
        "ĠhrdÃ©",
        -10.416880741797577
      ],
      [
        "Ġtrosk",
        -10.416911442435564
      ],
      [
        "sotva",
        -10.41695196015787
      ],
      [
        "ĠhrÃ¡",
        -10.417004311568594
      ],
      [
        "ĠhustÃ©",
        -10.417138168710089
      ],
      [
        "ĠÃºtrob",
        -10.417359026858975
      ],
      [
        "ĠodpovÄĽÄı",
        -10.417914130339266
      ],
      [
        "ĠzvÃŃÅĻe",
        -10.418239790958378
      ],
      [
        "ĠdneÅ¡nÃŃ",
        -10.418452512297847
      ],
      [
        "ĠkrÃ¡snÄĽ",
        -10.418645396766845
      ],
      [
        "ĠplatÃŃ",
        -10.418657318666131
      ],
      [
        "Ġblaze",
        -10.41868222478942
      ],
      [
        "ĠprvnÃŃm",
        -10.418809946081673
      ],
      [
        "ĠbÃŃlÃ©m",
        -10.418911914065701
      ],
      [
        "ĠspÃ¡sy",
        -10.419019990188493
      ],
      [
        "chce",
        -10.419401065936126
      ],
      [
        "Ġmlha",
        -10.419442853574024
      ],
      [
        "Ġneroz",
        -10.419988162868963
      ],
      [
        "Ġvinu",
        -10.420230935758699
      ],
      [
        "ovÄĽ",
        -10.420280514623503
      ],
      [
        "ĠÃºct",
        -10.421229976192674
      ],
      [
        "ĠvrhÃ¡",
        -10.422479352996739
      ],
      [
        "ĠsvatÃ½m",
        -10.422545899052828
      ],
      [
        "ĠdrobnÃ½",
        -10.422587507000308
      ],
      [
        "ĠnovÃ©m",
        -10.42311494097321
      ],
      [
        "Ġslunko",
        -10.423448353117394
      ],
      [
        "Ġmozk",
        -10.423458640201881
      ],
      [
        "ĠspÃ¡r",
        -10.423623624142856
      ],
      [
        "Ġztracen",
        -10.424419056531598
      ],
      [
        "ĠumÃŃrÃ¡",
        -10.4245334265457
      ],
      [
        "ĠblÃ½skÃ¡",
        -10.42467435911399
      ],
      [
        "ĠspÄĽchÃ¡",
        -10.424773046152147
      ],
      [
        "duÅ¡e",
        -10.425519014394645
      ],
      [
        "Ġodpor",
        -10.426408878770587
      ],
      [
        "ĠhoÅĻel",
        -10.42700146341261
      ],
      [
        "ĠpÄĽst",
        -10.427010293179553
      ],
      [
        "Ġspor",
        -10.427239673449483
      ],
      [
        "pÅ¯jdu",
        -10.427324619920004
      ],
      [
        "ĠlÅ¯Å¾k",
        -10.427903512128513
      ],
      [
        "ĠmÄĽsÃŃce",
        -10.428130231354839
      ],
      [
        "Ġjasu",
        -10.428284480860809
      ],
      [
        "ĠperutÃŃ",
        -10.428566034200417
      ],
      [
        "ĠlÃ¡kÃ¡",
        -10.429137325856217
      ],
      [
        "Ġbratry",
        -10.429465880418581
      ],
      [
        "ĠvÃ¡ne",
        -10.429783229303416
      ],
      [
        "ĠpÅĻÃŃteli",
        -10.430238623604167
      ],
      [
        "ĠkrvavÃ½",
        -10.430322167136543
      ],
      [
        "vÅ¡em",
        -10.430544803329827
      ],
      [
        "Ġvzala",
        -10.431897155743663
      ],
      [
        "ĠperuÅ¥",
        -10.432762660849713
      ],
      [
        "Ġnajde",
        -10.432922559592397
      ],
      [
        "dva",
        -10.433757522738457
      ],
      [
        "ĠotvÃŃrÃ¡",
        -10.433874267224692
      ],
      [
        "ĠbÃŃdnÃ½",
        -10.433905740011404
      ],
      [
        "JakÃ½",
        -10.434443339198468
      ],
      [
        "Ġtiskne",
        -10.435857795304912
      ],
      [
        "Ġros",
        -10.43593253747539
      ],
      [
        "ĠhlÃŃn",
        -10.435970628242778
      ],
      [
        "Ġhesl",
        -10.436186458295587
      ],
      [
        "Ġvrb",
        -10.436199047370984
      ],
      [
        "ĠpÅ¯du",
        -10.436209430951465
      ],
      [
        "dÅĻÃŃv",
        -10.436505669113975
      ],
      [
        "lit",
        -10.4367944225338
      ],
      [
        "ĠzeleÅĪ",
        -10.436945450553845
      ],
      [
        "Ġpluje",
        -10.437138503768326
      ],
      [
        "ĠsÃŃdl",
        -10.437358856680907
      ],
      [
        "Ġharf",
        -10.437620706870032
      ],
      [
        "Jdu",
        -10.437886066634245
      ],
      [
        "ĠÅĻÃŃz",
        -10.43794975622637
      ],
      [
        "ovu",
        -10.43830105018691
      ],
      [
        "ĠulicÃŃ",
        -10.438932105682479
      ],
      [
        "ĠpouÅ¡Å¥",
        -10.439042904910925
      ],
      [
        "Ġtluk",
        -10.439165975528782
      ],
      [
        "tÃ¡",
        -10.43995189922382
      ],
      [
        "ĠzmizÃŃ",
        -10.44009918242001
      ],
      [
        "ĠutrpenÃŃ",
        -10.44034624722515
      ],
      [
        "ĠtesknÄĽ",
        -10.440787979299142
      ],
      [
        "Ġbratra",
        -10.440887860878126
      ],
      [
        "ĠhrobÅ¯",
        -10.441545800334382
      ],
      [
        "Ġboz",
        -10.44157537080949
      ],
      [
        "enÃ©",
        -10.441607247786237
      ],
      [
        "ĠbrÃ¡t",
        -10.441615431115297
      ],
      [
        "ĠdivÄĽ",
        -10.441657944468496
      ],
      [
        "kdyby",
        -10.441658287161513
      ],
      [
        "ĠnutÃŃ",
        -10.441713970155206
      ],
      [
        "Bylo",
        -10.442612145304523
      ],
      [
        "ĠzÃ¡pal",
        -10.442644574989078
      ],
      [
        "Ġpere",
        -10.44273798794897
      ],
      [
        "ĠtÃ¡bor",
        -10.443192139011135
      ],
      [
        "Ġbloudil",
        -10.444641537789717
      ],
      [
        "ĠÃºsvit",
        -10.44484595047733
      ],
      [
        "Ġvous",
        -10.444955793709916
      ],
      [
        "skutku",
        -10.445066724958554
      ],
      [
        "Ġokno",
        -10.445226281428013
      ],
      [
        "ĠstÅĻÃŃbro",
        -10.445298952751049
      ],
      [
        "Ġhladin",
        -10.44575844444316
      ],
      [
        "ĠvÃŃte",
        -10.445932656315618
      ],
      [
        "PryÄį",
        -10.446340624790112
      ],
      [
        "Ġhrdlo",
        -10.446375762330845
      ],
      [
        "Ġsvitu",
        -10.447306549631914
      ],
      [
        "ĠpÅĻÃŃklad",
        -10.447395943716103
      ],
      [
        "ĠkrokÅ¯",
        -10.447571735765536
      ],
      [
        "jÃŃti",
        -10.447607552462502
      ],
      [
        "ĠrozkoÅ¡ÃŃ",
        -10.447791160722788
      ],
      [
        "ĠstrÃ¡Å¾",
        -10.448036137925179
      ],
      [
        "ĠÅ¡eptal",
        -10.44820617491992
      ],
      [
        "Smrt",
        -10.448274935152305
      ],
      [
        "Nech",
        -10.44903825053394
      ],
      [
        "Ġtuze",
        -10.449042171064576
      ],
      [
        "ujÃŃcÃŃ",
        -10.449306331540477
      ],
      [
        "Ġostrov",
        -10.449389507443053
      ],
      [
        "Ġjat",
        -10.449447752084591
      ],
      [
        "ĠklÃ¡Å¡ter",
        -10.449694676805226
      ],
      [
        "Ġkolena",
        -10.449717848418942
      ],
      [
        "ĠprÃ¡zdnÃ½",
        -10.450797324290777
      ],
      [
        "JeÅ¾",
        -10.450997952490226
      ],
      [
        "ĠkeÅĻ",
        -10.451007736455662
      ],
      [
        "Ġzrovna",
        -10.451037309086047
      ],
      [
        "ĠtvrdÃ©",
        -10.451377944119196
      ],
      [
        "ĠkÃ¡zal",
        -10.451726842158038
      ],
      [
        "ĠsvatÃ©m",
        -10.451750469114925
      ],
      [
        "ĠzbÃ½vÃ¡",
        -10.45179273077846
      ],
      [
        "ĠOsud",
        -10.45209294938405
      ],
      [
        "ĠÅ¾hav",
        -10.452105130204057
      ],
      [
        "Ġpodob",
        -10.452115398711607
      ],
      [
        "ĠpÃŃlÃŃ",
        -10.45271031620899
      ],
      [
        "ĠtichÃ½m",
        -10.453060642402761
      ],
      [
        "Ġvidin",
        -10.453104210501639
      ],
      [
        "ĠkterÃ©m",
        -10.453132858569983
      ],
      [
        "ovy",
        -10.453684817508108
      ],
      [
        "ĠjedinÃ¡",
        -10.453961107138305
      ],
      [
        "ĠdrobnÃ©",
        -10.454024216555927
      ],
      [
        "Ġlkal",
        -10.454918020405351
      ],
      [
        "Kolem",
        -10.454966971660582
      ],
      [
        "ĠlkÃ¡",
        -10.455037795452224
      ],
      [
        "ĠostrÃ½",
        -10.456156730175184
      ],
      [
        "Ġtoto",
        -10.456341925037137
      ],
      [
        "Ġzdvih",
        -10.456556596519277
      ],
      [
        "ÃŃc",
        -10.4567166606782
      ],
      [
        "ĠsÃŃÅĪ",
        -10.456887831587245
      ],
      [
        "Ġpozor",
        -10.457184583406207
      ],
      [
        "ĠhÅĻmÃŃ",
        -10.457493982647232
      ],
      [
        "zem",
        -10.457562443914092
      ],
      [
        "re",
        -10.458101893258213
      ],
      [
        "Ġskutk",
        -10.45947860930437
      ],
      [
        "ĠzlÃ¡",
        -10.46011870970291
      ],
      [
        "VÃŃc",
        -10.460613957814621
      ],
      [
        "Ġulice",
        -10.46104610103847
      ],
      [
        "Ġt",
        -10.46153290633372
      ],
      [
        "tÄĽm",
        -10.463003857929488
      ],
      [
        "ĠvznÄĽt",
        -10.46310723606253
      ],
      [
        "Ġnos",
        -10.464158805505452
      ],
      [
        "ĠhlÃ¡sÃ¡",
        -10.464515779045449
      ],
      [
        "ĠtouÅ¾il",
        -10.465490257696683
      ],
      [
        "Ġvojsko",
        -10.46612581123302
      ],
      [
        "Ġklasy",
        -10.466220746847583
      ],
      [
        "tÅĻeba",
        -10.466352208763595
      ],
      [
        "ĠsahÃ¡",
        -10.466813085010328
      ],
      [
        "Ġposlal",
        -10.467825912948484
      ],
      [
        "ĠtÅĻpytÃŃ",
        -10.468069198483409
      ],
      [
        "blesk",
        -10.468106014192951
      ],
      [
        "Ġdoktor",
        -10.468332283107468
      ],
      [
        "oÄįi",
        -10.468933512189507
      ],
      [
        "ĠozvÄĽn",
        -10.468993669025643
      ],
      [
        "ĠzimnÃŃ",
        -10.469205651506822
      ],
      [
        "ĠdÃ©Å¡Å¥",
        -10.469675122092275
      ],
      [
        "ĠbrÃ¡zd",
        -10.472656802436763
      ],
      [
        "Ġhan",
        -10.472972263836223
      ],
      [
        "Ġrakev",
        -10.474432461817575
      ],
      [
        "TÃ©Å¾",
        -10.475240364136706
      ],
      [
        "ĠpevnÃ½",
        -10.475613763187216
      ],
      [
        "Ġpije",
        -10.475976102924722
      ],
      [
        "âĢľ,",
        -10.475981454486597
      ],
      [
        "vÅ¡i",
        -10.476083346169911
      ],
      [
        "ĠTvÃ¡",
        -10.476420268205153
      ],
      [
        "ĠP",
        -10.476854980392712
      ],
      [
        "JÃŃ",
        -10.476866683006818
      ],
      [
        "sestry",
        -10.477605524709972
      ],
      [
        "Ġvzor",
        -10.477647687990526
      ],
      [
        "lÃ¡sky",
        -10.477865491788673
      ],
      [
        "hu",
        -10.477916424315783
      ],
      [
        "ĠtrÃ¡va",
        -10.478210662739325
      ],
      [
        "ĠzÅĻÃŃti",
        -10.478235780508651
      ],
      [
        "ĠspoleÄįnost",
        -10.47880112578513
      ],
      [
        "ĠkÅ¯r",
        -10.478990462726145
      ],
      [
        "ĠzvukÅ¯",
        -10.479028437693861
      ],
      [
        "ĠzaÅ¡lÃ½",
        -10.479676943886187
      ],
      [
        "Ġunaven",
        -10.479900475779086
      ],
      [
        "Ġjind",
        -10.480425699147752
      ],
      [
        "Ġlos",
        -10.481032356457352
      ],
      [
        "Ġzle",
        -10.481132577856444
      ],
      [
        "Ġkams",
        -10.481427067824626
      ],
      [
        "Ġpocit",
        -10.481653537652814
      ],
      [
        "pad",
        -10.481766028581394
      ],
      [
        "ĠhouÅ¡tÃŃ",
        -10.481794940413073
      ],
      [
        "ĠbÃ¡je",
        -10.482596116727287
      ],
      [
        "vÃŃm",
        -10.483160665819383
      ],
      [
        "ant",
        -10.483485484587042
      ],
      [
        "Jestli",
        -10.483920644544042
      ],
      [
        "ÄįnÃŃ",
        -10.484699383777816
      ],
      [
        "ĠnÄĽjak",
        -10.484876096922047
      ],
      [
        "ĠhÃ¡ji",
        -10.485306194544634
      ],
      [
        "ĠvonnÃ©",
        -10.485330057961056
      ],
      [
        "ĠdlÃŃ",
        -10.486707469721427
      ],
      [
        "Ġdlan",
        -10.487147014546295
      ],
      [
        "ĠsynÅ¯",
        -10.487305148837674
      ],
      [
        "DuÅ¡e",
        -10.487368950757453
      ],
      [
        "ĠÃºdÄĽl",
        -10.487494270952483
      ],
      [
        "ĠronÃŃ",
        -10.488477692984656
      ],
      [
        "ĠvzdychÃ¡",
        -10.48904807659288
      ],
      [
        "ĠnejvÄĽtÅ¡ÃŃ",
        -10.489553696314587
      ],
      [
        "Ġproudu",
        -10.489563575962936
      ],
      [
        "ĠhlubokÃ©",
        -10.490113545747263
      ],
      [
        "Syn",
        -10.490768210397832
      ],
      [
        "ĠrovnÄĽ",
        -10.491084460744151
      ],
      [
        "kraj",
        -10.491258865258652
      ],
      [
        "ĠotÃ¡zk",
        -10.492368944752167
      ],
      [
        "letÃŃ",
        -10.493373788941149
      ],
      [
        "ĠkamenÃŃ",
        -10.493584623983287
      ],
      [
        "Kdys",
        -10.493593982719046
      ],
      [
        "ĠkrvavÃ©",
        -10.494506155897525
      ],
      [
        "Ġrostou",
        -10.495095683502562
      ],
      [
        "ĠTvoj",
        -10.495485224168913
      ],
      [
        "NÃ¡Å¡",
        -10.495554580707617
      ],
      [
        "ĠplÃ¡ni",
        -10.495878142148229
      ],
      [
        "Ġsouzvuk",
        -10.496959627122532
      ],
      [
        "Ġruchu",
        -10.497342596458612
      ],
      [
        "Ġochran",
        -10.497601638694725
      ],
      [
        "ĠPetr",
        -10.498500838794987
      ],
      [
        "ĠdÄĽsnÃ½",
        -10.498720105500837
      ],
      [
        "R",
        -10.498816862812172
      ],
      [
        "Ġmilo",
        -10.499289487035789
      ],
      [
        "rosou",
        -10.49955896611164
      ],
      [
        "Ġazur",
        -10.499614747810927
      ],
      [
        "ĠmdlÃ½",
        -10.499923974395136
      ],
      [
        "Ġony",
        -10.499944331558652
      ],
      [
        "Ġznaven",
        -10.50025409446199
      ],
      [
        "ĠkÃ©Å¾",
        -10.500428443346966
      ],
      [
        "ĠnÄĽhoÅ¾",
        -10.50091981762423
      ],
      [
        "ĠhÅĻmÄĽl",
        -10.50104178325492
      ],
      [
        "Ġsklonil",
        -10.501227721568714
      ],
      [
        "ĠvlastnÃŃm",
        -10.501548725586286
      ],
      [
        "Ġmatkou",
        -10.501590002749401
      ],
      [
        "Ġrum",
        -10.501941415066192
      ],
      [
        "ĠzÃ¡bav",
        -10.502345315840383
      ],
      [
        "ĠÅ½iÅ¾k",
        -10.50304391306971
      ],
      [
        "ĠmarnÃ½",
        -10.50358798132493
      ],
      [
        "Ġcele",
        -10.50403732138345
      ],
      [
        "ĠpouÅ¥",
        -10.50479749882524
      ],
      [
        "Ġpat",
        -10.505324379338209
      ],
      [
        "VÃŃÅ¡",
        -10.505548134868892
      ],
      [
        "ĠÅĻÃŃkÃ¡",
        -10.506414748241372
      ],
      [
        "Ġan",
        -10.506896099008365
      ],
      [
        "ĠdivÃ¡",
        -10.507508382834457
      ],
      [
        "neÅ¡",
        -10.507942228284222
      ],
      [
        "ĠslednÃŃ",
        -10.509180714379365
      ],
      [
        "Å¾ivot",
        -10.509271974676677
      ],
      [
        "ĠÅ¡era",
        -10.509849974319781
      ],
      [
        "ĠretÅ¯",
        -10.509915255278678
      ],
      [
        "ĠvÅĻel",
        -10.510426541795862
      ],
      [
        "ĠtanÄįÃŃ",
        -10.511046331074496
      ],
      [
        "poslednÃŃ",
        -10.511381975313546
      ],
      [
        "Ġabych",
        -10.512161304534047
      ],
      [
        "ĠmÄĽkkÃ½",
        -10.512315639118842
      ],
      [
        "Ġpel",
        -10.512367797763659
      ],
      [
        "Ġbil",
        -10.51246999233343
      ],
      [
        "Ġspat",
        -10.513038262141965
      ],
      [
        "pÃ¡n",
        -10.51367885283993
      ],
      [
        "Ġsoused",
        -10.514250439763625
      ],
      [
        "Ġskon",
        -10.514422224930247
      ],
      [
        "ĠnÃ¡dher",
        -10.514705343769807
      ],
      [
        "ĠbÅĻÃŃz",
        -10.514737554534676
      ],
      [
        "ĠhÅĻÃŃchÅ¯",
        -10.51485272781893
      ],
      [
        "ĠpovÃŃ",
        -10.515067900619972
      ],
      [
        "ĠbÃ¡j",
        -10.515679905679832
      ],
      [
        "ĠdÃ¡lnÃ©",
        -10.51591565228171
      ],
      [
        "Ġpolem",
        -10.515999047281927
      ],
      [
        "ĠbÃŃlÃ½m",
        -10.516315450589298
      ],
      [
        "Ġptactv",
        -10.51676833232753
      ],
      [
        "Ticho",
        -10.517091218264994
      ],
      [
        "Otec",
        -10.517154993837444
      ],
      [
        "Ġtaje",
        -10.517298463587618
      ],
      [
        "ĠvlasÅ¥",
        -10.517881416624617
      ],
      [
        "Ġhasne",
        -10.518311604983154
      ],
      [
        "hoÅĻe",
        -10.51837556890169
      ],
      [
        "ĠmÅĻel",
        -10.518515493082408
      ],
      [
        "ĠpouÅ¡tÄĽ",
        -10.518708705502597
      ],
      [
        "ĠsÃŃtÄĽ",
        -10.5190496221467
      ],
      [
        "ĠkrÄįm",
        -10.519122280887979
      ],
      [
        "ĠSlÃ¡v",
        -10.520402905774077
      ],
      [
        "HleÄı",
        -10.520625879620724
      ],
      [
        "Ġzmar",
        -10.521444607068826
      ],
      [
        "Krev",
        -10.52182384965663
      ],
      [
        "ĠtrnÃŃ",
        -10.521886783717385
      ],
      [
        "ĠkvÃŃte",
        -10.522443116467787
      ],
      [
        "dna",
        -10.522785845896959
      ],
      [
        "tanci",
        -10.522999381650797
      ],
      [
        "ĠlÅ¯n",
        -10.523327027065445
      ],
      [
        "ĠnekoneÄįn",
        -10.523533383340032
      ],
      [
        "ĠopuÅ¡tÄĽn",
        -10.523637202821911
      ],
      [
        "Ġrostl",
        -10.52371763366297
      ],
      [
        "ĠdÄĽtstvÃŃ",
        -10.523760031000698
      ],
      [
        "ĠzavÅĻel",
        -10.523886195894491
      ],
      [
        "ĠÄĮechÅ¯",
        -10.524098111412604
      ],
      [
        "Ġvysoko",
        -10.524236485136136
      ],
      [
        "ChceÅ¡",
        -10.52507252146586
      ],
      [
        "ĠÅ¾ivobytÃŃ",
        -10.525543023997294
      ],
      [
        "Ġkladl",
        -10.525702293651495
      ],
      [
        "!âĢĺ",
        -10.526582131352832
      ],
      [
        "ĠchrÃ¡nÃŃ",
        -10.526839183597344
      ],
      [
        "ĠzoÅĻe",
        -10.527918002309132
      ],
      [
        "zÃ¡ÅĻ",
        -10.528035767207673
      ],
      [
        ".âĢľâĢľ",
        -10.530830120301278
      ],
      [
        "ĠzÃ¡vod",
        -10.530916133304514
      ],
      [
        "ĠnÃ¡ÅĻek",
        -10.531646851951194
      ],
      [
        "ĠkÅĻÃŃdlo",
        -10.532510146019764
      ],
      [
        "ter",
        -10.532631083358872
      ],
      [
        "ĠÅ¡ÃŃÅĻÃŃ",
        -10.532880687711922
      ],
      [
        "VÃ¡m",
        -10.532951983863336
      ],
      [
        "Ġzdob",
        -10.533757642480008
      ],
      [
        "nej",
        -10.533793151827139
      ],
      [
        "Tvou",
        -10.533957774162145
      ],
      [
        "ĠotevÅĻel",
        -10.534304307289194
      ],
      [
        "Ġroucho",
        -10.534991718156903
      ],
      [
        "ĠdÄĽd",
        -10.535388457481918
      ],
      [
        "Ġmohlo",
        -10.535565725432416
      ],
      [
        "ĠtÅĻikrÃ¡t",
        -10.53565809159274
      ],
      [
        "ĠteplÃ½",
        -10.53595260339319
      ],
      [
        "snÃŃ",
        -10.536033666310969
      ],
      [
        "Ġde",
        -10.536250932899165
      ],
      [
        "Ġbrzo",
        -10.53732559040956
      ],
      [
        "ĠbujnÃ½",
        -10.538316302675533
      ],
      [
        "ĠumÅĻÃŃt",
        -10.539105189645637
      ],
      [
        "ĠhovoÅĻÃŃ",
        -10.540885543729605
      ],
      [
        "Ġpoupat",
        -10.541359510680572
      ],
      [
        "ĠmroucÃŃ",
        -10.541804896593806
      ],
      [
        "ĠÄıas",
        -10.54199184944559
      ],
      [
        "!)",
        -10.543666830724572
      ],
      [
        "Ġdnu",
        -10.543728363058555
      ],
      [
        "ĠsrÃ¡z",
        -10.544554796249429
      ],
      [
        "jimÅ¾",
        -10.544695565699335
      ],
      [
        "nÃ½mi",
        -10.54597502561888
      ],
      [
        "ĠideÃ¡l",
        -10.546217211581924
      ],
      [
        "ĠsladkÃ½m",
        -10.546620806371553
      ],
      [
        "ĠlÃ©k",
        -10.54723367721588
      ],
      [
        "Ġsok",
        -10.547288198449854
      ],
      [
        "x",
        -10.548305005390748
      ],
      [
        "Ġtekl",
        -10.54842952940377
      ],
      [
        "ĠmodlÃŃ",
        -10.548662266642665
      ],
      [
        "druh",
        -10.549996437334936
      ],
      [
        "ĠnÄĽhy",
        -10.550171387851723
      ],
      [
        "Ã¡nÃŃ",
        -10.550897002171215
      ],
      [
        "Ġhymn",
        -10.551491151207518
      ],
      [
        "ĠAle",
        -10.551746102031217
      ],
      [
        "ĠstarÃ©m",
        -10.551937413301692
      ],
      [
        "ĠzlatÄĽ",
        -10.551996792229152
      ],
      [
        "Ġlov",
        -10.552384487989851
      ],
      [
        "ĠskuteÄįnost",
        -10.552608031662722
      ],
      [
        "nem",
        -10.553548052122444
      ],
      [
        "Ġpanna",
        -10.554028026297429
      ],
      [
        "Ġjel",
        -10.554769742041113
      ],
      [
        "Ġkrk",
        -10.554789226983363
      ],
      [
        "ĠzmÄĽnil",
        -10.555222140066943
      ],
      [
        "ĠÅ¾lutÃ½",
        -10.555578812907868
      ],
      [
        "ĠlistÅ¯",
        -10.555938994216291
      ],
      [
        "ĠsnivÃ©",
        -10.55653477411169
      ],
      [
        "hvÄĽzd",
        -10.556950490154605
      ],
      [
        "ĠznÃ¡Å¡",
        -10.557755703140995
      ],
      [
        "Ġvinou",
        -10.557949634751107
      ],
      [
        "ĠblahÃ½",
        -10.55851772948208
      ],
      [
        "Ġryk",
        -10.559048775822351
      ],
      [
        "Ġprosil",
        -10.559568876159254
      ],
      [
        "BÄĽd",
        -10.559619781123505
      ],
      [
        "ĠÄıÃ¡bel",
        -10.560862623446333
      ],
      [
        "ven",
        -10.560970629873147
      ],
      [
        "ĠkÅĻivd",
        -10.560971159105947
      ],
      [
        "Ġkoni",
        -10.561040526973654
      ],
      [
        "Ġslast",
        -10.561489399469473
      ],
      [
        "H",
        -10.561512182786664
      ],
      [
        "les",
        -10.56219423498297
      ],
      [
        "ĠjimÅ¾",
        -10.5622136205562
      ],
      [
        "Å½ivot",
        -10.562350749797023
      ],
      [
        "ĠhÅĻbet",
        -10.564034366814372
      ],
      [
        "ĠvaÅ¡i",
        -10.565246338933493
      ],
      [
        "mÄĽÅĻ",
        -10.566007882998502
      ],
      [
        "sil",
        -10.566243213217167
      ],
      [
        "bÃŃ",
        -10.566283160129274
      ],
      [
        "ĠprvÃ½",
        -10.566448069928025
      ],
      [
        "Ġstav",
        -10.56665084420167
      ],
      [
        "Darmo",
        -10.566888656730226
      ],
      [
        "ĠE",
        -10.567807483502925
      ],
      [
        "Äįky",
        -10.568733096483026
      ],
      [
        "ĠprÃ¡zdnÃ©",
        -10.568906186311404
      ],
      [
        "ĠmÄĽlo",
        -10.56892252969984
      ],
      [
        "ĠtÅĻesk",
        -10.5691225813353
      ],
      [
        "stÅĻe",
        -10.569197542823305
      ],
      [
        "zvuk",
        -10.56931780938862
      ],
      [
        "ĠÅ¾lutÃ©",
        -10.569508226295575
      ],
      [
        "ĠsedÃ¡",
        -10.569626356586756
      ],
      [
        "ĠvodnÃŃ",
        -10.569649522888888
      ],
      [
        "Ġkolik",
        -10.570649717939661
      ],
      [
        "ĠklidnÃ½",
        -10.57090199376074
      ],
      [
        "Ġzimy",
        -10.571091250908575
      ],
      [
        "ÄįlovÄĽk",
        -10.571120299504202
      ],
      [
        "ĠvzpomÃŃnÃ¡",
        -10.571299412549756
      ],
      [
        "list",
        -10.571392248940645
      ],
      [
        "ĠveÄįernÃŃ",
        -10.571602431223429
      ],
      [
        "pa",
        -10.571617272598075
      ],
      [
        "Ġbiskup",
        -10.572071144870272
      ],
      [
        "ĠsnovÃ©",
        -10.572598262781899
      ],
      [
        "ĠbleskÅ¯",
        -10.572617277690433
      ],
      [
        "ĠpÅĻÃŃstav",
        -10.572842124802275
      ],
      [
        "oh",
        -10.572945744560933
      ],
      [
        "ĠslabÃ½",
        -10.57338080299585
      ],
      [
        "ĠÃºnav",
        -10.573447409771516
      ],
      [
        "ĠuÅ¡i",
        -10.573497539034303
      ],
      [
        "ĠboÅ¾skÃ©",
        -10.574162155805723
      ],
      [
        "ĠvÃ¡nk",
        -10.57418089953645
      ],
      [
        "ĠvÄĽÅĻÃŃm",
        -10.57437505456457
      ],
      [
        "ĠÅ¡ÃŃje",
        -10.57488959819974
      ],
      [
        "ĠkrÃ¡tc",
        -10.57526036480239
      ],
      [
        "ĠrekÅ¯",
        -10.575463218858502
      ],
      [
        "ĠhbitÄĽ",
        -10.575759309423887
      ],
      [
        "ĠtajnÃ©",
        -10.57630479465985
      ],
      [
        "nit",
        -10.576336057489758
      ],
      [
        "ĠzoufalstvÃŃ",
        -10.576353858373524
      ],
      [
        "ĠbudoucÃŃ",
        -10.576607656871023
      ],
      [
        "ĠplÃ¡pol",
        -10.57705677311162
      ],
      [
        "pÄĽt",
        -10.577198888704313
      ],
      [
        "ĠpÄĽknÃ©",
        -10.577822940322786
      ],
      [
        "ĠÄįnÃŃ",
        -10.578101127936916
      ],
      [
        "ĠÅ¡erÃ½",
        -10.57837566681377
      ],
      [
        "ĠblahÃ©",
        -10.57881501615512
      ],
      [
        "Ġzastavil",
        -10.57938075698492
      ],
      [
        "ĠhorkÃ©",
        -10.5798158003032
      ],
      [
        "mutnÃ¡",
        -10.581020744156158
      ],
      [
        "ĠdivÃ©m",
        -10.581321649503352
      ],
      [
        "ĠÅ¡irÃ©",
        -10.581511464595483
      ],
      [
        "plÃ¡",
        -10.582512914703637
      ],
      [
        "slunce",
        -10.582635643785075
      ],
      [
        "ĠpÅĻijdou",
        -10.583085137330452
      ],
      [
        "ĠlÃ©to",
        -10.583173943700082
      ],
      [
        "lek",
        -10.584055463165917
      ],
      [
        "ĠpoupÄĽ",
        -10.584584854241404
      ],
      [
        "ĠzdÃŃ",
        -10.584853464984516
      ],
      [
        "Ġjdi",
        -10.585304437983728
      ],
      [
        "ĠtvrdÃ½",
        -10.58544409575219
      ],
      [
        "ĠpÅĻÃŃzrak",
        -10.585451724541954
      ],
      [
        "bit",
        -10.585659585965539
      ],
      [
        "Ġokov",
        -10.587147390789802
      ],
      [
        "ĠverÅ¡",
        -10.587199133713785
      ],
      [
        "Ġjasnou",
        -10.587294673276542
      ],
      [
        "Ġnebesa",
        -10.587632199688205
      ],
      [
        "Ġnemohu",
        -10.587727559034064
      ],
      [
        "ĠkmitÃ¡",
        -10.588222908379734
      ],
      [
        "ĠmÅĻÃŃt",
        -10.588386893708211
      ],
      [
        "ĠblaÅ¾enost",
        -10.588516419375612
      ],
      [
        "Ġmohou",
        -10.588576426212681
      ],
      [
        "ĠhoÅĻi",
        -10.589097412142447
      ],
      [
        "Ġhlasu",
        -10.589172915666733
      ],
      [
        "ĠlÃŃtÃ¡",
        -10.589408736266101
      ],
      [
        "ĠzÅĻela",
        -10.589700900773595
      ],
      [
        "Ġspokojen",
        -10.589968945241356
      ],
      [
        "ĠhvÄĽzdnÃ½",
        -10.589995604272918
      ],
      [
        "Ġpotu",
        -10.59123251529093
      ],
      [
        "ĠmraÄįen",
        -10.59150567043448
      ],
      [
        "Ġbohy",
        -10.5916204403511
      ],
      [
        "ĠstrÃ¡nÄĽ",
        -10.591766368338519
      ],
      [
        "ĠnadÄĽji",
        -10.591834156113293
      ],
      [
        "Ġkal",
        -10.591885164642253
      ],
      [
        "Ġpohan",
        -10.593771365616714
      ],
      [
        "Ġpochyb",
        -10.594038043328212
      ],
      [
        "ĠÄıÃ¡bl",
        -10.594068032665941
      ],
      [
        "kterou",
        -10.594368468704435
      ],
      [
        "Ġodvah",
        -10.594714711533452
      ],
      [
        "skÃ©m",
        -10.59509355650334
      ],
      [
        "Ġrozkaz",
        -10.595898498862493
      ],
      [
        "dle",
        -10.595988701687041
      ],
      [
        "ĠpÅĻedc",
        -10.59646521912261
      ],
      [
        "ĠlehkÃ½",
        -10.596520831347284
      ],
      [
        "ĠproudÃŃ",
        -10.596611245291431
      ],
      [
        "Ġdlel",
        -10.5967278362953
      ],
      [
[...]
