{
  "version": "1.0",
  "truncation": null,
  "padding": null,
  "added_tokens": [
    {
      "id": 0,
      "content": "<|EOS|>",
      "single_word": false,
      "lstrip": false,
      "rstrip": false,
      "normalized": false,
      "special": true
    },
    {
      "id": 1,
      "content": "<|PAD|>",
      "single_word": false,
      "lstrip": false,
      "rstrip": false,
      "normalized": false,
      "special": true
    },
    {
      "id": 2,
      "content": "<|UNK|>",
      "single_word": false,
      "lstrip": false,
      "rstrip": false,
      "normalized": false,
      "special": true
    }
  ],
  "normalizer": null,
  "pre_tokenizer": {
    "type": "ByteLevel",
    "add_prefix_space": false,
    "trim_offsets": true,
    "use_regex": true
  },
  "post_processor": {
    "type": "ByteLevel",
    "add_prefix_space": true,
    "trim_offsets": false,
    "use_regex": true
  },
  "decoder": {
    "type": "ByteLevel",
    "add_prefix_space": true,
    "trim_offsets": true,
    "use_regex": true
  },
  "model": {
    "type": "BPE",
    "dropout": null,
    "unk_token": null,
    "continuing_subword_prefix": null,
    "end_of_word_suffix": null,
    "fuse_unk": false,
    "byte_fallback": false,
    "vocab": {
      "<|EOS|>": 0,
      "<|PAD|>": 1,
      "<|UNK|>": 2,
      "!": 3,
      "#": 4,
      "+": 5,
      ",": 6,
      ".": 7,
      "/": 8,
      "0": 9,
      "1": 10,
      "2": 11,
      "3": 12,
      "4": 13,
      "5": 14,
      "6": 15,
      "7": 16,
      "8": 17,
      "9": 18,
      "=": 19,
      "?": 20,
      "A": 21,
      "B": 22,
      "C": 23,
      "D": 24,
      "H": 25,
      "J": 26,
      "N": 27,
      "P": 28,
      "T": 29,
      "X": 30,
      "Y": 31,
      "`": 32,
      "a": 33,
      "b": 34,
      "c": 35,
      "d": 36,
      "e": 37,
      "f": 38,
      "g": 39,
      "h": 40,
      "i": 41,
      "j": 42,
      "k": 43,
      "l": 44,
      "m": 45,
      "n": 46,
      "o": 47,
      "p": 48,
      "q": 49,
      "r": 50,
      "s": 51,
      "t": 52,
      "u": 53,
      "v": 54,
      "w": 55,
      "x": 56,
      "y": 57,
      "z": 58,
      "¡": 59,
      "¢": 60,
      "¤": 61,
      "¥": 62,
      "¦": 63,
      "§": 64,
      "¨": 65,
      "©": 66,
      "ª": 67,
      "«": 68,
      "®": 69,
      "¯": 70,
      "²": 71,
      "³": 72,
      "´": 73,
      "¶": 74,
      "¹": 75,
      "º": 76,
      "»": 77,
      "¼": 78,
      "½": 79,
      "¾": 80,
      "Â": 81,
      "Ã": 82,
      "Ä": 83,
      "Å": 84,
      "Ï": 85,
      "â": 86,
      "Ċ": 87,
      "Ġ": 88,
      "Ģ": 89,
      "Ĥ": 90,
      "Ħ": 91,
      "ħ": 92,
      "ĩ": 93,
      "Ī": 94,
      "Ĭ": 95,
      "į": 96,
      "ı": 97,
      "Ĵ": 98,
      "ĵ": 99,
      "Ļ": 100,
      "ļ": 101,
      "Ľ": 102,
      "Ł": 103,
      "ł": 104,
      "Ń": 105,
      "Ġ#": 106,
      "ÃŃ": 107,
      "Ġs": 108,
      "Ġ1": 109,
      "Ã¡": 110,
      "ÄĽ": 111,
      "Ġv": 112,
      "Ġa": 113,
      "Ġp": 114,
      "Ġj": 115,
      "Ġn": 116,
      "Ġt": 117,
      "Å¾": 118,
      "ch": 119,
      "Ġz": 120,
      "Å¡": 121,
      "Ġo": 122,
      "Ġk": 123,
      "ÅĻ": 124,
      "Ġm": 125,
      "ou": 126,
      "Ã½": 127,
      "Ġd": 128,
      "Ã©": 129,
      "Äį": 130,
      "la": 131,
      "en": 132,
      "st": 133,
      "Ġ10": 134,
      "Ġb": 135,
      "Ġ8": 136,
      "em": 137,
      "Ġi": 138,
      "Ġ11": 139,
      "le": 140,
      "Ġh": 141,
      "Ġse": 142,
      "ra": 143,
      "ro": 144,
      "li": 145,
      "ak": 146,
      "Å¯": 147,
      "Ġe": 148,
      "Ġu": 149,
      "Ġpo": 150,
      "Ġne": 151,
      "Ġje": 152,
      "Ġna": 153,
      "XX": 154,
      "lo": 155,
      "ce": 156,
      "ÅĻe": 157,
      "nÄĽ": 158,
      "AB": 159,
      "rÃ¡": 160,
      "va": 161,
      "nÃŃ": 162,
      "Ġ9": 163,
      "ti": 164,
      "ĠÅ¾": 165,
      "Ġst": 166,
      "ne": 167,
      "vÄĽ": 168,
      "dy": 169,
      "Å¡e": 170,
      "sk": 171,
      "ni": 172,
      "ÅĻÃŃ": 173,
      "Ġza": 174,
      "Ġ19": 175,
      "Ġ7": 176,
      "ru": 177,
      "ĠÄĽ": 178,
      "Ġjak": 179,
      "ho": 180,
      "na": 181,
      "te": 182,
      "de": 183,
      "lÃ¡": 184,
      "ÅĻi": 185,
      "nÃ½": 186,
      "je": 187,
      "Ġdo": 188,
      "lu": 189,
      "ka": 190,
      "Ġsv": 191,
      "ĠÄį": 192,
      "ly": 193,
      "Ġto": 194,
      "ci": 195,
      "Ġch": 196,
      "ku": 197,
      "ky": 198,
      "no": 199,
      "nÃ©": 200,
      "Ġ6": 201,
      "Ġby": 202,
      "lÃŃ": 203,
      "ko": 204,
      "nou": 205,
      "vo": 206,
      "Ġji": 207,
      "Ġ12": 208,
      "vÃ¡": 209,
      "tÄĽ": 210,
      "jÃŃ": 211,
      "Ġve": 212,
      "Ġ18": 213,
      "Ġc": 214,
      "Ġjs": 215,
      "il": 216,
      "ÃŃm": 217,
      "Ã¡m": 218,
      "Ġro": 219,
      "ny": 220,
      "nu": 221,
      "..": 222,
      "al": 223,
      "Ġpro": 224,
      "Ġy": 225,
      "Å¥": 226,
      "Ã½ch": 227,
      "ĠAB": 228,
      "ji": 229,
      "Ġr": 230,
      "Ġjen": 231,
      "00": 232,
      "vÃŃ": 233,
      "sti": 234,
      "tÃŃ": 235,
      "nÃ¡": 236,
      "Ġ1900": 237,
      "Ġen": 238,
      "ĠÅ¡": 239,
      "da": 240,
      "ĠÅ¾e": 241,
      "XXXX": 242,
      "do": 243,
      "Ġko": 244,
      "XA": 245,
      "di": 246,
      "Ġ13": 247,
      "Ġvy": 248,
      "dÄĽ": 249,
      "Ġle": 250,
      "Ġho": 251,
      "Ġta": 252,
      "du": 253,
      "ta": 254,
      "vi": 255,
      "Ġmo": 256,
      "Ġvz": 257,
      "Ġob": 258,
      "Ġkdy": 259,
      "po": 260,
      "Ã½m": 261,
      "ĠABAB": 262,
      "to": 263,
      "ĠvÄĽ": 264,
      "vÃ©": 265,
      "Ġmi": 266,
      "ĠpÅĻe": 267,
      "Ġbo": 268,
      "Ġco": 269,
      "mu": 270,
      "lÃ©": 271,
      "ve": 272,
      "Ġtak": 273,
      "Å¡i": 274,
      "Äįi": 275,
      "se": 276,
      "ĠA": 277,
      "Ġpa": 278,
      "lou": 279,
      "80": 280,
      "Ġ1880": 281,
      "Ġdu": 282,
      "Äįe": 283,
      "ĠÃ": 284,
      "Å¾e": 285,
      "ÅĪ": 286,
      "Ġod": 287,
      "vy": 288,
      "20": 289,
      "Ġtu": 290,
      "ar": 291,
      "Ġroz": 292,
      "Ġmu": 293,
      "cÃŃ": 294,
      "mi": 295,
      "ĠXXXX": 296,
      "ĠvÅ¡e": 297,
      "Å¡ÃŃ": 298,
      "Ġni": 299,
      "at": 300,
      "vÄĽt": 301,
      "ĠtÄĽ": 302,
      "ĠvÅ¡": 303,
      "Ġti": 304,
      "ĠnÃ¡": 305,
      "Äı": 306,
      "Ġ1920": 307,
      "dÃ¡": 308,
      "mÄĽ": 309,
      "as": 310,
      "ĠÄįe": 311,
      "ry": 312,
      "ÄįÃŃ": 313,
      "rd": 314,
      "Ġno": 315,
      "Ġte": 316,
      "kÃ¡": 317,
      "by": 318,
      "Ġka": 319,
      "Ġjsem": 320,
      "ĠvÃŃ": 321,
      "vu": 322,
      "be": 323,
      "Ġli": 324,
      "dÃŃ": 325,
      "ĠzÃ¡": 326,
      "ĠÅ¾i": 327,
      "Ġsp": 328,
      "ze": 329,
      "...": 330,
      "ĠnÄĽ": 331,
      "Ġhla": 332,
      "Å¾i": 333,
      "ĠkdyÅ¾": 334,
      "ĠdÃ¡": 335,
      "Ġas": 336,
      "ĠkrÃ¡": 337,
      "ha": 338,
      "ĠpÅĻi": 339,
      "me": 340,
      "tÃ¡": 341,
      "Ġbu": 342,
      "Ġsi": 343,
      "ma": 344,
      "Å¾ÃŃ": 345,
      "mÃŃ": 346,
      "ĠmÄĽ": 347,
      "Ġty": 348,
      "Ġ5": 349,
      "Ġru": 350,
      "Ġou": 351,
      "ĠAAB": 352,
      "ĠsvÃ©": 353,
      "Ġsrd": 354,
      "tu": 355,
      "enÃŃ": 356,
      "Å¯j": 357,
      "ĠmÃ¡": 358,
      "bo": 359,
      "ĠdÄĽ": 360,
      "Ġjako": 361,
      "Ġpra": 362,
      "ĠjÃ¡": 363,
      "sta": 364,
      "ĠXA": 365,
      "ĠvÅ¡ak": 366,
      "Ġvo": 367,
      "ĠÃº": 368,
      "Ġpr": 369,
      "Ġsk": 370,
      "val": 371,
      "Ġani": 372,
      "ty": 373,
      "hu": 374,
      "kou": 375,
      "Ġkde": 376,
      "bÄĽ": 377,
      "Ġten": 378,
      "mo": 379,
      "lem": 380,
      "ez": 381,
      "Ġce": 382,
      "hy": 383,
      "ĠAABB": 384,
      "vou": 385,
      "chu": 386,
      "kem": 387,
      "lad": 388,
      "ĠlÃ¡": 389,
      "Ġvi": 390,
      "si": 391,
      "40": 392,
      "lÃ½": 393,
      "nÃ½ch": 394,
      "ĠvÃ¡": 395,
      "Ġtam": 396,
      "stÃŃ": 397,
      "ĠdÃŃ": 398,
      "Ġpod": 399,
      "ĠjiÅ¾": 400,
      "ĠsvÄĽt": 401,
      "bi": 402,
      "Ġnad": 403,
      "pÄĽ": 404,
      "Ġjeho": 405,
      "ĠXAXA": 406,
      "sÃŃ": 407,
      "Ġkr": 408,
      "led": 409,
      "Å¡tÄĽ": 410,
      "ĠrÃ¡": 411,
      "Ġra": 412,
      "ĠjeÅ¾": 413,
      "Ġem": 414,
      "sa": 415,
      "ĠpÅĻÃŃ": 416,
      "len": 417,
      "kÃ©": 418,
      "Ġzem": 419,
      "Ġad": 420,
      "Ġslu": 421,
      "bu": 422,
      "kÅ¯": 423,
      "pa": 424,
      "Ġjed": 425,
      "Ġmy": 426,
      "vÃ½": 427,
      "cho": 428,
      "Ġsrdce": 429,
      "su": 430,
      "ba": 431,
      "vat": 432,
      "men": 433,
      "Ġbyl": 434,
      "hÃ¡": 435,
      "Å¾dy": 436,
      "rou": 437,
      "Ġkte": 438,
      "ĠtÃ©": 439,
      "dou": 440,
      "sky": 441,
      "pÃŃ": 442,
      "Ġsta": 443,
      "Ġpe": 444,
      "ĠÅ¡e": 445,
      "Ġvla": 446,
      "CC": 447,
      "ste": 448,
      "Ġzas": 449,
      "ĠaÅ¾": 450,
      "my": 451,
      "ĠpÃ¡": 452,
      "ĠjÃŃ": 453,
      "sy": 454,
      "Ġat": 455,
      "ĠpÃŃ": 456,
      "ĠlÃŃ": 457,
      "Ġma": 458,
      "ĠmÃŃ": 459,
      "ĠmÃ©": 460,
      "nÃ½m": 461,
      "ĠstÃ¡": 462,
      "ĠvÅ¾dy": 463,
      "zÃŃ": 464,
      "ĠnÃ¡m": 465,
      "Ġbez": 466,
      "ĠjenÅ¾": 467,
      "Ġpak": 468,
      "Ġ15": 469,
      "ĠbÃŃ": 470,
      "Ġkdo": 471,
      "Ġale": 472,
      "Ġhro": 473,
      "ĠpÅĻed": 474,
      "Ġze": 475,
      "Ġzla": 476,
      "Ġon": 477,
      "ĠnÃŃ": 478,
      "Ġ14": 479,
      "Ġmne": 480,
      "zd": 481,
      "Ġpla": 482,
      "Ġl": 483,
      "Ġdi": 484,
      "ĠuÅ¾": 485,
      "ĠÅĻe": 486,
      "Ġlid": 487,
      "ĠXXXXXX": 488,
      "hou": 489,
      "60": 490,
      "Ġso": 491,
      "Ġan": 492,
      "Ġtv": 493,
      "Ġhle": 494,
      "ĠÃ³": 495,
      "Ġsa": 496,
      "re": 497,
      "Ġal": 498,
      "Ġjest": 499,
      "kÃ½": 500,
      "cha": 501,
      "Ġeni": 502,
      "skÃ©": 503,
      "zi": 504,
      "mÃ¡": 505,
      "rÃ½": 506,
      "ĠtvÃ¡": 507,
      "ĠÅ¾ivo": 508,
      "ĠÄįi": 509,
      "ĠvÃ½": 510,
      "Ġnej": 511,
      "Ġ4": 512,
      "Ġiti": 513,
      "ĠkaÅ¾": 514,
      "nce": 515,
      "Ġed": 516,
      "rÃ©": 517,
      "ÅĻÃ¡": 518,
      "Ġsvou": 519,
      "Ġnez": 520,
      "Ġslo": 521,
      "Ġot": 522,
      "sto": 523,
      "Ġzra": 524,
      "ĠsvÄĽ": 525,
      "ĠprÃ¡": 526,
      "pu": 527,
      "ĠkvÄĽt": 528,
      "Ġdne": 529,
      "Ġ16": 530,
      "nem": 531,
      "ĠteÄı": 532,
      "Ġpou": 533,
      "pi": 534,
      "tr": 535,
      "ĠneÅ¾": 536,
      "Ġsna": 537,
      "ĠÄįer": 538,
      "Ġku": 539,
      "Ġ1940": 540,
      "Ġtou": 541,
      "Ġsto": 542,
      "Ġnem": 543,
      "Å¯m": 544,
      "bou": 545,
      "Ġnes": 546,
      "Ġjsou": 547,
      "ĠoÄįi": 548,
      "Ġpos": 549,
      "tem": 550,
      "ej": 551,
      "ĠplÃ¡": 552,
      "Ġnebe": 553,
      "ska": 554,
      "ĠÅ¾en": 555,
      "BA": 556,
      "Ġjsi": 557,
      "Ġsvo": 558,
      "Ġjej": 559,
      "dÄĽl": 560,
      "ĠdÃ¡l": 561,
      "rt": 562,
      "pe": 563,
      "Ġci": 564,
      "Ġf": 565,
      "Ġoh": 566,
      "Ġme": 567,
      "Ġdob": 568,
      "ĠvÅ¡ech": 569,
      "ĠpÄĽ": 570,
      "chÃ¡": 571,
      "ĠjejÃŃ": 572,
      "Ġva": 573,
      "ĠtvÃ©": 574,
      "Ġsla": 575,
      "ĠmnÄĽ": 576,
      "Ġici": 577,
      "ĠjeÅ¡tÄĽ": 578,
      "Ġosti": 579,
      "ĠmÅ¯j": 580,
      "Ġda": 581,
      "zy": 582,
      "rÅ¯": 583,
      "Ġali": 584,
      "ĠduÅ¡e": 585,
      "Ġdru": 586,
      "ĠÄįas": 587,
      "tÃ©": 588,
      "Ġja": 589,
      "stu": 590,
      "Ġbra": 591,
      "Å¡el": 592,
      "Ġvel": 593,
      "Ġala": 594,
      "ĠABBA": 595,
      "nÃ©m": 596,
      "ĠkaÅ¾d": 597,
      "ĠhvÄĽ": 598,
      "nost": 599,
      "Ġpl": 600,
      "Ġkra": 601,
      "ĠÅĻÃŃ": 602,
      "Ġ1860": 603,
      "Ġati": 604,
      "Ġsy": 605,
      "nul": 606,
      "bÃŃ": 607,
      "ĠsÃŃ": 608,
      "ĠnÃ¡s": 609,
      "Ġsnad": 610,
      "nÅ¯": 611,
      "ĠcÃŃ": 612,
      "ĠstÃŃ": 613,
      "sku": 614,
      "nÃŃm": 615,
      "Ġzde": 616,
      "Ġden": 617,
      "Ġdra": 618,
      "Ġbla": 619,
      "Ġsm": 620,
      "Ġ1840": 621,
      "ĠaÅ¥": 622,
      "vil": 623,
      "Ġstra": 624,
      "Ġtom": 625,
      "Ġvl": 626,
      "ĠvÅ¡ec": 627,
      "enÃ©": 628,
      "ĠvÅ¯": 629,
      "Ġlo": 630,
      "Ġkle": 631,
      "Ġstar": 632,
      "ĠÄĽt": 633,
      "ĠrÅ¯": 634,
      "tel": 635,
      "ĠnÄĽm": 636,
      "hle": 637,
      "Ġila": 638,
      "Ġhu": 639,
      "Ġla": 640,
      "Ġhra": 641,
      "rem": 642,
      "ĠbÄĽ": 643,
      "jem": 644,
      "Ġnech": 645,
      "Ġneb": 646,
      "ĠbÃ½": 647,
      "dem": 648,
      "Ġam": 649,
      "Ġbude": 650,
      "Ġpu": 651,
      "Ġlu": 652,
      "tÃ½": 653,
      "ĠAA": 654,
      "chy": 655,
      "py": 656,
      "ĠchvÃŃ": 657,
      "Ġcho": 658,
      "Ġmra": 659,
      "Ġde": 660,
      "Ġit": 661,
      "ĠvÄĽÄį": 662,
      "Äįka": 663,
      "tek": 664,
      "Ġes": 665,
      "chem": 666,
      "ĠduÅ¡i": 667,
      "Ġost": 668,
      "Ġsou": 669,
      "Ġhlu": 670,
      "Ġry": 671,
      "vem": 672,
      "Ġjsme": 673,
      "Ġmod": 674,
      "Ġha": 675,
      "Ġba": 676,
      "ĠÅ¾Ã¡": 677,
      "Ġoji": 678,
      "ĠbÃ¡": 679,
      "Ġok": 680,
      "ĠkrÃ¡s": 681,
      "dla": 682,
      "ĠobÄĽ": 683,
      "Ġsl": 684,
      "Ġsly": 685,
      "nÃ¡m": 686,
      "Ġpoz": 687,
      "Ġzvo": 688,
      "Ġtr": 689,
      "ĠĊ": 690,
      "Ġaji": 691,
      "Ġsmu": 692,
      "Ġslad": 693,
      "Ġach": 694,
      "ĠnenÃŃ": 695,
      "Ġpoh": 696,
      "tra": 697,
      "Ġjich": 698,
      "ĠÅ¾ivot": 699,
      "Ġdnes": 700,
      "Ġre": 701,
      "Ġili": 702,
      "Ġdlou": 703,
      "ĠsÃ¡m": 704,
      "Ġzd": 705,
      "Ġvra": 706,
      "hÃ½": 707,
      "sÅ¥": 708,
      "Ġbych": 709,
      "Ġkou": 710,
      "til": 711,
      "Ġmno": 712,
      "Ġjas": 713,
      "hÃ©": 714,
      "Å¾en": 715,
      "ÅĻen": 716,
      "stÄĽ": 717,
      "Ġstro": 718,
      "pÃ¡": 719,
      "ĠkÅĻÃŃ": 720,
      "Ġmat": 721,
      "ĠÅ¡tÄĽ": 722,
      "nosti": 723,
      "Ġslunce": 724,
      "Ġspo": 725,
      "Ġmil": 726,
      "Ġeho": 727,
      "ĠtÄĽch": 728,
      "Ġbou": 729,
      "Ġice": 730,
      "Ġtvo": 731,
      "ĠvÃ¡m": 732,
      "Ġbylo": 733,
      "cem": 734,
      "ĠzpÄĽ": 735,
      "Ġsvat": 736,
      "Ġiva": 737,
      "jÅ¡ÃŃ": 738,
      "so": 739,
      "Ġava": 740,
      "stÃ¡": 741,
      "zu": 742,
      "cÃŃch": 743,
      "ĠchtÄĽ": 744,
      "vÃ½ch": 745,
      "tou": 746,
      "ĠslÃ¡": 747,
      "sÃ¡": 748,
      "za": 749,
      "Ġmou": 750,
      "Ġavy": 751,
      "Ġjim": 752,
      "Ġnep": 753,
      "jich": 754,
      "stvÃŃ": 755,
      "Ġml": 756,
      "stou": 757,
      "sty": 758,
      "Ġeny": 759,
      "bÃ¡": 760,
      "Äįky": 761,
      "ĠtÅĻe": 762,
      "ven": 763,
      "Ġnich": 764,
      "Ġmar": 765,
      "kal": 766,
      "Ġhlas": 767,
      "ĠptÃ¡": 768,
      "Ġnik": 769,
      "lovÄĽ": 770,
      "ri": 771,
      "sud": 772,
      "Ġsmut": 773,
      "ĠXX": 774,
      "ÅĻel": 775,
      "cen": 776,
      "Äįek": 777,
      "ĠlÃ¡sky": 778,
      "ĠzÅĻÃŃ": 779,
      "Ġaly": 780,
      "tÃŃm": 781,
      "Ġkro": 782,
      "ĠsvÅ¯j": 783,
      "Å¯h": 784,
      "Ġkli": 785,
      "ev": 786,
      "Ġin": 787,
      "hla": 788,
      "Äįku": 789,
      "skÃ½": 790,
      "Ġbyla": 791,
      "ĠpÃŃs": 792,
      "Ġmilo": 793,
      "skou": 794,
      "Ġmys": 795,
      "Ġnu": 796,
      "Ġet": 797,
      "vÃ½m": 798,
      "vnÃŃ": 799,
      "ĠÄįlovÄĽ": 800,
      "Ġak": 801,
      "ĠsvÃ½m": 802,
      "ad": 803,
      "Ġzda": 804,
      "ĠAABBCC": 805,
      "Ġtem": 806,
      "krÃ¡": 807,
      "ĠsmÄĽ": 808,
      "Ġkam": 809,
      "nÃ©ho": 810,
      "hne": 811,
      "ĠsvÃŃ": 812,
      "Ġos": 813,
      "Ġg": 814,
      "Ġar": 815,
      "kla": 816,
      "Ġus": 817,
      "skÃ¡": 818,
      "Ġane": 819,
      "seÅĪ": 820,
      "dil": 821,
      "ĠnÃŃm": 822,
      "nil": 823,
      "ĠAAXX": 824,
      "ĠtvÅ¯j": 825,
      "ĠĠ": 826,
      "Ġvr": 827,
      "ĠsobÄĽ": 828,
      "ĠmÃ¡m": 829,
      "Å¡en": 830,
      "Ġkol": 831,
      "ĠsnÄĽ": 832,
      "Ġaby": 833,
      "ÅĻil": 834,
      "Ġkolem": 835,
      "ĠÄĽni": 836,
      "ĠtobÄĽ": 837,
      "ĠÄįa": 838,
      "Ġhne": 839,
      "ĠbÅ¯h": 840,
      "ĠhvÄĽz": 841,
      "Ġina": 842,
      "ĠkaÅ¾dÃ½": 843,
      "ĠvÃŃc": 844,
      "ĠtÃ¡": 845,
      "Å¡Å¥": 846,
      "ĠproÄį": 847,
      "Ã©m": 848,
      "Ġbe": 849,
      "ĠsvÃ½ch": 850,
      "ĠÅ¡ÃŃ": 851,
      "Ġke": 852,
      "ĠÄĽla": 853,
      "ĠblÃŃ": 854,
      "ĠzemÄĽ": 855,
      "Ġkla": 856,
      "ĠpÅĻes": 857,
      "Ġrado": 858,
      "ĠtÄĽÅ¾": 859,
      "Ġchu": 860,
      "Äįen": 861,
      "Ġena": 862,
      "ĠÅ¾itÃŃ": 863,
      "Ġhned": 864,
      "ĠpÅ¯": 865,
      "ÅĻem": 866,
      "ĠvÃ¡s": 867,
      "Å¡ÃŃm": 868,
      "Ġily": 869,
      "Ġble": 870,
      "nout": 871,
      "Ġor": 872,
      "Å¡tÃŃ": 873,
      "Ġpan": 874,
      "nky": 875,
      "Ġchce": 876,
      "ĠtÃ©Å¾": 877,
      "Ġoko": 878,
      "ĠzdÃ¡": 879,
      "hem": 880,
      "ĠvÅ¡em": 881,
      "Ġnoc": 882,
      "Ġjejich": 883,
      "ĠsmÃŃ": 884,
      "Ġsrdci": 885,
      "Ġtich": 886,
      "ĠdÅĻÃŃ": 887,
      "Å¡ti": 888,
      "Ġmrt": 889,
      "Ġruce": 890,
      "Ġada": 891,
      "ĠleÄį": 892,
      "Ġsva": 893,
      "Ġum": 894,
      "pr": 895,
      "ĠvÅ¡ecko": 896,
      "Ġmoje": 897,
      "Ġoz": 898,
      "pla": 899,
      "Ġzemi": 900,
      "Äįil": 901,
      "Ġuje": 902,
      "jde": 903,
      "mÅ¯": 904,
      "ĠtÃŃm": 905,
      "lil": 906,
      "co": 907,
      "om": 908,
      "ĠvÄĽt": 909,
      "Ġsmr": 910,
      "ĠveÄįe": 911,
      "Ġbi": 912,
      "Ġic": 913,
      "ĠchvÄĽ": 914,
      "Ġnepo": 915,
      "Ġiny": 916,
      "lÃ½ch": 917,
      "vÃŃm": 918,
      "ĠmÄĽl": 919,
      "Ġene": 920,
      "Ġvlast": 921,
      "nek": 922,
      "Ġju": 923,
      "Ġjste": 924,
      "ĠhÃ¡": 925,
      "ĠbuÄı": 926,
      "pomÃŃ": 927,
      "ĠÅ¡tÄĽstÃŃ": 928,
      "ĠpÅĻec": 929,
      "Ġid": 930,
      "Ġsem": 931,
      "lÅ¯": 932,
      "ĠuÅ¡i": 933,
      "Ġej": 934,
      "ĠnaÅ¡e": 935,
      "ĠspÃ¡": 936,
      "ĠÅ¡u": 937,
      "Ġel": 938,
      "Ġov": 939,
      "dce": 940,
      "nal": 941,
      "Ġzrak": 942,
      "sko": 943,
      "Ġova": 944,
      "ved": 945,
      "ĠÅĻ": 946,
      "Ġech": 947,
      "Ġira": 948,
      "Å¾il": 949,
      "ĠaÄį": 950,
      "dnÃ©": 951,
      "hÅ¯": 952,
      "Ġjenom": 953,
      "Å¡li": 954,
      "Ġtebe": 955,
      "ĠABABCC": 956,
      "cÅ¯": 957,
      "skÃ½ch": 958,
      "Ġote": 959,
      "vnÄĽ": 960,
      "Ġles": 961,
      "Ġnoci": 962,
      "ĠnÃ¡ro": 963,
      "zo": 964,
      "Ġsko": 965,
      "Ġzlo": 966,
      "Ġjem": 967,
      "ĠzpÃŃ": 968,
      "Ġple": 969,
      "Ġhlavu": 970,
      "ĠoÅĻi": 971,
      "kÃ½ch": 972,
      "Ġaci": 973,
      "Ġhru": 974,
      "Ġest": 975,
      "Ġol": 976,
      "Ġprav": 977,
      "pad": 978,
      "ĠvlÃ¡": 979,
      "Ġsen": 980,
      "ĠmuÅ¾": 981,
      "Ġzb": 982,
      "Ġsu": 983,
      "Ġny": 984,
      "Ġmlad": 985,
      "Ġmez": 986,
      "dnÄĽ": 987,
      "Ġaz": 988,
      "nÃŃch": 989,
      "Ġhr": 990,
      "Ġzah": 991,
      "sou": 992,
      "ĠdÃ¡v": 993,
      "AX": 994,
      "Ġmoc": 995,
      "ĠstÅĻe": 996,
      "Ġkru": 997,
      "an": 998,
      "Ġprou": 999,
      "dech": 1000,
      "ĠlÃ©": 1001,
      "Ġela": 1002,
      "Ġhor": 1003,
      "Ġoku": 1004,
      "ĠcelÃ½": 1005,
      "dÃŃm": 1006,
      "AA": 1007,
      "ast": 1008,
      "Å¡ich": 1009,
      "nÃŃk": 1010,
      "ĠhÅĻÃŃ": 1011,
      "Ġobra": 1012,
      "Ġduch": 1013,
      "Ġoli": 1014,
      "Ġmlu": 1015,
      "Ġjde": 1016,
      "tÅ¯": 1017,
      "er": 1018,
      "ĠnÃ¡Å¡": 1019,
      "Ġkrev": 1020,
      "Ġany": 1021,
      "ĠmlÃ¡": 1022,
      "ĠtakÃ©": 1023,
      "dnÃ½": 1024,
      "ĠkterÃ©": 1025,
      "Ġ3": 1026,
      "ĠÅ¡i": 1027,
      "ĠpÃŃseÅĪ": 1028,
      "ĠÃºs": 1029,
      "ĠABABXX": 1030,
      "ĠÅ¾ÃŃ": 1031,
      "ĠaÅĻi": 1032,
      "tky": 1033,
      "ĠdÃŃv": 1034,
      "ĠdÃŃtÄĽ": 1035,
      "Ġneu": 1036,
      "Ġop": 1037,
      "Ġzvu": 1038,
      "Ġchy": 1039,
      "ĠsnÃŃ": 1040,
      "ĠspÄĽ": 1041,
      "Ġslova": 1042,
      "Ġoni": 1043,
      "ĠmoÅĻe": 1044,
      "Ġ1960": 1045,
      "Ġky": 1046,
      "ĠstojÃŃ": 1047,
      "Ġbole": 1048,
      "Ġdiv": 1049,
      "Ġlet": 1050,
      "Ġsil": 1051,
      "ĠkÅĻi": 1052,
      "cky": 1053,
      "ĠrÃ¡d": 1054,
      "Ġele": 1055,
      "Ġnebo": 1056,
      "Ġhlou": 1057,
      "ĠÅĪ": 1058,
      "sla": 1059,
      "ĠÄįÃŃ": 1060,
      "ĠchvÃŃli": 1061,
      "Ġslun": 1062,
      "Ġavi": 1063,
      "tva": 1064,
      "ĠÅĻek": 1065,
      "jÃŃcÃŃ": 1066,
      "ĠstrÃ¡": 1067,
      "Ġtoho": 1068,
      "hl": 1069,
      "kÃ½m": 1070,
      "Ġil": 1071,
      "Ġpi": 1072,
      "Ġana": 1073,
      "ĠvrÃ¡": 1074,
      "ĠchrÃ¡": 1075,
      "Ġpad": 1076,
      "Ġav": 1077,
      "ĠnÃ¡hle": 1078,
      "ĠmyÅ¡": 1079,
      "ĠvÅ¾dyÅ¥": 1080,
      "ĠÄĽti": 1081,
      "Ġeti": 1082,
      "ĠchtÄĽl": 1083,
      "Ġove": 1084,
      "Ġtro": 1085,
      "Ġpok": 1086,
      "ĠoÄįÃŃ": 1087,
      "ĠlÃ¡ska": 1088,
      "ĠtvÃ¡ÅĻ": 1089,
      "tku": 1090,
      "ĠtÃŃ": 1091,
      "ĠbÃ½t": 1092,
      "Ġ17": 1093,
      "Ġalo": 1094,
      "Ġmal": 1095,
      "ĠsvÃ©ho": 1096,
      "ĠÄįlovÄĽk": 1097,
      "ĠnÄĽk": 1098,
      "Ġdal": 1099,
      "Ġuk": 1100,
      "Å¡la": 1101,
      "ĠskÃ¡": 1102,
      "Ġmnou": 1103,
      "Ġnic": 1104,
      "Äįko": 1105,
      "ĠnynÃŃ": 1106,
      "Ġaj": 1107,
      "Ġmezi": 1108,
      "Ġjeden": 1109,
      "Ġady": 1110,
      "zen": 1111,
      "Ġona": 1112,
      "ĠvÃ¡Å¡": 1113,
      "ĠzÃŃ": 1114,
      "ĠspÃŃ": 1115,
      "Ġzje": 1116,
      "Ġzase": 1117,
      "ĠsvÃ©m": 1118,
      "dnou": 1119,
      "jÃŃc": 1120,
      "ĠhvÄĽzd": 1121,
      "Ġebe": 1122,
      "Ġmla": 1123,
      "Ġchlad": 1124,
      "ĠstÅĻÃŃ": 1125,
      "Ġtma": 1126,
      "snÄĽ": 1127,
      "nec": 1128,
      "Ġuh": 1129,
      "Ġtru": 1130,
      "Å¯Å¾e": 1131,
      "ĠhnÄĽ": 1132,
      "nka": 1133,
      "mÃ©": 1134,
      "ĠtiÅ¡e": 1135,
      "Ġbrat": 1136,
      "pra": 1137,
      "Ġvol": 1138,
      "Ġboj": 1139,
      "Ġich": 1140,
      "Ġoje": 1141,
      "rnÄĽ": 1142,
      "ĠkterÃ½": 1143,
      "Ġjednou": 1144,
      "ĠstÃ¡le": 1145,
      "ĠsvÄĽta": 1146,
      "Ġpoto": 1147,
      "nÃ¡ch": 1148,
      "nku": 1149,
      "Ġami": 1150,
      "ÄįnÄĽ": 1151,
      "Ġaje": 1152,
      "dnÃŃ": 1153,
      "ĠÃºsmÄĽ": 1154,
      "Ġinu": 1155,
      "ĠkvÃŃ": 1156,
      "Ġdr": 1157,
      "Ġstu": 1158,
      "Ġsvi": 1159,
      "Ġhe": 1160,
      "zem": 1161,
      "krÃ¡t": 1162,
      "ĠvÃŃce": 1163,
      "ĠoÅĻe": 1164,
      "lit": 1165,
      "rost": 1166,
      "nÄĽl": 1167,
      "Ġaty": 1168,
      "stal": 1169,
      "sÃŃc": 1170,
      "Ġnemo": 1171,
      "ouf": 1172,
      "mou": 1173,
      "ĠÅ¡Å¥": 1174,
      "ĠhrÃ¡": 1175,
      "rov": 1176,
      "Ġemi": 1177,
      "ĠXXAA": 1178,
      "Ġvzdu": 1179,
      "Ġev": 1180,
      "ke": 1181,
      "ĠpÅĻÃ¡": 1182,
      "lech": 1183,
      "Ġate": 1184,
      "Ġposled": 1185,
      "ĠbÃŃlÃ©": 1186,
      "Ġodpo": 1187,
      "Ġile": 1188,
      "Ġzo": 1189,
      "ĠbÅĻe": 1190,
      "ĠcoÅ¾": 1191,
      "Ġpoko": 1192,
      "Ġim": 1193,
      "stÃ©": 1194,
      "ĠboÅ¾ÃŃ": 1195,
      "Ġsebe": 1196,
      "Ġveli": 1197,
      "ĠuÄįi": 1198,
      "zel": 1199,
      "Ġuti": 1200,
      "ĠznÃ¡m": 1201,
      "Ġbled": 1202,
      "Ġosud": 1203,
      "Ġnebi": 1204,
      "vÃ©m": 1205,
      "Ġnen": 1206,
      "Ġjar": 1207,
      "skem": 1208,
      "tech": 1209,
      "ĠaÄįi": 1210,
      "vala": 1211,
      "ĠÅ¾a": 1212,
      "Ġnikdy": 1213,
      "Ġven": 1214,
      "ĠiÅ¾": 1215,
      "ĠÄĽl": 1216,
      "ĠsvÃ¡": 1217,
      "Ġrukou": 1218,
      "CCB": 1219,
      "ÅĻÃŃm": 1220,
      "Ġved": 1221,
      "lek": 1222,
      "ĠveÄįer": 1223,
      "Ġbudou": 1224,
      "Ġjedno": 1225,
      "ĠkrÃ¡l": 1226,
      "Ġjedi": 1227,
      "Ġ1820": 1228,
      "ĠtrÃ¡": 1229,
      "ĠnadÄĽ": 1230,
      "ĠjuÅ¾": 1231,
      "Ġup": 1232,
      "Ã½mi": 1233,
      "Ġoka": 1234,
      "Ġtomu": 1235,
      "Ġom": 1236,
      "ĠklÃŃ": 1237,
      "Ġplamen": 1238,
      "Ġnedo": 1239,
      "vra": 1240,
      "ĠvzpomÃŃ": 1241,
      "Ġzna": 1242,
      "ĠpÃ¡n": 1243,
      "Ġavu": 1244,
      "dal": 1245,
      "ĠznÃŃ": 1246,
      "Ġvese": 1247,
      "vit": 1248,
      "ĠbrÃ¡": 1249,
      "ĠÄĽje": 1250,
      "Ġolu": 1251,
      "Ġtys": 1252,
      "ĠÅ¡Å¥ast": 1253,
      "jte": 1254,
      "ĠhrÅ¯": 1255,
      "dlo": 1256,
      "ĠAXA": 1257,
      "ĠrÅ¯Å¾e": 1258,
      "ĠvÃŃtÄĽ": 1259,
      "Ġzi": 1260,
      "ĠAABCCB": 1261,
      "Ġkdyby": 1262,
      "Ġpoli": 1263,
      "vz": 1264,
      "Ġzak": 1265,
      "Ġste": 1266,
      "Ġer": 1267,
      "ABB": 1268,
      "Ġsle": 1269,
      "ĠhÅĻ": 1270,
      "ÄįnÃŃ": 1271,
      "Ġslav": 1272,
      "Ġvoj": 1273,
      "Ġovy": 1274,
      "ĠzvÄĽ": 1275,
      "Ġzno": 1276,
      "Ġlou": 1277,
      "Ġpot": 1278,
      "Ġadu": 1279,
      "uje": 1280,
      "ĠjÃŃm": 1281,
      "tal": 1282,
      "ĠnevÄĽ": 1283,
      "rak": 1284,
      "Ġoci": 1285,
      "Ġchci": 1286,
      "ĠÅ¡el": 1287,
      "nes": 1288,
      "dÃ©": 1289,
      "dÅ¯": 1290,
      "Ġokem": 1291,
      "Ġomu": 1292,
      "ĠzlatÃ©": 1293,
      "ĠdÄĽti": 1294,
      "Ġude": 1295,
      "pil": 1296,
      "Ġhrob": 1297,
      "Ġuli": 1298,
      "Ġiku": 1299,
      "vr": 1300,
      "ĠstÃŃn": 1301,
      "cÃŃm": 1302,
      "Ġah": 1303,
      "Ġivy": 1304,
      "rnÃ©": 1305,
      "Ġdva": 1306,
      "znÄĽ": 1307,
      "Ġves": 1308,
      "pÄĽt": 1309,
      "Ġoj": 1310,
      "Ġzm": 1311,
      "ĠprvnÃŃ": 1312,
      "Ġsmrti": 1313,
      "Ġata": 1314,
      "Ġnebes": 1315,
      "ĠtvÃ½ch": 1316,
      "Ġklo": 1317,
      "Äįel": 1318,
      "Ġasy": 1319,
      "Ġbar": 1320,
      "ĠXAAX": 1321,
      "Ġnevi": 1322,
      "Ġano": 1323,
      "ĠdÅ¯": 1324,
      "ĠavÄĽ": 1325,
      "rnÃ½": 1326,
      "Ġdla": 1327,
      "Ġhou": 1328,
      "Ġovi": 1329,
      "Ġhlavy": 1330,
      "ĠcelÃ©": 1331,
      "ĠkÃ¡": 1332,
      "Ġkraj": 1333,
      "Ġsotva": 1334,
      "ĠmusÃŃ": 1335,
      "ĠoÅ¾i": 1336,
      "Ġdar": 1337,
      "stÃ½": 1338,
      "Ġeli": 1339,
      "Ġobla": 1340,
      "ĠdÃ¡le": 1341,
      "Ã³": 1342,
      "ĠÅ¾al": 1343,
      "Ġilo": 1344,
      "Ġase": 1345,
      "ral": 1346,
      "lal": 1347,
      "vali": 1348,
      "ĠvÃŃm": 1349,
      "ĠkterÃ¡": 1350,
      "ĠnovÃ©": 1351,
      "Ġasu": 1352,
      "Ġode": 1353,
      "ĠanÄĽ": 1354,
      "lik": 1355,
      "Ġpru": 1356,
      "ĠzpÄĽv": 1357,
      "ĠsÃ¡": 1358,
      "ĠÄĽsti": 1359,
      "Ġeda": 1360,
      "Ġsmrt": 1361,
      "ĠpÅĻece": 1362,
      "kÃ¡ch": 1363,
      "ĠÄįÃŃm": 1364,
      "ben": 1365,
      "Ġdce": 1366,
      "Ġhrd": 1367,
      "Ġproti": 1368,
      "Ġstr": 1369,
      "ĠnÃŃÅ¾": 1370,
      "Ġneo": 1371,
      "Ġruka": 1372,
      "kÃ©m": 1373,
      "Ġleh": 1374,
      "nice": 1375,
      "dne": 1376,
      "Ġticho": 1377,
      "Ġjemu": 1378,
      "vÃ¡nÃŃ": 1379,
      "Ġradost": 1380,
      "ĠvolÃ¡": 1381,
      "nic": 1382,
      "Ġely": 1383,
      "Ġneby": 1384,
      "Ġproto": 1385,
      "nit": 1386,
      "Ġpros": 1387,
      "ĠÄĽly": 1388,
      "Ġsh": 1389,
      "Ġruku": 1390,
      "pl": 1391,
      "Ġdvo": 1392,
      "nik": 1393,
      "Ġsli": 1394,
      "ĠletÃŃ": 1395,
      "Ġtaj": 1396,
      "tka": 1397,
      "pou": 1398,
      "Ġtvoje": 1399,
      "Ġuch": 1400,
      "Ġdech": 1401,
      "ĠstarÃ½": 1402,
      "hat": 1403,
      "Ġdlouho": 1404,
      "Ġhroz": 1405,
      "lov": 1406,
      "ĠleÅ¾ÃŃ": 1407,
      "Ġrozko": 1408,
      "Ġadi": 1409,
      "ĠmÃ½ch": 1410,
      "ĠknÄĽ": 1411,
      "Ġvlasti": 1412,
      "um": 1413,
      "ĠÄĽji": 1414,
      "Ġoru": 1415,
      "lÃ½m": 1416,
      "Ġita": 1417,
      "Ġek": 1418,
      "den": 1419,
      "ĠskrÃ¡": 1420,
      "Ġyva": 1421,
      "Ġskry": 1422,
      "Ġazi": 1423,
      "Ġhlavou": 1424,
      "ĠdÄĽl": 1425,
      "Ġtra": 1426,
      "Ġoval": 1427,
      "ÅĻit": 1428,
      "ĠduÅ¡ÃŃ": 1429,
      "sem": 1430,
      "Ġtlu": 1431,
      "Ġplo": 1432,
      "Ġhy": 1433,
      "pal": 1434,
      "Ġrych": 1435,
      "ÄįÃŃm": 1436,
      "ĠkÅĻe": 1437,
      "ĠdÃ¡vno": 1438,
      "dÄĽt": 1439,
      "Ġbr": 1440,
      "Ġuj": 1441,
      "Ġpozd": 1442,
      "tro": 1443,
      "Ġzbo": 1444,
      "Ġhled": 1445,
      "Ġsamo": 1446,
      "Ġese": 1447,
      "vÃ¡m": 1448,
      "Ġsed": 1449,
      "ĠznÃ¡": 1450,
      "ct": 1451,
      "ĠhvÄĽzdy": 1452,
      "let": 1453,
      "Ġjin": 1454,
      "mys": 1455,
      "Äįem": 1456,
      "Ġzh": 1457,
      "Ġtesk": 1458,
      "ĠtoÅ¥": 1459,
      "Ġodi": 1460,
      "ĠcizÃŃ": 1461,
      "ĠdobÅĻe": 1462,
      "pat": 1463,
      "Ġpohled": 1464,
      "ĠboÅ¾e": 1465,
      "Ġnimi": 1466,
      "Ġoba": 1467,
      "Ġjdou": 1468,
      "Ġroze": 1469,
      "ĠvÅ¡u": 1470,
      "ĠvidÃŃ": 1471,
      "Ġtajem": 1472,
      "Ġpom": 1473,
      "lÃŃm": 1474,
      "stÅĻe": 1475,
      "Ġije": 1476,
      "ĠzÃ¡ÅĻÃŃ": 1477,
      "Ġhlubo": 1478,
      "Ġzk": 1479,
      "ĠmÅ¯Å¾e": 1480,
      "zÃ¡": 1481,
      "Ġpane": 1482,
      "lost": 1483,
      "ĠprÃ½": 1484,
      "sil": 1485,
      "ĠvÅ¡ecky": 1486,
      "Ġkri": 1487,
      "Ġzelen": 1488,
      "Ġper": 1489,
      "Ġuz": 1490,
      "ĠÅ¾ena": 1491,
      "ĠÄįasto": 1492,
      "Ã©ho": 1493,
      "Ġidi": 1494,
      "dnÃ¡": 1495,
      "ĠsvÄĽtÄĽ": 1496,
      "ĠposlednÃŃ": 1497,
      "Ġtvou": 1498,
      "Ġotec": 1499,
      "Ġsvoje": 1500,
      "Ġsch": 1501,
      "Å¡em": 1502,
      "ĠÅ¾ivota": 1503,
      "Ġtebou": 1504,
      "ĠvidÄĽl": 1505,
      "Ġsni": 1506,
      "ĠstÅĻÃŃb": 1507,
      "Ġanu": 1508,
      "Ġkdys": 1509,
      "Ġpy": 1510,
      "Ġych": 1511,
      "ran": 1512,
      "Å¡il": 1513,
      "Ġzapo": 1514,
      "ĠÅ¡ep": 1515,
      "ĠhledÃŃ": 1516,
      "ĠkvÄĽty": 1517,
      "ĠnÄĽj": 1518,
      "ĠvÅĻe": 1519,
      "ÄįnÃ©": 1520,
      "nÄĽjÅ¡ÃŃ": 1521,
      "ĠzÃ¡ÅĻ": 1522,
      "ĠnÃ¡rod": 1523,
      "Ġslou": 1524,
      "pen": 1525,
      "Ġplu": 1526,
      "nech": 1527,
      "Ġika": 1528,
      "ĠprÃ¡zd": 1529,
      "ĠpohÃ¡": 1530,
      "ĠÅĻa": 1531,
      "ĠÅ¾ha": 1532,
      "Ġdale": 1533,
      "ja": 1534,
      "bil": 1535,
      "Ġblou": 1536,
      "ĠÅ¡tÃŃ": 1537,
      "ĠÄįelo": 1538,
      "ĠpanÃŃ": 1539,
      "nutÃŃ": 1540,
      "ĠboÅ¾": 1541,
      "stva": 1542,
      "vÅ¯": 1543,
      "ĠtÅĻi": 1544,
      "Ġuji": 1545,
      "Ġklid": 1546,
      "Ġvrou": 1547,
      "ĠsvÃŃtÃŃ": 1548,
      "Ġztra": 1549,
      "Ġlesk": 1550,
      "kol": 1551,
      "ĠtÄĽlo": 1552,
      "Ġpole": 1553,
      "Ġyt": 1554,
      "Ġzach": 1555,
      "cy": 1556,
      "Ġame": 1557,
      "ĠzÅ¯": 1558,
      "Ġ2": 1559,
      "Å¾el": 1560,
      "Ġaku": 1561,
      "Ġudi": 1562,
      "ĠeÄį": 1563,
      "ĠzmÄĽ": 1564,
      "Ġodu": 1565,
      "Ġmoh": 1566,
      "Ġhud": 1567,
      "Ġzve": 1568,
      "Ġeji": 1569,
      "Ġsti": 1570,
      "ĠÄĽlo": 1571,
      "ĠÅĪad": 1572,
      "ĠpoÄį": 1573,
      "ĠnechÅ¥": 1574,
      "dÄĽla": 1575,
      "ĠlÃ¡sku": 1576,
      "ĠsmÃŃch": 1577,
      "Ġzt": 1578,
      "ĠstÄĽ": 1579,
      "Ġaha": 1580,
      "ĠstÃ¡l": 1581,
      "snÃŃ": 1582,
      "kli": 1583,
      "ĠsvojÃŃ": 1584,
      "ĠlÃ¡skou": 1585,
      "hlÃ©": 1586,
      "ĠtÅĻeba": 1587,
      "Ġemu": 1588,
      "Ġpouze": 1589,
      "Ġeta": 1590,
      "ĠjakÃ½": 1591,
      "Ġbys": 1592,
      "Ġaky": 1593,
      "Ġsku": 1594,
      "kÃ¡m": 1595,
      "Ġsvobo": 1596,
      "Ġzu": 1597,
      "ĠchvÃŃle": 1598,
      "Ġasi": 1599,
      "Ġkraji": 1600,
      "dat": 1601,
      "stvi": 1602,
      "Ġneza": 1603,
      "jen": 1604,
      "Ġavou": 1605,
      "Ġdej": 1606,
      "hal": 1607,
      "Ġouci": 1608,
      "Ġut": 1609,
      "Ġpomo": 1610,
      "stem": 1611,
      "Ġlidu": 1612,
      "Å¡enÃŃ": 1613,
      "ĠuÅ¾e": 1614,
      "Ġkni": 1615,
      "Ġmnoho": 1616,
      "ĠchvÃ¡": 1617,
      "ĠnÄĽho": 1618,
      "ĠdrÃ¡": 1619,
      "Ġtady": 1620,
      "ĠvdÄĽ": 1621,
      "Ġzouf": 1622,
      "vÃ¡n": 1623,
      "ĠbÃ½ti": 1624,
      "ĠdÅĻÃŃv": 1625,
      "Ġpotom": 1626,
      "ĠvelkÃ©": 1627,
      "ĠsvÄĽtlo": 1628,
      "ĠpÃŃsnÄĽ": 1629,
      "kle": 1630,
      "ĠpolÃŃ": 1631,
      "ĠiÅ¾i": 1632,
      "ĠbÃŃlÃ½": 1633,
      "Ġmoud": 1634,
      "Ġkry": 1635,
      "zko": 1636,
      "Ġjisk": 1637,
      "ĠvÅ¾dycky": 1638,
      "Ġsklo": 1639,
      "ĠnovÃ½": 1640,
      "Ġkon": 1641,
      "ĠsklÃ¡": 1642,
      "rÃ½ch": 1643,
      "ĠtÅĻ": 1644,
      "Ġkles": 1645,
      "Ġhlava": 1646,
      "Å¯Å¾": 1647,
      "ĠnÃ¡ru": 1648,
      "Ġyti": 1649,
      "pas": 1650,
      "Ġobraz": 1651,
      "Ġsny": 1652,
      "Ġesti": 1653,
      "tÃ½ch": 1654,
      "Ġdro": 1655,
      "ĠvelkÃ½": 1656,
      "Ġola": 1657,
      "Ġtedy": 1658,
      "ĠÄĽli": 1659,
      "ĠpÅ¯l": 1660,
      "Ġyl": 1661,
      "Ġhory": 1662,
      "ĠÅ¾eny": 1663,
      "dÃ½": 1664,
      "znÃŃ": 1665,
      "Ġvich": 1666,
      "ĠdÃ¡li": 1667,
      "Ġnevy": 1668,
      "Ġnese": 1669,
      "Ġpoj": 1670,
      "Ġdost": 1671,
      "ĠvlastnÃŃ": 1672,
      "ĠslyÅ¡": 1673,
      "he": 1674,
      "Ġrou": 1675,
      "Ġslzy": 1676,
      "kÅĻi": 1677,
      "ĠumÃŃ": 1678,
      "vajÃŃ": 1679,
      "Ġzby": 1680,
      "ĠkÃ½": 1681,
      "prÃ¡": 1682,
      "ĠinÄĽ": 1683,
      "ĠnÃ¡mi": 1684,
      "ĠsnÅ¯": 1685,
      "stÅĻÃŃ": 1686,
      "Ġnikdo": 1687,
      "dit": 1688,
      "Ġez": 1689,
      "Ġblu": 1690,
      "ĠvÃŃtr": 1691,
      "kud": 1692,
      "sÅ¯": 1693,
      "ĠvÃŃtÄĽz": 1694,
      "ĠiÅ¡e": 1695,
      "ĠÄĽj": 1696,
      "Ġzlato": 1697,
      "Ġkve": 1698,
      "ĠvÅ¡eho": 1699,
      "ĠsvatÃ½": 1700,
      "Å¾nÄĽ": 1701,
      "lenÃŃ": 1702,
      "vost": 1703,
      "Ġkrve": 1704,
      "ĠumÄĽ": 1705,
      "ĠjejÅ¾": 1706,
      "ĠblÃ¡": 1707,
      "Ġeka": 1708,
      "Ġpapr": 1709,
      "tit": 1710,
      "Ġstej": 1711,
      "Ġvys": 1712,
      "nych": 1713,
      "ĠmarnÄĽ": 1714,
      "stra": 1715,
      "ĠvÄĽru": 1716,
      "ĠjmÃ©": 1717,
      "ĠÄĽÅ¾i": 1718,
      "Ġzmi": 1719,
      "Ġahy": 1720,
      "kÅ¯m": 1721,
      "ĠitÄĽ": 1722,
      "hnou": 1723,
      "ĠmyÅ¡len": 1724,
      "Å¡ka": 1725,
      "Ġdruh": 1726,
      "Å¾o": 1727,
      "Ġmr": 1728,
      "chÃ¡zÃŃ": 1729,
      "Ġdivo": 1730,
      "ĠvaÅ¡e": 1731,
      "ĠbouÅĻ": 1732,
      "ĠstarÃ©": 1733,
      "Ġpocho": 1734,
      "Ġopu": 1735,
      "Ġbolest": 1736,
      "nostÃŃ": 1737,
      "tla": 1738,
      "ĠopÄĽt": 1739,
      "ĠÅ¡at": 1740,
      "Ġanou": 1741,
      "ÄįenÃŃ": 1742,
      "Ġposta": 1743,
      "Ġzahra": 1744,
      "Ġboha": 1745,
      "Ġtep": 1746,
      "ĠvidÃŃm": 1747,
      "ĠaÅĻe": 1748,
      "ĠhoÅĻÃŃ": 1749,
      "zou": 1750,
      "ĠdvÄĽ": 1751,
      "ÄįnÃ½": 1752,
      "Ġboji": 1753,
      "spo": 1754,
      "ĠpadÃ¡": 1755,
      "Ġpolo": 1756,
      "Ġcestu": 1757,
      "ĠemÄĽ": 1758,
      "Ġuku": 1759,
      "ĠsmÃ¡": 1760,
      "rÃ½m": 1761,
      "Ġym": 1762,
      "ĠneznÃ¡m": 1763,
      "ĠkaÅ¾dÃ©": 1764,
      "ĠvÅ¡ude": 1765,
      "lna": 1766,
      "tnÃ©": 1767,
      "ĠnÄĽkdy": 1768,
      "Ġskal": 1769,
      "ĠmÃ¡lo": 1770,
      "stvo": 1771,
      "Ġcos": 1772,
      "ĠzÅĻel": 1773,
      "Ġpat": 1774,
      "ĠmÃ©ho": 1775,
      "stech": 1776,
      "zni": 1777,
      "vrÃ¡": 1778,
      "Ġmatka": 1779,
      "ĠaÅĻ": 1780,
      "ĠÃºsmÄĽv": 1781,
      "ĠjistÄĽ": 1782,
      "ĠmilÃ½": 1783,
      "ĠkrÃ¡t": 1784,
      "Ġima": 1785,
      "Ġspa": 1786,
      "ĠXAXAXX": 1787,
      "ĠnÄĽmu": 1788,
      "rat": 1789,
      "lÃ©m": 1790,
      "ĠpÄĽk": 1791,
      "hÅ¯ru": 1792,
      "ÅĻa": 1793,
      "ĠrÃ¡na": 1794,
      "ĠÄĽle": 1795,
      "ĠnuÅ¾": 1796,
      "Ġbohu": 1797,
      "Ġotev": 1798,
      "ĠpÅĻem": 1799,
      "ĠsvatÃ©": 1800,
      "sce": 1801,
      "ĠlidÃ©": 1802,
      "tnÃŃ": 1803,
      "Ã¡me": 1804,
      "ĠzpÄĽt": 1805,
      "ĠdomÅ¯": 1806,
      "Ġur": 1807,
      "ĠnemÃ¡": 1808,
      "Ġiv": 1809,
      "Ġlist": 1810,
      "Ġkouz": 1811,
      "din": 1812,
      "ĠzlatÃ½": 1813,
      "sal": 1814,
      "ĠaÅ¡i": 1815,
      "mem": 1816,
      "ĠmlÃ¡dÃŃ": 1817,
      "Ġvele": 1818,
      "ĠpÅĻiÅ¡el": 1819,
      "ĠsÃŃly": 1820,
      "bal": 1821,
      "Ġole": 1822,
      "ĠprÃ¡vÄĽ": 1823,
      "Ġblesk": 1824,
      "ĠzpÃŃvÃ¡": 1825,
      "ĠsvÄĽtla": 1826,
      "ĠdÃ©": 1827,
      "ĠmÃŃsto": 1828,
      "ĠAXAX": 1829,
      "Ġjaro": 1830,
      "ĠkrÃ¡lov": 1831,
      "ĠpÅĻijde": 1832,
      "der": 1833,
      "or": 1834,
      "ĠnÄĽmÅ¾": 1835,
      "Ġsama": 1836,
      "Å¡ku": 1837,
      "ĠzÃ¡ÅĻi": 1838,
      "Ġmd": 1839,
      "ĠslÃ¡vy": 1840,
      "Ġsvoji": 1841,
      "ĠvÅ¡echno": 1842,
      "ĠandÄĽl": 1843,
      "ĠmilÃ¡": 1844,
      "Ġvzdo": 1845,
      "gi": 1846,
      "ĠhoÅĻe": 1847,
      "Ġkar": 1848,
      "ĠkÅĻÃŃÅ¾": 1849,
      "Ġolem": 1850,
      "ĠprÃ¡ci": 1851,
      "dÄĽj": 1852,
      "ĠneÅ¾li": 1853,
      "kne": 1854,
      "nÃ½mi": 1855,
      "ĠuÅ¡e": 1856,
      "Ġody": 1857,
      "ĠkrÃ¡sy": 1858,
      "ĠeÄįi": 1859,
      "ĠpÃŃsnÃŃ": 1860,
      "Ġatky": 1861,
      "ĠstÃŃny": 1862,
      "Ġrychle": 1863,
      "ĠÄĽtu": 1864,
      "sek": 1865,
      "ĠprÃ¡ce": 1866,
      "!...": 1867,
      "Ġfi": 1868,
      "Å¡nÄĽ": 1869,
      "ĠtisÃŃ": 1870,
      "ĠbouÅĻe": 1871,
      "ĠÅĻÃ¡": 1872,
      "Ġtrochu": 1873,
      "Ġzr": 1874,
      "Ġeh": 1875,
      "rech": 1876,
      "ĠdÄĽs": 1877,
      "ĠnaÅ¡ÃŃ": 1878,
      "Ġive": 1879,
      "Ġbohat": 1880,
      "ĠvÄĽÄįnÄĽ": 1881,
      "Ġvyh": 1882,
      "Ġenou": 1883,
      "Å¡ky": 1884,
      "ĠdÄĽt": 1885,
      "Ġadne": 1886,
      "ĠvzhÅ¯ru": 1887,
      "ckÃ©": 1888,
      "Ġyla": 1889,
      "Ġspolu": 1890,
      "Ġete": 1891,
      "Ġine": 1892,
      "ĠmoÅ¾": 1893,
      "Ġesk": 1894,
      "Å¾eh": 1895,
      "Ġhovo": 1896,
      "Ġeno": 1897,
      "Ġota": 1898,
      "Ġzved": 1899,
      "Ġoby": 1900,
      "Ġnena": 1901,
      "cu": 1902,
      "Ġbuj": 1903,
      "Ġsyn": 1904,
      "ĠkvÄĽtÅ¯": 1905,
      "div": 1906,
      "ĠvÄĽr": 1907,
      "Ġoc": 1908,
      "Ġslovo": 1909,
      "ĠÅ¡ko": 1910,
      "ĠtrÅ¯": 1911,
      "Ġmilen": 1912,
      "Ġnapo": 1913,
      "ĠÅ¾Ã¡r": 1914,
      "Å¾ÃŃm": 1915,
      "ĠnevÃŃ": 1916,
      "Äįit": 1917,
      "stup": 1918,
      "ĠpovÄĽ": 1919,
      "Ġbol": 1920,
      "Ġbudu": 1921,
      "Ġkoru": 1922,
      "Ġhospo": 1923,
      "Ġbyli": 1924,
      "bky": 1925,
      "Ġct": 1926,
      "ĠlidÃŃ": 1927,
      "Ġzvolna": 1928,
      "Ġmilu": 1929,
      "nym": 1930,
      "Ġory": 1931,
      "Ġtolik": 1932,
      "ĠtvÃ¡ÅĻe": 1933,
      "ĠknÃŃ": 1934,
      "ĠmÃ¡Å¡": 1935,
      "ĠznÄĽ": 1936,
      "Ġducha": 1937,
      "Ġzdra": 1938,
      "ĠjakÃ©": 1939,
      "skÃ©ho": 1940,
      "ĠhlÃ¡": 1941,
      "Ġblaho": 1942,
      "ĠpÅĻij": 1943,
      "Ġbyly": 1944,
      "Ġave": 1945,
      "Ġcit": 1946,
      "ĠdolÅ¯": 1947,
      "rk": 1948,
      "ĠtvÃ¡ÅĻÃŃ": 1949,
      "ĠhruÄı": 1950,
      "ĠohnÄĽ": 1951,
      "ĠzaÄį": 1952,
      "ĠzÅĻÃŃm": 1953,
      "ĠzrÃ¡": 1954,
      "cko": 1955,
      "Ġmysli": 1956,
      "del": 1957,
      "Ġcha": 1958,
      "Ġonu": 1959,
      "Ġopo": 1960,
      "ĠÄįekÃ¡": 1961,
      "ĠtvÃ¡ÅĻi": 1962,
      "Ġite": 1963,
      "Ġzraky": 1964,
      "Ġedi": 1965,
      "XB": 1966,
      "Ġera": 1967,
      "Ġbeze": 1968,
      "Ġprach": 1969,
      "ĠvÅ¡ich": 1970,
      "valy": 1971,
      "ĠvÅ¡ichni": 1972,
      "plÃ¡": 1973,
      "Ġnel": 1974,
      "ĠvÄįe": 1975,
      "ĠÅ¾lu": 1976,
      "Ġkrva": 1977,
      "Ġsve": 1978,
      "ĠaÅĪ": 1979,
      "ĠeÅ¾i": 1980,
      "nula": 1981,
      "Å¾Ã¡": 1982,
      "bor": 1983,
      "tila": 1984,
      "ĠkvÄĽ": 1985,
      "Ġtouhy": 1986,
      "vlÃ¡": 1987,
      "Ġran": 1988,
      "klo": 1989,
      "Ġkamen": 1990,
      "ĠnichÅ¾": 1991,
      "vila": 1992,
      "ĠÅ¡a": 1993,
      "Ãº": 1994,
      "Ġih": 1995,
      "Ġdoby": 1996,
      "ĠmÃŃr": 1997,
      "ĠmeÄį": 1998,
      "Ġsr": 1999,
      "stil": 2000,
      "Ġymi": 2001,
      "Ġbohem": 2002,
      "Å¾nÃ©": 2003,
      "ĠlÃ¡sce": 2004,
      "ĠtisÃŃc": 2005,
      "ĠiÅ¡": 2006,
      "Ġsvit": 2007,
      "Ġprch": 2008,
      "ABAB": 2009,
      "Ġvon": 2010,
      "vÃ©ho": 2011,
      "ĠptÃ¡k": 2012,
      "ĠskrÃ½": 2013,
      "Ġelo": 2014,
      "pro": 2015,
      "Ġosi": 2016,
      "Ġsebou": 2017,
      "Å¾it": 2018,
      "Ġprsou": 2019,
      "Ġvlny": 2020,
      "ĠpÅ¯j": 2021,
      "ĠÄįernÃ©": 2022,
      "Ġkdes": 2023,
      "ĠdÄĽv": 2024,
      "sni": 2025,
      "ĠmyÅ¡lÃ©": 2026,
      "Ġzbra": 2027,
      "ĠmÄĽsta": 2028,
      "Ġvyso": 2029,
      "tko": 2030,
      "Ġhlubi": 2031,
      "Ġlesy": 2032,
      "ĠztrÃ¡": 2033,
      "ĠtÅĻpy": 2034,
      "Ġpodo": 2035,
      "ĠmrÃ¡": 2036,
      "ĠnocÃŃ": 2037,
      "ĠÄı": 2038,
      "Ġbratr": 2039,
      "ĠvÅ¯nÄĽ": 2040,
      "ĠjinÃ©": 2041,
      "Ġobzo": 2042,
      "ĠkdoÅ¾": 2043,
      "ĠnaÅ¡ich": 2044,
      "ĠdÃ½m": 2045,
      "Ġud": 2046,
      "Ã¡men": 2047,
      "ĠmÄĽk": 2048,
      "chÅ¯": 2049,
      "Ġzdvi": 2050,
      "ĠsladkÃ©": 2051,
      "sÃŃm": 2052,
      "Ġasti": 2053,
      "Ġhoj": 2054,
      "Ġska": 2055,
      "Ġsnu": 2056,
      "man": 2057,
      "zra": 2058,
      "Ġspat": 2059,
      "Ġik": 2060,
      "neÅ¡": 2061,
      "ĠmÄĽsÃŃc": 2062,
      "Ġiky": 2063,
      "ĠzmÃŃ": 2064,
      "Ġtan": 2065,
      "Ġpev": 2066,
      "ĠsnÃŃh": 2067,
      "ĠÅ¡um": 2068,
      "nÃ¡nÃŃ": 2069,
      "Ġdosud": 2070,
      "Ġznova": 2071,
      "ĠvÃ½Å¡": 2072,
      "Ġnebu": 2073,
      "Ġhrad": 2074,
      "ĠvlÃŃ": 2075,
      "Ġohu": 2076,
      "skÃ½m": 2077,
      "Ġmilost": 2078,
      "ĠkrÃ¡snÃ©": 2079,
      "Ġzdo": 2080,
      "Ġoce": 2081,
      "letÃŃ": 2082,
      "ÅĻela": 2083,
      "ĠpÅĻÃŃro": 2084,
      "dila": 2085,
      "ĠzvÃŃ": 2086,
      "nici": 2087,
      "tÄĽl": 2088,
      "Ġouti": 2089,
      "ĠpojÄı": 2090,
      "Ġival": 2091,
      "ĠyÅ¡e": 2092,
      "Ġpropa": 2093,
      "ĠtÄĽla": 2094,
      "ĠeÅĻi": 2095,
      "Ġtakto": 2096,
      "Ġinou": 2097,
      "skÃ©m": 2098,
      "ĠsvÄĽtem": 2099,
      "Ġzjev": 2100,
      "ĠvÃ½Å¡e": 2101,
      "ĠvÄĽky": 2102,
      "teli": 2103,
      "Ġime": 2104,
      "Ġply": 2105,
      "hod": 2106,
      "vod": 2107,
      "ĠhoÅĻ": 2108,
      "ĠtÅĻÃŃ": 2109,
      "ĠslyÅ¡ÃŃ": 2110,
      "Ġohe": 2111,
      "ĠaÅ¡": 2112,
      "Ġperu": 2113,
      "jat": 2114,
      "ĠprÅ¯": 2115,
      "losti": 2116,
      "Ġuka": 2117,
      "ĠkÅĻÃŃdla": 2118,
      "Ġpta": 2119,
      "ĠnaÅ¡i": 2120,
      "Ġchmu": 2121,
      "ĠblÃŃÅ¾": 2122,
      "tÅĻe": 2123,
      "Ġklen": 2124,
      "ĠusmÃŃ": 2125,
      "Ġpozdra": 2126,
      "Ġeb": 2127,
      "ĠnesmÃŃ": 2128,
      "Ġjedna": 2129,
      "Ġfa": 2130,
      "ĠmÃ½m": 2131,
      "Ġpal": 2132,
      "Ġvody": 2133,
      "Ġchla": 2134,
      "ĠÅ¡la": 2135,
      "cela": 2136,
      "ĠÄįasem": 2137,
      "ĠhvÄĽzda": 2138,
      "ĠslyÅ¡e": 2139,
      "ĠmojÃŃ": 2140,
      "Ġmodlit": 2141,
      "ĠlÃŃce": 2142,
      "Ġaru": 2143,
      "Ġpar": 2144,
      "ĠkrvÃŃ": 2145,
      "pÅ¯": 2146,
      "kÃ¡nÃŃ": 2147,
      "Ġiji": 2148,
      "ĠmÃŃt": 2149,
      "ĠcelÃ¡": 2150,
      "roz": 2151,
      "Ġstat": 2152,
      "ĠsnÄĽnÃŃ": 2153,
      "Ġval": 2154,
      "ĠtoÅ¾": 2155,
      "ĠmÄĽsÃŃ": 2156,
      "Å¾nÃ½": 2157,
      "ĠvstÅĻÃŃ": 2158,
      "ĠhnÃŃ": 2159,
      "Ġbal": 2160,
      "ĠsedÃŃ": 2161,
      "ĠtÃ½": 2162,
      "Ġvzal": 2163,
      "Ġubo": 2164,
      "bnÃ©": 2165,
      "ĠnaÄį": 2166,
      "Ã½vÃ¡": 2167,
      "Ġdomo": 2168,
      "Ġuchu": 2169,
      "Ġotro": 2170,
      "dra": 2171,
      "Ġstru": 2172,
      "ĠvzdÃ¡": 2173,
      "ĠklÃ¡": 2174,
      "ĠvstÅĻÃŃc": 2175,
      "ĠchÃ½": 2176,
      "Ġobje": 2177,
      "nÃ¡Å¡ÃŃ": 2178,
      "ĠzaÅ¡": 2179,
      "novÃ©": 2180,
      "ĠnevÃŃm": 2181,
      "Ġspi": 2182,
      "Ġvza": 2183,
      "ĠmluvÃŃ": 2184,
      "zeÅĪ": 2185,
      "ĠmyslÃŃ": 2186,
      "ĠstarÃ¡": 2187,
      "Ġast": 2188,
      "ĠslÃ¡va": 2189,
      "lez": 2190,
      "bra": 2191,
      "Ġrov": 2192,
      "Ġusta": 2193,
      "ĠjakÃ¡": 2194,
      "Ġopi": 2195,
      "Ġned": 2196,
      "Ġvyz": 2197,
      "ĠslavÃŃ": 2198,
      "Ġcesty": 2199,
      "Ġstrom": 2200,
      "valo": 2201,
      "Ġyli": 2202,
      "ĠÅ¾ije": 2203,
      "Ġnelze": 2204,
      "Ġslza": 2205,
      "Ġeje": 2206,
      "Ġproud": 2207,
      "nat": 2208,
      "ĠÅĻeÄį": 2209,
      "Ġary": 2210,
      "Ġret": 2211,
      "Ġrozp": 2212,
      "Å¡ek": 2213,
      "Ġver": 2214,
      "ĠcÃŃtÃŃ": 2215,
      "ĠÅ¾iv": 2216,
      "Ġotce": 2217,
      "Ġvsta": 2218,
      "ĠdÃŃvÃ¡": 2219,
      "Ġtouha": 2220,
      "nila": 2221,
      "vad": 2222,
      "ĠaÅ¾i": 2223,
      "ĠjinÃ½": 2224,
      "ĠpravÃŃ": 2225,
      "cit": 2226,
      "ĠdÃ¡m": 2227,
      "ĠdÃ½ch": 2228,
      "kone": 2229,
      "ĠmÄĽla": 2230,
      "Ġkrok": 2231,
      "ĠÄįele": 2232,
      "el": 2233,
      "ĠbÃŃlÃ¡": 2234,
      "Ġmohu": 2235,
      "hra": 2236,
      "Ġcestou": 2237,
      "Ġtisk": 2238,
      "ĠoheÅĪ": 2239,
      "ĠnÄĽco": 2240,
      "Ġslunci": 2241,
      "Ġjara": 2242,
      "Ġudu": 2243,
      "ĠzÃ¡ÅĻe": 2244,
      "lila": 2245,
      "vÄĽl": 2246,
      "ABBX": 2247,
      "Äįet": 2248,
      "nko": 2249,
      "Äįkou": 2250,
      "Ġohni": 2251,
      "Ġkterou": 2252,
      "Ġkterak": 2253,
      "Ġdole": 2254,
      "Ġtvrd": 2255,
      "Ġzav": 2256,
      "ĠdobrÃ©": 2257,
      "Ġzvy": 2258,
      "Ġoblo": 2259,
      "str": 2260,
      "ĠjÃŃÅ¾": 2261,
      "Ġmatky": 2262,
      "vati": 2263,
      "ĠmoÅĻi": 2264,
      "kat": 2265,
      "Ġhrobu": 2266,
      "Ġovat": 2267,
      "liÅ¡": 2268,
      "ĠdlouhÃ©": 2269,
      "Ġokam": 2270,
      "Ġkdysi": 2271,
      "Ġobu": 2272,
      "stro": 2273,
      "ÅĻenÃŃ": 2274,
      "Ġhodi": 2275,
      "Ġdosti": 2276,
      "ĠkÅ¯": 2277,
      "ĠbÄĽda": 2278,
      "Ġkmi": 2279,
      "Ġasky": 2280,
      "Å¾enÃŃ": 2281,
      "Ġvez": 2282,
      "jel": 2283,
      "Ġvedle": 2284,
      "Ã¡c": 2285,
      "on": 2286,
      "ĠplnÃ½": 2287,
      "zal": 2288,
      "Ġplach": 2289,
      "ĠsvÃ©mu": 2290,
      "ĠvÅ¡echny": 2291,
      "ĠbouÅĻÃŃ": 2292,
      "Ġsho": 2293,
      "Ġvzduch": 2294,
      "ĠtvÃ©ho": 2295,
      "Ġdoma": 2296,
      "tajÃŃ": 2297,
      "ĠÃºsta": 2298,
      "dej": 2299,
      "Ġzni": 2300,
      "Ġuce": 2301,
      "ĠtÄĽm": 2302,
      "Ġara": 2303,
      "Ġzti": 2304,
      "ĠnÃ¡d": 2305,
      "Ġnev": 2306,
      "Ġlep": 2307,
      "ĠonÄĽ": 2308,
      "Ġys": 2309,
      "ĠbyÅ¥": 2310,
      "ĠsladkÃ½": 2311,
      "kro": 2312,
      "ĠhÅĻe": 2313,
      "ĠdÃ½": 2314,
      "Ġcelou": 2315,
      "ĠÄįela": 2316,
      "Ġony": 2317,
      "ĠskÃ¡ly": 2318,
      "ĠmladÃ½": 2319,
      "Ġvna": 2320,
      "Ġhlasem": 2321,
      "Ġ,": 2322,
      "ĠiÅ¾e": 2323,
      "ckÃ½": 2324,
      "leh": 2325,
      "Ġminu": 2326,
      "Ġhej": 2327,
      "ĠkÃ©": 2328,
      "Ġamen": 2329,
      "ĠyÅ¡": 2330,
      "ĠhlavÄĽ": 2331,
      "ĠkaÅ¾dÃ¡": 2332,
      "lnÃŃ": 2333,
      "tost": 2334,
      "Ġkap": 2335,
      "ĠklidnÄĽ": 2336,
      "ĠodÄĽ": 2337,
      "ĠcÃŃsa": 2338,
      "Ġiz": 2339,
      "Ġvzdech": 2340,
      "Ġkonec": 2341,
      "ĠmnohÃ½": 2342,
      "dr": 2343,
      "Ġide": 2344,
      "ĠstromÅ¯": 2345,
      "Ġnohou": 2346,
      "koli": 2347,
      "Ġnaz": 2348,
      "Ġchvil": 2349,
      "pÅĻe": 2350,
      "ĠovÄĽ": 2351,
      "Ġrty": 2352,
      "ĠmÃ©m": 2353,
      "Ġstou": 2354,
      "ĠsvÄĽÅ¾ÃŃ": 2355,
      "mnÄĽ": 2356,
      "ĠstÃŃnu": 2357,
      "hled": 2358,
      "Ġvlas": 2359,
      "Ġtre": 2360,
      "Ġusi": 2361,
      "Ġrve": 2362,
      "dÄĽli": 2363,
      "ĠdÃ¡lky": 2364,
      "Ġzpo": 2365,
      "Ġkraje": 2366,
      "ĠkÃ©Å¾": 2367,
      "Ġylo": 2368,
      "ĠÅĻÃŃci": 2369,
      "Å¯v": 2370,
      "in": 2371,
      "Ġesa": 2372,
      "ĠvÄĽÄįnÃ©": 2373,
      "hÃ½ch": 2374,
      "ĠÄĽv": 2375,
      "ĠdÃ¡vÃ¡": 2376,
      "ĠhledÃ¡": 2377,
      "Ġtmy": 2378,
      "poÅĪ": 2379,
      "Ġkva": 2380,
      "ĠdruhÃ©": 2381,
      "ĠvyÅ¡": 2382,
      "Ġvzdy": 2383,
      "mlu": 2384,
      "ĠiÄįka": 2385,
      "Ġzro": 2386,
      "ĠnadÄĽje": 2387,
      "Ġedu": 2388,
      "Ġep": 2389,
      "Ġruky": 2390,
      "ĠjehoÅ¾": 2391,
      "ĠkrÃ¡snÃ¡": 2392,
      "Ġiru": 2393,
      "ĠmuÅ¾i": 2394,
      "cel": 2395,
      "Ġsoud": 2396,
      "sen": 2397,
      "dajÃŃ": 2398,
      "ĠÄĽny": 2399,
      "ĠhleÄı": 2400,
      "ĠaspoÅĪ": 2401,
      "ĠlidskÃ©": 2402,
      "ĠhnÃŃz": 2403,
      "lnÄĽ": 2404,
      "ĠjarnÃŃ": 2405,
      "Ġramen": 2406,
      "Ġtako": 2407,
      "Ġrozum": 2408,
      "ĠtvÃ½m": 2409,
      "ĠkrÃ¡ÄįÃŃ": 2410,
      "ĠdobrÃ½": 2411,
      "Ġvod": 2412,
      "Ġovu": 2413,
      "Ġeru": 2414,
      "dost": 2415,
      "ju": 2416,
      "ÅĻenÃ©": 2417,
      "ĠzÅ¯sta": 2418,
      "bnÃŃ": 2419,
      "ĠhlÃŃ": 2420,
      "ĠtvÃ©m": 2421,
      "lÃ©t": 2422,
      "ĠtÃ¡h": 2423,
      "Ġesu": 2424,
      "ĠvÃ¡l": 2425,
      "prv": 2426,
      "ĠzÃ¡pas": 2427,
      "ĠplnÃ©": 2428,
      "ĠdrahÃ©": 2429,
      "ec": 2430,
      "chal": 2431,
      "lÃŃÅ¾ÃŃ": 2432,
      "ĠyÅ¡i": 2433,
      "tnÃ½": 2434,
      "ĠblaÅ¾en": 2435,
      "ĠsÃŃla": 2436,
      "Ġpravil": 2437,
      "Ġini": 2438,
      "ĠkÃ¡men": 2439,
      "Ġudy": 2440,
      "Ġetu": 2441,
      "ĠzatÃŃm": 2442,
      "BC": 2443,
      "ĠrÃ¡no": 2444,
      "Ġvlasy": 2445,
      "ÅĻo": 2446,
      "Ġasem": 2447,
      "ĠskvÄĽ": 2448,
      "ĠtÃ©to": 2449,
      "Ġsmys": 2450,
      "ĠmladÃ©": 2451,
      "kve": 2452,
      "Ġprosto": 2453,
      "ĠdvÃ©": 2454,
      "Ġoda": 2455,
      "ĠÄĽz": 2456,
      "vec": 2457,
      "Äįin": 2458,
      "Ġpest": 2459,
      "dky": 2460,
      "ĠÃºst": 2461,
      "Ġdobro": 2462,
      "Ġizi": 2463,
      "ĠmÃ¡me": 2464,
      "Ġoly": 2465,
      "ĠdrahÃ¡": 2466,
      "Ġede": 2467,
      "ĠzdrÃ¡": 2468,
      "kÅĻik": 2469,
      "ĠlÃ©ta": 2470,
      "kala": 2471,
      "ĠÅ¾il": 2472,
      "Ġzka": 2473,
      "ĠÄįest": 2474,
      "ĠzÃŃtra": 2475,
      "ĠcÃŃtÃŃm": 2476,
      "Ġasa": 2477,
      "ĠuÅ¾i": 2478,
      "Ġatu": 2479,
      "sel": 2480,
      "Ġpry": 2481,
      "Ġjakby": 2482,
      "ĠÅ¾ÃŃt": 2483,
      "Ġpil": 2484,
      "ĠrÃ¡ny": 2485,
      "Ġpravda": 2486,
      "Å¡nÃ©": 2487,
      "Ġnekone": 2488,
      "ĠoltÃ¡": 2489,
      "ĠnemÄĽ": 2490,
      "hnu": 2491,
      "Ġkmen": 2492,
      "ĠÄįem": 2493,
      "ĠtichÃ©": 2494,
      "Ġpodzi": 2495,
      "ĠvÃŃÅ¡": 2496,
      "ĠslyÅ¡el": 2497,
      "Ġnav": 2498,
      "dala": 2499,
      "ĠrÅ¯Å¾ÃŃ": 2500,
      "Ġyne": 2501,
      "Ġist": 2502,
      "Ġjdu": 2503,
      "Ġzam": 2504,
      "ĠvÄĽtÅ¡ÃŃ": 2505,
      "ĠvÄĽtr": 2506,
      "ĠplÃ¡Äį": 2507,
      "Ġnade": 2508,
      "Ġnebyl": 2509,
      "Ġista": 2510,
      "Ġedy": 2511,
      "ĠÄĽtem": 2512,
      "ĠÄįt": 2513,
      "ĠloÄı": 2514,
      "Ġalu": 2515,
      "ĠpoÅ¾eh": 2516,
      "ĠÄĽk": 2517,
      "ĠjÃŃmÅ¾": 2518,
      "ĠtisÃŃce": 2519,
      "ĠpÅĻÃŃliÅ¡": 2520,
      "Ġslov": 2521,
      "tele": 2522,
      "rÃ©m": 2523,
      "dek": 2524,
      "ĠmuÅ¾e": 2525,
      "ĠtichÃ½": 2526,
      "Ġchat": 2527,
      "ĠzÃ¡pa": 2528,
      "Ġjinak": 2529,
      "ĠjichÅ¾": 2530,
      "ĠmotÃ½": 2531,
      "Ġznovu": 2532,
      "ĠchceÅ¡": 2533,
      "Ġidu": 2534,
      "tom": 2535,
      "snÃ©": 2536,
      "ĠÄĽjÅ¡i": 2537,
      "Ġbrzy": 2538,
      "ĠpovÃŃ": 2539,
      "vej": 2540,
      "Ġokna": 2541,
      "Ġradosti": 2542,
      "ĠÄįÃ¡": 2543,
      "Ġ1800": 2544,
      "Ġoha": 2545,
      "van": 2546,
      "ĠÄįernÃ½": 2547,
      "CBC": 2548,
      "Ġamy": 2549,
      "Ġsrdcem": 2550,
      "ĠkolÃ©": 2551,
      "ĠzÃ¡vo": 2552,
      "ĠdÅ¯m": 2553,
      "tnÄĽ": 2554,
      "ĠmilÃ©": 2555,
      "Å¾ik": 2556,
      "ĠmalÃ½": 2557,
      "Ġoch": 2558,
      "Ġvln": 2559,
      "cenÃ©": 2560,
      "Ġtento": 2561,
      "ĠmÃŃru": 2562,
      "lÃ©ho": 2563,
      "Ġspou": 2564,
      "dli": 2565,
      "Ġau": 2566,
      "ĠdruhÃ½": 2567,
      "ĠbÃ¡snÃŃ": 2568,
      "ĠvÄĽkÅ¯": 2569,
      "ĠÄĽta": 2570,
      "Ġdoko": 2571,
      "Ġjazy": 2572,
      "Å¡te": 2573,
      "Äįnou": 2574,
      "Ġroste": 2575,
      "ĠobrÃ¡": 2576,
      "Ġman": 2577,
      "rÃ¡ch": 2578,
      "Å¾ka": 2579,
      "Ġcesta": 2580,
      "ĠrytÃŃ": 2581,
      "Ġosu": 2582,
      "ĠlÅ¯": 2583,
      "jÃŃm": 2584,
      "ĠkÅĻÃŃd": 2585,
      "Ġstvo": 2586,
      "ĠÄįech": 2587,
      "Ġprapo": 2588,
      "ĠÅĻeÄįi": 2589,
      "Ġpovz": 2590,
      "Ġhar": 2591,
      "ĠkvÃŃtÃŃ": 2592,
      "Äįer": 2593,
      "Ġhlad": 2594,
      "klÃ¡": 2595,
      "Ġblanky": 2596,
      "ĠXXABAB": 2597,
      "Ġmoji": 2598,
      "tru": 2599,
      "pÃ½": 2600,
      "Ġdle": 2601,
      "Ġnapos": 2602,
      "Ġcti": 2603,
      "ĠkrÃ¡snÃ½": 2604,
      "Å¡ÃŃch": 2605,
      "ĠbudeÅ¡": 2606,
      "Ġstromy": 2607,
      "ĠuÅ¡": 2608,
      "ĠaÄįe": 2609,
      "ĠrÃ¡j": 2610,
      "Ġdny": 2611,
      "Ġrodi": 2612,
      "Ġuhu": 2613,
      "Ġboje": 2614,
      "mÄĽl": 2615,
      "ĠchodÃŃ": 2616,
      "ĠpÃŃsni": 2617,
      "Ġhloubi": 2618,
      "ĠÅĻekl": 2619,
      "ĠÄĽna": 2620,
      "Ġedni": 2621,
      "Ġedne": 2622,
      "Ġdarmo": 2623,
      "jeÅ¡": 2624,
      "Å¾ky": 2625,
      "Ġprachu": 2626,
      "Ġdve": 2627,
      "Ġtrp": 2628,
      "Ġsme": 2629,
      "Ġovo": 2630,
      "Ġhloub": 2631,
      "ĠkrÃ¡li": 2632,
      "Ġvti": 2633,
      "Äįej": 2634,
      "Å¾enÃ©": 2635,
      "Ġvede": 2636,
      "brÃ¡": 2637,
      "mÃ½": 2638,
      "snÃ½": 2639,
      "ĠpÅĻÃŃÅ¡tÃŃ": 2640,
      "ĠlesÅ¯": 2641,
      "Ġkal": 2642,
      "ĠvÃŃru": 2643,
      "ĠchrÃ¡m": 2644,
      "ĠkonÄĽ": 2645,
      "dÃ¡m": 2646,
      "Ġiha": 2647,
      "ĠpÅĻede": 2648,
      "ĠzÃ¡ko": 2649,
      "nami": 2650,
      "nosÅ¥": 2651,
      "ĠdobÄĽ": 2652,
      "cet": 2653,
      "vÃŃrÃ¡": 2654,
      "Ġtouhou": 2655,
      "ĠchÃ¡": 2656,
      "ĠbratÅĻÃŃ": 2657,
      "ĠzdÃ¡lo": 2658,
      "ÅĻÃŃt": 2659,
      "Ġrti": 2660,
      "Ġonen": 2661,
      "lku": 2662,
      "ĠlistÃŃ": 2663,
      "ĠmajÃŃ": 2664,
      "ĠhnÄĽv": 2665,
      "Ġlze": 2666,
      "ÄįÃ¡": 2667,
      "Ġichu": 2668,
      "Ġjiz": 2669,
      "Ġmrak": 2670,
      "Ġzvuk": 2671,
      "Ġdou": 2672,
      "ĠnedÃ¡": 2673,
      "Ġmilosti": 2674,
      "es": 2675,
      "zku": 2676,
      "ĠÅ¾eh": 2677,
      "ĠdÄĽdi": 2678,
      "ĠslyÅ¡ÃŃm": 2679,
      "ĠpamÄĽ": 2680,
      "ĠenÄĽ": 2681,
      "ĠÄįasu": 2682,
      "ÅĻila": 2683,
      "ĠABBACC": 2684,
      "ĠmÄĽsto": 2685,
      "ĠÅ¡umÃŃ": 2686,
      "Ġhrudi": 2687,
      "mr": 2688,
      "ĠÄĽku": 2689,
      "Ġohy": 2690,
      "ĠdÃŃvka": 2691,
      "Ġoky": 2692,
      "Ġtruch": 2693,
      "Ġzrakem": 2694,
      "ĠnÃ¡ruÄį": 2695,
      "esi": 2696,
      "ĠsÃŃlu": 2697,
      "Ġstaro": 2698,
      "rnÃ¡": 2699,
      "dl": 2700,
      "rnou": 2701,
      "ĠcÃŃtil": 2702,
      "ÄįnÃ¡": 2703,
      "ĠknÃŃÅ¾e": 2704,
      "Ġuna": 2705,
      "Ġlesa": 2706,
      "ĠvÄĽÄįnÃ½": 2707,
      "ĠouÅ¾i": 2708,
      "Ġpov": 2709,
      "ĠkteÅĻÃŃ": 2710,
      "Ġama": 2711,
      "Ġposud": 2712,
      "Ġzapla": 2713,
      "Ġhas": 2714,
      "Ġjmen": 2715,
      "ĠsplÃ½": 2716,
      "Ġjestli": 2717,
      "ĠtenkrÃ¡t": 2718,
      "Ġuse": 2719,
      "lesk": 2720,
      "Ġnesly": 2721,
      "ĠÅ¡li": 2722,
      "bit": 2723,
      "Å¡lo": 2724,
      "ĠchvÄĽje": 2725,
      "ĠdnÅ¯": 2726,
      "ĠÄıÃ¡": 2727,
      "ĠrÃ¡z": 2728,
      "ĠbÅĻehu": 2729,
      "chÃ½": 2730,
      "Ġzbu": 2731,
      "ĠsvÄĽtu": 2732,
      "ĠvÅ¯le": 2733,
      "hli": 2734,
      "Ġcen": 2735,
      "et": 2736,
      "Ġuvi": 2737,
      "ĠpÃ¡ni": 2738,
      "ĠrozkoÅ¡": 2739,
      "las": 2740,
      "ĠrÃ¡zem": 2741,
      "ĠmalÃ©": 2742,
      "Äįa": 2743,
      "ĠÅĪa": 2744,
      "ĠnaÅĪ": 2745,
      "ĠkrÃ¡se": 2746,
      "ĠplÃ¡Äįe": 2747,
      "ĠvzÃ¡c": 2748,
      "ĠÅĪader": 2749,
      "stÃ¡vÃ¡": 2750,
      "Ġrod": 2751,
      "ck": 2752,
      "tÃ¡m": 2753,
      "Ġmysl": 2754,
      "ĠblÃ½": 2755,
      "Ġmrtvo": 2756,
      "Ġoho": 2757,
      "Ġlidstva": 2758,
      "ĠAXAA": 2759,
      "lan": 2760,
      "pit": 2761,
      "ĠXAABBX": 2762,
      "ĠrÅ¯Å¾o": 2763,
      "Ġatku": 2764,
      "chvÄĽ": 2765,
      "Ġduchu": 2766,
      "ĠpryÄį": 2767,
      "Ġout": 2768,
      "Ġspas": 2769,
      "Ġbudouc": 2770,
      "Ġpravdu": 2771,
      "mÄĽnÃŃ": 2772,
      "Ġnechce": 2773,
      "ĠoÄįÃŃch": 2774,
      "ĠvÅ¯kol": 2775,
      "ĠjmÃ©no": 2776,
      "Ġklam": 2777,
      "Ġprobu": 2778,
      "Ġrok": 2779,
      "Ġednou": 2780,
      "Ġchle": 2781,
      "ĠvÅ¡emi": 2782,
      "Ġscho": 2783,
      "ĠsvatÃ¡": 2784,
      "Ġrost": 2785,
      "Ġlese": 2786,
      "Ġlidem": 2787,
      "Ġenu": 2788,
      "Ġvenku": 2789,
      "ĠÅ¾el": 2790,
      "Ġuky": 2791,
      "pÄĽl": 2792,
      "Ġaze": 2793,
      "Ġhoch": 2794,
      "Ġuni": 2795,
      "Ġdav": 2796,
      "znÃ©": 2797,
      "ĠkrÅ¯": 2798,
      "Ġkoste": 2799,
      "ĠkrÃ¡le": 2800,
      "Ġset": 2801,
      "dka": 2802,
      "ĠovÅ¡em": 2803,
      "Ġsma": 2804,
      "ĠpÃ½ch": 2805,
      "Ġzasta": 2806,
      "bÃ½": 2807,
      "Ġida": 2808,
      "ĠjÃŃt": 2809,
      "ech": 2810,
      "ĠjasnÃ©": 2811,
      "Ġnevin": 2812,
      "klad": 2813,
      "Ġnak": 2814,
      "ĠklonÃŃ": 2815,
      "ĠvalÃŃ": 2816,
      "Ġzdi": 2817,
      "deme": 2818,
      "Ġzadu": 2819,
      "kajÃŃ": 2820,
      "Ġtla": 2821,
      "tor": 2822,
      "ĠvÃ½Å¡i": 2823,
      "Ġzhas": 2824,
      "Ġahu": 2825,
      "penÃŃ": 2826,
      "Ġsladce": 2827,
      "zÃŃm": 2828,
      "Ġec": 2829,
      "ĠdÄĽtÃŃ": 2830,
      "Ġvzne": 2831,
      "nouti": 2832,
      "ĠtÄĽÅ¾kÃ©": 2833,
      "nala": 2834,
      "Ġklet": 2835,
      "ĠzvlÃ¡": 2836,
      "luje": 2837,
      "lenÃ©": 2838,
      "cnÄĽ": 2839,
      "kot": 2840,
      "Ġodpu": 2841,
      "rom": 2842,
      "jÃŃt": 2843,
      "ĠhrobÄĽ": 2844,
      "ĠiÅ¡i": 2845,
      "ĠpÅĻiÅ¡la": 2846,
      "ĠpÃ©": 2847,
      "Äįna": 2848,
      "bnÃ½": 2849,
      "Ġpodzim": 2850,
      "Ġpokoj": 2851,
      "ĠdÅ¯vÄĽ": 2852,
      "ĠrÃ¡da": 2853,
      "ĠiÄįku": 2854,
      "Ġechu": 2855,
      "ĠzvonÃŃ": 2856,
      "ĠmizÃŃ": 2857,
      "ĠiÄįky": 2858,
      "ĠzÃ¡hy": 2859,
      "ĠpÃ¡r": 2860,
      "slo": 2861,
      "ĠsmutnÄĽ": 2862,
      "vin": 2863,
      "Äįila": 2864,
      "Ġety": 2865,
      "ĠdÃ¡t": 2866,
      "Ġotu": 2867,
      "Ġasne": 2868,
      "ĠskÅĻi": 2869,
      "Ġir": 2870,
      "met": 2871,
      "roj": 2872,
      "ĠunÄĽ": 2873,
      "Ġspra": 2874,
      "ĠlÃŃc": 2875,
      "ÅĻek": 2876,
      "go": 2877,
      "Ġmohl": 2878,
      "ĠslÃŃ": 2879,
      "Ġfran": 2880,
      "ĠkrÃ¡sa": 2881,
      "Ġnim": 2882,
      "ĠadÄĽ": 2883,
      "ĠvÅ¡ÃŃm": 2884,
      "Ġnohy": 2885,
      "rnÃŃ": 2886,
      "jÃŃch": 2887,
      "Ġhrou": 2888,
      "Ġpout": 2889,
      "enÃ¡": 2890,
      "ĠmodrÃ©": 2891,
      "dÃ¡nÃŃ": 2892,
      "jal": 2893,
      "Ġdni": 2894,
      "Ġviz": 2895,
      "chÃ¡ze": 2896,
      "Ġdala": 2897,
      "ĠAABCBC": 2898,
      "ĠsrdcÃŃ": 2899,
      "bito": 2900,
      "Ġitu": 2901,
      "slou": 2902,
      "ĠmusÃŃm": 2903,
      "ĠdrahÃ½": 2904,
      "Ġatem": 2905,
      "Ġstrach": 2906,
      "ĠsvÃ½mi": 2907,
      "ĠvÄĽc": 2908,
      "ĠmoÅ¾no": 2909,
      "ĠÄįeskÃ©": 2910,
      "Ġples": 2911,
      "ĠbouÅĻi": 2912,
      "Ġevi": 2913,
      "Ġouze": 2914,
      "tk": 2915,
      "Ġtmou": 2916,
      "ĠstarÃ½ch": 2917,
      "ĠÃºtÄĽ": 2918,
      "Ġpramen": 2919,
      "zvu": 2920,
      "Ġboku": 2921,
      "ĠdÄĽla": 2922,
      "bat": 2923,
      "Ġsmutek": 2924,
      "ĠvÄĽÅĻ": 2925,
      "nci": 2926,
      "Ġvztek": 2927,
      "bnÄĽ": 2928,
      "ĠdÅĻÃŃve": 2929,
      "ĠmladÃ¡": 2930,
      "ĠnÄĽÅ¾": 2931,
      "ĠchtÄĽla": 2932,
      "Ġzba": 2933,
      "Ġebi": 2934,
      "ĠÅ¡le": 2935,
      "Ġbojo": 2936,
      "Ġkone": 2937,
      "ĠaÅ¡e": 2938,
      "tan": 2939,
      "Ġdomu": 2940,
      "teÄį": 2941,
      "dci": 2942,
      "noucÃŃ": 2943,
      "livÄĽ": 2944,
      "ĠuÄı": 2945,
      "Ġzoufal": 2946,
      "Ġhlo": 2947,
      "Ġmni": 2948,
      "ĠÅ¾enu": 2949,
      "Ġprsa": 2950,
      "Ġpohle": 2951,
      "ĠodpovÄĽ": 2952,
      "ĠtÅĻÃ¡": 2953,
      "Ġrozho": 2954,
      "ĠvÃ¡mi": 2955,
      "ĠnepÅĻi": 2956,
      "dlÃŃ": 2957,
      "Å¡nÃ½": 2958,
      "ĠkrÅ¯pÄĽ": 2959,
      "ĠzlatÃ¡": 2960,
      "Ġzcela": 2961,
      "Ġpravdy": 2962,
      "Ġcy": 2963,
      "Ġumi": 2964,
      "Ġuhy": 2965,
      "Ġaval": 2966,
      "Ġhlaho": 2967,
      "ĠnepÅĻÃ¡": 2968,
      "ĠnepÅĻÃŃ": 2969,
      "ĠeÄı": 2970,
      "ĠÅ¾Ã¡dnÃ½": 2971,
      "Ġono": 2972,
      "Ġtry": 2973,
      "Ġity": 2974,
      "ĠjedinÃ½": 2975,
      "ĠeÅ¾": 2976,
      "Ġtva": 2977,
      "ĠvelkÃ¡": 2978,
      "Ġvrcho": 2979,
      "ĠmÄĽnÃŃ": 2980,
      "mat": 2981,
      "Ġzhy": 2982,
      "kaz": 2983,
      "ĠstejnÄĽ": 2984,
      "ĠX": 2985,
      "ĠpevnÄĽ": 2986,
      "Ġmdlo": 2987,
      "ĠzÃ¡m": 2988,
      "vce": 2989,
      "Ġpln": 2990,
      "ĠkaÅ¾dou": 2991,
      "Ġosa": 2992,
      "ĠdennÄĽ": 2993,
      "ĠtouÅ¾ÃŃ": 2994,
      "ĠrudÃ©": 2995,
      "?!": 2996,
      "ĠslÃ¡vÄĽ": 2997,
      "us": 2998,
      "ske": 2999,
      "ĠÄĽÅĻi": 3000,
      "Ġlam": 3001,
      "klÃŃ": 3002,
      "Ġjeze": 3003,
      "ĠslÃ¡vu": 3004,
      "Ġjednu": 3005,
      "rÃ¡m": 3006,
      "Ġkali": 3007,
      "ĠjednÃ©": 3008,
      "dÃ½ch": 3009,
      "nÃ¡Å¡e": 3010,
      "Ġteprv": 3011,
      "Ġplane": 3012,
      "ĠhÅĻbito": 3013,
      "Ġrozm": 3014,
      "ĠvÄĽk": 3015,
      "ĠklÃŃn": 3016,
      "chou": 3017,
      "ĠiÄįi": 3018,
      "jÃ¡": 3019,
      "Ġpsa": 3020,
      "Ġchra": 3021,
      "Ġpodle": 3022,
      "Ġjino": 3023,
      "Ġhan": 3024,
      "ĠpÅĻÃ¡tel": 3025,
      "Ġtemno": 3026,
      "Ġkrou": 3027,
      "Ġnepro": 3028,
      "ĠÅ¾ÃŃti": 3029,
      "Ġora": 3030,
      "hÃ½m": 3031,
      "ĠvÃ½ch": 3032,
      "ĠtÃ³": 3033,
      "ĠstÃ¡la": 3034,
      "hÃ¡m": 3035,
      "lav": 3036,
      "Ġhez": 3037,
      "Ġporo": 3038,
      "ĠtÅĻetÃŃ": 3039,
      "ĠkvÄĽti": 3040,
      "Ġbije": 3041,
      "Ġjsa": 3042,
      "tev": 3043,
      "ĠÃºdo": 3044,
      "ĠbÄĽÅ¾ÃŃ": 3045,
      "vuje": 3046,
      "ĠvÃ½cho": 3047,
      "ĠmÃŃti": 3048,
      "her": 3049,
      "Ġvlo": 3050,
      "Ġicha": 3051,
      "Ġoblak": 3052,
      "Ġmati": 3053,
      "ĠptÃ¡ci": 3054,
      "Ġpoho": 3055,
      "ĠchtÃŃ": 3056,
      "ĠzemÃŃ": 3057,
      "ĠmlÄįÃŃ": 3058,
      "dku": 3059,
      "nÄĽn": 3060,
      "ĠvracÃŃ": 3061,
      "ĠzÅĻe": 3062,
      "Ġsami": 3063,
      "lÃ¡ch": 3064,
      "pem": 3065,
      "ĠiÅĻi": 3066,
      "ĠÅĻeÄįÃŃ": 3067,
      "eni": 3068,
      "Ġpotu": 3069,
      "Ġnap": 3070,
      "ĠbudÃŃ": 3071,
      "Ġchyt": 3072,
      "ĠdlouhÃ½": 3073,
      "Ġjdi": 3074,
      "lenÃ½": 3075,
      "Å¯l": 3076,
      "ĠzÃ¡zra": 3077,
      "ĠÄįlovÄĽka": 3078,
      "Ġrdce": 3079,
      "zna": 3080,
      "bli": 3081,
      "Ġule": 3082,
      "ĠnoÄįnÃŃ": 3083,
      "Ġmraky": 3084,
      "ĠotÄįe": 3085,
      "ĠjejÃŃm": 3086,
      "lka": 3087,
      "Ġklad": 3088,
      "stÃŃm": 3089,
      "Ġnebylo": 3090,
      "ĠbÅĻÃŃ": 3091,
      "jÃŃce": 3092,
      "Ġsilou": 3093,
      "ĠstrÃ¡Å¾": 3094,
      "fi": 3095,
      "ĠtÄĽle": 3096,
      "ĠnenÃ¡": 3097,
      "Ġisni": 3098,
      "Ġato": 3099,
      "ĠzÃ¡vi": 3100,
      "ĠneboÅ¥": 3101,
      "Ġnechci": 3102,
      "Ġklu": 3103,
      "jo": 3104,
      "ĠvÅ¡i": 3105,
      "stvÃŃm": 3106,
      "ĠlÃŃbÃ¡": 3107,
      "mÃ¡ch": 3108,
      "ĠÄįin": 3109,
      "kej": 3110,
      "Ġzlata": 3111,
      "Ġzrc": 3112,
      "Ġjimi": 3113,
      "Ġvzpo": 3114,
      "Ġdum": 3115,
      "Ġesy": 3116,
      "ĠbÃ¡s": 3117,
      "Ġisi": 3118,
      "Ġjo": 3119,
      "ĠkvÄĽtu": 3120,
      "Ġholu": 3121,
      "vÃ½mi": 3122,
      "kovÃ©": 3123,
      "Ġkdos": 3124,
      "ĠsklÃ¡nÃŃ": 3125,
      "ĠÅĻi": 3126,
      "ĠzpÃ¡": 3127,
      "cÅ¯m": 3128,
      "ĠÄĽzd": 3129,
      "ĠmalÃ¡": 3130,
      "ĠmnohÃ©": 3131,
      "ĠbÃŃlÃ½ch": 3132,
      "Ġmoci": 3133,
      "ĠAABBXX": 3134,
      "jÅ¡ÃŃm": 3135,
      "ĠstavÃŃ": 3136,
      "Ġhudba": 3137,
      "Ġspole": 3138,
      "ĠstÃ¡t": 3139,
      "ĠvÅ¯li": 3140,
      "Ġzle": 3141,
      "Ġpodiv": 3142,
      "Ġstk": 3143,
      "ĠnÃŃz": 3144,
      "Ġukou": 3145,
      "ĠpÅ¯lno": 3146,
      "ĠvÄįera": 3147,
      "dnÃ½ch": 3148,
      "Ġvesele": 3149,
      "tÃ½m": 3150,
      "ĠÄįaro": 3151,
      "ĠivÄĽ": 3152,
      "ĠÄĽs": 3153,
      "ĠÃºzko": 3154,
      "Ġdvou": 3155,
      "tno": 3156,
      "Ġstesk": 3157,
      "Ġyni": 3158,
      "Ġohou": 3159,
      "ĠÅĻÃŃm": 3160,
      "hly": 3161,
      "ĠtÃ¡hne": 3162,
      "ĠrÃ¡je": 3163,
      "ĠÅĻeky": 3164,
      "Ġprud": 3165,
      "dÃ¡ch": 3166,
      "rku": 3167,
      "ĠÅ¡Ã¡": 3168,
      "ĠÅĪadra": 3169,
      "ĠblÃŃz": 3170,
      "Å¾ila": 3171,
      "ĠtÅ¯": 3172,
      "ĠznÄĽl": 3173,
      "ĠvzplÃ¡": 3174,
      "ĠoÅ¾": 3175,
      "Ġruch": 3176,
      "lky": 3177,
      "rel": 3178,
      "ÅĻÅ¯": 3179,
      "lena": 3180,
      "rky": 3181,
      "Ġachu": 3182,
      "ĠoÄį": 3183,
      "Ġvoda": 3184,
      "ĠsmutnÃ©": 3185,
      "ĠhÃ½": 3186,
      "ĠmrÃ¡z": 3187,
      "Ġsouse": 3188,
      "Ġzmat": 3189,
      "ĠaÅ¾e": 3190,
      "Ġlili": 3191,
      "ĠbÃ½vÃ¡": 3192,
      "Ġatil": 3193,
      "ĠÄįty": 3194,
      "ĠdlaÅĪ": 3195,
      "ĠpalÃ¡": 3196,
      "ĠskrÃ¡ÅĪ": 3197,
      "Ġisti": 3198,
      "Ġaka": 3199,
      "Ġoud": 3200,
      "ĠÅ¡edi": 3201,
      "bem": 3202,
      "ĠpÄĽt": 3203,
      "Ġkrokem": 3204,
      "ĠkrÃ¡su": 3205,
      "ĠABBAXX": 3206,
      "Ġrt": 3207,
      "Ġsoum": 3208,
      "rce": 3209,
      "ĠÄĽty": 3210,
      "sit": 3211,
      "Ġoty": 3212,
      "Ġhochu": 3213,
      "Ġnejs": 3214,
      "Ġuru": 3215,
      "Ġnesou": 3216,
      "Ġhnu": 3217,
      "Å¡it": 3218,
      "ĠbledÃ¡": 3219,
      "Ġanim": 3220,
      "ĠbohatÃ½": 3221,
      "ĠnÄĽjak": 3222,
      "Ġnovou": 3223,
      "Å¾Å¡ÃŃ": 3224,
      "vili": 3225,
      "Ġzaz": 3226,
      "Ġkyne": 3227,
      "hÃ¡nÃŃ": 3228,
      "Ġtrou": 3229,
      "ĠvÅ¯nÃŃ": 3230,
      "ĠnÄĽkdo": 3231,
      "jas": 3232,
      "Ġvstou": 3233,
      "Ġadla": 3234,
      "bÃ©": 3235,
      "Ġavil": 3236,
      "ĠzvedÃ¡": 3237,
      "Ġbro": 3238,
      "Ġsest": 3239,
      "Ġsty": 3240,
      "tat": 3241,
      "dÄĽnÃŃ": 3242,
      "Ġteh": 3243,
      "Ġblaha": 3244,
      "ĠatÅĻi": 3245,
      "Ġnebude": 3246,
      "Ġklidu": 3247,
      "ĠohnÄĽm": 3248,
      "Ġabych": 3249,
      "ĠchrÃ¡mu": 3250,
      "ga": 3251,
      "Ġnaslou": 3252,
      "Ġsyna": 3253,
      "ĠÄįeskÃ½": 3254,
      "Ġzlatem": 3255,
      "ĠeÅĻe": 3256,
      "Ġslovem": 3257,
      "rie": 3258,
      "Å¡nÃŃ": 3259,
      "Ġhvo": 3260,
      "ĠvonÃŃ": 3261,
      "ĠprostÅĻe": 3262,
      "ĠzlatÃ½ch": 3263,
      "jednou": 3264,
      "Ġkomu": 3265,
      "Ġrozu": 3266,
      "Ġproh": 3267,
      "kra": 3268,
      "Å¡enÃ©": 3269,
      "Äįo": 3270,
      "ĠÅĻÃŃÅ¡e": 3271,
      "ĠdÃ¡lku": 3272,
      "dili": 3273,
      "Ġvlh": 3274,
      "tÃ©m": 3275,
      "Ġvle": 3276,
      "Ġpope": 3277,
      "venÃ©": 3278,
      "ĠmrtvÃ©": 3279,
      "tnou": 3280,
      "rek": 3281,
      "Ġblesky": 3282,
      "vice": 3283,
      "Ġhlasy": 3284,
      "ĠAAXA": 3285,
      "Ġotci": 3286,
      "Ġsbor": 3287,
      "Ġikem": 3288,
      "Ġstrany": 3289,
      "Ġskvost": 3290,
      "ĠhÅĻÃŃch": 3291,
      "Ġzapad": 3292,
      "ĠvÃ¡c": 3293,
      "ĠvÄĽz": 3294,
      "ĠbÃŃlou": 3295,
      "Ġmlha": 3296,
      "Ġhosti": 3297,
      "Ġzku": 3298,
      "ĠÃºsmÄĽvem": 3299,
      "Ġzab": 3300,
      "dÃŃÅ¡": 3301,
      "ĠblÃŃÅ¾ÃŃ": 3302,
      "ĠzÃ¡stup": 3303,
      "ĠvyÅ¡el": 3304,
      "ĠpÃ¡nÄĽ": 3305,
      "ĠzdÄĽ": 3306,
      "Ġposlou": 3307,
      "Ġjab": 3308,
      "ĠÄĽm": 3309,
      "Å¡Å¥ast": 3310,
      "ĠpodÃ¡": 3311,
      "Ġovem": 3312,
      "ĠpÅĻÃŃÅ¡e": 3313,
      "tnÃ¡": 3314,
      "Ġrej": 3315,
      "ĠtvojÃŃ": 3316,
      "bÅ¯": 3317,
      "ABBA": 3318,
      "ĠobjetÃŃ": 3319,
      "tala": 3320,
      "Ġtvr": 3321,
      "ĠvroucÃŃ": 3322,
      "vÄĽd": 3323,
      "Ġkroky": 3324,
      "domÃŃ": 3325,
      "ĠrtÅ¯": 3326,
      "Ġnoha": 3327,
      "ĠpotÄĽ": 3328,
      "ĠABABAB": 3329,
      "ĠmÄĽli": 3330,
      "ĠsmÃŃchu": 3331,
      "Ġmali": 3332,
      "ĠÄįistÃ©": 3333,
      "Ġhrom": 3334,
      "Ġhradu": 3335,
      "kÃ©ho": 3336,
      "ĠcÃŃl": 3337,
      "lel": 3338,
      "Ġalem": 3339,
      "Ġtato": 3340,
      "ĠdÃ¡lce": 3341,
      "Ġdali": 3342,
      "ĠÄįasy": 3343,
      "ĠopuÅ¡tÄĽ": 3344,
      "lÃ©z": 3345,
      "ĠotÄĽ": 3346,
      "mnÄĽl": 3347,
      "Ġseve": 3348,
      "ĠslyÅ¡et": 3349,
      "ĠcestÄĽ": 3350,
      "ĠandÄĽ": 3351,
      "ĠsladkÃ¡": 3352,
      "ĠdÅĻe": 3353,
      "Ġelem": 3354,
      "Ġzvon": 3355,
      "ĠklesÃ¡": 3356,
      "Ġbolesti": 3357,
      "Ġicich": 3358,
      "Ġvze": 3359,
      "Ġobli": 3360,
      "jÃŃmÃ¡": 3361,
      "Ġoken": 3362,
      "Ġskon": 3363,
      "Ġvytr": 3364,
      "dali": 3365,
      "Ġvola": 3366,
      "ĠiÅ¡ti": 3367,
      "Ġouhy": 3368,
      "Ġab": 3369,
      "ĠÅ¾alu": 3370,
      "ĠeÅ¡tÄĽ": 3371,
      "Ġplno": 3372,
      "bel": 3373,
      "Ġvypra": 3374,
      "ĠnenÃ¡vi": 3375,
      "zky": 3376,
      "kost": 3377,
      "Ġpaprsk": 3378,
      "ĠchlÃ©": 3379,
      "dosti": 3380,
      "ĠmyslÃŃm": 3381,
      "ĠsluÅ¾": 3382,
      "ĠvÃŃry": 3383,
      "ten": 3384,
      "ĠotÃ¡": 3385,
      "vanÃ©": 3386,
      "ĠtoÄįÃŃ": 3387,
      "ĠmÃŃsta": 3388,
      "ĠvÃ¡Å¡nÃŃ": 3389,
      "ĠzpÃ¡tky": 3390,
      "jme": 3391,
      "Ġvar": 3392,
      "Ġazu": 3393,
      "ĠlepÅ¡ÃŃ": 3394,
      "Ġobou": 3395,
      "ĠlÃŃto": 3396,
      "Ġakem": 3397,
      "raz": 3398,
      "Ġsic": 3399,
      "kl": 3400,
      "bek": 3401,
      "Ġzmo": 3402,
      "Ġtuto": 3403,
      "diÅ¾": 3404,
      "ĠnavÅ¾dy": 3405,
      "ĠvidÄĽt": 3406,
      "Ġvzbu": 3407,
      "ĠÄĽvu": 3408,
      "ĠvisÃŃ": 3409,
      "Ġycha": 3410,
      "Ġhod": 3411,
      "ĠnovÃ¡": 3412,
      "Ġutr": 3413,
      "ĠblÃŃÅ¾e": 3414,
      "Ġsynu": 3415,
      "Ġkonce": 3416,
      "ĠtÄĽÅ¾kÃ½": 3417,
      "cenÃ½": 3418,
      "Ġcu": 3419,
      "Ġmlhy": 3420,
      "ctvÃŃ": 3421,
      "ĠjinÃ½ch": 3422,
      "Ġcizi": 3423,
      "ĠcÃŃsaÅĻ": 3424,
      "Ġvsi": 3425,
      "ĠvÅ¡emu": 3426,
      "Ġzma": 3427,
      "Ġpol": 3428,
      "Ġpode": 3429,
      "ÅĪte": 3430,
      "ĠzprÃ¡": 3431,
      "Ġtichou": 3432,
      "cti": 3433,
      "boj": 3434,
      "ĠvÅ¡a": 3435,
      "Ġskr": 3436,
      "Ġleb": 3437,
      "ĠÄĽte": 3438,
      "Ġrak": 3439,
      "znÃ¡": 3440,
      "ĠjasnÃ½": 3441,
      "ĠvÅĻa": 3442,
      "Ġeme": 3443,
      "ĠpÃ¡na": 3444,
      "ĠnejvÃŃ": 3445,
      "ĠÄįernÃ½ch": 3446,
      "Ġkolo": 3447,
      "Ġvelkou": 3448,
      "Ġmatko": 3449,
      "ĠkÅĻesÅ¥": 3450,
      "Ġomy": 3451,
      "ĠÄįernÃ¡": 3452,
      "ĠpatÅĻÃŃ": 3453,
      "Ġzap": 3454,
      "Ġdokud": 3455,
      "rej": 3456,
      "Ġkus": 3457,
      "Ġivo": 3458,
      "lovÃ©": 3459,
      "ĠlÃŃci": 3460,
      "ĠÅĻas": 3461,
      "Ġlehce": 3462,
      "Ġjakoby": 3463,
      "tÃ¡n": 3464,
      "Ġcest": 3465,
      "ĠÅ¾ene": 3466,
      "ĠkoÅĻi": 3467,
      "ĠvÃŃte": 3468,
      "ĠnadÅ¡enÃŃ": 3469,
      "ĠÅ¡lech": 3470,
      "ĠbledÃ©": 3471,
      "ĠkoÅĻen": 3472,
      "ĠXXA": 3473,
      "nak": 3474,
      "ĠnadÅ¡en": 3475,
      "ĠrÅ¯Å¾i": 3476,
      "Ġbohy": 3477,
      "nitÅĻ": 3478,
      "Ġdoba": 3479,
      "Ġorem": 3480,
      "ĠskÅĻÃŃ": 3481,
      "ĠsrÃ¡": 3482,
      "Ġsled": 3483,
      "ĠcÃŃrk": 3484,
      "ĠtichÃ¡": 3485,
      "ĠvrÃ¡tÃŃ": 3486,
      "Ġade": 3487,
      "ĠjevÃŃ": 3488,
      "ĠhuÄįÃŃ": 3489,
      "Ġproro": 3490,
      "Ġula": 3491,
      "ala": 3492,
      "Ġenych": 3493,
      "Ġimi": 3494,
      "ĠdÄĽvÄįe": 3495,
      "Ġdouf": 3496,
      "ĠmrtvÃ½ch": 3497,
      "Ġsbo": 3498,
      "Ġprost": 3499,
      "han": 3500,
      "ĠvraÅ¾": 3501,
      "ĠotcÅ¯": 3502,
      "Ġvzduchu": 3503,
      "Ġul": 3504,
      "ĠÅ¡ÃŃlen": 3505,
      "Ġenem": 3506,
      "Ġzlatou": 3507,
      "ĠvÃŃno": 3508,
      "Ġpoch": 3509,
      "ĠÄĽsi": 3510,
      "Ġhora": 3511,
      "Ġrek": 3512,
      "rka": 3513,
      "Ġpoled": 3514,
      "Ġstalo": 3515,
      "esie": 3516,
      "ĠzdravÃŃ": 3517,
      "Ġace": 3518,
      "ĠhrÅ¯zou": 3519,
      "Ġosla": 3520,
      "Ġkole": 3521,
      "Å¡to": 3522,
      "ĠbÅĻeh": 3523,
      "ĠvÃ©": 3524,
      "Å¡t": 3525,
      "ĠkvÄĽtem": 3526,
      "ĠdobrÃ¡": 3527,
      "ĠloÅ¾e": 3528,
      "rnÃ½ch": 3529,
      "Ġoma": 3530,
      "Ġsklen": 3531,
      "ĠsmÄĽle": 3532,
      "livÃ½": 3533,
      "Ġzoufa": 3534,
      "Ġzpu": 3535,
      "ĠÄĽd": 3536,
      "Ġkdesi": 3537,
      "Ġsmutku": 3538,
      "slu": 3539,
      "ĠtemnÃ©": 3540,
      "ĠknÄĽÅ¾": 3541,
      "ek": 3542,
      "ĠjasnÄĽ": 3543,
      "ĠzÃŃrÃ¡": 3544,
      "Ġtichu": 3545,
      "ĠspÃŃÅ¡": 3546,
      "Ġdaleko": 3547,
      "ĠpoÄįÃŃ": 3548,
      "ĠrannÃŃ": 3549,
      "ĠpÅĻÃŃtel": 3550,
      "Ġobzor": 3551,
      "Ġrtech": 3552,
      "ĠvÄĽci": 3553,
      "Ġbleskem": 3554,
      "padÃ¡": 3555,
      "ĠsmutnÃ½": 3556,
      "ĠpÅĻedu": 3557,
      "lÃ©tÃ¡": 3558,
      "ĠrÃ¡nu": 3559,
      "tvÃ¡": 3560,
      "venÃŃ": 3561,
      "Ġlidstvo": 3562,
      "ĠpromÄĽ": 3563,
      "Ġbolu": 3564,
      "Ġsluncem": 3565,
      "stvu": 3566,
      "Ġpomoc": 3567,
      "Ġnevz": 3568,
      "Ġub": 3569,
      "Ġspani": 3570,
      "Ġraj": 3571,
      "Ġdechem": 3572,
      "ĠvolnÄĽ": 3573,
      "Ġslune": 3574,
      "bÃ¡ch": 3575,
      "ĠpsÃ¡": 3576,
      "ĠstÃ©": 3577,
      "cenÃŃ": 3578,
      "Ġletu": 3579,
      "Ġnero": 3580,
      "skne": 3581,
      "ĠoÅ¾e": 3582,
      "Ġoste": 3583,
      "Ġcosi": 3584,
      "Ġnaposled": 3585,
      "ĠiÄįek": 3586,
      "liv": 3587,
      "ĠvÅ¡ecka": 3588,
      "BB": 3589,
      "Ġvzde": 3590,
      "Ġchvat": 3591,
      "ÄįnÃ½ch": 3592,
      "ĠstaÅĻe": 3593,
      "Ġsnem": 3594,
      "ĠÄĽÅ¾": 3595,
      "Ġled": 3596,
      "ĠtÄĽÅ¾ce": 3597,
      "Ġnikde": 3598,
      "ĠÅĻekla": 3599,
      "ĠprosÃŃm": 3600,
      "Ġsluch": 3601,
      "Äįkem": 3602,
      "Ġca": 3603,
      "Ġvzpla": 3604,
      "ĠdÄĽje": 3605,
      "peÅ¾": 3606,
      "ĠnepÅĻe": 3607,
      "tkem": 3608,
      "Ġchcem": 3609,
      "Å¾ÃŃÅ¡": 3610,
      "Ġhrdi": 3611,
      "cÃ½": 3612,
      "Ġoubi": 3613,
      "Ġzdali": 3614,
      "ĠvÄĽÅĻÃŃ": 3615,
      "Ġchlu": 3616,
      "Äıte": 3617,
      "ĠmÃ¡te": 3618,
      "ĠtÅĻese": 3619,
      "Ġesky": 3620,
      "Å¾enÃ½": 3621,
      "Ġbyst": 3622,
      "Ġpochy": 3623,
      "Ġrci": 3624,
      "ĠumÃŃrÃ¡": 3625,
      "ĠvÅ¯ni": 3626,
      "myÅ¡": 3627,
      "Ġesla": 3628,
      "gu": 3629,
      "hajÃŃ": 3630,
      "Ġdrob": 3631,
      "hlÃ¡": 3632,
      "ĠdÃŃlo": 3633,
      "ĠÄĽr": 3634,
      "ĠneznÃ¡": 3635,
      "Ġhost": 3636,
      "Ġspad": 3637,
      "ĠjimÅ¾": 3638,
      "ĠÅ¾ebrÃ¡": 3639,
      "Äįiny": 3640,
      "bec": 3641,
      "Ġadky": 3642,
      "ĠeÄįe": 3643,
      "fa": 3644,
      "Ġere": 3645,
      "ĠhÅĻmÃŃ": 3646,
      "nkou": 3647,
      "Ġyje": 3648,
      "Ġprahu": 3649,
      "Ġkat": 3650,
      "ĠveÅ¡": 3651,
      "kojen": 3652,
      "ĠbratÅĻi": 3653,
      "Ġkvetou": 3654,
      "nÃ©mu": 3655,
      "ĠÃºÅ¾": 3656,
      "ĠvÃ¡Å¾": 3657,
      "stupu": 3658,
      "Ġneroz": 3659,
      "hnout": 3660,
      "ĠpÅ¯va": 3661,
      "ĠpamÃ¡": 3662,
      "Ġslz": 3663,
      "Ġpanen": 3664,
      "rad": 3665,
      "Ġjeli": 3666,
      "Ġenim": 3667,
      "ĠÅ¡iro": 3668,
      "Ġvlna": 3669,
      "ĠdÅĻÃŃmÃ¡": 3670,
      "chÃ©": 3671,
      "tvo": 3672,
      "Ġobi": 3673,
      "ĠÄįist": 3674,
      "kovi": 3675,
      "zek": 3676,
      "Ġatou": 3677,
      "ĠbloudÃŃ": 3678,
      "ĠlidskÃ½": 3679,
      "ĠnemÅ¯Å¾e": 3680,
      "ĠvyprÃ¡": 3681,
      "ÅĻad": 3682,
      "Ġicky": 3683,
      "ĠhÃ¡j": 3684,
      "ĠknÄĽz": 3685,
      "ĠdlÃŃ": 3686,
      "ÄįkÃ¡": 3687,
      "Ġebou": 3688,
      "ĠprovÃ¡": 3689,
      "ĠdÃŃvky": 3690,
      "Ġucha": 3691,
      "ĠbÃ¡snÃŃk": 3692,
      "zrak": 3693,
      "Ġatka": 3694,
      "hnÄĽ": 3695,
      "nali": 3696,
      "ĠÄĽst": 3697,
      "Ġsvatou": 3698,
      "venÃ½": 3699,
      "Ġjakou": 3700,
      "Ġkom": 3701,
      "Ġstane": 3702,
      "ĠumÄĽnÃŃ": 3703,
      "ĠemnÄĽ": 3704,
      "ĠdruÅ¾": 3705,
      "Ġnajde": 3706,
      "ĠhalÃŃ": 3707,
      "Ġzraku": 3708,
      "ujÃŃ": 3709,
      "tÃ¡nÃŃ": 3710,
      "tili": 3711,
      "ĠÅĪadrech": 3712,
      "lep": 3713,
      "Ġeku": 3714,
      "Ġmatce": 3715,
      "vÃ¡Å¡": 3716,
      "Ġnitru": 3717,
      "ĠÄįet": 3718,
      "Ġpouta": 3719,
      "Ġvet": 3720,
      "Ġkouzel": 3721,
      "ĠlkÃ¡": 3722,
      "ĠzboÅ¾": 3723,
      "Ġvyvo": 3724,
      "Ġanem": 3725,
      "Ġzrcad": 3726,
      "Ġjitra": 3727,
      "ĠvÃŃra": 3728,
      "ĠrytÃŃÅĻ": 3729,
      "ĠhrdÄĽ": 3730,
      "Ġivi": 3731,
      "ĠdÄĽcko": 3732,
      "ĠnemÄĽl": 3733,
      "Ġochu": 3734,
      "ĠsamÃ©": 3735,
      "ĠpÅĻÃŃsa": 3736,
      "Äįce": 3737,
      "ĠplÃ¡po": 3738,
      "Ġyly": 3739,
      "XXA": 3740,
      "Ġkoho": 3741,
      "ĠplÃ©": 3742,
      "Ġplna": 3743,
      "ĠnÃ¡dher": 3744,
      "ĠvÅ¡ÃŃ": 3745,
      "Ġvstal": 3746,
      "Ġmodra": 3747,
      "ĠdÃ½Å¡e": 3748,
      "Ġaska": 3749,
      "ĠradostÃŃ": 3750,
      "Ġuza": 3751,
      "zuje": 3752,
      "ĠzlÃŃ": 3753,
      "Ġyta": 3754,
      "Ġvzduchem": 3755,
      "Ġzhou": 3756,
      "ĠvaÅ¡ÃŃ": 3757,
      "ĠbledÃ½": 3758,
      "Ġkost": 3759,
      "ĠhledÄĽl": 3760,
      "ĠÅ¾enou": 3761,
      "tÅĻÃŃ": 3762,
      "Ġneod": 3763,
      "ĠzachvÄĽ": 3764,
      "Ġvnu": 3765,
      "Ġsvato": 3766,
      "ĠztrÃ¡cÃŃ": 3767,
      "kry": 3768,
      "ĠpoznÃ¡": 3769,
      "lk": 3770,
      "ĠtÄĽÅ¾ko": 3771,
      "Ġeden": 3772,
      "ĠsvÄĽty": 3773,
      "ĠrokÅ¯": 3774,
      "chom": 3775,
      "ĠÅ¾Ã¡dnÃ©": 3776,
      "ĠmlÄįky": 3777,
      "Ġsladkou": 3778,
      "ĠmocnÄĽ": 3779,
      "Ġdosta": 3780,
      "ĠatÄĽ": 3781,
      "ĠbudiÅ¾": 3782,
      "Ġedla": 3783,
      "Ġilou": 3784,
      "telÃ©": 3785,
      "ĠvÄĽÄįnosti": 3786,
      "ĠsmÄĽje": 3787,
      "vyÅ¡": 3788,
      "ĠkaÅ¾dÃ©m": 3789,
      "Ġluny": 3790,
      "ĠÄĽtÄĽ": 3791,
      "Ġmimo": 3792,
      "Ġodkud": 3793,
      "Ġivou": 3794,
      "ĠupomÃŃ": 3795,
      "Ġmaje": 3796,
      "ĠpozdÄĽ": 3797,
      "Ġpoma": 3798,
      "benÃŃ": 3799,
      "Ġdnem": 3800,
      "sÃŃch": 3801,
      "ĠposvÃ¡": 3802,
      "Ġostat": 3803,
      "ĠlÃŃbe": 3804,
      "mek": 3805,
      "hnul": 3806,
      "ĠchvÄĽl": 3807,
      "Ġzvuky": 3808,
      "Ġap": 3809,
      "Ġdraho": 3810,
      "Ġnebem": 3811,
      "Ġchleba": 3812,
      "Ġstarou": 3813,
      "ĠstÄĽny": 3814,
      "Ġtk": 3815,
      "ĠvÃ¡Å¡nÄĽ": 3816,
      "ĠnovÃ½ch": 3817,
      "ĠpohÅĻ": 3818,
      "dru": 3819,
      "Ġust": 3820,
      "Ġbudem": 3821,
      "Ġnesmr": 3822,
      "Ġmari": 3823,
      "nuly": 3824,
      "ĠptÃ¡Äįe": 3825,
      "ĠnaÅ¡el": 3826,
      "vel": 3827,
      "Ġidla": 3828,
      "ene": 3829,
      "ĠpÄĽknÄĽ": 3830,
      "ĠklÃ¡Å¡te": 3831,
      "ĠzlÃ©": 3832,
      "vrÃ¡tÃŃ": 3833,
      "Ġhraje": 3834,
      "BX": 3835,
      "Ġslovy": 3836,
      "ĠtemnÄĽ": 3837,
      "Ġzvony": 3838,
      "ĠĠĠ": 3839,
      "ĠsnÄĽhu": 3840,
      "Ġmate": 3841,
      "Ġzat": 3842,
      "Ġodil": 3843,
      "Ġjindy": 3844,
      "ĠÅ¾ivotem": 3845,
      "ĠdÃŃvÄįÃŃ": 3846,
      "ĠmÄĽst": 3847,
      "Ġstud": 3848,
      "Ġouha": 3849,
      "Ġece": 3850,
      "Ġopat": 3851,
      "Ġlidi": 3852,
      "Å¡a": 3853,
      "ĠpoÅ¾Ã¡": 3854,
      "voucÃŃ": 3855,
      "ĠmÅ¯Å¾": 3856,
      "ĠtmavÃ©": 3857,
      "ĠjÃŃti": 3858,
      "ĠplÃ¡Äįi": 3859,
      "ĠzÅĻÃŃt": 3860,
      "bÃ¡m": 3861,
      "ĠsbÃŃ": 3862,
      "Ġstez": 3863,
      "Ġdobu": 3864,
      "Ġhorou": 3865,
      "Ġhroby": 3866,
      "emi": 3867,
      "Ġlny": 3868,
      "XABB": 3869,
      "Ġmed": 3870,
      "Ġeba": 3871,
      "ĠbohÅ¯": 3872,
      "ĠdÃ¡ti": 3873,
      "Ġly": 3874,
      "ĠbolÃŃ": 3875,
      "ĠvÃŃna": 3876,
      "ena": 3877,
      "Ġztich": 3878,
      "Ġery": 3879,
      "bila": 3880,
      "Ġozdo": 3881,
      "ckÃ½ch": 3882,
      "vci": 3883,
      "ÅĻÃŃk": 3884,
      "ĠmocÃŃ": 3885,
      "Ġis": 3886,
      "ĠjinÃŃ": 3887,
      "?...": 3888,
      "Ġynu": 3889,
      "ĠzÃ¡vra": 3890,
      "Ġlodi": 3891,
      "Ġnecha": 3892,
      "nikÃ¡": 3893,
      "ĠcitÅ¯": 3894,
      "ĠpoÅĻÃ¡": 3895,
      "ĠneÅ¡Å¥ast": 3896,
      "Ġjazyk": 3897,
      "Ġzim": 3898,
      "ĠrÅ¯z": 3899,
      "hlo": 3900,
      "ĠposmÄĽ": 3901,
      "Ġzdr": 3902,
      "Ġkruh": 3903,
      "ĠchÃ½lÃŃ": 3904,
      "ĠlÅ¯Å¾": 3905,
      "Å¡enÃ½": 3906,
      "Ġneho": 3907,
      "Ġmluvil": 3908,
      "ĠnemÃ¡m": 3909,
      "Ġmatku": 3910,
      "ĠejÅ¡i": 3911,
      "ĠprÃ¡vo": 3912,
      "Ġspraved": 3913,
      "Ġpromlu": 3914,
      "Ġprst": 3915,
      "Ġhym": 3916,
      "Ġukry": 3917,
      "ĠkoneÄįnÄĽ": 3918,
      "ĠveÄįera": 3919,
      "ĠnÄĽkde": 3920,
      "Ġlad": 3921,
      "ĠmÅĻÃŃ": 3922,
      "Ġvyp": 3923,
      "ĠsmrtÃŃ": 3924,
      "ĠtajemstvÃŃ": 3925,
      "Ġvzdor": 3926,
      "ĠmlÃ½": 3927,
      "ĠzpÃŃval": 3928,
      "ĠvelikÃ½": 3929,
      "Ġkade": 3930,
      "Ġunce": 3931,
      "ĠzÃ¡pad": 3932,
      "Ġbarev": 3933,
      "livÃ©": 3934,
      "Ġrad": 3935,
      "stej": 3936,
      "Å¡ly": 3937,
      "ĠzlÃ¡": 3938,
      "ĠdÄĽji": 3939,
      "ĠsvÄĽtÅ¯": 3940,
      "Ġholubi": 3941,
      "koj": 3942,
      "Ġvelmi": 3943,
      "sl": 3944,
      "ĠpravÃ½": 3945,
      "ĠkÅĻÃŃÅ¾e": 3946,
      "nese": 3947,
      "hlÃ½": 3948,
      "ĠpÅĻÃ¡nÃŃ": 3949,
      "ĠzlÃ½": 3950,
      "tud": 3951,
      "Ġadce": 3952,
      "ĠvÄĽtru": 3953,
      "lejÅ¡ÃŃ": 3954,
      "Ġskoro": 3955,
      "Ġkristu": 3956,
      "ĠhorÃ¡ch": 3957,
      "ÄįenÃ©": 3958,
      "Ġpes": 3959,
      "ĠlesnÃŃ": 3960,
      "Ġnemoc": 3961,
      "Ġarem": 3962,
      "ĠsplÃ½vÃ¡": 3963,
      "Ġber": 3964,
      "Ġmili": 3965,
      "ĠnechÃ¡": 3966,
      "ĠzapomnÄĽ": 3967,
      "ĠtvÅ¯": 3968,
      "Ġtvor": 3969,
      "ĠpÅĻipra": 3970,
      "ÅĻenÃ½": 3971,
      "ĠchlÃ©b": 3972,
      "nÄĽnÃŃ": 3973,
      "Ġvichr": 3974,
      "kel": 3975,
      "Ġvzp": 3976,
      "Ġzapomen": 3977,
      "ĠmeÄįem": 3978,
      "nuv": 3979,
      "ĠdivÃ½": 3980,
      "Ġmrou": 3981,
      "kali": 3982,
      "rav": 3983,
      "osti": 3984,
      "ĠvÄĽÅ¾e": 3985,
      "Ġilu": 3986,
      "Ġpoznal": 3987,
      "ĠdivnÃ©": 3988,
      "ĠlÃŃp": 3989,
      "ter": 3990,
      "ĠrudÃ½": 3991,
      "kÅ¯v": 3992,
      "ĠmÃ©mu": 3993,
      "Ġzima": 3994,
      "Ġstran": 3995,
      "ĠslavnÃ½": 3996,
      "ĠkaÅ¾dÃ½m": 3997,
      "ĠÄĽtla": 3998,
      "ĠnÃ¡ruÄįÃŃ": 3999,
      "ckni": 4000,
      "ĠÅ¡pat": 4001,
      "ĠstaÄįÃŃ": 4002,
      "ĠhrÅ¯zy": 4003,
      "Ġpovo": 4004,
      "pila": 4005,
      "ĠvÅ¡ickni": 4006,
      "ĠpÃ¡lÃŃ": 4007,
      "Ġesku": 4008,
      "hlu": 4009,
      "Ġlem": 4010,
      "Ġkdybych": 4011,
      "viti": 4012,
      "Ġzkve": 4013,
      "ĠvÅ¡ady": 4014,
      "kva": 4015,
      "Ġvykou": 4016,
      "Ġpano": 4017,
      "Ġplnou": 4018,
      "ĠvidÃŃÅ¡": 4019,
      "Ġnesmrtel": 4020,
      "ĠstÃŃnÅ¯": 4021,
      "ĠvojÃ¡": 4022,
      "jdu": 4023,
      "Ġzkou": 4024,
      "Ġdnu": 4025,
      "Ġpadne": 4026,
      "ĠvÄĽn": 4027,
      "ĠÄĽka": 4028,
      "ĠdÄĽc": 4029,
      "ĠmeÄįe": 4030,
      "Ġlesem": 4031,
      "Ġstranou": 4032,
      "ot": 4033,
      "ĠtmÄĽ": 4034,
      "ĠvÄĽtvÃŃ": 4035,
      "chod": 4036,
      "ĠchudÃ©": 4037,
      "ĠÅ¡pi": 4038,
      "ĠvÃŃr": 4039,
      "Ġdok": 4040,
      "ĠslavnÄĽ": 4041,
      "Ġdavy": 4042,
      "ĠschvÃ¡": 4043,
      "sle": 4044,
      "ĠÄĽvy": 4045,
      "ĠnÄĽmÃ½": 4046,
      "ĠtÃŃÅ¾ÃŃ": 4047,
      "Å¡ko": 4048,
      "stat": 4049,
      "ĠiseÅĪ": 4050,
      "vÃ¡ch": 4051,
      "Äįno": 4052,
      "lec": 4053,
      "Ġjitro": 4054,
      "ÅĪo": 4055,
      "Ġdceru": 4056,
      "ĠmladÃŃ": 4057,
      "ĠÅĻeka": 4058,
      "Ġpropast": 4059,
      "ĠobÄĽÅ¥": 4060,
      "ĠvelkÃ½m": 4061,
      "krÃ¡snÄĽ": 4062,
      "Ġbrou": 4063,
      "Ġkrvi": 4064,
      "Ġatek": 4065,
      "ĠozvÄĽ": 4066,
      "Ġpoklad": 4067,
      "Ġctnost": 4068,
      "kÃ¡n": 4069,
      "hlÃŃ": 4070,
      "ĠABA": 4071,
      "zpe": 4072,
      "covÃ©": 4073,
      "Ġosy": 4074,
      "rajÃŃ": 4075,
      "ĠrodÃŃ": 4076,
      "ĠlidskÃ½ch": 4077,
      "Ġprokle": 4078,
      "ĠXAXABB": 4079,
      "ĠusmÃ¡": 4080,
      "Ġprudce": 4081,
      "rpu": 4082,
      "Å¾et": 4083,
      "Ġnejsem": 4084,
      "ĠvÄĽnec": 4085,
      "Ġdruhdy": 4086,
      "Ġahle": 4087,
      "ĠutÄĽ": 4088,
      "ĠukÃ¡": 4089,
      "Ġytu": 4090,
      "pot": 4091,
      "Ġucho": 4092,
      "Ġhmo": 4093,
      "Ġtvoji": 4094,
      "ĠptaÄįÃŃ": 4095,
      "ĠzkÃ¡": 4096,
      "ĠdlanÃŃ": 4097,
      "ĠÅĪÃ¡": 4098,
      "Ġulo": 4099,
      "Ġmramo": 4100,
      "Ġkmet": 4101,
      "Ġkryje": 4102,
      "ĠnepÅĻÃ¡tel": 4103,
      "ĠÅĻetÄĽ": 4104,
      "ĠposlÃ©z": 4105,
      "Ġvine": 4106,
      "Ġadou": 4107,
      "ĠtajÃŃ": 4108,
      "dnÃ½m": 4109,
      "Ġspu": 4110,
      "Ġanku": 4111,
      "Ġamu": 4112,
      "ĠslzÃŃ": 4113,
      "slav": 4114,
      "ge": 4115,
      "ĠnosÃŃ": 4116,
      "Ġproudy": 4117,
      "ĠtvoÅĻÃŃ": 4118,
      "ĠpodÃŃ": 4119,
      "Äįte": 4120,
      "Ġhlubin": 4121,
      "Ġzacho": 4122,
      "vky": 4123,
      "Å¡ak": 4124,
      "ĠmÄĽstÄĽ": 4125,
      "ĠslavnÃ©": 4126,
      "Ġkouzlo": 4127,
      "menÃŃ": 4128,
      "ĠvÅ¯dce": 4129,
      "Ġlaho": 4130,
      "Ġnapl": 4131,
      "Ġlisty": 4132,
      "Ġprapor": 4133,
      "ĠjÃ¡sa": 4134,
      "ĠvlasÅ¯": 4135,
      "ĠAXXA": 4136,
      "ĠbÃ½val": 4137,
      "ĠÄįase": 4138,
      "ĠblÃŃzko": 4139,
      "ÄįnÃ½m": 4140,
      "ĠjÃ¡so": 4141,
      "ĠmÄĽj": 4142,
      "ĠoÄįima": 4143,
      "ĠÃºdolÃŃ": 4144,
      "bro": 4145,
      "Ġdlouhou": 4146,
      "ĠduchÅ¯": 4147,
      "sila": 4148,
      "krÃ¡te": 4149,
      "ĠmÅ¾i": 4150,
      "ÅĻed": 4151,
      "Ġvane": 4152,
      "ĠvrÃ¡til": 4153,
      "skal": 4154,
      "Ġazem": 4155,
      "Ġvin": 4156,
      "ĠÅ¡edÃ©": 4157,
      "tÅĻ": 4158,
      "ĠnejvyÅ¡": 4159,
      "Ġoknem": 4160,
      "ĠdlouhÃ¡": 4161,
      "Ġzmizel": 4162,
      "ĠÃºÅ¾as": 4163,
      "Ġenstvi": 4164,
      "Ġhad": 4165,
      "Ġztracen": 4166,
      "ĠÄįervÃ¡n": 4167,
      "Ġstal": 4168,
      "ĠskÃ¡la": 4169,
      "Ġdom": 4170,
      "vosti": 4171,
      "Ġpouti": 4172,
      "ĠbÃ¡j": 4173,
      "Ġ20": 4174,
      "ĠchladnÃ©": 4175,
      "ĠdlanÄĽ": 4176,
      "mÃŃr": 4177,
      "ĠkÅĻik": 4178,
      "Ġvzte": 4179,
      "Ġtkli": 4180,
      "Ġhbi": 4181,
      "Å¡o": 4182,
      "nilo": 4183,
      "ĠprÃ¡va": 4184,
      "ĠtemnÃ½": 4185,
      "ĠzpÄĽvu": 4186,
      "Ġga": 4187,
      "ĠprostÅĻed": 4188,
      "ĠouÅĻi": 4189,
      "ĠÅ¾es": 4190,
      "vek": 4191,
      "cuje": 4192,
      "vede": 4193,
      "pÃŃnÃ¡": 4194,
      "Ġpust": 4195,
      "tly": 4196,
      "ĠÄĽÄį": 4197,
      "ĠÅ¡tÃŃt": 4198,
      "pÅĻed": 4199,
      "Ġmusil": 4200,
      "ĠpÅĻÃŃval": 4201,
      "dro": 4202,
      "skla": 4203,
      "asa": 4204,
      "ĠkrÃ¡Äįel": 4205,
      "ĠhnÄĽvu": 4206,
      "ĠÄįemu": 4207,
      "Ġchod": 4208,
      "Ġkos": 4209,
      "Ġuly": 4210,
      "vanÃ½": 4211,
      "ĠÄįistÃ½": 4212,
      "ĠvelkÃ½ch": 4213,
      "ĠÅĻÃŃtÃŃ": 4214,
      "ĠmotÃ½l": 4215,
      "jÃŃcÃŃm": 4216,
      "ĠÅ¾as": 4217,
      "ĠÄįerven": 4218,
      "ĠavÅ¡ak": 4219,
      "rÃ¡l": 4220,
      "dar": 4221,
      "ĠdÃŃval": 4222,
      "Ġpob": 4223,
      "Ġnebezpe": 4224,
      "tÃ¡ch": 4225,
      "ĠtrÃ¡vÄĽ": 4226,
      "daly": 4227,
      "Ġsad": 4228,
      "ost": 4229,
      "znÃ½": 4230,
      "ĠdÃŃk": 4231,
      "vech": 4232,
      "ĠnadÄĽj": 4233,
      "pce": 4234,
      "Ġskle": 4235,
      "ĠvÃŃtÄĽzstvÃŃ": 4236,
      "ony": 4237,
      "Ġtehdy": 4238,
      "Ġvrah": 4239,
      "Ġasku": 4240,
      "Ġstolu": 4241,
      "ĠmyÅ¡lenky": 4242,
      "dovÃ©": 4243,
      "ĠÄįasÅ¯": 4244,
      "enÄĽ": 4245,
      "ĠkÅĻÃŃdel": 4246,
      "ĠjinÃ¡": 4247,
      "ĠnadÄĽjÃŃ": 4248,
      "ĠdeÅ¡tÄĽ": 4249,
      "Ġumu": 4250,
      "ĠÅĻad": 4251,
      "Ġisty": 4252,
      "lÃŃk": 4253,
      "bla": 4254,
      "Ġplanou": 4255,
      "Ġfan": 4256,
      "ĠtmÃ¡ch": 4257,
      "Ġadem": 4258,
      "ÅĪat": 4259,
      "Ġazy": 4260,
      "Ġzaho": 4261,
      "ĠstraÅ¡": 4262,
      "Ġpora": 4263,
      "ĠynÄĽ": 4264,
      "nÅ¯m": 4265,
      "Ġtri": 4266,
      "Ġznak": 4267,
      "Ġstopy": 4268,
      "ĠbratÅĻe": 4269,
      "ĠrÃ½": 4270,
      "ĠtuÅ¡ÃŃ": 4271,
      "Ġtaky": 4272,
      "Ġnaho": 4273,
      "Ġapo": 4274,
      "Ġvyr": 4275,
      "ĠÅ¡eru": 4276,
      "Ġhed": 4277,
      "ĠchovÃ¡": 4278,
      "ĠtÃ¡hnou": 4279,
      "ĠjemnÄĽ": 4280,
      "ĠvroucnÄĽ": 4281,
      "ĠspÃ¡nku": 4282,
      "ĠdrÅ¾ÃŃ": 4283,
      "ĠsnÃ¡ch": 4284,
      "Ġeky": 4285,
      "Ġlho": 4286,
      "Ġejte": 4287,
      "ĠpravÃ©": 4288,
      "snÃ¡": 4289,
      "Ġuchem": 4290,
      "ĠdveÅĻÃŃ": 4291,
      "Ġhledal": 4292,
      "ĠtÄĽchto": 4293,
      "rovna": 4294,
      "Ġlaska": 4295,
      "Ġhoto": 4296,
      "Ġmohla": 4297,
      "ĠsprÃ¡": 4298,
      "Ġkvete": 4299,
      "Ġechem": 4300,
      "ĠvÄĽÄįnÃ¡": 4301,
      "Ġvzdych": 4302,
      "ĠbÃŃdy": 4303,
      "ĠdÃ½chÃ¡": 4304,
      "Ġznamen": 4305,
      "Ġtouze": 4306,
      "Ġroj": 4307,
      "ĠdivnÃ½": 4308,
      "Ġznal": 4309,
      "Ġvzru": 4310,
      "ĠÅ¾hou": 4311,
      "Ġlok": 4312,
      "ĠvÃ¡Å¡ni": 4313,
      "kÅĻÃŃ": 4314,
      "ĠhrÅ¯za": 4315,
      "Ġnesta": 4316,
      "jak": 4317,
      "Å¾ili": 4318,
      "Ġvyje": 4319,
      "Ġjan": 4320,
      "ĠusmÃŃvÃ¡": 4321,
      "Å¡u": 4322,
      "ĠpÅĻelu": 4323,
      "ĠÅ¾Ã¡dÃ¡": 4324,
      "Ġpomoci": 4325,
      "Ġzahy": 4326,
      "ĠjeÅ¥": 4327,
      "tlo": 4328,
      "rÃ½vÃ¡": 4329,
      "ĠnuÅ¾e": 4330,
      "lej": 4331,
      "ĠouÅ¡ti": 4332,
      "ĠkrÃ¡sou": 4333,
      "Ġvou": 4334,
      "ĠzÃ¡ha": 4335,
      "Ġyval": 4336,
      "ĠtÄĽlem": 4337,
      "Ġinam": 4338,
      "ĠtÄĽÅ¾kÃ¡": 4339,
      "ĠstaÅĻec": 4340,
      "ĠÄĽch": 4341,
      "mech": 4342,
      "ĠĠĊ": 4343,
      "Ġvelko": 4344,
      "Ġpadla": 4345,
      "ĠbÃŃda": 4346,
      "Ġkrajem": 4347,
      "Ġodva": 4348,
      "ĠstÃ¡ti": 4349,
      "ĠsedÄĽl": 4350,
      "lÃ¡m": 4351,
      "Ġoudi": 4352,
      "Ġprv": 4353,
      "ĠupÅĻÃŃm": 4354,
      "ĠvaÅ¡ich": 4355,
      "ĠmocnÃ½": 4356,
      "ĠvÄĽku": 4357,
      "Ġbod": 4358,
      "ĠvÄĽtrem": 4359,
      "ĠzÃ¡voj": 4360,
      "ĠvÄĽrnÄĽ": 4361,
      "ĠvÃ¡Å¾nÄĽ": 4362,
      "lÃ¡k": 4363,
      "Ġkola": 4364,
      "ĠsvÃŃrÃ¡": 4365,
      "lenou": 4366,
      "tne": 4367,
      "ÅĪa": 4368,
      "ĠsvÄĽtel": 4369,
      "kam": 4370,
      "ĠÅ¾alo": 4371,
      "ĠvzÃŃ": 4372,
      "ĠÄĽru": 4373,
      "Ġkrista": 4374,
      "dlÃ©": 4375,
      "Ġjesti": 4376,
      "ĠnejkrÃ¡snÄĽ": 4377,
      "jÃŃcÃŃch": 4378,
      "ĠpÅĻiÅ¡li": 4379,
      "ĠzÅ¯stal": 4380,
      "Ġheb": 4381,
      "ĠjednÃŃm": 4382,
      "ĠvÄĽtve": 4383,
      "Ġduchem": 4384,
      "ĠplÃŃ": 4385,
      "Ġdrahou": 4386,
      "sÃ½": 4387,
      "Ġobrov": 4388,
      "lÃ¡nÃŃ": 4389,
      "ĠhÃ¡je": 4390,
      "Ġrosa": 4391,
      "ĠtrÅ¯nu": 4392,
      "Ġihne": 4393,
      "ĠsÃŃÅĪ": 4394,
      "Ġklade": 4395,
      "Ġyn": 4396,
      "ĠjinÃ½m": 4397,
      "ĠosamÄĽ": 4398,
      "Å¾ela": 4399,
      "Ġpozdrav": 4400,
      "ĠdnÄĽ": 4401,
      "Ġecko": 4402,
      "letÄĽ": 4403,
      "hÃ¡ch": 4404,
      "ĠÄįÃŃÅ¡": 4405,
      "ĠstÅĻedu": 4406,
      "ĠXXAABB": 4407,
      "ĠchÅ¯": 4408,
      "ĠlidskÃ¡": 4409,
      "ĠpotÅĻe": 4410,
      "Ġbru": 4411,
      "Ġuta": 4412,
      "ĠrodnÃ©": 4413,
      "vici": 4414,
      "Ġlen": 4415,
      "ĠvÃ½kÅĻik": 4416,
      "ĠtrÃ½": 4417,
      "ĠskrÃ½vÃ¡": 4418,
      "Ġia": 4419,
      "Ġlev": 4420,
      "Ġstromu": 4421,
      "ĠtrÅ¯n": 4422,
      "Ġjat": 4423,
      "Ġuty": 4424,
      "Ġmilou": 4425,
      "ĠbrÃ¡ny": 4426,
      "ĠzamyÅ¡": 4427,
      "Ġvyko": 4428,
      "ĠÅ¾alÃ¡": 4429,
      "pky": 4430,
      "ĠvstÃ¡vÃ¡": 4431,
      "ĠudÄĽ": 4432,
      "Ġdlu": 4433,
      "cie": 4434,
      "ĠmoÅĻem": 4435,
      "ĠAAXB": 4436,
      "Ġvdo": 4437,
      "Äįili": 4438,
      "ĠzÃ¡kon": 4439,
      "ĠÄĽky": 4440,
      "ĠdÃ©Å¡Å¥": 4441,
      "ĠodvÃ¡": 4442,
      "Ġsnil": 4443,
      "Ġjal": 4444,
      "ĠhÅ¯": 4445,
      "ĠloÅ¾i": 4446,
      "ĠÄįnÃŃ": 4447,
      "Ġestu": 4448,
      "ĠtÄĽÅ¡ÃŃ": 4449,
      "ĠmrtvÃ½": 4450,
      "ĠsvÅ¯": 4451,
      "Ġinem": 4452,
      "ĠdivÃ©": 4453,
      "zÃ¡ch": 4454,
      "Ġpri": 4455,
      "Ġlabu": 4456,
      "Ġsmutno": 4457,
      "ĠkvÃŃlÃŃ": 4458,
      "ĠodpovÃŃ": 4459,
      "Å¾a": 4460,
      "Ġbolem": 4461,
      "pek": 4462,
      "ĠÅĻÃŃÅ¡i": 4463,
      "ĠodmÄĽ": 4464,
      "ĠÅĻÃŃÅ¡": 4465,
      "Ġzdro": 4466,
      "ĠnejvÃŃc": 4467,
      "ĠvaÅ¡i": 4468,
      "ĠhnÃ¡": 4469,
      "set": 4470,
      "Ġdneska": 4471,
      "ĠdÃ¡vnÃ½ch": 4472,
      "ĠvznÃ¡Å¡ÃŃ": 4473,
      "ĠvzrÅ¯": 4474,
      "ĠdivÃ¡": 4475,
      "ĠvichÅĻi": 4476,
      "ĠkÃ½vÃ¡": 4477,
      "Ġobe": 4478,
      "Ġtyto": 4479,
      "dÃ½m": 4480,
      "ĠzdaÅ¾": 4481,
      "lin": 4482,
      "Ġhon": 4483,
      "nÃŃkÅ¯": 4484,
      "Ġhi": 4485,
      "ĠtÃŃÅ¾": 4486,
      "ĠrozechvÄĽ": 4487,
      "ÅĻili": 4488,
      "dÄĽti": 4489,
      "jdou": 4490,
      "Ġplou": 4491,
      "ĠkÅĻo": 4492,
      "Ġovou": 4493,
      "Ġvolal": 4494,
      "ĠsmutnÃ¡": 4495,
      "ĠsmÃ¡l": 4496,
      "kaly": 4497,
      "nkem": 4498,
      "ĠmÃ¡ti": 4499,
      "ĠpÃ¡nu": 4500,
      "Ġradu": 4501,
      "ĠÅ¾ivÃ©": 4502,
      "Ġpolib": 4503,
      "ĠkrÃ¡snou": 4504,
      "ĠpracÃŃ": 4505,
      "ĠsvÄĽtlem": 4506,
      "ĠzvÄĽst": 4507,
      "ĠdvÃ©ÅĻe": 4508,
      "ĠkterÃ½m": 4509,
      "ĠbolestÃŃ": 4510,
      "Ġzbled": 4511,
      "rÃ¡t": 4512,
      "ĠbÃŃdu": 4513,
      "Ġluh": 4514,
      "Ġperly": 4515,
      "Ã¡l": 4516,
      "Ġpurpu": 4517,
      "ĠbÃ¡je": 4518,
      "jit": 4519,
      "ĠtuÅ¾": 4520,
      "ĠlÃ©pe": 4521,
      "ĠjÃ¡sÃ¡": 4522,
      "Ġmech": 4523,
      "Ġpekel": 4524,
      "Ġhluk": 4525,
      "ĠchvÄĽla": 4526,
      "ĠÅĻady": 4527,
      "ĠÄįernou": 4528,
      "Ġstuden": 4529,
      "Äįela": 4530,
      "Ġpusti": 4531,
      "ĠÄĽne": 4532,
      "Ġner": 4533,
      "ĠvelikÃ©": 4534,
      "Ġplyne": 4535,
      "Ġetem": 4536,
      "Ġrosy": 4537,
      "ĠkÃ¡Å¾e": 4538,
      "Ġpodi": 4539,
      "Ġkolik": 4540,
      "Ġdavu": 4541,
      "Ġetla": 4542,
      "ĠchladnÃ½": 4543,
      "ĠokamÅ¾ik": 4544,
      "ĠsedÃ¡": 4545,
      "Ġspokojen": 4546,
      "Ġshas": 4547,
      "ĠplÃ¡Å¡Å¥": 4548,
      "ĠstÃ¡ÅĻÃŃ": 4549,
      "ĠnechtÄĽ": 4550,
      "ĠstÅĻÃŃbro": 4551,
      "vÅ¡e": 4552,
      "pec": 4553,
      "ĠpÃ½": 4554,
      "ĠnÃ©": 4555,
      "mon": 4556,
      "ĠcÃŃle": 4557,
      "ĠÄįarov": 4558,
      "ĠzbraÅĪ": 4559,
      "Ġbit": 4560,
      "ĠprostÃ©": 4561,
      "ĠmladÃ½ch": 4562,
      "ĠistÄĽ": 4563,
      "moc": 4564,
      "ĠÅ¾elez": 4565,
      "ĠplnÃ¡": 4566,
      "ĠstoupÃ¡": 4567,
      "bar": 4568,
      "Ġahne": 4569,
      "vcÅ¯": 4570,
      "Ġmladi": 4571,
      "Ġjede": 4572,
      "Ġinka": 4573,
      "ĠtatÃŃ": 4574,
      "ckÃ¡": 4575,
      "ĠskÃ¡le": 4576,
      "uj": 4577,
      "ĠpÅĻÃŃrody": 4578,
      "ĠnazpÄĽt": 4579,
      "ĠvÄĽÅ¾ÃŃ": 4580,
      "ĠÅĻada": 4581,
      "ĠÄĽchu": 4582,
      "Ġpekla": 4583,
      "ĠmÃŃstÄĽ": 4584,
      "Ġrozk": 4585,
      "ĠchudÃ¡": 4586,
      "ĠmanÄĽ": 4587,
      "nily": 4588,
      "Ġstav": 4589,
      "nili": 4590,
      "kov": 4591,
      "Ġkarel": 4592,
      "ĠkÅ¯ÅĪ": 4593,
      "ĠdÃŃky": 4594,
      "Ġopil": 4595,
      "Ġslzou": 4596,
      "ĠumÄĽl": 4597,
      "Ġumy": 4598,
      "Å¡eÅĪ": 4599,
      "vol": 4600,
      "ĠÅ¾itÃŃm": 4601,
      "Ġprsty": 4602,
      "Ġiral": 4603,
      "ĠvlÃ¡dne": 4604,
      "mal": 4605,
      "Ġmluvit": 4606,
      "ĠiÄį": 4607,
      "Ġnitro": 4608,
      "ÄįÅ¯": 4609,
      "stek": 4610,
      "tli": 4611,
      "tily": 4612,
      "ĠradÄĽj": 4613,
      "vak": 4614,
      "ĠplnÃŃ": 4615,
      "Ġpoesie": 4616,
      "lÃŃch": 4617,
      "Ġzmize": 4618,
      "Ġvznes": 4619,
      "Ġedem": 4620,
      "Ġpanna": 4621,
      "ĠrÃ¡ji": 4622,
      "pÃŃrÃ¡": 4623,
      "ĠÄįÃŃÅ¡e": 4624,
      "Ġplod": 4625,
      "Ġkosti": 4626,
      "ĠpotÃ¡": 4627,
      "nej": 4628,
      "Ġrodu": 4629,
      "Ġdumy": 4630,
      "Ġuny": 4631,
      "ĠpoupÄĽ": 4632,
      "ĠzpÄĽvy": 4633,
      "ĠdennÃŃ": 4634,
      "Ġklobou": 4635,
      "ĠÅ¡pe": 4636,
      "ĠstÃ¡li": 4637,
      "ĠhledÃŃm": 4638,
      "ĠmarnÃ©": 4639,
      "ĠprÃ¡zdno": 4640,
      "ĠjedinÃ¡": 4641,
      "Ġdcera": 4642,
      "Ġenym": 4643,
      "ĠutÃŃ": 4644,
      "Ġyka": 4645,
      "Ġitil": 4646,
      "ĠÄįeho": 4647,
      "ol": 4648,
      "ĠjejÃŃch": 4649,
      "Ġinach": 4650,
      "Ġher": 4651,
      "ĠletÄĽ": 4652,
      "ĠÄįekal": 4653,
      "Ġex": 4654,
      "ĠÄįinÃŃ": 4655,
      "ÅĻenÃ¡": 4656,
      "pÃŃm": 4657,
      "Ġzlou": 4658,
      "ĠmoÅĻ": 4659,
      "Ġmistr": 4660,
      "Ġpokry": 4661,
      "Ġopoj": 4662,
      "vla": 4663,
      "Ġomi": 4664,
      "Ġitra": 4665,
      "Ġmiloval": 4666,
      "ĠhnÃŃzdo": 4667,
      "ĠtrÃ¡vy": 4668,
      "ĠklÃŃnu": 4669,
      "ĠpÅ¯jde": 4670,
      "Ġodtud": 4671,
      "Ġnejsou": 4672,
      "Ġpozor": 4673,
      "ĠÃºto": 4674,
      "ĠmnohÃ¡": 4675,
      "ĠÅ¾havÃ©": 4676,
      "ĠspoleÄį": 4677,
      "cÃŃho": 4678,
      "Ġpomalu": 4679,
      "ĠpoÅ¾ehnÃ¡nÃŃ": 4680,
      "vor": 4681,
      "ĠiÅĻe": 4682,
      "ĠhonÃŃ": 4683,
      "ĠnesmÄĽ": 4684,
      "chÃ¡ch": 4685,
      "ĠÄĽhu": 4686,
      "nulo": 4687,
      "dilo": 4688,
      "Ġnemoh": 4689,
      "Ġrostou": 4690,
      "Ġnemlu": 4691,
      "ĠoÅ¾il": 4692,
      "ĠprchÃ¡": 4693,
      "Ġvzly": 4694,
      "ĠÄįistÃ¡": 4695,
      "ĠvÄĽnce": 4696,
      "Ġdy": 4697,
      "kami": 4698,
      "ĠÅ¡Å¥asten": 4699,
      "ĠÅ¾enÄĽ": 4700,
      "Ġrozpu": 4701,
      "Ġgra": 4702,
      "kr": 4703,
      "hala": 4704,
      "pnÄĽ": 4705,
      "ĠÅ¡kle": 4706,
      "Ġletem": 4707,
      "ĠÅ¡koda": 4708,
      "ĠvÅ¡udy": 4709,
      "ĠÅ¾havÃ½": 4710,
      "Ġstruny": 4711,
      "ĠpÅĻÃŃmo": 4712,
      "ĠpÃ¡nem": 4713,
      "Ġnutno": 4714,
      "Ġtur": 4715,
      "ĠhÃ¡zÃŃ": 4716,
      "ÄįkÃ½": 4717,
      "ĠmuÅ¾Å¯": 4718,
      "ĠptÃ¡kÅ¯": 4719,
      "ĠzÃ¡padu": 4720,
      "Ġobo": 4721,
      "Ġpeklo": 4722,
      "ĠskrÃ¡nÃŃ": 4723,
      "ĠÃºz": 4724,
      "ĠskrÃ¡nÄĽ": 4725,
      "ĠubÃŃ": 4726,
      "ĠsÃ½": 4727,
      "ĠvnitÅĻ": 4728,
      "lenÃ¡": 4729,
      "ĠmrakÅ¯": 4730,
      "Ġence": 4731,
      "nd": 4732,
      "Ġtopo": 4733,
      "Ġekla": 4734,
      "ĠkrÃ¡tkÃ½": 4735,
      "ĠnejkrÃ¡snÄĽjÅ¡ÃŃ": 4736,
      "rnÃ½m": 4737,
      "rovÃ©": 4738,
      "Ġzavo": 4739,
      "ĠvÃŃtÃ¡": 4740,
      "ĠrÃ¡mÄĽ": 4741,
      "ĠvdÄĽk": 4742,
      "ĠdivnÄĽ": 4743,
      "loudil": 4744,
      "ĠrozkoÅ¡e": 4745,
      "ĠsvÄĽdomÃŃ": 4746,
      "Ġlhostej": 4747,
      "zenÃŃ": 4748,
      "Ġmyslil": 4749,
      "ĠkonÃŃ": 4750,
      "Ġstanul": 4751,
      "Ġdomov": 4752,
      "ĠpamÄĽti": 4753,
      "Ġtoto": 4754,
      "ĠXXXA": 4755,
      "vic": 4756,
      "Ġvzlet": 4757,
      "Ġsten": 4758,
      "Ġkruhu": 4759,
      "ĠokamÅ¾i": 4760,
      "Ġsvobody": 4761,
      "gra": 4762,
      "ÅĻÃŃÅ¡": 4763,
      "ĠÄįelem": 4764,
      "Ġvrch": 4765,
      "Ġadlo": 4766,
      "ĠpoÅ¡": 4767,
      "ĠplÃ¡Äįem": 4768,
      "ĠdlouhÃ½ch": 4769,
      "Ã½Å¡": 4770,
      "lÃŃÅ¡": 4771,
      "ÄįkÅ¯": 4772,
      "nuli": 4773,
      "ĠpÅĻÃŃteli": 4774,
      "ĠzvonÅ¯": 4775,
      "ĠchvÄĽjÃŃ": 4776,
      "ĠÅ¾er": 4777,
      "ĠsvÄĽd": 4778,
      "Ġztr": 4779,
      "ĠnejvÄĽt": 4780,
      "Ġicy": 4781,
      "ĠodpusÅ¥": 4782,
      "Ġclo": 4783,
      "Ġstin": 4784,
      "ĠzbranÄĽ": 4785,
      "Ġlesku": 4786,
      "ĠnÄĽko": 4787,
      "Ġpadl": 4788,
      "Ġbarvy": 4789,
      "kly": 4790,
      "Ġnetu": 4791,
      "dec": 4792,
      "ĠstÅ¯l": 4793,
      "Ġdruhu": 4794,
      "ĠsÃŃnÄĽ": 4795,
      "Ġsnech": 4796,
      "ĠvÄĽdÄĽl": 4797,
      "ĠkrÃ¡snÄĽ": 4798,
      "ĠÄįlovÄĽku": 4799,
      "ĠpyÅ¡": 4800,
      "Ġivot": 4801,
      "ĠmÃ¡j": 4802,
      "ĠneÅ¡tÄĽ": 4803,
      "ĠbdÃŃ": 4804,
      "Ġuko": 4805,
      "mÃŃm": 4806,
      "ĠvÄĽrnÃ½": 4807,
      "Ġhyne": 4808,
      "Ġunaven": 4809,
      "Ġeskem": 4810,
      "tilo": 4811,
      "Ġulic": 4812,
      "ĠvÃ¡clav": 4813,
      "ĠdomÃ¡": 4814,
      "Ġdobrou": 4815,
      "lili": 4816,
      "ĠtmavÃ½": 4817,
      "Ġesi": 4818,
      "Ġbychom": 4819,
      "ĠblahÃ©": 4820,
      "ĠvzpomÃŃnÃ¡m": 4821,
      "Ġivat": 4822,
      "Ġiho": 4823,
      "ĠzavÃ¡": 4824,
      "Ġarci": 4825,
      "ĠzvÃŃÅĻe": 4826,
      "ĠÄįtyÅĻi": 4827,
      "Ġdivy": 4828,
      "neme": 4829,
      "Ġslep": 4830,
      "Ġstrachu": 4831,
      "ĠÄįar": 4832,
      "snou": 4833,
      "Å¾eb": 4834,
      "ĠvÃ¡Å¡eÅĪ": 4835,
      "darmo": 4836,
      "ĠkdeÅ¾": 4837,
      "ĠvznÄĽ": 4838,
      "Ġblaze": 4839,
      "ĠkÅĻiÄįÃŃ": 4840,
      "jÃŃcÃ½": 4841,
      "ĠnovÃ½m": 4842,
      "Å¡ila": 4843,
      "zÃŃch": 4844,
      "ĠmÅĻe": 4845,
      "ÅĻena": 4846,
      "ĠdÄĽlÃ¡": 4847,
      "tuje": 4848,
      "ĠmlÃ¡den": 4849,
      "Ġevro": 4850,
      "ĠjemuÅ¾": 4851,
      "fe": 4852,
      "Ġjez": 4853,
      "ĠnaÅ¡em": 4854,
      "ĠusmÄĽ": 4855,
      "Ġnemohu": 4856,
      "ĠÃºc": 4857,
      "ĠtichÃ©m": 4858,
      "ĠisnÄĽ": 4859,
      "ĠkÅĻiv": 4860,
      "Ġobzoru": 4861,
      "Ġysi": 4862,
      "Ġzuby": 4863,
      "ĠhrozÃŃ": 4864,
      "klady": 4865,
      "Ġehu": 4866,
      "Ġmalou": 4867,
      "ĠmyÅ¡lÃ©nky": 4868,
      "Ġun": 4869,
      "vaje": 4870,
      "Ġip": 4871,
      "Ġvida": 4872,
      "ĠpÄĽstÃŃ": 4873,
      "ĠletnÃŃ": 4874,
      "Äįas": 4875,
      "ĠvÃ¡bÃŃ": 4876,
      "ĠslzÃ¡ch": 4877,
      "Ġsmrtel": 4878,
      "ĠzvuÄįÃŃ": 4879,
      "try": 4880,
      "ĠyÅ¡el": 4881,
      "ĠotvÃŃrÃ¡": 4882,
      "ĠzaznÃŃ": 4883,
      "Ġyska": 4884,
      "ĠpovÄĽz": 4885,
      "ĠjiÅĻÃŃ": 4886,
      "Ġhladi": 4887,
      "ĠÄĽmi": 4888,
      "Ġnebesa": 4889,
      "Ġhrdin": 4890,
      "Ġorel": 4891,
      "hovÃ©": 4892,
      "nut": 4893,
      "Ġjinoch": 4894,
      "ĠzdrÃ¡v": 4895,
      "hni": 4896,
      "tÃ©ho": 4897,
      "Ġhore": 4898,
      "Ã¡n": 4899,
      "Ġiry": 4900,
      "ĠvÃŃÅĻÃŃ": 4901,
      "ĠbuÅ¡ÃŃ": 4902,
      "ĠcelÃ©m": 4903,
      "rala": 4904,
      "Ġjiskry": 4905,
      "Ġkristus": 4906,
      "ĠsmÃŃchem": 4907,
      "Ġsev": 4908,
      "ĠcÃŃli": 4909,
      "ĠvzneÅ¡en": 4910,
      "ĠleÅ¾": 4911,
      "ĠlÃŃcÃŃ": 4912,
      "Ġudce": 4913,
      "Ġnach": 4914,
      "ĠzrakÅ¯": 4915,
      "Ġpozo": 4916,
      "Ġhovor": 4917,
      "ĠÅ¾ivÃ½": 4918,
      "ĠvÄĽÄįnost": 4919,
      "Ġsvobodu": 4920,
      "ĠÅĻÃŃkÃ¡": 4921,
      "Ġzar": 4922,
      "Ġtamo": 4923,
      "ĠdÄĽtem": 4924,
      "ĠvÄĽÄįnou": 4925,
      "Ġanek": 4926,
      "ĠznamenÃŃ": 4927,
      "ĠmÃ½": 4928,
      "ĠÄĽda": 4929,
      "Ġoupa": 4930,
      "ĠÅ¡ero": 4931,
      "ĠzahrÃ¡": 4932,
      "ĠlÃŃba": 4933,
      "ĠhrabÄĽ": 4934,
      "ĠdunÃŃ": 4935,
      "ĠznÃ¡Å¡": 4936,
      "ĠkÅĻÃŃdlem": 4937,
      "ĠstÅ¯j": 4938,
      "cou": 4939,
      "Ġsmi": 4940,
      "ĠvlnÃŃ": 4941,
      "Ġuto": 4942,
      "ĠplÃ¡nÃŃ": 4943,
      "Ġhlavi": 4944,
      "ĠÃºt": 4945,
      "ĠrÃ¡di": 4946,
      "Ġslast": 4947,
      "ĠjakÃ½s": 4948,
      "Ġrtu": 4949,
      "Ġklesla": 4950,
      "rostÅĻed": 4951,
      "lid": 4952,
      "ĠÅ¡t": 4953,
      "ĠÅ¡edÃ½": 4954,
      "ĠvlnÃ¡ch": 4955,
      "ĠonÃ©": 4956,
      "Ġudou": 4957,
      "Ġbrzo": 4958,
      "Ġenku": 4959,
      "ĠposvÄĽ": 4960,
      "ĠkorÃ¡": 4961,
      "Ġletech": 4962,
      "Ġjablo": 4963,
      "ĠtÄĽmi": 4964,
      "Ġbisku": 4965,
      "ĠstokrÃ¡t": 4966,
      "dle": 4967,
      "Ġadal": 4968,
      "ĠÅ¾Ã¡rem": 4969,
      "vÅ¯r": 4970,
      "Ġpoza": 4971,
      "Ġslunko": 4972,
      "ĠpojÃŃ": 4973,
      "telem": 4974,
      "Ġmile": 4975,
      "ĠhrÃ¡l": 4976,
      "Ġury": 4977,
      "ĠbojovnÃŃ": 4978,
      "ĠtajnÄĽ": 4979,
      "Ġtmu": 4980,
      "ĠjÃŃmÃ¡": 4981,
      "ĠÅ¡eptÃ¡": 4982,
      "ĠpÅ¯jdu": 4983,
      "Ġslovan": 4984,
      "Ġsoumra": 4985,
      "Ġpovin": 4986,
      "ĠnaÅĻÃŃ": 4987,
      "ĠpÅĻÃŃroda": 4988,
      "Ġyku": 4989,
      "ĠvelikÃ¡": 4990,
      "Ġerou": 4991,
      "ĠpÃŃsku": 4992,
      "Ġztratil": 4993,
      "ĠvraÅ¥": 4994,
      "ĠprosÃŃ": 4995,
      "Ġisk": 4996,
      "ĠnoÅĻÃŃ": 4997,
      "Ġmladosti": 4998,
      "fy": 4999,
      "Ġinky": 5000,
      "Ġklas": 5001,
      "ĠtÄĽÅ¾kou": 5002,
      "ĠÅ¾eno": 5003,
      "ĠÄıÃ¡bel": 5004,
      "Ġubi": 5005,
      "nutÃŃm": 5006,
      "jeme": 5007,
      "ĠhroznÃ½": 5008,
      "ĠnÃ¡dhe": 5009,
      "Ġrozma": 5010,
      "Ġsnes": 5011,
      "ĠoÄįka": 5012,
      "loval": 5013,
      "ĠcelÃ½m": 5014,
      "trem": 5015,
      "Ġmechu": 5016,
      "ĠpravdÄĽ": 5017,
      "Ġynou": 5018,
      "ĠnechtÄĽl": 5019,
      "ĠÄįerno": 5020,
      "Ġcitu": 5021,
      "Ġproudem": 5022,
      "Ġdaleka": 5023,
      "ĠtÃ¡bo": 5024,
      "hro": 5025,
      "ĠnÃ¡rodu": 5026,
      "Å¾ek": 5027,
      "ĠverÅ¡e": 5028,
      "Äįina": 5029,
      "ĠkrÅ¯pÄĽj": 5030,
      "Ġhlav": 5031,
      "ĠsvatÃ½ch": 5032,
      "dÄĽji": 5033,
      "ĠplaÅ¡e": 5034,
      "Ġahla": 5035,
      "Ġleskem": 5036,
      "Ġhavra": 5037,
      "ĠjedinÃ©": 5038,
      "Ġnalez": 5039,
      "ĠslyÅ¡ÃŃÅ¡": 5040,
      "ĠvÄĽcÃŃ": 5041,
      "Ġcity": 5042,
      "ĠpustÃ©": 5043,
      "ĠÄĽn": 5044,
      "Ġviny": 5045,
      "ĠÅ¡tÄĽstÃŃm": 5046,
      "Ġkalich": 5047,
      "Ġahou": 5048,
      "ĠiÄįko": 5049,
      "Ġteskno": 5050,
      "Ġhvozd": 5051,
      "ĠÄĽsta": 5052,
      "ĠzÅĻÃŃÅ¡": 5053,
      "ĠverÅ¡": 5054,
      "fo": 5055,
      "ĠkolÃ©b": 5056,
      "Ġnaklo": 5057,
      "tin": 5058,
      "ĠvÅ¡ednÃŃ": 5059,
      "Ġticha": 5060,
      "ĠbÄĽd": 5061,
      "ĠodvÄĽ": 5062,
      "ÅĻenÃ½ch": 5063,
      "ĠmoÅ¾nÃ¡": 5064,
      "Ġvtip": 5065,
      "Ġvodo": 5066,
      "Ġsam": 5067,
      "ĠÄįerst": 5068,
      "Ġdoz": 5069,
      "Ġeu": 5070,
      "viny": 5071,
      "ĠdÄĽvy": 5072,
      "tej": 5073,
      "hlou": 5074,
      "Ġlek": 5075,
      "Ġadly": 5076,
      "Ġnechal": 5077,
      "Ġvzala": 5078,
      "Ġjinou": 5079,
      "ĠpastÃ½": 5080,
      "ĠrozlÃ©": 5081,
      "bÅ¯h": 5082,
      "ckou": 5083,
      "Å¡tÃŃm": 5084,
      "ĠkrÄį": 5085,
      "ĠpozdnÃŃ": 5086,
      "Ġveleb": 5087,
      "Ġunu": 5088,
      "ĠpÄĽnÃŃ": 5089,
      "Ġohrom": 5090,
      "Ġnasta": 5091,
      "Ġluna": 5092,
      "ĠAAAX": 5093,
      "Ġlni": 5094,
      "ĠbÄĽlost": 5095,
      "nt": 5096,
      "Ġspla": 5097,
      "Ġotem": 5098,
      "Ġnesko": 5099,
      "najÃŃ": 5100,
      "ĠmodlÃŃ": 5101,
      "Ġusly": 5102,
      "Ġstisk": 5103,
      "Ġvry": 5104,
      "ĠkvÃ©": 5105,
      "ĠasnÄĽ": 5106,
      "Ġchudo": 5107,
      "Ġnitra": 5108,
      "mÃ¡nÃŃ": 5109,
      "nie": 5110,
      "ĠÄĽc": 5111,
      "ĠzpÃŃvat": 5112,
      "Ġzbro": 5113,
      "ĠmanÅ¾el": 5114,
      "Ġuchy": 5115,
      "Ġycky": 5116,
      "sech": 5117,
      "Ġvil": 5118,
      "lala": 5119,
      "ĠsamÃ½": 5120,
      "ĠÅ¾Ã¡dnÃ¡": 5121,
      "ĠÄįeskÃ¡": 5122,
      "Ġracho": 5123,
      "ĠplÃ¡l": 5124,
      "ĠtrhÃ¡": 5125,
      "ĠmlÃ©": 5126,
      "taly": 5127,
      "ĠvÄĽrnÃ©": 5128,
      "Ġskla": 5129,
      "Ġpropasti": 5130,
      "vl": 5131,
      "huje": 5132,
      "rii": 5133,
      "ĠspÃŃcÃŃ": 5134,
      "Ġctnosti": 5135,
      "ĠhnutÃŃ": 5136,
      "Ġatce": 5137,
      "tnÃ½ch": 5138,
      "ĠnÃŃmÅ¾": 5139,
      "Ġchvilku": 5140,
      "lily": 5141,
      "Ġeci": 5142,
      "ĠAX": 5143,
      "ĠnejvyÅ¡Å¡ÃŃ": 5144,
      "Ġpanny": 5145,
      "ĠmÅ¯Å¾eÅ¡": 5146,
      "sat": 5147,
      "ĠhrdÃ©": 5148,
      "ÅĪÅ¯": 5149,
      "ĠvÃ¡nek": 5150,
      "Ġbran": 5151,
      "ĠstÃŃnem": 5152,
      "Ġzlost": 5153,
      "ĠzaÄįal": 5154,
      "Ġiska": 5155,
      "ĠÅ¾u": 5156,
      "Ġoudy": 5157,
      "Ġatko": 5158,
      "Ġmoudro": 5159,
      "Ġchcete": 5160,
      "ĠpÅĻis": 5161,
      "Ġnesla": 5162,
      "Ġzdroj": 5163,
      "Ġukru": 5164,
      "ÄįnÃ©m": 5165,
      "ĠpÃŃt": 5166,
      "ĠpouÅ¡ti": 5167,
      "Ġvysoko": 5168,
      "alen": 5169,
      "ĠvÅ¡eli": 5170,
      "ĠspÃ¡nek": 5171,
      "ĠmÅ¾ik": 5172,
      "Ġsice": 5173,
      "nicÃŃ": 5174,
      "ĠÃºzkost": 5175,
      "Ġnadarmo": 5176,
      "Ġnau": 5177,
      "ĠpapeÅ¾": 5178,
      "ĠvstÃ¡": 5179,
      "ĠpouÅ¡tÃŃ": 5180,
      "Ġpozved": 5181,
      "Ġmluv": 5182,
      "Ġvrat": 5183,
      "Ġerem": 5184,
      "Ġneji": 5185,
      "ĠpouÅ¡tÄĽ": 5186,
      "Ġdna": 5187,
      "ĠnÄĽme": 5188,
      "Ġpopel": 5189,
      "Ġzrovna": 5190,
      "ĠoÅĻ": 5191,
      "ĠdnÃŃ": 5192,
      "Ġnou": 5193,
      "jÃŃÅ¾": 5194,
      "Ġhalu": 5195,
      "ĠvzpomÃŃnka": 5196,
      "ĠÄĽnou": 5197,
      "ĠdÃŃtky": 5198,
      "ĠvlÃŃdnÄĽ": 5199,
      "ĠstÅĻÃ¡": 5200,
      "ĠzdÃ¡l": 5201,
      "Ġkorunu": 5202,
      "raje": 5203,
      "Ġpochyb": 5204,
      "zÃ½": 5205,
      "nÄĽnÃ©": 5206,
      "ĠABABAX": 5207,
      "ĠhroznÃ©": 5208,
      "Ġlna": 5209,
      "ĠneÅ¡tÄĽstÃŃ": 5210,
      "livÃ¡": 5211,
      "nÄĽte": 5212,
      "Ġmladou": 5213,
      "Ġsmysl": 5214,
      "Ġprocit": 5215,
      "ĠleÅ¾el": 5216,
      "ĠzelenÃ©": 5217,
      "ĠchystÃ¡": 5218,
      "Ġvypu": 5219,
      "tovÃ©": 5220,
      "ĠhrajÃŃ": 5221,
      "Ġkor": 5222,
      "ĠkterÃ½ch": 5223,
      "ĠhvÄĽzdi": 5224,
      "ĠhÃ¡ji": 5225,
      "Ġpocti": 5226,
      "ĠmÃ¡Å¥": 5227,
      "ĠÅ¾eni": 5228,
      "ĠsrdcÃŃch": 5229,
      "ĠvÃ½s": 5230,
      "dni": 5231,
      "ĠnÃ¡ho": 5232,
      "ĠpenÃŃ": 5233,
      "rozen": 5234,
      "Ġjinde": 5235,
      "ĠzvÄĽda": 5236,
      "ĠzÃ¡ÅĻÃŃcÃŃ": 5237,
      "ĠÅĻÃ¡d": 5238,
      "Ġvodou": 5239,
      "Ġbratra": 5240,
      "ÄįenÃ½": 5241,
      "ĠjdeÅ¡": 5242,
      "ĠÄĽtlo": 5243,
      "ĠsmrÅ¥": 5244,
      "ĠlÅ¯nÄĽ": 5245,
      "ĠbrÃ¡nÃŃ": 5246,
      "ĠdrobnÃ©": 5247,
      "ĠmÄĽsÃŃce": 5248,
      "ĠpÃ¡s": 5249,
      "Ġelu": 5250,
      "ĠzÃ¡zrak": 5251,
      "ĠzlatÃ½m": 5252,
      "Ġkomo": 5253,
      "ĠkrÃ¡lem": 5254,
      "Ġoudu": 5255,
      "ĠsÃŃni": 5256,
      "ĠspÄĽchÃ¡": 5257,
      "Ġjel": 5258,
      "ĠuprostÅĻed": 5259,
      "ĠtanÄįÃŃ": 5260,
      "tice": 5261,
      "Ġsoucit": 5262,
      "Ġrozmar": 5263,
      "ĠbojÃŃ": 5264,
      "ĠÅ¡tÄĽd": 5265,
      "ĠdÄĽva": 5266,
      "ĠjasnÃ¡": 5267,
      "ĠeÅ¡": 5268,
      "ĠsÃŃle": 5269,
      "ĠpoutnÃŃk": 5270,
      "Ġvzdechy": 5271,
      "Ġminul": 5272,
      "ĠÅ¾ivotÄĽ": 5273,
      "Ġplameny": 5274,
      "Ġio": 5275,
      "ĠvzdychÃ¡": 5276,
      "tce": 5277,
      "Ġiste": 5278,
      "niti": 5279,
      "Ġprahy": 5280,
      "ĠvlasÅ¥": 5281,
      "Ġtomto": 5282,
      "ĠslavÃŃk": 5283,
      "ÄįkÃ¡ch": 5284,
      "Ġjednoho": 5285,
      "Ġpohy": 5286,
      "Ġpsal": 5287,
      "Ġopy": 5288,
      "dovat": 5289,
      "Ġitim": 5290,
      "Ġztu": 5291,
      "ĠoÅĻil": 5292,
      "Ġitem": 5293,
      "Ġplen": 5294,
      "Ġhledat": 5295,
      "ĠÄįervÃ¡": 5296,
      "ĠzvÃ¡": 5297,
      "ĠrÃ©": 5298,
      "Ġpetr": 5299,
      "dÃ¡vÃ¡": 5300,
      "ĠvÅ¡echen": 5301,
      "Ġbral": 5302,
      "Ġosudu": 5303,
      "Ġohem": 5304,
      "Ġtemnou": 5305,
      "ÅĻiti": 5306,
      "ĠtrÃ¡va": 5307,
      "jala": 5308,
      "ĠpospÃŃ": 5309,
      "Ġpolem": 5310,
      "ĠzaÅ¡e": 5311,
      "novi": 5312,
      "ĠpoÄįal": 5313,
      "Ġtrest": 5314,
      "rovi": 5315,
      "ĠmnÃŃ": 5316,
      "ĠÅ¡va": 5317,
      "Ġokno": 5318,
      "dalo": 5319,
      "ĠÄĽtÅ¡i": 5320,
      "Ġknihy": 5321,
      "Ġutku": 5322,
      "ĠdruhÃ¡": 5323,
      "dati": 5324,
      "Ġbli": 5325,
      "Ġpohledem": 5326,
      "Ġchlap": 5327,
      "ĠstrÃ½": 5328,
      "Ġvojsko": 5329,
      "ĠpohÃ¡r": 5330,
      "ĠÅ¾ert": 5331,
      "Ġmysti": 5332,
      "Ġivem": 5333,
      "leÅĪ": 5334,
      "pomÃŃnÃ¡": 5335,
      "Ġzho": 5336,
      "ĠzÅĻela": 5337,
      "ĠdvÅ¯r": 5338,
      "ĠbuÄıte": 5339,
      "ĠcizÃŃch": 5340,
      "lko": 5341,
      "Ġbezpe": 5342,
      "Ġspasi": 5343,
      "ĠbrÃ¡z": 5344,
      "ĠtvÅ¯r": 5345,
      "ĠctÃŃ": 5346,
      "ĠlÅ¾i": 5347,
      "Ġslzu": 5348,
      "Ġichy": 5349,
      "ĠvodÄĽ": 5350,
      "Ġzvyk": 5351,
      "Ġzasmu": 5352,
      "ĠskuteÄį": 5353,
      "ĠneÃº": 5354,
      "tali": 5355,
      "ĠÃºro": 5356,
      "ĠchudÃ½": 5357,
      "Ã¡ch": 5358,
      "Ġusti": 5359,
      "ĠzlatÃŃ": 5360,
      "Ġpozem": 5361,
      "ĠstojÃŃm": 5362,
      "ĠvÄĽÅĻÃŃm": 5363,
      "ĠznÃ¡mÃ½": 5364,
      "Ġzachy": 5365,
      "ĠschÃ½": 5366,
      "Ġrmu": 5367,
      "Ġkouzlem": 5368,
      "Ġsf": 5369,
      "ĠkrÃ¡lÅ¯": 5370,
      "ĠchtÄĽli": 5371,
      "ĠvzpomÃŃnÃ¡": 5372,
      "ĠlÃŃbal": 5373,
      "Ġsym": 5374,
      "ĠsmÄĽs": 5375,
      "Ġidy": 5376,
      "vodu": 5377,
      "Ġvodu": 5378,
      "ĠveÅ¡ke": 5379,
      "Ġkoli": 5380,
      "ĠpouÅ¡Å¥": 5381,
      "ĠzapomnÄĽl": 5382,
      "ĠtÅĻpytÃŃ": 5383,
      "Ġblankyt": 5384,
      "ber": 5385,
      "skych": 5386,
      "Ġtouhu": 5387,
      "Ġbratry": 5388,
      "ĠdivÄĽ": 5389,
      "is": 5390,
      "ĠpouhÃ½": 5391,
      "ĠÅĻekne": 5392,
      "vÃŃvÃ¡": 5393,
      "hali": 5394,
      "ĠhÅĻÃŃchu": 5395,
      "sklo": 5396,
      "ÅĪuje": 5397,
      "byl": 5398,
      "chÃ¡m": 5399,
      "ĠvzkÅĻik": 5400,
      "Ġlsti": 5401,
      "Å¾ena": 5402,
      "blÃŃ": 5403,
      "ĠXXABBA": 5404,
      "Ġzvolal": 5405,
      "Ġnerozu": 5406,
      "ĠÄĽvem": 5407,
      "Ġotcem": 5408,
      "Ġdnech": 5409,
      "Ġinku": 5410,
      "ĠsluÅ¡ÃŃ": 5411,
      "Ġmiluji": 5412,
      "mil": 5413,
      "ledy": 5414,
      "ĠlÃ¡sko": 5415,
      "ĠperutÃŃ": 5416,
      "Ġhrst": 5417,
      "ĠÄĽmy": 5418,
      "Ġvinu": 5419,
      "razi": 5420,
      "ĠpoutnÃŃ": 5421,
      "Ġojim": 5422,
      "ĠsladkÃ½ch": 5423,
      "ĠspÃ¡t": 5424,
      "ĠXXAAXX": 5425,
      "Ġhodiny": 5426,
      "Ġtuze": 5427,
      "Ġmnich": 5428,
      "Ġvp": 5429,
      "ĠdomÄĽ": 5430,
      "ĠÄįert": 5431,
      "ĠvÅ¯bec": 5432,
      "ĠplÃ©mÄĽ": 5433,
      "dno": 5434,
      "Ġroky": 5435,
      "ĠÅ¾ivotu": 5436,
      "ĠtvÃ©mu": 5437,
      "Ġejich": 5438,
      "nati": 5439,
      "ĠyÅĻi": 5440,
      "Ġroztou": 5441,
      "Ġge": 5442,
      "ĠdÃ¡vnÃ©": 5443,
      "dlen": 5444,
      "Ġitel": 5445,
      "Ġdub": 5446,
      "ĠvelÃŃ": 5447,
      "Ġodho": 5448,
      "ĠpÃŃÅ¡e": 5449,
      "Ġzakle": 5450,
      "Ġryt": 5451,
      "pÅ¯so": 5452,
      "Ġpne": 5453,
      "ĠtÃ©mÄĽ": 5454,
      "Ġznaven": 5455,
      "ĠvonnÃ½": 5456,
      "Ġozi": 5457,
      "pili": 5458,
      "ble": 5459,
      "Ġvedou": 5460,
      "ĠvÄĽÅ¾": 5461,
      "Ġodda": 5462,
      "Ġrozlo": 5463,
      "ĠpÄĽl": 5464,
      "Ġposel": 5465,
      "ĠboÅ¾ÃŃm": 5466,
      "Ġmoudrost": 5467,
      "ĠedÄĽl": 5468,
      "Ġw": 5469,
      "ĠsamotÄĽ": 5470,
      "Ġdon": 5471,
      "Ġrvi": 5472,
      "Ġposlu": 5473,
      "ÄįnÃŃm": 5474,
      "Ġstarost": 5475,
      "ĠÄĽlem": 5476,
      "ĠhostÃŃ": 5477,
      "Ġnesl": 5478,
      "Ġbrachu": 5479,
      "ĠÅ¡ÃŃji": 5480,
      "Ġhry": 5481,
      "stoj": 5482,
      "ĠzbranÃŃ": 5483,
      "Ġchti": 5484,
      "tosti": 5485,
      "Ġbledou": 5486,
      "jÃŃma": 5487,
      "ĠzmÃŃrÃ¡": 5488,
      "Ġprcha": 5489,
      "ĠperuÅ¥": 5490,
      "ĠvznÃŃ": 5491,
      "Ġplesu": 5492,
      "hr": 5493,
      "Ġfra": 5494,
      "ĠdruÅ¾i": 5495,
      "ĠsvatÃ½m": 5496,
      "Ġjmeno": 5497,
      "Ġpohr": 5498,
      "Äįiti": 5499,
      "Ġondy": 5500,
      "pis": 5501,
      "ĠsilnÃ½": 5502,
      "ĠrovnÄĽ": 5503,
      "Ġsluje": 5504,
      "Ġluk": 5505,
      "ĠsladkÃ½m": 5506,
      "ĠÅ¡ÃŃp": 5507,
      "ĠcÃ¡": 5508,
      "Ġpotok": 5509,
      "Ġkout": 5510,
      "ĠtÅĻesou": 5511,
      "Ġmrtev": 5512,
      "Ġpoky": 5513,
      "dily": 5514,
      "Ġmora": 5515,
      "Ġboh": 5516,
      "ĠÅ¡erÃ©": 5517,
      "Ġjednom": 5518,
      "Ġmuka": 5519,
      "Ġanky": 5520,
      "ĠpÅ¯vab": 5521,
      "Ġasna": 5522,
      "Ġedl": 5523,
      "ĠmodrÃ½": 5524,
      "ĠÅ¾Ã¡ru": 5525,
      "ĠsmÄĽlÃ½": 5526,
      "ĠpÅ¯du": 5527,
      "ĠvyÅ¡la": 5528,
      "Ġero": 5529,
      "ĠnedÄĽ": 5530,
      "ĠÃºtro": 5531,
      "Ġdiva": 5532,
      "Ġhospodi": 5533,
      "ĠvÅ¡echnÄĽ": 5534,
      "ĠidÄĽl": 5535,
      "Ġrozvi": 5536,
      "Ġhlasu": 5537,
      "ĠbÅĻi": 5538,
      "ĠvÄĽtry": 5539,
      "sili": 5540,
      "Ġemnou": 5541,
      "zla": 5542,
      "Ġouhou": 5543,
      "Ġslasti": 5544,
      "ĠÅ¡Å¥astnÃ½": 5545,
      "ĠbÄĽh": 5546,
      "Ġvkro": 5547,
      "ĠÄĽdi": 5548,
      "Ġpravo": 5549,
      "Ġpraze": 5550,
      "ĠklÃŃnÄĽ": 5551,
      "ren": 5552,
      "Ġbabi": 5553,
      "ĠprÅ¯vod": 5554,
      "Ġvem": 5555,
      "nÅ¯v": 5556,
      "ĠhvÄĽzdÃ¡m": 5557,
      "Ġnajednou": 5558,
      "Ġchr": 5559,
      "mot": 5560,
      "nÃ¡Å¡el": 5561,
      "ĠvrhÃ¡": 5562,
      "Ġopusti": 5563,
      "ĠkoÅĻist": 5564,
      "ĠpolÃŃbenÃŃ": 5565,
      "ĠdÄĽjin": 5566,
      "Ġpono": 5567,
      "Ġdotk": 5568,
      "chÃ¡zel": 5569,
      "Ġvlta": 5570,
      "ĠzlatÃ©m": 5571,
      "ĠobliÄįej": 5572,
      "ĠmalÃŃ": 5573,
      "ĠodpoÄįi": 5574,
      "ĠprvnÃŃm": 5575,
      "ĠnÃ¡mÄĽ": 5576,
      "ĠzeleÅĪ": 5577,
      "meÅĪ": 5578,
      "ĠnutÃŃ": 5579,
      "ĠodpovÄĽÄı": 5580,
      "Ġepi": 5581,
      "ĠtrpÄĽ": 5582,
      "Ġsud": 5583,
      "ĠÅ¡lo": 5584,
      "Ġuby": 5585,
      "Ġabys": 5586,
      "Ġoct": 5587,
      "Ġmas": 5588,
      "Ġproudu": 5589,
      "Ġpokud": 5590,
      "Ġrozkve": 5591,
      "pala": 5592,
      "ĠpÄĽje": 5593,
      "qu": 5594,
      "ĠryzÃŃ": 5595,
      "ĠpolÃŃch": 5596,
      "Ġnaposledy": 5597,
      "Ġiba": 5598,
      "ĠhnÄĽvem": 5599,
      "ĠdvojÃŃ": 5600,
      "Ġhlahol": 5601,
      "Ġsvr": 5602,
      "Ġrady": 5603,
      "Ġazal": 5604,
      "Ġslzami": 5605,
      "Ġenka": 5606,
      "Ġobej": 5607,
      "Ġsladko": 5608,
      "ĠhospodÃ¡": 5609,
      "ĠdneÅ¡nÃŃ": 5610,
      "tri": 5611,
      "Ġepy": 5612,
      "Ġyna": 5613,
      "Ġjihu": 5614,
      "ĠrÅ¯Å¾": 5615,
      "Ġvojska": 5616,
      "Ġvzpomen": 5617,
      "razil": 5618,
      "ĠpouÅ¥": 5619,
      "ĠvlÃ¡d": 5620,
      "ĠtlaÄįÃŃ": 5621,
      "ĠpÅĻemo": 5622,
      "ĠvÄĽtrÅ¯": 5623,
      "nkÃ©": 5624,
      "Ġuzav": 5625,
      "ĠzpÄĽvem": 5626,
      "letu": 5627,
      "Ġses": 5628,
      "ÅĻilo": 5629,
      "Ġkudy": 5630,
      "ĠtrpÃŃ": 5631,
      "ĠbÃŃlÃ©m": 5632,
      "Ġminulosti": 5633,
      "fu": 5634,
      "nÃ¡ct": 5635,
      "toval": 5636,
      "die": 5637,
      "Ġroztr": 5638,
      "Ġklasy": 5639,
      "Ġlicho": 5640,
      "ĠtichÃ½m": 5641,
      "Ġhluboko": 5642,
      "Ġdejte": 5643,
      "Ġecky": 5644,
      "Ġrozlou": 5645,
      "buje": 5646,
      "Ġavym": 5647,
      "ĠpapÃŃ": 5648,
      "Ġkams": 5649,
      "Ġovych": 5650,
      "ĠmusÃŃÅ¡": 5651,
      "jil": 5652,
      "Ġito": 5653,
      "ĠrÃ½m": 5654,
      "ĠprÃ¡h": 5655,
      "ĠsvÄĽtlu": 5656,
      "ĠkÅĻÃŃdlo": 5657,
      "Ġhrdlo": 5658,
      "plo": 5659,
      "Ġmarno": 5660,
      "Ġobry": 5661,
      "Ġmnohou": 5662,
      "alou": 5663,
      "Ġchodil": 5664,
      "Ġtlum": 5665,
      "ĠXXXAXA": 5666,
      "Ġnesu": 5667,
      "Å¾enou": 5668,
      "Ġute": 5669,
      "ĠmoÅĻÃŃ": 5670,
      "Ġvan": 5671,
      "Ġjasu": 5672,
      "Ġmor": 5673,
      "bili": 5674,
      "ĠkrvavÃ©": 5675,
      "ĠnejvÄĽtÅ¡ÃŃ": 5676,
      "Ġmohy": 5677,
      "ĠvzkÅĻÃŃ": 5678,
      "Ġhlado": 5679,
      "ĠmlÃ¡d": 5680,
      "ĠuÄį": 5681,
      "Ġodou": 5682,
      "ĠtesknÄĽ": 5683,
      "Ġzahrad": 5684,
      "Ġbozi": 5685,
      "ĠkrÃ¡snÃ½ch": 5686,
      "Ġuv": 5687,
      "Ġjezd": 5688,
      "ĠmraÄįna": 5689,
      "Ġsvad": 5690,
      "ĠspÃ¡sy": 5691,
      "ĠÄįÃŃÅ¡i": 5692,
      "ĠtratÃŃ": 5693,
      "Ġochra": 5694,
      "Ġlibo": 5695,
      "Ġbub": 5696,
      "menÄĽ": 5697,
      "ĠkeÅĻ": 5698,
      "Ġkolena": 5699,
      "Ġmist": 5700,
      "ĠpÅĻÃŃk": 5701,
      "ĠÄįiny": 5702,
      "ĠjmÃ©na": 5703,
      "zenÃ©": 5704,
      "Å¾te": 5705,
      "ÅĻily": 5706,
      "ĠhrÃ¡t": 5707,
      "ĠzÃ¡mku": 5708,
      "Ġsestry": 5709,
      "kop": 5710,
      "ĠzvÃŃtÄĽ": 5711,
      "ĠXABAB": 5712,
      "Ġema": 5713,
      "Ġbudoucnost": 5714,
      "ĠnevÃ½": 5715,
      "ĠrozkoÅ¡ÃŃ": 5716,
      "ĠmyÅ¡lenek": 5717,
      "Ġbalva": 5718,
      "ĠoltÃ¡ÅĻ": 5719,
      "ckÃ½m": 5720,
      "ĠlÃŃst": 5721,
      "Ġvolnost": 5722,
      "Ġsvitu": 5723,
      "Ġrosou": 5724,
      "Ġedal": 5725,
      "vÃŃÅ¡": 5726,
      "Ġodne": 5727,
      "ÄįÃŃch": 5728,
      "ĠpÅĻines": 5729,
      "ĠveÄįernÃŃ": 5730,
      "ĠspatÅĻil": 5731,
      "Ġesta": 5732,
      "ĠdÃ©man": 5733,
      "ĠtvrdÃ©": 5734,
      "ĠkÅĻesÅ¥a": 5735,
      "jou": 5736,
      "Å¡kou": 5737,
      "Ġedou": 5738,
      "ĠnechaÅ¥": 5739,
      "tkÅ¯": 5740,
      "zli": 5741,
      "Ġmalo": 5742,
      "ĠblÃ½skÃ¡": 5743,
      "ĠzÃ¡me": 5744,
      "nouc": 5745,
      "Ġrdci": 5746,
      "Å¾enÃ¡": 5747,
      "Ġlau": 5748,
      "Å¾u": 5749,
      "tÄĽjÅ¡ÃŃ": 5750,
      "nika": 5751,
      "ĠopÃ¡": 5752,
      "ĠkterÃ©m": 5753,
      "ĠnenadÃ¡": 5754,
      "ali": 5755,
      "Ġenky": 5756,
      "vedla": 5757,
      "Ġmuk": 5758,
      "mÃ¡n": 5759,
      "Ġsnadno": 5760,
      "Ġjiskra": 5761,
      "ĠÃºdy": 5762,
      "zlo": 5763,
      "ĠmÄĽlo": 5764,
      "Ġosled": 5765,
      "Ġuva": 5766,
      "ĠplÃ¡ÅĪ": 5767,
      "Ġpokro": 5768,
      "Ġbytost": 5769,
      "Ġstrachem": 5770,
      "Ġmatkou": 5771,
      "ĠjÃ¡sot": 5772,
      "ĠpenÄĽ": 5773,
      "Ġneob": 5774,
      "ĠokÃ©": 5775,
      "kynÄĽ": 5776,
      "ĠvzdÃ¡len": 5777,
      "lie": 5778,
      "ĠprostÃ½": 5779,
      "ĠvÄĽtÅĻÃŃk": 5780,
      "Ġtve": 5781,
      "Ġdechu": 5782,
      "rovnÃ¡": 5783,
      "Ġavem": 5784,
      "Ġbyste": 5785,
      "Ġleda": 5786,
      "ĠspÄĽje": 5787,
      "tl": 5788,
      "Ġutek": 5789,
      "dÃ¡Å¡": 5790,
      "Ġaneb": 5791,
      "ĠÄįil": 5792,
      "chat": 5793,
      "Ġopa": 5794,
      "ĠzÃ¡ba": 5795,
      "ĠÅ¡era": 5796,
      "ĠÄįlu": 5797,
      "ĠÅ¡pa": 5798,
      "Ġvzty": 5799,
      "Ġlidstvu": 5800,
      "Ġ21": 5801,
      "ĠpÄĽÅ¡i": 5802,
      "Ġslib": 5803,
      "ĠÅ¡aty": 5804,
      "lat": 5805,
      "Ġgeni": 5806,
      "aly": 5807,
      "Ġmsti": 5808,
      "ĠiÅ¡tÄĽ": 5809,
      "ĠzavÃŃ": 5810,
      "Ġvlnou": 5811,
      "dÄĽte": 5812,
      "Ġskrom": 5813,
      "chovÃ©": 5814,
      "ĠjejÃŃÅ¾": 5815,
      "ĠhnÃŃzda": 5816,
      "ĠzbÄĽ": 5817,
      "Ġokny": 5818,
      "Ġgi": 5819,
      "Ġokou": 5820,
      "Ġruchu": 5821,
      "ĠaniÅ¾": 5822,
      "ĠsvÄĽtle": 5823,
      "ĠhlubokÃ©": 5824,
      "ĠjimiÅ¾": 5825,
      "snÃ½ch": 5826,
      "Ġalil": 5827,
      "ĠkrutÃ½": 5828,
      "ĠÅ¾houcÃŃ": 5829,
      "ĠÄįechÃ¡ch": 5830,
      "ĠzÃ¡hu": 5831,
      "ĠstrojÃŃ": 5832,
      "ĠkÅĻesÅ¥an": 5833,
      "ĠzpÅ¯so": 5834,
      "Ġodni": 5835,
      "ĠstrÃ¡ni": 5836,
      "zil": 5837,
      "Å¾uje": 5838,
      "ĠÅ¡est": 5839,
      "ĠhovoÅĻÃŃ": 5840,
      "ĠspÅĻÃ¡": 5841,
      "Ġtiskne": 5842,
      "sli": 5843,
      "Ġvedla": 5844,
      "ĠzÃ¡Å¡tÃŃ": 5845,
      "ĠzvÄĽÅĻ": 5846,
      "ĠskrÃ¡ni": 5847,
      "Å¡ad": 5848,
      "nÃŃci": 5849,
      "Ġital": 5850,
      "nÄĽnÃ½": 5851,
      "Ġoso": 5852,
      "Ġkrbu": 5853,
      "Ġadka": 5854,
      "Ġzor": 5855,
      "diti": 5856,
      "Ġmelo": 5857,
      "Ġknihu": 5858,
      "ĠvÅ¯z": 5859,
      "ĠboÅ¾skÃ©": 5860,
      "Ġzvad": 5861,
      "hor": 5862,
      "ĠpÅĻiÅ¡lo": 5863,
      "ĠkaÅ¾dÃ©ho": 5864,
      "Ġozval": 5865,
      "ĠvyÅ¡Å¡ÃŃ": 5866,
      "ĠzaplÃ¡": 5867,
      "rec": 5868,
      "Ġzdar": 5869,
      "Ġranou": 5870,
      "Ġsouzvu": 5871,
      "ĠÄıas": 5872,
      "ĠvÄĽÅ¡t": 5873,
      "ĠzeÄı": 5874,
      "ĠchoÅ¥": 5875,
      "Ġvedl": 5876,
      "Ġvidi": 5877,
      "cemi": 5878,
      "ĠdivnÃ¡": 5879,
      "Ġdos": 5880,
      "vilo": 5881,
      "ĠpÅĻedsta": 5882,
      "Ġpohro": 5883,
      "ĠzÅĻÃŃti": 5884,
      "Å¡tnÃŃ": 5885,
      "Ġechy": 5886,
      "ĠveÅ¡el": 5887,
      "Äįilo": 5888,
      "ĠstraÅ¡li": 5889,
      "ĠzmizÃŃ": 5890,
      "ĠplatÃŃ": 5891,
      "Ġovym": 5892,
      "Ġtaje": 5893,
      "ĠlÃ¡kÃ¡": 5894,
      "Ġidem": 5895,
      "Ġbok": 5896,
      "Ġajic": 5897,
      "Ġmrz": 5898,
      "Ġelou": 5899,
      "ĠuÄįe": 5900,
      "Ġpravou": 5901,
      "ĠtÅĻikrÃ¡t": 5902,
      "Ġpovy": 5903,
      "ĠÅ¾ele": 5904,
      "Ġsoudu": 5905,
      "hej": 5906,
      "ĠzbÃ½vÃ¡": 5907,
      "Ġkdosi": 5908,
      "ĠÅ¡ÃŃÅĻÃŃ": 5909,
      "ĠmdlÃ½": 5910,
      "Ġuzi": 5911,
      "ĠnemÅ¯Å¾": 5912,
      "Ġsnou": 5913,
      "ĠdÄĽj": 5914,
      "Ġpluje": 5915,
      "Ġkomna": 5916,
      "ĠzdÃŃ": 5917,
      "Ġkme": 5918,
      "Ġichem": 5919,
      "ĠpÅĻÃ¡l": 5920,
      "Ġharmo": 5921,
      "ĠkrokÅ¯": 5922,
      "vÅ¡i": 5923,
      "ĠstÅĻel": 5924,
      "Ġkoni": 5925,
      "Ġadam": 5926,
      "ĠnepÅĻÃŃtel": 5927,
      "ĠnavrÃ¡": 5928,
      "Ġjaksi": 5929,
      "veÄįer": 5930,
      "ĠdÃŃla": 5931,
      "Ġebes": 5932,
      "Ġsloup": 5933,
      "kova": 5934,
      "ABXB": 5935,
      "ĠvyÅ¡e": 5936,
      "ĠsmÄĽsi": 5937,
      "Ġsvate": 5938,
      "Ġroucho": 5939,
      "ĠÄįekÃ¡m": 5940,
      "ĠÄįarodÄĽj": 5941,
      "Ġneh": 5942,
      "vobo": 5943,
      "Ġniko": 5944,
      "ĠnadÄĽji": 5945,
      "ĠÄĽmu": 5946,
      "ĠproudÃŃ": 5947,
      "ĠkÅĻiÅ¡Å¥": 5948,
      "ĠbÄĽla": 5949,
      "Ġdeset": 5950,
      "os": 5951,
      "ĠuÄįÃŃ": 5952,
      "ĠnebesÅ¯m": 5953,
      "Ġspal": 5954,
      "Ġdruha": 5955,
      "Ġhvoz": 5956,
      "Ġhnal": 5957,
      "ĠetÄĽ": 5958,
      "Ġesem": 5959,
      "Ġmohlo": 5960,
      "Ġvystou": 5961,
      "ĠsahÃ¡": 5962,
      "ĠÄįerv": 5963,
      "vostÃŃ": 5964,
      "Ġeslo": 5965,
      "ĠpÄĽknÃ©": 5966,
      "ĠhlÃ¡sÃ¡": 5967,
      "zÅ¯": 5968,
      "Ġptal": 5969,
      "ĠjunÃ¡": 5970,
      "Ġadny": 5971,
      "ĠmodrÃ½ch": 5972,
      "Ġvece": 5973,
      "Ġenni": 5974,
      "Ġlil": 5975,
      "Ġbzu": 5976,
      "ĠkÅĻÃŃÅ¾em": 5977,
      "Ġzru": 5978,
      "Ġpraco": 5979,
      "ĠnÃ¡roda": 5980,
      "Ġdno": 5981,
      "tÃŃÅ¡": 5982,
      "ĠpÅĻÃŃtom": 5983,
      "ster": 5984,
      "ĠslyÅ¡te": 5985,
      "Ġdoktor": 5986,
      "ĠpodÄĽ": 5987,
      "Ġnepla": 5988,
      "Ġoto": 5989,
      "Ġpop": 5990,
      "ĠkovÃ¡": 5991,
      "ĠostatnÃŃ": 5992,
      "Ġvpad": 5993,
      "ĠzlÃ½ch": 5994,
      "ĠbÃŃlÃ½m": 5995,
      "Ġslze": 5996,
      "ĠpohÅĻe": 5997,
      "ĠvÄįel": 5998,
      "Ġisku": 5999,
      "Ġhlubiny": 6000,
      "krat": 6001,
      "ĠodÅĻÃŃ": 6002,
      "ĠhÅĻbe": 6003,
      "Ġbudoucnosti": 6004,
      "Ġdvak": 6005,
      "lami": 6006,
      "Ġdary": 6007,
      "gy": 6008,
      "Ã©ÅĻe": 6009,
      "Ġudem": 6010,
      "Ġivym": 6011,
      "ĠznÄĽlo": 6012,
      "Ġpovr": 6013,
      "ĠletÄĽl": 6014,
      "ĠstaÅĻÃŃ": 6015,
      "ĠpÅĻÃ¡telÃ©": 6016,
      "ĠXABABX": 6017,
      "ĠÅ¡vi": 6018,
      "ĠpÃŃlÃŃ": 6019,
      "Ġblesku": 6020,
      "ĠkÃ¡zal": 6021,
      "ĠronÃŃ": 6022,
      "ĠdÃ¡n": 6023,
      "Ġalky": 6024,
      "Ġotco": 6025,
      "ĠpyÅ¡nÄĽ": 6026,
      "ĠnecÃŃ": 6027,
      "jdeÅ¡": 6028,
      "ĠpÅĻijdou": 6029,
      "Ġzdvih": 6030,
      "chodu": 6031,
      "Ġhudby": 6032,
      "sly": 6033,
      "Ġjdem": 6034,
      "ĠhrdÃ½": 6035,
      "ĠhroznÃ¡": 6036,
      "aty": 6037,
      "ĠtÄĽÅ¾kÃ½ch": 6038,
      "ĠstrÃ¡nÃŃ": 6039,
      "teÅĻi": 6040,
      "Ġyty": 6041,
      "haly": 6042,
      "ĠplÃ¡ni": 6043,
      "Ġblahem": 6044,
      "ĠchvÃŃlÃŃ": 6045,
      "cii": 6046,
      "ĠlesÃŃch": 6047,
      "dum": 6048,
      "Å¡ÃŃÅ¡": 6049,
      "ĠÄįeskÃ½ch": 6050,
      "ĠÅ¾ili": 6051,
      "ĠnÄĽhy": 6052,
      "nkÃ¡ch": 6053,
      "Ġpova": 6054,
      "ĠÅ¾ivoby": 6055,
      "Ġzane": 6056,
      "ĠskvÃŃ": 6057,
      "Ġjasnou": 6058,
      "Ġzavz": 6059,
      "Ġskali": 6060,
      "skutku": 6061,
      "ĠupÃŃ": 6062,
      "Ġedli": 6063,
      "Ġbludi": 6064,
      "ĠuÄįen": 6065,
      "Ġvskutku": 6066,
      "ĠÅ¾alost": 6067,
      "ĠÅ¾alem": 6068,
      "ĠvonnÃ©": 6069,
      "Ġzast": 6070,
      "ĠpÄĽst": 6071,
      "Ġdruhou": 6072,
      "ĠkypÃŃ": 6073,
      "Ġpije": 6074,
      "ĠpuÄįÃŃ": 6075,
      "Ġfau": 6076,
      "Ġchas": 6077,
      "mus": 6078,
      "ÄįkÃ©": 6079,
      "bitÃŃ": 6080,
      "nÃŃku": 6081,
      "Ġvinou": 6082,
      "ĠmlÃ¡de": 6083,
      "Ġecha": 6084,
      "Ġporu": 6085,
      "Ġmost": 6086,
      "Ġejhle": 6087,
      "Ġhudbou": 6088,
      "Ġledo": 6089,
      "ĠvÅ¡ed": 6090,
      "ĠÅ¡irÃ©": 6091,
      "ĠdrtÃŃ": 6092,
      "Ġzmar": 6093,
      "ĠkrÃ¡lovstvÃŃ": 6094,
      "Ġpaprsky": 6095,
      "Ġtanci": 6096,
      "Å¾stvÃŃ": 6097,
      "Ġicim": 6098,
      "Ġlety": 6099,
      "ĠlÃ©to": 6100,
      "ĠpohÃ¡d": 6101,
      "rnÃ©m": 6102,
      "Ġnemi": 6103,
      "Ġmilovat": 6104,
      "ĠÅ¡Å¥astnÄĽ": 6105,
      "Ġzahrady": 6106,
      "vnÃ©": 6107,
      "Ġeva": 6108,
      "vily": 6109,
      "vÃ©tÃ¡": 6110,
      "ÅĪÃ¡": 6111,
      "ĠozÃ¡": 6112,
      "ĠvzpomÃŃnky": 6113,
      "Ġzkr": 6114,
      "ĠÄįtve": 6115,
      "ĠnÄĽhoÅ¾": 6116,
      "Ġkouzla": 6117,
      "Ġnivy": 6118,
      "ĠzÃ¡vÄĽ": 6119,
      "Ġsply": 6120,
      "Ġdcery": 6121,
      "tna": 6122,
      "Ġmohou": 6123,
      "ĠsÃŃtÄĽ": 6124,
      "ĠkÅĻeh": 6125,
      "Ġobloze": 6126,
      "Ġvzali": 6127,
      "Ġhasne": 6128,
      "Ġrakev": 6129,
      "Ġsvaty": 6130,
      "ĠzachvÄĽl": 6131,
      "zka": 6132,
      "Ġhni": 6133,
      "Ġdostal": 6134,
      "Ġkan": 6135,
      "ĠdÃ¡lnÃ©": 6136,
      "ĠvolnÃ½": 6137,
      "Ġsoumrak": 6138,
      "ĠÅ¾lutÃ©": 6139,
      "Ġino": 6140,
      "ĠjeÅ¾ÃŃ": 6141,
      "ĠkrvÃ¡": 6142,
      "Ġrha": 6143,
      "ÅĪu": 6144,
      "ĠslÃ¡vou": 6145,
      "Ġachem": 6146,
      "Ġinek": 6147,
      "ĠvÃŃnem": 6148,
      "ĠkrÃ¡tce": 6149,
      "nÃŃky": 6150,
      "ĠvÄĽÅĻit": 6151,
      "ĠspÃŃÅ¡e": 6152,
      "ĠkvÃŃtek": 6153,
      "ĠkrouÅ¾ÃŃ": 6154,
      "ĠzlatÄĽ": 6155,
      "Ġosty": 6156,
      "Ġkdybys": 6157,
      "ĠslednÃŃ": 6158,
      "Ġvzej": 6159,
      "Ġadnou": 6160,
      "ĠvÅ¡ecku": 6161,
      "Ġapi": 6162,
      "ĠmÄĽstem": 6163,
      "Ġfor": 6164,
      "ĠznÄĽla": 6165,
      "ĠhbitÄĽ": 6166,
      "Ġusy": 6167,
      "Ġdvacet": 6168,
      "ĠubohÃ©": 6169,
      "Ġvina": 6170,
      "Ġsyny": 6171,
      "Ġpoliti": 6172,
      "ĠcizÃŃm": 6173,
      "vnÃŃk": 6174,
      "lilo": 6175,
      "ĠneustÃ¡": 6176,
      "Ġulici": 6177,
      "Ġvni": 6178,
      "Ġpojednou": 6179,
      "Ġplody": 6180,
      "ĠjÃŃz": 6181,
      "ĠtakÃ½": 6182,
      "Ġodli": 6183,
      "prch": 6184,
      "ĠzoÅĻe": 6185,
      "Ġadost": 6186,
      "ĠoÄįil": 6187,
      "ĠtÅĻpyt": 6188,
      "Ġasny": 6189,
      "ĠsvÄĽtlÃ½": 6190,
      "ĠsmÄĽl": 6191,
      "lnÃ½": 6192,
      "ĠuvÄĽ": 6193,
      "ĠkÅĻÃŃdly": 6194,
      "skÃ©mu": 6195,
      "ria": 6196,
      "vÄĽti": 6197,
      "prvÃ©": 6198,
      "Ġpoku": 6199,
      "Ġjarem": 6200,
      "ĠplÃ¡la": 6201,
      "ĠnÃ¡ÅĻek": 6202,
      "Ġsoudru": 6203,
      "vÅĻÃŃ": 6204,
      "ĠsnovÃ©": 6205,
      "ĠostrÃ½": 6206,
      "Ġmudr": 6207,
      "Ġjedinou": 6208,
      "ĠstÃ¡ly": 6209,
      "ĠchrÃ¡nÃŃ": 6210,
      "Ġkriti": 6211,
      "ĠpÅĻichÃ¡zÃŃ": 6212,
      "dÃ©m": 6213,
      "vÄĽla": 6214,
      "Ġblahu": 6215,
      "ĠodpoÄįÃŃ": 6216,
      "ĠznÄĽly": 6217,
      "ĠÃºna": 6218,
      "ĠrÃ¡ko": 6219,
      "Ġzimy": 6220,
      "Ġskrz": 6221,
      "ĠtmÃŃ": 6222,
      "Ġzmu": 6223,
      "Ġkul": 6224,
      "Ġdlani": 6225,
      "ĠnevÃŃÅ¡": 6226,
      "ĠpaÅĻÃŃ": 6227,
      "ĠstrÃ¡nÄĽ": 6228,
      "ĠdÄĽtstvÃŃ": 6229,
      "Ġren": 6230,
      "ĠbÅĻehy": 6231,
      "Ġpostavy": 6232,
      "Ġsrde": 6233,
      "ĠtÄĽÅ¾kÃ½m": 6234,
      "Ġnepoz": 6235,
      "Ġhrobem": 6236,
      "ĠzazpÃŃ": 6237,
      "ovÃ©": 6238,
      "dÄĽly": 6239,
      "Ġnejlep": 6240,
      "nkÃ¡": 6241,
      "Ġocho": 6242,
      "kalo": 6243,
      "Ġholou": 6244,
      "ĠvodnÃŃ": 6245,
      "ĠstranÄĽ": 6246,
      "Ġsmutnou": 6247,
      "Å¡ce": 6248,
      "ĠzÃ¡pla": 6249,
      "ĠzdrÃ¡va": 6250,
      "bnou": 6251,
      "Ġrce": 6252,
      "Ġovan": 6253,
      "ĠzvukÅ¯": 6254,
      "nesla": 6255,
      "voval": 6256,
      "Ġpravdou": 6257,
      "Ġchou": 6258,
      "Å¾ku": 6259,
      "Ġfilo": 6260,
      "Ġmiluje": 6261,
      "ĠhvÄĽzdami": 6262,
      "ĠnÄĽkolik": 6263,
      "ĠtemnÃ½ch": 6264,
      "ĠhÅĻÃŃchy": 6265,
      "Ġnebyla": 6266,
      "ĠÄĽdÄĽl": 6267,
      "ĠlÃŃtÃ¡": 6268,
      "ÅĻemen": 6269,
      "Ġvesel": 6270,
      "ĠbÃŃdnÃ½": 6271,
      "Ġpusto": 6272,
      "Ġramena": 6273,
      "ĠkolÃŃ": 6274,
      "cenÃ¡": 6275,
      "ĠznÃ¡mÃ©": 6276,
      "ĠhÅĻmÄĽ": 6277,
      "vujÃŃ": 6278,
      "Ġstroj": 6279,
      "ĠÅĻadu": 6280,
      "ĠmaÄı": 6281,
      "Ġlidskou": 6282,
      "ĠÅ¡ÃŃje": 6283,
      "Ġzlomen": 6284,
      "Ġsklonil": 6285,
      "Ġoti": 6286,
      "nÄĽla": 6287,
      "Ġhromu": 6288,
      "ĠzimÄĽ": 6289,
      "ĠÅ¾ivobytÃŃ": 6290,
      "Ġihu": 6291,
      "Ġvypla": 6292,
      "Ġpokoje": 6293,
      "ĠmyÅ¡lenka": 6294,
      "ĠzvlÃ¡Å¡Å¥": 6295,
      "lnÃ©": 6296,
      "znou": 6297,
      "Ġhouf": 6298,
      "Ġzhu": 6299,
      "tec": 6300,
      "jela": 6301,
      "ĠdivÃ©m": 6302,
      "ĠspÄĽl": 6303,
      "ĠXABBA": 6304,
      "ĠpoÅĻÃ¡d": 6305,
      "ĠtajnÃ©": 6306,
      "vka": 6307,
      "ĠpÅĻÃŃsnÄĽ": 6308,
      "ĠchvÄĽnÃŃ": 6309,
      "ĠprospÄĽ": 6310,
      "Ġvych": 6311,
      "Ġskro": 6312,
      "Ġrety": 6313,
      "ĠskÃ¡Äįe": 6314,
      "Ġonil": 6315,
      "ÅĻenou": 6316,
      "hlas": 6317,
      "Ġsedmi": 6318,
      "ĠchraÅĪ": 6319,
      "ÅĻuje": 6320,
      "ĠÅĻev": 6321,
      "Ġvlasten": 6322,
      "Ġnekli": 6323,
      "Ġzato": 6324,
      "Ġsedm": 6325,
      "ĠpestrÃ©": 6326,
      "nÃŃka": 6327,
      "ĠrdÃŃ": 6328,
      "Ġrozs": 6329,
      "ĠstÃ¡r": 6330,
      "Ġln": 6331,
      "ĠmraÄįen": 6332,
      "ĠhÅĻÃŃÅ¡": 6333,
      "ĠzahradÄĽ": 6334,
      "chala": 6335,
      "Ġivam": 6336,
      "ĠdÃŃvku": 6337,
      "ĠpilnÄĽ": 6338,
      "Ġoze": 6339,
      "ĠÅ¾ivÃ¡": 6340,
      "ĠutrpenÃŃ": 6341,
      "Ġdych": 6342,
      "ĠsnivÃ©": 6343,
      "voj": 6344,
      "Ġoddech": 6345,
      "Äįeji": 6346,
      "Ġstarce": 6347,
      "Äįinu": 6348,
      "bÄĽh": 6349,
      "bral": 6350,
      "Äįan": 6351,
      "ĠhÅ¯l": 6352,
      "Ġuha": 6353,
      "Ġdol": 6354,
      "ĠpÅĻÃŃsta": 6355,
      "ĠzimnÃŃ": 6356,
      "Ġprsten": 6357,
      "ĠvÃ½m": 6358,
      "Ġnejsi": 6359,
      "Ġkup": 6360,
      "ĠdÅ¯stoj": 6361,
      "Ġprale": 6362,
      "Ġrato": 6363,
      "cek": 6364,
      "ĠpÅĻedc": 6365,
      "ĠotrÃ¡": 6366,
      "Ġchoro": 6367,
      "dÃ¡l": 6368,
      "Ġmlh": 6369,
      "ĠhÅĻÃŃchÅ¯": 6370,
      "desÃ¡": 6371,
      "ĠtuÅ¡ÃŃm": 6372,
      "slov": 6373,
      "ĠhrobÅ¯": 6374,
      "ĠzdvihÃ¡": 6375,
      "Ġjisto": 6376,
      "Ġsvojich": 6377,
      "vedl": 6378,
      "ĠfarÃ¡": 6379,
      "ĠvÃ½chodu": 6380,
      "Ġpopra": 6381,
      "natÃ©": 6382,
      "Ġcar": 6383,
      "ĠsklÃŃ": 6384,
      "Ġpomsty": 6385,
      "ĠholÃ©": 6386,
      "bej": 6387,
      "ĠchvÃ¡tÃ¡": 6388,
      "Ġnevo": 6389,
      "Ġake": 6390,
      "lÃ©d": 6391,
      "stane": 6392,
      "ĠpÅ¯dy": 6393,
      "ĠkoÄįÃ¡": 6394,
      "Ġkres": 6395,
      "Ġohla": 6396,
      "Ġplny": 6397,
      "Ġchaty": 6398,
      "ĠzÃ¡ho": 6399,
      "ĠsnÄĽhem": 6400,
      "Ġvnik": 6401,
      "Ġjesen": 6402,
      "Ġovna": 6403,
      "kru": 6404,
      "Å¾iti": 6405,
      "Ġbyt": 6406,
      "ĠjitÅĻ": 6407,
      "Ġspjat": 6408,
      "ĠstÃ¡lo": 6409,
      "ĠpustÃ½": 6410,
      "Ġepe": 6411,
      "ĠstÃ½": 6412,
      "lÃŃcÃŃ": 6413,
      "lemi": 6414,
      "ĠdÃŃl": 6415,
      "ĠotvÃŃ": 6416,
      "Ġhodin": 6417,
      "ĠonÄĽch": 6418,
      "ĠhvÃŃ": 6419,
      "Ġevy": 6420,
      "ĠoblÃ¡": 6421,
      "ĠzÃ¡stu": 6422,
      "Ġohlas": 6423,
      "Ġsuk": 6424,
      "Ġpokra": 6425,
      "Ġihned": 6426,
      "lon": 6427,
      "naly": 6428,
      "Ġpavu": 6429,
      "Ġitky": 6430,
      "ĠschÃ¡zÃŃ": 6431,
      "rÃ¡Å¾ÃŃ": 6432,
      "ĠtÄĽl": 6433,
      "Ġblankytu": 6434,
      "Äįily": 6435,
      "tÃ¡h": 6436,
      "ĠpÃ¡dÃŃ": 6437,
      "ĠskÅĻivan": 6438,
      "Ġsep": 6439,
      "Ġadil": 6440,
      "ĠÅ¡ele": 6441,
      "Ġbezna": 6442,
      "vÃŃme": 6443,
      "ĠmocnÃ©": 6444,
      "Ġvej": 6445,
      "ĠkmitÃ¡": 6446,
      "vanÃ¡": 6447,
      "ĠpÃŃti": 6448,
      "Ġhust": 6449,
      "ĠmlÄįenÃŃ": 6450,
      "Ġoblaky": 6451,
      "Ġanul": 6452,
      "volu": 6453,
      "Ġsiro": 6454,
      "Ġpozdvi": 6455,
      "ĠlistÅ¯": 6456,
      "pÄĽv": 6457,
      "ĠvlastnÄĽ": 6458,
      "ĠstudÃ¡": 6459,
      "ĠdÃ©le": 6460,
      "Ġdopro": 6461,
      "stÃ¡nÃŃ": 6462,
      "ĠÅ¡tva": 6463,
      "Ġanni": 6464,
      "Ġposlal": 6465,
      "ĠhouÅ¡tÃŃ": 6466,
      "vanou": 6467,
      "ĠnapÅĻed": 6468,
      "ĠhoÅ¡i": 6469,
      "ĠÅ¡epce": 6470,
      "ĠprÃ¡zdnÃ©": 6471,
      "ĠpodzimnÃŃ": 6472,
      "Ġnehy": 6473,
      "nan": 6474,
      "ĠsadÄĽ": 6475,
      "ĠvlastnÃŃm": 6476,
      "ĠrozlÃŃ": 6477,
      "ĠknÄĽÅ¾ÃŃ": 6478,
      "ĠzoufalstvÃŃ": 6479,
      "Ġpel": 6480,
      "boÅ¾": 6481,
      "Ġsmysly": 6482,
      "vÄĽjÅ¡ÃŃ": 6483,
      "Ġohled": 6484,
      "ĠptÃ¡ka": 6485,
      "ĠsvÃŃtil": 6486,
      "zat": 6487,
      "ĠvtÄĽ": 6488,
      "Ġajem": 6489,
      "Ġleto": 6490,
      "ĠmÄĽstu": 6491,
      "ĠplnÃ½m": 6492,
      "Ġelky": 6493,
      "ÅĻej": 6494,
      "ĠoltÃ¡ÅĻi": 6495,
      "sej": 6496,
      "Ġtlou": 6497,
      "ĠÃºkol": 6498,
      "liti": 6499,
      "kati": 6500,
      "Ġlnou": 6501,
      "ĠkamenÃŃ": 6502,
      "Ġzkad": 6503,
      "ie": 6504,
      "ĠÅ¡er": 6505,
      "Ġhubi": 6506,
      "ĠspÄĽch": 6507,
      "ĠtakovÃ©": 6508,
      "Ġabi": 6509,
      "ĠkalÃŃ": 6510,
      "Ġrukama": 6511,
      "ĠvysokÃ©": 6512,
      "Ġneskona": 6513,
      "chne": 6514,
      "Ġhoru": 6515,
      "ĠstÃŃhÃ¡": 6516,
      "ĠstarÃ©m": 6517,
      "ĠÅ¡lehÃ¡": 6518,
      "ĠteÄįe": 6519,
      "Ġjsouc": 6520,
      "ĠvÄĽÄįnÃ½ch": 6521,
      "ĠtouÅ¾il": 6522,
      "ĠhlubokÃ½": 6523,
      "ul": 6524,
      "ĠmilÃŃ": 6525,
      "Ġluhy": 6526,
      "ĠzvlÃ¡Å¡tnÃŃ": 6527,
      "ĠpÅ¯lnoc": 6528,
      "ĠvichÅĻice": 6529,
      "Ġdojem": 6530,
      "Ġjedem": 6531,
      "ĠÅ¡edÃ¡": 6532,
      "ĠskÃ¡lu": 6533,
      "Ġpoledne": 6534,
      "tiv": 6535,
      "Ġprince": 6536,
      "ĠvavÅĻÃŃ": 6537,
      "ĠhedvÃ¡": 6538,
      "Ġsatan": 6539,
      "Ġnejde": 6540,
      "ĠslÃ½ch": 6541,
      "Ġovoce": 6542,
      "ĠvidÄĽla": 6543,
      "ĠbÄĽlo": 6544,
      "ĠlÃ©ka": 6545,
      "ĠvesmÃŃr": 6546,
      "Ġzbyl": 6547,
      "ĠdÄĽsnÃ½": 6548,
      "Ġzpup": 6549,
      "letÄĽl": 6550,
      "Ġpoha": 6551,
      "Ġprova": 6552,
      "Ġivych": 6553,
      "ĠmyÅ¡lÃ©nka": 6554,
      "roval": 6555,
      "ĠÄįervÃ¡nkÅ¯": 6556,
      "ĠpÅĻekva": 6557,
      "ĠosvÄĽ": 6558,
      "ĠbleskÅ¯": 6559,
      "ĠAAXBBX": 6560,
      "ca": 6561,
      "ĠprvÃ½": 6562,
      "Ġsoko": 6563,
      "ĠneznÃ¡mÃ©": 6564,
      "ĠbohatÃ½r": 6565,
      "Ġseveru": 6566,
      "vrt": 6567,
      "Ġaro": 6568,
      "ĠmÃ¡jo": 6569,
      "ĠchceÅ¡li": 6570,
      "Ġbalvan": 6571,
      "ĠÄıÃ¡b": 6572,
      "ĠnelÃŃ": 6573,
      "titi": 6574,
      "ĠplÃ¡ly": 6575,
      "ĠslabÃ©": 6576,
      "benÃ©": 6577,
      "deÅĪ": 6578,
      "ÅĻiv": 6579,
      "ĠobjÃŃmÃ¡": 6580,
      "ĠnÃ¡v": 6581,
      "ĠpÃ¡ny": 6582,
      "ĠbÃŃt": 6583,
      "ĠideÃ¡": 6584,
      "Ġmlze": 6585,
      "ĠnaÅ¡eho": 6586,
      "ĠzmÃŃtÃ¡": 6587,
      "Ġmladist": 6588,
      "Ġvzbou": 6589,
      "ĠtkÃ¡": 6590,
      "ĠchtÄĽjÃŃ": 6591,
      "Ġchceme": 6592,
      "razÃŃ": 6593,
      "nÃ©sti": 6594,
      "Ġvypl": 6595,
      "Å¾ily": 6596,
      "ĠÅĻÃŃma": 6597,
      "Ġrysy": 6598,
      "ĠneznÃ¡mÃ½": 6599,
      "Ġzticha": 6600,
      "Ġoblou": 6601,
      "Ġpoe": 6602,
      "nÃ©st": 6603,
      "Ġlibu": 6604,
      "Å¡tÄĽnÃŃ": 6605,
      "ĠzboÅ¾nÄĽ": 6606,
      "Ġvzdoru": 6607,
      "ĠmyÅ¡lÃ©nek": 6608,
      "ĠdvakrÃ¡t": 6609,
      "ĠburÃ¡": 6610,
      "ĠslastÃŃ": 6611,
      "Ġratole": 6612,
      "ptÃ¡": 6613,
      "ĠpÃ¡ry": 6614,
      "Ġanti": 6615,
      "ĠbÃ©ÅĻe": 6616,
      "Ġupu": 6617,
      "ĠhoÅĻi": 6618,
      "ĠdÄĽsÃŃ": 6619,
      "Ġavych": 6620,
      "ĠchrÃ¡my": 6621,
      "Ġtrud": 6622,
      "ĠpÅĻemÃ½Å¡": 6623,
      "ĠuvÃŃ": 6624,
      "Ġposa": 6625,
      "ĠÅ¡erem": 6626,
      "Ġjisker": 6627,
      "ĠmdlÃ©": 6628,
      "Ġsoused": 6629,
      "ĠhladÃŃ": 6630,
      "Ġlidmi": 6631,
      "ĠdruzÃŃ": 6632,
      "ĠsvatÃ©m": 6633,
      "Ġpaprs": 6634,
      "ÄįekÃ¡": 6635,
      "Ġspro": 6636,
      "ĠidnÄĽ": 6637,
      "Ġsmy": 6638,
      "ĠpomÃ¡": 6639,
      "ĠpÅĻÃŃklad": 6640,
      "ĠretÅ¯": 6641,
      "vracÃŃ": 6642,
      "Ġulice": 6643,
      "ĠdÃ¡my": 6644,
      "Ġakal": 6645,
      "ĠvzpomÃŃnek": 6646,
      "Ġnohu": 6647,
      "ĠpouhÃ©": 6648,
      "Ġnechte": 6649,
      "Ġmoudrosti": 6650,
      "Ġsestra": 6651,
      "ABX": 6652,
      "teÄįnÃŃ": 6653,
      "Ġdomy": 6654,
      "ĠotevÅĻe": 6655,
      "ĠhÅĻbitov": 6656,
      "Ġrol": 6657,
      "ĠpÅĻesvÄĽd": 6658,
      "Ġesty": 6659,
      "Ġklesl": 6660,
      "ĠboÅĻÃŃ": 6661,
      "ĠpohÃ¡dky": 6662,
      "ĠnÄĽmÃ¡": 6663,
      "ĠhledÃ¡m": 6664,
      "ĠsklÃ¡dÃ¡": 6665,
      "ĠmÅ¾ikem": 6666,
      "Ġtka": 6667,
      "Ġkmo": 6668,
      "ĠÅ¡ly": 6669,
      "ĠperutÄĽ": 6670,
      "ĠvÃ½kÅĻi": 6671,
      "Ġpraha": 6672,
      "ĠbujnÃ©": 6673,
      "Ġkorou": 6674,
      "ĠlodÃŃ": 6675,
      "dly": 6676,
      "Ġuze": 6677,
      "rÃ¡nÃŃ": 6678,
      "ĠrtÃŃ": 6679,
      "dÃŃme": 6680,
      "ĠÅĻadou": 6681,
      "zne": 6682,
      "ĠdÃŃm": 6683,
      "ĠnohÃ¡m": 6684,
      "ĠbavÃŃ": 6685,
      "ĠnedoÄįka": 6686,
      "nov": 6687,
      "ĠvÅ¯d": 6688,
      "ĠujeÅ¡": 6689,
      "ĠznÃ¡te": 6690,
      "Ġbloudil": 6691,
      "Ġvezmi": 6692,
      "ĠpÃ½cha": 6693,
      "ĠpÅĻelud": 6694,
      "ĠuÄįil": 6695,
      "Ġostem": 6696,
      "Ġprostor": 6697,
      "Ġpohan": 6698,
      "Ġkop": 6699,
      "Ġokra": 6700,
      "ĠzjevÃŃ": 6701,
      "gna": 6702,
      "nÄįÃŃ": 6703,
      "pÃŃÅ¡": 6704,
      "Ġobrazy": 6705,
      "ĠlÃ¡me": 6706,
      "Ġchech": 6707,
      "ĠzÃ¡dum": 6708,
      "ĠÅ¾ilÃ¡ch": 6709,
      "mÃŃvÃ¡": 6710,
      "ĠlÃŃstek": 6711,
      "ĠmÃŃhÃ¡": 6712,
      "ĠchtÄĽlo": 6713,
      "ĠpoÅ¾Ã¡r": 6714,
      "ĠjinÃ©ho": 6715,
      "ĠpÃ¡d": 6716,
      "Ġcig": 6717,
      "Ġslab": 6718,
      "ĠnevidÄĽl": 6719,
      "ĠzdobÃŃ": 6720,
      "Ġazel": 6721,
      "don": 6722,
      "Ġodve": 6723,
      "ĠÄįechy": 6724,
      "Ġenci": 6725,
      "ĠspÃ¡ti": 6726,
      "ĠÅ¡irÃ½": 6727,
      "ĠhÅĻÃ¡": 6728,
      "nÄĽly": 6729,
      "Ġtrium": 6730,
      "Ġpoc": 6731,
      "ĠÅ¡o": 6732,
      "ĠzÃ¡pal": 6733,
      "ĠnÄĽmÃ©": 6734,
      "ĠpoÄįne": 6735,
      "ĠkÅ¡ti": 6736,
      "bech": 6737,
      "ĠstÃ¡do": 6738,
      "stÃ¡ch": 6739,
      "ĠzelenÃ½": 6740,
      "ĠvÃ¡lky": 6741,
      "bku": 6742,
      "dÅĻÃŃ": 6743,
      "Äįuje": 6744,
      "Ġbly": 6745,
      "ĠkaÅ¾dÃ©mu": 6746,
      "skot": 6747,
      "ĠsnÃ¡Å¡ÃŃ": 6748,
      "Ġkov": 6749,
      "ĠbodÃ¡": 6750,
      "ĠrÅ¯znÃ©": 6751,
      "ĠXABBAX": 6752,
      "Å¥u": 6753,
      "ĠpÄĽsti": 6754,
      "ĠvrÃ¡sky": 6755,
      "Ġysli": 6756,
      "Ġminulost": 6757,
      "lÃ½mi": 6758,
      "ĠÅ¾iva": 6759,
      "Ġplakal": 6760,
      "ĠsrdÃ©": 6761,
      "ĠÅ¡epo": 6762,
      "Ġopou": 6763,
      "Ġatych": 6764,
      "Ġvysko": 6765,
      "ĠÄĽnim": 6766,
      "ĠruÄįky": 6767,
      "ĠÄįinu": 6768,
      "Ġplynou": 6769,
      "ĠblÃ½ska": 6770,
      "ĠzÃ¡dumÄįi": 6771,
      "ĠÅ¾ila": 6772,
      "ĠÅĻece": 6773,
      "ĠkoutÄĽ": 6774,
      "nich": 6775,
      "Ġodem": 6776,
      "ĠpravÃŃm": 6777,
      "ĠnebeskÃ©": 6778,
      "ĠvrahÅ¯": 6779,
      "ĠchvÄĽlo": 6780,
      "ĠtajemnÃ©": 6781,
      "Ġvnady": 6782,
      "ĠvteÅĻi": 6783,
      "Ġpodob": 6784,
      "ĠnÄĽÅ¾nÃ©": 6785,
      "Ġdmou": 6786,
      "ĠhustÃ©": 6787,
      "ĠvÃ©vo": 6788,
      "ĠouÅ¾il": 6789,
      "Ġnejdra": 6790,
      "ĠmateÅĻ": 6791,
      "ĠrÅ¯znÃ½ch": 6792,
      "vnÃ½": 6793,
      "Ġzkla": 6794,
      "Ġpocit": 6795,
      "ĠzaÄįÃŃ": 6796,
      "Ġhromo": 6797,
      "ĠvlÃ¡dy": 6798,
      "Ġzbylo": 6799,
      "ĠskalÃ¡ch": 6800,
      "ĠÅ¾ebrÃ¡k": 6801,
      "Ġpoklady": 6802,
      "ĠhlasÅ¯": 6803,
      "Ġgu": 6804,
      "ĠÅ¾ÃŃzni": 6805,
      "rÅ¯m": 6806,
      "ĠpoÅ¾ehnÃ¡": 6807,
      "Ġdovo": 6808,
      "Ġvyho": 6809,
      "ĠradosÅ¥": 6810,
      "Ġacel": 6811,
      "Ġpose": 6812,
      "Ġneje": 6813,
      "ĠpÃ¡nÅ¯": 6814,
      "Ġrozka": 6815,
      "Ġmraku": 6816,
      "ĠÄįlovÄĽkem": 6817,
      "ĠpevnÃ½": 6818,
      "Ġamo": 6819,
      "ĠproklÃŃ": 6820,
      "ĠvÃŃÄįka": 6821,
      "ĠdÄĽd": 6822,
      "ĠbÄĽhu": 6823,
      "Ġmladost": 6824,
      "ĠznÃ¡t": 6825,
      "ĠmajestÃ¡": 6826,
      "mÃŃra": 6827,
      "Ġhrozi": 6828,
      "ĠpÄĽti": 6829,
      "ĠklidnÃ½": 6830,
      "Ġnepoko": 6831,
      "ĠdÄĽtin": 6832,
      "Ġvesna": 6833,
      "Äįeli": 6834,
      "ĠvÅ¡echna": 6835,
      "ĠblaÅ¾ÃŃ": 6836,
      "ĠmrtvÃŃ": 6837,
      "ĠvylÃŃ": 6838,
      "ĠkacÃŃ": 6839,
      "Ġstan": 6840,
      "ĠsvatÃ©ho": 6841,
      "Ġhrdla": 6842,
      "ĠpÃ½Å¡e": 6843,
      "Ġmen": 6844,
      "ĠdnovÃ©": 6845,
      "ĠpoprvÃ©": 6846,
      "ĠmistÅĻe": 6847,
      "Äįely": 6848,
      "ĠobÄĽt": 6849,
      "ÅĻeny": 6850,
      "ĠumÅĻel": 6851,
      "ĠuhlÃŃ": 6852,
      "Ġvysta": 6853,
      "Ġsouci": 6854,
      "Ġkonci": 6855,
      "ĠposmÄĽch": 6856,
      "it": 6857,
      "ÄįnÃŃch": 6858,
      "Ġzaji": 6859,
      "ĠlÃ¡n": 6860,
      "Ġslavnost": 6861,
      "Ġaven": 6862,
      "Äįat": 6863,
      "ÅĻÃŃti": 6864,
      "ĠprobÃŃ": 6865,
      "Ġrozbi": 6866,
      "stala": 6867,
      "ĠslabÃ½": 6868,
      "Ġodpor": 6869,
      "Ġdoj": 6870,
      "lÃŃÅ¾e": 6871,
      "Ġleta": 6872,
      "gie": 6873,
      "ĠoÅ¡": 6874,
      "ĠdÃ¡no": 6875,
      "ĠprvÃ©": 6876,
      "Ġcele": 6877,
      "ĠkrvavÃ½": 6878,
      "ĠapoÅ¡to": 6879,
      "nam": 6880,
      "ÄįinÄĽ": 6881,
      "ĠÄįistou": 6882,
      "Ġrevolu": 6883,
      "ĠjejichÅ¾": 6884,
      "Ġknih": 6885,
      "ĠdrÃ¡hy": 6886,
      "ĠkaÅ¡": 6887,
      "ĠzahÅĻ": 6888,
      "ĠkÃ¡cÃŃ": 6889,
      "Ġaskou": 6890,
      "ĠneÅĻe": 6891,
      "Å¡ili": 6892,
      "ĠzmÄĽnÃŃ": 6893,
      "ĠvojÃŃ": 6894,
      "ĠchvÄĽj": 6895,
      "Ġeska": 6896,
      "ĠnevÃ¡": 6897,
      "ĠvÃ¡no": 6898,
      "Ġmodro": 6899,
      "ĠpenÄĽz": 6900,
      "ĠdÄĽlÃŃ": 6901,
      "ĠbÃ¡snÄĽ": 6902,
      "ĠskoÄįÃŃ": 6903,
      "ĠdivokÃ©": 6904,
      "Ġkl": 6905,
      "Ġdopo": 6906,
      "mÅ¯Å¾e": 6907,
      "Ġevu": 6908,
      "ĠspoÄįÃŃ": 6909,
      "Ġavam": 6910,
      "ĠÅ¡eptal": 6911,
      "Ġparku": 6912,
      "Ġnasy": 6913,
      "Ġhluku": 6914,
      "ĠztracenÃ©": 6915,
      "Ġmohli": 6916,
      "ÅĻte": 6917,
      "Ġlevo": 6918,
      "Ġvzrost": 6919,
      "tÃ¡ÅĻ": 6920,
      "piti": 6921,
      "ĠhvÄĽzdou": 6922,
      "slÃŃ": 6923,
      "Å¾dÄĽ": 6924,
      "Ġpopla": 6925,
      "Ġynul": 6926,
      "ĠposÃŃ": 6927,
      "Ġslovu": 6928,
      "Ġesou": 6929,
      "ĠkrutÃ©": 6930,
      "ĠkrÃ¡tkÃ©": 6931,
      "Ġjdeme": 6932,
      "Å¾nÃ¡": 6933,
      "Ġnedal": 6934,
      "Ġchalou": 6935,
      "Ġgo": 6936,
      "Äįena": 6937,
      "ÄįenÃ¡": 6938,
      "Ġzbude": 6939,
      "chla": 6940,
      "Ġzahu": 6941,
      "Ġdocela": 6942,
      "Ġceli": 6943,
      "Ġfial": 6944,
      "Ġolo": 6945,
      "ĠnabÃŃ": 6946,
      "Ġyma": 6947,
      "Ġsos": 6948,
      "ĠplÃ¡t": 6949,
      "Ġshon": 6950,
      "ĠvÄĽÅĻte": 6951,
      "Ġneli": 6952,
      "Ġnemu": 6953,
      "Ġstranu": 6954,
      "ĠsvÃŃtÃ¡": 6955,
      "Ġsymbo": 6956,
      "ĠshÃ½": 6957,
      "Ġmha": 6958,
      "ron": 6959,
      "ĠmoudrÃ½": 6960,
      "Ġrolan": 6961,
      "Ġshle": 6962,
      "veÅĪ": 6963,
      "Ġostro": 6964,
      "ĠnovÃ©ho": 6965,
      "ĠplnÃ½ch": 6966,
      "Ġoke": 6967,
      "Ġlampy": 6968,
      "ĠaÄįku": 6969,
      "Å¡kem": 6970,
      "ĠÄĽci": 6971,
      "ĠmÃŃsÃŃ": 6972,
      "Ġnejen": 6973,
      "ĠdÄĽcka": 6974,
      "Ġzloba": 6975,
      "ĠpÃ¡nbÅ¯h": 6976,
      "ĠjmÃ©nem": 6977,
      "rny": 6978,
      "ĠeÄįer": 6979,
      "ĠrodnÃ½": 6980,
      "Ġposly": 6981,
      "ĠrekÅ¯": 6982,
      "ĠÅ¡leh": 6983,
      "ĠlÃŃtost": 6984,
      "Ġesl": 6985,
      "ĠmrtvÃ¡": 6986,
      "ĠposlednÃŃm": 6987,
      "Ġzmatku": 6988,
      "Ġprobou": 6989,
      "Ġose": 6990,
      "ĠmocnÃ¡": 6991,
      "ĠtÃŃsnÃŃ": 6992,
      "zar": 6993,
      "ĠnovÃ©m": 6994,
      "Ġolna": 6995,
      "ĠvÃŃme": 6996,
      "ĠÅ¾ehnÃ¡": 6997,
      "Ġhisto": 6998,
      "ĠnevÄĽdÄĽl": 6999,
      "ĠhleÄıte": 7000,
      "lice": 7001,
      "jÃŃti": 7002,
      "Ġyk": 7003,
      "Ġasnou": 7004,
      "ĠÄįinÅ¯": 7005,
      "Ġekl": 7006,
      "ĠkrÃ¡lovna": 7007,
      "Ġposu": 7008,
      "Ġmok": 7009,
      "padla": 7010,
      "ĠÃºsmÄĽvu": 7011,
      "ĠbÅĻehÅ¯": 7012,
      "!!": 7013,
      "Ġperel": 7014,
      "ĠhlÃ¡sÃŃ": 7015,
      "ĠrovnÄĽÅ¾": 7016,
      "Ġzjas": 7017,
      "Ġdot": 7018,
      "ĠstoletÃŃ": 7019,
      "ĠsmÃ¡la": 7020,
      "ĠnÃ¡mÄĽstÃŃ": 7021,
      "Ġozd": 7022,
      "ĠnÃ¡stro": 7023,
      "Ġhladem": 7024,
      "ĠvÅ¡emo": 7025,
      "daje": 7026,
      "ĠpÅĻehlu": 7027,
      "ĠÅĻÃŃdÃŃ": 7028,
      "ĠteplÃ½": 7029,
      "Ġhospody": 7030,
      "Ġazd": 7031,
      "Ġare": 7032,
      "lÃ¡n": 7033,
      "Ġkopy": 7034,
      "Ġmuzi": 7035,
      "Ġjasno": 7036,
      "Ġkmit": 7037,
      "Å¡et": 7038,
      "ÅĻÃŃch": 7039,
      "ĠrozvÃ¡": 7040,
      "Ġastni": 7041,
      "Ġhejno": 7042,
      "ĠtÃ³n": 7043,
      "ĠzadÃŃ": 7044,
      "ĠÅ¾ivÃŃ": 7045,
      "Ġnema": 7046,
      "Ġhudbu": 7047,
      "Ġvzejde": 7048,
      "tovÃ¡nÃŃ": 7049,
      "Ġmine": 7050,
      "Ġzanech": 7051,
      "ĠÄĽÅ¡i": 7052,
      "ĠvÃ¡le": 7053,
      "ĠÄįernÃ½m": 7054,
      "Ġshlu": 7055,
      "ĠtuhÃ©": 7056,
      "Ġzaml": 7057,
      "ĠÄįtvrt": 7058,
      "ĠzavÄĽ": 7059,
      "zenÃ½": 7060,
      "Ġpokoji": 7061,
      "ĠslepÃ½": 7062,
      "Ġkorouh": 7063,
      "Å¥te": 7064,
      "Ġodpla": 7065,
      "ĠcestÃ¡ch": 7066,
      "Ġteplo": 7067,
      "stupuje": 7068,
      "bami": 7069,
      "Ġopak": 7070,
      "Ġolym": 7071,
      "Ġac": 7072,
      "ĠzlÃ©ho": 7073,
      "Ġnapad": 7074,
      "Ġoblaka": 7075,
      "Ġkata": 7076,
      "ĠklasÅ¯": 7077,
      "Ġzjevil": 7078,
      "ĠkÅĻovÃŃ": 7079,
      "Ġadle": 7080,
      "Ġblud": 7081,
      "rali": 7082,
      "ĠstÃ¡da": 7083,
      "Ġstole": 7084,
      "Å¡til": 7085,
      "ĠÄĽzi": 7086,
      "ĠsladkÃ©m": 7087,
      "ĠskvoucÃŃ": 7088,
      "Ġzasy": 7089,
      "ĠlÃŃpy": 7090,
      "ĠsmÃŃm": 7091,
      "ĠkleÄįÃŃ": 7092,
      "Ġtragi": 7093,
      "ĠvÃ¡cla": 7094,
      "ĠamÄĽ": 7095,
      "Ġahem": 7096,
      "ĠjeÅ¾ÃŃÅ¡": 7097,
      "Ġodsou": 7098,
      "Ġskvr": 7099,
      "ĠvÃ½Äįi": 7100,
      "Ġrenal": 7101,
      "ĠrvÃ¡": 7102,
      "Ġkane": 7103,
      "ĠpÄĽjÃŃ": 7104,
      "ĠmarnÃ½": 7105,
      "ĠchvÄĽly": 7106,
      "ĠprÃ¡zdnÃ½": 7107,
      "ĠubohÃ½": 7108,
      "Ġobec": 7109,
      "Ġlos": 7110,
      "ĠsnÃŃt": 7111,
      "Ġhezky": 7112,
      "Ġzaha": 7113,
      "Ġtoli": 7114,
      "Ġysy": 7115,
      "Ġrvou": 7116,
      "ÄįeÅ¾": 7117,
      "vku": 7118,
      "ĠÄĽno": 7119,
      "novu": 7120,
      "ĠmÄĽly": 7121,
      "ĠhouÅ¡ti": 7122,
      "Ġemne": 7123,
      "zala": 7124,
      "ĠtÅ¯nÄĽ": 7125,
      "Ġvzplane": 7126,
      "Ġsocha": 7127,
      "ĠplÃ¡lo": 7128,
      "ĠpaprskÅ¯": 7129,
      "ĠseÅ¡": 7130,
      "ĠchÅĻe": 7131,
      "stÃŃrÃ¡": 7132,
      "ĠnÃ¡rodÅ¯": 7133,
      "Ġhorami": 7134,
      "Ġzval": 7135,
      "ĠzÃ¡po": 7136,
      "pne": 7137,
      "Ġojem": 7138,
      "ĠkopÃŃ": 7139,
      "ĠdruhÅ¯": 7140,
      "ĠblahÃ½": 7141,
      "Å¾enÃ½ch": 7142,
      "ĠmarnÃ¡": 7143,
      "ĠsnivÃ¡": 7144,
      "Ġmozo": 7145,
      "ĠvlaÅ¡to": 7146,
      "Ġoprav": 7147,
      "ĠspanÃŃ": 7148,
      "ĠmlÃ½n": 7149,
      "Ġsoumraku": 7150,
      "Ġpnou": 7151,
      "Ġkohou": 7152,
      "pÄĽla": 7153,
      "ĠtisÃŃci": 7154,
      "ĠpÅ¯lnoci": 7155,
      "Ġnos": 7156,
      "fÃ¡": 7157,
      "ĠjmÄĽnÃŃ": 7158,
      "ĠeÄįku": 7159,
      "pali": 7160,
      "ĠpaÅ¾ÃŃ": 7161,
      "Ġinne": 7162,
      "ĠbijÃŃ": 7163,
      "ĠeÅĻ": 7164,
      "ĠpoÅ¡e": 7165,
      "ĠpoÄįÃ¡": 7166,
      "ÅĪal": 7167,
      "ĠtuÅ¾eb": 7168,
      "Ġhroma": 7169,
      "ĠpohÃ¡dka": 7170,
      "ĠboÅ¾stvÃŃ": 7171,
      "Ġpovstal": 7172,
      "ĠjeseÅĪ": 7173,
      "ĠÃºtu": 7174,
      "Ġpre": 7175,
      "Ġfo": 7176,
      "ĠbÃ¡l": 7177,
      "ĠplÃŃÅ¾ÃŃ": 7178,
      "ĠoblÃ©": 7179,
      "ĠpÅĻipo": 7180,
      "ĠzdvÃŃ": 7181,
      "ĠdÃŃvce": 7182,
      "ĠpovÄĽst": 7183,
      "ĠstkvÄĽ": 7184,
      "ĠjdÄĽte": 7185,
      "ĠrubÃŃ": 7186,
      "ĠdÄĽvu": 7187,
      "Ġnemy": 7188,
      "Ġstrasti": 7189,
      "Ġskokem": 7190,
      "ĠdÃ½mu": 7191,
      "ĠÄĽzdy": 7192,
      "ĠoltÃ¡ÅĻe": 7193,
      "ĠvyÅ¡ehra": 7194,
      "ĠvydÃ¡": 7195,
      "duje": 7196,
      "ĠcÃŃrkev": 7197,
      "ĠoÅ¡i": 7198,
      "Ġvoje": 7199,
      "ĠhradÄĽ": 7200,
      "ĠchytÃ¡": 7201,
      "Ġtrosky": 7202,
      "Ã½t": 7203,
      "nova": 7204,
      "Ġsata": 7205,
      "Ġslabo": 7206,
      "ĠtesknÃ©": 7207,
      "ĠvÃ½chod": 7208,
      "Ġ!": 7209,
      "Ġsel": 7210,
      "Ġmuky": 7211,
      "ĠnÃ¡vra": 7212,
      "ĠzÃ¡slu": 7213,
      "ĠmnoÅ¾stvÃŃ": 7214,
      "ĠotevÅĻel": 7215,
      "ĠeÄįek": 7216,
      "pÃ¡n": 7217,
      "Ġkyp": 7218,
      "ĠjizbÄĽ": 7219,
      "Å¡tÄĽm": 7220,
      "ĠpÅĻedtu": 7221,
      "ĠstÅĻÃŃbrnÃ©": 7222,
      "Äįnost": 7223,
      "jila": 7224,
      "Ġskvo": 7225,
      "Ġspor": 7226,
      "ĠnaÅ¡ÃŃm": 7227,
      "teÄįnÄĽ": 7228,
      "ĠhledÄĽ": 7229,
      "tÃŃme": 7230,
      "ĠdÄĽtskÃ©": 7231,
      "Ġdrahoka": 7232,
      "ĠsnÃ¡Å¡e": 7233,
      "ĠlehkÃ½": 7234,
      "hi": 7235,
      "Ġposte": 7236,
      "ĠhÅĻÃŃmÃ¡": 7237,
      "nuje": 7238,
      "Ġpravi": 7239,
      "ĠpevnÃ©": 7240,
      "Ġjsy": 7241,
      "ĠsvÃŃce": 7242,
      "ĠdÅĻÃŃma": 7243,
      "ĠmalÃ½ch": 7244,
      "Ġvezme": 7245,
      "Ġster": 7246,
      "Ġprob": 7247,
      "Ġprs": 7248,
      "has": 7249,
      "ĠhoÅĻem": 7250,
      "ĠmÃ¡li": 7251,
      "ĠpodlÃ©": 7252,
      "Ġovce": 7253,
      "Ġzvuku": 7254,
      "ĠstÅĻÃŃbrem": 7255,
      "ĠdÄĽvÄįÃ¡": 7256,
      "ĠbÅĻÃŃmÄĽ": 7257,
      "svit": 7258,
      "ÅĻeje": 7259,
      "ĠÅ¡ÃŃÅĻ": 7260,
      "ĠpamÄĽÅ¥": 7261,
      "Å¾nou": 7262,
      "ĠÄįeskou": 7263,
      "ĠvÃ¡Å¾nÃ½": 7264,
      "ĠmÃ©nÄĽ": 7265,
      "ĠplaÅ¡ÃŃ": 7266,
      "Ġanebo": 7267,
      "Ġbere": 7268,
      "hlÃ½m": 7269,
      "ĠmÄĽkce": 7270,
      "skÃ½mi": 7271,
      "ĠdÄĽsnÃ©": 7272,
      "ĠobÄĽti": 7273,
      "ĠtrÃ¡vu": 7274,
      "ĠnedbÃ¡": 7275,
      "Ġvnad": 7276,
      "ĠplachÃ½": 7277,
      "ĠsdÃŃ": 7278,
      "ĠnaÅ¡li": 7279,
      "dechu": 7280,
      "Ġzbroj": 7281,
      "Ġzakry": 7282,
      "Ġdivoce": 7283,
      "ĠzÅĻeli": 7284,
      "vÅ¡ad": 7285,
      "Ġaf": 7286,
      "ĠaÅ¡el": 7287,
      "Ġlehko": 7288,
      "ĠÅ¡av": 7289,
      "neÅ¡enÃ©": 7290,
      "cÃ¡": 7291,
      "kuje": 7292,
      "Ġjist": 7293,
      "ÄįkovÃ©": 7294,
      "nickÃ©": 7295,
      "Ã¡nÃŃ": 7296,
      "ent": 7297,
      "ĠnÄĽkte": 7298,
      "Ġuhas": 7299,
      "nickÃ½": 7300,
      "ĠbdÄĽ": 7301,
      "Ġprokop": 7302,
      "Ġuml": 7303,
      "ĠhorÅ¡ÃŃ": 7304,
      "ĠsvÃ¡tek": 7305,
      "ĠhoupÃ¡": 7306,
      "gan": 7307,
      "ditel": 7308,
      "Ġrozpo": 7309,
      "ĠzÃ¡mek": 7310,
      "rdÃŃ": 7311,
      "ĠrybnÃŃ": 7312,
      "Ġhanu": 7313,
      "Ġhodina": 7314,
      "bÃ½vÃ¡": 7315,
      "Ġysta": 7316,
      "Å¾ilo": 7317,
      "ĠrudÃ¡": 7318,
      "ĠodeÅ¡el": 7319,
      "drÃ¡": 7320,
      "tiny": 7321,
      "ĠprochÃ¡": 7322,
      "ceni": 7323,
      "Ġenec": 7324,
      "ĠnÃ¡rody": 7325,
      "ĠzelenÃ¡": 7326,
      "ĠÃºstech": 7327,
      "ĠmnozÃŃ": 7328,
      "Ġjasem": 7329,
      "ĠdvoÅĻe": 7330,
      "nÄĽt": 7331,
      "ĠÄįte": 7332,
      "ĠvysÃŃ": 7333,
      "ĠniÅ¾": 7334,
      "ĠnÃ¡ÅĻ": 7335,
      "Ġasni": 7336,
      "Ġsrdcy": 7337,
      "ĠknÄĽÅ¾na": 7338,
      "Ġnouze": 7339,
      "Ġuhem": 7340,
      "Ġrozhod": 7341,
      "Ġstala": 7342,
      "Ġanna": 7343,
      "ĠnÄĽjÅ¾": 7344,
      "ĠvzÃ¡cnÃ©": 7345,
      "Ġsedla": 7346,
      "ĠpÅĻÃŃtele": 7347,
      "ĠsynÅ¯": 7348,
      "Ġkoruny": 7349,
      "Å¾nÃŃ": 7350,
      "Ġodo": 7351,
      "ĠimÄĽ": 7352,
      "Ġuho": 7353,
      "Ġkroku": 7354,
      "Ġanych": 7355,
      "ĠtakovÃ½": 7356,
      "Ġbiskup": 7357,
      "chvÃ¡": 7358,
      "ĠvyklÃ¡": 7359,
      "Ġvzhled": 7360,
      "Ġmrazem": 7361,
      "ĠplesÃ¡": 7362,
      "hnouti": 7363,
      "Ġnachem": 7364,
      "Ġhrot": 7365,
      "Ġalne": 7366,
      "ĠdravÃ½": 7367,
      "ĠvÄĽÄįnÃ½m": 7368,
      "Ġtmavou": 7369,
      "ĠmaÄıar": 7370,
      "Ġvsa": 7371,
      "Ġbor": 7372,
      "ĠlhÃ¡": 7373,
      "ĠsvobodÄĽ": 7374,
      "Ġvypro": 7375,
      "ĠÅ¡uma": 7376,
      "Ġazni": 7377,
      "ĠdivokÃ½": 7378,
      "ĠvzÃ¡cnÃ½": 7379,
      "ĠtÃ³ny": 7380,
      "ĠopÄĽ": 7381,
      "ÅĻeli": 7382,
      "ĠjasnÃ½m": 7383,
      "Ġklene": 7384,
      "fÃŃ": 7385,
      "pak": 7386,
      "ÅĻÃŃvÃ¡": 7387,
      "Ġroje": 7388,
      "ĠzÃ¡Å¡Å¥": 7389,
      "ĠveselÃ½": 7390,
      "ĠandÄĽlÃ©": 7391,
      "dlem": 7392,
      "Ġimu": 7393,
      "ĠstarÅ¡ÃŃ": 7394,
      "ĠzdÃ¡nÃŃ": 7395,
      "ĠpÅĻemÃŃ": 7396,
      "ĠmÄĽkkÃ½": 7397,
      "Ġpomi": 7398,
      "ĠÅ¾iÅ¾ka": 7399,
      "ĠlaÅĪ": 7400,
      "Ġnebla": 7401,
      "ĠnevÄĽÅĻÃŃ": 7402,
      "ĠradostnÄĽ": 7403,
      "Ġzrozen": 7404,
      "Ġzad": 7405,
      "ĠzaÅ¡el": 7406,
      "ĠkÅĻÃŃÅ¾i": 7407,
      "stoupil": 7408,
      "ĠtemnÃ¡": 7409,
      "Ġvzpou": 7410,
      "ĠnÃ¡po": 7411,
      "Ġpruh": 7412,
      "ĠstkvÃŃ": 7413,
      "ĠssÃ¡": 7414,
      "Ġzne": 7415,
      "Ġetou": 7416,
      "lÃŃp": 7417,
      "ĠlÃŃnÄĽ": 7418,
      "ĠzboÅ¾ÃŃ": 7419,
      "ĠznÃ¡ti": 7420,
      "ĠvodopÃ¡": 7421,
      "Ġcvr": 7422,
      "ĠÅ¡ÃŃj": 7423,
      "Ġlampa": 7424,
      "ĠaÄįek": 7425,
      "ĠÅ¾ijÃŃ": 7426,
      "Ġvstane": 7427,
      "Ġrcete": 7428,
      "Ġvdech": 7429,
      "chi": 7430,
      "Ġvym": 7431,
      "ĠrozÅ¾": 7432,
      "ĠtÄĽkÃ¡": 7433,
      "ĠpravÃ¡": 7434,
      "Ġpranic": 7435,
      "Ġhel": 7436,
      "bÅĻe": 7437,
      "Ġlka": 7438,
      "ĠstÅĻechy": 7439,
      "ĠnevdÄĽ": 7440,
      "ĠzvlÃ¡Å¡tÄĽ": 7441,
      "ĠbohynÄĽ": 7442,
      "ĠÄĽlou": 7443,
      "jeli": 7444,
      "lujÃŃ": 7445,
      "Ġadku": 7446,
      "Ġtemna": 7447,
      "Ġidim": 7448,
      "ĠÅĪÃ¡dra": 7449,
      "nutÃ©": 7450,
      "Ġprok": 7451,
      "ĠÅ¾eÅĪ": 7452,
      "mila": 7453,
      "ĠdÃ¡val": 7454,
      "ĠbÃŃdÄĽ": 7455,
      "ĠbÃ¡znÃŃ": 7456,
      "Ġshr": 7457,
      "Ġkniha": 7458,
      "Ġnedba": 7459,
      "pka": 7460,
      "ĠroznÃŃ": 7461,
      "Ġrozez": 7462,
      "ĠlkÃ¡nÃŃ": 7463,
      "kÃ½mi": 7464,
      "ĠmÅ¯": 7465,
      "Ġbil": 7466,
      "nÄĽnou": 7467,
      "Ġroku": 7468,
      "sajÃŃ": 7469,
      "ĠÅ¾ÃŃzeÅĪ": 7470,
      "ĠtmavÃ¡": 7471,
      "pÃ©": 7472,
      "Ġmukou": 7473,
      "Ġref": 7474,
      "ĠÅ¡koly": 7475,
      "ĠtvrdÃ½": 7476,
      "Ġcenu": 7477,
      "bÃŃm": 7478,
      "eno": 7479,
      "Ġiro": 7480,
      "ĠzanÃŃ": 7481,
      "Ġproz": 7482,
      "Ġvyjde": 7483,
      "Å¡enÃ¡": 7484,
      "Ġahe": 7485,
      "ĠrtÅ¯m": 7486,
      "ĠÄĽkem": 7487,
      "ĠvlastnÃŃch": 7488,
      "ĠpÅĻÃ¡telstvÃŃ": 7489,
      "ĠÄĽstu": 7490,
      "ĠhodÃŃ": 7491,
      "ĠkouÅĻ": 7492,
      "ĠosvÄĽt": 7493,
      "ĠumÅĻÃŃt": 7494,
      "ĠpÅĻijÄı": 7495,
      "Ġkapky": 7496,
      "ĠpohleÄı": 7497,
      "tisk": 7498,
      "ĠdusÃŃ": 7499,
      "ĠdÃŃvÃ¡m": 7500,
      "ĠmuÅ¾em": 7501,
      "ĠbohÅ¯m": 7502,
      "ĠrumÄĽ": 7503,
      "Ġozna": 7504,
      "ĠveselÃŃ": 7505,
      "ĠdrÃ¡hu": 7506,
      "ĠnenadÃ¡nÃŃ": 7507,
      "Ġizda": 7508,
      "Ġjizby": 7509,
      "ĠrÄįi": 7510,
      "Ġzaslech": 7511,
      "Ġpevnou": 7512,
      "ĠspoleÄįnosti": 7513,
      "Ġolal": 7514,
      "ĠpÅĻivi": 7515,
      "Ġklidem": 7516,
      "Ġpolibek": 7517,
      "ckÃ©ho": 7518,
      "Ġhonem": 7519,
      "sala": 7520,
      "Ġdia": 7521,
      "ĠzdÃ¡la": 7522,
      "Ġzpola": 7523,
      "ĠuÅ¡lech": 7524,
      "ĠvleÄįe": 7525,
      "ĠokamÅ¾iku": 7526,
      "bnÃ¡": 7527,
      "tnÃ½m": 7528,
      "out": 7529,
      "ĠrÅ¾i": 7530,
      "Ġoupi": 7531,
      "Ġpuk": 7532,
      "ĠÅ¡Å¥astnÃ©": 7533,
      "Ġmiliony": 7534,
      "ĠnevÃ½slov": 7535,
      "mbu": 7536,
      "Ġusty": 7537,
      "ĠÅĻekli": 7538,
      "ĠovÄĽk": 7539,
      "Ġmuce": 7540,
      "Ġpolibky": 7541,
      "ĠvÄĽrnÃ¡": 7542,
      "Ġoblohou": 7543,
      "ĠdokonÃ¡": 7544,
      "Äįeho": 7545,
      "ĠmÄĽÅĻÃŃ": 7546,
      "ĠkrÃ¡snÄĽjÅ¡ÃŃ": 7547,
      "ĠsnivÃ½": 7548,
      "Ġvyslo": 7549,
      "ĠjakÃ©s": 7550,
      "ĠcÃŃrkve": 7551,
      "pej": 7552,
      "mund": 7553,
      "Ġduma": 7554,
      "ĠÅ¡eÅĻÃŃ": 7555,
      "snÃ½m": 7556,
      "ĠptÃ¡m": 7557,
      "Ġoudil": 7558,
      "Ġonem": 7559,
      "Ġobloha": 7560,
      "Ġvlaje": 7561,
      "ĠvolÃ¡m": 7562,
      "ĠusmÃ¡l": 7563,
      "Ġura": 7564,
      "ĠzapÃ¡": 7565,
      "vÃ¡nÃŃm": 7566,
      "Å¾iv": 7567,
      "Ġfu": 7568,
      "trÃ¡": 7569,
      "ĠÄįechÅ¯": 7570,
      "ĠÃºtra": 7571,
      "Ġvaz": 7572,
      "ĠhorkÃ©": 7573,
      "ĠuchvÃ¡": 7574,
      "Ġjezera": 7575,
      "Ġrtem": 7576,
      "ĠÃºkry": 7577,
      "Ġchladnou": 7578,
      "lostÃŃ": 7579,
      "Ġdoli": 7580,
      "ĠÅ¡ve": 7581,
      "Å¡im": 7582,
      "Ġbudeme": 7583,
      "ĠmÄĽÅ¡Å¥": 7584,
      "ĠviÄı": 7585,
      "ĠpropastÃŃ": 7586,
      "tkou": 7587,
      "Ġzta": 7588,
      "Ġuvad": 7589,
      "ĠmuÄįÃŃ": 7590,
      "Ġheslo": 7591,
      "ĠdlaÅ¾": 7592,
      "ĠsmÃ¡t": 7593,
      "ĠvzÃŃt": 7594,
      "Ġrozva": 7595,
      "Ġlide": 7596,
      "Ġstarci": 7597,
      "kladu": 7598,
      "ĠchrÃ¡mÄĽ": 7599,
      "ĠzalÃŃ": 7600,
      "ĠÄĽÅĻ": 7601,
      "tati": 7602,
      "ĠpeÅĻÃŃ": 7603,
      "Ġdruhy": 7604,
      "ker": 7605,
      "Ġirem": 7606,
      "lovÃ¡nÃŃ": 7607,
      "Ġlehou": 7608,
      "ĠpÅĻÃŃzrak": 7609,
      "ĠjaÅĻe": 7610,
      "ĠstraÅ¡nÃ½": 7611,
      "ĠmroucÃŃ": 7612,
      "Ã½val": 7613,
      "ĠzachrÃ¡": 7614,
      "ĠpamÃ¡tku": 7615,
      "ĠzapomnÄĽnÃŃ": 7616,
      "Ġai": 7617,
      "lumen": 7618,
      "Ġkovo": 7619,
      "ĠpÅĻil": 7620,
      "ĠÄįÃŃst": 7621,
      "Ġlilie": 7622,
      "ĠzaÅ¡ep": 7623,
      "Ġbur": 7624,
      "ĠbÃŃdnÃ©": 7625,
      "jemi": 7626,
      "Ġeskne": 7627,
      "Ġstrun": 7628,
      "Ġvstala": 7629,
      "Ġavo": 7630,
      "rami": 7631,
      "cestÃŃ": 7632,
      "Ġhody": 7633,
      "Ġmrazi": 7634,
      "cena": 7635,
      "ĠkrutÄĽ": 7636,
      "Ġkostela": 7637,
      "ary": 7638,
      "ĠdÃ¡Å¡": 7639,
      "Ġnepokoj": 7640,
      "ĠbolesÅ¥": 7641,
      "ĠmÄĽkkÃ©": 7642,
      "ĠnÅ¯Å¾": 7643,
      "ĠrubÃ¡": 7644,
      "vena": 7645,
      "cenou": 7646,
      "ĠpÅ¯dÄĽ": 7647,
      "ĠÅĻetÄĽz": 7648,
      "ĠsvatebnÃŃ": 7649,
      "Ġobna": 7650,
      "ĠmnoÅ¾ÃŃ": 7651,
      "Ġgro": 7652,
      "ĠjemnÃ©": 7653,
      "Ġinul": 7654,
      "Ġsluha": 7655,
      "ĠtÃ¡bor": 7656,
      "ĠÅ¾aly": 7657,
      "ĠzaÅ¡lÃ½ch": 7658,
      "ĠvzÃŃti": 7659,
      "dnÃ©ho": 7660,
      "ÃŃmÄĽ": 7661,
      "ĠmilovÃ¡nÃŃ": 7662,
      "Ġtajemnou": 7663,
      "ĠobrÃ¡til": 7664,
      "ĠkÅĻ": 7665,
      "Ġtane": 7666,
      "Ġvzcho": 7667,
      "ĠruÄįe": 7668,
      "ĠhlasnÄĽ": 7669,
      "ĠkvÄĽtech": 7670,
      "ĠtovÃ¡": 7671,
      "Ġpamat": 7672,
      "ĠzÃ¡ro": 7673,
      "Ġmilos": 7674,
      "kolem": 7675,
      "ĠvÄĽÅ¾i": 7676,
      "ĠnejdÅĻÃŃ": 7677,
      "Ġetly": 7678,
      "Ġazku": 7679,
      "Ġkletba": 7680,
      "ĠlÅ¯Å¾ko": 7681,
      "Ġprovo": 7682,
      "ĠlekÃ¡": 7683,
      "ĠostÅĻÃŃ": 7684,
      "ĠtrÄįÃŃ": 7685,
      "ĠkouÅĻÃŃ": 7686,
      "ĠslavnÃ½ch": 7687,
      "ĠpsanÃŃ": 7688,
      "ĠhvÃŃz": 7689,
      "ice": 7690,
      "ĠiÅ¡el": 7691,
      "Ġjedovat": 7692,
      "ĠvzneÅ¡enÃ©": 7693,
      "Ġobdi": 7694,
      "vyk": 7695,
      "Ġsnahy": 7696,
      "ĠstarÃ½m": 7697,
      "ĠmraÄįno": 7698,
      "Ġidal": 7699,
      "Å¾nÃ½ch": 7700,
      "Ġvzo": 7701,
      "ĠskalnÃŃ": 7702,
      "pku": 7703,
      "ĠmodrÃ¡": 7704,
      "ĠobÄĽtÃŃ": 7705,
      "ĠtmavÃ½ch": 7706,
      "Ġvolnosti": 7707,
      "eru": 7708,
      "ĠvÄĽno": 7709,
      "Ġkrov": 7710,
      "ĠkvÄĽtiny": 7711,
      "Ġfanta": 7712,
      "ĠsÃŃmÄĽ": 7713,
      "Ġpavou": 7714,
      "asy": 7715,
      "ĠprÃ¡vem": 7716,
      "ĠdobrÃ½ch": 7717,
      "ĠbÄĽl": 7718,
      "ÅĻeno": 7719,
      "ÅĻenÃ½m": 7720,
      "Ġtrap": 7721,
      "ĠstÅĻÃŃbrnÃ½": 7722,
      "ĠÄĽcko": 7723,
      "volnÄĽ": 7724,
      "Ġtvojich": 7725,
      "cos": 7726,
      "Ġideal": 7727,
      "ĠhospodÃ¡ÅĻ": 7728,
      "skat": 7729,
      "luj": 7730,
      "ilÃ©": 7731,
      "kÃ¡zal": 7732,
      "Ġhladu": 7733,
      "ĠÅ¡irÃ©m": 7734,
      "Ġroucha": 7735,
      "Ġzbyla": 7736,
      "ĠABC": 7737,
      "ĠÅ¡al": 7738,
      "ĠvÃŃnek": 7739,
      "ĠzemÅĻel": 7740,
      "ĠpÅĻedce": 7741,
      "ĠstatnÃ½": 7742,
      "ĠnejlepÅ¡ÃŃ": 7743,
      "Ġmojich": 7744,
      "ĠtrnÃŃ": 7745,
      "ĠzÃŃral": 7746,
      "Ġnebudu": 7747,
      "ĠouÅĻe": 7748,
      "lÅ¯v": 7749,
      "ĠsuchÃ©": 7750,
      "ĠÃºsvi": 7751,
      "Ġzp": 7752,
      "leno": 7753,
      "ĠvlÃ¡dce": 7754,
      "ĠpestrÃ½": 7755,
      "ĠklÃ¡Å¡ter": 7756,
      "Ġsky": 7757,
      "ĠnahÃ©": 7758,
      "Ġvyrost": 7759,
      "Ġcitem": 7760,
      "Ġvlno": 7761,
      "ĠozÃ½vÃ¡": 7762,
      "Ġvlek": 7763,
      "ĠjakÃ½m": 7764,
      "Ġroman": 7765,
      "Ġitne": 7766,
      "ĠhvÄĽzdnÃ©": 7767,
      "Ġerni": 7768,
      "Ġpronik": 7769,
      "ĠvybÃŃ": 7770,
      "vedu": 7771,
      "Ġrozli": 7772,
      "ĠruÅ¡ÃŃ": 7773,
      "ĠvodÃŃ": 7774,
      "Ġsadu": 7775,
      "ĠspÃ¡su": 7776,
      "Ġvesny": 7777,
      "Ġzdroje": 7778,
      "ĠnahÃ¡": 7779,
      "Ġhodil": 7780,
      "ĠdrahÃ½ch": 7781,
      "hlÃ©d": 7782,
      "ĠdotÃ½": 7783,
      "ĠyÄįi": 7784,
      "stin": 7785,
      "Ġtrav": 7786,
      "ĠzulÃŃ": 7787,
      "ĠnevrÃ¡tÃŃ": 7788,
      "mÄĽt": 7789,
      "Ġmlhou": 7790,
      "koliv": 7791,
      "ĠuvÃ¡": 7792,
      "Ġnehle": 7793,
      "Ġlest": 7794,
      "ĠbujnÃ½": 7795,
      "Ġzastavil": 7796,
      "Ġklobouk": 7797,
      "nus": 7798,
      "talo": 7799,
      "Ġrozpa": 7800,
      "ĠbÃ¡znÄĽ": 7801,
      "ĠsnÄĽho": 7802,
      "ĠtÃŃsni": 7803,
      "Ġskryt": 7804,
      "ĠzuÅĻi": 7805,
      "ĠblÃ¡ho": 7806,
      "ĠmlÃ¡deÅ¾": 7807,
      "Ġprod": 7808,
      "ĠmetÃ¡": 7809,
      "Ġrozumu": 7810,
      "ĠdÃŃtko": 7811,
      "Ġnezna": 7812,
      "Ġcizo": 7813,
      "ĠdlouhÃ½m": 7814,
      "Ġdarem": 7815,
      "ĠeÄįne": 7816,
      "ĠhlubinÃ¡ch": 7817,
      "ĠvÃ½smÄĽ": 7818,
      "Ġlov": 7819,
      "Ġresi": 7820,
      "ĠzÅĻÃŃdka": 7821,
      "ĠpokolenÃŃ": 7822,
      "Ġchalu": 7823,
      "ĠvstaÅĪ": 7824,
      "Ġceny": 7825,
      "ĠnÃ©sti": 7826,
      "Å¾em": 7827,
      "Å¾no": 7828,
      "ĠcÃŃtit": 7829,
      "ĠbÄĽlÃ¡": 7830,
      "ĠÅ¡Å¥astni": 7831,
      "Ġsul": 7832,
      "ĠmocnÃ½m": 7833,
      "ĠlÅ¯no": 7834,
      "pÅĻi": 7835,
      "Ġniv": 7836,
      "ĠÅ¡erÃ½": 7837,
      "Ġpustil": 7838,
      "ĠstÅĻela": 7839,
      "ĠstÅ¯": 7840,
      "Ġryb": 7841,
      "ĠbÃ¡jÃŃ": 7842,
      "ĠchuÄı": 7843,
      "ÅĻka": 7844,
      "nÄĽna": 7845,
      "ruje": 7846,
      "doval": 7847,
      "ladÅ¡ÃŃ": 7848,
      "ĠtÃŃseÅĪ": 7849,
      "Ġshro": 7850,
      "ĠmrÃ¡ko": 7851,
      "Ġhocha": 7852,
      "Ġtichem": 7853,
      "Ġbah": 7854,
      "Ġprosil": 7855,
      "Ġkletby": 7856,
      "Ġpohledu": 7857,
      "Ġthe": 7858,
      "Ġbet": 7859,
      "chajÃŃ": 7860,
      "ĠslÃ¡b": 7861,
      "ĠpotkÃ¡": 7862,
      "ĠkvÄĽte": 7863,
      "Ġvezdy": 7864,
      "ĠnejdraÅ¾Å¡ÃŃ": 7865,
      "mÃ¡m": 7866,
      "ĠÄĽh": 7867,
      "zdra": 7868,
      "ĠstÃ¡vÃ¡": 7869,
      "Ġkladi": 7870,
      "ĠsedlÃ¡": 7871,
      "ĠsedlÃ¡k": 7872,
      "ĠopÃŃ": 7873,
      "Å¥Ã¡": 7874,
      "Ġemstvi": 7875,
      "Ġstrast": 7876,
      "ĠsnÄĽti": 7877,
      "Ġpsi": 7878,
      "Ġpodu": 7879,
      "ĠmÃ¡je": 7880,
      "Ġske": 7881,
      "ĠÄįernÃ©m": 7882,
      "Å¾eno": 7883,
      "ĠbrÃ¡na": 7884,
      "Ġrozply": 7885,
      "jÃ¡k": 7886,
      "ĠpÅĻeje": 7887,
      "ĠchorÃ©": 7888,
      "ĠkabÃ¡": 7889,
      "Ġednu": 7890,
      "ĠstraÅ¡nÃ©": 7891,
      "Ġerne": 7892,
      "Ġfrancou": 7893,
      "ĠnahoÅĻe": 7894,
      "bce": 7895,
      "mar": 7896,
      "znÃ½ch": 7897,
      "Ġmhou": 7898,
      "tiÅ¾": 7899,
      "Ġrovi": 7900,
      "ĠpÃŃsek": 7901,
      "ĠvÃ½so": 7902,
      "Ġvrh": 7903,
      "ĠmÄĽsÃŃci": 7904,
      "ĠbÅĻit": 7905,
      "ĠpodveÄįer": 7906,
      "ĠsloÅ¾il": 7907,
      "cÅ¯v": 7908,
      "ĠdÃŃvko": 7909,
      "ĠkvÃŃtÃŃm": 7910,
      "ĠzaÅ¡u": 7911,
      "Ġsever": 7912,
      "blesk": 7913,
      "lom": 7914,
      "ĠnÄĽhu": 7915,
      "ĠjiskÅĻÃŃ": 7916,
      "Ġdobrodru": 7917,
      "ĠbystÅĻi": 7918,
      "Ġdoho": 7919,
      "ĠsvÄĽÅ¾e": 7920,
      "ĠdeÅ¡ti": 7921,
      "Ġopustil": 7922,
      "ĠtÃ½Å¾": 7923,
      "ĠpalÃ¡ce": 7924,
      "Ġznik": 7925,
      "Ġeha": 7926,
      "ĠvyÅ¡li": 7927,
      "Ġvysla": 7928,
      "ĠvzlÃ©t": 7929,
      "ÄįÃŃÅ¡": 7930,
      "ĠjeÅ¾to": 7931,
      "ĠmÃŃÅĻÃŃ": 7932,
      "Äįeno": 7933,
      "ĠvdÄĽÄįnÄĽ": 7934,
      "ĠdÅ¾": 7935,
      "Ġzabo": 7936,
      "ĠvyrÅ¯": 7937,
      "cenÃ½ch": 7938,
      "ĠjitÅĻnÃŃ": 7939,
      "Ġubu": 7940,
      "ĠsnÄĽtÃŃ": 7941,
      "ĠokolÃŃ": 7942,
      "Ġsloupy": 7943,
      "ĠteplÃ©": 7944,
      "Ġuzy": 7945,
      "voÅĻÃŃ": 7946,
      "Ġprokla": 7947,
      "ver": 7948,
      "Ġrus": 7949,
      "dÅĻi": 7950,
      "ĠzabÃŃ": 7951,
      "ĠbezdÄĽ": 7952,
      "Ġhromy": 7953,
      "Ġedna": 7954,
      "ĠstÄĽÅ¾ÃŃ": 7955,
      "ĠpÄĽknÃ½": 7956,
      "Ġusa": 7957,
      "Ġzava": 7958,
      "ĠniÄįem": 7959,
      "ĠplÃ¡nÄĽ": 7960,
      "ĠvÄĽÄįna": 7961,
      "Ġoknech": 7962,
      "Ġchudi": 7963,
      "ĠzloÄįin": 7964,
      "ĠspÄĽchu": 7965,
      "Ġpivo": 7966,
      "Ġodevz": 7967,
      "ĠslouÅ¾ÃŃ": 7968,
      "ĠÅ¾havÃ¡": 7969,
      "ĠdrobnÃ½ch": 7970,
      "Ġvno": 7971,
      "Ġvozy": 7972,
      "chali": 7973,
      "ĠdÃ¡vnÃ½": 7974,
      "ĠsluneÄįnÃŃ": 7975,
      "ĠzamyÅ¡len": 7976,
      "ĠeÄįnÄĽ": 7977,
      "ĠtulÃŃ": 7978,
      "Ġpravila": 7979,
      "ĠfrÃ¡": 7980,
      "Ġmrav": 7981,
      "ĠjasnÃ½ch": 7982,
      "Ġhrdli": 7983,
      "ĠzÃ¡stupy": 7984,
      "Ġhl": 7985,
      "Ġkapi": 7986,
      "ĠdÃŃlu": 7987,
      "Ġplamenem": 7988,
      "ĠznaÄįÃŃ": 7989,
      "Ġleskne": 7990,
      "ĠmoudÅĻe": 7991,
      "ĠpastÃ½ÅĻ": 7992,
      "Ġyba": 7993,
      "ĠmÃŃjÃŃ": 7994,
      "Å¡ena": 7995,
      "ĠzrÃ¡dce": 7996,
      "Ġvstoupil": 7997,
      "ĠÅĻasy": 7998,
      "Ġokouz": 7999,
      "vÃ¡na": 8000,
      "mÄĽla": 8001,
      "ĠdobrÃ½m": 8002,
      "ĠslavnÃ¡": 8003,
      "Å¡Ã¡": 8004,
      "Ġistu": 8005,
      "Ġudat": 8006,
      "ĠmÃ¡ji": 8007,
      "ĠpustÃ¡": 8008,
      "Ġgene": 8009,
      "ĠzpÃŃvajÃŃ": 8010,
      "Ġustal": 8011,
      "Ġflo": 8012,
      "Ġnepohnu": 8013,
      "ĠÅĻekni": 8014,
      "ĠvÄĽdÄĽt": 8015,
      "ĠtuÅ¥": 8016,
      "ĠdÃŃvat": 8017,
      "bala": 8018,
      "Ġjala": 8019,
      "Ġotrok": 8020,
      "ĠpalÃ¡c": 8021,
      "ĠverÅ¡Å¯": 8022,
      "Ġzpi": 8023,
      "ĠvyÄįÃŃ": 8024,
      "ĠkrÃ¡lo": 8025,
      "ĠjenÅ¾to": 8026,
      "ĠotÅĻÃ¡": 8027,
      "Ġluhu": 8028,
      "Ġesli": 8029,
      "ĠsilnÃ©": 8030,
      "Ġvichrem": 8031,
      "ĠvzplÃ¡l": 8032,
      "Ġrakvi": 8033,
      "ĠnebezpeÄįÃŃ": 8034,
      "zdu": 8035,
      "Ġzko": 8036,
      "Ġdoly": 8037,
      "Ġmozek": 8038,
      "Ġkousek": 8039,
      "ĠkÅĻÃŃdlech": 8040,
      "alo": 8041,
      "penÃ©": 8042,
      "Ġzadr": 8043,
      "dovi": 8044,
      "ĠrozvÃŃ": 8045,
      "Å¡tÄĽn": 8046,
      "Ġhus": 8047,
      "bÃ¡n": 8048,
      "Ġblouzni": 8049,
      "ĠcÃŃtÃŃÅ¡": 8050,
      "ĠpaÅ¾e": 8051,
      "ĠpukÃ¡": 8052,
      "Ġmrakem": 8053,
      "clo": 8054,
      "Ġzavr": 8055,
      "ĠklidnÃ©": 8056,
      "ĠbrÃ¡nu": 8057,
      "ĠchtÃŃt": 8058,
      "ĠnÃ©st": 8059,
      "ĠmÅ¡i": 8060,
      "Ġsestro": 8061,
      "ĠkoÅĻÃŃ": 8062,
      "Å¡enÄĽ": 8063,
      "Ġdvoj": 8064,
      "ĠnemÃ¡Å¡": 8065,
      "ĠzkamenÄĽ": 8066,
      "ĠpÅĻÃŃÅ¡tÃŃch": 8067,
      "ĠsbÃŃrÃ¡": 8068,
      "rci": 8069,
      "stvem": 8070,
      "Ġicho": 8071,
      "Ġpomys": 8072,
      "ĠctÄĽ": 8073,
      "Ġpropu": 8074,
      "Ġvraha": 8075,
      "ĠkoÅĻeny": 8076,
      "Ġsluchu": 8077,
      "Ġpokle": 8078,
      "ĠzbabÄĽ": 8079,
      "ĠnachÃ½": 8080,
      "Ġzraje": 8081,
      "ĠdÃ¡lnÃ½ch": 8082,
      "Ġlupen": 8083,
      "ĠsnoubÃŃ": 8084,
      "lce": 8085,
      "Ġizy": 8086,
      "Ġmozku": 8087,
      "Ġrozkaz": 8088,
      "ĠpÅĻÃŃsnÃ½": 8089,
      "ĠtouÅ¾ÃŃm": 8090,
      "ĠspÄĽchal": 8091,
      "ĠulicÃŃch": 8092,
      "ĠvesmÃŃ": 8093,
      "lali": 8094,
      "Ġskok": 8095,
      "ĠsilnÄĽ": 8096,
      "ĠbojÅ¯": 8097,
      "Ġskryl": 8098,
      "ĠstÄĽn": 8099,
      "ĠhojnÄĽ": 8100,
      "bÅ¡ÃŃ": 8101,
      "Ġzvou": 8102,
      "ĠnedÅ¯": 8103,
      "Ġskou": 8104,
      "ĠpohnutÃŃ": 8105,
      "Ġdcero": 8106,
      "ĠzaÄįne": 8107,
      "Ġnapro": 8108,
      "atÃ©": 8109,
      "Ġpohla": 8110,
      "Ġzvedne": 8111,
      "ĠhlÃŃdÃ¡": 8112,
      "ĠpÃ½chou": 8113,
      "vaÅ¥": 8114,
      "Ġyle": 8115,
      "Ġyzi": 8116,
      "Ġodlesk": 8117,
      "Ġoupil": 8118,
      "Ġarny": 8119,
      "ĠskvÄĽlÃ½": 8120,
      "ĠstvoÅĻil": 8121,
      "ÅĻelo": 8122,
      "ĠzaÅ¡la": 8123,
      "toma": 8124,
      "Ġsamy": 8125,
      "Ġstatky": 8126,
      "ĠÄĽho": 8127,
      "Ġtakou": 8128,
      "ĠtÃ¡hla": 8129,
      "Ġupi": 8130,
      "ĠÄĽhy": 8131,
      "vÃ¡me": 8132,
      "Ġdivem": 8133,
      "Ġreka": 8134,
      "ĠdÄĽlat": 8135,
      "ĠnajdeÅ¡": 8136,
      "Ġado": 8137,
      "Å¡lÃŃ": 8138,
      "ĠtiÅ¡i": 8139,
      "Ġsig": 8140,
      "Ġpodal": 8141,
      "Ġbledne": 8142,
      "ĠveselÃ©": 8143,
      "ĠholÃ¡": 8144,
      "bych": 8145,
      "ĠdÃŃtek": 8146,
      "Ġdivou": 8147,
      "ĠptÃ¡Äįek": 8148,
      "ĠÄįtenÃ¡": 8149,
      "ĠÅ¡kol": 8150,
      "ĠÅ¾ivou": 8151,
      "ĠnÄĽhou": 8152,
      "pajÃŃ": 8153,
      "Ġsady": 8154,
      "Ġvadne": 8155,
      "Ġope": 8156,
      "ĠneÄįi": 8157,
      "ĠvztÃ½": 8158,
      "ĠmyslÃŃÅ¡": 8159,
      "Äįnosti": 8160,
      "Ġjedu": 8161,
      "Ġpospo": 8162,
      "chÃ¡zÃŃm": 8163,
      "padne": 8164,
      "Ġhloubky": 8165,
      "ĠmatiÄįko": 8166,
      "ĠzÃ¡vist": 8167,
      "Ġjesky": 8168,
      "Ġprose": 8169,
      "Ġprin": 8170,
      "Ġzloby": 8171,
      "Ġazky": 8172,
      "Ġneur": 8173,
      "Ġkriste": 8174,
      "ĠvlÃŃdnÃ½": 8175,
      "Ġsboru": 8176,
      "vami": 8177,
      "vatu": 8178,
      "Ġrval": 8179,
      "ĠvÃŃla": 8180,
      "Ġmami": 8181,
      "Ġavit": 8182,
      "ĠuklÃ¡": 8183,
      "ĠchvÃ¡lÃŃ": 8184,
      "ĠpoÅ¾ehna": 8185,
      "ĠtkvÃŃ": 8186,
      "ĠhedbÃ¡": 8187,
      "ĠnÄĽmec": 8188,
      "Ġalou": 8189,
      "danÃ©": 8190,
      "Ġobsa": 8191,
      "ĠvÄĽÅĻil": 8192,
      "ĠtÅĻesk": 8193,
      "Ġidlo": 8194,
      "ĠmezÃŃ": 8195,
      "ĠkrutÃ¡": 8196,
      "ĠrÅ¯Å¾ovÃ©": 8197,
      "Ġhmy": 8198,
      "ĠzÃ¡vod": 8199,
      "ĠtichÃ½ch": 8200,
      "ĠvÅĻelÃ©": 8201,
      "Ġ22": 8202,
      "Ġholubice": 8203,
      "ĠvzrÅ¯stÃ¡": 8204,
      "ĠpÅĻim": 8205,
      "ĠdÄĽlo": 8206,
      "ĠslunÃ©": 8207,
      "ĠcizÃ¡": 8208,
      "ĠdÅĻÃŃme": 8209,
      "Ġzvukem": 8210,
      "ĠrÅ¯Å¾emi": 8211,
      "Ġvypo": 8212,
      "ĠpÅĻeko": 8213,
      "Ġmrtvou": 8214,
      "ĠnenÃ¡vist": 8215,
      "ĠspanilÃ¡": 8216,
      "Ġeto": 8217,
      "Ġzatra": 8218,
      "Ġpaty": 8219,
      "ĠvÃ¡hÃ¡": 8220,
      "Ġokovy": 8221,
      "Ġkameny": 8222,
      "ĠÄįÃ¡st": 8223,
      "Ġvizte": 8224,
      "Ġlije": 8225,
      "Ġzik": 8226,
      "ĠstejnÃ©": 8227,
      "Ġused": 8228,
      "Ġzapomenu": 8229,
      "ÅĻu": 8230,
      "ĠleÅ¾e": 8231,
      "Ġtahy": 8232,
      "Ġrada": 8233,
      "ĠdobÃ¡ch": 8234,
      "Ġpadlo": 8235,
      "Ġptact": 8236,
      "ĠtÅĻÃ¡s": 8237,
      "nkÃ½": 8238,
      "Ġzpra": 8239,
      "leti": 8240,
      "Ġkot": 8241,
      "Ġnovo": 8242,
      "douc": 8243,
      "ĠspÃŃnÃ¡": 8244,
      "ĠpoÄįkej": 8245,
      "hlÃ½ch": 8246,
      "kvÄĽt": 8247,
      "ĠeÄįka": 8248,
      "dan": 8249,
      "ĠvÄĽdomÃŃ": 8250,
      "ĠstaletÃŃ": 8251,
      "Ġdlouze": 8252,
      "ĠjedenkrÃ¡t": 8253,
      "ĠkolÃ©bky": 8254,
      "Ġdem": 8255,
      "Ġinal": 8256,
      "ĠkrajÅ¯": 8257,
      "ĠvÄįely": 8258,
      "Ã¡jem": 8259,
      "Ġvznik": 8260,
      "vejte": 8261,
      "Äįinou": 8262,
      "ĠÃºko": 8263,
      "ĠlÅ¾ÃŃ": 8264,
      "Ġhrady": 8265,
      "Ġgar": 8266,
      "ĠsterÃ©": 8267,
      "ĠoblakÅ¯": 8268,
      "ĠfarÃ¡ÅĻ": 8269,
      "ĠcÃ½": 8270,
      "Ġouc": 8271,
      "ĠnÃŃtÃŃ": 8272,
      "Å¡enÃ½ch": 8273,
      "Ġidny": 8274,
      "ĠslÃ©t": 8275,
      "Ã©l": 8276,
      "kosti": 8277,
      "Ġmih": 8278,
      "ĠdÅ¯kaz": 8279,
      "ĠkomÃŃ": 8280,
      "ĠskÅĻe": 8281,
      "Ġang": 8282,
      "Ġsynem": 8283,
      "Ġostrov": 8284,
      "Ġmdle": 8285,
      "dÄĽje": 8286,
      "ĠkaÅ¾di": 8287,
      "ĠptÃ¡ky": 8288,
      "Ġzelena": 8289,
      "Ġjelen": 8290,
      "Ġrodnou": 8291,
      "ĠvznÃ¡Å¡e": 8292,
      "lenÃ½ch": 8293,
      "ĠpÅĻedkÅ¯": 8294,
      "Ġnemohou": 8295,
      "ĠjednotvÃ¡": 8296,
      "Ġschy": 8297,
      "Ġkara": 8298,
      "ĠÄįisto": 8299,
      "Ġarne": 8300,
      "ĠhrÃ¡la": 8301,
      "Ġocel": 8302,
      "ĠplachÃ©": 8303,
      "Ġvrchol": 8304,
      "Ġtohle": 8305,
      "Ġchasa": 8306,
      "Ġryk": 8307,
      "ĠmodrÃ½m": 8308,
      "prve": 8309,
      "ĠiÄįkou": 8310,
      "tina": 8311,
      "ĠÄĽstÄĽ": 8312,
      "ĠvÄĽjÃŃ": 8313,
      "vÄĽtÅĻÃŃ": 8314,
      "Ġdivnou": 8315,
      "ĠÅĻem": 8316,
      "Ġsmo": 8317,
      "Ġnecho": 8318,
      "ĠnÃ¡rodnÃŃ": 8319,
      "Ġuply": 8320,
      "Ġkvas": 8321,
      "ĠhoroucÃŃ": 8322,
      "ĠzasmuÅ¡il": 8323,
      "Ġkama": 8324,
      "Ġstanu": 8325,
      "ĠbÄĽlou": 8326,
      "ĠÄįlovÄĽÄįen": 8327,
      "ĠzmÃ¡men": 8328,
      "ĠvÅĻele": 8329,
      "Ġchrab": 8330,
      "Ġchvatem": 8331,
      "ĠznamenÃ¡": 8332,
      "ĠsnÃ¡": 8333,
      "ĠseÄį": 8334,
      "ĠjarÃ½": 8335,
      "ĠoÄįÃŃm": 8336,
      "Ġboky": 8337,
      "ĠsÃŃtÃŃ": 8338,
      "ĠhoÅĻce": 8339,
      "rozenÃŃ": 8340,
      "Ġea": 8341,
      "Ġahly": 8342,
      "ĠvojÃ¡k": 8343,
      "ĠvÃ½ho": 8344,
      "ĠmdlÃ¡": 8345,
      "chej": 8346,
      "Å¥al": 8347,
      "Ġposlech": 8348,
      "Ġbranou": 8349,
      "ĠdÃ¡me": 8350,
      "star": 8351,
      "nÃ¡c": 8352,
      "Å¡ilo": 8353,
      "ĠhroznÄĽ": 8354,
      "ĠprÃ¡vu": 8355,
      "Ġatim": 8356,
      "ĠvÅ¯lÃŃ": 8357,
      "Ġavim": 8358,
      "Ġsval": 8359,
      "Ġrudou": 8360,
      "ĠkeÅĻi": 8361,
      "Ġillu": 8362,
      "hrÃ¡": 8363,
      "Ġize": 8364,
      "ĠsÃŃÅ¥": 8365,
      "ĠchutÄĽ": 8366,
      "ĠvÃŃtÄĽznÄĽ": 8367,
      "Ġojen": 8368,
      "chni": 8369,
      "Ġone": 8370,
      "Ġelka": 8371,
      "Ġkyti": 8372,
      "Ġklesne": 8373,
      "Ġvzadu": 8374,
      "ĠpÅĻip": 8375,
      "ĠplnÃ©m": 8376,
      "Ġnevinnosti": 8377,
      "kan": 8378,
      "Ġleck": 8379,
      "ĠrudÃ½m": 8380,
      "ĠpÄĽvec": 8381,
      "Ġsoudce": 8382,
      "Ġetlo": 8383,
      "Ġzmr": 8384,
      "Ġknize": 8385,
      "Ġmodlitby": 8386,
      "Ġpacho": 8387,
      "ĠsuchÃ½": 8388,
      "ĠstÅĻely": 8389,
      "Ġslunka": 8390,
      "ĠdrÃ¡Å¾": 8391,
      "onÅ¯": 8392,
      "zdÃŃ": 8393,
      "ÅĻely": 8394,
      "ĠÅ¡kÅ¯": 8395,
      "Ġprachem": 8396,
      "Ġstavu": 8397,
      "Ġhranice": 8398,
      "Ġusil": 8399,
      "mysl": 8400,
      "Ġvzor": 8401,
      "ĠstraÅ¡nÄĽ": 8402,
      "ĠmilÃ©ho": 8403,
      "ĠhrÅ¯zu": 8404,
      "ĠnaÅ¡im": 8405,
      "ĠzlÃ½m": 8406,
      "Ġpor": 8407,
      "Ġrtoma": 8408,
      "ĠÅĻeku": 8409,
      "Ġneznal": 8410,
      "Ġhloupo": 8411,
      "Ġdoubra": 8412,
      "ĠpÃ½chu": 8413,
      "Ġresigna": 8414,
      "sÅ¡ÃŃ": 8415,
      "Ġnico": 8416,
      "ĠpouhÃ¡": 8417,
      "ĠÅ¾ÃŃznÃŃ": 8418,
      "Ġocha": 8419,
      "Ġnaro": 8420,
      "Ġnastal": 8421,
      "valu": 8422,
      "Ġrva": 8423,
      "Ġmini": 8424,
      "Ġdivu": 8425,
      "Ġanny": 8426,
      "Ġutich": 8427,
      "Ġmrzu": 8428,
      "ĠtÅĻÃŃÅ¡tÃŃ": 8429,
      "Ġskrze": 8430,
      "Ġupy": 8431,
      "Ġponu": 8432,
      "skak": 8433,
      "stit": 8434,
      "ĠokamÅ¾enÃŃ": 8435,
      "Ġloktech": 8436,
      "lÃ¡Å¡": 8437,
      "vÃ¡no": 8438,
      "ĠvÃŃÅĻe": 8439,
      "Ġoucha": 8440,
      "bilo": 8441,
      "Ġedly": 8442,
      "ĠÅĻÃŃd": 8443,
      "ĠstÅ¯nÄĽ": 8444,
      "cÃ©": 8445,
      "ĠzvrÃ¡": 8446,
      "ĠdlÃ¡": 8447,
      "ĠÄĽdy": 8448,
      "ĠÃºdÄĽl": 8449,
      "ĠsÃŃnÃŃ": 8450,
      "ĠrybÃ¡": 8451,
      "ĠhvÄĽzdo": 8452,
      "ĠpyÅ¡nÃ½": 8453,
      "ĠkvapÃŃ": 8454,
      "ĠpÃ©ro": 8455,
      "smÃ¡": 8456,
      "ĠsbÄĽ": 8457,
      "leÅ¥": 8458,
      "Ġpronika": 8459,
      "Ġduje": 8460,
      "skÃ¡ch": 8461,
      "Ġudiven": 8462,
      "Ġvous": 8463,
      "Ġsje": 8464,
      "ĠpÅĻen": 8465,
      "Ġhem": 8466,
      "Ġjih": 8467,
      "trp": 8468,
      "ĠhvÄĽzdu": 8469,
      "ĠÅĻadÄĽ": 8470,
      "ĠÅ¡tÃŃty": 8471,
      "Ġzmatek": 8472,
      "Ġmuse": 8473,
      "ĠchladnÃ¡": 8474,
      "Ġzmije": 8475,
      "ĠzaÅ¡lÃ©": 8476,
      "ĠtvÅ¯rÄįÃŃ": 8477,
      "Ġitek": 8478,
      "Ġekem": 8479,
      "ĠprostÄĽ": 8480,
      "ĠzasvÄĽ": 8481,
      "Ġstup": 8482,
      "ĠboÅ¾skÃ½": 8483,
      "ĠzÅ¯stane": 8484,
      "ĠkrÅ¯pÄĽje": 8485,
      "ĠkvÃ©st": 8486,
      "vlnÄĽ": 8487,
      "Ġneve": 8488,
      "Ġlebky": 8489,
      "Ġoble": 8490,
      "jÅ¡ÃŃch": 8491,
      "ĠjakÃ¡s": 8492,
      "ĠusÃŃ": 8493,
      "cich": 8494,
      "ĠABB": 8495,
      "ĠhodnÄĽ": 8496,
      "ĠsnÄĽhy": 8497,
      "Ġpluh": 8498,
      "ĠmatiÄįka": 8499,
      "ĠvÄĽzenÃŃ": 8500,
      "Ġeze": 8501,
      "dol": 8502,
      "Ġdalo": 8503,
      "ĠbÃ¡zeÅĪ": 8504,
      "Ġvrouc": 8505,
      "Ġtrysk": 8506,
      "ĠrojÃŃ": 8507,
      "Ġrez": 8508,
      "ĠpÃ¡du": 8509,
      "ĠAAAA": 8510,
      "ĠmilÃ½m": 8511,
      "ĠkamarÃ¡": 8512,
      "Ġkvil": 8513,
      "ĠveÅ¡la": 8514,
      "mÄĽly": 8515,
      "Ġlne": 8516,
      "ĠsvÄĽto": 8517,
      "Ġicke": 8518,
      "Ġjun": 8519,
      "Ġkruhy": 8520,
      "ĠÅ¾lutÃ½": 8521,
      "ĠÄįervÃ¡nky": 8522,
      "par": 8523,
      "Ġuleh": 8524,
      "luv": 8525,
      "Ġtemnu": 8526,
      "ĠtÃ¡Å¾e": 8527,
      "ĠhÅĻÃŃchem": 8528,
      "ĠhvÄĽzdnÃ½": 8529,
      "Ġbarbar": 8530,
      "ĠzaznÄĽl": 8531,
      "ĠsedÃŃm": 8532,
      "ĠuÅ¾ÃŃ": 8533,
      "vavÄĽ": 8534,
      "Ġskrov": 8535,
      "Ġlada": 8536,
      "Ġsmutkem": 8537,
      "ĠbrÃ¡t": 8538,
      "ĠvÅ¡echnÄĽch": 8539,
      "Ġzdu": 8540,
      "vÃŃtÃ¡": 8541,
      "Ġasce": 8542,
      "ĠpÅĻivÃ¡": 8543,
      "ĠdivÃ½m": 8544,
      "ĠostrÃ©": 8545,
      "ĠpoznÃ¡nÃŃ": 8546,
      "ĠaÅ¡Å¥": 8547,
      "Ġzva": 8548,
      "Ġtok": 8549,
      "Ġobr": 8550,
      "tovat": 8551,
      "ledne": 8552,
      "Ġanto": 8553,
      "Ġekne": 8554,
      "ĠpÅĻemy": 8555,
      "ĠleknÃŃ": 8556,
      "rati": 8557,
      "ĠÄĽma": 8558,
      "Ġpase": 8559,
      "ĠdeÅ¡tÄĽm": 8560,
      "br": 8561,
      "snÃ©m": 8562,
      "Ġpsy": 8563,
      "Ġeo": 8564,
      "Ġmoder": 8565,
      "ĠpodÃ©l": 8566,
      "Ġsamoty": 8567,
      "ĠpojÄıte": 8568,
      "Ġdokola": 8569,
      "Ġosudem": 8570,
      "ĠAXABBX": 8571,
      "ĠzpomÃŃ": 8572,
      "ĠÄĽnu": 8573,
      "Ġvydal": 8574,
      "ĠvztÃ¡": 8575,
      "Ġouho": 8576,
      "ĠÅ¡edou": 8577,
      "Ġusnul": 8578,
      "ĠkÅĻiku": 8579,
      "Ġhousle": 8580,
      "ĠtajemnÃ½": 8581,
      "ĠpsÃ¡no": 8582,
      "ĠkÅĻiÅ¡Å¥Ã¡": 8583,
      "Ġsnila": 8584,
      "ĠpalÄįi": 8585,
      "Ġekal": 8586,
      "Ġuprch": 8587,
      "Ġneda": 8588,
      "Ġtone": 8589,
      "Ġtanec": 8590,
      "Ġidne": 8591,
      "Ġkynul": 8592,
      "Ġsvoboda": 8593,
      "ĠnekoneÄįnÃ©": 8594,
      "bas": 8595,
      "Ġsno": 8596,
      "Ġoesie": 8597,
      "Ġnet": 8598,
      "Ġzal": 8599,
      "Ġkalu": 8600,
      "ĠÅ¾ivÃ½ch": 8601,
      "pÄĽtÃŃ": 8602,
      "ĠuÄįinil": 8603,
      "ĠpÅ¯jdem": 8604,
      "ĠvpÅĻed": 8605,
      "ĠaÅ¾dy": 8606,
      "ĠnetÅĻe": 8607,
      "Ġchvo": 8608,
      "dÃŃte": 8609,
      "ĠvidÄĽli": 8610,
      "Ġesly": 8611,
      "ĠjemnÃ½": 8612,
      "ĠuÅ¡lechti": 8613,
      "ĠchuÄıas": 8614,
      "mrt": 8615,
      "Ġuda": 8616,
      "dÄĽn": 8617,
      "Ġchoti": 8618,
      "ĠbÃ¡seÅĪ": 8619,
      "ĠtluÄįe": 8620,
      "Ġrostla": 8621,
      "ĠnejvÃŃce": 8622,
      "ĠdomÃ¡cÃŃ": 8623,
      "ĠpÅĻiÅ¡ly": 8624,
      "pÄĽnÃŃ": 8625,
      "ĠblÃŃzku": 8626,
      "Ġhynou": 8627,
      "ĠvÅĻava": 8628,
      "Ġnesli": 8629,
      "ĠostÅĻe": 8630,
      "ĠberÃ¡": 8631,
      "ĠveÄįeru": 8632,
      "Ġutk": 8633,
      "Ġmak": 8634,
      "Ġneto": 8635,
      "ĠvyvÃ¡": 8636,
      "Ġobil": 8637,
      "Ġoblohy": 8638,
      "ĠkvÃ©sti": 8639,
      "ĠnÃ¡bo": 8640,
      "Ġmodli": 8641,
      "Ġvedli": 8642,
      "ĠtÅ¯ÅĪ": 8643,
      "ĠchudÃ¡k": 8644,
      "Ġsouzvuk": 8645,
      "Ġzry": 8646,
      "ĠbludnÃ©": 8647,
      "Ġvysch": 8648,
      "Ġpostava": 8649,
      "ĠodpovÃŃdÃ¡": 8650,
      "ĠpÃŃÅ¡Å¥": 8651,
      "Ġpoklo": 8652,
      "ĠchladnÄĽ": 8653,
      "ĠbohatstvÃŃ": 8654,
      "chÃ¡zejÃŃ": 8655,
      "ĠnÃ¡hodou": 8656,
      "ĠlÃ½": 8657,
      "ĠzmÃ¡": 8658,
      "eny": 8659,
      "ĠobracÃŃ": 8660,
      "Ġtrudu": 8661,
      "ĠzkuÅ¡en": 8662,
      "nkÅ¯": 8663,
      "livou": 8664,
      "Ġzasa": 8665,
      "ĠyÅ¡ti": 8666,
      "ĠABABBX": 8667,
      "ĠrÅ¯Å¾en": 8668,
      "pÃ¡ch": 8669,
      "plnÃ©": 8670,
      "Ġtaji": 8671,
      "ĠhledÄĽt": 8672,
      "Ġtravou": 8673,
      "Ġzvyku": 8674,
      "Ġizka": 8675,
      "bnÃ½ch": 8676,
      "sÃ¡m": 8677,
      "vajÃŃcÃŃ": 8678,
      "dami": 8679,
      "Ġvycho": 8680,
      "Ġledu": 8681,
      "ĠhravÄĽ": 8682,
      "ĠveÄįerem": 8683,
      "ĠuÄįitel": 8684,
      "ĠdÄĽtskÃ½ch": 8685,
      "Ġzvedl": 8686,
      "ĠvÄĽrnou": 8687,
      "Ġpovzdech": 8688,
      "Å¡nou": 8689,
      "Ġpola": 8690,
      "ĠdeÅ¡Å¥": 8691,
      "ĠspoÄįi": 8692,
      "Ġarmo": 8693,
      "Ġmocnou": 8694,
      "cÃŃmi": 8695,
      "ĠstÅĻÃŃbra": 8696,
      "ĠovÄĽÄı": 8697,
      "tickÃ©": 8698,
      "Ġveta": 8699,
      "ĠrozdÃŃ": 8700,
      "ĠrozpÃ¡": 8701,
      "Ġsprost": 8702,
      "ĠrudÃ½ch": 8703,
      "ĠpohlÃ©": 8704,
      "ĠchvÃ¡la": 8705,
      "Ġnejsme": 8706,
      "gen": 8707,
      "ĠvchÃ¡zÃŃ": 8708,
      "ĠpoÄįe": 8709,
      "ĠvidÄĽti": 8710,
      "ĠpÅĻÃŃko": 8711,
      "ĠslunÃŃ": 8712,
      "Ġmeze": 8713,
      "ĠÅĻÃŃc": 8714,
      "hneÅ¡": 8715,
      "Ġzml": 8716,
      "ĠmÄĽkkÃ¡": 8717,
      "Ġmodlitbou": 8718,
      "ĠblaÅ¾enosti": 8719,
      "ĠkvÄĽtin": 8720,
      "ĠradÅ¡": 8721,
      "Ġleje": 8722,
      "ĠkrÃ¡ÄįÃŃm": 8723,
      "ĠtÃŃÅ¾e": 8724,
      "Ġutim": 8725,
      "ĠloupeÅ¾": 8726,
      "Äįata": 8727,
      "ĠÅ¡klebÃŃ": 8728,
      "ĠponÃŃ": 8729,
      "ĠpolnÃŃ": 8730,
      "Ġroh": 8731,
      "Ġpropad": 8732,
      "ĠvzkÅĻi": 8733,
      "ĠluznÃ©": 8734,
      "ĠkonÄįÃŃ": 8735,
      "Ġchmury": 8736,
      "pÅĻÃ¡": 8737,
      "Ġyto": 8738,
      "Ġhostem": 8739,
      "Ġpodro": 8740,
      "ĠosvÃŃ": 8741,
      "Ġpadal": 8742,
      "Ġtvar": 8743,
      "ur": 8744,
      "skvÄĽ": 8745,
      "Ġmistra": 8746,
      "ĠvÃŃsky": 8747,
      "Ġbudo": 8748,
      "Ġklek": 8749,
      "Ġoknu": 8750,
      "Ġmrtva": 8751,
      "ĠzvÄĽsti": 8752,
      "ĠzÅ¯staÅĪ": 8753,
      "ĠhÅ¯ry": 8754,
      "ĠtÃ©mÄĽÅĻ": 8755,
      "Ġodpou": 8756,
      "ĠtÄĽsnÄĽ": 8757,
      "ĠblÃ¡z": 8758,
      "ĠdÄĽtskÃ½": 8759,
      "Ġhospodin": 8760,
      "Ġkmeny": 8761,
      "ckÃ©m": 8762,
      "ĠmstÃŃ": 8763,
      "ĠvÃ½stra": 8764,
      "ĠdobÅĻÃŃ": 8765,
      "Ġnepra": 8766,
      "Ġkolkolem": 8767,
      "Ġzkro": 8768,
      "Ġpochod": 8769,
      "ĠhÅĻeje": 8770,
      "ĠsmyslÅ¯": 8771,
      "Ġezi": 8772,
      "ĠÅ¡ku": 8773,
      "ĠdÃŃvek": 8774,
      "Ġmedu": 8775,
      "ĠpamÄĽt": 8776,
      "ĠpoÄįÃŃnÃ¡": 8777,
      "ruÅ¡ÃŃ": 8778,
      "Ġdojat": 8779,
      "tavÃ½": 8780,
      "Ġmoj": 8781,
      "Äįeje": 8782,
      "ĠÄįasnÄĽ": 8783,
      "Ġvlk": 8784,
      "Ġmraven": 8785,
      "Ġirat": 8786,
      "ĠzpÃŃvÃ¡m": 8787,
      "ĠubohÃ¡": 8788,
      "ĠumÃŃrÃ¡nÃŃ": 8789,
      "ĠÅ¾ol": 8790,
      "ÅĻik": 8791,
      "Ġdoved": 8792,
      "paly": 8793,
      "ĠjedinÄĽ": 8794,
      "Ġpomoz": 8795,
      "ĠvÃŃtÄĽznÃ½": 8796,
      "Ġepta": 8797,
      "ĠvnitÅĻnÃŃ": 8798,
      "ĠÄįekajÃŃ": 8799,
      "Ġstesku": 8800,
      "ĠdÄĽsnÃ¡": 8801,
      "ĠpovÅ¾dy": 8802,
      "Ġmilosrd": 8803,
      "ĠvÅ¡ecek": 8804,
      "ĠÄįekat": 8805,
      "ĠlÃŃbat": 8806,
      "ĠpospÄĽ": 8807,
      "ĠÄįÃŃhÃ¡": 8808,
      "ĠznÃ¡me": 8809,
      "ĠspatÅĻÃŃ": 8810,
      "ĠuboÅ¾Ã¡": 8811,
      "ĠvlhkÃ©": 8812,
      "Ġzkvet": 8813,
      "blou": 8814,
      "Ġjene": 8815,
      "Ġkapra": 8816,
      "Ġsej": 8817,
      "ĠpovÃŃm": 8818,
      "Ġdosa": 8819,
      "Ġcou": 8820,
      "ĠÅ¡ka": 8821,
      "atou": 8822,
      "ĠandÄĽla": 8823,
      "Ġvztekem": 8824,
      "Ġince": 8825,
      "nim": 8826,
      "ĠdoÅ¡el": 8827,
      "Ġsvla": 8828,
      "Ġstatek": 8829,
      "Ġlucy": 8830,
      "ĠoknÄĽ": 8831,
      "Ġozve": 8832,
      "ĠvzpomnÄĽl": 8833,
      "ĠzachvÄĽla": 8834,
      "ĠkolikrÃ¡t": 8835,
      "Ġnaproti": 8836,
      "nÄĽnÃ¡": 8837,
      "ĠytÄĽ": 8838,
      "ĠdajÃŃ": 8839,
      "ĠhluÄįnÄĽ": 8840,
      "ĠtrpÄĽl": 8841,
      "Ġarna": 8842,
      "Ġtriumf": 8843,
      "ĠshromÃ¡": 8844,
      "rÃ½mi": 8845,
      "Ã¡Å¡": 8846,
      "nÄĽjÃŃ": 8847,
      "ĠtuÅ¡il": 8848,
      "chan": 8849,
      "ĠchutÃŃ": 8850,
      "ĠhÃ¡v": 8851,
      "ĠstÅĻechu": 8852,
      "ĠsklonÃŃ": 8853,
      "ĠtÃ½den": 8854,
      "ĠnavÅ¡tÃŃ": 8855,
      "ĠnÃŃzkÃ©": 8856,
      "Ġpso": 8857,
      "Ġrozdr": 8858,
      "ĠnocÃŃch": 8859,
      "Ġmag": 8860,
      "ĠvolnÃ©": 8861,
      "ĠlouÄįÃŃ": 8862,
      "ĠXAAXBB": 8863,
      "Ġekou": 8864,
      "ĠnÄĽha": 8865,
      "ĠÃºbÄĽ": 8866,
      "Ġsan": 8867,
      "ĠpÄĽv": 8868,
      "Ġmilence": 8869,
      "Ġfiloso": 8870,
      "ĠustÃ¡nÃŃ": 8871,
      "ĠÅ¡pÃŃ": 8872,
      "dÄĽlo": 8873,
      "ĠhostÃ©": 8874,
      "Ġdere": 8875,
      "Ġstudu": 8876,
      "Ġsteskem": 8877,
      "Ġhovoru": 8878,
      "ĠvÅĻel": 8879,
      "ĠniÄįeho": 8880,
      "ĠsamÃ¡": 8881,
      "ĠskoÄįil": 8882,
      "ĠzlobÄĽ": 8883,
      "Ġspravedl": 8884,
      "Ġilem": 8885,
      "ĠpÅĻej": 8886,
      "Ġduhu": 8887,
      "Ġplav": 8888,
      "Ġalku": 8889,
      "pech": 8890,
      "Ġilku": 8891,
      "ĠhrÅ¯ze": 8892,
      "ĠkÃ½v": 8893,
      "ĠvalnÃ©": 8894,
      "ĠpÃ½chy": 8895,
      "Ġnesa": 8896,
      "ĠnedÄĽli": 8897,
      "naje": 8898,
      "ĠvÄĽtev": 8899,
      "ĠXAAA": 8900,
      "ĠvÃŃtÄĽzÃŃ": 8901,
      "ĠzavÅĻel": 8902,
      "ĠsnÅ¯m": 8903,
      "Äįu": 8904,
      "Ġivu": 8905,
      "ĠpromÄĽnÃŃ": 8906,
      "rÅ¯v": 8907,
      "Ġplachty": 8908,
      "ĠÅ¡ÃŃlenstvÃŃ": 8909,
      "ovi": 8910,
      "Ġbas": 8911,
      "Ġrosu": 8912,
      "Ġodal": 8913,
      "Ġroztom": 8914,
      "ĠÃºpÃŃ": 8915,
      "Ġhude": 8916,
      "Äįenou": 8917,
      "ĠkÅĻikem": 8918,
      "ĠlÅ¯na": 8919,
      "Ġkladou": 8920,
      "dnÃ©m": 8921,
      "Ġuvil": 8922,
      "sily": 8923,
      "ĠlÄįi": 8924,
      "ĠÄįervenÃ©": 8925,
      "ĠsmÄĽlÃ©": 8926,
      "Ġdomova": 8927,
      "ĠnadÅ¡enÃŃm": 8928,
      "ĠsnÃŃm": 8929,
      "ĠorÃ¡": 8930,
      "ĠtrvÃ¡": 8931,
      "hnej": 8932,
      "Ġglo": 8933,
      "ĠstrÃ¡ÅĪ": 8934,
      "ĠbudoucÃŃ": 8935,
      "ĠlehkÃ©": 8936,
      "ĠeÄįny": 8937,
      "Ġpozve": 8938,
      "ĠpÅĻÃŃrodÄĽ": 8939,
      "lkÅ¯": 8940,
      "Ġosta": 8941,
      "cejÃŃ": 8942,
      "ĠvzÅĪat": 8943,
      "lout": 8944,
      "ĠstÃ¡lÃ½": 8945,
      "Ġmodrou": 8946,
      "rmu": 8947,
      "Ġrab": 8948,
      "Ġonde": 8949,
      "ĠtouÅ¾e": 8950,
      "Äįkami": 8951,
      "ĠpÅ¯da": 8952,
      "Ġidsky": 8953,
      "ĠÅ¡ik": 8954,
      "Ġdvora": 8955,
      "ĠpsÃ¡t": 8956,
      "ĠÅ¾alÃ¡ÅĻ": 8957,
      "nÃŃkem": 8958,
      "dÄĽlÃ¡": 8959,
      "Ġlip": 8960,
      "ĠvÃ¡Å¾nÃ©": 8961,
      "ĠchorÃ½": 8962,
      "Ġzvonek": 8963,
      "Å¡kÃ¡": 8964,
      "taj": 8965,
      "Ġobce": 8966,
      "ĠvÄĽje": 8967,
      "Ġkadi": 8968,
      "ĠvÃŃly": 8969,
      "ĠdlouhÃ©m": 8970,
      "ĠoÅĻem": 8971,
      "Ġsype": 8972,
      "ĠtajnÃ½": 8973,
      "ĠknÄĽze": 8974,
      "Ġskutky": 8975,
      "ĠpestrÃ½ch": 8976,
      "ĠlabuÅ¥": 8977,
      "ÄįnÃ©ho": 8978,
      "Äįiv": 8979,
      "Ġvlak": 8980,
      "Ġrodiny": 8981,
      "bka": 8982,
      "Ġpoo": 8983,
      "Ġnedej": 8984,
      "Ġodnes": 8985,
      "hÃ¡Äį": 8986,
      "zujÃŃ": 8987,
      "ĠspÃ¡sa": 8988,
      "ĠandÄĽlÅ¯": 8989,
      "Ġisto": 8990,
      "ilÃ½": 8991,
      "ĠmÃ¡lem": 8992,
      "Ġkusy": 8993,
      "ĠstrÃ¡Å¾e": 8994,
      "ĠpomnÄĽ": 8995,
      "ĠsvojÃŃm": 8996,
      "ĠnamÃ¡": 8997,
      "lovi": 8998,
      "ĠniÄįÃŃ": 8999,
      "Ġmyslit": 9000,
      "Ġklenu": 9001,
      "Ġzamra": 9002,
      "ĠobilÃŃ": 9003,
      "Ġhotov": 9004,
      "Ġrne": 9005,
      "ĠbÃŃdnÄĽ": 9006,
      "ĠÄįili": 9007,
      "ĠvelkÃ©m": 9008,
      "Ġpustou": 9009,
      "Ġokolo": 9010,
      "ĠkvÃŃtko": 9011,
      "ĠprÃ½Å¡tÃŃ": 9012,
      "ĠchÃ¡pe": 9013,
      "Ġako": 9014,
      "ĠzvÄĽt": 9015,
      "Ġrd": 9016,
      "Ġpodla": 9017,
      "Ġmnohem": 9018,
      "benÃ½": 9019,
      "taje": 9020,
      "Ġobro": 9021,
      "Ġkrej": 9022,
      "ĠbujnÄĽ": 9023,
      "!?": 9024,
      "Ġzapa": 9025,
      "Ġzapu": 9026,
      "ĠnÃ¡la": 9027,
      "ĠdÃ¡lek": 9028,
      "ĠÅĻekou": 9029,
      "ĠÅ¾alosti": 9030,
      "ĠosamÄĽlÃ½": 9031,
      "Ġozu": 9032,
      "Ġpoti": 9033,
      "Ġnai": 9034,
      "Ġvzma": 9035,
      "Ġduhy": 9036,
      "ĠvrÃ¡tit": 9037,
      "ĠdÄĽtmi": 9038,
      "Ġhodo": 9039,
      "ĠnÄĽÅ¾nÄĽ": 9040,
      "Ġoup": 9041,
      "Å¡enÃŃm": 9042,
      "Ġzmlk": 9043,
      "ĠtvÅ¯rce": 9044,
      "ĠnÃ¡vÅ¡tÄĽ": 9045,
      "Ġonou": 9046,
      "Ġdomek": 9047,
      "ĠpÅĻÃŃbu": 9048,
      "Ġston": 9049,
      "Ġzvonky": 9050,
      "zoval": 9051,
      "Ġazil": 9052,
      "ĠblÃ¡zen": 9053,
      "ĠpÅĻijmi": 9054,
      "rnÃ©ho": 9055,
      "rag": 9056,
      "Ġvyjas": 9057,
      "ĠdrazÃŃ": 9058,
      "ĠschÅ¯": 9059,
      "ĠveÅ¡ker": 9060,
      "Ġvho": 9061,
      "ĠpotÅ¯": 9062,
      "ĠÄĽÅĻil": 9063,
      "ĠÅ¾ivÄĽ": 9064,
      "Ġvrata": 9065,
      "ĠsnÄĽm": 9066,
      "ĠstÃ½skÃ¡": 9067,
      "Ġhol": 9068,
      "mit": 9069,
      "zela": 9070,
      "ĠÅ¡ÃŃpy": 9071,
      "Ġstarosti": 9072,
      "Ġsoucitu": 9073,
      "Å¾kou": 9074,
      "ĠvyÅĻ": 9075,
      "zet": 9076,
      "Ġtyra": 9077,
      "ĠhromÅ¯": 9078,
      "Ġotou": 9079,
      "ĠhustÃ½": 9080,
      "Ġhrdina": 9081,
      "Ġotcov": 9082,
      "ĠdÃ³": 9083,
      "lÃ©tla": 9084,
      "ĠouÄįi": 9085,
      "ĠpravÄĽ": 9086,
      "zali": 9087,
      "ĠhrdÃ¡": 9088,
      "ĠÅ¡Å¥Ã¡": 9089,
      "Ġchladu": 9090,
      "nskÃ©": 9091,
      "ĠzajÃ¡": 9092,
      "voru": 9093,
      "Ġjedou": 9094,
      "tÃ©Å¾": 9095,
      "Ġsup": 9096,
      "Ġnemohl": 9097,
      "Ġkapli": 9098,
      "ĠvÄĽdo": 9099,
      "ĠvÄĽsÃŃ": 9100,
      "ĠuÅ¾as": 9101,
      "ĠmlÄįel": 9102,
      "Ġhero": 9103,
      "ĠdceÅĻi": 9104,
      "ĠhoÅĻkÃ½": 9105,
      "ĠkadeÅĻ": 9106,
      "brat": 9107,
      "Ġsne": 9108,
      "Ġkoutku": 9109,
      "Å¾eny": 9110,
      "ĠmrtvÃ½m": 9111,
      "ĠhloÅ¾ÃŃ": 9112,
      "jetÃŃ": 9113,
      "ĠvÃŃrou": 9114,
      "Ġedle": 9115,
      "ĠsvornÄĽ": 9116,
      "Ġstromech": 9117,
      "Ġechce": 9118,
      "zena": 9119,
      "ĠblÃ¡to": 9120,
      "ĠzdravÃ½": 9121,
      "ĠtÃ¡hly": 9122,
      "Ġkostel": 9123,
      "ĠpolibkÅ¯": 9124,
      "Ġhavran": 9125,
      "ĠoÅĻen": 9126,
      "vajÃŃc": 9127,
      "Ġchar": 9128,
      "Ġyte": 9129,
      "ĠhlavnÃŃ": 9130,
      "ĠsyÄįÃŃ": 9131,
      "ĠkeÅĻe": 9132,
      "Ġumd": 9133,
      "zeno": 9134,
      "ĠtuÅ¾by": 9135,
      "ĠneustÃ¡le": 9136,
      "Ġptactvo": 9137,
      "stila": 9138,
      "ĠhoÅĻel": 9139,
      "ĠplazÃŃ": 9140,
      "ĠnejlÃŃp": 9141,
      "ĠlukÃ¡ch": 9142,
      "Ġchoval": 9143,
      "Ġprosby": 9144,
      "Ġzvedla": 9145,
      "ĠtisÃŃckrÃ¡t": 9146,
      "ĠdobrÃ©ho": 9147,
      "ĠzajistÃ©": 9148,
      "ĠvÄĽzÃŃ": 9149,
      "ĠpraÅ¾": 9150,
      "Ġzjevy": 9151,
      "ĠnimiÅ¾": 9152,
      "ĠhlÃŃny": 9153,
      "ĠvÃŃtej": 9154,
      "ĠnetopÃ½": 9155,
      "Ġibi": 9156,
      "Ġrozle": 9157,
      "ĠdÃ¡na": 9158,
      "ĠneumÃŃ": 9159,
      "Ġmodlitba": 9160,
      "ĠnevinnÃ©": 9161,
      "ĠskÅĻivÃ¡n": 9162,
      "ĠzoufalÃ½": 9163,
      "ĠkvetoucÃŃ": 9164,
      "rÃ¡Å¾e": 9165,
      "ĠnÄĽkam": 9166,
      "Ġnejkra": 9167,
      "ÄįenÃ½ch": 9168,
      "plnÃ½": 9169,
      "Ġkrajiny": 9170,
      "ĠvÄĽrnÃ½ch": 9171,
      "ĠhoÅĻkÃ©": 9172,
      "ĠvzdechÅ¯": 9173,
      "ĠkolÃ©ba": 9174,
      "hlÃŃÅ¾ÃŃ": 9175,
      "Äįelo": 9176,
      "Ġdomovu": 9177,
      "ĠaÄįky": 9178,
      "ram": 9179,
      "Ġpohod": 9180,
      "Ġzabu": 9181,
      "nalo": 9182,
      "lÃŃd": 9183,
      "Ġpara": 9184,
      "pati": 9185,
      "Ġobrazem": 9186,
      "Ġzora": 9187,
      "ĠeÄįna": 9188,
      "ĠzuÅĻÃŃ": 9189,
      "jatÃ©": 9190,
      "ĠnejdÅĻÃŃv": 9191,
      "Ġposko": 9192,
      "Ġnetr": 9193,
      "ĠtotiÅ¾": 9194,
      "Ġjinam": 9195,
      "ĠmÃ¡k": 9196,
      "ĠÃºÄį": 9197,
      "ĠÅ¡epot": 9198,
      "Ġvrahy": 9199,
      "Ġumlk": 9200,
      "Ġzlosti": 9201,
      "Ġsrp": 9202,
      "ĠiÅ¾il": 9203,
      "Ġhlase": 9204,
      "ĠprvnÄĽ": 9205,
      "Ġadli": 9206,
      "ĠdivÃŃ": 9207,
      "ĠbÃ¡zni": 9208,
      "ĠlÃ©k": 9209,
      "ĠkvÃŃtky": 9210,
      "ĠsnivÄĽ": 9211,
      "ĠdruhÃ½m": 9212,
      "Ġyny": 9213,
      "Ġvyno": 9214,
      "ĠbujÃŃ": 9215,
      "ĠlÃ¡ny": 9216,
      "ĠveselÃ¡": 9217,
      "ĠÄįinÅ¯m": 9218,
      "Ġukol": 9219,
      "tar": 9220,
      "ĠzÃ¡da": 9221,
      "ĠpÅĻijÃŃt": 9222,
      "Ġjedle": 9223,
      "ĠrozkoÅ¡i": 9224,
      "ĠpustÃ½ch": 9225,
      "ĠodpoÄįÃŃvÃ¡": 9226,
      "lkem": 9227,
      "ĠpÅ¡en": 9228,
      "Ġyru": 9229,
      "ĠranÃŃ": 9230,
      "ĠpÃŃsmo": 9231,
      "ĠdruhÃ©ho": 9232,
      "ĠskvÄĽlÃ©": 9233,
      "klÃ¡dÃ¡": 9234,
      "Ġzoufale": 9235,
      "ÃŃnÃ¡": 9236,
      "Ġchlou": 9237,
      "Ġpropas": 9238,
      "Ġykem": 9239,
      "ĠpÅĻÃŃjem": 9240,
      "ĠmÃŃst": 9241,
      "ĠplnÄĽ": 9242,
      "Ġzbloudil": 9243,
      "Ġtlukou": 9244,
      "ĠÃºtÄĽchu": 9245,
      "ĠstrÃ¡Å¾ce": 9246,
      "bci": 9247,
      "ĠchlÃ¡": 9248,
      "Ġpana": 9249,
      "ĠnÃ¡si": 9250,
      "Ġzdech": 9251,
      "Ġhluch": 9252,
      "Ġkamsi": 9253,
      "ĠmodlitbÄĽ": 9254,
      "Ġsmarag": 9255,
      "Ġvnuk": 9256,
      "ĠkÃ½m": 9257,
      "ĠseÅ¡li": 9258,
      "ĠrobÄĽ": 9259,
      "ĠÅ¾ezlo": 9260,
      "Ġfe": 9261,
      "Ġpoce": 9262,
      "ĠuÅ¡il": 9263,
      "ĠcenÃŃ": 9264,
      "ĠvÄĽdÃŃ": 9265,
      "ĠbolÅ¯": 9266,
      "ĠnÃ¡do": 9267,
      "dÃ¡n": 9268,
      "ĠvÄĽÄįnÃ©ho": 9269,
      "ĠsÃ¡h": 9270,
      "ĠnahÃ½": 9271,
      "ĠÄĽnÄĽ": 9272,
      "Ġpasu": 9273,
      "ĠnezmÄĽ": 9274,
      "Ġpoupat": 9275,
      "ĠmilÃ½ch": 9276,
[...]
