{
  "version": "1.0",
  "truncation": null,
  "padding": null,
  "added_tokens": [
    {
      "id": 0,
      "content": "<|EOS|>",
      "single_word": false,
      "lstrip": false,
      "rstrip": false,
      "normalized": false,
      "special": true
    },
    {
      "id": 1,
      "content": "<|PAD|>",
      "single_word": false,
      "lstrip": false,
      "rstrip": false,
      "normalized": false,
      "special": true
    },
    {
      "id": 2,
      "content": "<|UNK|>",
      "single_word": false,
      "lstrip": false,
      "rstrip": false,
      "normalized": false,
      "special": true
    }
  ],
  "normalizer": null,
  "pre_tokenizer": {
    "type": "ByteLevel",
    "add_prefix_space": false,
    "trim_offsets": true,
    "use_regex": true
  },
  "post_processor": {
    "type": "ByteLevel",
    "add_prefix_space": true,
    "trim_offsets": false,
    "use_regex": true
  },
  "decoder": {
    "type": "ByteLevel",
    "add_prefix_space": true,
    "trim_offsets": true,
    "use_regex": true
  },
  "model": {
    "type": "BPE",
    "dropout": null,
    "unk_token": null,
    "continuing_subword_prefix": null,
    "end_of_word_suffix": null,
    "fuse_unk": false,
    "byte_fallback": false,
    "vocab": {
      "<|EOS|>": 0,
      "<|PAD|>": 1,
      "<|UNK|>": 2,
      "!": 3,
      "#": 4,
      "+": 5,
      ",": 6,
      ".": 7,
      "/": 8,
      "0": 9,
      "1": 10,
      "2": 11,
      "3": 12,
      "4": 13,
      "5": 14,
      "6": 15,
      "7": 16,
      "8": 17,
      "9": 18,
      "=": 19,
      "?": 20,
      "A": 21,
      "B": 22,
      "C": 23,
      "D": 24,
      "E": 25,
      "H": 26,
      "I": 27,
      "J": 28,
      "K": 29,
      "L": 30,
      "M": 31,
      "N": 32,
      "O": 33,
      "P": 34,
      "Q": 35,
      "R": 36,
      "S": 37,
      "T": 38,
      "U": 39,
      "W": 40,
      "X": 41,
      "Y": 42,
      "Z": 43,
      "`": 44,
      "a": 45,
      "b": 46,
      "c": 47,
      "d": 48,
      "e": 49,
      "f": 50,
      "g": 51,
      "h": 52,
      "i": 53,
      "j": 54,
      "k": 55,
      "l": 56,
      "m": 57,
      "n": 58,
      "o": 59,
      "p": 60,
      "q": 61,
      "r": 62,
      "s": 63,
      "t": 64,
      "u": 65,
      "v": 66,
      "w": 67,
      "x": 68,
      "y": 69,
      "z": 70,
      "¡": 71,
      "¢": 72,
      "¤": 73,
      "¥": 74,
      "§": 75,
      "¨": 76,
      "©": 77,
      "«": 78,
      "®": 79,
      "¯": 80,
      "³": 81,
      "¶": 82,
      "º": 83,
      "»": 84,
      "¼": 85,
      "½": 86,
      "¾": 87,
      "Â": 88,
      "Ã": 89,
      "Ä": 90,
      "Å": 91,
      "â": 92,
      "Ċ": 93,
      "Ġ": 94,
      "Ģ": 95,
      "ĩ": 96,
      "Ī": 97,
      "į": 98,
      "ı": 99,
      "Ĵ": 100,
      "Ļ": 101,
      "ļ": 102,
      "Ľ": 103,
      "ł": 104,
      "Ń": 105,
      "Ġ#": 106,
      "Ġs": 107,
      "Ġn": 108,
      "Ġv": 109,
      "Ġt": 110,
      "ÃŃ": 111,
      "Ġk": 112,
      "Ġj": 113,
      "Ġp": 114,
      "Ġd": 115,
      "Ã¡": 116,
      "Ġ1": 117,
      "Ġm": 118,
      "Ġl": 119,
      "Ġz": 120,
      "ÄĽ": 121,
      "Ġb": 122,
      "ĠÅ": 123,
      "Ġh": 124,
      "Ġc": 125,
      "Ġa": 126,
      "Ġr": 127,
      "Ã½": 128,
      "Ġje": 129,
      "Ã©": 130,
      "Ġst": 131,
      "Ġse": 132,
      "ou": 133,
      "Ġne": 134,
      "Äį": 135,
      "Ġna": 136,
      "la": 137,
      "Ġ10": 138,
      "Ġ8": 139,
      "Ġo": 140,
      "em": 141,
      "Ġ11": 142,
      "ÅĻ": 143,
      "ch": 144,
      "Ġpo": 145,
      "Å¾": 146,
      "ak": 147,
      "ĠÅ¾": 148,
      "ĠÅ¡": 149,
      "ra": 150,
      "ĠÄį": 151,
      "Å¯": 152,
      "Ġch": 153,
      "Å¡": 154,
      "ĠnÃŃ": 155,
      "le": 156,
      "ro": 157,
      "st": 158,
      "Ġsv": 159,
      "Ġle": 160,
      "Ġza": 161,
      "Ġko": 162,
      "Ġho": 163,
      "XX": 164,
      "Ġto": 165,
      "Ġce": 166,
      "Ġdo": 167,
      "Ġte": 168,
      "Ġli": 169,
      "ĠÅĻ": 170,
      "al": 171,
      "il": 172,
      "Ġf": 173,
      "je": 174,
      "AB": 175,
      "Ġji": 176,
      "ĠnÄĽ": 177,
      "Ġ9": 178,
      "Ġti": 179,
      "Ġu": 180,
      "Ġla": 181,
      "Ġmi": 182,
      "Ġka": 183,
      "Ġve": 184,
      "Ġno": 185,
      "Ġro": 186,
      "li": 187,
      "ĠnÃ¡": 188,
      "Ġta": 189,
      "ĠnÃ½": 190,
      "Ġjak": 191,
      "ĠÅ¾e": 192,
      "Ġby": 193,
      "lo": 194,
      "rÃ¡": 195,
      "ĠjÃŃ": 196,
      "ÅĻe": 197,
      "Ġ19": 198,
      "Ġ7": 199,
      "ĠnÃ©": 200,
      "ne": 201,
      "Ġku": 202,
      "Ġsk": 203,
      "Ġky": 204,
      "Ġjs": 205,
      "en": 206,
      "Ġdu": 207,
      "Ġmu": 208,
      "Ġni": 209,
      "ĠvÃ¡": 210,
      "Ġlo": 211,
      "Ġmo": 212,
      "Ne": 213,
      "Ġkd": 214,
      "ĠtÄĽ": 215,
      "ĠvÄĽ": 216,
      "Ġpro": 217,
      "ĠtÃŃ": 218,
      "Ġtv": 219,
      "lu": 220,
      "Ġvo": 221,
      "ĠÅ¡e": 222,
      "ĠvÅ¡": 223,
      "NI": 224,
      "Ġtu": 225,
      "Ġvi": 226,
      "Ġva": 227,
      "Ġbo": 228,
      "Ġsp": 229,
      "Ġjen": 230,
      "Ġpa": 231,
      "Ġvy": 232,
      "Ġ6": 233,
      "ĠÄįe": 234,
      "Ġde": 235,
      "ÅĻÃŃ": 236,
      "ru": 237,
      "ĠvÃŃ": 238,
      "Ġru": 239,
      "Ġci": 240,
      "Ġvz": 241,
      "Ġ12": 242,
      "Ġnou": 243,
      "ĠdÄĽ": 244,
      "Ġze": 245,
      "Ġja": 246,
      "Ġma": 247,
      "Ġco": 248,
      "ĠdÃŃ": 249,
      "Ġnu": 250,
      "ĠdÃ¡": 251,
      "Ġ18": 252,
      "Ġbe": 253,
      "Ġi": 254,
      "Ġsi": 255,
      "Ti": 256,
      "ĠcÃŃ": 257,
      "Ġsta": 258,
      "Ġme": 259,
      "Ġg": 260,
      "Im": 261,
      "ce": 262,
      "ĠmÄĽ": 263,
      "sk": 264,
      "te": 265,
      "Re": 266,
      "Ġbu": 267,
      "Ġny": 268,
      "de": 269,
      "ĠÅ¡ÃŃ": 270,
      "Ã½ch": 271,
      "no": 272,
      "ĠAB": 273,
      "Ġsm": 274,
      "ĠZ": 275,
      "na": 276,
      "Ġda": 277,
      "Ġzv": 278,
      "00": 279,
      "lÃ¡": 280,
      "ĠÄįÃŃ": 281,
      "Ġra": 282,
      "Ġtak": 283,
      "Ġ1900": 284,
      "Å¥": 285,
      "rA": 286,
      "ĠÅĻe": 287,
      "ĠmÃ¡": 288,
      "XXXX": 289,
      "Ġdi": 290,
      "ĠlÃŃ": 291,
      "Ġhla": 292,
      "XA": 293,
      "Ġly": 294,
      "Ġ13": 295,
      "Ġsti": 296,
      "di": 297,
      "Ġty": 298,
      "Ġjsem": 299,
      "ÅĻi": 300,
      "ĠpÅĻe": 301,
      "ĠlÃ¡": 302,
      "Ġdy": 303,
      "Se": 304,
      "ĠkÃ¡": 305,
      "ĠÅĻÃŃ": 306,
      "Ġkdy": 307,
      "ĠÅ¾i": 308,
      "ho": 309,
      "vÄĽ": 310,
      "Ġsl": 311,
      "ĠÅ¾ÃŃ": 312,
      "Ix": 313,
      "ĠABAB": 314,
      "Ġbi": 315,
      "Te": 316,
      "ĠÄįi": 317,
      "ĠrÃ¡": 318,
      "Ni": 319,
      "ĠvÃ½": 320,
      "nÄĽ": 321,
      "va": 322,
      "ĠvÅ¡e": 323,
      "ĠA": 324,
      "Ġha": 325,
      "80": 326,
      "Ġ1880": 327,
      "ĠmÃŃ": 328,
      "RI": 329,
      "Ġsa": 330,
      "Ġzd": 331,
      "ĠstÃŃ": 332,
      "TI": 333,
      "ĠbÄĽ": 334,
      "Ġpra": 335,
      "20": 336,
      "ni": 337,
      "ĠC": 338,
      "ĠXXXX": 339,
      "Ġx": 340,
      "Ġhle": 341,
      "ĠvÃ©": 342,
      "Ġpe": 343,
      "ĠkrÃ¡": 344,
      "ĠsÃŃ": 345,
      "Ġba": 346,
      "ĠsvÄĽ": 347,
      "ĠtÃ¡": 348,
      "Ġlu": 349,
      "Ġpr": 350,
      "Ã½m": 351,
      "ĠÃ": 352,
      "Äı": 353,
      "Ġsla": 354,
      "Ġkou": 355,
      "ĠzÃ¡": 356,
      "nE": 357,
      "Ġ1920": 358,
      "Ġhu": 359,
      "Ġkr": 360,
      "Ġod": 361,
      "Ġten": 362,
      "Ġroz": 363,
      "vo": 364,
      "po": 365,
      "nÃŃ": 366,
      "ĠÅ¡i": 367,
      "vje": 368,
      "ÅĪ": 369,
      "lÃŃ": 370,
      "ĠtÃ©": 371,
      "ĠkÃ©": 372,
      "Ġtr": 373,
      "Ġtam": 374,
      "Am": 375,
      "ko": 376,
      "ĠlÃ©": 377,
      "ka": 378,
      "..": 379,
      "to": 380,
      "lI": 381,
      "ĠpÅĻi": 382,
      "Ġsy": 383,
      "De": 384,
      "nu": 385,
      "Ġmy": 386,
      "ĠkdyÅ¾": 387,
      "Ġsto": 388,
      "Ri": 389,
      "vI": 390,
      "vÃŃ": 391,
      "rd": 392,
      "Ġsu": 393,
      "Å¯j": 394,
      "ci": 395,
      "Ġso": 396,
      "jI": 397,
      "ĠjÃ¡": 398,
      "vi": 399,
      "du": 400,
      "Ġ5": 401,
      "ĠAAB": 402,
      "Ġchu": 403,
      "Ġvu": 404,
      "Ġslu": 405,
      "ĠpÃŃ": 406,
      "ĠkÅ¯": 407,
      "Ġvs": 408,
      "do": 409,
      "ĠnÃ½ch": 410,
      "ĠsvÃ©": 411,
      "Ġdl": 412,
      "ĠhÃ¡": 413,
      "ĠÅĻi": 414,
      "Ġzas": 415,
      "Ġcho": 416,
      "ĠzÃŃ": 417,
      "at": 418,
      "Ġry": 419,
      "ĠvÅ¡ak": 420,
      "ĠXA": 421,
      "ku": 422,
      "ĠbÃŃ": 423,
      "Ġpla": 424,
      "Ġkem": 425,
      "Ġvla": 426,
      "ki": 427,
      "as": 428,
      "lA": 429,
      "nA": 430,
      "ĠZe": 431,
      "Ġnad": 432,
      "Ġre": 433,
      "Ġval": 434,
      "me": 435,
      "ĠstÃ¡": 436,
      "ĠkÃ½": 437,
      "ĠpÃ¡": 438,
      "Ġvje": 439,
      "Ġkde": 440,
      "ĠS": 441,
      "DI": 442,
      "Ġzp": 443,
      "Ġkte": 444,
      "bo": 445,
      "Ġpu": 446,
      "nI": 447,
      "ĠAABB": 448,
      "ĠlÃ½": 449,
      "Ġtem": 450,
      "Ġpak": 451,
      "vA": 452,
      "ve": 453,
      "Ġhy": 454,
      "Ġste": 455,
      "Ġslo": 456,
      "bi": 457,
      "Ġbra": 458,
      "ĠpÄĽ": 459,
      "Ġpod": 460,
      "Ġzla": 461,
      "Ġob": 462,
      "Ġsrd": 463,
      "Ġhro": 464,
      "ĠÃº": 465,
      "ĠjiÅ¾": 466,
      "Di": 467,
      "40": 468,
      "Ġzm": 469,
      "ĠsÃ¡": 470,
      "tÄĽ": 471,
      "Ġjed": 472,
      "Ġden": 473,
      "Ġmne": 474,
      "Ġbyl": 475,
      "Ġe": 476,
      "Ġtou": 477,
      "Ġgdi": 478,
      "Ġjest": 479,
      "Ġkle": 480,
      "Ġjej": 481,
      "ĠpÅĻÃŃ": 482,
      "Ġvp": 483,
      "nÃ¡": 484,
      "ĠXAXA": 485,
      "Ġkla": 486,
      "ĠpRe": 487,
      "Ġbez": 488,
      "Ġzem": 489,
      "Ġdra": 490,
      "ĠvI": 491,
      "ĠjeÅ¾": 492,
      "ĠnÃ½m": 493,
      "ĠvÅ¾": 494,
      "Ġdne": 495,
      "Ġdou": 496,
      "Ġbou": 497,
      "Ġsna": 498,
      "Ġpl": 499,
      "Ġlem": 500,
      "ĠmÃ©": 501,
      "dy": 502,
      "rak": 503,
      "ĠnÃŃm": 504,
      "Ġvt": 505,
      "Ġvou": 506,
      "it": 507,
      "ĠtÃ½": 508,
      "ĠdÃ©": 509,
      "Ġstra": 510,
      "Ġspo": 511,
      "ĠfS": 512,
      "mu": 513,
      "Ġsem": 514,
      "Ġbla": 515,
      "er": 516,
      "Qt": 517,
      "Ġhra": 518,
      "Ġot": 519,
      "ĠbÃ¡": 520,
      "Ġnem": 521,
      "Ġzb": 522,
      "lÃ©": 523,
      "ĠmNe": 524,
      "ĠdÃ½": 525,
      "Ġsvo": 526,
      "ĠlÃ¡s": 527,
      "ĠfSe": 528,
      "Ġzi": 529,
      "ĠkvÄĽ": 530,
      "CC": 531,
      "Ġjsi": 532,
      "Ġdru": 533,
      "Ġon": 534,
      "Ġcha": 535,
      "ĠTi": 536,
      "Ġkra": 537,
      "Ġneb": 538,
      "Ġnej": 539,
      "Ġbil": 540,
      "ĠnA": 541,
      "ĠNi": 542,
      "ut": 543,
      "ĠÄįer": 544,
      "Ġkdo": 545,
      "Ġhr": 546,
      "Ze": 547,
      "Ġhou": 548,
      "ta": 549,
      "lE": 550,
      "lou": 551,
      "mi": 552,
      "ĠvÅ¾dy": 553,
      "SI": 554,
      "sTi": 555,
      "Ġvra": 556,
      "Ġdla": 557,
      "...": 558,
      "Ġble": 559,
      "Ġsle": 560,
      "Ġsou": 561,
      "Ġstu": 562,
      "ha": 563,
      "ĠnÃ¡m": 564,
      "Ġslun": 565,
      "ĠTe": 566,
      "ĠchÃ¡": 567,
      "Ġ15": 568,
      "ĠjenÅ¾": 569,
      "Ġvel": 570,
      "Ġnes": 571,
      "Ġ14": 572,
      "Ġjich": 573,
      "Ġpou": 574,
      "Ġzde": 575,
      "Ġlou": 576,
      "ĠaÅ¾": 577,
      "ma": 578,
      "ze": 579,
      "Ġkol": 580,
      "ĠXXXXXX": 581,
      "Ġzo": 582,
      "cI": 583,
      "Å¯m": 584,
      "CI": 585,
      "60": 586,
      "Ġpi": 587,
      "Ġkli": 588,
      "Ġvr": 589,
      "Ce": 590,
      "ĠtvÃ¡": 591,
      "ĠÃ³": 592,
      "ĠpÅĻed": 593,
      "ĠzA": 594,
      "ji": 595,
      "Ã©m": 596,
      "ĠÅ¡el": 597,
      "Ġke": 598,
      "da": 599,
      "Ġsva": 600,
      "ĠdÄĽl": 601,
      "mo": 602,
      "Ġstro": 603,
      "Ġdal": 604,
      "Ġdnes": 605,
      "ĠÄįa": 606,
      "ĠdA": 607,
      "ĠjeS": 608,
      "vE": 609,
      "ĠrÅ¯": 610,
      "ĠZi": 611,
      "ĠgdiS": 612,
      "Ġtvo": 613,
      "ri": 614,
      "Ġ4": 615,
      "ĠprÃ¡": 616,
      "se": 617,
      "Ġlid": 618,
      "ĠkrA": 619,
      "Ġzvo": 620,
      "Ġchy": 621,
      "ĠteÄı": 622,
      "ĠjeÅ¡": 623,
      "ste": 624,
      "Ġzu": 625,
      "ĠpRi": 626,
      "Ġsvje": 627,
      "ti": 628,
      "Ġsli": 629,
      "Ġsvou": 630,
      "Ġsly": 631,
      "Ġdr": 632,
      "Ġnez": 633,
      "si": 634,
      "kA": 635,
      "ĠsQt": 636,
      "Ġmla": 637,
      "ĠplÃ¡": 638,
      "Ġ16": 639,
      "ZI": 640,
      "Ġpoz": 641,
      "Ġkro": 642,
      "ĠbÃ½": 643,
      "ĠtÃŃm": 644,
      "Ġhe": 645,
      "Ġjsme": 646,
      "sta": 647,
      "dA": 648,
      "Ġhlu": 649,
      "ĠmÅ¯": 650,
      "ĠmA": 651,
      "Ġpt": 652,
      "ĠnÃ©m": 653,
      "Ġtom": 654,
      "ĠuÅ¾": 655,
      "ĠkaÅ¾": 656,
      "Ġ1940": 657,
      "Ġdem": 658,
      "ĠjA": 659,
      "ĠtÅĻe": 660,
      "Ġvd": 661,
      "Ġbr": 662,
      "Uj": 663,
      "Ġjsou": 664,
      "ĠDe": 665,
      "Ġjako": 666,
      "Ġkam": 667,
      "BA": 668,
      "ĠmÅ¯j": 669,
      "Ġzrak": 670,
      "Ġmno": 671,
      "ĠvÅ¯": 672,
      "Ġvk": 673,
      "ĠfSak": 674,
      "Ġjas": 675,
      "vÄĽz": 676,
      "Ġmat": 677,
      "ĠU": 678,
      "ĠvÅ¡ech": 679,
      "Ġhlas": 680,
      "Ġjem": 681,
      "ĠrÃ½": 682,
      "val": 683,
      "Ġvl": 684,
      "Ġsnad": 685,
      "Ġjim": 686,
      "ĠbI": 687,
      "ĠstÄĽ": 688,
      "Ġzra": 689,
      "Ġtra": 690,
      "ĠmnÄĽ": 691,
      "mNe": 692,
      "Ġnech": 693,
      "Ġstr": 694,
      "ĠskÃ©": 695,
      "Ġgde": 696,
      "Ci": 697,
      "Ġzy": 698,
      "Ġtro": 699,
      "ĠsvE": 700,
      "ĠrÃ©": 701,
      "ĠhvÄĽz": 702,
      "ĠstvÃŃ": 703,
      "ĠÅ¾Ã¡": 704,
      "ĠsvÄĽt": 705,
      "ĠhÃ½": 706,
      "Si": 707,
      "Ġrou": 708,
      "ĠsÃ¡m": 709,
      "ĠtvÃ©": 710,
      "Ġmr": 711,
      "ĠABBA": 712,
      "Ġmra": 713,
      "nou": 714,
      "Ġbych": 715,
      "ĠCe": 716,
      "ĠneÅ¾": 717,
      "ly": 718,
      "ÅĻÃ¡": 719,
      "ĠlA": 720,
      "bje": 721,
      "Ġ1860": 722,
      "vu": 723,
      "Ġles": 724,
      "ĠnÅ¯": 725,
      "mI": 726,
      "ĠvÃ¡m": 727,
      "ĠsnÃŃ": 728,
      "Ġju": 729,
      "tu": 730,
      "ĠdÃ¡l": 731,
      "ĠtÅ¯": 732,
      "Ġ1840": 733,
      "vÃ¡": 734,
      "Ġdle": 735,
      "Ġsil": 736,
      "Ġsmut": 737,
      "ĠNI": 738,
      "Ġhne": 739,
      "ĠvÅ¡ec": 740,
      "Ġzda": 741,
      "Ġzlo": 742,
      "Ġmou": 743,
      "ĠchvÃŃ": 744,
      "ĠstÅĻe": 745,
      "ĠaÅ¥": 746,
      "Ġkre": 747,
      "Ġri": 748,
      "Ġsko": 749,
      "ĠbÅ¯": 750,
      "Ġmar": 751,
      "Ġtil": 752,
      "Ġmlu": 753,
      "Ġvot": 754,
      "Ġsen": 755,
      "Ġple": 756,
      "xo": 757,
      "nIx": 758,
      "Ġmoc": 759,
      "Ġnost": 760,
      "sTI": 761,
      "be": 762,
      "Ġan": 763,
      "ĠDI": 764,
      "Ġzt": 765,
      "Ġsn": 766,
      "ĠnÃ¡s": 767,
      "sI": 768,
      "Ġvst": 769,
      "ĠzpÄĽ": 770,
      "Ġmil": 771,
      "ĠjiS": 772,
      "Ġpy": 773,
      "ĠcÃŃch": 774,
      "lÃ½": 775,
      "ĠAA": 776,
      "ĠvA": 777,
      "Ġtel": 778,
      "hu": 779,
      "Ġnul": 780,
      "Ġjeho": 781,
      "Ġvil": 782,
      "ĠkrÃ¡s": 783,
      "ĠkÅĻÃŃ": 784,
      "Ġnoc": 785,
      "Ġlet": 786,
      "zi": 787,
      "Ġklo": 788,
      "ĠrA": 789,
      "Ġdlou": 790,
      "Ġchem": 791,
      "Ġvat": 792,
      "ĠvÄĽÄį": 793,
      "ĠchvÄĽ": 794,
      "Ġstou": 795,
      "Ġzve": 796,
      "ĠmÄĽl": 797,
      "ĠzÅĻÃŃ": 798,
      "Ġrem": 799,
      "Ġdost": 800,
      "Ġvh": 801,
      "ĠlÅ¯": 802,
      "ĠsQtce": 803,
      "bu": 804,
      "Ġven": 805,
      "sa": 806,
      "Ġtru": 807,
      "Ġslad": 808,
      "ĠdÅ¯": 809,
      "Ġbes": 810,
      "Ġvm": 811,
      "Ġnn": 812,
      "ĠznÃ¡": 813,
      "Ġsmr": 814,
      "ĠvÅĻe": 815,
      "Ġprav": 816,
      "Ġhor": 817,
      "tA": 818,
      "nIm": 819,
      "Ġtla": 820,
      "ĠslÃ¡": 821,
      "Ġvem": 822,
      "ĠN": 823,
      "ĠzdÃ¡": 824,
      "ili": 825,
      "Ġzh": 826,
      "ĠpRI": 827,
      "Em": 828,
      "ad": 829,
      "Ġzvu": 830,
      "ĠptÃ¡": 831,
      "ali": 832,
      "ĠNe": 833,
      "Ġnic": 834,
      "Ġskr": 835,
      "ĠchtÄĽ": 836,
      "Ġsf": 837,
      "Ġpoh": 838,
      "Ġkru": 839,
      "ĠÅ¡tÄĽ": 840,
      "Ġsty": 841,
      "Ġtek": 842,
      "Ġpos": 843,
      "Ġnik": 844,
      "Ġdil": 845,
      "Ġsvjet": 846,
      "ĠtÅĻÃŃ": 847,
      "Ġoh": 848,
      "ĠsvÃŃ": 849,
      "ĠtE": 850,
      "ĠpI": 851,
      "Ġjste": 852,
      "Ġklid": 853,
      "Ġmen": 854,
      "Ġml": 855,
      "Zdi": 856,
      "ĠhÃ©": 857,
      "ĠbÅ¯h": 858,
      "ĠvrÃ¡": 859,
      "ĠkvÄĽt": 860,
      "ĠlAsk": 861,
      "ĠvÃ½ch": 862,
      "Ġpot": 863,
      "ĠSe": 864,
      "Ġsud": 865,
      "ĠvÃŃc": 866,
      "ĠÄįas": 867,
      "Ġnek": 868,
      "ĠvÃŃm": 869,
      "ba": 870,
      "ĠpA": 871,
      "Ġnep": 872,
      "Ġus": 873,
      "ast": 874,
      "ĠmI": 875,
      "ĠjI": 876,
      "ĠskÃ¡": 877,
      "kU": 878,
      "Ġdn": 879,
      "ĠblÃŃ": 880,
      "ĠÅ¡le": 881,
      "Ġzje": 882,
      "Ġpad": 883,
      "Ġzk": 884,
      "ĠlI": 885,
      "Ġvlast": 886,
      "Ġkal": 887,
      "ĠnAm": 888,
      "ĠbÅĻe": 889,
      "lad": 890,
      "ĠdÅĻÃŃ": 891,
      "Ġjde": 892,
      "ĠsvÅ¯j": 893,
      "zI": 894,
      "Ġdiv": 895,
      "tom": 896,
      "ĠÅ¾il": 897,
      "Ġvpo": 898,
      "ĠleÄį": 899,
      "Ġgdo": 900,
      "Ġrod": 901,
      "ĠstA": 902,
      "ĠbrÃ¡": 903,
      "hi": 904,
      "ĠXX": 905,
      "ĠjenS": 906,
      "ĠsmÄĽ": 907,
      "ĠnÄĽj": 908,
      "lem": 909,
      "xu": 910,
      "ĠÄįek": 911,
      "Ġks": 912,
      "ĠsmÃŃ": 913,
      "Ġspa": 914,
      "Ġdob": 915,
      "Ġvol": 916,
      "ĠvÄį": 917,
      "ĠvlÃ¡": 918,
      "Ġhru": 919,
      "Ġdli": 920,
      "sÅ¥": 921,
      "ĠÄįlo": 922,
      "ĠkÃ½ch": 923,
      "ĠpÅ¯": 924,
      "ĠpÃŃs": 925,
      "ĠmE": 926,
      "ĠaS": 927,
      "kem": 928,
      "tÃŃ": 929,
      "ĠtÃ©Å¾": 930,
      "ĠvZdi": 931,
      "Ġhl": 932,
      "Ġnat": 933,
      "ĠtvÅ¯j": 934,
      "ĠvÃ½m": 935,
      "Ġvle": 936,
      "kE": 937,
      "ĠskÃ½": 938,
      "ĠkÅĻi": 939,
      "ĠÅ¡u": 940,
      "Ġhned": 941,
      "ĠAABBCC": 942,
      "Ġslav": 943,
      "ĠRe": 944,
      "ĠspÄĽ": 945,
      "Ġlit": 946,
      "ĠkrÃ¡t": 947,
      "ĠsvÃ½ch": 948,
      "men": 949,
      "ĠO": 950,
      "ĠvnÄĽ": 951,
      "Ġfa": 952,
      "ĠÅĪ": 953,
      "ĠpQ": 954,
      "Ã¡t": 955,
      "ĠseÅĪ": 956,
      "ĠAAXX": 957,
      "hA": 958,
      "Ġchce": 959,
      "ĠsÅ¯": 960,
      "Ġdech": 961,
      "ĠÅ¡li": 962,
      "TIm": 963,
      "Ġach": 964,
      "Ãº": 965,
      "pi": 966,
      "ĠmÃ¡m": 967,
      "ĠsnÄĽ": 968,
      "Ġsled": 969,
      "ĠDi": 970,
      "Ġdro": 971,
      "Ġcem": 972,
      "rI": 973,
      "ĠproÄį": 974,
      "Ġhem": 975,
      "ĠhrÃ¡": 976,
      "ĠbuÄı": 977,
      "nich": 978,
      "ĠnÃ¡Å¡": 979,
      "rE": 980,
      "ĠtÄĽch": 981,
      "ĠÄįÃŃm": 982,
      "ĠjÃŃm": 983,
      "ĠnÃŃk": 984,
      "Ġnom": 985,
      "ĠvÃ¡s": 986,
      "ĠuS": 987,
      "ĠsvÃ½m": 988,
      "Ġdva": 989,
      "ĠvÄĽk": 990,
      "Ġsh": 991,
      "re": 992,
      "ĠCi": 993,
      "Ġnil": 994,
      "ĠkaZ": 995,
      "Zi": 996,
      "ĠdÃŃm": 997,
      "vÃ©": 998,
      "Ġdej": 999,
      "ĠrÃ¡d": 1000,
      "sp": 1001,
      "ĠNem": 1002,
      "ĠÅ¡ÃŃm": 1003,
      "ĠpÅĻec": 1004,
      "ĠZivo": 1005,
      "ĠtÄĽÅ¾": 1006,
      "ĠÅ¡la": 1007,
      "Ġhled": 1008,
      "RA": 1009,
      "Ġpil": 1010,
      "kI": 1011,
      "Ġnec": 1012,
      "Ġkrev": 1013,
      "ĠzvÄĽ": 1014,
      "Ġsx": 1015,
      "Ġkvje": 1016,
      "ĠcÅ¯": 1017,
      "ĠspÃŃ": 1018,
      "nost": 1019,
      "ĠknÄĽ": 1020,
      "ĠslÃŃ": 1021,
      "skE": 1022,
      "Ġvzdu": 1023,
      "ĠteT": 1024,
      "Ġdlo": 1025,
      "Ġkon": 1026,
      "Ġsch": 1027,
      "ar": 1028,
      "ĠprA": 1029,
      "Ġop": 1030,
      "ĠpÅĻÃ¡": 1031,
      "Ġvtom": 1032,
      "RIm": 1033,
      "Ġkve": 1034,
      "Ġkry": 1035,
      "Ġnout": 1036,
      "Ã¡l": 1037,
      "ĠÅ¥": 1038,
      "ĠvÃ¡Å¡": 1039,
      "ĠstÃ©": 1040,
      "Ġtma": 1041,
      "ĠnÃŃch": 1042,
      "Ġbro": 1043,
      "Um": 1044,
      "Ġcit": 1045,
      "Ġkne": 1046,
      "ĠÅ¾a": 1047,
      "ĠneS": 1048,
      "NIm": 1049,
      "ĠÄįil": 1050,
      "ĠzÅĻe": 1051,
      "ĠznÃŃ": 1052,
      "ĠCer": 1053,
      "ĠzpÃŃ": 1054,
      "ĠplA": 1055,
      "ĠhÅĻÃŃ": 1056,
      "Ġnebe": 1057,
      "ĠbÃ½t": 1058,
      "Ġok": 1059,
      "Ġzna": 1060,
      "ĠdAl": 1061,
      "Ġpom": 1062,
      "Ġspje": 1063,
      "Ġzbo": 1064,
      "ĠkÃ½m": 1065,
      "ĠtvA": 1066,
      "Ġprv": 1067,
      "Ġzno": 1068,
      "ĠpÅĻes": 1069,
      "ja": 1070,
      "ĠABABCC": 1071,
      "ĠmÃ½": 1072,
      "ĠÅ¾en": 1073,
      "Ġtlu": 1074,
      "Ġtm": 1075,
      "ĠCas": 1076,
      "dI": 1077,
      "ĠvnÄĽm": 1078,
      "ĠdÃ¡v": 1079,
      "Ġslou": 1080,
      "ĠnÄĽm": 1081,
      "Ġvb": 1082,
      "vil": 1083,
      "ĠÅĻil": 1084,
      "Ġjd": 1085,
      "Ġkl": 1086,
      "Ġnex": 1087,
      "Ġpje": 1088,
      "Ġboj": 1089,
      "Ġtaj": 1090,
      "Ġzou": 1091,
      "ĠtÅĻi": 1092,
      "ĠspÃ¡": 1093,
      "Ġale": 1094,
      "Ġvdu": 1095,
      "Ġnal": 1096,
      "Ġlen": 1097,
      "ĠstrÃ¡": 1098,
      "vIm": 1099,
      "Ġplo": 1100,
      "ĠduSe": 1101,
      "ĠmUj": 1102,
      "Ġfi": 1103,
      "pI": 1104,
      "ĠstÅĻÃŃ": 1105,
      "ĠchÃ½": 1106,
      "Ġtva": 1107,
      "Ġpal": 1108,
      "ĠjeSTe": 1109,
      "ĠmuÅ¾": 1110,
      "ĠfSex": 1111,
      "Ġprou": 1112,
      "Ġpan": 1113,
      "Ġdvo": 1114,
      "pe": 1115,
      "AX": 1116,
      "ĠskÃ½ch": 1117,
      "Ġlil": 1118,
      "led": 1119,
      "Ġos": 1120,
      "ĠchtÄĽl": 1121,
      "ĠsI": 1122,
      "Ġsed": 1123,
      "AA": 1124,
      "Ġduch": 1125,
      "ĠnAs": 1126,
      "Ġvod": 1127,
      "nul": 1128,
      "ĠdÃ¡m": 1129,
      "ĠklÃŃ": 1130,
      "Ġ3": 1131,
      "bI": 1132,
      "Ġves": 1133,
      "ĠchrÃ¡": 1134,
      "Ġkri": 1135,
      "ĠkvÃŃ": 1136,
      "len": 1137,
      "Ġstal": 1138,
      "sko": 1139,
      "ĠcI": 1140,
      "ĠhÅ¯": 1141,
      "Ġmal": 1142,
      "vat": 1143,
      "Ġvsrd": 1144,
      "ĠABABXX": 1145,
      "ĠtvÃ¡ÅĻ": 1146,
      "Til": 1147,
      "At": 1148,
      "Ġpru": 1149,
      "Ġvzpo": 1150,
      "zd": 1151,
      "pa": 1152,
      "Ġsni": 1153,
      "ĠznÄĽ": 1154,
      "enE": 1155,
      "Ġkraj": 1156,
      "ĠmlÃ¡": 1157,
      "ĠpL": 1158,
      "Ġ1960": 1159,
      "sto": 1160,
      "let": 1161,
      "Ġrov": 1162,
      "ĠaT": 1163,
      "ĠsTI": 1164,
      "Del": 1165,
      "ĠpÄĽt": 1166,
      "Ġdruh": 1167,
      "ĠtrÃ¡": 1168,
      "Ġtlo": 1169,
      "ĠstÃ½": 1170,
      "Ġmoh": 1171,
      "Ġlost": 1172,
      "ĠdÄĽt": 1173,
      "Ġmd": 1174,
      "ĠnÄĽk": 1175,
      "ĠZen": 1176,
      "ĠvÄĽr": 1177,
      "ĠdÃŃv": 1178,
      "Ġhroz": 1179,
      "Ġcest": 1180,
      "Ġbude": 1181,
      "Ġvoj": 1182,
      "Ġvne": 1183,
      "ĠkrÃ¡l": 1184,
      "dE": 1185,
      "ĠvÅ¾dyÅ¥": 1186,
      "ĠpÃ¡n": 1187,
      "Ġplu": 1188,
      "Ġhvje": 1189,
      "ĠrU": 1190,
      "ĠnÃ¡ch": 1191,
      "ĠvzÃ¡": 1192,
      "ĠtÃ½ch": 1193,
      "ĠfSec": 1194,
      "ĠhnÄĽ": 1195,
      "ĠkrAs": 1196,
      "xA": 1197,
      "Ġsne": 1198,
      "nEm": 1199,
      "ĠdeÅ¡": 1200,
      "Ġsnat": 1201,
      "ĠvÃ©m": 1202,
      "tem": 1203,
      "Ġ17": 1204,
      "ĠlÃ½ch": 1205,
      "ĠdlÃŃ": 1206,
      "ĠjejI": 1207,
      "ĠkÃ©m": 1208,
      "ej": 1209,
      "ĠchÅ¯": 1210,
      "ĠsvÃ¡": 1211,
      "Ġstvo": 1212,
      "Ġkni": 1213,
      "Ġbje": 1214,
      "Ġmnou": 1215,
      "Ġper": 1216,
      "Ġdar": 1217,
      "Ġmod": 1218,
      "ĠspI": 1219,
      "Ġbal": 1220,
      "ĠsÃŃc": 1221,
      "ĠcÃŃm": 1222,
      "ĠduSi": 1223,
      "ĠvU": 1224,
      "ĠmÃŃr": 1225,
      "ĠtvE": 1226,
      "Ġvzp": 1227,
      "ĠtvÃŃ": 1228,
      "nem": 1229,
      "ĠÅ¾el": 1230,
      "Ġsvit": 1231,
      "Ġhod": 1232,
      "ĠtvÃ½ch": 1233,
      "Ġpev": 1234,
      "ĠstÃŃn": 1235,
      "Ġxo": 1236,
      "ĠÅĻÃ¡": 1237,
      "nal": 1238,
      "ĠvL": 1239,
      "Ġpoj": 1240,
      "Ġvzde": 1241,
      "xa": 1242,
      "ĠkQ": 1243,
      "spo": 1244,
      "Ġstej": 1245,
      "Ġchlad": 1246,
      "Ġsvat": 1247,
      "ĠvjeC": 1248,
      "Sel": 1249,
      "ĠkÃ¡ch": 1250,
      "Ġstat": 1251,
      "ĠklÃ¡": 1252,
      "Ġslat": 1253,
      "tel": 1254,
      "Ġjo": 1255,
      "Ġjix": 1256,
      "ĠpÅĻij": 1257,
      "ĠZA": 1258,
      "ĠÅ¡a": 1259,
      "ĠknÃŃ": 1260,
      "ĠvÄįe": 1261,
      "ĠhlÃŃ": 1262,
      "rem": 1263,
      "Ġzro": 1264,
      "ĠÅ¡Å¥": 1265,
      "ĠneNI": 1266,
      "ĠÅĻa": 1267,
      "ilo": 1268,
      "ĠXXAA": 1269,
      "ĠbA": 1270,
      "Ġblou": 1271,
      "ĠÅĻek": 1272,
      "Ġvna": 1273,
      "ĠzÅ¯": 1274,
      "Ġbix": 1275,
      "ĠvÅ¡em": 1276,
      "Ġleh": 1277,
      "ĠRI": 1278,
      "ĠtÅĻ": 1279,
      "ĠdrÃ¡": 1280,
      "ĠneÄį": 1281,
      "ĠsAm": 1282,
      "Ġblesk": 1283,
      "Ġsbo": 1284,
      "Ġzel": 1285,
      "Ġskal": 1286,
      "Ġvno": 1287,
      "ĠjuÅ¾": 1288,
      "Ġchle": 1289,
      "nAm": 1290,
      "ĠcoÅ¾": 1291,
      "ĠÄįes": 1292,
      "Ġjm": 1293,
      "Ġmrak": 1294,
      "Ġvch": 1295,
      "ĠneÅ¡": 1296,
      "Ġhlou": 1297,
      "Ġtis": 1298,
      "Ġbar": 1299,
      "Ġtal": 1300,
      "tek": 1301,
      "cem": 1302,
      "Ġzpo": 1303,
      "sT": 1304,
      "ĠsvÃ©m": 1305,
      "ĠmÃ½ch": 1306,
      "Ġjar": 1307,
      "Ġtan": 1308,
      "Ġpat": 1309,
      "Ġjin": 1310,
      "Ġzlat": 1311,
      "CCB": 1312,
      "Ġfe": 1313,
      "ĠSTe": 1314,
      "ĠÅ¡tÃŃ": 1315,
      "ĠpRet": 1316,
      "Ġvit": 1317,
      "ĠĠ": 1318,
      "ĠaÄį": 1319,
      "Ġum": 1320,
      "Ġcy": 1321,
      "ĠÄı": 1322,
      "ĠzpÄĽv": 1323,
      "Ġzmi": 1324,
      "ĠZivot": 1325,
      "an": 1326,
      "Ġ1820": 1327,
      "Ġhrad": 1328,
      "pu": 1329,
      "ĠsmÃŃch": 1330,
      "ĠkRI": 1331,
      "ĠhÅĻ": 1332,
      "Ġlek": 1333,
      "Ġtys": 1334,
      "ĠsL": 1335,
      "Ġps": 1336,
      "Ġbys": 1337,
      "Ġhud": 1338,
      "Ġkles": 1339,
      "Ġzdo": 1340,
      "ĠTex": 1341,
      "ĠstÃ¡l": 1342,
      "Ġslunce": 1343,
      "Ġvza": 1344,
      "Ġblu": 1345,
      "ST": 1346,
      "Ġzle": 1347,
      "ĠÃºs": 1348,
      "Ġbol": 1349,
      "ix": 1350,
      "Ġhlo": 1351,
      "ĠvÅ¡i": 1352,
      "Ġros": 1353,
      "ĠoCi": 1354,
      "Ġcos": 1355,
      "Ġstar": 1356,
      "ĠnnÃŃ": 1357,
      "nosTi": 1358,
      "ĠAXA": 1359,
      "ĠAABCCB": 1360,
      "Ġman": 1361,
      "ĠpÃ½": 1362,
      "ĠhlÃ©": 1363,
      "ĠzrÃ¡": 1364,
      "Ġbilo": 1365,
      "Ġmis": 1366,
      "Ġbrat": 1367,
      "ĠhQ": 1368,
      "ABB": 1369,
      "ĠtQ": 1370,
      "Ġjis": 1371,
      "Ġsvi": 1372,
      "ĠvdÄĽ": 1373,
      "ĠÅ¾eh": 1374,
      "ĠvlÃŃ": 1375,
      "Å¡Å¥": 1376,
      "Ġtec": 1377,
      "Ġchci": 1378,
      "skI": 1379,
      "Ġkvjet": 1380,
      "Ġsklo": 1381,
      "Ã³": 1382,
      "ĠjÃŃc": 1383,
      "ĠvÃ¡n": 1384,
      "ĠkÅĻe": 1385,
      "ĠxTe": 1386,
      "Ġska": 1387,
      "Ġsmrt": 1388,
      "pje": 1389,
      "Ġret": 1390,
      "Ġtk": 1391,
      "Ġrt": 1392,
      "hle": 1393,
      "ĠmL": 1394,
      "ĠvAm": 1395,
      "skA": 1396,
      "ĠvnÃŃ": 1397,
      "enI": 1398,
      "ĠdÃ½m": 1399,
      "Ġchla": 1400,
      "Ġvbo": 1401,
      "Ġhal": 1402,
      "ĠÅ¾al": 1403,
      "ĠtRe": 1404,
      "Ġlist": 1405,
      "Ġlest": 1406,
      "Ġpov": 1407,
      "Ġbles": 1408,
      "ĠlÃ©m": 1409,
      "ĠNix": 1410,
      "ĠhlÃ¡": 1411,
      "ĠXAAX": 1412,
      "rAt": 1413,
      "ĠÄįem": 1414,
      "ĠpRed": 1415,
      "zu": 1416,
      "ĠnnÃ©": 1417,
      "Ġtes": 1418,
      "Ġskou": 1419,
      "ĠchvÃ¡": 1420,
      "ĠdvÄĽ": 1421,
      "Ġstem": 1422,
      "Ġstrom": 1423,
      "stA": 1424,
      "ĠblI": 1425,
      "ĠlAski": 1426,
      "Ġsku": 1427,
      "cIx": 1428,
      "ĠskrÃ¡": 1429,
      "ĠhrÅ¯": 1430,
      "Ġvro": 1431,
      "za": 1432,
      "Ġct": 1433,
      "ĠNig": 1434,
      "ĠptA": 1435,
      "Ux": 1436,
      "ĠxvI": 1437,
      "Ġhrob": 1438,
      "ĠÅ¡ep": 1439,
      "ĠzÃ¡ÅĻ": 1440,
      "Ġdce": 1441,
      "ĠpIs": 1442,
      "ĠvdÃ¡l": 1443,
      "Ġzr": 1444,
      "Ġvzdo": 1445,
      "Ġkva": 1446,
      "vIx": 1447,
      "Ġnit": 1448,
      "ĠlÃ½m": 1449,
      "Ġlik": 1450,
      "ĠÅĻÃŃm": 1451,
      "Ġlov": 1452,
      "ĠtÃ¡h": 1453,
      "Ġvti": 1454,
      "Ġvlas": 1455,
      "Ġnev": 1456,
      "Rel": 1457,
      "Ġax": 1458,
      "Ġcu": 1459,
      "Ġbila": 1460,
      "Ġstru": 1461,
      "Ġor": 1462,
      "Ġved": 1463,
      "NIx": 1464,
      "Ġmilo": 1465,
      "Ġfo": 1466,
      "ĠdÄĽj": 1467,
      "so": 1468,
      "ĠzpÄĽt": 1469,
      "Ġzvol": 1470,
      "ĠÅĪa": 1471,
      "stu": 1472,
      "Ġchal": 1473,
      "bA": 1474,
      "ĠÄįel": 1475,
      "Ġchou": 1476,
      "Ġvzne": 1477,
      "Ġmem": 1478,
      "ĠzmÄĽ": 1479,
      "Ġskry": 1480,
      "Ġcen": 1481,
      "Ġvjet": 1482,
      "Ġy": 1483,
      "Ġvni": 1484,
      "ĠslA": 1485,
      "Ġcel": 1486,
      "Ġol": 1487,
      "ĠvÅ¡u": 1488,
      "Ġkat": 1489,
      "stvI": 1490,
      "Ġver": 1491,
      "Cka": 1492,
      "dem": 1493,
      "Ġtvou": 1494,
      "Ġkdys": 1495,
      "ĠslyÅ¡": 1496,
      "ĠzÅĻel": 1497,
      "Ġvrou": 1498,
      "jSI": 1499,
      "Nil": 1500,
      "ĠClo": 1501,
      "ĠdÅĻÃŃv": 1502,
      "Ġvmo": 1503,
      "ĠÅ¾Ã¡d": 1504,
      "Ġkto": 1505,
      "ĠsmNe": 1506,
      "ĠTeS": 1507,
      "Ġtech": 1508,
      "ĠprÃ½": 1509,
      "Ġas": 1510,
      "ĠvÃŃÅ¡": 1511,
      "ĠmAm": 1512,
      "ĠbUx": 1513,
      "Ġzah": 1514,
      "vem": 1515,
      "Ġzbra": 1516,
      "fo": 1517,
      "Ġtobje": 1518,
      "Ġples": 1519,
      "Å¾i": 1520,
      "ĠhvÄĽzd": 1521,
      "Ġdly": 1522,
      "Ġtry": 1523,
      "Ġvzal": 1524,
      "ĠÅ¡Å¥ast": 1525,
      "Ġpar": 1526,
      "Ġvzd": 1527,
      "ĠNIm": 1528,
      "ĠsnÃ¡": 1529,
      "ran": 1530,
      "nEho": 1531,
      "ĠmÅĻe": 1532,
      "Ġsobje": 1533,
      "Ġbli": 1534,
      "Ġtit": 1535,
      "ĠsvUj": 1536,
      "ĠÅ¾Ã¡r": 1537,
      "Ġvan": 1538,
      "sti": 1539,
      "ĠjÃŃt": 1540,
      "Ġsr": 1541,
      "ĠClovje": 1542,
      "ĠtÄĽz": 1543,
      "hI": 1544,
      "Dil": 1545,
      "ĠproC": 1546,
      "Ġzdra": 1547,
      "ĠsÃŃm": 1548,
      "Ġaj": 1549,
      "Ġlesk": 1550,
      "ska": 1551,
      "ĠZiTI": 1552,
      "ĠchÃ©": 1553,
      "mA": 1554,
      "ĠtoÅ¥": 1555,
      "ĠmÃ¡Å¡": 1556,
      "ĠsvIm": 1557,
      "ĠÅ¾o": 1558,
      "Ġca": 1559,
      "vou": 1560,
      "ĠkÅ¯m": 1561,
      "ĠsQtci": 1562,
      "Ġzved": 1563,
      "xi": 1564,
      "ĠkaZdI": 1565,
      "ĠsnÃŃm": 1566,
      "ĠZal": 1567,
      "lIx": 1568,
      "Ġjdou": 1569,
      "Ġsten": 1570,
      "ĠtvUj": 1571,
      "Ġral": 1572,
      "fÄĽ": 1573,
      "ĠkÃ¡m": 1574,
      "Ġkp": 1575,
      "ĠtA": 1576,
      "Ġkolem": 1577,
      "Ġznich": 1578,
      "Ġnav": 1579,
      "Ġvru": 1580,
      "ĠvtÃ©": 1581,
      "Ġzdvi": 1582,
      "Ġnel": 1583,
      "Ġvnich": 1584,
      "xem": 1585,
      "ĠnÄĽl": 1586,
      "ĠvÃº": 1587,
      "Ġrado": 1588,
      "Ġvzh": 1589,
      "ĠtrÅ¯": 1590,
      "ĠbÃ¡s": 1591,
      "Ġkrok": 1592,
      "ĠÅ¾ha": 1593,
      "Ġdit": 1594,
      "ĠboÅ¾": 1595,
      "in": 1596,
      "ĠÄįen": 1597,
      "Ġhlav": 1598,
      "ĠvIc": 1599,
      "ĠaNi": 1600,
      "ĠstrA": 1601,
      "ski": 1602,
      "Ġoz": 1603,
      "Ġkme": 1604,
      "ĠSI": 1605,
      "Ġabi": 1606,
      "Ġvej": 1607,
      "ĠsvI": 1608,
      "Ġchod": 1609,
      "ĠvÅ¡ÃŃ": 1610,
      "Ġxce": 1611,
      "Ġhej": 1612,
      "Ġzal": 1613,
      "Ġsb": 1614,
      "Ġkm": 1615,
      "Ġdat": 1616,
      "Ġlal": 1617,
      "nU": 1618,
      "ĠzvÃŃ": 1619,
      "Zen": 1620,
      "ĠpU": 1621,
      "Ġge": 1622,
      "ĠzemNe": 1623,
      "kla": 1624,
      "ĠhR": 1625,
      "seN": 1626,
      "Ġtre": 1627,
      "DIm": 1628,
      "Ġvdo": 1629,
      "Ġzvuk": 1630,
      "ĠtES": 1631,
      "Ġzor": 1632,
      "ĠvAs": 1633,
      "Ġsd": 1634,
      "Ġhnet": 1635,
      "lIm": 1636,
      "Ġztra": 1637,
      "Ġned": 1638,
      "ĠsNe": 1639,
      "ĠleC": 1640,
      "Ġ2": 1641,
      "ĠTix": 1642,
      "om": 1643,
      "ĠtÃ©m": 1644,
      "SIm": 1645,
      "ĠsnÅ¯": 1646,
      "ĠÅ¡ÃŃch": 1647,
      "Ġmoje": 1648,
      "Ġdve": 1649,
      "Ġhoj": 1650,
      "Ġvho": 1651,
      "jem": 1652,
      "Ġjejix": 1653,
      "ĠrÃ½ch": 1654,
      "ĠblÃ¡": 1655,
      "ĠmQt": 1656,
      "Ren": 1657,
      "Ġply": 1658,
      "Ġstva": 1659,
      "Ġruce": 1660,
      "ĠÅ¾ÃŃm": 1661,
      "ĠteÄį": 1662,
      "ĠÅ¡ich": 1663,
      "Ġxu": 1664,
      "Ġled": 1665,
      "ĠvQ": 1666,
      "ĠfSem": 1667,
      "ĠÄįet": 1668,
      "Nen": 1669,
      "Ġbuj": 1670,
      "Ġvpra": 1671,
      "ĠsmQ": 1672,
      "ĠTIm": 1673,
      "Ġrost": 1674,
      "pat": 1675,
      "Ġzne": 1676,
      "ĠprÃ¡z": 1677,
      "dla": 1678,
      "ĠÅ¡lÃ©": 1679,
      "co": 1680,
      "ĠdÃŃÅ¡": 1681,
      "Ġbem": 1682,
      "Ġboh": 1683,
      "Ġzemi": 1684,
      "Ġset": 1685,
      "sku": 1686,
      "ĠfSecko": 1687,
      "Ġvko": 1688,
      "hE": 1689,
      "hne": 1690,
      "STI": 1691,
      "ĠSTesTI": 1692,
      "Ġran": 1693,
      "Ġrak": 1694,
      "Ġtvr": 1695,
      "Ġjal": 1696,
      "ĠpRec": 1697,
      "Ġnepo": 1698,
      "ĠnechÅ¥": 1699,
      "Ġsyn": 1700,
      "Ġnich": 1701,
      "Ġlep": 1702,
      "Ġblo": 1703,
      "Ġzli": 1704,
      "ĠzdA": 1705,
      "ĠmoÅ¾": 1706,
      "ĠbuT": 1707,
      "vNI": 1708,
      "Ġvze": 1709,
      "Ġhvjez": 1710,
      "ĠtÄĽl": 1711,
      "Ġsho": 1712,
      "ĠmÃŃn": 1713,
      "ĠblÃŃÅ¾": 1714,
      "ĠmNel": 1715,
      "ĠdlÃ©": 1716,
      "Ġga": 1717,
      "Cki": 1718,
      "Rem": 1719,
      "ĠÄįin": 1720,
      "Cek": 1721,
      "ĠcÃ½": 1722,
      "Ġnaj": 1723,
      "Ġvsta": 1724,
      "Ġgo": 1725,
      "nek": 1726,
      "Ġzby": 1727,
      "ĠÄįit": 1728,
      "ĠnaSe": 1729,
      "ĠsklÃ¡": 1730,
      "Ril": 1731,
      "Ġkost": 1732,
      "Sli": 1733,
      "Ġsel": 1734,
      "ĠtÃ½m": 1735,
      "pA": 1736,
      "nki": 1737,
      "ĠÅ¡il": 1738,
      "ĠsnÃŃh": 1739,
      "Ġnen": 1740,
      "Ġki": 1741,
      "Ġvlo": 1742,
      "Ġdin": 1743,
      "Ġsek": 1744,
      "Ġrek": 1745,
      "Ġtebe": 1746,
      "ĠvnÃ¡": 1747,
      "Ġzaz": 1748,
      "ĠdÅ¯m": 1749,
      "ĠmÃ½m": 1750,
      "rU": 1751,
      "skIx": 1752,
      "Ġnoci": 1753,
      "Ġgi": 1754,
      "ĠvÅ¾dyc": 1755,
      "ĠÅĻem": 1756,
      "Ġsmu": 1757,
      "ĠÅ¾li": 1758,
      "Ġjel": 1759,
      "Ġjenom": 1760,
      "hla": 1761,
      "Ġdrob": 1762,
      "ĠjÃŃÅ¾": 1763,
      "Ġsme": 1764,
      "Ġtf": 1765,
      "Ġar": 1766,
      "Ġkud": 1767,
      "ĠSu": 1768,
      "ĠsvIx": 1769,
      "ĠvstÅĻÃŃ": 1770,
      "Ġvka": 1771,
      "Ġzim": 1772,
      "ct": 1773,
      "Ġkot": 1774,
      "Ġkv": 1775,
      "ĠvÄĽt": 1776,
      "ĠvÃ½Å¡": 1777,
      "Ġnevi": 1778,
      "Ġzva": 1779,
      "Ġrok": 1780,
      "Ġxvje": 1781,
      "ĠnAro": 1782,
      "Ġpta": 1783,
      "Ġhrom": 1784,
      "jet": 1785,
      "ĠdlÃ¡": 1786,
      "It": 1787,
      "ĠptÃ¡k": 1788,
      "ĠmÄĽv": 1789,
      "Ġder": 1790,
      "ĠhÅĻe": 1791,
      "Ġvez": 1792,
      "vost": 1793,
      "zo": 1794,
      "ĠÄįÃ¡": 1795,
      "tI": 1796,
      "cU": 1797,
      "Ġzjev": 1798,
      "Ġslov": 1799,
      "kal": 1800,
      "ĠÅ¡em": 1801,
      "Cer": 1802,
      "ĠmÃŃt": 1803,
      "Ġpol": 1804,
      "ĠjÃŃch": 1805,
      "Ġal": 1806,
      "Ġhnu": 1807,
      "ĠR": 1808,
      "ĠvtÄĽ": 1809,
      "ĠÅĻit": 1810,
      "Ġleb": 1811,
      "Ġsny": 1812,
      "ĠhA": 1813,
      "Ġhan": 1814,
      "Ġpor": 1815,
      "ĠzÅĻÃŃm": 1816,
      "Ġsot": 1817,
      "cen": 1818,
      "rÃ¡z": 1819,
      "tQ": 1820,
      "ĠjejÅ¾": 1821,
      "Ġpros": 1822,
      "lU": 1823,
      "ĠstÅ¯": 1824,
      "ĠnnÃ½": 1825,
      "ĠjmÃ©": 1826,
      "pQ": 1827,
      "Ġklad": 1828,
      "Ġbraz": 1829,
      "ĠdÄĽs": 1830,
      "Ġzen": 1831,
      "ĠÅ¡ko": 1832,
      "Ġnap": 1833,
      "ĠÅ¾ÃŃt": 1834,
      "Ġklam": 1835,
      "uje": 1836,
      "ĠzRI": 1837,
      "Ġhli": 1838,
      "Ġdom": 1839,
      "Ġstech": 1840,
      "ĠÅ¾it": 1841,
      "Ġzl": 1842,
      "ĠvstÅĻÃŃc": 1843,
      "Cku": 1844,
      "Ġote": 1845,
      "ĠcelI": 1846,
      "ĠÅĻÃ¡d": 1847,
      "jIcI": 1848,
      "NIk": 1849,
      "ĠnnÄĽ": 1850,
      "ĠspA": 1851,
      "ĠÅ¡lo": 1852,
      "Ġdux": 1853,
      "ĠÄįÃŃch": 1854,
      "Ġdel": 1855,
      "ĠlE": 1856,
      "ĠruÄį": 1857,
      "Ġjit": 1858,
      "ĠÄįt": 1859,
      "ĠpIseN": 1860,
      "ech": 1861,
      "ĠbIt": 1862,
      "ĠnuÅ¾": 1863,
      "mÃŃ": 1864,
      "ĠdÃ½ch": 1865,
      "ĠpÅ¯l": 1866,
      "Ġoko": 1867,
      "nec": 1868,
      "ĠdAv": 1869,
      "ĠvÃ¡Å¾": 1870,
      "Ġkdes": 1871,
      "ĠXAXAXX": 1872,
      "lik": 1873,
      "ĠstÃŃm": 1874,
      "su": 1875,
      "Ġspra": 1876,
      "Ġhlavu": 1877,
      "Ġzka": 1878,
      "Ġstup": 1879,
      "ĠdÄĽv": 1880,
      "ĠskA": 1881,
      "Ġsal": 1882,
      "Ġskle": 1883,
      "Ġkref": 1884,
      "Ġber": 1885,
      "ĠnAS": 1886,
      "ĠtakE": 1887,
      "Ġou": 1888,
      "ĠmlA": 1889,
      "ĠRek": 1890,
      "ĠvsvÄĽ": 1891,
      "Ġrej": 1892,
      "ĠvÅ¾i": 1893,
      "ĠsÃ½": 1894,
      "Ġhi": 1895,
      "ĠnÄĽÅ¾": 1896,
      "ĠpouÅ¡": 1897,
      "ĠDITe": 1898,
      "Ġzbu": 1899,
      "Ġbole": 1900,
      "Ġtl": 1901,
      "ĠmoRe": 1902,
      "ĠpÄĽk": 1903,
      "Ġspi": 1904,
      "ĠAXAX": 1905,
      "ĠtÅĻÃ¡": 1906,
      "ĠhoÅ¾": 1907,
      "ĠzlÃ©": 1908,
      "ven": 1909,
      "ĠknÃ¡": 1910,
      "ĠÅ¡len": 1911,
      "ĠpRij": 1912,
      "ĠpÅ¯j": 1913,
      "ĠmeÄį": 1914,
      "ĠjÅ¯": 1915,
      "fa": 1916,
      "ĠÅĻeÄį": 1917,
      "ĠvlA": 1918,
      "ĠsvÃ½": 1919,
      "ĠstRe": 1920,
      "ĠrAt": 1921,
      "Ġchra": 1922,
      "Ġsmy": 1923,
      "ĠrÃ©m": 1924,
      "ĠtÄĽm": 1925,
      "ĠhleÄı": 1926,
      "Cen": 1927,
      "fÃŃ": 1928,
      "ĠÄįest": 1929,
      "ĠvlÃ¡d": 1930,
      "ĠhruÄı": 1931,
      "STe": 1932,
      "Ġneu": 1933,
      "Ġfspo": 1934,
      "py": 1935,
      "Ġzap": 1936,
      "Ġzvy": 1937,
      "ĠÃŃ": 1938,
      "Ġstli": 1939,
      "ĠpÃ©": 1940,
      "ĠdÅĻe": 1941,
      "Ġzvon": 1942,
      "Ġjdu": 1943,
      "Ġnebo": 1944,
      "ĠDIf": 1945,
      "ĠSi": 1946,
      "Ġtle": 1947,
      "Ġkoj": 1948,
      "Äįe": 1949,
      "Ġvpr": 1950,
      "Ġrosp": 1951,
      "Ġchr": 1952,
      "ĠvzhÅ¯": 1953,
      "ĠskrÃ½": 1954,
      "ĠslÃ©": 1955,
      "Ġtoho": 1956,
      "ĠtoÅ¾": 1957,
      "ĠÅ¡um": 1958,
      "ÅĪa": 1959,
      "ĠliÅ¡": 1960,
      "dn": 1961,
      "ĠvÃ¡l": 1962,
      "Ġsnu": 1963,
      "Ġobje": 1964,
      "kIx": 1965,
      "Ġhost": 1966,
      "Ġth": 1967,
      "ĠzlÃŃ": 1968,
      "Ġzma": 1969,
      "Ġteb": 1970,
      "Ġsma": 1971,
      "ĠtÅĻpy": 1972,
      "Ġost": 1973,
      "ĠlAska": 1974,
      "vali": 1975,
      "ĠCI": 1976,
      "ĠkÅĻÃŃÅ¾": 1977,
      "ĠzmÃŃ": 1978,
      "Tast": 1979,
      "ĠmiS": 1980,
      "ĠUs": 1981,
      "ĠkRi": 1982,
      "Ġproud": 1983,
      "tE": 1984,
      "sA": 1985,
      "Ġobra": 1986,
      "ĠrÃ½m": 1987,
      "Ġur": 1988,
      "ĠxrA": 1989,
      "ĠNic": 1990,
      "ĠxTel": 1991,
      "Ġov": 1992,
      "Ġviz": 1993,
      "Ġvzduch": 1994,
      "Ġlej": 1995,
      "Ġnak": 1996,
      "Ġher": 1997,
      "ÅĻa": 1998,
      "UZe": 1999,
      "ĠztrÃ¡": 2000,
      "ĠvÄĽz": 2001,
      "Ġzmo": 2002,
      "dnE": 2003,
      "rost": 2004,
      "Ġslova": 2005,
      "Ġzti": 2006,
      "Ġbit": 2007,
      "ĠÅ¾lu": 2008,
      "ĠdÃ©m": 2009,
      "Ġkar": 2010,
      "Ġbud": 2011,
      "ĠkÅĻik": 2012,
      "Ġvli": 2013,
      "cIm": 2014,
      "ĠzÃ½": 2015,
      "Cil": 2016,
      "ĠnAhle": 2017,
      "Ġvzk": 2018,
      "ĠsmIx": 2019,
      "Ġvzdor": 2020,
      "ĠprÅ¯": 2021,
      "ĠTI": 2022,
      "XB": 2023,
      "Ġprost": 2024,
      "ĠvÅ¡ich": 2025,
      "ĠstÃ¡t": 2026,
      "Ġjeden": 2027,
      "Zil": 2028,
      "Ġpli": 2029,
      "ĠvZdiT": 2030,
      "Ġtri": 2031,
      "Ġmezi": 2032,
      "Ġdum": 2033,
      "kle": 2034,
      "Ġhly": 2035,
      "Ġruk": 2036,
      "et": 2037,
      "fi": 2038,
      "Ġfst": 2039,
      "ĠTiSe": 2040,
      "Ġnebi": 2041,
      "Ġbis": 2042,
      "Ġnut": 2043,
      "Ġdno": 2044,
      "ĠsTi": 2045,
      "lex": 2046,
      "ĠkterE": 2047,
      "vr": 2048,
      "ĠbÃŃd": 2049,
      "ĠbÅĻÃŃ": 2050,
      "Ġdlit": 2051,
      "ĠÅ¾iv": 2052,
      "ABAB": 2053,
      "ĠniNI": 2054,
      "Ġhar": 2055,
      "ĠhoÅĻ": 2056,
      "Ġkze": 2057,
      "ĠzvÃ¡": 2058,
      "tk": 2059,
      "jo": 2060,
      "ĠÅ¡ek": 2061,
      "sla": 2062,
      "Ġuz": 2063,
      "Ġdav": 2064,
      "ĠfÃ¡": 2065,
      "Ġjedn": 2066,
      "ĠkdoÅ¾": 2067,
      "ĠvÄĽn": 2068,
      "NejSI": 2069,
      "Ġzase": 2070,
      "Ġpout": 2071,
      "Ġbl": 2072,
      "zem": 2073,
      "Ġtvor": 2074,
      "ĠskvÄĽ": 2075,
      "nÃ©": 2076,
      "Ġlas": 2077,
      "Ġstil": 2078,
      "ĠskÃ½m": 2079,
      "ĠClovjek": 2080,
      "ĠvAS": 2081,
      "Ġvin": 2082,
      "ĠstAle": 2083,
      "Ġvslu": 2084,
      "Ġzba": 2085,
      "ĠmÅĻÃŃ": 2086,
      "ĠstRI": 2087,
      "Ġstran": 2088,
      "ĠheÅĪ": 2089,
      "ĠtvÃ½m": 2090,
      "sIc": 2091,
      "Ġskro": 2092,
      "dÄĽ": 2093,
      "ĠchlÃ©": 2094,
      "Ġhlad": 2095,
      "ĠsvEho": 2096,
      "alo": 2097,
      "ĠkterI": 2098,
      "ĠhNe": 2099,
      "ĠÅĻen": 2100,
      "ĠNeg": 2101,
      "ĠpuÅ¡": 2102,
      "Ġvip": 2103,
      "mÄĽ": 2104,
      "Ġzdro": 2105,
      "Ġfran": 2106,
      "ĠnÄĽn": 2107,
      "Ġstesk": 2108,
      "Ġkap": 2109,
      "ĠbouÅĻ": 2110,
      "Ġzar": 2111,
      "tce": 2112,
      "Ġnemo": 2113,
      "Ġklu": 2114,
      "ĠbÃ©": 2115,
      "Ġbled": 2116,
      "ĠhÃ½ch": 2117,
      "ĠmÄĽk": 2118,
      "ĠdQ": 2119,
      "ĠÃ¡": 2120,
      "ĠdRI": 2121,
      "ĠstojI": 2122,
      "ĠknÃ¡m": 2123,
      "Ġtli": 2124,
      "Sen": 2125,
      "Ġzru": 2126,
      "ĠveCer": 2127,
      "Ġbili": 2128,
      "Ġmn": 2129,
      "Ġbor": 2130,
      "ĠnaÄį": 2131,
      "ĠbrÃ½": 2132,
      "ĠdÃ¡t": 2133,
      "ĠdiÄį": 2134,
      "ĠsfÄĽ": 2135,
      "ĠvIce": 2136,
      "ĠvlÃŃd": 2137,
      "ĠÅ¡en": 2138,
      "ĠstÅĻed": 2139,
      "dnI": 2140,
      "Ġchvil": 2141,
      "Ġvsk": 2142,
      "ĠhnÄĽv": 2143,
      "Ġvpa": 2144,
      "Ġsve": 2145,
      "sTe": 2146,
      "ĠdnÃŃ": 2147,
      "ĠbIlE": 2148,
      "Ġstav": 2149,
      "ĠznÃ¡m": 2150,
      "Imi": 2151,
      "ĠnÃŃÅ¾": 2152,
      "dNI": 2153,
      "mur": 2154,
      "ĠNigdi": 2155,
      "Ġhas": 2156,
      "Ġprud": 2157,
      "ĠhÃ¡d": 2158,
      "Ġvzdech": 2159,
      "Ġvln": 2160,
      "ĠcoS": 2161,
      "lil": 2162,
      "Ġpoko": 2163,
      "nka": 2164,
      "Ġzav": 2165,
      "Ġpane": 2166,
      "ĠpRA": 2167,
      "ĠnoÄį": 2168,
      "Ġsnem": 2169,
      "ĠUsmNe": 2170,
      "ĠvrA": 2171,
      "Ġzak": 2172,
      "Ġkly": 2173,
      "Ġsmi": 2174,
      "Ġknou": 2175,
      "ĠbRe": 2176,
      "ĠvdÃ¡": 2177,
      "Ġkor": 2178,
      "Ġvec": 2179,
      "ĠkvI": 2180,
      "Ġprach": 2181,
      "ĠnaDe": 2182,
      "ĠniÄį": 2183,
      "Ġkus": 2184,
      "Ġjedno": 2185,
      "ĠnÅ¯m": 2186,
      "ĠpÄĽl": 2187,
      "ĠzeÅĪ": 2188,
      "ĠjeDi": 2189,
      "ĠztÄĽ": 2190,
      "ĠchvÄĽl": 2191,
      "Sla": 2192,
      "ĠpAn": 2193,
      "Å¡e": 2194,
      "Ġsebe": 2195,
      "Ġzat": 2196,
      "Ġvji": 2197,
      "Ġtep": 2198,
      "Ġmus": 2199,
      "nAx": 2200,
      "ĠrUZe": 2201,
      "ĠboZI": 2202,
      "Ġkno": 2203,
      "ĠDiv": 2204,
      "Ġvjer": 2205,
      "ĠlÃŃm": 2206,
      "Ġpoli": 2207,
      "xU": 2208,
      "Ġzni": 2209,
      "Ġhlavi": 2210,
      "Ġsoud": 2211,
      "ĠvzdÃ¡": 2212,
      "Ġnedo": 2213,
      "Ġkso": 2214,
      "ĠvÅĻÃŃ": 2215,
      "ĠznAm": 2216,
      "ĠSTast": 2217,
      "ĠaC": 2218,
      "ĠmÃ©m": 2219,
      "Ġtomu": 2220,
      "Ġsvjeta": 2221,
      "ĠÄįÃŃÅ¡": 2222,
      "Ame": 2223,
      "ĠbrÃ©": 2224,
      "Ġfsp": 2225,
      "ĠdrÃ©": 2226,
      "Ġdni": 2227,
      "ĠzNI": 2228,
      "kÃ¡": 2229,
      "rat": 2230,
      "ĠkrAl": 2231,
      "Ġup": 2232,
      "Ġmor": 2233,
      "ĠpyÅ¡": 2234,
      "Ġzce": 2235,
      "Ġpit": 2236,
      "ĠkoÅ¡": 2237,
      "Ġspu": 2238,
      "ABBX": 2239,
      "ĠÅ¾u": 2240,
      "Ġode": 2241,
      "Ġpok": 2242,
      "ĠÅ¡et": 2243,
      "Ġotpo": 2244,
      "Å¯r": 2245,
      "nku": 2246,
      "Ġdouc": 2247,
      "Ax": 2248,
      "Ġstrach": 2249,
      "ĠnaSi": 2250,
      "Ġhat": 2251,
      "ĠtvAR": 2252,
      "ĠzdÃ¡l": 2253,
      "ĠblÃŃz": 2254,
      "vit": 2255,
      "ĠzdrÃ¡": 2256,
      "Ġpen": 2257,
      "Ġben": 2258,
      "Ġter": 2259,
      "ĠfspomI": 2260,
      "nt": 2261,
      "ĠvpÅĻe": 2262,
      "ĠskÃ©m": 2263,
      "ĠjuS": 2264,
      "ĠklI": 2265,
      "ĠdAle": 2266,
      "Ġrel": 2267,
      "Ġtly": 2268,
      "Ġlze": 2269,
      "Ġjez": 2270,
      "Cko": 2271,
      "dra": 2272,
      "ĠdruÅ¾": 2273,
      "Ġkej": 2274,
      "Ġnebes": 2275,
      "Ġcet": 2276,
      "fu": 2277,
      "Ġxci": 2278,
      "ĠstQ": 2279,
      "dli": 2280,
      "ĠspoÅĪ": 2281,
      "ĠbyÅ¥": 2282,
      "Nel": 2283,
      "ĠlÃŃc": 2284,
      "ĠÅ¡at": 2285,
      "Ġhol": 2286,
      "Ġprs": 2287,
      "rÅ¯": 2288,
      "ĠdvÃ©": 2289,
      "Ġlam": 2290,
      "Ġluz": 2291,
      "ĠzboÅ¾": 2292,
      "Ġdv": 2293,
      "ude": 2294,
      "ĠvÄĽc": 2295,
      "ĠhrU": 2296,
      "ĠchrÃ¡m": 2297,
      "ĠjIm": 2298,
      "Ġtost": 2299,
      "ĠstrÃ½": 2300,
      "dÃŃ": 2301,
      "Ġvys": 2302,
      "ĠhrA": 2303,
      "nÃŃz": 2304,
      "ĠvIm": 2305,
      "Ġvad": 2306,
      "ĠmusI": 2307,
      "Ġona": 2308,
      "CNI": 2309,
      "Ġtic": 2310,
      "ĠstraÅ¡": 2311,
      "Ġdek": 2312,
      "Ġgdibi": 2313,
      "Ġzvi": 2314,
      "Ġjsa": 2315,
      "Ġvzdy": 2316,
      "Ġkpo": 2317,
      "ĠkÃ©Å¾": 2318,
      "ĠDeTi": 2319,
      "ĠsTIn": 2320,
      "ĠchceÅ¡": 2321,
      "Ġchat": 2322,
      "ĠrÃ¡m": 2323,
      "ĠSel": 2324,
      "ĠbÄĽd": 2325,
      "ĠsmQTi": 2326,
      "Ġkmi": 2327,
      "Ġpel": 2328,
      "Ġvis": 2329,
      "Nice": 2330,
      "Ġspat": 2331,
      "Ġpry": 2332,
      "Ġsra": 2333,
      "Ġnnou": 2334,
      "Ġvhro": 2335,
      "Ġposled": 2336,
      "Ġstk": 2337,
      "ĠliÄį": 2338,
      "cki": 2339,
      "Ġblud": 2340,
      "ĠjichÅ¾": 2341,
      "ĠvITe": 2342,
      "Ġvese": 2343,
      "Ġtrp": 2344,
      "Ġsit": 2345,
      "Ġskvost": 2346,
      "ĠdÄĽc": 2347,
      "kIm": 2348,
      "Ġsic": 2349,
      "ĠnnÃ¡": 2350,
      "Ġin": 2351,
      "ĠvIS": 2352,
      "Ġrat": 2353,
      "Ġbral": 2354,
      "Ġkter": 2355,
      "fÃ¡": 2356,
      "ĠvnÄĽmÅ¾": 2357,
      "jas": 2358,
      "Ġspou": 2359,
      "Ġxi": 2360,
      "Ġzum": 2361,
      "jIm": 2362,
      "Ġrty": 2363,
      "Ġbrou": 2364,
      "ĠÅ¡lÃ©n": 2365,
      "Ġkrou": 2366,
      "Ġlec": 2367,
      "ĠZI": 2368,
      "hn": 2369,
      "vala": 2370,
      "jte": 2371,
      "Ġpsa": 2372,
      "krAt": 2373,
      "ĠdnÅ¯": 2374,
      "Ġmluv": 2375,
      "Ġdlu": 2376,
      "vjet": 2377,
      "ĠpojÄı": 2378,
      "ĠnovE": 2379,
      "ĠcelE": 2380,
      "ĠbrA": 2381,
      "Ġvrat": 2382,
      "ĠzlÃ¡": 2383,
      "ĠÅĻÃŃÅ¡": 2384,
      "Ġbod": 2385,
      "ĠvstÃ¡": 2386,
      "Ġtrem": 2387,
      "Ġnevje": 2388,
      "ĠmuS": 2389,
      "Ġtce": 2390,
      "Ġzil": 2391,
      "ĠsmQt": 2392,
      "ĠblÃ½": 2393,
      "lek": 2394,
      "ĠtÃŃÅ¡": 2395,
      "CNe": 2396,
      "ĠsA": 2397,
      "Ġmech": 2398,
      "ĠsvÄĽd": 2399,
      "Ġskon": 2400,
      "BC": 2401,
      "Ġxlad": 2402,
      "dlo": 2403,
      "Ġroze": 2404,
      "pas": 2405,
      "ĠdÃ¡Å¡": 2406,
      "ĠvÄĽÅĻ": 2407,
      "ĠhÃ½m": 2408,
      "ĠCIm": 2409,
      "ĠmIx": 2410,
      "Ġzvje": 2411,
      "ĠnaÅĪ": 2412,
      "ĠdlÃ½": 2413,
      "Ġpes": 2414,
      "ĠpRece": 2415,
      "Ġsxo": 2416,
      "Ġsro": 2417,
      "Ġbru": 2418,
      "ĠkA": 2419,
      "Ġgra": 2420,
      "STi": 2421,
      "Ġklet": 2422,
      "ĠstrÃ¡Å¾": 2423,
      "Ġlez": 2424,
      "Ġtor": 2425,
      "Ġplamen": 2426,
      "zen": 2427,
      "ĠÅ¾em": 2428,
      "Ġmdlo": 2429,
      "tex": 2430,
      "Nem": 2431,
      "ĠjÃŃmÅ¾": 2432,
      "Ġrad": 2433,
      "Ġkov": 2434,
      "ĠnÃŃz": 2435,
      "Ġtin": 2436,
      "Ġproto": 2437,
      "ĠoCI": 2438,
      "Ġpur": 2439,
      "Ġteh": 2440,
      "Ġjan": 2441,
      "Ġzapo": 2442,
      "Ġruch": 2443,
      "ĠTixo": 2444,
      "Ġradost": 2445,
      "fal": 2446,
      "Ġvsv": 2447,
      "ĠloÄı": 2448,
      "ĠdU": 2449,
      "ĠÃºz": 2450,
      "Ġdnem": 2451,
      "Ġvrh": 2452,
      "ĠskrA": 2453,
      "ju": 2454,
      "Nit": 2455,
      "ĠkterA": 2456,
      "Ġkh": 2457,
      "ĠNIS": 2458,
      "Ġzele": 2459,
      "ĠpÅĻÃŃÅ¡": 2460,
      "Ġruka": 2461,
      "ĠleTI": 2462,
      "ĠÅ¡t": 2463,
      "ĠzdÄĽ": 2464,
      "Ġgu": 2465,
      "ĠmÄĽj": 2466,
      "ĠtÃ¡m": 2467,
      "Ġjme": 2468,
      "zel": 2469,
      "ĠproTi": 2470,
      "Ġvet": 2471,
      "ĠpRes": 2472,
      "ĠpÃ¡r": 2473,
      "Ġsky": 2474,
      "Ġkmit": 2475,
      "Ġ1800": 2476,
      "CBC": 2477,
      "fe": 2478,
      "Ġneo": 2479,
      "ĠÄįej": 2480,
      "ĠplÃ¡Äį": 2481,
      "Ġhrou": 2482,
      "Ġjemu": 2483,
      "Ġhoch": 2484,
      "ĠÅ¡ÃŃÅ¡": 2485,
      "ĠsmÃ¡": 2486,
      "Ġlin": 2487,
      "Ġdex": 2488,
      "Ġbec": 2489,
      "Ġdlem": 2490,
      "ĠDel": 2491,
      "ĠtvÃ©m": 2492,
      "Ġrosko": 2493,
      "ĠmraÄį": 2494,
      "ĠzÃŃch": 2495,
      "ĠleZI": 2496,
      "ĠdÃŃt": 2497,
      "Ġdoj": 2498,
      "Ġvsa": 2499,
      "Ġvpro": 2500,
      "ĠdÃ¡n": 2501,
      "Ġmek": 2502,
      "Ġknu": 2503,
      "ĠmrÃ¡z": 2504,
      "Ġkop": 2505,
      "Ġruku": 2506,
      "Ġobla": 2507,
      "Ġsotva": 2508,
      "ĠÅ¡ly": 2509,
      "ĠXXABAB": 2510,
      "hem": 2511,
      "Ġscho": 2512,
      "ĠtvIx": 2513,
      "ĠpÅĻÃŃs": 2514,
      "ĠhÅĻÃŃch": 2515,
      "Ġzdu": 2516,
      "ĠbÃ¡ch": 2517,
      "ĠÅ¡p": 2518,
      "ĠpryÄį": 2519,
      "ĠÅĻÅ¯": 2520,
      "Ġvto": 2521,
      "Ġjiz": 2522,
      "ĠhÃ©m": 2523,
      "Ġsje": 2524,
      "ĠstarI": 2525,
      "ĠtlÃ©": 2526,
      "Ġzval": 2527,
      "ĠpoÄį": 2528,
      "Ġdny": 2529,
      "ĠplÃ©": 2530,
      "Ġnna": 2531,
      "ĠvtvÃ¡": 2532,
      "ĠsplÃ½": 2533,
      "Ġkan": 2534,
      "Ġsno": 2535,
      "ĠrÃ¡ch": 2536,
      "Ġvor": 2537,
      "ĠznÄĽl": 2538,
      "Ġvce": 2539,
      "lal": 2540,
      "ĠtrA": 2541,
      "ĠÅ¥a": 2542,
      "Ġvzbu": 2543,
      "Ġcti": 2544,
      "ĠskÅĻi": 2545,
      "ĠbQ": 2546,
      "ĠsvA": 2547,
      "kAx": 2548,
      "Ġtesk": 2549,
      "ĠÅ¾dy": 2550,
      "Ġzbro": 2551,
      "Ġlex": 2552,
      "tki": 2553,
      "Ġbin": 2554,
      "Ska": 2555,
      "ĠtoT": 2556,
      "Ġtvoje": 2557,
      "Ġrix": 2558,
      "Ġzko": 2559,
      "ĠhÃ¡m": 2560,
      "ĠboZe": 2561,
      "ĠvsÃŃ": 2562,
      "ĠkNe": 2563,
      "ĠbAs": 2564,
      "Ġvyz": 2565,
      "ĠrÃ¡j": 2566,
      "Ġchl": 2567,
      "Ġnos": 2568,
      "Ġkmo": 2569,
      "Ġkyt": 2570,
      "Ġfy": 2571,
      "Ġblan": 2572,
      "Ġsamo": 2573,
      "Ġneh": 2574,
      "ĠABBACC": 2575,
      "Ġsbor": 2576,
      "Ġkmen": 2577,
      "ĠpRez": 2578,
      "ĠÄįech": 2579,
      "Ġtov": 2580,
      "ĠsNI": 2581,
      "Ġpln": 2582,
      "Ġtajem": 2583,
      "ĠzlatE": 2584,
      "Ġhad": 2585,
      "Ġvnu": 2586,
      "stE": 2587,
      "ĠdobRe": 2588,
      "ĠNimi": 2589,
      "ĠsÃ¡h": 2590,
      "ral": 2591,
      "Ġvzte": 2592,
      "ĠzrÃ¡d": 2593,
      "Ġveli": 2594,
      "Ġvtu": 2595,
      "ĠzvlÃ¡": 2596,
      "ĠpQvNI": 2597,
      "Ġzdi": 2598,
      "ĠvraÅ¾": 2599,
      "ĠÅ¡o": 2600,
      "ĠlÃŃch": 2601,
      "Ġsej": 2602,
      "ĠtiÄį": 2603,
      "Ġzto": 2604,
      "CIm": 2605,
      "ĠviÄį": 2606,
      "Ġtok": 2607,
      "ĠvÅĻel": 2608,
      "ĠÅ¾ÃŃÅ¡": 2609,
      "ĠznA": 2610,
      "ĠvzÃ¡c": 2611,
      "ĠxvIli": 2612,
      "ĠkRe": 2613,
      "Ġkmet": 2614,
      "ĠpÄĽv": 2615,
      "ĠvlasTi": 2616,
      "ĠnÃ¡d": 2617,
      "Ġtat": 2618,
      "ĠposledNI": 2619,
      "Ġtrou": 2620,
      "ĠduSI": 2621,
      "Cel": 2622,
      "ĠvÅ¡a": 2623,
      "Ġpem": 2624,
      "Ġhlubo": 2625,
      "ĠkrÅ¯": 2626,
      "Ġjil": 2627,
      "ĠvÅĻa": 2628,
      "ĠdrÃ½": 2629,
      "ĠnosÅ¥": 2630,
      "ĠstvÃŃm": 2631,
      "lat": 2632,
      "lav": 2633,
      "ĠvÅ¯d": 2634,
      "ĠAXAA": 2635,
      "ĠSep": 2636,
      "hli": 2637,
      "ĠvÃŃr": 2638,
      "rt": 2639,
      "ĠXAABBX": 2640,
      "Ġklas": 2641,
      "ĠZena": 2642,
      "dal": 2643,
      "Ġtur": 2644,
      "Ġlat": 2645,
      "dNe": 2646,
      "Ġhon": 2647,
      "ĠdÃ¡ch": 2648,
      "ĠdAvno": 2649,
      "ĠhnÃŃz": 2650,
      "vANI": 2651,
      "ĠmUZe": 2652,
      "ĠsfÃ©": 2653,
      "ĠplÃŃ": 2654,
      "Ġtrh": 2655,
      "ĠÄıÃ¡": 2656,
      "ĠCast": 2657,
      "Ġplod": 2658,
      "Ġvzt": 2659,
      "Ġdot": 2660,
      "ĠbITi": 2661,
      "Ġken": 2662,
      "ĠzARI": 2663,
      "Ġtmy": 2664,
      "ĠÅ¡Ã¡": 2665,
      "ĠvÅ¡ÃŃm": 2666,
      "ĠzU": 2667,
      "Ġzam": 2668,
      "Ġhvo": 2669,
      "Ġpoc": 2670,
      "Ġfz": 2671,
      "Ġzch": 2672,
      "ĠhlÃ½": 2673,
      "ĠtÃŃÅ¾": 2674,
      "ĠprI": 2675,
      "ĠbiÄį": 2676,
      "Ġkos": 2677,
      "vy": 2678,
      "ĠcÅ¯m": 2679,
      "bil": 2680,
      "Ġvkra": 2681,
      "ĠÄįal": 2682,
      "ĠbIlI": 2683,
      "Ġkz": 2684,
      "ĠfSecki": 2685,
      "Ġpek": 2686,
      "ĠblÃ½s": 2687,
      "stI": 2688,
      "ĠzAR": 2689,
      "ĠvlÃ¡s": 2690,
      "ĠskrÃ¡ÅĪ": 2691,
      "ĠtÃ³": 2692,
      "Ġej": 2693,
      "ĠvkrÃ¡": 2694,
      "Ġgdis": 2695,
      "Nic": 2696,
      "ĠspÃŃÅ¡": 2697,
      "Ġsin": 2698,
      "Ġnno": 2699,
      "Ġkt": 2700,
      "Ġrci": 2701,
      "ĠchtÃŃ": 2702,
      "ĠcÃŃl": 2703,
      "ĠstRIb": 2704,
      "ĠsÅ¯m": 2705,
      "ĠzÃŃm": 2706,
      "ĠNej": 2707,
      "Ġhvjezdi": 2708,
      "CnE": 2709,
      "pil": 2710,
      "Ġdna": 2711,
      "ĠhleDI": 2712,
      "Ġuk": 2713,
      "ĠpaNI": 2714,
      "Ġzax": 2715,
      "ĠprAzd": 2716,
      "ĠdvÃ¡": 2717,
      "Ġjat": 2718,
      "ĠkaZd": 2719,
      "ĠTelo": 2720,
      "ĠnexT": 2721,
      "ĠkaZdE": 2722,
      "ĠCasto": 2723,
      "mNel": 2724,
      "ĠdÃŃk": 2725,
      "Ġstud": 2726,
      "ĠrÅ¯z": 2727,
      "ĠklÃ©": 2728,
      "ĠkrÃ½": 2729,
      "ĠvzplÃ¡": 2730,
      "ĠmeC": 2731,
      "Ġkup": 2732,
      "ĠchÃ¡m": 2733,
      "Ġseb": 2734,
      "ĠlAsku": 2735,
      "Ġkom": 2736,
      "ĠskÅĻÃŃ": 2737,
      "ĠZivota": 2738,
      "ĠCelo": 2739,
      "ĠhRIx": 2740,
      "Ġvix": 2741,
      "Ġclo": 2742,
      "Ġbyt": 2743,
      "ĠSTI": 2744,
      "ĠztÄĽch": 2745,
      "ĠAABCBC": 2746,
      "ĠÅ¡it": 2747,
      "ĠT": 2748,
      "Ġdrav": 2749,
      "Ġkbo": 2750,
      "Ġroj": 2751,
      "ĠdnÃ©": 2752,
      "Ġraj": 2753,
      "ĠCa": 2754,
      "sce": 2755,
      "ĠNad": 2756,
      "ĠkvÃ©": 2757,
      "ĠlkÃ¡": 2758,
      "ĠsvEm": 2759,
      "jIc": 2760,
      "Uf": 2761,
      "Ġklen": 2762,
      "ĠvolA": 2763,
      "ĠklÃŃn": 2764,
      "Ġhloub": 2765,
      "Ġvost": 2766,
      "ĠvznÃ¡": 2767,
      "Ġtev": 2768,
      "nce": 2769,
      "Ġzlou": 2770,
      "Ġctnost": 2771,
      "ĠpoC": 2772,
      "Ġmli": 2773,
      "Ġvroz": 2774,
      "Ġmlad": 2775,
      "Ġskut": 2776,
      "ĠviDI": 2777,
      "Ġslil": 2778,
      "Ġlitst": 2779,
      "ĠtReba": 2780,
      "Ġlan": 2781,
      "ĠbÄĽh": 2782,
      "Ġznal": 2783,
      "ĠmilI": 2784,
      "Ġzhy": 2785,
      "ĠstAl": 2786,
      "Ġpomo": 2787,
      "Ski": 2788,
      "ĠumI": 2789,
      "Ġsvoje": 2790,
      "lit": 2791,
      "Ġsce": 2792,
      "Ġpole": 2793,
      "nex": 2794,
      "Ġoka": 2795,
      "Ġtve": 2796,
      "dle": 2797,
      "Ġosut": 2798,
      "Ġbel": 2799,
      "ĠsÃº": 2800,
      "ĠslÃŃm": 2801,
      "Ġkruh": 2802,
      "Ġnaz": 2803,
      "Ġvnad": 2804,
      "ĠtRi": 2805,
      "Ġlib": 2806,
      "jal": 2807,
      "ĠsvÃ¡t": 2808,
      "or": 2809,
      "Å¯d": 2810,
      "Ġspjef": 2811,
      "ĠvkaÅ¾": 2812,
      "Ġrozu": 2813,
      "Ġvhlou": 2814,
      "ĠZha": 2815,
      "ĠstarE": 2816,
      "Cit": 2817,
      "Ġzku": 2818,
      "Eho": 2819,
      "ĠjakI": 2820,
      "ĠNeho": 2821,
      "Ġtadi": 2822,
      "Ġtmou": 2823,
      "gi": 2824,
      "Ġzho": 2825,
      "ĠX": 2826,
      "Ġhori": 2827,
      "Ġzbi": 2828,
      "ĠnAru": 2829,
      "Ġkraji": 2830,
      "dex": 2831,
      "lid": 2832,
      "ĠÅ¡er": 2833,
      "Ġvjed": 2834,
      "ĠhÅĻbi": 2835,
      "Ġfu": 2836,
      "Ġthe": 2837,
      "Ġpotom": 2838,
      "ZIm": 2839,
      "ĠsLzi": 2840,
      "ĠdlaÅĪ": 2841,
      "Ġlidu": 2842,
      "Ġren": 2843,
      "Ġdale": 2844,
      "Ġspas": 2845,
      "mNeNI": 2846,
      "ĠdRIf": 2847,
      "Ġneza": 2848,
      "Ġzdvih": 2849,
      "SeNI": 2850,
      "Ġkdos": 2851,
      "ĠnArot": 2852,
      "Ġdrech": 2853,
      "ĠfÃŃ": 2854,
      "Å¾e": 2855,
      "Ġdos": 2856,
      "mut": 2857,
      "Ġhez": 2858,
      "ĠmÄĽst": 2859,
      "Rit": 2860,
      "ĠsaÅĻ": 2861,
      "Sem": 2862,
      "ĠmÅ¾i": 2863,
      "Ġvta": 2864,
      "ĠzÃº": 2865,
      "rAs": 2866,
      "nImi": 2867,
      "ĠNit": 2868,
      "ĠdAli": 2869,
      "ĠkrAlo": 2870,
      "ĠnAmi": 2871,
      "Ġtrys": 2872,
      "Ġotec": 2873,
      "Ġhbi": 2874,
      "ĠlÃ¡ch": 2875,
      "Ġtich": 2876,
      "vAm": 2877,
      "Ġmnoho": 2878,
      "ĠNigdo": 2879,
      "ĠpUl": 2880,
      "Ġvist": 2881,
      "ĠÅĻad": 2882,
      "Ġsad": 2883,
      "tech": 2884,
      "ĠvpÅĻed": 2885,
      "jÃŃ": 2886,
      "Ġner": 2887,
      "Ġhrop": 2888,
      "IrA": 2889,
      "Ġnov": 2890,
      "Zo": 2891,
      "ĠvDe": 2892,
      "ĠnovI": 2893,
      "tal": 2894,
      "Dela": 2895,
      "ĠviDel": 2896,
      "ĠxvA": 2897,
      "Ġjdi": 2898,
      "Ġtedi": 2899,
      "Ġdok": 2900,
      "ĠsvITI": 2901,
      "Ġblak": 2902,
      "kut": 2903,
      "ĠpIsNe": 2904,
      "ĠÄįÅ¯": 2905,
      "ĠblA": 2906,
      "stra": 2907,
      "hou": 2908,
      "Ġau": 2909,
      "Ġpas": 2910,
      "ĠzÅĻÃŃt": 2911,
      "ĠhrÃ¡l": 2912,
      "ĠsliS": 2913,
      "ĠstÅĻi": 2914,
      "ĠtR": 2915,
      "Ġspro": 2916,
      "Ġvtem": 2917,
      "Ġfal": 2918,
      "Ġbran": 2919,
      "ĠDes": 2920,
      "Ġkb": 2921,
      "nes": 2922,
      "Ġsvobo": 2923,
      "hlI": 2924,
      "pal": 2925,
      "Ġjisk": 2926,
      "ĠboÅ¥": 2927,
      "Ġknim": 2928,
      "Sku": 2929,
      "Ġkvjeti": 2930,
      "hal": 2931,
      "Ġpri": 2932,
      "ZNe": 2933,
      "Det": 2934,
      "vet": 2935,
      "ĠvrÃ¡z": 2936,
      "ĠxvIle": 2937,
      "Ġbolest": 2938,
      "ĠjmE": 2939,
      "ĠvRe": 2940,
      "ĠsQ": 2941,
      "Ġchli": 2942,
      "ĠdÃŃl": 2943,
      "Ġhluk": 2944,
      "ĠmarNe": 2945,
      "stal": 2946,
      "ĠhÅ¯m": 2947,
      "ĠnevI": 2948,
      "IvA": 2949,
      "ĠZeni": 2950,
      "Ġdoz": 2951,
      "ĠDet": 2952,
      "ĠneZ": 2953,
      "kol": 2954,
      "Ġvsi": 2955,
      "ĠÄįu": 2956,
      "Ġnoh": 2957,
      "ĠjejS": 2958,
      "cÃŃ": 2959,
      "ĠpadA": 2960,
      "Ġzpu": 2961,
      "Ġut": 2962,
      "ĠpapQ": 2963,
      "jat": 2964,
      "ĠmlÄį": 2965,
      "ĠcizI": 2966,
      "ĠÄįo": 2967,
      "!...": 2968,
      "ĠvdÄĽÄį": 2969,
      "ĠmIr": 2970,
      "ĠzprÃ¡": 2971,
      "ĠdrA": 2972,
      "Ġboha": 2973,
      "ĠvstÃŃ": 2974,
      "Ġzlato": 2975,
      "pit": 2976,
      "fje": 2977,
      "ĠhoRI": 2978,
      "Nik": 2979,
      "ĠAABBXX": 2980,
      "ĠvZdicki": 2981,
      "ĠvlastNI": 2982,
      "ĠsnU": 2983,
      "Ġspla": 2984,
      "ĠvsvÃ©": 2985,
      "dne": 2986,
      "Ġvlh": 2987,
      "Ġsvoji": 2988,
      "ĠfSeho": 2989,
      "Ġsvor": 2990,
      "Ġtej": 2991,
      "Ġhlava": 2992,
      "ĠkNi": 2993,
      "Ã¡ch": 2994,
      "ĠvmÄĽ": 2995,
      "Ġnese": 2996,
      "Ġvzru": 2997,
      "Ġplou": 2998,
      "Ġvik": 2999,
      "Tit": 3000,
      "ĠsklA": 3001,
      "Ġvdi": 3002,
      "ĠpQs": 3003,
      "Ġpoxo": 3004,
      "kEm": 3005,
      "ĠsluÅ¾": 3006,
      "Ġdol": 3007,
      "ĠtÅĻil": 3008,
      "ĠtÃ¡n": 3009,
      "ĠknÄĽz": 3010,
      "Ġtkli": 3011,
      "Ġmon": 3012,
      "Ġ0": 3013,
      "ĠbÅĻi": 3014,
      "ĠknÄĽÅ¾": 3015,
      "Ġvstou": 3016,
      "ĠsIli": 3017,
      "ĠÅĻec": 3018,
      "ĠzvÄĽst": 3019,
      "Ġsvjetlo": 3020,
      "Ġzha": 3021,
      "ĠvelkE": 3022,
      "ouÅ¡": 3023,
      "ĠzlÃ½": 3024,
      "ĠkÅ¯v": 3025,
      "ĠpÄĽj": 3026,
      "Ġlev": 3027,
      "liS": 3028,
      "ĠtÄĽj": 3029,
      "Ġboji": 3030,
      "Ġspjet": 3031,
      "ĠmQ": 3032,
      "Ġtlou": 3033,
      "ĠjisTe": 3034,
      "Ġvte": 3035,
      "Ġvstal": 3036,
      "Ġom": 3037,
      "Ġvar": 3038,
      "fA": 3039,
      "vajI": 3040,
      "vÄĽt": 3041,
      "ĠmÅĻel": 3042,
      "Ġlad": 3043,
      "Ġrtech": 3044,
      "CeNI": 3045,
      "Ġzn": 3046,
      "ĠvÄĽÅ¡": 3047,
      "ĠlÃ¡m": 3048,
      "ĠABBAXX": 3049,
      "Ġcestu": 3050,
      "ben": 3051,
      "ĠpÃ¡d": 3052,
      "Ġchmur": 3053,
      "tka": 3054,
      "ĠSat": 3055,
      "ĠneznAm": 3056,
      "Ġtrud": 3057,
      "Ġbohu": 3058,
      "ĠnuS": 3059,
      "Ġvjeru": 3060,
      "ĠchÃ©m": 3061,
      "Ġvrah": 3062,
      "ĠtÅĻpyt": 3063,
      "ĠvelkI": 3064,
      "Ġmuk": 3065,
      "Ġnena": 3066,
      "Dit": 3067,
      "ĠnemA": 3068,
      "ĠsbÃŃ": 3069,
      "vQ": 3070,
      "ĠsÃŃch": 3071,
      "Ġskla": 3072,
      "ĠvaSe": 3073,
      "ĠtvQ": 3074,
      "ĠkvÃ¡": 3075,
      "Ġox": 3076,
      "ĠpRijde": 3077,
      "Ġvse": 3078,
      "ĠÅ¾as": 3079,
      "ĠÄįty": 3080,
      "ĠTem": 3081,
      "ĠzRIm": 3082,
      "Ġsat": 3083,
      "vEm": 3084,
      "Ġbek": 3085,
      "ĠmEho": 3086,
      "Ġhmo": 3087,
      "Ġvkou": 3088,
      "ĠmlADI": 3089,
      "ĠlidE": 3090,
      "ĠNegdi": 3091,
      "ĠfÄĽ": 3092,
      "ĠmAlo": 3093,
      "Ġvmy": 3094,
      "ĠvÃ½s": 3095,
      "Ġklit": 3096,
      "Din": 3097,
      "Ġvkr": 3098,
      "nat": 3099,
      "Ġuli": 3100,
      "Ġspal": 3101,
      "Ġlos": 3102,
      "ĠslÃ½": 3103,
      "Ġpolo": 3104,
      "nosTI": 3105,
      "ĠÅ¡tÃŃt": 3106,
      "Ġtiv": 3107,
      "Ġbej": 3108,
      "ĠvÅ¡ed": 3109,
      "Ġjaro": 3110,
      "ĠvItQ": 3111,
      "ĠrAna": 3112,
      "ĠdomU": 3113,
      "Ġstes": 3114,
      "fI": 3115,
      "ĠzlatI": 3116,
      "ĠhÅĻmÃŃ": 3117,
      "ĠzRel": 3118,
      "ĠsvatI": 3119,
      "ĠoÄį": 3120,
      "rIx": 3121,
      "Ġposta": 3122,
      "Ġpjek": 3123,
      "ĠAAXA": 3124,
      "Ġnny": 3125,
      "pra": 3126,
      "nuTI": 3127,
      "ĠZAr": 3128,
      "ĠÅ¡k": 3129,
      "ĠkQve": 3130,
      "ĠpravI": 3131,
      "Ġopjet": 3132,
      "ĠrtÅ¯": 3133,
      "ĠNemu": 3134,
      "Zit": 3135,
      "les": 3136,
      "Ġlho": 3137,
      "Ġzvl": 3138,
      "Ġnet": 3139,
      "ĠzpÃ¡t": 3140,
      "ĠfSude": 3141,
      "ĠtÅ¯m": 3142,
      "Ġsama": 3143,
      "Ġtolik": 3144,
      "Ġplat": 3145,
      "Ġrve": 3146,
      "ĠprAci": 3147,
      "ĠzÄį": 3148,
      "Zel": 3149,
      "Ġmatka": 3150,
      "Ġprin": 3151,
      "ĠdiÅ¾": 3152,
      "ABBA": 3153,
      "ĠRa": 3154,
      "ĠmÅ¯Å¾": 3155,
      "ĠpIsNI": 3156,
      "Ġstla": 3157,
      "ĠtÃ¡ch": 3158,
      "Ġlla": 3159,
      "Ġdvou": 3160,
      "bal": 3161,
      "ĠdE": 3162,
      "Ġvso": 3163,
      "ĠABABAB": 3164,
      "Ġjag": 3165,
      "ĠmilA": 3166,
      "ĠvnÃŃÅ¾": 3167,
      "ĠhoRe": 3168,
      "ĠmIsto": 3169,
      "Ġchva": 3170,
      "Ġfsk": 3171,
      "ĠlU": 3172,
      "Ġpast": 3173,
      "SIx": 3174,
      "ĠkÅĻ": 3175,
      "ĠNemS": 3176,
      "ĠvpÃŃ": 3177,
      "ĠanDel": 3178,
      "Ġkaz": 3179,
      "ĠlaÄį": 3180,
      "Ġvry": 3181,
      "ĠkÃ¡n": 3182,
      "CnI": 3183,
      "ĠstÃ©m": 3184,
      "ĠjvÃŃ": 3185,
      "Ġzek": 3186,
      "lEm": 3187,
      "Ġhvjest": 3188,
      "den": 3189,
      "Ġchlu": 3190,
      "Ġslech": 3191,
      "ĠvpÅĻÃŃ": 3192,
      "Ġnapo": 3193,
      "ĠhluÄį": 3194,
      "Ġlic": 3195,
      "ĠpRiSel": 3196,
      "ĠtÃ¡ÅĻ": 3197,
      "Ġbudu": 3198,
      "Ġhvjezd": 3199,
      "ĠvsvÃ©m": 3200,
      "Ġvrouc": 3201,
      "ĠTisI": 3202,
      "Ġtrest": 3203,
      "ĠfSexno": 3204,
      "ĠDivo": 3205,
      "Ġksrd": 3206,
      "ĠpRem": 3207,
      "Ġvzlet": 3208,
      "ĠvÄįer": 3209,
      "ĠUsmNef": 3210,
      "Ġspad": 3211,
      "ĠmÃ¡t": 3212,
      "ZnE": 3213,
      "Ġkvi": 3214,
      "rou": 3215,
      "Ġstan": 3216,
      "ĠkrAsi": 3217,
      "ĠÅ¾eb": 3218,
      "ĠtvÃ½": 3219,
      "zNe": 3220,
      "Ġluh": 3221,
      "ĠvdÄĽk": 3222,
      "ĠprAce": 3223,
      "Ġtroxu": 3224,
      "ĠÅĪu": 3225,
      "Sil": 3226,
      "ĠviDIm": 3227,
      "fÃ©": 3228,
      "ĠplAC": 3229,
      "dnA": 3230,
      "ĠmlÃ¡d": 3231,
      "Ġspolu": 3232,
      "Ġrixle": 3233,
      "ĠkvÃŃt": 3234,
      "Ret": 3235,
      "Ġbat": 3236,
      "ĠboS": 3237,
      "Ġxit": 3238,
      "ĠtÃ½l": 3239,
      "ĠhlÃ©d": 3240,
      "ĠÅĻÃŃch": 3241,
      "vAn": 3242,
      "ĠniÅ¾": 3243,
      "el": 3244,
      "ĠsTIni": 3245,
      "Ar": 3246,
      "ĠspIvA": 3247,
      "Ġstv": 3248,
      "RIS": 3249,
      "Ġdrah": 3250,
      "ĠvjeCNe": 3251,
      "ĠRA": 3252,
      "Ġrev": 3253,
      "ĠchlÃ©b": 3254,
      "ĠzQ": 3255,
      "ĠtÃŃch": 3256,
      "Sk": 3257,
      "ĠbÃ¡m": 3258,
      "Ġbohat": 3259,
      "ĠnaSI": 3260,
      "Ġzaj": 3261,
      "Ġprax": 3262,
      "ĠÅ¾Å¯": 3263,
      "der": 3264,
      "Ġkev": 3265,
      "Ã¡n": 3266,
      "ĠpolI": 3267,
      "ĠlÃŃÄį": 3268,
      "Nila": 3269,
      "ĠmÃŃm": 3270,
      "ĠslAvi": 3271,
      "ĠplÃ½": 3272,
      "ĠXXA": 3273,
      "ĠtlÃ½": 3274,
      "ĠmAS": 3275,
      "ĠkÅĻes": 3276,
      "dU": 3277,
      "Ac": 3278,
      "ĠtrU": 3279,
      "ĠneZli": 3280,
      "ĠplÃ¡l": 3281,
      "CIx": 3282,
      "hL": 3283,
      "Ġslast": 3284,
      "ĠÅ¾eÅ¡": 3285,
      "Ġopu": 3286,
      "Ġnuv": 3287,
      "ĠklÃ½": 3288,
      "lep": 3289,
      "ĠvÄĽÄı": 3290,
      "ĠsmI": 3291,
      "Ġdop": 3292,
      "ĠvplÃ¡": 3293,
      "Deli": 3294,
      "xUru": 3295,
      "Ġkoru": 3296,
      "Ġstry": 3297,
      "ĠhruT": 3298,
      "ĠSko": 3299,
      "Ġbohem": 3300,
      "Ġfra": 3301,
      "ĠnnÃ½ch": 3302,
      "Ġfan": 3303,
      "ĠCekA": 3304,
      "Ten": 3305,
      "Ġnejs": 3306,
      "Nici": 3307,
      "ĠvyÅ¡": 3308,
      "ĠpÅĻej": 3309,
      "leNI": 3310,
      "las": 3311,
      "Ġstvu": 3312,
      "ĠsvojI": 3313,
      "Ġpovje": 3314,
      "Ġjdem": 3315,
      "ĠrÃ¡z": 3316,
      "ĠdolU": 3317,
      "ĠsliÄį": 3318,
      "ĠsmA": 3319,
      "skEho": 3320,
      "ĠD": 3321,
      "kUm": 3322,
      "Ġnas": 3323,
      "ĠmoZ": 3324,
      "Ġblaho": 3325,
      "Ġmoz": 3326,
      "ĠpUj": 3327,
      "Ġprch": 3328,
      "ĠbÅĻeh": 3329,
      "ĠvtÄĽch": 3330,
      "ĠdRIm": 3331,
      "ĠbdÄĽ": 3332,
      "ĠhlA": 3333,
      "ĠlÃŃp": 3334,
      "cit": 3335,
      "ĠliDI": 3336,
      "dL": 3337,
      "ĠlÃ¡n": 3338,
      "ros": 3339,
      "ĠpQx": 3340,
      "Ġcou": 3341,
      "ĠsmÃ¡l": 3342,
      "Ġotev": 3343,
      "Ur": 3344,
      "Ġmost": 3345,
      "Ġduxa": 3346,
      "teli": 3347,
      "RIc": 3348,
      "Ġodv": 3349,
      "ĠlAsce": 3350,
      "Ġchlo": 3351,
      "Ġzji": 3352,
      "van": 3353,
      "stup": 3354,
      "ĠzARi": 3355,
      "ĠvbÃŃ": 3356,
      "Ġpsal": 3357,
      "Ġobras": 3358,
      "sL": 3359,
      "ĠTisIc": 3360,
      "Ġslovo": 3361,
      "ĠveÅ¡": 3362,
      "BB": 3363,
      "Ġznak": 3364,
      "Ġsmo": 3365,
      "Ġvten": 3366,
      "Ġvhlu": 3367,
      "ĠZlu": 3368,
      "Ġpohlet": 3369,
      "Ġhospo": 3370,
      "sek": 3371,
      "ĠptAk": 3372,
      "Ġchvat": 3373,
      "Ġvyh": 3374,
      "ĠnocI": 3375,
      "Dej": 3376,
      "Ġfs": 3377,
      "Ġvele": 3378,
      "Ġzlost": 3379,
      "Ġstroj": 3380,
      "ĠtÃŃÅĻ": 3381,
      "Ġkel": 3382,
      "ĠzaC": 3383,
      "Ġsvjetla": 3384,
      "Ġss": 3385,
      "ĠjakE": 3386,
      "ĠbdÃŃ": 3387,
      "ĠvmÃ©": 3388,
      "ĠkNI": 3389,
      "Ġopo": 3390,
      "ĠstaÅĪ": 3391,
      "ĠpÃŃt": 3392,
      "ĠcÃŃr": 3393,
      "Set": 3394,
      "ĠpeÄį": 3395,
      "ĠÅ¾ek": 3396,
      "Ġgdes": 3397,
      "Ġzyk": 3398,
      "ĠsÃŃÅ¡": 3399,
      "ĠzNe": 3400,
      "ĠchfÃŃ": 3401,
      "bit": 3402,
      "Ġvzpla": 3403,
      "ĠzmNe": 3404,
      "ĠvÃ¡ch": 3405,
      "ĠstÅĻel": 3406,
      "Ġnau": 3407,
      "ĠÅĪÃ¡": 3408,
      "Ġlesi": 3409,
      "Ġvslun": 3410,
      "ĠzÅĻÃŃÅ¡": 3411,
      "ĠÅ¡lech": 3412,
      "ĠtnÃŃ": 3413,
      "Ġtlum": 3414,
      "ĠÅ¾ik": 3415,
      "hlE": 3416,
      "ĠzIt": 3417,
      "ĠpLn": 3418,
      "mr": 3419,
      "Ġfor": 3420,
      "Ġsxas": 3421,
      "stro": 3422,
      "Atki": 3423,
      "ĠNixS": 3424,
      "Ġmov": 3425,
      "ĠprAvje": 3426,
      "nÃ½": 3427,
      "ĠstÃ½ch": 3428,
      "pki": 3429,
      "ĠvraÅ¥": 3430,
      "Ġrech": 3431,
      "Ġzmat": 3432,
      "xAzI": 3433,
      "ckE": 3434,
      "Ġzlem": 3435,
      "ĠÅ¾ÃŃch": 3436,
      "Ġhovo": 3437,
      "ck": 3438,
      "nk": 3439,
      "Tte": 3440,
      "Ġhlubi": 3441,
      "Ġsnil": 3442,
      "ĠsvatE": 3443,
      "ĠkÃ½s": 3444,
      "ĠCernE": 3445,
      "ĠfSix": 3446,
      "ĠfSixNi": 3447,
      "Ġpec": 3448,
      "ĠÅ¥ast": 3449,
      "Ġdvje": 3450,
      "ĠzÃ¡m": 3451,
      "pla": 3452,
      "Rik": 3453,
      "ĠmÅĻÃŃt": 3454,
      "pen": 3455,
      "Å¾ÃŃ": 3456,
      "ĠvklÃŃ": 3457,
      "ĠstÅ¯j": 3458,
      "ĠÄįnÃŃ": 3459,
      "Ġvda": 3460,
      "ĠmNesIc": 3461,
      "Ġkvet": 3462,
      "Ġsob": 3463,
      "Rela": 3464,
      "Cera": 3465,
      "Ġzraki": 3466,
      "ĠstrÃ©": 3467,
      "ĠSum": 3468,
      "ĠhrÃ¡t": 3469,
      "ĠnaSix": 3470,
      "ĠjinE": 3471,
      "ĠslatkE": 3472,
      "skIm": 3473,
      "ĠvnichÅ¾": 3474,
      "Ġsam": 3475,
      "ĠmalI": 3476,
      "ĠleÅ¾": 3477,
      "Ġlis": 3478,
      "Ġkul": 3479,
      "Ġbur": 3480,
      "ĠpÃ¡s": 3481,
      "Ġtud": 3482,
      "ĠDef": 3483,
      "ĠmiSlE": 3484,
      "ĠsNIx": 3485,
      "Ġmisli": 3486,
      "skEm": 3487,
      "Ġvhla": 3488,
      "Ġpras": 3489,
      "ĠhoR": 3490,
      "ĠmIt": 3491,
      "ĠlÃ©b": 3492,
      "nANI": 3493,
      "XXA": 3494,
      "ĠzvI": 3495,
      "Zeh": 3496,
      "ĠRIm": 3497,
      "ĠvlÅ¯": 3498,
      "ĠtmÄĽ": 3499,
      "ĠmrÃ¡": 3500,
      "Ġmec": 3501,
      "Ġzdr": 3502,
      "Ġzahra": 3503,
      "Ġmed": 3504,
      "Ġvic": 3505,
      "Ġlech": 3506,
      "ĠgdoS": 3507,
      "Ġjet": 3508,
      "Ġrus": 3509,
      "ĠjimÅ¾": 3510,
      "ĠvzkÅĻi": 3511,
      "Zem": 3512,
      "Tila": 3513,
      "Ġoba": 3514,
      "ĠmiSlen": 3515,
      "var": 3516,
      "ĠdnÄĽ": 3517,
      "ĠSa": 3518,
      "ĠkvÃ¡m": 3519,
      "ĠzaÄį": 3520,
      "Ġdon": 3521,
      "Ġchom": 3522,
      "Ġvech": 3523,
      "Ġvid": 3524,
      "jen": 3525,
      "Ġpodo": 3526,
      "ĠnÃ¡ÅĻ": 3527,
      "Ġhut": 3528,
      "Ġof": 3529,
      "Ġtlem": 3530,
      "Amen": 3531,
      "ĠkrAsnE": 3532,
      "Ġctno": 3533,
      "ĠZil": 3534,
      "Ġdosut": 3535,
      "ĠTela": 3536,
      "nula": 3537,
      "Ġpozdra": 3538,
      "ĠstÃ¡r": 3539,
      "Ġzlu": 3540,
      "ĠkvjetU": 3541,
      "Ġvja": 3542,
      "Ġmih": 3543,
      "Ġzdroj": 3544,
      "Ġnli": 3545,
      "Ġstih": 3546,
      "Ġmilost": 3547,
      "ĠÄįte": 3548,
      "ĠslÃ©z": 3549,
      "Ġzpra": 3550,
      "tÅĻ": 3551,
      "Ġvek": 3552,
      "Ġvml": 3553,
      "ĠzbraÅĪ": 3554,
      "Ra": 3555,
      "Ġzhou": 3556,
      "Ck": 3557,
      "slo": 3558,
      "Ġoku": 3559,
      "Ġlok": 3560,
      "ĠpohÅĻ": 3561,
      "Ġliv": 3562,
      "Ġzvolna": 3563,
      "ĠmIm": 3564,
      "rIm": 3565,
      "Ġvpe": 3566,
      "BX": 3567,
      "ĠtÄĽs": 3568,
      "Ġrosk": 3569,
      "ĠpeÅ¾": 3570,
      "ĠÅ¾et": 3571,
      "ĠbÃ¡j": 3572,
      "sli": 3573,
      "neS": 3574,
      "ĠcITI": 3575,
      "ĠmÄĽch": 3576,
      "Ġdus": 3577,
      "ĠkRIdla": 3578,
      "ĠtfÃ¡": 3579,
      "ĠmNesI": 3580,
      "ĠtoS": 3581,
      "ĠmNesta": 3582,
      "ĠpRIro": 3583,
      "Ġkrut": 3584,
      "ĠvzÃŃ": 3585,
      "ĠzvlÃ¡Å¡": 3586,
      "Ġlli": 3587,
      "ĠhÅĻÃ¡": 3588,
      "ZnI": 3589,
      "ĠdIm": 3590,
      "Ġvztek": 3591,
      "ĠsNeNI": 3592,
      "pad": 3593,
      "XABB": 3594,
      "Ġxla": 3595,
      "ĠkÅ¡": 3596,
      "Ġjov": 3597,
      "zNI": 3598,
      "ĠÅ¾er": 3599,
      "ĠprÃ¡h": 3600,
      "Ġperu": 3601,
      "Ġbeze": 3602,
      "Ġfste": 3603,
      "ĠplÃ¡t": 3604,
      "Ġvbou": 3605,
      "ĠnesmI": 3606,
      "ĠdnÃ½": 3607,
      "ĠztÃ©": 3608,
      "ĠvÄĽst": 3609,
      "ĠpiS": 3610,
      "go": 3611,
      "Ġhnal": 3612,
      "ĠspÃ¡t": 3613,
      "Ġmrou": 3614,
      "Ġsple": 3615,
      "ĠsliSI": 3616,
      "kANI": 3617,
      "Ġses": 3618,
      "ĠvLni": 3619,
      "ĠvÅ¡ic": 3620,
      "Ġskrom": 3621,
      "Ġzml": 3622,
      "ĠkQva": 3623,
      "ĠtvARe": 3624,
      "vila": 3625,
      "Ġvjeki": 3626,
      "jel": 3627,
      "ĠmiÅ¾": 3628,
      "ĠlIce": 3629,
      "Ġhvoz": 3630,
      "Ġtakto": 3631,
      "Ġsvjetem": 3632,
      "ĠÅ¾ÃŃz": 3633,
      "ĠnaC": 3634,
      "ĠcelA": 3635,
      "ĠtrÃ½": 3636,
      "Ġel": 3637,
      "Ġhnus": 3638,
      "Dila": 3639,
      "Ġdrs": 3640,
      "Ġubo": 3641,
      "Ġsech": 3642,
      "ĠsÃ©": 3643,
      "ĠnÃŃÅ¡": 3644,
      "Ġdomo": 3645,
      "ĠlÅ¯m": 3646,
      "nulo": 3647,
      "ĠpoÅ¡": 3648,
      "ĠbÃŃt": 3649,
      "vEho": 3650,
      "tku": 3651,
      "Ste": 3652,
      "ĠhnÃ¡": 3653,
      "Ġnelze": 3654,
      "jA": 3655,
      "ĠvÅĪa": 3656,
      "ĠblIS": 3657,
      "ĠCasem": 3658,
      "ĠvUNe": 3659,
      "Ġobzo": 3660,
      "ĠReC": 3661,
      "Ġznova": 3662,
      "stex": 3663,
      "lun": 3664,
      "ĠDif": 3665,
      "ĠZije": 3666,
      "ĠprU": 3667,
      "ĠvISe": 3668,
      "ĠtlÃ¡": 3669,
      "Ġvzla": 3670,
      "Ġspor": 3671,
      "rit": 3672,
      "Ġniv": 3673,
      "vol": 3674,
      "Ġzhlu": 3675,
      "ĠfstRIc": 3676,
      "pL": 3677,
      "ĠnÄĽch": 3678,
      "ĠtÃŃs": 3679,
      "Ġslunci": 3680,
      "ĠhÅĻÃŃÅ¡": 3681,
      "ĠdAm": 3682,
      "Ġotro": 3683,
      "ĠtÅĻÃ¡s": 3684,
      "ĠmÃ¡j": 3685,
      "Ġokem": 3686,
      "ĠlÃ¡t": 3687,
      "Ġstez": 3688,
      "Ġjvy": 3689,
      "Ġzrov": 3690,
      "del": 3691,
      "Ġslal": 3692,
      "sTil": 3693,
      "Ġdvor": 3694,
      "ĠdIx": 3695,
      "ĠslAva": 3696,
      "ujI": 3697,
      "ĠhNI": 3698,
      "ĠÅĻo": 3699,
      "ĠschvÃ¡": 3700,
      "Ġvrch": 3701,
      "ĠbIlA": 3702,
      "ĠkI": 3703,
      "Ġdec": 3704,
      "ĠkQvI": 3705,
      "ĠstarA": 3706,
      "zNi": 3707,
      "eN": 3708,
      "ĠtÅĻÃŃÅ¡": 3709,
      "ĠvÃŃÄį": 3710,
      "ĠspÄĽÅ¡": 3711,
      "leTI": 3712,
      "ĠsprÃ¡": 3713,
      "Ġmnoh": 3714,
      "Ġsluch": 3715,
      "Ġvkte": 3716,
      "ĠspÄĽl": 3717,
      "ĠznÃ¡s": 3718,
      "Ġcesti": 3719,
      "Ġtka": 3720,
      "Ġjara": 3721,
      "rex": 3722,
      "Ġluk": 3723,
      "ĠspÄĽch": 3724,
      "zal": 3725,
      "ĠctÃŃ": 3726,
      "ĠxrAm": 3727,
      "ĠnevIm": 3728,
      "Ġviso": 3729,
      "ĠvLn": 3730,
      "ĠblÃ¡z": 3731,
      "Ġvih": 3732,
      "ĠxI": 3733,
      "ĠchÃ½m": 3734,
      "Ġjedna": 3735,
      "ĠvrÃ¡s": 3736,
      "Ġvhru": 3737,
      "ĠsluÅ¡": 3738,
      "nASI": 3739,
      "ĠvlI": 3740,
      "Ġmilen": 3741,
      "Ġmoji": 3742,
      "Ġhrobu": 3743,
      "Ġdic": 3744,
      "zA": 3745,
      "rov": 3746,
      "ry": 3747,
      "Ġluj": 3748,
      "ĠsfÄĽt": 3749,
      "Ġvde": 3750,
      "Ġstrh": 3751,
      "ĠusmI": 3752,
      "Ġhym": 3753,
      "Ġzdar": 3754,
      "ĠstÅĻÃ¡": 3755,
      "Ġchyt": 3756,
      "ĠsNi": 3757,
      "lan": 3758,
      "ĠmlÃ½": 3759,
      "Ġbjeda": 3760,
      "xI": 3761,
      "ĠpusÅ¥": 3762,
      "ĠÅ¡Å¥a": 3763,
      "ĠbÄĽÅ¥": 3764,
      "ĠSla": 3765,
      "Ġhna": 3766,
      "ĠlÃŃÅ¡": 3767,
      "ga": 3768,
      "Ġw": 3769,
      "Ġnach": 3770,
      "ĠmÄĽt": 3771,
      "ĠmoRi": 3772,
      "Ġzej": 3773,
      "ĠzÃ¡Å¡": 3774,
      "Ġdev": 3775,
      "deS": 3776,
      "ĠhÃ¡ch": 3777,
      "tNI": 3778,
      "ĠjinI": 3779,
      "Cin": 3780,
      "ĠsmÄĽs": 3781,
      "ĠklA": 3782,
      "ĠjeÅ¥": 3783,
      "Ġfsta": 3784,
      "ĠzARe": 3785,
      "ĠNeco": 3786,
      "Ġdnu": 3787,
      "ĠÅ¡pat": 3788,
      "dlI": 3789,
      "ĠABA": 3790,
      "Ġsan": 3791,
      "ĠmNela": 3792,
      "Ġvlu": 3793,
      "ĠXAXABB": 3794,
      "my": 3795,
      "ĠseDI": 3796,
      "Ġmatki": 3797,
      "Ġvodi": 3798,
      "Ġvyr": 3799,
      "Ġsig": 3800,
      "Ġvbe": 3801,
      "ĠvsxUru": 3802,
      "Ġzbor": 3803,
      "ĠmislI": 3804,
      "ĠhÅĻmÄĽ": 3805,
      "Ġmet": 3806,
      "Ġmas": 3807,
      "Ġslz": 3808,
      "ĠdoÄį": 3809,
      "Ġdole": 3810,
      "spoN": 3811,
      "ĠvÄĽl": 3812,
      "Ġptal": 3813,
      "ĠvzdA": 3814,
      "Ġav": 3815,
      "ĠzvuÄį": 3816,
      "ĠjIS": 3817,
      "ĠspÃ¡n": 3818,
      "ĠmluvI": 3819,
      "ĠchfÃŃli": 3820,
      "ĠdI": 3821,
      "zrak": 3822,
      "Ġpre": 3823,
      "Ġnot": 3824,
      "Ġpam": 3825,
      "Ġvtv": 3826,
      "Ġjmen": 3827,
      "Ġxa": 3828,
      "ES": 3829,
      "ĠtrÅ¯n": 3830,
      "ĠÅĪo": 3831,
      "Ġmodlid": 3832,
      "Ġlka": 3833,
      "ĠjakA": 3834,
      "ĠÄįÃ¡t": 3835,
      "ĠpÅĻÃŃm": 3836,
      "ĠUsta": 3837,
      "Ġpne": 3838,
      "ĠjvyÅ¡": 3839,
      "Ġvprach": 3840,
      "ĠAXXA": 3841,
      "ĠCele": 3842,
      "ĠtvÅ¯r": 3843,
      "Ġdan": 3844,
      "ĠzaS": 3845,
      "Ġmox": 3846,
      "ĠÅ¾es": 3847,
      "ĠvznÄĽ": 3848,
      "Ġoblo": 3849,
      "Tel": 3850,
      "ĠzmÃ¡": 3851,
      "ĠreÄį": 3852,
      "Ġhvjezda": 3853,
      "ĠstÃ½m": 3854,
      "ĠslatkI": 3855,
      "ĠtI": 3856,
      "ĠzApas": 3857,
      "ĠdneÅ¡": 3858,
      "bra": 3859,
      "Ġvsp": 3860,
      "Ġkterak": 3861,
      "ĠÃºst": 3862,
      "Nej": 3863,
      "ĠslÅ¯": 3864,
      "ĠzÃ¡ch": 3865,
      "Ġdoma": 3866,
      "ĠÅ¡ak": 3867,
      "Ġkonec": 3868,
      "ĠdosTi": 3869,
      "Ġzkou": 3870,
      "Ġton": 3871,
      "ĠzlI": 3872,
      "Ġ20": 3873,
      "ĠsLza": 3874,
      "Ġvma": 3875,
      "ĠkeÅĻ": 3876,
      "ĠcÃ¡": 3877,
      "Ġpest": 3878,
      "ĠvÄĽj": 3879,
      "ĠvlÃ©": 3880,
      "dQ": 3881,
      "Ġztr": 3882,
      "ĠmEm": 3883,
      "ĠfI": 3884,
      "Ġrot": 3885,
      "kone": 3886,
      "Ġvmi": 3887,
      "Ġvpu": 3888,
      "ĠmÄĽÅ¡": 3889,
      "ĠTisk": 3890,
      "Ġmot": 3891,
      "ĠkÄįe": 3892,
      "Ġdobi": 3893,
      "ĠmoÅĻ": 3894,
      "vaTi": 3895,
      "vec": 3896,
      "ĠstraS": 3897,
      "Ġgdisi": 3898,
      "Ġzkve": 3899,
      "ĠpÅĻÃ¡l": 3900,
      "ĠpLnI": 3901,
      "Ġproz": 3902,
      "Ġer": 3903,
      "Ġklou": 3904,
      "Ġlud": 3905,
      "Ġbrov": 3906,
      "ĠmojI": 3907,
      "ĠNa": 3908,
      "lÃ½ch": 3909,
      "ĠÅ¡pi": 3910,
      "ĠdÃ©l": 3911,
      "Ġzkr": 3912,
      "Ġpoto": 3913,
      "ĠÅ¾to": 3914,
      "Ġrto": 3915,
      "Ġzmu": 3916,
      "ĠÅ¥an": 3917,
      "ĠtvARI": 3918,
      "ĠdÃ©Å¡Å¥": 3919,
      "Ġmist": 3920,
      "Ġbub": 3921,
      "ĠdlÃ½ch": 3922,
      "ĠmladE": 3923,
      "ĠzkÃ¡": 3924,
      "gu": 3925,
      "Ġvles": 3926,
      "ĠfSexni": 3927,
      "ĠZIt": 3928,
      "Ġstus": 3929,
      "Ġnero": 3930,
      "ĠSli": 3931,
      "klI": 3932,
      "ĠpovI": 3933,
      "Ġvzly": 3934,
      "Ġkams": 3935,
      "ĠsTen": 3936,
      "ĠhoDi": 3937,
      "Ġzhas": 3938,
      "Ġdub": 3939,
      "ĠDec": 3940,
      "ĠCela": 3941,
      "Ġsha": 3942,
      "ĠznÃ¡Å¡": 3943,
      "ĠbiT": 3944,
      "Ġvaz": 3945,
      "Ġrud": 3946,
      "Nili": 3947,
      "ĠhRe": 3948,
      "Ġslep": 3949,
      "Ġvyj": 3950,
      "Ġstic": 3951,
      "ĠvsnÄĽ": 3952,
      "ĠkÅ¯ÅĪ": 3953,
      "Ġrol": 3954,
      "Ġroste": 3955,
      "ĠkRIS": 3956,
      "ĠkES": 3957,
      "Ġplach": 3958,
      "ĠvzrÅ¯": 3959,
      "Ġchot": 3960,
      "Ġ,": 3961,
      "ĠaspoN": 3962,
      "ĠsfÃ©m": 3963,
      "ĠslavI": 3964,
      "ĠtvEho": 3965,
      "ĠchÃ¡ch": 3966,
      "ĠvpÅ¯": 3967,
      "Ġrosxo": 3968,
      "Ġvtip": 3969,
      "ĠnaDeje": 3970,
      "kat": 3971,
      "nuli": 3972,
      "Ġpust": 3973,
      "ĠRIci": 3974,
      "ĠsIla": 3975,
      "vjel": 3976,
      "ĠstÅ¯l": 3977,
      "Ġklek": 3978,
      "ĠpRIs": 3979,
      "ĠkaZdA": 3980,
      "ĠcITIm": 3981,
      "ĠÄıas": 3982,
      "lEt": 3983,
      "ĠsvEmu": 3984,
      "ĠklidNe": 3985,
      "ĠpoDi": 3986,
      "ZeNI": 3987,
      "Ġzja": 3988,
      "ĠvtvÃ¡ÅĻ": 3989,
      "Ġchi": 3990,
      "valo": 3991,
      "Ġstrou": 3992,
      "Ġskrit": 3993,
      "ĠmAme": 3994,
      "Ġlich": 3995,
      "Tili": 3996,
      "ĠzdrÃ¡v": 3997,
      "Ġche": 3998,
      "Cet": 3999,
      "ĠstromU": 4000,
      "Ġkvas": 4001,
      "ĠhledA": 4002,
      "ĠÅĻin": 4003,
      "ĠdAlki": 4004,
      "ĠdobrE": 4005,
      "ĠmladI": 4006,
      "ĠUst": 4007,
      "Ġhlasem": 4008,
      "Ġvsou": 4009,
      "Ġkout": 4010,
      "ĠlitskE": 4011,
      "ĠsprA": 4012,
      "ĠoheN": 4013,
      "ĠUt": 4014,
      "ĠkfÄĽ": 4015,
      "Ġnoch": 4016,
      "Ġchyb": 4017,
      "ĠjvÃŃc": 4018,
      "ĠtuÅ¾": 4019,
      "ĠzdrA": 4020,
      "nen": 4021,
      "ĠchraÅĪ": 4022,
      "Ġspe": 4023,
      "ĠbÃ¡l": 4024,
      "Ġheb": 4025,
      "ĠzAvo": 4026,
      "ĠpojT": 4027,
      "ĠzItra": 4028,
      "Ġvme": 4029,
      "Ã¡m": 4030,
      "ĠmnÃŃ": 4031,
      "ĠkÃ¡Å¡": 4032,
      "ĠmnohI": 4033,
      "ĠsÄįe": 4034,
      "ĠjarNI": 4035,
      "Ġstek": 4036,
      "ĠskAli": 4037,
      "Ġspol": 4038,
      "ĠvÃ¡b": 4039,
      "ĠtiÅ¡": 4040,
      "ĠcIsa": 4041,
      "ĠsTInu": 4042,
      "Sek": 4043,
      "Ġnam": 4044,
      "ĠpÃŃm": 4045,
      "ĠkAmen": 4046,
      "Dili": 4047,
      "dajI": 4048,
      "rel": 4049,
      "ĠxceS": 4050,
      "ĠbrÃ¡z": 4051,
      "ĠhlI": 4052,
      "Ġrti": 4053,
      "Reli": 4054,
      "ĠhÃ¡j": 4055,
      "ĠnAd": 4056,
      "ĠchÅĻi": 4057,
      "ĠÅ¡in": 4058,
      "Ġvzdux": 4059,
      "Ġtako": 4060,
      "RIt": 4061,
      "Ġkraje": 4062,
      "Ġokam": 4063,
      "Ġzmar": 4064,
      "Ġvzdi": 4065,
      "Ġzjef": 4066,
      "ĠvjeCnE": 4067,
      "ĠtvIm": 4068,
      "Ġslib": 4069,
      "Ġruki": 4070,
      "ĠdobrI": 4071,
      "ĠsvÅ¯d": 4072,
      "Ġvci": 4073,
      "Ġryb": 4074,
      "ĠsnÄĽÅ¾": 4075,
      "Ġkryl": 4076,
      "Ġrec": 4077,
      "ĠkrAsnA": 4078,
      "dej": 4079,
      "ĠCest": 4080,
      "Ġdobro": 4081,
      "ĠkU": 4082,
      "ĠsLz": 4083,
      "Ġspja": 4084,
      "ĠhNIz": 4085,
      "Ġmin": 4086,
      "Ġkrov": 4087,
      "Ġmlou": 4088,
      "ĠsÄį": 4089,
      "Ġxat": 4090,
      "mou": 4091,
      "ĠmÃ¡l": 4092,
      "ĠXXAABB": 4093,
      "Ġsest": 4094,
      "ĠuCi": 4095,
      "ĠdrahA": 4096,
      "ĠrAno": 4097,
      "ĠÅ¡eÅĪ": 4098,
      "Ġstis": 4099,
      "Ġkje": 4100,
      "ĠplÃ¡Å¡Å¥": 4101,
      "ĠpRIliS": 4102,
      "sil": 4103,
      "Ġnekone": 4104,
      "ĠÅ¾hou": 4105,
      "ĠtlÃŃ": 4106,
      "ĠohNi": 4107,
      "Ġosu": 4108,
      "koli": 4109,
      "Ġrtu": 4110,
      "ĠkrACI": 4111,
      "Ġvedle": 4112,
      "tan": 4113,
      "ĠAAXB": 4114,
      "Ġtul": 4115,
      "ĠoltA": 4116,
      "Ġchmu": 4117,
      "Ġtrav": 4118,
      "Ġmst": 4119,
      "uj": 4120,
      "ĠDIvA": 4121,
      "Ġdrost": 4122,
      "ckI": 4123,
      "rEm": 4124,
      "ĠrAni": 4125,
      "ĠsnÃŃt": 4126,
      "ĠblÃ©": 4127,
      "ĠfstA": 4128,
      "ĠtEto": 4129,
      "ĠpLnE": 4130,
      "Ġvzle": 4131,
      "ĠtRI": 4132,
      "ĠpoZeh": 4133,
      "Ġzab": 4134,
      "Ġlel": 4135,
      "ĠvÄįas": 4136,
      "ĠdeÄį": 4137,
      "Ġpodzi": 4138,
      "Ġrozum": 4139,
      "Ġzte": 4140,
      "Ġvob": 4141,
      "ĠbudeS": 4142,
      "Ġtmi": 4143,
      "Ġuh": 4144,
      "Ġrosx": 4145,
      "ĠlEta": 4146,
      "Ġsvr": 4147,
      "ĠjÃ¡k": 4148,
      "Ġchet": 4149,
      "ĠjehoS": 4150,
      "ĠschÃ¡": 4151,
      "vra": 4152,
      "ĠÅ¾iÅ¾": 4153,
      "spje": 4154,
      "ĠÅ¡lÃŃ": 4155,
      "sel": 4156,
      "ĠroskoS": 4157,
      "ĠCem": 4158,
      "ĠTisIce": 4159,
      "rk": 4160,
      "ĠzdaÅ¾": 4161,
      "ĠmuZi": 4162,
      "Ġston": 4163,
      "ĠdosÅ¥": 4164,
      "vej": 4165,
      "pQf": 4166,
      "ĠvzlÃ©": 4167,
      "ĠkÅ¾i": 4168,
      "Ġano": 4169,
      "ĠsÃŃÄį": 4170,
      "ĠjImS": 4171,
      "ĠÅ¡leh": 4172,
      "lej": 4173,
      "Ġprosto": 4174,
      "Ġjinak": 4175,
      "Sko": 4176,
      "Ġztu": 4177,
      "ĠdraÅ¾": 4178,
      "ĠnÃŃÄį": 4179,
      "ĠzlÃ½ch": 4180,
      "ĠzaTIm": 4181,
      "Ġnesli": 4182,
      "zeN": 4183,
      "ĠTixI": 4184,
      "Ġsos": 4185,
      "ĠmotI": 4186,
      "ĠTixE": 4187,
      "Ġasi": 4188,
      "Ġvzb": 4189,
      "ĠpÃŃÅ¡": 4190,
      "Ġtvar": 4191,
      "Rek": 4192,
      "tele": 4193,
      "ĠkrAt": 4194,
      "Ġclav": 4195,
      "Ġnah": 4196,
      "Ġmni": 4197,
      "rof": 4198,
      "Ġvab": 4199,
      "ĠrAj": 4200,
      "sal": 4201,
      "ĠsliSel": 4202,
      "nko": 4203,
      "ReNI": 4204,
      "ĠÄįist": 4205,
      "ĠsrÃ¡": 4206,
      "Ġvpou": 4207,
      "tajI": 4208,
      "ĠloT": 4209,
      "ĠzdÃŃ": 4210,
      "ĠpIsNi": 4211,
      "Ġjagbi": 4212,
      "Ġvok": 4213,
      "Ixo": 4214,
      "Ġmez": 4215,
      "Ġchlap": 4216,
      "ĠdrahE": 4217,
      "ĠjdeÅ¡": 4218,
      "Ġsep": 4219,
      "Ġnef": 4220,
      "ĠkÄį": 4221,
      "Ġdvi": 4222,
      "Ġvmra": 4223,
      "ĠklÃ¡Å¡": 4224,
      "ĠsplI": 4225,
      "Ġzmr": 4226,
      "ĠvzpÃŃ": 4227,
      "ĠÅ¡kle": 4228,
      "Ġcesta": 4229,
      "ĠtÃ¡z": 4230,
      "rnE": 4231,
      "ĠdAvA": 4232,
      "Ġnade": 4233,
      "tost": 4234,
      "ĠsfÄĽtÄĽ": 4235,
      "ĠtÄĽn": 4236,
      "Ġtrap": 4237,
      "Ġnebil": 4238,
      "ĠjixS": 4239,
      "Ġhlavje": 4240,
      "ĠdrÃ½ch": 4241,
      "Ġhrot": 4242,
      "ĠsQtcem": 4243,
      "Ġvkro": 4244,
      "ĠsdÄĽ": 4245,
      "ĠchÃ½ch": 4246,
      "ĠbAsNI": 4247,
      "Ġbzu": 4248,
      "Ġsami": 4249,
      "ĠmIru": 4250,
      "ĠradosTi": 4251,
      "bNI": 4252,
      "ĠstÄĽn": 4253,
      "ĠuÅ¡": 4254,
      "ĠcÅ¯v": 4255,
      "dat": 4256,
      "Ġvzem": 4257,
      "ĠÄıa": 4258,
      "Ġzdob": 4259,
      "Ġrtem": 4260,
      "Ġmrav": 4261,
      "Ġslof": 4262,
      "kali": 4263,
      "Ġtento": 4264,
      "ĠsIlu": 4265,
      "Ġnapos": 4266,
      "ĠbQzi": 4267,
      "ĠnÃ©st": 4268,
      "Ġsup": 4269,
      "Ġpis": 4270,
      "Ġprapo": 4271,
      "Ġxvil": 4272,
      "ĠdUm": 4273,
      "Ġzta": 4274,
      "ĠCernI": 4275,
      "Ġdoko": 4276,
      "Ġstoj": 4277,
      "Ġzed": 4278,
      "ĠmÄĽr": 4279,
      "lEp": 4280,
      "ĠkrAsnI": 4281,
      "Ġvbu": 4282,
      "ĠkÅĻiv": 4283,
      "ĠvAl": 4284,
      "ĠvhÃ¡": 4285,
      "ĠdruhI": 4286,
      "ĠnÅ¯v": 4287,
      "Ġvlasi": 4288,
      "ĠzpÅ¯": 4289,
      "ĠkrAli": 4290,
      "ĠlisTI": 4291,
      "ĠmilE": 4292,
      "ĠtQp": 4293,
      "ĠmÃ¡Å¥": 4294,
      "Ġsar": 4295,
      "ĠdvE": 4296,
      "ĠmajI": 4297,
      "ĠsvjeTe": 4298,
      "Ġbok": 4299,
      "ĠmNeli": 4300,
      "ĠvchrÃ¡": 4301,
      "ĠsliSIm": 4302,
      "ĠobrA": 4303,
      "ĠskvÃŃ": 4304,
      "rAx": 4305,
      "ĠsdÃŃ": 4306,
      "lez": 4307,
      "Ġvpla": 4308,
      "ĠsÃºs": 4309,
      "Ġhry": 4310,
      "Ġzet": 4311,
      "Ġotce": 4312,
      "ĠxoDI": 4313,
      "Ġvskut": 4314,
      "kAm": 4315,
      "Ġpraxu": 4316,
      "Ġznovu": 4317,
      "Ġdov": 4318,
      "Ġboje": 4319,
      "ĠmuZe": 4320,
      "ĠCex": 4321,
      "Ġdarmo": 4322,
      "ĠnAdh": 4323,
      "ĠvÃŃs": 4324,
      "ĠdvÅ¯r": 4325,
      "ĠnAruC": 4326,
      "ĠjvÄĽt": 4327,
      "ĠcITil": 4328,
      "Ġkho": 4329,
      "man": 4330,
      "ĠXXXA": 4331,
      "ĠplACe": 4332,
      "ĠriTI": 4333,
      "mQ": 4334,
      "Ġgro": 4335,
      "ĠtÅĻeÅ¡": 4336,
      "ĠnnÃ½m": 4337,
      "ĠCt": 4338,
      "Ġstromi": 4339,
      "Ġjek": 4340,
      "ĠmÃ¡n": 4341,
      "Ġvzej": 4342,
      "ĠnÃ¡c": 4343,
      "Ġjazi": 4344,
      "Ġvsl": 4345,
      "Ġpravil": 4346,
      "ĠnedA": 4347,
      "Ġvzch": 4348,
      "cel": 4349,
      "Ġstit": 4350,
      "ĠvmÃŃ": 4351,
      "ĠpIx": 4352,
      "ĠroDi": 4353,
      "ĠduÅ¡": 4354,
      "Ġpravda": 4355,
      "ĠkvÃ½": 4356,
      "ĠÅ¡Å¯": 4357,
      "Ġpuk": 4358,
      "ĠReCi": 4359,
      "ĠbÄĽl": 4360,
      "ĠzrA": 4361,
      "ĠhvÃŃ": 4362,
      "Ġvboj": 4363,
      "dAm": 4364,
      "Ġvzni": 4365,
      "ĠvnitÅĻ": 4366,
      "Ġjou": 4367,
      "ĠplÃ¡Å¡": 4368,
      "tU": 4369,
      "ĠnÃ¡n": 4370,
      "Ġlom": 4371,
      "ĠlesU": 4372,
      "ĠZalo": 4373,
      "Ġoj": 4374,
      "Ġvzor": 4375,
      "ĠhruDi": 4376,
      "Ġsnech": 4377,
      "ĠzvÄĽÅĻ": 4378,
      "Ġpoho": 4379,
      "ĠjÃŃÅ¡": 4380,
      "teC": 4381,
      "ĠpsÃ¡": 4382,
      "ĠvÄĽÅ¾": 4383,
      "US": 4384,
      "ĠzeÄı": 4385,
      "Ġvznes": 4386,
      "ĠzAko": 4387,
      "Ġvdla": 4388,
      "ĠSumI": 4389,
      "Ġkous": 4390,
      "ĠzraÄį": 4391,
      "ĠkdeÅ¾": 4392,
      "ĠzbÃ½": 4393,
      "Ġdobje": 4394,
      "ĠtÅĻÃŃm": 4395,
      "lesk": 4396,
      "ĠskQ": 4397,
      "Ġdaf": 4398,
      "Ġvkru": 4399,
      "kala": 4400,
      "ĠvÃŃk": 4401,
      "Ġprsk": 4402,
      "ĠvpÃŃs": 4403,
      "Upje": 4404,
      "ĠvjetSI": 4405,
      "Ġkole": 4406,
      "ĠCasu": 4407,
      "ĠsvjeZI": 4408,
      "?!": 4409,
      "ĠbratQ": 4410,
      "ĠobjeTI": 4411,
      "ĠvlasÅ¥": 4412,
      "ĠZel": 4413,
      "ĠmilosTi": 4414,
      "ZA": 4415,
      "Ġhrat": 4416,
      "Ġkras": 4417,
      "Ġtmu": 4418,
      "ĠskRi": 4419,
      "Ġblanki": 4420,
      "ĠvmÃ©m": 4421,
      "ĠbratRI": 4422,
      "Ġposut": 4423,
      "Ġnexce": 4424,
      "Ġvran": 4425,
      "Slo": 4426,
      "nEmu": 4427,
      "ĠjIt": 4428,
      "nÃ¡ch": 4429,
      "Ġzhro": 4430,
      "ĠmITi": 4431,
      "Ġplav": 4432,
      "Ġrce": 4433,
      "ĠSle": 4434,
      "Ġstrun": 4435,
      "Ġmnich": 4436,
      "Ġstel": 4437,
      "Ġnnost": 4438,
      "ĠfTi": 4439,
      "Ġsvad": 4440,
      "ĠpamNe": 4441,
      "ĠzI": 4442,
      "Ġtuj": 4443,
      "Ġspl": 4444,
      "Ġramen": 4445,
      "hU": 4446,
      "Ġlesa": 4447,
      "ĠoCIx": 4448,
      "ĠNader": 4449,
      "ĠnoÅ¾": 4450,
      "ĠÅĻÃŃc": 4451,
      "ĠDA": 4452,
      "miS": 4453,
      "Ġak": 4454,
      "mil": 4455,
      "ĠÅ¡ÃŃp": 4456,
      "ĠrUZI": 4457,
      "ĠjmEno": 4458,
      "ĠpÄĽst": 4459,
      "Ġtrux": 4460,
      "STen": 4461,
      "Ġchol": 4462,
      "Ġskvje": 4463,
      "Ġzapla": 4464,
      "ĠstRIbQ": 4465,
      "ĠpriC": 4466,
      "Ġjist": 4467,
      "ĠksvÃ©": 4468,
      "ĠRekL": 4469,
      "ĠmeÅĪ": 4470,
      "vIrA": 4471,
      "ĠvjekU": 4472,
      "Ġhrobje": 4473,
      "ĠzmI": 4474,
      "nami": 4475,
      "rNe": 4476,
      "ĠvbÄĽ": 4477,
      "Ġvhod": 4478,
      "Ġjestli": 4479,
      "ĠmalE": 4480,
      "Ġcar": 4481,
      "stem": 4482,
      "Ġfje": 4483,
      "ĠkrAse": 4484,
      "ĠbÃ¡t": 4485,
      "Ġkryt": 4486,
      "ala": 4487,
      "ĠvaSi": 4488,
      "Ġxvjeje": 4489,
      "lEho": 4490,
      "Ġokna": 4491,
      "Ġsdu": 4492,
      "ĠsplÃ¡": 4493,
      "ĠbÃ¡z": 4494,
      "ĠlÅ¯Å¾": 4495,
      "cenE": 4496,
      "ĠrAzem": 4497,
      "ĠdÄĽd": 4498,
      "Ġvlet": 4499,
      "ĠÅ¾eÅĪ": 4500,
      "tej": 4501,
      "ĠzUsta": 4502,
      "Ġfla": 4503,
      "ĠpRede": 4504,
      "ĠhÅĻeb": 4505,
      "Ġzrakem": 4506,
      "ĠhrÅ¯z": 4507,
      "Ġvj": 4508,
      "vNe": 4509,
      "ĠtenkrAt": 4510,
      "ĠmusIm": 4511,
      "zIm": 4512,
      "Ġvku": 4513,
      "ĠsmrÅ¥": 4514,
      "Ġpodzim": 4515,
      "Ġzjas": 4516,
      "Ġplax": 4517,
      "rnI": 4518,
      "Ġlidem": 4519,
      "Ġsc": 4520,
      "ĠnaN": 4521,
      "Ġfri": 4522,
      "Ġprobu": 4523,
      "ĠÅĻist": 4524,
      "ĠkvITI": 4525,
      "ĠmNesto": 4526,
      "Ġchej": 4527,
      "Ġvzma": 4528,
      "RenE": 4529,
      "Ġprom": 4530,
      "ĠvjeCnI": 4531,
      "ĠkNIZe": 4532,
      "ĠdAt": 4533,
      "ĠzdAlo": 4534,
      "Ġzpr": 4535,
      "Ġzhlou": 4536,
      "ĠbRehu": 4537,
      "ĠÅ¥Ã¡": 4538,
      "ĠÅĻev": 4539,
      "ĠpE": 4540,
      "ĠmdlÃ½": 4541,
      "ĠpANi": 4542,
      "Ġpop": 4543,
      "Ġpokoj": 4544,
      "ĠhÃ¡r": 4545,
      "Ġker": 4546,
      "lIZI": 4547,
      "Ġslatce": 4548,
      "ĠmisL": 4549,
      "Ġvede": 4550,
      "Rila": 4551,
      "Ġchen": 4552,
      "ĠDeTI": 4553,
      "Ġdlel": 4554,
      "ĠrAda": 4555,
      "Ro": 4556,
      "Ġproh": 4557,
      "Ġvba": 4558,
      "ĠkÃº": 4559,
      "ĠvUle": 4560,
      "ĠpAr": 4561,
      "Ġtluk": 4562,
      "Ġhlat": 4563,
      "ĠpÅĻ": 4564,
      "ĠsQtcI": 4565,
      "Ġonen": 4566,
      "Ġlese": 4567,
      "Ġsse": 4568,
      "ĠmZi": 4569,
      "Ġsnes": 4570,
      "Ġhox": 4571,
      "Ġotpu": 4572,
      "ĠÃ¡l": 4573,
      "ata": 4574,
      "ĠnÄĽmÅ¾": 4575,
      "Ġduxu": 4576,
      "ĠÄįar": 4577,
      "ĠÅ¡im": 4578,
      "Ġvpod": 4579,
      "Ġdnech": 4580,
      "ĠvnÃ¡s": 4581,
      "Ġbudem": 4582,
      "jIt": 4583,
      "ĠDeDi": 4584,
      "krAs": 4585,
      "ĠvtrÃ¡": 4586,
      "ĠdnU": 4587,
      "Ġvzdex": 4588,
      "Ġzbled": 4589,
      "ĠznichÅ¾": 4590,
      "Ġprob": 4591,
      "ĠsÃŃÅĪ": 4592,
      "ĠAAAX": 4593,
      "CnA": 4594,
      "ĠmuZ": 4595,
      "ĠblaZen": 4596,
      "ĠkteRI": 4597,
      "rije": 4598,
      "Sto": 4599,
      "ĠÅ¡vi": 4600,
      "ĠCist": 4601,
      "ĠhrUz": 4602,
      "nd": 4603,
      "ĠplÃ¡ÅĪ": 4604,
      "nut": 4605,
      "Ġkali": 4606,
      "Ġsmutek": 4607,
      "Ġvzro": 4608,
      "ĠmÅ¾ik": 4609,
      "ĠNim": 4610,
      "Ġxle": 4611,
      "Ġsvjetu": 4612,
      "Ġpoe": 4613,
      "ĠmizI": 4614,
      "ĠzbÄĽ": 4615,
      "ĠkrAle": 4616,
      "ĠfSIm": 4617,
      "han": 4618,
      "ĠsmutNe": 4619,
      "Ġshla": 4620,
      "ĠAX": 4621,
      "Ġstor": 4622,
      "Ġster": 4623,
      "ĠlIc": 4624,
      "peNI": 4625,
      "ĠchÅĻe": 4626,
      "ĠmoZno": 4627,
      "ĠcTi": 4628,
      "Ġhed": 4629,
      "ĠsvatA": 4630,
      "ĠskÅĻe": 4631,
      "ĠmeÅ¡": 4632,
      "ĠlÃŃk": 4633,
      "ĠfSemi": 4634,
      "ĠzvÃ¡s": 4635,
      "Ġkoste": 4636,
      "ĠZeb": 4637,
      "ĠvstÅĻe": 4638,
      "Ġdlech": 4639,
      "Ġkvil": 4640,
      "Ġhvi": 4641,
      "Ġzadu": 4642,
      "ĠpRiSla": 4643,
      "Ġpravdu": 4644,
      "Ġchly": 4645,
      "Ġvsva": 4646,
      "ĠvrÅ¯": 4647,
      "ĠTeSkE": 4648,
      "Ġzbroj": 4649,
      "Ġsvla": 4650,
      "ĠkrAsa": 4651,
      "ĠmdlÃ©": 4652,
      "ĠviÅ¡": 4653,
      "ĠtvARi": 4654,
      "klat": 4655,
      "ĠkoNe": 4656,
      "Ġmile": 4657,
      "Ġdala": 4658,
      "Ġsuk": 4659,
      "NenE": 4660,
      "Ġknul": 4661,
      "Ġzdech": 4662,
      "ĠrUZo": 4663,
      "Ġzev": 4664,
      "Ġslem": 4665,
      "ĠxA": 4666,
      "Ġsyl": 4667,
      "bito": 4668,
      "Ġvcho": 4669,
      "ĠDIfka": 4670,
      "ĠkÅĻo": 4671,
      "Ġhaj": 4672,
      "ĠtÅĻÃŃs": 4673,
      "Ġrmut": 4674,
      "Ġzasta": 4675,
      "ĠruÅ¡": 4676,
      "ĠstAt": 4677,
      "ĠZiv": 4678,
      "Ġnohi": 4679,
      "Ġstrast": 4680,
      "ĠUTe": 4681,
      "Ġhni": 4682,
      "ĠÅĻel": 4683,
      "ĠCeskE": 4684,
      "ĠzkrÃ¡": 4685,
      "ĠvjeR": 4686,
      "Ġrun": 4687,
      "Ġzep": 4688,
      "ĠABABAX": 4689,
      "Ġtros": 4690,
      "Ġblouz": 4691,
      "ĠleÅĪ": 4692,
      "Ġat": 4693,
      "ĠseÄį": 4694,
      "Ġstaro": 4695,
      "ĠÄįÃŃst": 4696,
      "ĠjasnE": 4697,
      "Ġlitstva": 4698,
      "ĠruÅ¥": 4699,
      "ĠlÃ¡Å¡": 4700,
      "Ġzhu": 4701,
      "Ġdali": 4702,
      "ĠokamZi": 4703,
      "Cem": 4704,
      "ĠvlaÅ¡": 4705,
      "ĠnnÃ©m": 4706,
      "ĠrÃ¡l": 4707,
      "ĠnoÅ¡": 4708,
      "Ġzin": 4709,
      "ĠmohL": 4710,
      "ĠmodrE": 4711,
      "ĠvÄįel": 4712,
      "ZenE": 4713,
      "Ġbije": 4714,
      "ĠvsvÄĽt": 4715,
      "ĠstvÃ¡": 4716,
      "ĠmlÃ©": 4717,
      "NeNI": 4718,
      "Atku": 4719,
      "ĠkrUpje": 4720,
      "ĠvzAc": 4721,
      "kot": 4722,
      "Ġprut": 4723,
      "dro": 4724,
      "Ġbly": 4725,
      "ĠvisI": 4726,
      "dala": 4727,
      "ĠvÅ¯z": 4728,
      "ĠstarIx": 4729,
      "fÃ©m": 4730,
      "ĠnÄĽz": 4731,
      "Ġstrax": 4732,
      "Ġhyb": 4733,
      "ĠdrahI": 4734,
      "Ġzer": 4735,
      "ber": 4736,
      "Ġchcem": 4737,
      "Ġvjich": 4738,
      "lost": 4739,
      "ĠÄįert": 4740,
      "ĠvkvÄĽ": 4741,
      "kajI": 4742,
      "ĠZeh": 4743,
      "ĠbliÅ¾": 4744,
      "ĠkrAlof": 4745,
      "ĠZenu": 4746,
      "Ġkok": 4747,
      "ĠchoÅ¥": 4748,
      "ĠzAhi": 4749,
      "ĠÅĻu": 4750,
      "ĠtvÃ¡r": 4751,
      "Cila": 4752,
      "Ġlup": 4753,
      "meNI": 4754,
      "ĠUsko": 4755,
      "ĠveÄı": 4756,
      "Ġkled": 4757,
      "ĠjeDinI": 4758,
      "Cn": 4759,
      "ĠÅ¡lÃ¡": 4760,
      "Ġskvo": 4761,
      "Ġksmr": 4762,
      "ĠvIk": 4763,
      "Ġmraz": 4764,
      "livje": 4765,
      "Ġpovz": 4766,
      "Ġuse": 4767,
      "cet": 4768,
      "Ġlh": 4769,
      "ĠsTix": 4770,
      "Ġhus": 4771,
      "ĠrUz": 4772,
      "ĠCA": 4773,
      "ĠsleÄį": 4774,
      "ĠzhlÃŃ": 4775,
      "ĠstejNe": 4776,
      "ĠdÃ¡k": 4777,
      "ĠmNeNI": 4778,
      "ĠzlatA": 4779,
      "Ġvpl": 4780,
      "Ġpohle": 4781,
      "ĠvUkol": 4782,
      "zeNI": 4783,
      "ĠxTela": 4784,
      "ĠschÃ½": 4785,
      "Ġjednu": 4786,
      "ĠmladA": 4787,
      "Ġsxi": 4788,
      "ĠtRA": 4789,
      "ĠtÅ¯v": 4790,
      "Ġvenku": 4791,
      "kli": 4792,
      "ĠchaÅ¥": 4793,
      "Ġslit": 4794,
      "ĠCet": 4795,
      "kro": 4796,
      "Ġbojo": 4797,
      "Ġhlaho": 4798,
      "fce": 4799,
      "vAt": 4800,
      "ĠznÃ¡t": 4801,
      "Ġmoci": 4802,
      "ĠmaTi": 4803,
      "ĠmÃŃÅ¡": 4804,
      "Ġstol": 4805,
      "Ġdomu": 4806,
      "Ġpodle": 4807,
      "alu": 4808,
      "ĠvÃ¡r": 4809,
      "Ul": 4810,
      "ĠspÅĻÃ¡": 4811,
      "ĠsmÄĽÅ¡": 4812,
      "ĠpQsa": 4813,
      "ĠÅ¥u": 4814,
      "Ġplot": 4815,
      "Ġsina": 4816,
      "Ġzpa": 4817,
      "ĠnepRI": 4818,
      "Ġzpod": 4819,
      "Ġpsi": 4820,
      "ĠptAci": 4821,
      "ĠdnÃ¡": 4822,
      "Ġkone": 4823,
      "Ġdry": 4824,
      "ĠmLCI": 4825,
      "Ġscela": 4826,
      "ur": 4827,
      "ĠjednE": 4828,
      "ĠtÃ½r": 4829,
      "Al": 4830,
      "Å¡ÃŃ": 4831,
      "ĠpapQsk": 4832,
      "Ġzvad": 4833,
      "Ġdych": 4834,
      "ĠjejIm": 4835,
      "ĠXXABBA": 4836,
      "ĠZITi": 4837,
      "ĠklIn": 4838,
      "Celi": 4839,
      "ĠzAzrak": 4840,
      "ĠrAs": 4841,
      "ĠnepRA": 4842,
      "ĠknÃ©": 4843,
      "Ġslab": 4844,
      "ĠZAdnI": 4845,
      "ĠhlÃŃd": 4846,
      "zlo": 4847,
      "ĠpouÅ¥": 4848,
      "ĠrudE": 4849,
      "Ġjab": 4850,
      "ĠtRpit": 4851,
      "ĠdenNe": 4852,
      "ĠofSem": 4853,
      "Ġllo": 4854,
      "Ġplan": 4855,
      "ĠÄįtvr": 4856,
      "ĠvznÃŃ": 4857,
      "ĠnepRi": 4858,
      "Ġtemno": 4859,
      "ĠvÅ¯m": 4860,
      "ĠtO": 4861,
      "Ġporo": 4862,
      "Ġplane": 4863,
      "Ġsloup": 4864,
      "ĠXXAAXX": 4865,
      "ĠtepQf": 4866,
      "Ġnexci": 4867,
      "Ġmha": 4868,
      "Ġzvou": 4869,
      "Ġsul": 4870,
      "xal": 4871,
      "ĠveÅĪ": 4872,
      "Ġshle": 4873,
      "ĠÅ¡var": 4874,
      "ĠhRbito": 4875,
      "ĠtÅĻÃŃk": 4876,
      "Ġshon": 4877,
      "ĠhNef": 4878,
      "Ġprop": 4879,
      "Den": 4880,
      "ĠmNi": 4881,
      "ĠdÅĻi": 4882,
      "Ġtvy": 4883,
      "Ġzmra": 4884,
      "Cej": 4885,
      "ĠĠĠ": 4886,
      "Ġxra": 4887,
      "Ġvjec": 4888,
      "ĠkloNI": 4889,
      "Ġvhloub": 4890,
      "Ġvslad": 4891,
      "ĠvalI": 4892,
      "ĠvAmi": 4893,
      "ĠjDi": 4894,
      "Ġpnou": 4895,
      "Ġhlub": 4896,
      "ĠdRIve": 4897,
      "krA": 4898,
      "Ġpropas": 4899,
      "Ġmlado": 4900,
      "ĠrÅ¯m": 4901,
      "ĠtReTI": 4902,
      "Ġmsti": 4903,
      "Ġfer": 4904,
      "ĠbÄĽs": 4905,
      "ĠxTI": 4906,
      "Ġxmur": 4907,
      "ĠsmÄĽl": 4908,
      "ĠzvoNI": 4909,
      "ĠdÄĽn": 4910,
      "DIS": 4911,
      "ĠvISi": 4912,
      "zil": 4913,
      "Ġhrst": 4914,
      "dru": 4915,
      "Ġuc": 4916,
      "Ġgdos": 4917,
      "Ġknout": 4918,
      "Ġlili": 4919,
      "Ġlsti": 4920,
      "Ġpof": 4921,
      "tor": 4922,
      "ĠSlex": 4923,
      "dek": 4924,
      "Ġbry": 4925,
      "Ġztem": 4926,
      "ĠzvlA": 4927,
      "ĠvsnÃ¡ch": 4928,
      "Ġspole": 4929,
      "Ġshr": 4930,
      "Ġgic": 4931,
      "mat": 4932,
      "ĠrdÃŃ": 4933,
      "Ġdrou": 4934,
      "Ġbri": 4935,
      "ĠÅ¡est": 4936,
      "ĠlÃ¡Äį": 4937,
      "vor": 4938,
      "ĠrvÃ¡": 4939,
      "Ġzit": 4940,
      "ĠvIru": 4941,
      "ĠmraC": 4942,
      "ĠchlÃŃ": 4943,
      "Ġgy": 4944,
      "Ġhlasi": 4945,
      "Ġlle": 4946,
      "Ġvtm": 4947,
      "Ġnepro": 4948,
      "Ġsdru": 4949,
      "Ġrob": 4950,
      "ĠzdravI": 4951,
      "Ġzvyk": 4952,
      "ĠnÃ¡ct": 4953,
      "jde": 4954,
      "ĠsvImi": 4955,
      "ĠslAvu": 4956,
      "ĠkvÃ©st": 4957,
      "Å¡i": 4958,
      "ĠvÅ¾a": 4959,
      "Ġvty": 4960,
      "Cili": 4961,
      "Ġchti": 4962,
      "Ġkamen": 4963,
      "ĠpRIm": 4964,
      "stvo": 4965,
      "nosT": 4966,
      "ĠpRISTI": 4967,
      "Ġmilu": 4968,
      "ĠpRAtel": 4969,
      "ĠjiÅ¡": 4970,
      "ĠvzkÅĻik": 4971,
      "lÃŃz": 4972,
      "SenE": 4973,
      "Ġcud": 4974,
      "ĠtU": 4975,
      "ĠzDi": 4976,
      "ter": 4977,
      "Ġchut": 4978,
      "Ġsfat": 4979,
      "ĠslI": 4980,
      "ver": 4981,
      "ĠrAje": 4982,
      "ĠlIbA": 4983,
      "lila": 4984,
      "Ġsym": 4985,
      "Ġprah": 4986,
      "ĠzQc": 4987,
      "ĠkÃ©n": 4988,
      "Ġvlid": 4989,
      "ĠpUlno": 4990,
      "ĠvtmÃ¡ch": 4991,
      "ĠÅĻli": 4992,
      "Ġptac": 4993,
      "ĠzÃŃs": 4994,
      "Ġzry": 4995,
      "ĠdUvje": 4996,
      "sNI": 4997,
      "ĠbjeZI": 4998,
      "Ġdcer": 4999,
      "ĠhleT": 5000,
      "Ġrozma": 5001,
      "Ġzbyl": 5002,
      "Ġpost": 5003,
      "veNI": 5004,
      "ĠsTe": 5005,
      "Ġcla": 5006,
      "Ġlip": 5007,
      "ĠpÃ¡ch": 5008,
      "vuje": 5009,
      "ĠdruhE": 5010,
      "Ġbah": 5011,
      "Ġskok": 5012,
      "sTIm": 5013,
      "Ġmit": 5014,
      "pomI": 5015,
      "ĠdeÅĪ": 5016,
      "cNe": 5017,
      "fÃ½": 5018,
      "ĠnoCNI": 5019,
      "ĠzAm": 5020,
      "stvIm": 5021,
      "Ġhudba": 5022,
      "Ġholu": 5023,
      "ĠtvÄĽ": 5024,
      "Ġpej": 5025,
      "ĠlÅ¯v": 5026,
      "ĠlÅ¾i": 5027,
      "Ġbrem": 5028,
      "ĠUdo": 5029,
      "ĠhÅ¯l": 5030,
      "ĠtAhne": 5031,
      "Ġzapad": 5032,
      "Rili": 5033,
      "ĠvzkÅĻÃŃ": 5034,
      "ĠSt": 5035,
      "ĠvelkA": 5036,
      "Ġmraki": 5037,
      "ĠÅ¡per": 5038,
      "Ġide": 5039,
      "nali": 5040,
      "Ġbist": 5041,
      "Ġzlob": 5042,
      "Ġsnou": 5043,
      "Ġsop": 5044,
      "ĠvbÃ¡": 5045,
      "Ġflo": 5046,
      "ĠhÅĻbe": 5047,
      "ĠhAj": 5048,
      "Ġkolo": 5049,
      "Ġxe": 5050,
      "ĠlesÅ¥": 5051,
      "ĠvQxo": 5052,
      "Ġvjek": 5053,
      "ĠdlaN": 5054,
      "ĠhouÅ¡": 5055,
      "Ġjino": 5056,
      "ĠpÅĻel": 5057,
      "ĠbIlIx": 5058,
      "ĠchlÃ½": 5059,
      "Ġkrot": 5060,
      "ĠXXXAXA": 5061,
      "Ġtvi": 5062,
      "Ġnebilo": 5063,
      "Ġzhr": 5064,
      "stej": 5065,
      "Ġpij": 5066,
      "Zili": 5067,
      "ĠskrI": 5068,
      "dANI": 5069,
      "ĠReCI": 5070,
      "ĠtmÃŃ": 5071,
      "Ġstl": 5072,
      "Ġkvap": 5073,
      "Ġllu": 5074,
      "nech": 5075,
      "Ġdes": 5076,
      "lÃ©d": 5077,
      "Ġono": 5078,
      "ĠstAla": 5079,
      "Ġdnou": 5080,
      "ĠvpÃ¡": 5081,
      "slu": 5082,
      "lenE": 5083,
      "ĠskrAN": 5084,
      "ĠbÄĽt": 5085,
      "ĠvprÃ¡": 5086,
      "fS": 5087,
      "Ġdrux": 5088,
      "ĠNadra": 5089,
      "ĠXABAB": 5090,
      "ĠtrÃ½z": 5091,
      "ĠchÅ¯m": 5092,
      "zna": 5093,
      "ĠnenA": 5094,
      "Ġcek": 5095,
      "Ġminulo": 5096,
      "Ġztich": 5097,
      "ef": 5098,
      "Ġrval": 5099,
      "Ġglo": 5100,
      "ĠraÄį": 5101,
      "Ġpravdi": 5102,
      "Ġtroc": 5103,
      "xot": 5104,
      "Ġmut": 5105,
      "Ġvnoc": 5106,
      "ĠsmutnE": 5107,
      "nÃ½ch": 5108,
      "ĠhI": 5109,
      "ĠsmÃ¡t": 5110,
      "Ġryt": 5111,
      "Ġnebude": 5112,
      "cUm": 5113,
      "ĠRi": 5114,
      "Ġvkraj": 5115,
      "ĠdrÃ½m": 5116,
      "ĠÅĻas": 5117,
      "Ġplam": 5118,
      "Ġmrz": 5119,
      "ĠkrAsu": 5120,
      "ĠmrAs": 5121,
      "Ġnouc": 5122,
      "ĠlÃŃt": 5123,
      "Ġkomu": 5124,
      "ĠfCera": 5125,
      "ĠfSa": 5126,
      "ĠneboT": 5127,
      "Ġvzo": 5128,
      "Ġzblou": 5129,
      "ĠvzduÅ¡": 5130,
      "ĠzvlÃ¡Å¡Å¥": 5131,
      "bat": 5132,
      "ĠcIl": 5133,
      "ĠbuDI": 5134,
      "Ġsrov": 5135,
      "ĠzQcad": 5136,
      "ĠlÃŃst": 5137,
      "dlem": 5138,
      "Ġtos": 5139,
      "ĠvIra": 5140,
      "ĠNegdo": 5141,
      "Ġvzty": 5142,
      "Ġveleb": 5143,
      "xvje": 5144,
      "ĠÅ¡pa": 5145,
      "ĠmÃ¡ch": 5146,
      "ĠstkvÄĽ": 5147,
      "vot": 5148,
      "Ġnan": 5149,
      "Ġske": 5150,
      "Ġ21": 5151,
      "Ġblaha": 5152,
      "ĠdrÃ¡Å¾": 5153,
      "ĠvklÃŃn": 5154,
      "ĠleÅ¥": 5155,
      "Ġzpi": 5156,
      "ĠsbÄĽ": 5157,
      "ĠvÃ¡z": 5158,
      "ĠpANe": 5159,
      "ĠReki": 5160,
      "ĠvITez": 5161,
      "Ġkine": 5162,
      "ĠzÃºst": 5163,
      "ĠtÃ³n": 5164,
      "Ġrux": 5165,
      "ĠnejvI": 5166,
      "stva": 5167,
      "Ġshlu": 5168,
      "Ġkav": 5169,
      "Ġprok": 5170,
      "ĠdÃŃc": 5171,
      "hod": 5172,
      "Ġhoxu": 5173,
      "Zila": 5174,
      "ĠumIrA": 5175,
      "ĠvIxo": 5176,
      "ĠzNel": 5177,
      "Ġpope": 5178,
      "ĠvÃŃn": 5179,
      "Ġotpovje": 5180,
      "rav": 5181,
      "ĠtÅĻes": 5182,
      "ĠvstaÅĪ": 5183,
      "Ġskrov": 5184,
      "ĠzNi": 5185,
      "ĠdÃ¡r": 5186,
      "Ġchor": 5187,
      "ĠzemI": 5188,
      "Ġdvoj": 5189,
      "Ġpotu": 5190,
      "Ġuvi": 5191,
      "dAx": 5192,
      "Atko": 5193,
      "ĠtkÃ¡": 5194,
      "ilI": 5195,
      "ĠstAli": 5196,
      "Ġpovi": 5197,
      "ny": 5198,
      "ĠvracI": 5199,
      "hnu": 5200,
      "Ġdam": 5201,
      "ĠdAlku": 5202,
      "Ġzpup": 5203,
      "ĠÅ¡lÃ½ch": 5204,
      "ĠvrÃ¡t": 5205,
      "Ġsru": 5206,
      "Ġklidu": 5207,
      "Ġpjet": 5208,
      "Ġhvozd": 5209,
      "ĠÅ¡ad": 5210,
      "Ġdrak": 5211,
      "Ġstop": 5212,
      "zIx": 5213,
      "tko": 5214,
      "ĠkvjeTi": 5215,
      "ĠzrÅ¯": 5216,
      "Ġvjas": 5217,
      "ĠdvÃŃ": 5218,
      "Ġam": 5219,
      "lenI": 5220,
      "Ġvlak": 5221,
      "Ġnasl": 5222,
      "Ġabix": 5223,
      "ĠzAvi": 5224,
      "ĠvUli": 5225,
      "ĠbledA": 5226,
      "ĠRISe": 5227,
      "ĠteÅĻ": 5228,
      "Ġzble": 5229,
      "ĠfrÃ¡": 5230,
      "ĠzApa": 5231,
      "ĠCeskI": 5232,
      "ĠNejak": 5233,
      "Ġvoda": 5234,
      "Ġzlata": 5235,
      "rad": 5236,
      "ĠbIl": 5237,
      "ĠfÅ¡": 5238,
      "Ġboku": 5239,
      "DiS": 5240,
      "Ġposl": 5241,
      "vImi": 5242,
      "Ġfon": 5243,
      "ĠmQtvI": 5244,
      "ABXB": 5245,
      "ĠbrÃ¡k": 5246,
      "RU": 5247,
      "ĠCti": 5248,
      "bor": 5249,
      "Ġtvoji": 5250,
      "ZIS": 5251,
      "ĠnAdher": 5252,
      "ĠstÅ¯m": 5253,
      "ĠsmIxu": 5254,
      "ĠfsplA": 5255,
      "Ġchru": 5256,
      "jeS": 5257,
      "DeNI": 5258,
      "ĠvIr": 5259,
      "ĠfSi": 5260,
      "vU": 5261,
      "Ġrva": 5262,
      "ĠpouÅ¡Å¥": 5263,
      "Ġuna": 5264,
      "Ġsply": 5265,
      "Ġzlatem": 5266,
      "Ġah": 5267,
      "ĠsliSet": 5268,
      "ĠmislIm": 5269,
      "ĠCaro": 5270,
      "ĠlepSI": 5271,
      "ĠtlÃ½ch": 5272,
      "Ġnnu": 5273,
      "ĠbohatI": 5274,
      "ĠotCe": 5275,
      "Ġpruh": 5276,
      "St": 5277,
      "ĠvoNI": 5278,
      "ĠxrAmu": 5279,
      "qu": 5280,
      "Ġcin": 5281,
      "Ġkrad": 5282,
      "Ġvhr": 5283,
      "ĠpRISe": 5284,
      "ĠstÃ¡ch": 5285,
      "Ġvesele": 5286,
      "ZnA": 5287,
      "Ġcov": 5288,
      "Ġpramen": 5289,
      "Nilo": 5290,
      "Ġzur": 5291,
      "ĠstrÅ¯": 5292,
      "Ġchlou": 5293,
      "hat": 5294,
      "klo": 5295,
      "Ġvhu": 5296,
      "ĠotA": 5297,
      "ĠXABABX": 5298,
      "Zas": 5299,
      "tef": 5300,
      "Ġskryt": 5301,
      "ĠnichÅ¾": 5302,
      "Ġmohu": 5303,
      "Ġbech": 5304,
      "ĠslatkA": 5305,
      "nÃ©m": 5306,
      "sNe": 5307,
      "Ġplen": 5308,
      "Ġvbla": 5309,
      "ĠbolesTi": 5310,
      "ĠskRI": 5311,
      "rAl": 5312,
      "ĠbrÃ¡t": 5313,
      "Ġkvo": 5314,
      "Ġskri": 5315,
      "domI": 5316,
      "xAze": 5317,
      "ĠClovjeka": 5318,
      "ĠspAtki": 5319,
      "ĠsÃ¡t": 5320,
      "Ġskli": 5321,
      "ĠzlatIx": 5322,
      "ĠzÄįer": 5323,
      "ĠzDe": 5324,
      "ĠdAlce": 5325,
      "ĠTele": 5326,
      "Ġmatko": 5327,
      "Ġvstu": 5328,
      "ĠsxA": 5329,
      "Ġvmu": 5330,
      "ĠpoTe": 5331,
      "ĠpevNe": 5332,
      "ĠzIrA": 5333,
      "ĠvztÃ¡": 5334,
      "Ġzad": 5335,
      "Ġvzi": 5336,
      "cenI": 5337,
      "Ġser": 5338,
      "ĠchvÄĽj": 5339,
      "ĠÅĪÅ¯": 5340,
      "ĠtvEm": 5341,
      "ĠkÅĻeh": 5342,
      "ĠÄįÃ¡r": 5343,
      "Ġkolik": 5344,
      "ĠtmÃ¡ch": 5345,
      "Ġskvou": 5346,
      "ĠmLha": 5347,
      "ĠZif": 5348,
      "Ġkrokem": 5349,
      "ĠvUNI": 5350,
      "Ġvir": 5351,
      "ĠblIZI": 5352,
      "ĠsmÃ½": 5353,
      "jIce": 5354,
      "ĠlIto": 5355,
      "ĠsnÃ¡ch": 5356,
      "ĠchlÃ¡": 5357,
      "Ġnoha": 5358,
      "ĠvchÃ¡": 5359,
      "Ġstly": 5360,
      "mot": 5361,
      "ĠCasi": 5362,
      "ĠrtU": 5363,
      "zt": 5364,
      "jedn": 5365,
      "ĠsklANI": 5366,
      "Ġqu": 5367,
      "set": 5368,
      "Ġfr": 5369,
      "ĠnÄĽt": 5370,
      "ĠDivI": 5371,
      "Co": 5372,
      "ĠsklÃŃ": 5373,
      "ĠutQ": 5374,
      "Ġkroki": 5375,
      "ĠtQpje": 5376,
      "ĠkpÅĻe": 5377,
      "Ġmali": 5378,
      "ĠvzÃŃt": 5379,
      "Ġslovem": 5380,
      "bila": 5381,
      "Ġvtou": 5382,
      "ĠCistE": 5383,
      "Ġbleski": 5384,
      "Ġxlat": 5385,
      "ĠpÅĻÃŃz": 5386,
      "Ġvhrob": 5387,
      "ĠhvÃŃz": 5388,
      "ĠvdÃŃ": 5389,
      "ĠtoCI": 5390,
      "Ġvoz": 5391,
      "Ġpano": 5392,
      "Ġstoup": 5393,
      "ĠptÃ¡Äį": 5394,
      "ĠmalA": 5395,
      "Ġzes": 5396,
      "ĠbledE": 5397,
      "Ġsval": 5398,
      "Ġskrz": 5399,
      "Ġtato": 5400,
      "ĠCin": 5401,
      "ctvI": 5402,
      "ĠcesTe": 5403,
      "ĠvchvÃŃ": 5404,
      "ĠfSemu": 5405,
      "Ġvprou": 5406,
      "ĠzÃŃÅ¡": 5407,
      "skem": 5408,
      "ĠpLno": 5409,
      "ZenI": 5410,
      "hlo": 5411,
      "Ġpluk": 5412,
      "ĠprosIm": 5413,
      "ĠjlÃŃ": 5414,
      "pot": 5415,
      "Ġotci": 5416,
      "ĠrUZi": 5417,
      "Ġsinu": 5418,
      "Ġkonce": 5419,
      "ĠnavZdi": 5420,
      "ĠbIvA": 5421,
      "ĠsxI": 5422,
      "ĠÃ¡n": 5423,
      "sem": 5424,
      "ĠRas": 5425,
      "ĠSeDi": 5426,
      "ĠmLhi": 5427,
      "ĠpRiSli": 5428,
      "Ġpox": 5429,
      "ĠjinIx": 5430,
      "Ġtuto": 5431,
      "ĠdeÅ¾": 5432,
      "Ġsyt": 5433,
      "ĠkzÃ¡": 5434,
      "bÃ¡": 5435,
      "ĠspÅĻe": 5436,
      "ĠmQtvE": 5437,
      "Ġknih": 5438,
      "Ġvelk": 5439,
      "Ġlon": 5440,
      "ĠstavI": 5441,
      "ĠzAstup": 5442,
      "cla": 5443,
      "Ġzast": 5444,
      "Ġfau": 5445,
      "ĠstkvÃŃ": 5446,
      "mrak": 5447,
      "Ġmoj": 5448,
      "Ġshro": 5449,
      "vice": 5450,
      "ĠpAna": 5451,
      "ĠohNem": 5452,
      "ĠlIci": 5453,
      "ĠCernA": 5454,
      "Ġoce": 5455,
      "ĠUsmNevem": 5456,
      "Ġblah": 5457,
      "ĠvzplÃ¡l": 5458,
      "Ġjlep": 5459,
      "ĠtÃ¡Å¡": 5460,
      "ĠTixA": 5461,
      "Ġcizi": 5462,
      "ĠpÅĻedc": 5463,
      "Ġzkla": 5464,
      "ĠtÄĽt": 5465,
      "Ġobli": 5466,
      "ĠtvojI": 5467,
      "ĠspIS": 5468,
      "vnE": 5469,
      "ĠnÅ¯Å¾": 5470,
      "fy": 5471,
      "Ġkch": 5472,
      "Ġjih": 5473,
      "RIk": 5474,
      "Ġdlil": 5475,
      "Ġobe": 5476,
      "ĠmIsta": 5477,
      "Ġosla": 5478,
      "ĠviÄı": 5479,
      "vin": 5480,
      "ĠzvedA": 5481,
      "ĠpodA": 5482,
      "ĠklesA": 5483,
      "Ġrtex": 5484,
      "Ġdokut": 5485,
      "ĠzvÃ½": 5486,
      "Ġhradu": 5487,
      "Ġjakobi": 5488,
      "ĠhosTi": 5489,
      "tAx": 5490,
      "spe": 5491,
      "Ġen": 5492,
      "Ġstev": 5493,
      "ĠCernIx": 5494,
      "ĠtÃ½Å¾": 5495,
      "Ġzik": 5496,
      "Ġmru": 5497,
      "ĠTeSkI": 5498,
      "Ġdral": 5499,
      "Ġlexce": 5500,
      "Ġxcem": 5501,
      "Ġbot": 5502,
      "Atka": 5503,
      "ĠnenAvi": 5504,
      "ĠvÄĽd": 5505,
      "Ġslune": 5506,
      "Ġex": 5507,
      "Ġslet": 5508,
      "Ġproro": 5509,
      "ĠnnÃŃm": 5510,
      "ĠtRese": 5511,
      "ĠlaÅĪ": 5512,
      "ĠvrATI": 5513,
      "ĠXABBA": 5514,
      "Ġosa": 5515,
      "Ġvnuk": 5516,
      "Ġfp": 5517,
      "ĠDefCe": 5518,
      "ĠzÄįe": 5519,
      "Ġane": 5520,
      "ĠstE": 5521,
      "Ġgen": 5522,
      "zli": 5523,
      "Ġnaposlet": 5524,
      "bli": 5525,
      "ĠhrÃ¡d": 5526,
      "cu": 5527,
      "Ġban": 5528,
      "Ġslux": 5529,
      "Ġtisk": 5530,
      "ĠdÅ¾": 5531,
      "Ġtrs": 5532,
      "Ġzkad": 5533,
      "pce": 5534,
      "ĠloZe": 5535,
      "ĠÄįeÅ¡": 5536,
      "ĠnatSeNI": 5537,
      "Ġbohi": 5538,
      "boj": 5539,
      "ĠcIsaR": 5540,
      "Ġgan": 5541,
      "ĠrAm": 5542,
      "Ġbolu": 5543,
      "ĠmnohE": 5544,
      "Ġsmutku": 5545,
      "Ġdoba": 5546,
      "Ġmok": 5547,
      "Ġskryl": 5548,
      "ĠrAnu": 5549,
      "ĠÅ¥al": 5550,
      "ĠpRedu": 5551,
      "Ġsluncem": 5552,
      "ĠhuCI": 5553,
      "Ġvden": 5554,
      "ĠdobrA": 5555,
      "ĠshlÃŃ": 5556,
      "ĠmlÃ½n": 5557,
      "rom": 5558,
      "nala": 5559,
      "ĠktÃ©": 5560,
      "Ġraz": 5561,
      "Sle": 5562,
      "ĠmnoÅ¾": 5563,
      "ĠjasnI": 5564,
      "Ġpohled": 5565,
      "Ġsja": 5566,
      "Ġpoled": 5567,
      "rATI": 5568,
      "Ġgdesi": 5569,
      "ĠhQDi": 5570,
      "ĠhRmI": 5571,
      "ĠkcÃŃ": 5572,
      "Ġdexem": 5573,
      "Ġmlat": 5574,
      "Ġdaleko": 5575,
      "Nte": 5576,
      "vili": 5577,
      "Ġpode": 5578,
      "ĠpoCI": 5579,
      "Ġstrani": 5580,
      "Ġcvi": 5581,
      "Ġspit": 5582,
      "Ġfel": 5583,
      "Ġvsluch": 5584,
      "ĠvÄįa": 5585,
      "ĠrÃ¡Å¡": 5586,
      "Ġzpro": 5587,
      "slI": 5588,
      "Ġoct": 5589,
      "ĠkoRi": 5590,
      "ĠdÃ¡ÅĻ": 5591,
      "Ġem": 5592,
      "ĠdRe": 5593,
      "ĠtÃŃk": 5594,
      "ĠmrÅ¡": 5595,
      "ĠkfÄĽt": 5596,
      "ĠnovA": 5597,
      "ĠTixu": 5598,
      "RAt": 5599,
      "ĠvASNI": 5600,
      "Ġhora": 5601,
      "ĠrÃ¡n": 5602,
      "hra": 5603,
      "Ġletu": 5604,
      "ĠfÅ¯": 5605,
      "?...": 5606,
      "ĠZivI": 5607,
      "Ġrum": 5608,
      "ĠmÃ¡k": 5609,
      "Ġvzpom": 5610,
      "ĠZene": 5611,
      "Ġpomoc": 5612,
      "ĠlkA": 5613,
      "ĠniÅ¡": 5614,
      "Zn": 5615,
      "dIx": 5616,
      "vnI": 5617,
      "Ġkji": 5618,
      "Ġvjen": 5619,
      "ĠhlÃ½ch": 5620,
      "vÃ½": 5621,
      "kami": 5622,
      "nASe": 5623,
      "kovE": 5624,
      "ĠmAte": 5625,
      "Ġkvjetem": 5626,
      "ĠmQtvo": 5627,
      "Ġust": 5628,
      "ĠsmutnI": 5629,
      "ĠjmÄĽ": 5630,
      "ĠpRItel": 5631,
      "ĠpISe": 5632,
      "ĠmQtvIx": 5633,
      "ge": 5634,
      "ĠvzÅĪa": 5635,
      "An": 5636,
      "bAx": 5637,
      "ĠDIlo": 5638,
      "ĠranNI": 5639,
      "ĠviDet": 5640,
      "ĠtÅĻit": 5641,
      "Ġcosi": 5642,
      "ĠÅ¡ÃŃj": 5643,
      "tala": 5644,
      "fat": 5645,
      "ĠrÃ¡Å¾": 5646,
      "Ġjsouc": 5647,
      "ĠÄįan": 5648,
      "ĠTeSce": 5649,
      "Ġkrej": 5650,
      "ĠlIp": 5651,
      "Ġkpa": 5652,
      "Ġjun": 5653,
      "ĠohNe": 5654,
      "zla": 5655,
      "Ġjeli": 5656,
      "ĠotcU": 5657,
      "ZNI": 5658,
      "ĠÅ¡tva": 5659,
      "ĠsprÃ¡v": 5660,
      "Ġspr": 5661,
      "ĠsnÄĽm": 5662,
      "Ġslatk": 5663,
      "ĠvIno": 5664,
      "ĠDela": 5665,
      "Ġoblak": 5666,
      "ĠneznA": 5667,
      "ĠvitQ": 5668,
      "Ġvzdych": 5669,
      "CkA": 5670,
      "ĠkoÄį": 5671,
      "ĠzÃ¡Å¡Å¥": 5672,
      "ĠprÃ¡v": 5673,
      "Ġfsi": 5674,
      "ĠvLx": 5675,
      "ĠnÃ¡k": 5676,
      "Ġih": 5677,
      "Ġvzbou": 5678,
      "kne": 5679,
      "Ġduj": 5680,
      "Ġchech": 5681,
      "ĠSp": 5682,
      "vAS": 5683,
      "ĠstÃ½s": 5684,
      "Ġstane": 5685,
      "Ġstalo": 5686,
      "ĠkResT": 5687,
      "vanE": 5688,
      "ceNI": 5689,
      "ĠmÄĽn": 5690,
      "ĠvaÅ¥": 5691,
      "Ġsfo": 5692,
      "ĠmÄĽÅ¥": 5693,
      "Ġet": 5694,
      "ĠstrÃ½ch": 5695,
      "Ġmili": 5696,
      "Ġvbi": 5697,
      "ĠnÃ¡t": 5698,
      "ĠviSel": 5699,
      "ĠdnÃ½ch": 5700,
      "ĠAAXBBX": 5701,
      "Ġtuch": 5702,
      "ĠvtvÃ©": 5703,
      "Ġnebu": 5704,
      "Ġvlek": 5705,
      "Ġtles": 5706,
      "hled": 5707,
      "Ġpana": 5708,
      "ĠtouÅ¾": 5709,
      "ĠtkvÃŃ": 5710,
      "ĠkrAlov": 5711,
      "Ġil": 5712,
      "Ġfl": 5713,
      "Sce": 5714,
      "fci": 5715,
      "venE": 5716,
      "rek": 5717,
      "pku": 5718,
      "ĠbuDiS": 5719,
      "ĠZebrA": 5720,
      "ĠhRI": 5721,
      "Ġrin": 5722,
      "ĠsmNele": 5723,
      "Ġkna": 5724,
      "ĠrtÃŃ": 5725,
      "Ġkoho": 5726,
      "Ġprahu": 5727,
      "ĠlitskI": 5728,
      "ĠbÃŃm": 5729,
      "hajI": 5730,
      "Ġviv": 5731,
      "Ġzdali": 5732,
      "ĠvIri": 5733,
      "ĠmNej": 5734,
      "ĠstrAcI": 5735,
      "Ġjitra": 5736,
      "Ġvipra": 5737,
      "ĠbAsNIk": 5738,
      "ĠtemnE": 5739,
      "ĠdRImA": 5740,
      "Ġpoesi": 5741,
      "hl": 5742,
      "mem": 5743,
      "ĠpÃŃr": 5744,
      "xom": 5745,
      "ĠplaÄį": 5746,
      "ĠRekla": 5747,
      "rajI": 5748,
      "NitR": 5749,
      "ĠvpÄĽ": 5750,
      "ĠvnÄĽj": 5751,
      "Ġxlu": 5752,
      "Ġhel": 5753,
      "ĠDeje": 5754,
      "ĠptÃ¡m": 5755,
      "Ġpso": 5756,
      "Ġhim": 5757,
      "ĠSiro": 5758,
      "ĠnesmQ": 5759,
      "ĠNemI": 5760,
      "ĠhalI": 5761,
      "ĠNigde": 5762,
      "Ġcno": 5763,
      "mene": 5764,
      "ABX": 5765,
      "ĠstaRe": 5766,
      "Ġsok": 5767,
      "bel": 5768,
      "ĠpohR": 5769,
      "novE": 5770,
      "ĠNadrex": 5771,
      "ĠseÅ¡": 5772,
      "Ġmatce": 5773,
      "ĠfA": 5774,
      "ĠbratRi": 5775,
      "xE": 5776,
      "Ġbas": 5777,
      "ĠvAcla": 5778,
      "Ġpluh": 5779,
      "ĠnepRe": 5780,
      "ĠsrÃ¡z": 5781,
      "ĠumNeNI": 5782,
      "Ġprot": 5783,
      "ĠplE": 5784,
      "pU": 5785,
      "Ġpob": 5786,
      "Ġbleskem": 5787,
      "ĠmuÅ¡": 5788,
      "ĠbrÃ½ch": 5789,
      "ĠdISe": 5790,
      "Ġvple": 5791,
      "cIho": 5792,
      "ĠpLna": 5793,
      "ĠNitru": 5794,
      "rn": 5795,
      "ĠÅ¡al": 5796,
      "ĠZAdnE": 5797,
      "ĠTeSko": 5798,
      "ĠÄįiÅĪ": 5799,
      "kEho": 5800,
      "ĠÅ¡ed": 5801,
      "Ckem": 5802,
      "ĠbolI": 5803,
      "Ġnus": 5804,
      "ĠzvrÃ¡": 5805,
      "Ġvjeci": 5806,
      "ĠfSecka": 5807,
      "ĠzlÃ½m": 5808,
      "Ġdmou": 5809,
      "ĠlIbe": 5810,
      "SNe": 5811,
      "Ġvstra": 5812,
      "bAm": 5813,
      "Ġspoko": 5814,
      "Ġnebem": 5815,
      "beNI": 5816,
      "ĠpatRI": 5817,
      "ĠsmNeje": 5818,
      "Ġxleba": 5819,
      "Ġpoxi": 5820,
      "ĠanDe": 5821,
      "ĠkÅĻiÅ¡": 5822,
      "lin": 5823,
      "ĠmrA": 5824,
      "Ġhav": 5825,
      "ĠkrÄį": 5826,
      "Ġkristu": 5827,
      "ĠlaÅ¡": 5828,
      "Ġzmoc": 5829,
      "ĠstvÃ©": 5830,
      "ĠÅ¾lou": 5831,
      "ĠkolE": 5832,
      "Neli": 5833,
      "NikA": 5834,
      "Ġpraf": 5835,
      "ĠvpouÅ¡": 5836,
      "ĠDecko": 5837,
      "ĠXABBAX": 5838,
      "Ġzraku": 5839,
      "ĠklÃ½ch": 5840,
      "SenI": 5841,
      "Ġvyp": 5842,
      "ĠbÃ¡Å¡": 5843,
      "ĠpozDe": 5844,
      "ĠupomI": 5845,
      "Ġrep": 5846,
      "ĠplACi": 5847,
      "ĠradosTI": 5848,
      "ĠjITi": 5849,
      "ĠzahÅĻ": 5850,
      "Cini": 5851,
      "ĠzÅĪa": 5852,
      "ĠpRIsa": 5853,
      "ĠznÃŃÅ¾": 5854,
      "ĠcIrk": 5855,
      "ĠkÅ¡ti": 5856,
      "bnE": 5857,
      "ĠdlI": 5858,
      "ĠzlE": 5859,
      "Ġbre": 5860,
      "ĠzkvÃ©": 5861,
      "ĠslÃŃÅ¡": 5862,
      "ĠzRIt": 5863,
      "Nela": 5864,
      "ĠtmÃ¡m": 5865,
      "Ġvbez": 5866,
      "Ġhlet": 5867,
      "Ġhrobi": 5868,
      "zek": 5869,
      "ĠjasNe": 5870,
      "ĠjimS": 5871,
      "Ġron": 5872,
      "ĠlosÅ¥": 5873,
      "ĠlÃ¡c": 5874,
      "Ġryk": 5875,
      "ĠzdQ": 5876,
      "Ġlkal": 5877,
      "ĠnÃ¡v": 5878,
      "ĠvraZ": 5879,
      "ĠslÃ¡b": 5880,
      "ĠblIZe": 5881,
      "ĠmlI": 5882,
      "ĠnaSel": 5883,
      "Ġnin": 5884,
      "ĠdlÃŃm": 5885,
      "ĠrdÄĽ": 5886,
      "ĠoÅ¡": 5887,
      "Ġrosi": 5888,
      "Ġcim": 5889,
      "Ġhoun": 5890,
      "ĠstrÃ½m": 5891,
      "ĠfZdi": 5892,
      "ĠnÃ¡l": 5893,
      "Ime": 5894,
      "vedli": 5895,
      "ĠnemNel": 5896,
      "hlA": 5897,
      "Ġmimo": 5898,
      "kost": 5899,
      "ĠtÅĻel": 5900,
      "tAn": 5901,
      "ĠÅ¾h": 5902,
      "ĠhQDe": 5903,
      "ĠptACe": 5904,
      "ĠchtÃŃt": 5905,
      "ĠvE": 5906,
      "mNeli": 5907,
      "Ġpych": 5908,
      "Ġmyl": 5909,
      "Ġfstal": 5910,
      "Ġnar": 5911,
      "ĠmocI": 5912,
      "ĠxlEp": 5913,
      "ĠnemAm": 5914,
      "ĠvjeCnosTi": 5915,
      "ĠsNehu": 5916,
      "ĠhRIS": 5917,
      "ĠveÄį": 5918,
      "Ġhraje": 5919,
      "ĠshÃ½": 5920,
      "ĠvÃ©st": 5921,
      "Ġperli": 5922,
      "ĠvtÄĽÅ¾": 5923,
      "ĠposlE": 5924,
      "ĠplApo": 5925,
      "Ġkdu": 5926,
      "ĠvtvÃ©m": 5927,
      "Ġneho": 5928,
      "ĠjdÄĽ": 5929,
      "Ġlitstvo": 5930,
      "pem": 5931,
      "Ġmlk": 5932,
      "ĠvLna": 5933,
      "stupu": 5934,
      "CnIx": 5935,
      "Rej": 5936,
      "Ġluni": 5937,
      "ĠriTIR": 5938,
      "Ġspjat": 5939,
      "ĠplAST": 5940,
      "ĠfSI": 5941,
      "ĠbledI": 5942,
      "ĠsmÃŃr": 5943,
      "ĠsmQTI": 5944,
      "ĠprovA": 5945,
      "Ġpous": 5946,
      "bNe": 5947,
      "ĠÄıte": 5948,
      "ĠrokU": 5949,
      "Nena": 5950,
      "ĠkvÅ¯": 5951,
      "ĠjeÄį": 5952,
      "ĠpoznA": 5953,
      "ĠksvÄĽ": 5954,
      "Ġvzduxem": 5955,
      "ĠhlÃ¡s": 5956,
      "Ġnai": 5957,
      "Ġuj": 5958,
      "Ġrab": 5959,
      "zuje": 5960,
      "ĠkNes": 5961,
      "Ġholubi": 5962,
      "ĠkÃ¡t": 5963,
      "Ġotkut": 5964,
      "ĠkaZdEm": 5965,
      "ĠpjekNe": 5966,
      "ĠnemUZe": 5967,
      "ĠdlÃ¡k": 5968,
      "ĠnesmQtel": 5969,
      "Ġskvr": 5970,
      "ĠkÃ¡ÅĻ": 5971,
      "ĠchvÄĽt": 5972,
      "ĠmLCki": 5973,
      "ĠliDi": 5974,
      "Ġzpe": 5975,
      "bek": 5976,
      "ĠdÅ¯v": 5977,
      "tali": 5978,
      "ĠloÅ¾": 5979,
      "telE": 5980,
      "ĠzbÃŃ": 5981,
      "ĠvRa": 5982,
      "ĠkouÅĻ": 5983,
      "ĠposmNe": 5984,
      "znA": 5985,
      "Ġdep": 5986,
      "biTI": 5987,
      "ĠsxvA": 5988,
      "Ġdobu": 5989,
      "ĠÅ¡ve": 5990,
      "ĠvaÄį": 5991,
      "Ġostat": 5992,
      "Ġpromlu": 5993,
      "ĠhlÃ½m": 5994,
      "ĠktÄĽ": 5995,
      "ĠÃºc": 5996,
      "Cela": 5997,
      "Ġmatku": 5998,
      "Ġdraho": 5999,
      "Ġbare": 6000,
      "ĠtÃ¡l": 6001,
      "ĠnÃŃmÅ¾": 6002,
      "ĠsliSe": 6003,
      "ĠsfÃ½ch": 6004,
      "Ġkrux": 6005,
      "Ġmdle": 6006,
      "ĠviprA": 6007,
      "ĠkdÃŃ": 6008,
      "Ġplul": 6009,
      "ĠvmÃ¡": 6010,
      "ĠjiNI": 6011,
      "ĠperuT": 6012,
      "Ġprapor": 6013,
      "ajI": 6014,
      "ĠstaCI": 6015,
      "Ġhlubin": 6016,
      "tra": 6017,
      "Ġpadne": 6018,
      "ĠsuÄı": 6019,
      "ĠDeji": 6020,
      "Ġmes": 6021,
      "ĠbIval": 6022,
      "bec": 6023,
      "ĠsÃ¡l": 6024,
      "tli": 6025,
      "Ġzima": 6026,
      "Ġloup": 6027,
      "ĠkRIZe": 6028,
      "ĠDIfki": 6029,
      "ĠsrA": 6030,
      "ĠfÅ¡e": 6031,
      "ĠmÃŃÅĪ": 6032,
      "stane": 6033,
      "padA": 6034,
      "ĠklASte": 6035,
      "hlu": 6036,
      "ĠjevI": 6037,
      "Ġmate": 6038,
      "ĠhraÄį": 6039,
      "ĠvÄįi": 6040,
      "ĠmEmu": 6041,
      "Ġdri": 6042,
      "ĠNegde": 6043,
      "ĠklÃŃÄį": 6044,
      "ĠxIlI": 6045,
      "ĠdouÅ¡": 6046,
      "Ġmag": 6047,
      "ĠpiÅ¡": 6048,
      "ĠnaDej": 6049,
      "Ġrozv": 6050,
      "ĠpÅĻiz": 6051,
      "ĠtemNe": 6052,
      "ĠdNi": 6053,
      "ĠspaNil": 6054,
      "ĠneSTast": 6055,
      "Ġvnej": 6056,
      "Ġnni": 6057,
      "Ġvsmut": 6058,
      "ĠvQx": 6059,
      "Ġpropast": 6060,
      "Ġzfo": 6061,
      "ĠchuÅ¥": 6062,
      "ĠpAlI": 6063,
      "mit": 6064,
      "ĠtAhn": 6065,
      "ĠxudE": 6066,
      "Ġzbyt": 6067,
      "ĠnAruCI": 6068,
      "Ġvzcho": 6069,
      "hali": 6070,
      "ĠÄįiv": 6071,
      "ĠvtÃŃ": 6072,
      "Ġsev": 6073,
      "ĠmÄĽÅĻ": 6074,
      "ĠhleDel": 6075,
      "ĠmNest": 6076,
      "SNI": 6077,
      "sle": 6078,
      "ĠvaSI": 6079,
      "kovi": 6080,
      "nout": 6081,
      "ĠZivotem": 6082,
      "ĠnovIx": 6083,
      "rAm": 6084,
      "ĠobjIm": 6085,
      "zra": 6086,
      "ĠhorAx": 6087,
      "ĠvzÃ½": 6088,
      "ĠpQst": 6089,
      "ĠÅ¡lÃ½": 6090,
      "ĠrudI": 6091,
      "Ġoken": 6092,
      "ĠstmÃŃ": 6093,
      "Ġstin": 6094,
      "ĠvÅ¾Ã¡": 6095,
      "ĠshÅ¯": 6096,
      "ĠvUNi": 6097,
      "ĠrtÅ¯m": 6098,
      "kra": 6099,
      "Ġbij": 6100,
      "ĠÅ¥o": 6101,
      "Ġnemoc": 6102,
      "ĠmdlÃ¡": 6103,
      "Sit": 6104,
      "ĠkÃ½v": 6105,
      "ĠSpat": 6106,
      "ĠchÃ¡Å¡": 6107,
      "Ġmluvil": 6108,
      "Cte": 6109,
      "lili": 6110,
      "ĠÄįeÅ¾": 6111,
      "Ġchud": 6112,
      "ĠnexA": 6113,
      "Ġjindi": 6114,
      "ĠzdvÃŃ": 6115,
      "Ġvnik": 6116,
      "Ġsklen": 6117,
      "ĠloDi": 6118,
      "ĠÅ¡tvÃ¡": 6119,
      "Ġrit": 6120,
      "Ġcez": 6121,
      "Ġpomoci": 6122,
      "Ġjazik": 6123,
      "Ġnest": 6124,
      "ĠkoRen": 6125,
      "Ġvos": 6126,
      "Dif": 6127,
      "Ġobzor": 6128,
      "Ġchvo": 6129,
      "Ġslovi": 6130,
      "Ġpoznal": 6131,
      "ĠtÅĻti": 6132,
      "Ġvoh": 6133,
      "ĠTeSI": 6134,
      "sila": 6135,
      "ĠjitÅĻ": 6136,
      "ĠpRANI": 6137,
      "ĠmeCem": 6138,
      "Ġcnost": 6139,
      "ĠroDI": 6140,
      "ĠlesNI": 6141,
      "Ġjitro": 6142,
      "ĠsTeni": 6143,
      "Ġtik": 6144,
      "Ġkade": 6145,
      "Ġzbje": 6146,
      "ĠzkvÄĽ": 6147,
      "Ġbav": 6148,
      "ĠtÅĻesk": 6149,
      "zvu": 6150,
      "Ġdotk": 6151,
      "Ġlym": 6152,
      "ĠsluZ": 6153,
      "ĠvolNe": 6154,
      "ĠbAj": 6155,
      "ĠbohU": 6156,
      "ĠvznÄĽt": 6157,
      "Ġnasp": 6158,
      "ĠvIna": 6159,
      "ĠdÃ©Äį": 6160,
      "NenI": 6161,
      "hIx": 6162,
      "vrat": 6163,
      "skal": 6164,
      "Ġstracen": 6165,
      "ĠvÅĻÃŃt": 6166,
      "ckIx": 6167,
      "dÃ¡": 6168,
      "ĠÅ¡ka": 6169,
      "Ġxvat": 6170,
      "ĠdATi": 6171,
      "Ġzvoni": 6172,
      "ĠsTInU": 6173,
      "ĠmotIl": 6174,
      "Ġlvi": 6175,
      "ÅĻad": 6176,
      "ĠslAvje": 6177,
      "ĠkaZdIm": 6178,
      "rovi": 6179,
      "ĠsnÅ¯m": 6180,
      "ĠZalu": 6181,
      "Ġrvou": 6182,
      "ĠleÅ¡": 6183,
      "ĠlÃ¡k": 6184,
      "ĠkÃ©s": 6185,
      "hANI": 6186,
      "ĠvzdÄĽ": 6187,
      "ĠnosI": 6188,
      "ĠvslÃ¡": 6189,
      "ĠZes": 6190,
      "Ġvjiz": 6191,
      "ost": 6192,
      "tANI": 6193,
      "ZnIx": 6194,
      "ĠtÄĽÅ¡": 6195,
      "ĠtuSI": 6196,
      "vanI": 6197,
      "Ġim": 6198,
      "ĠpRipra": 6199,
      "ĠpÅĻijÄı": 6200,
      "Ġozdo": 6201,
      "ĠkRik": 6202,
      "ĠkoneCNe": 6203,
      "CA": 6204,
      "ĠhÃ¡Å¡": 6205,
      "ĠDIk": 6206,
      "ĠprÃ½Å¡": 6207,
      "Ġvous": 6208,
      "Ġvivo": 6209,
      "ĠmeCe": 6210,
      "Ġtrub": 6211,
      "Ġmodra": 6212,
      "Ġtceru": 6213,
      "Ġcvr": 6214,
      "Ġvine": 6215,
      "Ġbouk": 6216,
      "Ġjeze": 6217,
      "Ġmaje": 6218,
      "Ġmej": 6219,
      "mIr": 6220,
      "Ġfsx": 6221,
      "mU": 6222,
      "Ġjsy": 6223,
      "Ġxas": 6224,
      "Ġvre": 6225,
      "ĠspIval": 6226,
      "ĠjeT": 6227,
      "Ġsluj": 6228,
      "ĠlitskIx": 6229,
      "Ġpape": 6230,
      "Ġvzka": 6231,
      "sen": 6232,
      "Ġmer": 6233,
      "ĠplI": 6234,
      "Ġkod": 6235,
      "Ġskoro": 6236,
      "ĠsvÃ¡r": 6237,
      "ĠknÃŃÅ¾": 6238,
      "ĠTIZI": 6239,
      "ĠfSadi": 6240,
      "Ġzach": 6241,
      "NIkU": 6242,
      "ĠspAt": 6243,
      "ĠdlaNI": 6244,
      "ĠrÅ¯st": 6245,
      "pila": 6246,
      "Ġopat": 6247,
      "ĠhrUzi": 6248,
      "Ġdrem": 6249,
      "Ġfstek": 6250,
      "ĠlÃ¡ÅĻ": 6251,
      "ĠvlÃŃc": 6252,
      "ĠÄįÃ¡st": 6253,
      "ĠdQs": 6254,
      "ĠvhruÄı": 6255,
      "ZIx": 6256,
      "kej": 6257,
      "Ġotp": 6258,
      "ĠrÅ¯Å¾": 6259,
      "ĠprAvo": 6260,
      "dnIx": 6261,
      "ĠjÃŃz": 6262,
      "Ġdavi": 6263,
      "Ġpozor": 6264,
      "Ġad": 6265,
      "ĠÄįnÄĽ": 6266,
      "ĠzpÅĻÃŃ": 6267,
      "ĠrouÅ¡": 6268,
      "ĠcÃ½ch": 6269,
      "ĠÅĻÃŃd": 6270,
      "Ġvtr": 6271,
      "ĠmocNe": 6272,
      "Ġsvy": 6273,
      "ĠzÅĻÃŃd": 6274,
      "ĠshÃ¡": 6275,
      "ĠblIsko": 6276,
      "Ġxvjel": 6277,
      "Ġzhoub": 6278,
      "fki": 6279,
      "ĠuTi": 6280,
      "ĠtajI": 6281,
      "ĠdÄĽÄį": 6282,
      "ĠvmlÃ¡": 6283,
      "ĠtmAx": 6284,
      "Ġkrije": 6285,
      "ĠxTeli": 6286,
      "ĠÃ©": 6287,
      "Ġstlu": 6288,
      "ĠslE": 6289,
      "mek": 6290,
      "Ġtrup": 6291,
      "Ġvmou": 6292,
      "ĠsLzI": 6293,
      "Ġgdibix": 6294,
      "ĠlÃ©k": 6295,
      "mNela": 6296,
      "Ġzaxvje": 6297,
      "Ġvzduxu": 6298,
      "Ġfou": 6299,
      "Ġtaki": 6300,
      "Ġvpar": 6301,
      "ĠduxU": 6302,
      "Ġnejsem": 6303,
      "ĠnepRAtel": 6304,
      "Ġvzda": 6305,
      "ĠslÃ¡s": 6306,
      "Ġmam": 6307,
      "Ġvspo": 6308,
      "ĠÅ¡ku": 6309,
      "ĠveSk": 6310,
      "ĠpsÃ¡t": 6311,
      "ĠpUva": 6312,
      "ĠveCera": 6313,
      "ĠdiÅ¡": 6314,
      "Ġpus": 6315,
      "ĠUZas": 6316,
      "ĠReTe": 6317,
      "Ġroh": 6318,
      "ĠÅ¾ij": 6319,
      "vel": 6320,
      "kAn": 6321,
      "ĠjAso": 6322,
      "Ġprutce": 6323,
      "RenI": 6324,
      "ĠcitU": 6325,
      "Ġhmy": 6326,
      "Ġvola": 6327,
      "Ġprac": 6328,
      "Ġvelmi": 6329,
      "ĠkprÃ¡": 6330,
      "ĠnapL": 6331,
      "ĠxladnE": 6332,
      "mE": 6333,
      "ĠZh": 6334,
      "CnIm": 6335,
      "Ġvije": 6336,
      "ĠvÃŃt": 6337,
      "ĠvÅĻes": 6338,
      "ĠNA": 6339,
      "ĠtfÃ¡ÅĻ": 6340,
      "Ġstlo": 6341,
      "Ġpora": 6342,
      "Ġzvuki": 6343,
      "ĠÅĻÃ¡n": 6344,
      "rop": 6345,
      "ĠfSick": 6346,
      "tla": 6347,
      "Ġmramo": 6348,
      "Ġsfin": 6349,
      "ĠCistI": 6350,
      "ĠtfÃ©": 6351,
      "ĠposlEs": 6352,
      "ĠCemu": 6353,
      "ĠpÅĻil": 6354,
      "ĠobjeT": 6355,
      "ĠfSickNi": 6356,
      "Ġlau": 6357,
      "Nex": 6358,
      "Ġmilijo": 6359,
      "ĠvixQ": 6360,
      "Ġvkout": 6361,
      "Ġcech": 6362,
      "ĠsÅĪ": 6363,
      "Ġzbil": 6364,
      "ĠRITI": 6365,
      "ĠSTIt": 6366,
      "ĠtRpi": 6367,
      "pÃŃ": 6368,
      "ĠoNi": 6369,
      "Ġzpou": 6370,
      "Ġvtma": 6371,
      "ĠbrÃ½m": 6372,
      "Ġvzpou": 6373,
      "Ġzmizel": 6374,
      "fen": 6375,
      "Ġvzra": 6376,
      "Ġsvjeti": 6377,
      "Ġlesem": 6378,
      "ĠSedE": 6379,
      "ĠfÃ¡m": 6380,
      "ĠnaDejI": 6381,
      "Ġsvato": 6382,
      "ĠkRIdel": 6383,
      "Ġkhro": 6384,
      "lec": 6385,
      "bej": 6386,
      "ĠdIxA": 6387,
      "Ġvnes": 6388,
      "No": 6389,
      "Ġdeb": 6390,
      "Ġstiv": 6391,
      "Ġdruhdi": 6392,
      "ĠtiÅ¾": 6393,
      "Ġger": 6394,
      "Ġvjetru": 6395,
      "Ġmusil": 6396,
      "ĠpoDI": 6397,
      "Ġvav": 6398,
      "Ġpav": 6399,
      "Ġspod": 6400,
      "Ġhev": 6401,
      "ĠskAla": 6402,
      "Ġboun": 6403,
      "ĠusmA": 6404,
      "Ġkslun": 6405,
      "Ġtar": 6406,
      "ĠdrÅ¾": 6407,
      "vz": 6408,
      "ĠlÅ¾ÃŃ": 6409,
      "Ġzaho": 6410,
      "Ġnejvi": 6411,
      "Ġkrista": 6412,
      "ĠbratRe": 6413,
      "ĠksmÃŃ": 6414,
      "ĠoCima": 6415,
      "Ġlisti": 6416,
      "stat": 6417,
      "Ġzahi": 6418,
      "dali": 6419,
      "Ġvha": 6420,
      "Ġstopi": 6421,
      "ĠtvÃŃch": 6422,
      "lANI": 6423,
      "ĠCase": 6424,
      "Ġkvla": 6425,
      "ĠvASNe": 6426,
      "ĠsÅĻÃŃ": 6427,
      "ĠtajemstvI": 6428,
      "ĠvelikI": 6429,
      "nuf": 6430,
      "ĠvIte": 6431,
      "ĠvkvÄĽt": 6432,
      "ĠmiSlenki": 6433,
      "Ġmund": 6434,
      "Nije": 6435,
      "Ġvplen": 6436,
      "ĠvojA": 6437,
      "ĠprostRet": 6438,
      "ĠsamE": 6439,
      "ĠrÃ¡ÅĻ": 6440,
      "Ġslek": 6441,
      "ĠsfE": 6442,
      "hAm": 6443,
      "Ġzaxo": 6444,
      "ĠpohA": 6445,
      "ĠsÅ¾e": 6446,
      "ĠukA": 6447,
      "Ġrys": 6448,
      "bem": 6449,
      "bro": 6450,
      "Ġzly": 6451,
      "Ġuko": 6452,
      "ĠnÃ¡Äį": 6453,
      "ĠZas": 6454,
      "ĠhÃ¡v": 6455,
      "ĠtemnI": 6456,
      "ĠzDI": 6457,
      "ĠctÄĽ": 6458,
      "Ġab": 6459,
      "ĠkaÅ¡": 6460,
      "ĠmlaDI": 6461,
      "Ġmlh": 6462,
      "ĠkÄįi": 6463,
      "Ġhlaf": 6464,
      "Ġklec": 6465,
      "fot": 6466,
      "Ġsji": 6467,
      "ĠvÃ½z": 6468,
      "ĠvklÃ¡": 6469,
      "ĠÄįtve": 6470,
      "Ġblankit": 6471,
      "Ġlly": 6472,
      "Ġtram": 6473,
      "ĠReka": 6474,
      "ĠnÃ©Äį": 6475,
      "ĠspÅĻÃŃ": 6476,
      "ĠdÃ³": 6477,
      "ĠfÃ½": 6478,
      "ĠjinA": 6479,
      "Ġrosa": 6480,
      "Ġvjenec": 6481,
      "Ġvcha": 6482,
      "ĠupRIm": 6483,
      "ĠstÅĻ": 6484,
      "Ġhlup": 6485,
      "ĠmstÃŃ": 6486,
      "ĠbRex": 6487,
      "ĠviDIS": 6488,
      "viTi": 6489,
      "ĠsÃ¡ch": 6490,
      "ĠvprÃ¡z": 6491,
      "Ġlha": 6492,
      "ĠmNesTe": 6493,
      "Ġkvjetu": 6494,
      "ĠÅ¾ert": 6495,
      "Ġvane": 6496,
      "ĠÄįiÅ¡": 6497,
      "ĠCIS": 6498,
      "Ca": 6499,
      "nese": 6500,
      "ĠnuZe": 6501,
      "Ġvsnech": 6502,
      "Ġzpla": 6503,
      "Ġzbar": 6504,
      "Ġzisk": 6505,
      "Ġlout": 6506,
      "Ġstrop": 6507,
      "ĠbIda": 6508,
      "ĠSeru": 6509,
      "ĠsmÃŃm": 6510,
      "osTi": 6511,
      "fSak": 6512,
      "ĠpRelu": 6513,
      "ĠslavnI": 6514,
      "ĠvrATil": 6515,
      "tat": 6516,
      "ĠchÃ¡z": 6517,
      "Ġfspla": 6518,
      "Sa": 6519,
      "zdu": 6520,
      "ĠsnAx": 6521,
      "ĠstÃ½ÅĻ": 6522,
      "Ġpekel": 6523,
      "ĠCasU": 6524,
      "ĠvUtce": 6525,
      "ĠvjeCnA": 6526,
      "Ġnebespe": 6527,
      "Ġvzhled": 6528,
      "Ġpozdraf": 6529,
      "Lk": 6530,
      "ĠÄįiÄį": 6531,
      "ĠjesTi": 6532,
      "Ġnaho": 6533,
      "Ġhoto": 6534,
      "Ġsim": 6535,
      "ĠvjeZe": 6536,
      "ĠstrÃ¡ÅĪ": 6537,
      "Ġvzdix": 6538,
      "ĠbIdi": 6539,
      "ĠsvjetU": 6540,
      "Ġmle": 6541,
      "Nete": 6542,
      "venI": 6543,
      "ĠdlaNe": 6544,
      "ĠposvAt": 6545,
      "Ġhledal": 6546,
      "Ġhnul": 6547,
      "Ġchrem": 6548,
      "ĠnejkrAs": 6549,
      "ĠvITestvI": 6550,
      "ĠzlA": 6551,
      "ĠdeÅĻ": 6552,
      "Ġmari": 6553,
      "Ġsedm": 6554,
      "ĠpÄĽn": 6555,
      "ĠpiÄį": 6556,
      "ĠjemNe": 6557,
      "bU": 6558,
      "Ġjho": 6559,
      "ĠÅ¾va": 6560,
      "ĠSpi": 6561,
      "ĠbÃ¡n": 6562,
      "ĠprAva": 6563,
      "Ġmohla": 6564,
      "ĠjinIm": 6565,
      "ĠZAdA": 6566,
      "Ġtehdi": 6567,
      "on": 6568,
      "ĠtÃŃc": 6569,
      "ĠTelem": 6570,
      "ĠlhÃ¡": 6571,
      "Qx": 6572,
      "ĠstÃ¡n": 6573,
      "Ġzez": 6574,
      "Ġstrov": 6575,
      "Ġmrt": 6576,
      "Ġpadla": 6577,
      "ĠvsvÃ½ch": 6578,
      "bnI": 6579,
      "ĠjedNIm": 6580,
      "Ġpozve": 6581,
      "ĠÅ¥te": 6582,
      "Ġmohut": 6583,
      "ĠspAnku": 6584,
      "Ġkin": 6585,
      "ĠkaÅĻ": 6586,
      "tAm": 6587,
      "ĠtvUr": 6588,
      "ĠlÃ©t": 6589,
      "ĠvhouÅ¡": 6590,
      "ĠpRIval": 6591,
      "ĠDivnE": 6592,
      "Ġuza": 6593,
      "Ġtup": 6594,
      "ĠtrUn": 6595,
      "Ġnud": 6596,
      "Ġbet": 6597,
      "ĠafSak": 6598,
      "ĠnitÅĻ": 6599,
      "Ġgol": 6600,
      "Ġsmutno": 6601,
      "ĠzlÃ¡s": 6602,
      "Ġvzlyk": 6603,
      "CenE": 6604,
      "ĠbRI": 6605,
      "ĠTexto": 6606,
      "Ġznej": 6607,
      "ĠdQZI": 6608,
      "ĠvkrÃ¡t": 6609,
      "ke": 6610,
      "rUm": 6611,
      "ten": 6612,
      "ĠtfÃ¡ÅĻi": 6613,
      "rud": 6614,
      "dost": 6615,
      "Ġduxem": 6616,
      "ĠkrACel": 6617,
      "Ġschy": 6618,
      "ĠpalA": 6619,
      "Ġsroz": 6620,
      "ĠzUstal": 6621,
      "ĠsmAl": 6622,
      "hAx": 6623,
      "covE": 6624,
      "Ġjes": 6625,
      "Ġmur": 6626,
      "Ġstolu": 6627,
      "ĠlEpe": 6628,
      "ĠcIle": 6629,
      "Ġkola": 6630,
      "Ġlaska": 6631,
      "Ġsah": 6632,
      "Ġzdvo": 6633,
      "Ġhrej": 6634,
      "ĠRat": 6635,
      "Ġgar": 6636,
      "hor": 6637,
      "Ġkrajem": 6638,
      "Ġvelik": 6639,
      "ĠÅ¾iÄį": 6640,
      "ĠRISi": 6641,
      "ĠUdolI": 6642,
      "ĠmoRem": 6643,
      "Ġdneska": 6644,
      "ĠsxQ": 6645,
      "ĠvlasU": 6646,
      "ĠTIS": 6647,
      "ĠdEST": 6648,
      "ĠlitskA": 6649,
      "ĠRIS": 6650,
      "ĠZalA": 6651,
      "ĠmRI": 6652,
      "ĠpromNe": 6653,
      "vek": 6654,
      "Ġdluh": 6655,
      "blI": 6656,
      "Ġchan": 6657,
      "mis": 6658,
      "Ġstvol": 6659,
      "Ġshor": 6660,
      "ĠCekal": 6661,
      "RIx": 6662,
      "ĠsNil": 6663,
      "Ġzrn": 6664,
      "ĠhU": 6665,
      "Ġzdlou": 6666,
      "ĠTeSkA": 6667,
      "bili": 6668,
      "ĠstATi": 6669,
      "ĠznÃŃt": 6670,
      "Ġvprav": 6671,
      "Ġnepoko": 6672,
      "Ġnesk": 6673,
      "Ġbab": 6674,
      "Ġtrok": 6675,
      "Cce": 6676,
      "Ġnax": 6677,
      "ĠtuÄį": 6678,
      "ĠÅĻiÄį": 6679,
      "Cas": 6680,
      "fil": 6681,
      "Ġtuh": 6682,
      "ĠkÃ¡s": 6683,
      "ĠjAsA": 6684,
      "Ġuxo": 6685,
      "ĠtuÅ¥": 6686,
      "Ġpoesije": 6687,
      "leTe": 6688,
      "ĠsmutnA": 6689,
      "Ġvc": 6690,
      "rali": 6691,
      "ĠlÃŃÅĻ": 6692,
      "Ġozvje": 6693,
      "Ġmhou": 6694,
      "ĠleZe": 6695,
      "Ġuva": 6696,
      "Ġbolem": 6697,
      "lAk": 6698,
      "Ġstromu": 6699,
      "ĠbIdu": 6700,
      "ĠhRIm": 6701,
      "ĠdlÃ½m": 6702,
      "ĠpohQ": 6703,
      "ĠpAt": 6704,
      "ĠsTisk": 6705,
      "dnIm": 6706,
      "Ġfat": 6707,
      "ĠtrUnu": 6708,
      "ĠusmIvA": 6709,
      "Ġthu": 6710,
      "Ġjev": 6711,
      "ĠjAsa": 6712,
      "Ġzapomen": 6713,
      "Rilo": 6714,
      "Ġtsk": 6715,
      "Ġoni": 6716,
      "Ġfej": 6717,
      "ĠraDej": 6718,
      "Ġek": 6719,
      "ĠÅ¡kol": 6720,
      "sit": 6721,
      "ĠCNI": 6722,
      "ĠtvoRI": 6723,
      "Ġkvr": 6724,
      "ĠhAje": 6725,
      "ĠskrÃ½Å¡": 6726,
      "ĠsplIvA": 6727,
      "Ġcle": 6728,
      "Ġvmla": 6729,
      "ĠvznÃ©": 6730,
      "ĠvsmÃŃ": 6731,
      "hnul": 6732,
      "vÃ½m": 6733,
      "Ġtito": 6734,
      "nej": 6735,
      "ĠloZi": 6736,
      "ĠhÃ¡Äį": 6737,
      "ĠbrAni": 6738,
      "ĠkhvÄĽz": 6739,
      "ĠnE": 6740,
      "Ġpekla": 6741,
      "Ġvhor": 6742,
      "ĠvaÅ¾": 6743,
      "ĠpracI": 6744,
      "ĠTes": 6745,
      "ĠvdÅ¯": 6746,
      "jIx": 6747,
      "Ġstvem": 6748,
      "Ġusta": 6749,
      "ĠvÅ¡tÄĽ": 6750,
      "ĠvlaÅ¾": 6751,
      "ĠrAji": 6752,
      "ĠxladnI": 6753,
      "fE": 6754,
      "Ġjra": 6755,
      "Ġzme": 6756,
      "Ġnesko": 6757,
      "is": 6758,
      "ĠzvÅ¯": 6759,
      "ĠtrI": 6760,
      "ĠzAkon": 6761,
      "Ġnis": 6762,
      "Ġradu": 6763,
      "ĠmocnI": 6764,
      "ĠpotRe": 6765,
      "Ġshni": 6766,
      "ĠhNevu": 6767,
      "bla": 6768,
      "ĠstARI": 6769,
      "ĠmÅ¡i": 6770,
      "ĠhnA": 6771,
      "lEtA": 6772,
      "Ġzvet": 6773,
      "ĠtÄĽr": 6774,
      "ĠzblÃŃz": 6775,
      "ky": 6776,
      "Ġhot": 6777,
      "ĠubI": 6778,
      "Ġvlk": 6779,
      "ĠmarnE": 6780,
      "ĠpAnu": 6781,
      "gra": 6782,
      "ĠstmÄĽ": 6783,
      "ĠzamiS": 6784,
      "Ġuv": 6785,
      "ĠÄįÃŃc": 6786,
      "ĠvelkIx": 6787,
      "ĠslavnE": 6788,
      "So": 6789,
      "Ġtha": 6790,
      "Ġdul": 6791,
      "ĠxU": 6792,
      "Ġlux": 6793,
      "ĠCISe": 6794,
      "Ġbaref": 6795,
      "Ġrag": 6796,
      "ĠÄįap": 6797,
      "Ġdlesk": 6798,
      "ĠsnÃ©": 6799,
      "Ġkvete": 6800,
      "ĠvztÃ½": 6801,
      "ĠzApat": 6802,
      "Ġvjetrem": 6803,
      "lenA": 6804,
      "Ġpach": 6805,
      "Ġxmu": 6806,
      "vAx": 6807,
      "ĠdrÃ©m": 6808,
      "ĠhrUza": 6809,
      "ĠkterIm": 6810,
      "ĠzÃ¡k": 6811,
      "ĠvjeRI": 6812,
      "Ġobrof": 6813,
      "Ġzkro": 6814,
      "ĠrvÃ¡t": 6815,
      "zlem": 6816,
      "ĠzrAt": 6817,
      "ĠstlÃ¡": 6818,
      "Ġmos": 6819,
      "Ġmex": 6820,
      "ĠvelkIm": 6821,
      "vede": 6822,
      "ĠhrÃ¡z": 6823,
      "ĠsIN": 6824,
      "ĠptaCI": 6825,
      "Ġpline": 6826,
      "ĠstRIbro": 6827,
      "ĠpoZehnANI": 6828,
      "ĠsÅĪa": 6829,
      "ako": 6830,
      "ĠspouÅ¡": 6831,
      "ĠSkoda": 6832,
      "fcU": 6833,
      "ĠDIki": 6834,
      "Ġvzdal": 6835,
      "Ġ22": 6836,
      "ĠsedA": 6837,
      "ĠvyÅĻ": 6838,
      "ĠnexTe": 6839,
      "ĠbAje": 6840,
      "ĠhleDIm": 6841,
      "Ġsnah": 6842,
      "Ġoknem": 6843,
      "ĠkrAsn": 6844,
      "ĠsLs": 6845,
      "ĠhAzI": 6846,
      "ĠNitro": 6847,
      "ĠtaTI": 6848,
      "ĠxudA": 6849,
      "ĠvjÃŃ": 6850,
      "ĠvÃŃd": 6851,
      "Nat": 6852,
      "ĠbÃ½m": 6853,
      "ĠNeko": 6854,
      "Ġdobr": 6855,
      "ĠpQxA": 6856,
      "ĠnouÅ¥": 6857,
      "ĠstRedu": 6858,
      "ĠvASNi": 6859,
      "ckA": 6860,
      "he": 6861,
      "Ġsez": 6862,
      "Ġpurpu": 6863,
      "Ġpeklo": 6864,
      "Ġnaspjet": 6865,
      "Ġdumi": 6866,
      "ĠpÅĻÃŃt": 6867,
      "CkU": 6868,
      "ĠrI": 6869,
      "Ġpiv": 6870,
      "ĠmladIx": 6871,
      "Ġlhostej": 6872,
      "ĠkosTi": 6873,
      "Ġzvla": 6874,
      "nAct": 6875,
      "ĠzmÃ©": 6876,
      "Ġklade": 6877,
      "ĠzbI": 6878,
      "ĠslavNe": 6879,
      "Ġzmize": 6880,
      "ĠkIvA": 6881,
      "InA": 6882,
      "lku": 6883,
      "vÃ½ch": 6884,
      "ĠhoNI": 6885,
      "Ġzvr": 6886,
      "ĠspÄĽj": 6887,
      "ĠhÅĻÃŃÄį": 6888,
      "ĠpLnA": 6889,
      "Ġtcer": 6890,
      "ĠprAzdno": 6891,
      "rNI": 6892,
      "Ġhos": 6893,
      "Ġgli": 6894,
      "cnost": 6895,
      "ĠCern": 6896,
      "ĠjeDinA": 6897,
      "fou": 6898,
      "ĠÅĻve": 6899,
      "Ġdout": 6900,
      "Ġtroj": 6901,
      "Ġris": 6902,
      "ĠzbraN": 6903,
      "ĠvaSix": 6904,
      "ĠosamNe": 6905,
      "ĠDiva": 6906,
      "Ġlaho": 6907,
      "Ġlabu": 6908,
      "ĠmNek": 6909,
      "ĠxvjejI": 6910,
      "ĠnejvIc": 6911,
      "ĠvnoÄį": 6912,
      "Ġkob": 6913,
      "ĠvÃ¡k": 6914,
      "ĠÅĻÃŃk": 6915,
      "Ġzdy": 6916,
      "ĠradÅ¡": 6917,
      "ĠprosI": 6918,
      "Ġviko": 6919,
      "cela": 6920,
      "ĠmÃŃst": 6921,
      "ĠCistA": 6922,
      "Dilo": 6923,
      "cÅ¯": 6924,
      "Ġmic": 6925,
      "DeTi": 6926,
      "ĠZiTIm": 6927,
      "ĠmATi": 6928,
      "Ġschu": 6929,
      "ĠcIli": 6930,
      "Ġvchlad": 6931,
      "ĠSTasten": 6932,
      "ĠbÅĻit": 6933,
      "CU": 6934,
      "Ġmh": 6935,
      "ĠuTI": 6936,
      "ĠmaNe": 6937,
      "ĠmÃ¡Å¾": 6938,
      "Ġsbra": 6939,
      "ĠkmÄĽ": 6940,
      "ĠRadi": 6941,
      "novi": 6942,
      "Ġvsmr": 6943,
      "ĠpLNI": 6944,
      "Ġstruni": 6945,
      "ĠokamZik": 6946,
      "Ġpark": 6947,
      "Ġvina": 6948,
      "Ġvzrost": 6949,
      "ĠrodnE": 6950,
      "ĠCiNI": 6951,
      "ĠtmavE": 6952,
      "Ġsnex": 6953,
      "Ġjimi": 6954,
      "Ġzbou": 6955,
      "Ġnemox": 6956,
      "ĠCarov": 6957,
      "ĠfstAvA": 6958,
      "ĠvztÃ¡h": 6959,
      "Ġtfo": 6960,
      "ĠmoR": 6961,
      "Ġvsled": 6962,
      "ĠbÃŃn": 6963,
      "ĠSkle": 6964,
      "Ġbyls": 6965,
      "Ġsklon": 6966,
      "Ġnutno": 6967,
      "ĠvjerNe": 6968,
      "nskE": 6969,
      "dovE": 6970,
      "ĠhrozI": 6971,
      "Ġvrab": 6972,
      "ĠmIsTe": 6973,
      "Ġksp": 6974,
      "Ġmiloval": 6975,
      "Ġpoch": 6976,
      "SeN": 6977,
      "Ġvsu": 6978,
      "ĠdlaÅ¾": 6979,
      "ĠmAj": 6980,
      "ĠCeho": 6981,
      "jak": 6982,
      "ĠknÃ½": 6983,
      "Ġjede": 6984,
      "ĠmnohA": 6985,
      "Ġtkal": 6986,
      "ĠkAZe": 6987,
      "Ġpet": 6988,
      "ĠdenNI": 6989,
      "neme": 6990,
      "ĠstaRec": 6991,
      "tÃ¡": 6992,
      "ĠpÅĻa": 6993,
      "ĠviSI": 6994,
      "ĠÅĻej": 6995,
      "lIk": 6996,
      "ĠsvIrA": 6997,
      "Ġkvy": 6998,
      "ĠdNe": 6999,
      "Ġkaj": 7000,
      "ĠvmÃ½ch": 7001,
      "ĠÄıar": 7002,
      "Ġchoun": 7003,
      "ĠÅ¡kÅ¯d": 7004,
      "cuje": 7005,
      "Ġnemlu": 7006,
      "ĠzdaS": 7007,
      "ĠptAkU": 7008,
      "ĠotpovI": 7009,
      "Ġkristus": 7010,
      "ĠbDI": 7011,
      "Ġdup": 7012,
      "ĠmistQ": 7013,
      "Ġlef": 7014,
      "Ġnim": 7015,
      "Ġprst": 7016,
      "ĠpÃ¡m": 7017,
      "Ġhine": 7018,
      "ĠhNIzdo": 7019,
      "Ġslaf": 7020,
      "ĠZer": 7021,
      "ĠstraTil": 7022,
      "ĠvAZNe": 7023,
      "Ġhust": 7024,
      "ĠzAvoj": 7025,
      "pka": 7026,
      "Ġklat": 7027,
      "Ġsvaz": 7028,
      "Ġvjetve": 7029,
      "ĠklInu": 7030,
      "Ġzvjest": 7031,
      "ĠkUN": 7032,
      "ĠpotA": 7033,
      "Ġtopo": 7034,
      "xAx": 7035,
      "dNi": 7036,
      "Ġnaf": 7037,
      "ĠABB": 7038,
      "ĠtÅĻen": 7039,
      "Ġvdru": 7040,
      "cnosTi": 7041,
      "Ġskali": 7042,
      "Ġciti": 7043,
      "ĠsÃŃÅ¥": 7044,
      "Ġzob": 7045,
      "Ġklob": 7046,
      "ĠdÄĽk": 7047,
      "ĠjejIx": 7048,
      "ita": 7049,
      "ĠAAAA": 7050,
      "ĠDivnI": 7051,
      "jum": 7052,
      "Ġplout": 7053,
      "ĠotpusT": 7054,
      "ĠktÄĽm": 7055,
      "fÃ½ch": 7056,
      "zdi": 7057,
      "Ġoli": 7058,
      "stfÃŃ": 7059,
      "ĠleTe": 7060,
      "ĠvyÄį": 7061,
      "Ġletem": 7062,
      "Ġtcera": 7063,
      "ĠdvÃ¡b": 7064,
      "ZnIm": 7065,
      "ĠpRil": 7066,
      "ĠtrÃ©": 7067,
      "Ġvelko": 7068,
      "Ġtvol": 7069,
      "Ġzleh": 7070,
      "ĠkvIlI": 7071,
      "Ġzhor": 7072,
      "tci": 7073,
      "Ġpovo": 7074,
      "Net": 7075,
      "najI": 7076,
      "Ġbixom": 7077,
      "Ġpech": 7078,
      "ĠvzpÅĻÃŃ": 7079,
      "ĠstrAS": 7080,
      "ĠveselI": 7081,
      "ĠkrAtkI": 7082,
      "ĠzÅ¡e": 7083,
      "ĠtÄĽk": 7084,
      "ĠDivi": 7085,
      "ĠÄįou": 7086,
      "Ġtet": 7087,
      "rej": 7088,
      "ĠopuSTen": 7089,
      "CkI": 7090,
      "Ġhin": 7091,
      "Ġnesta": 7092,
      "Ġblaze": 7093,
      "ĠmlaDi": 7094,
      "ĠpQsti": 7095,
      "Ġpolip": 7096,
      "ĠplACem": 7097,
      "ĠvIkRik": 7098,
      "tNIk": 7099,
      "Ġsol": 7100,
      "Ġmluvit": 7101,
      "ĠvÅĻen": 7102,
      "Ġpomalu": 7103,
      "ĠAXABBX": 7104,
      "krAte": 7105,
      "ĠstRel": 7106,
      "ĠduNI": 7107,
      "ĠpasÅ¥": 7108,
      "ĠvznASI": 7109,
      "ĠpAnem": 7110,
      "ĠDivA": 7111,
      "ĠvelikE": 7112,
      "Ġrodu": 7113,
      "skne": 7114,
      "ĠvnÄĽÅ¾": 7115,
      "ĠdAvnIx": 7116,
      "ĠspoleC": 7117,
      "Ġkyn": 7118,
      "ĠDIval": 7119,
      "Ġsvjetlem": 7120,
      "Ġrospu": 7121,
      "lka": 7122,
      "ĠmUS": 7123,
      "ĠseDel": 7124,
      "ĠrÅ¯v": 7125,
      "Ġvkle": 7126,
      "ĠRada": 7127,
      "ĠpUjdu": 7128,
      "Ġdomof": 7129,
      "mex": 7130,
      "ĠUto": 7131,
      "Ġgon": 7132,
      "ĠpRIrodi": 7133,
      "ĠsLzAx": 7134,
      "ĠmrakU": 7135,
      "Ġvtis": 7136,
      "ĠDIfCI": 7137,
      "Ġnemohu": 7138,
      "Ġvlou": 7139,
      "ĠbÃ½ch": 7140,
      "Ġoc": 7141,
      "Ġvjes": 7142,
      "ĠplAt": 7143,
      "ĠfskRik": 7144,
      "ĠcÃ½m": 7145,
      "ĠzÃ¡c": 7146,
      "Ġsfjet": 7147,
      "dRe": 7148,
      "ĠÄįat": 7149,
      "Ġsvra": 7150,
      "ĠÄįÃŃk": 7151,
      "Ġxut": 7152,
      "ĠÅ¡iÄį": 7153,
      "Ġvdlou": 7154,
      "ĠDevi": 7155,
      "ĠrADi": 7156,
      "Ġosi": 7157,
      "ĠdliÄį": 7158,
      "ĠnÃŃc": 7159,
      "Ġcer": 7160,
      "ĠZivE": 7161,
      "ĠprostE": 7162,
      "ĠvixRi": 7163,
      "Ġvzruch": 7164,
      "us": 7165,
      "Ġdme": 7166,
      "Ġtoto": 7167,
      "enA": 7168,
      "Ġvolal": 7169,
      "Ġcitu": 7170,
      "ĠstÅĻech": 7171,
      "Ġbjel": 7172,
      "ĠskAle": 7173,
      "Ġlk": 7174,
      "Ġchro": 7175,
      "ĠsvU": 7176,
      "ĠZelez": 7177,
      "Ġsvod": 7178,
      "ĠkNeZ": 7179,
      "ĠupI": 7180,
      "Ġvida": 7181,
      "ĠABABBX": 7182,
      "ĠznameNI": 7183,
      "ĠkRiCI": 7184,
      "ĠvÅĻi": 7185,
      "ĠmU": 7186,
      "Ġapo": 7187,
      "ĠpRIteli": 7188,
      "Ġzjed": 7189,
      "ĠCerven": 7190,
      "ĠvpÅ¯l": 7191,
      "nÃ½m": 7192,
      "ĠodvA": 7193,
      "ĠsteÄį": 7194,
      "Ġpravd": 7195,
      "pis": 7196,
      "ĠfspomInAm": 7197,
      "ĠvsÃŃÅĪ": 7198,
      "ĠzdrAf": 7199,
      "ĠmuZU": 7200,
      "vosTi": 7201,
      "stek": 7202,
      "ĠCelem": 7203,
      "lImi": 7204,
      "Ġvrak": 7205,
      "ĠÄįlun": 7206,
      "ĠteÅ¾": 7207,
      "ĠÅ¡ev": 7208,
      "ĠvspÄĽ": 7209,
      "Su": 7210,
      "SnE": 7211,
      "Ġodva": 7212,
      "ĠstokrAt": 7213,
      "Ġryl": 7214,
      "Ġzkra": 7215,
      "ĠzÅĻej": 7216,
      "ĠTeSk": 7217,
      "fSe": 7218,
      "Ġvsko": 7219,
      "Ġsfou": 7220,
      "Ġram": 7221,
      "ĠbÃ¡k": 7222,
      "Ġvprv": 7223,
      "rala": 7224,
      "ĠpÅĻen": 7225,
      "Ġvsen": 7226,
      "ĠSer": 7227,
      "Ġspjevi": 7228,
      "RenA": 7229,
      "ĠzApadu": 7230,
      "Ġlot": 7231,
      "ĠsamI": 7232,
      "ĠTixEm": 7233,
      "udi": 7234,
      "ĠkoNI": 7235,
      "ĠpeÅĪ": 7236,
      "Ġotut": 7237,
      "Ġnebesa": 7238,
      "ĠpsÃŃ": 7239,
      "deme": 7240,
      "ĠsmQtel": 7241,
      "ĠSeptA": 7242,
      "ĠdvERe": 7243,
      "ĠoZi": 7244,
      "lel": 7245,
      "ĠleS": 7246,
      "ĠvItA": 7247,
      "Ġkrat": 7248,
      "Ġmluf": 7249,
      "Ġhore": 7250,
      "ĠhrAl": 7251,
      "ĠskrANe": 7252,
      "Ġnetu": 7253,
      "ĠspÃŃs": 7254,
      "ĠpamNeTi": 7255,
      "ĠrAmNe": 7256,
      "ĠbuÅ¥": 7257,
      "ĠABC": 7258,
      "Ġstisk": 7259,
      "ĠstojIm": 7260,
      "Ġzrad": 7261,
      "Ġxvjela": 7262,
      "Ġule": 7263,
      "ĠneSTe": 7264,
      "ĠblIskA": 7265,
      "ĠznAmI": 7266,
      "Ġstraxu": 7267,
      "Ġnejvjet": 7268,
      "ĠDivE": 7269,
      "jeme": 7270,
      "ĠbuSI": 7271,
      "ĠDetem": 7272,
      "ĠZArem": 7273,
      "Ġbarvi": 7274,
      "Ġmislil": 7275,
      "rnA": 7276,
      "ĠtrÅ¯m": 7277,
      "ĠTemi": 7278,
      "Ġzdep": 7279,
      "Ġzs": 7280,
      "ĠÄįed": 7281,
      "Deji": 7282,
      "Ġeh": 7283,
      "ĠfSudi": 7284,
      "ĠsmÄĽr": 7285,
      "dIm": 7286,
      "hIm": 7287,
      "kva": 7288,
      "raje": 7289,
      "Ġlesku": 7290,
      "ĠnaSem": 7291,
      "meNi": 7292,
      "Ġvjence": 7293,
      "ĠpRIk": 7294,
      "ĠpIt": 7295,
      "ĠplANI": 7296,
      "ĠZeno": 7297,
      "ĠtvÃŃm": 7298,
      "ĠcelEm": 7299,
      "ĠmiSlEnki": 7300,
      "ĠzÅ¾": 7301,
      "Ġvkni": 7302,
      "ĠXAAXBB": 7303,
      "Ġprocit": 7304,
      "ĠZeNe": 7305,
      "Ġzubi": 7306,
      "ĠtfÃ©m": 7307,
      "ĠjlÃŃp": 7308,
      "mIm": 7309,
      "Ġkf": 7310,
      "Ġfre": 7311,
      "ĠsQtcIx": 7312,
      "ĠspÃ¡r": 7313,
      "ĠmrÃ¡Äį": 7314,
      "Ġsdo": 7315,
      "Ã¡z": 7316,
      "Ġfen": 7317,
      "ĠÄįerv": 7318,
      "ĠskrIvA": 7319,
      "Ġspjevu": 7320,
      "ĠvjeCnost": 7321,
      "Ġpsy": 7322,
      "ĠvlAdne": 7323,
      "ĠznAS": 7324,
      "Ġkalix": 7325,
      "ĠpravE": 7326,
      "ĠXAAA": 7327,
      "Ġsvjetel": 7328,
      "NicI": 7329,
      "ĠvjeS": 7330,
      "nkem": 7331,
      "ĠÅ¾in": 7332,
      "Ġobej": 7333,
      "Ġpic": 7334,
      "ĠletNI": 7335,
      "Ġkruhu": 7336,
      "ĠschrÃ¡": 7337,
      "ĠbolesTI": 7338,
      "SlI": 7339,
      "Ġkomo": 7340,
      "ĠceÅ¡": 7341,
      "ĠumNe": 7342,
      "Ġbabi": 7343,
      "nuTIm": 7344,
      "ĠroskoSe": 7345,
      "ĠvzrU": 7346,
      "ĠrÃ¡b": 7347,
      "ĠDelA": 7348,
      "Ġvmr": 7349,
      "ĠpsA": 7350,
      "Ġvlok": 7351,
      "ĠjeDinE": 7352,
      "ĠvDek": 7353,
      "NejSIm": 7354,
      "ĠkrUpjej": 7355,
      "Ġskep": 7356,
      "Ġssa": 7357,
      "ĠnovIm": 7358,
      "Ġstanul": 7359,
      "vedL": 7360,
      "ĠTixa": 7361,
      "ĠsmeÄį": 7362,
      "ĠstUj": 7363,
      "ÄįÃŃ": 7364,
      "ĠÅ¡ou": 7365,
      "Ġkarel": 7366,
      "ĠtÃŃh": 7367,
      "Ġhub": 7368,
      "ĠsvjedomI": 7369,
      "ĠskrANI": 7370,
      "Ġjablo": 7371,
      "ĠpjesTI": 7372,
      "ĠRIkA": 7373,
      "ĠZhavE": 7374,
      "Ġtho": 7375,
      "Ġis": 7376,
      "ĠÅ¡ik": 7377,
      "Ġev": 7378,
      "ĠhQdE": 7379,
      "ĠstUl": 7380,
      "Ġseh": 7381,
      "livI": 7382,
      "Ġkpra": 7383,
      "ĠpRImo": 7384,
      "jit": 7385,
      "ĠjÅ¯m": 7386,
      "ĠzAha": 7387,
      "ĠtrAvi": 7388,
      "Ġbos": 7389,
      "ĠotvIrA": 7390,
      "Ġpije": 7391,
      "ĠlIcI": 7392,
      "Ġspjex": 7393,
      "Ġnajde": 7394,
      "Ġdaleka": 7395,
      "Ġjiskri": 7396,
      "pili": 7397,
      "ĠtmNe": 7398,
      "Ġskvet": 7399,
      "cije": 7400,
      "Ġkpr": 7401,
      "ĠsliSIS": 7402,
      "Ġnuz": 7403,
      "Ġvly": 7404,
      "Sila": 7405,
      "ĠmoZnA": 7406,
      "Ġdosta": 7407,
      "ĠdomA": 7408,
      "ĠjdeS": 7409,
      "ĠÅ¡Å¥Ã¡": 7410,
      "ĠkÅĻep": 7411,
      "ĠÅ¾ol": 7412,
      "ĠbQzo": 7413,
      "lNI": 7414,
      "ĠhÅĻi": 7415,
      "lena": 7416,
      "Ġprospje": 7417,
      "ĠZa": 7418,
      "kUf": 7419,
      "ĠzvÃ¡n": 7420,
      "Ġklasi": 7421,
      "ĠpadL": 7422,
      "ĠkRIdlem": 7423,
      "pjel": 7424,
      "ĠpRemI": 7425,
      "klA": 7426,
      "Ġletex": 7427,
      "Ġkur": 7428,
      "kas": 7429,
      "ĠprAx": 7430,
      "Ġnexal": 7431,
      "ĠSTesTIm": 7432,
      "Ġzlil": 7433,
      "ĠÃ¡Å¡": 7434,
      "Ġobzoru": 7435,
      "telem": 7436,
      "Ġbul": 7437,
      "Ġsrp": 7438,
      "ĠzRIS": 7439,
      "ĠCtiRi": 7440,
      "ĠtuZ": 7441,
      "Ġvjeku": 7442,
      "Ġhrabje": 7443,
      "ĠcelIm": 7444,
      "Rena": 7445,
      "ĠnArodu": 7446,
      "Ġland": 7447,
      "NiTi": 7448,
      "ĠvjeDel": 7449,
      "kladi": 7450,
      "ĠfTip": 7451,
      "ĠnesmNe": 7452,
      "ĠsmIxem": 7453,
      "ĠvjernI": 7454,
      "ĠDAbel": 7455,
      "ĠsnA": 7456,
      "Ġkst": 7457,
      "ĠgÃ¡": 7458,
      "Ġpyt": 7459,
      "ĠsINe": 7460,
      "ĠDefC": 7461,
      "ĠcÃ©": 7462,
      "armo": 7463,
      "ĠmdlI": 7464,
      "Ġvnez": 7465,
      "ĠmZik": 7466,
      "Ġkoh": 7467,
      "ĠhrajI": 7468,
      "ĠvjeCn": 7469,
      "Ġplin": 7470,
      "ĠpRIroda": 7471,
      "ĠplaSe": 7472,
      "Ġtrut": 7473,
      "ĠmodlI": 7474,
      "ĠzazNI": 7475,
      "ĠjImA": 7476,
      "ĠZhavI": 7477,
      "ĠstvÅ¯": 7478,
      "ĠnaRI": 7479,
      "TIS": 7480,
      "Ġbaj": 7481,
      "ĠCeskA": 7482,
      "ĠnexTel": 7483,
      "rostRet": 7484,
      "ĠslÅ¯v": 7485,
      "Ġhov": 7486,
      "Ġmexu": 7487,
      "Ġklep": 7488,
      "Ġslunko": 7489,
      "ĠSero": 7490,
      "ĠjeDin": 7491,
      "lejSI": 7492,
      "ĠvÅ¾e": 7493,
      "Ġpozd": 7494,
      "ĠtajNe": 7495,
      "ĠspIcI": 7496,
      "Ġrozexvje": 7497,
      "ĠptÃ¡t": 7498,
      "Ġposlet": 7499,
      "ĠpIsku": 7500,
      "ĠCert": 7501,
      "ĠhroznI": 7502,
      "dec": 7503,
      "Ġsvobodi": 7504,
      "ĠmladosTi": 7505,
      "ĠveCe": 7506,
      "ĠvzI": 7507,
      "ĠÅ¡pÃŃ": 7508,
      "Ġsvobodu": 7509,
      "ĠnejkrAsNejSI": 7510,
      "emi": 7511,
      "Ġdoli": 7512,
      "Ġdaj": 7513,
      "Ġvtmu": 7514,
      "ĠzvonU": 7515,
      "ĠvAbI": 7516,
      "ĠzkÅĻi": 7517,
      "ĠspIvat": 7518,
      "Ġxcete": 7519,
      "ĠNitra": 7520,
      "Ġpopel": 7521,
      "Ġrub": 7522,
      "Ġplem": 7523,
      "ĠSedI": 7524,
      "ĠDivNe": 7525,
      "Ġteskno": 7526,
      "ĠlkÃ¡t": 7527,
      "vnA": 7528,
      "ĠdNI": 7529,
      "Ġmora": 7530,
      "Tin": 7531,
      "mel": 7532,
      "Ġgri": 7533,
      "ĠhrÃ¡m": 7534,
      "ĠspÃ¡d": 7535,
      "ĠbRi": 7536,
      "ĠonE": 7537,
      "Ġtag": 7538,
      "Nemi": 7539,
      "ĠpropasTi": 7540,
      "Uso": 7541,
      "ĠjÃŃst": 7542,
      "Ġvini": 7543,
      "ĠzmIrA": 7544,
      "Ġhoum": 7545,
      "ĠjemuS": 7546,
      "Ġsg": 7547,
      "Ġuka": 7548,
      "ĠdaÅĪ": 7549,
      "ĠstiÄį": 7550,
      "Ġric": 7551,
      "Ġmiluje": 7552,
      "ĠpjeNI": 7553,
      "ĠzbraNe": 7554,
      "ĠmlE": 7555,
      "ĠÅ¡ti": 7556,
      "Ġvslo": 7557,
      "Ġzvod": 7558,
      "Ġnexa": 7559,
      "ĠveSker": 7560,
      "ĠCar": 7561,
      "Ġnadarmo": 7562,
      "menA": 7563,
      "drI": 7564,
      "ĠvjeZI": 7565,
      "ĠpusTi": 7566,
      "ĠvtÃ¡": 7567,
      "ĠÅ¡Ã¡r": 7568,
      "Ġmly": 7569,
      "livE": 7570,
      "ĠdeST": 7571,
      "ĠpozdNI": 7572,
      "ĠCervAn": 7573,
      "ĠhÅĻbet": 7574,
      "zenE": 7575,
      "ĠzaÅ¡": 7576,
      "Ġvinu": 7577,
      "Cina": 7578,
      "ĠvhnÄĽ": 7579,
      "Ġmohli": 7580,
      "ĠkrAsNe": 7581,
      "ĠZAdnA": 7582,
      "ĠtQhA": 7583,
      "stAvA": 7584,
      "ĠmUZeS": 7585,
      "jeNI": 7586,
      "Ġtvu": 7587,
      "ĠvASeN": 7588,
      "Ġshas": 7589,
      "ĠsmNel": 7590,
      "Ġleskem": 7591,
      "ĠkorA": 7592,
      "ĠplAl": 7593,
      "Ġmalo": 7594,
      "Ġsvist": 7595,
      "Ġjinox": 7596,
      "ĠÄįli": 7597,
      "ĠflÃ©": 7598,
      "ĠmisTi": 7599,
      "Ġcouz": 7600,
      "ĠvNitR": 7601,
      "ĠpojI": 7602,
      "ĠkolEp": 7603,
      "Ġxudo": 7604,
      "Neni": 7605,
      "Ġcher": 7606,
      "ron": 7607,
      "ĠdomNe": 7608,
      "ĠpQv": 7609,
      "ĠzvÄĽsÅ¥": 7610,
      "ĠskuteC": 7611,
      "Ġjda": 7612,
      "ĠsTInem": 7613,
      "yt": 7614,
      "zda": 7615,
      "Ġsice": 7616,
      "Ġrozl": 7617,
      "Ġson": 7618,
      "ĠvjecI": 7619,
      "Ġnejv": 7620,
      "Ġrouc": 7621,
      "Ġvdech": 7622,
      "NIS": 7623,
      "Ġhles": 7624,
      "Ġdlen": 7625,
      "ĠxoT": 7626,
      "ĠbdÄĽl": 7627,
      "ĠmNesIce": 7628,
      "Ġobo": 7629,
      "ledi": 7630,
      "Ġminul": 7631,
      "ĠsIle": 7632,
      "ĠsmQT": 7633,
      "ĠdvÃ¡Å¾": 7634,
      "Ġpja": 7635,
      "ĠpastI": 7636,
      "ĠpustE": 7637,
      "ĠkrAlem": 7638,
      "Ġzboj": 7639,
      "luje": 7640,
      "Ġpani": 7641,
      "XAX": 7642,
      "ĠzrakU": 7643,
      "ĠverSe": 7644,
      "ĠdveRI": 7645,
      "ĠnoRI": 7646,
      "rut": 7647,
      "Ġpoza": 7648,
      "Ġpovjes": 7649,
      "lki": 7650,
      "Ġzf": 7651,
      "Ġluna": 7652,
      "Ġposvje": 7653,
      "ĠNeme": 7654,
      "ĠctnosTi": 7655,
      "ĠtAbo": 7656,
      "Ġvznik": 7657,
      "dlE": 7658,
      "jil": 7659,
      "ĠstlÃ©": 7660,
      "ĠzaSe": 7661,
      "Ġzavo": 7662,
      "dAS": 7663,
      "ĠzvuCI": 7664,
      "Ġnald": 7665,
      "ĠtoÄį": 7666,
      "Ġzven": 7667,
      "Ġtamo": 7668,
      "ĠfSedNI": 7669,
      "ĠAAXXBB": 7670,
      "rIvA": 7671,
      "ĠhlÃ©m": 7672,
      "ĠjakIs": 7673,
      "Ġkorunu": 7674,
      "kou": 7675,
      "ĠdrÅ¯": 7676,
      "ĠxistA": 7677,
      "up": 7678,
      "ĠsÅ¾": 7679,
      "Ġorel": 7680,
      "Ġvzad": 7681,
      "Ġvpoz": 7682,
      "ĠCerno": 7683,
      "rovE": 7684,
      "RiTi": 7685,
      "Dina": 7686,
      "Ġvrax": 7687,
      "ĠtanCI": 7688,
      "ĠfspomInka": 7689,
      "ĠvzchÃ¡": 7690,
      "ANI": 7691,
      "lala": 7692,
      "ĠÄįÅ¯m": 7693,
      "Ġjaks": 7694,
      "ĠÅ¡ÃŃk": 7695,
      "Ġbisku": 7696,
      "Ġklel": 7697,
      "Ġhep": 7698,
      "ĠmAT": 7699,
      "ĠzapomNel": 7700,
      "Ġtaje": 7701,
      "Ġsir": 7702,
      "ĠSA": 7703,
      "ĠzmlÃ¡": 7704,
      "bar": 7705,
      "Dme": 7706,
      "drost": 7707,
      "Ġsliv": 7708,
      "Ġmout": 7709,
      "jme": 7710,
      "Ġksou": 7711,
      "ĠtlÃ©m": 7712,
      "ĠbojovNI": 7713,
      "sat": 7714,
      "vn": 7715,
      "ĠÅ¾eÅ¥": 7716,
      "ĠvÄįÃŃ": 7717,
      "Ġbjelost": 7718,
      "ĠhnuTI": 7719,
      "Ġchry": 7720,
      "ĠbojI": 7721,
      "Tice": 7722,
      "ĠpohAr": 7723,
      "ĠkQC": 7724,
      "ĠctnÃ©": 7725,
      "ĠspAnek": 7726,
      "pali": 7727,
      "Ġvzta": 7728,
      "ĠpruÅ¾": 7729,
      "ĠkmÃ©": 7730,
      "ĠlUNe": 7731,
      "Ġzmlk": 7732,
      "ĠpeNI": 7733,
      "Ġtomto": 7734,
      "ĠlAsko": 7735,
      "ĠlIbal": 7736,
      "pec": 7737,
      "ĠbuTte": 7738,
      "Ġhovor": 7739,
      "Ġusli": 7740,
      "Ġpjest": 7741,
      "ĠmanZel": 7742,
      "Ġvzep": 7743,
      "ĠvelikA": 7744,
      "ĠzARIcI": 7745,
      "ĠhRIxu": 7746,
      "Ġzci": 7747,
      "ĠZeNi": 7748,
      "ĠZert": 7749,
      "ĠsnÄĽt": 7750,
      "Ġprokle": 7751,
      "hovE": 7752,
      "CkAx": 7753,
      "ĠliÅ¾": 7754,
      "Ġtrn": 7755,
      "Ġtemn": 7756,
      "ĠvkÅĻe": 7757,
      "ĠzlatIm": 7758,
      "ĠsÅ¾i": 7759,
      "Ġbyv": 7760,
      "Ġvzrak": 7761,
      "Ġklesla": 7762,
      "ĠkterIx": 7763,
      "ĠkNihi": 7764,
      "ĠzvIRe": 7765,
      "ĠnejviSI": 7766,
      "ĠneSTesTI": 7767,
      "ĠkvE": 7768,
      "ĠlvÃŃ": 7769,
      "Ġrmu": 7770,
      "ĠpoZ": 7771,
      "Ġnesla": 7772,
      "ĠztvÃ½ch": 7773,
      "Ġjinde": 7774,
      "ĠverÅ¡": 7775,
      "Ġdavu": 7776,
      "Ġeu": 7777,
      "ĠdruhA": 7778,
      "ĠvrÃ½": 7779,
      "mon": 7780,
      "Ġhledat": 7781,
      "ĠzlÅ¯": 7782,
      "ĠRekne": 7783,
      "ĠuÄį": 7784,
      "Ġneji": 7785,
      "Ġplameni": 7786,
      "ĠÅ¡piÄį": 7787,
      "Relo": 7788,
      "ĠbÅĻeÄį": 7789,
      "ĠhnÃ¡t": 7790,
      "ĠvtvÃ½ch": 7791,
      "Ġproj": 7792,
      "spI": 7793,
      "Tilo": 7794,
      "ĠtRes": 7795,
      "Ġjednoho": 7796,
      "Ġgr": 7797,
      "ĠÅ¾id": 7798,
      "Zek": 7799,
      "hala": 7800,
      "Ġcep": 7801,
      "ĠcÃŃÅĻ": 7802,
      "Ġsmil": 7803,
      "ĠzdÅĻÃŃ": 7804,
      "Ġodm": 7805,
      "Ġsor": 7806,
      "ĠvLnAx": 7807,
      "STIm": 7808,
      "ĠmÅ¯r": 7809,
      "ĠhroznE": 7810,
      "ĠblIska": 7811,
      "ĠfspomInA": 7812,
      "Ġxlap": 7813,
      "Ġsci": 7814,
      "ĠstÃ¡h": 7815,
      "ĠsmNelI": 7816,
      "hlas": 7817,
      "slaf": 7818,
      "ĠrE": 7819,
      "ĠpÅĻeÄį": 7820,
      "Ġdals": 7821,
      "ĠvmÅ¾i": 7822,
      "ĠverS": 7823,
      "RenIx": 7824,
      "ĠdrobnE": 7825,
      "Ġschop": 7826,
      "Ġcval": 7827,
      "Ġpokut": 7828,
      "ĠpRip": 7829,
      "Ġvkli": 7830,
      "Ġpjel": 7831,
      "ĠNImS": 7832,
      "ĠhvjezDi": 7833,
      "Ġlst": 7834,
      "ĠzavI": 7835,
      "ĠjiRI": 7836,
      "ĠuprostRet": 7837,
      "vla": 7838,
      "Ġpon": 7839,
      "ĠhoÄı": 7840,
      "vini": 7841,
      "utku": 7842,
      "ĠÅ¾Ã¡k": 7843,
      "ĠspjexA": 7844,
      "ĠxovA": 7845,
      "ĠstRA": 7846,
      "Ġplet": 7847,
      "ĠsfÃŃ": 7848,
      "ĠmQtef": 7849,
      "ĠzaCal": 7850,
      "ĠUskost": 7851,
      "pIx": 7852,
      "Ġpolem": 7853,
      "Ġprak": 7854,
      "ĠUro": 7855,
      "fnÃŃ": 7856,
      "ĠcTI": 7857,
      "Ġtol": 7858,
      "NIku": 7859,
      "kam": 7860,
      "ĠzlaTI": 7861,
      "Ġobjet": 7862,
      "Ġloun": 7863,
      "hro": 7864,
      "vaje": 7865,
      "Ġprahi": 7866,
      "Ġstre": 7867,
      "Ġzhla": 7868,
      "ĠpÅ¯t": 7869,
      "ĠsxlI": 7870,
      "Ġosudu": 7871,
      "Ġpun": 7872,
      "ĠsÅ¯v": 7873,
      "Ġpohledem": 7874,
      "Ġlva": 7875,
      "ĠlÃŃn": 7876,
      "Ġvzala": 7877,
      "Ġjednom": 7878,
      "ĠbrANI": 7879,
      "Ġmiluji": 7880,
      "ĠÅ¯": 7881,
      "ĠhrAt": 7882,
      "Ġruj": 7883,
      "ĠdaÅĻ": 7884,
      "tuje": 7885,
      "ĠDIl": 7886,
      "ĠslatkIx": 7887,
      "naTi": 7888,
      "Ġzpl": 7889,
      "ĠjasnA": 7890,
      "Ġmodli": 7891,
      "ĠpolIbeNI": 7892,
      "Ġzmla": 7893,
      "huje": 7894,
      "ĠdÅ¯l": 7895,
      "ĠkRiv": 7896,
      "Ġnaiv": 7897,
      "ĠÅ¡ÅĪ": 7898,
      "Ġchval": 7899,
      "ĠskvI": 7900,
      "ĠdlÃ©m": 7901,
      "ĠfSexen": 7902,
      "ĠhÅ¯ÅĻ": 7903,
      "ĠÃŃch": 7904,
      "ĠpoCal": 7905,
      "ĠvdlaÅĪ": 7906,
      "Ġvjar": 7907,
      "ĠtosÅ¥": 7908,
      "ĠtÃŃÄį": 7909,
      "ĠÄįÃŃt": 7910,
      "Ġodvje": 7911,
      "jIcIx": 7912,
      "Ġvhra": 7913,
      "Ġohrom": 7914,
      "ĠsmisL": 7915,
      "Ġxvilku": 7916,
      "ĠZili": 7917,
      "Ġbraxu": 7918,
      "Ġzmy": 7919,
      "ĠÅ¡els": 7920,
      "ĠsINi": 7921,
      "ĠhQst": 7922,
      "ĠxudI": 7923,
      "ĠDas": 7924,
      "Ġhvizd": 7925,
      "Ġrd": 7926,
      "ĠleZel": 7927,
      "lovE": 7928,
      "Ġvpad": 7929,
      "Ġbloud": 7930,
      "ĠClovjeku": 7931,
      "ĠhoDini": 7932,
      "ĠnuÅ¡": 7933,
      "Ġbrav": 7934,
      "jan": 7935,
      "ĠvAclaf": 7936,
      "ĠspUso": 7937,
      "Ġvzou": 7938,
      "ĠzeT": 7939,
      "ĠzpÅĻe": 7940,
      "ĠtmavI": 7941,
      "ĠvLNI": 7942,
      "ĠzdAl": 7943,
      "Ġznik": 7944,
      "ĠmusIS": 7945,
      "Ġvska": 7946,
      "ĠflÃŃ": 7947,
      "lIS": 7948,
      "Ġvsla": 7949,
      "ĠDItki": 7950,
      "jala": 7951,
      "Ġ23": 7952,
      "ĠzelenE": 7953,
      "Ġnerozu": 7954,
      "ĠoRe": 7955,
      "stali": 7956,
      "ĠkosÅ¥": 7957,
      "Ġroki": 7958,
      "Ġrozlo": 7959,
      "ĠsluSI": 7960,
      "ĠvjernE": 7961,
      "ĠSTastnI": 7962,
      "ĠvlIdNe": 7963,
      "ĠnekoneC": 7964,
      "Ġux": 7965,
      "dAvA": 7966,
      "ol": 7967,
      "Ġmuka": 7968,
      "Ġbespe": 7969,
      "ĠsÄįÃŃ": 7970,
      "ĠkResTan": 7971,
      "ĠplEmNe": 7972,
      "ĠstÅĻem": 7973,
      "Ġtuze": 7974,
      "Ġvstro": 7975,
      "ĠneU": 7976,
      "Ġbost": 7977,
      "Ġput": 7978,
      "ĠsilnI": 7979,
      "Ġvzdexi": 7980,
      "Ġnaklo": 7981,
      "Ġhubi": 7982,
      "ĠrizI": 7983,
      "ĠtEmNe": 7984,
      "ĠÅ¡lel": 7985,
      "ĠmodrI": 7986,
      "ĠtrAva": 7987,
      "ĠchlÃ½m": 7988,
      "Ġkit": 7989,
      "Ġnalez": 7990,
      "Ġzkte": 7991,
      "Ġvchu": 7992,
      "Ġslovan": 7993,
      "ĠtRpiTI": 7994,
      "CenI": 7995,
      "ĠXAABXB": 7996,
      "ĠtrÃ¡v": 7997,
      "ĠhAji": 7998,
      "ĠpocTi": 7999,
      "ĠbE": 8000,
      "Ġpoklat": 8001,
      "Ġdnex": 8002,
      "ĠstrI": 8003,
      "ĠtkvÄĽ": 8004,
      "ĠmNix": 8005,
      "Ġpjeje": 8006,
      "ĠZAru": 8007,
      "ĠsfÅ¯j": 8008,
      "ĠvrÃ¡j": 8009,
      "ĠdÅ¡": 8010,
      "ĠÅ¾nÃŃ": 8011,
      "ĠÅ¾ÃŃn": 8012,
      "Ġhrd": 8013,
      "ĠvlasT": 8014,
      "ĠpRines": 8015,
      "Ġdejte": 8016,
      "ĠtvEmu": 8017,
      "Ġslatko": 8018,
      "ĠÅ¾hnou": 8019,
      "ĠslasTi": 8020,
      "Ġkrfi": 8021,
      "ĠpAs": 8022,
      "Ġbjet": 8023,
      "ĠsmNes": 8024,
      "Ġvisoko": 8025,
      "Ġkudi": 8026,
      "ĠrÃ¡Äį": 8027,
      "ĠvIRI": 8028,
      "ĠvAnek": 8029,
      "ĠpÃ½ch": 8030,
      "Ġazu": 8031,
      "Ġceli": 8032,
      "ĠhÃ¡n": 8033,
      "mANI": 8034,
      "Ġvodo": 8035,
      "skla": 8036,
      "jIZ": 8037,
      "vici": 8038,
      "ĠztvÃ©": 8039,
      "ĠtQpI": 8040,
      "Ġsxu": 8041,
      "ĠdbÃ¡": 8042,
      "ĠozI": 8043,
      "Ġmarno": 8044,
      "ĠmiSle": 8045,
      "ĠkbÅĻe": 8046,
      "Ġzrovna": 8047,
      "fan": 8048,
      "Ġsbu": 8049,
      "ĠÅ¾Å¯m": 8050,
      "ena": 8051,
      "ĠboZIm": 8052,
      "ĠpleÅ¥": 8053,
      "Ġpohi": 8054,
      "Ġbratri": 8055,
      "Ġovo": 8056,
      "ĠpetQ": 8057,
      "Ġkrk": 8058,
      "Ġchop": 8059,
      "vAr": 8060,
      "Ġplesu": 8061,
      "ĠnÃŃt": 8062,
      "Ġvon": 8063,
      "ĠZivotu": 8064,
      "ĠvIh": 8065,
      "Ġhout": 8066,
      "ĠklÃ¡s": 8067,
      "ĠsamoTe": 8068,
      "ĠvzdixA": 8069,
      "Ġnaro": 8070,
      "ĠÅ¡Ã¡t": 8071,
      "Ġskem": 8072,
      "ĠvÃ¡t": 8073,
      "Ġvesel": 8074,
      "Nuje": 8075,
      "pÄĽ": 8076,
      "ĠÅĻvou": 8077,
      "ĠuDe": 8078,
      "Ġbuz": 8079,
      "ĠdruZi": 8080,
      "Ġnesu": 8081,
      "ĠvUbec": 8082,
      "Ġposel": 8083,
      "ĠSerE": 8084,
      "ĠbÅĻÃŃz": 8085,
      "CNIm": 8086,
      "jali": 8087,
      "ĠsNem": 8088,
      "ĠhosTI": 8089,
      "Ġodho": 8090,
      "Ġchov": 8091,
      "ĠdrÅ¯m": 8092,
      "Ġkslu": 8093,
      "Ġouz": 8094,
      "Ġvzali": 8095,
      "ĠslunE": 8096,
      "Ġket": 8097,
      "Ġjasu": 8098,
      "Ġhlasu": 8099,
      "Ġposlu": 8100,
      "ĠsvatIx": 8101,
      "Ġjmeno": 8102,
      "ĠzReli": 8103,
      "ĠSIji": 8104,
      "Ġkhla": 8105,
      "ĠlÃ¡z": 8106,
      "ĠvtÃ½": 8107,
      "ĠpUdu": 8108,
      "Ġstarost": 8109,
      "ĠkrÃ©": 8110,
      "Ġvlaj": 8111,
      "ĠsLzu": 8112,
      "ĠkoRist": 8113,
      "fka": 8114,
      "Ġdomi": 8115,
      "Ġhlado": 8116,
      "dovat": 8117,
      "Ġabis": 8118,
      "ĠspAsi": 8119,
      "ĠjmEna": 8120,
      "rovA": 8121,
      "Ġude": 8122,
      "Ġzasmu": 8123,
      "ĠtÃ½d": 8124,
      "Ġztmy": 8125,
      "ĠzbraNI": 8126,
      "Ġptact": 8127,
      "Ġbed": 8128,
      "ĠrozlE": 8129,
      "ĠzdÃ¡r": 8130,
      "Ġfes": 8131,
      "ĠhQdlo": 8132,
      "ĠdAvnE": 8133,
      "ĠobliCej": 8134,
      "ÅĻo": 8135,
      "Ġvsy": 8136,
      "Ġhlahol": 8137,
      "Ġanep": 8138,
      "ĠshlÃ©d": 8139,
      "ĠklINe": 8140,
      "ĠskÅĻek": 8141,
      "rANI": 8142,
      "NU": 8143,
      "SeNIm": 8144,
      "ĠvtÅ¯": 8145,
      "Ġzvjeda": 8146,
      "Ġneod": 8147,
      "ril": 8148,
      "ĠoÅĻ": 8149,
      "ĠvonI": 8150,
      "ĠnuTI": 8151,
      "Ġstaf": 8152,
      "Ġsluje": 8153,
      "ĠvjeRIm": 8154,
      "Ġhouf": 8155,
      "ĠtlaCI": 8156,
      "ĠCISi": 8157,
      "Ġhluboko": 8158,
      "ĠfÄĽÄį": 8159,
      "Ġpotok": 8160,
      "ĠoltAR": 8161,
      "Ġzhra": 8162,
      "Zena": 8163,
      "lÃ½m": 8164,
      "ĠvelI": 8165,
      "NIci": 8166,
      "ĠcizIx": 8167,
      "ĠzÃ¡r": 8168,
      "ĠzÃ©": 8169,
      "ĠpolIx": 8170,
      "Ġpraze": 8171,
      "ĠpÃ¡Å¾": 8172,
      "ĠkeR": 8173,
      "ĠkrAlU": 8174,
      "buje": 8175,
      "ĠdnÃ½m": 8176,
      "Ġhrub": 8177,
      "Ġpoki": 8178,
      "Ġchm": 8179,
      "Ġhop": 8180,
      "Ġkrom": 8181,
      "Ġvrhl": 8182,
      "Ġspasi": 8183,
      "ĠminulosTi": 8184,
      "ĠholI": 8185,
      "tosTi": 8186,
      "ĠnesL": 8187,
      "CiTi": 8188,
      "Ġosm": 8189,
      "Ġzroz": 8190,
      "ĠktvÃ©": 8191,
      "Ġdba": 8192,
      "ĠzavA": 8193,
      "Ġpozem": 8194,
      "Ġment": 8195,
      "SenA": 8196,
      "ĠzeleN": 8197,
      "Sili": 8198,
      "ĠkdÄĽ": 8199,
      "Ġots": 8200,
      "Ġzbl": 8201,
      "ĠtraTI": 8202,
      "Ġokno": 8203,
      "Ġspravedli": 8204,
      "ĠroskoSI": 8205,
      "ĠstvÃ½": 8206,
      "ĠhfÄĽ": 8207,
      "rot": 8208,
      "Ġfkro": 8209,
      "ĠniÅ¥": 8210,
      "ĠbÄĽÅ¾": 8211,
      "sTili": 8212,
      "Ġbratra": 8213,
      "ĠteskNe": 8214,
      "ĠzRela": 8215,
      "ĠneDe": 8216,
      "Ġbitost": 8217,
      "Ġmatk": 8218,
      "ĠstÄĽj": 8219,
      "Ġarci": 8220,
      "ĠmÃ³": 8221,
      "ĠstI": 8222,
      "Ġzot": 8223,
      "ĠpRItom": 8224,
      "Ġplic": 8225,
      "Ġnaposledi": 8226,
      "ĠpohRe": 8227,
      "ĠTixIm": 8228,
      "ĠblÃ¡Äį": 8229,
      "ĠsLzami": 8230,
      "ĠvzlÃ©t": 8231,
      "Ġjihu": 8232,
      "ĠsplÃŃ": 8233,
      "ĠdneSNI": 8234,
      "NenA": 8235,
      "slat": 8236,
      "Ġleda": 8237,
      "ĠspL": 8238,
      "ĠCervA": 8239,
      "ĠsvatIm": 8240,
      "ĠzlatEm": 8241,
      "Ġsvel": 8242,
      "ĠSper": 8243,
      "Ġpono": 8244,
      "Ġlibo": 8245,
      "Ġmelo": 8246,
      "Ġradi": 8247,
      "Ġdis": 8248,
      "ĠSest": 8249,
      "ĠRAt": 8250,
      "ĠuDi": 8251,
      "Dete": 8252,
      "eri": 8253,
      "ĠbÃ¡v": 8254,
      "Ġplec": 8255,
      "Ġosvje": 8256,
      "ĠkrAsnIx": 8257,
      "ĠzmizI": 8258,
      "Reme": 8259,
      "Ġunaven": 8260,
      "ĠkRo": 8261,
      "jus": 8262,
      "Ġulic": 8263,
      "Ġwa": 8264,
      "ĠjAsot": 8265,
      "bÃ¡n": 8266,
      "Ġstvou": 8267,
      "Ġpokle": 8268,
      "Ġoda": 8269,
      "tul": 8270,
      "Ġstyd": 8271,
      "ĠshvÄĽz": 8272,
      "ĠhvjezdAm": 8273,
      "ĠÄįtu": 8274,
      "ĠplAN": 8275,
      "ĠpÃ½r": 8276,
      "ĠpapI": 8277,
      "Ġkrb": 8278,
      "ĠmNelo": 8279,
      "ĠlIst": 8280,
      "Ġvdol": 8281,
      "Ġspup": 8282,
      "ĠhÅĻÃ¡t": 8283,
      "ĠzlIx": 8284,
      "Ġbozi": 8285,
      "ĠvÃ½h": 8286,
      "kof": 8287,
      "Ġvjel": 8288,
      "ĠhÃ½Äį": 8289,
      "ĠZivoTe": 8290,
      "ĠhQDin": 8291,
      "Zu": 8292,
      "ĠstrojI": 8293,
      "Ġvjetri": 8294,
      "ĠbloÅĪ": 8295,
      "ĠdvUr": 8296,
      "ĠnejvjetSI": 8297,
      "drA": 8298,
      "ĠmÅĻi": 8299,
      "Ġsis": 8300,
      "ĠpRemo": 8301,
      "ĠstÃ¡d": 8302,
      "ĠbylÅ¥": 8303,
      "Ġzdej": 8304,
      "Ġohlas": 8305,
      "ĠkRIdlo": 8306,
      "Ġthy": 8307,
      "Ġharmo": 8308,
      "ĠlIbez": 8309,
      "Ġsnadno": 8310,
      "ĠbIlEm": 8311,
      "Ġdvih": 8312,
      "ĠnexaT": 8313,
      "SnI": 8314,
      "Ġposk": 8315,
      "Ġvodu": 8316,
      "ĠmiSlenek": 8317,
      "bUx": 8318,
      "ĠjeZI": 8319,
      "ĠfCel": 8320,
      "Ġbiste": 8321,
      "Ġvuj": 8322,
      "ĠvraT": 8323,
      "ĠDeva": 8324,
      "ĠCexAx": 8325,
      "ĠnAmNe": 8326,
      "ĠmraCna": 8327,
      "ĠmÅ¯m": 8328,
      "Ġnajedn": 8329,
      "Ġmuch": 8330,
      "Ġpanu": 8331,
      "Ġchar": 8332,
      "ĠpravIm": 8333,
      "ĠkslÃ¡": 8334,
      "Ġneroz": 8335,
      "Zela": 8336,
      "ĠCini": 8337,
      "Ġkluk": 8338,
      "kL": 8339,
      "ĠzÅ¾e": 8340,
      "ĠvÃ¡ÅĻ": 8341,
      "ĠxTi": 8342,
      "ĠpÅĻim": 8343,
      "Ġvojsko": 8344,
      "ĠskloÅĪ": 8345,
      "ĠpRijd": 8346,
      "Ġdm": 8347,
      "Ġdur": 8348,
      "Ġhri": 8349,
      "ĠrovNe": 8350,
      "Ġvzdej": 8351,
      "Ġmilovat": 8352,
      "ĠslavIk": 8353,
      "Ġkolena": 8354,
      "Ġseve": 8355,
      "losTi": 8356,
      "Ġnym": 8357,
      "ĠplaTI": 8358,
      "ĠUdi": 8359,
      "Ġvolnost": 8360,
      "ĠDivje": 8361,
      "Ġther": 8362,
      "Can": 8363,
      "ĠzApal": 8364,
      "Ġspjevem": 8365,
      "ĠmeloDi": 8366,
      "Rad": 8367,
      "ĠlsTi": 8368,
      "Ġuto": 8369,
      "Zet": 8370,
      "ĠNeS": 8371,
      "ĠvjetvI": 8372,
      "ĠcÃ¡r": 8373,
      "ĠzÅ¾i": 8374,
      "ĠnecI": 8375,
      "SeNe": 8376,
      "ĠSlo": 8377,
      "ĠblaÄį": 8378,
      "ĠstaÅ¥": 8379,
      "Ġspjeje": 8380,
      "ZenA": 8381,
      "ĠjvÃ½": 8382,
      "Ġdbal": 8383,
      "ĠlZi": 8384,
      "ĠbÅ¯m": 8385,
      "NIka": 8386,
      "Ġvas": 8387,
      "pala": 8388,
      "ĠnaDeji": 8389,
      "bali": 8390,
      "Ġdari": 8391,
      "vIvA": 8392,
      "ĠzASTI": 8393,
      "ĠkrutI": 8394,
      "ĠkterEm": 8395,
      "Ġsjed": 8396,
      "Ġtrhl": 8397,
      "ĠvkrÃ¡s": 8398,
      "ĠhlAsA": 8399,
      "falo": 8400,
      "ĠsÅ¡": 8401,
      "lant": 8402,
      "ĠokE": 8403,
      "Ġdexu": 8404,
      "natE": 8405,
      "dan": 8406,
      "ĠÅ¥Ã¡t": 8407,
      "Ġxod": 8408,
      "ĠkÅĻÃ¡": 8409,
      "SIS": 8410,
      "ĠzAzra": 8411,
      "sex": 8412,
      "ĠlAkA": 8413,
      "stoj": 8414,
      "Ġvojsk": 8415,
      "Ġbjex": 8416,
      "ĠxoDil": 8417,
      "ĠnAroda": 8418,
      "Ġlvo": 8419,
      "ABC": 8420,
      "Ġvklid": 8421,
      "ĠpRAl": 8422,
      "ĠskrANi": 8423,
      "Ġvzkaz": 8424,
      "ĠABCABC": 8425,
      "ĠjimiS": 8426,
      "ĠuCI": 8427,
      "Ġzkru": 8428,
      "Ġrakef": 8429,
      "Ġsef": 8430,
      "ĠÅ¡ar": 8431,
      "Ġvouk": 8432,
      "ĠstrANi": 8433,
      "ĠkmÃŃ": 8434,
      "ĠspRA": 8435,
      "ĠkrÃ¡m": 8436,
      "ĠpRiSlo": 8437,
      "ĠbrÅ¯": 8438,
      "ĠpRIzrak": 8439,
      "ĠSera": 8440,
      "ĠusmNe": 8441,
      "ĠschÅ¯": 8442,
      "ĠslatkIm": 8443,
      "Ġcuj": 8444,
      "Ġsestri": 8445,
      "ĠzAme": 8446,
      "ĠÅ¡ÃŃc": 8447,
      "ĠzvÃ¡t": 8448,
      "Ġotco": 8449,
      "ĠstrÃ½c": 8450,
      "ĠpUjde": 8451,
      "ĠDejin": 8452,
      "dnu": 8453,
      "Ġledo": 8454,
      "XXB": 8455,
      "ĠÅĻeh": 8456,
      "toval": 8457,
      "DiTi": 8458,
      "Ġzvolal": 8459,
      "ĠDej": 8460,
      "ĠbIlIm": 8461,
      "Ġpohro": 8462,
      "Ġpluje": 8463,
      "ĠhÅĻmot": 8464,
      "Ġvrod": 8465,
      "ĠkpÃ¡": 8466,
      "DIme": 8467,
      "jema": 8468,
      "ĠvskrÃ¡": 8469,
      "ĠvÅĻÃŃn": 8470,
      "fSi": 8471,
      "ĠÅ¾ra": 8472,
      "Ġplakal": 8473,
      "Zeli": 8474,
      "Ġzre": 8475,
      "ĠhnÃŃ": 8476,
      "ĠlÃ¡v": 8477,
      "ĠSo": 8478,
      "ĠUc": 8479,
      "Ġlitsk": 8480,
      "hej": 8481,
      "Ġrosto": 8482,
      "ĠxQ": 8483,
      "meN": 8484,
      "ĠpÃ¡t": 8485,
      "ĠsleC": 8486,
      "ĠpjeSi": 8487,
      "ĠzRITi": 8488,
      "ĠchrÅ¯": 8489,
      "ĠposI": 8490,
      "ĠNiko": 8491,
      "Ġhudb": 8492,
      "ĠSIp": 8493,
      "SstvI": 8494,
      "ĠcvÃ¡": 8495,
      "ĠkoNi": 8496,
      "XXX": 8497,
      "Ġroc": 8498,
      "Ġruxu": 8499,
      "Ġrac": 8500,
      "Ġstraxem": 8501,
      "Ġmohlo": 8502,
      "Ġpova": 8503,
      "ĠmoRI": 8504,
      "Ġvyl": 8505,
      "Ġotcem": 8506,
      "Ġzok": 8507,
      "Ġkip": 8508,
      "ĠprostI": 8509,
      "Ġjiskra": 8510,
      "zne": 8511,
      "livA": 8512,
      "ĠshrÅ¯": 8513,
      "Ġmant": 8514,
      "ĠspatRil": 8515,
      "ĠÅ¡tvÃ¡n": 8516,
      "ĠpÅĻip": 8517,
      "Ġotk": 8518,
      "ĠziÄį": 8519,
      "ĠstrÃ©m": 8520,
      "ĠDIla": 8521,
      "ĠvÅ¡ÃŃÅĻ": 8522,
      "ĠhlubokE": 8523,
      "ĠtRikrAt": 8524,
      "ĠzvITe": 8525,
      "ĠAXABXB": 8526,
      "Ġblys": 8527,
      "ĠNekolik": 8528,
      "Ġonu": 8529,
      "ĠtÃŃn": 8530,
      "ĠsahA": 8531,
      "ĠlouÄį": 8532,
      "ĠzAhu": 8533,
      "ĠNehi": 8534,
      "pek": 8535,
      "ĠhNIzda": 8536,
      "ĠnepRItel": 8537,
      "Zuje": 8538,
      "Ġvipu": 8539,
      "vete": 8540,
      "Ġblahem": 8541,
      "Cinu": 8542,
      "ĠvjetrU": 8543,
      "ĠhNevem": 8544,
      "ĠhoDin": 8545,
      "ĠbÃ¡ÅĪ": 8546,
      "Ġzub": 8547,
      "STIx": 8548,
      "Ġlitstvu": 8549,
      "ĠZlutE": 8550,
      "vlA": 8551,
      "ĠpÃ³": 8552,
      "ĠÅĻÅ¯m": 8553,
      "ĠCte": 8554,
      "vobo": 8555,
      "kop": 8556,
      "ĠSvar": 8557,
      "ĠpuCI": 8558,
      "ĠzAba": 8559,
      "ĠvLta": 8560,
      "ĠbluDi": 8561,
      "ĠaNiS": 8562,
      "jemi": 8563,
      "ĠboSskE": 8564,
      "ĠABACCB": 8565,
      "ĠblahE": 8566,
      "ĠvblÃ¡": 8567,
      "mAn": 8568,
      "Ġhasne": 8569,
      "ĠnenadA": 8570,
      "ĠostatNI": 8571,
      "Cilo": 8572,
      "ĠpÃ½m": 8573,
      "Ġjarem": 8574,
      "des": 8575,
      "dum": 8576,
      "stala": 8577,
      "ĠmlAt": 8578,
      "ĠCaroDej": 8579,
      "rku": 8580,
      "ĠstlÃ½": 8581,
      "Ġfsti": 8582,
      "ĠviSla": 8583,
      "ĠÅĻez": 8584,
      "ĠmyÅ¡": 8585,
      "ĠkvÄĽl": 8586,
      "Ġpin": 8587,
      "ĠjunA": 8588,
      "Ġtanci": 8589,
      "ĠnnÃŃch": 8590,
      "ĠrostQ": 8591,
      "ĠkNihu": 8592,
      "ĠpjeknE": 8593,
      "ĠfskRI": 8594,
      "ĠvbÃ¡z": 8595,
      "bn": 8596,
      "rÃ½": 8597,
      "Ġjaksi": 8598,
      "ĠmaD": 8599,
      "rATil": 8600,
      "Ġsvjetlu": 8601,
      "ĠdvojI": 8602,
      "ĠhospodA": 8603,
      "ĠchoÄı": 8604,
      "Ġtlesk": 8605,
      "ĠkaZdEho": 8606,
      "zar": 8607,
      "Ġjeh": 8608,
      "Ġprov": 8609,
      "Ġpoda": 8610,
      "Ġhraj": 8611,
      "ĠdveÅĻ": 8612,
      "Ġleti": 8613,
      "Ġulo": 8614,
      "Ġkdru": 8615,
      "ĠdeSTe": 8616,
      "TickE": 8617,
      "ĠÅĻÃŃÅ¾": 8618,
      "ĠkrokU": 8619,
      "ĠsledNI": 8620,
      "ĠtrÃ¡fÄĽ": 8621,
      "ĠmodrIx": 8622,
      "cemi": 8623,
      "cenA": 8624,
      "ĠlEto": 8625,
      "ĠtnÄĽ": 8626,
      "Ġhve": 8627,
      "Ġsklad": 8628,
      "Ġxal": 8629,
      "ĠZalem": 8630,
      "ĠnebesUm": 8631,
      "Ġvchod": 8632,
      "ĠÅĻva": 8633,
      "Ġtah": 8634,
      "ĠpIlI": 8635,
      "ĠhRbe": 8636,
      "ĠDivnA": 8637,
      "kte": 8638,
      "ĠÅ¡ej": 8639,
      "Ġpud": 8640,
      "Ġondi": 8641,
      "daTi": 8642,
      "moc": 8643,
      "ĠCeskIx": 8644,
      "ĠkQbu": 8645,
      "ĠpatÅĻ": 8646,
      "Ġhlubini": 8647,
      "vanA": 8648,
      "ĠzÃ¡n": 8649,
      "Ġmyr": 8650,
      "Rin": 8651,
      "Ġplodi": 8652,
      "ĠdQTI": 8653,
      "ĠpRAtelE": 8654,
      "dRI": 8655,
      "Ġporu": 8656,
      "tec": 8657,
      "ĠkrAtce": 8658,
      "Ġnepla": 8659,
      "Ġgdosi": 8660,
      "ĠkRex": 8661,
      "Ġfskutku": 8662,
      "Ġhil": 8663,
      "ĠoNem": 8664,
      "ĠleTel": 8665,
      "Ġkof": 8666,
      "ĠzimNe": 8667,
      "misL": 8668,
      "xAzel": 8669,
      "ĠvzpÄĽ": 8670,
      "Ġhudbi": 8671,
      "ĠvITes": 8672,
      "ĠroNI": 8673,
      "ĠcÃŃÅ¡": 8674,
      "ĠpraÅ¾": 8675,
      "ĠlesIx": 8676,
      "Ġnepoz": 8677,
      "ĠveCerNI": 8678,
      "ĠhnÃ¡n": 8679,
      "ĠzdrAva": 8680,
      "CnEm": 8681,
      "Äįer": 8682,
      "ĠmÃ¡Äį": 8683,
      "ĠÅ¾ÃŃc": 8684,
      "ĠvhnÃŃz": 8685,
      "ĠsmNesi": 8686,
      "cImi": 8687,
      "Ġpokro": 8688,
      "um": 8689,
      "ĠluÄį": 8690,
      "Ġvsvo": 8691,
      "ĠdAn": 8692,
      "ĠÅĪÃ¡t": 8693,
      "ĠklÃ½m": 8694,
      "ĠslAv": 8695,
      "ĠTeSkIx": 8696,
      "ĠzaplA": 8697,
      "Ġsdi": 8698,
      "Ġdbej": 8699,
      "Ġlod": 8700,
      "ĠfspomInki": 8701,
      "Ġoxra": 8702,
      "Ġvbuj": 8703,
      "ĠÅĻval": 8704,
      "ĠpÅĻev": 8705,
      "Ġpraco": 8706,
      "ĠpeNe": 8707,
      "asi": 8708,
      "sej": 8709,
      "Ġdostal": 8710,
      "ĠplANi": 8711,
      "Ġznaven": 8712,
      "ĠsLze": 8713,
      "ĠdÅĻich": 8714,
      "StNI": 8715,
      "lenIx": 8716,
      "ĠodRI": 8717,
      "Ġzol": 8718,
      "Ġfar": 8719,
      "ĠkRIZem": 8720,
      "ĠSIRI": 8721,
      "ĠsliSte": 8722,
      "ĠpapeS": 8723,
      "ĠbÃŃÅ¡": 8724,
      "ĠhQdI": 8725,
      "ĠvÃºz": 8726,
      "Ġlampi": 8727,
      "CkE": 8728,
      "by": 8729,
      "ĠÅĻÃŃÄį": 8730,
      "ĠhbiTe": 8731,
      "ĠpapQski": 8732,
      "ĠvstÃŃn": 8733,
      "ĠvjÃ¡": 8734,
      "ĠtmI": 8735,
      "Ġspjal": 8736,
      "ĠprÅ¡": 8737,
      "ĠzaspI": 8738,
      "ĠdlaNi": 8739,
      "Ġdrc": 8740,
      "ĠtÅ¯ÅĪ": 8741,
      "Ġvkap": 8742,
      "sU": 8743,
      "Ġreti": 8744,
      "ĠvrÅ¡": 8745,
      "Ġsmutn": 8746,
      "ĠspISe": 8747,
      "Ġsklep": 8748,
      "Ġmdlob": 8749,
      "!!": 8750,
      "nÅ¯": 8751,
      "pIm": 8752,
      "lIt": 8753,
      "Ġstesku": 8754,
      "Ġnejsi": 8755,
      "Ġsrn": 8756,
      "Ġlamp": 8757,
      "ĠtvQdE": 8758,
      "ĠhovoRI": 8759,
      "Ġana": 8760,
      "ĠvoDe": 8761,
      "ĠmÃ¡ÅĻ": 8762,
      "Ġvtan": 8763,
      "Ġzimi": 8764,
      "Ġhalu": 8765,
      "ĠÅ¾ur": 8766,
      "ĠSati": 8767,
      "ĠzNelo": 8768,
      "ĠTiskne": 8769,
      "ĠflÃ©t": 8770,
      "sklo": 8771,
      "ĠZele": 8772,
      "ĠdeÅ¡Å¥": 8773,
      "ĠtAhli": 8774,
      "lko": 8775,
      "zlI": 8776,
      "Ġkvou": 8777,
      "lif": 8778,
      "ĠÄįesÅ¥": 8779,
      "Nika": 8780,
      "vex": 8781,
      "ĠCexi": 8782,
      "ĠkalI": 8783,
      "ĠdAlnE": 8784,
      "Ġbalva": 8785,
      "ĠkRIdli": 8786,
      "Ġsmis": 8787,
      "ĠhRIxi": 8788,
      "ĠpiSNe": 8789,
      "ĠZalost": 8790,
      "ĠvEvo": 8791,
      "Ġzfu": 8792,
      "Ġdor": 8793,
      "ĠfÃ©": 8794,
      "Ġkuj": 8795,
      "Ġrozle": 8796,
      "ĠzlaTe": 8797,
      "ĠzbIvA": 8798,
      "Ġkroz": 8799,
      "ĠkipI": 8800,
      "ĠvkrÄį": 8801,
      "Zemi": 8802,
      "ĠxraN": 8803,
      "lali": 8804,
      "Ġrospo": 8805,
      "ĠÅ¾ed": 8806,
      "NIki": 8807,
      "ĠDesI": 8808,
      "Ġjasn": 8809,
      "xovE": 8810,
      "ĠvQhA": 8811,
      "Ġgdibis": 8812,
      "ĠzvjeR": 8813,
      "Ġsbe": 8814,
      "ĠjaÅĻ": 8815,
      "Ġbuch": 8816,
      "met": 8817,
      "Ġblahu": 8818,
      "ĠvstrÃ¡": 8819,
      "Ġtrysk": 8820,
      "ĠmsTi": 8821,
      "ĠcE": 8822,
      "Ġhyz": 8823,
      "ĠpITi": 8824,
      "Ġvleb": 8825,
      "ĠhroznA": 8826,
      "Ġhrobem": 8827,
      "ĠsxAzI": 8828,
      "ĠnabI": 8829,
      "ĠdumA": 8830,
      "nos": 8831,
      "ĠnARek": 8832,
      "ĠpRixAzI": 8833,
      "ĠpospIx": 8834,
      "ĠvÄįes": 8835,
      "ĠvÃºs": 8836,
      "ĠhrAli": 8837,
      "Ġgyp": 8838,
      "hNi": 8839,
      "ĠjÃŃn": 8840,
      "Ġvpi": 8841,
      "ĠmNestem": 8842,
      "ĠTel": 8843,
      "Ġrik": 8844,
      "Ġvzpja": 8845,
      "ĠvjetRIk": 8846,
      "Å¡ech": 8847,
      "vIS": 8848,
      "Ġstep": 8849,
      "ĠfSeli": 8850,
      "ĠpRik": 8851,
      "ĠplÃ¡n": 8852,
      "bala": 8853,
      "ĠnebeskE": 8854,
      "ĠSirE": 8855,
      "ĠmÅĻÃŃÅ¾": 8856,
      "ĠplÃŃs": 8857,
      "ĠzkrÃ¡t": 8858,
      "Ġklem": 8859,
      "ĠcizIm": 8860,
      "mus": 8861,
      "ĠmLx": 8862,
      "Ġstuden": 8863,
      "ĠNehoS": 8864,
      "ĠÅ¡kleb": 8865,
      "nkE": 8866,
      "ĠpoZA": 8867,
      "ĠproÅĪ": 8868,
      "ĠtuSIm": 8869,
      "Ġrav": 8870,
      "Ġzis": 8871,
      "ĠozA": 8872,
      "Ġulici": 8873,
      "Ġobloze": 8874,
      "Ġkmat": 8875,
      "STeNI": 8876,
      "Ġlilije": 8877,
      "nci": 8878,
      "ĠrDI": 8879,
      "Ġmir": 8880,
      "Ġduh": 8881,
      "celi": 8882,
      "ĠstraSli": 8883,
      "ĠfSed": 8884,
      "ĠchÃ¡n": 8885,
      "ĠzoRe": 8886,
      "Ġtmav": 8887,
      "nUf": 8888,
      "ĠneustA": 8889,
      "Ġkomna": 8890,
      "tcem": 8891,
      "Ġpopra": 8892,
      "ĠlaÅ¥": 8893,
      "Ġkum": 8894,
      "ĠstaRI": 8895,
      "ImNe": 8896,
      "ĠvIs": 8897,
      "sTit": 8898,
      "Ġvhe": 8899,
      "ZiTi": 8900,
      "Ġokni": 8901,
      "ĠkQvA": 8902,
      "ĠÅ¡lÃ¡p": 8903,
      "dl": 8904,
      "Ġptej": 8905,
      "ĠmudQ": 8906,
      "ĠtakI": 8907,
      "ĠstrÃ¡n": 8908,
      "ĠneznAmI": 8909,
      "Ġdove": 8910,
      "ĠmLCeNI": 8911,
      "ĠtmÄĽl": 8912,
      "Ġhnout": 8913,
      "ĠpoRAt": 8914,
      "rob": 8915,
      "ĠkaS": 8916,
      "Ġtum": 8917,
      "ĠvzNI": 8918,
      "Ġpozo": 8919,
      "ĠztÃ¡": 8920,
      "ĠzkaÅ¾": 8921,
      "Ġramena": 8922,
      "Na": 8923,
      "Ġlap": 8924,
      "ĠtyÄį": 8925,
      "ĠslÃ¡v": 8926,
      "ĠpQxa": 8927,
      "ĠstrANI": 8928,
      "ĠostrI": 8929,
      "Ġnebila": 8930,
      "ĠutQpeNI": 8931,
      "Ġzato": 8932,
      "nus": 8933,
      "Ġbezna": 8934,
      "ĠvInem": 8935,
      "Ġdrozd": 8936,
      "ĠvUs": 8937,
      "ĠdvÄĽd": 8938,
      "Ġchout": 8939,
      "ĠzNeli": 8940,
      "ĠvchrÃ¡m": 8941,
      "ĠskQs": 8942,
      "lami": 8943,
      "Ġfle": 8944,
      "Ġrato": 8945,
      "ĠrAko": 8946,
      "Ġvbr": 8947,
      "ĠkQvavE": 8948,
      "ĠprUvot": 8949,
      "rki": 8950,
      "ĠoC": 8951,
      "Ġobi": 8952,
      "ĠslabI": 8953,
      "ĠdÅĻev": 8954,
      "ĠkAzal": 8955,
      "Ġdoktor": 8956,
      "Ġprince": 8957,
      "jeli": 8958,
      "Ġnejlep": 8959,
      "staf": 8960,
      "ĠUko": 8961,
      "ĠbIdnI": 8962,
      "ĠztmÄĽ": 8963,
      "ĠlItA": 8964,
      "ĠplAla": 8965,
      "ĠfSecku": 8966,
      "ĠxrANI": 8967,
      "Ġhmyz": 8968,
      "ca": 8969,
      "zU": 8970,
      "Ġvib": 8971,
      "ĠopA": 8972,
      "ĠhrobU": 8973,
      "Ġdvak": 8974,
      "Ġzahradi": 8975,
      "Ġpst": 8976,
      "Ġlob": 8977,
      "ĠSepce": 8978,
      "ĠsQde": 8979,
      "Emu": 8980,
      "Ruje": 8981,
      "bilo": 8982,
      "Ġkma": 8983,
      "Ġskat": 8984,
      "ĠslÃ½ch": 8985,
      "ĠpÅĻÃ¡t": 8986,
      "ĠsITe": 8987,
      "ĠxceSli": 8988,
      "ĠSTastNe": 8989,
      "Ġtceri": 8990,
      "ĠnevIS": 8991,
      "ĠubohE": 8992,
      "ĠpÅ¡e": 8993,
      "Ġfpad": 8994,
      "ĠotrA": 8995,
      "Ġpadli": 8996,
      "ĠxvIlI": 8997,
      "Ġkbla": 8998,
      "kn": 8999,
      "ĠÅ¾at": 9000,
      "Ġrof": 9001,
      "ĠsklI": 9002,
      "ĠkÃ¡r": 9003,
      "vic": 9004,
      "Ġmrs": 9005,
      "ĠvhrÅ¯": 9006,
      "ĠptÃ¡Å¡": 9007,
      "ĠstAr": 9008,
      "Ġblesku": 9009,
      "ĠpRetc": 9010,
      "ĠchlÃ½ch": 9011,
      "Ġopi": 9012,
      "ĠdoÅ¡": 9013,
      "Ġfte": 9014,
      "ĠkaÄį": 9015,
      "Ġsini": 9016,
      "Ġmel": 9017,
      "vinu": 9018,
      "Ġdruhu": 9019,
      "taje": 9020,
      "ĠskoÄį": 9021,
      "Ġzoun": 9022,
      "Ġvnic": 9023,
      "ĠzNela": 9024,
      "ĠpUlnoc": 9025,
      "xAm": 9026,
      "Ġnva": 9027,
      "Ġcid": 9028,
      "Ġbuk": 9029,
      "ĠslepI": 9030,
      "CeS": 9031,
      "ĠzAvje": 9032,
      "Ġfant": 9033,
      "ĠchÅ¯v": 9034,
      "ĠSIje": 9035,
      "ĠsnovE": 9036,
      "zn": 9037,
      "ĠhUl": 9038,
      "Ġfry": 9039,
      "ĠjakÅ¾": 9040,
      "Ġvixo": 9041,
      "Ġrozmil": 9042,
      "Ġpusto": 9043,
      "Ġzmdle": 9044,
      "ĠplÅĪ": 9045,
      "Ġvtru": 9046,
      "Ġspjel": 9047,
      "Ġmodro": 9048,
      "Ġhloh": 9049,
      "ĠsviÅ¥": 9050,
      "ĠtfÃ½ch": 9051,
      "ĠzimNI": 9052,
      "ĠRad": 9053,
      "Ġvipla": 9054,
      "Ġpokoje": 9055,
      "ĠbRehi": 9056,
      "jÃ¡": 9057,
      "sÃŃ": 9058,
      "ĠteCe": 9059,
      "ĠXAXAXA": 9060,
      "ĠkvÄĽÄį": 9061,
      "ĠzboZ": 9062,
      "ĠkriTi": 9063,
      "ĠmlAde": 9064,
      "ĠzlÃ©m": 9065,
      "Ġpojedn": 9066,
      "ĠchfÄĽ": 9067,
      "ĠkolI": 9068,
      "Ġjisto": 9069,
      "lIvA": 9070,
      "ĠpÃŃÄı": 9071,
      "ĠÅ¡tÄĽp": 9072,
      "ĠjejIS": 9073,
      "ĠsÄįer": 9074,
      "Å¾dy": 9075,
      "ĠzvÅ¡e": 9076,
      "ĠÅĻiv": 9077,
      "ĠptÃ½": 9078,
      "ĠvolnI": 9079,
      "ĠtajnE": 9080,
      "ĠSIlen": 9081,
      "ĠsTixa": 9082,
      "ĠoCka": 9083,
      "ĠfrA": 9084,
      "Ġsai": 9085,
      "ret": 9086,
      "ĠpsÅ¯": 9087,
      "ĠsNehem": 9088,
      "Ġzabl": 9089,
      "mlu": 9090,
      "xne": 9091,
      "ĠkÅĪa": 9092,
      "ĠuSi": 9093,
      "Ġmix": 9094,
      "ĠpustI": 9095,
      "Ġhromu": 9096,
      "Ġsfit": 9097,
      "Ġpomsti": 9098,
      "Ġsedmi": 9099,
      "Ġvojska": 9100,
      "ĠkRiST": 9101,
      "Ġejhle": 9102,
      "ĠmiSlenka": 9103,
      "ĠoltARi": 9104,
      "vAme": 9105,
      "ĠholE": 9106,
      "Ġfilo": 9107,
      "Ġmun": 9108,
      "ĠSpa": 9109,
      "Ġzahrat": 9110,
      "ĠZlut": 9111,
      "ĠtkA": 9112,
      "Ġnehi": 9113,
      "ĠtÃŃl": 9114,
      "Ġsatan": 9115,
      "ĠslasÅ¥": 9116,
      "ĠzAho": 9117,
      "Ġsvate": 9118,
      "vEtA": 9119,
      "ĠCekAm": 9120,
      "ĠtfA": 9121,
      "ĠpodzimNI": 9122,
      "Ġilu": 9123,
      "ĠkL": 9124,
      "Ġzoh": 9125,
      "ĠdlÃŃÅ¡": 9126,
      "ĠvprÅ¯": 9127,
      "ĠkvItek": 9128,
      "Ġsmol": 9129,
      "ĠDAb": 9130,
      "ĠblyÅ¡": 9131,
      "ĠÅĻat": 9132,
      "ĠvonE": 9133,
      "ĠsaÅĪ": 9134,
      "ĠpRej": 9135,
      "ĠgdeS": 9136,
      "Ġbron": 9137,
      "ĠpLnIm": 9138,
      "Ġsamot": 9139,
      "ĠprAzdnE": 9140,
      "Ġkbra": 9141,
      "Ġprostor": 9142,
      "ĠumNel": 9143,
      "ĠstraNe": 9144,
      "Ceji": 9145,
      "ĠmraCen": 9146,
      "ĠsvjetlI": 9147,
      "Ġsmisli": 9148,
      "Ã¶": 9149,
      "ĠpÅ¯m": 9150,
      "Ġdak": 9151,
      "rap": 9152,
      "Ġzanex": 9153,
      "ĠteÅ¡": 9154,
      "Ġfil": 9155,
      "Ġkut": 9156,
      "Ġzvra": 9157,
      "ĠsÃŃt": 9158,
      "ĠlÃ©Äį": 9159,
      "ĠpADI": 9160,
      "Ġhmot": 9161,
      "ĠRadu": 9162,
      "drosTi": 9163,
      "ĠkameNI": 9164,
      "skU": 9165,
      "ĠpohAtki": 9166,
      "Ġukrit": 9167,
      "ĠperuTI": 9168,
      "ĠpestrE": 9169,
      "ĠotpovjeT": 9170,
      "Ġzaxi": 9171,
      "Ġvij": 9172,
      "Ġgil": 9173,
      "kaTi": 9174,
      "ĠUna": 9175,
      "ĠsnÅ¯v": 9176,
      "ĠdluÅ¾": 9177,
      "ĠkmitA": 9178,
      "ĠpÅĻem": 9179,
      "Rat": 9180,
      "RITi": 9181,
      "Ġblet": 9182,
      "Ġschla": 9183,
      "ĠplAli": 9184,
      "Ġhvjezdami": 9185,
      "ĠhoRi": 9186,
      "Ġslip": 9187,
      "Ġhluch": 9188,
      "xla": 9189,
      "Ġjese": 9190,
      "ĠsvQ": 9191,
      "Ġdojem": 9192,
      "eno": 9193,
      "ĠhlaDI": 9194,
      "TejSI": 9195,
      "ĠptAka": 9196,
      "ĠnevIslo": 9197,
      "Ġkse": 9198,
      "Ġlhal": 9199,
      "ĠnÃŃn": 9200,
      "cek": 9201,
      "sTila": 9202,
      "ĠlistU": 9203,
      "ĠzahrAt": 9204,
      "ĠpoliTi": 9205,
      "Ġpostavi": 9206,
      "Ġmuzi": 9207,
      "Ġmrazi": 9208,
      "ĠpUdi": 9209,
      "ĠhRIxU": 9210,
      "ĠzAmku": 9211,
      "ĠnaSli": 9212,
      "ĠSvi": 9213,
      "ĠbÃ½Å¥": 9214,
      "vujI": 9215,
      "ĠsxU": 9216,
      "ĠmdlE": 9217,
      "ĠABACBC": 9218,
      "ĠAAXBXB": 9219,
      "ĠsdÄĽt": 9220,
      "ĠpIxa": 9221,
      "Ġvste": 9222,
      "Ġzplo": 9223,
      "Ġpohla": 9224,
      "ĠhledAm": 9225,
      "Ġpokra": 9226,
      "ĠkNeZI": 9227,
      "ĠssÃ¡l": 9228,
      "ĠvznÃ©st": 9229,
      "ĠoblA": 9230,
      "ĠsmÄĽj": 9231,
      "lemi": 9232,
      "stANI": 9233,
      "ĠjitR": 9234,
      "ĠfÅ¡ak": 9235,
      "Ġxceme": 9236,
      "Ġzaha": 9237,
      "ĠtemnIx": 9238,
      "ĠbraÅĪ": 9239,
      "Ġzmno": 9240,
      "ĠzAvra": 9241,
      "ĠZivA": 9242,
      "ĠvzdÃ¡t": 9243,
      "Ġvkom": 9244,
      "ĠnapRet": 9245,
      "ĠpQsten": 9246,
      "vnIx": 9247,
      "Ġpocit": 9248,
      "ĠpeÅ¡": 9249,
      "Ġjedem": 9250,
      "Ġspoj": 9251,
      "mIvA": 9252,
      "Ġnexte": 9253,
      "Ġpluj": 9254,
      "ĠspATi": 9255,
      "Ġtrijum": 9256,
      "ĠzahraDe": 9257,
      "Ġpodob": 9258,
      "UNe": 9259,
      "sg": 9260,
      "ĠpoDe": 9261,
      "ĠSele": 9262,
      "ĠstAlo": 9263,
      "ĠstarEm": 9264,
      "ĠstrANe": 9265,
      "ĠkÅ¾": 9266,
      "Ġpoku": 9267,
      "ravI": 9268,
      "Ġleto": 9269,
      "Ġhoru": 9270,
      "Ġminu": 9271,
      "TiTi": 9272,
      "Ġsmat": 9273,
      "ĠtAx": 9274,
      "Ġkorun": 9275,
      "ĠSlehA": 9276,
      "Ġevro": 9277,
      "Ġratole": 9278,
      "ĠpoRA": 9279,
      "ĠjinEho": 9280,
      "Ġlar": 9281,
      "Ġvzhle": 9282,
      "rAZI": 9283,
      "voj": 9284,
      "ĠvsÃ¡": 9285,
      "ĠUk": 9286,
      "Ġvble": 9287,
      "Ġpanen": 9288,
      "ĠhÅĻmÄĽl": 9289,
      "ĠSlexet": 9290,
      "ĠvRel": 9291,
      "ĠÄįlu": 9292,
      "Ġnohu": 9293,
      "Ġroska": 9294,
      "nEst": 9295,
      "ĠSed": 9296,
      "ĠpilNe": 9297,
      "Ġznoj": 9298,
      "NenIx": 9299,
      "ĠdEle": 9300,
      "Ġdeset": 9301,
      "lAdA": 9302,
      "ĠvjeRit": 9303,
      "Ġzpit": 9304,
      "ĠpÄĽsÅ¥": 9305,
      "ĠvICit": 9306,
      "ĠstÄĽÅ¾": 9307,
      "ĠSedA": 9308,
      "Ġfijal": 9309,
      "Ġzpoz": 9310,
      "ĠkplÃ¡": 9311,
      "ĠbERe": 9312,
      "Ġrh": 9313,
      "Ġir": 9314,
      "Ġdix": 9315,
      "Ġbram": 9316,
      "Ġvdra": 9317,
      "ĠZivobiTI": 9318,
      "ĠztÄĽÅ¾": 9319,
      "ĠxvAtA": 9320,
      "Ġthi": 9321,
      "Ġvece": 9322,
      "Ġsas": 9323,
      "Ġnesx": 9324,
      "Ġzlom": 9325,
      "ĠvblÃŃz": 9326,
      "ĠsTIhA": 9327,
      "ĠskaÅ¾": 9328,
      "ĠretU": 9329,
      "ĠvedL": 9330,
      "Ġxex": 9331,
      "stQ": 9332,
      "ĠproklI": 9333,
      "ĠburA": 9334,
      "ĠÅ¡ÃŃÅĻ": 9335,
      "ĠÅ¾ÃŃr": 9336,
      "ĠABABXB": 9337,
      "ĠpraÅ¡": 9338,
      "ĠslÃ©t": 9339,
      "Ġzvik": 9340,
      "Ġzaxvjel": 9341,
      "Ġvdiv": 9342,
      "Ġopoj": 9343,
      "ot": 9344,
      "Ġpn": 9345,
      "ĠmNI": 9346,
      "Ġslan": 9347,
      "CekA": 9348,
      "mInA": 9349,
      "ĠmLze": 9350,
      "ĠdceÅĻ": 9351,
      "ĠznAmE": 9352,
      "ĠhlubokI": 9353,
      "Ġvkus": 9354,
      "Ġvbar": 9355,
      "Ġminulost": 9356,
      "ĠzaSep": 9357,
      "lije": 9358,
      "ĠtÃ¡Å¾": 9359,
      "vosTI": 9360,
      "ĠrÃ©Å¾": 9361,
      "ĠmocnE": 9362,
      "ĠvhvÄĽz": 9363,
      "ĠzdÃ¡v": 9364,
      "ĠskACe": 9365,
      "ĠsQdE": 9366,
      "ĠpapQs": 9367,
      "ĠvbouÅĻ": 9368,
      "fku": 9369,
      "Ġcele": 9370,
      "ĠuTe": 9371,
      "ĠkrutE": 9372,
      "ĠpLni": 9373,
      "ĠxTelo": 9374,
      "Ġoblaki": 9375,
      "Ġpoledne": 9376,
      "dlex": 9377,
      "Ġhfje": 9378,
      "Ġzara": 9379,
      "ĠsaDe": 9380,
      "ĠstudA": 9381,
      "ĠUkol": 9382,
      "ĠpAni": 9383,
      "ĠksvÃ½m": 9384,
      "Ġoso": 9385,
      "Ġvedla": 9386,
      "vNIk": 9387,
      "Ġsved": 9388,
      "ĠpRelut": 9389,
      "Ġdci": 9390,
      "Ġskv": 9391,
      "skÃ©": 9392,
      "vjeTi": 9393,
      "lIcI": 9394,
      "ĠmNestu": 9395,
      "ĠbleskU": 9396,
      "Ġvbok": 9397,
      "Ġzdvix": 9398,
      "Ġfranc": 9399,
      "ĠvskÃ¡": 9400,
      "ĠDetstvI": 9401,
      "Ġjdeme": 9402,
      "ĠpRIsNe": 9403,
      "Ġvzli": 9404,
      "Ġgre": 9405,
      "deN": 9406,
      "ĠABCC": 9407,
      "ĠZit": 9408,
      "kova": 9409,
      "ĠchvÃŃl": 9410,
      "ĠhÅĻmÃŃt": 9411,
      "ĠÅ¾dÃ¡": 9412,
      "ĠhoSi": 9413,
      "ĠXAA": 9414,
      "Ġnejde": 9415,
      "ĠkrAtk": 9416,
      "ĠSerem": 9417,
      "ĠvlastNe": 9418,
      "ĠfarA": 9419,
      "Ġfek": 9420,
      "Ġstarce": 9421,
      "Ġsjel": 9422,
      "Rte": 9423,
      "ĠpopQ": 9424,
      "Ġluhi": 9425,
      "Ġkrm": 9426,
      "Ġsus": 9427,
      "ĠslÃ¡fÄĽ": 9428,
      "ĠsedM": 9429,
      "ĠnaSeho": 9430,
      "Ġkhra": 9431,
      "ĠnohAm": 9432,
      "Ġfsxo": 9433,
      "Ġxati": 9434,
      "ĠpoZAr": 9435,
      "zat": 9436,
      "Ġhm": 9437,
      "Ġleta": 9438,
      "Ġvtak": 9439,
      "ĠvesmIr": 9440,
      "ĠxTejI": 9441,
      "ĠpAnbUx": 9442,
      "ĠfspomInek": 9443,
      "ĠrTI": 9444,
      "ĠÄįla": 9445,
      "Ġpraha": 9446,
      "ĠslasTI": 9447,
      "Ġposlal": 9448,
      "ĠsnÃŃmÅ¾": 9449,
      "ĠzmItA": 9450,
      "Ġkja": 9451,
      "Ġkza": 9452,
      "Ġjav": 9453,
      "ĠmAjo": 9454,
      "Ġdvacet": 9455,
      "Ġsxro": 9456,
      "ĠstÅ¯v": 9457,
      "Ġrukama": 9458,
      "Ġkrajin": 9459,
      "ĠkSTi": 9460,
      "Ġposa": 9461,
      "Reje": 9462,
      "ĠNivi": 9463,
      "ĠNemA": 9464,
      "ĠpoZehnA": 9465,
      "ĠdÅ¾bÃ¡n": 9466,
      "ĠvavRI": 9467,
      "ĠjvÃ½Å¡": 9468,
      "Ġ!": 9469,
      "ĠsnASI": 9470,
      "ĠlAme": 9471,
      "ĠnelI": 9472,
      "Ġuvje": 9473,
      "ĠÅĻÃŃz": 9474,
      "Ġsof": 9475,
      "dosTi": 9476,
      "Ġnejdra": 9477,
      "Ġrisi": 9478,
      "Ġskrej": 9479,
      "ĠmIhA": 9480,
      "ĠÅ¥Ã¡l": 9481,
      "ĠCerst": 9482,
      "Ġbjelo": 9483,
      "Ġnapad": 9484,
      "ĠskAlu": 9485,
      "ĠpoCne": 9486,
      "Ġsimbo": 9487,
      "Ġpoha": 9488,
      "ĠzvÅ¡ech": 9489,
      "ĠprfnÃŃ": 9490,
      "Ġsluh": 9491,
      "ĠpAri": 9492,
      "Ġbjela": 9493,
      "Ġchleb": 9494,
      "Ġhudbu": 9495,
      "Ġvezmi": 9496,
      "Ġchlum": 9497,
      "vQt": 9498,
      "ĠbÃ©m": 9499,
      "Ġsestra": 9500,
      "Ġuho": 9501,
      "Ġvzr": 9502,
      "kiNe": 9503,
      "ĠnAbo": 9504,
      "ĠzkvÃŃ": 9505,
      "ĠlIstek": 9506,
      "TIme": 9507,
      "Ġzbude": 9508,
      "ĠskvÄĽl": 9509,
      "ĠDesnI": 9510,
      "ĠÅ¡kr": 9511,
      "ĠsmAli": 9512,
      "Skem": 9513,
      "oh": 9514,
      "Ġmsta": 9515,
      "Ġsever": 9516,
      "Ġpohan": 9517,
      "Ġfrak": 9518,
      "ceNi": 9519,
      "nEsTi": 9520,
      "Ġvke": 9521,
      "ĠÅ¡aÅ¡": 9522,
      "ĠradosT": 9523,
      "ĠmiSlEnka": 9524,
      "ĠdAmi": 9525,
      "Ġuzav": 9526,
      "ĠSal": 9527,
      "ĠnemUS": 9528,
      "ĠzAstu": 9529,
      "Ġdleh": 9530,
      "ĠCinu": 9531,
      "ĠskloNil": 9532,
      "ĠotpoCI": 9533,
      "NejSIx": 9534,
      "Ġmladost": 9535,
      "Zilo": 9536,
      "nkAx": 9537,
      "ĠlÅ¾e": 9538,
      "ĠoNex": 9539,
      "ĠpoS": 9540,
      "volu": 9541,
      "voval": 9542,
      "ĠdruzI": 9543,
      "ĠÄįac": 9544,
      "ĠRekli": 9545,
      "ĠsklAdA": 9546,
      "ĠZebrAk": 9547,
      "drE": 9548,
      "ztÃŃ": 9549,
      "zenI": 9550,
      "Ġnasi": 9551,
      "Ġzaji": 9552,
      "Ġihne": 9553,
      "ĠZila": 9554,
      "ĠklÃ¡st": 9555,
      "ĠzdobI": 9556,
      "Ġxvjeli": 9557,
      "ĠDIfku": 9558,
      "Ġjisker": 9559,
      "Ġprinc": 9560,
      "ĠmistRe": 9561,
      "ĠposmNex": 9562,
      "gna": 9563,
      "Ġpomi": 9564,
      "Å¯v": 9565,
      "ĠslIx": 9566,
      "Ġzpy": 9567,
      "ĠpohAt": 9568,
      "ĠRece": 9569,
      "ĠNemE": 9570,
      "ĠsrÅ¯": 9571,
      "ĠslabE": 9572,
      "Ġvnou": 9573,
      "ĠkacI": 9574,
      "ĠzvA": 9575,
      "ĠzÃŃr": 9576,
      "Ġzbe": 9577,
      "Ġzbla": 9578,
      "ĠnAf": 9579,
      "Zep": 9580,
      "Ġlidmi": 9581,
      "ĠdÅ¯t": 9582,
      "ĠlEka": 9583,
      "ĠhRbitof": 9584,
      "Ġspokoje": 9585,
      "ĠsÅ¥": 9586,
      "Ġzech": 9587,
      "meNe": 9588,
      "Ġes": 9589,
      "ĠRef": 9590,
      "Ġmdlou": 9591,
      "Ġkpro": 9592,
      "ĠzamL": 9593,
      "Ġulice": 9594,
      "ĠmZikem": 9595,
      "ĠkrAlofstvI": 9596,
      "Ġihnet": 9597,
      "ĠboRI": 9598,
      "ĠbeÅ¡": 9599,
      "ĠCil": 9600,
      "ĠstAdo": 9601,
      "ĠpjeTi": 9602,
      "ĠSirI": 9603,
      "ĠtOn": 9604,
      "CNIx": 9605,
      "Ġzasi": 9606,
      "ĠlAn": 9607,
      "Ġotpor": 9608,
      "Ġovoce": 9609,
      "gan": 9610,
      "Ġzahu": 9611,
      "Ġsplet": 9612,
      "Ġsprost": 9613,
      "ĠrÃ¡k": 9614,
[...]
