{
  "version": "1.0",
  "truncation": null,
  "padding": null,
  "added_tokens": [
    {
      "id": 0,
      "content": "<|EOS|>",
      "single_word": false,
      "lstrip": false,
      "rstrip": false,
      "normalized": false,
      "special": true
    },
    {
      "id": 1,
      "content": "<|PAD|>",
      "single_word": false,
      "lstrip": false,
      "rstrip": false,
      "normalized": false,
      "special": true
    },
    {
      "id": 2,
      "content": "<|UNK|>",
      "single_word": false,
      "lstrip": false,
      "rstrip": false,
      "normalized": false,
      "special": true
    },
    {
      "id": 3,
      "content": "<|CLS|>",
      "single_word": false,
      "lstrip": false,
      "rstrip": false,
      "normalized": false,
      "special": true
    }
  ],
  "normalizer": null,
  "pre_tokenizer": {
    "type": "ByteLevel",
    "add_prefix_space": false,
    "trim_offsets": true,
    "use_regex": true
  },
  "post_processor": {
    "type": "RobertaProcessing",
    "sep": [
      "<|EOS|>",
      0
    ],
    "cls": [
      "<|CLS|>",
      3
    ],
    "trim_offsets": false,
    "add_prefix_space": false
  },
  "decoder": {
    "type": "ByteLevel",
    "add_prefix_space": true,
    "trim_offsets": true,
    "use_regex": true
  },
  "model": {
    "type": "BPE",
    "dropout": null,
    "unk_token": null,
    "continuing_subword_prefix": null,
    "end_of_word_suffix": null,
    "fuse_unk": false,
    "byte_fallback": false,
    "vocab": {
      "<|EOS|>": 0,
      "<|PAD|>": 1,
      "<|UNK|>": 2,
      "<|CLS|>": 3,
      "!": 4,
      "#": 5,
      "+": 6,
      ",": 7,
      ".": 8,
      "/": 9,
      "0": 10,
      "1": 11,
      "2": 12,
      "3": 13,
      "4": 14,
      "5": 15,
      "6": 16,
      "7": 17,
      "8": 18,
      "9": 19,
      "=": 20,
      "?": 21,
      "A": 22,
      "B": 23,
      "C": 24,
      "D": 25,
      "H": 26,
      "J": 27,
      "N": 28,
      "P": 29,
      "T": 30,
      "X": 31,
      "Y": 32,
      "`": 33,
      "a": 34,
      "b": 35,
      "c": 36,
      "d": 37,
      "e": 38,
      "f": 39,
      "g": 40,
      "h": 41,
      "i": 42,
      "j": 43,
      "k": 44,
      "l": 45,
      "m": 46,
      "n": 47,
      "o": 48,
      "p": 49,
      "q": 50,
      "r": 51,
      "s": 52,
      "t": 53,
      "u": 54,
      "v": 55,
      "w": 56,
      "x": 57,
      "y": 58,
      "z": 59,
      "¡": 60,
      "¢": 61,
      "¤": 62,
      "¥": 63,
      "¦": 64,
      "§": 65,
      "¨": 66,
      "©": 67,
      "ª": 68,
      "«": 69,
      "®": 70,
      "¯": 71,
      "²": 72,
      "³": 73,
      "´": 74,
      "¶": 75,
      "¹": 76,
      "º": 77,
      "»": 78,
      "¼": 79,
      "½": 80,
      "¾": 81,
      "Â": 82,
      "Ã": 83,
      "Ä": 84,
      "Å": 85,
      "Ï": 86,
      "â": 87,
      "Ċ": 88,
      "Ġ": 89,
      "Ģ": 90,
      "Ĥ": 91,
      "Ħ": 92,
      "ħ": 93,
      "ĩ": 94,
      "Ī": 95,
      "Ĭ": 96,
      "į": 97,
      "ı": 98,
      "Ĵ": 99,
      "ĵ": 100,
      "Ļ": 101,
      "ļ": 102,
      "Ľ": 103,
      "Ł": 104,
      "ł": 105,
      "Ń": 106,
      "Ġ#": 107,
      "ÃŃ": 108,
      "Ġs": 109,
      "Ġ1": 110,
      "Ã¡": 111,
      "ÄĽ": 112,
      "Ġv": 113,
      "Ġa": 114,
      "Ġp": 115,
      "Ġj": 116,
      "Ġn": 117,
      "Ġt": 118,
      "Å¾": 119,
      "ch": 120,
      "Ġz": 121,
      "Å¡": 122,
      "Ġo": 123,
      "Ġk": 124,
      "ÅĻ": 125,
      "Ġm": 126,
      "ou": 127,
      "Ã½": 128,
      "Ġd": 129,
      "Ã©": 130,
      "Äį": 131,
      "la": 132,
      "en": 133,
      "st": 134,
      "Ġ10": 135,
      "Ġb": 136,
      "Ġ8": 137,
      "em": 138,
      "Ġi": 139,
      "Ġ11": 140,
      "le": 141,
      "Ġh": 142,
      "Ġse": 143,
      "ra": 144,
      "ro": 145,
      "li": 146,
      "ak": 147,
      "Å¯": 148,
      "Ġe": 149,
      "Ġu": 150,
      "Ġpo": 151,
      "Ġne": 152,
      "Ġje": 153,
      "Ġna": 154,
      "XX": 155,
      "lo": 156,
      "ce": 157,
      "ÅĻe": 158,
      "nÄĽ": 159,
      "AB": 160,
      "rÃ¡": 161,
      "va": 162,
      "nÃŃ": 163,
      "Ġ9": 164,
      "ti": 165,
      "ĠÅ¾": 166,
      "Ġst": 167,
      "ne": 168,
      "vÄĽ": 169,
      "dy": 170,
      "Å¡e": 171,
      "sk": 172,
      "ni": 173,
      "ÅĻÃŃ": 174,
      "Ġza": 175,
      "Ġ19": 176,
      "Ġ7": 177,
      "ru": 178,
      "ĠÄĽ": 179,
      "Ġjak": 180,
      "ho": 181,
      "na": 182,
      "te": 183,
      "de": 184,
      "lÃ¡": 185,
      "ÅĻi": 186,
      "nÃ½": 187,
      "je": 188,
      "Ġdo": 189,
      "lu": 190,
      "ka": 191,
      "Ġsv": 192,
      "ĠÄį": 193,
      "ly": 194,
      "Ġto": 195,
      "ci": 196,
      "Ġch": 197,
      "ku": 198,
      "ky": 199,
      "no": 200,
      "nÃ©": 201,
      "Ġ6": 202,
      "Ġby": 203,
      "lÃŃ": 204,
      "ko": 205,
      "nou": 206,
      "vo": 207,
      "Ġji": 208,
      "Ġ12": 209,
      "vÃ¡": 210,
      "tÄĽ": 211,
      "jÃŃ": 212,
      "Ġve": 213,
      "Ġ18": 214,
      "Ġc": 215,
      "Ġjs": 216,
      "il": 217,
      "ÃŃm": 218,
      "Ã¡m": 219,
      "Ġro": 220,
      "ny": 221,
      "nu": 222,
      "..": 223,
      "al": 224,
      "Ġpro": 225,
      "Ġy": 226,
      "Å¥": 227,
      "Ã½ch": 228,
      "ĠAB": 229,
      "ji": 230,
      "Ġr": 231,
      "Ġjen": 232,
      "00": 233,
      "vÃŃ": 234,
      "sti": 235,
      "tÃŃ": 236,
      "nÃ¡": 237,
      "Ġ1900": 238,
      "Ġen": 239,
      "ĠÅ¡": 240,
      "da": 241,
      "ĠÅ¾e": 242,
      "XXXX": 243,
      "do": 244,
      "Ġko": 245,
      "XA": 246,
      "di": 247,
      "Ġ13": 248,
      "Ġvy": 249,
      "dÄĽ": 250,
      "Ġle": 251,
      "Ġho": 252,
      "Ġta": 253,
      "du": 254,
      "ta": 255,
      "vi": 256,
      "Ġmo": 257,
      "Ġvz": 258,
      "Ġob": 259,
      "Ġkdy": 260,
      "po": 261,
      "Ã½m": 262,
      "ĠABAB": 263,
      "to": 264,
      "ĠvÄĽ": 265,
      "vÃ©": 266,
      "Ġmi": 267,
      "ĠpÅĻe": 268,
      "Ġbo": 269,
      "Ġco": 270,
      "mu": 271,
      "lÃ©": 272,
      "ve": 273,
      "Ġtak": 274,
      "Å¡i": 275,
      "Äįi": 276,
      "se": 277,
      "ĠA": 278,
      "Ġpa": 279,
      "lou": 280,
      "80": 281,
      "Ġ1880": 282,
      "Ġdu": 283,
      "Äįe": 284,
      "ĠÃ": 285,
      "Å¾e": 286,
      "ÅĪ": 287,
      "Ġod": 288,
      "vy": 289,
      "20": 290,
      "Ġtu": 291,
      "ar": 292,
      "Ġroz": 293,
      "Ġmu": 294,
      "cÃŃ": 295,
      "mi": 296,
      "ĠXXXX": 297,
      "ĠvÅ¡e": 298,
      "Å¡ÃŃ": 299,
      "Ġni": 300,
      "at": 301,
      "vÄĽt": 302,
      "ĠtÄĽ": 303,
      "ĠvÅ¡": 304,
      "Ġti": 305,
      "ĠnÃ¡": 306,
      "Äı": 307,
      "Ġ1920": 308,
      "dÃ¡": 309,
      "mÄĽ": 310,
      "as": 311,
      "ĠÄįe": 312,
      "ry": 313,
      "ÄįÃŃ": 314,
      "rd": 315,
      "Ġno": 316,
      "Ġte": 317,
      "kÃ¡": 318,
      "by": 319,
      "Ġka": 320,
      "Ġjsem": 321,
      "ĠvÃŃ": 322,
      "vu": 323,
      "be": 324,
      "Ġli": 325,
      "dÃŃ": 326,
      "ĠzÃ¡": 327,
      "ĠÅ¾i": 328,
      "Ġsp": 329,
      "ze": 330,
      "...": 331,
      "ĠnÄĽ": 332,
      "Ġhla": 333,
      "Å¾i": 334,
      "ĠkdyÅ¾": 335,
      "ĠdÃ¡": 336,
      "Ġas": 337,
      "ĠkrÃ¡": 338,
      "ha": 339,
      "ĠpÅĻi": 340,
      "me": 341,
      "tÃ¡": 342,
      "Ġbu": 343,
      "Ġsi": 344,
      "ma": 345,
      "Å¾ÃŃ": 346,
      "mÃŃ": 347,
      "ĠmÄĽ": 348,
      "Ġty": 349,
      "Ġ5": 350,
      "Ġru": 351,
      "Ġou": 352,
      "ĠAAB": 353,
      "ĠsvÃ©": 354,
      "Ġsrd": 355,
      "tu": 356,
      "enÃŃ": 357,
      "Å¯j": 358,
      "ĠmÃ¡": 359,
      "bo": 360,
      "ĠdÄĽ": 361,
      "Ġjako": 362,
      "Ġpra": 363,
      "ĠjÃ¡": 364,
      "sta": 365,
      "ĠXA": 366,
      "ĠvÅ¡ak": 367,
      "Ġvo": 368,
      "ĠÃº": 369,
      "Ġpr": 370,
      "Ġsk": 371,
      "val": 372,
      "Ġani": 373,
      "ty": 374,
      "hu": 375,
      "kou": 376,
      "Ġkde": 377,
      "bÄĽ": 378,
      "Ġten": 379,
      "mo": 380,
      "lem": 381,
      "ez": 382,
      "Ġce": 383,
      "hy": 384,
      "ĠAABB": 385,
      "vou": 386,
      "chu": 387,
      "kem": 388,
      "lad": 389,
      "ĠlÃ¡": 390,
      "Ġvi": 391,
      "si": 392,
      "40": 393,
      "lÃ½": 394,
      "nÃ½ch": 395,
      "ĠvÃ¡": 396,
      "Ġtam": 397,
      "stÃŃ": 398,
      "ĠdÃŃ": 399,
      "Ġpod": 400,
      "ĠjiÅ¾": 401,
      "ĠsvÄĽt": 402,
      "bi": 403,
      "Ġnad": 404,
      "pÄĽ": 405,
      "Ġjeho": 406,
      "ĠXAXA": 407,
      "sÃŃ": 408,
      "Ġkr": 409,
      "led": 410,
      "Å¡tÄĽ": 411,
      "ĠrÃ¡": 412,
      "Ġra": 413,
      "ĠjeÅ¾": 414,
      "Ġem": 415,
      "sa": 416,
      "ĠpÅĻÃŃ": 417,
      "len": 418,
      "kÃ©": 419,
      "Ġzem": 420,
      "Ġad": 421,
      "Ġslu": 422,
      "bu": 423,
      "kÅ¯": 424,
      "pa": 425,
      "Ġjed": 426,
      "Ġmy": 427,
      "vÃ½": 428,
      "cho": 429,
      "Ġsrdce": 430,
      "su": 431,
      "ba": 432,
      "vat": 433,
      "men": 434,
      "Ġbyl": 435,
      "hÃ¡": 436,
      "Å¾dy": 437,
      "rou": 438,
      "Ġkte": 439,
      "ĠtÃ©": 440,
      "dou": 441,
      "sky": 442,
      "pÃŃ": 443,
      "Ġsta": 444,
      "Ġpe": 445,
      "ĠÅ¡e": 446,
      "Ġvla": 447,
      "CC": 448,
      "ste": 449,
      "Ġzas": 450,
      "ĠaÅ¾": 451,
      "my": 452,
      "ĠpÃ¡": 453,
      "ĠjÃŃ": 454,
      "sy": 455,
      "Ġat": 456,
      "ĠpÃŃ": 457,
      "ĠlÃŃ": 458,
      "Ġma": 459,
      "ĠmÃŃ": 460,
      "ĠmÃ©": 461,
      "nÃ½m": 462,
      "ĠstÃ¡": 463,
      "ĠvÅ¾dy": 464,
      "zÃŃ": 465,
      "ĠnÃ¡m": 466,
      "Ġbez": 467,
      "ĠjenÅ¾": 468,
      "Ġpak": 469,
      "Ġ15": 470,
      "ĠbÃŃ": 471,
      "Ġkdo": 472,
      "Ġale": 473,
      "Ġhro": 474,
      "ĠpÅĻed": 475,
      "Ġze": 476,
      "Ġzla": 477,
      "Ġon": 478,
      "ĠnÃŃ": 479,
      "Ġ14": 480,
      "Ġmne": 481,
      "zd": 482,
      "Ġpla": 483,
      "Ġl": 484,
      "Ġdi": 485,
      "ĠuÅ¾": 486,
      "ĠÅĻe": 487,
      "Ġlid": 488,
      "ĠXXXXXX": 489,
      "hou": 490,
      "60": 491,
      "Ġso": 492,
      "Ġan": 493,
      "Ġtv": 494,
      "Ġhle": 495,
      "ĠÃ³": 496,
      "Ġsa": 497,
      "re": 498,
      "Ġal": 499,
      "Ġjest": 500,
      "kÃ½": 501,
      "cha": 502,
      "Ġeni": 503,
      "skÃ©": 504,
      "zi": 505,
      "mÃ¡": 506,
      "rÃ½": 507,
      "ĠtvÃ¡": 508,
      "ĠÅ¾ivo": 509,
      "ĠÄįi": 510,
      "ĠvÃ½": 511,
      "Ġnej": 512,
      "Ġ4": 513,
      "Ġiti": 514,
      "ĠkaÅ¾": 515,
      "nce": 516,
      "Ġed": 517,
      "rÃ©": 518,
      "ÅĻÃ¡": 519,
      "Ġsvou": 520,
      "Ġnez": 521,
      "Ġslo": 522,
      "Ġot": 523,
      "sto": 524,
      "Ġzra": 525,
      "ĠsvÄĽ": 526,
      "ĠprÃ¡": 527,
      "pu": 528,
      "ĠkvÄĽt": 529,
      "Ġdne": 530,
      "Ġ16": 531,
      "nem": 532,
      "ĠteÄı": 533,
      "Ġpou": 534,
      "pi": 535,
      "tr": 536,
      "ĠneÅ¾": 537,
      "Ġsna": 538,
      "ĠÄįer": 539,
      "Ġku": 540,
      "Ġ1940": 541,
      "Ġtou": 542,
      "Ġsto": 543,
      "Ġnem": 544,
      "Å¯m": 545,
      "bou": 546,
      "Ġnes": 547,
      "Ġjsou": 548,
      "ĠoÄįi": 549,
      "Ġpos": 550,
      "tem": 551,
      "ej": 552,
      "ĠplÃ¡": 553,
      "Ġnebe": 554,
      "ska": 555,
      "ĠÅ¾en": 556,
      "BA": 557,
      "Ġjsi": 558,
      "Ġsvo": 559,
      "Ġjej": 560,
      "dÄĽl": 561,
      "ĠdÃ¡l": 562,
      "rt": 563,
      "pe": 564,
      "Ġci": 565,
      "Ġf": 566,
      "Ġoh": 567,
      "Ġme": 568,
      "Ġdob": 569,
      "ĠvÅ¡ech": 570,
      "ĠpÄĽ": 571,
      "chÃ¡": 572,
      "ĠjejÃŃ": 573,
      "Ġva": 574,
      "ĠtvÃ©": 575,
      "Ġsla": 576,
      "ĠmnÄĽ": 577,
      "Ġici": 578,
      "ĠjeÅ¡tÄĽ": 579,
      "Ġosti": 580,
      "ĠmÅ¯j": 581,
      "Ġda": 582,
      "zy": 583,
      "rÅ¯": 584,
      "Ġali": 585,
      "ĠduÅ¡e": 586,
      "Ġdru": 587,
      "ĠÄįas": 588,
      "tÃ©": 589,
      "Ġja": 590,
      "stu": 591,
      "Ġbra": 592,
      "Å¡el": 593,
      "Ġvel": 594,
      "Ġala": 595,
      "ĠABBA": 596,
      "nÃ©m": 597,
      "ĠkaÅ¾d": 598,
      "ĠhvÄĽ": 599,
      "nost": 600,
      "Ġpl": 601,
      "Ġkra": 602,
      "ĠÅĻÃŃ": 603,
      "Ġ1860": 604,
      "Ġati": 605,
      "Ġsy": 606,
      "nul": 607,
      "bÃŃ": 608,
      "ĠsÃŃ": 609,
      "ĠnÃ¡s": 610,
      "Ġsnad": 611,
      "nÅ¯": 612,
      "ĠcÃŃ": 613,
      "ĠstÃŃ": 614,
      "sku": 615,
      "nÃŃm": 616,
      "Ġzde": 617,
      "Ġden": 618,
      "Ġdra": 619,
      "Ġbla": 620,
      "Ġsm": 621,
      "Ġ1840": 622,
      "ĠaÅ¥": 623,
      "vil": 624,
      "Ġstra": 625,
      "Ġtom": 626,
      "Ġvl": 627,
      "ĠvÅ¡ec": 628,
      "enÃ©": 629,
      "ĠvÅ¯": 630,
      "Ġlo": 631,
      "Ġkle": 632,
      "Ġstar": 633,
      "ĠÄĽt": 634,
      "ĠrÅ¯": 635,
      "tel": 636,
      "ĠnÄĽm": 637,
      "hle": 638,
      "Ġila": 639,
      "Ġhu": 640,
      "Ġla": 641,
      "Ġhra": 642,
      "rem": 643,
      "ĠbÄĽ": 644,
      "jem": 645,
      "Ġnech": 646,
      "Ġneb": 647,
      "ĠbÃ½": 648,
      "dem": 649,
      "Ġam": 650,
      "Ġbude": 651,
      "Ġpu": 652,
      "Ġlu": 653,
      "tÃ½": 654,
      "ĠAA": 655,
      "chy": 656,
      "py": 657,
      "ĠchvÃŃ": 658,
      "Ġcho": 659,
      "Ġmra": 660,
      "Ġde": 661,
      "Ġit": 662,
      "ĠvÄĽÄį": 663,
      "Äįka": 664,
      "tek": 665,
      "Ġes": 666,
      "chem": 667,
      "ĠduÅ¡i": 668,
      "Ġost": 669,
      "Ġsou": 670,
      "Ġhlu": 671,
      "Ġry": 672,
      "vem": 673,
      "Ġjsme": 674,
      "Ġmod": 675,
      "Ġha": 676,
      "Ġba": 677,
      "ĠÅ¾Ã¡": 678,
      "Ġoji": 679,
      "ĠbÃ¡": 680,
      "Ġok": 681,
      "ĠkrÃ¡s": 682,
      "dla": 683,
      "ĠobÄĽ": 684,
      "Ġsl": 685,
      "Ġsly": 686,
      "nÃ¡m": 687,
      "Ġpoz": 688,
      "Ġzvo": 689,
      "Ġtr": 690,
      "ĠĊ": 691,
      "Ġaji": 692,
      "Ġsmu": 693,
      "Ġslad": 694,
      "Ġach": 695,
      "ĠnenÃŃ": 696,
      "Ġpoh": 697,
      "tra": 698,
      "Ġjich": 699,
      "ĠÅ¾ivot": 700,
      "Ġdnes": 701,
      "Ġre": 702,
      "Ġili": 703,
      "Ġdlou": 704,
      "ĠsÃ¡m": 705,
      "Ġzd": 706,
      "Ġvra": 707,
      "hÃ½": 708,
      "sÅ¥": 709,
      "Ġbych": 710,
      "Ġkou": 711,
      "til": 712,
      "Ġmno": 713,
      "Ġjas": 714,
      "hÃ©": 715,
      "Å¾en": 716,
      "ÅĻen": 717,
      "stÄĽ": 718,
      "Ġstro": 719,
      "pÃ¡": 720,
      "ĠkÅĻÃŃ": 721,
      "Ġmat": 722,
      "ĠÅ¡tÄĽ": 723,
      "nosti": 724,
      "Ġslunce": 725,
      "Ġspo": 726,
      "Ġmil": 727,
      "Ġeho": 728,
      "ĠtÄĽch": 729,
      "Ġbou": 730,
      "Ġice": 731,
      "Ġtvo": 732,
      "ĠvÃ¡m": 733,
      "Ġbylo": 734,
      "cem": 735,
      "ĠzpÄĽ": 736,
      "Ġsvat": 737,
      "Ġiva": 738,
      "jÅ¡ÃŃ": 739,
      "so": 740,
      "Ġava": 741,
      "stÃ¡": 742,
      "zu": 743,
      "cÃŃch": 744,
      "ĠchtÄĽ": 745,
      "vÃ½ch": 746,
      "tou": 747,
      "ĠslÃ¡": 748,
      "sÃ¡": 749,
      "za": 750,
      "Ġmou": 751,
      "Ġavy": 752,
      "Ġjim": 753,
      "Ġnep": 754,
      "jich": 755,
      "stvÃŃ": 756,
      "Ġml": 757,
      "stou": 758,
      "sty": 759,
      "Ġeny": 760,
      "bÃ¡": 761,
      "Äįky": 762,
      "ĠtÅĻe": 763,
      "ven": 764,
      "Ġnich": 765,
      "Ġmar": 766,
      "kal": 767,
      "Ġhlas": 768,
      "ĠptÃ¡": 769,
      "Ġnik": 770,
      "lovÄĽ": 771,
      "ri": 772,
      "sud": 773,
      "Ġsmut": 774,
      "ĠXX": 775,
      "ÅĻel": 776,
      "cen": 777,
      "Äįek": 778,
      "ĠlÃ¡sky": 779,
      "ĠzÅĻÃŃ": 780,
      "Ġaly": 781,
      "tÃŃm": 782,
      "Ġkro": 783,
      "ĠsvÅ¯j": 784,
      "Å¯h": 785,
      "Ġkli": 786,
      "ev": 787,
      "Ġin": 788,
      "hla": 789,
      "Äįku": 790,
      "skÃ½": 791,
      "Ġbyla": 792,
      "ĠpÃŃs": 793,
      "Ġmilo": 794,
      "skou": 795,
      "Ġmys": 796,
      "Ġnu": 797,
      "Ġet": 798,
      "vÃ½m": 799,
      "vnÃŃ": 800,
      "ĠÄįlovÄĽ": 801,
      "Ġak": 802,
      "ĠsvÃ½m": 803,
      "ad": 804,
      "Ġzda": 805,
      "ĠAABBCC": 806,
      "Ġtem": 807,
      "krÃ¡": 808,
      "ĠsmÄĽ": 809,
      "Ġkam": 810,
      "nÃ©ho": 811,
      "hne": 812,
      "ĠsvÃŃ": 813,
      "Ġos": 814,
      "Ġg": 815,
      "Ġar": 816,
      "kla": 817,
      "Ġus": 818,
      "skÃ¡": 819,
      "Ġane": 820,
      "seÅĪ": 821,
      "dil": 822,
      "ĠnÃŃm": 823,
      "nil": 824,
      "ĠAAXX": 825,
      "ĠtvÅ¯j": 826,
      "ĠĠ": 827,
      "Ġvr": 828,
      "ĠsobÄĽ": 829,
      "ĠmÃ¡m": 830,
      "Å¡en": 831,
      "Ġkol": 832,
      "ĠsnÄĽ": 833,
      "Ġaby": 834,
      "ÅĻil": 835,
      "Ġkolem": 836,
      "ĠÄĽni": 837,
      "ĠtobÄĽ": 838,
      "ĠÄįa": 839,
      "Ġhne": 840,
      "ĠbÅ¯h": 841,
      "ĠhvÄĽz": 842,
      "Ġina": 843,
      "ĠkaÅ¾dÃ½": 844,
      "ĠvÃŃc": 845,
      "ĠtÃ¡": 846,
      "Å¡Å¥": 847,
      "ĠproÄį": 848,
      "Ã©m": 849,
      "Ġbe": 850,
      "ĠsvÃ½ch": 851,
      "ĠÅ¡ÃŃ": 852,
      "Ġke": 853,
      "ĠÄĽla": 854,
      "ĠblÃŃ": 855,
      "ĠzemÄĽ": 856,
      "Ġkla": 857,
      "ĠpÅĻes": 858,
      "Ġrado": 859,
      "ĠtÄĽÅ¾": 860,
      "Ġchu": 861,
      "Äįen": 862,
      "Ġena": 863,
      "ĠÅ¾itÃŃ": 864,
      "Ġhned": 865,
      "ĠpÅ¯": 866,
      "ÅĻem": 867,
      "ĠvÃ¡s": 868,
      "Å¡ÃŃm": 869,
      "Ġily": 870,
      "Ġble": 871,
      "nout": 872,
      "Ġor": 873,
      "Å¡tÃŃ": 874,
      "Ġpan": 875,
      "nky": 876,
      "Ġchce": 877,
      "ĠtÃ©Å¾": 878,
      "Ġoko": 879,
      "ĠzdÃ¡": 880,
      "hem": 881,
      "ĠvÅ¡em": 882,
      "Ġnoc": 883,
      "Ġjejich": 884,
      "ĠsmÃŃ": 885,
      "Ġsrdci": 886,
      "Ġtich": 887,
      "ĠdÅĻÃŃ": 888,
      "Å¡ti": 889,
      "Ġmrt": 890,
      "Ġruce": 891,
      "Ġada": 892,
      "ĠleÄį": 893,
      "Ġsva": 894,
      "Ġum": 895,
      "pr": 896,
      "ĠvÅ¡ecko": 897,
      "Ġmoje": 898,
      "Ġoz": 899,
      "pla": 900,
      "Ġzemi": 901,
      "Äįil": 902,
      "Ġuje": 903,
      "jde": 904,
      "mÅ¯": 905,
      "ĠtÃŃm": 906,
      "lil": 907,
      "co": 908,
      "om": 909,
      "ĠvÄĽt": 910,
      "Ġsmr": 911,
      "ĠveÄįe": 912,
      "Ġbi": 913,
      "Ġic": 914,
      "ĠchvÄĽ": 915,
      "Ġnepo": 916,
      "Ġiny": 917,
      "lÃ½ch": 918,
      "vÃŃm": 919,
      "ĠmÄĽl": 920,
      "Ġene": 921,
      "Ġvlast": 922,
      "nek": 923,
      "Ġju": 924,
      "Ġjste": 925,
      "ĠhÃ¡": 926,
      "ĠbuÄı": 927,
      "pomÃŃ": 928,
      "ĠÅ¡tÄĽstÃŃ": 929,
      "ĠpÅĻec": 930,
      "Ġid": 931,
      "Ġsem": 932,
      "lÅ¯": 933,
      "ĠuÅ¡i": 934,
      "Ġej": 935,
      "ĠnaÅ¡e": 936,
      "ĠspÃ¡": 937,
      "ĠÅ¡u": 938,
      "Ġel": 939,
      "Ġov": 940,
      "dce": 941,
      "nal": 942,
      "Ġzrak": 943,
      "sko": 944,
      "Ġova": 945,
      "ved": 946,
      "ĠÅĻ": 947,
      "Ġech": 948,
      "Ġira": 949,
      "Å¾il": 950,
      "ĠaÄį": 951,
      "dnÃ©": 952,
      "hÅ¯": 953,
      "Ġjenom": 954,
      "Å¡li": 955,
      "Ġtebe": 956,
      "ĠABABCC": 957,
      "cÅ¯": 958,
      "skÃ½ch": 959,
      "Ġote": 960,
      "vnÄĽ": 961,
      "Ġles": 962,
      "Ġnoci": 963,
      "ĠnÃ¡ro": 964,
      "zo": 965,
      "Ġsko": 966,
      "Ġzlo": 967,
      "Ġjem": 968,
      "ĠzpÃŃ": 969,
      "Ġple": 970,
      "Ġhlavu": 971,
      "ĠoÅĻi": 972,
      "kÃ½ch": 973,
      "Ġaci": 974,
      "Ġhru": 975,
      "Ġest": 976,
      "Ġol": 977,
      "Ġprav": 978,
      "pad": 979,
      "ĠvlÃ¡": 980,
      "Ġsen": 981,
      "ĠmuÅ¾": 982,
      "Ġzb": 983,
      "Ġsu": 984,
      "Ġny": 985,
      "Ġmlad": 986,
      "Ġmez": 987,
      "dnÄĽ": 988,
      "Ġaz": 989,
      "nÃŃch": 990,
      "Ġhr": 991,
      "Ġzah": 992,
      "sou": 993,
      "ĠdÃ¡v": 994,
      "AX": 995,
      "Ġmoc": 996,
      "ĠstÅĻe": 997,
      "Ġkru": 998,
      "an": 999,
      "Ġprou": 1000,
      "dech": 1001,
      "ĠlÃ©": 1002,
      "Ġela": 1003,
      "Ġhor": 1004,
      "Ġoku": 1005,
      "ĠcelÃ½": 1006,
      "dÃŃm": 1007,
      "AA": 1008,
      "ast": 1009,
      "Å¡ich": 1010,
      "nÃŃk": 1011,
      "ĠhÅĻÃŃ": 1012,
      "Ġobra": 1013,
      "Ġduch": 1014,
      "Ġoli": 1015,
      "Ġmlu": 1016,
      "Ġjde": 1017,
      "tÅ¯": 1018,
      "er": 1019,
      "ĠnÃ¡Å¡": 1020,
      "Ġkrev": 1021,
      "Ġany": 1022,
      "ĠmlÃ¡": 1023,
      "ĠtakÃ©": 1024,
      "dnÃ½": 1025,
      "ĠkterÃ©": 1026,
      "Ġ3": 1027,
      "ĠÅ¡i": 1028,
      "ĠpÃŃseÅĪ": 1029,
      "ĠÃºs": 1030,
      "ĠABABXX": 1031,
      "ĠÅ¾ÃŃ": 1032,
      "ĠaÅĻi": 1033,
      "tky": 1034,
      "ĠdÃŃv": 1035,
      "ĠdÃŃtÄĽ": 1036,
      "Ġneu": 1037,
      "Ġop": 1038,
      "Ġzvu": 1039,
      "Ġchy": 1040,
      "ĠsnÃŃ": 1041,
      "ĠspÄĽ": 1042,
      "Ġslova": 1043,
      "Ġoni": 1044,
      "ĠmoÅĻe": 1045,
      "Ġ1960": 1046,
      "Ġky": 1047,
      "ĠstojÃŃ": 1048,
      "Ġbole": 1049,
      "Ġdiv": 1050,
      "Ġlet": 1051,
      "Ġsil": 1052,
      "ĠkÅĻi": 1053,
      "cky": 1054,
      "ĠrÃ¡d": 1055,
      "Ġele": 1056,
      "Ġnebo": 1057,
      "Ġhlou": 1058,
      "ĠÅĪ": 1059,
      "sla": 1060,
      "ĠÄįÃŃ": 1061,
      "ĠchvÃŃli": 1062,
      "Ġslun": 1063,
      "Ġavi": 1064,
      "tva": 1065,
      "ĠÅĻek": 1066,
      "jÃŃcÃŃ": 1067,
      "ĠstrÃ¡": 1068,
      "Ġtoho": 1069,
      "hl": 1070,
      "kÃ½m": 1071,
      "Ġil": 1072,
      "Ġpi": 1073,
      "Ġana": 1074,
      "ĠvrÃ¡": 1075,
      "ĠchrÃ¡": 1076,
      "Ġpad": 1077,
      "Ġav": 1078,
      "ĠnÃ¡hle": 1079,
      "ĠmyÅ¡": 1080,
      "ĠvÅ¾dyÅ¥": 1081,
      "ĠÄĽti": 1082,
      "Ġeti": 1083,
      "ĠchtÄĽl": 1084,
      "Ġove": 1085,
      "Ġtro": 1086,
      "Ġpok": 1087,
      "ĠoÄįÃŃ": 1088,
      "ĠlÃ¡ska": 1089,
      "ĠtvÃ¡ÅĻ": 1090,
      "tku": 1091,
      "ĠtÃŃ": 1092,
      "ĠbÃ½t": 1093,
      "Ġ17": 1094,
      "Ġalo": 1095,
      "Ġmal": 1096,
      "ĠsvÃ©ho": 1097,
      "ĠÄįlovÄĽk": 1098,
      "ĠnÄĽk": 1099,
      "Ġdal": 1100,
      "Ġuk": 1101,
      "Å¡la": 1102,
      "ĠskÃ¡": 1103,
      "Ġmnou": 1104,
      "Ġnic": 1105,
      "Äįko": 1106,
      "ĠnynÃŃ": 1107,
      "Ġaj": 1108,
      "Ġmezi": 1109,
      "Ġjeden": 1110,
      "Ġady": 1111,
      "zen": 1112,
      "Ġona": 1113,
      "ĠvÃ¡Å¡": 1114,
      "ĠzÃŃ": 1115,
      "ĠspÃŃ": 1116,
      "Ġzje": 1117,
      "Ġzase": 1118,
      "ĠsvÃ©m": 1119,
      "dnou": 1120,
      "jÃŃc": 1121,
      "ĠhvÄĽzd": 1122,
      "Ġebe": 1123,
      "Ġmla": 1124,
      "Ġchlad": 1125,
      "ĠstÅĻÃŃ": 1126,
      "Ġtma": 1127,
      "snÄĽ": 1128,
      "nec": 1129,
      "Ġuh": 1130,
      "Ġtru": 1131,
      "Å¯Å¾e": 1132,
      "ĠhnÄĽ": 1133,
      "nka": 1134,
      "mÃ©": 1135,
      "ĠtiÅ¡e": 1136,
      "Ġbrat": 1137,
      "pra": 1138,
      "Ġvol": 1139,
      "Ġboj": 1140,
      "Ġich": 1141,
      "Ġoje": 1142,
      "rnÄĽ": 1143,
      "ĠkterÃ½": 1144,
      "Ġjednou": 1145,
      "ĠstÃ¡le": 1146,
      "ĠsvÄĽta": 1147,
      "Ġpoto": 1148,
      "nÃ¡ch": 1149,
      "nku": 1150,
      "Ġami": 1151,
      "ÄįnÄĽ": 1152,
      "Ġaje": 1153,
      "dnÃŃ": 1154,
      "ĠÃºsmÄĽ": 1155,
      "Ġinu": 1156,
      "ĠkvÃŃ": 1157,
      "Ġdr": 1158,
      "Ġstu": 1159,
      "Ġsvi": 1160,
      "Ġhe": 1161,
      "zem": 1162,
      "krÃ¡t": 1163,
      "ĠvÃŃce": 1164,
      "ĠoÅĻe": 1165,
      "lit": 1166,
      "rost": 1167,
      "nÄĽl": 1168,
      "Ġaty": 1169,
      "stal": 1170,
      "sÃŃc": 1171,
      "Ġnemo": 1172,
      "ouf": 1173,
      "mou": 1174,
      "ĠÅ¡Å¥": 1175,
      "ĠhrÃ¡": 1176,
      "rov": 1177,
      "Ġemi": 1178,
      "ĠXXAA": 1179,
      "Ġvzdu": 1180,
      "Ġev": 1181,
      "ke": 1182,
      "ĠpÅĻÃ¡": 1183,
      "lech": 1184,
      "Ġate": 1185,
      "Ġposled": 1186,
      "ĠbÃŃlÃ©": 1187,
      "Ġodpo": 1188,
      "Ġile": 1189,
      "Ġzo": 1190,
      "ĠbÅĻe": 1191,
      "ĠcoÅ¾": 1192,
      "Ġpoko": 1193,
      "Ġim": 1194,
      "stÃ©": 1195,
      "ĠboÅ¾ÃŃ": 1196,
      "Ġsebe": 1197,
      "Ġveli": 1198,
      "ĠuÄįi": 1199,
      "zel": 1200,
      "Ġuti": 1201,
      "ĠznÃ¡m": 1202,
      "Ġbled": 1203,
      "Ġosud": 1204,
      "Ġnebi": 1205,
      "vÃ©m": 1206,
      "Ġnen": 1207,
      "Ġjar": 1208,
      "skem": 1209,
      "tech": 1210,
      "ĠaÄįi": 1211,
      "vala": 1212,
      "ĠÅ¾a": 1213,
      "Ġnikdy": 1214,
      "Ġven": 1215,
      "ĠiÅ¾": 1216,
      "ĠÄĽl": 1217,
      "ĠsvÃ¡": 1218,
      "Ġrukou": 1219,
      "CCB": 1220,
      "ÅĻÃŃm": 1221,
      "Ġved": 1222,
      "lek": 1223,
      "ĠveÄįer": 1224,
      "Ġbudou": 1225,
      "Ġjedno": 1226,
      "ĠkrÃ¡l": 1227,
      "Ġjedi": 1228,
      "Ġ1820": 1229,
      "ĠtrÃ¡": 1230,
      "ĠnadÄĽ": 1231,
      "ĠjuÅ¾": 1232,
      "Ġup": 1233,
      "Ã½mi": 1234,
      "Ġoka": 1235,
      "Ġtomu": 1236,
      "Ġom": 1237,
      "ĠklÃŃ": 1238,
      "Ġplamen": 1239,
      "Ġnedo": 1240,
      "vra": 1241,
      "ĠvzpomÃŃ": 1242,
      "Ġzna": 1243,
      "ĠpÃ¡n": 1244,
      "Ġavu": 1245,
      "dal": 1246,
      "ĠznÃŃ": 1247,
      "Ġvese": 1248,
      "vit": 1249,
      "ĠbrÃ¡": 1250,
      "ĠÄĽje": 1251,
      "Ġolu": 1252,
      "Ġtys": 1253,
      "ĠÅ¡Å¥ast": 1254,
      "jte": 1255,
      "ĠhrÅ¯": 1256,
      "dlo": 1257,
      "ĠAXA": 1258,
      "ĠrÅ¯Å¾e": 1259,
      "ĠvÃŃtÄĽ": 1260,
      "Ġzi": 1261,
      "ĠAABCCB": 1262,
      "Ġkdyby": 1263,
      "Ġpoli": 1264,
      "vz": 1265,
      "Ġzak": 1266,
      "Ġste": 1267,
      "Ġer": 1268,
      "ABB": 1269,
      "Ġsle": 1270,
      "ĠhÅĻ": 1271,
      "ÄįnÃŃ": 1272,
      "Ġslav": 1273,
      "Ġvoj": 1274,
      "Ġovy": 1275,
      "ĠzvÄĽ": 1276,
      "Ġzno": 1277,
      "Ġlou": 1278,
      "Ġpot": 1279,
      "Ġadu": 1280,
      "uje": 1281,
      "ĠjÃŃm": 1282,
      "tal": 1283,
      "ĠnevÄĽ": 1284,
      "rak": 1285,
      "Ġoci": 1286,
      "Ġchci": 1287,
      "ĠÅ¡el": 1288,
      "nes": 1289,
      "dÃ©": 1290,
      "dÅ¯": 1291,
      "Ġokem": 1292,
      "Ġomu": 1293,
      "ĠzlatÃ©": 1294,
      "ĠdÄĽti": 1295,
      "Ġude": 1296,
      "pil": 1297,
      "Ġhrob": 1298,
      "Ġuli": 1299,
      "Ġiku": 1300,
      "vr": 1301,
      "ĠstÃŃn": 1302,
      "cÃŃm": 1303,
      "Ġah": 1304,
      "Ġivy": 1305,
      "rnÃ©": 1306,
      "Ġdva": 1307,
      "znÄĽ": 1308,
      "Ġves": 1309,
      "pÄĽt": 1310,
      "Ġoj": 1311,
      "Ġzm": 1312,
      "ĠprvnÃŃ": 1313,
      "Ġsmrti": 1314,
      "Ġata": 1315,
      "Ġnebes": 1316,
      "ĠtvÃ½ch": 1317,
      "Ġklo": 1318,
      "Äįel": 1319,
      "Ġasy": 1320,
      "Ġbar": 1321,
      "ĠXAAX": 1322,
      "Ġnevi": 1323,
      "Ġano": 1324,
      "ĠdÅ¯": 1325,
      "ĠavÄĽ": 1326,
      "rnÃ½": 1327,
      "Ġdla": 1328,
      "Ġhou": 1329,
      "Ġovi": 1330,
      "Ġhlavy": 1331,
      "ĠcelÃ©": 1332,
      "ĠkÃ¡": 1333,
      "Ġkraj": 1334,
      "Ġsotva": 1335,
      "ĠmusÃŃ": 1336,
      "ĠoÅ¾i": 1337,
      "Ġdar": 1338,
      "stÃ½": 1339,
      "Ġeli": 1340,
      "Ġobla": 1341,
      "ĠdÃ¡le": 1342,
      "Ã³": 1343,
      "ĠÅ¾al": 1344,
      "Ġilo": 1345,
      "Ġase": 1346,
      "ral": 1347,
      "lal": 1348,
      "vali": 1349,
      "ĠvÃŃm": 1350,
      "ĠkterÃ¡": 1351,
      "ĠnovÃ©": 1352,
      "Ġasu": 1353,
      "Ġode": 1354,
      "ĠanÄĽ": 1355,
      "lik": 1356,
      "Ġpru": 1357,
      "ĠzpÄĽv": 1358,
      "ĠsÃ¡": 1359,
      "ĠÄĽsti": 1360,
      "Ġeda": 1361,
      "Ġsmrt": 1362,
      "ĠpÅĻece": 1363,
      "kÃ¡ch": 1364,
      "ĠÄįÃŃm": 1365,
      "ben": 1366,
      "Ġdce": 1367,
      "Ġhrd": 1368,
      "Ġproti": 1369,
      "Ġstr": 1370,
      "ĠnÃŃÅ¾": 1371,
      "Ġneo": 1372,
      "Ġruka": 1373,
      "kÃ©m": 1374,
      "Ġleh": 1375,
      "nice": 1376,
      "dne": 1377,
      "Ġticho": 1378,
      "Ġjemu": 1379,
      "vÃ¡nÃŃ": 1380,
      "Ġradost": 1381,
      "ĠvolÃ¡": 1382,
      "nic": 1383,
      "Ġely": 1384,
      "Ġneby": 1385,
      "Ġproto": 1386,
      "nit": 1387,
      "Ġpros": 1388,
      "ĠÄĽly": 1389,
      "Ġsh": 1390,
      "Ġruku": 1391,
      "pl": 1392,
      "Ġdvo": 1393,
      "nik": 1394,
      "Ġsli": 1395,
      "ĠletÃŃ": 1396,
      "Ġtaj": 1397,
      "tka": 1398,
      "pou": 1399,
      "Ġtvoje": 1400,
      "Ġuch": 1401,
      "Ġdech": 1402,
      "ĠstarÃ½": 1403,
      "hat": 1404,
      "Ġdlouho": 1405,
      "Ġhroz": 1406,
      "lov": 1407,
      "ĠleÅ¾ÃŃ": 1408,
      "Ġrozko": 1409,
      "Ġadi": 1410,
      "ĠmÃ½ch": 1411,
      "ĠknÄĽ": 1412,
      "Ġvlasti": 1413,
      "um": 1414,
      "ĠÄĽji": 1415,
      "Ġoru": 1416,
      "lÃ½m": 1417,
      "Ġita": 1418,
      "Ġek": 1419,
      "den": 1420,
      "ĠskrÃ¡": 1421,
      "Ġyva": 1422,
      "Ġskry": 1423,
      "Ġazi": 1424,
      "Ġhlavou": 1425,
      "ĠdÄĽl": 1426,
      "Ġtra": 1427,
      "Ġoval": 1428,
      "ÅĻit": 1429,
      "ĠduÅ¡ÃŃ": 1430,
      "sem": 1431,
      "Ġtlu": 1432,
      "Ġplo": 1433,
      "Ġhy": 1434,
      "pal": 1435,
      "Ġrych": 1436,
      "ÄįÃŃm": 1437,
      "ĠkÅĻe": 1438,
      "ĠdÃ¡vno": 1439,
      "dÄĽt": 1440,
      "Ġbr": 1441,
      "Ġuj": 1442,
      "Ġpozd": 1443,
      "tro": 1444,
      "Ġzbo": 1445,
      "Ġhled": 1446,
      "Ġsamo": 1447,
      "Ġese": 1448,
      "vÃ¡m": 1449,
      "Ġsed": 1450,
      "ĠznÃ¡": 1451,
      "ct": 1452,
      "ĠhvÄĽzdy": 1453,
      "let": 1454,
      "Ġjin": 1455,
      "mys": 1456,
      "Äįem": 1457,
      "Ġzh": 1458,
      "Ġtesk": 1459,
      "ĠtoÅ¥": 1460,
      "Ġodi": 1461,
      "ĠcizÃŃ": 1462,
      "ĠdobÅĻe": 1463,
      "pat": 1464,
      "Ġpohled": 1465,
      "ĠboÅ¾e": 1466,
      "Ġnimi": 1467,
      "Ġoba": 1468,
      "Ġjdou": 1469,
      "Ġroze": 1470,
      "ĠvÅ¡u": 1471,
      "ĠvidÃŃ": 1472,
      "Ġtajem": 1473,
      "Ġpom": 1474,
      "lÃŃm": 1475,
      "stÅĻe": 1476,
      "Ġije": 1477,
      "ĠzÃ¡ÅĻÃŃ": 1478,
      "Ġhlubo": 1479,
      "Ġzk": 1480,
      "ĠmÅ¯Å¾e": 1481,
      "zÃ¡": 1482,
      "Ġpane": 1483,
      "lost": 1484,
      "ĠprÃ½": 1485,
      "sil": 1486,
      "ĠvÅ¡ecky": 1487,
      "Ġkri": 1488,
      "Ġzelen": 1489,
      "Ġper": 1490,
      "Ġuz": 1491,
      "ĠÅ¾ena": 1492,
      "ĠÄįasto": 1493,
      "Ã©ho": 1494,
      "Ġidi": 1495,
      "dnÃ¡": 1496,
      "ĠsvÄĽtÄĽ": 1497,
      "ĠposlednÃŃ": 1498,
      "Ġtvou": 1499,
      "Ġotec": 1500,
      "Ġsvoje": 1501,
      "Ġsch": 1502,
      "Å¡em": 1503,
      "ĠÅ¾ivota": 1504,
      "Ġtebou": 1505,
      "ĠvidÄĽl": 1506,
      "Ġsni": 1507,
      "ĠstÅĻÃŃb": 1508,
      "Ġanu": 1509,
      "Ġkdys": 1510,
      "Ġpy": 1511,
      "Ġych": 1512,
      "ran": 1513,
      "Å¡il": 1514,
      "Ġzapo": 1515,
      "ĠÅ¡ep": 1516,
      "ĠhledÃŃ": 1517,
      "ĠkvÄĽty": 1518,
      "ĠnÄĽj": 1519,
      "ĠvÅĻe": 1520,
      "ÄįnÃ©": 1521,
      "nÄĽjÅ¡ÃŃ": 1522,
      "ĠzÃ¡ÅĻ": 1523,
      "ĠnÃ¡rod": 1524,
      "Ġslou": 1525,
      "pen": 1526,
      "Ġplu": 1527,
      "nech": 1528,
      "Ġika": 1529,
      "ĠprÃ¡zd": 1530,
      "ĠpohÃ¡": 1531,
      "ĠÅĻa": 1532,
      "ĠÅ¾ha": 1533,
      "Ġdale": 1534,
      "ja": 1535,
      "bil": 1536,
      "Ġblou": 1537,
      "ĠÅ¡tÃŃ": 1538,
      "ĠÄįelo": 1539,
      "ĠpanÃŃ": 1540,
      "nutÃŃ": 1541,
      "ĠboÅ¾": 1542,
      "stva": 1543,
      "vÅ¯": 1544,
      "ĠtÅĻi": 1545,
      "Ġuji": 1546,
      "Ġklid": 1547,
      "Ġvrou": 1548,
      "ĠsvÃŃtÃŃ": 1549,
      "Ġztra": 1550,
      "Ġlesk": 1551,
      "kol": 1552,
      "ĠtÄĽlo": 1553,
      "Ġpole": 1554,
      "Ġyt": 1555,
      "Ġzach": 1556,
      "cy": 1557,
      "Ġame": 1558,
      "ĠzÅ¯": 1559,
      "Ġ2": 1560,
      "Å¾el": 1561,
      "Ġaku": 1562,
      "Ġudi": 1563,
      "ĠeÄį": 1564,
      "ĠzmÄĽ": 1565,
      "Ġodu": 1566,
      "Ġmoh": 1567,
      "Ġhud": 1568,
      "Ġzve": 1569,
      "Ġeji": 1570,
      "Ġsti": 1571,
      "ĠÄĽlo": 1572,
      "ĠÅĪad": 1573,
      "ĠpoÄį": 1574,
      "ĠnechÅ¥": 1575,
      "dÄĽla": 1576,
      "ĠlÃ¡sku": 1577,
      "ĠsmÃŃch": 1578,
      "Ġzt": 1579,
      "ĠstÄĽ": 1580,
      "Ġaha": 1581,
      "ĠstÃ¡l": 1582,
      "snÃŃ": 1583,
      "kli": 1584,
      "ĠsvojÃŃ": 1585,
      "ĠlÃ¡skou": 1586,
      "hlÃ©": 1587,
      "ĠtÅĻeba": 1588,
      "Ġemu": 1589,
      "Ġpouze": 1590,
      "Ġeta": 1591,
      "ĠjakÃ½": 1592,
      "Ġbys": 1593,
      "Ġaky": 1594,
      "Ġsku": 1595,
      "kÃ¡m": 1596,
      "Ġsvobo": 1597,
      "Ġzu": 1598,
      "ĠchvÃŃle": 1599,
      "Ġasi": 1600,
      "Ġkraji": 1601,
      "dat": 1602,
      "stvi": 1603,
      "Ġneza": 1604,
      "jen": 1605,
      "Ġavou": 1606,
      "Ġdej": 1607,
      "hal": 1608,
      "Ġouci": 1609,
      "Ġut": 1610,
      "Ġpomo": 1611,
      "stem": 1612,
      "Ġlidu": 1613,
      "Å¡enÃŃ": 1614,
      "ĠuÅ¾e": 1615,
      "Ġkni": 1616,
      "Ġmnoho": 1617,
      "ĠchvÃ¡": 1618,
      "ĠnÄĽho": 1619,
      "ĠdrÃ¡": 1620,
      "Ġtady": 1621,
      "ĠvdÄĽ": 1622,
      "Ġzouf": 1623,
      "vÃ¡n": 1624,
      "ĠbÃ½ti": 1625,
      "ĠdÅĻÃŃv": 1626,
      "Ġpotom": 1627,
      "ĠvelkÃ©": 1628,
      "ĠsvÄĽtlo": 1629,
      "ĠpÃŃsnÄĽ": 1630,
      "kle": 1631,
      "ĠpolÃŃ": 1632,
      "ĠiÅ¾i": 1633,
      "ĠbÃŃlÃ½": 1634,
      "Ġmoud": 1635,
      "Ġkry": 1636,
      "zko": 1637,
      "Ġjisk": 1638,
      "ĠvÅ¾dycky": 1639,
      "Ġsklo": 1640,
      "ĠnovÃ½": 1641,
      "Ġkon": 1642,
      "ĠsklÃ¡": 1643,
      "rÃ½ch": 1644,
      "ĠtÅĻ": 1645,
      "Ġkles": 1646,
      "Ġhlava": 1647,
      "Å¯Å¾": 1648,
      "ĠnÃ¡ru": 1649,
      "Ġyti": 1650,
      "pas": 1651,
      "Ġobraz": 1652,
      "Ġsny": 1653,
      "Ġesti": 1654,
      "tÃ½ch": 1655,
      "Ġdro": 1656,
      "ĠvelkÃ½": 1657,
      "Ġola": 1658,
      "Ġtedy": 1659,
      "ĠÄĽli": 1660,
      "ĠpÅ¯l": 1661,
      "Ġyl": 1662,
      "Ġhory": 1663,
      "ĠÅ¾eny": 1664,
      "dÃ½": 1665,
      "znÃŃ": 1666,
      "Ġvich": 1667,
      "ĠdÃ¡li": 1668,
      "Ġnevy": 1669,
      "Ġnese": 1670,
      "Ġpoj": 1671,
      "Ġdost": 1672,
      "ĠvlastnÃŃ": 1673,
      "ĠslyÅ¡": 1674,
      "he": 1675,
      "Ġrou": 1676,
      "Ġslzy": 1677,
      "kÅĻi": 1678,
      "ĠumÃŃ": 1679,
      "vajÃŃ": 1680,
      "Ġzby": 1681,
      "ĠkÃ½": 1682,
      "prÃ¡": 1683,
      "ĠinÄĽ": 1684,
      "ĠnÃ¡mi": 1685,
      "ĠsnÅ¯": 1686,
      "stÅĻÃŃ": 1687,
      "Ġnikdo": 1688,
      "dit": 1689,
      "Ġez": 1690,
      "Ġblu": 1691,
      "ĠvÃŃtr": 1692,
      "kud": 1693,
      "sÅ¯": 1694,
      "ĠvÃŃtÄĽz": 1695,
      "ĠiÅ¡e": 1696,
      "ĠÄĽj": 1697,
      "Ġzlato": 1698,
      "Ġkve": 1699,
      "ĠvÅ¡eho": 1700,
      "ĠsvatÃ½": 1701,
      "Å¾nÄĽ": 1702,
      "lenÃŃ": 1703,
      "vost": 1704,
      "Ġkrve": 1705,
      "ĠumÄĽ": 1706,
      "ĠjejÅ¾": 1707,
      "ĠblÃ¡": 1708,
      "Ġeka": 1709,
      "Ġpapr": 1710,
      "tit": 1711,
      "Ġstej": 1712,
      "Ġvys": 1713,
      "nych": 1714,
      "ĠmarnÄĽ": 1715,
      "stra": 1716,
      "ĠvÄĽru": 1717,
      "ĠjmÃ©": 1718,
      "ĠÄĽÅ¾i": 1719,
      "Ġzmi": 1720,
      "Ġahy": 1721,
      "kÅ¯m": 1722,
      "ĠitÄĽ": 1723,
      "hnou": 1724,
      "ĠmyÅ¡len": 1725,
      "Å¡ka": 1726,
      "Ġdruh": 1727,
      "Å¾o": 1728,
      "Ġmr": 1729,
      "chÃ¡zÃŃ": 1730,
      "Ġdivo": 1731,
      "ĠvaÅ¡e": 1732,
      "ĠbouÅĻ": 1733,
      "ĠstarÃ©": 1734,
      "Ġpocho": 1735,
      "Ġopu": 1736,
      "Ġbolest": 1737,
      "nostÃŃ": 1738,
      "tla": 1739,
      "ĠopÄĽt": 1740,
      "ĠÅ¡at": 1741,
      "Ġanou": 1742,
      "ÄįenÃŃ": 1743,
      "Ġposta": 1744,
      "Ġzahra": 1745,
      "Ġboha": 1746,
      "Ġtep": 1747,
      "ĠvidÃŃm": 1748,
      "ĠaÅĻe": 1749,
      "ĠhoÅĻÃŃ": 1750,
      "zou": 1751,
      "ĠdvÄĽ": 1752,
      "ÄįnÃ½": 1753,
      "Ġboji": 1754,
      "spo": 1755,
      "ĠpadÃ¡": 1756,
      "Ġpolo": 1757,
      "Ġcestu": 1758,
      "ĠemÄĽ": 1759,
      "Ġuku": 1760,
      "ĠsmÃ¡": 1761,
      "rÃ½m": 1762,
      "Ġym": 1763,
      "ĠneznÃ¡m": 1764,
      "ĠkaÅ¾dÃ©": 1765,
      "ĠvÅ¡ude": 1766,
      "lna": 1767,
      "tnÃ©": 1768,
      "ĠnÄĽkdy": 1769,
      "Ġskal": 1770,
      "ĠmÃ¡lo": 1771,
      "stvo": 1772,
      "Ġcos": 1773,
      "ĠzÅĻel": 1774,
      "Ġpat": 1775,
      "ĠmÃ©ho": 1776,
      "stech": 1777,
      "zni": 1778,
      "vrÃ¡": 1779,
      "Ġmatka": 1780,
      "ĠaÅĻ": 1781,
      "ĠÃºsmÄĽv": 1782,
      "ĠjistÄĽ": 1783,
      "ĠmilÃ½": 1784,
      "ĠkrÃ¡t": 1785,
      "Ġima": 1786,
      "Ġspa": 1787,
      "ĠXAXAXX": 1788,
      "ĠnÄĽmu": 1789,
      "rat": 1790,
      "lÃ©m": 1791,
      "ĠpÄĽk": 1792,
      "hÅ¯ru": 1793,
      "ÅĻa": 1794,
      "ĠrÃ¡na": 1795,
      "ĠÄĽle": 1796,
      "ĠnuÅ¾": 1797,
      "Ġbohu": 1798,
      "Ġotev": 1799,
      "ĠpÅĻem": 1800,
      "ĠsvatÃ©": 1801,
      "sce": 1802,
      "ĠlidÃ©": 1803,
      "tnÃŃ": 1804,
      "Ã¡me": 1805,
      "ĠzpÄĽt": 1806,
      "ĠdomÅ¯": 1807,
      "Ġur": 1808,
      "ĠnemÃ¡": 1809,
      "Ġiv": 1810,
      "Ġlist": 1811,
      "Ġkouz": 1812,
      "din": 1813,
      "ĠzlatÃ½": 1814,
      "sal": 1815,
      "ĠaÅ¡i": 1816,
      "mem": 1817,
      "ĠmlÃ¡dÃŃ": 1818,
      "Ġvele": 1819,
      "ĠpÅĻiÅ¡el": 1820,
      "ĠsÃŃly": 1821,
      "bal": 1822,
      "Ġole": 1823,
      "ĠprÃ¡vÄĽ": 1824,
      "Ġblesk": 1825,
      "ĠzpÃŃvÃ¡": 1826,
      "ĠsvÄĽtla": 1827,
      "ĠdÃ©": 1828,
      "ĠmÃŃsto": 1829,
      "ĠAXAX": 1830,
      "Ġjaro": 1831,
      "ĠkrÃ¡lov": 1832,
      "ĠpÅĻijde": 1833,
      "der": 1834,
      "or": 1835,
      "ĠnÄĽmÅ¾": 1836,
      "Ġsama": 1837,
      "Å¡ku": 1838,
      "ĠzÃ¡ÅĻi": 1839,
      "Ġmd": 1840,
      "ĠslÃ¡vy": 1841,
      "Ġsvoji": 1842,
      "ĠvÅ¡echno": 1843,
      "ĠandÄĽl": 1844,
      "ĠmilÃ¡": 1845,
      "Ġvzdo": 1846,
      "gi": 1847,
      "ĠhoÅĻe": 1848,
      "Ġkar": 1849,
      "ĠkÅĻÃŃÅ¾": 1850,
      "Ġolem": 1851,
      "ĠprÃ¡ci": 1852,
      "dÄĽj": 1853,
      "ĠneÅ¾li": 1854,
      "kne": 1855,
      "nÃ½mi": 1856,
      "ĠuÅ¡e": 1857,
      "Ġody": 1858,
      "ĠkrÃ¡sy": 1859,
      "ĠeÄįi": 1860,
      "ĠpÃŃsnÃŃ": 1861,
      "Ġatky": 1862,
      "ĠstÃŃny": 1863,
      "Ġrychle": 1864,
      "ĠÄĽtu": 1865,
      "sek": 1866,
      "ĠprÃ¡ce": 1867,
      "!...": 1868,
      "Ġfi": 1869,
      "Å¡nÄĽ": 1870,
      "ĠtisÃŃ": 1871,
      "ĠbouÅĻe": 1872,
      "ĠÅĻÃ¡": 1873,
      "Ġtrochu": 1874,
      "Ġzr": 1875,
      "Ġeh": 1876,
      "rech": 1877,
      "ĠdÄĽs": 1878,
      "ĠnaÅ¡ÃŃ": 1879,
      "Ġive": 1880,
      "Ġbohat": 1881,
      "ĠvÄĽÄįnÄĽ": 1882,
      "Ġvyh": 1883,
      "Ġenou": 1884,
      "Å¡ky": 1885,
      "ĠdÄĽt": 1886,
      "Ġadne": 1887,
      "ĠvzhÅ¯ru": 1888,
      "ckÃ©": 1889,
      "Ġyla": 1890,
      "Ġspolu": 1891,
      "Ġete": 1892,
      "Ġine": 1893,
      "ĠmoÅ¾": 1894,
      "Ġesk": 1895,
      "Å¾eh": 1896,
      "Ġhovo": 1897,
      "Ġeno": 1898,
      "Ġota": 1899,
      "Ġzved": 1900,
      "Ġoby": 1901,
      "Ġnena": 1902,
      "cu": 1903,
      "Ġbuj": 1904,
      "Ġsyn": 1905,
      "ĠkvÄĽtÅ¯": 1906,
      "div": 1907,
      "ĠvÄĽr": 1908,
      "Ġoc": 1909,
      "Ġslovo": 1910,
      "ĠÅ¡ko": 1911,
      "ĠtrÅ¯": 1912,
      "Ġmilen": 1913,
      "Ġnapo": 1914,
      "ĠÅ¾Ã¡r": 1915,
      "Å¾ÃŃm": 1916,
      "ĠnevÃŃ": 1917,
      "Äįit": 1918,
      "stup": 1919,
      "ĠpovÄĽ": 1920,
      "Ġbol": 1921,
      "Ġbudu": 1922,
      "Ġkoru": 1923,
      "Ġhospo": 1924,
      "Ġbyli": 1925,
      "bky": 1926,
      "Ġct": 1927,
      "ĠlidÃŃ": 1928,
      "Ġzvolna": 1929,
      "Ġmilu": 1930,
      "nym": 1931,
      "Ġory": 1932,
      "Ġtolik": 1933,
      "ĠtvÃ¡ÅĻe": 1934,
      "ĠknÃŃ": 1935,
      "ĠmÃ¡Å¡": 1936,
      "ĠznÄĽ": 1937,
      "Ġducha": 1938,
      "Ġzdra": 1939,
      "ĠjakÃ©": 1940,
      "skÃ©ho": 1941,
      "ĠhlÃ¡": 1942,
      "Ġblaho": 1943,
      "ĠpÅĻij": 1944,
      "Ġbyly": 1945,
      "Ġave": 1946,
      "Ġcit": 1947,
      "ĠdolÅ¯": 1948,
      "rk": 1949,
      "ĠtvÃ¡ÅĻÃŃ": 1950,
      "ĠhruÄı": 1951,
      "ĠohnÄĽ": 1952,
      "ĠzaÄį": 1953,
      "ĠzÅĻÃŃm": 1954,
      "ĠzrÃ¡": 1955,
      "cko": 1956,
      "Ġmysli": 1957,
      "del": 1958,
      "Ġcha": 1959,
      "Ġonu": 1960,
      "Ġopo": 1961,
      "ĠÄįekÃ¡": 1962,
      "ĠtvÃ¡ÅĻi": 1963,
      "Ġite": 1964,
      "Ġzraky": 1965,
      "Ġedi": 1966,
      "XB": 1967,
      "Ġera": 1968,
      "Ġbeze": 1969,
      "Ġprach": 1970,
      "ĠvÅ¡ich": 1971,
      "valy": 1972,
      "ĠvÅ¡ichni": 1973,
      "plÃ¡": 1974,
      "Ġnel": 1975,
      "ĠvÄįe": 1976,
      "ĠÅ¾lu": 1977,
      "Ġkrva": 1978,
      "Ġsve": 1979,
      "ĠaÅĪ": 1980,
      "ĠeÅ¾i": 1981,
      "nula": 1982,
      "Å¾Ã¡": 1983,
      "bor": 1984,
      "tila": 1985,
      "ĠkvÄĽ": 1986,
      "Ġtouhy": 1987,
      "vlÃ¡": 1988,
      "Ġran": 1989,
      "klo": 1990,
      "Ġkamen": 1991,
      "ĠnichÅ¾": 1992,
      "vila": 1993,
      "ĠÅ¡a": 1994,
      "Ãº": 1995,
      "Ġih": 1996,
      "Ġdoby": 1997,
      "ĠmÃŃr": 1998,
      "ĠmeÄį": 1999,
      "Ġsr": 2000,
      "stil": 2001,
      "Ġymi": 2002,
      "Ġbohem": 2003,
      "Å¾nÃ©": 2004,
      "ĠlÃ¡sce": 2005,
      "ĠtisÃŃc": 2006,
      "ĠiÅ¡": 2007,
      "Ġsvit": 2008,
      "Ġprch": 2009,
      "ABAB": 2010,
      "Ġvon": 2011,
      "vÃ©ho": 2012,
      "ĠptÃ¡k": 2013,
      "ĠskrÃ½": 2014,
      "Ġelo": 2015,
      "pro": 2016,
      "Ġosi": 2017,
      "Ġsebou": 2018,
      "Å¾it": 2019,
      "Ġprsou": 2020,
      "Ġvlny": 2021,
      "ĠpÅ¯j": 2022,
      "ĠÄįernÃ©": 2023,
      "Ġkdes": 2024,
      "ĠdÄĽv": 2025,
      "sni": 2026,
      "ĠmyÅ¡lÃ©": 2027,
      "Ġzbra": 2028,
      "ĠmÄĽsta": 2029,
      "Ġvyso": 2030,
      "tko": 2031,
      "Ġhlubi": 2032,
      "Ġlesy": 2033,
      "ĠztrÃ¡": 2034,
      "ĠtÅĻpy": 2035,
      "Ġpodo": 2036,
      "ĠmrÃ¡": 2037,
      "ĠnocÃŃ": 2038,
      "ĠÄı": 2039,
      "Ġbratr": 2040,
      "ĠvÅ¯nÄĽ": 2041,
      "ĠjinÃ©": 2042,
      "Ġobzo": 2043,
      "ĠkdoÅ¾": 2044,
      "ĠnaÅ¡ich": 2045,
      "ĠdÃ½m": 2046,
      "Ġud": 2047,
      "Ã¡men": 2048,
      "ĠmÄĽk": 2049,
      "chÅ¯": 2050,
      "Ġzdvi": 2051,
      "ĠsladkÃ©": 2052,
      "sÃŃm": 2053,
      "Ġasti": 2054,
      "Ġhoj": 2055,
      "Ġska": 2056,
      "Ġsnu": 2057,
      "man": 2058,
      "zra": 2059,
      "Ġspat": 2060,
      "Ġik": 2061,
      "neÅ¡": 2062,
      "ĠmÄĽsÃŃc": 2063,
      "Ġiky": 2064,
      "ĠzmÃŃ": 2065,
      "Ġtan": 2066,
      "Ġpev": 2067,
      "ĠsnÃŃh": 2068,
      "ĠÅ¡um": 2069,
      "nÃ¡nÃŃ": 2070,
      "Ġdosud": 2071,
      "Ġznova": 2072,
      "ĠvÃ½Å¡": 2073,
      "Ġnebu": 2074,
      "Ġhrad": 2075,
      "ĠvlÃŃ": 2076,
      "Ġohu": 2077,
      "skÃ½m": 2078,
      "Ġmilost": 2079,
      "ĠkrÃ¡snÃ©": 2080,
      "Ġzdo": 2081,
      "Ġoce": 2082,
      "letÃŃ": 2083,
      "ÅĻela": 2084,
      "ĠpÅĻÃŃro": 2085,
      "dila": 2086,
      "ĠzvÃŃ": 2087,
      "nici": 2088,
      "tÄĽl": 2089,
      "Ġouti": 2090,
      "ĠpojÄı": 2091,
      "Ġival": 2092,
      "ĠyÅ¡e": 2093,
      "Ġpropa": 2094,
      "ĠtÄĽla": 2095,
      "ĠeÅĻi": 2096,
      "Ġtakto": 2097,
      "Ġinou": 2098,
      "skÃ©m": 2099,
      "ĠsvÄĽtem": 2100,
      "Ġzjev": 2101,
      "ĠvÃ½Å¡e": 2102,
      "ĠvÄĽky": 2103,
      "teli": 2104,
      "Ġime": 2105,
      "Ġply": 2106,
      "hod": 2107,
      "vod": 2108,
      "ĠhoÅĻ": 2109,
      "ĠtÅĻÃŃ": 2110,
      "ĠslyÅ¡ÃŃ": 2111,
      "Ġohe": 2112,
      "ĠaÅ¡": 2113,
      "Ġperu": 2114,
      "jat": 2115,
      "ĠprÅ¯": 2116,
      "losti": 2117,
      "Ġuka": 2118,
      "ĠkÅĻÃŃdla": 2119,
      "Ġpta": 2120,
      "ĠnaÅ¡i": 2121,
      "Ġchmu": 2122,
      "ĠblÃŃÅ¾": 2123,
      "tÅĻe": 2124,
      "Ġklen": 2125,
      "ĠusmÃŃ": 2126,
      "Ġpozdra": 2127,
      "Ġeb": 2128,
      "ĠnesmÃŃ": 2129,
      "Ġjedna": 2130,
      "Ġfa": 2131,
      "ĠmÃ½m": 2132,
      "Ġpal": 2133,
      "Ġvody": 2134,
      "Ġchla": 2135,
      "ĠÅ¡la": 2136,
      "cela": 2137,
      "ĠÄįasem": 2138,
      "ĠhvÄĽzda": 2139,
      "ĠslyÅ¡e": 2140,
      "ĠmojÃŃ": 2141,
      "Ġmodlit": 2142,
      "ĠlÃŃce": 2143,
      "Ġaru": 2144,
      "Ġpar": 2145,
      "ĠkrvÃŃ": 2146,
      "pÅ¯": 2147,
      "kÃ¡nÃŃ": 2148,
      "Ġiji": 2149,
      "ĠmÃŃt": 2150,
      "ĠcelÃ¡": 2151,
      "roz": 2152,
      "Ġstat": 2153,
      "ĠsnÄĽnÃŃ": 2154,
      "Ġval": 2155,
      "ĠtoÅ¾": 2156,
      "ĠmÄĽsÃŃ": 2157,
      "Å¾nÃ½": 2158,
      "ĠvstÅĻÃŃ": 2159,
      "ĠhnÃŃ": 2160,
      "Ġbal": 2161,
      "ĠsedÃŃ": 2162,
      "ĠtÃ½": 2163,
      "Ġvzal": 2164,
      "Ġubo": 2165,
      "bnÃ©": 2166,
      "ĠnaÄį": 2167,
      "Ã½vÃ¡": 2168,
      "Ġdomo": 2169,
      "Ġuchu": 2170,
      "Ġotro": 2171,
      "dra": 2172,
      "Ġstru": 2173,
      "ĠvzdÃ¡": 2174,
      "ĠklÃ¡": 2175,
      "ĠvstÅĻÃŃc": 2176,
      "ĠchÃ½": 2177,
      "Ġobje": 2178,
      "nÃ¡Å¡ÃŃ": 2179,
      "ĠzaÅ¡": 2180,
      "novÃ©": 2181,
      "ĠnevÃŃm": 2182,
      "Ġspi": 2183,
      "Ġvza": 2184,
      "ĠmluvÃŃ": 2185,
      "zeÅĪ": 2186,
      "ĠmyslÃŃ": 2187,
      "ĠstarÃ¡": 2188,
      "Ġast": 2189,
      "ĠslÃ¡va": 2190,
      "lez": 2191,
      "bra": 2192,
      "Ġrov": 2193,
      "Ġusta": 2194,
      "ĠjakÃ¡": 2195,
      "Ġopi": 2196,
      "Ġned": 2197,
      "Ġvyz": 2198,
      "ĠslavÃŃ": 2199,
      "Ġcesty": 2200,
      "Ġstrom": 2201,
      "valo": 2202,
      "Ġyli": 2203,
      "ĠÅ¾ije": 2204,
      "Ġnelze": 2205,
      "Ġslza": 2206,
      "Ġeje": 2207,
      "Ġproud": 2208,
      "nat": 2209,
      "ĠÅĻeÄį": 2210,
      "Ġary": 2211,
      "Ġret": 2212,
      "Ġrozp": 2213,
      "Å¡ek": 2214,
      "Ġver": 2215,
      "ĠcÃŃtÃŃ": 2216,
      "ĠÅ¾iv": 2217,
      "Ġotce": 2218,
      "Ġvsta": 2219,
      "ĠdÃŃvÃ¡": 2220,
      "Ġtouha": 2221,
      "nila": 2222,
      "vad": 2223,
      "ĠaÅ¾i": 2224,
      "ĠjinÃ½": 2225,
      "ĠpravÃŃ": 2226,
      "cit": 2227,
      "ĠdÃ¡m": 2228,
      "ĠdÃ½ch": 2229,
      "kone": 2230,
      "ĠmÄĽla": 2231,
      "Ġkrok": 2232,
      "ĠÄįele": 2233,
      "el": 2234,
      "ĠbÃŃlÃ¡": 2235,
      "Ġmohu": 2236,
      "hra": 2237,
      "Ġcestou": 2238,
      "Ġtisk": 2239,
      "ĠoheÅĪ": 2240,
      "ĠnÄĽco": 2241,
      "Ġslunci": 2242,
      "Ġjara": 2243,
      "Ġudu": 2244,
      "ĠzÃ¡ÅĻe": 2245,
      "lila": 2246,
      "vÄĽl": 2247,
      "ABBX": 2248,
      "Äįet": 2249,
      "nko": 2250,
      "Äįkou": 2251,
      "Ġohni": 2252,
      "Ġkterou": 2253,
      "Ġkterak": 2254,
      "Ġdole": 2255,
      "Ġtvrd": 2256,
      "Ġzav": 2257,
      "ĠdobrÃ©": 2258,
      "Ġzvy": 2259,
      "Ġoblo": 2260,
      "str": 2261,
      "ĠjÃŃÅ¾": 2262,
      "Ġmatky": 2263,
      "vati": 2264,
      "ĠmoÅĻi": 2265,
      "kat": 2266,
      "Ġhrobu": 2267,
      "Ġovat": 2268,
      "liÅ¡": 2269,
      "ĠdlouhÃ©": 2270,
      "Ġokam": 2271,
      "Ġkdysi": 2272,
      "Ġobu": 2273,
      "stro": 2274,
      "ÅĻenÃŃ": 2275,
      "Ġhodi": 2276,
      "Ġdosti": 2277,
      "ĠkÅ¯": 2278,
      "ĠbÄĽda": 2279,
      "Ġkmi": 2280,
      "Ġasky": 2281,
      "Å¾enÃŃ": 2282,
      "Ġvez": 2283,
      "jel": 2284,
      "Ġvedle": 2285,
      "Ã¡c": 2286,
      "on": 2287,
      "ĠplnÃ½": 2288,
      "zal": 2289,
      "Ġplach": 2290,
      "ĠsvÃ©mu": 2291,
      "ĠvÅ¡echny": 2292,
      "ĠbouÅĻÃŃ": 2293,
      "Ġsho": 2294,
      "Ġvzduch": 2295,
      "ĠtvÃ©ho": 2296,
      "Ġdoma": 2297,
      "tajÃŃ": 2298,
      "ĠÃºsta": 2299,
      "dej": 2300,
      "Ġzni": 2301,
      "Ġuce": 2302,
      "ĠtÄĽm": 2303,
      "Ġara": 2304,
      "Ġzti": 2305,
      "ĠnÃ¡d": 2306,
      "Ġnev": 2307,
      "Ġlep": 2308,
      "ĠonÄĽ": 2309,
      "Ġys": 2310,
      "ĠbyÅ¥": 2311,
      "ĠsladkÃ½": 2312,
      "kro": 2313,
      "ĠhÅĻe": 2314,
      "ĠdÃ½": 2315,
      "Ġcelou": 2316,
      "ĠÄįela": 2317,
      "Ġony": 2318,
      "ĠskÃ¡ly": 2319,
      "ĠmladÃ½": 2320,
      "Ġvna": 2321,
      "Ġhlasem": 2322,
      "Ġ,": 2323,
      "ĠiÅ¾e": 2324,
      "ckÃ½": 2325,
      "leh": 2326,
      "Ġminu": 2327,
      "Ġhej": 2328,
      "ĠkÃ©": 2329,
      "Ġamen": 2330,
      "ĠyÅ¡": 2331,
      "ĠhlavÄĽ": 2332,
      "ĠkaÅ¾dÃ¡": 2333,
      "lnÃŃ": 2334,
      "tost": 2335,
      "Ġkap": 2336,
      "ĠklidnÄĽ": 2337,
      "ĠodÄĽ": 2338,
      "ĠcÃŃsa": 2339,
      "Ġiz": 2340,
      "Ġvzdech": 2341,
      "Ġkonec": 2342,
      "ĠmnohÃ½": 2343,
      "dr": 2344,
      "Ġide": 2345,
      "ĠstromÅ¯": 2346,
      "Ġnohou": 2347,
      "koli": 2348,
      "Ġnaz": 2349,
      "Ġchvil": 2350,
      "pÅĻe": 2351,
      "ĠovÄĽ": 2352,
      "Ġrty": 2353,
      "ĠmÃ©m": 2354,
      "Ġstou": 2355,
      "ĠsvÄĽÅ¾ÃŃ": 2356,
      "mnÄĽ": 2357,
      "ĠstÃŃnu": 2358,
      "hled": 2359,
      "Ġvlas": 2360,
      "Ġtre": 2361,
      "Ġusi": 2362,
      "Ġrve": 2363,
      "dÄĽli": 2364,
      "ĠdÃ¡lky": 2365,
      "Ġzpo": 2366,
      "Ġkraje": 2367,
      "ĠkÃ©Å¾": 2368,
      "Ġylo": 2369,
      "ĠÅĻÃŃci": 2370,
      "Å¯v": 2371,
      "in": 2372,
      "Ġesa": 2373,
      "ĠvÄĽÄįnÃ©": 2374,
      "hÃ½ch": 2375,
      "ĠÄĽv": 2376,
      "ĠdÃ¡vÃ¡": 2377,
      "ĠhledÃ¡": 2378,
      "Ġtmy": 2379,
      "poÅĪ": 2380,
      "Ġkva": 2381,
      "ĠdruhÃ©": 2382,
      "ĠvyÅ¡": 2383,
      "Ġvzdy": 2384,
      "mlu": 2385,
      "ĠiÄįka": 2386,
      "Ġzro": 2387,
      "ĠnadÄĽje": 2388,
      "Ġedu": 2389,
      "Ġep": 2390,
      "Ġruky": 2391,
      "ĠjehoÅ¾": 2392,
      "ĠkrÃ¡snÃ¡": 2393,
      "Ġiru": 2394,
      "ĠmuÅ¾i": 2395,
      "cel": 2396,
      "Ġsoud": 2397,
      "sen": 2398,
      "dajÃŃ": 2399,
      "ĠÄĽny": 2400,
      "ĠhleÄı": 2401,
      "ĠaspoÅĪ": 2402,
      "ĠlidskÃ©": 2403,
      "ĠhnÃŃz": 2404,
      "lnÄĽ": 2405,
      "ĠjarnÃŃ": 2406,
      "Ġramen": 2407,
      "Ġtako": 2408,
      "Ġrozum": 2409,
      "ĠtvÃ½m": 2410,
      "ĠkrÃ¡ÄįÃŃ": 2411,
      "ĠdobrÃ½": 2412,
      "Ġvod": 2413,
      "Ġovu": 2414,
      "Ġeru": 2415,
      "dost": 2416,
      "ju": 2417,
      "ÅĻenÃ©": 2418,
      "ĠzÅ¯sta": 2419,
      "bnÃŃ": 2420,
      "ĠhlÃŃ": 2421,
      "ĠtvÃ©m": 2422,
      "lÃ©t": 2423,
      "ĠtÃ¡h": 2424,
      "Ġesu": 2425,
      "ĠvÃ¡l": 2426,
      "prv": 2427,
      "ĠzÃ¡pas": 2428,
      "ĠplnÃ©": 2429,
      "ĠdrahÃ©": 2430,
      "ec": 2431,
      "chal": 2432,
      "lÃŃÅ¾ÃŃ": 2433,
      "ĠyÅ¡i": 2434,
      "tnÃ½": 2435,
      "ĠblaÅ¾en": 2436,
      "ĠsÃŃla": 2437,
      "Ġpravil": 2438,
      "Ġini": 2439,
      "ĠkÃ¡men": 2440,
      "Ġudy": 2441,
      "Ġetu": 2442,
      "ĠzatÃŃm": 2443,
      "BC": 2444,
      "ĠrÃ¡no": 2445,
      "Ġvlasy": 2446,
      "ÅĻo": 2447,
      "Ġasem": 2448,
      "ĠskvÄĽ": 2449,
      "ĠtÃ©to": 2450,
      "Ġsmys": 2451,
      "ĠmladÃ©": 2452,
      "kve": 2453,
      "Ġprosto": 2454,
      "ĠdvÃ©": 2455,
      "Ġoda": 2456,
      "ĠÄĽz": 2457,
      "vec": 2458,
      "Äįin": 2459,
      "Ġpest": 2460,
      "dky": 2461,
      "ĠÃºst": 2462,
      "Ġdobro": 2463,
      "Ġizi": 2464,
      "ĠmÃ¡me": 2465,
      "Ġoly": 2466,
      "ĠdrahÃ¡": 2467,
      "Ġede": 2468,
      "ĠzdrÃ¡": 2469,
      "kÅĻik": 2470,
      "ĠlÃ©ta": 2471,
      "kala": 2472,
      "ĠÅ¾il": 2473,
      "Ġzka": 2474,
      "ĠÄįest": 2475,
      "ĠzÃŃtra": 2476,
      "ĠcÃŃtÃŃm": 2477,
      "Ġasa": 2478,
      "ĠuÅ¾i": 2479,
      "Ġatu": 2480,
      "sel": 2481,
      "Ġpry": 2482,
      "Ġjakby": 2483,
      "ĠÅ¾ÃŃt": 2484,
      "Ġpil": 2485,
      "ĠrÃ¡ny": 2486,
      "Ġpravda": 2487,
      "Å¡nÃ©": 2488,
      "Ġnekone": 2489,
      "ĠoltÃ¡": 2490,
      "ĠnemÄĽ": 2491,
      "hnu": 2492,
      "Ġkmen": 2493,
      "ĠÄįem": 2494,
      "ĠtichÃ©": 2495,
      "Ġpodzi": 2496,
      "ĠvÃŃÅ¡": 2497,
      "ĠslyÅ¡el": 2498,
      "Ġnav": 2499,
      "dala": 2500,
      "ĠrÅ¯Å¾ÃŃ": 2501,
      "Ġyne": 2502,
      "Ġist": 2503,
      "Ġjdu": 2504,
      "Ġzam": 2505,
      "ĠvÄĽtÅ¡ÃŃ": 2506,
      "ĠvÄĽtr": 2507,
      "ĠplÃ¡Äį": 2508,
      "Ġnade": 2509,
      "Ġnebyl": 2510,
      "Ġista": 2511,
      "Ġedy": 2512,
      "ĠÄĽtem": 2513,
      "ĠÄįt": 2514,
      "ĠloÄı": 2515,
      "Ġalu": 2516,
      "ĠpoÅ¾eh": 2517,
      "ĠÄĽk": 2518,
      "ĠjÃŃmÅ¾": 2519,
      "ĠtisÃŃce": 2520,
      "ĠpÅĻÃŃliÅ¡": 2521,
      "Ġslov": 2522,
      "tele": 2523,
      "rÃ©m": 2524,
      "dek": 2525,
      "ĠmuÅ¾e": 2526,
      "ĠtichÃ½": 2527,
      "Ġchat": 2528,
      "ĠzÃ¡pa": 2529,
      "Ġjinak": 2530,
      "ĠjichÅ¾": 2531,
      "ĠmotÃ½": 2532,
      "Ġznovu": 2533,
      "ĠchceÅ¡": 2534,
      "Ġidu": 2535,
      "tom": 2536,
      "snÃ©": 2537,
      "ĠÄĽjÅ¡i": 2538,
      "Ġbrzy": 2539,
      "ĠpovÃŃ": 2540,
      "vej": 2541,
      "Ġokna": 2542,
      "Ġradosti": 2543,
      "ĠÄįÃ¡": 2544,
      "Ġ1800": 2545,
      "Ġoha": 2546,
      "van": 2547,
      "ĠÄįernÃ½": 2548,
      "CBC": 2549,
      "Ġamy": 2550,
      "Ġsrdcem": 2551,
      "ĠkolÃ©": 2552,
      "ĠzÃ¡vo": 2553,
      "ĠdÅ¯m": 2554,
      "tnÄĽ": 2555,
      "ĠmilÃ©": 2556,
      "Å¾ik": 2557,
      "ĠmalÃ½": 2558,
      "Ġoch": 2559,
      "Ġvln": 2560,
      "cenÃ©": 2561,
      "Ġtento": 2562,
      "ĠmÃŃru": 2563,
      "lÃ©ho": 2564,
      "Ġspou": 2565,
      "dli": 2566,
      "Ġau": 2567,
      "ĠdruhÃ½": 2568,
      "ĠbÃ¡snÃŃ": 2569,
      "ĠvÄĽkÅ¯": 2570,
      "ĠÄĽta": 2571,
      "Ġdoko": 2572,
      "Ġjazy": 2573,
      "Å¡te": 2574,
      "Äįnou": 2575,
      "Ġroste": 2576,
      "ĠobrÃ¡": 2577,
      "Ġman": 2578,
      "rÃ¡ch": 2579,
      "Å¾ka": 2580,
      "Ġcesta": 2581,
      "ĠrytÃŃ": 2582,
      "Ġosu": 2583,
      "ĠlÅ¯": 2584,
      "jÃŃm": 2585,
      "ĠkÅĻÃŃd": 2586,
      "Ġstvo": 2587,
      "ĠÄįech": 2588,
      "Ġprapo": 2589,
      "ĠÅĻeÄįi": 2590,
      "Ġpovz": 2591,
      "Ġhar": 2592,
      "ĠkvÃŃtÃŃ": 2593,
      "Äįer": 2594,
      "Ġhlad": 2595,
      "klÃ¡": 2596,
      "Ġblanky": 2597,
      "ĠXXABAB": 2598,
      "Ġmoji": 2599,
      "tru": 2600,
      "pÃ½": 2601,
      "Ġdle": 2602,
      "Ġnapos": 2603,
      "Ġcti": 2604,
      "ĠkrÃ¡snÃ½": 2605,
      "Å¡ÃŃch": 2606,
      "ĠbudeÅ¡": 2607,
      "Ġstromy": 2608,
      "ĠuÅ¡": 2609,
      "ĠaÄįe": 2610,
      "ĠrÃ¡j": 2611,
      "Ġdny": 2612,
      "Ġrodi": 2613,
      "Ġuhu": 2614,
      "Ġboje": 2615,
      "mÄĽl": 2616,
      "ĠchodÃŃ": 2617,
      "ĠpÃŃsni": 2618,
      "Ġhloubi": 2619,
      "ĠÅĻekl": 2620,
      "ĠÄĽna": 2621,
      "Ġedni": 2622,
      "Ġedne": 2623,
      "Ġdarmo": 2624,
      "jeÅ¡": 2625,
      "Å¾ky": 2626,
      "Ġprachu": 2627,
      "Ġdve": 2628,
      "Ġtrp": 2629,
      "Ġsme": 2630,
      "Ġovo": 2631,
      "Ġhloub": 2632,
      "ĠkrÃ¡li": 2633,
      "Ġvti": 2634,
      "Äįej": 2635,
      "Å¾enÃ©": 2636,
      "Ġvede": 2637,
      "brÃ¡": 2638,
      "mÃ½": 2639,
      "snÃ½": 2640,
      "ĠpÅĻÃŃÅ¡tÃŃ": 2641,
      "ĠlesÅ¯": 2642,
      "Ġkal": 2643,
      "ĠvÃŃru": 2644,
      "ĠchrÃ¡m": 2645,
      "ĠkonÄĽ": 2646,
      "dÃ¡m": 2647,
      "Ġiha": 2648,
      "ĠpÅĻede": 2649,
      "ĠzÃ¡ko": 2650,
      "nami": 2651,
      "nosÅ¥": 2652,
      "ĠdobÄĽ": 2653,
      "cet": 2654,
      "vÃŃrÃ¡": 2655,
      "Ġtouhou": 2656,
      "ĠchÃ¡": 2657,
      "ĠbratÅĻÃŃ": 2658,
      "ĠzdÃ¡lo": 2659,
      "ÅĻÃŃt": 2660,
      "Ġrti": 2661,
      "Ġonen": 2662,
      "lku": 2663,
      "ĠlistÃŃ": 2664,
      "ĠmajÃŃ": 2665,
      "ĠhnÄĽv": 2666,
      "Ġlze": 2667,
      "ÄįÃ¡": 2668,
      "Ġichu": 2669,
      "Ġjiz": 2670,
      "Ġmrak": 2671,
      "Ġzvuk": 2672,
      "Ġdou": 2673,
      "ĠnedÃ¡": 2674,
      "Ġmilosti": 2675,
      "es": 2676,
      "zku": 2677,
      "ĠÅ¾eh": 2678,
      "ĠdÄĽdi": 2679,
      "ĠslyÅ¡ÃŃm": 2680,
      "ĠpamÄĽ": 2681,
      "ĠenÄĽ": 2682,
      "ĠÄįasu": 2683,
      "ÅĻila": 2684,
      "ĠABBACC": 2685,
      "ĠmÄĽsto": 2686,
      "ĠÅ¡umÃŃ": 2687,
      "Ġhrudi": 2688,
      "mr": 2689,
      "ĠÄĽku": 2690,
      "Ġohy": 2691,
      "ĠdÃŃvka": 2692,
      "Ġoky": 2693,
      "Ġtruch": 2694,
      "Ġzrakem": 2695,
      "ĠnÃ¡ruÄį": 2696,
      "esi": 2697,
      "ĠsÃŃlu": 2698,
      "Ġstaro": 2699,
      "rnÃ¡": 2700,
      "dl": 2701,
      "rnou": 2702,
      "ĠcÃŃtil": 2703,
      "ÄįnÃ¡": 2704,
      "ĠknÃŃÅ¾e": 2705,
      "Ġuna": 2706,
      "Ġlesa": 2707,
      "ĠvÄĽÄįnÃ½": 2708,
      "ĠouÅ¾i": 2709,
      "Ġpov": 2710,
      "ĠkteÅĻÃŃ": 2711,
      "Ġama": 2712,
      "Ġposud": 2713,
      "Ġzapla": 2714,
      "Ġhas": 2715,
      "Ġjmen": 2716,
      "ĠsplÃ½": 2717,
      "Ġjestli": 2718,
      "ĠtenkrÃ¡t": 2719,
      "Ġuse": 2720,
      "lesk": 2721,
      "Ġnesly": 2722,
      "ĠÅ¡li": 2723,
      "bit": 2724,
      "Å¡lo": 2725,
      "ĠchvÄĽje": 2726,
      "ĠdnÅ¯": 2727,
      "ĠÄıÃ¡": 2728,
      "ĠrÃ¡z": 2729,
      "ĠbÅĻehu": 2730,
      "chÃ½": 2731,
      "Ġzbu": 2732,
      "ĠsvÄĽtu": 2733,
      "ĠvÅ¯le": 2734,
      "hli": 2735,
      "Ġcen": 2736,
      "et": 2737,
      "Ġuvi": 2738,
      "ĠpÃ¡ni": 2739,
      "ĠrozkoÅ¡": 2740,
      "las": 2741,
      "ĠrÃ¡zem": 2742,
      "ĠmalÃ©": 2743,
      "Äįa": 2744,
      "ĠÅĪa": 2745,
      "ĠnaÅĪ": 2746,
      "ĠkrÃ¡se": 2747,
      "ĠplÃ¡Äįe": 2748,
      "ĠvzÃ¡c": 2749,
      "ĠÅĪader": 2750,
      "stÃ¡vÃ¡": 2751,
      "Ġrod": 2752,
      "ck": 2753,
      "tÃ¡m": 2754,
      "Ġmysl": 2755,
      "ĠblÃ½": 2756,
      "Ġmrtvo": 2757,
      "Ġoho": 2758,
      "Ġlidstva": 2759,
      "ĠAXAA": 2760,
      "lan": 2761,
      "pit": 2762,
      "ĠXAABBX": 2763,
      "ĠrÅ¯Å¾o": 2764,
      "Ġatku": 2765,
      "chvÄĽ": 2766,
      "Ġduchu": 2767,
      "ĠpryÄį": 2768,
      "Ġout": 2769,
      "Ġspas": 2770,
      "Ġbudouc": 2771,
      "Ġpravdu": 2772,
      "mÄĽnÃŃ": 2773,
      "Ġnechce": 2774,
      "ĠoÄįÃŃch": 2775,
      "ĠvÅ¯kol": 2776,
      "ĠjmÃ©no": 2777,
      "Ġklam": 2778,
      "Ġprobu": 2779,
      "Ġrok": 2780,
      "Ġednou": 2781,
      "Ġchle": 2782,
      "ĠvÅ¡emi": 2783,
      "Ġscho": 2784,
      "ĠsvatÃ¡": 2785,
      "Ġrost": 2786,
      "Ġlese": 2787,
      "Ġlidem": 2788,
      "Ġenu": 2789,
      "Ġvenku": 2790,
      "ĠÅ¾el": 2791,
      "Ġuky": 2792,
      "pÄĽl": 2793,
      "Ġaze": 2794,
      "Ġhoch": 2795,
      "Ġuni": 2796,
      "Ġdav": 2797,
      "znÃ©": 2798,
      "ĠkrÅ¯": 2799,
      "Ġkoste": 2800,
      "ĠkrÃ¡le": 2801,
      "Ġset": 2802,
      "dka": 2803,
      "ĠovÅ¡em": 2804,
      "Ġsma": 2805,
      "ĠpÃ½ch": 2806,
      "Ġzasta": 2807,
      "bÃ½": 2808,
      "Ġida": 2809,
      "ĠjÃŃt": 2810,
      "ech": 2811,
      "ĠjasnÃ©": 2812,
      "Ġnevin": 2813,
      "klad": 2814,
      "Ġnak": 2815,
      "ĠklonÃŃ": 2816,
      "ĠvalÃŃ": 2817,
      "Ġzdi": 2818,
      "deme": 2819,
      "Ġzadu": 2820,
      "kajÃŃ": 2821,
      "Ġtla": 2822,
      "tor": 2823,
      "ĠvÃ½Å¡i": 2824,
      "Ġzhas": 2825,
      "Ġahu": 2826,
      "penÃŃ": 2827,
      "Ġsladce": 2828,
      "zÃŃm": 2829,
      "Ġec": 2830,
      "ĠdÄĽtÃŃ": 2831,
      "Ġvzne": 2832,
      "nouti": 2833,
      "ĠtÄĽÅ¾kÃ©": 2834,
      "nala": 2835,
      "Ġklet": 2836,
      "ĠzvlÃ¡": 2837,
      "luje": 2838,
      "lenÃ©": 2839,
      "cnÄĽ": 2840,
      "kot": 2841,
      "Ġodpu": 2842,
      "rom": 2843,
      "jÃŃt": 2844,
      "ĠhrobÄĽ": 2845,
      "ĠiÅ¡i": 2846,
      "ĠpÅĻiÅ¡la": 2847,
      "ĠpÃ©": 2848,
      "Äįna": 2849,
      "bnÃ½": 2850,
      "Ġpodzim": 2851,
      "Ġpokoj": 2852,
      "ĠdÅ¯vÄĽ": 2853,
      "ĠrÃ¡da": 2854,
      "ĠiÄįku": 2855,
      "Ġechu": 2856,
      "ĠzvonÃŃ": 2857,
      "ĠmizÃŃ": 2858,
      "ĠiÄįky": 2859,
      "ĠzÃ¡hy": 2860,
      "ĠpÃ¡r": 2861,
      "slo": 2862,
      "ĠsmutnÄĽ": 2863,
      "vin": 2864,
      "Äįila": 2865,
      "Ġety": 2866,
      "ĠdÃ¡t": 2867,
      "Ġotu": 2868,
      "Ġasne": 2869,
      "ĠskÅĻi": 2870,
      "Ġir": 2871,
      "met": 2872,
      "roj": 2873,
      "ĠunÄĽ": 2874,
      "Ġspra": 2875,
      "ĠlÃŃc": 2876,
      "ÅĻek": 2877,
      "go": 2878,
      "Ġmohl": 2879,
      "ĠslÃŃ": 2880,
      "Ġfran": 2881,
      "ĠkrÃ¡sa": 2882,
      "Ġnim": 2883,
      "ĠadÄĽ": 2884,
      "ĠvÅ¡ÃŃm": 2885,
      "Ġnohy": 2886,
      "rnÃŃ": 2887,
      "jÃŃch": 2888,
      "Ġhrou": 2889,
      "Ġpout": 2890,
      "enÃ¡": 2891,
      "ĠmodrÃ©": 2892,
      "dÃ¡nÃŃ": 2893,
      "jal": 2894,
      "Ġdni": 2895,
      "Ġviz": 2896,
      "chÃ¡ze": 2897,
      "Ġdala": 2898,
      "ĠAABCBC": 2899,
      "ĠsrdcÃŃ": 2900,
      "bito": 2901,
      "Ġitu": 2902,
      "slou": 2903,
      "ĠmusÃŃm": 2904,
      "ĠdrahÃ½": 2905,
      "Ġatem": 2906,
      "Ġstrach": 2907,
      "ĠsvÃ½mi": 2908,
      "ĠvÄĽc": 2909,
      "ĠmoÅ¾no": 2910,
      "ĠÄįeskÃ©": 2911,
      "Ġples": 2912,
      "ĠbouÅĻi": 2913,
      "Ġevi": 2914,
      "Ġouze": 2915,
      "tk": 2916,
      "Ġtmou": 2917,
      "ĠstarÃ½ch": 2918,
      "ĠÃºtÄĽ": 2919,
      "Ġpramen": 2920,
      "zvu": 2921,
      "Ġboku": 2922,
      "ĠdÄĽla": 2923,
      "bat": 2924,
      "Ġsmutek": 2925,
      "ĠvÄĽÅĻ": 2926,
      "nci": 2927,
      "Ġvztek": 2928,
      "bnÄĽ": 2929,
      "ĠdÅĻÃŃve": 2930,
      "ĠmladÃ¡": 2931,
      "ĠnÄĽÅ¾": 2932,
      "ĠchtÄĽla": 2933,
      "Ġzba": 2934,
      "Ġebi": 2935,
      "ĠÅ¡le": 2936,
      "Ġbojo": 2937,
      "Ġkone": 2938,
      "ĠaÅ¡e": 2939,
      "tan": 2940,
      "Ġdomu": 2941,
      "teÄį": 2942,
      "dci": 2943,
      "noucÃŃ": 2944,
      "livÄĽ": 2945,
      "ĠuÄı": 2946,
      "Ġzoufal": 2947,
      "Ġhlo": 2948,
      "Ġmni": 2949,
      "ĠÅ¾enu": 2950,
      "Ġprsa": 2951,
      "Ġpohle": 2952,
      "ĠodpovÄĽ": 2953,
      "ĠtÅĻÃ¡": 2954,
      "Ġrozho": 2955,
      "ĠvÃ¡mi": 2956,
      "ĠnepÅĻi": 2957,
      "dlÃŃ": 2958,
      "Å¡nÃ½": 2959,
      "ĠkrÅ¯pÄĽ": 2960,
      "ĠzlatÃ¡": 2961,
      "Ġzcela": 2962,
      "Ġpravdy": 2963,
      "Ġcy": 2964,
      "Ġumi": 2965,
      "Ġuhy": 2966,
      "Ġaval": 2967,
      "Ġhlaho": 2968,
      "ĠnepÅĻÃ¡": 2969,
      "ĠnepÅĻÃŃ": 2970,
      "ĠeÄı": 2971,
      "ĠÅ¾Ã¡dnÃ½": 2972,
      "Ġono": 2973,
      "Ġtry": 2974,
      "Ġity": 2975,
      "ĠjedinÃ½": 2976,
      "ĠeÅ¾": 2977,
      "Ġtva": 2978,
      "ĠvelkÃ¡": 2979,
      "Ġvrcho": 2980,
      "ĠmÄĽnÃŃ": 2981,
      "mat": 2982,
      "Ġzhy": 2983,
      "kaz": 2984,
      "ĠstejnÄĽ": 2985,
      "ĠX": 2986,
      "ĠpevnÄĽ": 2987,
      "Ġmdlo": 2988,
      "ĠzÃ¡m": 2989,
      "vce": 2990,
      "Ġpln": 2991,
      "ĠkaÅ¾dou": 2992,
      "Ġosa": 2993,
      "ĠdennÄĽ": 2994,
      "ĠtouÅ¾ÃŃ": 2995,
      "ĠrudÃ©": 2996,
      "?!": 2997,
      "ĠslÃ¡vÄĽ": 2998,
      "us": 2999,
      "ske": 3000,
      "ĠÄĽÅĻi": 3001,
      "Ġlam": 3002,
      "klÃŃ": 3003,
      "Ġjeze": 3004,
      "ĠslÃ¡vu": 3005,
      "Ġjednu": 3006,
      "rÃ¡m": 3007,
      "Ġkali": 3008,
      "ĠjednÃ©": 3009,
      "dÃ½ch": 3010,
      "nÃ¡Å¡e": 3011,
      "Ġteprv": 3012,
      "Ġplane": 3013,
      "ĠhÅĻbito": 3014,
      "Ġrozm": 3015,
      "ĠvÄĽk": 3016,
      "ĠklÃŃn": 3017,
      "chou": 3018,
      "ĠiÄįi": 3019,
      "jÃ¡": 3020,
      "Ġpsa": 3021,
      "Ġchra": 3022,
      "Ġpodle": 3023,
      "Ġjino": 3024,
      "Ġhan": 3025,
      "ĠpÅĻÃ¡tel": 3026,
      "Ġtemno": 3027,
      "Ġkrou": 3028,
      "Ġnepro": 3029,
      "ĠÅ¾ÃŃti": 3030,
      "Ġora": 3031,
      "hÃ½m": 3032,
      "ĠvÃ½ch": 3033,
      "ĠtÃ³": 3034,
      "ĠstÃ¡la": 3035,
      "hÃ¡m": 3036,
      "lav": 3037,
      "Ġhez": 3038,
      "Ġporo": 3039,
      "ĠtÅĻetÃŃ": 3040,
      "ĠkvÄĽti": 3041,
      "Ġbije": 3042,
      "Ġjsa": 3043,
      "tev": 3044,
      "ĠÃºdo": 3045,
      "ĠbÄĽÅ¾ÃŃ": 3046,
      "vuje": 3047,
      "ĠvÃ½cho": 3048,
      "ĠmÃŃti": 3049,
      "her": 3050,
      "Ġvlo": 3051,
      "Ġicha": 3052,
      "Ġoblak": 3053,
      "Ġmati": 3054,
      "ĠptÃ¡ci": 3055,
      "Ġpoho": 3056,
      "ĠchtÃŃ": 3057,
      "ĠzemÃŃ": 3058,
      "ĠmlÄįÃŃ": 3059,
      "dku": 3060,
      "nÄĽn": 3061,
      "ĠvracÃŃ": 3062,
      "ĠzÅĻe": 3063,
      "Ġsami": 3064,
      "lÃ¡ch": 3065,
      "pem": 3066,
      "ĠiÅĻi": 3067,
      "ĠÅĻeÄįÃŃ": 3068,
      "eni": 3069,
      "Ġpotu": 3070,
      "Ġnap": 3071,
      "ĠbudÃŃ": 3072,
      "Ġchyt": 3073,
      "ĠdlouhÃ½": 3074,
      "Ġjdi": 3075,
      "lenÃ½": 3076,
      "Å¯l": 3077,
      "ĠzÃ¡zra": 3078,
      "ĠÄįlovÄĽka": 3079,
      "Ġrdce": 3080,
      "zna": 3081,
      "bli": 3082,
      "Ġule": 3083,
      "ĠnoÄįnÃŃ": 3084,
      "Ġmraky": 3085,
      "ĠotÄįe": 3086,
      "ĠjejÃŃm": 3087,
      "lka": 3088,
      "Ġklad": 3089,
      "stÃŃm": 3090,
      "Ġnebylo": 3091,
      "ĠbÅĻÃŃ": 3092,
      "jÃŃce": 3093,
      "Ġsilou": 3094,
      "ĠstrÃ¡Å¾": 3095,
      "fi": 3096,
      "ĠtÄĽle": 3097,
      "ĠnenÃ¡": 3098,
      "Ġisni": 3099,
      "Ġato": 3100,
      "ĠzÃ¡vi": 3101,
      "ĠneboÅ¥": 3102,
      "Ġnechci": 3103,
      "Ġklu": 3104,
      "jo": 3105,
      "ĠvÅ¡i": 3106,
      "stvÃŃm": 3107,
      "ĠlÃŃbÃ¡": 3108,
      "mÃ¡ch": 3109,
      "ĠÄįin": 3110,
      "kej": 3111,
      "Ġzlata": 3112,
      "Ġzrc": 3113,
      "Ġjimi": 3114,
      "Ġvzpo": 3115,
      "Ġdum": 3116,
      "Ġesy": 3117,
      "ĠbÃ¡s": 3118,
      "Ġisi": 3119,
      "Ġjo": 3120,
      "ĠkvÄĽtu": 3121,
      "Ġholu": 3122,
      "vÃ½mi": 3123,
      "kovÃ©": 3124,
      "Ġkdos": 3125,
      "ĠsklÃ¡nÃŃ": 3126,
      "ĠÅĻi": 3127,
      "ĠzpÃ¡": 3128,
      "cÅ¯m": 3129,
      "ĠÄĽzd": 3130,
      "ĠmalÃ¡": 3131,
      "ĠmnohÃ©": 3132,
      "ĠbÃŃlÃ½ch": 3133,
      "Ġmoci": 3134,
      "ĠAABBXX": 3135,
      "jÅ¡ÃŃm": 3136,
      "ĠstavÃŃ": 3137,
      "Ġhudba": 3138,
      "Ġspole": 3139,
      "ĠstÃ¡t": 3140,
      "ĠvÅ¯li": 3141,
      "Ġzle": 3142,
      "Ġpodiv": 3143,
      "Ġstk": 3144,
      "ĠnÃŃz": 3145,
      "Ġukou": 3146,
      "ĠpÅ¯lno": 3147,
      "ĠvÄįera": 3148,
      "dnÃ½ch": 3149,
      "Ġvesele": 3150,
      "tÃ½m": 3151,
      "ĠÄįaro": 3152,
      "ĠivÄĽ": 3153,
      "ĠÄĽs": 3154,
      "ĠÃºzko": 3155,
      "Ġdvou": 3156,
      "tno": 3157,
      "Ġstesk": 3158,
      "Ġyni": 3159,
      "Ġohou": 3160,
      "ĠÅĻÃŃm": 3161,
      "hly": 3162,
      "ĠtÃ¡hne": 3163,
      "ĠrÃ¡je": 3164,
      "ĠÅĻeky": 3165,
      "Ġprud": 3166,
      "dÃ¡ch": 3167,
      "rku": 3168,
      "ĠÅ¡Ã¡": 3169,
      "ĠÅĪadra": 3170,
      "ĠblÃŃz": 3171,
      "Å¾ila": 3172,
      "ĠtÅ¯": 3173,
      "ĠznÄĽl": 3174,
      "ĠvzplÃ¡": 3175,
      "ĠoÅ¾": 3176,
      "Ġruch": 3177,
      "lky": 3178,
      "rel": 3179,
      "ÅĻÅ¯": 3180,
      "lena": 3181,
      "rky": 3182,
      "Ġachu": 3183,
      "ĠoÄį": 3184,
      "Ġvoda": 3185,
      "ĠsmutnÃ©": 3186,
      "ĠhÃ½": 3187,
      "ĠmrÃ¡z": 3188,
      "Ġsouse": 3189,
      "Ġzmat": 3190,
      "ĠaÅ¾e": 3191,
      "Ġlili": 3192,
      "ĠbÃ½vÃ¡": 3193,
      "Ġatil": 3194,
      "ĠÄįty": 3195,
      "ĠdlaÅĪ": 3196,
      "ĠpalÃ¡": 3197,
      "ĠskrÃ¡ÅĪ": 3198,
      "Ġisti": 3199,
      "Ġaka": 3200,
      "Ġoud": 3201,
      "ĠÅ¡edi": 3202,
      "bem": 3203,
      "ĠpÄĽt": 3204,
      "Ġkrokem": 3205,
      "ĠkrÃ¡su": 3206,
      "ĠABBAXX": 3207,
      "Ġrt": 3208,
      "Ġsoum": 3209,
      "rce": 3210,
      "ĠÄĽty": 3211,
      "sit": 3212,
      "Ġoty": 3213,
      "Ġhochu": 3214,
      "Ġnejs": 3215,
      "Ġuru": 3216,
      "Ġnesou": 3217,
      "Ġhnu": 3218,
      "Å¡it": 3219,
      "ĠbledÃ¡": 3220,
      "Ġanim": 3221,
      "ĠbohatÃ½": 3222,
      "ĠnÄĽjak": 3223,
      "Ġnovou": 3224,
      "Å¾Å¡ÃŃ": 3225,
      "vili": 3226,
      "Ġzaz": 3227,
      "Ġkyne": 3228,
      "hÃ¡nÃŃ": 3229,
      "Ġtrou": 3230,
      "ĠvÅ¯nÃŃ": 3231,
      "ĠnÄĽkdo": 3232,
      "jas": 3233,
      "Ġvstou": 3234,
      "Ġadla": 3235,
      "bÃ©": 3236,
      "Ġavil": 3237,
      "ĠzvedÃ¡": 3238,
      "Ġbro": 3239,
      "Ġsest": 3240,
      "Ġsty": 3241,
      "tat": 3242,
      "dÄĽnÃŃ": 3243,
      "Ġteh": 3244,
      "Ġblaha": 3245,
      "ĠatÅĻi": 3246,
      "Ġnebude": 3247,
      "Ġklidu": 3248,
      "ĠohnÄĽm": 3249,
      "Ġabych": 3250,
      "ĠchrÃ¡mu": 3251,
      "ga": 3252,
      "Ġnaslou": 3253,
      "Ġsyna": 3254,
      "ĠÄįeskÃ½": 3255,
      "Ġzlatem": 3256,
      "ĠeÅĻe": 3257,
      "Ġslovem": 3258,
      "rie": 3259,
      "Å¡nÃŃ": 3260,
      "Ġhvo": 3261,
      "ĠvonÃŃ": 3262,
      "ĠprostÅĻe": 3263,
      "ĠzlatÃ½ch": 3264,
      "jednou": 3265,
      "Ġkomu": 3266,
      "Ġrozu": 3267,
      "Ġproh": 3268,
      "kra": 3269,
      "Å¡enÃ©": 3270,
      "Äįo": 3271,
      "ĠÅĻÃŃÅ¡e": 3272,
      "ĠdÃ¡lku": 3273,
      "dili": 3274,
      "Ġvlh": 3275,
      "tÃ©m": 3276,
      "Ġvle": 3277,
      "Ġpope": 3278,
      "venÃ©": 3279,
      "ĠmrtvÃ©": 3280,
      "tnou": 3281,
      "rek": 3282,
      "Ġblesky": 3283,
      "vice": 3284,
      "Ġhlasy": 3285,
      "ĠAAXA": 3286,
      "Ġotci": 3287,
      "Ġsbor": 3288,
      "Ġikem": 3289,
      "Ġstrany": 3290,
      "Ġskvost": 3291,
      "ĠhÅĻÃŃch": 3292,
      "Ġzapad": 3293,
      "ĠvÃ¡c": 3294,
      "ĠvÄĽz": 3295,
      "ĠbÃŃlou": 3296,
      "Ġmlha": 3297,
      "Ġhosti": 3298,
      "Ġzku": 3299,
      "ĠÃºsmÄĽvem": 3300,
      "Ġzab": 3301,
      "dÃŃÅ¡": 3302,
      "ĠblÃŃÅ¾ÃŃ": 3303,
      "ĠzÃ¡stup": 3304,
      "ĠvyÅ¡el": 3305,
      "ĠpÃ¡nÄĽ": 3306,
      "ĠzdÄĽ": 3307,
      "Ġposlou": 3308,
      "Ġjab": 3309,
      "ĠÄĽm": 3310,
      "Å¡Å¥ast": 3311,
      "ĠpodÃ¡": 3312,
      "Ġovem": 3313,
      "ĠpÅĻÃŃÅ¡e": 3314,
      "tnÃ¡": 3315,
      "Ġrej": 3316,
      "ĠtvojÃŃ": 3317,
      "bÅ¯": 3318,
      "ABBA": 3319,
      "ĠobjetÃŃ": 3320,
      "tala": 3321,
      "Ġtvr": 3322,
      "ĠvroucÃŃ": 3323,
      "vÄĽd": 3324,
      "Ġkroky": 3325,
      "domÃŃ": 3326,
      "ĠrtÅ¯": 3327,
      "Ġnoha": 3328,
      "ĠpotÄĽ": 3329,
      "ĠABABAB": 3330,
      "ĠmÄĽli": 3331,
      "ĠsmÃŃchu": 3332,
      "Ġmali": 3333,
      "ĠÄįistÃ©": 3334,
      "Ġhrom": 3335,
      "Ġhradu": 3336,
      "kÃ©ho": 3337,
      "ĠcÃŃl": 3338,
      "lel": 3339,
      "Ġalem": 3340,
      "Ġtato": 3341,
      "ĠdÃ¡lce": 3342,
      "Ġdali": 3343,
      "ĠÄįasy": 3344,
      "ĠopuÅ¡tÄĽ": 3345,
      "lÃ©z": 3346,
      "ĠotÄĽ": 3347,
      "mnÄĽl": 3348,
      "Ġseve": 3349,
      "ĠslyÅ¡et": 3350,
      "ĠcestÄĽ": 3351,
      "ĠandÄĽ": 3352,
      "ĠsladkÃ¡": 3353,
      "ĠdÅĻe": 3354,
      "Ġelem": 3355,
      "Ġzvon": 3356,
      "ĠklesÃ¡": 3357,
      "Ġbolesti": 3358,
      "Ġicich": 3359,
      "Ġvze": 3360,
      "Ġobli": 3361,
      "jÃŃmÃ¡": 3362,
      "Ġoken": 3363,
      "Ġskon": 3364,
      "Ġvytr": 3365,
      "dali": 3366,
      "Ġvola": 3367,
      "ĠiÅ¡ti": 3368,
      "Ġouhy": 3369,
      "Ġab": 3370,
      "ĠÅ¾alu": 3371,
      "ĠeÅ¡tÄĽ": 3372,
      "Ġplno": 3373,
      "bel": 3374,
      "Ġvypra": 3375,
      "ĠnenÃ¡vi": 3376,
      "zky": 3377,
      "kost": 3378,
      "Ġpaprsk": 3379,
      "ĠchlÃ©": 3380,
      "dosti": 3381,
      "ĠmyslÃŃm": 3382,
      "ĠsluÅ¾": 3383,
      "ĠvÃŃry": 3384,
      "ten": 3385,
      "ĠotÃ¡": 3386,
      "vanÃ©": 3387,
      "ĠtoÄįÃŃ": 3388,
      "ĠmÃŃsta": 3389,
      "ĠvÃ¡Å¡nÃŃ": 3390,
      "ĠzpÃ¡tky": 3391,
      "jme": 3392,
      "Ġvar": 3393,
      "Ġazu": 3394,
      "ĠlepÅ¡ÃŃ": 3395,
      "Ġobou": 3396,
      "ĠlÃŃto": 3397,
      "Ġakem": 3398,
      "raz": 3399,
      "Ġsic": 3400,
      "kl": 3401,
      "bek": 3402,
      "Ġzmo": 3403,
      "Ġtuto": 3404,
      "diÅ¾": 3405,
      "ĠnavÅ¾dy": 3406,
      "ĠvidÄĽt": 3407,
      "Ġvzbu": 3408,
      "ĠÄĽvu": 3409,
      "ĠvisÃŃ": 3410,
      "Ġycha": 3411,
      "Ġhod": 3412,
      "ĠnovÃ¡": 3413,
      "Ġutr": 3414,
      "ĠblÃŃÅ¾e": 3415,
      "Ġsynu": 3416,
      "Ġkonce": 3417,
      "ĠtÄĽÅ¾kÃ½": 3418,
      "cenÃ½": 3419,
      "Ġcu": 3420,
      "Ġmlhy": 3421,
      "ctvÃŃ": 3422,
      "ĠjinÃ½ch": 3423,
      "Ġcizi": 3424,
      "ĠcÃŃsaÅĻ": 3425,
      "Ġvsi": 3426,
      "ĠvÅ¡emu": 3427,
      "Ġzma": 3428,
      "Ġpol": 3429,
      "Ġpode": 3430,
      "ÅĪte": 3431,
      "ĠzprÃ¡": 3432,
      "Ġtichou": 3433,
      "cti": 3434,
      "boj": 3435,
      "ĠvÅ¡a": 3436,
      "Ġskr": 3437,
      "Ġleb": 3438,
      "ĠÄĽte": 3439,
      "Ġrak": 3440,
      "znÃ¡": 3441,
      "ĠjasnÃ½": 3442,
      "ĠvÅĻa": 3443,
      "Ġeme": 3444,
      "ĠpÃ¡na": 3445,
      "ĠnejvÃŃ": 3446,
      "ĠÄįernÃ½ch": 3447,
      "Ġkolo": 3448,
      "Ġvelkou": 3449,
      "Ġmatko": 3450,
      "ĠkÅĻesÅ¥": 3451,
      "Ġomy": 3452,
      "ĠÄįernÃ¡": 3453,
      "ĠpatÅĻÃŃ": 3454,
      "Ġzap": 3455,
      "Ġdokud": 3456,
      "rej": 3457,
      "Ġkus": 3458,
      "Ġivo": 3459,
      "lovÃ©": 3460,
      "ĠlÃŃci": 3461,
      "ĠÅĻas": 3462,
      "Ġlehce": 3463,
      "Ġjakoby": 3464,
      "tÃ¡n": 3465,
      "Ġcest": 3466,
      "ĠÅ¾ene": 3467,
      "ĠkoÅĻi": 3468,
      "ĠvÃŃte": 3469,
      "ĠnadÅ¡enÃŃ": 3470,
      "ĠÅ¡lech": 3471,
      "ĠbledÃ©": 3472,
      "ĠkoÅĻen": 3473,
      "ĠXXA": 3474,
      "nak": 3475,
      "ĠnadÅ¡en": 3476,
      "ĠrÅ¯Å¾i": 3477,
      "Ġbohy": 3478,
      "nitÅĻ": 3479,
      "Ġdoba": 3480,
      "Ġorem": 3481,
      "ĠskÅĻÃŃ": 3482,
      "ĠsrÃ¡": 3483,
      "Ġsled": 3484,
      "ĠcÃŃrk": 3485,
      "ĠtichÃ¡": 3486,
      "ĠvrÃ¡tÃŃ": 3487,
      "Ġade": 3488,
      "ĠjevÃŃ": 3489,
      "ĠhuÄįÃŃ": 3490,
      "Ġproro": 3491,
      "Ġula": 3492,
      "ala": 3493,
      "Ġenych": 3494,
      "Ġimi": 3495,
      "ĠdÄĽvÄįe": 3496,
      "Ġdouf": 3497,
      "ĠmrtvÃ½ch": 3498,
      "Ġsbo": 3499,
      "Ġprost": 3500,
      "han": 3501,
      "ĠvraÅ¾": 3502,
      "ĠotcÅ¯": 3503,
      "Ġvzduchu": 3504,
      "Ġul": 3505,
      "ĠÅ¡ÃŃlen": 3506,
      "Ġenem": 3507,
      "Ġzlatou": 3508,
      "ĠvÃŃno": 3509,
      "Ġpoch": 3510,
      "ĠÄĽsi": 3511,
      "Ġhora": 3512,
      "Ġrek": 3513,
      "rka": 3514,
      "Ġpoled": 3515,
      "Ġstalo": 3516,
      "esie": 3517,
      "ĠzdravÃŃ": 3518,
      "Ġace": 3519,
      "ĠhrÅ¯zou": 3520,
      "Ġosla": 3521,
      "Ġkole": 3522,
      "Å¡to": 3523,
      "ĠbÅĻeh": 3524,
      "ĠvÃ©": 3525,
      "Å¡t": 3526,
      "ĠkvÄĽtem": 3527,
      "ĠdobrÃ¡": 3528,
      "ĠloÅ¾e": 3529,
      "rnÃ½ch": 3530,
      "Ġoma": 3531,
      "Ġsklen": 3532,
      "ĠsmÄĽle": 3533,
      "livÃ½": 3534,
      "Ġzoufa": 3535,
      "Ġzpu": 3536,
      "ĠÄĽd": 3537,
      "Ġkdesi": 3538,
      "Ġsmutku": 3539,
      "slu": 3540,
      "ĠtemnÃ©": 3541,
      "ĠknÄĽÅ¾": 3542,
      "ek": 3543,
      "ĠjasnÄĽ": 3544,
      "ĠzÃŃrÃ¡": 3545,
      "Ġtichu": 3546,
      "ĠspÃŃÅ¡": 3547,
      "Ġdaleko": 3548,
      "ĠpoÄįÃŃ": 3549,
      "ĠrannÃŃ": 3550,
      "ĠpÅĻÃŃtel": 3551,
      "Ġobzor": 3552,
      "Ġrtech": 3553,
      "ĠvÄĽci": 3554,
      "Ġbleskem": 3555,
      "padÃ¡": 3556,
      "ĠsmutnÃ½": 3557,
      "ĠpÅĻedu": 3558,
      "lÃ©tÃ¡": 3559,
      "ĠrÃ¡nu": 3560,
      "tvÃ¡": 3561,
      "venÃŃ": 3562,
      "Ġlidstvo": 3563,
      "ĠpromÄĽ": 3564,
      "Ġbolu": 3565,
      "Ġsluncem": 3566,
      "stvu": 3567,
      "Ġpomoc": 3568,
      "Ġnevz": 3569,
      "Ġub": 3570,
      "Ġspani": 3571,
      "Ġraj": 3572,
      "Ġdechem": 3573,
      "ĠvolnÄĽ": 3574,
      "Ġslune": 3575,
      "bÃ¡ch": 3576,
      "ĠpsÃ¡": 3577,
      "ĠstÃ©": 3578,
      "cenÃŃ": 3579,
      "Ġletu": 3580,
      "Ġnero": 3581,
      "skne": 3582,
      "ĠoÅ¾e": 3583,
      "Ġoste": 3584,
      "Ġcosi": 3585,
      "Ġnaposled": 3586,
      "ĠiÄįek": 3587,
      "liv": 3588,
      "ĠvÅ¡ecka": 3589,
      "BB": 3590,
      "Ġvzde": 3591,
      "Ġchvat": 3592,
      "ÄįnÃ½ch": 3593,
      "ĠstaÅĻe": 3594,
      "Ġsnem": 3595,
      "ĠÄĽÅ¾": 3596,
      "Ġled": 3597,
      "ĠtÄĽÅ¾ce": 3598,
      "Ġnikde": 3599,
      "ĠÅĻekla": 3600,
      "ĠprosÃŃm": 3601,
      "Ġsluch": 3602,
      "Äįkem": 3603,
      "Ġca": 3604,
      "Ġvzpla": 3605,
      "ĠdÄĽje": 3606,
      "peÅ¾": 3607,
      "ĠnepÅĻe": 3608,
      "tkem": 3609,
      "Ġchcem": 3610,
      "Å¾ÃŃÅ¡": 3611,
      "Ġhrdi": 3612,
      "cÃ½": 3613,
      "Ġoubi": 3614,
      "Ġzdali": 3615,
      "ĠvÄĽÅĻÃŃ": 3616,
      "Ġchlu": 3617,
      "Äıte": 3618,
      "ĠmÃ¡te": 3619,
      "ĠtÅĻese": 3620,
      "Ġesky": 3621,
      "Å¾enÃ½": 3622,
      "Ġbyst": 3623,
      "Ġpochy": 3624,
      "Ġrci": 3625,
      "ĠumÃŃrÃ¡": 3626,
      "ĠvÅ¯ni": 3627,
      "myÅ¡": 3628,
      "Ġesla": 3629,
      "gu": 3630,
      "hajÃŃ": 3631,
      "Ġdrob": 3632,
      "hlÃ¡": 3633,
      "ĠdÃŃlo": 3634,
      "ĠÄĽr": 3635,
      "ĠneznÃ¡": 3636,
      "Ġhost": 3637,
      "Ġspad": 3638,
      "ĠjimÅ¾": 3639,
      "ĠÅ¾ebrÃ¡": 3640,
      "Äįiny": 3641,
      "bec": 3642,
      "Ġadky": 3643,
      "ĠeÄįe": 3644,
      "fa": 3645,
      "Ġere": 3646,
      "ĠhÅĻmÃŃ": 3647,
      "nkou": 3648,
      "Ġyje": 3649,
      "Ġprahu": 3650,
      "Ġkat": 3651,
      "ĠveÅ¡": 3652,
      "kojen": 3653,
      "ĠbratÅĻi": 3654,
      "Ġkvetou": 3655,
      "nÃ©mu": 3656,
      "ĠÃºÅ¾": 3657,
      "ĠvÃ¡Å¾": 3658,
      "stupu": 3659,
      "Ġneroz": 3660,
      "hnout": 3661,
      "ĠpÅ¯va": 3662,
      "ĠpamÃ¡": 3663,
      "Ġslz": 3664,
      "Ġpanen": 3665,
      "rad": 3666,
      "Ġjeli": 3667,
      "Ġenim": 3668,
      "ĠÅ¡iro": 3669,
      "Ġvlna": 3670,
      "ĠdÅĻÃŃmÃ¡": 3671,
      "chÃ©": 3672,
      "tvo": 3673,
      "Ġobi": 3674,
      "ĠÄįist": 3675,
      "kovi": 3676,
      "zek": 3677,
      "Ġatou": 3678,
      "ĠbloudÃŃ": 3679,
      "ĠlidskÃ½": 3680,
      "ĠnemÅ¯Å¾e": 3681,
      "ĠvyprÃ¡": 3682,
      "ÅĻad": 3683,
      "Ġicky": 3684,
      "ĠhÃ¡j": 3685,
      "ĠknÄĽz": 3686,
      "ĠdlÃŃ": 3687,
      "ÄįkÃ¡": 3688,
      "Ġebou": 3689,
      "ĠprovÃ¡": 3690,
      "ĠdÃŃvky": 3691,
      "Ġucha": 3692,
      "ĠbÃ¡snÃŃk": 3693,
      "zrak": 3694,
      "Ġatka": 3695,
      "hnÄĽ": 3696,
      "nali": 3697,
      "ĠÄĽst": 3698,
      "Ġsvatou": 3699,
      "venÃ½": 3700,
      "Ġjakou": 3701,
      "Ġkom": 3702,
      "Ġstane": 3703,
      "ĠumÄĽnÃŃ": 3704,
      "ĠemnÄĽ": 3705,
      "ĠdruÅ¾": 3706,
      "Ġnajde": 3707,
      "ĠhalÃŃ": 3708,
      "Ġzraku": 3709,
      "ujÃŃ": 3710,
      "tÃ¡nÃŃ": 3711,
      "tili": 3712,
      "ĠÅĪadrech": 3713,
      "lep": 3714,
      "Ġeku": 3715,
      "Ġmatce": 3716,
      "vÃ¡Å¡": 3717,
      "Ġnitru": 3718,
      "ĠÄįet": 3719,
      "Ġpouta": 3720,
      "Ġvet": 3721,
      "Ġkouzel": 3722,
      "ĠlkÃ¡": 3723,
      "ĠzboÅ¾": 3724,
      "Ġvyvo": 3725,
      "Ġanem": 3726,
      "Ġzrcad": 3727,
      "Ġjitra": 3728,
      "ĠvÃŃra": 3729,
      "ĠrytÃŃÅĻ": 3730,
      "ĠhrdÄĽ": 3731,
      "Ġivi": 3732,
      "ĠdÄĽcko": 3733,
      "ĠnemÄĽl": 3734,
      "Ġochu": 3735,
      "ĠsamÃ©": 3736,
      "ĠpÅĻÃŃsa": 3737,
      "Äįce": 3738,
      "ĠplÃ¡po": 3739,
      "Ġyly": 3740,
      "XXA": 3741,
      "Ġkoho": 3742,
      "ĠplÃ©": 3743,
      "Ġplna": 3744,
      "ĠnÃ¡dher": 3745,
      "ĠvÅ¡ÃŃ": 3746,
      "Ġvstal": 3747,
      "Ġmodra": 3748,
      "ĠdÃ½Å¡e": 3749,
      "Ġaska": 3750,
      "ĠradostÃŃ": 3751,
      "Ġuza": 3752,
      "zuje": 3753,
      "ĠzlÃŃ": 3754,
      "Ġyta": 3755,
      "Ġvzduchem": 3756,
      "Ġzhou": 3757,
      "ĠvaÅ¡ÃŃ": 3758,
      "ĠbledÃ½": 3759,
      "Ġkost": 3760,
      "ĠhledÄĽl": 3761,
      "ĠÅ¾enou": 3762,
      "tÅĻÃŃ": 3763,
      "Ġneod": 3764,
      "ĠzachvÄĽ": 3765,
      "Ġvnu": 3766,
      "Ġsvato": 3767,
      "ĠztrÃ¡cÃŃ": 3768,
      "kry": 3769,
      "ĠpoznÃ¡": 3770,
      "lk": 3771,
      "ĠtÄĽÅ¾ko": 3772,
      "Ġeden": 3773,
      "ĠsvÄĽty": 3774,
      "ĠrokÅ¯": 3775,
      "chom": 3776,
      "ĠÅ¾Ã¡dnÃ©": 3777,
      "ĠmlÄįky": 3778,
      "Ġsladkou": 3779,
      "ĠmocnÄĽ": 3780,
      "Ġdosta": 3781,
      "ĠatÄĽ": 3782,
      "ĠbudiÅ¾": 3783,
      "Ġedla": 3784,
      "Ġilou": 3785,
      "telÃ©": 3786,
      "ĠvÄĽÄįnosti": 3787,
      "ĠsmÄĽje": 3788,
      "vyÅ¡": 3789,
      "ĠkaÅ¾dÃ©m": 3790,
      "Ġluny": 3791,
      "ĠÄĽtÄĽ": 3792,
      "Ġmimo": 3793,
      "Ġodkud": 3794,
      "Ġivou": 3795,
      "ĠupomÃŃ": 3796,
      "Ġmaje": 3797,
      "ĠpozdÄĽ": 3798,
      "Ġpoma": 3799,
      "benÃŃ": 3800,
      "Ġdnem": 3801,
      "sÃŃch": 3802,
      "ĠposvÃ¡": 3803,
      "Ġostat": 3804,
      "ĠlÃŃbe": 3805,
      "mek": 3806,
      "hnul": 3807,
      "ĠchvÄĽl": 3808,
      "Ġzvuky": 3809,
      "Ġap": 3810,
      "Ġdraho": 3811,
      "Ġnebem": 3812,
      "Ġchleba": 3813,
      "Ġstarou": 3814,
      "ĠstÄĽny": 3815,
      "Ġtk": 3816,
      "ĠvÃ¡Å¡nÄĽ": 3817,
      "ĠnovÃ½ch": 3818,
      "ĠpohÅĻ": 3819,
      "dru": 3820,
      "Ġust": 3821,
      "Ġbudem": 3822,
      "Ġnesmr": 3823,
      "Ġmari": 3824,
      "nuly": 3825,
      "ĠptÃ¡Äįe": 3826,
      "ĠnaÅ¡el": 3827,
      "vel": 3828,
      "Ġidla": 3829,
      "ene": 3830,
      "ĠpÄĽknÄĽ": 3831,
      "ĠklÃ¡Å¡te": 3832,
      "ĠzlÃ©": 3833,
      "vrÃ¡tÃŃ": 3834,
      "Ġhraje": 3835,
      "BX": 3836,
      "Ġslovy": 3837,
      "ĠtemnÄĽ": 3838,
      "Ġzvony": 3839,
      "ĠĠĠ": 3840,
      "ĠsnÄĽhu": 3841,
      "Ġmate": 3842,
      "Ġzat": 3843,
      "Ġodil": 3844,
      "Ġjindy": 3845,
      "ĠÅ¾ivotem": 3846,
      "ĠdÃŃvÄįÃŃ": 3847,
      "ĠmÄĽst": 3848,
      "Ġstud": 3849,
      "Ġouha": 3850,
      "Ġece": 3851,
      "Ġopat": 3852,
      "Ġlidi": 3853,
      "Å¡a": 3854,
      "ĠpoÅ¾Ã¡": 3855,
      "voucÃŃ": 3856,
      "ĠmÅ¯Å¾": 3857,
      "ĠtmavÃ©": 3858,
      "ĠjÃŃti": 3859,
      "ĠplÃ¡Äįi": 3860,
      "ĠzÅĻÃŃt": 3861,
      "bÃ¡m": 3862,
      "ĠsbÃŃ": 3863,
      "Ġstez": 3864,
      "Ġdobu": 3865,
      "Ġhorou": 3866,
      "Ġhroby": 3867,
      "emi": 3868,
      "Ġlny": 3869,
      "XABB": 3870,
      "Ġmed": 3871,
      "Ġeba": 3872,
      "ĠbohÅ¯": 3873,
      "ĠdÃ¡ti": 3874,
      "Ġly": 3875,
      "ĠbolÃŃ": 3876,
      "ĠvÃŃna": 3877,
      "ena": 3878,
      "Ġztich": 3879,
      "Ġery": 3880,
      "bila": 3881,
      "Ġozdo": 3882,
      "ckÃ½ch": 3883,
      "vci": 3884,
      "ÅĻÃŃk": 3885,
      "ĠmocÃŃ": 3886,
      "Ġis": 3887,
      "ĠjinÃŃ": 3888,
      "?...": 3889,
      "Ġynu": 3890,
      "ĠzÃ¡vra": 3891,
      "Ġlodi": 3892,
      "Ġnecha": 3893,
      "nikÃ¡": 3894,
      "ĠcitÅ¯": 3895,
      "ĠpoÅĻÃ¡": 3896,
      "ĠneÅ¡Å¥ast": 3897,
      "Ġjazyk": 3898,
      "Ġzim": 3899,
      "ĠrÅ¯z": 3900,
      "hlo": 3901,
      "ĠposmÄĽ": 3902,
      "Ġzdr": 3903,
      "Ġkruh": 3904,
      "ĠchÃ½lÃŃ": 3905,
      "ĠlÅ¯Å¾": 3906,
      "Å¡enÃ½": 3907,
      "Ġneho": 3908,
      "Ġmluvil": 3909,
      "ĠnemÃ¡m": 3910,
      "Ġmatku": 3911,
      "ĠejÅ¡i": 3912,
      "ĠprÃ¡vo": 3913,
      "Ġspraved": 3914,
      "Ġpromlu": 3915,
      "Ġprst": 3916,
      "Ġhym": 3917,
      "Ġukry": 3918,
      "ĠkoneÄįnÄĽ": 3919,
      "ĠveÄįera": 3920,
      "ĠnÄĽkde": 3921,
      "Ġlad": 3922,
      "ĠmÅĻÃŃ": 3923,
      "Ġvyp": 3924,
      "ĠsmrtÃŃ": 3925,
      "ĠtajemstvÃŃ": 3926,
      "Ġvzdor": 3927,
      "ĠmlÃ½": 3928,
      "ĠzpÃŃval": 3929,
      "ĠvelikÃ½": 3930,
      "Ġkade": 3931,
      "Ġunce": 3932,
      "ĠzÃ¡pad": 3933,
      "Ġbarev": 3934,
      "livÃ©": 3935,
      "Ġrad": 3936,
      "stej": 3937,
      "Å¡ly": 3938,
      "ĠzlÃ¡": 3939,
      "ĠdÄĽji": 3940,
      "ĠsvÄĽtÅ¯": 3941,
      "Ġholubi": 3942,
      "koj": 3943,
      "Ġvelmi": 3944,
      "sl": 3945,
      "ĠpravÃ½": 3946,
      "ĠkÅĻÃŃÅ¾e": 3947,
      "nese": 3948,
      "hlÃ½": 3949,
      "ĠpÅĻÃ¡nÃŃ": 3950,
      "ĠzlÃ½": 3951,
      "tud": 3952,
      "Ġadce": 3953,
      "ĠvÄĽtru": 3954,
      "lejÅ¡ÃŃ": 3955,
      "Ġskoro": 3956,
      "Ġkristu": 3957,
      "ĠhorÃ¡ch": 3958,
      "ÄįenÃ©": 3959,
      "Ġpes": 3960,
      "ĠlesnÃŃ": 3961,
      "Ġnemoc": 3962,
      "Ġarem": 3963,
      "ĠsplÃ½vÃ¡": 3964,
      "Ġber": 3965,
      "Ġmili": 3966,
      "ĠnechÃ¡": 3967,
      "ĠzapomnÄĽ": 3968,
      "ĠtvÅ¯": 3969,
      "Ġtvor": 3970,
      "ĠpÅĻipra": 3971,
      "ÅĻenÃ½": 3972,
      "ĠchlÃ©b": 3973,
      "nÄĽnÃŃ": 3974,
      "Ġvichr": 3975,
      "kel": 3976,
      "Ġvzp": 3977,
      "Ġzapomen": 3978,
      "ĠmeÄįem": 3979,
      "nuv": 3980,
      "ĠdivÃ½": 3981,
      "Ġmrou": 3982,
      "kali": 3983,
      "rav": 3984,
      "osti": 3985,
      "ĠvÄĽÅ¾e": 3986,
      "Ġilu": 3987,
      "Ġpoznal": 3988,
      "ĠdivnÃ©": 3989,
      "ĠlÃŃp": 3990,
      "ter": 3991,
      "ĠrudÃ½": 3992,
      "kÅ¯v": 3993,
      "ĠmÃ©mu": 3994,
      "Ġzima": 3995,
      "Ġstran": 3996,
      "ĠslavnÃ½": 3997,
      "ĠkaÅ¾dÃ½m": 3998,
      "ĠÄĽtla": 3999,
      "ĠnÃ¡ruÄįÃŃ": 4000,
      "ckni": 4001,
      "ĠÅ¡pat": 4002,
      "ĠstaÄįÃŃ": 4003,
      "ĠhrÅ¯zy": 4004,
      "Ġpovo": 4005,
      "pila": 4006,
      "ĠvÅ¡ickni": 4007,
      "ĠpÃ¡lÃŃ": 4008,
      "Ġesku": 4009,
      "hlu": 4010,
      "Ġlem": 4011,
      "Ġkdybych": 4012,
      "viti": 4013,
      "Ġzkve": 4014,
      "ĠvÅ¡ady": 4015,
      "kva": 4016,
      "Ġvykou": 4017,
      "Ġpano": 4018,
      "Ġplnou": 4019,
      "ĠvidÃŃÅ¡": 4020,
      "Ġnesmrtel": 4021,
      "ĠstÃŃnÅ¯": 4022,
      "ĠvojÃ¡": 4023,
      "jdu": 4024,
      "Ġzkou": 4025,
      "Ġdnu": 4026,
      "Ġpadne": 4027,
      "ĠvÄĽn": 4028,
      "ĠÄĽka": 4029,
      "ĠdÄĽc": 4030,
      "ĠmeÄįe": 4031,
      "Ġlesem": 4032,
      "Ġstranou": 4033,
      "ot": 4034,
      "ĠtmÄĽ": 4035,
      "ĠvÄĽtvÃŃ": 4036,
      "chod": 4037,
      "ĠchudÃ©": 4038,
      "ĠÅ¡pi": 4039,
      "ĠvÃŃr": 4040,
      "Ġdok": 4041,
      "ĠslavnÄĽ": 4042,
      "Ġdavy": 4043,
      "ĠschvÃ¡": 4044,
      "sle": 4045,
      "ĠÄĽvy": 4046,
      "ĠnÄĽmÃ½": 4047,
      "ĠtÃŃÅ¾ÃŃ": 4048,
      "Å¡ko": 4049,
      "stat": 4050,
      "ĠiseÅĪ": 4051,
      "vÃ¡ch": 4052,
      "Äįno": 4053,
      "lec": 4054,
      "Ġjitro": 4055,
      "ÅĪo": 4056,
      "Ġdceru": 4057,
      "ĠmladÃŃ": 4058,
      "ĠÅĻeka": 4059,
      "Ġpropast": 4060,
      "ĠobÄĽÅ¥": 4061,
      "ĠvelkÃ½m": 4062,
      "krÃ¡snÄĽ": 4063,
      "Ġbrou": 4064,
      "Ġkrvi": 4065,
      "Ġatek": 4066,
      "ĠozvÄĽ": 4067,
      "Ġpoklad": 4068,
      "Ġctnost": 4069,
      "kÃ¡n": 4070,
      "hlÃŃ": 4071,
      "ĠABA": 4072,
      "zpe": 4073,
      "covÃ©": 4074,
      "Ġosy": 4075,
      "rajÃŃ": 4076,
      "ĠrodÃŃ": 4077,
      "ĠlidskÃ½ch": 4078,
      "Ġprokle": 4079,
      "ĠXAXABB": 4080,
      "ĠusmÃ¡": 4081,
      "Ġprudce": 4082,
      "rpu": 4083,
      "Å¾et": 4084,
      "Ġnejsem": 4085,
      "ĠvÄĽnec": 4086,
      "Ġdruhdy": 4087,
      "Ġahle": 4088,
      "ĠutÄĽ": 4089,
      "ĠukÃ¡": 4090,
      "Ġytu": 4091,
      "pot": 4092,
      "Ġucho": 4093,
      "Ġhmo": 4094,
      "Ġtvoji": 4095,
      "ĠptaÄįÃŃ": 4096,
      "ĠzkÃ¡": 4097,
      "ĠdlanÃŃ": 4098,
      "ĠÅĪÃ¡": 4099,
      "Ġulo": 4100,
      "Ġmramo": 4101,
      "Ġkmet": 4102,
      "Ġkryje": 4103,
      "ĠnepÅĻÃ¡tel": 4104,
      "ĠÅĻetÄĽ": 4105,
      "ĠposlÃ©z": 4106,
      "Ġvine": 4107,
      "Ġadou": 4108,
      "ĠtajÃŃ": 4109,
      "dnÃ½m": 4110,
      "Ġspu": 4111,
      "Ġanku": 4112,
      "Ġamu": 4113,
      "ĠslzÃŃ": 4114,
      "slav": 4115,
      "ge": 4116,
      "ĠnosÃŃ": 4117,
      "Ġproudy": 4118,
      "ĠtvoÅĻÃŃ": 4119,
      "ĠpodÃŃ": 4120,
      "Äįte": 4121,
      "Ġhlubin": 4122,
      "Ġzacho": 4123,
      "vky": 4124,
      "Å¡ak": 4125,
      "ĠmÄĽstÄĽ": 4126,
      "ĠslavnÃ©": 4127,
      "Ġkouzlo": 4128,
      "menÃŃ": 4129,
      "ĠvÅ¯dce": 4130,
      "Ġlaho": 4131,
      "Ġnapl": 4132,
      "Ġlisty": 4133,
      "Ġprapor": 4134,
      "ĠjÃ¡sa": 4135,
      "ĠvlasÅ¯": 4136,
      "ĠAXXA": 4137,
      "ĠbÃ½val": 4138,
      "ĠÄįase": 4139,
      "ĠblÃŃzko": 4140,
      "ÄįnÃ½m": 4141,
      "ĠjÃ¡so": 4142,
      "ĠmÄĽj": 4143,
      "ĠoÄįima": 4144,
      "ĠÃºdolÃŃ": 4145,
      "bro": 4146,
      "Ġdlouhou": 4147,
      "ĠduchÅ¯": 4148,
      "sila": 4149,
      "krÃ¡te": 4150,
      "ĠmÅ¾i": 4151,
      "ÅĻed": 4152,
      "Ġvane": 4153,
      "ĠvrÃ¡til": 4154,
      "skal": 4155,
      "Ġazem": 4156,
      "Ġvin": 4157,
      "ĠÅ¡edÃ©": 4158,
      "tÅĻ": 4159,
      "ĠnejvyÅ¡": 4160,
      "Ġoknem": 4161,
      "ĠdlouhÃ¡": 4162,
      "Ġzmizel": 4163,
      "ĠÃºÅ¾as": 4164,
      "Ġenstvi": 4165,
      "Ġhad": 4166,
      "Ġztracen": 4167,
      "ĠÄįervÃ¡n": 4168,
      "Ġstal": 4169,
      "ĠskÃ¡la": 4170,
      "Ġdom": 4171,
      "vosti": 4172,
      "Ġpouti": 4173,
      "ĠbÃ¡j": 4174,
      "Ġ20": 4175,
      "ĠchladnÃ©": 4176,
      "ĠdlanÄĽ": 4177,
      "mÃŃr": 4178,
      "ĠkÅĻik": 4179,
      "Ġvzte": 4180,
      "Ġtkli": 4181,
      "Ġhbi": 4182,
      "Å¡o": 4183,
      "nilo": 4184,
      "ĠprÃ¡va": 4185,
      "ĠtemnÃ½": 4186,
      "ĠzpÄĽvu": 4187,
      "Ġga": 4188,
      "ĠprostÅĻed": 4189,
      "ĠouÅĻi": 4190,
      "ĠÅ¾es": 4191,
      "vek": 4192,
      "cuje": 4193,
      "vede": 4194,
      "pÃŃnÃ¡": 4195,
      "Ġpust": 4196,
      "tly": 4197,
      "ĠÄĽÄį": 4198,
      "ĠÅ¡tÃŃt": 4199,
      "pÅĻed": 4200,
      "Ġmusil": 4201,
      "ĠpÅĻÃŃval": 4202,
      "dro": 4203,
      "skla": 4204,
      "asa": 4205,
      "ĠkrÃ¡Äįel": 4206,
      "ĠhnÄĽvu": 4207,
      "ĠÄįemu": 4208,
      "Ġchod": 4209,
      "Ġkos": 4210,
      "Ġuly": 4211,
      "vanÃ½": 4212,
      "ĠÄįistÃ½": 4213,
      "ĠvelkÃ½ch": 4214,
      "ĠÅĻÃŃtÃŃ": 4215,
      "ĠmotÃ½l": 4216,
      "jÃŃcÃŃm": 4217,
      "ĠÅ¾as": 4218,
      "ĠÄįerven": 4219,
      "ĠavÅ¡ak": 4220,
      "rÃ¡l": 4221,
      "dar": 4222,
      "ĠdÃŃval": 4223,
      "Ġpob": 4224,
      "Ġnebezpe": 4225,
      "tÃ¡ch": 4226,
      "ĠtrÃ¡vÄĽ": 4227,
      "daly": 4228,
      "Ġsad": 4229,
      "ost": 4230,
      "znÃ½": 4231,
      "ĠdÃŃk": 4232,
      "vech": 4233,
      "ĠnadÄĽj": 4234,
      "pce": 4235,
      "Ġskle": 4236,
      "ĠvÃŃtÄĽzstvÃŃ": 4237,
      "ony": 4238,
      "Ġtehdy": 4239,
      "Ġvrah": 4240,
      "Ġasku": 4241,
      "Ġstolu": 4242,
      "ĠmyÅ¡lenky": 4243,
      "dovÃ©": 4244,
      "ĠÄįasÅ¯": 4245,
      "enÄĽ": 4246,
      "ĠkÅĻÃŃdel": 4247,
      "ĠjinÃ¡": 4248,
      "ĠnadÄĽjÃŃ": 4249,
      "ĠdeÅ¡tÄĽ": 4250,
      "Ġumu": 4251,
      "ĠÅĻad": 4252,
      "Ġisty": 4253,
      "lÃŃk": 4254,
      "bla": 4255,
      "Ġplanou": 4256,
      "Ġfan": 4257,
      "ĠtmÃ¡ch": 4258,
      "Ġadem": 4259,
      "ÅĪat": 4260,
      "Ġazy": 4261,
      "Ġzaho": 4262,
      "ĠstraÅ¡": 4263,
      "Ġpora": 4264,
      "ĠynÄĽ": 4265,
      "nÅ¯m": 4266,
      "Ġtri": 4267,
      "Ġznak": 4268,
      "Ġstopy": 4269,
      "ĠbratÅĻe": 4270,
      "ĠrÃ½": 4271,
      "ĠtuÅ¡ÃŃ": 4272,
      "Ġtaky": 4273,
      "Ġnaho": 4274,
      "Ġapo": 4275,
      "Ġvyr": 4276,
      "ĠÅ¡eru": 4277,
      "Ġhed": 4278,
      "ĠchovÃ¡": 4279,
      "ĠtÃ¡hnou": 4280,
      "ĠjemnÄĽ": 4281,
      "ĠvroucnÄĽ": 4282,
      "ĠspÃ¡nku": 4283,
      "ĠdrÅ¾ÃŃ": 4284,
      "ĠsnÃ¡ch": 4285,
      "Ġeky": 4286,
      "Ġlho": 4287,
      "Ġejte": 4288,
      "ĠpravÃ©": 4289,
      "snÃ¡": 4290,
      "Ġuchem": 4291,
      "ĠdveÅĻÃŃ": 4292,
      "Ġhledal": 4293,
      "ĠtÄĽchto": 4294,
      "rovna": 4295,
      "Ġlaska": 4296,
      "Ġhoto": 4297,
      "Ġmohla": 4298,
      "ĠsprÃ¡": 4299,
      "Ġkvete": 4300,
      "Ġechem": 4301,
      "ĠvÄĽÄįnÃ¡": 4302,
      "Ġvzdych": 4303,
      "ĠbÃŃdy": 4304,
      "ĠdÃ½chÃ¡": 4305,
      "Ġznamen": 4306,
      "Ġtouze": 4307,
      "Ġroj": 4308,
      "ĠdivnÃ½": 4309,
      "Ġznal": 4310,
      "Ġvzru": 4311,
      "ĠÅ¾hou": 4312,
      "Ġlok": 4313,
      "ĠvÃ¡Å¡ni": 4314,
      "kÅĻÃŃ": 4315,
      "ĠhrÅ¯za": 4316,
      "Ġnesta": 4317,
      "jak": 4318,
      "Å¾ili": 4319,
      "Ġvyje": 4320,
      "Ġjan": 4321,
      "ĠusmÃŃvÃ¡": 4322,
      "Å¡u": 4323,
      "ĠpÅĻelu": 4324,
      "ĠÅ¾Ã¡dÃ¡": 4325,
      "Ġpomoci": 4326,
      "Ġzahy": 4327,
      "ĠjeÅ¥": 4328,
      "tlo": 4329,
      "rÃ½vÃ¡": 4330,
      "ĠnuÅ¾e": 4331,
      "lej": 4332,
      "ĠouÅ¡ti": 4333,
      "ĠkrÃ¡sou": 4334,
      "Ġvou": 4335,
      "ĠzÃ¡ha": 4336,
      "Ġyval": 4337,
      "ĠtÄĽlem": 4338,
      "Ġinam": 4339,
      "ĠtÄĽÅ¾kÃ¡": 4340,
      "ĠstaÅĻec": 4341,
      "ĠÄĽch": 4342,
      "mech": 4343,
      "ĠĠĊ": 4344,
      "Ġvelko": 4345,
      "Ġpadla": 4346,
      "ĠbÃŃda": 4347,
      "Ġkrajem": 4348,
      "Ġodva": 4349,
      "ĠstÃ¡ti": 4350,
      "ĠsedÄĽl": 4351,
      "lÃ¡m": 4352,
      "Ġoudi": 4353,
      "Ġprv": 4354,
      "ĠupÅĻÃŃm": 4355,
      "ĠvaÅ¡ich": 4356,
      "ĠmocnÃ½": 4357,
      "ĠvÄĽku": 4358,
      "Ġbod": 4359,
      "ĠvÄĽtrem": 4360,
      "ĠzÃ¡voj": 4361,
      "ĠvÄĽrnÄĽ": 4362,
      "ĠvÃ¡Å¾nÄĽ": 4363,
      "lÃ¡k": 4364,
      "Ġkola": 4365,
      "ĠsvÃŃrÃ¡": 4366,
      "lenou": 4367,
      "tne": 4368,
      "ÅĪa": 4369,
      "ĠsvÄĽtel": 4370,
      "kam": 4371,
      "ĠÅ¾alo": 4372,
      "ĠvzÃŃ": 4373,
      "ĠÄĽru": 4374,
      "Ġkrista": 4375,
      "dlÃ©": 4376,
      "Ġjesti": 4377,
      "ĠnejkrÃ¡snÄĽ": 4378,
      "jÃŃcÃŃch": 4379,
      "ĠpÅĻiÅ¡li": 4380,
      "ĠzÅ¯stal": 4381,
      "Ġheb": 4382,
      "ĠjednÃŃm": 4383,
      "ĠvÄĽtve": 4384,
      "Ġduchem": 4385,
      "ĠplÃŃ": 4386,
      "Ġdrahou": 4387,
      "sÃ½": 4388,
      "Ġobrov": 4389,
      "lÃ¡nÃŃ": 4390,
      "ĠhÃ¡je": 4391,
      "Ġrosa": 4392,
      "ĠtrÅ¯nu": 4393,
      "Ġihne": 4394,
      "ĠsÃŃÅĪ": 4395,
      "Ġklade": 4396,
      "Ġyn": 4397,
      "ĠjinÃ½m": 4398,
      "ĠosamÄĽ": 4399,
      "Å¾ela": 4400,
      "Ġpozdrav": 4401,
      "ĠdnÄĽ": 4402,
      "Ġecko": 4403,
      "letÄĽ": 4404,
      "hÃ¡ch": 4405,
      "ĠÄįÃŃÅ¡": 4406,
      "ĠstÅĻedu": 4407,
      "ĠXXAABB": 4408,
      "ĠchÅ¯": 4409,
      "ĠlidskÃ¡": 4410,
      "ĠpotÅĻe": 4411,
      "Ġbru": 4412,
      "Ġuta": 4413,
      "ĠrodnÃ©": 4414,
      "vici": 4415,
      "Ġlen": 4416,
      "ĠvÃ½kÅĻik": 4417,
      "ĠtrÃ½": 4418,
      "ĠskrÃ½vÃ¡": 4419,
      "Ġia": 4420,
      "Ġlev": 4421,
      "Ġstromu": 4422,
      "ĠtrÅ¯n": 4423,
      "Ġjat": 4424,
      "Ġuty": 4425,
      "Ġmilou": 4426,
      "ĠbrÃ¡ny": 4427,
      "ĠzamyÅ¡": 4428,
      "Ġvyko": 4429,
      "ĠÅ¾alÃ¡": 4430,
      "pky": 4431,
      "ĠvstÃ¡vÃ¡": 4432,
      "ĠudÄĽ": 4433,
      "Ġdlu": 4434,
      "cie": 4435,
      "ĠmoÅĻem": 4436,
      "ĠAAXB": 4437,
      "Ġvdo": 4438,
      "Äįili": 4439,
      "ĠzÃ¡kon": 4440,
      "ĠÄĽky": 4441,
      "ĠdÃ©Å¡Å¥": 4442,
      "ĠodvÃ¡": 4443,
      "Ġsnil": 4444,
      "Ġjal": 4445,
      "ĠhÅ¯": 4446,
      "ĠloÅ¾i": 4447,
      "ĠÄįnÃŃ": 4448,
      "Ġestu": 4449,
      "ĠtÄĽÅ¡ÃŃ": 4450,
      "ĠmrtvÃ½": 4451,
      "ĠsvÅ¯": 4452,
      "Ġinem": 4453,
      "ĠdivÃ©": 4454,
      "zÃ¡ch": 4455,
      "Ġpri": 4456,
      "Ġlabu": 4457,
      "Ġsmutno": 4458,
      "ĠkvÃŃlÃŃ": 4459,
      "ĠodpovÃŃ": 4460,
      "Å¾a": 4461,
      "Ġbolem": 4462,
      "pek": 4463,
      "ĠÅĻÃŃÅ¡i": 4464,
      "ĠodmÄĽ": 4465,
      "ĠÅĻÃŃÅ¡": 4466,
      "Ġzdro": 4467,
      "ĠnejvÃŃc": 4468,
      "ĠvaÅ¡i": 4469,
      "ĠhnÃ¡": 4470,
      "set": 4471,
      "Ġdneska": 4472,
      "ĠdÃ¡vnÃ½ch": 4473,
      "ĠvznÃ¡Å¡ÃŃ": 4474,
      "ĠvzrÅ¯": 4475,
      "ĠdivÃ¡": 4476,
      "ĠvichÅĻi": 4477,
      "ĠkÃ½vÃ¡": 4478,
      "Ġobe": 4479,
      "Ġtyto": 4480,
      "dÃ½m": 4481,
      "ĠzdaÅ¾": 4482,
      "lin": 4483,
      "Ġhon": 4484,
      "nÃŃkÅ¯": 4485,
      "Ġhi": 4486,
      "ĠtÃŃÅ¾": 4487,
      "ĠrozechvÄĽ": 4488,
      "ÅĻili": 4489,
      "dÄĽti": 4490,
      "jdou": 4491,
      "Ġplou": 4492,
      "ĠkÅĻo": 4493,
      "Ġovou": 4494,
      "Ġvolal": 4495,
      "ĠsmutnÃ¡": 4496,
      "ĠsmÃ¡l": 4497,
      "kaly": 4498,
      "nkem": 4499,
      "ĠmÃ¡ti": 4500,
      "ĠpÃ¡nu": 4501,
      "Ġradu": 4502,
      "ĠÅ¾ivÃ©": 4503,
      "Ġpolib": 4504,
      "ĠkrÃ¡snou": 4505,
      "ĠpracÃŃ": 4506,
      "ĠsvÄĽtlem": 4507,
      "ĠzvÄĽst": 4508,
      "ĠdvÃ©ÅĻe": 4509,
      "ĠkterÃ½m": 4510,
      "ĠbolestÃŃ": 4511,
      "Ġzbled": 4512,
      "rÃ¡t": 4513,
      "ĠbÃŃdu": 4514,
      "Ġluh": 4515,
      "Ġperly": 4516,
      "Ã¡l": 4517,
      "Ġpurpu": 4518,
      "ĠbÃ¡je": 4519,
      "jit": 4520,
      "ĠtuÅ¾": 4521,
      "ĠlÃ©pe": 4522,
      "ĠjÃ¡sÃ¡": 4523,
      "Ġmech": 4524,
      "Ġpekel": 4525,
      "Ġhluk": 4526,
      "ĠchvÄĽla": 4527,
      "ĠÅĻady": 4528,
      "ĠÄįernou": 4529,
      "Ġstuden": 4530,
      "Äįela": 4531,
      "Ġpusti": 4532,
      "ĠÄĽne": 4533,
      "Ġner": 4534,
      "ĠvelikÃ©": 4535,
      "Ġplyne": 4536,
      "Ġetem": 4537,
      "Ġrosy": 4538,
      "ĠkÃ¡Å¾e": 4539,
      "Ġpodi": 4540,
      "Ġkolik": 4541,
      "Ġdavu": 4542,
      "Ġetla": 4543,
      "ĠchladnÃ½": 4544,
      "ĠokamÅ¾ik": 4545,
      "ĠsedÃ¡": 4546,
      "Ġspokojen": 4547,
      "Ġshas": 4548,
      "ĠplÃ¡Å¡Å¥": 4549,
      "ĠstÃ¡ÅĻÃŃ": 4550,
      "ĠnechtÄĽ": 4551,
      "ĠstÅĻÃŃbro": 4552,
      "vÅ¡e": 4553,
      "pec": 4554,
      "ĠpÃ½": 4555,
      "ĠnÃ©": 4556,
      "mon": 4557,
      "ĠcÃŃle": 4558,
      "ĠÄįarov": 4559,
      "ĠzbraÅĪ": 4560,
      "Ġbit": 4561,
      "ĠprostÃ©": 4562,
      "ĠmladÃ½ch": 4563,
      "ĠistÄĽ": 4564,
      "moc": 4565,
      "ĠÅ¾elez": 4566,
      "ĠplnÃ¡": 4567,
      "ĠstoupÃ¡": 4568,
      "bar": 4569,
      "Ġahne": 4570,
      "vcÅ¯": 4571,
      "Ġmladi": 4572,
      "Ġjede": 4573,
      "Ġinka": 4574,
      "ĠtatÃŃ": 4575,
      "ckÃ¡": 4576,
      "ĠskÃ¡le": 4577,
      "uj": 4578,
      "ĠpÅĻÃŃrody": 4579,
      "ĠnazpÄĽt": 4580,
      "ĠvÄĽÅ¾ÃŃ": 4581,
      "ĠÅĻada": 4582,
      "ĠÄĽchu": 4583,
      "Ġpekla": 4584,
      "ĠmÃŃstÄĽ": 4585,
      "Ġrozk": 4586,
      "ĠchudÃ¡": 4587,
      "ĠmanÄĽ": 4588,
      "nily": 4589,
      "Ġstav": 4590,
      "nili": 4591,
      "kov": 4592,
      "Ġkarel": 4593,
      "ĠkÅ¯ÅĪ": 4594,
      "ĠdÃŃky": 4595,
      "Ġopil": 4596,
      "Ġslzou": 4597,
      "ĠumÄĽl": 4598,
      "Ġumy": 4599,
      "Å¡eÅĪ": 4600,
      "vol": 4601,
      "ĠÅ¾itÃŃm": 4602,
      "Ġprsty": 4603,
      "Ġiral": 4604,
      "ĠvlÃ¡dne": 4605,
      "mal": 4606,
      "Ġmluvit": 4607,
      "ĠiÄį": 4608,
      "Ġnitro": 4609,
      "ÄįÅ¯": 4610,
      "stek": 4611,
      "tli": 4612,
      "tily": 4613,
      "ĠradÄĽj": 4614,
      "vak": 4615,
      "ĠplnÃŃ": 4616,
      "Ġpoesie": 4617,
      "lÃŃch": 4618,
      "Ġzmize": 4619,
      "Ġvznes": 4620,
      "Ġedem": 4621,
      "Ġpanna": 4622,
      "ĠrÃ¡ji": 4623,
      "pÃŃrÃ¡": 4624,
      "ĠÄįÃŃÅ¡e": 4625,
      "Ġplod": 4626,
      "Ġkosti": 4627,
      "ĠpotÃ¡": 4628,
      "nej": 4629,
      "Ġrodu": 4630,
      "Ġdumy": 4631,
      "Ġuny": 4632,
      "ĠpoupÄĽ": 4633,
      "ĠzpÄĽvy": 4634,
      "ĠdennÃŃ": 4635,
      "Ġklobou": 4636,
      "ĠÅ¡pe": 4637,
      "ĠstÃ¡li": 4638,
      "ĠhledÃŃm": 4639,
      "ĠmarnÃ©": 4640,
      "ĠprÃ¡zdno": 4641,
      "ĠjedinÃ¡": 4642,
      "Ġdcera": 4643,
      "Ġenym": 4644,
      "ĠutÃŃ": 4645,
      "Ġyka": 4646,
      "Ġitil": 4647,
      "ĠÄįeho": 4648,
      "ol": 4649,
      "ĠjejÃŃch": 4650,
      "Ġinach": 4651,
      "Ġher": 4652,
      "ĠletÄĽ": 4653,
      "ĠÄįekal": 4654,
      "Ġex": 4655,
      "ĠÄįinÃŃ": 4656,
      "ÅĻenÃ¡": 4657,
      "pÃŃm": 4658,
      "Ġzlou": 4659,
      "ĠmoÅĻ": 4660,
      "Ġmistr": 4661,
      "Ġpokry": 4662,
      "Ġopoj": 4663,
      "vla": 4664,
      "Ġomi": 4665,
      "Ġitra": 4666,
      "Ġmiloval": 4667,
      "ĠhnÃŃzdo": 4668,
      "ĠtrÃ¡vy": 4669,
      "ĠklÃŃnu": 4670,
      "ĠpÅ¯jde": 4671,
      "Ġodtud": 4672,
      "Ġnejsou": 4673,
      "Ġpozor": 4674,
      "ĠÃºto": 4675,
      "ĠmnohÃ¡": 4676,
      "ĠÅ¾havÃ©": 4677,
      "ĠspoleÄį": 4678,
      "cÃŃho": 4679,
      "Ġpomalu": 4680,
      "ĠpoÅ¾ehnÃ¡nÃŃ": 4681,
      "vor": 4682,
      "ĠiÅĻe": 4683,
      "ĠhonÃŃ": 4684,
      "ĠnesmÄĽ": 4685,
      "chÃ¡ch": 4686,
      "ĠÄĽhu": 4687,
      "nulo": 4688,
      "dilo": 4689,
      "Ġnemoh": 4690,
      "Ġrostou": 4691,
      "Ġnemlu": 4692,
      "ĠoÅ¾il": 4693,
      "ĠprchÃ¡": 4694,
      "Ġvzly": 4695,
      "ĠÄįistÃ¡": 4696,
      "ĠvÄĽnce": 4697,
      "Ġdy": 4698,
      "kami": 4699,
      "ĠÅ¡Å¥asten": 4700,
      "ĠÅ¾enÄĽ": 4701,
      "Ġrozpu": 4702,
      "Ġgra": 4703,
      "kr": 4704,
      "hala": 4705,
      "pnÄĽ": 4706,
      "ĠÅ¡kle": 4707,
      "Ġletem": 4708,
      "ĠÅ¡koda": 4709,
      "ĠvÅ¡udy": 4710,
      "ĠÅ¾havÃ½": 4711,
      "Ġstruny": 4712,
      "ĠpÅĻÃŃmo": 4713,
      "ĠpÃ¡nem": 4714,
      "Ġnutno": 4715,
      "Ġtur": 4716,
      "ĠhÃ¡zÃŃ": 4717,
      "ÄįkÃ½": 4718,
      "ĠmuÅ¾Å¯": 4719,
      "ĠptÃ¡kÅ¯": 4720,
      "ĠzÃ¡padu": 4721,
      "Ġobo": 4722,
      "Ġpeklo": 4723,
      "ĠskrÃ¡nÃŃ": 4724,
      "ĠÃºz": 4725,
      "ĠskrÃ¡nÄĽ": 4726,
      "ĠubÃŃ": 4727,
      "ĠsÃ½": 4728,
      "ĠvnitÅĻ": 4729,
      "lenÃ¡": 4730,
      "ĠmrakÅ¯": 4731,
      "Ġence": 4732,
      "nd": 4733,
      "Ġtopo": 4734,
      "Ġekla": 4735,
      "ĠkrÃ¡tkÃ½": 4736,
      "ĠnejkrÃ¡snÄĽjÅ¡ÃŃ": 4737,
      "rnÃ½m": 4738,
      "rovÃ©": 4739,
      "Ġzavo": 4740,
      "ĠvÃŃtÃ¡": 4741,
      "ĠrÃ¡mÄĽ": 4742,
      "ĠvdÄĽk": 4743,
      "ĠdivnÄĽ": 4744,
      "loudil": 4745,
      "ĠrozkoÅ¡e": 4746,
      "ĠsvÄĽdomÃŃ": 4747,
      "Ġlhostej": 4748,
      "zenÃŃ": 4749,
      "Ġmyslil": 4750,
      "ĠkonÃŃ": 4751,
      "Ġstanul": 4752,
      "Ġdomov": 4753,
      "ĠpamÄĽti": 4754,
      "Ġtoto": 4755,
      "ĠXXXA": 4756,
      "vic": 4757,
      "Ġvzlet": 4758,
      "Ġsten": 4759,
      "Ġkruhu": 4760,
      "ĠokamÅ¾i": 4761,
      "Ġsvobody": 4762,
      "gra": 4763,
      "ÅĻÃŃÅ¡": 4764,
      "ĠÄįelem": 4765,
      "Ġvrch": 4766,
      "Ġadlo": 4767,
      "ĠpoÅ¡": 4768,
      "ĠplÃ¡Äįem": 4769,
      "ĠdlouhÃ½ch": 4770,
      "Ã½Å¡": 4771,
      "lÃŃÅ¡": 4772,
      "ÄįkÅ¯": 4773,
      "nuli": 4774,
      "ĠpÅĻÃŃteli": 4775,
      "ĠzvonÅ¯": 4776,
      "ĠchvÄĽjÃŃ": 4777,
      "ĠÅ¾er": 4778,
      "ĠsvÄĽd": 4779,
      "Ġztr": 4780,
      "ĠnejvÄĽt": 4781,
      "Ġicy": 4782,
      "ĠodpusÅ¥": 4783,
      "Ġclo": 4784,
      "Ġstin": 4785,
      "ĠzbranÄĽ": 4786,
      "Ġlesku": 4787,
      "ĠnÄĽko": 4788,
      "Ġpadl": 4789,
      "Ġbarvy": 4790,
      "kly": 4791,
      "Ġnetu": 4792,
      "dec": 4793,
      "ĠstÅ¯l": 4794,
      "Ġdruhu": 4795,
      "ĠsÃŃnÄĽ": 4796,
      "Ġsnech": 4797,
      "ĠvÄĽdÄĽl": 4798,
      "ĠkrÃ¡snÄĽ": 4799,
      "ĠÄįlovÄĽku": 4800,
      "ĠpyÅ¡": 4801,
      "Ġivot": 4802,
      "ĠmÃ¡j": 4803,
      "ĠneÅ¡tÄĽ": 4804,
      "ĠbdÃŃ": 4805,
      "Ġuko": 4806,
      "mÃŃm": 4807,
      "ĠvÄĽrnÃ½": 4808,
      "Ġhyne": 4809,
      "Ġunaven": 4810,
      "Ġeskem": 4811,
      "tilo": 4812,
      "Ġulic": 4813,
      "ĠvÃ¡clav": 4814,
      "ĠdomÃ¡": 4815,
      "Ġdobrou": 4816,
      "lili": 4817,
      "ĠtmavÃ½": 4818,
      "Ġesi": 4819,
      "Ġbychom": 4820,
      "ĠblahÃ©": 4821,
      "ĠvzpomÃŃnÃ¡m": 4822,
      "Ġivat": 4823,
      "Ġiho": 4824,
      "ĠzavÃ¡": 4825,
      "Ġarci": 4826,
      "ĠzvÃŃÅĻe": 4827,
      "ĠÄįtyÅĻi": 4828,
      "Ġdivy": 4829,
      "neme": 4830,
      "Ġslep": 4831,
      "Ġstrachu": 4832,
      "ĠÄįar": 4833,
      "snou": 4834,
      "Å¾eb": 4835,
      "ĠvÃ¡Å¡eÅĪ": 4836,
      "darmo": 4837,
      "ĠkdeÅ¾": 4838,
      "ĠvznÄĽ": 4839,
      "Ġblaze": 4840,
      "ĠkÅĻiÄįÃŃ": 4841,
      "jÃŃcÃ½": 4842,
      "ĠnovÃ½m": 4843,
      "Å¡ila": 4844,
      "zÃŃch": 4845,
      "ĠmÅĻe": 4846,
      "ÅĻena": 4847,
      "ĠdÄĽlÃ¡": 4848,
      "tuje": 4849,
      "ĠmlÃ¡den": 4850,
      "Ġevro": 4851,
      "ĠjemuÅ¾": 4852,
      "fe": 4853,
      "Ġjez": 4854,
      "ĠnaÅ¡em": 4855,
      "ĠusmÄĽ": 4856,
      "Ġnemohu": 4857,
      "ĠÃºc": 4858,
      "ĠtichÃ©m": 4859,
      "ĠisnÄĽ": 4860,
      "ĠkÅĻiv": 4861,
      "Ġobzoru": 4862,
      "Ġysi": 4863,
      "Ġzuby": 4864,
      "ĠhrozÃŃ": 4865,
      "klady": 4866,
      "Ġehu": 4867,
      "Ġmalou": 4868,
      "ĠmyÅ¡lÃ©nky": 4869,
      "Ġun": 4870,
      "vaje": 4871,
      "Ġip": 4872,
      "Ġvida": 4873,
      "ĠpÄĽstÃŃ": 4874,
      "ĠletnÃŃ": 4875,
      "Äįas": 4876,
      "ĠvÃ¡bÃŃ": 4877,
      "ĠslzÃ¡ch": 4878,
      "Ġsmrtel": 4879,
      "ĠzvuÄįÃŃ": 4880,
      "try": 4881,
      "ĠyÅ¡el": 4882,
      "ĠotvÃŃrÃ¡": 4883,
      "ĠzaznÃŃ": 4884,
      "Ġyska": 4885,
      "ĠpovÄĽz": 4886,
      "ĠjiÅĻÃŃ": 4887,
      "Ġhladi": 4888,
      "ĠÄĽmi": 4889,
      "Ġnebesa": 4890,
      "Ġhrdin": 4891,
      "Ġorel": 4892,
      "hovÃ©": 4893,
      "nut": 4894,
      "Ġjinoch": 4895,
      "ĠzdrÃ¡v": 4896,
      "hni": 4897,
      "tÃ©ho": 4898,
      "Ġhore": 4899,
      "Ã¡n": 4900,
      "Ġiry": 4901,
      "ĠvÃŃÅĻÃŃ": 4902,
      "ĠbuÅ¡ÃŃ": 4903,
      "ĠcelÃ©m": 4904,
      "rala": 4905,
      "Ġjiskry": 4906,
      "Ġkristus": 4907,
      "ĠsmÃŃchem": 4908,
      "Ġsev": 4909,
      "ĠcÃŃli": 4910,
      "ĠvzneÅ¡en": 4911,
      "ĠleÅ¾": 4912,
      "ĠlÃŃcÃŃ": 4913,
      "Ġudce": 4914,
      "Ġnach": 4915,
      "ĠzrakÅ¯": 4916,
      "Ġpozo": 4917,
      "Ġhovor": 4918,
      "ĠÅ¾ivÃ½": 4919,
      "ĠvÄĽÄįnost": 4920,
      "Ġsvobodu": 4921,
      "ĠÅĻÃŃkÃ¡": 4922,
      "Ġzar": 4923,
      "Ġtamo": 4924,
      "ĠdÄĽtem": 4925,
      "ĠvÄĽÄįnou": 4926,
      "Ġanek": 4927,
      "ĠznamenÃŃ": 4928,
      "ĠmÃ½": 4929,
      "ĠÄĽda": 4930,
      "Ġoupa": 4931,
      "ĠÅ¡ero": 4932,
      "ĠzahrÃ¡": 4933,
      "ĠlÃŃba": 4934,
      "ĠhrabÄĽ": 4935,
      "ĠdunÃŃ": 4936,
      "ĠznÃ¡Å¡": 4937,
      "ĠkÅĻÃŃdlem": 4938,
      "ĠstÅ¯j": 4939,
      "cou": 4940,
      "Ġsmi": 4941,
      "ĠvlnÃŃ": 4942,
      "Ġuto": 4943,
      "ĠplÃ¡nÃŃ": 4944,
      "Ġhlavi": 4945,
      "ĠÃºt": 4946,
      "ĠrÃ¡di": 4947,
      "Ġslast": 4948,
      "ĠjakÃ½s": 4949,
      "Ġrtu": 4950,
      "Ġklesla": 4951,
      "rostÅĻed": 4952,
      "lid": 4953,
      "ĠÅ¡t": 4954,
      "ĠÅ¡edÃ½": 4955,
      "ĠvlnÃ¡ch": 4956,
      "ĠonÃ©": 4957,
      "Ġudou": 4958,
      "Ġbrzo": 4959,
      "Ġenku": 4960,
      "ĠposvÄĽ": 4961,
      "ĠkorÃ¡": 4962,
      "Ġletech": 4963,
      "Ġjablo": 4964,
      "ĠtÄĽmi": 4965,
      "Ġbisku": 4966,
      "ĠstokrÃ¡t": 4967,
      "dle": 4968,
      "Ġadal": 4969,
      "ĠÅ¾Ã¡rem": 4970,
      "vÅ¯r": 4971,
      "Ġpoza": 4972,
      "Ġslunko": 4973,
      "ĠpojÃŃ": 4974,
      "telem": 4975,
      "Ġmile": 4976,
      "ĠhrÃ¡l": 4977,
      "Ġury": 4978,
      "ĠbojovnÃŃ": 4979,
      "ĠtajnÄĽ": 4980,
      "Ġtmu": 4981,
      "ĠjÃŃmÃ¡": 4982,
      "ĠÅ¡eptÃ¡": 4983,
      "ĠpÅ¯jdu": 4984,
      "Ġslovan": 4985,
      "Ġsoumra": 4986,
      "Ġpovin": 4987,
      "ĠnaÅĻÃŃ": 4988,
      "ĠpÅĻÃŃroda": 4989,
      "Ġyku": 4990,
      "ĠvelikÃ¡": 4991,
      "Ġerou": 4992,
      "ĠpÃŃsku": 4993,
      "Ġztratil": 4994,
      "ĠvraÅ¥": 4995,
      "ĠprosÃŃ": 4996,
      "Ġisk": 4997,
      "ĠnoÅĻÃŃ": 4998,
      "Ġmladosti": 4999,
      "fy": 5000,
      "Ġinky": 5001,
      "Ġklas": 5002,
      "ĠtÄĽÅ¾kou": 5003,
      "ĠÅ¾eno": 5004,
      "ĠÄıÃ¡bel": 5005,
      "Ġubi": 5006,
      "nutÃŃm": 5007,
      "jeme": 5008,
      "ĠhroznÃ½": 5009,
      "ĠnÃ¡dhe": 5010,
      "Ġrozma": 5011,
      "Ġsnes": 5012,
      "ĠoÄįka": 5013,
      "loval": 5014,
      "ĠcelÃ½m": 5015,
      "trem": 5016,
      "Ġmechu": 5017,
      "ĠpravdÄĽ": 5018,
      "Ġynou": 5019,
      "ĠnechtÄĽl": 5020,
      "ĠÄįerno": 5021,
      "Ġcitu": 5022,
      "Ġproudem": 5023,
      "Ġdaleka": 5024,
      "ĠtÃ¡bo": 5025,
      "hro": 5026,
      "ĠnÃ¡rodu": 5027,
      "Å¾ek": 5028,
      "ĠverÅ¡e": 5029,
      "Äįina": 5030,
      "ĠkrÅ¯pÄĽj": 5031,
      "Ġhlav": 5032,
      "ĠsvatÃ½ch": 5033,
      "dÄĽji": 5034,
      "ĠplaÅ¡e": 5035,
      "Ġahla": 5036,
      "Ġleskem": 5037,
      "Ġhavra": 5038,
      "ĠjedinÃ©": 5039,
      "Ġnalez": 5040,
      "ĠslyÅ¡ÃŃÅ¡": 5041,
      "ĠvÄĽcÃŃ": 5042,
      "Ġcity": 5043,
      "ĠpustÃ©": 5044,
      "ĠÄĽn": 5045,
      "Ġviny": 5046,
      "ĠÅ¡tÄĽstÃŃm": 5047,
      "Ġkalich": 5048,
      "Ġahou": 5049,
      "ĠiÄįko": 5050,
      "Ġteskno": 5051,
      "Ġhvozd": 5052,
      "ĠÄĽsta": 5053,
      "ĠzÅĻÃŃÅ¡": 5054,
      "ĠverÅ¡": 5055,
      "fo": 5056,
      "ĠkolÃ©b": 5057,
      "Ġnaklo": 5058,
      "tin": 5059,
      "ĠvÅ¡ednÃŃ": 5060,
      "Ġticha": 5061,
      "ĠbÄĽd": 5062,
      "ĠodvÄĽ": 5063,
      "ÅĻenÃ½ch": 5064,
      "ĠmoÅ¾nÃ¡": 5065,
      "Ġvtip": 5066,
      "Ġvodo": 5067,
      "Ġsam": 5068,
      "ĠÄįerst": 5069,
      "Ġdoz": 5070,
      "Ġeu": 5071,
      "viny": 5072,
      "ĠdÄĽvy": 5073,
      "tej": 5074,
      "hlou": 5075,
      "Ġlek": 5076,
      "Ġadly": 5077,
      "Ġnechal": 5078,
      "Ġvzala": 5079,
      "Ġjinou": 5080,
      "ĠpastÃ½": 5081,
      "ĠrozlÃ©": 5082,
      "bÅ¯h": 5083,
      "ckou": 5084,
      "Å¡tÃŃm": 5085,
      "ĠkrÄį": 5086,
      "ĠpozdnÃŃ": 5087,
      "Ġveleb": 5088,
      "Ġunu": 5089,
      "ĠpÄĽnÃŃ": 5090,
      "Ġohrom": 5091,
      "Ġnasta": 5092,
      "Ġluna": 5093,
      "ĠAAAX": 5094,
      "Ġlni": 5095,
      "ĠbÄĽlost": 5096,
      "nt": 5097,
      "Ġspla": 5098,
      "Ġotem": 5099,
      "Ġnesko": 5100,
      "najÃŃ": 5101,
      "ĠmodlÃŃ": 5102,
      "Ġusly": 5103,
      "Ġstisk": 5104,
      "Ġvry": 5105,
      "ĠkvÃ©": 5106,
      "ĠasnÄĽ": 5107,
      "Ġchudo": 5108,
      "Ġnitra": 5109,
      "mÃ¡nÃŃ": 5110,
      "nie": 5111,
      "ĠÄĽc": 5112,
      "ĠzpÃŃvat": 5113,
      "Ġzbro": 5114,
      "ĠmanÅ¾el": 5115,
      "Ġuchy": 5116,
      "Ġycky": 5117,
      "sech": 5118,
      "Ġvil": 5119,
      "lala": 5120,
      "ĠsamÃ½": 5121,
      "ĠÅ¾Ã¡dnÃ¡": 5122,
      "ĠÄįeskÃ¡": 5123,
      "Ġracho": 5124,
      "ĠplÃ¡l": 5125,
      "ĠtrhÃ¡": 5126,
      "ĠmlÃ©": 5127,
      "taly": 5128,
      "ĠvÄĽrnÃ©": 5129,
      "Ġskla": 5130,
      "Ġpropasti": 5131,
      "vl": 5132,
      "huje": 5133,
      "rii": 5134,
      "ĠspÃŃcÃŃ": 5135,
      "Ġctnosti": 5136,
      "ĠhnutÃŃ": 5137,
      "Ġatce": 5138,
      "tnÃ½ch": 5139,
      "ĠnÃŃmÅ¾": 5140,
      "Ġchvilku": 5141,
      "lily": 5142,
      "Ġeci": 5143,
      "ĠAX": 5144,
      "ĠnejvyÅ¡Å¡ÃŃ": 5145,
      "Ġpanny": 5146,
      "ĠmÅ¯Å¾eÅ¡": 5147,
      "sat": 5148,
      "ĠhrdÃ©": 5149,
      "ÅĪÅ¯": 5150,
      "ĠvÃ¡nek": 5151,
      "Ġbran": 5152,
      "ĠstÃŃnem": 5153,
      "Ġzlost": 5154,
      "ĠzaÄįal": 5155,
      "Ġiska": 5156,
      "ĠÅ¾u": 5157,
      "Ġoudy": 5158,
      "Ġatko": 5159,
      "Ġmoudro": 5160,
      "Ġchcete": 5161,
      "ĠpÅĻis": 5162,
      "Ġnesla": 5163,
      "Ġzdroj": 5164,
      "Ġukru": 5165,
      "ÄįnÃ©m": 5166,
      "ĠpÃŃt": 5167,
      "ĠpouÅ¡ti": 5168,
      "Ġvysoko": 5169,
      "alen": 5170,
      "ĠvÅ¡eli": 5171,
      "ĠspÃ¡nek": 5172,
      "ĠmÅ¾ik": 5173,
      "Ġsice": 5174,
      "nicÃŃ": 5175,
      "ĠÃºzkost": 5176,
      "Ġnadarmo": 5177,
      "Ġnau": 5178,
      "ĠpapeÅ¾": 5179,
      "ĠvstÃ¡": 5180,
      "ĠpouÅ¡tÃŃ": 5181,
      "Ġpozved": 5182,
      "Ġmluv": 5183,
      "Ġvrat": 5184,
      "Ġerem": 5185,
      "Ġneji": 5186,
      "ĠpouÅ¡tÄĽ": 5187,
      "Ġdna": 5188,
      "ĠnÄĽme": 5189,
      "Ġpopel": 5190,
      "Ġzrovna": 5191,
      "ĠoÅĻ": 5192,
      "ĠdnÃŃ": 5193,
      "Ġnou": 5194,
      "jÃŃÅ¾": 5195,
      "Ġhalu": 5196,
      "ĠvzpomÃŃnka": 5197,
      "ĠÄĽnou": 5198,
      "ĠdÃŃtky": 5199,
      "ĠvlÃŃdnÄĽ": 5200,
      "ĠstÅĻÃ¡": 5201,
      "ĠzdÃ¡l": 5202,
      "Ġkorunu": 5203,
      "raje": 5204,
      "Ġpochyb": 5205,
      "zÃ½": 5206,
      "nÄĽnÃ©": 5207,
      "ĠABABAX": 5208,
      "ĠhroznÃ©": 5209,
      "Ġlna": 5210,
      "ĠneÅ¡tÄĽstÃŃ": 5211,
      "livÃ¡": 5212,
      "nÄĽte": 5213,
      "Ġmladou": 5214,
      "Ġsmysl": 5215,
      "Ġprocit": 5216,
      "ĠleÅ¾el": 5217,
      "ĠzelenÃ©": 5218,
      "ĠchystÃ¡": 5219,
      "Ġvypu": 5220,
      "tovÃ©": 5221,
      "ĠhrajÃŃ": 5222,
      "Ġkor": 5223,
      "ĠkterÃ½ch": 5224,
      "ĠhvÄĽzdi": 5225,
      "ĠhÃ¡ji": 5226,
      "Ġpocti": 5227,
      "ĠmÃ¡Å¥": 5228,
      "ĠÅ¾eni": 5229,
      "ĠsrdcÃŃch": 5230,
      "ĠvÃ½s": 5231,
      "dni": 5232,
      "ĠnÃ¡ho": 5233,
      "ĠpenÃŃ": 5234,
      "rozen": 5235,
      "Ġjinde": 5236,
      "ĠzvÄĽda": 5237,
      "ĠzÃ¡ÅĻÃŃcÃŃ": 5238,
      "ĠÅĻÃ¡d": 5239,
      "Ġvodou": 5240,
      "Ġbratra": 5241,
      "ÄįenÃ½": 5242,
      "ĠjdeÅ¡": 5243,
      "ĠÄĽtlo": 5244,
      "ĠsmrÅ¥": 5245,
      "ĠlÅ¯nÄĽ": 5246,
      "ĠbrÃ¡nÃŃ": 5247,
      "ĠdrobnÃ©": 5248,
      "ĠmÄĽsÃŃce": 5249,
      "ĠpÃ¡s": 5250,
      "Ġelu": 5251,
      "ĠzÃ¡zrak": 5252,
      "ĠzlatÃ½m": 5253,
      "Ġkomo": 5254,
      "ĠkrÃ¡lem": 5255,
      "Ġoudu": 5256,
      "ĠsÃŃni": 5257,
      "ĠspÄĽchÃ¡": 5258,
      "Ġjel": 5259,
      "ĠuprostÅĻed": 5260,
      "ĠtanÄįÃŃ": 5261,
      "tice": 5262,
      "Ġsoucit": 5263,
      "Ġrozmar": 5264,
      "ĠbojÃŃ": 5265,
      "ĠÅ¡tÄĽd": 5266,
      "ĠdÄĽva": 5267,
      "ĠjasnÃ¡": 5268,
      "ĠeÅ¡": 5269,
      "ĠsÃŃle": 5270,
      "ĠpoutnÃŃk": 5271,
      "Ġvzdechy": 5272,
      "Ġminul": 5273,
      "ĠÅ¾ivotÄĽ": 5274,
      "Ġplameny": 5275,
      "Ġio": 5276,
      "ĠvzdychÃ¡": 5277,
      "tce": 5278,
      "Ġiste": 5279,
      "niti": 5280,
      "Ġprahy": 5281,
      "ĠvlasÅ¥": 5282,
      "Ġtomto": 5283,
      "ĠslavÃŃk": 5284,
      "ÄįkÃ¡ch": 5285,
      "Ġjednoho": 5286,
      "Ġpohy": 5287,
      "Ġpsal": 5288,
      "Ġopy": 5289,
      "dovat": 5290,
      "Ġitim": 5291,
      "Ġztu": 5292,
      "ĠoÅĻil": 5293,
      "Ġitem": 5294,
      "Ġplen": 5295,
      "Ġhledat": 5296,
      "ĠÄįervÃ¡": 5297,
      "ĠzvÃ¡": 5298,
      "ĠrÃ©": 5299,
      "Ġpetr": 5300,
      "dÃ¡vÃ¡": 5301,
      "ĠvÅ¡echen": 5302,
      "Ġbral": 5303,
      "Ġosudu": 5304,
      "Ġohem": 5305,
      "Ġtemnou": 5306,
      "ÅĻiti": 5307,
      "ĠtrÃ¡va": 5308,
      "jala": 5309,
      "ĠpospÃŃ": 5310,
      "Ġpolem": 5311,
      "ĠzaÅ¡e": 5312,
      "novi": 5313,
      "ĠpoÄįal": 5314,
      "Ġtrest": 5315,
      "rovi": 5316,
      "ĠmnÃŃ": 5317,
      "ĠÅ¡va": 5318,
      "Ġokno": 5319,
      "dalo": 5320,
      "ĠÄĽtÅ¡i": 5321,
      "Ġknihy": 5322,
      "Ġutku": 5323,
      "ĠdruhÃ¡": 5324,
      "dati": 5325,
      "Ġbli": 5326,
      "Ġpohledem": 5327,
      "Ġchlap": 5328,
      "ĠstrÃ½": 5329,
      "Ġvojsko": 5330,
      "ĠpohÃ¡r": 5331,
      "ĠÅ¾ert": 5332,
      "Ġmysti": 5333,
      "Ġivem": 5334,
      "leÅĪ": 5335,
      "pomÃŃnÃ¡": 5336,
      "Ġzho": 5337,
      "ĠzÅĻela": 5338,
      "ĠdvÅ¯r": 5339,
      "ĠbuÄıte": 5340,
      "ĠcizÃŃch": 5341,
      "lko": 5342,
      "Ġbezpe": 5343,
      "Ġspasi": 5344,
      "ĠbrÃ¡z": 5345,
      "ĠtvÅ¯r": 5346,
      "ĠctÃŃ": 5347,
      "ĠlÅ¾i": 5348,
      "Ġslzu": 5349,
      "Ġichy": 5350,
      "ĠvodÄĽ": 5351,
      "Ġzvyk": 5352,
      "Ġzasmu": 5353,
      "ĠskuteÄį": 5354,
      "ĠneÃº": 5355,
      "tali": 5356,
      "ĠÃºro": 5357,
      "ĠchudÃ½": 5358,
      "Ã¡ch": 5359,
      "Ġusti": 5360,
      "ĠzlatÃŃ": 5361,
      "Ġpozem": 5362,
      "ĠstojÃŃm": 5363,
      "ĠvÄĽÅĻÃŃm": 5364,
      "ĠznÃ¡mÃ½": 5365,
      "Ġzachy": 5366,
      "ĠschÃ½": 5367,
      "Ġrmu": 5368,
      "Ġkouzlem": 5369,
      "Ġsf": 5370,
      "ĠkrÃ¡lÅ¯": 5371,
      "ĠchtÄĽli": 5372,
      "ĠvzpomÃŃnÃ¡": 5373,
      "ĠlÃŃbal": 5374,
      "Ġsym": 5375,
      "ĠsmÄĽs": 5376,
      "Ġidy": 5377,
      "vodu": 5378,
      "Ġvodu": 5379,
      "ĠveÅ¡ke": 5380,
      "Ġkoli": 5381,
      "ĠpouÅ¡Å¥": 5382,
      "ĠzapomnÄĽl": 5383,
      "ĠtÅĻpytÃŃ": 5384,
      "Ġblankyt": 5385,
      "ber": 5386,
      "skych": 5387,
      "Ġtouhu": 5388,
      "Ġbratry": 5389,
      "ĠdivÄĽ": 5390,
      "is": 5391,
      "ĠpouhÃ½": 5392,
      "ĠÅĻekne": 5393,
      "vÃŃvÃ¡": 5394,
      "hali": 5395,
      "ĠhÅĻÃŃchu": 5396,
      "sklo": 5397,
      "ÅĪuje": 5398,
      "byl": 5399,
      "chÃ¡m": 5400,
      "ĠvzkÅĻik": 5401,
      "Ġlsti": 5402,
      "Å¾ena": 5403,
      "blÃŃ": 5404,
      "ĠXXABBA": 5405,
      "Ġzvolal": 5406,
      "Ġnerozu": 5407,
      "ĠÄĽvem": 5408,
      "Ġotcem": 5409,
      "Ġdnech": 5410,
      "Ġinku": 5411,
      "ĠsluÅ¡ÃŃ": 5412,
      "Ġmiluji": 5413,
      "mil": 5414,
      "ledy": 5415,
      "ĠlÃ¡sko": 5416,
      "ĠperutÃŃ": 5417,
      "Ġhrst": 5418,
      "ĠÄĽmy": 5419,
      "Ġvinu": 5420,
      "razi": 5421,
      "ĠpoutnÃŃ": 5422,
      "Ġojim": 5423,
      "ĠsladkÃ½ch": 5424,
      "ĠspÃ¡t": 5425,
      "ĠXXAAXX": 5426,
      "Ġhodiny": 5427,
      "Ġtuze": 5428,
      "Ġmnich": 5429,
      "Ġvp": 5430,
      "ĠdomÄĽ": 5431,
      "ĠÄįert": 5432,
      "ĠvÅ¯bec": 5433,
      "ĠplÃ©mÄĽ": 5434,
      "dno": 5435,
      "Ġroky": 5436,
      "ĠÅ¾ivotu": 5437,
      "ĠtvÃ©mu": 5438,
      "Ġejich": 5439,
      "nati": 5440,
      "ĠyÅĻi": 5441,
      "Ġroztou": 5442,
      "Ġge": 5443,
      "ĠdÃ¡vnÃ©": 5444,
      "dlen": 5445,
      "Ġitel": 5446,
      "Ġdub": 5447,
      "ĠvelÃŃ": 5448,
      "Ġodho": 5449,
      "ĠpÃŃÅ¡e": 5450,
      "Ġzakle": 5451,
      "Ġryt": 5452,
      "pÅ¯so": 5453,
      "Ġpne": 5454,
      "ĠtÃ©mÄĽ": 5455,
      "Ġznaven": 5456,
      "ĠvonnÃ½": 5457,
      "Ġozi": 5458,
      "pili": 5459,
      "ble": 5460,
      "Ġvedou": 5461,
      "ĠvÄĽÅ¾": 5462,
      "Ġodda": 5463,
      "Ġrozlo": 5464,
      "ĠpÄĽl": 5465,
      "Ġposel": 5466,
      "ĠboÅ¾ÃŃm": 5467,
      "Ġmoudrost": 5468,
      "ĠedÄĽl": 5469,
      "Ġw": 5470,
      "ĠsamotÄĽ": 5471,
      "Ġdon": 5472,
      "Ġrvi": 5473,
      "Ġposlu": 5474,
      "ÄįnÃŃm": 5475,
      "Ġstarost": 5476,
      "ĠÄĽlem": 5477,
      "ĠhostÃŃ": 5478,
      "Ġnesl": 5479,
      "Ġbrachu": 5480,
      "ĠÅ¡ÃŃji": 5481,
      "Ġhry": 5482,
      "stoj": 5483,
      "ĠzbranÃŃ": 5484,
      "Ġchti": 5485,
      "tosti": 5486,
      "Ġbledou": 5487,
      "jÃŃma": 5488,
      "ĠzmÃŃrÃ¡": 5489,
      "Ġprcha": 5490,
      "ĠperuÅ¥": 5491,
      "ĠvznÃŃ": 5492,
      "Ġplesu": 5493,
      "hr": 5494,
      "Ġfra": 5495,
      "ĠdruÅ¾i": 5496,
      "ĠsvatÃ½m": 5497,
      "Ġjmeno": 5498,
      "Ġpohr": 5499,
      "Äįiti": 5500,
      "Ġondy": 5501,
      "pis": 5502,
      "ĠsilnÃ½": 5503,
      "ĠrovnÄĽ": 5504,
      "Ġsluje": 5505,
      "Ġluk": 5506,
      "ĠsladkÃ½m": 5507,
      "ĠÅ¡ÃŃp": 5508,
      "ĠcÃ¡": 5509,
      "Ġpotok": 5510,
      "Ġkout": 5511,
      "ĠtÅĻesou": 5512,
      "Ġmrtev": 5513,
      "Ġpoky": 5514,
      "dily": 5515,
      "Ġmora": 5516,
      "Ġboh": 5517,
      "ĠÅ¡erÃ©": 5518,
      "Ġjednom": 5519,
      "Ġmuka": 5520,
      "Ġanky": 5521,
      "ĠpÅ¯vab": 5522,
      "Ġasna": 5523,
      "Ġedl": 5524,
      "ĠmodrÃ½": 5525,
      "ĠÅ¾Ã¡ru": 5526,
      "ĠsmÄĽlÃ½": 5527,
      "ĠpÅ¯du": 5528,
      "ĠvyÅ¡la": 5529,
      "Ġero": 5530,
      "ĠnedÄĽ": 5531,
      "ĠÃºtro": 5532,
      "Ġdiva": 5533,
      "Ġhospodi": 5534,
      "ĠvÅ¡echnÄĽ": 5535,
      "ĠidÄĽl": 5536,
      "Ġrozvi": 5537,
      "Ġhlasu": 5538,
      "ĠbÅĻi": 5539,
      "ĠvÄĽtry": 5540,
      "sili": 5541,
      "Ġemnou": 5542,
      "zla": 5543,
      "Ġouhou": 5544,
      "Ġslasti": 5545,
      "ĠÅ¡Å¥astnÃ½": 5546,
      "ĠbÄĽh": 5547,
      "Ġvkro": 5548,
      "ĠÄĽdi": 5549,
      "Ġpravo": 5550,
      "Ġpraze": 5551,
      "ĠklÃŃnÄĽ": 5552,
      "ren": 5553,
      "Ġbabi": 5554,
      "ĠprÅ¯vod": 5555,
      "Ġvem": 5556,
      "nÅ¯v": 5557,
      "ĠhvÄĽzdÃ¡m": 5558,
      "Ġnajednou": 5559,
      "Ġchr": 5560,
      "mot": 5561,
      "nÃ¡Å¡el": 5562,
      "ĠvrhÃ¡": 5563,
      "Ġopusti": 5564,
      "ĠkoÅĻist": 5565,
      "ĠpolÃŃbenÃŃ": 5566,
      "ĠdÄĽjin": 5567,
      "Ġpono": 5568,
      "Ġdotk": 5569,
      "chÃ¡zel": 5570,
      "Ġvlta": 5571,
      "ĠzlatÃ©m": 5572,
      "ĠobliÄįej": 5573,
      "ĠmalÃŃ": 5574,
      "ĠodpoÄįi": 5575,
      "ĠprvnÃŃm": 5576,
      "ĠnÃ¡mÄĽ": 5577,
      "ĠzeleÅĪ": 5578,
      "meÅĪ": 5579,
      "ĠnutÃŃ": 5580,
      "ĠodpovÄĽÄı": 5581,
      "Ġepi": 5582,
      "ĠtrpÄĽ": 5583,
      "Ġsud": 5584,
      "ĠÅ¡lo": 5585,
      "Ġuby": 5586,
      "Ġabys": 5587,
      "Ġoct": 5588,
      "Ġmas": 5589,
      "Ġproudu": 5590,
      "Ġpokud": 5591,
      "Ġrozkve": 5592,
      "pala": 5593,
      "ĠpÄĽje": 5594,
      "qu": 5595,
      "ĠryzÃŃ": 5596,
      "ĠpolÃŃch": 5597,
      "Ġnaposledy": 5598,
      "Ġiba": 5599,
      "ĠhnÄĽvem": 5600,
      "ĠdvojÃŃ": 5601,
      "Ġhlahol": 5602,
      "Ġsvr": 5603,
      "Ġrady": 5604,
      "Ġazal": 5605,
      "Ġslzami": 5606,
      "Ġenka": 5607,
      "Ġobej": 5608,
      "Ġsladko": 5609,
      "ĠhospodÃ¡": 5610,
      "ĠdneÅ¡nÃŃ": 5611,
      "tri": 5612,
      "Ġepy": 5613,
      "Ġyna": 5614,
      "Ġjihu": 5615,
      "ĠrÅ¯Å¾": 5616,
      "Ġvojska": 5617,
      "Ġvzpomen": 5618,
      "razil": 5619,
      "ĠpouÅ¥": 5620,
      "ĠvlÃ¡d": 5621,
      "ĠtlaÄįÃŃ": 5622,
      "ĠpÅĻemo": 5623,
      "ĠvÄĽtrÅ¯": 5624,
      "nkÃ©": 5625,
      "Ġuzav": 5626,
      "ĠzpÄĽvem": 5627,
      "letu": 5628,
      "Ġses": 5629,
      "ÅĻilo": 5630,
      "Ġkudy": 5631,
      "ĠtrpÃŃ": 5632,
      "ĠbÃŃlÃ©m": 5633,
      "Ġminulosti": 5634,
      "fu": 5635,
      "nÃ¡ct": 5636,
      "toval": 5637,
      "die": 5638,
      "Ġroztr": 5639,
      "Ġklasy": 5640,
      "Ġlicho": 5641,
      "ĠtichÃ½m": 5642,
      "Ġhluboko": 5643,
      "Ġdejte": 5644,
      "Ġecky": 5645,
      "Ġrozlou": 5646,
      "buje": 5647,
      "Ġavym": 5648,
      "ĠpapÃŃ": 5649,
      "Ġkams": 5650,
      "Ġovych": 5651,
      "ĠmusÃŃÅ¡": 5652,
      "jil": 5653,
      "Ġito": 5654,
      "ĠrÃ½m": 5655,
      "ĠprÃ¡h": 5656,
      "ĠsvÄĽtlu": 5657,
      "ĠkÅĻÃŃdlo": 5658,
      "Ġhrdlo": 5659,
      "plo": 5660,
      "Ġmarno": 5661,
      "Ġobry": 5662,
      "Ġmnohou": 5663,
      "alou": 5664,
      "Ġchodil": 5665,
      "Ġtlum": 5666,
      "ĠXXXAXA": 5667,
      "Ġnesu": 5668,
      "Å¾enou": 5669,
      "Ġute": 5670,
      "ĠmoÅĻÃŃ": 5671,
      "Ġvan": 5672,
      "Ġjasu": 5673,
      "Ġmor": 5674,
      "bili": 5675,
      "ĠkrvavÃ©": 5676,
      "ĠnejvÄĽtÅ¡ÃŃ": 5677,
      "Ġmohy": 5678,
      "ĠvzkÅĻÃŃ": 5679,
      "Ġhlado": 5680,
      "ĠmlÃ¡d": 5681,
      "ĠuÄį": 5682,
      "Ġodou": 5683,
      "ĠtesknÄĽ": 5684,
      "Ġzahrad": 5685,
      "Ġbozi": 5686,
      "ĠkrÃ¡snÃ½ch": 5687,
      "Ġuv": 5688,
      "Ġjezd": 5689,
      "ĠmraÄįna": 5690,
      "Ġsvad": 5691,
      "ĠspÃ¡sy": 5692,
      "ĠÄįÃŃÅ¡i": 5693,
      "ĠtratÃŃ": 5694,
      "Ġochra": 5695,
      "Ġlibo": 5696,
      "Ġbub": 5697,
      "menÄĽ": 5698,
      "ĠkeÅĻ": 5699,
      "Ġkolena": 5700,
      "Ġmist": 5701,
      "ĠpÅĻÃŃk": 5702,
      "ĠÄįiny": 5703,
      "ĠjmÃ©na": 5704,
      "zenÃ©": 5705,
      "Å¾te": 5706,
      "ÅĻily": 5707,
      "ĠhrÃ¡t": 5708,
      "ĠzÃ¡mku": 5709,
      "Ġsestry": 5710,
      "kop": 5711,
      "ĠzvÃŃtÄĽ": 5712,
      "ĠXABAB": 5713,
      "Ġema": 5714,
      "Ġbudoucnost": 5715,
      "ĠnevÃ½": 5716,
      "ĠrozkoÅ¡ÃŃ": 5717,
      "ĠmyÅ¡lenek": 5718,
      "Ġbalva": 5719,
      "ĠoltÃ¡ÅĻ": 5720,
      "ckÃ½m": 5721,
      "ĠlÃŃst": 5722,
      "Ġvolnost": 5723,
      "Ġsvitu": 5724,
      "Ġrosou": 5725,
      "Ġedal": 5726,
      "vÃŃÅ¡": 5727,
      "Ġodne": 5728,
      "ÄįÃŃch": 5729,
      "ĠpÅĻines": 5730,
      "ĠveÄįernÃŃ": 5731,
      "ĠspatÅĻil": 5732,
      "Ġesta": 5733,
      "ĠdÃ©man": 5734,
      "ĠtvrdÃ©": 5735,
      "ĠkÅĻesÅ¥a": 5736,
      "jou": 5737,
      "Å¡kou": 5738,
      "Ġedou": 5739,
      "ĠnechaÅ¥": 5740,
      "tkÅ¯": 5741,
      "zli": 5742,
      "Ġmalo": 5743,
      "ĠblÃ½skÃ¡": 5744,
      "ĠzÃ¡me": 5745,
      "nouc": 5746,
      "Ġrdci": 5747,
      "Å¾enÃ¡": 5748,
      "Ġlau": 5749,
      "Å¾u": 5750,
      "tÄĽjÅ¡ÃŃ": 5751,
      "nika": 5752,
      "ĠopÃ¡": 5753,
      "ĠkterÃ©m": 5754,
      "ĠnenadÃ¡": 5755,
      "ali": 5756,
      "Ġenky": 5757,
      "vedla": 5758,
      "Ġmuk": 5759,
      "mÃ¡n": 5760,
      "Ġsnadno": 5761,
      "Ġjiskra": 5762,
      "ĠÃºdy": 5763,
      "zlo": 5764,
      "ĠmÄĽlo": 5765,
      "Ġosled": 5766,
      "Ġuva": 5767,
      "ĠplÃ¡ÅĪ": 5768,
      "Ġpokro": 5769,
      "Ġbytost": 5770,
      "Ġstrachem": 5771,
      "Ġmatkou": 5772,
      "ĠjÃ¡sot": 5773,
      "ĠpenÄĽ": 5774,
      "Ġneob": 5775,
      "ĠokÃ©": 5776,
      "kynÄĽ": 5777,
      "ĠvzdÃ¡len": 5778,
      "lie": 5779,
      "ĠprostÃ½": 5780,
      "ĠvÄĽtÅĻÃŃk": 5781,
      "Ġtve": 5782,
      "Ġdechu": 5783,
      "rovnÃ¡": 5784,
      "Ġavem": 5785,
      "Ġbyste": 5786,
      "Ġleda": 5787,
      "ĠspÄĽje": 5788,
      "tl": 5789,
      "Ġutek": 5790,
      "dÃ¡Å¡": 5791,
      "Ġaneb": 5792,
      "ĠÄįil": 5793,
      "chat": 5794,
      "Ġopa": 5795,
      "ĠzÃ¡ba": 5796,
      "ĠÅ¡era": 5797,
      "ĠÄįlu": 5798,
      "ĠÅ¡pa": 5799,
      "Ġvzty": 5800,
      "Ġlidstvu": 5801,
      "Ġ21": 5802,
      "ĠpÄĽÅ¡i": 5803,
      "Ġslib": 5804,
      "ĠÅ¡aty": 5805,
      "lat": 5806,
      "Ġgeni": 5807,
      "aly": 5808,
      "Ġmsti": 5809,
      "ĠiÅ¡tÄĽ": 5810,
      "ĠzavÃŃ": 5811,
      "Ġvlnou": 5812,
      "dÄĽte": 5813,
      "Ġskrom": 5814,
      "chovÃ©": 5815,
      "ĠjejÃŃÅ¾": 5816,
      "ĠhnÃŃzda": 5817,
      "ĠzbÄĽ": 5818,
      "Ġokny": 5819,
      "Ġgi": 5820,
      "Ġokou": 5821,
      "Ġruchu": 5822,
      "ĠaniÅ¾": 5823,
      "ĠsvÄĽtle": 5824,
      "ĠhlubokÃ©": 5825,
      "ĠjimiÅ¾": 5826,
      "snÃ½ch": 5827,
      "Ġalil": 5828,
      "ĠkrutÃ½": 5829,
      "ĠÅ¾houcÃŃ": 5830,
      "ĠÄįechÃ¡ch": 5831,
      "ĠzÃ¡hu": 5832,
      "ĠstrojÃŃ": 5833,
      "ĠkÅĻesÅ¥an": 5834,
      "ĠzpÅ¯so": 5835,
      "Ġodni": 5836,
      "ĠstrÃ¡ni": 5837,
      "zil": 5838,
      "Å¾uje": 5839,
      "ĠÅ¡est": 5840,
      "ĠhovoÅĻÃŃ": 5841,
      "ĠspÅĻÃ¡": 5842,
      "Ġtiskne": 5843,
      "sli": 5844,
      "Ġvedla": 5845,
      "ĠzÃ¡Å¡tÃŃ": 5846,
      "ĠzvÄĽÅĻ": 5847,
      "ĠskrÃ¡ni": 5848,
      "Å¡ad": 5849,
      "nÃŃci": 5850,
      "Ġital": 5851,
      "nÄĽnÃ½": 5852,
      "Ġoso": 5853,
      "Ġkrbu": 5854,
      "Ġadka": 5855,
      "Ġzor": 5856,
      "diti": 5857,
      "Ġmelo": 5858,
      "Ġknihu": 5859,
      "ĠvÅ¯z": 5860,
      "ĠboÅ¾skÃ©": 5861,
      "Ġzvad": 5862,
      "hor": 5863,
      "ĠpÅĻiÅ¡lo": 5864,
      "ĠkaÅ¾dÃ©ho": 5865,
      "Ġozval": 5866,
      "ĠvyÅ¡Å¡ÃŃ": 5867,
      "ĠzaplÃ¡": 5868,
      "rec": 5869,
      "Ġzdar": 5870,
      "Ġranou": 5871,
      "Ġsouzvu": 5872,
      "ĠÄıas": 5873,
      "ĠvÄĽÅ¡t": 5874,
      "ĠzeÄı": 5875,
      "ĠchoÅ¥": 5876,
      "Ġvedl": 5877,
      "Ġvidi": 5878,
      "cemi": 5879,
      "ĠdivnÃ¡": 5880,
      "Ġdos": 5881,
      "vilo": 5882,
      "ĠpÅĻedsta": 5883,
      "Ġpohro": 5884,
      "ĠzÅĻÃŃti": 5885,
      "Å¡tnÃŃ": 5886,
      "Ġechy": 5887,
      "ĠveÅ¡el": 5888,
      "Äįilo": 5889,
      "ĠstraÅ¡li": 5890,
      "ĠzmizÃŃ": 5891,
      "ĠplatÃŃ": 5892,
      "Ġovym": 5893,
      "Ġtaje": 5894,
      "ĠlÃ¡kÃ¡": 5895,
      "Ġidem": 5896,
      "Ġbok": 5897,
      "Ġajic": 5898,
      "Ġmrz": 5899,
      "Ġelou": 5900,
      "ĠuÄįe": 5901,
      "Ġpravou": 5902,
      "ĠtÅĻikrÃ¡t": 5903,
      "Ġpovy": 5904,
      "ĠÅ¾ele": 5905,
      "Ġsoudu": 5906,
      "hej": 5907,
      "ĠzbÃ½vÃ¡": 5908,
      "Ġkdosi": 5909,
      "ĠÅ¡ÃŃÅĻÃŃ": 5910,
      "ĠmdlÃ½": 5911,
      "Ġuzi": 5912,
      "ĠnemÅ¯Å¾": 5913,
      "Ġsnou": 5914,
      "ĠdÄĽj": 5915,
      "Ġpluje": 5916,
      "Ġkomna": 5917,
      "ĠzdÃŃ": 5918,
      "Ġkme": 5919,
      "Ġichem": 5920,
      "ĠpÅĻÃ¡l": 5921,
      "Ġharmo": 5922,
      "ĠkrokÅ¯": 5923,
      "vÅ¡i": 5924,
      "ĠstÅĻel": 5925,
      "Ġkoni": 5926,
      "Ġadam": 5927,
      "ĠnepÅĻÃŃtel": 5928,
      "ĠnavrÃ¡": 5929,
      "Ġjaksi": 5930,
      "veÄįer": 5931,
      "ĠdÃŃla": 5932,
      "Ġebes": 5933,
      "Ġsloup": 5934,
      "kova": 5935,
      "ABXB": 5936,
      "ĠvyÅ¡e": 5937,
      "ĠsmÄĽsi": 5938,
      "Ġsvate": 5939,
      "Ġroucho": 5940,
      "ĠÄįekÃ¡m": 5941,
      "ĠÄįarodÄĽj": 5942,
      "Ġneh": 5943,
      "vobo": 5944,
      "Ġniko": 5945,
      "ĠnadÄĽji": 5946,
      "ĠÄĽmu": 5947,
      "ĠproudÃŃ": 5948,
      "ĠkÅĻiÅ¡Å¥": 5949,
      "ĠbÄĽla": 5950,
      "Ġdeset": 5951,
      "os": 5952,
      "ĠuÄįÃŃ": 5953,
      "ĠnebesÅ¯m": 5954,
      "Ġspal": 5955,
      "Ġdruha": 5956,
      "Ġhvoz": 5957,
      "Ġhnal": 5958,
      "ĠetÄĽ": 5959,
      "Ġesem": 5960,
      "Ġmohlo": 5961,
      "Ġvystou": 5962,
      "ĠsahÃ¡": 5963,
      "ĠÄįerv": 5964,
      "vostÃŃ": 5965,
      "Ġeslo": 5966,
      "ĠpÄĽknÃ©": 5967,
      "ĠhlÃ¡sÃ¡": 5968,
      "zÅ¯": 5969,
      "Ġptal": 5970,
      "ĠjunÃ¡": 5971,
      "Ġadny": 5972,
      "ĠmodrÃ½ch": 5973,
      "Ġvece": 5974,
      "Ġenni": 5975,
      "Ġlil": 5976,
      "Ġbzu": 5977,
      "ĠkÅĻÃŃÅ¾em": 5978,
      "Ġzru": 5979,
      "Ġpraco": 5980,
      "ĠnÃ¡roda": 5981,
      "Ġdno": 5982,
      "tÃŃÅ¡": 5983,
      "ĠpÅĻÃŃtom": 5984,
      "ster": 5985,
      "ĠslyÅ¡te": 5986,
      "Ġdoktor": 5987,
      "ĠpodÄĽ": 5988,
      "Ġnepla": 5989,
      "Ġoto": 5990,
      "Ġpop": 5991,
      "ĠkovÃ¡": 5992,
      "ĠostatnÃŃ": 5993,
      "Ġvpad": 5994,
      "ĠzlÃ½ch": 5995,
      "ĠbÃŃlÃ½m": 5996,
      "Ġslze": 5997,
      "ĠpohÅĻe": 5998,
      "ĠvÄįel": 5999,
      "Ġisku": 6000,
      "Ġhlubiny": 6001,
      "krat": 6002,
      "ĠodÅĻÃŃ": 6003,
      "ĠhÅĻbe": 6004,
      "Ġbudoucnosti": 6005,
      "Ġdvak": 6006,
      "lami": 6007,
      "Ġdary": 6008,
      "gy": 6009,
      "Ã©ÅĻe": 6010,
      "Ġudem": 6011,
      "Ġivym": 6012,
      "ĠznÄĽlo": 6013,
      "Ġpovr": 6014,
      "ĠletÄĽl": 6015,
      "ĠstaÅĻÃŃ": 6016,
      "ĠpÅĻÃ¡telÃ©": 6017,
      "ĠXABABX": 6018,
      "ĠÅ¡vi": 6019,
      "ĠpÃŃlÃŃ": 6020,
      "Ġblesku": 6021,
      "ĠkÃ¡zal": 6022,
      "ĠronÃŃ": 6023,
      "ĠdÃ¡n": 6024,
      "Ġalky": 6025,
      "Ġotco": 6026,
      "ĠpyÅ¡nÄĽ": 6027,
      "ĠnecÃŃ": 6028,
      "jdeÅ¡": 6029,
      "ĠpÅĻijdou": 6030,
      "Ġzdvih": 6031,
      "chodu": 6032,
      "Ġhudby": 6033,
      "sly": 6034,
      "Ġjdem": 6035,
      "ĠhrdÃ½": 6036,
      "ĠhroznÃ¡": 6037,
      "aty": 6038,
      "ĠtÄĽÅ¾kÃ½ch": 6039,
      "ĠstrÃ¡nÃŃ": 6040,
      "teÅĻi": 6041,
      "Ġyty": 6042,
      "haly": 6043,
      "ĠplÃ¡ni": 6044,
      "Ġblahem": 6045,
      "ĠchvÃŃlÃŃ": 6046,
      "cii": 6047,
      "ĠlesÃŃch": 6048,
      "dum": 6049,
      "Å¡ÃŃÅ¡": 6050,
      "ĠÄįeskÃ½ch": 6051,
      "ĠÅ¾ili": 6052,
      "ĠnÄĽhy": 6053,
      "nkÃ¡ch": 6054,
      "Ġpova": 6055,
      "ĠÅ¾ivoby": 6056,
      "Ġzane": 6057,
      "ĠskvÃŃ": 6058,
      "Ġjasnou": 6059,
      "Ġzavz": 6060,
      "Ġskali": 6061,
      "skutku": 6062,
      "ĠupÃŃ": 6063,
      "Ġedli": 6064,
      "Ġbludi": 6065,
      "ĠuÄįen": 6066,
      "Ġvskutku": 6067,
      "ĠÅ¾alost": 6068,
      "ĠÅ¾alem": 6069,
      "ĠvonnÃ©": 6070,
      "Ġzast": 6071,
      "ĠpÄĽst": 6072,
      "Ġdruhou": 6073,
      "ĠkypÃŃ": 6074,
      "Ġpije": 6075,
      "ĠpuÄįÃŃ": 6076,
      "Ġfau": 6077,
      "Ġchas": 6078,
      "mus": 6079,
      "ÄįkÃ©": 6080,
      "bitÃŃ": 6081,
      "nÃŃku": 6082,
      "Ġvinou": 6083,
      "ĠmlÃ¡de": 6084,
      "Ġecha": 6085,
      "Ġporu": 6086,
      "Ġmost": 6087,
      "Ġejhle": 6088,
      "Ġhudbou": 6089,
      "Ġledo": 6090,
      "ĠvÅ¡ed": 6091,
      "ĠÅ¡irÃ©": 6092,
      "ĠdrtÃŃ": 6093,
      "Ġzmar": 6094,
      "ĠkrÃ¡lovstvÃŃ": 6095,
      "Ġpaprsky": 6096,
      "Ġtanci": 6097,
      "Å¾stvÃŃ": 6098,
      "Ġicim": 6099,
      "Ġlety": 6100,
      "ĠlÃ©to": 6101,
      "ĠpohÃ¡d": 6102,
      "rnÃ©m": 6103,
      "Ġnemi": 6104,
      "Ġmilovat": 6105,
      "ĠÅ¡Å¥astnÄĽ": 6106,
      "Ġzahrady": 6107,
      "vnÃ©": 6108,
      "Ġeva": 6109,
      "vily": 6110,
      "vÃ©tÃ¡": 6111,
      "ÅĪÃ¡": 6112,
      "ĠozÃ¡": 6113,
      "ĠvzpomÃŃnky": 6114,
      "Ġzkr": 6115,
      "ĠÄįtve": 6116,
      "ĠnÄĽhoÅ¾": 6117,
      "Ġkouzla": 6118,
      "Ġnivy": 6119,
      "ĠzÃ¡vÄĽ": 6120,
      "Ġsply": 6121,
      "Ġdcery": 6122,
      "tna": 6123,
      "Ġmohou": 6124,
      "ĠsÃŃtÄĽ": 6125,
      "ĠkÅĻeh": 6126,
      "Ġobloze": 6127,
      "Ġvzali": 6128,
      "Ġhasne": 6129,
      "Ġrakev": 6130,
      "Ġsvaty": 6131,
      "ĠzachvÄĽl": 6132,
      "zka": 6133,
      "Ġhni": 6134,
      "Ġdostal": 6135,
      "Ġkan": 6136,
      "ĠdÃ¡lnÃ©": 6137,
      "ĠvolnÃ½": 6138,
      "Ġsoumrak": 6139,
      "ĠÅ¾lutÃ©": 6140,
      "Ġino": 6141,
      "ĠjeÅ¾ÃŃ": 6142,
      "ĠkrvÃ¡": 6143,
      "Ġrha": 6144,
      "ÅĪu": 6145,
      "ĠslÃ¡vou": 6146,
      "Ġachem": 6147,
      "Ġinek": 6148,
      "ĠvÃŃnem": 6149,
      "ĠkrÃ¡tce": 6150,
      "nÃŃky": 6151,
      "ĠvÄĽÅĻit": 6152,
      "ĠspÃŃÅ¡e": 6153,
      "ĠkvÃŃtek": 6154,
      "ĠkrouÅ¾ÃŃ": 6155,
      "ĠzlatÄĽ": 6156,
      "Ġosty": 6157,
      "Ġkdybys": 6158,
      "ĠslednÃŃ": 6159,
      "Ġvzej": 6160,
      "Ġadnou": 6161,
      "ĠvÅ¡ecku": 6162,
      "Ġapi": 6163,
      "ĠmÄĽstem": 6164,
      "Ġfor": 6165,
      "ĠznÄĽla": 6166,
      "ĠhbitÄĽ": 6167,
      "Ġusy": 6168,
      "Ġdvacet": 6169,
      "ĠubohÃ©": 6170,
      "Ġvina": 6171,
      "Ġsyny": 6172,
      "Ġpoliti": 6173,
      "ĠcizÃŃm": 6174,
      "vnÃŃk": 6175,
      "lilo": 6176,
      "ĠneustÃ¡": 6177,
      "Ġulici": 6178,
      "Ġvni": 6179,
      "Ġpojednou": 6180,
      "Ġplody": 6181,
      "ĠjÃŃz": 6182,
      "ĠtakÃ½": 6183,
      "Ġodli": 6184,
      "prch": 6185,
      "ĠzoÅĻe": 6186,
      "Ġadost": 6187,
      "ĠoÄįil": 6188,
      "ĠtÅĻpyt": 6189,
      "Ġasny": 6190,
      "ĠsvÄĽtlÃ½": 6191,
      "ĠsmÄĽl": 6192,
      "lnÃ½": 6193,
      "ĠuvÄĽ": 6194,
      "ĠkÅĻÃŃdly": 6195,
      "skÃ©mu": 6196,
      "ria": 6197,
      "vÄĽti": 6198,
      "prvÃ©": 6199,
      "Ġpoku": 6200,
      "Ġjarem": 6201,
      "ĠplÃ¡la": 6202,
      "ĠnÃ¡ÅĻek": 6203,
      "Ġsoudru": 6204,
      "vÅĻÃŃ": 6205,
      "ĠsnovÃ©": 6206,
      "ĠostrÃ½": 6207,
      "Ġmudr": 6208,
      "Ġjedinou": 6209,
      "ĠstÃ¡ly": 6210,
      "ĠchrÃ¡nÃŃ": 6211,
      "Ġkriti": 6212,
      "ĠpÅĻichÃ¡zÃŃ": 6213,
      "dÃ©m": 6214,
      "vÄĽla": 6215,
      "Ġblahu": 6216,
      "ĠodpoÄįÃŃ": 6217,
      "ĠznÄĽly": 6218,
      "ĠÃºna": 6219,
      "ĠrÃ¡ko": 6220,
      "Ġzimy": 6221,
      "Ġskrz": 6222,
      "ĠtmÃŃ": 6223,
      "Ġzmu": 6224,
      "Ġkul": 6225,
      "Ġdlani": 6226,
      "ĠnevÃŃÅ¡": 6227,
      "ĠpaÅĻÃŃ": 6228,
      "ĠstrÃ¡nÄĽ": 6229,
      "ĠdÄĽtstvÃŃ": 6230,
      "Ġren": 6231,
      "ĠbÅĻehy": 6232,
      "Ġpostavy": 6233,
      "Ġsrde": 6234,
      "ĠtÄĽÅ¾kÃ½m": 6235,
      "Ġnepoz": 6236,
      "Ġhrobem": 6237,
      "ĠzazpÃŃ": 6238,
      "ovÃ©": 6239,
      "dÄĽly": 6240,
      "Ġnejlep": 6241,
      "nkÃ¡": 6242,
      "Ġocho": 6243,
      "kalo": 6244,
      "Ġholou": 6245,
      "ĠvodnÃŃ": 6246,
      "ĠstranÄĽ": 6247,
      "Ġsmutnou": 6248,
      "Å¡ce": 6249,
      "ĠzÃ¡pla": 6250,
      "ĠzdrÃ¡va": 6251,
      "bnou": 6252,
      "Ġrce": 6253,
      "Ġovan": 6254,
      "ĠzvukÅ¯": 6255,
      "nesla": 6256,
      "voval": 6257,
      "Ġpravdou": 6258,
      "Ġchou": 6259,
      "Å¾ku": 6260,
      "Ġfilo": 6261,
      "Ġmiluje": 6262,
      "ĠhvÄĽzdami": 6263,
      "ĠnÄĽkolik": 6264,
      "ĠtemnÃ½ch": 6265,
      "ĠhÅĻÃŃchy": 6266,
      "Ġnebyla": 6267,
      "ĠÄĽdÄĽl": 6268,
      "ĠlÃŃtÃ¡": 6269,
      "ÅĻemen": 6270,
      "Ġvesel": 6271,
      "ĠbÃŃdnÃ½": 6272,
      "Ġpusto": 6273,
      "Ġramena": 6274,
      "ĠkolÃŃ": 6275,
      "cenÃ¡": 6276,
      "ĠznÃ¡mÃ©": 6277,
      "ĠhÅĻmÄĽ": 6278,
      "vujÃŃ": 6279,
      "Ġstroj": 6280,
      "ĠÅĻadu": 6281,
      "ĠmaÄı": 6282,
      "Ġlidskou": 6283,
      "ĠÅ¡ÃŃje": 6284,
      "Ġzlomen": 6285,
      "Ġsklonil": 6286,
      "Ġoti": 6287,
      "nÄĽla": 6288,
      "Ġhromu": 6289,
      "ĠzimÄĽ": 6290,
      "ĠÅ¾ivobytÃŃ": 6291,
      "Ġihu": 6292,
      "Ġvypla": 6293,
      "Ġpokoje": 6294,
      "ĠmyÅ¡lenka": 6295,
      "ĠzvlÃ¡Å¡Å¥": 6296,
      "lnÃ©": 6297,
      "znou": 6298,
      "Ġhouf": 6299,
      "Ġzhu": 6300,
      "tec": 6301,
      "jela": 6302,
      "ĠdivÃ©m": 6303,
      "ĠspÄĽl": 6304,
      "ĠXABBA": 6305,
      "ĠpoÅĻÃ¡d": 6306,
      "ĠtajnÃ©": 6307,
      "vka": 6308,
      "ĠpÅĻÃŃsnÄĽ": 6309,
      "ĠchvÄĽnÃŃ": 6310,
      "ĠprospÄĽ": 6311,
      "Ġvych": 6312,
      "Ġskro": 6313,
      "Ġrety": 6314,
      "ĠskÃ¡Äįe": 6315,
      "Ġonil": 6316,
      "ÅĻenou": 6317,
      "hlas": 6318,
      "Ġsedmi": 6319,
      "ĠchraÅĪ": 6320,
      "ÅĻuje": 6321,
      "ĠÅĻev": 6322,
      "Ġvlasten": 6323,
      "Ġnekli": 6324,
      "Ġzato": 6325,
      "Ġsedm": 6326,
      "ĠpestrÃ©": 6327,
      "nÃŃka": 6328,
      "ĠrdÃŃ": 6329,
      "Ġrozs": 6330,
      "ĠstÃ¡r": 6331,
      "Ġln": 6332,
      "ĠmraÄįen": 6333,
      "ĠhÅĻÃŃÅ¡": 6334,
      "ĠzahradÄĽ": 6335,
      "chala": 6336,
      "Ġivam": 6337,
      "ĠdÃŃvku": 6338,
      "ĠpilnÄĽ": 6339,
      "Ġoze": 6340,
      "ĠÅ¾ivÃ¡": 6341,
      "ĠutrpenÃŃ": 6342,
      "Ġdych": 6343,
      "ĠsnivÃ©": 6344,
      "voj": 6345,
      "Ġoddech": 6346,
      "Äįeji": 6347,
      "Ġstarce": 6348,
      "Äįinu": 6349,
      "bÄĽh": 6350,
      "bral": 6351,
      "Äįan": 6352,
      "ĠhÅ¯l": 6353,
      "Ġuha": 6354,
      "Ġdol": 6355,
      "ĠpÅĻÃŃsta": 6356,
      "ĠzimnÃŃ": 6357,
      "Ġprsten": 6358,
      "ĠvÃ½m": 6359,
      "Ġnejsi": 6360,
      "Ġkup": 6361,
      "ĠdÅ¯stoj": 6362,
      "Ġprale": 6363,
      "Ġrato": 6364,
      "cek": 6365,
      "ĠpÅĻedc": 6366,
      "ĠotrÃ¡": 6367,
      "Ġchoro": 6368,
      "dÃ¡l": 6369,
      "Ġmlh": 6370,
      "ĠhÅĻÃŃchÅ¯": 6371,
      "desÃ¡": 6372,
      "ĠtuÅ¡ÃŃm": 6373,
      "slov": 6374,
      "ĠhrobÅ¯": 6375,
      "ĠzdvihÃ¡": 6376,
      "Ġjisto": 6377,
      "Ġsvojich": 6378,
      "vedl": 6379,
      "ĠfarÃ¡": 6380,
      "ĠvÃ½chodu": 6381,
      "Ġpopra": 6382,
      "natÃ©": 6383,
      "Ġcar": 6384,
      "ĠsklÃŃ": 6385,
      "Ġpomsty": 6386,
      "ĠholÃ©": 6387,
      "bej": 6388,
      "ĠchvÃ¡tÃ¡": 6389,
      "Ġnevo": 6390,
      "Ġake": 6391,
      "lÃ©d": 6392,
      "stane": 6393,
      "ĠpÅ¯dy": 6394,
      "ĠkoÄįÃ¡": 6395,
      "Ġkres": 6396,
      "Ġohla": 6397,
      "Ġplny": 6398,
      "Ġchaty": 6399,
      "ĠzÃ¡ho": 6400,
      "ĠsnÄĽhem": 6401,
      "Ġvnik": 6402,
      "Ġjesen": 6403,
      "Ġovna": 6404,
      "kru": 6405,
      "Å¾iti": 6406,
      "Ġbyt": 6407,
      "ĠjitÅĻ": 6408,
      "Ġspjat": 6409,
      "ĠstÃ¡lo": 6410,
      "ĠpustÃ½": 6411,
      "Ġepe": 6412,
      "ĠstÃ½": 6413,
      "lÃŃcÃŃ": 6414,
      "lemi": 6415,
      "ĠdÃŃl": 6416,
      "ĠotvÃŃ": 6417,
      "Ġhodin": 6418,
      "ĠonÄĽch": 6419,
      "ĠhvÃŃ": 6420,
      "Ġevy": 6421,
      "ĠoblÃ¡": 6422,
      "ĠzÃ¡stu": 6423,
      "Ġohlas": 6424,
      "Ġsuk": 6425,
      "Ġpokra": 6426,
      "Ġihned": 6427,
      "lon": 6428,
      "naly": 6429,
      "Ġpavu": 6430,
      "Ġitky": 6431,
      "ĠschÃ¡zÃŃ": 6432,
      "rÃ¡Å¾ÃŃ": 6433,
      "ĠtÄĽl": 6434,
      "Ġblankytu": 6435,
      "Äįily": 6436,
      "tÃ¡h": 6437,
      "ĠpÃ¡dÃŃ": 6438,
      "ĠskÅĻivan": 6439,
      "Ġsep": 6440,
      "Ġadil": 6441,
      "ĠÅ¡ele": 6442,
      "Ġbezna": 6443,
      "vÃŃme": 6444,
      "ĠmocnÃ©": 6445,
      "Ġvej": 6446,
      "ĠkmitÃ¡": 6447,
      "vanÃ¡": 6448,
      "ĠpÃŃti": 6449,
      "Ġhust": 6450,
      "ĠmlÄįenÃŃ": 6451,
      "Ġoblaky": 6452,
      "Ġanul": 6453,
      "volu": 6454,
      "Ġsiro": 6455,
      "Ġpozdvi": 6456,
      "ĠlistÅ¯": 6457,
      "pÄĽv": 6458,
      "ĠvlastnÄĽ": 6459,
      "ĠstudÃ¡": 6460,
      "ĠdÃ©le": 6461,
      "Ġdopro": 6462,
      "stÃ¡nÃŃ": 6463,
      "ĠÅ¡tva": 6464,
      "Ġanni": 6465,
      "Ġposlal": 6466,
      "ĠhouÅ¡tÃŃ": 6467,
      "vanou": 6468,
      "ĠnapÅĻed": 6469,
      "ĠhoÅ¡i": 6470,
      "ĠÅ¡epce": 6471,
      "ĠprÃ¡zdnÃ©": 6472,
      "ĠpodzimnÃŃ": 6473,
      "Ġnehy": 6474,
      "nan": 6475,
      "ĠsadÄĽ": 6476,
      "ĠvlastnÃŃm": 6477,
      "ĠrozlÃŃ": 6478,
      "ĠknÄĽÅ¾ÃŃ": 6479,
      "ĠzoufalstvÃŃ": 6480,
      "Ġpel": 6481,
      "boÅ¾": 6482,
      "Ġsmysly": 6483,
      "vÄĽjÅ¡ÃŃ": 6484,
      "Ġohled": 6485,
      "ĠptÃ¡ka": 6486,
      "ĠsvÃŃtil": 6487,
      "zat": 6488,
      "ĠvtÄĽ": 6489,
      "Ġajem": 6490,
      "Ġleto": 6491,
      "ĠmÄĽstu": 6492,
      "ĠplnÃ½m": 6493,
      "Ġelky": 6494,
      "ÅĻej": 6495,
      "ĠoltÃ¡ÅĻi": 6496,
      "sej": 6497,
      "Ġtlou": 6498,
      "ĠÃºkol": 6499,
      "liti": 6500,
      "kati": 6501,
      "Ġlnou": 6502,
      "ĠkamenÃŃ": 6503,
      "Ġzkad": 6504,
      "ie": 6505,
      "ĠÅ¡er": 6506,
      "Ġhubi": 6507,
      "ĠspÄĽch": 6508,
      "ĠtakovÃ©": 6509,
      "Ġabi": 6510,
      "ĠkalÃŃ": 6511,
      "Ġrukama": 6512,
      "ĠvysokÃ©": 6513,
      "Ġneskona": 6514,
      "chne": 6515,
      "Ġhoru": 6516,
      "ĠstÃŃhÃ¡": 6517,
      "ĠstarÃ©m": 6518,
      "ĠÅ¡lehÃ¡": 6519,
      "ĠteÄįe": 6520,
      "Ġjsouc": 6521,
      "ĠvÄĽÄįnÃ½ch": 6522,
      "ĠtouÅ¾il": 6523,
      "ĠhlubokÃ½": 6524,
      "ul": 6525,
      "ĠmilÃŃ": 6526,
      "Ġluhy": 6527,
      "ĠzvlÃ¡Å¡tnÃŃ": 6528,
      "ĠpÅ¯lnoc": 6529,
      "ĠvichÅĻice": 6530,
      "Ġdojem": 6531,
      "Ġjedem": 6532,
      "ĠÅ¡edÃ¡": 6533,
      "ĠskÃ¡lu": 6534,
      "Ġpoledne": 6535,
      "tiv": 6536,
      "Ġprince": 6537,
      "ĠvavÅĻÃŃ": 6538,
      "ĠhedvÃ¡": 6539,
      "Ġsatan": 6540,
      "Ġnejde": 6541,
      "ĠslÃ½ch": 6542,
      "Ġovoce": 6543,
      "ĠvidÄĽla": 6544,
      "ĠbÄĽlo": 6545,
      "ĠlÃ©ka": 6546,
      "ĠvesmÃŃr": 6547,
      "Ġzbyl": 6548,
      "ĠdÄĽsnÃ½": 6549,
      "Ġzpup": 6550,
      "letÄĽl": 6551,
      "Ġpoha": 6552,
      "Ġprova": 6553,
      "Ġivych": 6554,
      "ĠmyÅ¡lÃ©nka": 6555,
      "roval": 6556,
      "ĠÄįervÃ¡nkÅ¯": 6557,
      "ĠpÅĻekva": 6558,
      "ĠosvÄĽ": 6559,
      "ĠbleskÅ¯": 6560,
      "ĠAAXBBX": 6561,
      "ca": 6562,
      "ĠprvÃ½": 6563,
      "Ġsoko": 6564,
      "ĠneznÃ¡mÃ©": 6565,
      "ĠbohatÃ½r": 6566,
      "Ġseveru": 6567,
      "vrt": 6568,
      "Ġaro": 6569,
      "ĠmÃ¡jo": 6570,
      "ĠchceÅ¡li": 6571,
      "Ġbalvan": 6572,
      "ĠÄıÃ¡b": 6573,
      "ĠnelÃŃ": 6574,
      "titi": 6575,
      "ĠplÃ¡ly": 6576,
      "ĠslabÃ©": 6577,
      "benÃ©": 6578,
      "deÅĪ": 6579,
      "ÅĻiv": 6580,
      "ĠobjÃŃmÃ¡": 6581,
      "ĠnÃ¡v": 6582,
      "ĠpÃ¡ny": 6583,
      "ĠbÃŃt": 6584,
      "ĠideÃ¡": 6585,
      "Ġmlze": 6586,
      "ĠnaÅ¡eho": 6587,
      "ĠzmÃŃtÃ¡": 6588,
      "Ġmladist": 6589,
      "Ġvzbou": 6590,
      "ĠtkÃ¡": 6591,
      "ĠchtÄĽjÃŃ": 6592,
      "Ġchceme": 6593,
      "razÃŃ": 6594,
      "nÃ©sti": 6595,
      "Ġvypl": 6596,
      "Å¾ily": 6597,
      "ĠÅĻÃŃma": 6598,
      "Ġrysy": 6599,
      "ĠneznÃ¡mÃ½": 6600,
      "Ġzticha": 6601,
      "Ġoblou": 6602,
      "Ġpoe": 6603,
      "nÃ©st": 6604,
      "Ġlibu": 6605,
      "Å¡tÄĽnÃŃ": 6606,
      "ĠzboÅ¾nÄĽ": 6607,
      "Ġvzdoru": 6608,
      "ĠmyÅ¡lÃ©nek": 6609,
      "ĠdvakrÃ¡t": 6610,
      "ĠburÃ¡": 6611,
      "ĠslastÃŃ": 6612,
      "Ġratole": 6613,
      "ptÃ¡": 6614,
      "ĠpÃ¡ry": 6615,
      "Ġanti": 6616,
      "ĠbÃ©ÅĻe": 6617,
      "Ġupu": 6618,
      "ĠhoÅĻi": 6619,
      "ĠdÄĽsÃŃ": 6620,
      "Ġavych": 6621,
      "ĠchrÃ¡my": 6622,
      "Ġtrud": 6623,
      "ĠpÅĻemÃ½Å¡": 6624,
      "ĠuvÃŃ": 6625,
      "Ġposa": 6626,
      "ĠÅ¡erem": 6627,
      "Ġjisker": 6628,
      "ĠmdlÃ©": 6629,
      "Ġsoused": 6630,
      "ĠhladÃŃ": 6631,
      "Ġlidmi": 6632,
      "ĠdruzÃŃ": 6633,
      "ĠsvatÃ©m": 6634,
      "Ġpaprs": 6635,
      "ÄįekÃ¡": 6636,
      "Ġspro": 6637,
      "ĠidnÄĽ": 6638,
      "Ġsmy": 6639,
      "ĠpomÃ¡": 6640,
      "ĠpÅĻÃŃklad": 6641,
      "ĠretÅ¯": 6642,
      "vracÃŃ": 6643,
      "Ġulice": 6644,
      "ĠdÃ¡my": 6645,
      "Ġakal": 6646,
      "ĠvzpomÃŃnek": 6647,
      "Ġnohu": 6648,
      "ĠpouhÃ©": 6649,
      "Ġnechte": 6650,
      "Ġmoudrosti": 6651,
      "Ġsestra": 6652,
      "ABX": 6653,
      "teÄįnÃŃ": 6654,
      "Ġdomy": 6655,
      "ĠotevÅĻe": 6656,
      "ĠhÅĻbitov": 6657,
      "Ġrol": 6658,
      "ĠpÅĻesvÄĽd": 6659,
      "Ġesty": 6660,
      "Ġklesl": 6661,
      "ĠboÅĻÃŃ": 6662,
      "ĠpohÃ¡dky": 6663,
      "ĠnÄĽmÃ¡": 6664,
      "ĠhledÃ¡m": 6665,
      "ĠsklÃ¡dÃ¡": 6666,
      "ĠmÅ¾ikem": 6667,
      "Ġtka": 6668,
      "Ġkmo": 6669,
      "ĠÅ¡ly": 6670,
      "ĠperutÄĽ": 6671,
      "ĠvÃ½kÅĻi": 6672,
      "Ġpraha": 6673,
      "ĠbujnÃ©": 6674,
      "Ġkorou": 6675,
      "ĠlodÃŃ": 6676,
      "dly": 6677,
      "Ġuze": 6678,
      "rÃ¡nÃŃ": 6679,
      "ĠrtÃŃ": 6680,
      "dÃŃme": 6681,
      "ĠÅĻadou": 6682,
      "zne": 6683,
      "ĠdÃŃm": 6684,
      "ĠnohÃ¡m": 6685,
      "ĠbavÃŃ": 6686,
      "ĠnedoÄįka": 6687,
      "nov": 6688,
      "ĠvÅ¯d": 6689,
      "ĠujeÅ¡": 6690,
      "ĠznÃ¡te": 6691,
      "Ġbloudil": 6692,
      "Ġvezmi": 6693,
      "ĠpÃ½cha": 6694,
      "ĠpÅĻelud": 6695,
      "ĠuÄįil": 6696,
      "Ġostem": 6697,
      "Ġprostor": 6698,
      "Ġpohan": 6699,
      "Ġkop": 6700,
      "Ġokra": 6701,
      "ĠzjevÃŃ": 6702,
      "gna": 6703,
      "nÄįÃŃ": 6704,
      "pÃŃÅ¡": 6705,
      "Ġobrazy": 6706,
      "ĠlÃ¡me": 6707,
      "Ġchech": 6708,
      "ĠzÃ¡dum": 6709,
      "ĠÅ¾ilÃ¡ch": 6710,
      "mÃŃvÃ¡": 6711,
      "ĠlÃŃstek": 6712,
      "ĠmÃŃhÃ¡": 6713,
      "ĠchtÄĽlo": 6714,
      "ĠpoÅ¾Ã¡r": 6715,
      "ĠjinÃ©ho": 6716,
      "ĠpÃ¡d": 6717,
      "Ġcig": 6718,
      "Ġslab": 6719,
      "ĠnevidÄĽl": 6720,
      "ĠzdobÃŃ": 6721,
      "Ġazel": 6722,
      "don": 6723,
      "Ġodve": 6724,
      "ĠÄįechy": 6725,
      "Ġenci": 6726,
      "ĠspÃ¡ti": 6727,
      "ĠÅ¡irÃ½": 6728,
      "ĠhÅĻÃ¡": 6729,
      "nÄĽly": 6730,
      "Ġtrium": 6731,
      "Ġpoc": 6732,
      "ĠÅ¡o": 6733,
      "ĠzÃ¡pal": 6734,
      "ĠnÄĽmÃ©": 6735,
      "ĠpoÄįne": 6736,
      "ĠkÅ¡ti": 6737,
      "bech": 6738,
      "ĠstÃ¡do": 6739,
      "stÃ¡ch": 6740,
      "ĠzelenÃ½": 6741,
      "ĠvÃ¡lky": 6742,
      "bku": 6743,
      "dÅĻÃŃ": 6744,
      "Äįuje": 6745,
      "Ġbly": 6746,
      "ĠkaÅ¾dÃ©mu": 6747,
      "skot": 6748,
      "ĠsnÃ¡Å¡ÃŃ": 6749,
      "Ġkov": 6750,
      "ĠbodÃ¡": 6751,
      "ĠrÅ¯znÃ©": 6752,
      "ĠXABBAX": 6753,
      "Å¥u": 6754,
      "ĠpÄĽsti": 6755,
      "ĠvrÃ¡sky": 6756,
      "Ġysli": 6757,
      "Ġminulost": 6758,
      "lÃ½mi": 6759,
      "ĠÅ¾iva": 6760,
      "Ġplakal": 6761,
      "ĠsrdÃ©": 6762,
      "ĠÅ¡epo": 6763,
      "Ġopou": 6764,
      "Ġatych": 6765,
      "Ġvysko": 6766,
      "ĠÄĽnim": 6767,
      "ĠruÄįky": 6768,
      "ĠÄįinu": 6769,
      "Ġplynou": 6770,
      "ĠblÃ½ska": 6771,
      "ĠzÃ¡dumÄįi": 6772,
      "ĠÅ¾ila": 6773,
      "ĠÅĻece": 6774,
      "ĠkoutÄĽ": 6775,
      "nich": 6776,
      "Ġodem": 6777,
      "ĠpravÃŃm": 6778,
      "ĠnebeskÃ©": 6779,
      "ĠvrahÅ¯": 6780,
      "ĠchvÄĽlo": 6781,
      "ĠtajemnÃ©": 6782,
      "Ġvnady": 6783,
      "ĠvteÅĻi": 6784,
      "Ġpodob": 6785,
      "ĠnÄĽÅ¾nÃ©": 6786,
      "Ġdmou": 6787,
      "ĠhustÃ©": 6788,
      "ĠvÃ©vo": 6789,
      "ĠouÅ¾il": 6790,
      "Ġnejdra": 6791,
      "ĠmateÅĻ": 6792,
      "ĠrÅ¯znÃ½ch": 6793,
      "vnÃ½": 6794,
      "Ġzkla": 6795,
      "Ġpocit": 6796,
      "ĠzaÄįÃŃ": 6797,
      "Ġhromo": 6798,
      "ĠvlÃ¡dy": 6799,
      "Ġzbylo": 6800,
      "ĠskalÃ¡ch": 6801,
      "ĠÅ¾ebrÃ¡k": 6802,
      "Ġpoklady": 6803,
      "ĠhlasÅ¯": 6804,
      "Ġgu": 6805,
      "ĠÅ¾ÃŃzni": 6806,
      "rÅ¯m": 6807,
      "ĠpoÅ¾ehnÃ¡": 6808,
      "Ġdovo": 6809,
      "Ġvyho": 6810,
      "ĠradosÅ¥": 6811,
      "Ġacel": 6812,
      "Ġpose": 6813,
      "Ġneje": 6814,
      "ĠpÃ¡nÅ¯": 6815,
      "Ġrozka": 6816,
      "Ġmraku": 6817,
      "ĠÄįlovÄĽkem": 6818,
      "ĠpevnÃ½": 6819,
      "Ġamo": 6820,
      "ĠproklÃŃ": 6821,
      "ĠvÃŃÄįka": 6822,
      "ĠdÄĽd": 6823,
      "ĠbÄĽhu": 6824,
      "Ġmladost": 6825,
      "ĠznÃ¡t": 6826,
      "ĠmajestÃ¡": 6827,
      "mÃŃra": 6828,
      "Ġhrozi": 6829,
      "ĠpÄĽti": 6830,
      "ĠklidnÃ½": 6831,
      "Ġnepoko": 6832,
      "ĠdÄĽtin": 6833,
      "Ġvesna": 6834,
      "Äįeli": 6835,
      "ĠvÅ¡echna": 6836,
      "ĠblaÅ¾ÃŃ": 6837,
      "ĠmrtvÃŃ": 6838,
      "ĠvylÃŃ": 6839,
      "ĠkacÃŃ": 6840,
      "Ġstan": 6841,
      "ĠsvatÃ©ho": 6842,
      "Ġhrdla": 6843,
      "ĠpÃ½Å¡e": 6844,
      "Ġmen": 6845,
      "ĠdnovÃ©": 6846,
      "ĠpoprvÃ©": 6847,
      "ĠmistÅĻe": 6848,
      "Äįely": 6849,
      "ĠobÄĽt": 6850,
      "ÅĻeny": 6851,
      "ĠumÅĻel": 6852,
      "ĠuhlÃŃ": 6853,
      "Ġvysta": 6854,
      "Ġsouci": 6855,
      "Ġkonci": 6856,
      "ĠposmÄĽch": 6857,
      "it": 6858,
      "ÄįnÃŃch": 6859,
      "Ġzaji": 6860,
      "ĠlÃ¡n": 6861,
      "Ġslavnost": 6862,
      "Ġaven": 6863,
      "Äįat": 6864,
      "ÅĻÃŃti": 6865,
      "ĠprobÃŃ": 6866,
      "Ġrozbi": 6867,
      "stala": 6868,
      "ĠslabÃ½": 6869,
      "Ġodpor": 6870,
      "Ġdoj": 6871,
      "lÃŃÅ¾e": 6872,
      "Ġleta": 6873,
      "gie": 6874,
      "ĠoÅ¡": 6875,
      "ĠdÃ¡no": 6876,
      "ĠprvÃ©": 6877,
      "Ġcele": 6878,
      "ĠkrvavÃ½": 6879,
      "ĠapoÅ¡to": 6880,
      "nam": 6881,
      "ÄįinÄĽ": 6882,
      "ĠÄįistou": 6883,
      "Ġrevolu": 6884,
      "ĠjejichÅ¾": 6885,
      "Ġknih": 6886,
      "ĠdrÃ¡hy": 6887,
      "ĠkaÅ¡": 6888,
      "ĠzahÅĻ": 6889,
      "ĠkÃ¡cÃŃ": 6890,
      "Ġaskou": 6891,
      "ĠneÅĻe": 6892,
      "Å¡ili": 6893,
      "ĠzmÄĽnÃŃ": 6894,
      "ĠvojÃŃ": 6895,
      "ĠchvÄĽj": 6896,
      "Ġeska": 6897,
      "ĠnevÃ¡": 6898,
      "ĠvÃ¡no": 6899,
      "Ġmodro": 6900,
      "ĠpenÄĽz": 6901,
      "ĠdÄĽlÃŃ": 6902,
      "ĠbÃ¡snÄĽ": 6903,
      "ĠskoÄįÃŃ": 6904,
      "ĠdivokÃ©": 6905,
      "Ġkl": 6906,
      "Ġdopo": 6907,
      "mÅ¯Å¾e": 6908,
      "Ġevu": 6909,
      "ĠspoÄįÃŃ": 6910,
      "Ġavam": 6911,
      "ĠÅ¡eptal": 6912,
      "Ġparku": 6913,
      "Ġnasy": 6914,
      "Ġhluku": 6915,
      "ĠztracenÃ©": 6916,
      "Ġmohli": 6917,
      "ÅĻte": 6918,
      "Ġlevo": 6919,
      "Ġvzrost": 6920,
      "tÃ¡ÅĻ": 6921,
      "piti": 6922,
      "ĠhvÄĽzdou": 6923,
      "slÃŃ": 6924,
      "Å¾dÄĽ": 6925,
      "Ġpopla": 6926,
      "Ġynul": 6927,
      "ĠposÃŃ": 6928,
      "Ġslovu": 6929,
      "Ġesou": 6930,
      "ĠkrutÃ©": 6931,
      "ĠkrÃ¡tkÃ©": 6932,
      "Ġjdeme": 6933,
      "Å¾nÃ¡": 6934,
      "Ġnedal": 6935,
      "Ġchalou": 6936,
      "Ġgo": 6937,
      "Äįena": 6938,
      "ÄįenÃ¡": 6939,
      "Ġzbude": 6940,
      "chla": 6941,
      "Ġzahu": 6942,
      "Ġdocela": 6943,
      "Ġceli": 6944,
      "Ġfial": 6945,
      "Ġolo": 6946,
      "ĠnabÃŃ": 6947,
      "Ġyma": 6948,
      "Ġsos": 6949,
      "ĠplÃ¡t": 6950,
      "Ġshon": 6951,
      "ĠvÄĽÅĻte": 6952,
      "Ġneli": 6953,
      "Ġnemu": 6954,
      "Ġstranu": 6955,
      "ĠsvÃŃtÃ¡": 6956,
      "Ġsymbo": 6957,
      "ĠshÃ½": 6958,
      "Ġmha": 6959,
      "ron": 6960,
      "ĠmoudrÃ½": 6961,
      "Ġrolan": 6962,
      "Ġshle": 6963,
      "veÅĪ": 6964,
      "Ġostro": 6965,
      "ĠnovÃ©ho": 6966,
      "ĠplnÃ½ch": 6967,
      "Ġoke": 6968,
      "Ġlampy": 6969,
      "ĠaÄįku": 6970,
      "Å¡kem": 6971,
      "ĠÄĽci": 6972,
      "ĠmÃŃsÃŃ": 6973,
      "Ġnejen": 6974,
      "ĠdÄĽcka": 6975,
      "Ġzloba": 6976,
      "ĠpÃ¡nbÅ¯h": 6977,
      "ĠjmÃ©nem": 6978,
      "rny": 6979,
      "ĠeÄįer": 6980,
      "ĠrodnÃ½": 6981,
      "Ġposly": 6982,
      "ĠrekÅ¯": 6983,
      "ĠÅ¡leh": 6984,
      "ĠlÃŃtost": 6985,
      "Ġesl": 6986,
      "ĠmrtvÃ¡": 6987,
      "ĠposlednÃŃm": 6988,
      "Ġzmatku": 6989,
      "Ġprobou": 6990,
      "Ġose": 6991,
      "ĠmocnÃ¡": 6992,
      "ĠtÃŃsnÃŃ": 6993,
      "zar": 6994,
      "ĠnovÃ©m": 6995,
      "Ġolna": 6996,
      "ĠvÃŃme": 6997,
      "ĠÅ¾ehnÃ¡": 6998,
      "Ġhisto": 6999,
      "ĠnevÄĽdÄĽl": 7000,
      "ĠhleÄıte": 7001,
      "lice": 7002,
      "jÃŃti": 7003,
      "Ġyk": 7004,
      "Ġasnou": 7005,
      "ĠÄįinÅ¯": 7006,
      "Ġekl": 7007,
      "ĠkrÃ¡lovna": 7008,
      "Ġposu": 7009,
      "Ġmok": 7010,
      "padla": 7011,
      "ĠÃºsmÄĽvu": 7012,
      "ĠbÅĻehÅ¯": 7013,
      "!!": 7014,
      "Ġperel": 7015,
      "ĠhlÃ¡sÃŃ": 7016,
      "ĠrovnÄĽÅ¾": 7017,
      "Ġzjas": 7018,
      "Ġdot": 7019,
      "ĠstoletÃŃ": 7020,
      "ĠsmÃ¡la": 7021,
      "ĠnÃ¡mÄĽstÃŃ": 7022,
      "Ġozd": 7023,
      "ĠnÃ¡stro": 7024,
      "Ġhladem": 7025,
      "ĠvÅ¡emo": 7026,
      "daje": 7027,
      "ĠpÅĻehlu": 7028,
      "ĠÅĻÃŃdÃŃ": 7029,
      "ĠteplÃ½": 7030,
      "Ġhospody": 7031,
      "Ġazd": 7032,
      "Ġare": 7033,
      "lÃ¡n": 7034,
      "Ġkopy": 7035,
      "Ġmuzi": 7036,
      "Ġjasno": 7037,
      "Ġkmit": 7038,
      "Å¡et": 7039,
      "ÅĻÃŃch": 7040,
      "ĠrozvÃ¡": 7041,
      "Ġastni": 7042,
      "Ġhejno": 7043,
      "ĠtÃ³n": 7044,
      "ĠzadÃŃ": 7045,
      "ĠÅ¾ivÃŃ": 7046,
      "Ġnema": 7047,
      "Ġhudbu": 7048,
      "Ġvzejde": 7049,
      "tovÃ¡nÃŃ": 7050,
      "Ġmine": 7051,
      "Ġzanech": 7052,
      "ĠÄĽÅ¡i": 7053,
      "ĠvÃ¡le": 7054,
      "ĠÄįernÃ½m": 7055,
      "Ġshlu": 7056,
      "ĠtuhÃ©": 7057,
      "Ġzaml": 7058,
      "ĠÄįtvrt": 7059,
      "ĠzavÄĽ": 7060,
      "zenÃ½": 7061,
      "Ġpokoji": 7062,
      "ĠslepÃ½": 7063,
      "Ġkorouh": 7064,
      "Å¥te": 7065,
      "Ġodpla": 7066,
      "ĠcestÃ¡ch": 7067,
      "Ġteplo": 7068,
      "stupuje": 7069,
      "bami": 7070,
      "Ġopak": 7071,
      "Ġolym": 7072,
      "Ġac": 7073,
      "ĠzlÃ©ho": 7074,
      "Ġnapad": 7075,
      "Ġoblaka": 7076,
      "Ġkata": 7077,
      "ĠklasÅ¯": 7078,
      "Ġzjevil": 7079,
      "ĠkÅĻovÃŃ": 7080,
      "Ġadle": 7081,
      "Ġblud": 7082,
      "rali": 7083,
      "ĠstÃ¡da": 7084,
      "Ġstole": 7085,
      "Å¡til": 7086,
      "ĠÄĽzi": 7087,
      "ĠsladkÃ©m": 7088,
      "ĠskvoucÃŃ": 7089,
      "Ġzasy": 7090,
      "ĠlÃŃpy": 7091,
      "ĠsmÃŃm": 7092,
      "ĠkleÄįÃŃ": 7093,
      "Ġtragi": 7094,
      "ĠvÃ¡cla": 7095,
      "ĠamÄĽ": 7096,
      "Ġahem": 7097,
      "ĠjeÅ¾ÃŃÅ¡": 7098,
      "Ġodsou": 7099,
      "Ġskvr": 7100,
      "ĠvÃ½Äįi": 7101,
      "Ġrenal": 7102,
      "ĠrvÃ¡": 7103,
      "Ġkane": 7104,
      "ĠpÄĽjÃŃ": 7105,
      "ĠmarnÃ½": 7106,
      "ĠchvÄĽly": 7107,
      "ĠprÃ¡zdnÃ½": 7108,
      "ĠubohÃ½": 7109,
      "Ġobec": 7110,
      "Ġlos": 7111,
      "ĠsnÃŃt": 7112,
      "Ġhezky": 7113,
      "Ġzaha": 7114,
      "Ġtoli": 7115,
      "Ġysy": 7116,
      "Ġrvou": 7117,
      "ÄįeÅ¾": 7118,
      "vku": 7119,
      "ĠÄĽno": 7120,
      "novu": 7121,
      "ĠmÄĽly": 7122,
      "ĠhouÅ¡ti": 7123,
      "Ġemne": 7124,
      "zala": 7125,
      "ĠtÅ¯nÄĽ": 7126,
      "Ġvzplane": 7127,
      "Ġsocha": 7128,
      "ĠplÃ¡lo": 7129,
      "ĠpaprskÅ¯": 7130,
      "ĠseÅ¡": 7131,
      "ĠchÅĻe": 7132,
      "stÃŃrÃ¡": 7133,
      "ĠnÃ¡rodÅ¯": 7134,
      "Ġhorami": 7135,
      "Ġzval": 7136,
      "ĠzÃ¡po": 7137,
      "pne": 7138,
      "Ġojem": 7139,
      "ĠkopÃŃ": 7140,
      "ĠdruhÅ¯": 7141,
      "ĠblahÃ½": 7142,
      "Å¾enÃ½ch": 7143,
      "ĠmarnÃ¡": 7144,
      "ĠsnivÃ¡": 7145,
      "Ġmozo": 7146,
      "ĠvlaÅ¡to": 7147,
      "Ġoprav": 7148,
      "ĠspanÃŃ": 7149,
      "ĠmlÃ½n": 7150,
      "Ġsoumraku": 7151,
      "Ġpnou": 7152,
      "Ġkohou": 7153,
      "pÄĽla": 7154,
      "ĠtisÃŃci": 7155,
      "ĠpÅ¯lnoci": 7156,
      "Ġnos": 7157,
      "fÃ¡": 7158,
      "ĠjmÄĽnÃŃ": 7159,
      "ĠeÄįku": 7160,
      "pali": 7161,
      "ĠpaÅ¾ÃŃ": 7162,
      "Ġinne": 7163,
      "ĠbijÃŃ": 7164,
      "ĠeÅĻ": 7165,
      "ĠpoÅ¡e": 7166,
      "ĠpoÄįÃ¡": 7167,
      "ÅĪal": 7168,
      "ĠtuÅ¾eb": 7169,
      "Ġhroma": 7170,
      "ĠpohÃ¡dka": 7171,
      "ĠboÅ¾stvÃŃ": 7172,
      "Ġpovstal": 7173,
      "ĠjeseÅĪ": 7174,
      "ĠÃºtu": 7175,
      "Ġpre": 7176,
      "Ġfo": 7177,
      "ĠbÃ¡l": 7178,
      "ĠplÃŃÅ¾ÃŃ": 7179,
      "ĠoblÃ©": 7180,
      "ĠpÅĻipo": 7181,
      "ĠzdvÃŃ": 7182,
      "ĠdÃŃvce": 7183,
      "ĠpovÄĽst": 7184,
      "ĠstkvÄĽ": 7185,
      "ĠjdÄĽte": 7186,
      "ĠrubÃŃ": 7187,
      "ĠdÄĽvu": 7188,
      "Ġnemy": 7189,
      "Ġstrasti": 7190,
      "Ġskokem": 7191,
      "ĠdÃ½mu": 7192,
      "ĠÄĽzdy": 7193,
      "ĠoltÃ¡ÅĻe": 7194,
      "ĠvyÅ¡ehra": 7195,
      "ĠvydÃ¡": 7196,
      "duje": 7197,
      "ĠcÃŃrkev": 7198,
      "ĠoÅ¡i": 7199,
      "Ġvoje": 7200,
      "ĠhradÄĽ": 7201,
      "ĠchytÃ¡": 7202,
      "Ġtrosky": 7203,
      "Ã½t": 7204,
      "nova": 7205,
      "Ġsata": 7206,
      "Ġslabo": 7207,
      "ĠtesknÃ©": 7208,
      "ĠvÃ½chod": 7209,
      "Ġ!": 7210,
      "Ġsel": 7211,
      "Ġmuky": 7212,
      "ĠnÃ¡vra": 7213,
      "ĠzÃ¡slu": 7214,
      "ĠmnoÅ¾stvÃŃ": 7215,
      "ĠotevÅĻel": 7216,
      "ĠeÄįek": 7217,
      "pÃ¡n": 7218,
      "Ġkyp": 7219,
      "ĠjizbÄĽ": 7220,
      "Å¡tÄĽm": 7221,
      "ĠpÅĻedtu": 7222,
      "ĠstÅĻÃŃbrnÃ©": 7223,
      "Äįnost": 7224,
      "jila": 7225,
      "Ġskvo": 7226,
      "Ġspor": 7227,
      "ĠnaÅ¡ÃŃm": 7228,
      "teÄįnÄĽ": 7229,
      "ĠhledÄĽ": 7230,
      "tÃŃme": 7231,
      "ĠdÄĽtskÃ©": 7232,
      "Ġdrahoka": 7233,
      "ĠsnÃ¡Å¡e": 7234,
      "ĠlehkÃ½": 7235,
      "hi": 7236,
      "Ġposte": 7237,
      "ĠhÅĻÃŃmÃ¡": 7238,
      "nuje": 7239,
      "Ġpravi": 7240,
      "ĠpevnÃ©": 7241,
      "Ġjsy": 7242,
      "ĠsvÃŃce": 7243,
      "ĠdÅĻÃŃma": 7244,
      "ĠmalÃ½ch": 7245,
      "Ġvezme": 7246,
      "Ġster": 7247,
      "Ġprob": 7248,
      "Ġprs": 7249,
      "has": 7250,
      "ĠhoÅĻem": 7251,
      "ĠmÃ¡li": 7252,
      "ĠpodlÃ©": 7253,
      "Ġovce": 7254,
      "Ġzvuku": 7255,
      "ĠstÅĻÃŃbrem": 7256,
      "ĠdÄĽvÄįÃ¡": 7257,
      "ĠbÅĻÃŃmÄĽ": 7258,
      "svit": 7259,
      "ÅĻeje": 7260,
      "ĠÅ¡ÃŃÅĻ": 7261,
      "ĠpamÄĽÅ¥": 7262,
      "Å¾nou": 7263,
      "ĠÄįeskou": 7264,
      "ĠvÃ¡Å¾nÃ½": 7265,
      "ĠmÃ©nÄĽ": 7266,
      "ĠplaÅ¡ÃŃ": 7267,
      "Ġanebo": 7268,
      "Ġbere": 7269,
      "hlÃ½m": 7270,
      "ĠmÄĽkce": 7271,
      "skÃ½mi": 7272,
      "ĠdÄĽsnÃ©": 7273,
      "ĠobÄĽti": 7274,
      "ĠtrÃ¡vu": 7275,
      "ĠnedbÃ¡": 7276,
      "Ġvnad": 7277,
      "ĠplachÃ½": 7278,
      "ĠsdÃŃ": 7279,
      "ĠnaÅ¡li": 7280,
      "dechu": 7281,
      "Ġzbroj": 7282,
      "Ġzakry": 7283,
      "Ġdivoce": 7284,
      "ĠzÅĻeli": 7285,
      "vÅ¡ad": 7286,
      "Ġaf": 7287,
      "ĠaÅ¡el": 7288,
      "Ġlehko": 7289,
      "ĠÅ¡av": 7290,
      "neÅ¡enÃ©": 7291,
      "cÃ¡": 7292,
      "kuje": 7293,
      "Ġjist": 7294,
      "ÄįkovÃ©": 7295,
      "nickÃ©": 7296,
      "Ã¡nÃŃ": 7297,
      "ent": 7298,
      "ĠnÄĽkte": 7299,
      "Ġuhas": 7300,
      "nickÃ½": 7301,
      "ĠbdÄĽ": 7302,
      "Ġprokop": 7303,
      "Ġuml": 7304,
      "ĠhorÅ¡ÃŃ": 7305,
      "ĠsvÃ¡tek": 7306,
      "ĠhoupÃ¡": 7307,
      "gan": 7308,
      "ditel": 7309,
      "Ġrozpo": 7310,
      "ĠzÃ¡mek": 7311,
      "rdÃŃ": 7312,
      "ĠrybnÃŃ": 7313,
      "Ġhanu": 7314,
      "Ġhodina": 7315,
      "bÃ½vÃ¡": 7316,
      "Ġysta": 7317,
      "Å¾ilo": 7318,
      "ĠrudÃ¡": 7319,
      "ĠodeÅ¡el": 7320,
      "drÃ¡": 7321,
      "tiny": 7322,
      "ĠprochÃ¡": 7323,
      "ceni": 7324,
      "Ġenec": 7325,
      "ĠnÃ¡rody": 7326,
      "ĠzelenÃ¡": 7327,
      "ĠÃºstech": 7328,
      "ĠmnozÃŃ": 7329,
      "Ġjasem": 7330,
      "ĠdvoÅĻe": 7331,
      "nÄĽt": 7332,
      "ĠÄįte": 7333,
      "ĠvysÃŃ": 7334,
      "ĠniÅ¾": 7335,
      "ĠnÃ¡ÅĻ": 7336,
      "Ġasni": 7337,
      "Ġsrdcy": 7338,
      "ĠknÄĽÅ¾na": 7339,
      "Ġnouze": 7340,
      "Ġuhem": 7341,
      "Ġrozhod": 7342,
      "Ġstala": 7343,
      "Ġanna": 7344,
      "ĠnÄĽjÅ¾": 7345,
      "ĠvzÃ¡cnÃ©": 7346,
      "Ġsedla": 7347,
      "ĠpÅĻÃŃtele": 7348,
      "ĠsynÅ¯": 7349,
      "Ġkoruny": 7350,
      "Å¾nÃŃ": 7351,
      "Ġodo": 7352,
      "ĠimÄĽ": 7353,
      "Ġuho": 7354,
      "Ġkroku": 7355,
      "Ġanych": 7356,
      "ĠtakovÃ½": 7357,
      "Ġbiskup": 7358,
      "chvÃ¡": 7359,
      "ĠvyklÃ¡": 7360,
      "Ġvzhled": 7361,
      "Ġmrazem": 7362,
      "ĠplesÃ¡": 7363,
      "hnouti": 7364,
      "Ġnachem": 7365,
      "Ġhrot": 7366,
      "Ġalne": 7367,
      "ĠdravÃ½": 7368,
      "ĠvÄĽÄįnÃ½m": 7369,
      "Ġtmavou": 7370,
      "ĠmaÄıar": 7371,
      "Ġvsa": 7372,
      "Ġbor": 7373,
      "ĠlhÃ¡": 7374,
      "ĠsvobodÄĽ": 7375,
      "Ġvypro": 7376,
      "ĠÅ¡uma": 7377,
      "Ġazni": 7378,
      "ĠdivokÃ½": 7379,
      "ĠvzÃ¡cnÃ½": 7380,
      "ĠtÃ³ny": 7381,
      "ĠopÄĽ": 7382,
      "ÅĻeli": 7383,
      "ĠjasnÃ½m": 7384,
      "Ġklene": 7385,
      "fÃŃ": 7386,
      "pak": 7387,
      "ÅĻÃŃvÃ¡": 7388,
      "Ġroje": 7389,
      "ĠzÃ¡Å¡Å¥": 7390,
      "ĠveselÃ½": 7391,
      "ĠandÄĽlÃ©": 7392,
      "dlem": 7393,
      "Ġimu": 7394,
      "ĠstarÅ¡ÃŃ": 7395,
      "ĠzdÃ¡nÃŃ": 7396,
      "ĠpÅĻemÃŃ": 7397,
      "ĠmÄĽkkÃ½": 7398,
      "Ġpomi": 7399,
      "ĠÅ¾iÅ¾ka": 7400,
      "ĠlaÅĪ": 7401,
      "Ġnebla": 7402,
      "ĠnevÄĽÅĻÃŃ": 7403,
      "ĠradostnÄĽ": 7404,
      "Ġzrozen": 7405,
      "Ġzad": 7406,
      "ĠzaÅ¡el": 7407,
      "ĠkÅĻÃŃÅ¾i": 7408,
      "stoupil": 7409,
      "ĠtemnÃ¡": 7410,
      "Ġvzpou": 7411,
      "ĠnÃ¡po": 7412,
      "Ġpruh": 7413,
      "ĠstkvÃŃ": 7414,
      "ĠssÃ¡": 7415,
      "Ġzne": 7416,
      "Ġetou": 7417,
      "lÃŃp": 7418,
      "ĠlÃŃnÄĽ": 7419,
      "ĠzboÅ¾ÃŃ": 7420,
      "ĠznÃ¡ti": 7421,
      "ĠvodopÃ¡": 7422,
      "Ġcvr": 7423,
      "ĠÅ¡ÃŃj": 7424,
      "Ġlampa": 7425,
      "ĠaÄįek": 7426,
      "ĠÅ¾ijÃŃ": 7427,
      "Ġvstane": 7428,
      "Ġrcete": 7429,
      "Ġvdech": 7430,
      "chi": 7431,
      "Ġvym": 7432,
      "ĠrozÅ¾": 7433,
      "ĠtÄĽkÃ¡": 7434,
      "ĠpravÃ¡": 7435,
      "Ġpranic": 7436,
      "Ġhel": 7437,
      "bÅĻe": 7438,
      "Ġlka": 7439,
      "ĠstÅĻechy": 7440,
      "ĠnevdÄĽ": 7441,
      "ĠzvlÃ¡Å¡tÄĽ": 7442,
      "ĠbohynÄĽ": 7443,
      "ĠÄĽlou": 7444,
      "jeli": 7445,
      "lujÃŃ": 7446,
      "Ġadku": 7447,
      "Ġtemna": 7448,
      "Ġidim": 7449,
      "ĠÅĪÃ¡dra": 7450,
      "nutÃ©": 7451,
      "Ġprok": 7452,
      "ĠÅ¾eÅĪ": 7453,
      "mila": 7454,
      "ĠdÃ¡val": 7455,
      "ĠbÃŃdÄĽ": 7456,
      "ĠbÃ¡znÃŃ": 7457,
      "Ġshr": 7458,
      "Ġkniha": 7459,
      "Ġnedba": 7460,
      "pka": 7461,
      "ĠroznÃŃ": 7462,
      "Ġrozez": 7463,
      "ĠlkÃ¡nÃŃ": 7464,
      "kÃ½mi": 7465,
      "ĠmÅ¯": 7466,
      "Ġbil": 7467,
      "nÄĽnou": 7468,
      "Ġroku": 7469,
      "sajÃŃ": 7470,
      "ĠÅ¾ÃŃzeÅĪ": 7471,
      "ĠtmavÃ¡": 7472,
      "pÃ©": 7473,
      "Ġmukou": 7474,
      "Ġref": 7475,
      "ĠÅ¡koly": 7476,
      "ĠtvrdÃ½": 7477,
      "Ġcenu": 7478,
      "bÃŃm": 7479,
      "eno": 7480,
      "Ġiro": 7481,
      "ĠzanÃŃ": 7482,
      "Ġproz": 7483,
      "Ġvyjde": 7484,
      "Å¡enÃ¡": 7485,
      "Ġahe": 7486,
      "ĠrtÅ¯m": 7487,
      "ĠÄĽkem": 7488,
      "ĠvlastnÃŃch": 7489,
      "ĠpÅĻÃ¡telstvÃŃ": 7490,
      "ĠÄĽstu": 7491,
      "ĠhodÃŃ": 7492,
      "ĠkouÅĻ": 7493,
      "ĠosvÄĽt": 7494,
      "ĠumÅĻÃŃt": 7495,
      "ĠpÅĻijÄı": 7496,
      "Ġkapky": 7497,
      "ĠpohleÄı": 7498,
      "tisk": 7499,
      "ĠdusÃŃ": 7500,
      "ĠdÃŃvÃ¡m": 7501,
      "ĠmuÅ¾em": 7502,
      "ĠbohÅ¯m": 7503,
      "ĠrumÄĽ": 7504,
      "Ġozna": 7505,
      "ĠveselÃŃ": 7506,
      "ĠdrÃ¡hu": 7507,
      "ĠnenadÃ¡nÃŃ": 7508,
      "Ġizda": 7509,
      "Ġjizby": 7510,
      "ĠrÄįi": 7511,
      "Ġzaslech": 7512,
      "Ġpevnou": 7513,
      "ĠspoleÄįnosti": 7514,
      "Ġolal": 7515,
      "ĠpÅĻivi": 7516,
      "Ġklidem": 7517,
      "Ġpolibek": 7518,
      "ckÃ©ho": 7519,
      "Ġhonem": 7520,
      "sala": 7521,
      "Ġdia": 7522,
      "ĠzdÃ¡la": 7523,
      "Ġzpola": 7524,
      "ĠuÅ¡lech": 7525,
      "ĠvleÄįe": 7526,
      "ĠokamÅ¾iku": 7527,
      "bnÃ¡": 7528,
      "tnÃ½m": 7529,
      "out": 7530,
      "ĠrÅ¾i": 7531,
      "Ġoupi": 7532,
      "Ġpuk": 7533,
      "ĠÅ¡Å¥astnÃ©": 7534,
      "Ġmiliony": 7535,
      "ĠnevÃ½slov": 7536,
      "mbu": 7537,
      "Ġusty": 7538,
      "ĠÅĻekli": 7539,
      "ĠovÄĽk": 7540,
      "Ġmuce": 7541,
      "Ġpolibky": 7542,
      "ĠvÄĽrnÃ¡": 7543,
      "Ġoblohou": 7544,
      "ĠdokonÃ¡": 7545,
      "Äįeho": 7546,
      "ĠmÄĽÅĻÃŃ": 7547,
      "ĠkrÃ¡snÄĽjÅ¡ÃŃ": 7548,
      "ĠsnivÃ½": 7549,
      "Ġvyslo": 7550,
      "ĠjakÃ©s": 7551,
      "ĠcÃŃrkve": 7552,
      "pej": 7553,
      "mund": 7554,
      "Ġduma": 7555,
      "ĠÅ¡eÅĻÃŃ": 7556,
      "snÃ½m": 7557,
      "ĠptÃ¡m": 7558,
      "Ġoudil": 7559,
      "Ġonem": 7560,
      "Ġobloha": 7561,
      "Ġvlaje": 7562,
      "ĠvolÃ¡m": 7563,
      "ĠusmÃ¡l": 7564,
      "Ġura": 7565,
      "ĠzapÃ¡": 7566,
      "vÃ¡nÃŃm": 7567,
      "Å¾iv": 7568,
      "Ġfu": 7569,
      "trÃ¡": 7570,
      "ĠÄįechÅ¯": 7571,
      "ĠÃºtra": 7572,
      "Ġvaz": 7573,
      "ĠhorkÃ©": 7574,
      "ĠuchvÃ¡": 7575,
      "Ġjezera": 7576,
      "Ġrtem": 7577,
      "ĠÃºkry": 7578,
      "Ġchladnou": 7579,
      "lostÃŃ": 7580,
      "Ġdoli": 7581,
      "ĠÅ¡ve": 7582,
      "Å¡im": 7583,
      "Ġbudeme": 7584,
      "ĠmÄĽÅ¡Å¥": 7585,
      "ĠviÄı": 7586,
      "ĠpropastÃŃ": 7587,
      "tkou": 7588,
      "Ġzta": 7589,
      "Ġuvad": 7590,
      "ĠmuÄįÃŃ": 7591,
      "Ġheslo": 7592,
      "ĠdlaÅ¾": 7593,
      "ĠsmÃ¡t": 7594,
      "ĠvzÃŃt": 7595,
      "Ġrozva": 7596,
      "Ġlide": 7597,
      "Ġstarci": 7598,
      "kladu": 7599,
      "ĠchrÃ¡mÄĽ": 7600,
      "ĠzalÃŃ": 7601,
      "ĠÄĽÅĻ": 7602,
      "tati": 7603,
      "ĠpeÅĻÃŃ": 7604,
      "Ġdruhy": 7605,
      "ker": 7606,
      "Ġirem": 7607,
      "lovÃ¡nÃŃ": 7608,
      "Ġlehou": 7609,
      "ĠpÅĻÃŃzrak": 7610,
      "ĠjaÅĻe": 7611,
      "ĠstraÅ¡nÃ½": 7612,
      "ĠmroucÃŃ": 7613,
      "Ã½val": 7614,
      "ĠzachrÃ¡": 7615,
      "ĠpamÃ¡tku": 7616,
      "ĠzapomnÄĽnÃŃ": 7617,
      "Ġai": 7618,
      "lumen": 7619,
      "Ġkovo": 7620,
      "ĠpÅĻil": 7621,
      "ĠÄįÃŃst": 7622,
      "Ġlilie": 7623,
      "ĠzaÅ¡ep": 7624,
      "Ġbur": 7625,
      "ĠbÃŃdnÃ©": 7626,
      "jemi": 7627,
      "Ġeskne": 7628,
      "Ġstrun": 7629,
      "Ġvstala": 7630,
      "Ġavo": 7631,
      "rami": 7632,
      "cestÃŃ": 7633,
      "Ġhody": 7634,
      "Ġmrazi": 7635,
      "cena": 7636,
      "ĠkrutÄĽ": 7637,
      "Ġkostela": 7638,
      "ary": 7639,
      "ĠdÃ¡Å¡": 7640,
      "Ġnepokoj": 7641,
      "ĠbolesÅ¥": 7642,
      "ĠmÄĽkkÃ©": 7643,
      "ĠnÅ¯Å¾": 7644,
      "ĠrubÃ¡": 7645,
      "vena": 7646,
      "cenou": 7647,
      "ĠpÅ¯dÄĽ": 7648,
      "ĠÅĻetÄĽz": 7649,
      "ĠsvatebnÃŃ": 7650,
      "Ġobna": 7651,
      "ĠmnoÅ¾ÃŃ": 7652,
      "Ġgro": 7653,
      "ĠjemnÃ©": 7654,
      "Ġinul": 7655,
      "Ġsluha": 7656,
      "ĠtÃ¡bor": 7657,
      "ĠÅ¾aly": 7658,
      "ĠzaÅ¡lÃ½ch": 7659,
      "ĠvzÃŃti": 7660,
      "dnÃ©ho": 7661,
      "ÃŃmÄĽ": 7662,
      "ĠmilovÃ¡nÃŃ": 7663,
      "Ġtajemnou": 7664,
      "ĠobrÃ¡til": 7665,
      "ĠkÅĻ": 7666,
      "Ġtane": 7667,
      "Ġvzcho": 7668,
      "ĠruÄįe": 7669,
      "ĠhlasnÄĽ": 7670,
      "ĠkvÄĽtech": 7671,
      "ĠtovÃ¡": 7672,
      "Ġpamat": 7673,
      "ĠzÃ¡ro": 7674,
      "Ġmilos": 7675,
      "kolem": 7676,
      "ĠvÄĽÅ¾i": 7677,
      "ĠnejdÅĻÃŃ": 7678,
      "Ġetly": 7679,
      "Ġazku": 7680,
      "Ġkletba": 7681,
      "ĠlÅ¯Å¾ko": 7682,
      "Ġprovo": 7683,
      "ĠlekÃ¡": 7684,
      "ĠostÅĻÃŃ": 7685,
      "ĠtrÄįÃŃ": 7686,
      "ĠkouÅĻÃŃ": 7687,
      "ĠslavnÃ½ch": 7688,
      "ĠpsanÃŃ": 7689,
      "ĠhvÃŃz": 7690,
      "ice": 7691,
      "ĠiÅ¡el": 7692,
      "Ġjedovat": 7693,
      "ĠvzneÅ¡enÃ©": 7694,
      "Ġobdi": 7695,
      "vyk": 7696,
      "Ġsnahy": 7697,
      "ĠstarÃ½m": 7698,
      "ĠmraÄįno": 7699,
      "Ġidal": 7700,
      "Å¾nÃ½ch": 7701,
      "Ġvzo": 7702,
      "ĠskalnÃŃ": 7703,
      "pku": 7704,
      "ĠmodrÃ¡": 7705,
      "ĠobÄĽtÃŃ": 7706,
      "ĠtmavÃ½ch": 7707,
      "Ġvolnosti": 7708,
      "eru": 7709,
      "ĠvÄĽno": 7710,
      "Ġkrov": 7711,
      "ĠkvÄĽtiny": 7712,
      "Ġfanta": 7713,
      "ĠsÃŃmÄĽ": 7714,
      "Ġpavou": 7715,
      "asy": 7716,
      "ĠprÃ¡vem": 7717,
      "ĠdobrÃ½ch": 7718,
      "ĠbÄĽl": 7719,
      "ÅĻeno": 7720,
      "ÅĻenÃ½m": 7721,
      "Ġtrap": 7722,
      "ĠstÅĻÃŃbrnÃ½": 7723,
      "ĠÄĽcko": 7724,
      "volnÄĽ": 7725,
      "Ġtvojich": 7726,
      "cos": 7727,
      "Ġideal": 7728,
      "ĠhospodÃ¡ÅĻ": 7729,
      "skat": 7730,
      "luj": 7731,
      "ilÃ©": 7732,
      "kÃ¡zal": 7733,
      "Ġhladu": 7734,
      "ĠÅ¡irÃ©m": 7735,
      "Ġroucha": 7736,
      "Ġzbyla": 7737,
      "ĠABC": 7738,
      "ĠÅ¡al": 7739,
      "ĠvÃŃnek": 7740,
      "ĠzemÅĻel": 7741,
      "ĠpÅĻedce": 7742,
      "ĠstatnÃ½": 7743,
      "ĠnejlepÅ¡ÃŃ": 7744,
      "Ġmojich": 7745,
      "ĠtrnÃŃ": 7746,
      "ĠzÃŃral": 7747,
      "Ġnebudu": 7748,
      "ĠouÅĻe": 7749,
      "lÅ¯v": 7750,
      "ĠsuchÃ©": 7751,
      "ĠÃºsvi": 7752,
      "Ġzp": 7753,
      "leno": 7754,
      "ĠvlÃ¡dce": 7755,
      "ĠpestrÃ½": 7756,
      "ĠklÃ¡Å¡ter": 7757,
      "Ġsky": 7758,
      "ĠnahÃ©": 7759,
      "Ġvyrost": 7760,
      "Ġcitem": 7761,
      "Ġvlno": 7762,
      "ĠozÃ½vÃ¡": 7763,
      "Ġvlek": 7764,
      "ĠjakÃ½m": 7765,
      "Ġroman": 7766,
      "Ġitne": 7767,
      "ĠhvÄĽzdnÃ©": 7768,
      "Ġerni": 7769,
      "Ġpronik": 7770,
      "ĠvybÃŃ": 7771,
      "vedu": 7772,
      "Ġrozli": 7773,
      "ĠruÅ¡ÃŃ": 7774,
      "ĠvodÃŃ": 7775,
      "Ġsadu": 7776,
      "ĠspÃ¡su": 7777,
      "Ġvesny": 7778,
      "Ġzdroje": 7779,
      "ĠnahÃ¡": 7780,
      "Ġhodil": 7781,
      "ĠdrahÃ½ch": 7782,
      "hlÃ©d": 7783,
      "ĠdotÃ½": 7784,
      "ĠyÄįi": 7785,
      "stin": 7786,
      "Ġtrav": 7787,
      "ĠzulÃŃ": 7788,
      "ĠnevrÃ¡tÃŃ": 7789,
      "mÄĽt": 7790,
      "Ġmlhou": 7791,
      "koliv": 7792,
      "ĠuvÃ¡": 7793,
      "Ġnehle": 7794,
      "Ġlest": 7795,
      "ĠbujnÃ½": 7796,
      "Ġzastavil": 7797,
      "Ġklobouk": 7798,
      "nus": 7799,
      "talo": 7800,
      "Ġrozpa": 7801,
      "ĠbÃ¡znÄĽ": 7802,
      "ĠsnÄĽho": 7803,
      "ĠtÃŃsni": 7804,
      "Ġskryt": 7805,
      "ĠzuÅĻi": 7806,
      "ĠblÃ¡ho": 7807,
      "ĠmlÃ¡deÅ¾": 7808,
      "Ġprod": 7809,
      "ĠmetÃ¡": 7810,
      "Ġrozumu": 7811,
      "ĠdÃŃtko": 7812,
      "Ġnezna": 7813,
      "Ġcizo": 7814,
      "ĠdlouhÃ½m": 7815,
      "Ġdarem": 7816,
      "ĠeÄįne": 7817,
      "ĠhlubinÃ¡ch": 7818,
      "ĠvÃ½smÄĽ": 7819,
      "Ġlov": 7820,
      "Ġresi": 7821,
      "ĠzÅĻÃŃdka": 7822,
      "ĠpokolenÃŃ": 7823,
      "Ġchalu": 7824,
      "ĠvstaÅĪ": 7825,
      "Ġceny": 7826,
      "ĠnÃ©sti": 7827,
      "Å¾em": 7828,
      "Å¾no": 7829,
      "ĠcÃŃtit": 7830,
      "ĠbÄĽlÃ¡": 7831,
      "ĠÅ¡Å¥astni": 7832,
      "Ġsul": 7833,
      "ĠmocnÃ½m": 7834,
      "ĠlÅ¯no": 7835,
      "pÅĻi": 7836,
      "Ġniv": 7837,
      "ĠÅ¡erÃ½": 7838,
      "Ġpustil": 7839,
      "ĠstÅĻela": 7840,
      "ĠstÅ¯": 7841,
      "Ġryb": 7842,
      "ĠbÃ¡jÃŃ": 7843,
      "ĠchuÄı": 7844,
      "ÅĻka": 7845,
      "nÄĽna": 7846,
      "ruje": 7847,
      "doval": 7848,
      "ladÅ¡ÃŃ": 7849,
      "ĠtÃŃseÅĪ": 7850,
      "Ġshro": 7851,
      "ĠmrÃ¡ko": 7852,
      "Ġhocha": 7853,
      "Ġtichem": 7854,
      "Ġbah": 7855,
      "Ġprosil": 7856,
      "Ġkletby": 7857,
      "Ġpohledu": 7858,
      "Ġthe": 7859,
      "Ġbet": 7860,
      "chajÃŃ": 7861,
      "ĠslÃ¡b": 7862,
      "ĠpotkÃ¡": 7863,
      "ĠkvÄĽte": 7864,
      "Ġvezdy": 7865,
      "ĠnejdraÅ¾Å¡ÃŃ": 7866,
      "mÃ¡m": 7867,
      "ĠÄĽh": 7868,
      "zdra": 7869,
      "ĠstÃ¡vÃ¡": 7870,
      "Ġkladi": 7871,
      "ĠsedlÃ¡": 7872,
      "ĠsedlÃ¡k": 7873,
      "ĠopÃŃ": 7874,
      "Å¥Ã¡": 7875,
      "Ġemstvi": 7876,
      "Ġstrast": 7877,
      "ĠsnÄĽti": 7878,
      "Ġpsi": 7879,
      "Ġpodu": 7880,
      "ĠmÃ¡je": 7881,
      "Ġske": 7882,
      "ĠÄįernÃ©m": 7883,
      "Å¾eno": 7884,
      "ĠbrÃ¡na": 7885,
      "Ġrozply": 7886,
      "jÃ¡k": 7887,
      "ĠpÅĻeje": 7888,
      "ĠchorÃ©": 7889,
      "ĠkabÃ¡": 7890,
      "Ġednu": 7891,
      "ĠstraÅ¡nÃ©": 7892,
      "Ġerne": 7893,
      "Ġfrancou": 7894,
      "ĠnahoÅĻe": 7895,
      "bce": 7896,
      "mar": 7897,
      "znÃ½ch": 7898,
      "Ġmhou": 7899,
      "tiÅ¾": 7900,
      "Ġrovi": 7901,
      "ĠpÃŃsek": 7902,
      "ĠvÃ½so": 7903,
      "Ġvrh": 7904,
      "ĠmÄĽsÃŃci": 7905,
      "ĠbÅĻit": 7906,
      "ĠpodveÄįer": 7907,
      "ĠsloÅ¾il": 7908,
      "cÅ¯v": 7909,
      "ĠdÃŃvko": 7910,
      "ĠkvÃŃtÃŃm": 7911,
      "ĠzaÅ¡u": 7912,
      "Ġsever": 7913,
      "blesk": 7914,
      "lom": 7915,
      "ĠnÄĽhu": 7916,
      "ĠjiskÅĻÃŃ": 7917,
      "Ġdobrodru": 7918,
      "ĠbystÅĻi": 7919,
      "Ġdoho": 7920,
      "ĠsvÄĽÅ¾e": 7921,
      "ĠdeÅ¡ti": 7922,
      "Ġopustil": 7923,
      "ĠtÃ½Å¾": 7924,
      "ĠpalÃ¡ce": 7925,
      "Ġznik": 7926,
      "Ġeha": 7927,
      "ĠvyÅ¡li": 7928,
      "Ġvysla": 7929,
      "ĠvzlÃ©t": 7930,
      "ÄįÃŃÅ¡": 7931,
      "ĠjeÅ¾to": 7932,
      "ĠmÃŃÅĻÃŃ": 7933,
      "Äįeno": 7934,
      "ĠvdÄĽÄįnÄĽ": 7935,
      "ĠdÅ¾": 7936,
      "Ġzabo": 7937,
      "ĠvyrÅ¯": 7938,
      "cenÃ½ch": 7939,
      "ĠjitÅĻnÃŃ": 7940,
      "Ġubu": 7941,
      "ĠsnÄĽtÃŃ": 7942,
      "ĠokolÃŃ": 7943,
      "Ġsloupy": 7944,
      "ĠteplÃ©": 7945,
      "Ġuzy": 7946,
      "voÅĻÃŃ": 7947,
      "Ġprokla": 7948,
      "ver": 7949,
      "Ġrus": 7950,
      "dÅĻi": 7951,
      "ĠzabÃŃ": 7952,
      "ĠbezdÄĽ": 7953,
      "Ġhromy": 7954,
      "Ġedna": 7955,
      "ĠstÄĽÅ¾ÃŃ": 7956,
      "ĠpÄĽknÃ½": 7957,
      "Ġusa": 7958,
      "Ġzava": 7959,
      "ĠniÄįem": 7960,
      "ĠplÃ¡nÄĽ": 7961,
      "ĠvÄĽÄįna": 7962,
      "Ġoknech": 7963,
      "Ġchudi": 7964,
      "ĠzloÄįin": 7965,
      "ĠspÄĽchu": 7966,
      "Ġpivo": 7967,
      "Ġodevz": 7968,
      "ĠslouÅ¾ÃŃ": 7969,
      "ĠÅ¾havÃ¡": 7970,
      "ĠdrobnÃ½ch": 7971,
      "Ġvno": 7972,
      "Ġvozy": 7973,
      "chali": 7974,
      "ĠdÃ¡vnÃ½": 7975,
      "ĠsluneÄįnÃŃ": 7976,
      "ĠzamyÅ¡len": 7977,
      "ĠeÄįnÄĽ": 7978,
      "ĠtulÃŃ": 7979,
      "Ġpravila": 7980,
      "ĠfrÃ¡": 7981,
      "Ġmrav": 7982,
      "ĠjasnÃ½ch": 7983,
      "Ġhrdli": 7984,
      "ĠzÃ¡stupy": 7985,
      "Ġhl": 7986,
      "Ġkapi": 7987,
      "ĠdÃŃlu": 7988,
      "Ġplamenem": 7989,
      "ĠznaÄįÃŃ": 7990,
      "Ġleskne": 7991,
      "ĠmoudÅĻe": 7992,
      "ĠpastÃ½ÅĻ": 7993,
      "Ġyba": 7994,
      "ĠmÃŃjÃŃ": 7995,
      "Å¡ena": 7996,
      "ĠzrÃ¡dce": 7997,
      "Ġvstoupil": 7998,
      "ĠÅĻasy": 7999,
      "Ġokouz": 8000,
      "vÃ¡na": 8001,
      "mÄĽla": 8002,
      "ĠdobrÃ½m": 8003,
      "ĠslavnÃ¡": 8004,
      "Å¡Ã¡": 8005,
      "Ġistu": 8006,
      "Ġudat": 8007,
      "ĠmÃ¡ji": 8008,
      "ĠpustÃ¡": 8009,
      "Ġgene": 8010,
      "ĠzpÃŃvajÃŃ": 8011,
      "Ġustal": 8012,
      "Ġflo": 8013,
      "Ġnepohnu": 8014,
      "ĠÅĻekni": 8015,
      "ĠvÄĽdÄĽt": 8016,
      "ĠtuÅ¥": 8017,
      "ĠdÃŃvat": 8018,
      "bala": 8019,
      "Ġjala": 8020,
      "Ġotrok": 8021,
      "ĠpalÃ¡c": 8022,
      "ĠverÅ¡Å¯": 8023,
      "Ġzpi": 8024,
      "ĠvyÄįÃŃ": 8025,
      "ĠkrÃ¡lo": 8026,
      "ĠjenÅ¾to": 8027,
      "ĠotÅĻÃ¡": 8028,
      "Ġluhu": 8029,
      "Ġesli": 8030,
      "ĠsilnÃ©": 8031,
      "Ġvichrem": 8032,
      "ĠvzplÃ¡l": 8033,
      "Ġrakvi": 8034,
      "ĠnebezpeÄįÃŃ": 8035,
      "zdu": 8036,
      "Ġzko": 8037,
      "Ġdoly": 8038,
      "Ġmozek": 8039,
      "Ġkousek": 8040,
      "ĠkÅĻÃŃdlech": 8041,
      "alo": 8042,
      "penÃ©": 8043,
      "Ġzadr": 8044,
      "dovi": 8045,
      "ĠrozvÃŃ": 8046,
      "Å¡tÄĽn": 8047,
      "Ġhus": 8048,
      "bÃ¡n": 8049,
      "Ġblouzni": 8050,
      "ĠcÃŃtÃŃÅ¡": 8051,
      "ĠpaÅ¾e": 8052,
      "ĠpukÃ¡": 8053,
      "Ġmrakem": 8054,
      "clo": 8055,
      "Ġzavr": 8056,
      "ĠklidnÃ©": 8057,
      "ĠbrÃ¡nu": 8058,
      "ĠchtÃŃt": 8059,
      "ĠnÃ©st": 8060,
      "ĠmÅ¡i": 8061,
      "Ġsestro": 8062,
      "ĠkoÅĻÃŃ": 8063,
      "Å¡enÄĽ": 8064,
      "Ġdvoj": 8065,
      "ĠnemÃ¡Å¡": 8066,
      "ĠzkamenÄĽ": 8067,
      "ĠpÅĻÃŃÅ¡tÃŃch": 8068,
      "ĠsbÃŃrÃ¡": 8069,
      "rci": 8070,
      "stvem": 8071,
      "Ġicho": 8072,
      "Ġpomys": 8073,
      "ĠctÄĽ": 8074,
      "Ġpropu": 8075,
      "Ġvraha": 8076,
      "ĠkoÅĻeny": 8077,
      "Ġsluchu": 8078,
      "Ġpokle": 8079,
      "ĠzbabÄĽ": 8080,
      "ĠnachÃ½": 8081,
      "Ġzraje": 8082,
      "ĠdÃ¡lnÃ½ch": 8083,
      "Ġlupen": 8084,
      "ĠsnoubÃŃ": 8085,
      "lce": 8086,
      "Ġizy": 8087,
      "Ġmozku": 8088,
      "Ġrozkaz": 8089,
      "ĠpÅĻÃŃsnÃ½": 8090,
      "ĠtouÅ¾ÃŃm": 8091,
      "ĠspÄĽchal": 8092,
      "ĠulicÃŃch": 8093,
      "ĠvesmÃŃ": 8094,
      "lali": 8095,
      "Ġskok": 8096,
      "ĠsilnÄĽ": 8097,
      "ĠbojÅ¯": 8098,
      "Ġskryl": 8099,
      "ĠstÄĽn": 8100,
      "ĠhojnÄĽ": 8101,
      "bÅ¡ÃŃ": 8102,
      "Ġzvou": 8103,
      "ĠnedÅ¯": 8104,
      "Ġskou": 8105,
      "ĠpohnutÃŃ": 8106,
      "Ġdcero": 8107,
      "ĠzaÄįne": 8108,
      "Ġnapro": 8109,
      "atÃ©": 8110,
      "Ġpohla": 8111,
      "Ġzvedne": 8112,
      "ĠhlÃŃdÃ¡": 8113,
      "ĠpÃ½chou": 8114,
      "vaÅ¥": 8115,
      "Ġyle": 8116,
      "Ġyzi": 8117,
      "Ġodlesk": 8118,
      "Ġoupil": 8119,
      "Ġarny": 8120,
      "ĠskvÄĽlÃ½": 8121,
      "ĠstvoÅĻil": 8122,
      "ÅĻelo": 8123,
      "ĠzaÅ¡la": 8124,
      "toma": 8125,
      "Ġsamy": 8126,
      "Ġstatky": 8127,
      "ĠÄĽho": 8128,
      "Ġtakou": 8129,
      "ĠtÃ¡hla": 8130,
      "Ġupi": 8131,
      "ĠÄĽhy": 8132,
      "vÃ¡me": 8133,
      "Ġdivem": 8134,
      "Ġreka": 8135,
      "ĠdÄĽlat": 8136,
      "ĠnajdeÅ¡": 8137,
      "Ġado": 8138,
      "Å¡lÃŃ": 8139,
      "ĠtiÅ¡i": 8140,
      "Ġsig": 8141,
      "Ġpodal": 8142,
      "Ġbledne": 8143,
      "ĠveselÃ©": 8144,
      "ĠholÃ¡": 8145,
      "bych": 8146,
      "ĠdÃŃtek": 8147,
      "Ġdivou": 8148,
      "ĠptÃ¡Äįek": 8149,
      "ĠÄįtenÃ¡": 8150,
      "ĠÅ¡kol": 8151,
      "ĠÅ¾ivou": 8152,
      "ĠnÄĽhou": 8153,
      "pajÃŃ": 8154,
      "Ġsady": 8155,
      "Ġvadne": 8156,
      "Ġope": 8157,
      "ĠneÄįi": 8158,
      "ĠvztÃ½": 8159,
      "ĠmyslÃŃÅ¡": 8160,
      "Äįnosti": 8161,
      "Ġjedu": 8162,
      "Ġpospo": 8163,
      "chÃ¡zÃŃm": 8164,
      "padne": 8165,
      "Ġhloubky": 8166,
      "ĠmatiÄįko": 8167,
      "ĠzÃ¡vist": 8168,
      "Ġjesky": 8169,
      "Ġprose": 8170,
      "Ġprin": 8171,
      "Ġzloby": 8172,
      "Ġazky": 8173,
      "Ġneur": 8174,
      "Ġkriste": 8175,
      "ĠvlÃŃdnÃ½": 8176,
      "Ġsboru": 8177,
      "vami": 8178,
      "vatu": 8179,
      "Ġrval": 8180,
      "ĠvÃŃla": 8181,
      "Ġmami": 8182,
      "Ġavit": 8183,
      "ĠuklÃ¡": 8184,
      "ĠchvÃ¡lÃŃ": 8185,
      "ĠpoÅ¾ehna": 8186,
      "ĠtkvÃŃ": 8187,
      "ĠhedbÃ¡": 8188,
      "ĠnÄĽmec": 8189,
      "Ġalou": 8190,
      "danÃ©": 8191,
      "Ġobsa": 8192,
      "ĠvÄĽÅĻil": 8193,
      "ĠtÅĻesk": 8194,
      "Ġidlo": 8195,
      "ĠmezÃŃ": 8196,
      "ĠkrutÃ¡": 8197,
      "ĠrÅ¯Å¾ovÃ©": 8198,
      "Ġhmy": 8199,
      "ĠzÃ¡vod": 8200,
      "ĠtichÃ½ch": 8201,
      "ĠvÅĻelÃ©": 8202,
      "Ġ22": 8203,
      "Ġholubice": 8204,
      "ĠvzrÅ¯stÃ¡": 8205,
      "ĠpÅĻim": 8206,
      "ĠdÄĽlo": 8207,
      "ĠslunÃ©": 8208,
      "ĠcizÃ¡": 8209,
      "ĠdÅĻÃŃme": 8210,
      "Ġzvukem": 8211,
      "ĠrÅ¯Å¾emi": 8212,
      "Ġvypo": 8213,
      "ĠpÅĻeko": 8214,
      "Ġmrtvou": 8215,
      "ĠnenÃ¡vist": 8216,
      "ĠspanilÃ¡": 8217,
      "Ġeto": 8218,
      "Ġzatra": 8219,
      "Ġpaty": 8220,
      "ĠvÃ¡hÃ¡": 8221,
      "Ġokovy": 8222,
      "Ġkameny": 8223,
      "ĠÄįÃ¡st": 8224,
      "Ġvizte": 8225,
      "Ġlije": 8226,
      "Ġzik": 8227,
      "ĠstejnÃ©": 8228,
      "Ġused": 8229,
      "Ġzapomenu": 8230,
      "ÅĻu": 8231,
      "ĠleÅ¾e": 8232,
      "Ġtahy": 8233,
      "Ġrada": 8234,
      "ĠdobÃ¡ch": 8235,
      "Ġpadlo": 8236,
      "Ġptact": 8237,
      "ĠtÅĻÃ¡s": 8238,
      "nkÃ½": 8239,
      "Ġzpra": 8240,
      "leti": 8241,
      "Ġkot": 8242,
      "Ġnovo": 8243,
      "douc": 8244,
      "ĠspÃŃnÃ¡": 8245,
      "ĠpoÄįkej": 8246,
      "hlÃ½ch": 8247,
      "kvÄĽt": 8248,
      "ĠeÄįka": 8249,
      "dan": 8250,
      "ĠvÄĽdomÃŃ": 8251,
      "ĠstaletÃŃ": 8252,
      "Ġdlouze": 8253,
      "ĠjedenkrÃ¡t": 8254,
      "ĠkolÃ©bky": 8255,
      "Ġdem": 8256,
      "Ġinal": 8257,
      "ĠkrajÅ¯": 8258,
      "ĠvÄįely": 8259,
      "Ã¡jem": 8260,
      "Ġvznik": 8261,
      "vejte": 8262,
      "Äįinou": 8263,
      "ĠÃºko": 8264,
      "ĠlÅ¾ÃŃ": 8265,
      "Ġhrady": 8266,
      "Ġgar": 8267,
      "ĠsterÃ©": 8268,
      "ĠoblakÅ¯": 8269,
      "ĠfarÃ¡ÅĻ": 8270,
      "ĠcÃ½": 8271,
      "Ġouc": 8272,
      "ĠnÃŃtÃŃ": 8273,
      "Å¡enÃ½ch": 8274,
      "Ġidny": 8275,
      "ĠslÃ©t": 8276,
      "Ã©l": 8277,
      "kosti": 8278,
      "Ġmih": 8279,
      "ĠdÅ¯kaz": 8280,
      "ĠkomÃŃ": 8281,
      "ĠskÅĻe": 8282,
      "Ġang": 8283,
      "Ġsynem": 8284,
      "Ġostrov": 8285,
      "Ġmdle": 8286,
      "dÄĽje": 8287,
      "ĠkaÅ¾di": 8288,
      "ĠptÃ¡ky": 8289,
      "Ġzelena": 8290,
      "Ġjelen": 8291,
      "Ġrodnou": 8292,
      "ĠvznÃ¡Å¡e": 8293,
      "lenÃ½ch": 8294,
      "ĠpÅĻedkÅ¯": 8295,
      "Ġnemohou": 8296,
      "ĠjednotvÃ¡": 8297,
      "Ġschy": 8298,
      "Ġkara": 8299,
      "ĠÄįisto": 8300,
      "Ġarne": 8301,
      "ĠhrÃ¡la": 8302,
      "Ġocel": 8303,
      "ĠplachÃ©": 8304,
      "Ġvrchol": 8305,
      "Ġtohle": 8306,
      "Ġchasa": 8307,
      "Ġryk": 8308,
      "ĠmodrÃ½m": 8309,
      "prve": 8310,
      "ĠiÄįkou": 8311,
      "tina": 8312,
      "ĠÄĽstÄĽ": 8313,
      "ĠvÄĽjÃŃ": 8314,
      "vÄĽtÅĻÃŃ": 8315,
      "Ġdivnou": 8316,
      "ĠÅĻem": 8317,
      "Ġsmo": 8318,
      "Ġnecho": 8319,
      "ĠnÃ¡rodnÃŃ": 8320,
      "Ġuply": 8321,
      "Ġkvas": 8322,
      "ĠhoroucÃŃ": 8323,
      "ĠzasmuÅ¡il": 8324,
      "Ġkama": 8325,
      "Ġstanu": 8326,
      "ĠbÄĽlou": 8327,
      "ĠÄįlovÄĽÄįen": 8328,
      "ĠzmÃ¡men": 8329,
      "ĠvÅĻele": 8330,
      "Ġchrab": 8331,
      "Ġchvatem": 8332,
      "ĠznamenÃ¡": 8333,
      "ĠsnÃ¡": 8334,
      "ĠseÄį": 8335,
      "ĠjarÃ½": 8336,
      "ĠoÄįÃŃm": 8337,
      "Ġboky": 8338,
      "ĠsÃŃtÃŃ": 8339,
      "ĠhoÅĻce": 8340,
      "rozenÃŃ": 8341,
      "Ġea": 8342,
      "Ġahly": 8343,
      "ĠvojÃ¡k": 8344,
      "ĠvÃ½ho": 8345,
      "ĠmdlÃ¡": 8346,
      "chej": 8347,
      "Å¥al": 8348,
      "Ġposlech": 8349,
      "Ġbranou": 8350,
      "ĠdÃ¡me": 8351,
      "star": 8352,
      "nÃ¡c": 8353,
      "Å¡ilo": 8354,
      "ĠhroznÄĽ": 8355,
      "ĠprÃ¡vu": 8356,
      "Ġatim": 8357,
      "ĠvÅ¯lÃŃ": 8358,
      "Ġavim": 8359,
      "Ġsval": 8360,
      "Ġrudou": 8361,
      "ĠkeÅĻi": 8362,
      "Ġillu": 8363,
      "hrÃ¡": 8364,
      "Ġize": 8365,
      "ĠsÃŃÅ¥": 8366,
      "ĠchutÄĽ": 8367,
      "ĠvÃŃtÄĽznÄĽ": 8368,
      "Ġojen": 8369,
      "chni": 8370,
      "Ġone": 8371,
      "Ġelka": 8372,
      "Ġkyti": 8373,
      "Ġklesne": 8374,
      "Ġvzadu": 8375,
      "ĠpÅĻip": 8376,
      "ĠplnÃ©m": 8377,
      "Ġnevinnosti": 8378,
      "kan": 8379,
      "Ġleck": 8380,
      "ĠrudÃ½m": 8381,
      "ĠpÄĽvec": 8382,
      "Ġsoudce": 8383,
      "Ġetlo": 8384,
      "Ġzmr": 8385,
      "Ġknize": 8386,
      "Ġmodlitby": 8387,
      "Ġpacho": 8388,
      "ĠsuchÃ½": 8389,
      "ĠstÅĻely": 8390,
      "Ġslunka": 8391,
      "ĠdrÃ¡Å¾": 8392,
      "onÅ¯": 8393,
      "zdÃŃ": 8394,
      "ÅĻely": 8395,
      "ĠÅ¡kÅ¯": 8396,
      "Ġprachem": 8397,
      "Ġstavu": 8398,
      "Ġhranice": 8399,
      "Ġusil": 8400,
      "mysl": 8401,
      "Ġvzor": 8402,
      "ĠstraÅ¡nÄĽ": 8403,
      "ĠmilÃ©ho": 8404,
      "ĠhrÅ¯zu": 8405,
      "ĠnaÅ¡im": 8406,
      "ĠzlÃ½m": 8407,
      "Ġpor": 8408,
      "Ġrtoma": 8409,
      "ĠÅĻeku": 8410,
      "Ġneznal": 8411,
      "Ġhloupo": 8412,
      "Ġdoubra": 8413,
      "ĠpÃ½chu": 8414,
      "Ġresigna": 8415,
      "sÅ¡ÃŃ": 8416,
      "Ġnico": 8417,
      "ĠpouhÃ¡": 8418,
      "ĠÅ¾ÃŃznÃŃ": 8419,
      "Ġocha": 8420,
      "Ġnaro": 8421,
      "Ġnastal": 8422,
      "valu": 8423,
      "Ġrva": 8424,
      "Ġmini": 8425,
      "Ġdivu": 8426,
      "Ġanny": 8427,
      "Ġutich": 8428,
      "Ġmrzu": 8429,
      "ĠtÅĻÃŃÅ¡tÃŃ": 8430,
      "Ġskrze": 8431,
      "Ġupy": 8432,
      "Ġponu": 8433,
      "skak": 8434,
      "stit": 8435,
      "ĠokamÅ¾enÃŃ": 8436,
      "Ġloktech": 8437,
      "lÃ¡Å¡": 8438,
      "vÃ¡no": 8439,
      "ĠvÃŃÅĻe": 8440,
      "Ġoucha": 8441,
      "bilo": 8442,
      "Ġedly": 8443,
      "ĠÅĻÃŃd": 8444,
      "ĠstÅ¯nÄĽ": 8445,
      "cÃ©": 8446,
      "ĠzvrÃ¡": 8447,
      "ĠdlÃ¡": 8448,
      "ĠÄĽdy": 8449,
      "ĠÃºdÄĽl": 8450,
      "ĠsÃŃnÃŃ": 8451,
      "ĠrybÃ¡": 8452,
      "ĠhvÄĽzdo": 8453,
      "ĠpyÅ¡nÃ½": 8454,
      "ĠkvapÃŃ": 8455,
      "ĠpÃ©ro": 8456,
      "smÃ¡": 8457,
      "ĠsbÄĽ": 8458,
      "leÅ¥": 8459,
      "Ġpronika": 8460,
      "Ġduje": 8461,
      "skÃ¡ch": 8462,
      "Ġudiven": 8463,
      "Ġvous": 8464,
      "Ġsje": 8465,
      "ĠpÅĻen": 8466,
      "Ġhem": 8467,
      "Ġjih": 8468,
      "trp": 8469,
      "ĠhvÄĽzdu": 8470,
      "ĠÅĻadÄĽ": 8471,
      "ĠÅ¡tÃŃty": 8472,
      "Ġzmatek": 8473,
      "Ġmuse": 8474,
      "ĠchladnÃ¡": 8475,
      "Ġzmije": 8476,
      "ĠzaÅ¡lÃ©": 8477,
      "ĠtvÅ¯rÄįÃŃ": 8478,
      "Ġitek": 8479,
      "Ġekem": 8480,
      "ĠprostÄĽ": 8481,
      "ĠzasvÄĽ": 8482,
      "Ġstup": 8483,
      "ĠboÅ¾skÃ½": 8484,
      "ĠzÅ¯stane": 8485,
      "ĠkrÅ¯pÄĽje": 8486,
      "ĠkvÃ©st": 8487,
      "vlnÄĽ": 8488,
      "Ġneve": 8489,
      "Ġlebky": 8490,
      "Ġoble": 8491,
      "jÅ¡ÃŃch": 8492,
      "ĠjakÃ¡s": 8493,
      "ĠusÃŃ": 8494,
      "cich": 8495,
      "ĠABB": 8496,
      "ĠhodnÄĽ": 8497,
      "ĠsnÄĽhy": 8498,
      "Ġpluh": 8499,
      "ĠmatiÄįka": 8500,
      "ĠvÄĽzenÃŃ": 8501,
      "Ġeze": 8502,
      "dol": 8503,
      "Ġdalo": 8504,
      "ĠbÃ¡zeÅĪ": 8505,
      "Ġvrouc": 8506,
      "Ġtrysk": 8507,
      "ĠrojÃŃ": 8508,
      "Ġrez": 8509,
      "ĠpÃ¡du": 8510,
      "ĠAAAA": 8511,
      "ĠmilÃ½m": 8512,
      "ĠkamarÃ¡": 8513,
      "Ġkvil": 8514,
      "ĠveÅ¡la": 8515,
      "mÄĽly": 8516,
      "Ġlne": 8517,
      "ĠsvÄĽto": 8518,
      "Ġicke": 8519,
      "Ġjun": 8520,
      "Ġkruhy": 8521,
      "ĠÅ¾lutÃ½": 8522,
      "ĠÄįervÃ¡nky": 8523,
      "par": 8524,
      "Ġuleh": 8525,
      "luv": 8526,
      "Ġtemnu": 8527,
      "ĠtÃ¡Å¾e": 8528,
      "ĠhÅĻÃŃchem": 8529,
      "ĠhvÄĽzdnÃ½": 8530,
      "Ġbarbar": 8531,
      "ĠzaznÄĽl": 8532,
      "ĠsedÃŃm": 8533,
      "ĠuÅ¾ÃŃ": 8534,
      "vavÄĽ": 8535,
      "Ġskrov": 8536,
      "Ġlada": 8537,
      "Ġsmutkem": 8538,
      "ĠbrÃ¡t": 8539,
      "ĠvÅ¡echnÄĽch": 8540,
      "Ġzdu": 8541,
      "vÃŃtÃ¡": 8542,
      "Ġasce": 8543,
      "ĠpÅĻivÃ¡": 8544,
      "ĠdivÃ½m": 8545,
      "ĠostrÃ©": 8546,
      "ĠpoznÃ¡nÃŃ": 8547,
      "ĠaÅ¡Å¥": 8548,
      "Ġzva": 8549,
      "Ġtok": 8550,
      "Ġobr": 8551,
      "tovat": 8552,
      "ledne": 8553,
      "Ġanto": 8554,
      "Ġekne": 8555,
      "ĠpÅĻemy": 8556,
      "ĠleknÃŃ": 8557,
      "rati": 8558,
      "ĠÄĽma": 8559,
      "Ġpase": 8560,
      "ĠdeÅ¡tÄĽm": 8561,
      "br": 8562,
      "snÃ©m": 8563,
      "Ġpsy": 8564,
      "Ġeo": 8565,
      "Ġmoder": 8566,
      "ĠpodÃ©l": 8567,
      "Ġsamoty": 8568,
      "ĠpojÄıte": 8569,
      "Ġdokola": 8570,
      "Ġosudem": 8571,
      "ĠAXABBX": 8572,
      "ĠzpomÃŃ": 8573,
      "ĠÄĽnu": 8574,
      "Ġvydal": 8575,
      "ĠvztÃ¡": 8576,
      "Ġouho": 8577,
      "ĠÅ¡edou": 8578,
      "Ġusnul": 8579,
      "ĠkÅĻiku": 8580,
      "Ġhousle": 8581,
      "ĠtajemnÃ½": 8582,
      "ĠpsÃ¡no": 8583,
      "ĠkÅĻiÅ¡Å¥Ã¡": 8584,
      "Ġsnila": 8585,
      "ĠpalÄįi": 8586,
      "Ġekal": 8587,
      "Ġuprch": 8588,
      "Ġneda": 8589,
      "Ġtone": 8590,
      "Ġtanec": 8591,
      "Ġidne": 8592,
      "Ġkynul": 8593,
      "Ġsvoboda": 8594,
      "ĠnekoneÄįnÃ©": 8595,
      "bas": 8596,
      "Ġsno": 8597,
      "Ġoesie": 8598,
      "Ġnet": 8599,
      "Ġzal": 8600,
      "Ġkalu": 8601,
      "ĠÅ¾ivÃ½ch": 8602,
      "pÄĽtÃŃ": 8603,
      "ĠuÄįinil": 8604,
      "ĠpÅ¯jdem": 8605,
      "ĠvpÅĻed": 8606,
      "ĠaÅ¾dy": 8607,
      "ĠnetÅĻe": 8608,
      "Ġchvo": 8609,
      "dÃŃte": 8610,
      "ĠvidÄĽli": 8611,
      "Ġesly": 8612,
      "ĠjemnÃ½": 8613,
      "ĠuÅ¡lechti": 8614,
      "ĠchuÄıas": 8615,
      "mrt": 8616,
      "Ġuda": 8617,
      "dÄĽn": 8618,
      "Ġchoti": 8619,
      "ĠbÃ¡seÅĪ": 8620,
      "ĠtluÄįe": 8621,
      "Ġrostla": 8622,
      "ĠnejvÃŃce": 8623,
      "ĠdomÃ¡cÃŃ": 8624,
      "ĠpÅĻiÅ¡ly": 8625,
      "pÄĽnÃŃ": 8626,
      "ĠblÃŃzku": 8627,
      "Ġhynou": 8628,
      "ĠvÅĻava": 8629,
      "Ġnesli": 8630,
      "ĠostÅĻe": 8631,
      "ĠberÃ¡": 8632,
      "ĠveÄįeru": 8633,
      "Ġutk": 8634,
      "Ġmak": 8635,
      "Ġneto": 8636,
      "ĠvyvÃ¡": 8637,
      "Ġobil": 8638,
      "Ġoblohy": 8639,
      "ĠkvÃ©sti": 8640,
      "ĠnÃ¡bo": 8641,
      "Ġmodli": 8642,
      "Ġvedli": 8643,
      "ĠtÅ¯ÅĪ": 8644,
      "ĠchudÃ¡k": 8645,
      "Ġsouzvuk": 8646,
      "Ġzry": 8647,
      "ĠbludnÃ©": 8648,
      "Ġvysch": 8649,
      "Ġpostava": 8650,
      "ĠodpovÃŃdÃ¡": 8651,
      "ĠpÃŃÅ¡Å¥": 8652,
      "Ġpoklo": 8653,
      "ĠchladnÄĽ": 8654,
      "ĠbohatstvÃŃ": 8655,
      "chÃ¡zejÃŃ": 8656,
      "ĠnÃ¡hodou": 8657,
      "ĠlÃ½": 8658,
      "ĠzmÃ¡": 8659,
      "eny": 8660,
      "ĠobracÃŃ": 8661,
      "Ġtrudu": 8662,
      "ĠzkuÅ¡en": 8663,
      "nkÅ¯": 8664,
      "livou": 8665,
      "Ġzasa": 8666,
      "ĠyÅ¡ti": 8667,
      "ĠABABBX": 8668,
      "ĠrÅ¯Å¾en": 8669,
      "pÃ¡ch": 8670,
      "plnÃ©": 8671,
      "Ġtaji": 8672,
      "ĠhledÄĽt": 8673,
      "Ġtravou": 8674,
      "Ġzvyku": 8675,
      "Ġizka": 8676,
      "bnÃ½ch": 8677,
      "sÃ¡m": 8678,
      "vajÃŃcÃŃ": 8679,
      "dami": 8680,
      "Ġvycho": 8681,
      "Ġledu": 8682,
      "ĠhravÄĽ": 8683,
      "ĠveÄįerem": 8684,
      "ĠuÄįitel": 8685,
      "ĠdÄĽtskÃ½ch": 8686,
      "Ġzvedl": 8687,
      "ĠvÄĽrnou": 8688,
      "Ġpovzdech": 8689,
      "Å¡nou": 8690,
      "Ġpola": 8691,
      "ĠdeÅ¡Å¥": 8692,
      "ĠspoÄįi": 8693,
      "Ġarmo": 8694,
      "Ġmocnou": 8695,
      "cÃŃmi": 8696,
      "ĠstÅĻÃŃbra": 8697,
      "ĠovÄĽÄı": 8698,
      "tickÃ©": 8699,
      "Ġveta": 8700,
      "ĠrozdÃŃ": 8701,
      "ĠrozpÃ¡": 8702,
      "Ġsprost": 8703,
      "ĠrudÃ½ch": 8704,
      "ĠpohlÃ©": 8705,
      "ĠchvÃ¡la": 8706,
      "Ġnejsme": 8707,
      "gen": 8708,
      "ĠvchÃ¡zÃŃ": 8709,
      "ĠpoÄįe": 8710,
      "ĠvidÄĽti": 8711,
      "ĠpÅĻÃŃko": 8712,
      "ĠslunÃŃ": 8713,
      "Ġmeze": 8714,
      "ĠÅĻÃŃc": 8715,
      "hneÅ¡": 8716,
      "Ġzml": 8717,
      "ĠmÄĽkkÃ¡": 8718,
      "Ġmodlitbou": 8719,
      "ĠblaÅ¾enosti": 8720,
      "ĠkvÄĽtin": 8721,
      "ĠradÅ¡": 8722,
      "Ġleje": 8723,
      "ĠkrÃ¡ÄįÃŃm": 8724,
      "ĠtÃŃÅ¾e": 8725,
      "Ġutim": 8726,
      "ĠloupeÅ¾": 8727,
      "Äįata": 8728,
      "ĠÅ¡klebÃŃ": 8729,
      "ĠponÃŃ": 8730,
      "ĠpolnÃŃ": 8731,
      "Ġroh": 8732,
      "Ġpropad": 8733,
      "ĠvzkÅĻi": 8734,
      "ĠluznÃ©": 8735,
      "ĠkonÄįÃŃ": 8736,
      "Ġchmury": 8737,
      "pÅĻÃ¡": 8738,
      "Ġyto": 8739,
      "Ġhostem": 8740,
      "Ġpodro": 8741,
      "ĠosvÃŃ": 8742,
      "Ġpadal": 8743,
      "Ġtvar": 8744,
      "ur": 8745,
      "skvÄĽ": 8746,
      "Ġmistra": 8747,
      "ĠvÃŃsky": 8748,
      "Ġbudo": 8749,
      "Ġklek": 8750,
      "Ġoknu": 8751,
      "Ġmrtva": 8752,
      "ĠzvÄĽsti": 8753,
      "ĠzÅ¯staÅĪ": 8754,
      "ĠhÅ¯ry": 8755,
      "ĠtÃ©mÄĽÅĻ": 8756,
      "Ġodpou": 8757,
      "ĠtÄĽsnÄĽ": 8758,
      "ĠblÃ¡z": 8759,
      "ĠdÄĽtskÃ½": 8760,
      "Ġhospodin": 8761,
      "Ġkmeny": 8762,
      "ckÃ©m": 8763,
      "ĠmstÃŃ": 8764,
      "ĠvÃ½stra": 8765,
      "ĠdobÅĻÃŃ": 8766,
      "Ġnepra": 8767,
      "Ġkolkolem": 8768,
      "Ġzkro": 8769,
      "Ġpochod": 8770,
      "ĠhÅĻeje": 8771,
      "ĠsmyslÅ¯": 8772,
      "Ġezi": 8773,
      "ĠÅ¡ku": 8774,
      "ĠdÃŃvek": 8775,
      "Ġmedu": 8776,
      "ĠpamÄĽt": 8777,
      "ĠpoÄįÃŃnÃ¡": 8778,
      "ruÅ¡ÃŃ": 8779,
      "Ġdojat": 8780,
      "tavÃ½": 8781,
      "Ġmoj": 8782,
      "Äįeje": 8783,
      "ĠÄįasnÄĽ": 8784,
      "Ġvlk": 8785,
      "Ġmraven": 8786,
      "Ġirat": 8787,
      "ĠzpÃŃvÃ¡m": 8788,
      "ĠubohÃ¡": 8789,
      "ĠumÃŃrÃ¡nÃŃ": 8790,
      "ĠÅ¾ol": 8791,
      "ÅĻik": 8792,
      "Ġdoved": 8793,
      "paly": 8794,
      "ĠjedinÄĽ": 8795,
      "Ġpomoz": 8796,
      "ĠvÃŃtÄĽznÃ½": 8797,
      "Ġepta": 8798,
      "ĠvnitÅĻnÃŃ": 8799,
      "ĠÄįekajÃŃ": 8800,
      "Ġstesku": 8801,
      "ĠdÄĽsnÃ¡": 8802,
      "ĠpovÅ¾dy": 8803,
      "Ġmilosrd": 8804,
      "ĠvÅ¡ecek": 8805,
      "ĠÄįekat": 8806,
      "ĠlÃŃbat": 8807,
      "ĠpospÄĽ": 8808,
      "ĠÄįÃŃhÃ¡": 8809,
      "ĠznÃ¡me": 8810,
      "ĠspatÅĻÃŃ": 8811,
      "ĠuboÅ¾Ã¡": 8812,
      "ĠvlhkÃ©": 8813,
      "Ġzkvet": 8814,
      "blou": 8815,
      "Ġjene": 8816,
      "Ġkapra": 8817,
      "Ġsej": 8818,
      "ĠpovÃŃm": 8819,
      "Ġdosa": 8820,
      "Ġcou": 8821,
      "ĠÅ¡ka": 8822,
      "atou": 8823,
      "ĠandÄĽla": 8824,
      "Ġvztekem": 8825,
      "Ġince": 8826,
      "nim": 8827,
      "ĠdoÅ¡el": 8828,
      "Ġsvla": 8829,
      "Ġstatek": 8830,
      "Ġlucy": 8831,
      "ĠoknÄĽ": 8832,
      "Ġozve": 8833,
      "ĠvzpomnÄĽl": 8834,
      "ĠzachvÄĽla": 8835,
      "ĠkolikrÃ¡t": 8836,
      "Ġnaproti": 8837,
      "nÄĽnÃ¡": 8838,
      "ĠytÄĽ": 8839,
      "ĠdajÃŃ": 8840,
      "ĠhluÄįnÄĽ": 8841,
      "ĠtrpÄĽl": 8842,
      "Ġarna": 8843,
      "Ġtriumf": 8844,
      "ĠshromÃ¡": 8845,
      "rÃ½mi": 8846,
      "Ã¡Å¡": 8847,
      "nÄĽjÃŃ": 8848,
      "ĠtuÅ¡il": 8849,
      "chan": 8850,
      "ĠchutÃŃ": 8851,
      "ĠhÃ¡v": 8852,
      "ĠstÅĻechu": 8853,
      "ĠsklonÃŃ": 8854,
      "ĠtÃ½den": 8855,
      "ĠnavÅ¡tÃŃ": 8856,
      "ĠnÃŃzkÃ©": 8857,
      "Ġpso": 8858,
      "Ġrozdr": 8859,
      "ĠnocÃŃch": 8860,
      "Ġmag": 8861,
      "ĠvolnÃ©": 8862,
      "ĠlouÄįÃŃ": 8863,
      "ĠXAAXBB": 8864,
      "Ġekou": 8865,
      "ĠnÄĽha": 8866,
      "ĠÃºbÄĽ": 8867,
      "Ġsan": 8868,
      "ĠpÄĽv": 8869,
      "Ġmilence": 8870,
      "Ġfiloso": 8871,
      "ĠustÃ¡nÃŃ": 8872,
      "ĠÅ¡pÃŃ": 8873,
      "dÄĽlo": 8874,
      "ĠhostÃ©": 8875,
      "Ġdere": 8876,
      "Ġstudu": 8877,
      "Ġsteskem": 8878,
      "Ġhovoru": 8879,
      "ĠvÅĻel": 8880,
      "ĠniÄįeho": 8881,
      "ĠsamÃ¡": 8882,
      "ĠskoÄįil": 8883,
      "ĠzlobÄĽ": 8884,
      "Ġspravedl": 8885,
      "Ġilem": 8886,
      "ĠpÅĻej": 8887,
      "Ġduhu": 8888,
      "Ġplav": 8889,
      "Ġalku": 8890,
      "pech": 8891,
      "Ġilku": 8892,
      "ĠhrÅ¯ze": 8893,
      "ĠkÃ½v": 8894,
      "ĠvalnÃ©": 8895,
      "ĠpÃ½chy": 8896,
      "Ġnesa": 8897,
      "ĠnedÄĽli": 8898,
      "naje": 8899,
      "ĠvÄĽtev": 8900,
      "ĠXAAA": 8901,
      "ĠvÃŃtÄĽzÃŃ": 8902,
      "ĠzavÅĻel": 8903,
      "ĠsnÅ¯m": 8904,
      "Äįu": 8905,
      "Ġivu": 8906,
      "ĠpromÄĽnÃŃ": 8907,
      "rÅ¯v": 8908,
      "Ġplachty": 8909,
      "ĠÅ¡ÃŃlenstvÃŃ": 8910,
      "ovi": 8911,
      "Ġbas": 8912,
      "Ġrosu": 8913,
      "Ġodal": 8914,
      "Ġroztom": 8915,
      "ĠÃºpÃŃ": 8916,
      "Ġhude": 8917,
      "Äįenou": 8918,
      "ĠkÅĻikem": 8919,
      "ĠlÅ¯na": 8920,
      "Ġkladou": 8921,
      "dnÃ©m": 8922,
      "Ġuvil": 8923,
      "sily": 8924,
      "ĠlÄįi": 8925,
      "ĠÄįervenÃ©": 8926,
      "ĠsmÄĽlÃ©": 8927,
      "Ġdomova": 8928,
      "ĠnadÅ¡enÃŃm": 8929,
      "ĠsnÃŃm": 8930,
      "ĠorÃ¡": 8931,
      "ĠtrvÃ¡": 8932,
      "hnej": 8933,
      "Ġglo": 8934,
      "ĠstrÃ¡ÅĪ": 8935,
      "ĠbudoucÃŃ": 8936,
      "ĠlehkÃ©": 8937,
      "ĠeÄįny": 8938,
      "Ġpozve": 8939,
      "ĠpÅĻÃŃrodÄĽ": 8940,
      "lkÅ¯": 8941,
      "Ġosta": 8942,
      "cejÃŃ": 8943,
      "ĠvzÅĪat": 8944,
      "lout": 8945,
      "ĠstÃ¡lÃ½": 8946,
      "Ġmodrou": 8947,
      "rmu": 8948,
      "Ġrab": 8949,
      "Ġonde": 8950,
      "ĠtouÅ¾e": 8951,
      "Äįkami": 8952,
      "ĠpÅ¯da": 8953,
      "Ġidsky": 8954,
      "ĠÅ¡ik": 8955,
      "Ġdvora": 8956,
      "ĠpsÃ¡t": 8957,
      "ĠÅ¾alÃ¡ÅĻ": 8958,
      "nÃŃkem": 8959,
      "dÄĽlÃ¡": 8960,
      "Ġlip": 8961,
      "ĠvÃ¡Å¾nÃ©": 8962,
      "ĠchorÃ½": 8963,
      "Ġzvonek": 8964,
      "Å¡kÃ¡": 8965,
      "taj": 8966,
      "Ġobce": 8967,
      "ĠvÄĽje": 8968,
      "Ġkadi": 8969,
      "ĠvÃŃly": 8970,
      "ĠdlouhÃ©m": 8971,
      "ĠoÅĻem": 8972,
      "Ġsype": 8973,
      "ĠtajnÃ½": 8974,
      "ĠknÄĽze": 8975,
      "Ġskutky": 8976,
      "ĠpestrÃ½ch": 8977,
      "ĠlabuÅ¥": 8978,
      "ÄįnÃ©ho": 8979,
      "Äįiv": 8980,
      "Ġvlak": 8981,
      "Ġrodiny": 8982,
      "bka": 8983,
      "Ġpoo": 8984,
      "Ġnedej": 8985,
      "Ġodnes": 8986,
      "hÃ¡Äį": 8987,
      "zujÃŃ": 8988,
      "ĠspÃ¡sa": 8989,
      "ĠandÄĽlÅ¯": 8990,
      "Ġisto": 8991,
      "ilÃ½": 8992,
      "ĠmÃ¡lem": 8993,
      "Ġkusy": 8994,
      "ĠstrÃ¡Å¾e": 8995,
      "ĠpomnÄĽ": 8996,
      "ĠsvojÃŃm": 8997,
      "ĠnamÃ¡": 8998,
      "lovi": 8999,
      "ĠniÄįÃŃ": 9000,
      "Ġmyslit": 9001,
      "Ġklenu": 9002,
      "Ġzamra": 9003,
      "ĠobilÃŃ": 9004,
      "Ġhotov": 9005,
      "Ġrne": 9006,
      "ĠbÃŃdnÄĽ": 9007,
      "ĠÄįili": 9008,
      "ĠvelkÃ©m": 9009,
      "Ġpustou": 9010,
      "Ġokolo": 9011,
      "ĠkvÃŃtko": 9012,
      "ĠprÃ½Å¡tÃŃ": 9013,
      "ĠchÃ¡pe": 9014,
      "Ġako": 9015,
      "ĠzvÄĽt": 9016,
      "Ġrd": 9017,
      "Ġpodla": 9018,
      "Ġmnohem": 9019,
      "benÃ½": 9020,
      "taje": 9021,
      "Ġobro": 9022,
      "Ġkrej": 9023,
      "ĠbujnÄĽ": 9024,
      "!?": 9025,
      "Ġzapa": 9026,
      "Ġzapu": 9027,
      "ĠnÃ¡la": 9028,
      "ĠdÃ¡lek": 9029,
      "ĠÅĻekou": 9030,
      "ĠÅ¾alosti": 9031,
      "ĠosamÄĽlÃ½": 9032,
      "Ġozu": 9033,
      "Ġpoti": 9034,
      "Ġnai": 9035,
      "Ġvzma": 9036,
      "Ġduhy": 9037,
      "ĠvrÃ¡tit": 9038,
      "ĠdÄĽtmi": 9039,
      "Ġhodo": 9040,
      "ĠnÄĽÅ¾nÄĽ": 9041,
      "Ġoup": 9042,
      "Å¡enÃŃm": 9043,
      "Ġzmlk": 9044,
      "ĠtvÅ¯rce": 9045,
      "ĠnÃ¡vÅ¡tÄĽ": 9046,
      "Ġonou": 9047,
      "Ġdomek": 9048,
      "ĠpÅĻÃŃbu": 9049,
      "Ġston": 9050,
      "Ġzvonky": 9051,
      "zoval": 9052,
      "Ġazil": 9053,
      "ĠblÃ¡zen": 9054,
      "ĠpÅĻijmi": 9055,
      "rnÃ©ho": 9056,
      "rag": 9057,
      "Ġvyjas": 9058,
      "ĠdrazÃŃ": 9059,
      "ĠschÅ¯": 9060,
      "ĠveÅ¡ker": 9061,
      "Ġvho": 9062,
      "ĠpotÅ¯": 9063,
      "ĠÄĽÅĻil": 9064,
      "ĠÅ¾ivÄĽ": 9065,
      "Ġvrata": 9066,
      "ĠsnÄĽm": 9067,
      "ĠstÃ½skÃ¡": 9068,
      "Ġhol": 9069,
      "mit": 9070,
      "zela": 9071,
      "ĠÅ¡ÃŃpy": 9072,
      "Ġstarosti": 9073,
      "Ġsoucitu": 9074,
      "Å¾kou": 9075,
      "ĠvyÅĻ": 9076,
      "zet": 9077,
      "Ġtyra": 9078,
      "ĠhromÅ¯": 9079,
      "Ġotou": 9080,
      "ĠhustÃ½": 9081,
      "Ġhrdina": 9082,
      "Ġotcov": 9083,
      "ĠdÃ³": 9084,
      "lÃ©tla": 9085,
      "ĠouÄįi": 9086,
      "ĠpravÄĽ": 9087,
      "zali": 9088,
      "ĠhrdÃ¡": 9089,
      "ĠÅ¡Å¥Ã¡": 9090,
      "Ġchladu": 9091,
      "nskÃ©": 9092,
      "ĠzajÃ¡": 9093,
      "voru": 9094,
      "Ġjedou": 9095,
      "tÃ©Å¾": 9096,
      "Ġsup": 9097,
      "Ġnemohl": 9098,
      "Ġkapli": 9099,
      "ĠvÄĽdo": 9100,
      "ĠvÄĽsÃŃ": 9101,
      "ĠuÅ¾as": 9102,
      "ĠmlÄįel": 9103,
      "Ġhero": 9104,
      "ĠdceÅĻi": 9105,
      "ĠhoÅĻkÃ½": 9106,
      "ĠkadeÅĻ": 9107,
      "brat": 9108,
      "Ġsne": 9109,
      "Ġkoutku": 9110,
      "Å¾eny": 9111,
      "ĠmrtvÃ½m": 9112,
      "ĠhloÅ¾ÃŃ": 9113,
      "jetÃŃ": 9114,
      "ĠvÃŃrou": 9115,
      "Ġedle": 9116,
      "ĠsvornÄĽ": 9117,
      "Ġstromech": 9118,
      "Ġechce": 9119,
      "zena": 9120,
      "ĠblÃ¡to": 9121,
      "ĠzdravÃ½": 9122,
      "ĠtÃ¡hly": 9123,
      "Ġkostel": 9124,
      "ĠpolibkÅ¯": 9125,
      "Ġhavran": 9126,
      "ĠoÅĻen": 9127,
      "vajÃŃc": 9128,
      "Ġchar": 9129,
      "Ġyte": 9130,
      "ĠhlavnÃŃ": 9131,
      "ĠsyÄįÃŃ": 9132,
      "ĠkeÅĻe": 9133,
      "Ġumd": 9134,
      "zeno": 9135,
      "ĠtuÅ¾by": 9136,
      "ĠneustÃ¡le": 9137,
      "Ġptactvo": 9138,
      "stila": 9139,
      "ĠhoÅĻel": 9140,
      "ĠplazÃŃ": 9141,
      "ĠnejlÃŃp": 9142,
      "ĠlukÃ¡ch": 9143,
      "Ġchoval": 9144,
      "Ġprosby": 9145,
      "Ġzvedla": 9146,
      "ĠtisÃŃckrÃ¡t": 9147,
      "ĠdobrÃ©ho": 9148,
      "ĠzajistÃ©": 9149,
      "ĠvÄĽzÃŃ": 9150,
      "ĠpraÅ¾": 9151,
      "Ġzjevy": 9152,
      "ĠnimiÅ¾": 9153,
      "ĠhlÃŃny": 9154,
      "ĠvÃŃtej": 9155,
      "ĠnetopÃ½": 9156,
      "Ġibi": 9157,
      "Ġrozle": 9158,
      "ĠdÃ¡na": 9159,
      "ĠneumÃŃ": 9160,
      "Ġmodlitba": 9161,
      "ĠnevinnÃ©": 9162,
      "ĠskÅĻivÃ¡n": 9163,
      "ĠzoufalÃ½": 9164,
      "ĠkvetoucÃŃ": 9165,
      "rÃ¡Å¾e": 9166,
      "ĠnÄĽkam": 9167,
      "Ġnejkra": 9168,
      "ÄįenÃ½ch": 9169,
      "plnÃ½": 9170,
      "Ġkrajiny": 9171,
      "ĠvÄĽrnÃ½ch": 9172,
      "ĠhoÅĻkÃ©": 9173,
      "ĠvzdechÅ¯": 9174,
      "ĠkolÃ©ba": 9175,
      "hlÃŃÅ¾ÃŃ": 9176,
      "Äįelo": 9177,
      "Ġdomovu": 9178,
      "ĠaÄįky": 9179,
      "ram": 9180,
      "Ġpohod": 9181,
      "Ġzabu": 9182,
      "nalo": 9183,
      "lÃŃd": 9184,
      "Ġpara": 9185,
      "pati": 9186,
      "Ġobrazem": 9187,
      "Ġzora": 9188,
      "ĠeÄįna": 9189,
      "ĠzuÅĻÃŃ": 9190,
      "jatÃ©": 9191,
      "ĠnejdÅĻÃŃv": 9192,
      "Ġposko": 9193,
      "Ġnetr": 9194,
      "ĠtotiÅ¾": 9195,
      "Ġjinam": 9196,
      "ĠmÃ¡k": 9197,
      "ĠÃºÄį": 9198,
      "ĠÅ¡epot": 9199,
      "Ġvrahy": 9200,
      "Ġumlk": 9201,
      "Ġzlosti": 9202,
      "Ġsrp": 9203,
      "ĠiÅ¾il": 9204,
      "Ġhlase": 9205,
      "ĠprvnÄĽ": 9206,
      "Ġadli": 9207,
      "ĠdivÃŃ": 9208,
      "ĠbÃ¡zni": 9209,
      "ĠlÃ©k": 9210,
      "ĠkvÃŃtky": 9211,
      "ĠsnivÄĽ": 9212,
      "ĠdruhÃ½m": 9213,
      "Ġyny": 9214,
      "Ġvyno": 9215,
      "ĠbujÃŃ": 9216,
      "ĠlÃ¡ny": 9217,
      "ĠveselÃ¡": 9218,
      "ĠÄįinÅ¯m": 9219,
      "Ġukol": 9220,
      "tar": 9221,
      "ĠzÃ¡da": 9222,
      "ĠpÅĻijÃŃt": 9223,
      "Ġjedle": 9224,
      "ĠrozkoÅ¡i": 9225,
      "ĠpustÃ½ch": 9226,
      "ĠodpoÄįÃŃvÃ¡": 9227,
      "lkem": 9228,
      "ĠpÅ¡en": 9229,
      "Ġyru": 9230,
      "ĠranÃŃ": 9231,
      "ĠpÃŃsmo": 9232,
      "ĠdruhÃ©ho": 9233,
      "ĠskvÄĽlÃ©": 9234,
      "klÃ¡dÃ¡": 9235,
      "Ġzoufale": 9236,
      "ÃŃnÃ¡": 9237,
      "Ġchlou": 9238,
      "Ġpropas": 9239,
      "Ġykem": 9240,
      "ĠpÅĻÃŃjem": 9241,
      "ĠmÃŃst": 9242,
      "ĠplnÄĽ": 9243,
      "Ġzbloudil": 9244,
      "Ġtlukou": 9245,
      "ĠÃºtÄĽchu": 9246,
      "ĠstrÃ¡Å¾ce": 9247,
      "bci": 9248,
      "ĠchlÃ¡": 9249,
      "Ġpana": 9250,
      "ĠnÃ¡si": 9251,
      "Ġzdech": 9252,
      "Ġhluch": 9253,
      "Ġkamsi": 9254,
      "ĠmodlitbÄĽ": 9255,
      "Ġsmarag": 9256,
      "Ġvnuk": 9257,
      "ĠkÃ½m": 9258,
      "ĠseÅ¡li": 9259,
      "ĠrobÄĽ": 9260,
      "ĠÅ¾ezlo": 9261,
      "Ġfe": 9262,
      "Ġpoce": 9263,
      "ĠuÅ¡il": 9264,
[...]
