{
  "version": "1.0",
  "truncation": null,
  "padding": null,
  "added_tokens": [
    {
      "id": 0,
      "content": "<|EOS|>",
      "single_word": false,
      "lstrip": false,
      "rstrip": false,
      "normalized": false,
      "special": true
    },
    {
      "id": 1,
      "content": "<|PAD|>",
      "single_word": false,
      "lstrip": false,
      "rstrip": false,
      "normalized": false,
      "special": true
    },
    {
      "id": 2,
      "content": "<|UNK|>",
      "single_word": false,
      "lstrip": false,
      "rstrip": false,
      "normalized": false,
      "special": true
    },
    {
      "id": 3,
      "content": "<|CLS|>",
      "single_word": false,
      "lstrip": false,
      "rstrip": false,
      "normalized": false,
      "special": true
    }
  ],
  "normalizer": null,
  "pre_tokenizer": {
    "type": "ByteLevel",
    "add_prefix_space": false,
    "trim_offsets": true,
    "use_regex": true
  },
  "post_processor": {
    "type": "RobertaProcessing",
    "sep": [
      "<|EOS|>",
      0
    ],
    "cls": [
      "<|CLS|>",
      3
    ],
    "trim_offsets": false,
    "add_prefix_space": false
  },
  "decoder": {
    "type": "ByteLevel",
    "add_prefix_space": true,
    "trim_offsets": true,
    "use_regex": true
  },
  "model": {
    "type": "BPE",
    "dropout": null,
    "unk_token": null,
    "continuing_subword_prefix": null,
    "end_of_word_suffix": null,
    "fuse_unk": false,
    "byte_fallback": false,
    "vocab": {
      "<|EOS|>": 0,
      "<|PAD|>": 1,
      "<|UNK|>": 2,
      "<|CLS|>": 3,
      "!": 4,
      "#": 5,
      ",": 6,
      ".": 7,
      "0": 8,
      "1": 9,
      "2": 10,
      "3": 11,
      "4": 12,
      "5": 13,
      "6": 14,
      "7": 15,
      "8": 16,
      "9": 17,
      "?": 18,
      "A": 19,
      "B": 20,
      "C": 21,
      "D": 22,
      "H": 23,
      "J": 24,
      "N": 25,
      "P": 26,
      "T": 27,
      "X": 28,
      "Y": 29,
      "a": 30,
      "b": 31,
      "c": 32,
      "d": 33,
      "e": 34,
      "f": 35,
      "g": 36,
      "h": 37,
      "i": 38,
      "j": 39,
      "k": 40,
      "l": 41,
      "m": 42,
      "n": 43,
      "o": 44,
      "p": 45,
      "q": 46,
      "r": 47,
      "s": 48,
      "t": 49,
      "u": 50,
      "v": 51,
      "w": 52,
      "x": 53,
      "y": 54,
      "z": 55,
      "¡": 56,
      "¤": 57,
      "¥": 58,
      "©": 59,
      "¯": 60,
      "³": 61,
      "¶": 62,
      "º": 63,
      "¼": 64,
      "½": 65,
      "¾": 66,
      "Ã": 67,
      "Ä": 68,
      "Å": 69,
      "Ċ": 70,
      "Ġ": 71,
      "Ī": 72,
      "į": 73,
      "ı": 74,
      "Ļ": 75,
      "Ľ": 76,
      "Ń": 77,
      "Ġ#": 78,
      "Ġs": 79,
      "Ġn": 80,
      "Ġv": 81,
      "Ġt": 82,
      "ÃŃ": 83,
      "Ġk": 84,
      "Ġ1": 85,
      "Ġd": 86,
      "Ã¡": 87,
      "Ġp": 88,
      "Ġj": 89,
      "ÄĽ": 90,
      "Ġm": 91,
      "Ġl": 92,
      "Ġz": 93,
      "ĠÅ": 94,
      "Ġb": 95,
      "Ġc": 96,
      "Ġh": 97,
      "ou": 98,
      "Ġr": 99,
      "Ã½": 100,
      "Äį": 101,
      "Ġa": 102,
      "Ã©": 103,
      "Ġst": 104,
      "ÅĻ": 105,
      "Ġje": 106,
      "Ġ10": 107,
      "Ġ8": 108,
      "ch": 109,
      "Ġse": 110,
      "Å¾": 111,
      "la": 112,
      "Ġ11": 113,
      "Ġne": 114,
      "ĠÅ¾": 115,
      "Ġna": 116,
      "ĠÅ¡": 117,
      "Å¡": 118,
      "ra": 119,
      "ĠÄį": 120,
      "Ġch": 121,
      "Ġo": 122,
      "em": 123,
      "Ġpo": 124,
      "Å¯": 125,
      "XX": 126,
      "Ġsv": 127,
      "Ġle": 128,
      "le": 129,
      "ĠnÃŃ": 130,
      "Ġko": 131,
      "ak": 132,
      "ro": 133,
      "Ġho": 134,
      "st": 135,
      "AB": 136,
      "Ġli": 137,
      "ĠÅĻ": 138,
      "Ġce": 139,
      "Ġ9": 140,
      "Ġte": 141,
      "Ġza": 142,
      "Ġdo": 143,
      "ĠnÄĽ": 144,
      "ÅĻe": 145,
      "Ġto": 146,
      "Ġti": 147,
      "al": 148,
      "ĠÅ¾e": 149,
      "Ġby": 150,
      "Ġji": 151,
      "Ġno": 152,
      "Ġka": 153,
      "Ġmi": 154,
      "Ġ19": 155,
      "Ġ7": 156,
      "Ġni": 157,
      "Ġla": 158,
      "ĠnÃ¡": 159,
      "Ġve": 160,
      "rÃ¡": 161,
      "Ġro": 162,
      "ĠnÃ½": 163,
      "Ġsl": 164,
      "Ġta": 165,
      "Ġu": 166,
      "ĠvÄĽ": 167,
      "Ġkd": 168,
      "ne": 169,
      "ĠjÃŃ": 170,
      "ĠnÃ©": 171,
      "ĠtÄĽ": 172,
      "ni": 173,
      "ĠvÅ¡": 174,
      "Ġsk": 175,
      "Ġde": 176,
      "Ġva": 177,
      "li": 178,
      "Ġvo": 179,
      "ĠÅ¡e": 180,
      "ĠÄįe": 181,
      "ÅĻi": 182,
      "Ġlo": 183,
      "Ġky": 184,
      "Ġmo": 185,
      "Ġku": 186,
      "Ġ6": 187,
      "ĠdÄĽ": 188,
      "Ġvi": 189,
      "Ġmu": 190,
      "Ġdu": 191,
      "ĠvÃ¡": 192,
      "Ġvy": 193,
      "Ġpa": 194,
      "Ġbo": 195,
      "Ġ12": 196,
      "Ġtv": 197,
      "Ġjak": 198,
      "Ġdi": 199,
      "ÅĻÃŃ": 200,
      "Ġvz": 201,
      "lo": 202,
      "Ġjs": 203,
      "Ġma": 204,
      "Ġ18": 205,
      "vÄĽ": 206,
      "ĠmÄĽ": 207,
      "Ġme": 208,
      "nÄĽ": 209,
      "ĠtÃŃ": 210,
      "Ġja": 211,
      "Ġze": 212,
      "Ġsp": 213,
      "ĠvÃŃ": 214,
      "Ġpro": 215,
      "Ġsi": 216,
      "ru": 217,
      "Ġtu": 218,
      "Ġru": 219,
      "Ġci": 220,
      "Ġsta": 221,
      "ĠÅ¾i": 222,
      "Ġda": 223,
      "Ġnou": 224,
      "ĠAB": 225,
      "Ġnu": 226,
      "Ġbe": 227,
      "ĠdÃŃ": 228,
      "na": 229,
      "00": 230,
      "ĠdÃ¡": 231,
      "Ġra": 232,
      "Ġ1900": 233,
      "Ġjen": 234,
      "ĠÄįi": 235,
      "ti": 236,
      "Å¥": 237,
      "XXXX": 238,
      "XA": 239,
      "ĠcÃŃ": 240,
      "ĠÅĻe": 241,
      "Ã½ch": 242,
      "Ġ13": 243,
      "ĠpÅĻe": 244,
      "Ġco": 245,
      "Ġbu": 246,
      "lu": 247,
      "va": 248,
      "ĠÅ¡ÃŃ": 249,
      "Ġkdy": 250,
      "ĠmÃ¡": 251,
      "Ġsm": 252,
      "Ġzd": 253,
      "Ġny": 254,
      "Ġty": 255,
      "ĠABAB": 256,
      "Ġi": 257,
      "Ġsti": 258,
      "Ġhla": 259,
      "lÃ¡": 260,
      "ĠvÅ¡e": 261,
      "ĠÄįÃŃ": 262,
      "ĠsvÄĽ": 263,
      "ĠlÃ¡": 264,
      "Ġzv": 265,
      "ĠlÃŃ": 266,
      "Ġdy": 267,
      "Ġha": 268,
      "ĠA": 269,
      "80": 270,
      "Ġ1880": 271,
      "ĠkÃ¡": 272,
      "20": 273,
      "te": 274,
      "Ġsa": 275,
      "ĠXXXX": 276,
      "ĠrÃ¡": 277,
      "Ġly": 278,
      "ĠbÄĽ": 279,
      "ny": 280,
      "ĠÅĻÃŃ": 281,
      "ĠmÃŃ": 282,
      "Ã½m": 283,
      "Ġtak": 284,
      "Äı": 285,
      "ce": 286,
      "ly": 287,
      "ĠÃ": 288,
      "Ġpra": 289,
      "ĠkrÃ¡": 290,
      "no": 291,
      "ĠÅ¡i": 292,
      "Ġpe": 293,
      "Ġ1920": 294,
      "Ġjsem": 295,
      "je": 296,
      "ĠÅ¾ÃŃ": 297,
      "ĠpÅĻi": 298,
      "ĠzÃ¡": 299,
      "Ġba": 300,
      "Ġhle": 301,
      "ÅĪ": 302,
      "Ġpr": 303,
      "Ġkou": 304,
      "Ġkr": 305,
      "ĠsÃŃ": 306,
      "ĠÅĻi": 307,
      "ĠstÃŃ": 308,
      "Ġbi": 309,
      "tÄĽ": 310,
      "Ġlu": 311,
      "ĠvÃ½": 312,
      "rd": 313,
      "Ġtr": 314,
      "Ġzp": 315,
      "Ġsla": 316,
      "Ġvs": 317,
      "ĠvÃ©": 318,
      "ci": 319,
      "ji": 320,
      "ĠkdyÅ¾": 321,
      "dy": 322,
      "Ġcho": 323,
      "lou": 324,
      "ĠkÃ©": 325,
      "Ġmy": 326,
      "Ġvp": 327,
      "ĠtÃ¡": 328,
      "lÃŃ": 329,
      "vi": 330,
      "ka": 331,
      "ku": 332,
      "Ġhu": 333,
      "Ġsto": 334,
      "Ġ5": 335,
      "ĠjÃ¡": 336,
      "nÃŃ": 337,
      "ĠtÃ©": 338,
      "ĠAAB": 339,
      "Ġod": 340,
      "Ġsy": 341,
      "ĠlÃ©": 342,
      "Å¯j": 343,
      "Ġpla": 344,
      "vÃŃ": 345,
      "ĠvÅ¡ak": 346,
      "ĠXA": 347,
      "Ġroz": 348,
      "ĠsvÃ©": 349,
      "ĠpÄĽ": 350,
      "ky": 351,
      "Ġso": 352,
      "ĠpÃŃ": 353,
      "nou": 354,
      "ĠÄįa": 355,
      "Ġten": 356,
      "Ġf": 357,
      "Ġkde": 358,
      "Ġvu": 359,
      "Ġvd": 360,
      "Ġsu": 361,
      "ĠnÃ½ch": 362,
      "Ġpi": 363,
      "nu": 364,
      "Ġchu": 365,
      "Ġry": 366,
      "Ġsrd": 367,
      "Ġste": 368,
      "ĠbÃŃ": 369,
      "ĠAABB": 370,
      "Ġvla": 371,
      "me": 372,
      "Ġtam": 373,
      "ve": 374,
      "ĠhÃ¡": 375,
      "Ġre": 376,
      "Ġbra": 377,
      "ĠpÃ¡": 378,
      "Ġvt": 379,
      "ĠjiÅ¾": 380,
      "Ġpu": 381,
      "Ġslu": 382,
      "40": 383,
      "ĠstÃ¡": 384,
      "ĠÃº": 385,
      "Ġtou": 386,
      "ĠkÅ¯": 387,
      "ĠkÃ½": 388,
      "ĠzÃŃ": 389,
      "sti": 390,
      "Ġkra": 391,
      "Ġbyl": 392,
      "Ġval": 393,
      "Ġzra": 394,
      "Å¾i": 395,
      "Ġhy": 396,
      "ĠpÅĻÃŃ": 397,
      "Ġnad": 398,
      "ĠXAXA": 399,
      "Ġslo": 400,
      "Ġcha": 401,
      "Ġdra": 402,
      "ĠjeÅ¾": 403,
      "Ġkem": 404,
      "Ġkla": 405,
      "Ġzm": 406,
      "Ġkle": 407,
      "ĠkvÄĽ": 408,
      "lÃ©": 409,
      "Ġzb": 410,
      "Ġzi": 411,
      "Ġzla": 412,
      "ho": 413,
      "Ġhra": 414,
      "Ġbou": 415,
      "ta": 416,
      "ĠvÅ¾": 417,
      "ĠsÃ¡": 418,
      "Ġzas": 419,
      "nÃ¡": 420,
      "Ġhro": 421,
      "du": 422,
      "ĠmÃ©": 423,
      "Äįi": 424,
      "Ġdou": 425,
      "vy": 426,
      "Ġvra": 427,
      "Ġtem": 428,
      "Ġg": 429,
      "Ġden": 430,
      "Ġe": 431,
      "ĠlÃ½": 432,
      "ĠnÃ½m": 433,
      "de": 434,
      "vo": 435,
      "ĠlÃ¡s": 436,
      "CC": 437,
      "ry": 438,
      "di": 439,
      "Ġstra": 440,
      "Ġsva": 441,
      "Ġkte": 442,
      "Ġpou": 443,
      "ĠÄįer": 444,
      "ĠvÅ¾dy": 445,
      "Å¡i": 446,
      "Ġpak": 447,
      "Ġpod": 448,
      "Ġbez": 449,
      "Ġkdo": 450,
      "ha": 451,
      "ĠdÃ©": 452,
      "ĠbÃ¡": 453,
      "ĠdÃ½": 454,
      "Ġspo": 455,
      "Ġbla": 456,
      "Ġvk": 457,
      "Ġsou": 458,
      "ĠnÃŃm": 459,
      "Ġsle": 460,
      "Ġ15": 461,
      "ĠjenÅ¾": 462,
      "Ġlem": 463,
      "Ġjed": 464,
      "Ġsna": 465,
      "Ġ14": 466,
      "Ġmne": 467,
      "ĠtÃ½": 468,
      "Ġzo": 469,
      "Ġpl": 470,
      "ĠaÅ¾": 471,
      "ĠXXXXXX": 472,
      "Äįe": 473,
      "Ġjest": 474,
      "Ġjich": 475,
      "60": 476,
      "Ġsvo": 477,
      "ĠpÅĻed": 478,
      "Ġvou": 479,
      "Ġhou": 480,
      "Ġchy": 481,
      "ĠÃ³": 482,
      "Ġdne": 483,
      "Ġvm": 484,
      "ĠtÅĻe": 485,
      "da": 486,
      "Ġzem": 487,
      "Ġkli": 488,
      "Ġstu": 489,
      "ĠnÃ¡m": 490,
      "Ġlou": 491,
      "Ġvr": 492,
      "Ġke": 493,
      "ĠsvÄĽt": 494,
      "Ġsly": 495,
      "Ġhr": 496,
      "Ġdal": 497,
      "Ġble": 498,
      "Ġ4": 499,
      "sk": 500,
      "Ġdru": 501,
      "Ġvst": 502,
      "mi": 503,
      "Ġzu": 504,
      "ĠtvÃ¡": 505,
      "ĠchÃ¡": 506,
      "ĠteÄı": 507,
      "ĠjeÅ¡": 508,
      "Ġsem": 509,
      "Ġdla": 510,
      "Ġdr": 511,
      "ĠprÃ¡": 512,
      "ĠkaÅ¾": 513,
      "Ġsvou": 514,
      "ĠrÅ¯": 515,
      "ĠÅ¡el": 516,
      "ĠdÄĽl": 517,
      "Ġlid": 518,
      "Ġ16": 519,
      "Ġhe": 520,
      "Ġzt": 521,
      "ma": 522,
      "ty": 523,
      "ĠuÅ¾": 524,
      "Ġmra": 525,
      "Ġtvo": 526,
      "Ġ1940": 527,
      "Ġstro": 528,
      "Ġjej": 529,
      "vÄĽz": 530,
      "Ġbr": 531,
      "Ġjsou": 532,
      "Ġvl": 533,
      "ĠrÃ©": 534,
      "BA": 535,
      "Å¯m": 536,
      "Ġzvo": 537,
      "Ġon": 538,
      "ĠchvÄĽ": 539,
      "Ġjsi": 540,
      "ĠplÃ¡": 541,
      "Ġvb": 542,
      "Ġmla": 543,
      "Ġkro": 544,
      "ĠbÃ½": 545,
      "Ġvel": 546,
      "ĠvÅ¡ech": 547,
      "ĠhvÄĽz": 548,
      "ĠskÃ©": 549,
      "Ġjem": 550,
      "Ġslun": 551,
      "ĠtÃŃm": 552,
      "ĠtvÃ©": 553,
      "ĠstÅĻe": 554,
      "ĠstÄĽ": 555,
      "Ġnech": 556,
      "Ġsnad": 557,
      "ĠmnÄĽ": 558,
      "Å¡e": 559,
      "Ġtra": 560,
      "ĠvÅ¯": 561,
      "ĠnÃ©m": 562,
      "Ġzde": 563,
      "ĠvÅ¡ec": 564,
      "ĠmÅ¯j": 565,
      "Ġmr": 566,
      "ĠmÅ¯": 567,
      "Ġspa": 568,
      "Ġneb": 569,
      "Ġnej": 570,
      "mu": 571,
      "ĠABBA": 572,
      "Ġbych": 573,
      "Ġdnes": 574,
      "ĠneÅ¾": 575,
      "ĠrÃ½": 576,
      "Ġob": 577,
      "Ġnes": 578,
      "Ġrou": 579,
      "Ġ1860": 580,
      "Ġhlas": 581,
      "ĠÅ¾Ã¡": 582,
      "Ġvh": 583,
      "Ġsvi": 584,
      "Ġkol": 585,
      "ĠvÅĻe": 586,
      "Ġtro": 587,
      "Ġdlou": 588,
      "Ġdem": 589,
      "Ġjas": 590,
      "Ġstr": 591,
      "ĠÅ¡tÄĽ": 592,
      "Ġsli": 593,
      "Ġ1840": 594,
      "ĠzpÄĽ": 595,
      "Ġzk": 596,
      "Ġvzp": 597,
      "Ġdle": 598,
      "Ġmou": 599,
      "Ġslad": 600,
      "Ġhlu": 601,
      "ĠaÅ¥": 602,
      "ĠÄįas": 603,
      "ĠkÅĻi": 604,
      "ĠvÄĽÄį": 605,
      "Ġzy": 606,
      "Ġnem": 607,
      "Ġmat": 608,
      "Ġtel": 609,
      "ÅĻÃ¡": 610,
      "ĠÅ¾a": 611,
      "ĠchvÃŃ": 612,
      "vÃ¡": 613,
      "lÃ½": 614,
      "Ġpy": 615,
      "ĠAA": 616,
      "Ġles": 617,
      "ĠkvÄĽt": 618,
      "Ġmno": 619,
      "ĠsmÄĽ": 620,
      "Ġsmu": 621,
      "ĠhÃ½": 622,
      "Ġzh": 623,
      "Ġpt": 624,
      "ĠchtÄĽ": 625,
      "Ġsmr": 626,
      "Ġvot": 627,
      "ĠÅ¡le": 628,
      "ĠkrÃ¡s": 629,
      "Ġnik": 630,
      "Ġjsme": 631,
      "Ġstou": 632,
      "Ġzve": 633,
      "ĠvÃ¡m": 634,
      "ĠsÃ¡m": 635,
      "Ġple": 636,
      "Ġkam": 637,
      "ĠnÃ¡s": 638,
      "Ġdiv": 639,
      "Ġtva": 640,
      "ĠkÅĻÃŃ": 641,
      "ĠmÄĽl": 642,
      "ĠsnÃŃ": 643,
      "ze": 644,
      "Ġks": 645,
      "Ġklo": 646,
      "dÄĽ": 647,
      "Ġzlo": 648,
      "ĠstvÃŃ": 649,
      "ĠbÅ¯": 650,
      "ko": 651,
      "Ġzda": 652,
      "ĠsnÄĽ": 653,
      "ĠdÃ¡l": 654,
      "Ġsko": 655,
      "Ġml": 656,
      "Ġchla": 657,
      "Ġpoz": 658,
      "ĠspÄĽ": 659,
      "ĠhÃ©": 660,
      "to": 661,
      "Ġmlu": 662,
      "Ġtom": 663,
      "Ġsb": 664,
      "Ġnic": 665,
      "ĠnÄĽj": 666,
      "si": 667,
      "ĠzÅĻÃŃ": 668,
      "Å¾e": 669,
      "Ġjim": 670,
      "Ġdli": 671,
      "ĠbÅĻe": 672,
      "Ġnost": 673,
      "val": 674,
      "ĠtÅ¯": 675,
      "vu": 676,
      "tu": 677,
      "ĠzdÃ¡": 678,
      "ĠslÃ¡": 679,
      "Ġju": 680,
      "ĠsvÃŃ": 681,
      "ĠÅĻa": 682,
      "ĠÅ¡u": 683,
      "Ġnez": 684,
      "ĠnÅ¯": 685,
      "Ġsni": 686,
      "Ġzrak": 687,
      "ste": 688,
      "Ġsty": 689,
      "Ġvpo": 690,
      "Ġmoc": 691,
      "Ġvle": 692,
      "Ġtil": 693,
      "ĠznÃ¡": 694,
      "Ġtru": 695,
      "ĠleÄį": 696,
      "Ġkre": 697,
      "ĠcÃŃch": 698,
      "ĠÅĪ": 699,
      "Ġzvu": 700,
      "Ġri": 701,
      "chu": 702,
      "ĠvrÃ¡": 703,
      "ĠptÃ¡": 704,
      "at": 705,
      "Ġkry": 706,
      "Ġmen": 707,
      "Ġsil": 708,
      "Ġnul": 709,
      "Ġsen": 710,
      "Ġsmut": 711,
      "Ġmar": 712,
      "hu": 713,
      "Ġdost": 714,
      "ĠXX": 715,
      "Ġvto": 716,
      "Ġven": 717,
      "Ġhne": 718,
      "ĠskÃ¡": 719,
      "ĠdÅ¯": 720,
      "ĠÄįlo": 721,
      "Ġpad": 722,
      "vou": 723,
      "Ġkru": 724,
      "Ġlet": 725,
      "vÃ©": 726,
      "sÅ¥": 727,
      "Ġchem": 728,
      "ĠdÅĻÃŃ": 729,
      "nich": 730,
      "Ġvil": 731,
      "ĠsvÅ¯j": 732,
      "Ġsud": 733,
      "Ġtla": 734,
      "hy": 735,
      "ĠlÅ¯": 736,
      "ĠbrÃ¡": 737,
      "ĠpÃŃs": 738,
      "zi": 739,
      "Ġklid": 740,
      "ĠtÅĻÃŃ": 741,
      "ĠblÃŃ": 742,
      "ĠbÅ¯h": 743,
      "Ġkal": 744,
      "ĠtÅĻi": 745,
      "ĠzvÄĽ": 746,
      "ĠAABBCC": 747,
      "Ġan": 748,
      "Ġsch": 749,
      "Ġhned": 750,
      "ĠvlÃ¡": 751,
      "Ġchce": 752,
      "ĠvnÄĽ": 753,
      "Ġdl": 754,
      "Ġrem": 755,
      "Ġsh": 756,
      "Ġrod": 757,
      "ĠknÄĽ": 758,
      "ĠvÃ½ch": 759,
      "Ġtek": 760,
      "ĠAAXX": 761,
      "bi": 762,
      "ĠvÃŃc": 763,
      "Ġvat": 764,
      "ĠvÃŃm": 765,
      "ĠtÄĽch": 766,
      "Ġzna": 767,
      "ĠpÅ¯": 768,
      "ĠÅ¥": 769,
      "Ġach": 770,
      "Ġdil": 771,
      "ĠtvÅ¯j": 772,
      "nem": 773,
      "Ġnoc": 774,
      "Ġvem": 775,
      "ĠkÃ½ch": 776,
      "Ġot": 777,
      "Ġsled": 778,
      "ĠtÄĽÅ¾": 779,
      "ĠproÄį": 780,
      "Ġdech": 781,
      "Ġzje": 782,
      "ĠbuÄı": 783,
      "Ãº": 784,
      "ĠÅ¡li": 785,
      "ĠtÃ©Å¾": 786,
      "ĠzÅĻe": 787,
      "Ġkve": 788,
      "ĠkrÃ¡t": 789,
      "Ġnom": 790,
      "Ġfa": 791,
      "Ġhru": 792,
      "Ġslou": 793,
      "ĠvÄĽk": 794,
      "ĠpÅĻec": 795,
      "Ġstal": 796,
      "Ġbro": 797,
      "ĠÅ¾il": 798,
      "Ġnn": 799,
      "Ġhled": 800,
      "ĠskÃ½": 801,
      "Ġhor": 802,
      "Ġkrev": 803,
      "ĠsvÃ½ch": 804,
      "se": 805,
      "ĠÅ¡la": 806,
      "mÄĽ": 807,
      "Ġcem": 808,
      "ÅĻa": 809,
      "ĠseÅĪ": 810,
      "or": 811,
      "my": 812,
      "Ġvdu": 813,
      "Ġprav": 814,
      "ĠsmÃŃ": 815,
      "Ġnek": 816,
      "Ġvtom": 817,
      "Ġdro": 818,
      "Ġprou": 819,
      "ĠvÃ¡s": 820,
      "tÃŃ": 821,
      "ĠvÄįe": 822,
      "ĠznÄĽ": 823,
      "ĠÄįek": 824,
      "ĠnÃ¡Å¡": 825,
      "ĠÄįÃŃm": 826,
      "Ã¡t": 827,
      "dou": 828,
      "ĠjÃŃm": 829,
      "ĠstÃ©": 830,
      "Ġchvi": 831,
      "bÄĽ": 832,
      "Ġvol": 833,
      "Ġkp": 834,
      "Ġjste": 835,
      "ĠmÃ¡m": 836,
      "ĠpÅĻÃ¡": 837,
      "ĠvÃ½m": 838,
      "ĠspÃŃ": 839,
      "Ġprv": 840,
      "Ġvlast": 841,
      "Ġslav": 842,
      "Ġkne": 843,
      "ĠhrÃ¡": 844,
      "ĠzpÃŃ": 845,
      "ĠpÅĻes": 846,
      "ĠslÃŃ": 847,
      "ĠÅ¡a": 848,
      "Ġduch": 849,
      "ĠsvÃ½m": 850,
      "ĠnÃŃk": 851,
      "ĠABABCC": 852,
      "Ġbes": 853,
      "ĠmuÅ¾": 854,
      "Ġjde": 855,
      "Ġdva": 856,
      "lem": 857,
      "ĠvÄĽr": 858,
      "ĠvnÄĽm": 859,
      "ĠdÃŃm": 860,
      "Ġus": 861,
      "ĠdÃ¡v": 862,
      "ĠÅ¾en": 863,
      "ĠÅ¡ÃŃm": 864,
      "ĠvÃ¡Å¡": 865,
      "ali": 866,
      "Ġhem": 867,
      "Ġlen": 868,
      "Ġvje": 869,
      "Ġbli": 870,
      "ĠnÄĽm": 871,
      "ĠhnÄĽ": 872,
      "Ġzou": 873,
      "ĠcÅ¯": 874,
      "Ġkni": 875,
      "ĠhÅĻÃŃ": 876,
      "ja": 877,
      "Ġtma": 878,
      "Ġvzd": 879,
      "Ġdej": 880,
      "ĠnÃŃch": 881,
      "ĠstÅĻÃŃ": 882,
      "Ġnec": 883,
      "ĠkÃ½m": 884,
      "AX": 885,
      "Ġskry": 886,
      "ĠsÅ¯": 887,
      "ĠspÃ¡": 888,
      "ĠchtÄĽl": 889,
      "Ġnil": 890,
      "Ġzno": 891,
      "Ġvsrd": 892,
      "AA": 893,
      "ĠznÃŃ": 894,
      "Ġdlo": 895,
      "Ã¡l": 896,
      "Ġchlad": 897,
      "Ġvzdu": 898,
      "Ġtlu": 899,
      "ĠstrÃ¡": 900,
      "ĠneÄį": 901,
      "ĠrÃ¡d": 902,
      "Ġoh": 903,
      "ĠkvÃŃ": 904,
      "Ġ3": 905,
      "ĠABABXX": 906,
      "sy": 907,
      "Ġvzpo": 908,
      "Ġdvo": 909,
      "kem": 910,
      "ĠchÃ½": 911,
      "Ġ1960": 912,
      "Ġvne": 913,
      "Ġkon": 914,
      "Ġpan": 915,
      "pi": 916,
      "ĠnÄĽk": 917,
      "Ġnout": 918,
      "ĠvÅ¡em": 919,
      "ĠbÃ½t": 920,
      "Ġkl": 921,
      "Ġpil": 922,
      "ĠdeÅ¡": 923,
      "Ġplo": 924,
      "ĠÅĻek": 925,
      "ĠpÄĽt": 926,
      "ĠskÃ½ch": 927,
      "su": 928,
      "ĠdÃŃv": 929,
      "sa": 930,
      "ĠÄįil": 931,
      "ĠvÅ¾dyÅ¥": 932,
      "ĠmlÃ¡": 933,
      "ĠÅ¡Å¥": 934,
      "Ġlost": 935,
      "be": 936,
      "py": 937,
      "Ġblou": 938,
      "ast": 939,
      "ĠmÃ½": 940,
      "ĠvzÃ¡": 941,
      "ĠchrÃ¡": 942,
      "Ġchle": 943,
      "Ġcit": 944,
      "Ġhl": 945,
      "Ġpom": 946,
      "Ġnal": 947,
      "ĠdÄĽt": 948,
      "ĠpÅĻij": 949,
      "Ġ17": 950,
      "ĠhÅĻ": 951,
      "sky": 952,
      "Ġvod": 953,
      "sta": 954,
      "ĠklÃŃ": 955,
      "Ġdob": 956,
      "Ġmnou": 957,
      "Ġhlou": 958,
      "vat": 959,
      "Ġstat": 960,
      "Ġrov": 961,
      "Ġsne": 962,
      "Ġvza": 963,
      "ĠtrÃ¡": 964,
      "Ġvno": 965,
      "cha": 966,
      "ĠvdÄĽ": 967,
      "ĠsvÃ¡": 968,
      "ĠvÅ¡i": 969,
      "Ġzle": 970,
      "Ġvna": 971,
      "ĠzmÄĽ": 972,
      "ĠstÃ½": 973,
      "ĠÄı": 974,
      "Ġplu": 975,
      "ĠÅ¾al": 976,
      "re": 977,
      "Ġsed": 978,
      "Ġpru": 979,
      "Ġleh": 980,
      "Ġnosti": 981,
      "Ġhod": 982,
      "Ġjo": 983,
      "ĠÅĻil": 984,
      "Ġztra": 985,
      "ĠkÅĻe": 986,
      "ĠXXAA": 987,
      "ĠÄįes": 988,
      "Ġsve": 989,
      "ĠÅ¾el": 990,
      "ĠhlÃŃ": 991,
      "Ġca": 992,
      "ĠmÃŃr": 993,
      "Ġzpo": 994,
      "Ġdce": 995,
      "ĠtvÃ¡ÅĻ": 996,
      "ĠvÅ¡u": 997,
      "ĠjuÅ¾": 998,
      "ĠzpÄĽv": 999,
      "ĠsÃŃc": 1000,
      "ĠklÃ¡": 1001,
      "Ġska": 1002,
      "ĠcoÅ¾": 1003,
      "Ġstvo": 1004,
      "Ġlov": 1005,
      "Ġves": 1006,
      "Ġvbo": 1007,
      "Ġpal": 1008,
      "Ġlil": 1009,
      "ĠhÅ¯": 1010,
      "ĠtÃ½ch": 1011,
      "ĠknÃŃ": 1012,
      "ĠdÃ¡m": 1013,
      "ĠtvÃ½ch": 1014,
      "ĠÅ¾eh": 1015,
      "Ġtlo": 1016,
      "ĠpÃ¡n": 1017,
      "CCB": 1018,
      "Ġchra": 1019,
      "Ġzmi": 1020,
      "Ġdn": 1021,
      "hou": 1022,
      "ĠaÄį": 1023,
      "ĠkÃ©m": 1024,
      "ĠdrÃ¡": 1025,
      "ĠzÅ¯": 1026,
      "ĠtvÃŃ": 1027,
      "ĠlÃ½ch": 1028,
      "ĠÅĻÃ¡": 1029,
      "Ġ1820": 1030,
      "ĠÅĪa": 1031,
      "Ġkto": 1032,
      "kou": 1033,
      "ĠÅ¡ep": 1034,
      "Ġvti": 1035,
      "nych": 1036,
      "Ġtys": 1037,
      "ĠkrÃ¡l": 1038,
      "Ġbys": 1039,
      "Ġzbo": 1040,
      "Ġvch": 1041,
      "Ġhrob": 1042,
      "Ġbal": 1043,
      "Ġvni": 1044,
      "ĠvÃ©m": 1045,
      "Ġvrou": 1046,
      "ĠdvÄĽ": 1047,
      "Ġfi": 1048,
      "ĠtÄĽz": 1049,
      "ĠAXA": 1050,
      "ĠchÃ©": 1051,
      "ĠAABCCB": 1052,
      "Ġply": 1053,
      "ba": 1054,
      "ABB": 1055,
      "Ġvro": 1056,
      "Ġbles": 1057,
      "Ġvoj": 1058,
      "Ġskal": 1059,
      "Ġzdo": 1060,
      "Ġmd": 1061,
      "ĠÅ¾ha": 1062,
      "ĠchÅ¯": 1063,
      "Ġzli": 1064,
      "Ġvsta": 1065,
      "Ġchci": 1066,
      "Ġzva": 1067,
      "ĠnÃ¡ch": 1068,
      "Å¡Å¥": 1069,
      "Ġdar": 1070,
      "Ġsmrt": 1071,
      "nost": 1072,
      "ĠÃºs": 1073,
      "ĠkÃ¡ch": 1074,
      "ĠcÃŃm": 1075,
      "ĠneÅ¡": 1076,
      "ĠzrÃ¡": 1077,
      "ĠdlÃŃ": 1078,
      "Ġvzde": 1079,
      "Ġcy": 1080,
      "Ġzro": 1081,
      "Ġtal": 1082,
      "Ġkme": 1083,
      "Ġspi": 1084,
      "Ġhrad": 1085,
      "mo": 1086,
      "ĠÅ¾o": 1087,
      "ĠvlÃŃ": 1088,
      "ĠÅ¡tÃŃ": 1089,
      "Ġzel": 1090,
      "Ġstej": 1091,
      "ĠXAAX": 1092,
      "ĠchvÃ¡": 1093,
      "Ġpev": 1094,
      "Ġboj": 1095,
      "Ġsvit": 1096,
      "ĠmÃ½ch": 1097,
      "Ġvmo": 1098,
      "ĠmÅĻe": 1099,
      "ĠtÅĻ": 1100,
      "Ġblo": 1101,
      "ĠÅ¡Å¥ast": 1102,
      "Ġkri": 1103,
      "Ġche": 1104,
      "Ġlik": 1105,
      "ĠsvÃ©m": 1106,
      "Ġzby": 1107,
      "Ġlek": 1108,
      "Ġtry": 1109,
      "Ġtec": 1110,
      "Ġhroz": 1111,
      "Ġsku": 1112,
      "Ġkva": 1113,
      "Ġkvi": 1114,
      "Ġper": 1115,
      "ĠvnÃŃ": 1116,
      "Ġhlo": 1117,
      "Ġcu": 1118,
      "Ġtes": 1119,
      "Ġlest": 1120,
      "ĠvÄĽt": 1121,
      "ĠhrÅ¯": 1122,
      "ĠdÄĽj": 1123,
      "ĠstÃŃn": 1124,
      "ĠteÄį": 1125,
      "ĠzpÄĽt": 1126,
      "Ġmal": 1127,
      "Ġvzh": 1128,
      "Ã³": 1129,
      "Ġvru": 1130,
      "ĠhlÃ©": 1131,
      "Ġvli": 1132,
      "ĠhlÃ¡": 1133,
      "ĠÅ¡p": 1134,
      "Ġkraj": 1135,
      "Ġok": 1136,
      "ĠhvÄĽzd": 1137,
      "Å¡ti": 1138,
      "Ġzdra": 1139,
      "Ġnit": 1140,
      "Ġpta": 1141,
      "Ġman": 1142,
      "ĠboÅ¾": 1143,
      "Ġsho": 1144,
      "ĠslyÅ¡": 1145,
      "Ġrad": 1146,
      "bu": 1147,
      "Ġskr": 1148,
      "Ġdve": 1149,
      "ĠpÃ½": 1150,
      "Ġvan": 1151,
      "Ġhli": 1152,
      "Ġga": 1153,
      "Ġleb": 1154,
      "Ġsmi": 1155,
      "Ġkdys": 1156,
      "Ġsbo": 1157,
      "Ġskou": 1158,
      "Ġy": 1159,
      "Ġtvou": 1160,
      "ĠÅ¾Ã¡d": 1161,
      "ĠskrÃ¡": 1162,
      "Ġpoj": 1163,
      "Ġvpra": 1164,
      "ĠvÃ¡n": 1165,
      "ĠzÅĻel": 1166,
      "Ġblu": 1167,
      "Ġzved": 1168,
      "Ġtan": 1169,
      "nul": 1170,
      "ĠÄįem": 1171,
      "Ġchou": 1172,
      "Ġsr": 1173,
      "ĠnnÃ©": 1174,
      "Ġchod": 1175,
      "Ġge": 1176,
      "ĠtÃ¡h": 1177,
      "ĠvÅ¾dyc": 1178,
      "ĠvdÃ¡l": 1179,
      "nim": 1180,
      "ĠprÃ½": 1181,
      "Ġled": 1182,
      "tem": 1183,
      "by": 1184,
      "Ġmem": 1185,
      "ĠdÃ½m": 1186,
      "Ġmoh": 1187,
      "Ġjdou": 1188,
      "ĠÅ¡ko": 1189,
      "Ġgi": 1190,
      "Ġbar": 1191,
      "ĠhÅĻe": 1192,
      "ĠvtÃ©": 1193,
      "ĠtoÅ¥": 1194,
      "Ġtk": 1195,
      "ĠmoÅ¾": 1196,
      "Ġlas": 1197,
      "Ġznich": 1198,
      "nym": 1199,
      "Ġvnich": 1200,
      "Ġsklo": 1201,
      "ĠjÃŃc": 1202,
      "ĠvÃº": 1203,
      "Ġzni": 1204,
      "ĠstÃ¡l": 1205,
      "ĠsnÃ¡": 1206,
      "he": 1207,
      "ĠbÃ¡s": 1208,
      "Ġstru": 1209,
      "Ġvko": 1210,
      "Ġvpa": 1211,
      "Ġjar": 1212,
      "Ġvdo": 1213,
      "Ġsn": 1214,
      "ĠÄįin": 1215,
      "Ġchal": 1216,
      "Ġbol": 1217,
      "Ġpoh": 1218,
      "Ġdat": 1219,
      "Ġkmi": 1220,
      "ĠÄįen": 1221,
      "Ġhud": 1222,
      "Ġpot": 1223,
      "ĠnnÃŃ": 1224,
      "ĠÄįel": 1225,
      "ĠdÅĻÃŃv": 1226,
      "ĠlÃ½m": 1227,
      "Ġvze": 1228,
      "Ġvho": 1229,
      "Ġzr": 1230,
      "ĠÅĻÃŃm": 1231,
      "Ġcen": 1232,
      "Ġtaj": 1233,
      "Ġbil": 1234,
      "ĠskvÄĽ": 1235,
      "ĠzvÃŃ": 1236,
      "Ġvzne": 1237,
      "ĠÄįet": 1238,
      "Ġkb": 1239,
      "Ġzma": 1240,
      "Ġsyn": 1241,
      "Ġtvr": 1242,
      "Ġzbra": 1243,
      "ĠlÃ©m": 1244,
      "ĠtrÅ¯": 1245,
      "Ġdin": 1246,
      "rou": 1247,
      "ĠblÃ¡": 1248,
      "Ġkles": 1249,
      "Ġzvy": 1250,
      "ĠdÄĽs": 1251,
      "ĠprÃ¡z": 1252,
      "ĠzÃ¡ÅĻ": 1253,
      "rem": 1254,
      "Ġzdvi": 1255,
      "Ġct": 1256,
      "ĠvÅ¡ÃŃ": 1257,
      "ĠÅ¡len": 1258,
      "Ġ2": 1259,
      "Ġvit": 1260,
      "Ġtis": 1261,
      "ĠnechÅ¥": 1262,
      "ĠÅ¡lÃ©": 1263,
      "Ġstem": 1264,
      "ĠvtÄĽ": 1265,
      "Ġnen": 1266,
      "mÃ©": 1267,
      "Ġnich": 1268,
      "Ġbraz": 1269,
      "ĠmÄĽv": 1270,
      "Ġslov": 1271,
      "Ġsten": 1272,
      "Ġzpi": 1273,
      "ĠrÃ½ch": 1274,
      "Ġcos": 1275,
      "ĠsnÃŃm": 1276,
      "Ġvzte": 1277,
      "ĠmÃŃn": 1278,
      "Ġlist": 1279,
      "Ġver": 1280,
      "ĠvÃŃÅ¡": 1281,
      "ĠÅ¡ich": 1282,
      "ĠÅ¾iti": 1283,
      "Ġsmy": 1284,
      "Ġzka": 1285,
      "ĠÅ¾li": 1286,
      "Ġpov": 1287,
      "ĠtÅĻpy": 1288,
      "Ġdit": 1289,
      "ĠÅ¾Ã¡r": 1290,
      "Ġvka": 1291,
      "Ġret": 1292,
      "Ġps": 1293,
      "ĠsmÃŃch": 1294,
      "Ġjis": 1295,
      "Ġvlo": 1296,
      "mÃŃ": 1297,
      "ĠmÃ¡Å¡": 1298,
      "ĠvÅ¾i": 1299,
      "Ġtech": 1300,
      "ĠÅ¾it": 1301,
      "ĠsklÃ¡": 1302,
      "Ġsvy": 1303,
      "Ġdruh": 1304,
      "Ġcest": 1305,
      "Ġpat": 1306,
      "Ġzvol": 1307,
      "Ġfe": 1308,
      "ĠsÃŃm": 1309,
      "Ġou": 1310,
      "ĠjÃŃÅ¾": 1311,
      "Ġlal": 1312,
      "Ġral": 1313,
      "ÅĪa": 1314,
      "ĠniÄį": 1315,
      "Ġpos": 1316,
      "dne": 1317,
      "Ġstva": 1318,
      "ĠvnÃ¡": 1319,
      "Ġzne": 1320,
      "vr": 1321,
      "Ġzti": 1322,
      "ĠkÅ¯m": 1323,
      "Ġvej": 1324,
      "stvi": 1325,
      "Ġkat": 1326,
      "ĠdlÃ©": 1327,
      "ĠnÄĽl": 1328,
      "ĠjÃŃt": 1329,
      "ĠÅ¥a": 1330,
      "ĠvsvÄĽ": 1331,
      "Ġsme": 1332,
      "Ġzor": 1333,
      "Ġpar": 1334,
      "Ġtre": 1335,
      "Ġkud": 1336,
      "ĠnÄĽÅ¾": 1337,
      "Ġjin": 1338,
      "Ġhal": 1339,
      "ĠliÄį": 1340,
      "ĠkÃ¡m": 1341,
      "Ġsma": 1342,
      "Ġsel": 1343,
      "Ġvani": 1344,
      "Ġtit": 1345,
      "Ġsd": 1346,
      "Ġzjev": 1347,
      "ĠnuÅ¾": 1348,
      "Ġsny": 1349,
      "ĠÅ¡ÃŃch": 1350,
      "ĠpÄĽk": 1351,
      "Ġjme": 1352,
      "Ġvlas": 1353,
      "ĠsnÅ¯": 1354,
      "led": 1355,
      "ĠjejÅ¾": 1356,
      "Ġvzal": 1357,
      "ĠdiÄį": 1358,
      "Ġdly": 1359,
      "ĠjmÃ©": 1360,
      "mou": 1361,
      "ĠtÄĽl": 1362,
      "ĠÅ¡em": 1363,
      "ĠÄįit": 1364,
      "Ġklad": 1365,
      "Ġdav": 1366,
      "til": 1367,
      "ĠvÄĽn": 1368,
      "pa": 1369,
      "ĠmeÄį": 1370,
      "Ġstli": 1371,
      "Ġjici": 1372,
      "Ġor": 1373,
      "ĠpouÅ¡": 1374,
      "ĠÄįÃ¡": 1375,
      "ĠdÄĽv": 1376,
      "Ġstup": 1377,
      "Ġder": 1378,
      "ĠruÄį": 1379,
      "Ġnici": 1380,
      "ĠÅ¾lu": 1381,
      "ĠdÅĻe": 1382,
      "Ġblesk": 1383,
      "ĠÅĻeÄį": 1384,
      "ĠvÃ¡Å¾": 1385,
      "Ġkdes": 1386,
      "Ġlej": 1387,
      "ĠXAXAXX": 1388,
      "Ġas": 1389,
      "Ġbem": 1390,
      "ĠmÄĽk": 1391,
      "Ġol": 1392,
      "Ġnev": 1393,
      "Ġskla": 1394,
      "Ġneni": 1395,
      "Ġkz": 1396,
      "ska": 1397,
      "Ġjal": 1398,
      "ĠÅ¡um": 1399,
      "Ġvzduch": 1400,
      "ĠdÃŃÅ¡": 1401,
      "ĠmÃ½m": 1402,
      "ĠÅ¾ÃŃm": 1403,
      "Ġbyt": 1404,
      "Ġhej": 1405,
      "Ġmrak": 1406,
      "Ġdlit": 1407,
      "ĠAXAX": 1408,
      "Ġgo": 1409,
      "ĠtÃ½m": 1410,
      "Ġhnu": 1411,
      "Ġzvuk": 1412,
      "ĠÄįest": 1413,
      "nal": 1414,
      "ĠhoÅ¾": 1415,
      "Ġprud": 1416,
      "Ġved": 1417,
      "ĠpÅ¯j": 1418,
      "ĠhleÄı": 1419,
      "ĠsvÃ½": 1420,
      "Ġchvili": 1421,
      "Ġkot": 1422,
      "Ġzal": 1423,
      "Ġtle": 1424,
      "ĠzÅĻÃŃm": 1425,
      "ĠpÅ¯l": 1426,
      "ĠhruÄı": 1427,
      "Ġkrok": 1428,
      "ĠÅ¡lo": 1429,
      "Ġzce": 1430,
      "ĠvÅ¡ich": 1431,
      "Ġum": 1432,
      "Ġnel": 1433,
      "ĠliÅ¡": 1434,
      "Ġproud": 1435,
      "ĠtÃ©m": 1436,
      "Ġstar": 1437,
      "Ġkso": 1438,
      "ĠÅ¡il": 1439,
      "ĠdÃ½ch": 1440,
      "Ġsal": 1441,
      "Ġsnu": 1442,
      "ĠdlÃ¡": 1443,
      "Ġskle": 1444,
      "Ġrak": 1445,
      "Ġfra": 1446,
      "Ġhlad": 1447,
      "ĠvzhÅ¯": 1448,
      "ĠtoÅ¾": 1449,
      "nout": 1450,
      "Ġsam": 1451,
      "Ġzim": 1452,
      "Ġnav": 1453,
      "Ġkost": 1454,
      "ĠÅĻem": 1455,
      "Ġvzk": 1456,
      "ĠtÄĽm": 1457,
      "Ġdel": 1458,
      "ĠvlÃ¡d": 1459,
      "Ġjel": 1460,
      "ĠkÅĻik": 1461,
      "Ġran": 1462,
      "Ġkoj": 1463,
      "ĠduÅ¡i": 1464,
      "Ġples": 1465,
      "Ġvin": 1466,
      "ĠÅ¾iv": 1467,
      "Ġchmu": 1468,
      "ĠstÃŃm": 1469,
      "ĠhoÅĻ": 1470,
      "ĠzlÃ©": 1471,
      "ke": 1472,
      "ĠÄįÃŃch": 1473,
      "ĠvÄĽz": 1474,
      "dÄĽl": 1475,
      "Ġaj": 1476,
      "Ġdum": 1477,
      "ĠoÄįi": 1478,
      "Ġhoj": 1479,
      "ĠslÃ©": 1480,
      "ĠvsvÃ©": 1481,
      "ĠstÅ¯": 1482,
      "Ġsek": 1483,
      "Ġov": 1484,
      "ĠzmÃŃ": 1485,
      "Ġpor": 1486,
      "ĠcÃ½": 1487,
      "Ġvte": 1488,
      "Ġchvil": 1489,
      "ĠpÃ©": 1490,
      "Ġnaj": 1491,
      "dil": 1492,
      "ĠdÄĽc": 1493,
      "Ġzha": 1494,
      "Ġvzdech": 1495,
      "Ġvhro": 1496,
      "Ġchva": 1497,
      "XB": 1498,
      "ĠvÃ½Å¡": 1499,
      "Ġvzdy": 1500,
      "Ġset": 1501,
      "Ġprs": 1502,
      "Ġkras": 1503,
      "Ġvslu": 1504,
      "ĠÅĻÃ¡d": 1505,
      "ĠviÄį": 1506,
      "ĠjÃŃch": 1507,
      "ĠhÅĻi": 1508,
      "Ġhan": 1509,
      "ĠdÅ¯m": 1510,
      "Ġrek": 1511,
      "ĠpuÅ¡": 1512,
      "ĠzlÃŃ": 1513,
      "ĠmÃŃt": 1514,
      "ĠztrÃ¡": 1515,
      "ĠÄıa": 1516,
      "Ġzru": 1517,
      "Ġchr": 1518,
      "Ġstrom": 1519,
      "Ġtic": 1520,
      "Ġvez": 1521,
      "ĠdÅĻi": 1522,
      "Ġpout": 1523,
      "Ġtli": 1524,
      "Ġber": 1525,
      "ĠÅ¾u": 1526,
      "Ġvali": 1527,
      "ĠblÃŃÅ¾": 1528,
      "ABAB": 1529,
      "ĠptÃ¡k": 1530,
      "Ġtve": 1531,
      "ĠhnÄĽv": 1532,
      "Ġkze": 1533,
      "rÃ¡z": 1534,
      "Ġzen": 1535,
      "Ġbuj": 1536,
      "Ġzbu": 1537,
      "ĠtÅĻÃ¡": 1538,
      "Ġal": 1539,
      "Ġkv": 1540,
      "ĠbÃŃd": 1541,
      "ĠvstÅĻÃŃ": 1542,
      "Ġhad": 1543,
      "Ġvad": 1544,
      "Ġher": 1545,
      "ĠnoÄį": 1546,
      "vost": 1547,
      "ĠkdoÅ¾": 1548,
      "ĠdrÃ©": 1549,
      "Ġzaz": 1550,
      "Ġspra": 1551,
      "Ġkh": 1552,
      "Ġhrom": 1553,
      "dem": 1554,
      "Ġdouc": 1555,
      "ĠknÃ¡": 1556,
      "Ġvic": 1557,
      "ĠprÅ¯": 1558,
      "ĠskrÃ½": 1559,
      "ĠnaÄį": 1560,
      "ĠnnÄĽ": 1561,
      "ĠÅĻit": 1562,
      "bou": 1563,
      "ĠdruÅ¾": 1564,
      "zy": 1565,
      "Ġtich": 1566,
      "Ġleti": 1567,
      "ĠstÅĻi": 1568,
      "ĠvÅĻa": 1569,
      "Ġpol": 1570,
      "ĠÅ¡t": 1571,
      "ĠvÄį": 1572,
      "Ġsra": 1573,
      "Ġstech": 1574,
      "Ġvji": 1575,
      "ĠdÄĽti": 1576,
      "ĠbÃ©": 1577,
      "ĠÅ¡k": 1578,
      "Ġar": 1579,
      "Ġkrou": 1580,
      "ĠbouÅĻ": 1581,
      "ĠvÅ¡a": 1582,
      "ĠpyÅ¡": 1583,
      "Ġzmo": 1584,
      "ĠrÃ©m": 1585,
      "ĠztÄĽ": 1586,
      "ĠvÃ¡l": 1587,
      "ĠnnÃ½": 1588,
      "ĠsvÄĽd": 1589,
      "Ġklam": 1590,
      "ĠsnÃŃh": 1591,
      "Ġneho": 1592,
      "Ġdiva": 1593,
      "Ġdrob": 1594,
      "ĠbÅĻÃŃ": 1595,
      "ĠsÃ½": 1596,
      "ĠrÃ½m": 1597,
      "ĠjÅ¯": 1598,
      "Ġprach": 1599,
      "Ġzba": 1600,
      "Ġlez": 1601,
      "Ġstrach": 1602,
      "ĠÅ¡at": 1603,
      "Ġpry": 1604,
      "Ġzvon": 1605,
      "Ġvice": 1606,
      "Ġvsa": 1607,
      "Ġrej": 1608,
      "Ġnat": 1609,
      "ĠvlÃŃd": 1610,
      "Ġzemi": 1611,
      "ĠstÅĻed": 1612,
      "Ġsoud": 1613,
      "Ġvln": 1614,
      "zd": 1615,
      "Ġkno": 1616,
      "ĠtiÄį": 1617,
      "ĠzvÃ¡": 1618,
      "ĠzÃ½": 1619,
      "Ġrok": 1620,
      "Ġhrou": 1621,
      "Ġnebe": 1622,
      "ĠhÃ¡d": 1623,
      "Ġned": 1624,
      "ĠzemÄĽ": 1625,
      "ĠbÄĽd": 1626,
      "Ġbrat": 1627,
      "Ġlesk": 1628,
      "ĠvstÅĻÃŃc": 1629,
      "Ġhas": 1630,
      "Ġvys": 1631,
      "Ġtin": 1632,
      "ĠdÃ©m": 1633,
      "ĠbrÃ©": 1634,
      "Ġtl": 1635,
      "ĠmraÄį": 1636,
      "Ġvpr": 1637,
      "Ġjit": 1638,
      "ĠvdÃ¡": 1639,
      "ĠÅ¡tÄĽsti": 1640,
      "Ġdno": 1641,
      "ĠheÅĪ": 1642,
      "Ġzvi": 1643,
      "Ġbrou": 1644,
      "ĠzboÅ¾": 1645,
      "Ġstin": 1646,
      "ĠvyÅ¡": 1647,
      "ĠstraÅ¡": 1648,
      "vem": 1649,
      "ĠbiÄį": 1650,
      "ĠhÃ½ch": 1651,
      "Ġscho": 1652,
      "ĠÅ¾ÃŃt": 1653,
      "Ġspou": 1654,
      "ĠvpÅĻe": 1655,
      "Äįek": 1656,
      "Ġvkra": 1657,
      "ĠmÄĽst": 1658,
      "Ġtrp": 1659,
      "ĠkoÅ¡": 1660,
      "ABBX": 1661,
      "Ġnuti": 1662,
      "ĠbrÃ½": 1663,
      "ĠchvÄĽl": 1664,
      "Ġstav": 1665,
      "Ġvrh": 1666,
      "Ġsviti": 1667,
      "Ġzdro": 1668,
      "Ġcel": 1669,
      "Ġchat": 1670,
      "ĠvzdÃ¡": 1671,
      "ĠblÃŃz": 1672,
      "ĠskÃ½m": 1673,
      "ĠbÅĻi": 1674,
      "Ġbor": 1675,
      "vil": 1676,
      "ĠbyÅ¥": 1677,
      "Ġklu": 1678,
      "ĠvÄĽc": 1679,
      "ĠskÅĻi": 1680,
      "men": 1681,
      "Ġcti": 1682,
      "Ġvrat": 1683,
      "ĠmÅĻÃŃ": 1684,
      "Ġhost": 1685,
      "Ġvja": 1686,
      "ĠÅ¡et": 1687,
      "Ġvzdor": 1688,
      "Ġniku": 1689,
      "ech": 1690,
      "ĠtvÃ½m": 1691,
      "ĠÅ¡ek": 1692,
      "Ġnut": 1693,
      "Ġkpo": 1694,
      "Ġstoji": 1695,
      "Ġpli": 1696,
      "ĠÃ¡": 1697,
      "tech": 1698,
      "Ġtvor": 1699,
      "Ġknu": 1700,
      "Ġpsa": 1701,
      "Ġdosti": 1702,
      "Ġpis": 1703,
      "ĠchceÅ¡": 1704,
      "Ġrel": 1705,
      "ĠpÄĽl": 1706,
      "nÃŃz": 1707,
      "ĠvÅĻÃŃ": 1708,
      "Ġsky": 1709,
      "ĠchlÃ©": 1710,
      "ĠspoÅĪ": 1711,
      "in": 1712,
      "Å¡el": 1713,
      "Ġnice": 1714,
      "Ġruch": 1715,
      "ĠkÃ©Å¾": 1716,
      "Ġlici": 1717,
      "Ġstil": 1718,
      "tek": 1719,
      "ĠpoÄį": 1720,
      "Ġhly": 1721,
      "Ġlep": 1722,
      "ĠnÄĽn": 1723,
      "Ġvzle": 1724,
      "Ġlk": 1725,
      "ĠvraÅ¾": 1726,
      "Ġkbo": 1727,
      "ĠÅĻad": 1728,
      "Ġstk": 1729,
      "Ġur": 1730,
      "ĠjichÅ¾": 1731,
      "Ġnoci": 1732,
      "ĠkÅĻÃŃÅ¾": 1733,
      "ĠzdÄĽ": 1734,
      "ĠÅ¡o": 1735,
      "ĠzdÃ¡l": 1736,
      "Ġjeho": 1737,
      "Ġnak": 1738,
      "Ġkov": 1739,
      "Ġklet": 1740,
      "ĠpojÄı": 1741,
      "Ġvce": 1742,
      "Ġvzpla": 1743,
      "ĠvnÄĽmÅ¾": 1744,
      "ĠÅĻen": 1745,
      "uj": 1746,
      "ĠnÃŃÅ¾": 1747,
      "Ġrty": 1748,
      "ĠÅ¡lÃ©n": 1749,
      "ĠzdrÃ¡": 1750,
      "ĠdvÃ©": 1751,
      "ĠknÃ¡m": 1752,
      "Ġbled": 1753,
      "Ġtrou": 1754,
      "ĠvÄĽÅĻ": 1755,
      "Ġkyt": 1756,
      "Ġnno": 1757,
      "ĠdÄĽla": 1758,
      "Ġter": 1759,
      "Ġthe": 1760,
      "ĠvstÃ¡": 1761,
      "Ġlan": 1762,
      "Ġzum": 1763,
      "ĠzÅĻi": 1764,
      "Ġmor": 1765,
      "ĠmÄĽj": 1766,
      "ĠÃŃ": 1767,
      "Ġtost": 1768,
      "ĠskÃ©m": 1769,
      "BC": 1770,
      "ÅĻil": 1771,
      "Ġvta": 1772,
      "Ġvec": 1773,
      "Ġsvoji": 1774,
      "ĠdnÃŃ": 1775,
      "ĠÅ¡en": 1776,
      "ĠnaÅĪ": 1777,
      "Ġmech": 1778,
      "Ġlin": 1779,
      "ĠznÃ¡m": 1780,
      "rÅ¯": 1781,
      "ĠblÃ½": 1782,
      "Ġlib": 1783,
      "Å¯r": 1784,
      "nil": 1785,
      "Ġvse": 1786,
      "Ġtrh": 1787,
      "Ġkej": 1788,
      "Ġvala": 1789,
      "ĠÅ¾em": 1790,
      "tou": 1791,
      "Ġpit": 1792,
      "Ġzdu": 1793,
      "ĠloÄı": 1794,
      "Ġlic": 1795,
      "ĠjÃŃmÅ¾": 1796,
      "ĠvmÃ©": 1797,
      "Ġkar": 1798,
      "Ġsmich": 1799,
      "Ġzdi": 1800,
      "er": 1801,
      "Ġskro": 1802,
      "Ġjdu": 1803,
      "hem": 1804,
      "ĠstrÃ½": 1805,
      "Ġzhy": 1806,
      "lad": 1807,
      "vÄĽt": 1808,
      "Ġmluv": 1809,
      "ĠzeÅĪ": 1810,
      "sty": 1811,
      "Å¾il": 1812,
      "Ġblud": 1813,
      "ĠplÃ©": 1814,
      "ĠleÅ¾i": 1815,
      "Ġbit": 1816,
      "Ġvyz": 1817,
      "Ġzar": 1818,
      "Ġzto": 1819,
      "Ġzku": 1820,
      "Ġvpro": 1821,
      "Ġskra": 1822,
      "Ġhoch": 1823,
      "ĠpÅĻÃŃÅ¡": 1824,
      "Ġhlavy": 1825,
      "vym": 1826,
      "ĠÄįech": 1827,
      "Ġbod": 1828,
      "Ġjeji": 1829,
      "ĠmÃ©m": 1830,
      "Ġkaz": 1831,
      "ĠstÃ¡t": 1832,
      "ĠnÃŃz": 1833,
      "Ġ1800": 1834,
      "ĠnÅ¯m": 1835,
      "Ġkly": 1836,
      "CBC": 1837,
      "Ġsbor": 1838,
      "ĠÃºz": 1839,
      "cem": 1840,
      "Ġpen": 1841,
      "Ġzko": 1842,
      "Ġhlav": 1843,
      "rat": 1844,
      "ĠsmÃ¡": 1845,
      "Ġsro": 1846,
      "ri": 1847,
      "Ġchli": 1848,
      "ĠhoÅĻi": 1849,
      "Ġlit": 1850,
      "Ġdni": 1851,
      "ĠfÃ¡": 1852,
      "Ġkor": 1853,
      "Ġzl": 1854,
      "Ġcet": 1855,
      "ĠXXABAB": 1856,
      "Ġrost": 1857,
      "ĠpryÄį": 1858,
      "Ġpel": 1859,
      "Ġnam": 1860,
      "ĠznÄĽl": 1861,
      "nek": 1862,
      "dla": 1863,
      "Ġpani": 1864,
      "Ġbec": 1865,
      "hne": 1866,
      "Ġpros": 1867,
      "Ġtev": 1868,
      "Ġvsi": 1869,
      "Ġtri": 1870,
      "Ġhar": 1871,
      "ĠÅ¾ena": 1872,
      "Ġben": 1873,
      "Ġdny": 1874,
      "ĠzlÃ¡": 1875,
      "ĠpÅĻÃŃs": 1876,
      "Ġvtu": 1877,
      "Ġslova": 1878,
      "ĠmÄĽni": 1879,
      "Ġjez": 1880,
      "ĠhÃ½m": 1881,
      "ĠÅ¾eny": 1882,
      "Ġtrem": 1883,
      "Ġblan": 1884,
      "Ġlec": 1885,
      "Ġvsk": 1886,
      "Ġviz": 1887,
      "ĠpÄĽv": 1888,
      "ĠlÃŃm": 1889,
      "Ġoz": 1890,
      "Ġstran": 1891,
      "Ġsno": 1892,
      "Ġmil": 1893,
      "Ġsnem": 1894,
      "Ġstesk": 1895,
      "Ġbyla": 1896,
      "ĠÄįÃŃÅ¡": 1897,
      "ĠABBACC": 1898,
      "Ġtor": 1899,
      "ĠmÅ¾i": 1900,
      "Ġdlu": 1901,
      "Ġtov": 1902,
      "ĠbliÅ¾": 1903,
      "Ġhat": 1904,
      "Ġgu": 1905,
      "lav": 1906,
      "ĠdÃ¡t": 1907,
      "Ġgra": 1908,
      "Ġhez": 1909,
      "Ġpln": 1910,
      "Ġfo": 1911,
      "vych": 1912,
      "Ġbru": 1913,
      "ĠdÃŃt": 1914,
      "Ġbude": 1915,
      "Ġbylo": 1916,
      "Ġzpra": 1917,
      "ĠzrÃ¡d": 1918,
      "Ġzkve": 1919,
      "ĠsplÃ½": 1920,
      "ĠÅ¾dy": 1921,
      "ĠvzÃ¡c": 1922,
      "Ġskvost": 1923,
      "Ġzho": 1924,
      "ĠÄįo": 1925,
      "Ġpas": 1926,
      "ĠmoÅĻe": 1927,
      "ĠvdÄĽÄį": 1928,
      "ĠsvÄĽta": 1929,
      "ĠstrÃ¡Å¾": 1930,
      "len": 1931,
      "ĠÅ¡eni": 1932,
      "Ġsje": 1933,
      "pÄĽ": 1934,
      "Ġlat": 1935,
      "Ġplou": 1936,
      "ĠÅ¡er": 1937,
      "Ġdava": 1938,
      "Ġluz": 1939,
      "ĠvÅ¯d": 1940,
      "ĠAXAA": 1941,
      "Ġvry": 1942,
      "ĠkrÅ¯": 1943,
      "ĠnÃ¡d": 1944,
      "ĠXAABBX": 1945,
      "ĠvsÃŃ": 1946,
      "ĠduÅ¡e": 1947,
      "Ġdek": 1948,
      "Ġfran": 1949,
      "ĠsluÅ¾": 1950,
      "Ġclo": 1951,
      "Ġfal": 1952,
      "Ġzja": 1953,
      "ĠÅ¡ly": 1954,
      "ĠÅ¾as": 1955,
      "ĠhnÃŃz": 1956,
      "ĠvtvÃ¡": 1957,
      "ĠÄįej": 1958,
      "ĠtvÃ©m": 1959,
      "cy": 1960,
      "ĠpÃ¡r": 1961,
      "ct": 1962,
      "ske": 1963,
      "ĠÄįu": 1964,
      "ĠÄıÃ¡": 1965,
      "Ġtmy": 1966,
      "Ġkmo": 1967,
      "Ġlka": 1968,
      "Ġdot": 1969,
      "ĠpÅĻa": 1970,
      "Ġhol": 1971,
      "Ġzlou": 1972,
      "Ġuz": 1973,
      "ĠzvlÃ¡": 1974,
      "Ġmoci": 1975,
      "Ġbin": 1976,
      "Ġlosti": 1977,
      "chy": 1978,
      "Ġbyti": 1979,
      "cich": 1980,
      "Ġlice": 1981,
      "Ġhloub": 1982,
      "Ġvzru": 1983,
      "ĠblÃ½s": 1984,
      "Ġtly": 1985,
      "Ġvidi": 1986,
      "ĠvlÃ¡s": 1987,
      "Ġkt": 1988,
      "ĠplÃŃ": 1989,
      "Ġsha": 1990,
      "Ġsic": 1991,
      "Ġhlavu": 1992,
      "ĠbÄĽh": 1993,
      "ĠlaÄį": 1994,
      "ĠvkrÃ¡": 1995,
      "ĠÅ¡Ã¡": 1996,
      "Ġvzdo": 1997,
      "Ġmdlo": 1998,
      "Ġtaji": 1999,
      "Ġkus": 2000,
      "ĠÅ¾er": 2001,
      "Ġzval": 2002,
      "Ġdali": 2003,
      "ĠdnÅ¯": 2004,
      "ĠtlÃ©": 2005,
      "Ġvor": 2006,
      "Ġvhlou": 2007,
      "Ġmek": 2008,
      "ĠrÃ¡m": 2009,
      "Ġchl": 2010,
      "Ġcely": 2011,
      "ĠtÃŃÅ¡": 2012,
      "ĠzÃŃch": 2013,
      "ĠdrÃ½": 2014,
      "Ġsit": 2015,
      "Ġzbro": 2016,
      "ĠÄįt": 2017,
      "ĠdvÃ¡": 2018,
      "nik": 2019,
      "ĠrÅ¯z": 2020,
      "Ġbral": 2021,
      "Ġken": 2022,
      "ĠplÃ¡Äį": 2023,
      "dÃŃ": 2024,
      "ĠmuÅ¾e": 2025,
      "Ġplod": 2026,
      "Ġzpu": 2027,
      "Äįil": 2028,
      "Ġvstou": 2029,
      "ĠdÄĽje": 2030,
      "ĠztÄĽch": 2031,
      "ĠAABCBC": 2032,
      "ĠÄįal": 2033,
      "ĠdÃ¡Å¡": 2034,
      "ĠchrÃ¡m": 2035,
      "Ġraj": 2036,
      "nÃ©": 2037,
      "ĠnÄĽjÅ¡i": 2038,
      "ĠdnÃ©": 2039,
      "ĠknÄĽÅ¾": 2040,
      "cu": 2041,
      "nam": 2042,
      "ĠkrÃ½": 2043,
      "ĠhÅĻbi": 2044,
      "Ġos": 2045,
      "Ġspat": 2046,
      "ĠvznÃ¡": 2047,
      "Ġhbi": 2048,
      "Ġnas": 2049,
      "Ġchlu": 2050,
      "Ġlam": 2051,
      "ĠniÅ¾": 2052,
      "ĠskÅĻÃŃ": 2053,
      "ĠvÅ¡ed": 2054,
      "Ġsily": 2055,
      "Äįer": 2056,
      "Ġpada": 2057,
      "Ġdlem": 2058,
      "Ġvroz": 2059,
      "Ġzpiva": 2060,
      "ĠvmÄĽ": 2061,
      "ĠzaÅĻi": 2062,
      "pe": 2063,
      "ĠÅ¡ÃŃÅ¡": 2064,
      "ĠbÃ¡ch": 2065,
      "Ġtlou": 2066,
      "Ġchvat": 2067,
      "nach": 2068,
      "Ġbily": 2069,
      "Ġzil": 2070,
      "Ġrt": 2071,
      "Ġsply": 2072,
      "ĠsÃ¡h": 2073,
      "ĠdlÃ½": 2074,
      "Ġvrati": 2075,
      "Ġjan": 2076,
      "Ġdomu": 2077,
      "zu": 2078,
      "ĠsÃº": 2079,
      "Ġtrys": 2080,
      "Ġsej": 2081,
      "Ġtok": 2082,
      "ĠvkaÅ¾": 2083,
      "ĠtvaÅĻi": 2084,
      "ĠdÃ¡n": 2085,
      "Ġvnad": 2086,
      "Ġtmou": 2087,
      "ĠX": 2088,
      "Ġmin": 2089,
      "Ġvtem": 2090,
      "ĠsvÃ¡t": 2091,
      "Ġkan": 2092,
      "Ġstla": 2093,
      "Ġlze": 2094,
      "ĠdlaÅĪ": 2095,
      "Ġhvo": 2096,
      "ĠvÄįa": 2097,
      "Å¯d": 2098,
      "Ġdrav": 2099,
      "Ġvdi": 2100,
      "ĠÅ¾ÃŃÅ¡": 2101,
      "ĠtÄĽj": 2102,
      "Ġpes": 2103,
      "Ġkdos": 2104,
      "Ġzdvih": 2105,
      "ĠÅĻÅ¯": 2106,
      "Ġdale": 2107,
      "ĠtÃ³": 2108,
      "Ġnnou": 2109,
      "ĠsaÅĻ": 2110,
      "ĠhÃ¡m": 2111,
      "Ġau": 2112,
      "Ġvso": 2113,
      "Ġstes": 2114,
      "Ġnna": 2115,
      "ĠvÅĻel": 2116,
      "ĠÄįeni": 2117,
      "ĠditÄĽ": 2118,
      "ĠÅ¡ti": 2119,
      "ĠÅĪu": 2120,
      "Ġplat": 2121,
      "Ġvlh": 2122,
      "ĠvpÅĻed": 2123,
      "ĠtÃ¡m": 2124,
      "ĠvÅ¡ÃŃm": 2125,
      "Ġjsa": 2126,
      "ĠhÃ©m": 2127,
      "Ġjdi": 2128,
      "Ġvpou": 2129,
      "Ġchmur": 2130,
      "Ġnani": 2131,
      "Ġnika": 2132,
      "mÃ¡": 2133,
      "Ġkruh": 2134,
      "Ġmli": 2135,
      "Ġnese": 2136,
      "Ġvnu": 2137,
      "ĠklÃ©": 2138,
      "Ġvstal": 2139,
      "Ġvzbu": 2140,
      "Ġvjed": 2141,
      "Ġknim": 2142,
      "ĠchtÃŃ": 2143,
      "Ġpur": 2144,
      "ĠlÃŃc": 2145,
      "Ġin": 2146,
      "ĠtÅĻpyt": 2147,
      "Ġx": 2148,
      "Ġtele": 2149,
      "Ġctno": 2150,
      "Ġvkou": 2151,
      "Ġzvl": 2152,
      "ĠÅĻÃŃÅ¡": 2153,
      "mr": 2154,
      "ĠzÃº": 2155,
      "ĠmlÄį": 2156,
      "ĠrÃ¡ch": 2157,
      "Ġskon": 2158,
      "ral": 2159,
      "Ġboji": 2160,
      "ĠÄįty": 2161,
      "ĠslÃŃm": 2162,
      "ĠboÅ¥": 2163,
      "ĠoÄį": 2164,
      "Ġtah": 2165,
      "ĠvÄĽÅ¡": 2166,
      "ĠÅĻici": 2167,
      "ĠnosÅ¥": 2168,
      "ĠhluÄį": 2169,
      "ĠcÅ¯m": 2170,
      "ĠpeÄį": 2171,
      "Ġbel": 2172,
      "ĠzÃŃm": 2173,
      "ĠknÄĽz": 2174,
      "Ġtvy": 2175,
      "Ġpem": 2176,
      "Ġzch": 2177,
      "stÄĽ": 2178,
      "Ġmam": 2179,
      "Ġvhla": 2180,
      "stu": 2181,
      "ĠAABBXX": 2182,
      "Ġsad": 2183,
      "ĠboÅ¾i": 2184,
      "ĠnnÃ¡": 2185,
      "Ġteh": 2186,
      "ĠÅĻec": 2187,
      "ĠrÃ¡j": 2188,
      "ĠkÅĻ": 2189,
      "ĠlkÃ¡": 2190,
      "Ġtkli": 2191,
      "Ġkap": 2192,
      "Ġlasky": 2193,
      "Ġzhou": 2194,
      "Ġdnem": 2195,
      "Ġslil": 2196,
      "Ġsrdce": 2197,
      "Ġdna": 2198,
      "ĠtÄĽs": 2199,
      "Äįku": 2200,
      "ĠzvÄĽst": 2201,
      "ĠdÃ¡ch": 2202,
      "Ġhon": 2203,
      "ĠpÄĽj": 2204,
      "Ġjat": 2205,
      "Ġvmy": 2206,
      "ĠvstÃŃ": 2207,
      "Ġknou": 2208,
      "ĠvzplÃ¡": 2209,
      "ĠhlÃ½": 2210,
      "ĠzprÃ¡": 2211,
      "Ġslech": 2212,
      "ĠlÃŃch": 2213,
      "Ġkolem": 2214,
      "Ġlad": 2215,
      "Ġkup": 2216,
      "Ġspu": 2217,
      "Ġtiv": 2218,
      "Ġdala": 2219,
      "Ġrat": 2220,
      "Ġprch": 2221,
      "ĠtiÅ¡e": 2222,
      "Ġrtech": 2223,
      "ĠsliÄį": 2224,
      "Ġbly": 2225,
      "Ġhna": 2226,
      "ĠABBAXX": 2227,
      "Ġtebe": 2228,
      "Ġmon": 2229,
      "Ġvola": 2230,
      "ĠmrÃ¡z": 2231,
      "Ġvaji": 2232,
      "Ġspro": 2233,
      "Ġspla": 2234,
      "Ġvrouc": 2235,
      "ĠstvÃŃm": 2236,
      "ĠÅ¾eni": 2237,
      "ĠÅ¾eb": 2238,
      "Ġnaz": 2239,
      "Ġnli": 2240,
      "Ġchyt": 2241,
      "Ġjil": 2242,
      "Ġmuj": 2243,
      "Ġtur": 2244,
      "Ġdiny": 2245,
      "Ġksrd": 2246,
      "ĠÅĻo": 2247,
      "ĠsbÃŃ": 2248,
      "Ġzkou": 2249,
      "nec": 2250,
      "ĠnÄĽni": 2251,
      "ĠstrÃ©": 2252,
      "ĠvÃ½s": 2253,
      "ĠdÄĽli": 2254,
      "Ġbej": 2255,
      "ĠvÃŃr": 2256,
      "ĠkÅĻes": 2257,
      "ĠhÅĻmÄĽ": 2258,
      "ĠkvÃ©": 2259,
      "Ġciti": 2260,
      "Ġstavi": 2261,
      "ĠÅ¡it": 2262,
      "ĠchÃ¡m": 2263,
      "Ġdan": 2264,
      "ĠhoÅĻe": 2265,
      "ej": 2266,
      "Ġlev": 2267,
      "Ġstez": 2268,
      "Ġtej": 2269,
      "ĠAAXA": 2270,
      "Ġmit": 2271,
      "ĠspÃŃÅ¡": 2272,
      "ĠvÄĽku": 2273,
      "Ġdoj": 2274,
      "Ġvda": 2275,
      "Ġdrech": 2276,
      "ĠÅ¥ast": 2277,
      "Ġsple": 2278,
      "Ġvkr": 2279,
      "Ġcou": 2280,
      "Ġraz": 2281,
      "ĠtmÄĽ": 2282,
      "ĠpÅĻej": 2283,
      "tÅĻ": 2284,
      "ĠdÃŃk": 2285,
      "ĠzaÄį": 2286,
      "Ġren": 2287,
      "ABBA": 2288,
      "ĠlÃ¡ch": 2289,
      "ĠzpÃ¡t": 2290,
      "ĠÄįist": 2291,
      "Å¡tÄĽ": 2292,
      "Ġdvou": 2293,
      "ĠABABAB": 2294,
      "Ġstih": 2295,
      "ĠvnÃŃÅ¾": 2296,
      "nech": 2297,
      "Ġkop": 2298,
      "ĠsobÄĽ": 2299,
      "Ġmoz": 2300,
      "Ġbuh": 2301,
      "Ġvyh": 2302,
      "ĠvpÃŃ": 2303,
      "ĠskrÃ¡ÅĪ": 2304,
      "Ġtat": 2305,
      "Ġfu": 2306,
      "Ġsila": 2307,
      "Ġpravi": 2308,
      "Ġjiz": 2309,
      "Ġnami": 2310,
      "Ġrev": 2311,
      "Ġnos": 2312,
      "Ġchvile": 2313,
      "Ġstala": 2314,
      "Ġmoje": 2315,
      "ĠvsvÃ©m": 2316,
      "Ġkmet": 2317,
      "ĠhÅĻÃŃch": 2318,
      "Äįka": 2319,
      "ĠvpÅĻÃŃ": 2320,
      "Ġhni": 2321,
      "Ġstvu": 2322,
      "ĠvÄįer": 2323,
      "Ġspal": 2324,
      "Ġkani": 2325,
      "Ġdom": 2326,
      "ĠdiÅ¾": 2327,
      "Ġzdr": 2328,
      "Ġskut": 2329,
      "ĠvsnÄĽ": 2330,
      "ĠvdÄĽk": 2331,
      "ĠvznÄĽ": 2332,
      "Ġmily": 2333,
      "Ġnah": 2334,
      "ĠmÅ¯Å¾": 2335,
      "ĠjvÃŃ": 2336,
      "Ġvet": 2337,
      "ĠÅ¡lech": 2338,
      "vyÅ¡": 2339,
      "ĠkvÃŃt": 2340,
      "Ġdev": 2341,
      "Ġmila": 2342,
      "ĠspÄĽch": 2343,
      "ĠÅ¡pi": 2344,
      "ĠtvaÅĻ": 2345,
      "Ġvztek": 2346,
      "Ġhi": 2347,
      "ĠveÅ¡": 2348,
      "Ġvar": 2349,
      "ĠmÃ¡t": 2350,
      "Ġmrou": 2351,
      "ĠvzkÅĻi": 2352,
      "ĠhÅ¯m": 2353,
      "Ġss": 2354,
      "Ġdila": 2355,
      "Ġspolu": 2356,
      "ĠmÅĻel": 2357,
      "Ġzase": 2358,
      "Ġruce": 2359,
      "Ġvde": 2360,
      "Ġnap": 2361,
      "ĠkvÄĽtu": 2362,
      "Ġmeni": 2363,
      "Ġtrud": 2364,
      "Ġzah": 2365,
      "ĠsÅ¯m": 2366,
      "Ġbat": 2367,
      "Ġptak": 2368,
      "ĠhlÃ©d": 2369,
      "Ġneh": 2370,
      "ĠlÃŃÄį": 2371,
      "Ġvost": 2372,
      "ĠbdÄĽ": 2373,
      "ĠÄįelo": 2374,
      "ĠtvÃ½": 2375,
      "ĠXXA": 2376,
      "ĠÅ¡va": 2377,
      "ĠslÃ½": 2378,
      "Ġvaly": 2379,
      "ĠdÄĽji": 2380,
      "Ġleni": 2381,
      "ĠtÅĻil": 2382,
      "Ġvhru": 2383,
      "Ġvslun": 2384,
      "ĠÄįÅ¯": 2385,
      "Ġchti": 2386,
      "Ġzji": 2387,
      "ĠcÃŃl": 2388,
      "vÃ½ch": 2389,
      "Ġkviti": 2390,
      "ĠkÅ¯v": 2391,
      "Ġlidi": 2392,
      "Ġvhlu": 2393,
      "Ġsob": 2394,
      "Ġklas": 2395,
      "ĠzlÃ½": 2396,
      "ĠplÃ½": 2397,
      "Ġvila": 2398,
      "ĠzÅĻÃŃt": 2399,
      "cho": 2400,
      "ĠtÃ¡n": 2401,
      "ĠdÃŃl": 2402,
      "ĠsnÄĽni": 2403,
      "Ġnuv": 2404,
      "Ġsnil": 2405,
      "ĠÅĪo": 2406,
      "Ġvzly": 2407,
      "Ġklen": 2408,
      "Ġske": 2409,
      "Ġroj": 2410,
      "Ġvpla": 2411,
      "Ġmih": 2412,
      "ĠteÅ¾": 2413,
      "ĠvtÄĽch": 2414,
      "ĠÄįte": 2415,
      "Ġtvi": 2416,
      "Ġmusi": 2417,
      "ĠrtÅ¯": 2418,
      "ÅĻem": 2419,
      "ĠÅ¡Å¥a": 2420,
      "Ġlla": 2421,
      "ĠbÅĻeh": 2422,
      "Ġhlavou": 2423,
      "Ġvaz": 2424,
      "Ġkos": 2425,
      "ĠdobÄĽ": 2426,
      "Ġvpe": 2427,
      "ĠnaÅ¡i": 2428,
      "ĠdraÅ¾": 2429,
      "Ġvma": 2430,
      "ĠchÅĻi": 2431,
      "ĠÅ¾ene": 2432,
      "Ġvane": 2433,
      "Ġsveho": 2434,
      "lych": 2435,
      "Ġznal": 2436,
      "ĠtÃ½l": 2437,
      "Ġhut": 2438,
      "tel": 2439,
      "Ġhledi": 2440,
      "Ġsah": 2441,
      "Ġsvat": 2442,
      "ĠvplÃ¡": 2443,
      "ĠvbÃŃ": 2444,
      "sud": 2445,
      "ĠjvyÅ¡": 2446,
      "Ġctnost": 2447,
      "BB": 2448,
      "Ġvpu": 2449,
      "Ġvten": 2450,
      "Ġblak": 2451,
      "ÅĻit": 2452,
      "Ġvlu": 2453,
      "pu": 2454,
      "skou": 2455,
      "Ġvml": 2456,
      "Ġkrat": 2457,
      "Ġchlo": 2458,
      "ĠhÅĻmÃŃ": 2459,
      "Ġtka": 2460,
      "ĠkvÃ¡": 2461,
      "dlo": 2462,
      "ĠtÅĻa": 2463,
      "Ġpoc": 2464,
      "ĠÄįela": 2465,
      "Ġstry": 2466,
      "Ġpoli": 2467,
      "Ġjov": 2468,
      "Ġpraci": 2469,
      "ĠvÅ¡ic": 2470,
      "Ġvmi": 2471,
      "Ġzav": 2472,
      "Ġzlu": 2473,
      "Ġzlem": 2474,
      "Ġhleda": 2475,
      "Ġmlad": 2476,
      "Ġsot": 2477,
      "Ġvkro": 2478,
      "Ġlos": 2479,
      "Ġkral": 2480,
      "Ġdnu": 2481,
      "dli": 2482,
      "Ġej": 2483,
      "ĠsluÅ¡": 2484,
      "Ġsvor": 2485,
      "Ġstrh": 2486,
      "Ġsf": 2487,
      "Ġbila": 2488,
      "dal": 2489,
      "ĠpoÅ¡": 2490,
      "ĠchÃ©m": 2491,
      "ĠviÅ¡": 2492,
      "Ġkmit": 2493,
      "mut": 2494,
      "pil": 2495,
      "ĠvÄĽst": 2496,
      "Ġzhas": 2497,
      "ĠlÃ¡m": 2498,
      "den": 2499,
      "ĠÅ¡pat": 2500,
      "Ġdol": 2501,
      "ĠdnÄĽ": 2502,
      "Ġner": 2503,
      "ĠpohÅĻ": 2504,
      "ĠtÄĽlo": 2505,
      "ĠstaÅĪ": 2506,
      "Ġdani": 2507,
      "ĠstÅĻel": 2508,
      "Ġvbou": 2509,
      "ĠÅĪÃ¡": 2510,
      "Ġluh": 2511,
      "Ġstan": 2512,
      "ĠÅ¾hou": 2513,
      "emi": 2514,
      "Ġvzla": 2515,
      "ĠvraÅ¥": 2516,
      "Ġzek": 2517,
      "Ġkel": 2518,
      "Ġkev": 2519,
      "ĠÅĻeÄįi": 2520,
      "ĠvnichÅ¾": 2521,
      "Ġvlid": 2522,
      "ĠleÅ¾": 2523,
      "ĠreÄį": 2524,
      "Ġlli": 2525,
      "Ġmraz": 2526,
      "ĠtuÅ¾": 2527,
      "Ġlena": 2528,
      "ĠdneÅ¡": 2529,
      "Ġdok": 2530,
      "ĠkÃ¡n": 2531,
      "Ġnach": 2532,
      "ĠlÃ©b": 2533,
      "XXA": 2534,
      "ĠvÄĽj": 2535,
      "Ġpast": 2536,
      "ĠhrÃ¡l": 2537,
      "Ġchi": 2538,
      "Ġslz": 2539,
      "Ġspja": 2540,
      "ĠÅ¾Å¯": 2541,
      "Ġvsku": 2542,
      "Ġbrov": 2543,
      "Ġvsp": 2544,
      "ĠvÅĪa": 2545,
      "Ġmec": 2546,
      "Ġrci": 2547,
      "ĠmÄĽla": 2548,
      "ĠsvÄĽtu": 2549,
      "ĠjimÅ¾": 2550,
      "ĠÅ¾eÅ¡": 2551,
      "ĠkÃ½s": 2552,
      "Ġzat": 2553,
      "ĠtÄĽla": 2554,
      "ĠspÄĽÅ¡": 2555,
      "ĠsÄįe": 2556,
      "Ġsvym": 2557,
      "Ġnila": 2558,
      "ĠtÃŃÅĻ": 2559,
      "ĠzvuÄį": 2560,
      "Ġmov": 2561,
      "ĠcÃŃr": 2562,
      "Ġvmra": 2563,
      "ĠmrÃ¡": 2564,
      "Ġstale": 2565,
      "Ġzml": 2566,
      "ĠdeÄį": 2567,
      "ĠvlÅ¯": 2568,
      "Ġstane": 2569,
      "Ġbran": 2570,
      "Ġvyr": 2571,
      "Ġchom": 2572,
      "ĠzbraÅĪ": 2573,
      "Ġsvych": 2574,
      "ĠruÅ¾e": 2575,
      "kal": 2576,
      "um": 2577,
      "Ã¡n": 2578,
      "ĠsnÄĽÅ¾": 2579,
      "Ġdrs": 2580,
      "seÅĪ": 2581,
      "Ġhym": 2582,
      "BX": 2583,
      "Ġsmo": 2584,
      "Ġpras": 2585,
      "sli": 2586,
      "Ġhmo": 2587,
      "Ġmni": 2588,
      "Ġvati": 2589,
      "Ġkmen": 2590,
      "Ġvzlet": 2591,
      "ĠzvlÃ¡Å¡": 2592,
      "Ġdolu": 2593,
      "Ġstic": 2594,
      "Ġruku": 2595,
      "ĠtÅ¯m": 2596,
      "XABB": 2597,
      "Ġhluk": 2598,
      "Ġpane": 2599,
      "ĠstÃ½ch": 2600,
      "dÄĽt": 2601,
      "Ġsebe": 2602,
      "Ġceni": 2603,
      "ĠpÃ¡d": 2604,
      "Ġzyk": 2605,
      "ĠtiÅ¡": 2606,
      "ĠtÃŃch": 2607,
      "Ġbek": 2608,
      "ĠmÄĽÅ¡": 2609,
      "ĠnÃ¡ÅĻ": 2610,
      "Ġmas": 2611,
      "Ġstud": 2612,
      "ĠztÃ©": 2613,
      "Ġtlem": 2614,
      "ĠtoÄįi": 2615,
      "Ġsluch": 2616,
      "ĠtnÃŃ": 2617,
      "ĠÅ¡kle": 2618,
      "Ġfor": 2619,
      "Ġfan": 2620,
      "ĠstÃ©m": 2621,
      "ĠklÃ½": 2622,
      "Ġvyj": 2623,
      "Ġzed": 2624,
      "Ġvrah": 2625,
      "ĠslÃ©z": 2626,
      "ĠzÃ¡m": 2627,
      "Ġhvoz": 2628,
      "ĠÅ¾ÃŃz": 2629,
      "ĠpeÅ¾": 2630,
      "Ġpili": 2631,
      "ĠmiÅ¾": 2632,
      "Ġdic": 2633,
      "Ġsvem": 2634,
      "Ġleta": 2635,
      "Ġsklani": 2636,
      "Ġw": 2637,
      "Ġlesti": 2638,
      "Ġprost": 2639,
      "ĠÄįeka": 2640,
      "ĠsÃŃch": 2641,
      "ĠtrÃ½": 2642,
      "ĠbÃ¡m": 2643,
      "Ġnny": 2644,
      "Ġvkte": 2645,
      "ĠtÃŃÅ¾": 2646,
      "an": 2647,
      "ĠÅĻÃŃch": 2648,
      "ĠhÅĻÃŃÅ¡": 2649,
      "Ġtud": 2650,
      "ĠnnÃ½ch": 2651,
      "Ġklou": 2652,
      "ĠtÃŃs": 2653,
      "ĠtÃ¡ÅĻ": 2654,
      "ĠchlÃ©b": 2655,
      "ĠmoÅĻ": 2656,
      "Ġkom": 2657,
      "ĠschvÃ¡": 2658,
      "Ġki": 2659,
      "Ġleka": 2660,
      "ĠmoÅĻi": 2661,
      "Ġztu": 2662,
      "ĠklÃŃn": 2663,
      "Ġdvi": 2664,
      "Ġvzi": 2665,
      "ĠvÃŃÄį": 2666,
      "ĠmÄĽch": 2667,
      "ĠsÃŃÅ¡": 2668,
      "Ġniv": 2669,
      "ĠÅ¡leh": 2670,
      "Ġpec": 2671,
      "ĠÅ¡ak": 2672,
      "ĠÅ¾ek": 2673,
      "ĠÅ¾ÃŃch": 2674,
      "ĠduÅ¡": 2675,
      "Ġvzma": 2676,
      "Ġsice": 2677,
      "ĠvrÃ¡s": 2678,
      "ĠmÄĽr": 2679,
      "Ġlis": 2680,
      "ĠtobÄĽ": 2681,
      "Ġplach": 2682,
      "Ġvrch": 2683,
      "ĠblÃ¡z": 2684,
      "Ġcela": 2685,
      "Ġteb": 2686,
      "ĠÅĻin": 2687,
      "Ġkloni": 2688,
      "ĠkÄįe": 2689,
      "ĠvrÃ¡z": 2690,
      "Ġvbe": 2691,
      "Ġzn": 2692,
      "Äįky": 2693,
      "ĠnÄĽch": 2694,
      "Ġkali": 2695,
      "ĠtlÃ½": 2696,
      "Ġnau": 2697,
      "ĠmlÃ¡d": 2698,
      "ĠÅ¥an": 2699,
      "ĠdoÄį": 2700,
      "ĠtiÅ¾": 2701,
      "ĠsmÄĽs": 2702,
      "Ġmlou": 2703,
      "ĠlÃŃp": 2704,
      "ĠkeÅĻ": 2705,
      "Ġrto": 2706,
      "Ġzraky": 2707,
      "ĠvklÃŃ": 2708,
      "Ġchot": 2709,
      "ĠvtvÃ©": 2710,
      "ĠsprÃ¡": 2711,
      "ĠmÃŃm": 2712,
      "ĠABA": 2713,
      "Ġheb": 2714,
      "ĠzÃ¡Å¡": 2715,
      "ĠpusÅ¥": 2716,
      "ĠzraÄį": 2717,
      "Ġdec": 2718,
      "ĠXAXABB": 2719,
      "Ġmoji": 2720,
      "Ġbis": 2721,
      "ĠtÅĻÃŃÅ¡": 2722,
      "Ġrodu": 2723,
      "ĠspÄĽl": 2724,
      "Ġvtip": 2725,
      "ĠzÅĻÃŃÅ¡": 2726,
      "Ġliv": 2727,
      "Ġnove": 2728,
      "ĠtÃ¡ch": 2729,
      "ĠlÃ¡t": 2730,
      "ĠrÃ¡z": 2731,
      "Ġjednou": 2732,
      "ĠbdÃŃ": 2733,
      "Ġav": 2734,
      "Ġvme": 2735,
      "ĠjeÅ¥": 2736,
      "Ġztr": 2737,
      "ĠspÃ¡n": 2738,
      "Ġmot": 2739,
      "ĠÄįÃ¡t": 2740,
      "Ġhali": 2741,
      "Ġlich": 2742,
      "Ġvprach": 2743,
      "Ġprah": 2744,
      "ĠchÃ½m": 2745,
      "Ġvzt": 2746,
      "ĠAXXA": 2747,
      "ĠpÅĻÃŃm": 2748,
      "ĠdnÃ½": 2749,
      "ĠtvÅ¯r": 2750,
      "Ġkosti": 2751,
      "ĠvÃ¡ch": 2752,
      "ĠÅ¾es": 2753,
      "Ġpeni": 2754,
      "Ġsnih": 2755,
      "Ġvkli": 2756,
      "Ġvota": 2757,
      "ĠstÃ¡r": 2758,
      "Ġvku": 2759,
      "Ġzte": 2760,
      "Ġsce": 2761,
      "Ġzaj": 2762,
      "Ġvab": 2763,
      "Ġzvoni": 2764,
      "Ġslunce": 2765,
      "ĠÅ¾iÅ¾": 2766,
      "Ġkout": 2767,
      "ĠÄįnÃŃ": 2768,
      "Ġdina": 2769,
      "ĠpÃ¡s": 2770,
      "Ġ20": 2771,
      "Ġrve": 2772,
      "Ġznova": 2773,
      "Ġsan": 2774,
      "ĠzmÃ¡": 2775,
      "ĠjvÄĽt": 2776,
      "Ġvdla": 2777,
      "Ġkraje": 2778,
      "Ġchyb": 2779,
      "Ġros": 2780,
      "ĠkÅ¾i": 2781,
      "Ġluj": 2782,
      "Ġkst": 2783,
      "ĠmÅĻi": 2784,
      "Ġhrd": 2785,
      "Ġmani": 2786,
      "ĠnaÅ¡": 2787,
      "ĠslyÅ¡i": 2788,
      "Ġmala": 2789,
      "Ġvj": 2790,
      "Ġstiny": 2791,
      "ĠÅ¡tÃŃt": 2792,
      "Ġzkr": 2793,
      "Ġspad": 2794,
      "Ġskrom": 2795,
      "Ġjeti": 2796,
      "Ġvles": 2797,
      "Ġvci": 2798,
      "Ġmaly": 2799,
      "Ġsvr": 2800,
      "Ġnov": 2801,
      "Ġtrest": 2802,
      "Ġpek": 2803,
      "Ġvsou": 2804,
      "ĠchraÅĪ": 2805,
      "ĠÅ¡in": 2806,
      "Ġstinu": 2807,
      "Ġvskut": 2808,
      "ĠstÅĻÃ¡": 2809,
      "ĠtÅĻese": 2810,
      "Ġryb": 2811,
      "Ġkraji": 2812,
      "Ġchova": 2813,
      "dam": 2814,
      "Ġchyli": 2815,
      "ĠÄıas": 2816,
      "ĠvlÃ©": 2817,
      "ĠÅ¾to": 2818,
      "Ġut": 2819,
      "ar": 2820,
      "Ġvraci": 2821,
      "Ġvzro": 2822,
      "Ġbile": 2823,
      "mÃ¡ch": 2824,
      "Ġmladi": 2825,
      "Ġchlap": 2826,
      "Ġtul": 2827,
      "Ġvple": 2828,
      "ĠÅ¾ije": 2829,
      "Ġkho": 2830,
      "ur": 2831,
      "Ġpali": 2832,
      "ĠdÃ©l": 2833,
      "ĠhÅĻÃ¡": 2834,
      "lun": 2835,
      "ĠÅĻu": 2836,
      "Ġzlost": 2837,
      "Ġdoz": 2838,
      "Ġsnou": 2839,
      "ĠkvÃ¡m": 2840,
      "ĠzkÃ¡": 2841,
      "Ġkoli": 2842,
      "Ġzlata": 2843,
      "ĠvzÃŃ": 2844,
      "Ġzmat": 2845,
      "Ġmed": 2846,
      "Ġstoj": 2847,
      "ĠbÄĽÅ¥": 2848,
      "ĠvpÅ¯": 2849,
      "Ġprin": 2850,
      "rad": 2851,
      "Ġmost": 2852,
      "Ġvlasy": 2853,
      "ĠchvÄĽje": 2854,
      "Ġvek": 2855,
      "ĠmlÃ½": 2856,
      "Ġtila": 2857,
      "Ġspe": 2858,
      "Ġrana": 2859,
      "ĠstÄĽn": 2860,
      "Ġdych": 2861,
      "ĠsÃ©": 2862,
      "Ġcele": 2863,
      "ĠplÃ¡l": 2864,
      "Ġodv": 2865,
      "Ġbiti": 2866,
      "Ġchet": 2867,
      "ĠmÅĻÃŃt": 2868,
      "Ġbur": 2869,
      "Ġboli": 2870,
      "ĠstaÄįi": 2871,
      "Ġskaly": 2872,
      "ĠvÃ¡b": 2873,
      "Ġstroj": 2874,
      "Ġmsti": 2875,
      "ĠchÅĻe": 2876,
      "Ġpovi": 2877,
      "Ġzeni": 2878,
      "Ġkrasy": 2879,
      "ĠbrÃ¡z": 2880,
      "Ġtisk": 2881,
      "Ġstis": 2882,
      "Ġdaji": 2883,
      "Ġslava": 2884,
      "Ġvira": 2885,
      "ĠcÃ¡": 2886,
      "Ġlho": 2887,
      "ĠzaÅĻ": 2888,
      "ĠvbÄĽ": 2889,
      "Ġzam": 2890,
      "Ġvech": 2891,
      "Ġbl": 2892,
      "Ġstrou": 2893,
      "ĠsvÅ¯d": 2894,
      "Ġznak": 2895,
      "Ġdon": 2896,
      "Ġzhro": 2897,
      "Ġkje": 2898,
      "Ġluje": 2899,
      "Ġhosti": 2900,
      "Ġbohu": 2901,
      "ĠÅ¡tva": 2902,
      "ĠstkvÄĽ": 2903,
      "Ġsmrti": 2904,
      "Ġvob": 2905,
      "Ġslast": 2906,
      "Ġzmr": 2907,
      "ĠtuÅ¡i": 2908,
      "ĠÄįasu": 2909,
      "ĠstÅ¯j": 2910,
      "Ġveni": 2911,
      "ĠXXAABB": 2912,
      "Ġzry": 2913,
      "Ġkul": 2914,
      "dit": 2915,
      "ĠÅ¾et": 2916,
      "Ġdoby": 2917,
      "Ġstv": 2918,
      "Ġlech": 2919,
      "ĠjvÃŃc": 2920,
      "Ġmeny": 2921,
      "Ġnymi": 2922,
      "Ġstus": 2923,
      "Ġlud": 2924,
      "Ġshla": 2925,
      "Ġnoch": 2926,
      "Ġvok": 2927,
      "ĠAAXB": 2928,
      "ĠvÄįas": 2929,
      "ĠmÄĽt": 2930,
      "Ġslal": 2931,
      "ĠctÃŃ": 2932,
      "Ġchval": 2933,
      "Ġzraku": 2934,
      "Ġnouti": 2935,
      "Ġbas": 2936,
      "ĠvzrÅ¯": 2937,
      "ĠstÃ½m": 2938,
      "ĠslÅ¯": 2939,
      "Ġpsal": 2940,
      "Ġvzra": 2941,
      "Ġsvaty": 2942,
      "Ġmira": 2943,
      "ĠsvÄĽÅ¾i": 2944,
      "ĠzÃ¡ch": 2945,
      "Ġrech": 2946,
      "ĠbÃ¡j": 2947,
      "Ġrtu": 2948,
      "ĠznÃ¡s": 2949,
      "Ġcizi": 2950,
      "ost": 2951,
      "ĠplaÄį": 2952,
      "Å¾ÃŃ": 2953,
      "Ġtep": 2954,
      "Ġvzda": 2955,
      "Ġzdal": 2956,
      "ĠtlÃ¡": 2957,
      "ĠlÅ¯m": 2958,
      "ĠuÅ¡": 2959,
      "Ġmez": 2960,
      "Ġbije": 2961,
      "ĠhÃ¡ch": 2962,
      "Ġceny": 2963,
      "ĠvÅ¡ecko": 2964,
      "ĠschÃ¡": 2965,
      "ĠhÅĻeb": 2966,
      "Ġhry": 2967,
      "ĠtrÅ¯n": 2968,
      "Ġdam": 2969,
      "ĠsmÃ¡l": 2970,
      "Ġkryl": 2971,
      "bil": 2972,
      "ĠkÅĻiv": 2973,
      "Ġzhlu": 2974,
      "ĠzdaÅ¾": 2975,
      "Ġnyni": 2976,
      "ĠdÃ©Å¡Å¥": 2977,
      "Ġvkru": 2978,
      "cÃŃ": 2979,
      "Ġteli": 2980,
      "Ġzej": 2981,
      "sku": 2982,
      "ĠsÃŃÄį": 2983,
      "Ġklek": 2984,
      "Ġkrov": 2985,
      "Ġkrut": 2986,
      "ĠÅ¾ik": 2987,
      "Ġmnich": 2988,
      "Ġtady": 2989,
      "ĠnÃŃÄį": 2990,
      "zel": 2991,
      "ĠmnÃŃ": 2992,
      "ĠhnÃ¡": 2993,
      "Ġroku": 2994,
      "ĠvÄĽÄı": 2995,
      "Ġskli": 2996,
      "Ġkove": 2997,
      "Ġtvar": 2998,
      "ĠnoÅ¾": 2999,
      "Ġplani": 3000,
      "Ġvbla": 3001,
      "ĠnÃŃÅ¡": 3002,
      "Ġzlaty": 3003,
      "ĠtÅĻeÅ¡": 3004,
      "Ġhvi": 3005,
      "Ġvas": 3006,
      "ĠlÃ¡n": 3007,
      "Ġlesy": 3008,
      "Ġskrani": 3009,
      "Ġhnal": 3010,
      "Ġhaj": 3011,
      "Ġmuk": 3012,
      "Ġsse": 3013,
      "ĠblÃ©": 3014,
      "sil": 3015,
      "Ġprsk": 3016,
      "Ġspl": 3017,
      "ĠsvÄĽtla": 3018,
      "Ġstromu": 3019,
      "Ġboje": 3020,
      "ĠkÅ¯ÅĪ": 3021,
      "Ġzit": 3022,
      "ĠjdeÅ¡": 3023,
      "Ġzta": 3024,
      "ĠbÄĽÅ¾i": 3025,
      "ĠklÃ¡Å¡": 3026,
      "ĠÄįar": 3027,
      "Ġtlum": 3028,
      "ĠÅ¡eÅĪ": 3029,
      "ĠvzpÃŃ": 3030,
      "ĠÅ¡var": 3031,
      "Ġcla": 3032,
      "ĠvzlÃ©": 3033,
      "Ġzhu": 3034,
      "Ġsech": 3035,
      "ĠtÃ¡z": 3036,
      "ĠÅ¥u": 3037,
      "Ġjima": 3038,
      "Ġzveda": 3039,
      "ĠsrÃ¡": 3040,
      "ĠruÅ¡": 3041,
      "ĠlÅ¾i": 3042,
      "Ġbyva": 3043,
      "Ġspor": 3044,
      "Ġmena": 3045,
      "Ġton": 3046,
      "ĠmeÅ¡": 3047,
      "Ġslavy": 3048,
      "ĠlÃŃÅ¡": 3049,
      "ĠsvÄĽtem": 3050,
      "Ġvzem": 3051,
      "Ġvsl": 3052,
      "Ġdati": 3053,
      "ĠÅĻiti": 3054,
      "Ġvlasti": 3055,
      "Ġdlani": 3056,
      "Ġzin": 3057,
      "ĠÅ¡vi": 3058,
      "ĠvnitÅĻ": 3059,
      "ĠdlÃ½ch": 3060,
      "Ġhyb": 3061,
      "Ġani": 3062,
      "Ġnan": 3063,
      "Ġplane": 3064,
      "Ġzhlou": 3065,
      "ĠvkvÄĽ": 3066,
      "ĠskÅĻe": 3067,
      "ĠvzÅĪa": 3068,
      "Ġkoji": 3069,
      "Ġkala": 3070,
      "Ġboha": 3071,
      "Ġdvor": 3072,
      "ĠÅ¾ivo": 3073,
      "Ġfy": 3074,
      "Ġhory": 3075,
      "ĠvÅ¾a": 3076,
      "ĠpÃŃt": 3077,
      "ĠchÃ¡ch": 3078,
      "Ġnula": 3079,
      "Ġzmu": 3080,
      "ĠprÃ¡h": 3081,
      "Ġzdroj": 3082,
      "Ġvzni": 3083,
      "ĠzpÅ¯": 3084,
      "ÅĻic": 3085,
      "ĠÄįiny": 3086,
      "Ġnot": 3087,
      "Ġel": 3088,
      "Ġsdu": 3089,
      "Ġdov": 3090,
      "Ġvina": 3091,
      "Ġsat": 3092,
      "ĠsÃºs": 3093,
      "nÄĽl": 3094,
      "Ġkrase": 3095,
      "Ġspas": 3096,
      "Ġsig": 3097,
      "ĠmÃ¡l": 3098,
      "Ġclav": 3099,
      "ĠvÄĽÅĻi": 3100,
      "ĠtÅĻes": 3101,
      "dle": 3102,
      "Ġnim": 3103,
      "Ġgic": 3104,
      "Ġviru": 3105,
      "ĠvÃŃs": 3106,
      "ĠjeÅ¡tÄĽ": 3107,
      "ĠXXXA": 3108,
      "ĠdrÃ½ch": 3109,
      "ĠvÄĽÅ¾": 3110,
      "Ġrec": 3111,
      "ĠsdÃŃ": 3112,
      "ĠkÅĻo": 3113,
      "Ġzdar": 3114,
      "lÃ½ch": 3115,
      "ĠchÃ½ch": 3116,
      "ĠnÃ¡c": 3117,
      "Ġvznes": 3118,
      "Ġstek": 3119,
      "ĠvhÃ¡": 3120,
      "ĠkvÃ½": 3121,
      "Ġmir": 3122,
      "Ġtani": 3123,
      "Ġlsti": 3124,
      "Ġvboj": 3125,
      "Ġjdem": 3126,
      "ĠbÄĽl": 3127,
      "Ġzbi": 3128,
      "ĠvmÃŃ": 3129,
      "Ġrus": 3130,
      "vit": 3131,
      "Ġslib": 3132,
      "Ġzvyk": 3133,
      "Ġchcem": 3134,
      "Ġjice": 3135,
      "Ġvdali": 3136,
      "Ġdrahy": 3137,
      "ĠzbÄĽ": 3138,
      "ĠplÃ¡t": 3139,
      "Ġmina": 3140,
      "Ġvita": 3141,
      "ĠkdeÅ¾": 3142,
      "ĠvstÅĻe": 3143,
      "Ġsnech": 3144,
      "Ġniti": 3145,
      "ĠzvÄĽÅĻ": 3146,
      "zni": 3147,
      "Ġchut": 3148,
      "Ġvlet": 3149,
      "Ġmile": 3150,
      "Ġvcho": 3151,
      "ĠdosÅ¥": 3152,
      "ĠzeÄı": 3153,
      "Ġvist": 3154,
      "Ġksmr": 3155,
      "Ġzira": 3156,
      "Ġkvet": 3157,
      "ĠÅ¾ila": 3158,
      "Ġkous": 3159,
      "ĠstÅ¯l": 3160,
      "Ġvid": 3161,
      "Ġmus": 3162,
      "ĠsleÄį": 3163,
      "Ġvhod": 3164,
      "Ġrada": 3165,
      "vam": 3166,
      "ĠvtvÃ¡ÅĻ": 3167,
      "ĠvpÃŃs": 3168,
      "ĠpsÃ¡": 3169,
      "ĠvÄĽl": 3170,
      "ĠpravÄĽ": 3171,
      "Ġchol": 3172,
      "ĠvlasÅ¥": 3173,
      "ĠbliÅ¾i": 3174,
      "ĠtvaÅĻe": 3175,
      "Ġkryt": 3176,
      "ĠpÄĽst": 3177,
      "ĠÅĻas": 3178,
      "nku": 3179,
      "Ġztraci": 3180,
      "ĠjÃ¡k": 3181,
      "Å¾en": 3182,
      "ĠpÅĻÃ¡l": 3183,
      "ĠvyÅ¡e": 3184,
      "ĠbÃŃt": 3185,
      "ĠvmÃ©m": 3186,
      "Ġmaji": 3187,
      "Ġhnus": 3188,
      "Ġzpr": 3189,
      "ĠvchrÃ¡": 3190,
      "Ġzrov": 3191,
      "ven": 3192,
      "ĠÅ¾ivot": 3193,
      "ĠvÄįel": 3194,
      "ĠzÄįe": 3195,
      "ĠkÅĻiÅ¾": 3196,
      "dce": 3197,
      "Ġbudi": 3198,
      "Ġsedi": 3199,
      "Ġsvoje": 3200,
      "Ġstaly": 3201,
      "ĠÄįtvr": 3202,
      "Ġzdech": 3203,
      "ĠÅĻli": 3204,
      "Ġer": 3205,
      "ĠtÅĻas": 3206,
      "krat": 3207,
      "ĠmÃ¡j": 3208,
      "ĠznÃ¡Å¡": 3209,
      "ĠhvÃŃ": 3210,
      "Ġviny": 3211,
      "Ġvty": 3212,
      "tku": 3213,
      "ĠÃºst": 3214,
      "ĠdÄĽd": 3215,
      "Ġstrany": 3216,
      "ĠksvÃ©": 3217,
      "vÅ¯r": 3218,
      "ĠzbÃ½": 3219,
      "ĠplÃ¡Å¡": 3220,
      "ĠcÅ¯v": 3221,
      "ĠzdrÃ¡v": 3222,
      "Ġnni": 3223,
      "Ġdrost": 3224,
      "Ġleny": 3225,
      "Ġskvou": 3226,
      "Ġrukou": 3227,
      "Ġdus": 3228,
      "Ġspol": 3229,
      "Ġshlu": 3230,
      "ĠsmÄĽÅ¡": 3231,
      "Ġptal": 3232,
      "ĠseÄį": 3233,
      "Ġvdal": 3234,
      "Ġth": 3235,
      "Ġlh": 3236,
      "ĠvÃŃk": 3237,
      "ĠlÅ¯Å¾": 3238,
      "Ġdub": 3239,
      "Ġzep": 3240,
      "Ġdraha": 3241,
      "ĠsmrÅ¥": 3242,
      "ĠkÃ¡Å¡": 3243,
      "Ġztich": 3244,
      "Ġzer": 3245,
      "ĠÅ¾eÅĪ": 3246,
      "lek": 3247,
      "ĠpÃŃÅ¡": 3248,
      "ĠkvÄĽty": 3249,
      "Ġmalo": 3250,
      "Ġvzty": 3251,
      "ĠnoÅ¡": 3252,
      "ĠzdÃŃ": 3253,
      "ĠvstÅĻic": 3254,
      "Ġpre": 3255,
      "ĠÄįasy": 3256,
      "ĠjmÄĽ": 3257,
      "ĠpÃŃm": 3258,
      "ĠmÃ¡Å¥": 3259,
      "Ġses": 3260,
      "Ġbry": 3261,
      "ĠÅĻev": 3262,
      "Ġmle": 3263,
      "Ġshle": 3264,
      "ĠtÄĽn": 3265,
      "ĠsplÃ¡": 3266,
      "Ġvpod": 3267,
      "ĠÅ¥Ã¡": 3268,
      "Ġmene": 3269,
      "Ġjle": 3270,
      "ĠbÃ¡z": 3271,
      "ĠkraÄįi": 3272,
      "Ġmrav": 3273,
      "Ġchej": 3274,
      "ĠÄįiÅ¡": 3275,
      "vim": 3276,
      "Ġzlate": 3277,
      "Ġstava": 3278,
      "Ġmatky": 3279,
      "Ġmet": 3280,
      "Ġvsva": 3281,
      "ĠchvÄĽla": 3282,
      "ĠnÄĽmÅ¾": 3283,
      "Ġsja": 3284,
      "ĠsbÄĽ": 3285,
      "Ġryt": 3286,
      "Ġdnech": 3287,
      "ĠvsvÄĽt": 3288,
      "lym": 3289,
      "Ġstel": 3290,
      "Ġston": 3291,
      "Ġsnes": 3292,
      "ĠznichÅ¾": 3293,
      "Ġnovy": 3294,
      "ĠAAAX": 3295,
      "ĠvtrÃ¡": 3296,
      "Ġchen": 3297,
      "ĠhÅĻbe": 3298,
      "ĠÅ¡Å¯": 3299,
      "ĠmÅ¾ik": 3300,
      "Ġpne": 3301,
      "Ġtrav": 3302,
      "Ġrva": 3303,
      "Ġkami": 3304,
      "ĠbÄĽs": 3305,
      "ÅĻad": 3306,
      "Ġvha": 3307,
      "ĠnaÅ¡e": 3308,
      "ĠkÃº": 3309,
      "Ġstalo": 3310,
      "ĠvÅ¡ude": 3311,
      "Ġhlasem": 3312,
      "ĠvzkÅĻik": 3313,
      "Ġdcer": 3314,
      "Ġshr": 3315,
      "Ġniky": 3316,
      "Ġvosti": 3317,
      "Ġplav": 3318,
      "lil": 3319,
      "ĠzaÅĻe": 3320,
      "ĠAX": 3321,
      "Ġvzor": 3322,
      "ĠÅ¡pa": 3323,
      "pal": 3324,
      "Ġlila": 3325,
      "ĠhrÃ¡t": 3326,
      "Ġhaji": 3327,
      "ĠdyÅ¡e": 3328,
      "kach": 3329,
      "Ġhradu": 3330,
      "Ġjist": 3331,
      "Ġlel": 3332,
      "ĠvlaÅ¡": 3333,
      "Ġkdysi": 3334,
      "Ġzpa": 3335,
      "Ġhani": 3336,
      "ĠÅ¡per": 3337,
      "ĠvrÅ¯": 3338,
      "Ġsloup": 3339,
      "Ġvine": 3340,
      "atky": 3341,
      "ĠvÅ¡emi": 3342,
      "ĠtÅĻÃŃs": 3343,
      "Ġjiti": 3344,
      "van": 3345,
      "ĠpÄĽni": 3346,
      "ĠsvÄĽtÄĽ": 3347,
      "Ġblouz": 3348,
      "ĠABABAX": 3349,
      "jal": 3350,
      "ĠÅ¡im": 3351,
      "Ġlok": 3352,
      "ĠveÄı": 3353,
      "ĠtlÃŃ": 3354,
      "ĠtÅĻÃ¡s": 3355,
      "ĠvaÅ¾": 3356,
      "ĠmeÅĪ": 3357,
      "ĠÅĻeni": 3358,
      "ĠplaÄįe": 3359,
      "Ġker": 3360,
      "Ġlidu": 3361,
      "Ġvam": 3362,
      "skych": 3363,
      "Å¡im": 3364,
      "Ġchazi": 3365,
      "ĠmlÃ©": 3366,
      "Ġtros": 3367,
      "Ġstrani": 3368,
      "ĠplÃ¡Å¡Å¥": 3369,
      "Ġzmra": 3370,
      "ĠkÅ¡ti": 3371,
      "Ġloval": 3372,
      "Ġrun": 3373,
      "ĠkÅĻeh": 3374,
      "Ġsdru": 3375,
      "Ġkzemi": 3376,
      "Ġvzdych": 3377,
      "Ġmiru": 3378,
      "ĠnÅ¯v": 3379,
      "Ġvede": 3380,
      "ĠhÃ¡r": 3381,
      "Ġvmu": 3382,
      "Ġbyli": 3383,
      "ĠbÃ¡l": 3384,
      "Ġvjich": 3385,
      "ĠÄįert": 3386,
      "Ġpouze": 3387,
      "ĠÅ¡lÃŃ": 3388,
      "ĠvÅ¾dycky": 3389,
      "ĠchoÅ¥": 3390,
      "nd": 3391,
      "kych": 3392,
      "ĠtvÃ¡r": 3393,
      "Ġnet": 3394,
      "cen": 3395,
      "Ġpisni": 3396,
      "Ġlip": 3397,
      "Ġrano": 3398,
      "Ġvany": 3399,
      "Ġmrz": 3400,
      "Ġlaska": 3401,
      "Ġvran": 3402,
      "ĠkpÅĻe": 3403,
      "ĠzkrÃ¡": 3404,
      "Ġlle": 3405,
      "Ġlha": 3406,
      "Ġvpl": 3407,
      "Ġvbi": 3408,
      "Ġsar": 3409,
      "ĠÅ¾enou": 3410,
      "ĠsnÃŃt": 3411,
      "Ġrol": 3412,
      "Ġkvas": 3413,
      "ĠhrÅ¯z": 3414,
      "Ġsledni": 3415,
      "Ġztem": 3416,
      "Ġzdob": 3417,
      "ĠstvÃ¡": 3418,
      "ĠhÃ¡j": 3419,
      "ĠsmÄĽl": 3420,
      "ĠschÃ½": 3421,
      "Ġkav": 3422,
      "Ġsvate": 3423,
      "ĠmÃ¡n": 3424,
      "Ġbolu": 3425,
      "ĠbratÅĻi": 3426,
      "Ġzpod": 3427,
      "ĠruÄįi": 3428,
      "ĠpiseÅĪ": 3429,
      "Ġvody": 3430,
      "ĠvÄĽru": 3431,
      "Ġstor": 3432,
      "Ġluk": 3433,
      "ĠspÅĻÃ¡": 3434,
      "Ġzble": 3435,
      "ĠvÃ¡r": 3436,
      "Ġzev": 3437,
      "ĠpÄĽti": 3438,
      "Ġbeni": 3439,
      "Ġjiny": 3440,
      "ĠXXABBA": 3441,
      "Ġdilo": 3442,
      "ĠleÅĪ": 3443,
      "ĠspÃ¡t": 3444,
      "Ġzpatky": 3445,
      "Ġokem": 3446,
      "Ġvhloub": 3447,
      "Ġvinu": 3448,
      "ĠpouÅ¥": 3449,
      "Ġpana": 3450,
      "Ġdivy": 3451,
      "Ġlom": 3452,
      "ĠchvÄĽj": 3453,
      "ĠhÅĻich": 3454,
      "Ġpnou": 3455,
      "ĠmaÅ¡": 3456,
      "Ġkvo": 3457,
      "ĠsmÄĽle": 3458,
      "ĠvÅĻi": 3459,
      "Ġhlava": 3460,
      "ĠchaÅ¥": 3461,
      "ĠXXAAXX": 3462,
      "ĠvznÃŃ": 3463,
      "Ġvtou": 3464,
      "Ġlene": 3465,
      "Ġzblou": 3466,
      "Ġtvoje": 3467,
      "kam": 3468,
      "Ġshon": 3469,
      "ĠÅ¡ve": 3470,
      "ĠÅ¡est": 3471,
      "Ġboku": 3472,
      "ĠskvÃŃ": 3473,
      "cim": 3474,
      "Ġtrap": 3475,
      "Ġnemu": 3476,
      "Ġcov": 3477,
      "Ġstit": 3478,
      "Ġvalo": 3479,
      "Ġhrst": 3480,
      "ĠtÅĻÃŃm": 3481,
      "Ġzpup": 3482,
      "ĠruÅ¥": 3483,
      "Ġvslad": 3484,
      "Ġfri": 3485,
      "ĠdvÅ¯r": 3486,
      "ĠnnÃ½m": 3487,
      "ĠÅ¥al": 3488,
      "ĠzhlÃŃ": 3489,
      "Ġrany": 3490,
      "Ġchlou": 3491,
      "Ġtuj": 3492,
      "Ġzbled": 3493,
      "Ġklin": 3494,
      "Ġvuje": 3495,
      "nÃ½": 3496,
      "Ġcno": 3497,
      "Ġsym": 3498,
      "Ġbzu": 3499,
      "Ġkji": 3500,
      "ĠteÅĻ": 3501,
      "ĠraÄį": 3502,
      "Ġvstra": 3503,
      "ĠjemnÄĽ": 3504,
      "Ġjek": 3505,
      "Ġdry": 3506,
      "ĠstmÄĽ": 3507,
      "Äįel": 3508,
      "Ġkoje": 3509,
      "ĠjiÅ¡": 3510,
      "ĠÅĻiÅ¡e": 3511,
      "Ġbri": 3512,
      "Ġvhou": 3513,
      "ĠÅ¡ÃŃp": 3514,
      "Ġstoup": 3515,
      "Ġvcha": 3516,
      "Ġzet": 3517,
      "Ġchly": 3518,
      "qu": 3519,
      "ĠvidÄĽl": 3520,
      "Ġbrani": 3521,
      "Ġkams": 3522,
      "Ġkaji": 3523,
      "Ġcar": 3524,
      "ĠknÃ©": 3525,
      "ĠÅĻist": 3526,
      "ĠvzduÅ¡": 3527,
      "Ġslovy": 3528,
      "ĠtouÅ¾i": 3529,
      "Ġdobu": 3530,
      "Ġsyl": 3531,
      "ĠlÃ¡Äį": 3532,
      "Ġster": 3533,
      "ĠhlÃŃd": 3534,
      "Ġdavy": 3535,
      "Ġrani": 3536,
      "lÃŃz": 3537,
      "Ġchvo": 3538,
      "ÅĻel": 3539,
      "ĠkÃ©n": 3540,
      "ĠvduÅ¡i": 3541,
      "ĠmdlÃ©": 3542,
      "Ġmysli": 3543,
      "Ġzmar": 3544,
      "Ġpuk": 3545,
      "ĠtÅĻÃŃk": 3546,
      "Ġsvla": 3547,
      "ĠnÄĽmy": 3548,
      "ĠvÄĽky": 3549,
      "Ġslit": 3550,
      "Ġptac": 3551,
      "Ġllo": 3552,
      "Ġzbyl": 3553,
      "ĠdÅ¾": 3554,
      "Ġsmal": 3555,
      "ĠzÃŃs": 3556,
      "Ġraje": 3557,
      "ĠÄįila": 3558,
      "Ġschy": 3559,
      "Ġrtem": 3560,
      "ĠÄįinu": 3561,
      "Ġzhr": 3562,
      "ĠmdlÃ½": 3563,
      "Ġkdu": 3564,
      "Ġplati": 3565,
      "ĠnÃ¡n": 3566,
      "Ġqu": 3567,
      "ĠdÃ¡k": 3568,
      "ĠhouÅ¡": 3569,
      "ĠvÄĽka": 3570,
      "Ġgy": 3571,
      "Ġtroc": 3572,
      "Ġkpa": 3573,
      "Ġkpra": 3574,
      "Ġdrou": 3575,
      "Ġsval": 3576,
      "Ġcin": 3577,
      "ĠbÄĽt": 3578,
      "Ġhrudi": 3579,
      "ĠvzkÅĻÃŃ": 3580,
      "ĠrÃ¡l": 3581,
      "Ġkrot": 3582,
      "Ġraji": 3583,
      "Ġjou": 3584,
      "ĠjÃŃÅ¡": 3585,
      "tych": 3586,
      "ĠXXXAXA": 3587,
      "Ġvtma": 3588,
      "ĠbÃ¡t": 3589,
      "ĠvnÃ¡s": 3590,
      "Ġdb": 3591,
      "Ġhlub": 3592,
      "Ġsup": 3593,
      "Ġzlato": 3594,
      "ĠvÄĽd": 3595,
      "Ġllu": 3596,
      "Ġkrve": 3597,
      "dech": 3598,
      "skem": 3599,
      "Ġsaha": 3600,
      "ĠfÃŃ": 3601,
      "ĠvbÃ¡": 3602,
      "ĠÅ¡lÃ¡": 3603,
      "ĠspÅĻe": 3604,
      "ĠvprÃ¡": 3605,
      "ĠÅ¾ar": 3606,
      "ĠXABAB": 3607,
      "Ġprava": 3608,
      "ĠtrÃ½z": 3609,
      "Ġvkraj": 3610,
      "ĠÅ¡ku": 3611,
      "Ġskryt": 3612,
      "Ġvnoc": 3613,
      "Ġsru": 3614,
      "Ġgro": 3615,
      "Ġcud": 3616,
      "ĠnÃ¡ct": 3617,
      "Ġdival": 3618,
      "ĠvstaÅĪ": 3619,
      "zky": 3620,
      "ĠzvÃ¡s": 3621,
      "Ġmiti": 3622,
      "ĠÄįina": 3623,
      "ĠÄįele": 3624,
      "lost": 3625,
      "Ġslep": 3626,
      "ĠkzÃ¡": 3627,
      "Ġzvou": 3628,
      "ĠdÅĻima": 3629,
      "Ġnep": 3630,
      "Ġvba": 3631,
      "Ġchor": 3632,
      "Ġdym": 3633,
      "Ġkvili": 3634,
      "ĠÅ¾iva": 3635,
      "ĠsÃŃÅĪ": 3636,
      "Ġvre": 3637,
      "Ġvstu": 3638,
      "Ġprosi": 3639,
      "Ġslem": 3640,
      "Ġvprou": 3641,
      "Ġhrot": 3642,
      "ĠÅ¡al": 3643,
      "ĠlÃŃst": 3644,
      "en": 3645,
      "Ġpole": 3646,
      "Ġrob": 3647,
      "ĠdÄĽni": 3648,
      "Ġbrem": 3649,
      "Ġ21": 3650,
      "ĠvÄįi": 3651,
      "Ġmizi": 3652,
      "ĠmÄĽn": 3653,
      "Ġsele": 3654,
      "Ġvzej": 3655,
      "ĠtvÄĽ": 3656,
      "ÅĻen": 3657,
      "ĠvÅ¯z": 3658,
      "ĠzlÃ½ch": 3659,
      "Ġsplyva": 3660,
      "ĠsdÄĽ": 3661,
      "ĠpanÄĽ": 3662,
      "Ġvzhu": 3663,
      "Ġknul": 3664,
      "Ġrce": 3665,
      "ĠchlÃŃ": 3666,
      "ĠnÃ©st": 3667,
      "ĠtÅĻti": 3668,
      "Ġvjas": 3669,
      "Ġsep": 3670,
      "Ġneda": 3671,
      "Ġkyva": 3672,
      "Äįim": 3673,
      "Ġmut": 3674,
      "ĠvpÄĽ": 3675,
      "ĠmnoÅ¾": 3676,
      "ĠlÃŃk": 3677,
      "Ġvpi": 3678,
      "ĠleÅ¥": 3679,
      "ĠvpÃ¡": 3680,
      "ĠdrÃ¡Å¾": 3681,
      "ĠpÅĻel": 3682,
      "ĠmÄĽly": 3683,
      "Ġmate": 3684,
      "Ġsbi": 3685,
      "Ġzkla": 3686,
      "ĠtiÅ¾i": 3687,
      "ĠvrÃ¡t": 3688,
      "Ġchech": 3689,
      "Ġvim": 3690,
      "ĠdÃ¡r": 3691,
      "ĠÅĻel": 3692,
      "ĠÅĻÃŃc": 3693,
      "tim": 3694,
      "Ġmrt": 3695,
      "Ġjet": 3696,
      "Ġcitu": 3697,
      "Ġsos": 3698,
      "Ġplem": 3699,
      "Ġchru": 3700,
      "Ġhraje": 3701,
      "Ġmod": 3702,
      "ABXB": 3703,
      "ĠtÅ¯v": 3704,
      "Ġjlep": 3705,
      "Ġak": 3706,
      "Ġloup": 3707,
      "ĠpÅĻiz": 3708,
      "Ġzjas": 3709,
      "ĠpouÅ¡Å¥": 3710,
      "Ġlasku": 3711,
      "jem": 3712,
      "ĠchlÃ½": 3713,
      "Ġkyne": 3714,
      "Ġtomu": 3715,
      "Ġcez": 3716,
      "Ġsyt": 3717,
      "ĠpÃ¡ch": 3718,
      "Ġtvrd": 3719,
      "ĠÅĻila": 3720,
      "ĠzÄįer": 3721,
      "ĠbuÅ¡i": 3722,
      "Ġtaky": 3723,
      "Ġchodi": 3724,
      "ĠzrÅ¯": 3725,
      "Ġnala": 3726,
      "Ġnnost": 3727,
      "Ġmame": 3728,
      "ĠdrÃ½m": 3729,
      "Ġdes": 3730,
      "ĠlÃ¡Å¡": 3731,
      "Ġtouhy": 3732,
      "Ġvhr": 3733,
      "ĠdÄĽn": 3734,
      "Ġpruh": 3735,
      "ĠmyÅ¡": 3736,
      "Ġvhu": 3737,
      "ĠvÅ¯m": 3738,
      "Ġvite": 3739,
      "Ġmyl": 3740,
      "ĠXABABX": 3741,
      "Ġrval": 3742,
      "ĠnichÅ¾": 3743,
      "Ġvzhuru": 3744,
      "Ġbleda": 3745,
      "tky": 3746,
      "Ġcek": 3747,
      "ĠlÅ¯v": 3748,
      "Ġzly": 3749,
      "let": 3750,
      "cel": 3751,
      "zen": 3752,
      "Ġcestu": 3753,
      "ĠÄįtve": 3754,
      "ĠdÄĽÄį": 3755,
      "Ġvici": 3756,
      "Ġspr": 3757,
      "Ġdlel": 3758,
      "ĠÅ¡lÃ½ch": 3759,
      "Ġmlada": 3760,
      "Ġstrun": 3761,
      "Ġpravy": 3762,
      "ĠrdÃŃ": 3763,
      "ĠÅ¾h": 3764,
      "ĠstÄĽny": 3765,
      "Ġvhrob": 3766,
      "ĠlaÅĪ": 3767,
      "Ġvzo": 3768,
      "Ġmati": 3769,
      "Ġfau": 3770,
      "Ġbub": 3771,
      "Å¾it": 3772,
      "ĠÅ¡umi": 3773,
      "Ġrin": 3774,
      "ĠmuÅ¡": 3775,
      "Ġzdali": 3776,
      "ĠmÄĽsta": 3777,
      "Ġposled": 3778,
      "ĠvÃ¡z": 3779,
      "Ġnebes": 3780,
      "Ġstol": 3781,
      "ĠseÅ¡": 3782,
      "Ġvzcho": 3783,
      "ĠmÃŃÅ¡": 3784,
      "ĠlesÅ¥": 3785,
      "Ġvida": 3786,
      "Ġshro": 3787,
      "Ġban": 3788,
      "Ġskryva": 3789,
      "Ġkvil": 3790,
      "ĠnÄĽz": 3791,
      "ĠnnÃ©m": 3792,
      "Ġtos": 3793,
      "ĠvchÃ¡": 3794,
      "ĠÃ¡l": 3795,
      "Ġliba": 3796,
      "Ġmist": 3797,
      "Ġsuk": 3798,
      "Ġvzbou": 3799,
      "ĠchvÄĽni": 3800,
      "ĠtkÃ¡": 3801,
      "ĠdnÃ¡": 3802,
      "Ġmly": 3803,
      "Ġnouc": 3804,
      "ĠplÃ¡ÅĪ": 3805,
      "Ġosud": 3806,
      "Ġskvo": 3807,
      "Ġstev": 3808,
      "Ġkma": 3809,
      "ĠsklÃŃ": 3810,
      "ĠÅ¡ed": 3811,
      "ÅĻim": 3812,
      "ĠhvÃŃz": 3813,
      "Ġchud": 3814,
      "Ġchram": 3815,
      "ĠmÄĽli": 3816,
      "Ġsynu": 3817,
      "ĠsÄį": 3818,
      "ĠvÅ¡eho": 3819,
      "Ġsladky": 3820,
      "Ġtvoji": 3821,
      "stech": 3822,
      "Ġskrz": 3823,
      "ĠzÃºst": 3824,
      "Ġnahle": 3825,
      "ĠmÃ¡ch": 3826,
      "Ġdaly": 3827,
      "on": 3828,
      "Ġschu": 3829,
      "ĠvchvÃŃ": 3830,
      "Ġknout": 3831,
      "Ġveho": 3832,
      "Ġvisi": 3833,
      "Ġnouci": 3834,
      "Ġzur": 3835,
      "Ġstrast": 3836,
      "ĠptÃ¡Äį": 3837,
      "ĠzÅĪa": 3838,
      "Ġrmut": 3839,
      "Ġpych": 3840,
      "Ġkola": 3841,
      "Ġjih": 3842,
      "Ġtala": 3843,
      "Ġzpro": 3844,
      "ĠveÅĪ": 3845,
      "Ġhyne": 3846,
      "Ġnikem": 3847,
      "Ġseni": 3848,
      "ĠjdÄĽ": 3849,
      "Ġpej": 3850,
      "ĠtÃ½r": 3851,
      "ĠrdÄĽ": 3852,
      "Ġsili": 3853,
      "Ġhoun": 3854,
      "ĠchÅ¯m": 3855,
      "Ġsul": 3856,
      "ĠbrÃ¡k": 3857,
      "Äįit": 3858,
      "Ġmlk": 3859,
      "ĠpÅĻÃŃz": 3860,
      "Ġpusti": 3861,
      "ĠkoÄį": 3862,
      "Ġstati": 3863,
      "ĠchvÄĽji": 3864,
      "ĠstrÅ¯": 3865,
      "Ġprace": 3866,
      "Ġkryje": 3867,
      "Ġmlady": 3868,
      "ĠtmÃŃ": 3869,
      "Ġholi": 3870,
      "Ġknih": 3871,
      "Ġgan": 3872,
      "Ġskvr": 3873,
      "Ġtuch": 3874,
      "ĠsmÃ½": 3875,
      "lÃ©d": 3876,
      "hla": 3877,
      "ĠkrÄį": 3878,
      "Ġcena": 3879,
      "Ġdoli": 3880,
      "ĠpÄĽje": 3881,
      "ĠpÅĻedc": 3882,
      "Ġpadne": 3883,
      "ĠsvÄĽtlo": 3884,
      "ĠvdÃŃ": 3885,
      "dny": 3886,
      "Ġom": 3887,
      "Ġusta": 3888,
      "ĠdÃŃc": 3889,
      "Ġstl": 3890,
      "Ġpadu": 3891,
      "Ġkrali": 3892,
      "ĠviÄı": 3893,
      "ĠvunÄĽ": 3894,
      "ĠdvÃŃ": 3895,
      "Ġpila": 3896,
      "Ġchro": 3897,
      "ĠzvÃ½": 3898,
      "ĠchlÃ¡": 3899,
      "Ġlup": 3900,
      "Ġvbu": 3901,
      "ĠÅ¾lou": 3902,
      "Ġmeho": 3903,
      "Ġskrov": 3904,
      "Ġah": 3905,
      "Ġtosti": 3906,
      "Ġzpou": 3907,
      "ĠhÅ¯l": 3908,
      "ĠksobÄĽ": 3909,
      "Ġkok": 3910,
      "Ġbudu": 3911,
      "Ġkrad": 3912,
      "Ġzdravi": 3913,
      "ĠtlÃ½ch": 3914,
      "ĠzvlÃ¡Å¡Å¥": 3915,
      "Ġdmou": 3916,
      "ĠvÅĻela": 3917,
      "ĠXABBA": 3918,
      "Ġjmeno": 3919,
      "Ġkhro": 3920,
      "Ġlvi": 3921,
      "ĠpÄĽsti": 3922,
      "ĠdouÅ¡": 3923,
      "Ġdlech": 3924,
      "Ġzbroj": 3925,
      "ĠvÃŃn": 3926,
      "Ġhlasu": 3927,
      "Ġmraku": 3928,
      "Ġtrs": 3929,
      "ĠhrÃ¡d": 3930,
      "Ġdnou": 3931,
      "Ġbok": 3932,
      "Ġdycha": 3933,
      "Ġzpe": 3934,
      "Ġslavu": 3935,
      "ĠjeÄį": 3936,
      "ĠmrÅ¡": 3937,
      "Ġhlasy": 3938,
      "Ġvzpom": 3939,
      "Ġzkad": 3940,
      "Ġvden": 3941,
      "Ġpij": 3942,
      "ĠdinÄĽ": 3943,
      "Ġoj": 3944,
      "do": 3945,
      "Ġmur": 3946,
      "ĠslyÅ¡el": 3947,
      "Ġskryl": 3948,
      "Ġzoru": 3949,
      "Ġjsouc": 3950,
      "Ġzvla": 3951,
      "Ġzrakem": 3952,
      "ĠÄįÃ¡r": 3953,
      "ĠctÄĽ": 3954,
      "Ġzes": 3955,
      "Ġsici": 3956,
      "Ġstary": 3957,
      "Ġvena": 3958,
      "Ġradi": 3959,
      "ĠvnÄĽj": 3960,
      "Ġsvuj": 3961,
      "Ġpouti": 3962,
      "Ġvnik": 3963,
      "stÃŃ": 3964,
      "Ġjine": 3965,
      "Ġstani": 3966,
      "ĠktÃ©": 3967,
      "ĠkcÃŃ": 3968,
      "Ġniva": 3969,
      "ĠboÅ¾e": 3970,
      "Ġjejich": 3971,
      "ĠsÅĪ": 3972,
      "ĠÄįera": 3973,
      "Ġvzpou": 3974,
      "sic": 3975,
      "Ġvsluch": 3976,
      "Ġrody": 3977,
      "ĠÅ¾ili": 3978,
      "ĠvÄĽtÅ¡i": 3979,
      "Ġvana": 3980,
      "Ġpoji": 3981,
      "Ġplyne": 3982,
      "ĠnÄĽji": 3983,
      "ĠloÅ¾": 3984,
      "ĠstÅ¯m": 3985,
      "Ġen": 3986,
      "nic": 3987,
      "ĠsmÄĽje": 3988,
      "Ġbre": 3989,
      "Ġlak": 3990,
      "Ġvyp": 3991,
      "ĠsnÄĽm": 3992,
      "ĠjlÃŃ": 3993,
      "Ġzad": 3994,
      "Ġkrale": 3995,
      "ĠniÅ¡": 3996,
      "ĠrouÅ¡": 3997,
      "Å¡en": 3998,
      "Ġsama": 3999,
      "Ġkuje": 4000,
      "Ġsvira": 4001,
      "ĠshlÃŃ": 4002,
      "ĠdeÅĪ": 4003,
      "ĠstraÅ¾": 4004,
      "ĠrÅ¯m": 4005,
      "ĠchtÄĽla": 4006,
      "Ġzvuku": 4007,
      "Ġzcela": 4008,
      "is": 4009,
      "Ġdavu": 4010,
      "Ġticha": 4011,
      "Ġvoni": 4012,
      "ĠÅĪÅ¯": 4013,
      "Ġvzka": 4014,
      "Ġzpla": 4015,
      "Ġnova": 4016,
      "Ġkane": 4017,
      "Ġkna": 4018,
      "Ġmohu": 4019,
      "ĠlÃŃt": 4020,
      "ĠtouÅ¾": 4021,
      "Ġmenu": 4022,
      "Ġruka": 4023,
      "Ġrady": 4024,
      "Ġvzhled": 4025,
      "ĠvaÄį": 4026,
      "Ġrude": 4027,
      "Ġkamen": 4028,
      "ĠsprÃ¡v": 4029,
      "ĠkÄįi": 4030,
      "Ġvon": 4031,
      "Ġmych": 4032,
      "ĠÄįan": 4033,
      "ĠnÄĽla": 4034,
      "Ġveny": 4035,
      "ĠvÄĽÅ¾i": 4036,
      "Ġtvuj": 4037,
      "Ġdili": 4038,
      "Ġpiti": 4039,
      "Ġmraky": 4040,
      "Ġvlny": 4041,
      "ĠksvÄĽ": 4042,
      "Ġmha": 4043,
      "Ġvoli": 4044,
      "Ġcer": 4045,
      "Ġih": 4046,
      "ĠzahÅĻ": 4047,
      "ĠobÄĽ": 4048,
      "ĠstÃ½s": 4049,
      "Ġvodu": 4050,
      "Ġcil": 4051,
      "Ġcvi": 4052,
      "ĠlaÅ¡": 4053,
      "Ġsami": 4054,
      "Ġvsmut": 4055,
      "tan": 4056,
      "sko": 4057,
      "ĠAAXBBX": 4058,
      "Ġdoma": 4059,
      "Ġvkle": 4060,
      "Ġhrobu": 4061,
      "Ġhody": 4062,
      "ĠveÄį": 4063,
      "Ġtles": 4064,
      "Ġstly": 4065,
      "Ġuc": 4066,
      "Ġhrady": 4067,
      "ĠÄįeÅ¡": 4068,
      "Ġjicy": 4069,
      "ĠruÅ¾i": 4070,
      "ĠdaÅĻi": 4071,
      "Ġlesa": 4072,
      "ĠrÃ¡Å¾": 4073,
      "Ġdinu": 4074,
      "stal": 4075,
      "Ġstroji": 4076,
      "Ġptaci": 4077,
      "pad": 4078,
      "ĠstvÃ©": 4079,
      "Ġkovi": 4080,
      "Ġdalo": 4081,
      "ĠÄįasem": 4082,
      "ros": 4083,
      "ĠmÄĽti": 4084,
      "ĠhlavÄĽ": 4085,
      "ĠzvÅ¡e": 4086,
      "ĠtÃ½Å¾": 4087,
      "Ġnevi": 4088,
      "Ġfou": 4089,
      "Ġzdy": 4090,
      "Ġstali": 4091,
      "ĠvhrobÄĽ": 4092,
      "chem": 4093,
      "ABX": 4094,
      "Ġcene": 4095,
      "Ġnosi": 4096,
      "Ġpanu": 4097,
      "Ġet": 4098,
      "Ġzuje": 4099,
      "ĠvztÃ¡": 4100,
      "Ġdri": 4101,
      "Ġjemu": 4102,
      "Ġboun": 4103,
      "ĠsÃ¡t": 4104,
      "Ġlani": 4105,
      "Ġzlati": 4106,
      "Ġbyly": 4107,
      "Ġmiva": 4108,
      "Ġvir": 4109,
      "Ġvsmr": 4110,
      "Ġlesu": 4111,
      "ĠsÅ¾e": 4112,
      "Ġnuly": 4113,
      "ĠpiÅ¡": 4114,
      "ĠbÅĻehu": 4115,
      "Ġpluh": 4116,
      "Ġsji": 4117,
      "Ġhodi": 4118,
      "Ġbili": 4119,
      "nit": 4120,
      "ĠtÅĻeba": 4121,
      "ĠÅ¥o": 4122,
      "Ġdoba": 4123,
      "ĠtvoÅĻi": 4124,
      "Ġmis": 4125,
      "Ġsledy": 4126,
      "ĠdeÅ¾": 4127,
      "Ġsvata": 4128,
      "ĠkvÄĽtem": 4129,
      "ĠhraÄį": 4130,
      "Ġpso": 4131,
      "ĠzvrÃ¡": 4132,
      "ĠpÅĻil": 4133,
      "ĠstrÃ½ch": 4134,
      "Ġchleb": 4135,
      "Ġsie": 4136,
      "ĠtÅĻesk": 4137,
      "ĠzkvÄĽ": 4138,
      "ĠkÅĻidla": 4139,
      "ĠvÄĽdi": 4140,
      "ĠrvÃ¡": 4141,
      "Ġblaha": 4142,
      "Ġsrov": 4143,
      "tla": 4144,
      "ĠkÅĻiÅ¡": 4145,
      "Ġshni": 4146,
      "Ġbaj": 4147,
      "ĠsnÃ¡ch": 4148,
      "ĠstÃ¡ch": 4149,
      "Ġdep": 4150,
      "zku": 4151,
      "ĠvpouÅ¡": 4152,
      "ĠXABBAX": 4153,
      "Ġcvr": 4154,
      "ĠpeÄįi": 4155,
      "ĠjitÅĻ": 4156,
      "ĠruÅ¡i": 4157,
      "Ġvmla": 4158,
      "Ġssa": 4159,
      "ĠrtÃŃ": 4160,
      "ĠdiÅ¡": 4161,
      "Ġtrati": 4162,
      "Ġoko": 4163,
      "ĠzaÅ¡": 4164,
      "mÄĽl": 4165,
      "Ġkrvi": 4166,
      "Ġzkra": 4167,
      "ĠznÃŃÅ¾": 4168,
      "Ġvbez": 4169,
      "Ġbech": 4170,
      "ĠÄįiÅĪ": 4171,
      "Ġnohou": 4172,
      "Ġstara": 4173,
      "ĠktÄĽ": 4174,
      "ĠnÄĽna": 4175,
      "ĠnÃ¡v": 4176,
      "Ġvzta": 4177,
      "ĠtÄĽÅ¡": 4178,
      "Ġcesta": 4179,
      "Ġtim": 4180,
      "Ġpsi": 4181,
      "Ġseda": 4182,
      "Ġbav": 4183,
      "ĠznÃ¡t": 4184,
      "ĠmÄĽÅ¥": 4185,
      "ĠvÄĽdÄĽl": 4186,
      "kat": 4187,
      "ĠsuÄı": 4188,
      "ĠvtÄĽÅ¾": 4189,
      "bo": 4190,
      "Ġdole": 4191,
      "ĠÅ¡era": 4192,
      "ĠÄįÃŃst": 4193,
      "Ġvoz": 4194,
      "Ġkrokem": 4195,
      "ĠÅ¾ij": 4196,
      "Ġjasne": 4197,
      "ĠvtvÃ©m": 4198,
      "Ġbaji": 4199,
      "ĠkmÄĽ": 4200,
      "Ġvrouci": 4201,
      "Ġrazem": 4202,
      "Ġlym": 4203,
      "ĠtiÅ¡i": 4204,
      "Ġryk": 4205,
      "Ġkladu": 4206,
      "ĠbrÃ½ch": 4207,
      "Ġchan": 4208,
      "ĠÄįase": 4209,
      "ĠhlÃ½ch": 4210,
      "ĠkvÅ¯": 4211,
      "ĠnÃ¡t": 4212,
      "ĠbouÅĻi": 4213,
      "Ġmenem": 4214,
      "Ġzbyt": 4215,
      "ĠpÅĻim": 4216,
      "ĠhlÃ¡s": 4217,
      "ĠoÅ¡": 4218,
      "Ġduje": 4219,
      "ĠkouÅĻ": 4220,
      "Äįen": 4221,
      "Ġvlek": 4222,
      "Ġmdle": 4223,
      "ĠvklÃŃn": 4224,
      "Ġmru": 4225,
      "ĠÅ¾va": 4226,
      "ĠkaÅ¡": 4227,
      "ĠtÅĻel": 4228,
      "Ġsop": 4229,
      "ĠnoÅĻi": 4230,
      "ĠtÃŃk": 4231,
      "Ġplamen": 4232,
      "Ġkeho": 4233,
      "ĠdnÃ½ch": 4234,
      "Ġkm": 4235,
      "Ġser": 4236,
      "vej": 4237,
      "Ġskeho": 4238,
      "Ġvili": 4239,
      "Ġvtr": 4240,
      "Ġvble": 4241,
      "ĠshÃ½": 4242,
      "vÃ½": 4243,
      "Ġhmy": 4244,
      "Ġvoh": 4245,
      "Ġstira": 4246,
      "ĠpÄĽji": 4247,
      "ĠvspÄĽ": 4248,
      "Ġkrasu": 4249,
      "ĠzbÃŃ": 4250,
      "ĠvÅĻes": 4251,
      "Ġnema": 4252,
      "Ġroste": 4253,
      "ĠÃºc": 4254,
      "ĠnÃŃmÅ¾": 4255,
      "Ġsnim": 4256,
      "Ġhoni": 4257,
      "ĠkdÃŃ": 4258,
      "Ġvraz": 4259,
      "Ġskok": 4260,
      "ĠtmÃ¡ch": 4261,
      "Ġchude": 4262,
      "ĠvmÃ¡": 4263,
      "ĠrÃ¡n": 4264,
      "Ġduchu": 4265,
      "Ġdlil": 4266,
      "Ġktomu": 4267,
      "aku": 4268,
      "zka": 4269,
      "Ġzrad": 4270,
      "Ġzhoub": 4271,
      "Ġdba": 4272,
      "Ġvos": 4273,
      "Ġklidu": 4274,
      "Ġnai": 4275,
      "kym": 4276,
      "ĠdlanÄĽ": 4277,
      "ĠpÃŃr": 4278,
      "Ġmnoho": 4279,
      "Ġrvou": 4280,
      "ĠdÃ¡ÅĻ": 4281,
      "Ġplny": 4282,
      "Ġkslun": 4283,
      "ĠÄįiva": 4284,
      "ĠzkvÃ©": 4285,
      "ĠtuÄį": 4286,
      "Ġvpar": 4287,
      "Ġvjiz": 4288,
      "Ġvnej": 4289,
      "ĠÅĻeny": 4290,
      "ĠstrÃ½m": 4291,
      "ĠvzdÄĽ": 4292,
      "ĠÅ¡ÃŃj": 4293,
      "ĠhÅĻmo": 4294,
      "ĠsluÅ¡i": 4295,
      "Ġasi": 4296,
      "za": 4297,
      "Ġnnosti": 4298,
      "Ġrot": 4299,
      "Ġvlak": 4300,
      "ĠvtÃŃ": 4301,
      "Ġzlatem": 4302,
      "Ġvlese": 4303,
      "Ġtho": 4304,
      "Ġmatku": 4305,
      "ĠdlÃ¡k": 4306,
      "Ġstisk": 4307,
      "ĠleÅ¡": 4308,
      "Ġzdlou": 4309,
      "Ġhazi": 4310,
      "ĠvtmÃ¡ch": 4311,
      "ĠÄıte": 4312,
      "ĠbliÅ¾e": 4313,
      "Ġzach": 4314,
      "Ġnohy": 4315,
      "Ġtrub": 4316,
      "ĠshÅ¯": 4317,
      "Ġkvla": 4318,
      "Ġnnu": 4319,
      "Ġlon": 4320,
      "Ġrab": 4321,
      "Ġstre": 4322,
      "Ġtluk": 4323,
      "Ġjevi": 4324,
      "ĠvyÅ¡i": 4325,
      "Ġvous": 4326,
      "Ġnebi": 4327,
      "Å¾el": 4328,
      "ĠzÃŃÅ¡": 4329,
      "Ġron": 4330,
      "ĠnÄĽt": 4331,
      "Ġvsu": 4332,
      "Ġchodu": 4333,
      "ĠchuÅ¥": 4334,
      "ĠÅ¡ad": 4335,
      "Ġkovy": 4336,
      "ĠtÄĽt": 4337,
      "Ġvsko": 4338,
      "ĠvznÄĽt": 4339,
      "ĠtÅĻit": 4340,
      "Ġlau": 4341,
      "Ġduj": 4342,
      "ĠmÄĽÅĻ": 4343,
      "ĠlÃ¡c": 4344,
      "Ġdenni": 4345,
      "rech": 4346,
      "ĠÅ¡eny": 4347,
      "ĠzdvÃŃ": 4348,
      "ĠÄįat": 4349,
      "ĠklÃ½ch": 4350,
      "Ġrodi": 4351,
      "ĠvzÃ½": 4352,
      "ĠtÃ³n": 4353,
      "Ġhvozd": 4354,
      "Ġlety": 4355,
      "Ġdomi": 4356,
      "ĠfrÃ¡": 4357,
      "Ġhromu": 4358,
      "ĠdÃ©Äį": 4359,
      "Ġvstava": 4360,
      "ĠÄįeÅ¾": 4361,
      "ĠpÅĻis": 4362,
      "Ġdeb": 4363,
      "Ġvate": 4364,
      "Ġtmu": 4365,
      "ĠpÅĻijÄı": 4366,
      "Ġpust": 4367,
      "ĠslÃŃÅ¡": 4368,
      "Ġtvych": 4369,
      "Ġsc": 4370,
      "Ġplam": 4371,
      "Ġklesa": 4372,
      "ĠstkvÃŃ": 4373,
      "Ġtesk": 4374,
      "ĠÅ¡ena": 4375,
      "ĠvslÃ¡": 4376,
      "ĠsnÄĽti": 4377,
      "Ġvc": 4378,
      "ĠsÅĪa": 4379,
      "Ġkvr": 4380,
      "Ġkvap": 4381,
      "Ġkaly": 4382,
      "ĠprÃ½Å¡": 4383,
      "pat": 4384,
      "Ġroni": 4385,
      "Ġsmat": 4386,
      "Ġsyna": 4387,
      "ĠhvÄĽzdy": 4388,
      "ĠmlÃ½n": 4389,
      "Ġmhou": 4390,
      "ol": 4391,
      "ĠchvÄĽt": 4392,
      "ĠpÅĻani": 4393,
      "ĠkÃ©s": 4394,
      "Ġkod": 4395,
      "Ġjsy": 4396,
      "ĠÄįap": 4397,
      "tal": 4398,
      "ĠvÅ¡tÄĽ": 4399,
      "ĠÅĻiÅ¡": 4400,
      "Å¾ik": 4401,
      "Ġfer": 4402,
      "ĠvaÅ¡": 4403,
      "Ġlout": 4404,
      "ĠprÃ¡v": 4405,
      "Ġvuni": 4406,
      "ĠvÅ¾Ã¡": 4407,
      "Ġdruhy": 4408,
      "ĠknÃŃÅ¾": 4409,
      "ĠstranÄĽ": 4410,
      "ĠvhruÄı": 4411,
      "Ġsnami": 4412,
      "Ġnivy": 4413,
      "ĠjÃŃz": 4414,
      "Ġstolu": 4415,
      "Ġflo": 4416,
      "ĠvlaÅ¾": 4417,
      "ĠpouÅ¡ti": 4418,
      "Ġzpival": 4419,
      "Ġtha": 4420,
      "neÅ¡": 4421,
      "Ġzahy": 4422,
      "ĠzpÅĻÃŃ": 4423,
      "Ġstele": 4424,
      "ĠstmÃŃ": 4425,
      "Ġksp": 4426,
      "ĠzÅĻÃŃd": 4427,
      "ĠvmlÃ¡": 4428,
      "ĠhlÃ½m": 4429,
      "rach": 4430,
      "nÄĽn": 4431,
      "Ġvmou": 4432,
      "Ġzvad": 4433,
      "Ġvlou": 4434,
      "ĠkaÅĻ": 4435,
      "ĠmÄĽle": 4436,
      "ĠpiÄį": 4437,
      "ĠshÃ¡": 4438,
      "Ġnaji": 4439,
      "Ġzvr": 4440,
      "ĠkaÅ¾e": 4441,
      "Ġtoho": 4442,
      "ĠnÃ¡k": 4443,
      "Ġbiny": 4444,
      "ĠdrÅ¾": 4445,
      "Ġhel": 4446,
      "ĠslÃ¡s": 4447,
      "ĠknÄĽmu": 4448,
      "Ġlovat": 4449,
      "Ġdame": 4450,
      "ĠÅĻÃŃd": 4451,
      "ĠslÃ¡b": 4452,
      "ĠdÅ¯v": 4453,
      "Ġcle": 4454,
      "Ġletu": 4455,
      "Ġzez": 4456,
      "Ġtuje": 4457,
      "Ġgli": 4458,
      "ĠdlaÅ¾": 4459,
      "ĠÅ¾ada": 4460,
      "Ġhochu": 4461,
      "ĠtaÅĻi": 4462,
      "ĠtÃ¡Å¡": 4463,
      "Ġdral": 4464,
      "Ġprve": 4465,
      "ĠÅĻiÄį": 4466,
      "ĠslavÄĽ": 4467,
      "Ġhraji": 4468,
      "ram": 4469,
      "Ġroh": 4470,
      "ĠvÄĽci": 4471,
      "vÄĽk": 4472,
      "Ġdami": 4473,
      "dim": 4474,
      "Ġkroku": 4475,
      "ĠspÄĽje": 4476,
      "ĠÅ¡ka": 4477,
      "ĠÄįast": 4478,
      "Ġpus": 4479,
      "ĠbÃ¡Å¡": 4480,
      "ĠpisnÄĽ": 4481,
      "ĠÅ¡ene": 4482,
      "ĠkprÃ¡": 4483,
      "ĠnnÃŃm": 4484,
      "Ġnus": 4485,
      "Ġsvaz": 4486,
      "Ġjun": 4487,
      "Ġchleba": 4488,
      "Ġpri": 4489,
      "ĠsmÃŃr": 4490,
      "ĠpÄĽn": 4491,
      "Ġslovo": 4492,
      "Ġrys": 4493,
      "Ġruky": 4494,
      "Ġvplen": 4495,
      "Ġrie": 4496,
      "Ġpluk": 4497,
      "Ġvkout": 4498,
      "Ġram": 4499,
      "ĠtemnÄĽ": 4500,
      "Ġzlob": 4501,
      "kol": 4502,
      "lal": 4503,
      "Ġzkro": 4504,
      "tit": 4505,
      "Ġvnes": 4506,
      "ĠvkvÄĽt": 4507,
      "Ġdruhu": 4508,
      "zil": 4509,
      "ĠtÄĽr": 4510,
      "ĠvsnÃ¡": 4511,
      "Ġmlade": 4512,
      "Ġvzlyk": 4513,
      "Ġbohy": 4514,
      "Ġjara": 4515,
      "ĠtÃ¡l": 4516,
      "ĠÅ¾iÄį": 4517,
      "Ġlita": 4518,
      "ĠÅ¡eÅĻi": 4519,
      "ĠÄįista": 4520,
      "zda": 4521,
      "Ġkvy": 4522,
      "Ġkava": 4523,
      "Ġluji": 4524,
      "Ġtik": 4525,
      "ĠvsnÃ¡ch": 4526,
      "Ġnava": 4527,
      "Ġnimi": 4528,
      "ĠÄįiÄį": 4529,
      "Ġkvete": 4530,
      "Ġroji": 4531,
      "ĠbÄĽda": 4532,
      "Ġlisti": 4533,
      "ĠdÄĽle": 4534,
      "ĠzÃ¡Å¡Å¥": 4535,
      "ĠpatÅĻi": 4536,
      "Ġviti": 4537,
      "Ġrep": 4538,
      "ĠksmÃŃ": 4539,
      "Ġsj": 4540,
      "Ġmale": 4541,
      "Ġdul": 4542,
      "ĠÅ¾ert": 4543,
      "ĠjistÄĽ": 4544,
      "ĠbÅĻit": 4545,
      "Ġshas": 4546,
      "Ġkoni": 4547,
      "Ġnaly": 4548,
      "Ġdrah": 4549,
      "ĠztmÄĽ": 4550,
      "Å¾a": 4551,
      "Ġdik": 4552,
      "Ġleje": 4553,
      "Ġkova": 4554,
      "ĠsmÃ¡t": 4555,
      "ĠvzÃŃt": 4556,
      "vod": 4557,
      "ĠkonÄĽ": 4558,
      "Ġsina": 4559,
      "Ġjasa": 4560,
      "Ġdechu": 4561,
      "ĠptÃ¡m": 4562,
      "Ġchoun": 4563,
      "Ġoku": 4564,
      "Ġthu": 4565,
      "Ġmlh": 4566,
      "ĠkhvÄĽz": 4567,
      "ĠÃ¡n": 4568,
      "ĠstÅĻa": 4569,
      "Ġnar": 4570,
      "Ġmic": 4571,
      "Ġnin": 4572,
      "Ġtily": 4573,
      "Ġpasti": 4574,
      "Ġfon": 4575,
      "ĠnÃ©Äį": 4576,
      "Ġmer": 4577,
      "Ġvlasu": 4578,
      "Ġric": 4579,
      "ĠpÅĻ": 4580,
      "Ġvrab": 4581,
      "Ġstranou": 4582,
      "Ġtrochu": 4583,
      "Ġducha": 4584,
      "Ġost": 4585,
      "ĠmÃŃÅĪ": 4586,
      "Ġhroby": 4587,
      "ĠdÅĻiv": 4588,
      "ĠÃ©": 4589,
      "Ġjeni": 4590,
      "Ġtaje": 4591,
      "ĠsvÄĽti": 4592,
      "ĠvprÃ¡z": 4593,
      "ĠspÅĻÃŃ": 4594,
      "ĠsvÄĽty": 4595,
      "ĠrÅ¯Å¾": 4596,
      "ĠtÄĽÅ¡i": 4597,
      "ĠnÅ¯Å¾": 4598,
      "ĠvyÅĻ": 4599,
      "Ġvsnech": 4600,
      "ĠzÄį": 4601,
      "Ġmej": 4602,
      "ĠvÃ½z": 4603,
      "Ġam": 4604,
      "Ġbij": 4605,
      "Ġgen": 4606,
      "ĠÅĻej": 4607,
      "ĠchÃ¡z": 4608,
      "Ġstrov": 4609,
      "Ġznam": 4610,
      "ĠpovÄĽ": 4611,
      "ĠÄįeji": 4612,
      "ĠÅ¾in": 4613,
      "Ġskala": 4614,
      "Ġtoku": 4615,
      "Ġhav": 4616,
      "Ġvpoli": 4617,
      "ĠbrÃ½m": 4618,
      "Ġzrn": 4619,
      "ĠdÄĽcko": 4620,
      "Ġjra": 4621,
      "Ġpolem": 4622,
      "ĠÄįiv": 4623,
      "ĠpÅĻece": 4624,
      "Ġchoval": 4625,
      "ĠÄįlovÄĽk": 4626,
      "ĠstaÅĻi": 4627,
      "ĠABC": 4628,
      "Ġchysta": 4629,
      "Ġdrem": 4630,
      "Ġvprav": 4631,
      "Ġzumi": 4632,
      "sek": 4633,
      "Ġkrej": 4634,
      "Ġdvoj": 4635,
      "ĠÅ¾eno": 4636,
      "Ġpach": 4637,
      "ĠloÅ¾i": 4638,
      "ĠlosÅ¥": 4639,
      "Ġuj": 4640,
      "Ġklade": 4641,
      "Ġmatka": 4642,
      "Ġletem": 4643,
      "Ġzhla": 4644,
      "ĠÅ¡kol": 4645,
      "ĠvklÃ¡": 4646,
      "ĠzÅĻej": 4647,
      "Ġzdviha": 4648,
      "Ġbouk": 4649,
      "ĠstÅĻech": 4650,
      "Ġtici": 4651,
      "Ġstop": 4652,
      "ĠsrÃ¡z": 4653,
      "Ġjeden": 4654,
      "Ġveli": 4655,
      "ĠnÃ¡l": 4656,
      "nat": 4657,
      "ĠvsvÃ½ch": 4658,
      "Ġzrana": 4659,
      "ĠzkÅĻi": 4660,
      "Ġzs": 4661,
      "Ġmund": 4662,
      "ĠrÃ¡Å¡": 4663,
      "ĠÅ¡ili": 4664,
      "Ġbah": 4665,
      "Ġtouha": 4666,
      "rej": 4667,
      "ĠÅ¡lÃ½": 4668,
      "ĠnÃ¡Äį": 4669,
      "Ġrag": 4670,
      "ĠnÄĽmi": 4671,
      "ĠspÄĽj": 4672,
      "ĠvhouÅ¡": 4673,
      "il": 4674,
      "Ġnis": 4675,
      "ĠchÃ¡Å¡": 4676,
      "ĠzÅ¡e": 4677,
      "ĠnÄĽne": 4678,
      "Ġkrasa": 4679,
      "ĠzlÃ¡s": 4680,
      "Ġvnuk": 4681,
      "ĠkvÃ©st": 4682,
      "Ġzme": 4683,
      "ĠkÃ¡t": 4684,
      "ĠpÅĻiÅ¡el": 4685,
      "Ġchopi": 4686,
      "ĠvÅ¡ecky": 4687,
      "ĠvkrÃ¡t": 4688,
      "ĠdeÅĻ": 4689,
      "ĠbÃŃm": 4690,
      "Ġkrasne": 4691,
      "Ġsroz": 4692,
      "Ġklinu": 4693,
      "ĠdlÃŃm": 4694,
      "Ġvily": 4695,
      "ĠpÅĻiÅ¡": 4696,
      "Ġleho": 4697,
      "ĠlÃ¡ÅĻ": 4698,
      "ĠtÅĻeti": 4699,
      "Ġjemstvi": 4700,
      "Ġlkal": 4701,
      "Ġzdalo": 4702,
      "dra": 4703,
      "stva": 4704,
      "ĠkÃ¡ÅĻ": 4705,
      "Ġhrat": 4706,
      "Ġjev": 4707,
      "ĠÅĻeky": 4708,
      "ĠrÃ¡ÅĻ": 4709,
      "ĠzÅĻiti": 4710,
      "Ġbavi": 4711,
      "Ġdout": 4712,
      "ran": 4713,
      "Ġtrysk": 4714,
      "Ġshor": 4715,
      "Ġsiti": 4716,
      "Ġkati": 4717,
      "ĠlÃ¡k": 4718,
      "Ġvtva": 4719,
      "Ġstuj": 4720,
      "ĠtkvÃŃ": 4721,
      "Ġdluh": 4722,
      "ĠkynÄĽ": 4723,
      "ĠvÅ¾e": 4724,
      "ĠktobÄĽ": 4725,
      "ĠmÄĽvem": 4726,
      "ĠvÅ¡ady": 4727,
      "Ġctnosti": 4728,
      "ĠmÅ¡i": 4729,
      "Ġlese": 4730,
      "ĠkoÅĻi": 4731,
      "Ġlenou": 4732,
      "Ġprst": 4733,
      "Ġretu": 4734,
      "ĠhradÄĽ": 4735,
      "Ġchrem": 4736,
      "Ġjemnou": 4737,
      "Ġzvuky": 4738,
      "ĠstÃ½ÅĻ": 4739,
      "Ġvoku": 4740,
      "ĠtuÅ¥": 4741,
      "Ġzbou": 4742,
      "Ġkhla": 4743,
      "Ġsebou": 4744,
      "Ġzleh": 4745,
      "Ġslavi": 4746,
      "ĠÄıar": 4747,
      "Ġrych": 4748,
      "Ġvkla": 4749,
      "bit": 4750,
      "Ġvhor": 4751,
      "Ġsvymi": 4752,
      "ĠvzplÃ¡l": 4753,
      "Å¡ÃŃ": 4754,
      "Ġmaj": 4755,
      "Ġsedm": 4756,
      "Ġcher": 4757,
      "Ġhoru": 4758,
      "ĠmÄĽlo": 4759,
      "ĠzoÅĻe": 4760,
      "ĠnitÅĻ": 4761,
      "Ġvinou": 4762,
      "ĠÅ¾ivy": 4763,
      "vor": 4764,
      "ĠkÅĻep": 4765,
      "ĠchtÃŃt": 4766,
      "Ġliky": 4767,
      "Ġumi": 4768,
      "Ġslet": 4769,
      "Ġnily": 4770,
      "ĠÅ¥te": 4771,
      "Ġvoru": 4772,
      "ĠrobÄĽ": 4773,
      "ĠpÅĻiÅ¡ti": 4774,
      "Ġranu": 4775,
      "Ġonu": 4776,
      "ĠvÄĽje": 4777,
      "Ġprudce": 4778,
      "Ġskem": 4779,
      "ĠmÃ¡k": 4780,
      "ĠÅĻady": 4781,
      "Ġvchlad": 4782,
      "ĠÄįÃ¡st": 4783,
      "ĠnÄĽny": 4784,
      "Ġtar": 4785,
      "ĠvhnÄĽ": 4786,
      "Ġplen": 4787,
      "Ġstlo": 4788,
      "ĠzvÅ¯": 4789,
      "Ġat": 4790,
      "Ġhledu": 4791,
      "Ġdinou": 4792,
      "ĠlÃ©t": 4793,
      "ĠzblÃŃz": 4794,
      "Ġvdru": 4795,
      "Ġzik": 4796,
      "Ġvlk": 4797,
      "ĠlÅ¾ÃŃ": 4798,
      "Ġuh": 4799,
      "ĠtlaÄįi": 4800,
      "Ġlika": 4801,
      "ĠvaÅ¥": 4802,
      "Ġbolem": 4803,
      "Ġvsla": 4804,
      "Ġpije": 4805,
      "Ġvlad": 4806,
      "Ġspod": 4807,
      "ĠvztÃ½": 4808,
      "ĠÅ¡ev": 4809,
      "ĠÄįena": 4810,
      "Ġsvitu": 4811,
      "Ġzmira": 4812,
      "Ġdlouhy": 4813,
      "Ġschva": 4814,
      "ĠdÃ³": 4815,
      "Ġvtis": 4816,
      "Ġchrani": 4817,
      "Ġsdi": 4818,
      "ĠÅ¡ÅĪ": 4819,
      "Ġdove": 4820,
      "jic": 4821,
      "ĠdveÅĻi": 4822,
      "ĠtkvÄĽ": 4823,
      "ĠspouÅ¡": 4824,
      "Ġraci": 4825,
      "Ġryzi": 4826,
      "Ġhral": 4827,
      "ĠtÅĻen": 4828,
      "ĠchvÄĽly": 4829,
      "Ġ22": 4830,
      "Ġkch": 4831,
      "ĠkÃ¡s": 4832,
      "Ġkob": 4833,
      "Ġnilo": 4834,
      "ĠvÄĽsti": 4835,
      "ĠvÃŃd": 4836,
      "Ġprot": 4837,
      "Ġplul": 4838,
      "ĠtÄĽni": 4839,
      "ĠÄįili": 4840,
      "Ġvratil": 4841,
      "Ġjista": 4842,
      "Ġzvra": 4843,
      "Ġsvemu": 4844,
      "Ġmine": 4845,
      "ĠhrobÄĽ": 4846,
      "Ġvkni": 4847,
      "Ġlide": 4848,
      "ĠhuÄįi": 4849,
      "Ġpic": 4850,
      "ĠkÃ½v": 4851,
      "ĠchvÄĽlo": 4852,
      "Ġmodli": 4853,
      "Ġvznik": 4854,
      "ĠÅ¡tit": 4855,
      "ĠzlÃ½m": 4856,
      "Ġliny": 4857,
      "Ġcile": 4858,
      "ĠzmÃ©": 4859,
      "ĠdliÄį": 4860,
      "ĠhÅĻÃŃÄį": 4861,
      "ĠdaÅĻ": 4862,
      "ĠplemÄĽ": 4863,
      "Ġvodi": 4864,
      "ĠboÅĻi": 4865,
      "Ġvslo": 4866,
      "Ġstromy": 4867,
      "ĠklÃŃÄį": 4868,
      "Ġbudou": 4869,
      "tej": 4870,
      "ĠvÃ©st": 4871,
      "Ġsrdci": 4872,
      "Ġvzduchu": 4873,
      "Ġhov": 4874,
      "ĠÅ¾enu": 4875,
      "Ġdily": 4876,
      "Ġvtru": 4877,
      "ĠhledÄĽl": 4878,
      "ĠzpÄĽvy": 4879,
      "Ġdlesk": 4880,
      "ĠÅ¡leni": 4881,
      "Ġpsy": 4882,
      "Ġhos": 4883,
      "Ġmaje": 4884,
      "Ġpiv": 4885,
      "ĠvÅĻele": 4886,
      "Ġsliv": 4887,
      "ĠÅĻve": 4888,
      "Ġsok": 4889,
      "ĠvnoÄį": 4890,
      "ĠmdlÃ¡": 4891,
      "Ġkrista": 4892,
      "Ġtisni": 4893,
      "Ġdrti": 4894,
      "ĠradÅ¡": 4895,
      "Ġlie": 4896,
      "Ġkyn": 4897,
      "ĠsÅ¾i": 4898,
      "Ġshu": 4899,
      "Ġzdej": 4900,
      "Ġknam": 4901,
      "Ġnie": 4902,
      "Ġviv": 4903,
      "Ġsilu": 4904,
      "Ġsvita": 4905,
      "Ġsbra": 4906,
      "Ġstena": 4907,
      "ĠÅ¡tvÃ¡": 4908,
      "ĠvkÅĻe": 4909,
      "ĠsÅĻÃŃ": 4910,
      "Ġkrate": 4911,
      "Ġksou": 4912,
      "Ġhaje": 4913,
      "Ġvsled": 4914,
      "ĠvdÅ¯": 4915,
      "Ġblaku": 4916,
      "ĠbrÃ¡t": 4917,
      "ĠvjÃŃ": 4918,
      "Ġdak": 4919,
      "ĠvyÄį": 4920,
      "Ġsvod": 4921,
      "Ġknebi": 4922,
      "vÃ½m": 4923,
      "Ġrosy": 4924,
      "Ġprahu": 4925,
      "Ġpravil": 4926,
      "ĠsteÄį": 4927,
      "Ġtrok": 4928,
      "Ġvime": 4929,
      "Ġsile": 4930,
      "Ġleji": 4931,
      "Ġnili": 4932,
      "Ġpadla": 4933,
      "ĠmstÃŃ": 4934,
      "ĠÄįnÄĽ": 4935,
      "ĠmÃ¡Å¾": 4936,
      "ĠzÃ¡k": 4937,
      "Ġbyls": 4938,
      "Ġvzpi": 4939,
      "Ġpyt": 4940,
      "zeÅĪ": 4941,
      "lak": 4942,
      "Ġcech": 4943,
      "ĠvÃŃt": 4944,
      "Ġvstro": 4945,
      "ĠÅ¡kÅ¯d": 4946,
      "ĠÄįita": 4947,
      "Ġhus": 4948,
      "Ġkazal": 4949,
      "Ġzhor": 4950,
      "Ġznovu": 4951,
      "Ġvpad": 4952,
      "ĠhÃ¡Å¡": 4953,
      "dek": 4954,
      "Ġbesa": 4955,
      "Ġvanou": 4956,
      "Ġranni": 4957,
      "ĠdrÃ©m": 4958,
      "tec": 4959,
      "Ġloun": 4960,
      "ĠtÅĻpyti": 4961,
      "ĠÅ¡iÄį": 4962,
      "Å¾im": 4963,
      "Ġchladne": 4964,
      "Ġvv": 4965,
      "ĠsmÄĽly": 4966,
      "Ġkpr": 4967,
      "Ġtmavy": 4968,
      "Ġradost": 4969,
      "Ġledne": 4970,
      "ĠABB": 4971,
      "Ġzob": 4972,
      "ĠvmÃ½ch": 4973,
      "Ġzmoc": 4974,
      "Ġzmy": 4975,
      "ĠdveÅĻe": 4976,
      "Ġproste": 4977,
      "Ġglo": 4978,
      "Ġrouc": 4979,
      "ĠAAAA": 4980,
      "ĠktÄĽm": 4981,
      "ĠÄįlun": 4982,
      "lech": 4983,
      "ĠÅ¾ela": 4984,
      "ĠÄįed": 4985,
      "ĠvsmÃŃ": 4986,
      "Ġkslu": 4987,
      "ĠÄįli": 4988,
      "ĠzvÄĽsti": 4989,
      "Ġslovem": 4990,
      "ĠskraÅĪ": 4991,
      "ĠviÅĻi": 4992,
      "ĠvzpÅĻÃŃ": 4993,
      "Ġpja": 4994,
      "ĠsmeÄį": 4995,
      "Ġplout": 4996,
      "Ġmoj": 4997,
      "ĠmÄĽÅĻi": 4998,
      "Ġmes": 4999,
      "ĠbÄĽti": 5000,
      "ĠAXABBX": 5001,
      "lan": 5002,
      "Ġjinou": 5003,
      "Ġsin": 5004,
      "ĠtrÃ©": 5005,
      "ĠvnÄĽÅ¾": 5006,
      "Ġplanou": 5007,
      "Ġvdech": 5008,
      "ĠÅ¾ol": 5009,
      "Ġzticha": 5010,
      "vÅ¯j": 5011,
      "Ġtice": 5012,
      "ĠuÄį": 5013,
      "Ġstavil": 5014,
      "Ġtahne": 5015,
      "Ġmym": 5016,
      "ĠhÃ¡Äį": 5017,
      "Ġtravy": 5018,
      "ĠsmÄĽr": 5019,
      "ĠstiÄį": 5020,
      "Ġbiji": 5021,
      "Ġkroky": 5022,
      "Ġmiha": 5023,
      "Ġbrany": 5024,
      "Ġzmla": 5025,
      "del": 5026,
      "Ġbledy": 5027,
      "Ġsklen": 5028,
      "ĠbÃ½m": 5029,
      "Ġbab": 5030,
      "ĠÄįeny": 5031,
      "Ġvdlou": 5032,
      "Ġvidim": 5033,
      "ĠzÃ¡c": 5034,
      "Ġsklada": 5035,
      "ĠdvÃ¡b": 5036,
      "Å¡a": 5037,
      "Ġruchu": 5038,
      "Ġvzruch": 5039,
      "fa": 5040,
      "ĠblaÄį": 5041,
      "Ġznej": 5042,
      "ĠÅ¾ra": 5043,
      "ĠvÅĻÃŃt": 5044,
      "Ġab": 5045,
      "ĠABABBX": 5046,
      "ĠplaÅ¡i": 5047,
      "ĠÄįerv": 5048,
      "chÃ¡": 5049,
      "Ġvzna": 5050,
      "Ġstavu": 5051,
      "Ġdleni": 5052,
      "ĠhÅĻichu": 5053,
      "Ġtaly": 5054,
      "ĠverÅ¡": 5055,
      "ĠtÄĽle": 5056,
      "Ġdaj": 5057,
      "Ġrala": 5058,
      "Ġstiv": 5059,
      "Ġryl": 5060,
      "ĠpruÅ¾": 5061,
      "Ġvlok": 5062,
      "Ġvsen": 5063,
      "Ġpop": 5064,
      "ĠlÃŃÅĻ": 5065,
      "ĠsÃ¡l": 5066,
      "Ġvsti": 5067,
      "ĠzÅ¾i": 5068,
      "Ġtili": 5069,
      "Ġvaci": 5070,
      "Ġvtra": 5071,
      "Ġsvad": 5072,
      "ĠÅ¾aru": 5073,
      "Ġvprv": 5074,
      "Ġvene": 5075,
      "ÅĻu": 5076,
      "ben": 5077,
      "Ġcesty": 5078,
      "Ġvhra": 5079,
      "ĠskranÄĽ": 5080,
      "ĠlhÃ¡": 5081,
      "Ġmok": 5082,
      "Ġvska": 5083,
      "ĠÅ¡kr": 5084,
      "Ġjini": 5085,
      "ĠÅ¾ily": 5086,
      "Ġkruhu": 5087,
      "ĠspÃŃs": 5088,
      "Ġdie": 5089,
      "ĠkbÅĻe": 5090,
      "ĠzvuÄįi": 5091,
      "ĠdeÅ¡tÄĽ": 5092,
      "Ġtveho": 5093,
      "hle": 5094,
      "ĠÄįou": 5095,
      "Ġup": 5096,
      "Ġrud": 5097,
      "Ġpul": 5098,
      "ĠÄįÃŃc": 5099,
      "Ġpous": 5100,
      "Ġoba": 5101,
      "Ġruti": 5102,
      "Ġtvol": 5103,
      "Ġex": 5104,
      "Ġcuje": 5105,
      "ĠknÃ½": 5106,
      "ĠzpÄĽvu": 5107,
      "Ġvboji": 5108,
      "Ġvchu": 5109,
      "Ġlala": 5110,
      "ĠÅ¡ik": 5111,
      "Ġtram": 5112,
      "Ġznamy": 5113,
      "Ġbot": 5114,
      "Ġlove": 5115,
      "Ġbani": 5116,
      "ĠXAAXBB": 5117,
      "Ġznik": 5118,
      "Ġvazi": 5119,
      "Ġradu": 5120,
      "Ġtelem": 5121,
      "ĠlejÅ¡i": 5122,
      "Ġcouz": 5123,
      "ĠnuÅ¡": 5124,
      "Ġtake": 5125,
      "ĠrtÅ¯m": 5126,
      "Ġeh": 5127,
      "ĠdeÅ¡Å¥": 5128,
      "Ġmys": 5129,
      "Ġkdesi": 5130,
      "ĠmrÃ¡Äį": 5131,
      "ĠpovÄĽÄı": 5132,
      "ĠmuÅ¾i": 5133,
      "ĠXAAA": 5134,
      "Ġmista": 5135,
      "Ġmos": 5136,
      "Ġvmr": 5137,
      "Ġpost": 5138,
      "Ġtiny": 5139,
      "ĠtÃŃc": 5140,
      "ĠpeÅĪ": 5141,
      "ĠvpÅ¯l": 5142,
      "ĠdÅ¾b": 5143,
      "ĠtmÃ¡": 5144,
      "Ġnale": 5145,
      "ĠveÄįer": 5146,
      "ĠskoÄįi": 5147,
      "Ġhnuti": 5148,
      "Ġoct": 5149,
      "bin": 5150,
      "Ġzraje": 5151,
      "Ġhlida": 5152,
      "Ġzmlk": 5153,
      "Ġzak": 5154,
      "Ġzela": 5155,
      "Ġslab": 5156,
      "Ġzisk": 5157,
      "ĠsÃ¡ch": 5158,
      "Ġlisty": 5159,
      "ĠpsÃ¡t": 5160,
      "Ġshy": 5161,
      "Ġlame": 5162,
      "ĠpasÅ¥": 5163,
      "ĠliÄįka": 5164,
      "Ġnaiv": 5165,
      "Ġporu": 5166,
      "Ġbodu": 5167,
      "tÄĽl": 5168,
      "ĠschrÃ¡": 5169,
      "Ġcnost": 5170,
      "Ġseli": 5171,
      "Ġsdo": 5172,
      "ĠstlÃ¡": 5173,
      "Ġminam": 5174,
      "ĠtÄĽsti": 5175,
      "Ġhles": 5176,
      "ĠdÄĽsi": 5177,
      "Ġdumy": 5178,
      "ĠgÃ¡": 5179,
      "ĠdlÃ½m": 5180,
      "ĠmanÄĽ": 5181,
      "Ġhlasi": 5182,
      "Ġem": 5183,
      "Ġdaval": 5184,
      "ĠhÅĻmi": 5185,
      "Ġchov": 5186,
      "Ġdravy": 5187,
      "Ġvoda": 5188,
      "Ġger": 5189,
      "ĠbÃ½ch": 5190,
      "Ġpasu": 5191,
      "Ġsilou": 5192,
      "Ġlije": 5193,
      "ĠvoÅĻi": 5194,
      "ĠpÅĻÃŃt": 5195,
      "Ġtichu": 5196,
      "Ġcitil": 5197,
      "Ġbuz": 5198,
      "Ġim": 5199,
      "ĠÅĻiÅ¡i": 5200,
      "ĠsmÃŃm": 5201,
      "Ġstanu": 5202,
      "Ġop": 5203,
      "ĠÅĻva": 5204,
      "Ġteho": 5205,
      "ĠÄįici": 5206,
      "Ġvnady": 5207,
      "Ġvnez": 5208,
      "Ġsrp": 5209,
      "ĠÅĻÃŃk": 5210,
      "Ġzhra": 5211,
      "Ġvnoci": 5212,
      "ĠstvÅ¯": 5213,
      "Ġzci": 5214,
      "Ġzena": 5215,
      "Ġpina": 5216,
      "ĠvlÃŃc": 5217,
      "hly": 5218,
      "Ġmag": 5219,
      "tym": 5220,
      "ĠdÄĽly": 5221,
      "ĠdaÅĪ": 5222,
      "ĠpÅĻeÄį": 5223,
      "Ġstvem": 5224,
      "Ġstavy": 5225,
      "Ġchala": 5226,
      "Ġjicich": 5227,
      "Ġland": 5228,
      "ĠjlÃŃp": 5229,
      "Ġsini": 5230,
      "Ġhloubi": 5231,
      "ĠcÃ½ch": 5232,
      "ĠceÅ¡": 5233,
      "ĠvÄĽji": 5234,
      "ĠÅĻeh": 5235,
      "Ġzdvo": 5236,
      "Ġvtmu": 5237,
      "Ġlaskou": 5238,
      "Ġhes": 5239,
      "Ġzkru": 5240,
      "ĠsiÄį": 5241,
      "ĠÅĻika": 5242,
      "Ġplesa": 5243,
      "ĠÅ¡pÃŃ": 5244,
      "Ġkaci": 5245,
      "Ġbidu": 5246,
      "ĠvsÃ¡": 5247,
      "Ġhed": 5248,
      "ÅĻo": 5249,
      "Ġony": 5250,
      "ĠlÃ©k": 5251,
      "ĠpiÅ¡e": 5252,
      "ĠsvÃ¡r": 5253,
      "ĠnÄĽly": 5254,
      "ĠÄįelem": 5255,
      "ĠpÅĻen": 5256,
      "ĠbuÅ¥": 5257,
      "Äįej": 5258,
      "us": 5259,
      "ĠÅĻene": 5260,
      "Å¡ek": 5261,
      "Ġvzhle": 5262,
      "ĠÅ¡Ã¡r": 5263,
      "ĠstÅĻem": 5264,
      "ĠÅ¡ou": 5265,
      "Ġvami": 5266,
      "Ġviry": 5267,
      "Ġsluje": 5268,
      "Ġjasu": 5269,
      "ĠslÅ¯v": 5270,
      "ĠhÅĻbet": 5271,
      "ĠkdÄĽ": 5272,
      "ĠdÄĽlo": 5273,
      "ĠÄįÃŃk": 5274,
      "ĠtrÅ¯m": 5275,
      "Ġklani": 5276,
      "Ġhrej": 5277,
      "Ġdivem": 5278,
      "Ġmluvi": 5279,
      "Ġscha": 5280,
      "Ġzjed": 5281,
      "Ġvly": 5282,
      "Ġnesti": 5283,
      "ĠvÃ¡k": 5284,
      "Ġdana": 5285,
      "ĠbÄĽÅ¾": 5286,
      "Ġjina": 5287,
      "Ġtrn": 5288,
      "ĠzbranÄĽ": 5289,
      "Ġrub": 5290,
      "ĠpÄĽla": 5291,
      "Ġklene": 5292,
      "ĠÅĻadu": 5293,
      "Ġpoch": 5294,
      "Ġput": 5295,
      "Ġdrak": 5296,
      "Ġnud": 5297,
      "ĠhbitÄĽ": 5298,
      "ĠÄįisty": 5299,
      "ĠzvÄĽsÅ¥": 5300,
      "ĠbdÄĽl": 5301,
      "ĠrÅ¯st": 5302,
      "ĠdvÃ¡Å¾": 5303,
      "Ġkytu": 5304,
      "Ġzpl": 5305,
      "Ġfre": 5306,
      "ĠÅ¡Å¥Ã¡": 5307,
      "Ġschop": 5308,
      "Ġnati": 5309,
      "XAX": 5310,
      "Ġzvod": 5311,
      "Ġrii": 5312,
      "ĠspiÅ¡": 5313,
      "ĠzpÅĻe": 5314,
      "Ġsluj": 5315,
      "ĠstÃ¡n": 5316,
      "Ġnald": 5317,
      "ĠAAXXBB": 5318,
      "Ġotce": 5319,
      "Ġnechce": 5320,
      "ĠÅ¡piÄį": 5321,
      "Ġsfin": 5322,
      "ĠplaÄįi": 5323,
      "ĠbÃ¡n": 5324,
      "Ġdlen": 5325,
      "ĠbÅĻeÄį": 5326,
      "Ġvpoz": 5327,
      "Ġvzad": 5328,
      "Ġdive": 5329,
      "ĠvzchÃ¡": 5330,
      "ĠpÃ¡m": 5331,
      "Ġtouze": 5332,
      "Ġklec": 5333,
      "ĠstrÃ¡ÅĪ": 5334,
      "ĠrÅ¯v": 5335,
      "ĠsnÅ¯m": 5336,
      "Ġtina": 5337,
      "ĠsnÄĽt": 5338,
      "skym": 5339,
      "Ġkratky": 5340,
      "Ġvg": 5341,
      "Ġkvou": 5342,
      "Ġpluje": 5343,
      "Ġmali": 5344,
      "Ġlilo": 5345,
      "Ġbyv": 5346,
      "Ġust": 5347,
      "ĠrÃ¡b": 5348,
      "Ġkja": 5349,
      "Ġsnah": 5350,
      "Ġhouf": 5351,
      "ĠÅ¡aty": 5352,
      "ĠkmÃ©": 5353,
      "Ġsvra": 5354,
      "ĠdoÅ¡": 5355,
      "Ġrove": 5356,
      "Ġvanku": 5357,
      "liÅ¾i": 5358,
      "Ġbala": 5359,
      "Ġblesky": 5360,
      "Ġvzala": 5361,
      "Ġnovi": 5362,
      "Ġroda": 5363,
      "Ġvpy": 5364,
      "Ġhany": 5365,
      "Ġgar": 5366,
      "ĠzÅ¾e": 5367,
      "ĠÅ¾d": 5368,
      "ĠtÄĽk": 5369,
      "ĠtoÄį": 5370,
      "Ġhasne": 5371,
      "ĠhoÄı": 5372,
      "ĠtÄĽchu": 5373,
      "Ġkur": 5374,
      "ĠÅ¡iÅĻi": 5375,
      "ĠvÅ¡im": 5376,
      "Ġvjar": 5377,
      "ĠvsÃŃÅĪ": 5378,
      "nt": 5379,
      "Ġzbor": 5380,
      "ĠfÃ¡m": 5381,
      "Ġvzrak": 5382,
      "Ġtet": 5383,
      "Ġlodi": 5384,
      "ĠdennÄĽ": 5385,
      "Ġsniva": 5386,
      "ĠkniÅ¾e": 5387,
      "ĠvÄįÃŃ": 5388,
      "Ġseh": 5389,
      "ĠnouÅ¥": 5390,
      "Ġprazd": 5391,
      "Ġplakal": 5392,
      "Ġbloudi": 5393,
      "ĠtvÃŃch": 5394,
      "ĠÅ¾id": 5395,
      "Ġlito": 5396,
      "Ġkouz": 5397,
      "Ġstrop": 5398,
      "Ġsladce": 5399,
      "ĠviÄįka": 5400,
      "ĠÅ¾eÅ¥": 5401,
      "Ġtvem": 5402,
      "ĠpsÃŃ": 5403,
      "Äįet": 5404,
      "Ġzvony": 5405,
      "Ġstvol": 5406,
      "ĠÅ¡iji": 5407,
      "ĠplaÅ¡e": 5408,
      "ĠztvÃ½ch": 5409,
      "Ġzname": 5410,
      "ĠctnÃ©": 5411,
      "Ġwa": 5412,
      "Ġseb": 5413,
      "Ġona": 5414,
      "ĠdÄĽvy": 5415,
      "ĠhÃ¡v": 5416,
      "ĠvtvÃ½ch": 5417,
      "ĠÅ¾adne": 5418,
      "pit": 5419,
      "Ġskale": 5420,
      "Ġticho": 5421,
      "Ġsmra": 5422,
      "Ġstrachu": 5423,
      "dat": 5424,
      "Ġjmena": 5425,
      "Ġvzkaz": 5426,
      "ĠflÃ©": 5427,
      "Ġzven": 5428,
      "ĠvtÃ¡": 5429,
      "tach": 5430,
      "ĠkÅĻiÅ¾e": 5431,
      "ĠÅ¡ar": 5432,
      "ĠptaÄįe": 5433,
      "ĠsnÃ©": 5434,
      "Ġchry": 5435,
      "ĠvznÃ©": 5436,
      "Ġkrasna": 5437,
      "Ġmuka": 5438,
      "ĠbÃ¡k": 5439,
      "ĠzlÅ¯": 5440,
      "Ġjede": 5441,
      "Ġnali": 5442,
      "Ġstyd": 5443,
      "Ġzbar": 5444,
      "Ġjala": 5445,
      "ĠpÅĻival": 5446,
      "Ġpomo": 5447,
      "Ġouz": 5448,
      "ĠÅ¾hnou": 5449,
      "Ġpany": 5450,
      "ĠpÅ¯t": 5451,
      "Ġbloud": 5452,
      "ju": 5453,
      "Ġtsk": 5454,
      "Ġrysy": 5455,
      "Ġhnul": 5456,
      "ĠzmlÃ¡": 5457,
      "Ġvzpja": 5458,
      "Ġkn": 5459,
      "Ġditi": 5460,
      "Ġbrati": 5461,
      "Ġroc": 5462,
      "ĠsinÄĽ": 5463,
      "Ġmyr": 5464,
      "Ġmlat": 5465,
      "Ġtvym": 5466,
      "ĠvaÅ¡e": 5467,
      "ĠÅ¡eru": 5468,
      "Ġvsy": 5469,
      "Å¡ich": 5470,
      "Ġshled": 5471,
      "Ġchvata": 5472,
      "et": 5473,
      "Ġstiha": 5474,
      "Ġzdani": 5475,
      "Ġdvoji": 5476,
      "ĠvdlaÅĪ": 5477,
      "ĠnÃŃc": 5478,
      "Ġkanou": 5479,
      "Ġdusi": 5480,
      "Ġtvu": 5481,
      "ĠtÃŃÄį": 5482,
      "Ġbud": 5483,
      "Ġnesla": 5484,
      "ĠvidÄĽt": 5485,
      "ĠsitÄĽ": 5486,
      "Ġzkte": 5487,
      "bej": 5488,
      "ic": 5489,
      "ĠliÅ¾": 5490,
      "ĠcÃŃÅĻ": 5491,
      "Ġsala": 5492,
      "Ġvladne": 5493,
      "ĠÅĻvou": 5494,
      "ĠkrÃ©": 5495,
      "Ġchar": 5496,
      "Ġlaka": 5497,
      "Ġjemi": 5498,
      "ĠtÄĽmi": 5499,
      "ĠdÄĽk": 5500,
      "Ġvzou": 5501,
      "ĠstÄĽj": 5502,
      "ĠprÅ¡": 5503,
      "ĠbÃŃn": 5504,
      "Ġtouhou": 5505,
      "Ġ23": 5506,
      "ĠcÃ©": 5507,
      "ĠÅ¾enÄĽ": 5508,
      "Ġdii": 5509,
      "Ġchop": 5510,
      "Ġpuje": 5511,
      "Ġsladka": 5512,
      "Ġboh": 5513,
      "Ġbet": 5514,
      "Ġplni": 5515,
      "ĠvrÃ½": 5516,
      "Ġvlici": 5517,
      "Ġzvonu": 5518,
      "ĠvztÃ¡h": 5519,
      "Ġkomu": 5520,
      "Ġdola": 5521,
      "ĠtÃŃh": 5522,
      "ĠstÄĽÅ¾i": 5523,
      "Ġkmita": 5524,
      "Ġnulo": 5525,
      "ĠsÃŃÅ¥": 5526,
      "Ġplaly": 5527,
      "ĠmÅ¯r": 5528,
      "Ġlesem": 5529,
      "ĠvÅ¡udy": 5530,
      "ĠÅĻval": 5531,
      "Ġtonu": 5532,
      "Ġkdru": 5533,
      "Ġhev": 5534,
      "hal": 5535,
      "Ġdis": 5536,
      "Ġplal": 5537,
      "ĠXAABXB": 5538,
      "ĠvrÅ¡": 5539,
      "Ġstmi": 5540,
      "Ġvyk": 5541,
      "Ġzlil": 5542,
      "Ġcove": 5543,
      "Ġpira": 5544,
      "ĠvÅĻen": 5545,
      "Ġhledne": 5546,
      "ĠdÅĻive": 5547,
      "Ġbaje": 5548,
      "Ġfr": 5549,
      "ĠpleÅ¥": 5550,
      "Ġgon": 5551,
      "Ġblyska": 5552,
      "ĠtaÅĻe": 5553,
      "Ġvava": 5554,
      "Ġsol": 5555,
      "Ġket": 5556,
      "Ġnesu": 5557,
      "ĠtrÃ¡v": 5558,
      "Ġzitra": 5559,
      "Ġsest": 5560,
      "lum": 5561,
      "Ġzbrani": 5562,
      "Ġkci": 5563,
      "ĠÅ¾ÃŃn": 5564,
      "Ġvzdycha": 5565,
      "Ġeu": 5566,
      "Ġhluch": 5567,
      "ĠhlÃ©m": 5568,
      "Ġtkal": 5569,
      "sem": 5570,
      "ĠmistÄĽ": 5571,
      "ĠvzpÄĽ": 5572,
      "Ġdvih": 5573,
      "ĠÄįini": 5574,
      "ĠbÄĽla": 5575,
      "Ġpech": 5576,
      "Ġhledy": 5577,
      "Ġlidem": 5578,
      "ĠztvÃ©": 5579,
      "Ġzkvet": 5580,
      "kÃ¡": 5581,
      "Ġdosud": 5582,
      "ĠpÅĻip": 5583,
      "Ġvuli": 5584,
      "ĠÅĻÃ¡n": 5585,
      "ĠÄįima": 5586,
      "kum": 5587,
      "ĠdveÅĻ": 5588,
      "Ġlkani": 5589,
      "Ġpala": 5590,
      "Ġkrk": 5591,
      "ĠÅĻim": 5592,
      "Ġkleti": 5593,
      "ĠsÄįÃŃ": 5594,
      "chal": 5595,
      "ĠÅ¡ede": 5596,
      "ĠÄįeru": 5597,
      "Ġcim": 5598,
      "Ġslek": 5599,
      "Ġmeta": 5600,
      "Ġdano": 5601,
      "ten": 5602,
      "Ġkvesti": 5603,
      "ĠklÃ¡s": 5604,
      "Ġjes": 5605,
      "ĠÅ¡Ã¡t": 5606,
      "Ġlily": 5607,
      "ĠrÃ¡Äį": 5608,
      "Ġbrav": 5609,
      "ĠÅ¡els": 5610,
      "Ġsklon": 5611,
      "Ġnoh": 5612,
      "Ġblede": 5613,
      "ĠhÅ¯ÅĻ": 5614,
      "ĠjÅ¯m": 5615,
      "Ġvzlo": 5616,
      "Ġfle": 5617,
      "Ġson": 5618,
      "ĠstunÄĽ": 5619,
      "Ġhvizd": 5620,
      "Ġposud": 5621,
      "ĠfÅ¯": 5622,
      "ĠÅ¾havy": 5623,
      "Ġmak": 5624,
      "Ġlina": 5625,
      "Ġbuje": 5626,
      "Ġnym": 5627,
      "Ġkrb": 5628,
      "Ġhub": 5629,
      "Ġcemi": 5630,
      "Ġnest": 5631,
      "rak": 5632,
      "ĠoÅĻ": 5633,
      "Ġpuj": 5634,
      "Ġnuz": 5635,
      "ĠÄįisti": 5636,
      "ĠÅ¡ije": 5637,
      "Ġztmy": 5638,
      "Ġbdi": 5639,
      "ĠzdÃ¡r": 5640,
      "Ġfej": 5641,
      "el": 5642,
      "ĠkosÅ¥": 5643,
      "Ġliti": 5644,
      "ĠvinÄĽ": 5645,
      "Ġbul": 5646,
      "vec": 5647,
      "Ġhlup": 5648,
      "ĠkamÅ¾ik": 5649,
      "ĠskÅĻek": 5650,
      "ĠdbÃ¡": 5651,
      "ĠvÄĽsi": 5652,
      "ĠspÅĻa": 5653,
      "Ġlidsky": 5654,
      "Ġlly": 5655,
      "Ġrami": 5656,
      "ĠskoÄį": 5657,
      "Ġmluvil": 5658,
      "Ġklesla": 5659,
      "Ġtika": 5660,
      "nosÅ¥": 5661,
      "pen": 5662,
      "Ġbyval": 5663,
      "Ġvame": 5664,
      "Ġboka": 5665,
      "ĠmeÄįe": 5666,
      "ĠÅ¡ÃŃk": 5667,
      "ĠluÄį": 5668,
      "Ġzbyva": 5669,
      "ĠstlÃ©": 5670,
      "ĠkoÄįi": 5671,
      "Ġtokem": 5672,
      "ĠvoÄįi": 5673,
      "ĠÅĻena": 5674,
      "ĠvÄįera": 5675,
      "ĠskaÄįe": 5676,
      "ĠteÄįe": 5677,
      "Ġtilo": 5678,
      "ĠvÅĻely": 5679,
      "ĠzdÅĻÃŃ": 5680,
      "ĠzÃ¡r": 5681,
      "Ġsmek": 5682,
      "Ġchvati": 5683,
      "ĠkÄį": 5684,
      "ĠÅĻez": 5685,
      "Ġbilo": 5686,
      "Ġoblak": 5687,
      "ĠktvÃ©": 5688,
      "cÅ¯": 5689,
      "Ġlvo": 5690,
      "ĠziÄį": 5691,
      "Ġhledal": 5692,
      "Ġther": 5693,
      "Ġbost": 5694,
      "Ġproz": 5695,
      "Ġcva": 5696,
      "Ġtebou": 5697,
      "ĠÅ¡ila": 5698,
      "znÄĽ": 5699,
      "Ġsez": 5700,
      "Ġzplo": 5701,
      "ĠdrÅ¯": 5702,
      "Ġzoun": 5703,
      "Ġgyp": 5704,
      "Ġkmat": 5705,
      "Ġpok": 5706,
      "Ġlada": 5707,
      "Ġmohou": 5708,
      "Ġmnoh": 5709,
      "Ġsvel": 5710,
      "Ġsmichu": 5711,
      "ĠblÃ¡Äį": 5712,
      "Ġvtan": 5713,
      "mal": 5714,
      "Ġjho": 5715,
      "ĠlvÃŃ": 5716,
      "ĠsplÃŃ": 5717,
      "Ġsrn": 5718,
      "sni": 5719,
      "stvo": 5720,
      "Ġslzy": 5721,
      "ĠloÅ¾e": 5722,
      "Ġprac": 5723,
      "Ġtrha": 5724,
      "Ġhoum": 5725,
      "Ġvleb": 5726,
      "Ġschla": 5727,
      "Ġtavy": 5728,
      "ĠtyÄį": 5729,
      "cet": 5730,
      "Ġstopy": 5731,
      "Å¡il": 5732,
      "Ġzok": 5733,
      "Ġspati": 5734,
      "Ġvdol": 5735,
      "ĠtÃ½d": 5736,
      "ĠdiÄįky": 5737,
      "Ġtali": 5738,
      "ĠÄįlu": 5739,
      "ĠÄįtu": 5740,
      "Ġcir": 5741,
      "Ġcili": 5742,
      "ĠpuÄįi": 5743,
      "Ġjemne": 5744,
      "Ġhlase": 5745,
      "ĠshvÄĽz": 5746,
      "Ġcelou": 5747,
      "Ġzech": 5748,
      "ĠÅ¾iji": 5749,
      "Ġvzdal": 5750,
      "Ġkbla": 5751,
      "ĠhÅĻima": 5752,
      "ĠchlÃ½m": 5753,
      "Ġthy": 5754,
      "Ġrmu": 5755,
      "ĠÄįely": 5756,
      "Ġbida": 5757,
      "ĠnaÅ¡el": 5758,
      "ĠÄįene": 5759,
      "Ġchudy": 5760,
      "ĠlouÄį": 5761,
      "Ġvotem": 5762,
      "ĠtvÃŃm": 5763,
      "Ġsz": 5764,
      "Ġnaci": 5765,
      "Ġlili": 5766,
      "Ġnoha": 5767,
      "Ġcie": 5768,
      "Ġprahy": 5769,
      "ĠvÃ½h": 5770,
      "ĠvtÅ¯": 5771,
      "ĠhÃ½Äį": 5772,
      "Ġvkap": 5773,
      "Ġsnoubi": 5774,
      "Ġmilo": 5775,
      "Ġtup": 5776,
      "Ġnejv": 5777,
      "ĠzÃ©": 5778,
      "Ġvanim": 5779,
      "Ġdine": 5780,
      "ĠdrÅ¯m": 5781,
      "Ġvoce": 5782,
      "vic": 5783,
      "ĠbylÅ¥": 5784,
      "Ġvmdlo": 5785,
      "ĠsnÄĽhu": 5786,
      "bek": 5787,
      "ĠpomnÄĽl": 5788,
      "ĠÅ¾ed": 5789,
      "ĠsÅ¯v": 5790,
      "Ġdos": 5791,
      "Ġmuch": 5792,
      "Ġboru": 5793,
      "Ġdeme": 5794,
      "Ġpadlo": 5795,
      "ĠdÄĽtem": 5796,
      "Ġvis": 5797,
      "Ġvke": 5798,
      "ĠÄįily": 5799,
      "ĠpraÅ¾": 5800,
      "Ġhuje": 5801,
      "ĠkslÃ¡": 5802,
      "ĠskloÅĪ": 5803,
      "Ġosm": 5804,
      "ĠkÅ¾e": 5805,
      "Ġoc": 5806,
      "rod": 5807,
      "ĠjaÅĻ": 5808,
      "Ġjata": 5809,
      "ĠzkouÅ¡": 5810,
      "Ġkryva": 5811,
      "ĠskvÄĽly": 5812,
      "Ġshluk": 5813,
      "Ġchm": 5814,
      "nes": 5815,
      "Ġslasti": 5816,
      "ĠvÄĽkem": 5817,
      "ĠhÅĻmot": 5818,
      "ĠtÄĽzi": 5819,
      "Ġmuce": 5820,
      "Ġbira": 5821,
      "Ġlehce": 5822,
      "ĠÅ¡eda": 5823,
      "Ġhyz": 5824,
      "Ġvenku": 5825,
      "ĠÅ¡tka": 5826,
      "Ġuv": 5827,
      "Ġhada": 5828,
      "stou": 5829,
      "Ġrav": 5830,
      "Ġgr": 5831,
      "Ġzol": 5832,
      "ĠÅĻada": 5833,
      "Ġvletu": 5834,
      "Ġkhra": 5835,
      "ĠtosÅ¥": 5836,
      "Ġmilou": 5837,
      "Ġvymi": 5838,
      "ĠplaÅĪ": 5839,
      "Ġsor": 5840,
      "Ġreku": 5841,
      "Ġklep": 5842,
      "ĠbÃ¡v": 5843,
      "Ġzroz": 5844,
      "Ġzvedne": 5845,
      "Ġtoval": 5846,
      "pÃŃ": 5847,
      "Ġpon": 5848,
      "ĠÅ¾eli": 5849,
      "Ġplet": 5850,
      "Ġplesu": 5851,
      "ĠznÄĽla": 5852,
      "ĠvkrÃ¡s": 5853,
      "Ġvklid": 5854,
      "Ġstlu": 5855,
      "ĠbeÅĻe": 5856,
      "ĠpeÅĻi": 5857,
      "ĠÅ¥Ã¡t": 5858,
      "ĠzÅĻim": 5859,
      "Å¡t": 5860,
      "Ġroje": 5861,
      "ĠÅ¾at": 5862,
      "ĠstvÃ½": 5863,
      "ĠsÅĪat": 5864,
      "ABC": 5865,
      "ĠhÃ¡n": 5866,
      "ĠABCABC": 5867,
      "Ġtol": 5868,
      "Ġvste": 5869,
      "ĠznÃŃt": 5870,
      "Ġname": 5871,
      "ĠÅ¾ive": 5872,
      "Ġhout": 5873,
      "ĠvrÃ¡j": 5874,
      "Ġbesum": 5875,
      "ĠbloÅĪ": 5876,
      "Ġvrhl": 5877,
      "Ġxi": 5878,
      "ĠÅ¾Å¯m": 5879,
      "Ġjaty": 5880,
      "ĠÅ¾ilo": 5881,
      "Ġblah": 5882,
      "ĠstÅĻela": 5883,
      "Ġvadne": 5884,
      "Ġkleta": 5885,
      "tam": 5886,
      "ĠznÄĽni": 5887,
      "ĠdnÃ½m": 5888,
      "ĠdÅĻev": 5889,
      "XXB": 5890,
      "ĠkpÃ¡": 5891,
      "Ġvrod": 5892,
      "Ġtknu": 5893,
      "Ġsci": 5894,
      "ĠmuÄįi": 5895,
      "Ġvdra": 5896,
      "Ġtrava": 5897,
      "ĠdluÅ¾": 5898,
      "Ġotec": 5899,
      "ĠlÃ¡v": 5900,
      "ĠschÅ¯": 5901,
      "ĠztÄĽÅ¾": 5902,
      "Ġvule": 5903,
      "Ġnesou": 5904,
      "Ġpohled": 5905,
      "ĠÅ¾da": 5906,
      "Ġtuh": 5907,
      "Ġmatce": 5908,
      "ĠdÅ¯l": 5909,
      "Ġgol": 5910,
      "XXX": 5911,
      "Ġminek": 5912,
      "ĠvÃ¡ÅĻ": 5913,
      "ĠmnoÅ¾i": 5914,
      "ĠspÄĽchu": 5915,
      "ĠptaÄįi": 5916,
      "Ġvanek": 5917,
      "ĠÅĻili": 5918,
      "ĠpÃ¡t": 5919,
      "Ġsvist": 5920,
      "Ġplynou": 5921,
      "Ġblohou": 5922,
      "ĠniÄįku": 5923,
      "ĠÅ¯": 5924,
      "ĠstaÅ¥": 5925,
      "ĠlunÄĽ": 5926,
      "Ġrety": 5927,
      "Ġklel": 5928,
      "ĠshrÅ¯": 5929,
      "Ġdechem": 5930,
      "ĠkmÃŃ": 5931,
      "lit": 5932,
      "ĠÄįeÅĻi": 5933,
      "Ġbory": 5934,
      "Ġpet": 5935,
      "stvim": 5936,
      "Ġblys": 5937,
      "ĠAXABXB": 5938,
      "ĠtuÅ¡e": 5939,
      "Ġrudy": 5940,
      "ĠpÃ½ch": 5941,
      "Ġcval": 5942,
      "Ġdici": 5943,
      "ĠÄįiti": 5944,
      "Ġrtoma": 5945,
      "ĠmÃ³": 5946,
      "ĠmotÄĽ": 5947,
      "ĠpaÅ¾e": 5948,
      "Ġzeny": 5949,
      "ĠÅĻic": 5950,
      "Ġfat": 5951,
      "Ġvspo": 5952,
      "Ġvchod": 5953,
      "ĠcvÃ¡": 5954,
      "Ġale": 5955,
      "Ġcep": 5956,
      "Ġkavy": 5957,
      "ĠÅ¾iku": 5958,
      "ĠpÅĻitel": 5959,
      "Ġhledem": 5960,
      "ĠtlÃ©m": 5961,
      "Ġmiji": 5962,
      "Ġnuje": 5963,
      "Ġpin": 5964,
      "Ġchyti": 5965,
      "ĠvÅ¾iti": 5966,
      "Ġvzkve": 5967,
      "ĠÅ¡kleb": 5968,
      "ĠABACCB": 5969,
      "ĠlinÄĽ": 5970,
      "ĠvtÃ½": 5971,
      "Ġklada": 5972,
      "ĠvblÃ¡": 5973,
      "ĠhÅĻeje": 5974,
      "ĠpatÅĻ": 5975,
      "ĠvkrÄį": 5976,
      "Ġvky": 5977,
      "Ġhala": 5978,
      "Ġznati": 5979,
      "ĠtmÃ¡m": 5980,
      "Ġruj": 5981,
      "Ġruk": 5982,
      "Ġtroj": 5983,
      "ĠhnÄĽvu": 5984,
      "ĠvbÃ¡z": 5985,
      "ĠcÃ½m": 5986,
      "Ġpaty": 5987,
      "Ġvzali": 5988,
      "Ġmout": 5989,
      "Ġlicich": 5990,
      "Ġvskry": 5991,
      "ĠvzlÃ©t": 5992,
      "Ġstvi": 5993,
      "Ġmisi": 5994,
      "Ġnuli": 5995,
      "Ġvuji": 5996,
      "Ġhruzy": 5997,
      "Ġdme": 5998,
      "ĠniÅ¥": 5999,
      "Ġchme": 6000,
      "Ġtova": 6001,
      "Ġproj": 6002,
      "Ġbuch": 6003,
      "ĠmÃŃst": 6004,
      "Ġprachu": 6005,
      "Ġvbr": 6006,
      "ĠchrÅ¯": 6007,
      "Ġcitim": 6008,
      "dlem": 6009,
      "Ġzpy": 6010,
      "Ġvotu": 6011,
      "Ġhadky": 6012,
      "Ġtvira": 6013,
      "Ġnano": 6014,
      "Ġroky": 6015,
      "ĠdeÅĻi": 6016,
      "Ġrum": 6017,
      "dly": 6018,
      "lel": 6019,
      "Ġtedy": 6020,
      "ĠmiÄį": 6021,
      "Ġvouk": 6022,
      "Ġjmen": 6023,
      "Ġksta": 6024,
      "Ġliva": 6025,
      "ĠpÅĻev": 6026,
      "ĠlÃ¡z": 6027,
      "ĠzvÃ¡n": 6028,
      "raz": 6029,
      "Ġnii": 6030,
      "ĠchoÄı": 6031,
      "Ġvlni": 6032,
      "Ġsbe": 6033,
      "Ġchout": 6034,
      "Ġzdroje": 6035,
      "ĠsÄįer": 6036,
      "Ġrdou": 6037,
      "Ġhot": 6038,
      "Ġlob": 6039,
      "Ġspar": 6040,
      "ĠÄįÃŃt": 6041,
      "ĠbouÅĻe": 6042,
      "Ġplna": 6043,
      "Ġhnou": 6044,
      "Ġrmou": 6045,
      "Ġvilo": 6046,
      "ĠvhnÃŃz": 6047,
      "Ġvlaje": 6048,
      "Ġnikdy": 6049,
      "ĠÅĪÃ¡t": 6050,
      "Ġskep": 6051,
      "lik": 6052,
      "Ġbice": 6053,
      "Ġvrak": 6054,
      "Ġvbuj": 6055,
      "ĠÄįÅ¯m": 6056,
      "Ġmuky": 6057,
      "Ġbos": 6058,
      "ĠÄįiÅ¡e": 6059,
      "ĠÄįiste": 6060,
      "ĠkÅĻiku": 6061,
      "ĠhrÃ¡z": 6062,
      "ĠvÅ¡emu": 6063,
      "Ġkbra": 6064,
      "ĠsdÄĽt": 6065,
      "ĠÄįesky": 6066,
      "Ġmukou": 6067,
      "Ġsudu": 6068,
      "Ġvrahu": 6069,
      "ĠplÅĪ": 6070,
      "Ġkse": 6071,
      "Ġsnimi": 6072,
      "Ġnaval": 6073,
      "lest": 6074,
      "Ġvyl": 6075,
      "ĠvzÅĪ": 6076,
      "Ġvby": 6077,
      "Ġspasy": 6078,
      "Ġmant": 6079,
      "ĠvÃºz": 6080,
      "Ġzre": 6081,
      "Ġkona": 6082,
      "Ġhovi": 6083,
      "ĠnÄĽte": 6084,
      "ĠjÃŃst": 6085,
      "Ġvelky": 6086,
      "Ġdlouha": 6087,
      "ĠÅ¾ur": 6088,
      "Ã¶": 6089,
      "ĠkaÄį": 6090,
      "Ġmili": 6091,
      "Ġstrasti": 6092,
      "ĠÅĻat": 6093,
      "ĠvjÃ¡": 6094,
      "Ġmoru": 6095,
      "ĠviÅ¾e": 6096,
      "Ġtopi": 6097,
      "ĠÅ¡ej": 6098,
      "ĠÅĻÃŃÄį": 6099,
      "Ġchaji": 6100,
      "Ġblaky": 6101,
      "Ġzub": 6102,
      "Ġzdep": 6103,
      "Ġspani": 6104,
      "ĠvznaÅ¡i": 6105,
      "Ġnohu": 6106,
      "Ġslan": 6107,
      "Ġvhe": 6108,
      "Ġdroz": 6109,
      "Ġtichy": 6110,
      "ĠkÅĻÃ¡": 6111,
      "Ġkoval": 6112,
      "Ġmezi": 6113,
      "ĠvÅ¡ÃŃÅĻ": 6114,
      "Ġmun": 6115,
      "ĠÅ¡ÃŃc": 6116,
      "Ġpily": 6117,
      "Ġhynou": 6118,
      "ĠstraÅ¾i": 6119,
      "ĠbrÅ¯": 6120,
      "Ġpychu": 6121,
      "ĠÅ¡aÅ¡": 6122,
      "ĠÅ¾dÃ¡": 6123,
      "ĠkÅ¡tÄĽ": 6124,
      "Ġpnu": 6125,
      "ĠÄįeti": 6126,
      "ĠtÃŃn": 6127,
      "ĠÅ¾ivi": 6128,
      "num": 6129,
      "ĠÅ¾aly": 6130,
      "ĠkÅĪa": 6131,
      "Ġlava": 6132,
      "ĠkvÄĽl": 6133,
      "Ġkroz": 6134,
      "Ġbali": 6135,
      "Ġpola": 6136,
      "Ġkovu": 6137,
      "ĠvkÅĻi": 6138,
      "ĠvÄįes": 6139,
      "ĠrvÃ¡t": 6140,
      "ĠstÃ¡h": 6141,
      "Ġklady": 6142,
      "ĠvÄįele": 6143,
      "Ġdate": 6144,
      "ĠstuÅ¾": 6145,
      "ĠvÃºs": 6146,
      "ĠsfÃ©": 6147,
      "Ġhmyz": 6148,
      "ĠflÃ©t": 6149,
      "Ġzf": 6150,
      "Ġstvou": 6151,
      "Ġkuji": 6152,
      "Ġjeny": 6153,
      "ĠpÅĻeÅ¡": 6154,
      "ĠmÃ¡Äį": 6155,
      "ĠpraÅ¡": 6156,
      "Ġvsvo": 6157,
      "Ġpud": 6158,
      "ĠstÄĽÅ¾": 6159,
      "Ġkza": 6160,
      "Ġvzrusta": 6161,
      "ĠsÅ¥": 6162,
      "Ġproh": 6163,
      "Ġdleh": 6164,
      "Ġzhru": 6165,
      "Ġkalo": 6166,
      "ĠdlÃ©m": 6167,
      "ĠplÃŃs": 6168,
      "ĠzkrÃ¡t": 6169,
      "Ġvavy": 6170,
      "Ġlod": 6171,
      "Ġdime": 6172,
      "ĠkvÄĽÄį": 6173,
      "ĠklinÄĽ": 6174,
      "Ġstoupa": 6175,
      "Ġzdat": 6176,
      "ĠshlÃ©d": 6177,
      "Ġtrhl": 6178,
      "ĠvskrÃ¡": 6179,
      "ĠstrÃ©m": 6180,
      "ĠÅ¾lout": 6181,
      "Ġvak": 6182,
      "ĠtaÅ¾": 6183,
      "ĠproÅĪ": 6184,
      "Ġnicky": 6185,
      "Ġkvest": 6186,
      "Ġzcha": 6187,
      "Ġrosti": 6188,
      "ĠÅĻeka": 6189,
      "ĠprÃ©": 6190,
      "Ġsyp": 6191,
      "ĠzbÃ¡": 6192,
      "ĠÅ¡tÄĽp": 6193,
      "ĠvÅĻÃŃn": 6194,
      "Ġoka": 6195,
      "ĠvsvÄĽtÄĽ": 6196,
      "Ġnavi": 6197,
      "ĠÄįesÅ¥": 6198,
      "Ġdite": 6199,
      "Ġzkle": 6200,
      "ĠniÅ¾i": 6201,
      "ĠÅĻily": 6202,
      "ĠzkaÅ¾": 6203,
      "Ġvedla": 6204,
      "ĠpÅ¡e": 6205,
      "Ġvuj": 6206,
      "Ġdlouho": 6207,
      "Ġlesku": 6208,
      "ĠtmÄĽl": 6209,
      "Ġksk": 6210,
      "Ġhnout": 6211,
      "ĠÄįla": 6212,
      "Ġlar": 6213,
      "Ġkdi": 6214,
      "Ġplala": 6215,
      "Ġziva": 6216,
      "ĠhruÅ¡": 6217,
      "Ġdceru": 6218,
      "ĠmÅĻela": 6219,
      "ĠkouÅĻi": 6220,
      "Ġpomoc": 6221,
      "Ġdomy": 6222,
      "ĠnÄĽho": 6223,
      "Ġzeji": 6224,
      "Ġstila": 6225,
      "Ġzyva": 6226,
      "Ġkveta": 6227,
      "Ġceli": 6228,
      "ĠmÄĽsti": 6229,
      "ĠstraÅ¡i": 6230,
      "Ġlemu": 6231,
      "Ġchlub": 6232,
      "ĠpÃ³": 6233,
      "ĠchÅĻad": 6234,
      "Ġhoji": 6235,
      "Ġtisic": 6236,
      "Ġsadu": 6237,
      "ĠÄįac": 6238,
      "Ġzoh": 6239,
      "Ġzkusi": 6240,
      "Ġvolal": 6241,
      "Ġsela": 6242,
      "Ġhodu": 6243,
      "ĠtiÅ¾e": 6244,
      "ĠlÃŃn": 6245,
      "Ġgri": 6246,
      "ĠkÅĻiÄįi": 6247,
      "ĠsmÄĽj": 6248,
      "ĠÅ¡lel": 6249,
      "ĠÅĻasy": 6250,
      "Ġmz": 6251,
      "Ġveta": 6252,
      "Ġmuku": 6253,
      "Ġboky": 6254,
      "Ġboda": 6255,
      "ĠvÄĽnce": 6256,
      "Ġvzduchem": 6257,
      "Ġsraz": 6258,
      "Ġzlych": 6259,
      "Ġnete": 6260,
      "ĠstrÃ¡n": 6261,
      "Ġspina": 6262,
      "Ġzvolna": 6263,
      "Ġnva": 6264,
      "oun": 6265,
      "ĠuÄįi": 6266,
      "Ġjedne": 6267,
      "ĠÅ¾Ã¡k": 6268,
      "Ġzpoz": 6269,
      "Ġzene": 6270,
      "Ġzhled": 6271,
      "Ġsmutku": 6272,
      "Ġotci": 6273,
      "Ġzab": 6274,
      "ĠnÄĽma": 6275,
      "Ġpase": 6276,
      "Ġbed": 6277,
      "ĠvmÅ¾i": 6278,
      "ĠvhrÅ¯": 6279,
      "Ġzvyku": 6280,
      "ĠzÅĻit": 6281,
      "ĠtnÄĽ": 6282,
      "ĠÅ¡ke": 6283,
      "Ġtaz": 6284,
      "Ġkuj": 6285,
      "Ġhlasa": 6286,
      "Ġvnic": 6287,
      "ĠskvÄĽla": 6288,
      "ĠÅ¡lenky": 6289,
      "ĠvsnÄĽni": 6290,
      "ĠÅĻiva": 6291,
      "taÅĻ": 6292,
      "tum": 6293,
      "Ġdarmo": 6294,
      "Ġvzdoru": 6295,
      "ĠjvÃ½": 6296,
      "ĠmÅ¯m": 6297,
      "Ġvzr": 6298,
      "ĠkÃ¡r": 6299,
      "Ġloub": 6300,
      "Ġmrs": 6301,
      "ĠsviÅ¥": 6302,
      "ĠslÃ¡v": 6303,
      "ĠptÃ¡t": 6304,
      "Ġhloh": 6305,
      "Ġzkaz": 6306,
      "ĠÃ¡Å¡": 6307,
      "Ġpolu": 6308,
      "Ġhop": 6309,
      "ĠjakÅ¾": 6310,
      "Ġtuji": 6311,
      "Ġluhu": 6312,
      "Ġpuka": 6313,
      "ĠXAXAXA": 6314,
      "Ġdrc": 6315,
      "ĠÅ¾alu": 6316,
      "Ġlaji": 6317,
      "ĠbraÅĪ": 6318,
      "Ġzis": 6319,
      "Ġzuby": 6320,
      "Ġvlna": 6321,
      "ĠmÅĻiti": 6322,
      "ĠbÅ¯m": 6323,
      "Ġtana": 6324,
      "ĠryÄį": 6325,
      "ĠptÃ½": 6326,
      "Ġbrod": 6327,
      "Ġpanny": 6328,
      "ĠÅ¾uje": 6329,
      "ĠvaÅ¡i": 6330,
      "Ġboko": 6331,
      "Ġspoji": 6332,
      "Ġslid": 6333,
      "Ġjicim": 6334,
      "ĠbÅĻÃŃz": 6335,
      "Ġcid": 6336,
      "ĠtÅĻiÅ¡ti": 6337,
      "Ġzpit": 6338,
      "Ġzpivat": 6339,
      "ĠblyÅ¡": 6340,
      "Ġjeli": 6341,
      "ĠlaÅ¥": 6342,
      "ĠÄįeje": 6343,
      "Ġfro": 6344,
      "ĠzoÄįi": 6345,
      "Ġplot": 6346,
      "Ġfek": 6347,
      "ĠpÅĻal": 6348,
      "Ġzap": 6349,
      "ĠvyÅ¡el": 6350,
      "Ġsmlou": 6351,
      "ĠslasÅ¥": 6352,
      "ĠbliÄįej": 6353,
      "Ġtmave": 6354,
      "Ġcuj": 6355,
      "ĠÅĪuje": 6356,
      "Ġvnou": 6357,
      "ĠsaÅĪ": 6358,
      "jel": 6359,
      "ĠsnaÅ¾": 6360,
      "Ġdals": 6361,
      "ĠvprÅ¯": 6362,
      "ĠtÃŃl": 6363,
      "Ġcii": 6364,
      "Ġkstro": 6365,
      "Ġad": 6366,
      "ĠpaÅ¾i": 6367,
      "Ġbleskem": 6368,
      "ĠvaÅ¾i": 6369,
      "Ġpanem": 6370,
      "Ġbid": 6371,
      "Ġsvice": 6372,
      "bach": 6373,
      "Ġvzdej": 6374,
      "Ġkhru": 6375,
      "ĠpÅĻem": 6376,
      "ĠstlÃ½": 6377,
      "Ġbody": 6378,
      "Ġchaty": 6379,
      "ĠklÃ½m": 6380,
      "Ġpark": 6381,
      "Ġksto": 6382,
      "Ġsre": 6383,
      "ĠÅ¾nÃŃ": 6384,
      "Ġskrej": 6385,
      "Ġdur": 6386,
      "Ġhaty": 6387,
      "Ġpravu": 6388,
      "ĠÅĻilo": 6389,
      "Ġtrunu": 6390,
      "Ġsmala": 6391,
      "Ġchlum": 6392,
      "Ġblysk": 6393,
      "ĠÅ¡lÃ¡p": 6394,
      "Ġchali": 6395,
      "Ġdor": 6396,
      "Ġzple": 6397,
      "ĠÅ¡tÄĽr": 6398,
      "Ġvruce": 6399,
      "ĠvidiÅ¡": 6400,
      "Ġranou": 6401,
      "Ġhrazi": 6402,
      "ĠzhnÄĽ": 6403,
      "ĠskrÃ½Å¡": 6404,
      "Ġmechu": 6405,
      "Ġsady": 6406,
      "Ġzboj": 6407,
      "Ġsklad": 6408,
      "Ġzkveta": 6409,
      "ĠÅ¾la": 6410,
      "ĠsvitÄĽ": 6411,
      "Ġtrudu": 6412,
      "jat": 6413,
      "ĠrodÄĽ": 6414,
      "ĠÅĻÃŃÅ¾": 6415,
      "Ġrozv": 6416,
      "Ġvkus": 6417,
      "Ġhma": 6418,
      "ĠpoÅĻad": 6419,
      "ĠtÄĽly": 6420,
      "Ġhrala": 6421,
      "Ġblahy": 6422,
      "ĠvstrÃ¡": 6423,
      "Ġlasce": 6424,
      "ĠABACBC": 6425,
      "ĠAAXBXB": 6426,
      "Ġtaci": 6427,
      "ĠÄįiÅ¡i": 6428,
      "Ġklesti": 6429,
      "Ġvbar": 6430,
      "ĠschvÄĽ": 6431,
      "Ġztratil": 6432,
      "ĠskaÅ¾": 6433,
      "Ġchramu": 6434,
      "Ġsjed": 6435,
      "Ġspek": 6436,
      "ĠnÃŃt": 6437,
      "Ġtava": 6438,
      "ĠuÅ¡i": 6439,
      "Ġvtak": 6440,
      "Ġvkom": 6441,
      "Ġptaku": 6442,
      "ĠpÃ½m": 6443,
      "Ġkyni": 6444,
      "Ġrati": 6445,
      "Ġhati": 6446,
      "ĠvhvÄĽz": 6447,
      "Ġmemu": 6448,
      "Ġtiku": 6449,
      "Ġvedou": 6450,
      "Ġlot": 6451,
      "Ġbohem": 6452,
      "Ġvzpjal": 6453,
      "ĠzÅĻela": 6454,
      "ĠvtÄĽs": 6455,
      "Ġtlesk": 6456,
      "ĠdÅĻich": 6457,
      "ĠÅĻÅ¯m": 6458,
      "ĠnÄĽli": 6459,
      "ĠÅ¾ÃŃc": 6460,
      "Ġvsnach": 6461,
      "ĠliÄįky": 6462,
      "ĠvplaÄįi": 6463,
      "Ġnate": 6464,
      "Ġsyny": 6465,
      "ĠzoÅĻi": 6466,
      "ĠkaÅ¾dy": 6467,
      "ĠznÄĽlo": 6468,
      "ĠstrÃ½c": 6469,
      "Ġcenou": 6470,
      "Ġvlahy": 6471,
      "Ġdlouhou": 6472,
      "ĠvdÄĽku": 6473,
      "Ġblesku": 6474,
      "ĠhÅĻmÄĽl": 6475,
      "ĠvsmÄĽ": 6476,
      "Ġpun": 6477,
      "ĠkÅĻiÅ¾i": 6478,
      "ĠpÄĽsÅ¥": 6479,
      "Ġdruzi": 6480,
      "ĠchtÄĽli": 6481,
      "Ġvpos": 6482,
      "ĠkplÃ¡": 6483,
      "ĠzmÄĽni": 6484,
      "Ġjiste": 6485,
      "ĠmÄĽsic": 6486,
      "ĠlÅ¾e": 6487,
      "ĠroÄį": 6488,
      "ĠvblÃŃz": 6489,
      "Ġhruz": 6490,
      "Ġkaj": 6491,
      "ĠjÃŃn": 6492,
      "ĠABABXB": 6493,
      "rym": 6494,
      "Ġment": 6495,
      "Ġzmita": 6496,
      "ĠsvÄĽdÄįi": 6497,
      "Ġvskal": 6498,
      "Ġvdiv": 6499,
      "Ġxe": 6500,
      "ĠvbouÅĻ": 6501,
      "Ġdbej": 6502,
      "ĠÄįilo": 6503,
      "Ġpouhy": 6504,
      "ĠÅ¾ad": 6505,
      "ĠdceÅĻ": 6506,
      "ĠnnÃŃch": 6507,
      "Ġtivy": 6508,
      "ĠboÄįi": 6509,
      "ĠfÃ©": 6510,
      "Ġhoupa": 6511,
      "koj": 6512,
      "ĠzdÃ¡v": 6513,
      "Ġtmam": 6514,
      "ĠtÅĻu": 6515,
      "ĠdÅĻej": 6516,
      "ĠchlÃ½ch": 6517,
      "Ġkratce": 6518,
      "ĠtiseÅĪ": 6519,
      "ĠvodÄĽ": 6520,
      "jen": 6521,
      "Ġklety": 6522,
      "Ġoken": 6523,
      "Ġnutim": 6524,
      "ctvi": 6525,
      "cum": 6526,
      "Ġchvali": 6527,
      "lÃ½m": 6528,
      "Ġnarod": 6529,
      "Ġvlaj": 6530,
      "ĠhluÅ¡i": 6531,
      "Ġkmu": 6532,
      "ĠmiÅĻi": 6533,
      "ĠÅ¡ip": 6534,
      "Ġvbok": 6535,
      "Ġsnove": 6536,
      "ĠoÅĻe": 6537,
      "Ġkota": 6538,
      "Ġveru": 6539,
      "ĠABCC": 6540,
      "Ġbrachu": 6541,
      "ĠÅ¡tÄĽt": 6542,
      "ĠliÄįku": 6543,
      "Ġkrasny": 6544,
      "Ġpadi": 6545,
      "ĠXAA": 6546,
      "man": 6547,
      "ĠvskÃ¡": 6548,
      "Ġlva": 6549,
      "ĠsedÄĽl": 6550,
      "Ġzan": 6551,
      "Ġdoly": 6552,
      "lic": 6553,
      "Ġvidal": 6554,
      "Ġbranu": 6555,
      "Ġvrha": 6556,
      "ĠrÃ©Å¾": 6557,
      "Ġspanku": 6558,
      "Ġjitra": 6559,
      "Ġstmiva": 6560,
      "Ġhole": 6561,
      "Ġvano": 6562,
      "Ġzimy": 6563,
      "Ġhromy": 6564,
      "ĠchtÄĽlo": 6565,
      "ĠtÄĽzstvi": 6566,
      "Ġbere": 6567,
      "Ġzbe": 6568,
      "Ġvjel": 6569,
      "ĠpÅĻijde": 6570,
      "ĠsnÃŃmÅ¾": 6571,
      "Ġskyt": 6572,
      "Ġhve": 6573,
      "Ġnamy": 6574,
      "Ġdivat": 6575,
      "ĠÅ¾ÃŃr": 6576,
      "Ġpiji": 6577,
      "ĠvÄĽrne": 6578,
      "ĠÃŃch": 6579,
      "zt": 6580,
      "Ġplalo": 6581,
      "Ġzbla": 6582,
      "Ġstranu": 6583,
      "ĠÄįerne": 6584,
      "Ġchyta": 6585,
      "ĠtÅĻeb": 6586,
      "ĠstÅĻely": 6587,
      "sich": 6588,
      "Ġplic": 6589,
      "ĠkÄįer": 6590,
      "Ġvino": 6591,
      "Ġsvatou": 6592,
      "ĠmÄĽsto": 6593,
      "Ġsmichem": 6594,
      "Ġktan": 6595,
      "Ġjda": 6596,
      "ĠflÃŃ": 6597,
      "Ġkrav": 6598,
      "Ġtrup": 6599,
      "Ġsved": 6600,
      "ĠzvÅ¡ech": 6601,
      "co": 6602,
      "Ġkyv": 6603,
      "Ġzeli": 6604,
      "ÅĪu": 6605,
      "Ġhyn": 6606,
      "ĠvkÅĻo": 6607,
      "ĠskvÄĽl": 6608,
      "Ġroval": 6609,
      "Ġstela": 6610,
      "Ġzmno": 6611,
      "ĠzkvÃŃ": 6612,
      "ĠvstÃŃn": 6613,
      "Ġlii": 6614,
      "Ġniny": 6615,
      "ĠtÄĽlem": 6616,
      "Ġjaks": 6617,
      "ĠbeÅ¡": 6618,
      "ĠÅĻekl": 6619,
      "rek": 6620,
      "ĠchÅ¯v": 6621,
      "Ġticky": 6622,
      "Ġzbroji": 6623,
      "Ġjav": 6624,
      "Ġdrahou": 6625,
      "ĠsmÄĽla": 6626,
      "ĠsmÄĽsi": 6627,
      "ĠksvÃ½m": 6628,
      "Ġkpro": 6629,
      "ĠspÃ¡r": 6630,
      "Ġchvatem": 6631,
      "Ġvziti": 6632,
      "Ġschazi": 6633,
      "Ġnavy": 6634,
      "Ġhodou": 6635,
      "ĠzvÄĽÄį": 6636,
      "Ġdejte": 6637,
      "Ġvkon": 6638,
      "Ġhola": 6639,
      "ĠÅ¡iho": 6640,
      "ĠÅĻiv": 6641,
      "Ġdre": 6642,
      "Ġkrom": 6643,
      "ĠzboÅ¾i": 6644,
      "ĠmÃ¡ÅĻ": 6645,
      "ĠvÄĽÄįne": 6646,
      "Ġkspa": 6647,
      "Ġmami": 6648,
      "ĠspÄĽji": 6649,
      "ĠdÅ¯t": 6650,
      "ĠznÄĽj": 6651,
      "Ġvchva": 6652,
      "Ġmdlou": 6653,
      "Ġhil": 6654,
      "ĠÅĻÃŃz": 6655,
      "ĠztÃ¡": 6656,
      "ĠÅ¡lenek": 6657,
      "Ġplec": 6658,
      "Ġstatku": 6659,
      "ĠskvÄĽle": 6660,
      "tÃ¡": 6661,
      "ĠmiÅĪ": 6662,
      "ĠtÃ¡Å¾": 6663,
      "Ġzima": 6664,
      "ĠsrÅ¯": 6665,
      "ĠstÅĻiÄį": 6666,
      "ĠlkÃ¡t": 6667,
      "Ġssu": 6668,
      "Å¡em": 6669,
      "Ġtane": 6670,
      "ĠdaÄį": 6671,
      "ĠstinÄĽ": 6672,
      "ĠdrÅ¾i": 6673,
      "ĠvÄĽÄįna": 6674,
      "ĠsnÃŃÅ¾": 6675,
      "Ġsnebe": 6676,
      "Ġnuty": 6677,
      "Ġdrahe": 6678,
      "Ġhrava": 6679,
      "ĠvÅ¾al": 6680,
      "Ġhrozi": 6681,
      "Ġvmoc": 6682,
      "ĠpliÅ¾i": 6683,
      "ĠvÄĽti": 6684,
      "Ġvym": 6685,
      "Ġvyv": 6686,
      "Ġsis": 6687,
      "ĠmÃ¡c": 6688,
      "ĠAABXB": 6689,
      "Ġzpur": 6690,
      "Ġvaje": 6691,
      "ĠÅ¡edy": 6692,
      "Ġztlu": 6693,
      "Ġpadly": 6694,
      "ĠzmÄĽÅ¥": 6695,
      "ĠdvÄĽd": 6696,
      "Ġsmys": 6697,
      "Ġpst": 6698,
      "Ġjeme": 6699,
      "Ġdany": 6700,
      "Ġbena": 6701,
      "ĠvsvÅ¯j": 6702,
      "Ġnecha": 6703,
      "ĠohnÄĽ": 6704,
      "ĠspiÅ¡e": 6705,
      "Ġdbal": 6706,
      "Ġvoval": 6707,
      "ĠmenÄĽ": 6708,
      "Ġklat": 6709,
      "Ġklasy": 6710,
      "Å¾Ã¡": 6711,
      "Ġhlubin": 6712,
      "Ġkonce": 6713,
      "Ġsboru": 6714,
      "Ġvzep": 6715,
      "ĠvpÅĻÃŃÅ¡": 6716,
      "ĠtÄĽna": 6717,
      "Ġdice": 6718,
      "ĠzhÅ¯": 6719,
      "Ġria": 6720,
      "ot": 6721,
      "Ġsev": 6722,
      "ĠdÄĽvu": 6723,
      "ĠpÅĻeje": 6724,
      "Ġsai": 6725,
      "ĠpÃŃÄı": 6726,
      "Ġschou": 6727,
      "ĠsÅ¡e": 6728,
      "Å¡ku": 6729,
      "Ġstinem": 6730,
      "ĠchÃ¡n": 6731,
      "Ġcity": 6732,
      "Ġvslav": 6733,
      "Ġobz": 6734,
      "Ġvbles": 6735,
      "Ġstka": 6736,
      "Ġkord": 6737,
      "ĠpÄĽli": 6738,
      "Ġtemnou": 6739,
      "ĠmlÄįi": 6740,
      "ĠchÅ¯d": 6741,
      "ĠmlÃ©Äį": 6742,
      "Ġvije": 6743,
      "ĠplaÅ¡": 6744,
      "ĠkÃ½Å¾": 6745,
      "Ġzmdle": 6746,
      "Ġgre": 6747,
      "Ġsvami": 6748,
      "Ġjila": 6749,
      "Ġprvy": 6750,
      "ĠblaÅ¾": 6751,
      "Ġsloucha": 6752,
      "ĠzrÃ½": 6753,
      "Ġletech": 6754,
      "ĠzÃŃr": 6755,
      "ĠÅ¾arem": 6756,
      "ĠsbÃ¡": 6757,
      "Ġprut": 6758,
      "Ġvhroz": 6759,
      "ĠÅ¡perk": 6760,
      "Ġoch": 6761,
      "Ġsvl": 6762,
      "Ġzdou": 6763,
      "Ġbrzy": 6764,
      "sen": 6765,
      "ĠznÄĽly": 6766,
      "Ġmeno": 6767,
      "ĠzkÅĻÃŃ": 6768,
      "Ġdrozd": 6769,
      "ĠhrÃ¡m": 6770,
      "Ġcestou": 6771,
      "ĠslÃ½ch": 6772,
      "Ġklasu": 6773,
      "ĠcestÄĽ": 6774,
      "Ġjesti": 6775,
      "ĠleÄįi": 6776,
      "ĠtÄĽti": 6777,
      "ĠÅĻidi": 6778,
      "Ġsus": 6779,
      "dej": 6780,
      "Ġklina": 6781,
      "Ġstri": 6782,
      "Ġvlastni": 6783,
      "ĠvloÅ¾": 6784,
      "Ġklem": 6785,
      "Ġnovou": 6786,
      "Ġdruha": 6787,
      "Ġzlosti": 6788,
      "Ġvadla": 6789,
      "Ġvzrost": 6790,
      "ĠhnÃ¡t": 6791,
      "hl": 6792,
      "Ġdci": 6793,
      "ĠlÃ©Äį": 6794,
      "ĠkvÄĽte": 6795,
      "Ġris": 6796,
      "ĠtÄĽchy": 6797,
      "ĠvÄįem": 6798,
      "Ġminka": 6799,
      "ĠcÃ¡r": 6800,
      "Ġano": 6801,
      "Ġkrm": 6802,
      "Ġsnit": 6803,
      "ĠvdÄĽs": 6804,
      "Ġlhal": 6805,
      "Ġvaha": 6806,
      "ĠÄįeli": 6807,
      "Ġspali": 6808,
      "ĠstiÅ¥": 6809,
      "ĠbÃŃÅ¡": 6810,
      "zim": 6811,
      "ĠhloÅ¾i": 6812,
      "ĠdraÅ¾Å¡i": 6813,
      "Ġhm": 6814,
      "Ġjela": 6815,
      "ĠkoÅ¾": 6816,
      "Ġtiti": 6817,
      "Ġprob": 6818,
      "Ġluce": 6819,
      "Ġsba": 6820,
      "Ġzoub": 6821,
      "Ġhaly": 6822,
      "Ġvstup": 6823,
      "ĠzaÅĪ": 6824,
      "Ġbozi": 6825,
      "Ġmava": 6826,
      "Ġtyr": 6827,
      "Ġsamy": 6828,
      "Ġvrasky": 6829,
      "ĠhouÅ¡Å¥": 6830,
      "Ġdalky": 6831,
      "ĠsviÅ¡": 6832,
      "Ġlali": 6833,
      "Ġrra": 6834,
      "Ġhodil": 6835,
      "Ġvoje": 6836,
      "Ġbuji": 6837,
      "ĠsÃŃt": 6838,
      "ĠtÅ¯ÅĪ": 6839,
      "ĠmÄĽkka": 6840,
      "Ġskvi": 6841,
      "ĠpÃ¡Å¾": 6842,
      "ĠtravÄĽ": 6843,
      "Ġdmu": 6844,
      "ĠnÄĽhu": 6845,
      "Ġkany": 6846,
      "rud": 6847,
      "Ġruje": 6848,
      "Ġvsvou": 6849,
      "ĠstÃ¡d": 6850,
      "Ġvstru": 6851,
      "ĠpsÅ¯": 6852,
      "ĠniÄįka": 6853,
      "Ġvtaj": 6854,
      "nÅ¯": 6855,
      "ĠzÅ¾ÃŃ": 6856,
      "ĠÅ¡enÄĽ": 6857,
      "ĠvÃ¡t": 6858,
      "Ġstich": 6859,
      "Ġpudu": 6860,
      "Ġhraj": 6861,
      "Ġmalu": 6862,
      "Ġctil": 6863,
      "Ġjete": 6864,
      "Ġneme": 6865,
      "Ġdamy": 6866,
      "ĠgÃ¡n": 6867,
      "Ġpodal": 6868,
      "ĠvkÃ¡": 6869,
      "Ġdrn": 6870,
      "ĠzliÄį": 6871,
      "ĠniÄįky": 6872,
      "Ġvtes": 6873,
      "Ġzsi": 6874,
      "ĠÅ¾hne": 6875,
      "Ġhorach": 6876,
      "ĠnÄĽnou": 6877,
      "Ġdane": 6878,
      "Ġpravou": 6879,
      "ĠpeÅ¡": 6880,
      "Ġpeny": 6881,
      "Ġstokrat": 6882,
      "Ġdent": 6883,
      "Ġzove": 6884,
      "ĠzlobÄĽ": 6885,
      "Ġsedne": 6886,
      "ĠvzhlÃ©d": 6887,
      "Ġvryl": 6888,
      "Ġpokoj": 6889,
      "Ġkosi": 6890,
      "Ġdovi": 6891,
      "Ġsnahy": 6892,
      "ĠbÃ½Å¥": 6893,
      "ĠpyÅ¡e": 6894,
      "ĠjmÄĽni": 6895,
      "Ġdoval": 6896,
      "ĠnÄĽhy": 6897,
      "ĠvaÅ¾e": 6898,
      "Ġkut": 6899,
      "ĠjsouÅ¥": 6900,
      "ĠÅ¥Ã¡l": 6901,
      "Ġzleho": 6902,
      "ĠsÅĪal": 6903,
      "bal": 6904,
      "Ġae": 6905,
      "ĠjeÄı": 6906,
      "ĠcÃŃÅ¡": 6907,
      "ĠzpÃ¡": 6908,
      "Ġvudce": 6909,
      "Ġpuch": 6910,
      "din": 6911,
      "Ġvsto": 6912,
      "Ġmrakem": 6913,
      "Ġjasna": 6914,
      "ĠstÅ¯v": 6915,
      "Ġvryt": 6916,
      "Ġtahla": 6917,
      "ĠvchrÃ¡m": 6918,
      "Ġcesti": 6919,
      "Ġcosi": 6920,
      "Ġvsnu": 6921,
      "ĠblaÅ¾i": 6922,
      "michu": 6923,
      "ĠdejÅ¾": 6924,
      "Ġstinne": 6925,
      "nky": 6926,
      "rÃ½": 6927,
      "ĠvÅ¾ÃŃ": 6928,
      "ĠhliÅ¾i": 6929,
      "Ġraly": 6930,
      "Ġjvo": 6931,
      "Ġsoka": 6932,
      "Ġslepy": 6933,
      "Ġdvod": 6934,
      "ĠvdÄĽt": 6935,
      "ĠvmoÅĻi": 6936,
      "Ġtany": 6937,
      "ĠvÄĽla": 6938,
      "Ġlova": 6939,
      "Ġvzky": 6940,
      "Ġmaci": 6941,
      "ĠruÄįe": 6942,
      "Ġvzpru": 6943,
      "Ġstyska": 6944,
      "Ġfar": 6945,
      "Ġbros": 6946,
      "ĠssÃ¡": 6947,
      "ĠÅ¾houci": 6948,
      "ĠvspÃ¡n": 6949,
      "Ġkojen": 6950,
      "Ġlany": 6951,
      "Ġdeal": 6952,
      "Ġvadi": 6953,
      "Ġsprav": 6954,
      "Ġlovi": 6955,
      "Ġjaky": 6956,
      "Ġmel": 6957,
      "Ġprok": 6958,
      "Ġlub": 6959,
      "Ġmenne": 6960,
      "Ġzjevi": 6961,
      "ĠspÃ¡d": 6962,
      "Ġzvedla": 6963,
      "kej": 6964,
      "ĠXXAXAX": 6965,
      "ĠnÃŃn": 6966,
      "Ġmady": 6967,
      "Ġbrana": 6968,
      "ĠchvÃŃl": 6969,
      "Ġditky": 6970,
      "Ġsdra": 6971,
      "Ġkluk": 6972,
      "Ġhnizd": 6973,
      "ĠsÅ¡": 6974,
      "Ġkana": 6975,
      "Ġrovy": 6976,
      "Ġudy": 6977,
      "Ġdanou": 6978,
      "Ġrac": 6979,
      "Ġdraze": 6980,
      "ĠÅĪad": 6981,
      "ĠÅ¾luÄį": 6982,
      "ĠbÃ©m": 6983,
      "Ġlepe": 6984,
      "Ġkoch": 6985,
      "Ġvaty": 6986,
      "rum": 6987,
      "Ġramen": 6988,
      "Ġil": 6989,
      "ĠkÃ¡z": 6990,
      "Ġpraz": 6991,
      "ĠzplÃ¡": 6992,
      "Ġsluni": 6993,
      "Ġmohl": 6994,
      "Ġpoto": 6995,
      "ter": 6996,
      "Ġchuti": 6997,
      "ĠmÃ©n": 6998,
      "Ġjasny": 6999,
      "Ġtmava": 7000,
      "Ġstatky": 7001,
      "Ġnana": 7002,
      "Ġkonec": 7003,
      "Ġholy": 7004,
      "Ġlibi": 7005,
      "ĠnivÄĽ": 7006,
      "Ġdete": 7007,
      "Ġpaji": 7008,
      "ĠÄįinou": 7009,
      "Äįin": 7010,
      "Ġmaha": 7011,
      "mek": 7012,
      "ĠzmÃ½ch": 7013,
      "ĠkÅĻti": 7014,
      "ĠÅ¡vih": 7015,
      "Ġpam": 7016,
      "Ġvojsk": 7017,
      "ĠvzhlÃŃ": 7018,
      "Ġkboji": 7019,
      "ĠÅ¡vÃ¡": 7020,
      "ĠtÄĽka": 7021,
      "ĠÅ¡ela": 7022,
      "Ġis": 7023,
      "Ġpest": 7024,
      "ĠdÄĽls": 7025,
      "ĠvbÅĻe": 7026,
      "Ġsvitil": 7027,
      "Ġvzadu": 7028,
      "ĠÅ¾emi": 7029,
      "ĠscÃ©": 7030,
      "Ġzj": 7031,
      "Ġrunu": 7032,
      "ĠbraÅ¥": 7033,
      "ĠdruÅ¾i": 7034,
      "Ġobraz": 7035,
      "Ġnitra": 7036,
      "ĠspÅĻada": 7037,
      "Ġsely": 7038,
      "ĠÅ¡ÃŃÅĻ": 7039,
      "jit": 7040,
      "Ġproudy": 7041,
      "ĠkrouÅ¾i": 7042,
      "ĠvotÄĽ": 7043,
      "ĠÅ¡ery": 7044,
      "ĠzÃ¡n": 7045,
      "Ġvraha": 7046,
      "ĠkliÄį": 7047,
      "Ġkrovem": 7048,
      "Ġznat": 7049,
      "ĠÄįekal": 7050,
      "Ġmisto": 7051,
      "Ġtovy": 7052,
      "Ġvslou": 7053,
      "ĠkÅĻest": 7054,
      "Ġvzdechu": 7055,
      "ĠÅ¡koly": 7056,
      "pas": 7057,
      "ĠvdÃ¡v": 7058,
      "Ġmenech": 7059,
      "ĠtuÅ¡": 7060,
      "ĠtÅ¯Äį": 7061,
      "ĠÄıme": 7062,
      "ĠÄįenstvi": 7063,
      "Ġtony": 7064,
      "Ġdile": 7065,
      "Ġsoudu": 7066,
      "Ġsledu": 7067,
      "ĠsvÄĽtly": 7068,
      "ĠmlÅ¾": 7069,
      "sel": 7070,
      "Ġdcera": 7071,
      "ĠblÅ¯": 7072,
      "ĠraÄįi": 7073,
      "Ġhara": 7074,
      "ĠkrÃ¡m": 7075,
      "ĠvÅ¡ichni": 7076,
      "ĠzchrÃ¡": 7077,
      "Ġpustil": 7078,
      "ĠteÅ¡": 7079,
      "Ġvodou": 7080,
      "ĠviÅĪ": 7081,
      "ĠpaÅ¾": 7082,
      "Ġvsho": 7083,
      "ĠvpÃ½": 7084,
      "Ġvblu": 7085,
      "kost": 7086,
      "Ġchcete": 7087,
      "ĠÅ¡af": 7088,
      "Ġspici": 7089,
      "ĠtlÃ½m": 7090,
      "ĠzÄįi": 7091,
      "ĠÅ¾eti": 7092,
      "Ġvanu": 7093,
      "louz": 7094,
      "Ġhraly": 7095,
      "Ġsporu": 7096,
      "ĠchyÅ¥": 7097,
      "ĠptÃ¡Å¡": 7098,
      "Ġvzdechy": 7099,
      "Ġkvetla": 7100,
      "ĠÄįinÄĽ": 7101,
      "ĠslyÅ¡iÅ¡": 7102,
      "Ġciho": 7103,
      "ĠÅ¾adny": 7104,
      "ĠslÃ©t": 7105,
      "Ġcour": 7106,
      "ĠpÅ¯m": 7107,
      "stem": 7108,
      "ĠÅ¡erem": 7109,
      "ĠbÄĽhu": 7110,
      "Ġbrali": 7111,
      "Ġkleb": 7112,
      "ĠspÄĽcha": 7113,
      "pÄĽt": 7114,
      "kla": 7115,
      "ĠtÄĽny": 7116,
      "Ġvav": 7117,
      "Ġdivi": 7118,
      "Ġvtros": 7119,
      "Ġnechal": 7120,
      "ĠdobÅĻe": 7121,
      "Ġzpom": 7122,
      "Ġvstoup": 7123,
      "Ġdiky": 7124,
      "Ġspy": 7125,
      "Ġhladi": 7126,
      "Ġblaze": 7127,
      "Ġbloudil": 7128,
      "ĠzmÄĽny": 7129,
      "Ġpluj": 7130,
      "Ġvtichu": 7131,
      "Ġkvit": 7132,
      "ĠÅ¡tvÃ¡n": 7133,
      "Ġkcili": 7134,
      "Ġrti": 7135,
      "Ġlenych": 7136,
      "Ġkama": 7137,
      "Ġsahne": 7138,
      "ĠchÃ¡s": 7139,
      "Ġskokem": 7140,
      "Ġvedl": 7141,
      "Ġnne": 7142,
      "Ġcr": 7143,
      "ĠÅĻka": 7144,
      "Ġvukol": 7145,
      "ĠkpÅĻÃŃ": 7146,
      "ĠhnÄĽt": 7147,
      "ĠknimÅ¾": 7148,
      "ĠjvÃ½Å¡": 7149,
      "ĠpaÄį": 7150,
      "Ġsoum": 7151,
      "Ġjedna": 7152,
      "ĠbrÅ¾": 7153,
      "Ġsble": 7154,
      "Ġzmizi": 7155,
      "Ġvanky": 7156,
      "ĠvbÄĽh": 7157,
      "Ġtahy": 7158,
      "ĠrÃ¡k": 7159,
      "ÅĪÃ¡": 7160,
      "Ġvlase": 7161,
      "Ġztros": 7162,
      "ĠtÅĻÃŃÄį": 7163,
      "ĠÄįuje": 7164,
      "ĠvhlavÄĽ": 7165,
      "ĠmnÃŃÅ¡": 7166,
      "ĠvklÃ¡Å¡": 7167,
      "ĠkÅ¡": 7168,
      "Ġbvy": 7169,
      "Å¾ku": 7170,
      "Ġmova": 7171,
      "Ġbraci": 7172,
      "ĠvÅĻeÅ¡": 7173,
      "Å¾et": 7174,
      "Ġskryta": 7175,
      "Ġleskem": 7176,
      "ĠvkroÄįi": 7177,
      "Ġsbira": 7178,
      "sal": 7179,
      "ĠchÅĻa": 7180,
      "Å¯l": 7181,
      "ĠÅ¡enim": 7182,
      "Ġvyt": 7183,
      "ĠkraÅ¡": 7184,
      "ĠpÅĻÃŃl": 7185,
      "ĠkleÄįi": 7186,
      "ĠdÄĽlem": 7187,
      "ĠpyÅĻi": 7188,
      "Ġzlom": 7189,
      "mÄĽt": 7190,
      "Ġvzteku": 7191,
      "Ġzvln": 7192,
      "Ġniho": 7193,
      "Ġduji": 7194,
      "ĠmaÅĻi": 7195,
      "Ġchove": 7196,
      "Ġplazi": 7197,
      "Ġfry": 7198,
      "Ġsouc": 7199,
      "ĠÅ¾ary": 7200,
      "Ġkryla": 7201,
      "Ġrovna": 7202,
      "Ġzdrav": 7203,
      "Ġchvatu": 7204,
      "ĠhÅĻÃ¡t": 7205,
      "ĠAABXBX": 7206,
      "kne": 7207,
      "ĠsÅĻe": 7208,
      "Ġrali": 7209,
      "ĠkavÄĽ": 7210,
      "Ġbati": 7211,
      "Ġpiva": 7212,
      "ĠkeÅĻi": 7213,
      "ĠbÅĻeÅ¾i": 7214,
      "Ġmenna": 7215,
      "ĠbrÃ¡c": 7216,
      "rev": 7217,
      "ĠÅ¡Å¥astni": 7218,
      "Ġskles": 7219,
      "Ġchrt": 7220,
      "Ġnaha": 7221,
      "Ġjisk": 7222,
      "Ġmival": 7223,
      "Ġdleti": 7224,
      "ĠslouÅ¾i": 7225,
      "ĠdrÃ¡ch": 7226,
      "Ġledni": 7227,
      "ĠvsluÅ¾": 7228,
      "Ġvzmat": 7229,
      "rob": 7230,
      "ĠÅ¡eÅĻ": 7231,
      "ĠtyÄįi": 7232,
      "Ġstini": 7233,
      "Ġzlatou": 7234,
      "ĠvÅĻeni": 7235,
      "Ġhluku": 7236,
      "ĠÅĻekne": 7237,
      "ĠviÄįku": 7238,
      "Ġnaty": 7239,
      "Ġspjal": 7240,
      "ĠzvÃ¡t": 7241,
      "Ġsava": 7242,
      "Ġfla": 7243,
      "ĠbÃ¡ÅĪ": 7244,
      "Ġdneska": 7245,
      "ĠkruÅ¡": 7246,
      "ĠklidnÄĽ": 7247,
      "ber": 7248,
      "Ġjeh": 7249,
      "Ġdary": 7250,
      "ĠtouÅ¾il": 7251,
      "Ġzdola": 7252,
      "Ġzniti": 7253,
      "ĠsvlÃ©": 7254,
      "Ġleno": 7255,
      "Ġhavy": 7256,
      "Ġces": 7257,
      "Ġjary": 7258,
      "Ġtyka": 7259,
      "Ġvedli": 7260,
      "ĠÅ¡tve": 7261,
      "ĠpryÅ¡ti": 7262,
      "Ġshani": 7263,
      "ĠhnÃŃ": 7264,
      "Ġkai": 7265,
      "Ġtum": 7266,
      "ĠABAABX": 7267,
      "ĠvnÄĽjÅ¾": 7268,
      "ĠvtvaÅĻi": 7269,
      "Ġlebi": 7270,
      "Ġsiv": 7271,
      "Ġtuhy": 7272,
      "Ġbeny": 7273,
      "Ġslavou": 7274,
      "Ġvrb": 7275,
      "Ġdlouze": 7276,
      "ĠvleÄįe": 7277,
      "ĠÅ¾itim": 7278,
      "ĠÄįtyÅĻ": 7279,
      "Ġhviz": 7280,
      "Ġpjal": 7281,
      "ĠtaÅ¥": 7282,
      "ĠXXXXAA": 7283,
      "Ġvplo": 7284,
      "ĠzhvÄĽz": 7285,
      "ĠÅ¾hava": 7286,
      "ĠpÃ½r": 7287,
      "Ġdoucnost": 7288,
      "Ġtove": 7289,
      "ĠjiÅ¡ti": 7290,
      "Ġnive": 7291,
      "Ġlav": 7292,
      "Ġvedu": 7293,
      "ĠmÃ¡v": 7294,
      "ĠAXB": 7295,
      "Ġprak": 7296,
      "ĠplanÄĽ": 7297,
      "ĠplaÅ¡Å¥": 7298,
      "ĠvtÅĻe": 7299,
      "ĠzmÅ¯": 7300,
      "Ġjase": 7301,
      "ĠÅ¡atu": 7302,
      "ĠzmÄĽn": 7303,
      "Ġsklep": 7304,
      "Ġzchy": 7305,
      "Ġleky": 7306,
      "Ġloz": 7307,
      "Ġjab": 7308,
      "ĠÄįile": 7309,
      "ĠsÃ¡z": 7310,
      "Ġzlet": 7311,
      "ĠfraÅ¡": 7312,
      "Ġfaly": 7313,
      "ĠtÄĽne": 7314,
      "ĠloÅ¾il": 7315,
      "Ġtuni": 7316,
      "Ġbidy": 7317,
      "ĠvÃ½t": 7318,
      "ĠsnÃŃl": 7319,
      "Ġtlukou": 7320,
      "bra": 7321,
      "Ġsg": 7322,
      "Ġjene": 7323,
      "ĠkoÅĪ": 7324,
      "Ġsoko": 7325,
      "Ġklete": 7326,
      "Ġtravi": 7327,
      "Ġhrud": 7328,
      "Ġlibal": 7329,
      "Ġvzmach": 7330,
      "Ġvbah": 7331,
      "ĠÄįÃŃl": 7332,
      "Ġrez": 7333,
      "Ġslovu": 7334,
      "ĠbouÄį": 7335,
      "Ġzod": 7336,
      "ĠtÅĻebi": 7337,
      "ĠzhÅĻÃŃ": 7338,
      "Ġsedla": 7339,
      "ĠÅ¡ept": 7340,
      "ĠvloÄį": 7341,
      "Ġdivam": 7342,
      "Ġrokem": 7343,
      "ĠvÄĽsÅ¥": 7344,
      "Ġduni": 7345,
      "voz": 7346,
      "Ġkslo": 7347,
      "ĠknÄĽÅ¾i": 7348,
      "ĠsvyÅ¡e": 7349,
      "Ġtric": 7350,
      "Ġvtmach": 7351,
      "Ġptej": 7352,
      "Ġtip": 7353,
      "Ġzlat": 7354,
      "Ġlidske": 7355,
      "Ġsviji": 7356,
      "ĠsjÃŃ": 7357,
      "Ġanu": 7358,
      "Ġnany": 7359,
      "ĠÅ¾ej": 7360,
      "ĠjÃ¡c": 7361,
      "Ġvtvo": 7362,
      "Ġslez": 7363,
      "Ġklidem": 7364,
      "Ġumf": 7365,
      "Ġshyba": 7366,
      "Ġkta": 7367,
      "Ġsir": 7368,
      "ĠÅ¾itÄĽ": 7369,
      "Ġhanu": 7370,
      "ĠbÄĽj": 7371,
      "Ġchodil": 7372,
      "Ġhude": 7373,
      "Ġdlid": 7374,
      "ĠmaÄį": 7375,
      "Ġnouze": 7376,
      "Ġsof": 7377,
      "Ġpice": 7378,
      "nut": 7379,
      "Ġpouta": 7380,
      "Ġtrob": 7381,
      "Ġvmar": 7382,
      "ĠuÅ¡t": 7383,
      "th": 7384,
      "ĠÄįni": 7385,
      "Ġlaci": 7386,
      "liÅ¡": 7387,
      "ĠraÅ¾i": 7388,
      "ĠramÄĽ": 7389,
      "Ġsani": 7390,
      "Ġbilou": 7391,
      "Ġes": 7392,
      "ĠbÃ¡ÅĻ": 7393,
      "Ġvrej": 7394,
      "ĠzkÅĻe": 7395,
      "Ġklub": 7396,
      "ĠvzbuÄı": 7397,
      "Ġvesti": 7398,
      "ĠmÄĽje": 7399,
      "Ġbiz": 7400,
      "Ġzrady": 7401,
      "Ġdouci": 7402,
      "Ġvled": 7403,
      "Ġvratky": 7404,
      "ĠvspÃ¡": 7405,
      "Ġkas": 7406,
      "Ġkum": 7407,
      "Ġvisti": 7408,
      "Ġhrati": 7409,
      "Ġpycha": 7410,
      "Ġkolu": 7411,
      "Ġstatu": 7412,
      "ĠÅĻed": 7413,
      "Ġvdou": 7414,
      "Ġbranou": 7415,
      "Ġsvah": 7416,
      "Ġvhrad": 7417,
      "ĠspÄĽt": 7418,
      "Ġfani": 7419,
      "Ġ24": 7420,
      "kle": 7421,
      "Ġzg": 7422,
      "ĠÅ¡lu": 7423,
      "ĠmÄĽvu": 7424,
      "Ġzera": 7425,
      "Ġnute": 7426,
      "ĠÅ¾have": 7427,
      "Ġnor": 7428,
      "Ġstep": 7429,
      "Ġdrava": 7430,
      "Ġstrem": 7431,
      "Ġchramy": 7432,
      "Ġzlid": 7433,
      "ĠvtÄĽle": 7434,
      "Ġvpev": 7435,
      "ĠjlÃ©": 7436,
      "Ġjedu": 7437,
      "ĠÄįlÃ¡": 7438,
      "Ġkopi": 7439,
      "Ġrova": 7440,
      "ĠÅ¡ere": 7441,
      "Ġsmou": 7442,
      "ĠsÃŃd": 7443,
      "Ġsluji": 7444,
      "Ġtvaru": 7445,
      "ĠÅĪat": 7446,
      "Ġlence": 7447,
      "Ġpanna": 7448,
      "ĠAXAXBB": 7449,
      "Ġfaust": 7450,
      "Na": 7451,
      "ĠNa": 7452,
      "ĠvcÃŃ": 7453,
      "Ġsplav": 7454,
      "ĠÅ¡ily": 7455,
      "Ġstebou": 7456,
      "ĠchtÄĽj": 7457,
      "Ġksva": 7458,
      "Ġhodne": 7459,
      "Ġvzplane": 7460,
      "Ġtroud": 7461,
      "ĠNaN": 7462,
      "Ġtky": 7463,
      "ĠjÃŃÅ¥": 7464,
      "ĠsvÃŃÄį": 7465,
      "Ġlati": 7466,
      "ĠdavÄĽ": 7467,
      "ĠvdÅ¯m": 7468,
      "Ġchazel": 7469,
      "ĠplÃ¡n": 7470,
      "Ġmnohy": 7471,
      "ĠzmÄĽna": 7472,
      "Ġdavno": 7473,
      "Ġvkruh": 7474,
      "ÄĽl": 7475,
      "ĠÅ¡ta": 7476,
      "Ġnoty": 7477,
      "Ġdiku": 7478,
      "ĠtunÄĽ": 7479,
      "Ġbudem": 7480,
      "Ġztre": 7481,
      "ĠmraÄįi": 7482,
      "ĠznaÅ¡": 7483,
      "Ġchlej": 7484,
      "ĠdÅĻime": 7485,
      "ĠchlÃ©m": 7486,
      "Ġvmech": 7487,
      "ĠvzÅĪal": 7488,
      "Ġleku": 7489,
      "Ġtime": 7490,
      "ĠlaÅĻe": 7491,
      "Ġveden": 7492,
      "ĠvÄĽÅĻil": 7493,
      "vÄĽl": 7494,
      "ĠpÄĽny": 7495,
      "Ġvlada": 7496,
      "Ġsladke": 7497,
      "Ġmusil": 7498,
      "Ġvblan": 7499,
      "Ġlnou": 7500,
      "ĠÅ¡enou": 7501,
      "Ġzdru": 7502,
      "ĠplaÅ¥": 7503,
      "Ġztro": 7504,
      "Ġmrazi": 7505,
      "Ġstoud": 7506,
      "ĠsdÅ¯": 7507,
      "ĠkrasnÄĽ": 7508,
      "Ġprys": 7509,
      "ĠspuÅ¡": 7510,
      "Ġpoly": 7511,
      "Ġnovu": 7512,
      "Ġlap": 7513,
      "Ġvece": 7514,
      "ĠroÅ¾": 7515,
      "Ġstanul": 7516,
      "Ġvmno": 7517,
      "ĠprÃ¡s": 7518,
      "Ġduchem": 7519,
      "ĠvÄĽrny": 7520,
      "Ġzpola": 7521,
      "Ġvstala": 7522,
      "Ġvstane": 7523,
      "ĠÅ¡tkÃ¡": 7524,
      "po": 7525,
      "Ã¼": 7526,
      "ĠhÃº": 7527,
      "ĠkoÅĻe": 7528,
      "ĠsplÃ©": 7529,
      "ĠnejÅ¡i": 7530,
      "Ġdlivy": 7531,
      "ĠvÅ¡um": 7532,
      "ĠmoÅ¾no": 7533,
      "Ġvkrada": 7534,
      "pÄĽl": 7535,
      "Ġminky": 7536,
      "ĠhnÃ¡n": 7537,
      "ĠtÅĻesou": 7538,
      "ÃŃs": 7539,
      "Ġzani": 7540,
      "Ġtav": 7541,
      "Ġprov": 7542,
      "ĠÄįÃŃn": 7543,
      "Ġbradu": 7544,
      "Ġvrt": 7545,
      "ĠvÅĻene": 7546,
      "ĠvlÃ¡k": 7547,
      "ĠdlÃŃÅ¡": 7548,
      "Ġtalo": 7549,
      "Ġgil": 7550,
      "Ġstkvost": 7551,
      "ĠnÄĽme": 7552,
      "Ġir": 7553,
      "Ġklame": 7554,
      "Ġvkri": 7555,
      "ĠhvÄĽzda": 7556,
      "Ġkluz": 7557,
      "ĠlÃ³": 7558,
      "Ġjena": 7559,
      "Ġlepy": 7560,
      "Ġhove": 7561,
      "Ġzely": 7562,
      "Ġsyti": 7563,
      "Ġhran": 7564,
      "Ġstul": 7565,
      "ĠÅ¡leha": 7566,
      "Ġsbory": 7567,
      "ĠbÅĻin": 7568,
      "Ġknut": 7569,
      "Ġxan": 7570,
      "chod": 7571,
      "Ġzapad": 7572,
      "ĠsloÅ¾i": 7573,
      "Ġtrat": 7574,
      "ĠnÄĽjÅ¾": 7575,
      "ĠvzkÃ¡": 7576,
      "ĠvsobÄĽ": 7577,
      "ĠkspÃ¡n": 7578,
      "AC": 7579,
      "Ġroli": 7580,
      "ĠtÅĻek": 7581,
      "Ġcelem": 7582,
      "Ġvinem": 7583,
      "Ġduh": 7584,
      "ĠchaÅĻ": 7585,
      "ĠhouÅ¡ti": 7586,
      "Ġvlnou": 7587,
      "Ġvbod": 7588,
      "Ġznes": 7589,
      "ĠklÃ©m": 7590,
      "ĠblyÅ¡ti": 7591,
      "Ġbokem": 7592,
      "Ġbledne": 7593,
      "Ġsnich": 7594,
      "ĠneÄįna": 7595,
      "Ġkvam": 7596,
      "Ġsbohem": 7597,
      "ĠmÅĻÃŃÅ¾": 7598,
      "Ġhvizda": 7599,
      "Ġaly": 7600,
      "Ġstada": 7601,
      "Ġrym": 7602,
      "Ġpudi": 7603,
      "Ġhrada": 7604,
      "ĠstÅĻeÅ¾i": 7605,
      "Ġnesl": 7606,
      "Ġznoj": 7607,
      "ĠzlÃ¡t": 7608,
      "ĠdnÃ©m": 7609,
      "ĠbasnÄĽ": 7610,
      "eÅĪ": 7611,
      "Ġnivou": 7612,
      "Ġsazi": 7613,
      "Ġbinu": 7614,
      "ĠztÃ½": 7615,
      "ĠsnÄĽÅ¥": 7616,
      "ĠsnÅ¯v": 7617,
      "ĠzviÅĻe": 7618,
      "ĠÅ¾ou": 7619,
      "Ġtiky": 7620,
      "ĠÅ¡ine": 7621,
      "Ġztvr": 7622,
      "Å¡et": 7623,
      "Ġchviva": 7624,
      "ĠÅĻekla": 7625,
      "ĠhrouÅ¾i": 7626,
      "Ġgraf": 7627,
      "ĠdÅ¾bÃ¡": 7628,
      "ĠsÅ¾a": 7629,
      "Ġhoda": 7630,
      "Ġvabi": 7631,
      "Ġluhy": 7632,
      "Ġpusta": 7633,
      "Ġvals": 7634,
      "ĠkliÄįi": 7635,
      "Ġvzpu": 7636,
      "Ġdrosti": 7637,
      "ĠvÄĽtvi": 7638,
      "ĠsdÃŃl": 7639,
      "Ġprosim": 7640,
      "Ġshury": 7641,
      "Ġkin": 7642,
      "Ġnac": 7643,
      "rost": 7644,
      "ĠvÅ¡tÃŃ": 7645,
      "Ġdilu": 7646,
      "Ġpena": 7647,
      "Ġhum": 7648,
      "Ġtluku": 7649,
      "ĠzmÄĽk": 7650,
      "Ġtliv": 7651,
      "ĠABAXXB": 7652,
      "ÅĻek": 7653,
      "Ġpramen": 7654,
      "ĠÅ¡ira": 7655,
      "Ġzhl": 7656,
      "ĠspÄĽla": 7657,
      "Ġshrou": 7658,
      "Ġdnove": 7659,
      "ĠÅĻeji": 7660,
      "ĠstÃŃÅ¡": 7661,
      "Ġsosti": 7662,
      "Ġjednu": 7663,
      "Ġjasem": 7664,
      "ĠzklÃŃ": 7665,
      "kot": 7666,
      "ĠzlÃ©m": 7667,
      "ĠdÅ¾bÃ¡n": 7668,
      "Ġmsty": 7669,
      "ĠÅ¡ali": 7670,
      "Ġzuji": 7671,
      "Ġvbra": 7672,
      "Ġsnive": 7673,
      "Ġkpla": 7674,
      "Ġzdravy": 7675,
      "ĠvspÄĽch": 7676,
      "Ġkj": 7677,
      "ĠdiÅ¥": 7678,
      "Ġtus": 7679,
      "ĠkÃ¡Å¾": 7680,
      "ĠrÃ¡r": 7681,
      "Ġreji": 7682,
      "Ġpluji": 7683,
      "Ġbaly": 7684,
      "Ġkha": 7685,
      "ĠletÄĽl": 7686,
      "ĠÅ¾ele": 7687,
      "Ġvzemi": 7688,
      "ĠstÃŃs": 7689,
      "Ġvspa": 7690,
      "Ġvkal": 7691,
      "ĠÅĪal": 7692,
      "ĠznaÄįi": 7693,
      "ĠusmÄĽ": 7694,
      "Ġbloze": 7695,
      "ĠhÅĻichy": 7696,
      "ĠzvÃ¡Å¾": 7697,
      "ĠvpouÅ¡Å¥": 7698,
      "Ġvhrudi": 7699,
      "Ġvspol": 7700,
      "Ġmav": 7701,
      "Ġdravi": 7702,
      "deÅ¡": 7703,
      "ĠvÅ¡ecka": 7704,
      "ĠtÅĻiv": 7705,
      "Ġznate": 7706,
      "Ġkvetou": 7707,
      "ĠvzdÃ¡t": 7708,
      "ĠskrytÄĽ": 7709,
      "Ġzdrava": 7710,
      "Ġskloni": 7711,
      "Ġznit": 7712,
      "Ġnicich": 7713,
      "ĠzhoÅĻ": 7714,
      "Ġsjel": 7715,
      "Ġmoty": 7716,
      "Ġpary": 7717,
      "Ġhavu": 7718,
      "Ġhul": 7719,
      "Ġsnivy": 7720,
      "ĠvleÄį": 7721,
      "Ġtmavou": 7722,
      "ĠslyÅ¡im": 7723,
      "ĠtemÄĽ": 7724,
      "Ġgal": 7725,
      "ĠkruÅ¡i": 7726,
      "Ġvmoz": 7727,
      "Ġkrajem": 7728,
      "ĠvmÄĽk": 7729,
      "ĠhÅĻa": 7730,
      "ĠkyÅĪ": 7731,
      "Ġcoval": 7732,
      "Ġvsny": 7733,
      "Ġhravy": 7734,
      "ĠrÃ½Å¾": 7735,
      "tor": 7736,
      "ĠpÅ¯r": 7737,
      "ĠÅ¡kod": 7738,
      "Ġstesku": 7739,
      "Ġvdalku": 7740,
      "ĠtinÄĽ": 7741,
      "Ġzeje": 7742,
      "ĠpÄĽna": 7743,
      "Ġproudu": 7744,
      "Ġztrati": 7745,
      "ĠÅĻÃ¡s": 7746,
      "Ġzdomu": 7747,
      "Ġleskne": 7748,
      "Ġruchem": 7749,
      "ĠvÅ¡edni": 7750,
      "ĠssÃ¡l": 7751,
      "ĠÅ¡klebi": 7752,
      "ĠzÄįÃŃ": 7753,
      "Ġrhy": 7754,
      "Ġzada": 7755,
      "ĠmÄĽls": 7756,
      "ÅĻas": 7757,
      "ĠhÅĻal": 7758,
      "Ġdobry": 7759,
      "Ġgram": 7760,
      "Ġzvlh": 7761,
      "Ġptaka": 7762,
      "Ġpekla": 7763,
      "as": 7764,
      "Ġzky": 7765,
      "ĠniÄįek": 7766,
      "Ġrazi": 7767,
      "Ġmluvit": 7768,
      "Ġvjezd": 7769,
      "ĠzrÃ¡l": 7770,
      "ĠdiÄįka": 7771,
      "ĠÅ¡tÃ¡": 7772,
      "ĠbÃŃk": 7773,
      "Ġkralem": 7774,
      "ĠÄįerni": 7775,
      "Ġsmol": 7776,
      "Ġalu": 7777,
      "aky": 7778,
      "Ġdere": 7779,
      "Ġspli": 7780,
      "Ġsii": 7781,
      "Ġvladce": 7782,
      "Ġzkli": 7783,
      "Ġmoud": 7784,
      "ĠÅĻadi": 7785,
      "Ġzbyla": 7786,
      "dlech": 7787,
      "Ġcnosti": 7788,
      "ĠÅ¾nÄĽ": 7789,
      "ĠvÄĽÅ¾e": 7790,
      "Ġnuj": 7791,
      "Ġpici": 7792,
      "Ġsnila": 7793,
      "Ġbludu": 7794,
      "ĠÅ¡koda": 7795,
      "Ġtovat": 7796,
      "ĠvÄĽdÄĽt": 7797,
      "Ġchyl": 7798,
      "Ġschlad": 7799,
      "ĠzÅĻeli": 7800,
      "Ġblouk": 7801,
      "ĠsbÄĽh": 7802,
      "ĠpnÄĽ": 7803,
      "Ġlim": 7804,
      "Ġline": 7805,
      "Ġzami": 7806,
      "Ġsiva": 7807,
      "ĠjsemÅ¥": 7808,
      "ĠzÃŃtÅĻ": 7809,
      "ĠsÃ¡k": 7810,
      "ĠsÃ¡n": 7811,
      "Ġfin": 7812,
      "ĠÅĻÅ¯v": 7813,
      "Ġsahla": 7814,
      "Ġstanou": 7815,
      "ĠÅĻech": 7816,
      "ĠzÃ¡j": 7817,
      "Ġpuji": 7818,
      "Ġslunci": 7819,
      "ĠvnÃ¡d": 7820,
      "ĠvtravÄĽ": 7821,
      "Ã¤": 7822,
      "Ġtera": 7823,
      "Ġnite": 7824,
      "ĠvtmÄĽ": 7825,
      "Ġtlumi": 7826,
      "ĠÅ¡epce": 7827,
      "ĠjvyÅ¡Å¡i": 7828,
      "Ġmilost": 7829,
      "Ġsluhu": 7830,
      "Ġzran": 7831,
      "ĠÄįerny": 7832,
      "Ġzdala": 7833,
      "ĠvÄįely": 7834,
      "ĠÅ¾enstvi": 7835,
      "Ġcyt": 7836,
      "Ġfes": 7837,
      "Ġobzor": 7838,
      "Ġblem": 7839,
      "ĠcÅ¾e": 7840,
      "Ġrohy": 7841,
      "ĠbodÄĽ": 7842,
      "Ġjam": 7843,
      "Ġbene": 7844,
      "Ġbuk": 7845,
      "Ġbrala": 7846,
      "Ġvmat": 7847,
      "Ġpozna": 7848,
      "ĠtrÃ¡m": 7849,
      "ĠÅ¡plou": 7850,
      "ĠztiÅ¡": 7851,
      "ĠvlidnÄĽ": 7852,
      "ĠÅĻuje": 7853,
      "ĠsÃ½m": 7854,
      "Ġtelu": 7855,
      "ĠÄįeno": 7856,
      "Ġjate": 7857,
      "Ġchopil": 7858,
      "Ġtoul": 7859,
      "Ġsvadi": 7860,
      "ĠhÅĻiva": 7861,
      "ĠÄįechu": 7862,
      "ĠviÅĻe": 7863,
      "Ġjaro": 7864,
      "Ġtuli": 7865,
      "ĠbeÄį": 7866,
      "Ġprave": 7867,
      "ĠhravÄĽ": 7868,
      "Ġzvednou": 7869,
      "Ġzchla": 7870,
      "Ġsvrh": 7871,
      "Ġbytu": 7872,
      "Ġmau": 7873,
      "ĠlÃ¡d": 7874,
      "Ġkrati": 7875,
      "ĠkleÅ¡": 7876,
      "Ġskot": 7877,
      "tost": 7878,
      "ĠoheÅĪ": 7879,
      "Ġtres": 7880,
      "Ġpsan": 7881,
      "Ġnvi": 7882,
      "Ġmita": 7883,
      "Ġvale": 7884,
      "Ġvzmu": 7885,
      "ĠÅĻet": 7886,
      "Ġbram": 7887,
      "ĠsmÄĽji": 7888,
      "ĠzhÃ¡": 7889,
      "ĠbÅĻehy": 7890,
      "Ġfil": 7891,
      "Ġstruny": 7892,
      "Ġtvrz": 7893,
      "ĠÅ¾uj": 7894,
      "Ġzmatku": 7895,
      "Ġmsta": 7896,
      "ĠÄįnÄĽl": 7897,
      "ĠchÅĻ": 7898,
      "Ġchvost": 7899,
      "ĠletÄĽ": 7900,
      "ĠvÄĽno": 7901,
      "Ġmuti": 7902,
      "Ġstoru": 7903,
      "ĠpÄĽÅ¡": 7904,
      "Ġloudi": 7905,
      "ĠvolnÄĽ": 7906,
      "Ġpaly": 7907,
      "Ġzmije": 7908,
      "Ġjitro": 7909,
      "Ġtlouci": 7910,
      "Ġvavou": 7911,
      "Ġzebe": 7912,
      "ĠsiÅĪ": 7913,
      "Ġpile": 7914,
      "Ġpudy": 7915,
      "Ġjedno": 7916,
      "ĠvmÅ¯j": 7917,
      "ĠsviÅ¾": 7918,
      "ĠpevnÄĽ": 7919,
      "ĠtiÄįka": 7920,
      "Ġchvaly": 7921,
      "ĠABCCAB": 7922,
      "ĠzÅ¯m": 7923,
      "Ġzast": 7924,
      "ĠÅ¾est": 7925,
      "Ġklati": 7926,
      "Ġsnaha": 7927,
      "ĠsnÄĽÅ¾i": 7928,
      "ban": 7929,
      "Ġsdce": 7930,
      "Ġvzplal": 7931,
      "Ġkaty": 7932,
      "ĠvosÅ¥": 7933,
      "Ġras": 7934,
      "ĠsaÅĻi": 7935,
      "Ġdenkrat": 7936,
      "ĠsnaÅ¡i": 7937,
      "Ġtron": 7938,
      "ĠpÅĻÃ¡t": 7939,
      "ĠzpÃŃs": 7940,
      "ĠdvoÅĻi": 7941,
      "ĠvzÃ¡m": 7942,
      "Ġzdobi": 7943,
      "Ġlebky": 7944,
      "Ġvinnost": 7945,
      "Ġprsou": 7946,
      "Ġvadlo": 7947,
      "Ġlamp": 7948,
      "ĠusmÄĽv": 7949,
      "om": 7950,
      "ĠÅ¾enych": 7951,
      "cit": 7952,
      "Ġvraji": 7953,
      "Ġsladkou": 7954,
      "Ġsmutek": 7955,
      "zek": 7956,
      "ĠtluÄįe": 7957,
      "Ġthi": 7958,
      "ĠgroÅ¡": 7959,
      "Ġvzho": 7960,
      "ĠÅ¾an": 7961,
      "ĠsbÅĻe": 7962,
      "Ġschra": 7963,
      "Ġvemu": 7964,
      "Ġsmalo": 7965,
      "Ġvproud": 7966,
      "Å¡ad": 7967,
      "ĠÄįeÅ¥": 7968,
      "ĠÅ¡ij": 7969,
      "Ġdrave": 7970,
      "der": 7971,
      "Ġpouha": 7972,
      "ĠstÅĻedu": 7973,
      "ĠvhÅĻÃŃ": 7974,
      "ĠbÅĻes": 7975,
      "Ġplody": 7976,
      "ĠhÅ¯v": 7977,
      "Ġgii": 7978,
      "ĠctnÃ½": 7979,
      "Ġpsani": 7980,
      "Ġstkvou": 7981,
      "ĠXXXAAX": 7982,
      "ĠsÃ½ch": 7983,
      "ĠsÅ¾ÃŃ": 7984,
      "Ġzvat": 7985,
      "Ġtati": 7986,
      "ĠvÄĽly": 7987,
      "Ġvave": 7988,
      "ĠÅ¡ec": 7989,
      "Ġkranu": 7990,
      "Ġsoudi": 7991,
      "ĠznÄĽji": 7992,
      "Ġzvykem": 7993,
      "Ġstojim": 7994,
      "Ġkole": 7995,
      "Ġholem": 7996,
      "Ġvinul": 7997,
      "ĠvÅ¡eru": 7998,
      "Ġkladou": 7999,
      "Ġvrata": 8000,
      "Ġplnou": 8001,
      "Ġbron": 8002,
      "Ġkonal": 8003,
      "ĠbratÅĻe": 8004,
      "Ġzdroji": 8005,
      "ĠvmraÄį": 8006,
      "Ġpotom": 8007,
      "Ġbyst": 8008,
      "Ġlog": 8009,
      "ĠsvÄĽÅ¥": 8010,
      "ĠvplÃŃ": 8011,
      "ĠstÅĻechu": 8012,
      "ĠstÃ½l": 8013,
      "Ġhadka": 8014,
      "ĠpÅĻatel": 8015,
      "ĠchÅĻest": 8016,
      "Ġlaur": 8017,
      "ĠÄįinil": 8018,
      "ĠbÄĽli": 8019,
      "ĠprsÅ¥": 8020,
      "ĠtenÅ¥": 8021,
      "Ġhouci": 8022,
      "Ġsniti": 8023,
      "ĠhnÄĽvy": 8024,
      "ĠskryÅ¡": 8025,
      "Ġvchla": 8026,
      "Ġztoho": 8027,
      "ĠzluÄį": 8028,
      "por": 8029,
      "Ġsef": 8030,
      "Ġpotu": 8031,
      "ĠtÄĽÅ¾i": 8032,
      "Ġvada": 8033,
      "Ġvtlu": 8034,
      "Ġmladou": 8035,
      "Ġdles": 8036,
      "ĠdvoÅĻe": 8037,
      "Ġmalem": 8038,
      "ĠtevÅĻ": 8039,
      "Ġpovim": 8040,
      "pou": 8041,
      "ĠstvÄĽ": 8042,
      "Ġnoho": 8043,
      "ĠÅĻela": 8044,
      "Ġdrama": 8045,
      "ĠgÃ©": 8046,
      "Ġzuru": 8047,
      "Ġspala": 8048,
      "Ġchvilku": 8049,
      "lÃ³": 8050,
      "ĠtoÅ¡": 8051,
      "Ġtoky": 8052,
      "Ġnon": 8053,
      "Ġgor": 8054,
      "ĠzumÄĽl": 8055,
      "Ġtvoru": 8056,
      "ĠAAABBX": 8057,
      "Ġzhnu": 8058,
      "Ġdivu": 8059,
      "Ġkres": 8060,
      "Ġzbav": 8061,
      "ĠÅ¡ÅĪÅ¯": 8062,
      "Ġkoh": 8063,
      "ĠÄįec": 8064,
      "Ġmota": 8065,
      "ĠtÃ©r": 8066,
      "Ġdrahu": 8067,
      "ĠvÄĽÄįny": 8068,
      "sit": 8069,
      "ÅĻan": 8070,
      "ĠÅ¡atÄĽ": 8071,
      "Ġvchmu": 8072,
      "ĠpÅĻano": 8073,
      "ĠzÄįech": 8074,
      "ĠÄįasto": 8075,
      "Ġrhyt": 8076,
      "Ġzchu": 8077,
      "ĠÅ¡ero": 8078,
      "Ġcis": 8079,
      "Ġtran": 8080,
      "ĠmdlÃ½m": 8081,
      "Ġsvitem": 8082,
      "ĠhÅĻÃ¡l": 8083,
      "ĠÄįtou": 8084,
      "ĠÅĻkou": 8085,
      "Ġceno": 8086,
      "Ġcenu": 8087,
      "ĠtoÅĪ": 8088,
      "Ġskte": 8089,
      "Ġvysk": 8090,
      "Ġbohou": 8091,
      "Ġspjat": 8092,
      "Ġkryta": 8093,
      "Ġvesna": 8094,
      "Ġbasni": 8095,
      "ĠknÃ½ch": 8096,
      "Ġsry": 8097,
      "Ġbob": 8098,
      "Ġpravo": 8099,
      "Ġbinach": 8100,
      "Ġstolem": 8101,
      "Ġhrali": 8102,
      "Ġdvoru": 8103,
      "ĠchÃ½Å¾": 8104,
      "Ġvtisk": 8105,
      "ĠnoÄįni": 8106,
      "Ġvsad": 8107,
      "ĠskÅĻÃŃt": 8108,
      "Ġtahle": 8109,
      "Ġskvouci": 8110,
      "Ġmysl": 8111,
      "os": 8112,
      "Ġkce": 8113,
      "ĠÅĻÃ¡t": 8114,
      "Ġminu": 8115,
      "ĠÅ¾izni": 8116,
      "Ġplan": 8117,
      "Ġsod": 8118,
      "Ġzila": 8119,
      "ĠstÅĻet": 8120,
      "ĠstÄĽna": 8121,
      "Ġrouci": 8122,
      "ĠshnÄĽ": 8123,
      "Ġpalu": 8124,
      "Ġpliv": 8125,
      "Ġmusim": 8126,
      "ĠsÅ¥a": 8127,
      "ĠÅĻisÅ¥": 8128,
      "Ġchory": 8129,
      "Ġvdnech": 8130,
      "Ġzlomi": 8131,
      "vur": 8132,
      "Ġshra": 8133,
      "Ġjarem": 8134,
      "Ġrychle": 8135,
      "ĠvznÃ©st": 8136,
      "Ġjvi": 8137,
      "Ġai": 8138,
      "Ġleko": 8139,
      "ĠroÅ¡": 8140,
      "ĠvÄĽnec": 8141,
      "ĠdÄĽÅ¥": 8142,
      "Ġnuta": 8143,
      "ĠmÃŃch": 8144,
      "Ġvul": 8145,
      "Ġksmichu": 8146,
      "Ġchladu": 8147,
      "ĠhnÄĽte": 8148,
      "Ġvdov": 8149,
      "ĠsÄįela": 8150,
      "ĠmÅĻit": 8151,
      "Ġjic": 8152,
      "Ġdeho": 8153,
      "Ġbon": 8154,
      "Ġdim": 8155,
      "Ġluny": 8156,
      "ĠvkÅĻÃŃ": 8157,
      "Ġkrovy": 8158,
      "Ġcitem": 8159,
      "Ġmdlob": 8160,
      "Ġnane": 8161,
      "Ġdolem": 8162,
      "Ġviska": 8163,
      "Ġvzy": 8164,
      "Ġmany": 8165,
      "Ġzeti": 8166,
      "Ġvper": 8167,
      "ĠpÃ¡Å¡": 8168,
      "Ġzradu": 8169,
      "Ġspoj": 8170,
      "ĠonÅ¥": 8171,
      "ĠzkvÄĽt": 8172,
      "Ġsmil": 8173,
      "ĠhÅĻiv": 8174,
      "ĠÅ¡kÃ¡": 8175,
      "ĠcvrÄį": 8176,
      "ĠlstÃŃ": 8177,
      "Ġnoval": 8178,
      "ĠjÃŃÄį": 8179,
      "ĠÅ¡eli": 8180,
      "Ġzeb": 8181,
      "ĠÅĻeku": 8182,
      "Ġkralu": 8183,
      "Ġvraj": 8184,
      "Ġzoval": 8185,
      "ĠmarnÄĽ": 8186,
      "Ġchvale": 8187,
      "ĠbrÃ©m": 8188,
      "Ġnikum": 8189,
      "ĠdcÅ¯": 8190,
      "ĠleÄı": 8191,
      "ĠkoÅ¡i": 8192,
      "Ġlavy": 8193,
      "Ġlami": 8194,
      "ĠvÃŃÅ¾": 8195,
      "Ġnulost": 8196,
      "ĠzblÃ¡": 8197,
      "Ġvstr": 8198,
      "ĠABBAAB": 8199,
      "Ġmls": 8200,
      "ĠÅĻadou": 8201,
      "Ġstydi": 8202,
      "Ġproudi": 8203,
      "ĠÅ¡epta": 8204,
      "Ġspit": 8205,
      "Ġstrhl": 8206,
      "Ġschyli": 8207,
      "ĠtÄĽp": 8208,
      "Ġboce": 8209,
      "ĠtÅĻej": 8210,
      "ĠneÄįne": 8211,
      "Ġzhloub": 8212,
      "Ġmnil": 8213,
      "Ġpau": 8214,
      "Ġtymi": 8215,
      "ĠÃºÄį": 8216,
      "Ġbesy": 8217,
      "ĠÄıoun": 8218,
      "ĠÅ¡ov": 8219,
      "Ġzjich": 8220,
      "Ġvchazi": 8221,
      "ĠsvÅ¡e": 8222,
      "ĠteÅĻi": 8223,
      "Ġtiva": 8224,
      "Ġvenou": 8225,
      "ĠvÄĽda": 8226,
      "Ġmovu": 8227,
      "ĠhavÄĽ": 8228,
      "ĠpÅĻih": 8229,
      "Ġstroje": 8230,
      "Ġtravou": 8231,
      "ĠÅ¥at": 8232,
      "Ġjvice": 8233,
      "zne": 8234,
      "Äįem": 8235,
      "ĠvisÅ¥": 8236,
      "Ġpilo": 8237,
      "Ġvtvr": 8238,
      "Ġtemne": 8239,
      "Ġhoust": 8240,
      "Ġzust": 8241,
      "ĠÅ¾asu": 8242,
      "Ġkrytu": 8243,
      "ĠsmÃŃÅ¡": 8244,
      "ĠvÄĽtÅĻi": 8245,
      "Ġchmuru": 8246,
      "ĠbiÄįku": 8247,
      "ĠtÄĽjÅ¡i": 8248,
      "ĠzhouÅ¡": 8249,
      "Ġzmlh": 8250,
      "ĠvtÅ¯ÅĪ": 8251,
      "ĠlpÃŃ": 8252,
      "Ġcli": 8253,
      "ĠÄįme": 8254,
      "ĠliÄįek": 8255,
      "Ġlace": 8256,
      "ĠvÄĽstu": 8257,
      "Ġvyska": 8258,
      "Ġsaji": 8259,
      "ĠbanÄĽ": 8260,
      "Ġspanek": 8261,
      "ĠÅ¡an": 8262,
      "Ġtichem": 8263,
      "ĠnÄĽjÅ¡im": 8264,
      "ĠvÄĽÅĻim": 8265,
      "bro": 8266,
      "ĠtnÃ©": 8267,
      "Ġrre": 8268,
      "Ġamen": 8269,
      "Ġvzdou": 8270,
      "ĠvÅ¡er": 8271,
      "Ġpene": 8272,
      "ĠtÃ©l": 8273,
      "ĠkraÄįel": 8274,
      "Ġhrn": 8275,
      "ĠvzÃ¡ÅĻ": 8276,
      "ĠdlÃŃt": 8277,
      "Ġvsed": 8278,
      "ĠzhyÅĪ": 8279,
      "Ġtahnou": 8280,
      "Ġvstinu": 8281,
      "Ġroka": 8282,
      "Ġstot": 8283,
      "ĠstÅĻej": 8284,
      "zich": 8285,
      "ĠhrÃ¡ch": 8286,
      "ĠslÃŃÄį": 8287,
      "ĠstejnÄĽ": 8288,
      "Ġvital": 8289,
      "ĠÅ¡kra": 8290,
      "ĠstrÃ½Äį": 8291,
      "Ġsteskem": 8292,
      "Ġschvati": 8293,
      "cky": 8294,
      "Ġone": 8295,
      "Ġzau": 8296,
      "ĠnÄĽlo": 8297,
      "ĠÅĻizy": 8298,
      "Ġfli": 8299,
      "Ġvus": 8300,
      "Ġvlady": 8301,
      "ĠbranÄĽ": 8302,
      "Ġvtla": 8303,
      "ĠvmÅ¾ik": 8304,
      "ĠpozdÄĽ": 8305,
      "Ġklesl": 8306,
      "Ġkbohu": 8307,
      "ĠzdÅĻÃŃm": 8308,
      "Ġzcu": 8309,
      "Ġseje": 8310,
      "Ġleha": 8311,
      "Ġvest": 8312,
      "ĠvÄĽÅ¥": 8313,
      "ĠtÄĽte": 8314,
      "Ġzelo": 8315,
      "Ġzeno": 8316,
      "Ġdas": 8317,
      "Ġdaru": 8318,
      "Ġprahne": 8319,
      "ĠvdÃ½": 8320,
      "Ġsrdcem": 8321,
      "Ġklamy": 8322,
      "Ġzhe": 8323,
      "ĠshlÃ©": 8324,
      "ĠvniÅ¾": 8325,
      "Ġvzim": 8326,
      "Ġvzit": 8327,
      "Ġsda": 8328,
      "ĠvÅĪÃ¡": 8329,
      "lec": 8330,
      "Ġlity": 8331,
      "Ġzala": 8332,
      "Ġlomi": 8333,
      "ĠÅĻiÄı": 8334,
      "mech": 8335,
      "Ġblahu": 8336,
      "Ġzloby": 8337,
      "ĠpÅĻÃ¡h": 8338,
      "Ġmohla": 8339,
      "Ġstkvi": 8340,
      "ĠÄįtvrt": 8341,
      "kli": 8342,
      "Ġdvr": 8343,
      "ABA": 8344,
      "ĠÄįiha": 8345,
      "Ġzory": 8346,
      "Ġvesla": 8347,
      "Ġsickrat": 8348,
      "ĠsmrÃ¡": 8349,
      "Ġchas": 8350,
      "ĠstÅĻen": 8351,
      "Ġpychy": 8352,
      "ĠdlÃ¡Å¾": 8353,
      "ĠvznÄĽtu": 8354,
      "ĠmnÃŃm": 8355,
      "Ġkoho": 8356,
      "Ġjisti": 8357,
      "Ġtai": 8358,
      "ĠtrÃ³": 8359,
      "Ġchovat": 8360,
      "Ġhuj": 8361,
      "Ġziral": 8362,
      "ĠÅ¾ab": 8363,
      "Ġklon": 8364,
      "Ġprus": 8365,
      "Ġzbude": 8366,
      "ĠzÅĻidla": 8367,
      "ĠvtÃŃs": 8368,
      "ĠstÅĻasa": 8369,
      "Ġtmi": 8370,
      "ĠpoÄı": 8371,
      "Ġkovat": 8372,
      "Ġhovor": 8373,
      "Ġlinu": 8374,
      "ĠjiÅĻi": 8375,
      "Ġpata": 8376,
      "ĠdyÅ¡i": 8377,
      "Ġhadi": 8378,
      "Ġmyka": 8379,
      "Ġretem": 8380,
      "Ġchav": 8381,
      "Ġhouk": 8382,
      "Ġvelka": 8383,
      "Ġvleh": 8384,
      "Ġschnou": 8385,
      "ĠkneÅ¡": 8386,
      "ĠvhoÅĻ": 8387,
      "ĠzvÃŃÅ¡": 8388,
      "ĠmÅĻiÅ¾i": 8389,
      "ĠkspÃ¡": 8390,
      "ĠsÅĻi": 8391,
      "ĠsÄįi": 8392,
      "Ġllen": 8393,
      "ĠzÅ¾": 8394,
      "lach": 8395,
      "Ġnovem": 8396,
      "ĠviÅ¥": 8397,
      "Ġhami": 8398,
      "Ġvlaji": 8399,
      "ĠziÅ¡": 8400,
      "Ġvrazi": 8401,
      "Ġsvoj": 8402,
      "ĠÅĻan": 8403,
      "Ġvkar": 8404,
      "Ġstrachem": 8405,
      "ĠvzrÅ¯st": 8406,
      "ĠksluÅ¾": 8407,
      "ĠoÅĻi": 8408,
      "Ġtot": 8409,
      "ĠlaÅĻi": 8410,
      "Ġvoji": 8411,
      "ĠpaÅĪ": 8412,
      "Ġberu": 8413,
      "ĠÅ¡ile": 8414,
      "ĠbÃ¡r": 8415,
      "Ġblaho": 8416,
      "Ġhrb": 8417,
      "Ġhen": 8418,
      "ĠvÅĻena": 8419,
      "Ġzhli": 8420,
      "Ġzloba": 8421,
      "ĠtÅĻima": 8422,
      "Ġvlidny": 8423,
      "ĠkÅĻovi": 8424,
      "Ġsjas": 8425,
      "Ġnavist": 8426,
      "Ġmzdu": 8427,
      "Ġmaru": 8428,
      "Ġsmla": 8429,
      "ĠtouÄį": 8430,
      "Ġslovi": 8431,
      "Ġsvati": 8432,
      "Ġkroj": 8433,
      "Ġkryji": 8434,
      "Ġsplyval": 8435,
      "Ġhmot": 8436,
      "ĠstvÃ½m": 8437,
      "Ġstret": 8438,
      "Ġcej": 8439,
      "Ġlaj": 8440,
      "ĠtÄĽli": 8441,
      "Ġbum": 8442,
      "Ġkoupa": 8443,
      "Ġhynu": 8444,
      "ĠvÅ¾ha": 8445,
      "Ġznas": 8446,
      "Ġznaji": 8447,
      "ĠÄįtr": 8448,
      "ĠvdeÅ¡": 8449,
      "Ġlaje": 8450,
      "ĠvoÄı": 8451,
      "Ġprosty": 8452,
      "Ġzkni": 8453,
      "Ġplesy": 8454,
      "Ġkvitky": 8455,
      "Ġvinne": 8456,
      "Ġmrazem": 8457,
      "ĠknÃ½m": 8458,
      "hrad": 8459,
      "ĠkoÅĻan": 8460,
      "ĠmoÅĻem": 8461,
      "Ġmac": 8462,
      "ĠhynÄĽ": 8463,
      "Ġdarem": 8464,
      "ĠvlÃŃÄį": 8465,
      "ĠvÃºc": 8466,
      "Ġskel": 8467,
      "Ġlichu": 8468,
      "Ġtanu": 8469,
      "nÄĽz": 8470,
      "Ġprodli": 8471,
      "Ġhana": 8472,
      "Ġplaz": 8473,
      "ĠjasnÄĽ": 8474,
      "ĠtÅĻÃŃÅ¡Å¥": 8475,
      "Ġvejte": 8476,
      "ĠtiÄįku": 8477,
      "ĠXABB": 8478,
      "tvi": 8479,
      "Ġdvur": 8480,
      "ĠÅ¡lou": 8481,
      "ĠÅ¡eÄı": 8482,
      "ruh": 8483,
      "Ġvalu": 8484,
      "Ġtral": 8485,
      "Ġdliva": 8486,
      "Ġjinak": 8487,
      "ĠvadÅ¾": 8488,
      "ĠbiÄįka": 8489,
      "ĠtevÅĻel": 8490,
      "ĠdevÅ¡ad": 8491,
      "Ġvples": 8492,
      "ĠnaÅ¥": 8493,
      "Ġvaze": 8494,
      "ĠfÄĽ": 8495,
      "ĠstÃ¡m": 8496,
      "Ġslok": 8497,
      "ĠstraÅĪ": 8498,
      "Ġdliv": 8499,
      "ĠvloÅ¾i": 8500,
      "Ġprinc": 8501,
      "Ġviva": 8502,
      "Ġduhy": 8503,
      "Ġbesich": 8504,
      "Ġzdla": 8505,
      "Ġsun": 8506,
      "Ġkruhy": 8507,
      "Ġshl": 8508,
      "ĠtÄĽÅ¾ka": 8509,
      "Ġzjevu": 8510,
      "Ġpsano": 8511,
      "Ġgur": 8512,
      "Ġzahrad": 8513,
      "ĠthÃ©": 8514,
      "Ġlinou": 8515,
      "Ġveno": 8516,
      "ĠjÃ¡Å¥": 8517,
      "Ġchasu": 8518,
      "ĠstraÅ¾e": 8519,
      "ĠvÄĽÄįnÄĽ": 8520,
      "Ġskost": 8521,
      "ĠniÄįko": 8522,
      "ĠoltaÅĻ": 8523,
      "ĠÅ¡atem": 8524,
      "ĠchtÃŃÄį": 8525,
      "ĠspÅĻeÅ¾": 8526,
      "Ġroby": 8527,
      "ĠtavÄĽ": 8528,
      "Ġkymi": 8529,
      "Ġboty": 8530,
      "Ġstili": 8531,
      "Ġtelne": 8532,
      "ĠkpÃŃs": 8533,
      "Ġlovna": 8534,
      "ĠhÅĻej": 8535,
      "pan": 8536,
      "ĠskrÃ½t": 8537,
      "ĠmraÄįna": 8538,
      "ĠbrouÄį": 8539,
      "ĠktrÅ¯": 8540,
      "ĠÅ¡Ã¡k": 8541,
      "ĠzchvÃ¡": 8542,
      "ĠhÅĻmÃŃt": 8543,
      "Ġsfer": 8544,
      "ĠXAAXXX": 8545,
      "Ġcon": 8546,
      "Ġtyl": 8547,
      "Ġvsr": 8548,
      "Ġplany": 8549,
      "ĠvÅĻelo": 8550,
      "Ġvduchu": 8551,
      "Ġpravda": 8552,
      "Ġbliz": 8553,
      "Ġlebce": 8554,
      "Ġvprachu": 8555,
      "Ġllah": 8556,
      "ĠtiÅ¥": 8557,
      "Ġrovat": 8558,
      "Ġmenou": 8559,
      "ĠlÃ¡r": 8560,
      "Ġbam": 8561,
      "Ġzradi": 8562,
      "Ġmlazi": 8563,
      "ĠkÅĻiky": 8564,
      "Ġmatko": 8565,
      "Ġmnohem": 8566,
      "Ġksa": 8567,
      "Ġsnici": 8568,
      "Ġtman": 8569,
      "ĠvchÃ½": 8570,
      "Ġtkliva": 8571,
      "Ġheslo": 8572,
      "Ġtovi": 8573,
      "Ġski": 8574,
      "Ġvady": 8575,
      "Ġboke": 8576,
      "Ġjako": 8577,
      "ĠradÄĽ": 8578,
      "ĠÄįiÅ¾": 8579,
      "Ġsmlu": 8580,
      "Ġsluh": 8581,
      "Ġzbr": 8582,
      "Ġsvar": 8583,
      "ĠstÅĻeh": 8584,
      "Ġspasa": 8585,
      "ĠÅ¾Ã¡t": 8586,
      "ĠbÅĻez": 8587,
      "sten": 8588,
      "ĠklÃ¡st": 8589,
      "ĠmÄĽkky": 8590,
      "ĠmÄĽstu": 8591,
      "ĠmÄĽstÄĽ": 8592,
      "ĠbudeÅ¡": 8593,
      "Ġsplet": 8594,
      "Ġnahla": 8595,
      "Ġvbrz": 8596,
      "Ġlne": 8597,
      "Å¡ka": 8598,
      "Ġpota": 8599,
      "Ġsvu": 8600,
      "ĠkanÄĽ": 8601,
      "Ġdele": 8602,
      "Ġmavy": 8603,
      "ĠpÃŃc": 8604,
      "Ġvalem": 8605,
      "Ġspov": 8606,
      "Ġchyby": 8607,
      "ĠkroÄįi": 8608,
      "Ġskorem": 8609,
      "ĠtisnÄĽ": 8610,
      "Ġlistu": 8611,
      "Ġtret": 8612,
      "Ġrostou": 8613,
      "ĠvplÃ¡Äį": 8614,
      "mem": 8615,
      "ĠmÃº": 8616,
      "Ġkonu": 8617,
      "ĠnÃ½ÅĻ": 8618,
      "ĠvÄĽÅĻe": 8619,
      "Ġkynou": 8620,
      "ĠbeÅĻ": 8621,
      "Ġsbu": 8622,
      "Ġzvani": 8623,
      "Ġfrak": 8624,
      "ĠvdÃŃl": 8625,
      "Ġnama": 8626,
      "Ġdovat": 8627,
      "Ġruny": 8628,
      "ĠÅ¾ivÄĽ": 8629,
      "ĠbuÅ¡": 8630,
      "Ġlum": 8631,
      "Ġfem": 8632,
      "Ġzon": 8633,
      "ĠkÅĻiÄį": 8634,
      "Ġzjevy": 8635,
      "Ġblohu": 8636,
      "ĠchÅĻice": 8637,
      "ĠctÃŃt": 8638,
      "Ġhn": 8639,
      "Ġtoh": 8640,
      "Ġninu": 8641,
      "ĠniÄįi": 8642,
      "Ġvory": 8643,
      "Ġhladu": 8644,
      "Ġred": 8645,
      "Ġstudi": 8646,
      "Ġnesa": 8647,
      "ĠbrÃ¡n": 8648,
      "ĠvlÃ¡l": 8649,
      "ĠzmÄĽti": 8650,
      "Ġzbudi": 8651,
      "Ġbrouk": 8652,
      "ĠplÃ©m": 8653,
      "ĠspÄĽchem": 8654,
      "ĠvtvaÅĻ": 8655,
      "ym": 8656,
      "Ġniz": 8657,
      "ĠtaÅ¾e": 8658,
      "Ġzvem": 8659,
      "Ġchudou": 8660,
      "ĠzÃŃk": 8661,
      "Ġblahem": 8662,
      "Ġvklu": 8663,
      "Ġvstej": 8664,
      "Ġpravdu": 8665,
      "Ġknihu": 8666,
      "ĠvyÅ¡Å¡i": 8667,
      "Ġhnizda": 8668,
      "ĠvaÅ¡nÄĽ": 8669,
      "Ġhora": 8670,
      "Ġtih": 8671,
      "ĠÅ¾ely": 8672,
      "Ġhlady": 8673,
      "Ġbavy": 8674,
      "ĠsouÅ¾i": 8675,
      "ĠABBAAX": 8676,
      "Ġskoku": 8677,
      "ĠÅ¡las": 8678,
      "Ġtryzni": 8679,
      "Ġkvasu": 8680,
      "Ġumr": 8681,
      "ĠkrÃ½t": 8682,
      "Ġpeklo": 8683,
      "Ġlenym": 8684,
      "ĠÅ¡eti": 8685,
      "lon": 8686,
      "ĠÅ¾ite": 8687,
      "Ġkrt": 8688,
      "Ġhyba": 8689,
      "Ġvlnach": 8690,
      "hev": 8691,
      "Ġkrasnou": 8692,
      "ĠvÄįlo": 8693,
      "ĠÅ¡van": 8694,
      "ĠbÅĻa": 8695,
      "Ġleto": 8696,
      "ĠliÅ¥": 8697,
      "Ġjinu": 8698,
      "Ġkanu": 8699,
      "ĠmoÅĪ": 8700,
      "Ġstiska": 8701,
      "Ġbada": 8702,
      "ĠtÃ½n": 8703,
      "Ġchytil": 8704,
      "Ġblek": 8705,
      "Ġdlej": 8706,
      "Ġzhrd": 8707,
      "Ġhlednou": 8708,
      "ĠneÄįnÄĽ": 8709,
      "Ġdobou": 8710,
      "Ġkvetly": 8711,
      "Ġteskne": 8712,
      "ĠzaÅ¡ti": 8713,
      "Ġtas": 8714,
      "ĠviÄįek": 8715,
      "ĠABX": 8716,
      "Ġstiti": 8717,
      "Ġprk": 8718,
      "Ġmyli": 8719,
      "skÃ©": 8720,
      "Ġdivou": 8721,
      "ĠotÄįe": 8722,
      "ĠslouÅ¾il": 8723,
      "Ġvodni": 8724,
      "ĠÅ¡lenka": 8725,
      "Ġhostem": 8726,
      "ĠsÃºc": 8727,
      "Ġsvaly": 8728,
      "ĠsvÅ¯": 8729,
      "ĠhodÄĽ": 8730,
      "Ġnotu": 8731,
      "Ġvodil": 8732,
      "Ġsau": 8733,
      "ĠÅ¡ilo": 8734,
      "ĠvÄĽÄįnost": 8735,
      "Ġtelny": 8736,
      "ĠzÅĻeni": 8737,
      "Ġlostne": 8738,
      "Ġlovstvi": 8739,
      "Ġkladem": 8740,
      "ĠÅĪÃ¡k": 8741,
      "Ġryth": 8742,
      "ĠpÅĻer": 8743,
      "Ġcot": 8744,
      "ĠreÅ¾": 8745,
      "Ġchab": 8746,
      "Ġchani": 8747,
      "Ġhraz": 8748,
      "Ġjemna": 8749,
      "Ġvhrou": 8750,
      "ĠtroÅ¡": 8751,
      "Ġsrb": 8752,
      "Ġzbuj": 8753,
      "ĠplouÅ¾i": 8754,
      "ĠvÅ¾Ã¡r": 8755,
      "ĠvdÅ¯l": 8756,
      "ĠsfÃ©r": 8757,
      "Ġukol": 8758,
      "ĠvÄĽry": 8759,
      "Ġvich": 8760,
      "rych": 8761,
      "Ġkroji": 8762,
      "ĠzdÃ¡t": 8763,
      "Ġbloni": 8764,
      "Ġzbylo": 8765,
      "ĠÅ¡pe": 8766,
      "Ġstupu": 8767,
      "Ġsnuje": 8768,
      "Ġvezdy": 8769,
      "ĠvrÅ¯z": 8770,
      "ĠÅ¡ÅĪu": 8771,
      "ll": 8772,
      "ĠÅ¡to": 8773,
      "Ġlibek": 8774,
      "Ġvoze": 8775,
      "Ġkuru": 8776,
      "Ġkusy": 8777,
      "Ġbolest": 8778,
      "ĠspÅ¯": 8779,
      "ĠpÅĻede": 8780,
      "ĠkÃ¡l": 8781,
      "Ġpoda": 8782,
      "mat": 8783,
      "ĠkÅĻidlech": 8784,
      "Ġtelstvi": 8785,
      "Ġtlak": 8786,
      "ĠzvÄĽna": 8787,
      "ĠznaÄį": 8788,
      "Ġzmaru": 8789,
      "ĠliÄįko": 8790,
      "Ġvtaji": 8791,
      "ĠctÃŃm": 8792,
      "Ġlibil": 8793,
      "Ġtoka": 8794,
      "Ġtato": 8795,
      "ĠÄįim": 8796,
      "ÄıÃ¡": 8797,
      "ĠpÃŃk": 8798,
      "ĠÄįatku": 8799,
      "ĠhyÅĻi": 8800,
      "ĠskryÅ¡e": 8801,
      "ĠvÅĻava": 8802,
      "ĠschrÃ¡n": 8803,
      "Ġmirat": 8804,
      "Ġlab": 8805,
      "ĠÅ¾ici": 8806,
      "ĠÅ¡ÃŃn": 8807,
      "Ġryn": 8808,
      "Ġbrach": 8809,
      "Ġblaka": 8810,
      "Ġneslo": 8811,
      "Ġkpi": 8812,
      "Ġsnum": 8813,
      "ouÄį": 8814,
      "Ġrvat": 8815,
      "Ġselo": 8816,
      "Ġlicha": 8817,
      "Ġstatek": 8818,
      "Ġravy": 8819,
      "ĠÄįis": 8820,
      "ĠkleÄį": 8821,
      "ĠgÅ¯": 8822,
      "Ġkdosi": 8823,
      "ĠtÄĽzem": 8824,
      "Ġvklin": 8825,
      "ĠvjichÅ¾": 8826,
      "ĠtkvÄĽl": 8827,
      "ĠdÅ¡ti": 8828,
      "ĠmÄĽnu": 8829,
      "Ġtyru": 8830,
      "vech": 8831,
      "Ġhynul": 8832,
      "Ġtravu": 8833,
      "Ġvlep": 8834,
      "ĠÅ¡pl": 8835,
      "ĠbÅĻimÄĽ": 8836,
      "Ġskyta": 8837,
      "ĠzÅĻiÅ¡": 8838,
      "Ġznu": 8839,
      "Ġkynul": 8840,
      "Ġviji": 8841,
      "Ġvzno": 8842,
      "ĠmeÄįi": 8843,
      "ĠÄįice": 8844,
      "Ġtyli": 8845,
      "Ġzvali": 8846,
      "ĠÅ¡inou": 8847,
      "ĠhledÄĽt": 8848,
      "ĠpÄĽly": 8849,
      "ĠstrasÅ¥": 8850,
      "ĠplÃ½ch": 8851,
      "ĠprÃ¡t": 8852,
      "Ġnezv": 8853,
      "Ġbesku": 8854,
      "ĠviÄįky": 8855,
      "Ġspros": 8856,
      "Ġvmrak": 8857,
      "Ġbrys": 8858,
      "ĠdÅ¡": 8859,
      "Ġmetu": 8860,
      "ĠdÃ¡Å¾": 8861,
      "Ġzici": 8862,
      "ĠkÅĻikem": 8863,
      "ĠkÅĻidel": 8864,
      "Ġnikdo": 8865,
      "ĠsnÃŃÅ¡": 8866,
      "Ġrodne": 8867,
      "ĠblÃ½Å¡": 8868,
      "Ġvskle": 8869,
      "rt": 8870,
      "ĠtcÅ¯": 8871,
      "ĠÅ¡tu": 8872,
      "ĠsiÅ¥": 8873,
      "Ġtuze": 8874,
      "Ġstany": 8875,
      "ĠdaÅ¡": 8876,
      "Ġberou": 8877,
      "ĠÅĻid": 8878,
      "Ġzbli": 8879,
      "Ġpadl": 8880,
      "Ġplyva": 8881,
      "ĠvÅĻÃŃs": 8882,
      "ĠvlÅ¯Å¾": 8883,
      "hÅĻ": 8884,
      "Ġrdi": 8885,
      "Ġrosi": 8886,
      "Ġstare": 8887,
      "Ġcovat": 8888,
      "Ġbledou": 8889,
      "Ġzustal": 8890,
      "Ġkpe": 8891,
      "Ġsmati": 8892,
      "ĠvÄĽnci": 8893,
      "Ġdavam": 8894,
      "ĠÅ¥uk": 8895,
      "ĠnaÅĻ": 8896,
      "Ġposti": 8897,
      "Ġrohu": 8898,
      "ĠmadÄĽ": 8899,
      "ĠÅ¡iny": 8900,
      "Ġlus": 8901,
      "Ġnebem": 8902,
      "ĠsnÄĽhy": 8903,
      "tov": 8904,
      "Ġtryska": 8905,
      "ĠsbÃ¡z": 8906,
      "aka": 8907,
      "ĠhonÄĽ": 8908,
      "Ġlite": 8909,
      "ĠÅ¾eji": 8910,
      "Ġrovu": 8911,
      "ĠtaÅ¡": 8912,
      "ĠvitÄĽ": 8913,
      "Ġtrva": 8914,
      "ĠstoÅĻe": 8915,
      "ĠryÅ¡": 8916,
      "ĠpÃ¡l": 8917,
      "Ġsluchu": 8918,
      "Ġhrany": 8919,
      "Ġvracel": 8920,
      "Ġnemo": 8921,
      "Ġtrudy": 8922,
      "ĠbliÅ¾il": 8923,
      "ĠÅ¡eptal": 8924,
      "ĠspatÅĻi": 8925,
      "Ġtahly": 8926,
      "ĠvbÃ¡s": 8927,
      "Ġpory": 8928,
      "Ġdova": 8929,
      "Ġtinu": 8930,
      "ĠmaÅ¥": 8931,
      "ĠbÄĽn": 8932,
      "Ġsov": 8933,
      "Ġchuzi": 8934,
      "Ġvalky": 8935,
      "Ġmrl": 8936,
      "Ġmnoha": 8937,
      "Ġtrudi": 8938,
      "Ġvlil": 8939,
      "Ġvzniti": 8940,
      "yl": 8941,
      "ĠstvÃ½ch": 8942,
      "Ġkatu": 8943,
      "ĠkuÅ¾e": 8944,
      "Ġsidla": 8945,
      "ĠdaÅ¥": 8946,
      "ĠstiÅ¾": 8947,
      "Ġhava": 8948,
      "ĠluÅ¾": 8949,
      "ĠzlatÄĽ": 8950,
      "Ġstoupi": 8951,
      "ĠanÅ¥": 8952,
      "Ġkvel": 8953,
      "Ġkpou": 8954,
      "ĠvÄĽjÅ¡i": 8955,
      "ĠAAAXBB": 8956,
      "ĠpÅĻisnÄĽ": 8957,
      "ĠdÄĽne": 8958,
      "Ġvity": 8959,
      "ĠboÅ¡": 8960,
      "ĠhledÄĽ": 8961,
      "ĠvtvÅ¯j": 8962,
      "ĠzhÅĻe": 8963,
      "Ġskryla": 8964,
      "ĠkÅĻeÄį": 8965,
      "Ġdcery": 8966,
      "Ġhlod": 8967,
      "Ġvrum": 8968,
      "Ġgie": 8969,
      "Ġhadce": 8970,
      "Ġnedal": 8971,
      "ĠpliÄį": 8972,
      "ĠdnÃŃm": 8973,
      "Ġmrouci": 8974,
      "Ġnahy": 8975,
      "ĠchÃ³": 8976,
      "ĠleÅ¾el": 8977,
      "Ġzali": 8978,
      "ĠdomÄĽ": 8979,
      "ĠslÃ½m": 8980,
      "Ġmol": 8981,
      "ĠbaÅ¡": 8982,
      "ĠtrÄį": 8983,
      "Ġvplu": 8984,
      "Ġrozum": 8985,
      "Ġzrada": 8986,
      "Ġhralo": 8987,
      "Ġvklen": 8988,
      "Ġslel": 8989,
      "Ġzhrou": 8990,
      "Ġpoznal": 8991,
      "ĠzpÄĽvem": 8992,
      "ĠvzhlÃ©": 8993,
      "Ġskemu": 8994,
      "Ġzac": 8995,
      "ĠslÅ¯m": 8996,
      "ĠjÃŃÅĻ": 8997,
      "ĠdÄĽlu": 8998,
      "ĠAABBBX": 8999,
      "Ġhyly": 9000,
      "ĠvÅ¾er": 9001,
      "ĠvÅĻeny": 9002,
      "ĠkÅĻidly": 9003,
      "Ġcas": 9004,
      "Ġskane": 9005,
      "Ġzbyly": 9006,
      "ĠÄįinku": 9007,
      "ĠchtÃŃc": 9008,
      "ĠnaÅ¡ich": 9009,
      "Ġlnu": 9010,
      "ĠÅ¾ne": 9011,
      "ĠkoÅĻen": 9012,
      "ĠvavÄĽ": 9013,
      "Ġprsa": 9014,
      "Ġvelke": 9015,
      "Ġvhvoz": 9016,
      "ĠÅ¾adal": 9017,
      "Ġplete": 9018,
      "Ġplese": 9019,
      "Ġtekla": 9020,
      "Ġvzav": 9021,
      "Ġpalem": 9022,
      "Ġmdly": 9023,
      "ĠzdÄĽt": 9024,
      "Ġzhyne": 9025,
      "ĠnÄĽjÅ¡ich": 9026,
      "ĠtviÄį": 9027,
      "Ġminat": 9028,
      "bat": 9029,
      "ĠvvÄĽ": 9030,
      "Ġveh": 9031,
      "ĠdivÄĽ": 9032,
      "Ġbrz": 9033,
      "ĠslÃ¡n": 9034,
      "ĠshliÅ¾i": 9035,
      "ĠÅ¡ach": 9036,
      "Ġblizka": 9037,
      "Ġhezky": 9038,
      "Ġbojim": 9039,
      "Ġvpur": 9040,
      "Ġsvatych": 9041,
      "ĠÄįtver": 9042,
      "Ġchmel": 9043,
      "ĠkplaÄįi": 9044,
      "Ġck": 9045,
      "ĠÄįle": 9046,
      "Ġmotu": 9047,
      "Ġpral": 9048,
      "Ġvdr": 9049,
      "CCA": 9050,
      "ĠmnÄĽl": 9051,
      "Ġnesli": 9052,
      "ĠstrÅ¾i": 9053,
      "Ġskalu": 9054,
      "Ġhliny": 9055,
      "Ġzcest": 9056,
      "Ġpravim": 9057,
      "Ġzluk": 9058,
      "ĠzhlÃŃd": 9059,
      "ĠzÄįa": 9060,
      "ĠABBCCA": 9061,
      "ĠzhvÄĽzd": 9062,
      "Ġbvi": 9063,
      "Ġsvle": 9064,
      "ĠnÄĽno": 9065,
      "Ġladu": 9066,
      "ĠvÃŃch": 9067,
      "ĠvplÃ©": 9068,
      "ĠAABBAA": 9069,
      "ved": 9070,
      "ĠdraÄįi": 9071,
      "Ġsvatem": 9072,
      "Ġslila": 9073,
      "Ġklonil": 9074,
      "kop": 9075,
      "ĠpÄĽkne": 9076,
      "Ġcouv": 9077,
      "Ġvzmar": 9078,
      "Ġlymp": 9079,
      "Ġjisty": 9080,
      "Ġskali": 9081,
      "Ġsoch": 9082,
      "Ġhrani": 9083,
      "Ġzuj": 9084,
      "vÃ¡t": 9085,
      "AXB": 9086,
      "Ġbrazem": 9087,
      "Ġsmavy": 9088,
      "ĠvÅĻavu": 9089,
      "ĠspouÅ¡ti": 9090,
      "Ġhold": 9091,
      "Ġvzdory": 9092,
      "Ġsavad": 9093,
      "Ġnevim": 9094,
      "Ġslze": 9095,
      "Ġul": 9096,
      "Ġulic": 9097,
      "Ġmana": 9098,
      "Ġprsty": 9099,
      "Ġbiha": 9100,
      "Ġvtvou": 9101,
      "Ġpusty": 9102,
      "Ġzradce": 9103,
      "ĠÄįerem": 9104,
      "Ġvnebi": 9105,
      "ĠÅ¾alem": 9106,
      "Ġvesny": 9107,
      "Ġbrazy": 9108,
      "ĠÅ¡etÅĻ": 9109,
      "ĠtuÅ¡il": 9110,
      "sou": 9111,
      "Ġrro": 9112,
      "Å¾ky": 9113,
      "Ġcenych": 9114,
      "Ġmeh": 9115,
      "Ġprosil": 9116,
      "Ġrust": 9117,
      "Äıa": 9118,
      "ĠÅ¡irem": 9119,
      "Ġres": 9120,
      "Ġzrani": 9121,
      "Ġbrlo": 9122,
      "Ġsvici": 9123,
      "ĠkÅĻisi": 9124,
      "ĠÅ¡uje": 9125,
      "Ġkple": 9126,
      "Ġsnese": 9127,
      "ĠdrÃ¡t": 9128,
      "Ġzkvetla": 9129,
      "Ġminku": 9130,
      "Ġstezku": 9131,
      "Ġjezd": 9132,
      "ĠneÄįek": 9133,
      "Ġnaven": 9134,
      "ĠÅ¡ma": 9135,
      "Ġtavi": 9136,
      "ĠvÄĽra": 9137,
      "Ġkyval": 9138,
      "ĠkuÅĪ": 9139,
      "ĠdÄĽny": 9140,
      "ĠkÅ¯r": 9141,
      "BAX": 9142,
      "Ġzlit": 9143,
      "Ġcym": 9144,
      "Ġgis": 9145,
      "ĠdlÃ¡m": 9146,
      "Ġprslek": 9147,
      "Ġkrasou": 9148,
      "Ġvskutku": 9149,
      "lej": 9150,
      "Ġvata": 9151,
      "ĠdÄĽdu": 9152,
      "Ġsmali": 9153,
      "Ġzmou": 9154,
      "ĠÄįerna": 9155,
      "Ġdruhe": 9156,
      "Ġheho": 9157,
      "Ġjemny": 9158,
      "ĠznÄĽho": 9159,
      "Ġsnesti": 9160,
      "Ġchodni": 9161,
      "Ġvpan": 9162,
      "Ġzmatek": 9163,
      "Ġvdar": 9164,
      "ĠzluÅ¡": 9165,
      "bor": 9166,
      "Ġlij": 9167,
      "Ġmane": 9168,
      "Ġsivy": 9169,
      "Ġsvatek": 9170,
      "Ġhlasky": 9171,
      "Ġslout": 9172,
      "Ġskryval": 9173,
      "Ġvsrdci": 9174,
      "ĠklÅ¯": 9175,
      "Ġbludy": 9176,
      "Ġhadku": 9177,
      "Ġvkraji": 9178,
      "Ġpisku": 9179,
      "Ġtiskne": 9180,
      "Ġzdych": 9181,
      "Ġminul": 9182,
      "ĠvoÅĻil": 9183,
      "Ġmenout": 9184,
      "tÄĽn": 9185,
      "ĠÄįata": 9186,
      "Ġryje": 9187,
      "ĠsvÄĽtlem": 9188,
      "Ġtruni": 9189,
      "ĠvÄĽrna": 9190,
      "Ġzchlad": 9191,
      "ĠsvraÅ¡": 9192,
      "hi": 9193,
      "Ġhokam": 9194,
      "ĠtaÄįi": 9195,
      "Ġvanem": 9196,
      "ĠÅ¡enych": 9197,
      "Ġstaji": 9198,
      "vaz": 9199,
      "ĠÅĻiÅ¥": 9200,
      "ĠvlaÄįi": 9201,
      "Ġvlasky": 9202,
      "Ġgou": 9203,
      "Ġjedem": 9204,
      "Ġsnaze": 9205,
      "ĠtÅĻisni": 9206,
      "Ġskryti": 9207,
      "Ġhrozna": 9208,
      "Ġbolna": 9209,
      "Ġvlasem": 9210,
      "Ġklamne": 9211,
      "ĠtskÃ©": 9212,
      "ĠchmÃ½": 9213,
      "tra": 9214,
      "ĠhoÅ¡": 9215,
      "ĠkaÅĻe": 9216,
      "ĠkaÅĻi": 9217,
      "Ġvep": 9218,
      "Ġrop": 9219,
      "ĠÄįeske": 9220,
      "ĠkyÅ¾": 9221,
      "Ġdag": 9222,
      "Ġstivy": 9223,
      "Ġpraha": 9224,
      "ĠÅ¾ÃŃk": 9225,
      "Ġbic": 9226,
      "Ġsoku": 9227,
      "Ġdivne": 9228,
      "Ġmocy": 9229,
      "Ġkruty": 9230,
      "Ġjom": 9231,
      "Ġkmeny": 9232,
      "ĠvÄĽtru": 9233,
      "Ġpasem": 9234,
      "Ġspaly": 9235,
      "ĠchÅĻici": 9236,
      "Ġztad": 9237,
      "ĠsdÃŃv": 9238,
      "ĠkpÅĻedu": 9239,
      "Ġkprav": 9240,
      "ĠkÅ¡e": 9241,
      "Ġteto": 9242,
      "Ġnij": 9243,
      "ĠvÄĽzi": 9244,
      "ĠvÄĽÅĻit": 9245,
      "ĠdÄĽr": 9246,
      "ĠmaÅĻ": 9247,
      "Ġharu": 9248,
      "ĠlÃ©zt": 9249,
      "ĠvÅ¾lu": 9250,
      "Ġloubi": 9251,
      "Ġstoupil": 9252,
      "Ġslavny": 9253,
      "ĠsmyÄį": 9254,
      "Ġzjara": 9255,
      "Ġprosti": 9256,
      "Ġbuti": 9257,
      "Ġvrahy": 9258,
      "Ġmravy": 9259,
      "ĠrouÅ¾": 9260,
      "Ġvnika": 9261,
      "Ġzvedl": 9262,
      "Ġdruhem": 9263,
      "ĠbÅĻizy": 9264,
      "Ġvluz": 9265,
      "Ġvzpira": 9266,
      "Ġkcha": 9267,
      "Ġstvy": 9268,
      "ĠseÄįe": 9269,
      "Ġholu": 9270,
      "Ġdovy": 9271,
      "Ġrace": 9272,
      "ĠÄįivy": 9273,
      "Ġbudil": 9274,
      "ĠlÃŃh": 9275,
      "Ġbim": 9276,
      "Ġslaby": 9277,
      "Ġstoh": 9278,
      "ĠstÃ¡v": 9279,
      "ĠsloÅ¾": 9280,
      "Ġhoup": 9281,
      "Ġtrun": 9282,
      "Ġchaly": 9283,
      "ĠvÅ¡ad": 9284,
      "ctno": 9285,
      "Ġnachem": 9286,
      "Ġkotu": 9287,
      "ĠtovÄĽ": 9288,
      "ĠdeÅ¡el": 9289,
      "ĠÅĻima": 9290,
      "Ġbidny": 9291,
      "Ġzraji": 9292,
      "Ġziny": 9293,
      "ĠvkÅ¯": 9294,
      "ĠsvÄĽtle": 9295,
      "Ġmatkou": 9296,
      "Ġjuj": 9297,
      "Ġgest": 9298,
      "ĠdÄĽsna": 9299,
      "ĠspÄĽchal": 9300,
      "ĠmÅĻiÅ¾e": 9301,
      "tce": 9302,
      "ĠsvÃ¡l": 9303,
      "Ġhoste": 9304,
      "Ġdopad": 9305,
      "ĠnÄĽmÄĽ": 9306,
      "Ġsklem": 9307,
      "Ġvyje": 9308,
      "Ġsilo": 9309,
      "ĠrÃ¡t": 9310,
      "ĠsoÄįi": 9311,
      "Ġmravu": 9312,
      "ĠhÃ½n": 9313,
      "Ġzvala": 9314,
      "Ġchmury": 9315,
      "ĠnnÄĽj": 9316,
      "ich": 9317,
      "ĠlenÄĽ": 9318,
      "lim": 9319,
      "ĠdÄĽna": 9320,
      "ĠÅ¾iÅ¥": 9321,
      "ĠÅĻely": 9322,
      "Ġhata": 9323,
      "ĠpeÄįe": 9324,
      "Ġbami": 9325,
      "Ġvalne": 9326,
      "Ġtvary": 9327,
      "ĠvlÃ¡t": 9328,
      "ĠdÄĽlal": 9329,
      "ĠvhluÄį": 9330,
      "ĠvpÅ¯t": 9331,
      "Ġvzdava": 9332,
      "ĠvjÃŃÅ¾": 9333,
      "Ġvzpina": 9334,
      "Ġrobu": 9335,
      "ĠÅ¡iti": 9336,
      "Ġtrne": 9337,
      "ĠflÃ³": 9338,
      "Ġvut": 9339,
      "Ġvdvo": 9340,
      "vel": 9341,
      "Ġchati": 9342,
      "Ġklap": 9343,
      "Ġvzpur": 9344,
      "Ġzyl": 9345,
      "ĠblÃŃÄį": 9346,
      "ĠstÅĻin": 9347,
      "ĠÅĻadku": 9348,
      "Ġsvojim": 9349,
      "ĠvplÃ¡Å¡Å¥": 9350,
      "Ġsmaly": 9351,
      "Ġzlym": 9352,
      "ras": 9353,
      "ĠÄįenou": 9354,
      "Ġmul": 9355,
      "ĠzeÅ¡": 9356,
      "Ġvprud": 9357,
      "Ġvuz": 9358,
      "Ġjedli": 9359,
      "Ġrouhev": 9360,
      "Ġdlela": 9361,
      "Ġksy": 9362,
      "ĠzvÄĽÅĻi": 9363,
      "bel": 9364,
      "Ġvbolu": 9365,
      "Ġnitro": 9366,
      "ĠzbuÄı": 9367,
      "Ġknuti": 9368,
      "ĠskÅĻÃŃÅĪ": 9369,
      "stup": 9370,
      "ĠjvÄĽtÅ¡i": 9371,
      "ĠÅ¡Å¯v": 9372,
      "ĠmstÃŃt": 9373,
      "Ġledu": 9374,
      "ĠÅĻku": 9375,
      "ĠtoÄįil": 9376,
      "ĠdanÄĽ": 9377,
      "Ġhate": 9378,
      "ĠluÅ¾e": 9379,
      "Ġslat": 9380,
      "Ġvlez": 9381,
      "Ġpadnou": 9382,
      "Ġrado": 9383,
      "hej": 9384,
      "ĠvÅ¡ade": 9385,
      "ĠÅ¾asem": 9386,
      "ĠÅ¡paÄį": 9387,
      "Ġtolik": 9388,
      "Ġvisky": 9389,
      "Ġmeze": 9390,
      "Ġpere": 9391,
      "Ġvsle": 9392,
      "deÅĪ": 9393,
      "Ġblaz": 9394,
      "ĠvÅ¡echny": 9395,
      "Ġdivka": 9396,
      "Ġslavne": 9397,
      "ĠvÄĽrou": 9398,
      "Ġsklonil": 9399,
      "ĠzvÃ¡Å¡": 9400,
      "ĠvraÅ¾dy": 9401,
      "Ġmlej": 9402,
      "Ġmlo": 9403,
      "ĠbÅĻad": 9404,
      "Ġhno": 9405,
      "Ġbydli": 9406,
      "ĠÅĻeje": 9407,
      "Ġbici": 9408,
      "Ġvsni": 9409,
      "Ġplakat": 9410,
      "ĠbÃŃÄį": 9411,
      "ĠkÃ½n": 9412,
      "ĠslyÅ¡et": 9413,
      "ĠprÃ¡ch": 9414,
      "Ġpyl": 9415,
      "ĠzhnÃŃz": 9416,
      "Ġprout": 9417,
      "ĠkÅĻeÄįi": 9418,
      "Ġvitr": 9419,
      "ĠsraÅ¾i": 9420,
      "ĠtiÄįky": 9421,
      "ĠmÄĽstem": 9422,
      "ĠchÅĻesti": 9423,
      "ĠvspÄĽchu": 9424,
      "ĠsnÃ©st": 9425,
      "Ġsplita": 9426,
[...]
