{
  "version": "1.0",
  "truncation": null,
  "padding": null,
  "added_tokens": [
    {
      "id": 0,
      "content": "<|EOS|>",
      "single_word": false,
      "lstrip": false,
      "rstrip": false,
      "normalized": false,
      "special": true
    },
    {
      "id": 1,
      "content": "<|PAD|>",
      "single_word": false,
      "lstrip": false,
      "rstrip": false,
      "normalized": false,
      "special": true
    },
    {
      "id": 2,
      "content": "<|UNK|>",
      "single_word": false,
      "lstrip": false,
      "rstrip": false,
      "normalized": false,
      "special": true
    }
  ],
  "normalizer": null,
  "pre_tokenizer": {
    "type": "ByteLevel",
    "add_prefix_space": false,
    "trim_offsets": true,
    "use_regex": true
  },
  "post_processor": {
    "type": "ByteLevel",
    "add_prefix_space": true,
    "trim_offsets": false,
    "use_regex": true
  },
  "decoder": {
    "type": "ByteLevel",
    "add_prefix_space": true,
    "trim_offsets": true,
    "use_regex": true
  },
  "model": {
    "type": "BPE",
    "dropout": null,
    "unk_token": null,
    "continuing_subword_prefix": null,
    "end_of_word_suffix": null,
    "fuse_unk": false,
    "byte_fallback": false,
    "vocab": {
      "<|EOS|>": 0,
      "<|PAD|>": 1,
      "<|UNK|>": 2,
      "!": 3,
      "#": 4,
      ",": 5,
      ".": 6,
      "0": 7,
      "1": 8,
      "2": 9,
      "3": 10,
      "4": 11,
      "5": 12,
      "6": 13,
      "7": 14,
      "8": 15,
      "9": 16,
      "?": 17,
      "A": 18,
      "B": 19,
      "C": 20,
      "D": 21,
      "H": 22,
      "J": 23,
      "N": 24,
      "P": 25,
      "T": 26,
      "X": 27,
      "Y": 28,
      "a": 29,
      "b": 30,
      "c": 31,
      "d": 32,
      "e": 33,
      "f": 34,
      "g": 35,
      "h": 36,
      "i": 37,
      "j": 38,
      "k": 39,
      "l": 40,
      "m": 41,
      "n": 42,
      "o": 43,
      "p": 44,
      "q": 45,
      "r": 46,
      "s": 47,
      "t": 48,
      "u": 49,
      "v": 50,
      "w": 51,
      "x": 52,
      "y": 53,
      "z": 54,
      "¡": 55,
      "¤": 56,
      "¥": 57,
      "©": 58,
      "¯": 59,
      "³": 60,
      "¶": 61,
      "º": 62,
      "¼": 63,
      "½": 64,
      "¾": 65,
      "Ã": 66,
      "Ä": 67,
      "Å": 68,
      "Ċ": 69,
      "Ġ": 70,
      "Ī": 71,
      "į": 72,
      "ı": 73,
      "Ļ": 74,
      "Ľ": 75,
      "Ń": 76,
      "Ġ#": 77,
      "Ġn": 78,
      "Ġs": 79,
      "Ġv": 80,
      "ÃŃ": 81,
      "Ġt": 82,
      "Ġk": 83,
      "Ã¡": 84,
      "Ġd": 85,
      "Ġj": 86,
      "Ġl": 87,
      "Ġp": 88,
      "Ġm": 89,
      "ÄĽ": 90,
      "ĠJ": 91,
      "ĠÅ": 92,
      "Ġz": 93,
      "Ġc": 94,
      "Ġb": 95,
      "Ġh": 96,
      "ĠT": 97,
      "Ã½": 98,
      "Ã©": 99,
      "ou": 100,
      "Ġr": 101,
      "Ġst": 102,
      "Ġa": 103,
      "Ġje": 104,
      "Äį": 105,
      "10": 106,
      "Ġ1": 107,
      "XX": 108,
      "Ġse": 109,
      "11": 110,
      "ÅĻ": 111,
      "Ġne": 112,
      "ch": 113,
      "Å¾": 114,
      "Ġna": 115,
      "ĠÅ¾": 116,
      "AB": 117,
      "ĠÅ¡": 118,
      "ĠÄį": 119,
      "Å¯": 120,
      "Ġo": 121,
      "Ġch": 122,
      "ĠnÃŃ": 123,
      "Å¡": 124,
      "la": 125,
      "Ġpo": 126,
      "em": 127,
      "Ġ19": 128,
      "ra": 129,
      "Ġle": 130,
      "ak": 131,
      "Ġko": 132,
      "ĠÅĻ": 133,
      "Ġce": 134,
      "Ġho": 135,
      "Ġsv": 136,
      "ĠN": 137,
      "Ġli": 138,
      "ĠnÄĽ": 139,
      "ro": 140,
      "Ġte": 141,
      "Ġti": 142,
      "Ġla": 143,
      "Ġza": 144,
      "Ġto": 145,
      "le": 146,
      "Ġdo": 147,
      "Ġka": 148,
      "ĠnÃ½": 149,
      "ĠnÃ¡": 150,
      "Ġ18": 151,
      "ĠÅ¾e": 152,
      "Ġby": 153,
      "Ġji": 154,
      "ĠjÃŃ": 155,
      "rÃ¡": 156,
      "Ġno": 157,
      "Ġmi": 158,
      "ÅĻe": 159,
      "ĠnÃ©": 160,
      "st": 161,
      "00": 162,
      "Ġva": 163,
      "Ġta": 164,
      "Ġve": 165,
      "Ġ1900": 166,
      "Ġky": 167,
      "Ġni": 168,
      "XXXX": 169,
      "XA": 170,
      "Ġku": 171,
      "Ġro": 172,
      "ĠvÃ¡": 173,
      "Ġsl": 174,
      "Ġu": 175,
      "Ġlo": 176,
      "Ġkd": 177,
      "ĠtÄĽ": 178,
      "ĠvÄĽ": 179,
      "ABAB": 180,
      "ĠtÃŃ": 181,
      "Ġde": 182,
      "ĠÅ¡e": 183,
      "ĠvÅ¡": 184,
      "Ġsk": 185,
      "ĠÄįe": 186,
      "Ġvy": 187,
      "Ġmu": 188,
      "Ġdu": 189,
      "Ġvo": 190,
      "ÅĻÃŃ": 191,
      "80": 192,
      "Ġ1880": 193,
      "ĠvÃŃ": 194,
      "ĠdÄĽ": 195,
      "12": 196,
      "Ġnou": 197,
      "Ġjak": 198,
      "Ġmo": 199,
      "20": 200,
      "ĠdÃŃ": 201,
      "Ġci": 202,
      "Ġjs": 203,
      "ABB": 204,
      "Ġtv": 205,
      "ĠdÃ¡": 206,
      "Ġze": 207,
      "Ġtu": 208,
      "ĠcÃŃ": 209,
      "Ġpa": 210,
      "Ġnu": 211,
      "Ġme": 212,
      "Ġ1920": 213,
      "il": 214,
      "Ġja": 215,
      "Ġda": 216,
      "ĠmÄĽ": 217,
      "Ġru": 218,
      "Ġbo": 219,
      "Ġpro": 220,
      "Ġvz": 221,
      "Ġny": 222,
      "Ġma": 223,
      "ĠÅ¡ÃŃ": 224,
      "Ġbe": 225,
      "Ã½ch": 226,
      "Ġsta": 227,
      "ĠÅĻe": 228,
      "ĠÄįÃŃ": 229,
      "Ġsp": 230,
      "ne": 231,
      "Ġjen": 232,
      "Ġvi": 233,
      "Å¥": 234,
      "ĠlÃŃ": 235,
      "Ġdi": 236,
      "ĠmÃ¡": 237,
      "lo": 238,
      "vÄĽ": 239,
      "Ġly": 240,
      "13": 241,
      "Ġsti": 242,
      "Ġra": 243,
      "Ġty": 244,
      "ĠpÅĻe": 245,
      "Ġco": 246,
      "Ġsi": 247,
      "Ġdy": 248,
      "ÅĻi": 249,
      "ĠlÃ¡": 250,
      "ĠkÃ¡": 251,
      "Ġkdy": 252,
      "lÃ¡": 253,
      "ĠÅĻÃŃ": 254,
      "ĠÅ¾i": 255,
      "ĠÅ¾ÃŃ": 256,
      "li": 257,
      "Ġi": 258,
      "Ġbu": 259,
      "ru": 260,
      "Ġsn": 261,
      "ĠÄįi": 262,
      "ĠrÃ¡": 263,
      "ĠvÃ½": 264,
      "AABB": 265,
      "Ġzd": 266,
      "ĠvÅ¡e": 267,
      "ĠmÃŃ": 268,
      "Ġsm": 269,
      "ĠD": 270,
      "ĠbÄĽ": 271,
      "ĠstÃŃ": 272,
      "Ġha": 273,
      "40": 274,
      "Ġzv": 275,
      "Ġhla": 276,
      "ĠvÃ©": 277,
      "lu": 278,
      "XAXA": 279,
      "ĠkrÃ¡": 280,
      "nÄĽ": 281,
      "ĠsÃŃ": 282,
      "ĠtÃ¡": 283,
      "ĠsvÄĽ": 284,
      "Ã½m": 285,
      "Ġtak": 286,
      "Ġsa": 287,
      "ĠÃ": 288,
      "Ġkou": 289,
      "Äı": 290,
      "ĠzÃ¡": 291,
      "Ġjsem": 292,
      "Ġba": 293,
      "ĠÅ¡i": 294,
      "ĠtÃ©": 295,
      "ĠkÃ©": 296,
      "Ġlu": 297,
      "lÃŃ": 298,
      "ÅĪ": 299,
      "ĠlÃ©": 300,
      "Ġpe": 301,
      "Ġhle": 302,
      "Ġsy": 303,
      "ĠpÅĻi": 304,
      "Ġpr": 305,
      "Ġhu": 306,
      "ĠkdyÅ¾": 307,
      "Ġmy": 308,
      "Ġtr": 309,
      "CC": 310,
      "vÃŃ": 311,
      "Ġkr": 312,
      "Ġvs": 313,
      "ĠjÃ¡": 314,
      "Å¯j": 315,
      "Ġvt": 316,
      "Ġpra": 317,
      "rd": 318,
      "Ġchu": 319,
      "ĠkÅ¯": 320,
      "Ġvu": 321,
      "ĠnÃ½ch": 322,
      "AA": 323,
      "Ġod": 324,
      "Ġvp": 325,
      "ĠpÃŃ": 326,
      "ĠsvÃ©": 327,
      "Ġsla": 328,
      "ĠhÃ¡": 329,
      "ĠÅĻi": 330,
      "Ġsu": 331,
      "Ġzp": 332,
      "Ġzn": 333,
      "Ġcho": 334,
      "XXXXXX": 335,
      "Ġry": 336,
      "ĠvÅ¡ak": 337,
      "ĠzÃŃ": 338,
      "60": 339,
      "Ġkem": 340,
      "ĠbÃŃ": 341,
      "Ġroz": 342,
      "lou": 343,
      "Ġsto": 344,
      "ĠkÃ½": 345,
      "ĠstÃ¡": 346,
      "ĠpÃ¡": 347,
      "Ġten": 348,
      "Ġkde": 349,
      "Ġval": 350,
      "al": 351,
      "ĠlÃ½": 352,
      "te": 353,
      "Ġso": 354,
      "Ġtam": 355,
      "Ġhy": 356,
      "Ġf": 357,
      "ĠpÄĽ": 358,
      "Ġ1940": 359,
      "ĠjiÅ¾": 360,
      "Ġbi": 361,
      "ĠÄįa": 362,
      "Ġsrd": 363,
      "ĠÃº": 364,
      "Ġste": 365,
      "Ġvd": 366,
      "Ġbyl": 367,
      "Ġre": 368,
      "ĠsÃ¡": 369,
      "Ġtou": 370,
      "lÃ©": 371,
      "ĠpÅĻÃŃ": 372,
      "Ġtem": 373,
      "Ġnad": 374,
      "ĠnÃ½m": 375,
      "ĠjeÅ¾": 376,
      "ABBA": 377,
      "Ġpu": 378,
      "Ġslu": 379,
      "ĠvÅ¾": 380,
      "no": 381,
      "Ġbou": 382,
      "Ġlem": 383,
      "Ġdou": 384,
      "Ġpla": 385,
      "ĠmÃ©": 386,
      "ĠnÃŃm": 387,
      "tÄĽ": 388,
      "Ġvla": 389,
      "Ġe": 390,
      "Ġvou": 391,
      "dy": 392,
      "Ġ1860": 393,
      "ĠtÃ½": 394,
      "Ġbra": 395,
      "ĠX": 396,
      "ĠdÃ©": 397,
      "Ġcha": 398,
      "Ġ1840": 399,
      "ĠbÃ¡": 400,
      "ĠdÃ½": 401,
      "Ġkla": 402,
      "nÃŃ": 403,
      "Ġzra": 404,
      "Ġden": 405,
      "Ġslo": 406,
      "Ġvk": 407,
      "Ġzas": 408,
      "Ġkte": 409,
      "ĠkvÄĽ": 410,
      "ĠlÃ¡s": 411,
      "Ġzm": 412,
      "Ġzb": 413,
      "Ġpl": 414,
      "Ġpak": 415,
      "Ġg": 416,
      "Ġdra": 417,
      "ĠÄįer": 418,
      "Ġhou": 419,
      "Ġzla": 420,
      "Ġkle": 421,
      "Ġzi": 422,
      "Ġbez": 423,
      "Ġpod": 424,
      "ad": 425,
      "Ġkdo": 426,
      "ĠvÅ¾dy": 427,
      "Ġdv": 428,
      "Ġsou": 429,
      "ĠjenÅ¾": 430,
      "Ġsem": 431,
      "Ġhro": 432,
      "ĠchÃ¡": 433,
      "ĠnÃ¡m": 434,
      "15": 435,
      "Ġjich": 436,
      "Ġlou": 437,
      "14": 438,
      "Ġmne": 439,
      "Ġpou": 440,
      "Å¯m": 441,
      "me": 442,
      "ni": 443,
      "ĠaÅ¾": 444,
      "ĠpÅĻed": 445,
      "ĠtvÃ¡": 446,
      "Ġdla": 447,
      "ĠdÄĽl": 448,
      "ĠÅ¡el": 449,
      "Ġjest": 450,
      "ĠÃ³": 451,
      "Ġhr": 452,
      "Ġstu": 453,
      "Ġdne": 454,
      "ĠrÅ¯": 455,
      "Ġspo": 456,
      "Ġsle": 457,
      "ce": 458,
      "Ġjed": 459,
      "Ġhra": 460,
      "AAXX": 461,
      "Ġkv": 462,
      "Ġvr": 463,
      "ĠprÃ¡": 464,
      "Ġpi": 465,
      "Ġchy": 466,
      "ĠteÄı": 467,
      "Ġbla": 468,
      "Ġdr": 469,
      "ly": 470,
      "ĠjeÅ¡": 471,
      "Ġzo": 472,
      "Ġnn": 473,
      "Ġzt": 474,
      "Ġke": 475,
      "Ġstra": 476,
      "Ġvm": 477,
      "Ġsly": 478,
      "ĠrÃ©": 479,
      "Ġsvou": 480,
      "Ġsva": 481,
      "16": 482,
      "ĠplÃ¡": 483,
      "ĠnÃ©m": 484,
      "ĠtÃŃm": 485,
      "ĠbÃ½": 486,
      "ĠskÃ©": 487,
      "Ġvra": 488,
      "je": 489,
      "Ġsvo": 490,
      "Ġzu": 491,
      "Ġjej": 492,
      "ĠkaÅ¾": 493,
      "ĠmÅ¯": 494,
      "Ġvzd": 495,
      "Ġnem": 496,
      "ĠtÅĻe": 497,
      "ĠuÅ¾": 498,
      "Ġbr": 499,
      "Ġdru": 500,
      "Ġkra": 501,
      "Ġdem": 502,
      "Ġvst": 503,
      "Ġjsou": 504,
      "Ġon": 505,
      "AABBCC": 506,
      "Ġlid": 507,
      "Ġble": 508,
      "Ġzk": 509,
      "Ġvh": 510,
      "ĠmÅ¯j": 511,
      "Ġhe": 512,
      "Ġdal": 513,
      "ĠvÅ¯": 514,
      "ĠtvÃ©": 515,
      "ĠrÃ½": 516,
      "Ġzem": 517,
      "ĠvÅ¡ech": 518,
      "Ġjsi": 519,
      "Ġkli": 520,
      "ĠstÄĽ": 521,
      "vÄĽz": 522,
      "Ġvel": 523,
      "Ġvl": 524,
      "Ġjd": 525,
      "ĠmnÄĽ": 526,
      "Ġzy": 527,
      "Ġsnad": 528,
      "Ġstr": 529,
      "Ġnech": 530,
      "ĠhÃ½": 531,
      "ĠstvÃŃ": 532,
      "Ġrou": 533,
      "Ġzde": 534,
      "ĠÅ¾Ã¡": 535,
      "Ġvb": 536,
      "ĠhvÄĽz": 537,
      "Ġstro": 538,
      "ĠsvÄĽt": 539,
      "lÃ½": 540,
      "Ġjem": 541,
      "ĠsÃ¡m": 542,
      "Ġzh": 543,
      "Ġpt": 544,
      "Ġtvo": 545,
      "Ġslun": 546,
      "ÅĻÃ¡": 547,
      "ĠnÅ¯": 548,
      "Ġnej": 549,
      "Ġmra": 550,
      "ĠneÅ¾": 551,
      "Ġbych": 552,
      "Ġdnes": 553,
      "ĠvÃ¡m": 554,
      "ĠtÅ¯": 555,
      "Ġkro": 556,
      "AX": 557,
      "Ġmr": 558,
      "ĠsnÃŃ": 559,
      "Ġzvo": 560,
      "ĠstÅĻe": 561,
      "Ġtra": 562,
      "ĠchvÃŃ": 563,
      "ĠdÃ¡l": 564,
      "ĠvÅ¡ec": 565,
      "Ġmou": 566,
      "Ġstv": 567,
      "ĠA": 568,
      "Ġtil": 569,
      "Ġkol": 570,
      "ĠaÅ¥": 571,
      "Ġdle": 572,
      "ĠbÅ¯": 573,
      "Ġnost": 574,
      "ĠcÃŃch": 575,
      "Ġsh": 576,
      "Ġpy": 577,
      "Ġtel": 578,
      "Ġnul": 579,
      "ĠhÃ©": 580,
      "ĠnÃ¡s": 581,
      "ABABCC": 582,
      "ĠkrÃ¡s": 583,
      "Ġmla": 584,
      "AAB": 585,
      "Ġdlou": 586,
      "ĠzpÄĽ": 587,
      "ĠkÅĻÃŃ": 588,
      "Ġdn": 589,
      "Ġob": 590,
      "Ġtro": 591,
      "Ġvot": 592,
      "ut": 593,
      "Ġchem": 594,
      "ĠmÄĽl": 595,
      "ĠchvÄĽ": 596,
      "Ġstou": 597,
      "Ġrem": 598,
      "Ġjsme": 599,
      "Ġvzp": 600,
      "Ġhlu": 601,
      "Ġvat": 602,
      "ĠlÅ¯": 603,
      "ABABXX": 604,
      "ĠzÅĻÃŃ": 605,
      "Ġvil": 606,
      "Ġtm": 607,
      "ĠdÅ¯": 608,
      "ĠvÄĽÄį": 609,
      "Ġkam": 610,
      "ĠznÃ¡": 611,
      "sk": 612,
      "Ġneb": 613,
      "Ġslad": 614,
      "ĠvÅĻe": 615,
      "Ġ1960": 616,
      "ĠzdÃ¡": 617,
      "AXA": 618,
      "Ġmno": 619,
      "Ġsmr": 620,
      "Ġsli": 621,
      "Ġdl": 622,
      "Ġnes": 623,
      "Ġjas": 624,
      "Ġtom": 625,
      "ĠchtÄĽ": 626,
      "Ġsty": 627,
      "Ġdil": 628,
      "Ġvem": 629,
      "ĠptÃ¡": 630,
      "Ġnic": 631,
      "ĠtÅĻÃŃ": 632,
      "Ġjim": 633,
      "Ġmat": 634,
      "ĠÅ¡tÄĽ": 635,
      "Ġhlas": 636,
      "Ġsil": 637,
      "ĠvÃ½ch": 638,
      "Ġnik": 639,
      "Ġju": 640,
      "ĠslÃ¡": 641,
      "ĠsvÃŃ": 642,
      "Ġml": 643,
      "Ġpoz": 644,
      "Ġchv": 645,
      "Ġtek": 646,
      "Ġklo": 647,
      "ĠvrÃ¡": 648,
      "Ġtla": 649,
      "ĠÄįas": 650,
      "ĠskÃ¡": 651,
      "ĠblÃŃ": 652,
      "ĠvÃŃm": 653,
      "ĠkvÄĽt": 654,
      "ĠÅ¡le": 655,
      "Ġmen": 656,
      "nou": 657,
      "Ġmoc": 658,
      "ĠvÃŃc": 659,
      "Äįe": 660,
      "Ġnez": 661,
      "ĠbÅ¯h": 662,
      "Ġzlo": 663,
      "Ġsud": 664,
      "Ġmlu": 665,
      "Ġzrak": 666,
      "ĠbÅĻe": 667,
      "Ġspa": 668,
      "sÅ¥": 669,
      "ĠÅ¾il": 670,
      "Ġdiv": 671,
      "Ġdost": 672,
      "Ġchla": 673,
      "Ġsko": 674,
      "Ġzda": 675,
      "ĠsvÅ¯j": 676,
      "Ġks": 677,
      "ĠdÅĻÃŃ": 678,
      "Ġvpo": 679,
      "Ġzve": 680,
      "ĠleÄį": 681,
      "Ġsen": 682,
      "Ġhne": 683,
      "Ġkre": 684,
      "ĠbrÃ¡": 685,
      "ĠsmÄĽ": 686,
      "Ġsb": 687,
      "ĠnÄĽj": 688,
      "nÃ¡": 689,
      "Ġven": 690,
      "ĠÄįek": 691,
      "Ġvto": 692,
      "Ġnek": 693,
      "ĠvlÃ¡": 694,
      "ĠkÃ½ch": 695,
      "Ġple": 696,
      "Ġdli": 697,
      "ĠvÃ½m": 698,
      "ĠpÅ¯": 699,
      "ĠsmÃŃ": 700,
      "ĠÅ¡u": 701,
      "ĠtÃ©Å¾": 702,
      "Ġhned": 703,
      "ĠskÃ½": 704,
      "ĠÅ¾a": 705,
      "ĠkÅĻi": 706,
      "ĠpÃŃs": 707,
      "ĠÄįlo": 708,
      "Ġtru": 709,
      "ĠsvÃ½ch": 710,
      "ĠstÃ©": 711,
      "ĠkrÃ¡t": 712,
      "Ġmar": 713,
      "ĠspÄĽ": 714,
      "ĠÅĪ": 715,
      "Ã¡t": 716,
      "Ġan": 717,
      "Ġles": 718,
      "ĠtvÅ¯j": 719,
      "ĠvnÄĽ": 720,
      "Ġ1820": 721,
      "Ġkal": 722,
      "ĠsÅ¯": 723,
      "Ġlet": 724,
      "Ġsmut": 725,
      "ĠÅ¡li": 726,
      "Ġdech": 727,
      "CCB": 728,
      "ĠseÅĪ": 729,
      "Ãº": 730,
      "or": 731,
      "Ġskr": 732,
      "Ġzvu": 733,
      "Ġchce": 734,
      "Ġcem": 735,
      "Ġach": 736,
      "tÃŃ": 737,
      "Ġvle": 738,
      "Ġklid": 739,
      "ĠsnÄĽ": 740,
      "Ġrod": 741,
      "ĠnÃ¡Å¡": 742,
      "Ġnoc": 743,
      "ĠmÃ¡m": 744,
      "ĠtÄĽch": 745,
      "ĠhrÃ¡": 746,
      "Ġnil": 747,
      "ĠnÃŃk": 748,
      "ĠproÄį": 749,
      "ĠsvÃ½m": 750,
      "Ġhem": 751,
      "ich": 752,
      "ĠjÃŃm": 753,
      "ĠÄįÃŃm": 754,
      "Ġnom": 755,
      "Ġkru": 756,
      "XAAX": 757,
      "ĠvÄĽk": 758,
      "ĠvÃ¡s": 759,
      "XXAA": 760,
      "ĠdÃŃm": 761,
      "ĠbuÄı": 762,
      "AABCCB": 763,
      "Ġsvi": 764,
      "ĠtÄĽÅ¾": 765,
      "Ġri": 766,
      "ĠÅ¡la": 767,
      "ĠÅ¡ÃŃm": 768,
      "Ġsled": 769,
      "ĠcÅ¯": 770,
      "ĠknÄĽ": 771,
      "ĠrÃ¡d": 772,
      "ĠzvÄĽ": 773,
      "ĠpÅĻec": 774,
      "Ġvni": 775,
      "Ġdlo": 776,
      "ĠslÃŃ": 777,
      "Ġkrev": 778,
      "Ġzje": 779,
      "Ġkry": 780,
      "ĠÅ¡a": 781,
      "ĠÅ¥": 782,
      "Ġsch": 783,
      "Ġvtom": 784,
      "ĠpÅĻÃ¡": 785,
      "ĠspÃŃ": 786,
      "Ã¡l": 787,
      "ĠnÃŃch": 788,
      "ĠÄįil": 789,
      "Ġnec": 790,
      "Ġhor": 791,
      "Ġot": 792,
      "ĠvÃ¡Å¡": 793,
      "nu": 794,
      "Ġfa": 795,
      "Ġnout": 796,
      "ĠzÅĻe": 797,
      "Ġkne": 798,
      "ste": 799,
      "AXAX": 800,
      "Ġjste": 801,
      "ci": 802,
      "ĠkÃ½m": 803,
      "ĠhÅĻÃŃ": 804,
      "Ġtva": 805,
      "Ġprv": 806,
      "Ġdro": 807,
      "Ġbro": 808,
      "ĠpÅĻes": 809,
      "Ġpad": 810,
      "ĠznÃŃ": 811,
      "ĠbÃ½t": 812,
      "ĠÅĻil": 813,
      "ĠÅ¾en": 814,
      "ĠmÃ½": 815,
      "Ġkl": 816,
      "Ġprav": 817,
      "ĠdÃ¡v": 818,
      "Ġslou": 819,
      "Ġpil": 820,
      "ĠvnÄĽm": 821,
      "ĠnÄĽm": 822,
      "ĠzpÃŃ": 823,
      "ĠtÅĻi": 824,
      "Ġnal": 825,
      "ĠmuÅ¾": 826,
      "Ġhled": 827,
      "ĠstÅĻÃŃ": 828,
      "ĠstrÃ¡": 829,
      "Ġprou": 830,
      "Ġslav": 831,
      "Ġzou": 832,
      "Ġjde": 833,
      "ĠchÃ½": 834,
      "Ġkm": 835,
      "Ġvdu": 836,
      "Ġvlast": 837,
      "ĠspÃ¡": 838,
      "Ġus": 839,
      "Ġvol": 840,
      "Ġvje": 841,
      "ĠskÃ½ch": 842,
      "Ġlen": 843,
      "ĠvÄįe": 844,
      "Ġkp": 845,
      "Ġhl": 846,
      "ĠchtÄĽl": 847,
      "Ġbes": 848,
      "Ã©m": 849,
      "as": 850,
      "Ġdva": 851,
      "Ġduch": 852,
      "ĠklÃŃ": 853,
      "ĠtvÃ¡ÅĻ": 854,
      "ĠchrÃ¡": 855,
      "Ġlil": 856,
      "Ġkve": 857,
      "ĠhÅ¯": 858,
      "Ġhru": 859,
      "ĠdÃ¡m": 860,
      "Ġdej": 861,
      "ĠkvÃŃ": 862,
      "ĠmlÃ¡": 863,
      "ĠznÄĽ": 864,
      "Ġvsrd": 865,
      "ĠÅ¡k": 866,
      "Ġkt": 867,
      "ĠpÄĽt": 868,
      "Ġvzpo": 869,
      "ĠdÃŃv": 870,
      "Ġtlo": 871,
      "ĠstÃ½": 872,
      "Ġlost": 873,
      "ĠnÄĽk": 874,
      "ĠdÄĽt": 875,
      "ĠvÄĽr": 876,
      "ĠkrÃ¡l": 877,
      "ĠtÃ½ch": 878,
      "ĠvzÃ¡": 879,
      "ĠnÃ¡ch": 880,
      "ĠvÃ©m": 881,
      "ĠvÅ¾dyÅ¥": 882,
      "Ġvne": 883,
      "ĠpÃ¡n": 884,
      "Ġvod": 885,
      "ĠlÃ½ch": 886,
      "Ġoh": 887,
      "ĠkÃ©m": 888,
      "ar": 889,
      "ĠhnÄĽ": 890,
      "Ġkni": 891,
      "ĠdlÃŃ": 892,
      "ĠchÅ¯": 893,
      "Ġvzdu": 894,
      "ĠtrÃ¡": 895,
      "ĠsvÃ¡": 896,
      "ĠcÃŃm": 897,
      "Ġkon": 898,
      "17": 899,
      "Ġmnou": 900,
      "ĠdeÅ¡": 901,
      "ĠÅĻa": 902,
      "ĠsÃŃc": 903,
      "vo": 904,
      "ĠtvÃŃ": 905,
      "ĠÅ¾el": 906,
      "ĠmÃŃr": 907,
      "Ġcit": 908,
      "ĠÅĻÃ¡": 909,
      "Ġstal": 910,
      "Ġrt": 911,
      "Ġps": 912,
      "ĠstÃŃn": 913,
      "vi": 914,
      "ĠklÃ¡": 915,
      "Ġtlu": 916,
      "XAXAXX": 917,
      "ĠkÃ¡ch": 918,
      "Ġzna": 919,
      "ĠhlÃŃ": 920,
      "Ġchlad": 921,
      "ĠtvÃ½ch": 922,
      "ĠknÃŃ": 923,
      "Ġblou": 924,
      "ha": 925,
      "Ġtma": 926,
      "ĠjuÅ¾": 927,
      "ĠdrÃ¡": 928,
      "ĠtÅĻ": 929,
      "Ġvj": 930,
      "ĠÅ¡Å¥": 931,
      "ech": 932,
      "Ġchle": 933,
      "ĠpÅĻij": 934,
      "ĠÅĻek": 935,
      "ĠzÅ¯": 936,
      "Ġcy": 937,
      "ast": 938,
      "ĠvÅ¡em": 939,
      "Ġzel": 940,
      "ĠneÄį": 941,
      "ĠcoÅ¾": 942,
      "Ġvch": 943,
      "Ġsd": 944,
      "Ġplo": 945,
      "at": 946,
      "Ġpal": 947,
      "ĠÄįes": 948,
      "Ġzno": 949,
      "ĠÅ¡tÃŃ": 950,
      "ĠsvÃ©m": 951,
      "ĠaÄį": 952,
      "Ġhlou": 953,
      "Ġtal": 954,
      "Ġvno": 955,
      "ĠmÃ½ch": 956,
      "Ġct": 957,
      "ĠneÅ¡": 958,
      "ĠstÃ¡l": 959,
      "Ġstvo": 960,
      "Ġrov": 961,
      "Ġzpo": 962,
      "Ġpom": 963,
      "ĠÄı": 964,
      "ĠzpÄĽv": 965,
      "XB": 966,
      "ĠsmÃŃch": 967,
      "ĠnnÃŃ": 968,
      "Ġtec": 969,
      "ĠhÅĻ": 970,
      "Ġsni": 971,
      "Ġsne": 972,
      "ve": 973,
      "ĠhlÃ©": 974,
      "Ġtys": 975,
      "Ġbys": 976,
      "ĠjÃŃc": 977,
      "ĠpÃ½": 978,
      "Ġleh": 979,
      "vÃ¡": 980,
      "ĠzrÃ¡": 981,
      "Ġbal": 982,
      "ĠvlÃŃ": 983,
      "na": 984,
      "Å¡Å¥": 985,
      "Ġjo": 986,
      "ĠvdÄĽ": 987,
      "ĠkÅĻe": 988,
      "Ġpan": 989,
      "ĠvÃ¡n": 990,
      "ĠÅ¡p": 991,
      "Ã³": 992,
      "ĠdÃ½m": 993,
      "Ġhod": 994,
      "Ġkz": 995,
      "ĠÅ¾eh": 996,
      "ĠlÃ©m": 997,
      "ĠvnÃŃ": 998,
      "ĠhlÃ¡": 999,
      "ĠnnÃ©": 1000,
      "ĠÃºs": 1001,
      "Ġpru": 1002,
      "Ġstat": 1003,
      "Ġbles": 1004,
      "ĠdvÄĽ": 1005,
      "Ġskou": 1006,
      "Ġchci": 1007,
      "ĠÄįem": 1008,
      "Ġdvo": 1009,
      "Ġzle": 1010,
      "ĠhrÅ¯": 1011,
      "Ġsmrt": 1012,
      "Ġsed": 1013,
      "ĠchvÃ¡": 1014,
      "Ġvro": 1015,
      "Ġhrad": 1016,
      "Ġves": 1017,
      "Ġy": 1018,
      "Ġdce": 1019,
      "ĠskrÃ¡": 1020,
      "ĠÅ¾al": 1021,
      "Ġplu": 1022,
      "Ġbil": 1023,
      "ĠzÃ¡ÅĻ": 1024,
      "ĠlÃ½m": 1025,
      "Ġvbo": 1026,
      "Ġlek": 1027,
      "va": 1028,
      "Ġnit": 1029,
      "Ġzr": 1030,
      "Ġvoj": 1031,
      "Ġstem": 1032,
      "ĠvdÃ¡l": 1033,
      "Ġvti": 1034,
      "ĠÅĪa": 1035,
      "Ġvza": 1036,
      "ĠÄįel": 1037,
      "Ġlov": 1038,
      "Ġboj": 1039,
      "Ġtk": 1040,
      "ĠÅ¡ep": 1041,
      "ĠtÃ¡h": 1042,
      "Ġlik": 1043,
      "Ġchal": 1044,
      "Ġlest": 1045,
      "Ġchou": 1046,
      "Ġzbo": 1047,
      "ĠzmÄĽ": 1048,
      "Ġmem": 1049,
      "ĠvÅ¡u": 1050,
      "Ġtes": 1051,
      "ĠÅĻÃŃm": 1052,
      "Ġvzh": 1053,
      "ĠdÄĽj": 1054,
      "Ġskry": 1055,
      "ĠzpÄĽt": 1056,
      "Ġkdys": 1057,
      "ĠprÃ½": 1058,
      "Ġhlo": 1059,
      "Ġmd": 1060,
      "Ġvrou": 1061,
      "ĠslyÅ¡": 1062,
      "Ġsr": 1063,
      "ĠzÅĻel": 1064,
      "Ġdar": 1065,
      "Ġpev": 1066,
      "Ġsvit": 1067,
      "ĠÅ¾Ã¡d": 1068,
      "Ġfi": 1069,
      "Ġkme": 1070,
      "Ġtech": 1071,
      "ĠdÅĻÃŃv": 1072,
      "Ġcen": 1073,
      "Ġhroz": 1074,
      "Ġzro": 1075,
      "Ġdly": 1076,
      "Ġvmo": 1077,
      "Ġkto": 1078,
      "en": 1079,
      "Ġman": 1080,
      "ĠvÃŃÅ¡": 1081,
      "Ġtvou": 1082,
      "Ġtry": 1083,
      "Ġstej": 1084,
      "Ġkraj": 1085,
      "Ġska": 1086,
      "ĠÅ¾o": 1087,
      "Ġsna": 1088,
      "vÃ©": 1089,
      "Å¾i": 1090,
      "Ġral": 1091,
      "ĠchÃ©": 1092,
      "ĠÅ¾Ã¡r": 1093,
      "ĠsnÃ¡": 1094,
      "ĠhvÄĽzd": 1095,
      "Ġper": 1096,
      "ĠkÅ¯m": 1097,
      "ĠÅ¡Å¥ast": 1098,
      "ĠvtÃ©": 1099,
      "ĠsnÃŃm": 1100,
      "ĠjÃŃt": 1101,
      "ĠÄįen": 1102,
      "ĠmÅĻe": 1103,
      "ĠvÃº": 1104,
      "Ġvru": 1105,
      "ĠnÄĽl": 1106,
      "Ġznich": 1107,
      "ĠtÄĽz": 1108,
      "ĠmÃ¡Å¡": 1109,
      "Ġtit": 1110,
      "ĠtoÅ¥": 1111,
      "ĠtrÅ¯": 1112,
      "Ġvit": 1113,
      "Ġth": 1114,
      "Ġtl": 1115,
      "Ġchod": 1116,
      "ĠsÃŃm": 1117,
      "ĠH": 1118,
      "Ġvnich": 1119,
      "ĠkÃ¡m": 1120,
      "Ġzdo": 1121,
      "Ġdit": 1122,
      "Ġlal": 1123,
      "Ġzl": 1124,
      "Ġtan": 1125,
      "ĠvÅ¡ÃŃ": 1126,
      "Ġjdou": 1127,
      "Ġkat": 1128,
      "ĠdlÃ©": 1129,
      "Ġkri": 1130,
      "Ġcu": 1131,
      "ĠbÃ¡s": 1132,
      "ĠzvÃŃ": 1133,
      "ĠboÅ¾": 1134,
      "Ġpoj": 1135,
      "Ġjm": 1136,
      "Ġdat": 1137,
      "ĠÅ¾ha": 1138,
      "ABBX": 1139,
      "ĠtÃ©m": 1140,
      "ĠÅ¡ÃŃch": 1141,
      "Ġbar": 1142,
      "AXX": 1143,
      "ĠcÃ½": 1144,
      "Ġply": 1145,
      "ĠrÃ½ch": 1146,
      "Ġhal": 1147,
      "ĠÄįet": 1148,
      "Ġca": 1149,
      "Ġhrob": 1150,
      "Ġpot": 1151,
      "mu": 1152,
      "ĠÅ¡ich": 1153,
      "Ġstva": 1154,
      "Ġvpra": 1155,
      "CB": 1156,
      "ĠÅ¡lÃ©": 1157,
      "ĠteÄį": 1158,
      "Ġok": 1159,
      "Ġzal": 1160,
      "Ġtvr": 1161,
      "ĠsnÅ¯": 1162,
      "Ġvan": 1163,
      "Ġztra": 1164,
      "ĠÅ¾ÃŃm": 1165,
      "ĠprÃ¡z": 1166,
      "Ġmoh": 1167,
      "Ġskal": 1168,
      "Ġzmi": 1169,
      "ĠblÃ¡": 1170,
      "Ġtaj": 1171,
      "Ġvze": 1172,
      "Ġsyn": 1173,
      "ĠblÃŃÅ¾": 1174,
      "ĠdÃŃÅ¡": 1175,
      "Ġnich": 1176,
      "Ġvko": 1177,
      "Ġbem": 1178,
      "ĠÄįt": 1179,
      "Ġzli": 1180,
      "Ġcos": 1181,
      "Ġblo": 1182,
      "ĠtÄĽl": 1183,
      "Ġga": 1184,
      "ĠÅ¡il": 1185,
      "ĠÄįin": 1186,
      "Ġblu": 1187,
      "ĠtÃ½m": 1188,
      "Ġbol": 1189,
      "ĠdÅ¯m": 1190,
      "ĠmoÅ¾": 1191,
      "Ġ1800": 1192,
      "Ġjis": 1193,
      "Ġbli": 1194,
      "ĠnechÅ¥": 1195,
      "Ġdin": 1196,
      "Ġkb": 1197,
      "Ġsbo": 1198,
      "Ġnen": 1199,
      "ĠsklÃ¡": 1200,
      "ĠÄįit": 1201,
      "ĠmÃŃn": 1202,
      "Ġzor": 1203,
      "ĠjÃŃÅ¾": 1204,
      "Ġge": 1205,
      "Ġvdo": 1206,
      "ĠmÃ½m": 1207,
      "Ġzby": 1208,
      "Ġjar": 1209,
      "ĠvnÃ¡": 1210,
      "Ġvsta": 1211,
      "Ġpov": 1212,
      "Ġret": 1213,
      "Ġvej": 1214,
      "ĠÅĻem": 1215,
      "CBC": 1216,
      "ĠsnÃŃh": 1217,
      "Ġdruh": 1218,
      "Ġsklo": 1219,
      "Ġsten": 1220,
      "Ġhud": 1221,
      "ĠÅ¾li": 1222,
      "ĠvÅ¾dyc": 1223,
      "XXABAB": 1224,
      "ĠdlÃ¡": 1225,
      "ĠvÃ½Å¡": 1226,
      "Ġchr": 1227,
      "Ġkud": 1228,
      "ĠÅ¡em": 1229,
      "ĠvÄĽt": 1230,
      "ĠvstÅĻÃŃ": 1231,
      "Ġstru": 1232,
      "ĠÄįÃ¡": 1233,
      "Ġver": 1234,
      "Ġpoh": 1235,
      "Ġleb": 1236,
      "Ġvsk": 1237,
      "Ġled": 1238,
      "ĠptÃ¡k": 1239,
      "ĠhÅĻe": 1240,
      "ĠjÃŃch": 1241,
      "ĠvtÄĽ": 1242,
      "Ġzne": 1243,
      "Ġzva": 1244,
      "Ġbraz": 1245,
      "ĠmÄĽv": 1246,
      "Ġvka": 1247,
      "Ġsel": 1248,
      "ĠstÅ¯": 1249,
      "AXAA": 1250,
      "ABBACC": 1251,
      "ĠdÄĽs": 1252,
      "ĠÅĻit": 1253,
      "ĠnnÃ½": 1254,
      "ĠjejÅ¾": 1255,
      "Ġkmi": 1256,
      "Ġsek": 1257,
      "Ġvzne": 1258,
      "Ġgi": 1259,
      "Ġstech": 1260,
      "Ġzvol": 1261,
      "rÃ¡z": 1262,
      "Ġder": 1263,
      "Ġjal": 1264,
      "Ġsny": 1265,
      "ĠmÃŃt": 1266,
      "Ġjel": 1267,
      "Ġjin": 1268,
      "ĠvÃ¡Å¾": 1269,
      "ĠnnÄĽ": 1270,
      "ĠÅ¡lo": 1271,
      "Ġkh": 1272,
      "ĠzÅĻÃŃm": 1273,
      "ĠjmÃ©": 1274,
      "ĠÅĻÃ¡d": 1275,
      "Ġzen": 1276,
      "Ġvzk": 1277,
      "ja": 1278,
      "Ġvna": 1279,
      "ĠÅ¾it": 1280,
      "Ġsho": 1281,
      "ĠÄįÃŃch": 1282,
      "Ġou": 1283,
      "Ġche": 1284,
      "Ġhli": 1285,
      "ĠvstÅĻÃŃc": 1286,
      "ĠdÃ½ch": 1287,
      "ĠsÃ½": 1288,
      "ĠruÄį": 1289,
      "Ġvzal": 1290,
      "ĠÅ¡ko": 1291,
      "XAABBX": 1292,
      "Ġzvuk": 1293,
      "ĠhoÅ¾": 1294,
      "Ġsku": 1295,
      "Ġzjev": 1296,
      "ĠdÄĽv": 1297,
      "Ġor": 1298,
      "Ġvho": 1299,
      "ĠpÅ¯l": 1300,
      "Ġmrak": 1301,
      "ĠnuÅ¾": 1302,
      "Ġkdes": 1303,
      "ĠvÄį": 1304,
      "Ġzbra": 1305,
      "Ġdve": 1306,
      "Ġlk": 1307,
      "ĠstÃŃm": 1308,
      "ĠpÄĽk": 1309,
      "Ġnev": 1310,
      "Ġslov": 1311,
      "ĠnÄĽÅ¾": 1312,
      "Ġdel": 1313,
      "ĠtÅĻÃ¡": 1314,
      "Ġas": 1315,
      "Ġfe": 1316,
      "ĠjÅ¯": 1317,
      "ĠmeÄį": 1318,
      "Ġtis": 1319,
      "ĠvÅ¾i": 1320,
      "ĠÅ¡len": 1321,
      "ĠÅ¾ÃŃt": 1322,
      "Ġchra": 1323,
      "Ġzved": 1324,
      "ĠpouÅ¡": 1325,
      "ĠÅĻeÄį": 1326,
      "ĠrÃ©m": 1327,
      "ĠzlÃ©": 1328,
      "ĠsvÃ½": 1329,
      "Ġkrok": 1330,
      "ĠvsvÄĽ": 1331,
      "Ġzdvi": 1332,
      "ĠvlÃ¡d": 1333,
      "Ġstli": 1334,
      "Ġsmy": 1335,
      "Ġrek": 1336,
      "ĠhleÄı": 1337,
      "Ġvpr": 1338,
      "Ġkot": 1339,
      "ĠtÄĽm": 1340,
      "AABCBC": 1341,
      "Ġvlo": 1342,
      "ĠpÃ©": 1343,
      "Ġvzte": 1344,
      "AABBXX": 1345,
      "ĠknÃ¡": 1346,
      "ĠÅ¡um": 1347,
      "Ġkva": 1348,
      "Ġzvy": 1349,
      "Ġpat": 1350,
      "ĠdÅĻe": 1351,
      "ĠhruÄı": 1352,
      "Ġkost": 1353,
      "Ġvlas": 1354,
      "ĠÅ¥a": 1355,
      "py": 1356,
      "ĠÅ¡t": 1357,
      "Ġhej": 1358,
      "Ġol": 1359,
      "ĠÄįest": 1360,
      "ĠÃŃ": 1361,
      "ĠvzhÅ¯": 1362,
      "Ġdob": 1363,
      "ĠpÅ¯j": 1364,
      "Ġnat": 1365,
      "Ġstup": 1366,
      "ÅĪa": 1367,
      "Ġpor": 1368,
      "ĠhÅĻm": 1369,
      "ĠvÃ¡l": 1370,
      "ĠslÃ©": 1371,
      "Ġaj": 1372,
      "Ġpar": 1373,
      "Ġproud": 1374,
      "ĠtÅĻpy": 1375,
      "Ġzdra": 1376,
      "ĠzÃ½": 1377,
      "ĠzlÃŃ": 1378,
      "ĠrÃ½m": 1379,
      "Ġsal": 1380,
      "ĠtoÅ¾": 1381,
      "ĠskrÃ½": 1382,
      "Ġklad": 1383,
      "ĠliÅ¡": 1384,
      "Ġum": 1385,
      "Ġcel": 1386,
      "ĠdÃ©m": 1387,
      "Ġlist": 1388,
      "BB": 1389,
      "Ġkoj": 1390,
      "Ġgo": 1391,
      "Ġtre": 1392,
      "Ġvzduch": 1393,
      "ĠzmÃŃ": 1394,
      "Ġblesk": 1395,
      "Ġzim": 1396,
      "ĠkÅĻik": 1397,
      "ĠkÅĻÃŃÅ¾": 1398,
      "ÅĻa": 1399,
      "ĠvÅ¡ich": 1400,
      "Ġhly": 1401,
      "Ġlej": 1402,
      "bi": 1403,
      "ĠÅ¾lu": 1404,
      "Ġtle": 1405,
      "Ġsme": 1406,
      "ĠztrÃ¡": 1407,
      "Ġrak": 1408,
      "ĠvÄĽz": 1409,
      "ĠbÅĻÃŃ": 1410,
      "ĠbÃŃd": 1411,
      "Ġnel": 1412,
      "ĠprÅ¯": 1413,
      "ĠstÃ¡t": 1414,
      "Ġmal": 1415,
      "Ġkze": 1416,
      "Ġov": 1417,
      "Ġhoj": 1418,
      "ĠvÄĽn": 1419,
      "ĠskvÄĽ": 1420,
      "ĠzvÃ¡": 1421,
      "18": 1422,
      "ĠÅ¾iv": 1423,
      "Ġkles": 1424,
      "ĠÅ¡ek": 1425,
      "Ġvli": 1426,
      "Ã¡m": 1427,
      "Ġvpa": 1428,
      "Ġpout": 1429,
      "ĠY": 1430,
      "Ġbuj": 1431,
      "Ġss": 1432,
      "ĠkdoÅ¾": 1433,
      "Ġfra": 1434,
      "ĠskÃ½m": 1435,
      "Ġnav": 1436,
      "Ġdlit": 1437,
      "ĠheÅĪ": 1438,
      "Ġhnu": 1439,
      "ABBAXX": 1440,
      "Ġstil": 1441,
      "ĠhoÅĻ": 1442,
      "ĠÅĻen": 1443,
      "Ġset": 1444,
      "Ġlas": 1445,
      "Ġvslu": 1446,
      "ĠhÃ½ch": 1447,
      "Ġskle": 1448,
      "Ġnno": 1449,
      "ĠbouÅĻ": 1450,
      "ĠpuÅ¡": 1451,
      "ĠnÄĽn": 1452,
      "Ġdav": 1453,
      "Ġal": 1454,
      "Ġhlad": 1455,
      "ĠstÅĻed": 1456,
      "Ġtli": 1457,
      "ĠbrÃ½": 1458,
      "ĠbÃ©": 1459,
      "Ġhan": 1460,
      "Ġzka": 1461,
      "Ġstrom": 1462,
      "ĠvlÃŃd": 1463,
      "Ġar": 1464,
      "Ġstar": 1465,
      "Ġples": 1466,
      "Ġnaj": 1467,
      "ĠtvÃ½m": 1468,
      "Ġchvil": 1469,
      "ĠmÄĽk": 1470,
      "Ġspi": 1471,
      "ĠÅ¡en": 1472,
      "Ġsmu": 1473,
      "ĠdiÄį": 1474,
      "ĠchlÃ©": 1475,
      "ĠnÃŃÅ¾": 1476,
      "Ġprud": 1477,
      "ĠmÅĻÃŃ": 1478,
      "Ġbd": 1479,
      "Ġhrom": 1480,
      "ĠnaÄį": 1481,
      "ABABAB": 1482,
      "ĠhnÄĽv": 1483,
      "ĠknÃ¡m": 1484,
      "ĠÃ¡": 1485,
      "Ġknu": 1486,
      "Ġvln": 1487,
      "Ġkly": 1488,
      "Ġrej": 1489,
      "ĠznÃ¡m": 1490,
      "Ġvec": 1491,
      "Ġrok": 1492,
      "ĠnoÄį": 1493,
      "nÃŃz": 1494,
      "ĠdnÃŃ": 1495,
      "ĠdÃ¡t": 1496,
      "ĠnÅ¯m": 1497,
      "Ġpos": 1498,
      "Ġber": 1499,
      "AAXA": 1500,
      "Ġknou": 1501,
      "Ġpol": 1502,
      "Ġchmu": 1503,
      "ĠvÅ¡i": 1504,
      "ĠchvÄĽl": 1505,
      "ĠzeÅĪ": 1506,
      "Ġpta": 1507,
      "AXXA": 1508,
      "Ġzaz": 1509,
      "Ġrel": 1510,
      "Ġdrob": 1511,
      "ĠztÄĽ": 1512,
      "ĠpyÅ¡": 1513,
      "Ġvzdech": 1514,
      "ĠpÄĽl": 1515,
      "Ġsoud": 1516,
      "in": 1517,
      "Ġher": 1518,
      "Ġprach": 1519,
      "ĠvdÃ¡": 1520,
      "ĠniÄį": 1521,
      "ĠdrÃ©": 1522,
      "Ġkso": 1523,
      "ĠhÃ¡d": 1524,
      "Ġzce": 1525,
      "ĠskÃ©m": 1526,
      "ĠbrÃ©": 1527,
      "ĠzdÃ¡l": 1528,
      "Ġkno": 1529,
      "ĠlÃŃm": 1530,
      "ĠÅ¾u": 1531,
      "ĠvÅĻÃŃ": 1532,
      "ĠmÃ©m": 1533,
      "Ġdouc": 1534,
      "Ġzni": 1535,
      "Ġstrach": 1536,
      "BX": 1537,
      "Ġbor": 1538,
      "ĠdruÅ¾": 1539,
      "ĠblÃŃz": 1540,
      "ĠkoÅ¡": 1541,
      "Ġvsv": 1542,
      "Ġtly": 1543,
      "Ġctno": 1544,
      "Å¯r": 1545,
      "ĠÅ¡et": 1546,
      "Ġstav": 1547,
      "ĠstrÃ½": 1548,
      "Ġvez": 1549,
      "ĠvzdÃ¡": 1550,
      "ĠvpÅĻe": 1551,
      "ĠdvÃ©": 1552,
      "Ġnak": 1553,
      "ĠÄįÃŃÅ¡": 1554,
      "ĠvÄĽc": 1555,
      "vr": 1556,
      "er": 1557,
      "Ġned": 1558,
      "Ġzru": 1559,
      "Ġzma": 1560,
      "ĠÅ¡at": 1561,
      "ĠlÃŃc": 1562,
      "XABB": 1563,
      "Ġtost": 1564,
      "ĠstraÅ¡": 1565,
      "ĠzboÅ¾": 1566,
      "Ġvzb": 1567,
      "ĠchrÃ¡m": 1568,
      "Ġcet": 1569,
      "Ġtic": 1570,
      "ĠbyÅ¥": 1571,
      "Ġdno": 1572,
      "Ġzmo": 1573,
      "Ġved": 1574,
      "Ġprs": 1575,
      "Ġlit": 1576,
      "Ġvys": 1577,
      "Ġdek": 1578,
      "Ġklam": 1579,
      "ĠzdrÃ¡": 1580,
      "Ġnnou": 1581,
      "ĠjichÅ¾": 1582,
      "Ġzvon": 1583,
      "ĠliÄį": 1584,
      "Ġzbu": 1585,
      "Ġkpo": 1586,
      "Ġchat": 1587,
      "ĠbÄĽd": 1588,
      "Ġpen": 1589,
      "Ġran": 1590,
      "ĠspoÅĪ": 1591,
      "Ġvzdy": 1592,
      "Ġben": 1593,
      "ĠrÃ¡m": 1594,
      "Ġspou": 1595,
      "Ġpry": 1596,
      "Ġzum": 1597,
      "Ġtvor": 1598,
      "Ġsma": 1599,
      "Ġjme": 1600,
      "Ġkrou": 1601,
      "ĠdÄĽc": 1602,
      "rÅ¯": 1603,
      "Ġtrp": 1604,
      "ĠÅ¡lÃ©n": 1605,
      "Ġskvo": 1606,
      "Ġter": 1607,
      "ĠkÃ©Å¾": 1608,
      "Ġspra": 1609,
      "ĠvnÄĽmÅ¾": 1610,
      "ĠdnÅ¯": 1611,
      "Ġbrou": 1612,
      "Ġvhro": 1613,
      "ĠsvÄĽd": 1614,
      "Ġur": 1615,
      "ĠblÃ½": 1616,
      "Ġvzt": 1617,
      "Ġzil": 1618,
      "Ġtrem": 1619,
      "ĠvstÃ¡": 1620,
      "ĠnnÃ¡": 1621,
      "Ġzj": 1622,
      "ĠnaÅĪ": 1623,
      "Ġkej": 1624,
      "Ġnut": 1625,
      "ĠhÃ½m": 1626,
      "Ġzti": 1627,
      "Ġmech": 1628,
      "ĠchceÅ¡": 1629,
      "Ġtin": 1630,
      "AAXB": 1631,
      "Ġruch": 1632,
      "ĠplÃ©": 1633,
      "ĠÅĻÃŃÅ¡": 1634,
      "ĠnÃŃz": 1635,
      "ĠzlÃ¡": 1636,
      "Ġrty": 1637,
      "ĠÅ¾em": 1638,
      "ĠstrÃ¡Å¾": 1639,
      "Ġsve": 1640,
      "Ġlec": 1641,
      "ĠdlÃ½": 1642,
      "Ġkov": 1643,
      "ĠjÃŃmÅ¾": 1644,
      "ĠvÄĽÅĻ": 1645,
      "Ġvrh": 1646,
      "ĠÄįej": 1647,
      "ĠdÃ¡Å¡": 1648,
      "Ġvzdor": 1649,
      "ti": 1650,
      "ĠtÃŃÅ¡": 1651,
      "Ġtor": 1652,
      "Ġzar": 1653,
      "Ġkar": 1654,
      "ĠzdÄĽ": 1655,
      "ĠmraÄį": 1656,
      "Ġchl": 1657,
      "ĠÃºz": 1658,
      "ĠhÃ©m": 1659,
      "Ġsnu": 1660,
      "ĠÅĻÅ¯": 1661,
      "Ġhat": 1662,
      "ĠloÄı": 1663,
      "Ġhoch": 1664,
      "Ġsit": 1665,
      "Ġcest": 1666,
      "Ġvin": 1667,
      "Ġbit": 1668,
      "Ġdlem": 1669,
      "Ġpit": 1670,
      "Ġsky": 1671,
      "Ġdum": 1672,
      "ĠpojÄı": 1673,
      "Ġhost": 1674,
      "Ġmor": 1675,
      "Ġbec": 1676,
      "Ġhrou": 1677,
      "Ġvad": 1678,
      "Ġvpro": 1679,
      "ĠdÃŃt": 1680,
      "ĠdÃ¡n": 1681,
      "ĠtÃ¡m": 1682,
      "ĠzÃŃch": 1683,
      "Ġvsa": 1684,
      "Ġjdu": 1685,
      "Ġscho": 1686,
      "zd": 1687,
      "ĠpÃ¡r": 1688,
      "Ġkn": 1689,
      "Ġhlav": 1690,
      "ĠhnÃŃz": 1691,
      "ĠbÃ¡ch": 1692,
      "ĠsmÃ¡": 1693,
      "ĠpÅĻÃŃÅ¡": 1694,
      "ĠÅ¡ly": 1695,
      "Ġnna": 1696,
      "ĠpÅĻÃŃs": 1697,
      "ĠpoÄį": 1698,
      "vou": 1699,
      "ĠtlÃ©": 1700,
      "Ġcti": 1701,
      "Ġlez": 1702,
      "Ġvce": 1703,
      "ĠmrÃ¡z": 1704,
      "ĠplÃ¡Äį": 1705,
      "ĠvtvÃ¡": 1706,
      "ĠÅ¡ÃŃÅ¡": 1707,
      "Ġmek": 1708,
      "Ġlin": 1709,
      "ĠznÄĽl": 1710,
      "ĠpryÄį": 1711,
      "ĠtvÃ©m": 1712,
      "Ġdny": 1713,
      "ĠrÃ¡ch": 1714,
      "ĠvsÃŃ": 1715,
      "Ġmluv": 1716,
      "Ġpel": 1717,
      "ĠhÅĻÃŃch": 1718,
      "Ġsbor": 1719,
      "Ġvor": 1720,
      "Ġbin": 1721,
      "ĠÅ¡o": 1722,
      "ĠmÄĽj": 1723,
      "ĠzvlÃ¡": 1724,
      "Ġstk": 1725,
      "Ġklet": 1726,
      "Ġklu": 1727,
      "ĠhÃ¡m": 1728,
      "Ġmil": 1729,
      "Ġkyt": 1730,
      "Ġzba": 1731,
      "Ġvta": 1732,
      "ĠvzÃ¡c": 1733,
      "ĠnÃ¡d": 1734,
      "ĠlÃŃch": 1735,
      "Ġvyz": 1736,
      "ĠvÅĻel": 1737,
      "Ġhar": 1738,
      "Ġbral": 1739,
      "Ġhm": 1740,
      "ĠÄįech": 1741,
      "Ġtov": 1742,
      "Ġvtu": 1743,
      "ĠviÄį": 1744,
      "Ġzdi": 1745,
      "Ġpln": 1746,
      "Ġsro": 1747,
      "Ġviz": 1748,
      "ĠÅ¾dy": 1749,
      "ĠsÃ¡h": 1750,
      "Ġvzde": 1751,
      "Ġsra": 1752,
      "ĠskÅĻi": 1753,
      "Ġblud": 1754,
      "ĠvÅ¡a": 1755,
      "tÅĻ": 1756,
      "Ġblan": 1757,
      "ĠzrÃ¡d": 1758,
      "Ġkor": 1759,
      "ĠrÃ¡j": 1760,
      "Ġtrou": 1761,
      "Ġoz": 1762,
      "XAXABB": 1763,
      "Ġpem": 1764,
      "ĠvÅĻa": 1765,
      "Ġsnem": 1766,
      "Ġzdro": 1767,
      "ĠvraÅ¾": 1768,
      "Ġvrat": 1769,
      "ĠnosÅ¥": 1770,
      "ĠpÄĽv": 1771,
      "Ġrat": 1772,
      "ĠdrÃ½": 1773,
      "Ġtrh": 1774,
      "ĠvÃŃr": 1775,
      "Ġlh": 1776,
      "ĠÄįal": 1777,
      "ĠsplÃ½": 1778,
      "ĠvÅ¯d": 1779,
      "Ġzval": 1780,
      "ĠÅ¡Ã¡": 1781,
      "ĠhlÃ½": 1782,
      "Ġkus": 1783,
      "ĠstvÃŃm": 1784,
      "ĠÅ¾ÃŃÅ¡": 1785,
      "Ġzto": 1786,
      "Ġvkra": 1787,
      "ĠplÃŃ": 1788,
      "Ġgra": 1789,
      "Ġjez": 1790,
      "Ġhas": 1791,
      "Ġzko": 1792,
      "ĠÄıÃ¡": 1793,
      "ĠdÃ¡ch": 1794,
      "ĠtiÄį": 1795,
      "Ġfran": 1796,
      "ĠcÅ¯m": 1797,
      "ĠrÅ¯z": 1798,
      "Ġzch": 1799,
      "ĠkrÅ¯": 1800,
      "Ġlep": 1801,
      "Ġgu": 1802,
      "Ġmst": 1803,
      "ĠblÃ½s": 1804,
      "Ġmni": 1805,
      "Ġrad": 1806,
      "ĠtÃŃÅ¾": 1807,
      "ĠÅ¾h": 1808,
      "ĠvkrÃ¡": 1809,
      "Ġjil": 1810,
      "Ġstran": 1811,
      "Ġvji": 1812,
      "lad": 1813,
      "Ġken": 1814,
      "ze": 1815,
      "Ġzdu": 1816,
      "ĠsÅ¯m": 1817,
      "Ġvkr": 1818,
      "ĠbiÄį": 1819,
      "Ġtmy": 1820,
      "ĠvÅ¡ÃŃm": 1821,
      "ĠtÃ³": 1822,
      "ĠzÃŃm": 1823,
      "ĠskrÃ¡ÅĪ": 1824,
      "Ġfo": 1825,
      "ĠfÃ¡": 1826,
      "ĠklÃ©": 1827,
      "Ġvsm": 1828,
      "Ġbled": 1829,
      "ĠdvÃ¡": 1830,
      "Ġskro": 1831,
      "Ġpros": 1832,
      "Ġdlu": 1833,
      "Ġlesk": 1834,
      "Ġbyt": 1835,
      "ĠskÅĻÃŃ": 1836,
      "ĠkrÃ½": 1837,
      "ĠchtÃŃ": 1838,
      "Ġbod": 1839,
      "Ġslil": 1840,
      "ĠbÄĽh": 1841,
      "ĠvlÃ¡s": 1842,
      "ĠdnÃ©": 1843,
      "ĠztÄĽch": 1844,
      "Ġkbo": 1845,
      "Ġlan": 1846,
      "Ġtok": 1847,
      "XXAABB": 1848,
      "Ġvzle": 1849,
      "ĠspÃŃÅ¡": 1850,
      "ĠdÃŃk": 1851,
      "Ġvroz": 1852,
      "Ġtat": 1853,
      "ĠvznÃ¡": 1854,
      "Ġdot": 1855,
      "Ġtve": 1856,
      "Ġbru": 1857,
      "ĠcÃŃl": 1858,
      "ĠÅ¡it": 1859,
      "Ġvost": 1860,
      "ĠchÃ¡m": 1861,
      "ĠklÃŃn": 1862,
      "Ġhol": 1863,
      "Ġvsp": 1864,
      "Ġtri": 1865,
      "lav": 1866,
      "ĠvzplÃ¡": 1867,
      "ĠsÃº": 1868,
      "Ġzlou": 1869,
      "ĠsaÅĻ": 1870,
      "Ġhloub": 1871,
      "ĠsvÃ¡t": 1872,
      "Ġhad": 1873,
      "Ġlat": 1874,
      "ĠmÄĽst": 1875,
      "ĠvkaÅ¾": 1876,
      "led": 1877,
      "Å¡e": 1878,
      "Ġsje": 1879,
      "Å¯d": 1880,
      "Ġtev": 1881,
      "Ġos": 1882,
      "ĠmÅ¾i": 1883,
      "Ġvhlou": 1884,
      "ĠlÃ¡ch": 1885,
      "Ġplod": 1886,
      "Ġdni": 1887,
      "Ġchli": 1888,
      "Ġzku": 1889,
      "Ġthe": 1890,
      "Ġvn": 1891,
      "ĠÅ¡er": 1892,
      "ĠslÃŃm": 1893,
      "Ġkruh": 1894,
      "Ġdrech": 1895,
      "Ġluz": 1896,
      "Ġjsa": 1897,
      "Ġdrav": 1898,
      "ĠboÅ¥": 1899,
      "ej": 1900,
      "ĠÄįÅ¯": 1901,
      "ĠÅ¾er": 1902,
      "ĠkvÃ©": 1903,
      "Ġtmou": 1904,
      "Ġpsa": 1905,
      "Ġkmo": 1906,
      "ĠzÃº": 1907,
      "ĠÅĻad": 1908,
      "Ġlam": 1909,
      "ĠstÅĻi": 1910,
      "ĠnÃ¡c": 1911,
      "ĠdlaÅĪ": 1912,
      "Ġjan": 1913,
      "Ġtrys": 1914,
      "Ġzhy": 1915,
      "Ġpes": 1916,
      "Ġlze": 1917,
      "Ġskvost": 1918,
      "Ġvtem": 1919,
      "Ġau": 1920,
      "Ġvsi": 1921,
      "Ġblak": 1922,
      "Ġpur": 1923,
      "ĠhÅ¯m": 1924,
      "Ġbel": 1925,
      "Ġx": 1926,
      "ĠÄįu": 1927,
      "Ġkdos": 1928,
      "ĠvpÅĻed": 1929,
      "Ġstesk": 1930,
      "ĠhÅĻbi": 1931,
      "ĠtÅĻil": 1932,
      "ĠdÃŃl": 1933,
      "Ġknim": 1934,
      "Ġzpu": 1935,
      "Ġin": 1936,
      "ĠÄįo": 1937,
      "Ġmli": 1938,
      "ĠvstÃŃ": 1939,
      "Ġsej": 1940,
      "Ġvdi": 1941,
      "ĠvmÄĽ": 1942,
      "ĠÅĻec": 1943,
      "Ġsic": 1944,
      "Ġtich": 1945,
      "ĠvrÃ¡z": 1946,
      "ĠknÄĽÅ¾": 1947,
      "ĠzprÃ¡": 1948,
      "ĠzÅĻÃŃt": 1949,
      "ĠhrÃ¡l": 1950,
      "ĠsluÅ¾": 1951,
      "Ġvjed": 1952,
      "Ġjat": 1953,
      "Ġvstou": 1954,
      "Ġvnad": 1955,
      "Ġrost": 1956,
      "ĠlkÃ¡": 1957,
      "ĠknÄĽz": 1958,
      "Å¾e": 1959,
      "Ġhez": 1960,
      "Ġvlh": 1961,
      "ĠbÅĻi": 1962,
      "Ġjdi": 1963,
      "19": 1964,
      "ĠmlÄį": 1965,
      "ĠtÃ¡n": 1966,
      "ÃŃt": 1967,
      "Ġvstal": 1968,
      "Ġskon": 1969,
      "ĠkÅ¯v": 1970,
      "vy": 1971,
      "ĠvsvÃ©": 1972,
      "ouÅ¡": 1973,
      "ĠtÄĽj": 1974,
      "Ġteh": 1975,
      "Ġsad": 1976,
      "ĠzvÄĽst": 1977,
      "Ġchmur": 1978,
      "Ġtlou": 1979,
      "Ġrd": 1980,
      "ĠÅ¾as": 1981,
      "ĠvÄĽÅ¡": 1982,
      "ĠvdÄĽÄį": 1983,
      "AAAX": 1984,
      "Ġdnem": 1985,
      "Ġplou": 1986,
      "Ġvte": 1987,
      "ĠslÃ½": 1988,
      "ĠÄįty": 1989,
      "Ġdna": 1990,
      "ĠpÃ¡d": 1991,
      "Ġsno": 1992,
      "ĠzlÃ½": 1993,
      "ĠchÃ©m": 1994,
      "Ġvse": 1995,
      "ĠsbÃŃ": 1996,
      "ĠtÅĻpyt": 1997,
      "Ġvmy": 1998,
      "Ġstla": 1999,
      "ĠpÄĽj": 2000,
      "Ġvkou": 2001,
      "ĠlÃ¡m": 2002,
      "Ġtiv": 2003,
      "Ġhvo": 2004,
      "ĠÅ¡tÃŃt": 2005,
      "Ġuz": 2006,
      "vÄĽt": 2007,
      "ĠhluÄį": 2008,
      "Ġpli": 2009,
      "Ġzha": 2010,
      "Ġpas": 2011,
      "ĠmÅĻel": 2012,
      "Ġnny": 2013,
      "ĠsÃŃch": 2014,
      "Ġmon": 2015,
      "Ġkan": 2016,
      "ĠstÃ©m": 2017,
      "Ġlev": 2018,
      "Ġrte": 2019,
      "ĠoÄį": 2020,
      "Ã¡ch": 2021,
      "Ġfr": 2022,
      "Ġrtech": 2023,
      "Ġvtm": 2024,
      "Ġtej": 2025,
      "Ġchlu": 2026,
      "Ġhon": 2027,
      "ĠtÅ¯m": 2028,
      "ĠvnÃŃÅ¾": 2029,
      "ĠrtÅ¯": 2030,
      "Ġkmet": 2031,
      "Ġbek": 2032,
      "Ġzvl": 2033,
      "Ġlad": 2034,
      "ĠvÅ¡ed": 2035,
      "Ġren": 2036,
      "Ġzbro": 2037,
      "Ġchva": 2038,
      "ĠvÃ½s": 2039,
      "Ġvso": 2040,
      "ĠkÃ¡n": 2041,
      "ĠtÃ¡ch": 2042,
      "Ġslech": 2043,
      "Ġkup": 2044,
      "Ġlla": 2045,
      "Ġvry": 2046,
      "Ġvzbu": 2047,
      "ĠzÄįe": 2048,
      "ĠmlÃ¡d": 2049,
      "ĠÅĪu": 2050,
      "Ġzek": 2051,
      "Ġdvou": 2052,
      "Ġlic": 2053,
      "Ġlib": 2054,
      "ĠÅ¾eb": 2055,
      "ĠvsvÃ©m": 2056,
      "ABXB": 2057,
      "Ġzdvih": 2058,
      "Ġvrouc": 2059,
      "Ġnuv": 2060,
      "ĠdiÅ¾": 2061,
      "Ġkaz": 2062,
      "ĠvpÅĻÃŃ": 2063,
      "Ġstes": 2064,
      "ĠkÅĻes": 2065,
      "Ġspu": 2066,
      "Ġfal": 2067,
      "XXAAXX": 2068,
      "ĠlaÄį": 2069,
      "ĠmÃ¡t": 2070,
      "ĠÅ¾Å¯": 2071,
      "ABABAX": 2072,
      "ĠÅĻÃŃch": 2073,
      "ĠjvÃŃ": 2074,
      "ĠvpÃŃ": 2075,
      "ĠmÅ¯Å¾": 2076,
      "ĠtÃ¡ÅĻ": 2077,
      "ĠniÅ¾": 2078,
      "ĠvdÄĽk": 2079,
      "Ġrev": 2080,
      "Ã¡n": 2081,
      "Ġksrd": 2082,
      "Ġclo": 2083,
      "Ġtur": 2084,
      "ĠzpÃ¡t": 2085,
      "ĠvÄįer": 2086,
      "ĠhlÃ©d": 2087,
      "Ġbej": 2088,
      "ĠsliÄį": 2089,
      "ĠtÃ½l": 2090,
      "Ġmdlo": 2091,
      "Ġfu": 2092,
      "ĠkvÃŃt": 2093,
      "Ġstry": 2094,
      "Ġkop": 2095,
      "ĠtvÃ½": 2096,
      "ĠplÃ¡l": 2097,
      "Ġvzdo": 2098,
      "ĠtÃŃch": 2099,
      "ĠklÃ½": 2100,
      "ĠtlÃ½": 2101,
      "ĠplÃ½": 2102,
      "Ġvnu": 2103,
      "ĠvyÅ¡": 2104,
      "Ġnaz": 2105,
      "ĠlÃŃÄį": 2106,
      "XXABBA": 2107,
      "ĠlÃ¡n": 2108,
      "AAXBBX": 2109,
      "ĠkÅĻ": 2110,
      "ĠnnÃ½ch": 2111,
      "ĠveÅ¡": 2112,
      "ĠtÃŃÅĻ": 2113,
      "Ġchlo": 2114,
      "ĠvplÃ¡": 2115,
      "Ġkev": 2116,
      "Ġvet": 2117,
      "ĠrÃ¡z": 2118,
      "Ġnos": 2119,
      "Ġspro": 2120,
      "Ġstvu": 2121,
      "XXXAXA": 2122,
      "ĠbÅĻeh": 2123,
      "Ġksm": 2124,
      "Ġcou": 2125,
      "ĠchlÃ©b": 2126,
      "ĠvtÄĽch": 2127,
      "ĠkÃ½s": 2128,
      "Ġvten": 2129,
      "ĠbdÄĽ": 2130,
      "ĠmÃŃm": 2131,
      "Ġkvi": 2132,
      "ĠbÃ¡m": 2133,
      "ĠÅ¡lech": 2134,
      "Ġchvat": 2135,
      "ĠÅĪÃ¡": 2136,
      "ĠpÅĻej": 2137,
      "ĠÅ¾ik": 2138,
      "ĠpeÄį": 2139,
      "Ġmoz": 2140,
      "Ġbat": 2141,
      "Ġtrud": 2142,
      "ĠvÄĽÄı": 2143,
      "ĠÅ¾ek": 2144,
      "ĠÅ¾eÅ¡": 2145,
      "Ġroj": 2146,
      "ĠvbÃŃ": 2147,
      "Ġztr": 2148,
      "ĠvÃ¡ch": 2149,
      "ĠstÅĻel": 2150,
      "Ġneh": 2151,
      "Ġvyh": 2152,
      "Ġvhlu": 2153,
      "ĠkÄįe": 2154,
      "ĠstÃ½ch": 2155,
      "Ġdol": 2156,
      "Ġzvi": 2157,
      "Ġzyk": 2158,
      "Ġprch": 2159,
      "Ġmov": 2160,
      "ĠÅ¥ast": 2161,
      "ĠsÄįe": 2162,
      "ĠstrÃ©": 2163,
      "Ġznal": 2164,
      "Ġej": 2165,
      "Ġvzpla": 2166,
      "Ġzat": 2167,
      "Ġrech": 2168,
      "ĠsmÃ¡l": 2169,
      "Ġluh": 2170,
      "Ġsot": 2171,
      "Ġvhla": 2172,
      "XABAB": 2173,
      "ĠtnÃŃ": 2174,
      "Ġsob": 2175,
      "Ġsmi": 2176,
      "Ġctnost": 2177,
      "ĠnÃ¡ÅĻ": 2178,
      "Ġkel": 2179,
      "ĠsÃŃÅ¡": 2180,
      "Ġdoj": 2181,
      "ĠpÃ¡s": 2182,
      "ĠstaÅĪ": 2183,
      "ĠstÅ¯j": 2184,
      "ĠÅ¾ÃŃch": 2185,
      "Ġpec": 2186,
      "ĠÄįnÃŃ": 2187,
      "Ġkap": 2188,
      "ĠlÃŃp": 2189,
      "Ġvslun": 2190,
      "Ġpoc": 2191,
      "Ġsnil": 2192,
      "ĠzÅĻÃŃÅ¡": 2193,
      "ĠtÄĽs": 2194,
      "Ġvech": 2195,
      "ĠvnichÅ¾": 2196,
      "ĠvmÃ©": 2197,
      "Ġmec": 2198,
      "ĠtmÄĽ": 2199,
      "ĠmrÃ¡": 2200,
      "Ġlech": 2201,
      "Ġnap": 2202,
      "ĠvlÅ¯": 2203,
      "ĠvklÃŃ": 2204,
      "ĠlÃ©b": 2205,
      "ĠjimÅ¾": 2206,
      "ĠpeÅ¾": 2207,
      "ĠcÃŃr": 2208,
      "Ġtud": 2209,
      "Ġklas": 2210,
      "Ġkst": 2211,
      "val": 2212,
      "Ġdom": 2213,
      "ĠzÃ¡m": 2214,
      "Ġnli": 2215,
      "Ġtlem": 2216,
      "ĠzvlÃ¡Å¡": 2217,
      "Ġhluk": 2218,
      "Ġsj": 2219,
      "ĠslÃ©z": 2220,
      "ĠÄįte": 2221,
      "Ġlli": 2222,
      "Ġzpra": 2223,
      "ĠvzkÅĻi": 2224,
      "ĠkvÃ¡m": 2225,
      "Ġkos": 2226,
      "Ġzdr": 2227,
      "ĠleÅ¾": 2228,
      "ĠvraÅ¥": 2229,
      "ĠzbraÅĪ": 2230,
      "Ġvple": 2231,
      "Ġliv": 2232,
      "Ġjov": 2233,
      "ĠpÃŃt": 2234,
      "Ġbl": 2235,
      "ĠhrÃ¡t": 2236,
      "Ġvja": 2237,
      "Ġpast": 2238,
      "Ġstih": 2239,
      "Ġchom": 2240,
      "rou": 2241,
      "ĠvÄĽst": 2242,
      "Ġzhou": 2243,
      "ĠvÅ¡ic": 2244,
      "ĠÅ¾et": 2245,
      "Ġvzm": 2246,
      "Ġdb": 2247,
      "Ġvpe": 2248,
      "ĠzaÄį": 2249,
      "ĠstÃ¡r": 2250,
      "Ġzlem": 2251,
      "Ġklen": 2252,
      "Ġvbou": 2253,
      "ĠhÅĻmÃŃ": 2254,
      "Ġvztek": 2255,
      "Ġkmen": 2256,
      "Ġdec": 2257,
      "Ġvic": 2258,
      "Ġhut": 2259,
      "ĠdnÄĽ": 2260,
      "ĠmiÅ¾": 2261,
      "ĠtrÃ½": 2262,
      "Ġvml": 2263,
      "ĠprÃ¡h": 2264,
      "ĠpohÅĻ": 2265,
      "ĠdnÃ½": 2266,
      "ĠkÅ¡": 2267,
      "Ġjiz": 2268,
      "Ġvzla": 2269,
      "ĠsÃ©": 2270,
      "Ġvek": 2271,
      "ĠbÃ¡j": 2272,
      "Ġzho": 2273,
      "Ġhbi": 2274,
      "ĠpoÅ¡": 2275,
      "Ġpras": 2276,
      "Ġdrs": 2277,
      "ĠztÃ©": 2278,
      "ĠvÅĪa": 2279,
      "ĠhnÃ¡": 2280,
      "ĠÅĻo": 2281,
      "Ġdok": 2282,
      "ĠnÄĽch": 2283,
      "ĠtÃŃs": 2284,
      "Ġsech": 2285,
      "ĠmÄĽch": 2286,
      "ĠhÅĻÃ¡": 2287,
      "Ġvrah": 2288,
      "Ġvar": 2289,
      "Ġzkve": 2290,
      "ĠtlÃ¡": 2291,
      "ĠmÅĻÃŃt": 2292,
      "ĠsluÅ¡": 2293,
      "ABC": 2294,
      "Ġvrch": 2295,
      "ĠnÃŃÅ¡": 2296,
      "ĠlÃ¡t": 2297,
      "Ġstez": 2298,
      "Ġmrou": 2299,
      "Ġrci": 2300,
      "Ġsvor": 2301,
      "to": 2302,
      "Ġlos": 2303,
      "ĠlÅ¯m": 2304,
      "Ġniv": 2305,
      "ĠspÄĽl": 2306,
      "Ġner": 2307,
      "et": 2308,
      "ĠÅ¾ÃŃz": 2309,
      "Ġzml": 2310,
      "Ġvkte": 2311,
      "ĠchÃ½m": 2312,
      "Ġzah": 2313,
      "Ġsluch": 2314,
      "ĠplÃ¡t": 2315,
      "ĠtÅĻÃŃÅ¡": 2316,
      "ĠvÃŃÄį": 2317,
      "Ġslal": 2318,
      "ĠsmÄĽs": 2319,
      "ĠvÄĽl": 2320,
      "XABABX": 2321,
      "ĠvrÃ¡s": 2322,
      "Ġjvy": 2323,
      "ĠmlÃ½": 2324,
      "ĠsprÃ¡": 2325,
      "Ġraj": 2326,
      "Ġav": 2327,
      "ĠspÄĽch": 2328,
      "ĠzvuÄį": 2329,
      "ĠlÃŃÅ¡": 2330,
      "ĠtÅĻÃ¡s": 2331,
      "ur": 2332,
      "Ġspal": 2333,
      "ĠhÅĻÃŃÅ¡": 2334,
      "Ġsf": 2335,
      "ĠctÃŃ": 2336,
      "Ġvyr": 2337,
      "Ġvzru": 2338,
      "Ġdic": 2339,
      "Ġnach": 2340,
      "Ġstrh": 2341,
      "ĠÅĪo": 2342,
      "ĠstÅĻÃ¡": 2343,
      "ĠzÃ¡Å¡": 2344,
      "ĠspÄĽÅ¡": 2345,
      "ĠmÃ¡j": 2346,
      "Ġfan": 2347,
      "ĠbdÃŃ": 2348,
      "ĠhÃ¡ch": 2349,
      "Ġmih": 2350,
      "ĠÅ¡ak": 2351,
      "Ġbrov": 2352,
      "Ġkom": 2353,
      "ĠmÄĽt": 2354,
      "ĠbÃŃt": 2355,
      "ĠÅ¡pat": 2356,
      "Ġhi": 2357,
      "Ġdev": 2358,
      "Ġzkou": 2359,
      "ĠznÃ¡s": 2360,
      "ĠstÃ½m": 2361,
      "ĠbÄĽÅ¥": 2362,
      "Ġchyt": 2363,
      "Ġvbe": 2364,
      "ĠspÃ¡n": 2365,
      "ĠjeÅ¥": 2366,
      "Ġvtv": 2367,
      "ĠÅ¡Å¥a": 2368,
      "Ġvlu": 2369,
      "ĠblÃ¡z": 2370,
      "ĠÅ¾to": 2371,
      "Ġsmo": 2372,
      "Ġzlu": 2373,
      "ĠtvÅ¯r": 2374,
      "ĠpÅĻÃŃm": 2375,
      "Ġvhru": 2376,
      "ĠhÅĻmÄĽ": 2377,
      "Ġsple": 2378,
      "ĠÄįÃ¡t": 2379,
      "ĠmÄĽÅ¡": 2380,
      "Ġzkr": 2381,
      "ĠreÄį": 2382,
      "ĠslÅ¯": 2383,
      "Ġstan": 2384,
      "ĠpusÅ¥": 2385,
      "ĠdoÄį": 2386,
      "ĠtrÅ¯n": 2387,
      "ĠzmÃ¡": 2388,
      "ĠjvyÅ¡": 2389,
      "ĠcÃ¡": 2390,
      "Ġbran": 2391,
      "Ġhym": 2392,
      "ĠdneÅ¡": 2393,
      "Ġvmra": 2394,
      "Ġklou": 2395,
      "Ġslz": 2396,
      "Ġteb": 2397,
      "ĠvÄĽj": 2398,
      "ĠdÃ©l": 2399,
      "Ġskut": 2400,
      "ĠspÃ¡t": 2401,
      "Ġw": 2402,
      "ĠvznÄĽ": 2403,
      "ĠvlÃ©": 2404,
      "ĠÃºst": 2405,
      "Ġnoch": 2406,
      "ĠstÅ¯l": 2407,
      "Ġvprach": 2408,
      "ĠÅ¥an": 2409,
      "ĠkÅ¯ÅĪ": 2410,
      "Ġvmi": 2411,
      "Ġtkli": 2412,
      "Ġplat": 2413,
      "Ġkmit": 2414,
      "ABA": 2415,
      "Ġbis": 2416,
      "ĠÅĻin": 2417,
      "Ġplach": 2418,
      "ĠkeÅĻ": 2419,
      "ĠpÅĻÃ¡l": 2420,
      "Ġchot": 2421,
      "ĠmoÅĻ": 2422,
      "ĠdÃ©Å¡Å¥": 2423,
      "Ġlst": 2424,
      "ĠschvÃ¡": 2425,
      "Ġjit": 2426,
      "Ġvles": 2427,
      "Ġvda": 2428,
      "ĠÅ¾es": 2429,
      "Ġmot": 2430,
      "ĠvzrÅ¯": 2431,
      "ĠÅ¡in": 2432,
      "Ġmlou": 2433,
      "Ġchyb": 2434,
      "ĠvpÅ¯": 2435,
      "Ġstud": 2436,
      "ĠzkÃ¡": 2437,
      "Ġki": 2438,
      "Ġstrou": 2439,
      "ĠvÃ¡b": 2440,
      "Ġkout": 2441,
      "nÃ©": 2442,
      "ĠchÃ¡ch": 2443,
      "Ġvyj": 2444,
      "Ġvtip": 2445,
      "Å¾ÃŃ": 2446,
      "ĠznÃ¡Å¡": 2447,
      "Ġvist": 2448,
      "Ġodv": 2449,
      "ĠzÃ¡ch": 2450,
      "Ġzji": 2451,
      "Ġstus": 2452,
      "ĠvtvÃ¡ÅĻ": 2453,
      "ĠhÃ¡j": 2454,
      "ĠvsnÄĽ": 2455,
      "Ġzhas": 2456,
      "Ġclav": 2457,
      "Ġluj": 2458,
      "ĠchÅĻi": 2459,
      "Ġmas": 2460,
      "Ġrve": 2461,
      "ĠsvÅ¯d": 2462,
      "ĠdlÃ½ch": 2463,
      "Ġkryl": 2464,
      "ĠÄıas": 2465,
      "Ġvzly": 2466,
      "Ġstic": 2467,
      "Ġrec": 2468,
      "ĠpÃŃm": 2469,
      "an": 2470,
      "Ġspla": 2471,
      "Ġvsou": 2472,
      "ĠplÃ¡Å¡Å¥": 2473,
      "Ġzav": 2474,
      "Ġvci": 2475,
      "ĠtuÅ¾": 2476,
      "Ġsat": 2477,
      "ĠjvÃŃc": 2478,
      "ĠbÃ¡l": 2479,
      "ĠbrÃ¡z": 2480,
      "Ġstm": 2481,
      "ĠmÃ¡l": 2482,
      "ĠkÃ¡Å¡": 2483,
      "ĠÅ¾hou": 2484,
      "Ġlis": 2485,
      "ĠsnÄĽÅ¾": 2486,
      "ĠÅ¡pi": 2487,
      "Ġryb": 2488,
      "Ġhmo": 2489,
      "Ġkje": 2490,
      "ĠmnÃŃ": 2491,
      "Ġchi": 2492,
      "Ġchet": 2493,
      "ĠchraÅĪ": 2494,
      "Ġlich": 2495,
      "Ġel": 2496,
      "ĠtiÅ¡": 2497,
      "Ġstis": 2498,
      "Ġzte": 2499,
      "ĠzdrÃ¡v": 2500,
      "Ġmed": 2501,
      "Ġvzlet": 2502,
      "Ġlle": 2503,
      "Ġsvr": 2504,
      "ĠÅ¡lÃŃ": 2505,
      "ĠjÃ¡k": 2506,
      "Ġfor": 2507,
      "Ġfy": 2508,
      "Ġzja": 2509,
      "Ġkrov": 2510,
      "ĠdeÄį": 2511,
      "ĠÅ¡eÅĪ": 2512,
      "Ġtul": 2513,
      "ĠzdaÅ¾": 2514,
      "ĠblÃ©": 2515,
      "Ġdan": 2516,
      "Ġvab": 2517,
      "Ġhn": 2518,
      "ĠvÄįas": 2519,
      "ĠschÃ¡": 2520,
      "Ġnov": 2521,
      "ĠstÄĽn": 2522,
      "Ġvkro": 2523,
      "Ġpsal": 2524,
      "Ġsan": 2525,
      "ĠÅ¾iÅ¾": 2526,
      "Ġstek": 2527,
      "Ġhvoz": 2528,
      "lÃ½ch": 2529,
      "ĠzlÃ½ch": 2530,
      "XABBA": 2531,
      "XABBAX": 2532,
      "cÃŃ": 2533,
      "ĠÅ¡leh": 2534,
      "Ġvme": 2535,
      "Ġdon": 2536,
      "ĠdosÅ¥": 2537,
      "lun": 2538,
      "Ġspat": 2539,
      "ĠkÅ¾i": 2540,
      "ĠklÃ¡Å¡": 2541,
      "Ġvob": 2542,
      "ĠpÃŃÅ¡": 2543,
      "Ġmost": 2544,
      "ĠdrÃ½ch": 2545,
      "Ġdvi": 2546,
      "ĠzdÃŃ": 2547,
      "Ġtrest": 2548,
      "Ġztu": 2549,
      "Ġvpou": 2550,
      "ĠcÅ¯v": 2551,
      "Ġer": 2552,
      "ĠtlÃŃ": 2553,
      "Ġzlost": 2554,
      "Ġlho": 2555,
      "Ġdoz": 2556,
      "Ġstroj": 2557,
      "ĠÄıa": 2558,
      "ĠsÃŃÄį": 2559,
      "Ġtlum": 2560,
      "ĠvÃŃs": 2561,
      "Ġvpu": 2562,
      "Ġchlap": 2563,
      "ĠsdÄĽ": 2564,
      "ĠvzlÃ©": 2565,
      "Ġbrat": 2566,
      "ĠdraÅ¾": 2567,
      "Ġmus": 2568,
      "Ġlud": 2569,
      "Ġslast": 2570,
      "ĠtÃ¡z": 2571,
      "ĠnÅ¯v": 2572,
      "ĠvzpÃŃ": 2573,
      "ĠsrÃ¡": 2574,
      "Ġhna": 2575,
      "Ġspor": 2576,
      "Ġstoj": 2577,
      "ĠnÃŃÄį": 2578,
      "Ġkul": 2579,
      "Ġnot": 2580,
      "ĠchÃ½ch": 2581,
      "ĠdvÅ¯r": 2582,
      "ĠsnÃŃt": 2583,
      "Ġnau": 2584,
      "Ġlel": 2585,
      "ĠÅĻÃŃc": 2586,
      "ĠtÄĽn": 2587,
      "Ġprin": 2588,
      "mou": 2589,
      "Ġmuk": 2590,
      "Ġzhlu": 2591,
      "Ġzej": 2592,
      "Ġbur": 2593,
      "ĠzpÅ¯": 2594,
      "ĠvhÃ¡": 2595,
      "Ġsha": 2596,
      "Ġvaz": 2597,
      "ĠkÅĻiv": 2598,
      "Ġvok": 2599,
      "ĠvnitÅĻ": 2600,
      "ĠÅ¡kle": 2601,
      "ĠvchrÃ¡": 2602,
      "Ġzpi": 2603,
      "Ġhry": 2604,
      "ĠuÅ¡": 2605,
      "Ġvzro": 2606,
      "Ġvzch": 2607,
      "AAXXBB": 2608,
      "ĠnnÃ½m": 2609,
      "ĠvmÃŃ": 2610,
      "ĠmÄĽr": 2611,
      "ĠmÃ¡Å¥": 2612,
      "Ġnam": 2613,
      "Ġvzem": 2614,
      "ĠÄįist": 2615,
      "Ġskla": 2616,
      "Ġvskut": 2617,
      "ĠsÃºs": 2618,
      "Ġvpla": 2619,
      "Ġspe": 2620,
      "ĠÅ¡Å¯": 2621,
      "ĠmÃ¡n": 2622,
      "ĠplÃ¡Å¡": 2623,
      "Ġpis": 2624,
      "ĠskvÃŃ": 2625,
      "ĠtÅĻeÅ¡": 2626,
      "ĠnÃ©st": 2627,
      "Ġjou": 2628,
      "Ġvzni": 2629,
      "Ġvkru": 2630,
      "ĠvÄĽÅ¾": 2631,
      "Ġzmr": 2632,
      "Ġdrost": 2633,
      "ĠkvÃ½": 2634,
      "ĠjdeÅ¡": 2635,
      "ĠkdeÅ¾": 2636,
      "Ġkj": 2637,
      "ĠduÅ¡": 2638,
      "Ġskrom": 2639,
      "Ġut": 2640,
      "ĠzraÄį": 2641,
      "Ġnnost": 2642,
      "Ġgr": 2643,
      "Ġrus": 2644,
      "ĠzvÄĽÅĻ": 2645,
      "ĠpsÃ¡": 2646,
      "ĠhvÃŃ": 2647,
      "ĠtÅĻÃŃm": 2648,
      "ĠjvÄĽt": 2649,
      "Ġkous": 2650,
      "Ġheb": 2651,
      "ĠnÃ¡n": 2652,
      "Ġzpr": 2653,
      "Ġvboj": 2654,
      "Ġspja": 2655,
      "Ġsig": 2656,
      "Ġstit": 2657,
      "Ġmnich": 2658,
      "Ġvsl": 2659,
      "Ġchol": 2660,
      "ĠvÃŃk": 2661,
      "ĠÅĻu": 2662,
      "ĠjÃŃÅ¡": 2663,
      "ĠzeÄı": 2664,
      "ĠbÄĽl": 2665,
      "ĠvbÄĽ": 2666,
      "Ġkryt": 2667,
      "Ġcno": 2668,
      "Ġzed": 2669,
      "Ġvdla": 2670,
      "ĠdÄĽd": 2671,
      "Ġvbu": 2672,
      "Ġmh": 2673,
      "Ġprsk": 2674,
      "ĠÅ¥Ã¡": 2675,
      "Ġtka": 2676,
      "ĠnoÅ¾": 2677,
      "ĠbÃ¡t": 2678,
      "ĠsÃŃÅĪ": 2679,
      "ĠvlasÅ¥": 2680,
      "Ġzdroj": 2681,
      "Ġhnal": 2682,
      "ĠÅ¡v": 2683,
      "Ġkho": 2684,
      "ĠvpÃŃs": 2685,
      "Ġsnech": 2686,
      "ĠhrÅ¯z": 2687,
      "Ġmin": 2688,
      "Ġzhlou": 2689,
      "ĠlÅ¯Å¾": 2690,
      "Ġzhro": 2691,
      "ĠksvÃ©": 2692,
      "Ġvbla": 2693,
      "Ġslib": 2694,
      "ĠÅ¡vi": 2695,
      "Ġdov": 2696,
      "Ġshla": 2697,
      "Ġsdu": 2698,
      "Ġmez": 2699,
      "ĠsplÃ¡": 2700,
      "ĠÄįar": 2701,
      "ĠvmÃ©m": 2702,
      "Ġznak": 2703,
      "Ġsyl": 2704,
      "ĠÅĻist": 2705,
      "Ġvku": 2706,
      "ĠÅĻev": 2707,
      "Ġker": 2708,
      "Ġzet": 2709,
      "ĠÅ¡ÃŃp": 2710,
      "ĠkÃº": 2711,
      "Ġspl": 2712,
      "Ġdnu": 2713,
      "ĠznichÅ¾": 2714,
      "ĠzbÃ½": 2715,
      "Ġdnech": 2716,
      "Ġvhod": 2717,
      "Ġsce": 2718,
      "Ġvzra": 2719,
      "Ġvlet": 2720,
      "ĠmeÅĪ": 2721,
      "ĠnnÃ©m": 2722,
      "Ġkrut": 2723,
      "ĠpÅĻ": 2724,
      "Ġpne": 2725,
      "ĠvtrÃ¡": 2726,
      "ĠpÄĽst": 2727,
      "Ġstel": 2728,
      "ĠnÄĽmÅ¾": 2729,
      "Ġros": 2730,
      "Ġchc": 2731,
      "ĠsmrÅ¥": 2732,
      "Ġvpod": 2733,
      "Ġchej": 2734,
      "Ġchen": 2735,
      "ĠÅ¾eÅĪ": 2736,
      "ĠhÃ¡r": 2737,
      "Ġchly": 2738,
      "Ġdub": 2739,
      "ĠplÃ¡ÅĪ": 2740,
      "ĠbÃ¡z": 2741,
      "Ġptal": 2742,
      "Ġses": 2743,
      "Ġdvor": 2744,
      "Ġstor": 2745,
      "ĠvrÅ¯": 2746,
      "ĠlÃŃk": 2747,
      "ĠnoÅ¡": 2748,
      "ĠÃ¡l": 2749,
      "Ġvcho": 2750,
      "Ġzaj": 2751,
      "Ġkvas": 2752,
      "ĠhÅĻeb": 2753,
      "Ġtuj": 2754,
      "Ġvma": 2755,
      "ĠnÄĽz": 2756,
      "ĠvstÅĻe": 2757,
      "ĠruÅ¥": 2758,
      "ĠchÅĻe": 2759,
      "ĠÅ¡im": 2760,
      "Ġdlech": 2761,
      "Ġsse": 2762,
      "Ġzrov": 2763,
      "ĠzbÄĽ": 2764,
      "ĠviÅ¡": 2765,
      "ĠvlaÅ¡": 2766,
      "ĠleÅĪ": 2767,
      "ĠtvÃ¡r": 2768,
      "Ġslem": 2769,
      "ĠskÅĻe": 2770,
      "Ġvsva": 2771,
      "ĠsdÃŃ": 2772,
      "ĠzvÃ¡s": 2773,
      "ĠmdlÃ½": 2774,
      "ĠvnÃ¡s": 2775,
      "ĠÅĻel": 2776,
      "Ġjle": 2777,
      "Ġjek": 2778,
      "Ġzam": 2779,
      "Ġlka": 2780,
      "ĠvÅ¯z": 2781,
      "Ġknul": 2782,
      "ĠseÄį": 2783,
      "ĠruÅ¡": 2784,
      "ĠÄįÃŃst": 2785,
      "ĠtÅĻÃŃs": 2786,
      "Ġhyb": 2787,
      "ĠmdlÃ©": 2788,
      "Ġzer": 2789,
      "ĠstvÃ¡": 2790,
      "ĠvÃ¡r": 2791,
      "ĠvÄįel": 2792,
      "ĠmÅ¾ik": 2793,
      "ĠmlÃ©": 2794,
      "Ġvpl": 2795,
      "Ġblouz": 2796,
      "ĠmeÅ¡": 2797,
      "ĠzhlÃŃ": 2798,
      "ĠtÅ¯v": 2799,
      "ĠlÃ¡Å¡": 2800,
      "ĠsleÄį": 2801,
      "Ġpre": 2802,
      "Ġzdech": 2803,
      "Ġvjich": 2804,
      "Ġbly": 2805,
      "Ġprost": 2806,
      "Ġzmu": 2807,
      "ĠÅ¡var": 2808,
      "ĠhlÃŃd": 2809,
      "Ġpek": 2810,
      "ĠrÃ¡l": 2811,
      "Ġtros": 2812,
      "Ġhnus": 2813,
      "Ġston": 2814,
      "Ġsar": 2815,
      "Ġtrav": 2816,
      "nd": 2817,
      "ĠvsvÄĽt": 2818,
      "ĠtÅĻÃŃk": 2819,
      "ĠdÅĻi": 2820,
      "Ġzpod": 2821,
      "Ġpnou": 2822,
      "ĠchoÅ¥": 2823,
      "ĠchaÅ¥": 2824,
      "Ġdry": 2825,
      "Ġmrav": 2826,
      "Ġspad": 2827,
      "Ġshr": 2828,
      "ĠÅ¥u": 2829,
      "Ġsloup": 2830,
      "Ġzpa": 2831,
      "ĠtÃ½r": 2832,
      "ĠpouÅ¥": 2833,
      "ĠÄįtvr": 2834,
      "Ġluk": 2835,
      "ĠzkrÃ¡": 2836,
      "ĠÅ¡lÃ¡": 2837,
      "ĠveÄı": 2838,
      "ĠdÃ¡k": 2839,
      "ĠspÅĻÃ¡": 2840,
      "ĠbliÅ¾": 2841,
      "ĠveÅĪ": 2842,
      "Ġsvat": 2843,
      "ĠznÃ¡t": 2844,
      "ĠdÄĽn": 2845,
      "ĠÄįert": 2846,
      "Ġksmr": 2847,
      "Ġton": 2848,
      "Ġllo": 2849,
      "Ġrol": 2850,
      "Ġzin": 2851,
      "Ġzs": 2852,
      "Ġhni": 2853,
      "Ġzhu": 2854,
      "AAAA": 2855,
      "Ġshon": 2856,
      "ĠrÅ¯m": 2857,
      "Ġdus": 2858,
      "ĠdnÃ¡": 2859,
      "Ġjet": 2860,
      "Ġjdem": 2861,
      "ĠschÃ½": 2862,
      "Ġzev": 2863,
      "Ġdych": 2864,
      "Ġztem": 2865,
      "AXABBX": 2866,
      "Ġslit": 2867,
      "Äįi": 2868,
      "ĠvkvÄĽ": 2869,
      "ĠvÅ¯m": 2870,
      "Ġtvy": 2871,
      "Ġlsti": 2872,
      "ĠjiÅ¡": 2873,
      "ĠfÃŃ": 2874,
      "Ġknout": 2875,
      "Ġspas": 2876,
      "Ġvtr": 2877,
      "Ġbry": 2878,
      "ĠvznÃŃ": 2879,
      "ĠsmÄĽÅ¡": 2880,
      "ĠnÃ¡ct": 2881,
      "Ġnet": 2882,
      "Ġrun": 2883,
      "Ġchcem": 2884,
      "lÃŃz": 2885,
      "Ġztm": 2886,
      "Ġsdru": 2887,
      "Ġvhloub": 2888,
      "Ġdrou": 2889,
      "Ġvran": 2890,
      "ĠbÄĽs": 2891,
      "ĠsmÄĽl": 2892,
      "Ġvde": 2893,
      "Ġlok": 2894,
      "ĠÅ¡est": 2895,
      "Ġptac": 2896,
      "Ġtrap": 2897,
      "ĠÅĻli": 2898,
      "ĠkÃ©n": 2899,
      "ĠvsnÃ¡": 2900,
      "ĠknÃ©": 2901,
      "ĠchlÃŃ": 2902,
      "ĠdeÅĪ": 2903,
      "Ġzdar": 2904,
      "ĠvsnÃ¡ch": 2905,
      "Ġvty": 2906,
      "Ġshle": 2907,
      "Ġtvi": 2908,
      "Ġvslad": 2909,
      "Ġgic": 2910,
      "Ġplav": 2911,
      "ĠhÅ¯l": 2912,
      "ĠpÅĻel": 2913,
      "Ġchti": 2914,
      "ĠlÃ¡Äį": 2915,
      "Ġbrem": 2916,
      "ĠtvÄĽ": 2917,
      "Ġvid": 2918,
      "ĠmÃŃÅ¡": 2919,
      "ĠhouÅ¡": 2920,
      "Ġgy": 2921,
      "ĠlÅ¯v": 2922,
      "ĠÅ¡per": 2923,
      "ĠchlÃ½": 2924,
      "Ġzry": 2925,
      "Ġdcer": 2926,
      "ĠhÅĻb": 2927,
      "Ġhrst": 2928,
      "Ġlom": 2929,
      "ĠzÃŃs": 2930,
      "Ġmrz": 2931,
      "Ġsnou": 2932,
      "Ġrtem": 2933,
      "Ġzvyk": 2934,
      "ĠlÅ¾i": 2935,
      "Ġklek": 2936,
      "Ġzhr": 2937,
      "ĠpÃ¡ch": 2938,
      "Ġvlid": 2939,
      "Ġcla": 2940,
      "Ġzble": 2941,
      "Ġzit": 2942,
      "Ġkras": 2943,
      "ĠzvlÃ¡Å¡Å¥": 2944,
      "ĠkÅĻo": 2945,
      "ĠvbÃ¡": 2946,
      "ĠchÅ¯m": 2947,
      "ĠvzkÅĻik": 2948,
      "Ġcek": 2949,
      "Ġkams": 2950,
      "ĠsbÄĽ": 2951,
      "Ġchut": 2952,
      "ĠtrÃ½z": 2953,
      "Ġnouc": 2954,
      "lÃ©d": 2955,
      "ĠstkvÄĽ": 2956,
      "ĠÅ¡ve": 2957,
      "Ġspol": 2958,
      "ĠvÅ¾a": 2959,
      "Ġstl": 2960,
      "Ġrto": 2961,
      "Ġbz": 2962,
      "ĠdÃŃc": 2963,
      "ĠdrÃ½m": 2964,
      "ĠvzduÅ¡": 2965,
      "ĠÅ¡pa": 2966,
      "ĠlesÅ¥": 2967,
      "ĠÅĻas": 2968,
      "Ġsym": 2969,
      "Ġrtu": 2970,
      "ĠvprÃ¡": 2971,
      "Ġkvo": 2972,
      "Ġshlu": 2973,
      "Ġdnou": 2974,
      "Ġster": 2975,
      "Ġkav": 2976,
      "Ġvkraj": 2977,
      "Ġzmra": 2978,
      "Ġdlel": 2979,
      "Ġzbyl": 2980,
      "ĠdvÃŃ": 2981,
      "ĠlÃŃst": 2982,
      "ĠmÃ¡ch": 2983,
      "Ġzta": 2984,
      "Ġchru": 2985,
      "Ġvzty": 2986,
      "ĠvrÃ¡t": 2987,
      "ĠdrÃ¡Å¾": 2988,
      "ĠzÃºst": 2989,
      "Ġllu": 2990,
      "Ġnan": 2991,
      "ĠbÄĽt": 2992,
      "ĠvpÃ¡": 2993,
      "Ġtroc": 2994,
      "Ġzdob": 2995,
      "ĠvÃŃn": 2996,
      "ĠdÃ¡r": 2997,
      "Ġhrot": 2998,
      "ĠtÅĻes": 2999,
      "Ġzmat": 3000,
      "ĠvtmÃ¡ch": 3001,
      "ĠkvÃ©st": 3002,
      "ĠrdÃŃ": 3003,
      "ĠvÃ¡z": 3004,
      "Ġzblou": 3005,
      "Ġvc": 3006,
      "ABABBX": 3007,
      "ĠlÃŃt": 3008,
      "XAAXBB": 3009,
      "Ġvnoc": 3010,
      "ĠvzkÅĻÃŃ": 3011,
      "Ġvzor": 3012,
      "Ġzvou": 3013,
      "Ġchor": 3014,
      "ĠÅ¡lÃ½ch": 3015,
      "ĠstrÅ¯": 3016,
      "Ġchvo": 3017,
      "Ġzep": 3018,
      "ĠtÃ³n": 3019,
      "Ġzpup": 3020,
      "Ġtvar": 3021,
      "ĠtlÃ½ch": 3022,
      "Ġmit": 3023,
      "Ġryt": 3024,
      "ĠzrÅ¯": 3025,
      "ĠstÅ¯m": 3026,
      "ĠteÅĻ": 3027,
      "nech": 3028,
      "ĠÅ¡ad": 3029,
      "ĠvklÃŃn": 3030,
      "Ġvjas": 3031,
      "ĠtkÃ¡": 3032,
      "21": 3033,
      "Ġmlad": 3034,
      "ĠÅĪÅ¯": 3035,
      "Ġspr": 3036,
      "Ġvhu": 3037,
      "ĠraÄį": 3038,
      "ĠstÃ¡ch": 3039,
      "Ġzmar": 3040,
      "Ġpruh": 3041,
      "Ġtep": 3042,
      "Ġsup": 3043,
      "Ġcov": 3044,
      "Ġztich": 3045,
      "ĠÅ¾d": 3046,
      "ĠleÅ¥": 3047,
      "ĠpouÅ¡Å¥": 3048,
      "Ġchlou": 3049,
      "Ġsvla": 3050,
      "ĠnichÅ¾": 3051,
      "Ġskvou": 3052,
      "ABX": 3053,
      "Ġsc": 3054,
      "ĠvchÃ¡": 3055,
      "ĠchvÄĽj": 3056,
      "Ġtos": 3057,
      "Ġvkle": 3058,
      "Ġmsti": 3059,
      "Ġskryt": 3060,
      "ĠzÄįer": 3061,
      "Ġstly": 3062,
      "Ġbzu": 3063,
      "Ġnnu": 3064,
      "ĠtmÃŃ": 3065,
      "ho": 3066,
      "ĠÄįÃ¡r": 3067,
      "Ġvznes": 3068,
      "Ġbech": 3069,
      "Ġvstu": 3070,
      "Ġshro": 3071,
      "Ġvzi": 3072,
      "ĠbrÃ¡k": 3073,
      "Ġhvi": 3074,
      "Ġsep": 3075,
      "ĠsmÃ½": 3076,
      "Ġvkli": 3077,
      "Ġrin": 3078,
      "ĠchlÃ¡": 3079,
      "Ġsply": 3080,
      "ĠsÃ¡t": 3081,
      "Ġbri": 3082,
      "ĠkzÃ¡": 3083,
      "ĠsnÃ¡ch": 3084,
      "Ġvmu": 3085,
      "Ġskrz": 3086,
      "Ġstoup": 3087,
      "ĠbrÃ¡t": 3088,
      "ĠvstaÅĪ": 3089,
      "Ġfri": 3090,
      "Ġvhr": 3091,
      "Ġvprou": 3092,
      "ĠsmÃ¡t": 3093,
      "ĠkÅĻeh": 3094,
      "ĠhvÃŃz": 3095,
      "Ġoc": 3096,
      "Ġsyt": 3097,
      "Ġfau": 3098,
      "ĠvztÃ¡": 3099,
      "ĠpÅĻÃŃz": 3100,
      "Ġksp": 3101,
      "ĠvchvÃŃ": 3102,
      "Ġcar": 3103,
      "Ġstev": 3104,
      "Ġcud": 3105,
      "Ġhlub": 3106,
      "Ġkch": 3107,
      "Ġpej": 3108,
      "qu": 3109,
      "ĠsÄį": 3110,
      "ĠdeÅ¾": 3111,
      "ĠdÃ¡ÅĻ": 3112,
      "Ġknih": 3113,
      "ĠsklÃŃ": 3114,
      "Ġsnes": 3115,
      "Ġvtou": 3116,
      "is": 3117,
      "ĠspÅĻe": 3118,
      "ĠzvÃ½": 3119,
      "Ġjlep": 3120,
      "ĠptÃ¡Äį": 3121,
      "jal": 3122,
      "ĠtmÃ¡ch": 3123,
      "ĠnÄĽt": 3124,
      "ĠmrÅ¡": 3125,
      "ĠÄįtve": 3126,
      "Ġske": 3127,
      "ĠstkvÃŃ": 3128,
      "Ġvhrob": 3129,
      "ĠvdÃŃ": 3130,
      "Ġmut": 3131,
      "ĠhrÃ¡d": 3132,
      "Ġdes": 3133,
      "ĠjlÃŃ": 3134,
      "XAAA": 3135,
      "vÃ¡t": 3136,
      "ĠnnÃŃm": 3137,
      "Ġdlil": 3138,
      "ĠvzplÃ¡l": 3139,
      "ĠlaÅĪ": 3140,
      "Ġqu": 3141,
      "ĠzÃŃÅ¡": 3142,
      "Ġzur": 3143,
      "Ġvzej": 3144,
      "Ġvbi": 3145,
      "Ġom": 3146,
      "ĠkpÅĻe": 3147,
      "ĠdÅ¾": 3148,
      "ĠvÄĽd": 3149,
      "ĠpÅĻedc": 3150,
      "Ġzkla": 3151,
      "Ġtisk": 3152,
      "ĠhlÃ½ch": 3153,
      "ĠÃ¡n": 3154,
      "ĠvzÃŃt": 3155,
      "ĠniÅ¡": 3156,
      "Ġgro": 3157,
      "ĠmlÃ½n": 3158,
      "Ġrob": 3159,
      "Ġjih": 3160,
      "Ġbok": 3161,
      "Ġsru": 3162,
      "Ġkok": 3163,
      "ĠtÄĽt": 3164,
      "ĠnÅ¯Å¾": 3165,
      "Ġvzpom": 3166,
      "ĠktÃ©": 3167,
      "Ġzjas": 3168,
      "Ġsja": 3169,
      "Ġtrs": 3170,
      "Ġoj": 3171,
      "ĠtÃŃk": 3172,
      "Ġih": 3173,
      "Ġjsouc": 3174,
      "ĠÅ¡tva": 3175,
      "ĠrÃ¡Å¾": 3176,
      "Ġkvil": 3177,
      "ĠstrÃ½ch": 3178,
      "ĠshlÃŃ": 3179,
      "ĠsnÄĽm": 3180,
      "ĠvÄįa": 3181,
      "Ġak": 3182,
      "Ġzpro": 3183,
      "Ġstrun": 3184,
      "ĠtÃ½Å¾": 3185,
      "Ġzbi": 3186,
      "Ġstrast": 3187,
      "ĠnÃ¡k": 3188,
      "ĠÄįeÅ¡": 3189,
      "Ġraz": 3190,
      "ĠtÃ¡Å¡": 3191,
      "Ġvden": 3192,
      "ĠÅ¥al": 3193,
      "Ġrva": 3194,
      "ĠvzÅĪa": 3195,
      "ĠmnoÅ¾": 3196,
      "Ġskryl": 3197,
      "ĠjmÄĽ": 3198,
      "ĠsprÃ¡v": 3199,
      "Ġmle": 3200,
      "Ġzbroj": 3201,
      "Ġcin": 3202,
      "Ġah": 3203,
      "Ġlon": 3204,
      "ĠrÃ¡n": 3205,
      "Ġzkad": 3206,
      "Ġvsluch": 3207,
      "ĠprÃ¡v": 3208,
      "ĠrÃ¡Å¡": 3209,
      "ĠÅ¡ÃŃj": 3210,
      "ĠmÃ¡k": 3211,
      "Ġvzbou": 3212,
      "ĠmÄĽÅ¥": 3213,
      "Ġsos": 3214,
      "ĠÄįan": 3215,
      "Ġlup": 3216,
      "ĠmÄĽn": 3217,
      "ĠnÃ¡t": 3218,
      "mut": 3219,
      "XAABXB": 3220,
      "Ġsul": 3221,
      "Ġdmou": 3222,
      "ĠkcÃŃ": 3223,
      "Ġbub": 3224,
      "ĠkÅĻiÅ¡": 3225,
      "ĠzÃ¡Å¡Å¥": 3226,
      "Ġrce": 3227,
      "ĠviÄı": 3228,
      "Ġstol": 3229,
      "ĠvaÅ¥": 3230,
      "Ġkpa": 3231,
      "ĠtouÅ¾": 3232,
      "ĠvnÄĽj": 3233,
      "ka": 3234,
      "ĠkoÄį": 3235,
      "ĠtÅĻit": 3236,
      "ĠrtÃŃ": 3237,
      "ĠpÃŃr": 3238,
      "ĠvpÄĽ": 3239,
      "Ġvstra": 3240,
      "ĠstrÃ½m": 3241,
      "ĠzahÅĻ": 3242,
      "ĠnÃ¡v": 3243,
      "ĠsrÃ¡z": 3244,
      "Ġrmut": 3245,
      "ĠkrÄį": 3246,
      "ĠbÃŃm": 3247,
      "Ġnep": 3248,
      "Ġslep": 3249,
      "ĠbrÃ½ch": 3250,
      "Ġtuch": 3251,
      "Ġryk": 3252,
      "Ġkrad": 3253,
      "Ġjra": 3254,
      "Ġchech": 3255,
      "ĠstvÃ©": 3256,
      "ĠzvrÃ¡": 3257,
      "ĠvpouÅ¡": 3258,
      "ĠÅ¡ed": 3259,
      "ĠlÃ¡c": 3260,
      "ĠtkvÃŃ": 3261,
      "Ġtles": 3262,
      "Ġdam": 3263,
      "Ġkrot": 3264,
      "Ġpluh": 3265,
      "ĠlosÅ¥": 3266,
      "ĠplaÄį": 3267,
      "ĠklÃ½ch": 3268,
      "Ġgan": 3269,
      "Ġhoun": 3270,
      "Ġvba": 3271,
      "ĠdnÃ½ch": 3272,
      "ĠrdÄĽ": 3273,
      "Ġskli": 3274,
      "ĠÅ¾lou": 3275,
      "ĠlaÅ¡": 3276,
      "Ġsuk": 3277,
      "Ġvyp": 3278,
      "Ġmyl": 3279,
      "Ġvhra": 3280,
      "ĠdÅ¯v": 3281,
      "ĠzlÃ½m": 3282,
      "Ġvzdych": 3283,
      "ĠmuÅ¡": 3284,
      "Ġban": 3285,
      "ĠhlÃ½m": 3286,
      "ĠstÃ½s": 3287,
      "Ġvzma": 3288,
      "ĠseÅ¡": 3289,
      "Ġmis": 3290,
      "Ġmlk": 3291,
      "ĠjeÄį": 3292,
      "Ġkdu": 3293,
      "ĠvzÃŃ": 3294,
      "AXABXB": 3295,
      "Ġron": 3296,
      "Ġskok": 3297,
      "ĠznÃŃÅ¾": 3298,
      "ĠnÃ¡l": 3299,
      "Ġhaj": 3300,
      "ĠslÃ¡b": 3301,
      "ĠslÃŃÅ¡": 3302,
      "Ġnas": 3303,
      "ĠÅ¡al": 3304,
      "Ġpuk": 3305,
      "ĠkÅ¡ti": 3306,
      "ĠzÅĪa": 3307,
      "ĠtÅĻel": 3308,
      "Ġvbez": 3309,
      "Ġnus": 3310,
      "ĠkvÅ¯": 3311,
      "Ġkna": 3312,
      "Ġzes": 3313,
      "Ġvzo": 3314,
      "ĠvÃ©st": 3315,
      "ĠshÃ½": 3316,
      "ĠnÃŃmÅ¾": 3317,
      "ĠdlÃŃm": 3318,
      "ĠvtvÃ©": 3319,
      "Ġprah": 3320,
      "ĠhlÃ¡s": 3321,
      "Ġzad": 3322,
      "Ġmru": 3323,
      "ĠdlÃ¡k": 3324,
      "Ġrval": 3325,
      "ĠptÃ¡m": 3326,
      "ĠÄįiv": 3327,
      "ĠksvÄĽ": 3328,
      "AXAXBB": 3329,
      "Ġstin": 3330,
      "Ġlip": 3331,
      "ros": 3332,
      "ĠloÅ¾": 3333,
      "ĠÄįiÅĪ": 3334,
      "Ġpych": 3335,
      "ĠoÅ¡": 3336,
      "ĠkÃ©s": 3337,
      "ĠsÃ¡l": 3338,
      "ĠvtÄĽÅ¾": 3339,
      "Ġskvr": 3340,
      "ĠktÄĽ": 3341,
      "ĠÄįeÅ¾": 3342,
      "ĠkÃ¡ÅĻ": 3343,
      "ĠtmÃ¡m": 3344,
      "Ġjist": 3345,
      "ĠpÅĻiz": 3346,
      "ĠzbÃŃ": 3347,
      "Ġvzcho": 3348,
      "ĠcÃ½ch": 3349,
      "Ġvnej": 3350,
      "ĠvaÄį": 3351,
      "ĠkouÅĻ": 3352,
      "ĠjdÄĽ": 3353,
      "ĠÅ¥o": 3354,
      "ĠvtvÃ©m": 3355,
      "ĠkÃ¡t": 3356,
      "ĠzdvÃŃ": 3357,
      "ĠchuÅ¥": 3358,
      "ĠzkvÃ©": 3359,
      "ĠvÄįi": 3360,
      "ĠÅ¡lÃ½": 3361,
      "ĠsuÄı": 3362,
      "Ġzpe": 3363,
      "Ġdral": 3364,
      "ĠvmÃ¡": 3365,
      "ĠchvÄĽt": 3366,
      "Ġhvozd": 3367,
      "Ġvous": 3368,
      "ĠhraÄį": 3369,
      "Ġtluk": 3370,
      "Ġvjiz": 3371,
      "Ġnin": 3372,
      "Ġuc": 3373,
      "ĠdouÅ¡": 3374,
      "ĠbÃ¡Å¡": 3375,
      "AXB": 3376,
      "Ġskrov": 3377,
      "ABCABC": 3378,
      "Å¡i": 3379,
      "ĠkÃ½v": 3380,
      "Ġkpra": 3381,
      "ĠveÄį": 3382,
      "Ġloup": 3383,
      "Ġpij": 3384,
      "ĠÃºc": 3385,
      "ĠtÅĻesk": 3386,
      "vÃ½": 3387,
      "Ġnni": 3388,
      "ĠjitÅĻ": 3389,
      "Ġchud": 3390,
      "Ġbouk": 3391,
      "Ġzbyt": 3392,
      "Ġkji": 3393,
      "ry": 3394,
      "Ġjsy": 3395,
      "ĠpiÅ¡": 3396,
      "Ġmha": 3397,
      "ĠvzÃ½": 3398,
      "ĠmÃŃÅĪ": 3399,
      "ĠvtÃŃ": 3400,
      "Ġen": 3401,
      "Ġpluk": 3402,
      "Ġvoh": 3403,
      "ĠmÄĽÅĻ": 3404,
      "ĠshÅ¯": 3405,
      "ĠÄįnÄĽ": 3406,
      "Ġvble": 3407,
      "Ġlym": 3408,
      "ĠvzdÄĽ": 3409,
      "ĠprÃ½Å¡": 3410,
      "ĠchtÃŃt": 3411,
      "ĠleÅ¡": 3412,
      "ĠzpÅĻÃŃ": 3413,
      "Ġvnik": 3414,
      "ĠÅ¡ku": 3415,
      "ĠvznÄĽt": 3416,
      "ĠdiÅ¡": 3417,
      "ĠsmÃŃr": 3418,
      "Ġser": 3419,
      "ĠlÃ¡k": 3420,
      "ĠtÃ¡l": 3421,
      "ĠvslÃ¡": 3422,
      "ĠvÅ¾Ã¡": 3423,
      "AXAXX": 3424,
      "ĠÄıte": 3425,
      "ĠÄįÃ¡st": 3426,
      "ĠÅĻÃŃd": 3427,
      "Ġsrov": 3428,
      "ĠzkvÄĽ": 3429,
      "ĠklÃŃÄį": 3430,
      "Ġroh": 3431,
      "Ġmet": 3432,
      "ĠfrÃ¡": 3433,
      "Ġdrem": 3434,
      "ĠzÅĻÃŃd": 3435,
      "Ġrvou": 3436,
      "ÅĻad": 3437,
      "ĠjÃŃz": 3438,
      "ABACCB": 3439,
      "ĠvÃŃt": 3440,
      "ĠsvÃ¡r": 3441,
      "Ġvsmut": 3442,
      "ABAAB": 3443,
      "ĠpÅĻil": 3444,
      "Ġstlo": 3445,
      "Ġchro": 3446,
      "ĠdÃ©Äį": 3447,
      "Ġcer": 3448,
      "ĠrtÅ¯m": 3449,
      "ĠhÃ¡Å¡": 3450,
      "ĠshÃ¡": 3451,
      "AAXBXB": 3452,
      "Ġvsmr": 3453,
      "Ġzhoub": 3454,
      "Ġtik": 3455,
      "Ġvlak": 3456,
      "Ġvpar": 3457,
      "Ġtrub": 3458,
      "Ġsvy": 3459,
      "Ġduj": 3460,
      "ĠchÃ¡Å¡": 3461,
      "ĠsÅĪ": 3462,
      "Ġkod": 3463,
      "Ġhnou": 3464,
      "ĠlÃ¡ÅĻ": 3465,
      "ĠknÃŃÅ¾": 3466,
      "ĠrÃ¡ÅĻ": 3467,
      "Ġzpou": 3468,
      "ĠvmlÃ¡": 3469,
      "ĠÅĻÃ¡n": 3470,
      "Ġvzka": 3471,
      "Ġcech": 3472,
      "Ġboun": 3473,
      "Ġvre": 3474,
      "Ġfer": 3475,
      "Ġslek": 3476,
      "ĠvÅĻÃŃt": 3477,
      "Ġhmy": 3478,
      "Ġbav": 3479,
      "ĠvÅĻes": 3480,
      "ĠtiÅ¾": 3481,
      "Ġhev": 3482,
      "ĠrouÅ¡": 3483,
      "Ġtmu": 3484,
      "ĠÃ©": 3485,
      "Ġvzpou": 3486,
      "ĠhÅĻmo": 3487,
      "ĠdÄĽÄį": 3488,
      "Ġvkout": 3489,
      "XXAXAX": 3490,
      "XAXAXA": 3491,
      "Ġmraz": 3492,
      "Ġvtma": 3493,
      "ĠsnÅ¯m": 3494,
      "Ġbas": 3495,
      "Ġlau": 3496,
      "Ġvos": 3497,
      "ĠvlÃŃc": 3498,
      "AXAXXX": 3499,
      "Ġcvr": 3500,
      "Ġkvla": 3501,
      "ĠbrÃ½m": 3502,
      "ĠctÄĽ": 3503,
      "ĠnÃ¡Äį": 3504,
      "ĠkdÃŃ": 3505,
      "ĠtÃŃc": 3506,
      "ĠkprÃ¡": 3507,
      "Ġvzhled": 3508,
      "ĠlÅ¾ÃŃ": 3509,
      "Ġpus": 3510,
      "ĠrÅ¯st": 3511,
      "Ġfou": 3512,
      "ĠrÅ¯Å¾": 3513,
      "Ġvmou": 3514,
      "ĠslÃ¡s": 3515,
      "ĠdÃ³": 3516,
      "Ġrot": 3517,
      "ĠhÃ¡v": 3518,
      "ĠtÄĽÅ¡": 3519,
      "Ġvoz": 3520,
      "ĠvÃ½z": 3521,
      "Ġhel": 3522,
      "ĠvhruÄı": 3523,
      "Ġcvi": 3524,
      "ĠpsÃ¡t": 3525,
      "ĠmdlÃ¡": 3526,
      "ĠÅ¡tvÃ¡": 3527,
      "Ġchrem": 3528,
      "ĠsÅ¾e": 3529,
      "Ġplam": 3530,
      "ĠvklÃ¡": 3531,
      "Ġkvap": 3532,
      "ĠnÃ©Äį": 3533,
      "Ġfon": 3534,
      "ĠstÅĻ": 3535,
      "Ġnai": 3536,
      "ĠksmÃŃ": 3537,
      "Ġcez": 3538,
      "ĠtuÅ¥": 3539,
      "ĠlÃ©k": 3540,
      "ĠvkvÄĽt": 3541,
      "Ġkslun": 3542,
      "ĠstmÃŃ": 3543,
      "Ġsop": 3544,
      "ĠstÃ½ÅĻ": 3545,
      "Ġvcha": 3546,
      "Ġam": 3547,
      "Ġstiv": 3548,
      "ĠkaÅ¡": 3549,
      "Ġmund": 3550,
      "Ġrys": 3551,
      "ĠbÃ¡n": 3552,
      "ĠpiÄį": 3553,
      "Ġdeb": 3554,
      "Ġkhro": 3555,
      "ĠdÅ¾b": 3556,
      "Ġrab": 3557,
      "ĠÄįiÅ¡": 3558,
      "ĠstÃ¡n": 3559,
      "ĠtvÃŃch": 3560,
      "ĠsÃ¡ch": 3561,
      "ĠstrÃ¡ÅĪ": 3562,
      "ĠspÅĻÃŃ": 3563,
      "ĠkÃ¡s": 3564,
      "ĠchÃ¡z": 3565,
      "AABXB": 3566,
      "Ġdvoj": 3567,
      "Ġzly": 3568,
      "ĠkaÅĻ": 3569,
      "ĠÅ¾ij": 3570,
      "Ġet": 3571,
      "ĠdrÅ¾": 3572,
      "re": 3573,
      "ĠkÄįi": 3574,
      "Ġstrov": 3575,
      "Ġpri": 3576,
      "ĠdeÅĻ": 3577,
      "Ġzpla": 3578,
      "Ġbre": 3579,
      "ĠÅ¾ert": 3580,
      "Ġchan": 3581,
      "Ġviv": 3582,
      "Ġzbled": 3583,
      "ĠpÅĻijÄı": 3584,
      "ĠnitÅĻ": 3585,
      "ĠÅ¾va": 3586,
      "Ġgen": 3587,
      "Ġmlh": 3588,
      "ĠÅ¡kol": 3589,
      "Ġtsk": 3590,
      "Ġzvr": 3591,
      "Ġdrah": 3592,
      "ĠvhouÅ¡": 3593,
      "Ġschy": 3594,
      "ĠÅ¡ka": 3595,
      "ĠtuÄį": 3596,
      "ĠÄįiÄį": 3597,
      "Ġflo": 3598,
      "Ġlout": 3599,
      "Ġkvr": 3600,
      "Ġsroz": 3601,
      "Ġlly": 3602,
      "Ġmej": 3603,
      "Ġvplen": 3604,
      "ĠlÃŃÅĻ": 3605,
      "ĠvprÃ¡z": 3606,
      "ĠhÃ¡Äį": 3607,
      "Ġvnes": 3608,
      "ĠlhÃ¡": 3609,
      "ĠlÃ©t": 3610,
      "Ġvsnech": 3611,
      "ĠvsvÃ½ch": 3612,
      "ĠvkrÃ¡t": 3613,
      "ĠzÄį": 3614,
      "ABACBC": 3615,
      "ABABXB": 3616,
      "ĠpÄĽn": 3617,
      "Ġnar": 3618,
      "Ġshor": 3619,
      "ĠÅ¥te": 3620,
      "Ġvprav": 3621,
      "Ġmur": 3622,
      "ĠÄįÃŃc": 3623,
      "Ġvmla": 3624,
      "Ġcle": 3625,
      "ĠmÃ¡Å¾": 3626,
      "ĠzblÃŃz": 3627,
      "Ġtrok": 3628,
      "ĠÅĻiÄį": 3629,
      "ĠvdÅ¯": 3630,
      "ĠvyÅĻ": 3631,
      "Ġsedm": 3632,
      "Ġvzlyk": 3633,
      "ĠÄįap": 3634,
      "Ġvhor": 3635,
      "Ġvspo": 3636,
      "Ġzlob": 3637,
      "ĠskrÃ½Å¡": 3638,
      "Ġtar": 3639,
      "ĠzlÃ¡s": 3640,
      "Ġmhou": 3641,
      "Ġjev": 3642,
      "ĠtÄĽr": 3643,
      "ĠvlaÅ¾": 3644,
      "ĠdrÃ©m": 3645,
      "Ġdluh": 3646,
      "ĠbÃ½m": 3647,
      "Ġmer": 3648,
      "ĠdlÃ½m": 3649,
      "Ġstvem": 3650,
      "ĠsmÃŃm": 3651,
      "Ġvlk": 3652,
      "ĠvaÅ¾": 3653,
      "Ġzdlou": 3654,
      "Ġjun": 3655,
      "ĠÅ¾iÄį": 3656,
      "Ġpiv": 3657,
      "Ġdri": 3658,
      "Ġsbra": 3659,
      "Ġzez": 3660,
      "ĠÅĻÃŃk": 3661,
      "Ġzrn": 3662,
      "Ġzach": 3663,
      "ĠzvÅ¯": 3664,
      "Ġzbou": 3665,
      "Ġnis": 3666,
      "ĠvsmÃŃ": 3667,
      "ĠbÅĻit": 3668,
      "AAABB": 3669,
      "ĠhrÃ¡z": 3670,
      "Ġplul": 3671,
      "ĠvztÃ½": 3672,
      "ĠstlÃ¡": 3673,
      "ĠtÅĻti": 3674,
      "Ġpach": 3675,
      "ĠsÅĪa": 3676,
      "ĠpÅĻa": 3677,
      "ĠvzpÅĻÃŃ": 3678,
      "ĠP": 3679,
      "ĠnouÅ¥": 3680,
      "Ġvnuk": 3681,
      "ĠÅĻej": 3682,
      "Ġzkro": 3683,
      "ĠkmÄĽ": 3684,
      "ĠvÃŃd": 3685,
      "ĠzÃ¡k": 3686,
      "Ġkrej": 3687,
      "ĠcÃ½m": 3688,
      "ĠmÅ¡i": 3689,
      "XXXXAA": 3690,
      "ĠvznÃ©": 3691,
      "Ġsah": 3692,
      "Ġdep": 3693,
      "ĠvÅ¡tÄĽ": 3694,
      "ĠzmÃ©": 3695,
      "ĠhÅĻÃŃÄį": 3696,
      "ĠspouÅ¡": 3697,
      "Ġnah": 3698,
      "ĠÅĻve": 3699,
      "Ġrag": 3700,
      "ĠpÅĻÃŃt": 3701,
      "Ġvzda": 3702,
      "ĠmÃŃst": 3703,
      "Ġshni": 3704,
      "Ġschu": 3705,
      "ĠvnoÄį": 3706,
      "ĠkhvÄĽz": 3707,
      "ĠsÅĻÃŃ": 3708,
      "Ġpech": 3709,
      "Ġdlesk": 3710,
      "ĠbÃ½ch": 3711,
      "Ġkvy": 3712,
      "ĠspÄĽj": 3713,
      "ĠznÃŃt": 3714,
      "ĠdÄĽk": 3715,
      "Ġbah": 3716,
      "ĠvÃ¡k": 3717,
      "Ġvrab": 3718,
      "vÃ½m": 3719,
      "ĠbÃŃn": 3720,
      "ĠtÅĻen": 3721,
      "Ġhos": 3722,
      "ĠsnÃ©": 3723,
      "ĠtrÃ©": 3724,
      "Ġsok": 3725,
      "ĠdlaÅ¾": 3726,
      "ĠpÅĻen": 3727,
      "Ġvdru": 3728,
      "Ġzkra": 3729,
      "nul": 3730,
      "ĠtÄĽk": 3731,
      "ĠÅ¡ev": 3732,
      "Ġsin": 3733,
      "ĠsteÄį": 3734,
      "Ġbyls": 3735,
      "ĠvsÃŃÅĪ": 3736,
      "ĠdvÃ¡b": 3737,
      "ĠstmÄĽ": 3738,
      "Ġlvi": 3739,
      "ĠnÃŃc": 3740,
      "ĠbuÅ¥": 3741,
      "Ġsvaz": 3742,
      "Ġvchlad": 3743,
      "Ġvsu": 3744,
      "Ġplen": 3745,
      "ĠzÅĻej": 3746,
      "ĠÅ¡kÅ¯d": 3747,
      "ĠrvÃ¡t": 3748,
      "ĠsÃŃÅ¥": 3749,
      "ĠfÃ¡m": 3750,
      "ĠÄįat": 3751,
      "Ġvdlou": 3752,
      "Ġzik": 3753,
      "Ġdout": 3754,
      "ĠrÅ¯v": 3755,
      "Ġzhor": 3756,
      "ĠdliÄį": 3757,
      "Ġzmoc": 3758,
      "AABXBX": 3759,
      "BA": 3760,
      "22": 3761,
      "ĠzÅ¡e": 3762,
      "Ġkyn": 3763,
      "ĠvyÄį": 3764,
      "ĠpasÅ¥": 3765,
      "ĠbÃ¡k": 3766,
      "Ġgli": 3767,
      "Ġsval": 3768,
      "Ġzvla": 3769,
      "ĠknÃ½": 3770,
      "ĠktÄĽm": 3771,
      "Ġtha": 3772,
      "ĠpeÅĪ": 3773,
      "Ġprst": 3774,
      "Ġtvol": 3775,
      "ĠvnÄĽÅ¾": 3776,
      "ĠvztÃ¡h": 3777,
      "Ġvlou": 3778,
      "XXXAAX": 3779,
      "Ġryl": 3780,
      "ĠvÅĻen": 3781,
      "Ġvtis": 3782,
      "Ġland": 3783,
      "Ġsz": 3784,
      "Ġmic": 3785,
      "Ġzdy": 3786,
      "ĠÄįÃŃk": 3787,
      "Ġspod": 3788,
      "Ġchoun": 3789,
      "Ġtho": 3790,
      "Ġvprv": 3791,
      "Ġmam": 3792,
      "Ġvsko": 3793,
      "vÃ½ch": 3794,
      "ĠÄįou": 3795,
      "ĠteÅ¾": 3796,
      "Ġuj": 3797,
      "ĠzÃ¡c": 3798,
      "Ġvsled": 3799,
      "ĠvmÃ½ch": 3800,
      "ĠstvÅ¯": 3801,
      "ĠvspÄĽ": 3802,
      "Ġem": 3803,
      "ĠÅ¾in": 3804,
      "ĠsmÄĽr": 3805,
      "Ġstop": 3806,
      "Ġpic": 3807,
      "AXXB": 3808,
      "Ġger": 3809,
      "ĠradÅ¡": 3810,
      "ĠÅ¡ou": 3811,
      "ĠÅ¡ik": 3812,
      "ĠzvÃ¡n": 3813,
      "ĠmrÃ¡Äį": 3814,
      "ĠvpÅ¯l": 3815,
      "nÃ½": 3816,
      "ĠpÃ¡m": 3817,
      "Ġpso": 3818,
      "ĠvjÃŃ": 3819,
      "ĠÄıar": 3820,
      "ĠÅ¡Ã¡r": 3821,
      "ĠtrÅ¯m": 3822,
      "Ġnald": 3823,
      "ĠsÅ¡": 3824,
      "Ġmoj": 3825,
      "Ġbot": 3826,
      "Ġhus": 3827,
      "ĠÄįlun": 3828,
      "ĠstÅĻech": 3829,
      "ĠspÃŃs": 3830,
      "ĠÅ¡iÄį": 3831,
      "ĠvÅ¾e": 3832,
      "Ġrep": 3833,
      "Ġzlil": 3834,
      "Ġvly": 3835,
      "ĠjÅ¯m": 3836,
      "Ġab": 3837,
      "Ġvlok": 3838,
      "Ġdul": 3839,
      "Ġbij": 3840,
      "Ġex": 3841,
      "Ġvstro": 3842,
      "Ġsdo": 3843,
      "ĠsmeÄį": 3844,
      "Ġmly": 3845,
      "Ġpust": 3846,
      "ĠtvÃŃm": 3847,
      "Ġkob": 3848,
      "ĠÄįerv": 3849,
      "Ġznej": 3850,
      "Ġram": 3851,
      "ĠrÃ¡b": 3852,
      "ĠspÃ¡r": 3853,
      "Ġkpr": 3854,
      "Ġzleh": 3855,
      "Ġvzruch": 3856,
      "ĠtÃŃh": 3857,
      "Ġhoum": 3858,
      "ĠschrÃ¡": 3859,
      "ĠfÅ¯": 3860,
      "Ġpyt": 3861,
      "Ġpsi": 3862,
      "ĠhÅĻi": 3863,
      "Ġstisk": 3864,
      "ĠkÅĻep": 3865,
      "Ġlkal": 3866,
      "Ġsvod": 3867,
      "ĠzvÄĽsÅ¥": 3868,
      "ĠzÅ¾": 3869,
      "ĠÄįed": 3870,
      "ĠpsÃŃ": 3871,
      "Ġplout": 3872,
      "ĠzkÅĻi": 3873,
      "Ġvha": 3874,
      "Ġim": 3875,
      "Ġglo": 3876,
      "ĠÅ¡Å¥Ã¡": 3877,
      "ĠÅ¾ol": 3878,
      "Ġat": 3879,
      "Ġvkni": 3880,
      "Ġhov": 3881,
      "Ġvsen": 3882,
      "Ġzhra": 3883,
      "Ġpsy": 3884,
      "Ġvv": 3885,
      "ĠvÅĻi": 3886,
      "ĠvsÃ¡": 3887,
      "Ġvmr": 3888,
      "Ġmdle": 3889,
      "Ġcher": 3890,
      "ĠceÅ¡": 3891,
      "ĠvhnÄĽ": 3892,
      "Ġmos": 3893,
      "ĠvtÃ¡": 3894,
      "Ġzvod": 3895,
      "Ġssa": 3896,
      "AC": 3897,
      "ĠdrÅ¯": 3898,
      "ĠslÅ¯v": 3899,
      "ĠcÃ©": 3900,
      "ĠÄįli": 3901,
      "Ġtvu": 3902,
      "ĠÅ¡ti": 3903,
      "ĠdvÃ¡Å¾": 3904,
      "Ġvnez": 3905,
      "AXXX": 3906,
      "ABAABX": 3907,
      "ĠstiÄį": 3908,
      "Ġthu": 3909,
      "Ġpost": 3910,
      "ĠvzchÃ¡": 3911,
      "ĠÅ¡ÃŃk": 3912,
      "Ġdlen": 3913,
      "ĠzlÅ¯": 3914,
      "ĠbdÄĽl": 3915,
      "Ġbyv": 3916,
      "Ġksk": 3917,
      "Ġvtmu": 3918,
      "Ġeh": 3919,
      "Ġzmd": 3920,
      "ĠgÃ¡": 3921,
      "Ġsliv": 3922,
      "Ġcouz": 3923,
      "ĠhÅĻbet": 3924,
      "aN": 3925,
      "ĠNaN": 3926,
      "Ġrouc": 3927,
      "ĠjlÃŃp": 3928,
      "Ġvslo": 3929,
      "ĠstlÃ©": 3930,
      "ĠpruÅ¾": 3931,
      "Ġprot": 3932,
      "Ġhed": 3933,
      "Ġric": 3934,
      "Ġsrp": 3935,
      "ĠsÅ¾": 3936,
      "ĠÅ¡pÃŃ": 3937,
      "Ġvzad": 3938,
      "Ġvtru": 3939,
      "ĠÄįÅ¯m": 3940,
      "Ġschop": 3941,
      "ĠjÃŃst": 3942,
      "Ġvdech": 3943,
      "ĠzaÅ¡": 3944,
      "ĠÅ¾eÅ¥": 3945,
      "AAXXXX": 3946,
      "Ġzob": 3947,
      "ĠspÃ¡d": 3948,
      "Ġsji": 3949,
      "Ġvznik": 3950,
      "Ġzci": 3951,
      "ĠÅ¡va": 3952,
      "ĠctnÃ©": 3953,
      "ĠhlÃ©m": 3954,
      "Ġdrak": 3955,
      "ĠvÄįÃŃ": 3956,
      "Ġvg": 3957,
      "ĠlÃŃn": 3958,
      "Ġzvad": 3959,
      "ĠzmlÃ¡": 3960,
      "Ġvpoz": 3961,
      "ĠhrÃ¡m": 3962,
      "ĠÃ¡Å¡": 3963,
      "Ġsnah": 3964,
      "ĠlkÃ¡t": 3965,
      "pÃŃ": 3966,
      "Ġnud": 3967,
      "Ġpous": 3968,
      "yt": 3969,
      "ĠdaÅĻ": 3970,
      "Ġzbor": 3971,
      "ĠpÅ¯t": 3972,
      "ĠtlÃ©m": 3973,
      "Ġksou": 3974,
      "ABAXXB": 3975,
      "Ġsluj": 3976,
      "Ġklec": 3977,
      "ĠdÅ¯l": 3978,
      "Ġouz": 3979,
      "ĠtoÄį": 3980,
      "ĠdaÅĪ": 3981,
      "Ġbab": 3982,
      "ĠsÅ¯v": 3983,
      "Ġbloud": 3984,
      "ĠverÅ¡": 3985,
      "ĠÅ¾hnou": 3986,
      "cÅ¯": 3987,
      "ĠtosÅ¥": 3988,
      "Ġmok": 3989,
      "ĠnuÅ¡": 3990,
      "Ġtrn": 3991,
      "ĠÅ¾Ã¡k": 3992,
      "ĠkmÃ©": 3993,
      "Ġchry": 3994,
      "ĠhÅĻbe": 3995,
      "Ġchm": 3996,
      "Ġpoch": 3997,
      "Ġloun": 3998,
      "Ġshas": 3999,
      "ĠbÅĻeÄį": 4000,
      "Ġgar": 4001,
      "Ġstrop": 4002,
      "Ġzhla": 4003,
      "Ġhnul": 4004,
      "ĠlvÃŃ": 4005,
      "Ġsvra": 4006,
      "ĠvkÅĻe": 4007,
      "ĠvrÃ½": 4008,
      "ĠptÃ¡t": 4009,
      "Ġoct": 4010,
      "ĠÅ¾ra": 4011,
      "ĠcÃŃÅĻ": 4012,
      "ĠhÃ¡n": 4013,
      "ĠflÃ©": 4014,
      "ĠmÅ¯r": 4015,
      "ĠÅ¡lel": 4016,
      "Ġvlek": 4017,
      "ĠdlÃ©m": 4018,
      "ĠbÅĻÃŃz": 4019,
      "Ġvzrak": 4020,
      "ĠsÅ¾i": 4021,
      "ĠÅ¯": 4022,
      "ĠliÅ¾": 4023,
      "Ġup": 4024,
      "Ġskem": 4025,
      "Ġzdvo": 4026,
      "ĠzpÅĻe": 4027,
      "Ġbrav": 4028,
      "ĠvmÅ¾i": 4029,
      "Ġzkte": 4030,
      "Ġzjed": 4031,
      "ĠhnÃ¡t": 4032,
      "Ġlha": 4033,
      "ĠsnÄĽt": 4034,
      "Ġvzta": 4035,
      "Ġcnost": 4036,
      "ĠkosÅ¥": 4037,
      "Ġmag": 4038,
      "Ġzpl": 4039,
      "Ġmlat": 4040,
      "Ġmout": 4041,
      "ĠsfÃ©": 4042,
      "ri": 4043,
      "ĠÅ¾id": 4044,
      "Ġzmy": 4045,
      "Ġvchu": 4046,
      "Ġrub": 4047,
      "Ġvpad": 4048,
      "Ġson": 4049,
      "ĠÃŃch": 4050,
      "ĠstÅĻem": 4051,
      "ĠzdÅĻÃŃ": 4052,
      "Ġfej": 4053,
      "Ġvrhl": 4054,
      "ĠÅ¡ÅĪ": 4055,
      "Ġbost": 4056,
      "ĠÅ¾ÃŃn": 4057,
      "Ġvsla": 4058,
      "ĠstÃ¡h": 4059,
      "Ġzbar": 4060,
      "ĠchlÃ½m": 4061,
      "ĠhÅ¯ÅĻ": 4062,
      "ĠvtvÃ½ch": 4063,
      "ĠvdlaÅĪ": 4064,
      "Ġtol": 4065,
      "ĠpÅĻeÄį": 4066,
      "ĠÅ¡els": 4067,
      "ĠztvÃ½ch": 4068,
      "ĠÅ¡Ã¡t": 4069,
      "ĠtÃŃÄį": 4070,
      "ĠtrÃ¡v": 4071,
      "Ġvjar": 4072,
      "Ġvska": 4073,
      "ĠsÄįÃŃ": 4074,
      "Ġtet": 4075,
      "Ġfle": 4076,
      "ĠkbÅĻe": 4077,
      "Ġsklen": 4078,
      "Ġzmlk": 4079,
      "ĠpÃ½ch": 4080,
      "Ġjes": 4081,
      "ĠvtÃ½": 4082,
      "ĠdbÃ¡": 4083,
      "23": 4084,
      "Ġpja": 4085,
      "ĠkrÃ©": 4086,
      "ĠÅ¡piÄį": 4087,
      "Ġtb": 4088,
      "XAAXXX": 4089,
      "ĠuÄį": 4090,
      "Ġvzou": 4091,
      "Ġstvol": 4092,
      "Ġsvel": 4093,
      "Ġeu": 4094,
      "ĠzdÃ¡r": 4095,
      "ĠÅ¾Å¯m": 4096,
      "Ġchov": 4097,
      "ĠpleÅ¥": 4098,
      "ĠdÅ¡": 4099,
      "ĠoÅĻ": 4100,
      "ĠÄįÃŃt": 4101,
      "Ġfat": 4102,
      "Ġznik": 4103,
      "Ġboh": 4104,
      "Ġchval": 4105,
      "Ġseh": 4106,
      "ĠÅĻvou": 4107,
      "Ġhrej": 4108,
      "ĠtkvÄĽ": 4109,
      "Ġzf": 4110,
      "Ġzisk": 4111,
      "Ġztmy": 4112,
      "ĠvÃ¡ÅĻ": 4113,
      "Ġrud": 4114,
      "Ġzven": 4115,
      "ĠvÃ¡t": 4116,
      "ĠbÃ¡v": 4117,
      "Ġhout": 4118,
      "ĠdrÅ¯m": 4119,
      "ĠstÄĽj": 4120,
      "Ġkbla": 4121,
      "Ġgon": 4122,
      "ny": 4123,
      "Ġjho": 4124,
      "ĠkdÄĽ": 4125,
      "Ġbuz": 4126,
      "ĠbylÅ¥": 4127,
      "Ġtram": 4128,
      "ĠnÃŃt": 4129,
      "Ġcim": 4130,
      "Ġhouf": 4131,
      "Ġsor": 4132,
      "Ġkslu": 4133,
      "Ġtrhl": 4134,
      "Ġdvih": 4135,
      "ĠmÃ³": 4136,
      "ĠÅ¾nÃŃ": 4137,
      "ABBAA": 4138,
      "Ġdaj": 4139,
      "Ġruj": 4140,
      "Ġkrk": 4141,
      "Ġchop": 4142,
      "ĠztvÃ©": 4143,
      "ĠhoÄı": 4144,
      "ĠstaÅ¥": 4145,
      "Ġkrb": 4146,
      "ĠskÅĻek": 4147,
      "ĠhÅĻmot": 4148,
      "Ġnaiv": 4149,
      "kÃ¡": 4150,
      "ĠzÃ©": 4151,
      "ĠvtÅ¯": 4152,
      "Ġket": 4153,
      "Ġmnoh": 4154,
      "Ġment": 4155,
      "ĠrÃ¡Äį": 4156,
      "ĠblÃ¡Äį": 4157,
      "ĠstrÃ½c": 4158,
      "Ġzc": 4159,
      "ĠtÃ½d": 4160,
      "ĠstvÃ½": 4161,
      "ĠniÅ¥": 4162,
      "ĠkrÃ¡m": 4163,
      "Ġvsy": 4164,
      "Ġklel": 4165,
      "ĠshlÃ©d": 4166,
      "ĠdnÃ½m": 4167,
      "Ġmes": 4168,
      "Ġstvou": 4169,
      "Ġhrd": 4170,
      "ĠbÄĽÅ¾": 4171,
      "ĠzÃ¡r": 4172,
      "ĠvÃ½h": 4173,
      "Ġchar": 4174,
      "ĠhÃ½Äį": 4175,
      "ĠklÃ¡s": 4176,
      "Ġsklon": 4177,
      "Ġzrad": 4178,
      "ĠblaÄį": 4179,
      "Ġstyd": 4180,
      "Ġkhla": 4181,
      "es": 4182,
      "Ġmyr": 4183,
      "ĠktvÃ©": 4184,
      "Ġthy": 4185,
      "ĠbloÅĪ": 4186,
      "Ġosm": 4187,
      "Ġproz": 4188,
      "ĠpÃ¡Å¾": 4189,
      "ĠkmÃŃ": 4190,
      "Ġsfin": 4191,
      "ĠpÅĻim": 4192,
      "Ġvdol": 4193,
      "Ġsci": 4194,
      "ĠkÅĻÃ¡": 4195,
      "ĠzÅ¾e": 4196,
      "ĠÅ¡ÃŃc": 4197,
      "ĠbrÅ¯": 4198,
      "Ġtkal": 4199,
      "ĠvkrÃ¡s": 4200,
      "Ġwa": 4201,
      "AAABBX": 4202,
      "ĠstlÃ½": 4203,
      "ĠstÃ¡d": 4204,
      "Ġzkru": 4205,
      "Ġzroz": 4206,
      "ĠÄįtu": 4207,
      "ĠpÃ½m": 4208,
      "Ġrum": 4209,
      "ĠshvÄĽz": 4210,
      "ĠvrÃ¡j": 4211,
      "ĠpatÅĻ": 4212,
      "Ġkur": 4213,
      "Ġsol": 4214,
      "ABBAAB": 4215,
      "ĠbÃ¡ÅĪ": 4216,
      "ĠschÅ¯": 4217,
      "Ġther": 4218,
      "Ġmuch": 4219,
      "ĠÅĻez": 4220,
      "ĠstrÃ©m": 4221,
      "Ġnejv": 4222,
      "ĠcÃ¡r": 4223,
      "ĠmÅ¯m": 4224,
      "ABCC": 4225,
      "ĠsplÃŃ": 4226,
      "Ġdis": 4227,
      "ĠlÃ¡v": 4228,
      "ĠpÃ½r": 4229,
      "ĠdÅĻich": 4230,
      "ABCCAB": 4231,
      "ĠlouÄį": 4232,
      "ĠÅ¡tvÃ¡n": 4233,
      "Ġuh": 4234,
      "ĠkvÄĽl": 4235,
      "ĠÅ¡ar": 4236,
      "ĠtnÄĽ": 4237,
      "ĠjvÃ½": 4238,
      "ĠrvÃ¡": 4239,
      "Ġvzdal": 4240,
      "ĠshrÅ¯": 4241,
      "ĠvzlÃ©t": 4242,
      "Ġhvizd": 4243,
      "ĠzÅ¾i": 4244,
      "ĠchrÅ¯": 4245,
      "Ġxi": 4246,
      "Ġsez": 4247,
      "Ġnoh": 4248,
      "Ġroc": 4249,
      "Ġnym": 4250,
      "ĠpÅĻip": 4251,
      "ĠvÅ¡ÃŃÅĻ": 4252,
      "Ġvzkaz": 4253,
      "ĠbÅ¯m": 4254,
      "Ġuv": 4255,
      "ĠÅĻeh": 4256,
      "Ġmrt": 4257,
      "Ġvklid": 4258,
      "Ġdme": 4259,
      "Ġpon": 4260,
      "ĠtÃŃn": 4261,
      "ĠpÅĻev": 4262,
      "Ġzok": 4263,
      "ĠÅĻk": 4264,
      "Ġvouk": 4265,
      "ĠskloÅĪ": 4266,
      "ĠÅ¾ÃŃc": 4267,
      "ĠnnÃŃch": 4268,
      "Ġvrod": 4269,
      "ĠhnÃ¡n": 4270,
      "ĠhÅĻÃ¡t": 4271,
      "ÅĻo": 4272,
      "ĠÅ¡ej": 4273,
      "Ġvyl": 4274,
      "Ġbud": 4275,
      "Ġcuj": 4276,
      "Ġvchod": 4277,
      "ĠvbÃ¡z": 4278,
      "ĠÅĻval": 4279,
      "Ġkrat": 4280,
      "ĠvÅĻÃŃn": 4281,
      "ĠklÃ½m": 4282,
      "Ġvbuj": 4283,
      "ĠmÅĻi": 4284,
      "Ġhve": 4285,
      "Ġseb": 4286,
      "ĠjaÅĻ": 4287,
      "Ġkvet": 4288,
      "Ġblys": 4289,
      "lÃ½m": 4290,
      "Ġkdru": 4291,
      "ĠÅĻÃŃÄį": 4292,
      "Ġbul": 4293,
      "ĠkslÃ¡": 4294,
      "Ġsbe": 4295,
      "ĠvskrÃ¡": 4296,
      "ĠdveÅĻ": 4297,
      "ĠÅĻva": 4298,
      "ĠÅĻÃŃÅ¾": 4299,
      "ĠzÃ¡n": 4300,
      "ĠÅĪÃ¡t": 4301,
      "ĠkpÃ¡": 4302,
      "ĠdvÄĽd": 4303,
      "ĠvkrÄį": 4304,
      "Ġtah": 4305,
      "ĠpÃ¡t": 4306,
      "Ġzmla": 4307,
      "Ġkroz": 4308,
      "Ġdos": 4309,
      "Ġzvra": 4310,
      "ĠzvÃ¡t": 4311,
      "Ġprac": 4312,
      "Ġvdra": 4313,
      "ĠvÃºz": 4314,
      "ĠcvÃ¡": 4315,
      "Ġpop": 4316,
      "Ġruk": 4317,
      "ĠtyÄį": 4318,
      "ĠmyÅ¡": 4319,
      "Ġvsvo": 4320,
      "Ġkvou": 4321,
      "Ġmant": 4322,
      "Ġvhe": 4323,
      "ĠÅ¾ur": 4324,
      "ĠmstÃŃ": 4325,
      "ĠmÃ¡Äį": 4326,
      "ĠvrÅ¡": 4327,
      "ĠÅ¥Ã¡t": 4328,
      "Ġmod": 4329,
      "Ġhav": 4330,
      "ĠluÄį": 4331,
      "Ġhub": 4332,
      "ĠpraÅ¾": 4333,
      "ĠpÃ³": 4334,
      "ĠprÅ¡": 4335,
      "ĠvhnÃŃz": 4336,
      "ĠvÄįes": 4337,
      "Ġsrn": 4338,
      "Ġpte": 4339,
      "Ġstlu": 4340,
      "ĠÅĻÅ¯m": 4341,
      "Ġtuh": 4342,
      "ĠkÃ¡r": 4343,
      "Ġvkla": 4344,
      "ĠziÄį": 4345,
      "Ġdrc": 4346,
      "ĠplÃ¡n": 4347,
      "Ġsdi": 4348,
      "ĠzÅ¡": 4349,
      "ĠcÃŃÅ¡": 4350,
      "Ġsai": 4351,
      "Ġvtan": 4352,
      "Ġvzpja": 4353,
      "Ġgol": 4354,
      "Ġjmen": 4355,
      "Ġvuj": 4356,
      "ĠÅĻiv": 4357,
      "ĠchoÄı": 4358,
      "Ġzol": 4359,
      "Ġzdej": 4360,
      "ĠslÃ¡v": 4361,
      "Ġvkap": 4362,
      "ĠmÅĻÃŃÅ¾": 4363,
      "ĠmÃ¡ÅĻ": 4364,
      "ĠlÃ¡z": 4365,
      "Ġhles": 4366,
      "Ġzme": 4367,
      "ĠtÅ¯ÅĪ": 4368,
      "ĠvstÃŃn": 4369,
      "ĠdoÅ¡": 4370,
      "Ġhyz": 4371,
      "ĠpÅ¡e": 4372,
      "ĠlaÅ¥": 4373,
      "Ġlob": 4374,
      "Ġblah": 4375,
      "ĠvjÃ¡": 4376,
      "Ġchout": 4377,
      "Ġtrysk": 4378,
      "ĠtmÄĽl": 4379,
      "Ġhnout": 4380,
      "ĠdeÅ¡Å¥": 4381,
      "ĠdÅĻev": 4382,
      "ĠjÃŃn": 4383,
      "ĠÄįesÅ¥": 4384,
      "ĠproÅĪ": 4385,
      "Ġvleb": 4386,
      "Ġgyp": 4387,
      "pÄĽ": 4388,
      "Ġvpi": 4389,
      "ĠzbÃ¡": 4390,
      "ĠvblÃ¡": 4391,
      "ĠvzpÄĽ": 4392,
      "ĠzkrÃ¡t": 4393,
      "Ġpin": 4394,
      "ĠvstrÃ¡": 4395,
      "Ġstre": 4396,
      "Ġdba": 4397,
      "ĠflÃ©t": 4398,
      "Ġbuch": 4399,
      "ĠvÃºs": 4400,
      "ĠsnÅ¯v": 4401,
      "ĠplÃŃs": 4402,
      "ĠÅ¾ed": 4403,
      "Ġsvist": 4404,
      "Ġzoun": 4405,
      "Ġkmat": 4406,
      "Ġkhra": 4407,
      "ĠzkaÅ¾": 4408,
      "ĠjakÅ¾": 4409,
      "ĠbÃŃÅ¡": 4410,
      "ĠpsÅ¯": 4411,
      "Ġchme": 4412,
      "ĠstrÃ¡n": 4413,
      "ĠÅ¡kr": 4414,
      "Ġhmyz": 4415,
      "ĠpÃŃÄı": 4416,
      "Ġpud": 4417,
      "Ġzub": 4418,
      "Ġvbr": 4419,
      "ĠptÃ½": 4420,
      "Ġmrs": 4421,
      "ĠvchrÃ¡m": 4422,
      "ABBAAX": 4423,
      "Å¡ech": 4424,
      "Ġproj": 4425,
      "Ġvzr": 4426,
      "ĠflÃŃ": 4427,
      "Ġklep": 4428,
      "ĠchÃ¡n": 4429,
      "Ġtroj": 4430,
      "Ġkbra": 4431,
      "ĠÅ¡kleb": 4432,
      "ĠblyÅ¡": 4433,
      "Ġdals": 4434,
      "ĠÅĻat": 4435,
      "Ġvzhle": 4436,
      "lem": 4437,
      "Ġbet": 4438,
      "ĠÅ¡tÄĽp": 4439,
      "ĠpÅĻÃ¡t": 4440,
      "ĠztmÄĽ": 4441,
      "Ġdor": 4442,
      "Ġdur": 4443,
      "Ġrav": 4444,
      "ĠkÅĪa": 4445,
      "Ġnuz": 4446,
      "ĠplÅĪ": 4447,
      "ĠÅ¾at": 4448,
      "Ġplot": 4449,
      "dÄĽ": 4450,
      "Ġnim": 4451,
      "ĠslasÅ¥": 4452,
      "ĠvhrÅ¯": 4453,
      "ĠchÅ¯v": 4454,
      "Ġhloh": 4455,
      "ĠÅ¡lÃ¡p": 4456,
      "Ġnva": 4457,
      "Ġjav": 4458,
      "ĠsÃŃt": 4459,
      "Ġzis": 4460,
      "Ġzoh": 4461,
      "ĠÅ¡pr": 4462,
      "Ġpark": 4463,
      "ĠchlÃ½ch": 4464,
      "Ġhot": 4465,
      "Ġcid": 4466,
      "Ġrozv": 4467,
      "ĠbÃ½Å¥": 4468,
      "ĠskoÄį": 4469,
      "ĠzlÃ©m": 4470,
      "ĠssÃ¡l": 4471,
      "ĠkaÄį": 4472,
      "ĠslÃ½ch": 4473,
      "Ġris": 4474,
      "Ġfek": 4475,
      "ĠztÄĽÅ¾": 4476,
      "Ġchlum": 4477,
      "ĠpÅ¯m": 4478,
      "Ġcep": 4479,
      "ĠtÃŃl": 4480,
      "ĠzdÃ¡v": 4481,
      "Ġschla": 4482,
      "ĠvprÅ¯": 4483,
      "Ġdak": 4484,
      "ĠnÃŃn": 4485,
      "ĠÅ¾ÃŃr": 4486,
      "Ġad": 4487,
      "Ġkrm": 4488,
      "Ġzplo": 4489,
      "ĠrÃ©Å¾": 4490,
      "ĠstÄĽÅ¾": 4491,
      "Ġvbar": 4492,
      "ĠptÃ¡Å¡": 4493,
      "Ġkse": 4494,
      "AAAXBB": 4495,
      "Ġkja": 4496,
      "Ġsis": 4497,
      "ĠsaÅĪ": 4498,
      "Ġdci": 4499,
      "ĠzvÅ¡e": 4500,
      "ĠlÃ©Äį": 4501,
      "ĠvblÃŃz": 4502,
      "ĠsdÄĽt": 4503,
      "Ġlva": 4504,
      "ĠteÅ¡": 4505,
      "ĠchvÃŃl": 4506,
      "Ġvjel": 4507,
      "Ġvkus": 4508,
      "ĠdlÃŃÅ¡": 4509,
      "Ġsjed": 4510,
      "Ġtup": 4511,
      "ĠÅ¡ÃŃÅĻ": 4512,
      "ĠpraÅ¡": 4513,
      "Ġslet": 4514,
      "Ġvdiv": 4515,
      "ĠbÃ©m": 4516,
      "Ġmun": 4517,
      "ĠkvÄĽÄį": 4518,
      "Ġchleb": 4519,
      "Ġvkom": 4520,
      "ĠdluÅ¾": 4521,
      "Ã¶": 4522,
      "ĠfÃ©": 4523,
      "Ġplet": 4524,
      "ĠÅ¥Ã¡l": 4525,
      "ĠskaÅ¾": 4526,
      "ĠsÄįer": 4527,
      "nt": 4528,
      "ĠkÅ¾": 4529,
      "ĠpÄĽsÅ¥": 4530,
      "Ġzpoz": 4531,
      "ĠskvÄĽl": 4532,
      "ĠblÅ¯": 4533,
      "Ġkuj": 4534,
      "ĠdÅ¯t": 4535,
      "ĠÄįlu": 4536,
      "Ġtum": 4537,
      "AABBAA": 4538,
      "ĠzÃŃr": 4539,
      "Ġvke": 4540,
      "Ġhluch": 4541,
      "ĠvzhlÃ©d": 4542,
      "AABBBX": 4543,
      "ĠtÃ¡Å¾": 4544,
      "Ġtrob": 4545,
      "Ġvbok": 4546,
      "ĠvskÃ¡": 4547,
      "ĠpÅĻem": 4548,
      "ĠdÅ¾bÃ¡n": 4549,
      "ĠÄįla": 4550,
      "Ġkaj": 4551,
      "Ġlod": 4552,
      "ĠÄįac": 4553,
      "Ġzbla": 4554,
      "Ġvmoc": 4555,
      "Ġskep": 4556,
      "Ġfro": 4557,
      "Ġzdep": 4558,
      "Ġdleh": 4559,
      "Ġzre": 4560,
      "ĠsnÃŃmÅ¾": 4561,
      "ĠhÅĻmÄĽl": 4562,
      "ĠvznÃ©st": 4563,
      "mo": 4564,
      "ĠmÃ¡c": 4565,
      "ĠÅĻÃŃz": 4566,
      "Ġsmat": 4567,
      "ĠdceÅĻ": 4568,
      "Ġplem": 4569,
      "Ġvmd": 4570,
      "Ġvnic": 4571,
      "Ġsus": 4572,
      "ĠbraÅĪ": 4573,
      "ĠchÅ¯d": 4574,
      "ĠvbouÅĻ": 4575,
      "he": 4576,
      "Ġmzd": 4577,
      "ABBCC": 4578,
      "Ġsmra": 4579,
      "ĠlÃ©z": 4580,
      "Ġvtak": 4581,
      "Ġzpy": 4582,
      "Ġzbe": 4583,
      "ĠÅ¡aÅ¡": 4584,
      "ĠvtÄĽs": 4585,
      "Ġgri": 4586,
      "ABBCCA": 4587,
      "tÃ¡": 4588,
      "Ġvzlo": 4589,
      "ĠvhvÄĽz": 4590,
      "ĠsviÅ¥": 4591,
      "ĠzmÄĽÅ¥": 4592,
      "ĠÅ¾dÃ¡": 4593,
      "ĠjvÃ½Å¡": 4594,
      "Ġvnou": 4595,
      "ĠkÄį": 4596,
      "Ġhop": 4597,
      "ĠpeÅ¡": 4598,
      "ĠztÃ¡": 4599,
      "Ġhlup": 4600,
      "ĠvosÅ¥": 4601,
      "ĠrÃ¡k": 4602,
      "Ġsmlou": 4603,
      "Ġslan": 4604,
      "ĠksvÃ½m": 4605,
      "ĠkplÃ¡": 4606,
      "Ġzpit": 4607,
      "Ġhil": 4608,
      "Ġkum": 4609,
      "Ġvrak": 4610,
      "Ġklem": 4611,
      "Ġkpro": 4612,
      "Ġksto": 4613,
      "Ġsvad": 4614,
      "Ġzech": 4615,
      "Ġdent": 4616,
      "ĠgÃ¡n": 4617,
      "ĠvzdÃ¡t": 4618,
      "Ġjda": 4619,
      "ĠzhÅ¯": 4620,
      "Ġkza": 4621,
      "ĠvsmÄĽ": 4622,
      "ĠlÅ¾e": 4623,
      "Ġrmu": 4624,
      "ĠklÃ¡st": 4625,
      "ĠslÃ©t": 4626,
      "ĠbeÅ¡": 4627,
      "Ġtrup": 4628,
      "ĠtrÃ¡m": 4629,
      "Ġzkle": 4630,
      "Ġdrozd": 4631,
      "ĠsrÅ¯": 4632,
      "ĠzvÅ¡ech": 4633,
      "Ġvslav": 4634,
      "ĠmÃ©n": 4635,
      "Ġkrav": 4636,
      "ĠsviÅ¡": 4637,
      "ĠznÄĽj": 4638,
      "ĠzrÃ¡l": 4639,
      "ĠtlÃ½m": 4640,
      "ĠstÅ¯v": 4641,
      "ĠdÅĻej": 4642,
      "ĠmlÃ©Äį": 4643,
      "Ġvyv": 4644,
      "Ġjaks": 4645,
      "Ġproh": 4646,
      "rud": 4647,
      "ĠhouÅ¡Å¥": 4648,
      "ĠvdÄĽs": 4649,
      "ĠÅ¾ne": 4650,
      "ĠsnÃŃÅ¾": 4651,
      "ĠvpÅĻÃŃÅ¡": 4652,
      "ĠdiÅ¥": 4653,
      "Ġpun": 4654,
      "Ġplec": 4655,
      "ĠÅ¡vÃ¡": 4656,
      "ĠchÅĻad": 4657,
      "ĠtaÅ¾": 4658,
      "Ġbos": 4659,
      "ĠkvÃ¡": 4660,
      "ĠzkouÅ¡": 4661,
      "Ġctil": 4662,
      "Ġvhroz": 4663,
      "Ġplic": 4664,
      "ĠsÃ½m": 4665,
      "ĠhÅĻmÃŃt": 4666,
      "Ġsst": 4667,
      "ĠsÅ¥": 4668,
      "ĠkoÅ¾": 4669,
      "ĠmÃ¡v": 4670,
      "Ġput": 4671,
      "ĠtÃ½n": 4672,
      "Ġslid": 4673,
      "ĠsmÄĽj": 4674,
      "ĠsbÃ¡": 4675,
      "Ġmdlou": 4676,
      "Ġcval": 4677,
      "Ġstrem": 4678,
      "ĠÅ¡tÄĽr": 4679,
      "Ġvojsk": 4680,
      "Ġcva": 4681,
      "Ġop": 4682,
      "ĠstiÅ¥": 4683,
      "ĠdrÃ¡ch": 4684,
      "Ġzak": 4685,
      "ĠzÅ¾ÃŃ": 4686,
      "ĠvsvÅ¯j": 4687,
      "Ġvzdej": 4688,
      "ĠhÅĻÃ¡l": 4689,
      "ĠÅ¡perk": 4690,
      "Ġvbles": 4691,
      "Ġost": 4692,
      "ĠvdÅ¯m": 4693,
      "Ġsouc": 4694,
      "Ġbros": 4695,
      "Ġdvod": 4696,
      "Ġzboj": 4697,
      "ĠvÄįem": 4698,
      "Ġtlesk": 4699,
      "ĠklÃ©m": 4700,
      "Ġsvl": 4701,
      "ĠsÃ¡n": 4702,
      "ĠzkÅĻÃŃ": 4703,
      "ĠvÅĻeÅ¡": 4704,
      "Ġprut": 4705,
      "Ġvtaj": 4706,
      "ĠvspÃ¡n": 4707,
      "ĠscÃ©": 4708,
      "ĠsvÃ¡l": 4709,
      "ĠzpÃ¡": 4710,
      "Ġztlu": 4711,
      "ĠzrÃ½": 4712,
      "ĠsÅĪat": 4713,
      "XXAXXA": 4714,
      "Ġvym": 4715,
      "Ġvis": 4716,
      "ĠzkvÃŃ": 4717,
      "Ġschou": 4718,
      "ĠvzhlÃŃ": 4719,
      "AABBAX": 4720,
      "ĠbrÅ¾": 4721,
      "Ġvzpjal": 4722,
      "Ġsre": 4723,
      "ĠchtÃŃÄį": 4724,
      "ĠsÅĪal": 4725,
      "ĠhÃº": 4726,
      "Ġrac": 4727,
      "Ġvals": 4728,
      "Ġkrom": 4729,
      "ĠdlÃŃt": 4730,
      "ĠstÅĻiÄį": 4731,
      "Ġvtes": 4732,
      "Ġzsi": 4733,
      "vat": 4734,
      "Ġsklad": 4735,
      "ĠstÃŃÅ¡": 4736,
      "ĠkÃ½Å¾": 4737,
      "Ġsof": 4738,
      "ĠvkÃ¡": 4739,
      "ĠtÅĻeb": 4740,
      "ĠÅ¾luÄį": 4741,
      "ĠssÃ¡": 4742,
      "Ġtliv": 4743,
      "Ġzkaz": 4744,
      "Ġknut": 4745,
      "ĠsÅ¡e": 4746,
      "ĠdaÄį": 4747,
      "ĠkÃ¡z": 4748,
      "ĠjsouÅ¥": 4749,
      "ĠvdÄĽt": 4750,
      "Ġshluk": 4751,
      "ĠÅ¾lout": 4752,
      "Ġoch": 4753,
      "Ġbaj": 4754,
      "Ġlub": 4755,
      "ĠdÄĽls": 4756,
      "Ġvsvou": 4757,
      "Ġchlub": 4758,
      "Ġvryl": 4759,
      "Ġspek": 4760,
      "Ġsyp": 4761,
      "Ġvpy": 4762,
      "Ġvby": 4763,
      "ĠzdÃ¡t": 4764,
      "Ġvkon": 4765,
      "Ġkluk": 4766,
      "Ġzcha": 4767,
      "Ġfre": 4768,
      "Ġlvo": 4769,
      "Å¯l": 4770,
      "Ġzan": 4771,
      "ĠzplÃ¡": 4772,
      "ĠhrÃ¡ch": 4773,
      "vost": 4774,
      "Ġthi": 4775,
      "Ġdbej": 4776,
      "vu": 4777,
      "ĠvÄĽsÅ¥": 4778,
      "ĠdÄĽÅ¥": 4779,
      "ĠvÃ½t": 4780,
      "ĠvÅ¾ÃŃ": 4781,
      "ĠzvÄĽÄį": 4782,
      "ĠvloÅ¾": 4783,
      "ĠÅĻÅ¯v": 4784,
      "ĠzchrÃ¡": 4785,
      "Ġkstro": 4786,
      "XAXX": 4787,
      "Ġvsnu": 4788,
      "Ġkma": 4789,
      "ĠpÅĻÃŃl": 4790,
      "Ġvky": 4791,
      "Ġdrn": 4792,
      "ĠchÃ½Å¾": 4793,
      "ĠmnÃŃÅ¡": 4794,
      "ĠkÅ¾e": 4795,
      "ĠlÃ³": 4796,
      "XXB": 4797,
      "ĠbÃ¡ÅĻ": 4798,
      "ĠvkÅĻi": 4799,
      "AABXXB": 4800,
      "ĠÅ¡tÄĽt": 4801,
      "Ġkmu": 4802,
      "ĠÅ¾hne": 4803,
      "nÅ¯": 4804,
      "Ġvyk": 4805,
      "Ġvtros": 4806,
      "Ġzple": 4807,
      "ĠtÅ¯Äį": 4808,
      "ĠdejÅ¾": 4809,
      "ĠvdÃ¡v": 4810,
      "ĠknimÅ¾": 4811,
      "ĠvklÃ¡Å¡": 4812,
      "ĠtaÅ¥": 4813,
      "ĠpÅĻis": 4814,
      "ĠdnÃ©m": 4815,
      "ĠtÅĻu": 4816,
      "ĠprÃ©": 4817,
      "ĠÅ¡ke": 4818,
      "ĠchlÃ©m": 4819,
      "ĠvzrÅ¯st": 4820,
      "ĠjÃŃÅ¥": 4821,
      "ĠmiÄį": 4822,
      "Ġslab": 4823,
      "ĠzmÃ½ch": 4824,
      "Ġgram": 4825,
      "ĠjeÄı": 4826,
      "ĠzaÅĪ": 4827,
      "ĠhruÅ¡": 4828,
      "Ġskyt": 4829,
      "Ġxe": 4830,
      "Ġcour": 4831,
      "Ġvzmat": 4832,
      "ĠkÅ¡tÄĽ": 4833,
      "Ġvstup": 4834,
      "CAC": 4835,
      "Ġjvo": 4836,
      "Ġvav": 4837,
      "ABBCAC": 4838,
      "Ġloub": 4839,
      "ĠtÅĻek": 4840,
      "ĠtÅĻÃŃÄį": 4841,
      "ĠkpÅĻÃŃ": 4842,
      "ĠsnaÅ¾": 4843,
      "ĠÅ¾la": 4844,
      "Ġlar": 4845,
      "ĠroÄį": 4846,
      "ĠstuÅ¾": 4847,
      "ĠsfÃ©r": 4848,
      "Ġvlaj": 4849,
      "Ġdroz": 4850,
      "ĠtÅĻiv": 4851,
      "ĠÅ¾ou": 4852,
      "Ġspy": 4853,
      "Ġsam": 4854,
      "ĠvpÃ½": 4855,
      "ĠbraÅ¥": 4856,
      "Ġrdou": 4857,
      "ĠvcÃŃ": 4858,
      "ĠviÅĪ": 4859,
      "Ġhraj": 4860,
      "ĠbrÃ¡c": 4861,
      "ĠvlÃ¡l": 4862,
      "ĠctÃŃt": 4863,
      "Ġfaust": 4864,
      "ĠsvlÃ©": 4865,
      "Ġtus": 4866,
      "Ġbed": 4867,
      "ĠÄįÃŃl": 4868,
      "Ġktan": 4869,
      "Ã³r": 4870,
      "ĠvsluÅ¾": 4871,
      "ĠzÅ¯m": 4872,
      "Ġprob": 4873,
      "ĠmÃŃch": 4874,
      "Ġrych": 4875,
      "Ġvrb": 4876,
      "Ġztros": 4877,
      "Ġsvah": 4878,
      "ĠvbÅĻe": 4879,
      "ĠmdlÃ½m": 4880,
      "Ġvskal": 4881,
      "Ġvryt": 4882,
      "ĠtuÅ¡": 4883,
      "ĠsplÃ©": 4884,
      "ĠsÃŃd": 4885,
      "Ġvslou": 4886,
      "Ġfla": 4887,
      "ĠchyÅ¥": 4888,
      "ĠsmÃŃÅ¡": 4889,
      "ĠzliÄį": 4890,
      "Ġzvln": 4891,
      "ma": 4892,
      "Ġpnu": 4893,
      "ĠbÄĽj": 4894,
      "ÅĪÃ¡": 4895,
      "Ġsble": 4896,
      "Ġvstoup": 4897,
      "ĠvbÄĽh": 4898,
      "ĠvnÄĽjÅ¾": 4899,
      "ĠmaÅ¡": 4900,
      "ĠchÃ¡s": 4901,
      "ĠvlÃ¡t": 4902,
      "AXXAXX": 4903,
      "ĠÅ¡tkÃ¡": 4904,
      "Ġsved": 4905,
      "ĠÄįast": 4906,
      "Ġvsto": 4907,
      "Ġchvi": 4908,
      "Ġsbi": 4909,
      "ĠkÅĻest": 4910,
      "Ġvzmach": 4911,
      "Ġtch": 4912,
      "ĠlpÃŃ": 4913,
      "oun": 4914,
      "ĠÅĻka": 4915,
      "ĠÅ¡eÅĻ": 4916,
      "ĠÄįÃŃn": 4917,
      "ĠsnÃŃl": 4918,
      "ĠmlÅ¾": 4919,
      "ĠÅ¡af": 4920,
      "ĠhÅ¯v": 4921,
      "Ġpluj": 4922,
      "ĠvspÃ¡": 4923,
      "Ġzpur": 4924,
      "ĠkÄįer": 4925,
      "Ġpam": 4926,
      "Ġpuch": 4927,
      "AXBB": 4928,
      "ĠvloÄį": 4929,
      "ĠÅ¡tÃ¡": 4930,
      "ĠÄįtyÅĻ": 4931,
      "Ġzmdle": 4932,
      "ĠkoÅĪ": 4933,
      "ĠÅĻet": 4934,
      "ĠsÃ¡z": 4935,
      "ĠzvÃŃÅ¡": 4936,
      "Ġvzep": 4937,
      "Ġvzky": 4938,
      "ĠÅ¾uj": 4939,
      "AABAB": 4940,
      "ud": 4941,
      "Ġpst": 4942,
      "ĠÄįlÃ¡": 4943,
      "ĠsiÄį": 4944,
      "Ġis": 4945,
      "Ġzmno": 4946,
      "ĠÅ¡vih": 4947,
      "24": 4948,
      "Ġtip": 4949,
      "ĠkyÅĪ": 4950,
      "Ġzdou": 4951,
      "Ġfil": 4952,
      "Ġzod": 4953,
      "Ġvstru": 4954,
      "Ġcr": 4955,
      "Ġrra": 4956,
      "ĠÅ¾ej": 4957,
      "ĠrÃ½Å¾": 4958,
      "Ġzhru": 4959,
      "ĠspÄĽt": 4960,
      "Ġchlej": 4961,
      "ĠÅ¡tve": 4962,
      "ĠspuÅ¡": 4963,
      "ĠsnÃ©st": 4964,
      "Ġsg": 4965,
      "Ġprok": 4966,
      "Ġsba": 4967,
      "Ġgraf": 4968,
      "ĠvzbuÄı": 4969,
      "Ġvmdlo": 4970,
      "ko": 4971,
      "Ġbvy": 4972,
      "ĠjÃ¡c": 4973,
      "ĠbÃŃk": 4974,
      "ĠÅĪal": 4975,
      "ĠctnÃ½": 4976,
      "ĠÄıme": 4977,
      "Ġsklep": 4978,
      "Ġvkruh": 4979,
      "Ġvhrad": 4980,
      "Ġil": 4981,
      "Ġduh": 4982,
      "Ġsiv": 4983,
      "ĠkÃ¡Å¾": 4984,
      "ÅĪal": 4985,
      "ĠbouÄį": 4986,
      "Ġes": 4987,
      "ĠzmÄĽn": 4988,
      "Ġprys": 4989,
      "ĠsjÃŃ": 4990,
      "Ġae": 4991,
      "ĠvÃŃch": 4992,
      "ĠrÃ¡r": 4993,
      "ĠvkÅĻo": 4994,
      "ĠzmÅ¯": 4995,
      "ĠprÃ¡s": 4996,
      "ĠvÅ¡um": 4997,
      "Ġvzrost": 4998,
      "ĠsÅĻe": 4999,
      "ĠsÃ½ch": 5000,
      "Ġsev": 5001,
      "ĠpaÄį": 5002,
      "ĠpÃ¡Å¡": 5003,
      "ĠzhÅĻÃŃ": 5004,
      "ĠsvÃŃÄį": 5005,
      "ĠÅĻÃ¡s": 5006,
      "Ġzpom": 5007,
      "ĠskrÃ½t": 5008,
      "Ġssu": 5009,
      "Ġsvrh": 5010,
      "Ġvblan": 5011,
      "Ġnve": 5012,
      "Ġzab": 5013,
      "ĠzhvÄĽz": 5014,
      "ĠdrÃ¡t": 5015,
      "ĠvzkÃ¡": 5016,
      "Ġumf": 5017,
      "Ġtroud": 5018,
      "Ġdbal": 5019,
      "ĠpnÄĽ": 5020,
      "ĠtoÅĪ": 5021,
      "Ġir": 5022,
      "Ġvtvo": 5023,
      "Ġgil": 5024,
      "Ġztvr": 5025,
      "ĠzklÃŃ": 5026,
      "Ġvpos": 5027,
      "Ġbrod": 5028,
      "ĠsdÅ¯": 5029,
      "Ġvskry": 5030,
      "ĠzvÃ¡Å¾": 5031,
      "Ġvpev": 5032,
      "ĠvisÅ¥": 5033,
      "Ġstep": 5034,
      "Ġvmar": 5035,
      "ĠmÄĽls": 5036,
      "ĠnÄĽjÅ¾": 5037,
      "Ġblouk": 5038,
      "AAXBBB": 5039,
      "Ġvmech": 5040,
      "ĠdÅ¾bÃ¡": 5041,
      "mi": 5042,
      "ĠdcÅ¯": 5043,
      "Ġjeh": 5044,
      "Ġvas": 5045,
      "ĠvtÅĻe": 5046,
      "ĠsÃ¡k": 5047,
      "Ġdliv": 5048,
      "Ġzoub": 5049,
      "Ġzlid": 5050,
      "ÃŃs": 5051,
      "Ġpjal": 5052,
      "ĠÅ¡lu": 5053,
      "ĠvÄĽÅ¥": 5054,
      "ĠvÅ¡tÃŃ": 5055,
      "Ġmel": 5056,
      "Ġsplav": 5057,
      "ĠviÅ¥": 5058,
      "ĠpÅĻeÅ¡": 5059,
      "Ġvrej": 5060,
      "ĠchtÄĽj": 5061,
      "Ġptej": 5062,
      "Ġzg": 5063,
      "ran": 5064,
      "ĠmiÅĪ": 5065,
      "ĠrÃ¡t": 5066,
      "Ġzdru": 5067,
      "ĠsnÃŃÅ¡": 5068,
      "Ġfar": 5069,
      "ĠkspÃ¡n": 5070,
      "ĠstÃŃs": 5071,
      "Ġprak": 5072,
      "Ġvblu": 5073,
      "ĠvlÃ¡k": 5074,
      "ĠstvÄĽ": 5075,
      "ĠÄįle": 5076,
      "Ġtav": 5077,
      "ĠÄįeÅ¥": 5078,
      "Ġvrt": 5079,
      "ĠstÅĻen": 5080,
      "Ġsmek": 5081,
      "ĠzlÃ¡t": 5082,
      "ĠlstÃŃ": 5083,
      "ĠvpouÅ¡Å¥": 5084,
      "ĠjlÃ©": 5085,
      "Ġck": 5086,
      "Ġkas": 5087,
      "Ġrez": 5088,
      "Ġgor": 5089,
      "ĠztÃ½": 5090,
      "Ġvmno": 5091,
      "Ġvled": 5092,
      "Ġkta": 5093,
      "Ġklub": 5094,
      "ĠtiÅ¥": 5095,
      "ĠÅ¡ec": 5096,
      "Ġsnich": 5097,
      "ĠzhnÄĽ": 5098,
      "Ġlhal": 5099,
      "Ġfry": 5100,
      "Ġnon": 5101,
      "ĠroÅ¡": 5102,
      "ĠÅĻed": 5103,
      "Ġtrat": 5104,
      "ĠchvÄĽn": 5105,
      "ĠpÅ¯r": 5106,
      "ĠsdÃŃl": 5107,
      "Ġkin": 5108,
      "ĠleÄı": 5109,
      "Ġvtlu": 5110,
      "ĠvÅ¾al": 5111,
      "ĠgÃ©": 5112,
      "ĠkleÅ¡": 5113,
      "Ġhrud": 5114,
      "Ġznoj": 5115,
      "ĠsnÃ¡z": 5116,
      "Ġvbah": 5117,
      "Ġkce": 5118,
      "Ġlnou": 5119,
      "Ġces": 5120,
      "ABBB": 5121,
      "ĠzÃ¡j": 5122,
      "Ġklat": 5123,
      "Ġsoum": 5124,
      "Ġzyl": 5125,
      "Ġstri": 5126,
      "ĠvspÄĽch": 5127,
      "ĠzdÅĻÃŃm": 5128,
      "ĠÅ¾b": 5129,
      "Ġnor": 5130,
      "XAXB": 5131,
      "Ġnuj": 5132,
      "ĠmaÄį": 5133,
      "Ġspjal": 5134,
      "ĠÅĻisÅ¥": 5135,
      "Ġdre": 5136,
      "ĠzhÃ¡": 5137,
      "ĠsnÄĽÅ¥": 5138,
      "ĠschvÄĽ": 5139,
      "Ġcyt": 5140,
      "Ġvmoz": 5141,
      "Ġtvrz": 5142,
      "Ġsjel": 5143,
      "ĠzÄįÃŃ": 5144,
      "Ġsmou": 5145,
      "ĠchaÅĻ": 5146,
      "Ġvste": 5147,
      "Ġshra": 5148,
      "Ġtron": 5149,
      "Ġskot": 5150,
      "ĠkruÅ¡": 5151,
      "ĠuÅ¡t": 5152,
      "ĠjsemÅ¥": 5153,
      "ĠplaÅ¥": 5154,
      "Ġksva": 5155,
      "Ġvjezd": 5156,
      "ĠvnÃ¡d": 5157,
      "Ġkhru": 5158,
      "nil": 5159,
      "ÅĻas": 5160,
      "Ġloz": 5161,
      "Ġsir": 5162,
      "Ġsdra": 5163,
      "ĠÅ¡ept": 5164,
      "ĠÄįnÄĽl": 5165,
      "ĠzÄįi": 5166,
      "Ġkut": 5167,
      "ĠknÃ½ch": 5168,
      "Ġlamp": 5169,
      "Ġksta": 5170,
      "ĠtÃ©r": 5171,
      "ĠgÅ¯": 5172,
      "ĠbrÃ¡n": 5173,
      "ĠkÃ¡l": 5174,
      "Ġbuk": 5175,
      "ĠtrÃ³": 5176,
      "Ġvplo": 5177,
      "ĠpÃŃk": 5178,
      "Ġzran": 5179,
      "Ġvmat": 5180,
      "Ġvhou": 5181,
      "Ġmsty": 5182,
      "ĠkrÃ½t": 5183,
      "Ġzvlh": 5184,
      "Ġzap": 5185,
      "ĠtoÅ¡": 5186,
      "ĠbrÃ©m": 5187,
      "ĠvzÃ¡m": 5188,
      "Ġvbod": 5189,
      "ĠvmÄĽk": 5190,
      "Ġsef": 5191,
      "Ġkord": 5192,
      "Ġstich": 5193,
      "Ġzlom": 5194,
      "ĠfraÅ¡": 5195,
      "Ġrmou": 5196,
      "ĠtÅĻa": 5197,
      "ĠÅ¾est": 5198,
      "ĠÄįec": 5199,
      "ĠlÃ¡d": 5200,
      "ĠprsÅ¥": 5201,
      "ĠpÃŃc": 5202,
      "ĠryÄį": 5203,
      "Ġvdou": 5204,
      "Ġtoul": 5205,
      "ĠplaÅ¡": 5206,
      "ĠvkÅĻÃŃ": 5207,
      "Ġkleb": 5208,
      "Ġzhled": 5209,
      "ĠbÅĻes": 5210,
      "ĠnaÅ¥": 5211,
      "ĠtÄĽp": 5212,
      "Ġjab": 5213,
      "neÅ¡": 5214,
      "ĠstÃ¡m": 5215,
      "Ġbram": 5216,
      "Ġstvi": 5217,
      "ĠstrÃ½Äį": 5218,
      "Ġsmol": 5219,
      "Ġvproud": 5220,
      "Ġnne": 5221,
      "ĠÅ¾nÄĽ": 5222,
      "ĠÅĻÃ¡t": 5223,
      "Ġztro": 5224,
      "Ġdles": 5225,
      "Ġsbu": 5226,
      "Ġfin": 5227,
      "ĠvplÃ¡Äį": 5228,
      "ĠsbÄĽh": 5229,
      "ĠtnÃ©": 5230,
      "Ġlv": 5231,
      "ĠpÅ¡": 5232,
      "ĠchÅĻ": 5233,
      "XAX": 5234,
      "Ġjam": 5235,
      "ĠÅĻech": 5236,
      "ĠzÃŃk": 5237,
      "ĠvmÅ¯j": 5238,
      "Ġtral": 5239,
      "Ġbron": 5240,
      "ĠzpÃŃs": 5241,
      "ĠstÃ½l": 5242,
      "XABBXA": 5243,
      "ĠskÅĻÃŃt": 5244,
      "ĠÅĪÃ¡k": 5245,
      "ĠÅ¾da": 5246,
      "ĠÅ¡ÅĪÅ¯": 5247,
      "ĠvtÅ¯ÅĪ": 5248,
      "ĠvhÅĻÃŃ": 5249,
      "ĠzhouÅ¡": 5250,
      "Ġsbla": 5251,
      "Ġvkri": 5252,
      "Ġtot": 5253,
      "ĠpÃ¡l": 5254,
      "Ġbiz": 5255,
      "Ġzhl": 5256,
      "ĠkneÅ¡": 5257,
      "Ġkluz": 5258,
      "Ġllah": 5259,
      "Ġskte": 5260,
      "Ġprov": 5261,
      "ĠzÃŃtÅĻ": 5262,
      "ĠtouÄį": 5263,
      "ĠonÅ¥": 5264,
      "Ġstoud": 5265,
      "Ġskost": 5266,
      "Ġskrej": 5267,
      "ĠsviÅ¾": 5268,
      "ĠslÃŃÄį": 5269,
      "ĠdlÃ¡m": 5270,
      "Ġblem": 5271,
      "Ġstrhl": 5272,
      "ĠvdÅ¯l": 5273,
      "Ġvak": 5274,
      "ĠliÅ¥": 5275,
      "Ġtvrd": 5276,
      "ĠvplÃŃ": 5277,
      "ĠstvÃŃch": 5278,
      "ĠzhnÃŃz": 5279,
      "ĠtÅĻÃŃÅ¡Å¥": 5280,
      "ĠÅ¡kÃ¡": 5281,
      "ĠÅĻan": 5282,
      "ĠvchÃ½": 5283,
      "ĠÅ¡Ã¡k": 5284,
      "ĠctÃŃm": 5285,
      "ĠlhÃ¡ÅĻ": 5286,
      "ĠjÃŃÄį": 5287,
      "ĠslÅ¯m": 5288,
      "ĠbeÄį": 5289,
      "Ġvsny": 5290,
      "Ġvdnech": 5291,
      "Ġsluh": 5292,
      "Ġkres": 5293,
      "Ġtknu": 5294,
      "ĠvtmÄĽ": 5295,
      "Ġmdlob": 5296,
      "ĠzhoÅĻ": 5297,
      "Ġlog": 5298,
      "ĠvoÄı": 5299,
      "Ġsod": 5300,
      "ĠslÃ¡n": 5301,
      "Ġvsku": 5302,
      "ĠmstÃŃt": 5303,
      "ĠzhlÃŃd": 5304,
      "Ġdmu": 5305,
      "ĠmÃº": 5306,
      "Ġmnil": 5307,
      "Ġzau": 5308,
      "ĠvÃŃÅ¾": 5309,
      "Ġzeb": 5310,
      "Ġdas": 5311,
      "ĠkÅ¯l": 5312,
      "ĠÅĻiÅ¥": 5313,
      "ĠprÃ¡l": 5314,
      "ĠvstÃ¡t": 5315,
      "Ġmls": 5316,
      "ĠknÃ½m": 5317,
      "ĠzÄįech": 5318,
      "ĠmnÃŃm": 5319,
      "Ġhviz": 5320,
      "jat": 5321,
      "Ġtyr": 5322,
      "Ġstret": 5323,
      "Ġmsta": 5324,
      "ĠskÅĻÃŃÅĪ": 5325,
      "ĠbÅĻin": 5326,
      "ĠchÅĻest": 5327,
      "Ġvzim": 5328,
      "Ġrre": 5329,
      "ĠsvÄĽÅ¥": 5330,
      "ĠtenÅ¥": 5331,
      "Ġbic": 5332,
      "ĠblaÅ¾": 5333,
      "ĠzkÅĻe": 5334,
      "AXBX": 5335,
      "ĠstvÃ½m": 5336,
      "ĠÅ¾an": 5337,
      "Ġznes": 5338,
      "Ġzjich": 5339,
      "ĠhnÃŃzd": 5340,
      "Ġstkvost": 5341,
      "Ġsjas": 5342,
      "Ġgre": 5343,
      "Ġvspol": 5344,
      "ĠsÅ¾ÃŃ": 5345,
      "ĠÅ¡lou": 5346,
      "ĠroÅ¾": 5347,
      "Ġzdal": 5348,
      "Ġhran": 5349,
      "Ġvbra": 5350,
      "ĠpÅĻÃ¡h": 5351,
      "Ġkzd": 5352,
      "ĠÄįtr": 5353,
      "Ġzbav": 5354,
      "Ġxan": 5355,
      "Ġkai": 5356,
      "ĠvÃ¡d": 5357,
      "Ġmau": 5358,
      "Ġvus": 5359,
      "ĠzblÃ¡": 5360,
      "Ġvstr": 5361,
      "ĠchÃ½Å¡": 5362,
      "ĠvzÃ¡ÅĻ": 5363,
      "ĠztiÅ¡": 5364,
      "Ġbon": 5365,
      "ĠlÃŃh": 5366,
      "ĠtÃ©l": 5367,
      "Ġvsad": 5368,
      "Ġvtra": 5369,
      "ĠbÃ¡r": 5370,
      "Ġzky": 5371,
      "ĠchvÃŃt": 5372,
      "ĠshlÃ©": 5373,
      "Ġlim": 5374,
      "Ġfl": 5375,
      "Ġvkal": 5376,
      "ĠziÅ¡": 5377,
      "Ġzhe": 5378,
      "Ġvzpru": 5379,
      "Ġtman": 5380,
      "ĠthÃ©": 5381,
      "ĠÄįtou": 5382,
      "Ġvskle": 5383,
      "Ġvzkve": 5384,
      "ĠkspÃ¡": 5385,
      "Ġtim": 5386,
      "Ġras": 5387,
      "Ġzdat": 5388,
      "Ġzlen": 5389,
      "Ġzmlh": 5390,
      "ĠsÅ¾a": 5391,
      "Ã¼": 5392,
      "Ġkoh": 5393,
      "ĠlÃ¡r": 5394,
      "ĠvÅ¡er": 5395,
      "ĠvdÃ½": 5396,
      "ĠprÃ¡t": 5397,
      "Ġhen": 5398,
      "Ġkroj": 5399,
      "ĠÅ¡an": 5400,
      "Ġzlet": 5401,
      "Ġtky": 5402,
      "ĠdlÃ¡Å¾": 5403,
      "Ġchrt": 5404,
      "ĠvmraÄį": 5405,
      "ĠvtÃŃs": 5406,
      "ol": 5407,
      "ABAXB": 5408,
      "Ġcej": 5409,
      "rob": 5410,
      "Ġvon": 5411,
      "ĠdÃ¡Å¾": 5412,
      "ĠÅ¡ÃŃn": 5413,
      "ĠjÃ¡Å¥": 5414,
      "ĠdnÅ¯v": 5415,
      "ĠgroÅ¡": 5416,
      "ĠnÃ½ÅĻ": 5417,
      "ĠÅ¡eÄı": 5418,
      "Ġsklou": 5419,
      "Ġcis": 5420,
      "Ġvleh": 5421,
      "Ġsry": 5422,
      "ĠvÃºc": 5423,
      "ĠvadÅ¾": 5424,
      "Ġzhloub": 5425,
      "ĠÄįtvrt": 5426,
      "ĠvdÃŃl": 5427,
      "ĠvmÅ¾ik": 5428,
      "Ġjh": 5429,
      "Ġcas": 5430,
      "Ġrh": 5431,
      "ĠdaÅ¥": 5432,
      "Ġvper": 5433,
      "Ġsvoj": 5434,
      "ĠvniÅ¾": 5435,
      "AXXABB": 5436,
      "ĠtevÅĻ": 5437,
      "ĠvÅ¾Ã¡r": 5438,
      "ĠvÅĪÃ¡": 5439,
      "Ġdm": 5440,
      "ĠpÃ©m": 5441,
      "Ġdik": 5442,
      "Ġbum": 5443,
      "ĠsmrÃ¡": 5444,
      "Ġsmlu": 5445,
      "ĠtÃ¡t": 5446,
      "ĠvÅ¾ha": 5447,
      "Ġhrn": 5448,
      "ĠsÅ¯l": 5449,
      "Ġschnou": 5450,
      "Ġsdce": 5451,
      "ĠplÃ©m": 5452,
      "Ġhma": 5453,
      "Ġztre": 5454,
      "Ġwe": 5455,
      "Ġmaj": 5456,
      "Ġvtvr": 5457,
      "ĠpÃ¡k": 5458,
      "ĠrÃ©v": 5459,
      "ĠÅ¡las": 5460,
      "ĠztrÃ¡t": 5461,
      "Ġspit": 5462,
      "up": 5463,
      "Ġdsk": 5464,
      "ĠslÃ½m": 5465,
      "ĠÅĻiÄı": 5466,
      "Ġgal": 5467,
      "Ġslez": 5468,
      "ĠÅ¡let": 5469,
      "ĠsbÅĻe": 5470,
      "Ġtret": 5471,
      "Ġgur": 5472,
      "Ġhmot": 5473,
      "ĠlÃ©zt": 5474,
      "Ã¡r": 5475,
      "Ġcli": 5476,
      "ĠkÅ¯r": 5477,
      "Ġfem": 5478,
      "Ġchav": 5479,
      "ĠÅ¡tka": 5480,
      "ĠÅ¡ov": 5481,
      "ĠvdeÅ¡": 5482,
      "Ġai": 5483,
      "ABABAA": 5484,
      "Ġsmla": 5485,
      "ĠÃºÄį": 5486,
      "Ġvstej": 5487,
      "ĠklÃŃÅĻ": 5488,
      "mur": 5489,
      "ĠvhoÅĻ": 5490,
      "Ġtric": 5491,
      "ĠcvrÄį": 5492,
      "Ġmzdu": 5493,
      "Ġzz": 5494,
      "ĠÄįme": 5495,
      "ĠpoÄı": 5496,
      "Ġlap": 5497,
      "Ġlaur": 5498,
      "ĠvzÅĪal": 5499,
      "Ġrach": 5500,
      "Ġcon": 5501,
      "Ġhyn": 5502,
      "Ġspov": 5503,
      "Ġzuj": 5504,
      "Ġshrou": 5505,
      "voz": 5506,
      "ĠspÅĻeÅ¾": 5507,
      "ĠÅĻkou": 5508,
      "Ġbob": 5509,
      "ĠÅĻic": 5510,
      "Ġsun": 5511,
      "Ġslok": 5512,
      "Ġhoust": 5513,
      "Ġkslo": 5514,
      "ĠktrÅ¯": 5515,
      "ĠvlÃŃÄį": 5516,
      "Ġfrak": 5517,
      "Ġbrouk": 5518,
      "ĠzchvÃ¡": 5519,
      "ĠsÃºc": 5520,
      "ĠstÅĻÃ¡s": 5521,
      "Ġchvost": 5522,
      "Ġski": 5523,
      "ĠmÃŃÄį": 5524,
      "Ġvsho": 5525,
      "ĠmlÃ¡Äı": 5526,
      "Ġtres": 5527,
      "ĠkÅĻti": 5528,
      "Ġvbrz": 5529,
      "ct": 5530,
      "ABCB": 5531,
      "Ġtas": 5532,
      "ĠvÅ¡p": 5533,
      "ĠmoÅĪ": 5534,
      "ĠspÅ¯": 5535,
      "ĠÄįiÅ¾": 5536,
      "ĠpÅĻih": 5537,
      "Ġvsr": 5538,
      "Ġbrach": 5539,
      "Ġdvr": 5540,
      "Ġslel": 5541,
      "ĠÅ¾Ã¡t": 5542,
      "Ġvdov": 5543,
      "ĠchtÃŃc": 5544,
      "ĠkÅĻt": 5545,
      "ĠvlÅ¯Å¾": 5546,
      "ĠvrÅ¯z": 5547,
      "ĠvjichÅ¾": 5548,
      "ĠchmÃ½": 5549,
      "ABCBAC": 5550,
      "bo": 5551,
      "Ġlne": 5552,
      "ĠÅ¾iÅ¥": 5553,
      "AABBXB": 5554,
      "Ġhum": 5555,
      "Ġvss": 5556,
      "ĠryÅ¡": 5557,
      "Ġstot": 5558,
      "ĠvleÄį": 5559,
      "ĠkpÃŃs": 5560,
      "ĠbrouÄį": 5561,
      "Ġzchla": 5562,
      "Ġvsed": 5563,
      "Ġbrys": 5564,
      "ĠÅ¾ÃŃk": 5565,
      "Ġsmil": 5566,
      "ĠvplÃ©": 5567,
      "Ġpul": 5568,
      "Ġblek": 5569,
      "ĠstvÃ½ch": 5570,
      "Ġnezv": 5571,
      "ĠdrÃ¡p": 5572,
      "ĠzrÃ¡t": 5573,
      "ĠÅ¡plou": 5574,
      "ĠÅ¡kod": 5575,
      "ĠblÃ½Å¡": 5576,
      "ĠbeÅĻ": 5577,
      "Ġtran": 5578,
      "ĠshnÄĽ": 5579,
      "Ġprus": 5580,
      "Ġvrum": 5581,
      "Ġzlit": 5582,
      "Ġrhyt": 5583,
      "Ġvzmu": 5584,
      "Ġbus": 5585,
      "ĠbaÅ¡": 5586,
      "ĠstÅĻeh": 5587,
      "Ġvchva": 5588,
      "ĠhÅĻiv": 5589,
      "Ġzcu": 5590,
      "Ã¤": 5591,
      "Ġnvi": 5592,
      "ĠtcÅ¯": 5593,
      "ĠsvÅ¡e": 5594,
      "Ġmeh": 5595,
      "ĠvÃ½r": 5596,
      "Ġbam": 5597,
      "Ġlum": 5598,
      "Ġhuj": 5599,
      "ĠvdÃ½m": 5600,
      "ĠkleÄį": 5601,
      "Ġchyl": 5602,
      "Ġvlep": 5603,
      "ĠvÅĻÃŃs": 5604,
      "Ġllen": 5605,
      "Ġcleh": 5606,
      "ĠschrÃ¡n": 5607,
      "Ġkf": 5608,
      "Ġlav": 5609,
      "ĠjÃŃÅĻ": 5610,
      "ĠtaÅ¡": 5611,
      "ĠmuÅ¥": 5612,
      "ĠpÅĻer": 5613,
      "ĠÅ¾ich": 5614,
      "Ġtruj": 5615,
      "ĠtÅĻas": 5616,
      "ĠzhyÅĪ": 5617,
      "ĠÃ¡t": 5618,
      "Ġlus": 5619,
      "Ġshled": 5620,
      "ĠtroÅ¡": 5621,
      "ĠklÅ¯": 5622,
      "ĠchÃ½n": 5623,
      "Ġsde": 5624,
      "ĠsÃ½c": 5625,
      "ĠdnÃŃm": 5626,
      "Ġvples": 5627,
      "ĠtnÃ½": 5628,
      "ĠÄįÃ¡l": 5629,
      "ĠsvÅ¯": 5630,
      "ĠtrÄį": 5631,
      "ĠbÃ¡Äį": 5632,
      "ĠplÃ½ch": 5633,
      "ĠstrasÅ¥": 5634,
      "Ġdlid": 5635,
      "ĠÅ¾ab": 5636,
      "ĠvzhlÃ©": 5637,
      "ĠvÄįlo": 5638,
      "Ġzchu": 5639,
      "Ġpliv": 5640,
      "ABXABX": 5641,
      "nÃ½ch": 5642,
      "ĠrÅ¾": 5643,
      "Ġvkar": 5644,
      "ĠzmÄĽk": 5645,
      "ĠÅ¡Å¯v": 5646,
      "ĠksluÅ¾": 5647,
      "ĠÅ¡te": 5648,
      "Ġprk": 5649,
      "Ġzhnu": 5650,
      "Ġksa": 5651,
      "ĠÅ¡lÃŃm": 5652,
      "ĠÅ¥uk": 5653,
      "ĠsvraÅ¡": 5654,
      "ĠsÅ¥a": 5655,
      "Å¡ÃŃ": 5656,
      "ĠÄįiÅ¥": 5657,
      "ĠstÃŃch": 5658,
      "Ġkrt": 5659,
      "Ġspoj": 5660,
      "Ġshl": 5661,
      "ĠnnÃŃk": 5662,
      "ĠhÅĻej": 5663,
      "Ġgis": 5664,
      "ĠtÅĻÃ¡st": 5665,
      "Ġskel": 5666,
      "ĠzÃ½m": 5667,
      "Ġtai": 5668,
      "ĠtouÅ¡": 5669,
      "ĠÄįÃ¡p": 5670,
      "Ġzchy": 5671,
      "ĠvplÃ¡Å¡Å¥": 5672,
      "Ġprinc": 5673,
      "Ġmul": 5674,
      "Ġsau": 5675,
      "Ġhouk": 5676,
      "ĠtÅĻej": 5677,
      "Ġzluk": 5678,
      "ĠdÃ³m": 5679,
      "Ġchmel": 5680,
      "ĠsbÃ¡z": 5681,
      "ABAXBX": 5682,
      "Ġpau": 5683,
      "ĠpÄĽÅ¡": 5684,
      "Ġres": 5685,
      "Ġzbr": 5686,
      "Ġstuj": 5687,
      "ĠdnÅ¯m": 5688,
      "ĠzluÄį": 5689,
      "Ġvmrak": 5690,
      "ĠvbÃ¡s": 5691,
      "Ġzast": 5692,
      "Ġzkni": 5693,
      "Ġstvy": 5694,
      "Ġhlod": 5695,
      "Ġspros": 5696,
      "ĠvhÃ¡j": 5697,
      "ĠtkvÄĽl": 5698,
      "ĠhoÅ¡": 5699,
      "Ġjic": 5700,
      "ABABBA": 5701,
      "ĠvÅ¡ad": 5702,
      "ĠfÄĽ": 5703,
      "Ġvzdou": 5704,
      "ĠrÃ½n": 5705,
      "ĠmnÄĽl": 5706,
      "ĠrouÅ¾": 5707,
      "Ġtlak": 5708,
      "Ġzcest": 5709,
      "Ġvklen": 5710,
      "Ġvpur": 5711,
      "Ġsov": 5712,
      "ĠkÅĻiÄį": 5713,
      "ĠkÅĻeÄį": 5714,
      "Ġvpan": 5715,
      "ĠstÅĻin": 5716,
      "ĠnÃŃÅ¥": 5717,
      "Ġmol": 5718,
      "Ġspar": 5719,
      "Ġkvel": 5720,
      "Ġvzav": 5721,
      "ĠdÅĻec": 5722,
      "Ġbert": 5723,
      "ĠÅ¡etÅĻ": 5724,
      "ĠknÃ©m": 5725,
      "ĠvhluÄį": 5726,
      "ĠvtvÅ¯j": 5727,
      "ĠfÃŃr": 5728,
      "ĠvvÄĽ": 5729,
      "Ġjec": 5730,
      "ĠpÃŃch": 5731,
      "ĠstÃ¡v": 5732,
      "Ġvdr": 5733,
      "AABAAB": 5734,
      "ĠmdlÃŃ": 5735,
      "Ġfes": 5736,
      "ĠbdÃŃm": 5737,
      "Ġvluz": 5738,
      "ĠzluÅ¡": 5739,
      "ĠvÃ¡Äį": 5740,
      "Ġsklem": 5741,
      "Ġvtla": 5742,
      "Ġstoh": 5743,
      "Ġvlad": 5744,
      "Ġvlil": 5745,
      "ĠstÅĻej": 5746,
      "Ġdlej": 5747,
      "ĠanÅ¥": 5748,
      "Ġslout": 5749,
      "ĠhnÄĽt": 5750,
      "Ġcym": 5751,
      "ĠchrlÃŃ": 5752,
      "Ġhold": 5753,
      "tÃ¡n": 5754,
      "ym": 5755,
      "ĠcÃ¡t": 5756,
      "ouÄį": 5757,
      "ĠdÃŃch": 5758,
      "Ġtval": 5759,
      "ÄıÃ¡": 5760,
      "Ġvdar": 5761,
      "Ġzlat": 5762,
      "ĠchvÃŃÅ¡": 5763,
      "Ġjuj": 5764,
      "Ġprout": 5765,
      "Ġvchla": 5766,
      "Ġbrun": 5767,
      "Ġxu": 5768,
      "ĠzprÃ¡v": 5769,
      "Ġkprav": 5770,
      "ĠtskÃ©": 5771,
      "Ġdc": 5772,
      "ĠstlÃŃ": 5773,
      "Ġsvle": 5774,
      "Ġdag": 5775,
      "ĠÄįÃŃs": 5776,
      "Ġvsvi": 5777,
      "Ġvtvou": 5778,
      "ĠdÃ½l": 5779,
      "ĠtvÃ¡ch": 5780,
      "Ġztad": 5781,
      "ĠÅ¡kra": 5782,
      "Ġjom": 5783,
      "ĠmdlÃ½ch": 5784,
      "lÅ¯": 5785,
      "ĠstiÅ¾": 5786,
      "Ġbun": 5787,
      "Ġsoch": 5788,
      "ĠvkÅ¯": 5789,
      "Ġvraj": 5790,
      "Ġpyl": 5791,
      "Ġspis": 5792,
      "Ġlymp": 5793,
      "ĠÅĻku": 5794,
      "ĠÅ¡prÃ½m": 5795,
      "ĠcÅ¾e": 5796,
      "Ġlot": 5797,
      "ĠchvÄĽv": 5798,
      "Ġchvy": 5799,
      "ĠnnosÅ¥": 5800,
      "ĠbdÃŃt": 5801,
      "ĠlhÃ¡t": 5802,
      "ĠvjÃŃÅ¾": 5803,
      "ev": 5804,
      "ĠkyÅ¾": 5805,
      "Ġspjat": 5806,
      "ĠlÃ¡l": 5807,
      "Ġplaz": 5808,
      "ĠzmÃ½": 5809,
      "Ġhrb": 5810,
      "Ġshu": 5811,
      "Ġschva": 5812,
      "Ġsrb": 5813,
      "Ġzbuj": 5814,
      "ĠzhvÄĽzd": 5815,
      "Ġjor": 5816,
      "Ġlab": 5817,
      "Ġskra": 5818,
      "ĠvsvÃ¡": 5819,
      "Ġvprud": 5820,
      "Ġslat": 5821,
      "Ġvklu": 5822,
      "Ġzmou": 5823,
      "ĠsdÃŃv": 5824,
      "ĠbÅĻad": 5825,
      "Ġbim": 5826,
      "Ġvklou": 5827,
      "Ġgou": 5828,
      "ĠhÃ½n": 5829,
      "ĠstvÅ¯r": 5830,
      "ĠblÃŃÄį": 5831,
      "Ġpravd": 5832,
      "Ġges": 5833,
      "Ġvsklo": 5834,
      "ĠzdÄĽt": 5835,
      "Ġvzmar": 5836,
      "Ġztma": 5837,
      "ĠvsmÃŃch": 5838,
      "ĠÅ¡van": 5839,
      "ĠhÃºt": 5840,
      "AXBBAX": 5841,
      "ĠnÄĽv": 5842,
      "ĠrosÅ¥": 5843,
      "Ġvul": 5844,
      "Ġryn": 5845,
      "ĠvÅ¾lu": 5846,
      "ĠslÃŃp": 5847,
      "ĠslÃŃch": 5848,
      "ĠchtÄĽls": 5849,
      "ĠvchÅ¯": 5850,
      "ĠÄıoun": 5851,
      "ĠzvÃŃd": 5852,
      "ĠpliÄį": 5853,
      "Ġvtrh": 5854,
      "ĠÄįtver": 5855,
      "Ġkha": 5856,
      "ĠboÅ¡": 5857,
      "Ġgh": 5858,
      "ĠbÅ¯Å¾": 5859,
      "Ġshe": 5860,
      "ĠsmyÄį": 5861,
      "ĠzvÃ¡Å¡": 5862,
      "ĠvpÅ¯t": 5863,
      "ĠÅ¡vec": 5864,
      "Ġcir": 5865,
      "ĠpaÅĪ": 5866,
      "ĠbÄĽn": 5867,
      "AAXAXA": 5868,
      "Ġklest": 5869,
      "ĠbÅĻez": 5870,
      "ĠÄįÃ¡k": 5871,
      "Ġcouv": 5872,
      "ĠÅ¡prÃ½": 5873,
      "Ġrro": 5874,
      "Ġkub": 5875,
      "Ġcot": 5876,
      "ÅĪu": 5877,
      "ĠvpÅĻÃ¡": 5878,
      "Ġred": 5879,
      "ĠzhlÃ©d": 5880,
      "ĠstrÃ¡z": 5881,
      "Ġpsan": 5882,
      "XABAXB": 5883,
      "Ġjiv": 5884,
      "ĠvÅ¡el": 5885,
      "ĠreÅ¾": 5886,
      "Ġhoup": 5887,
      "Ġvret": 5888,
      "ĠprÃ¡ch": 5889,
      "Ġklon": 5890,
      "Ġtrum": 5891,
      "ĠsjÃ¡": 5892,
      "vÃ¡l": 5893,
      "Ġlaj": 5894,
      "ĠdÃŃÄį": 5895,
      "Ġmav": 5896,
      "ĠÅĻest": 5897,
      "Ġzpar": 5898,
      "ĠbÃŃÄį": 5899,
      "ĠkÃ½n": 5900,
      "ĠztvÃ¡": 5901,
      "ĠpÅ¯st": 5902,
      "Ġfir": 5903,
      "ĠjÅ¯v": 5904,
      "Ġknouc": 5905,
      "Ġstlal": 5906,
      "Ġzkvet": 5907,
      "Ġryth": 5908,
      "ĠrdÄĽl": 5909,
      "Ġzvrh": 5910,
      "on": 5911,
      "Ġbvi": 5912,
      "ABCCB": 5913,
      "ĠÄįly": 5914,
      "Ġoas": 5915,
      "Ġdlal": 5916,
      "Ġzut": 5917,
      "Ġzhrou": 5918,
      "Ġvchvat": 5919,
      "ĠctnÃ¡": 5920,
      "ĠvlÃŃt": 5921,
      "Ġgot": 5922,
      "ĠzjÃŃ": 5923,
      "ĠÅ¡paÄį": 5924,
      "ĠkdÃŃv": 5925,
      "ABCCBA": 5926,
      "Ġul": 5927,
      "ĠlÃŃb": 5928,
      "Ġznu": 5929,
      "Ġchost": 5930,
      "Ġech": 5931,
      "Ġbrad": 5932,
      "ĠplÃ½m": 5933,
      "Ġsles": 5934,
      "ĠvzdÃ½": 5935,
      "ĠznaÄį": 5936,
      "ĠplyÅĪ": 5937,
      "ĠfÃ¡d": 5938,
      "Ġmhy": 5939,
      "25": 5940,
      "ta": 5941,
      "ĠjvÄĽ": 5942,
      "Ġpsk": 5943,
      "Ġsver": 5944,
      "ĠsÃ¡Å¡": 5945,
      "ĠtÅĻÃŃt": 5946,
      "Ġovz": 5947,
      "ĠvzplÃ¡t": 5948,
      "ĠtviÄį": 5949,
      "ĠzÄįa": 5950,
      "Ġtce": 5951,
      "Ġvep": 5952,
      "ĠdÄĽr": 5953,
      "ĠsmÃ½m": 5954,
      "AAAABB": 5955,
      "Ġslul": 5956,
      "ĠdÃ½n": 5957,
      "ĠvmrÃ¡": 5958,
      "ĠÅĪÅ¯m": 5959,
      "Ġbroj": 5960,
      "ĠÅ¡pe": 5961,
      "ĠÅ¡pl": 5962,
      "Ġkbe": 5963,
      "ĠdnÃŃch": 5964,
      "ĠzbuÄı": 5965,
      "ĠspleÅ¥": 5966,
      "ĠÅ¥Ã¡k": 5967,
      "Ġcert": 5968,
      "ĠjÃ³": 5969,
      "ĠcÃº": 5970,
      "ĠÄįich": 5971,
      "Ġvkme": 5972,
      "Ġzon": 5973,
      "ĠstrÅ¾": 5974,
      "Ġrit": 5975,
      "ĠÅ¥Å¯": 5976,
      "Ġchel": 5977,
      "Ġtby": 5978,
      "ky": 5979,
      "ĠzÅĻi": 5980,
      "ĠcÃŃp": 5981,
      "ĠraÅ¥": 5982,
      "ĠpÅĻez": 5983,
      "Ġzvem": 5984,
      "ĠhrsÅ¥": 5985,
      "ĠzhÅĻe": 5986,
      "ĠslÃŃt": 5987,
      "Ġsda": 5988,
      "ĠsbÄĽÅĻ": 5989,
      "Ġchvoj": 5990,
      "ĠÄįlÃ¡n": 5991,
      "Ġlnu": 5992,
      "Ġjep": 5993,
      "ABBABX": 5994,
      "ĠmaÅĻ": 5995,
      "ĠlÃŃr": 5996,
      "Ġzdor": 5997,
      "ĠpÅĻiÅ¡": 5998,
      "Ġpuj": 5999,
      "Ġslon": 6000,
      "ĠrÃ½Äį": 6001,
      "Ġmrl": 6002,
      "Ġsbur": 6003,
      "Ġskrou": 6004,
      "ĠlkÃ¡m": 6005,
      "Ġmstu": 6006,
      "Ġzmdlo": 6007,
      "Ġvsloup": 6008,
      "Ġveh": 6009,
      "ĠsptÃ¡": 6010,
      "ĠmÃ¡r": 6011,
      "ĠvÅ¾er": 6012,
      "Ġspos": 6013,
      "Ġzvoj": 6014,
      "ĠspÃŃm": 6015,
      "ĠzÄįes": 6016,
      "ĠtskÃ½ch": 6017,
      "ĠlpÄĽ": 6018,
      "Ġrop": 6019,
      "ĠsvÃ©st": 6020,
      "Ġsoh": 6021,
      "ĠrÃ½h": 6022,
      "ĠslÃ¡d": 6023,
      "ĠkloÅĪ": 6024,
      "Ġlent": 6025,
      "Ġvjem": 6026,
      "Ġvbol": 6027,
      "ĠvboÅ¾": 6028,
      "Ġvjis": 6029,
      "Ġvkrev": 6030,
      "Ġwi": 6031,
      "ĠctÄĽn": 6032,
      "ĠvsÃ¡z": 6033,
      "AXAXA": 6034,
      "Ġnij": 6035,
      "Ġzdla": 6036,
      "Ġvplu": 6037,
      "ĠÃºÅ¡": 6038,
      "Ġvdrob": 6039,
      "ĠtvÃ¡n": 6040,
      "Ġspon": 6041,
      "Ġksy": 6042,
      "ĠkÃ½ms": 6043,
      "ĠdrÃ¡b": 6044,
      "ĠsklÃ¡l": 6045,
      "Ġalp": 6046,
      "Ġstkvou": 6047,
      "Ġzkon": 6048,
      "hÅĻ": 6049,
      "ĠkÅ¡e": 6050,
      "ĠÄįr": 6051,
      "ĠÄįpÃŃ": 6052,
      "Ġmir": 6053,
      "Ġduk": 6054,
      "ĠmÄĽÅĪ": 6055,
      "Ġvzno": 6056,
      "Ġvdvo": 6057,
      "ĠsloÅ¾": 6058,
      "ĠtÅĻech": 6059,
      "ĠchvÃŃm": 6060,
      "Ġvzbo": 6061,
      "Ġkpom": 6062,
      "Ġsprav": 6063,
      "Ġmlej": 6064,
      "ACB": 6065,
      "ĠkaÅ¥": 6066,
      "Ġlor": 6067,
      "ĠtÃŃt": 6068,
      "Ġvyn": 6069,
      "Ġvyt": 6070,
      "Ġmac": 6071,
      "Ġtrech": 6072,
      "Ġklap": 6073,
      "ĠgrÃ¡": 6074,
      "Ġsvol": 6075,
      "Ġklin": 6076,
      "Ġkpi": 6077,
      "ĠÅ¡tu": 6078,
      "ABCACB": 6079,
      "ĠzÅ¾en": 6080,
      "ĠchÅĻtÃ¡n": 6081,
      "ĠbÃ³": 6082,
      "Ġtoi": 6083,
      "Ġvah": 6084,
      "ABBXAX": 6085,
      "ĠzÃŃd": 6086,
      "ĠvÅ¯v": 6087,
      "ĠknÄĽh": 6088,
      "Ġkpe": 6089,
      "Ġvtisk": 6090,
      "ĠstÅĻÃ¡b": 6091,
      "Ġrri": 6092,
      "Ġstlou": 6093,
      "ĠpaÅ¾": 6094,
      "ĠsvÄĽÄį": 6095,
      "ĠhouÄį": 6096,
      "ĠtÅĻÃŃc": 6097,
      "ĠÅ¡am": 6098,
      "ĠÅ¡ach": 6099,
      "ĠmÅĻeÅ¡": 6100,
      "Ġthen": 6101,
      "ĠvÅ¡im": 6102,
      "Ġmstou": 6103,
      "Ġclon": 6104,
      "ĠsdÄĽc": 6105,
      "Ġscvr": 6106,
      "Ġzvlast": 6107,
      "ĠdÅ¡tÃŃ": 6108,
      "Ġkdi": 6109,
      "ĠboÄį": 6110,
      "ĠÅĻeÅ¾": 6111,
      "Ġkvl": 6112,
      "Ġvmh": 6113,
      "Ġsliz": 6114,
      "Ġxem": 6115,
      "ĠvzmÃ¡": 6116,
      "Ġkjed": 6117,
      "ĠvmÃŃr": 6118,
      "ĠkÅ¡tic": 6119,
      "Ġjhem": 6120,
      "ĠÅ¡Ã¡l": 6121,
      "Ġjse": 6122,
      "ĠÅĻÃŃj": 6123,
      "ĠsoÅ¡": 6124,
      "ĠÄįaj": 6125,
      "Ġvzpur": 6126,
      "ĠvnÃŃz": 6127,
      "Ġvzho": 6128,
      "ĠkbÃŃ": 6129,
      "Ġvhoj": 6130,
      "Ġchrap": 6131,
      "ĠkrouÅ¾": 6132,
      "Ġvtmy": 6133,
      "AXBABX": 6134,
      "XAXXXA": 6135,
      "ĠhnÃŃ": 6136,
      "Ġvir": 6137,
      "ĠzdÅ¯": 6138,
      "ĠmÅ¯v": 6139,
      "Ġvpol": 6140,
      "Ġnals": 6141,
      "ĠhÅ¯d": 6142,
      "Ġchrou": 6143,
      "ĠÃŃm": 6144,
      "ber": 6145,
      "Ġbva": 6146,
      "ĠchÅĻÃŃ": 6147,
      "ĠzeÅ¡": 6148,
      "Ġzkli": 6149,
      "Ġvhrou": 6150,
      "ĠvbrÃ¡": 6151,
      "ĠdlÅ¯m": 6152,
      "ĠblÃŃn": 6153,
      "ĠschvÃ¡l": 6154,
      "Ġumr": 6155,
      "ĠkÅ¡ÃŃ": 6156,
      "ĠsvlaÄį": 6157,
      "ĠvpÄĽk": 6158,
      "ĠvcÃŃr": 6159,
      "Ġpnul": 6160,
      "ĠstlÃ½ch": 6161,
      "ĠdÃŃn": 6162,
      "Ġvsni": 6163,
      "ĠpÅĻÃŃÄį": 6164,
      "Ġvrz": 6165,
      "Ġbrz": 6166,
      "ĠvÅ¯l": 6167,
      "Ġfis": 6168,
      "Ġous": 6169,
      "ĠvcÃ¡": 6170,
      "ĠvdÃŃv": 6171,
      "ĠÅ¾nec": 6172,
      "ĠsjÃŃÅ¾": 6173,
      "Ġtno": 6174,
      "Ġjli": 6175,
      "ĠmlÃŃ": 6176,
      "Ġpet": 6177,
      "ĠtrÅ¾": 6178,
      "ĠjÃ¡ÅĻ": 6179,
      "ĠhyÅĪ": 6180,
      "ĠplaÅĪ": 6181,
      "Ġkvra": 6182,
      "Ġksvo": 6183,
      "ĠchrÃ¡n": 6184,
      "ĠÅ¾hÃ¡": 6185,
      "ĠblÃ½ch": 6186,
      "ĠchÅĻa": 6187,
      "ĠsaÄı": 6188,
      "ĠkrÃ½ch": 6189,
      "Ġvsti": 6190,
      "Ġstvr": 6191,
      "Ġzvel": 6192,
      "Ġvlez": 6193,
      "ĠÅ¡pet": 6194,
      "Ġvkost": 6195,
      "Ġkci": 6196,
      "Ġmlo": 6197,
      "Ã½z": 6198,
      "ABXX": 6199,
      "Ġsper": 6200,
      "ĠhlaÄı": 6201,
      "Ġkrz": 6202,
      "Ġvsle": 6203,
      "Ġbiv": 6204,
      "ĠstÅĻez": 6205,
      "Ġslin": 6206,
      "ĠÅ¡ust": 6207,
      "ĠstÅĻÃŃm": 6208,
      "ĠtrÅ¯v": 6209,
      "ĠtlÅ¯": 6210,
      "Ġgest": 6211,
      "ĠzkrÃ¡s": 6212,
      "Ġjrad": 6213,
      "ĠÅ¡Å¯m": 6214,
      "ĠÅ¡ma": 6215,
      "ĠkoÅĻ": 6216,
      "ĠmÃŃÅ¥": 6217,
      "ĠvdrÃ¡": 6218,
      "ĠvkvÃŃ": 6219,
      "Ġstuh": 6220,
      "Ġdlec": 6221,
      "Ġvzpu": 6222,
      "ĠtmÃ¡": 6223,
      "Ġtrut": 6224,
      "Ġschne": 6225,
      "Ġkple": 6226,
      "Ġvrop": 6227,
      "Ġshod": 6228,
      "Ġstlin": 6229,
      "ĠzmÃŃr": 6230,
      "Ġzmoh": 6231,
      "Ġhnizd": 6232,
      "Ġvhud": 6233,
      "ĠkchrÃ¡": 6234,
      "Ġvvz": 6235,
      "ju": 6236,
      "ku": 6237,
      "Ġtnou": 6238,
      "Ġcre": 6239,
      "Ġkoch": 6240,
      "Ġkdve": 6241,
      "ĠzeÅ¥": 6242,
      "Ġjaj": 6243,
      "Ġbom": 6244,
      "ĠzdÃ½": 6245,
      "ĠsÃŃk": 6246,
      "ĠkvÅ¡e": 6247,
      "Ġklop": 6248,
      "Ġskor": 6249,
      "Ġkryj": 6250,
      "Ġvjev": 6251,
      "Ġgerd": 6252,
      "ĠstkÃ¡": 6253,
      "Ġzkus": 6254,
      "ĠbÅĻich": 6255,
      "Ġzprv": 6256,
      "Ġkcha": 6257,
      "ĠsÄįa": 6258,
      "ĠvtÃ½l": 6259,
      "XAXXAX": 6260,
      "ĠrÅ¾Ã¡": 6261,
      "Ã¡s": 6262,
      "ĠllÃ¡": 6263,
      "ĠmÅ¡e": 6264,
      "ĠseÄı": 6265,
      "ĠhoÅĪ": 6266,
      "Ġnix": 6267,
      "ĠvÅ¡at": 6268,
      "ĠlÃŃs": 6269,
      "Ġzdna": 6270,
      "ĠtakÅĻ": 6271,
      "Ġprej": 6272,
      "ĠpuÄı": 6273,
      "Ġplan": 6274,
      "Ġztvo": 6275,
      "Ġschlad": 6276,
      "Ġvdus": 6277,
      "ĠÅ¾alm": 6278,
      "Ġspur": 6279,
      "ĠzkÃ¡z": 6280,
      "ĠflÃŃk": 6281,
      "XABX": 6282,
      "Ġcp": 6283,
      "ĠvÃ¡c": 6284,
      "ĠbuÅ¡": 6285,
      "ĠsÃ¡d": 6286,
      "Ġbrak": 6287,
      "ĠzmrÃ¡": 6288,
      "Ġgru": 6289,
      "ĠnebÅ¥": 6290,
      "Ġkpou": 6291,
      "Ġkti": 6292,
      "Ġmann": 6293,
      "Ġvkan": 6294,
      "ĠzniÄį": 6295,
      "Ġbrus": 6296,
      "ĠsbÃŃr": 6297,
      "ĠschÅ¯z": 6298,
      "XABXAB": 6299,
      "th": 6300,
      "ĠscÃŃ": 6301,
      "ĠÅ¾rÃ¡": 6302,
      "ĠÅ¡eÅ¥": 6303,
      "Ġraf": 6304,
      "Ġbrlo": 6305,
      "Ġzkor": 6306,
      "Ġvlem": 6307,
      "Ġvrov": 6308,
      "ĠplÃ©st": 6309,
      "Ġvluh": 6310,
      "AXAXAX": 6311,
      "ĠzÃ½ch": 6312,
      "ĠbÅĻa": 6313,
      "Ã©st": 6314,
      "Ġsvil": 6315,
      "Ġmid": 6316,
      "Ġprol": 6317,
      "Ġcop": 6318,
      "Ġgem": 6319,
      "ĠprÃ¡m": 6320,
      "ĠvÅĻesk": 6321,
      "AXAABB": 6322,
      "Ġtlan": 6323,
      "ĠzouÄį": 6324,
      "ĠkmÃ½m": 6325,
      "ĠÄıu": 6326,
      "ĠvÄįt": 6327,
      "Ġstka": 6328,
      "AABABX": 6329,
      "nÃ½m": 6330,
      "ĠtnÃ¡": 6331,
      "Ġpok": 6332,
      "ĠmÃ¡d": 6333,
      "Ġvps": 6334,
      "Ġvpal": 6335,
      "Ġfen": 6336,
      "Ġkvz": 6337,
      "ĠkraÅ¡": 6338,
      "ĠÅ¾ils": 6339,
      "ĠsblÃŃ": 6340,
      "ĠÅ¡lÃ©m": 6341,
      "ĠnnÄĽj": 6342,
      "ĠdÅĻek": 6343,
      "ĠstkvÄĽl": 6344,
      "Ġglic": 6345,
      "ĠzlÅ¯Å¾": 6346,
      "ĠzÅ¡ÃŃ": 6347,
      "Ġtne": 6348,
      "ÅĻem": 6349,
      "Ġnum": 6350,
      "ĠztÅĻe": 6351,
      "Ġvhvoz": 6352,
      "Ġmour": 6353,
      "Ġdlet": 6354,
      "Ġvils": 6355,
      "Ġdlost": 6356,
      "Ġkbu": 6357,
      "Ġznec": 6358,
      "Ġstliv": 6359,
      "ĠvstraÅ¡": 6360,
      "rÃ½": 6361,
      "Ġrry": 6362,
      "Ġsthe": 6363,
      "Ġchas": 6364,
      "ĠstraÅ¾": 6365,
      "ĠstrÅ¯j": 6366,
      "ĠtÅĻÃŃd": 6367,
      "ĠprÃ½s": 6368,
      "Ġknuv": 6369,
      "ĠÅ¡ot": 6370,
      "Ġvjih": 6371,
      "ĠvplÃ¡Å¡": 6372,
      "Ġkspa": 6373,
      "ĠvskrÃ¡ÅĪ": 6374,
      "ĠnÄĽh": 6375,
      "Ġtau": 6376,
      "ĠvÅ¡Å¥": 6377,
      "ĠÅ¡iv": 6378,
      "ĠvtÃ³": 6379,
      "Ġzper": 6380,
      "ĠkliÄį": 6381,
      "ĠtÅĻÃŃn": 6382,
      "ĠvneÅ¡": 6383,
      "ĠtluÅ¡": 6384,
      "ĠÄįti": 6385,
      "ĠvnÃ¡Å¡": 6386,
      "Ġvsmrt": 6387,
      "ĠvÅĻÃ¡": 6388,
      "Ġvve": 6389,
      "Ġkun": 6390,
      "Ġkda": 6391,
      "Ġskru": 6392,
      "ĠÄįÃŃr": 6393,
      "Ġsas": 6394,
      "ĠfÃ¡l": 6395,
      "Ġgla": 6396,
      "Ġdvy": 6397,
      "ĠlouÅ¡": 6398,
      "Ġbrej": 6399,
      "Ġrik": 6400,
      "ĠsdÃŃt": 6401,
      "ĠvloÄı": 6402,
      "ĠterÄį": 6403,
      "ĠkstÃ¡": 6404,
      "ĠrtuÅ¥": 6405,
      "ĠdvÃŃÅĻ": 6406,
      "Ġvco": 6407,
      "Ġler": 6408,
      "ĠnÃ¡r": 6409,
      "ĠvoÅĪ": 6410,
      "Ġdys": 6411,
      "AABBBB": 6412,
      "Ġsml": 6413,
      "ĠpiÅ¥": 6414,
      "ĠzhÃ½": 6415,
      "Ġpse": 6416,
      "Ġtmav": 6417,
      "Ġvstav": 6418,
      "ĠvÅĻÃŃÅ¡": 6419,
      "Ġzniv": 6420,
      "Ġzrud": 6421,
      "kal": 6422,
      "Ġkc": 6423,
      "Ġmnul": 6424,
      "Ġust": 6425,
      "Ġskni": 6426,
      "Ġpror": 6427,
      "Ġham": 6428,
      "ĠkÃ½ÅĻ": 6429,
      "ĠpÃ¡v": 6430,
      "Ġrouch": 6431,
      "ĠhluÅ¡": 6432,
      "Ġvnach": 6433,
      "ĠÄįuj": 6434,
      "ĠvmuÅ¾": 6435,
      "Ġzdych": 6436,
      "ĠchmÅ¯": 6437,
      "ĠflÃ³": 6438,
      "Ġhno": 6439,
      "ĠciÅ¥": 6440,
      "ĠbeÅ¾": 6441,
      "ĠmÃŃc": 6442,
      "Ġvut": 6443,
      "Ġksl": 6444,
      "Ġnils": 6445,
      "ĠknÃŃm": 6446,
      "Ġzles": 6447,
      "Ġvzed": 6448,
      "ĠzlÃŃh": 6449,
      "Ġsmej": 6450,
      "Ġskles": 6451,
      "Ġslits": 6452,
      "ĠÅ¥ov": 6453,
      "ĠzÅ¾eh": 6454,
      "ic": 6455,
      "ĠrÃ³": 6456,
      "ĠÅ¾s": 6457,
      "ABCBC": 6458,
      "XAAABB": 6459,
      "Ġdup": 6460,
      "Ġcil": 6461,
      "Ġvzat": 6462,
      "ĠtÃ¡r": 6463,
      "ĠtakÅ¾": 6464,
      "ĠprÃ½ch": 6465,
      "Ġtril": 6466,
      "ĠhÃ¡k": 6467,
      "ĠvbrÃ¡z": 6468,
      "Ġknez": 6469,
      "Ġcent": 6470,
      "Ġtlej": 6471,
      "Ġvliv": 6472,
      "ĠvsÃŃÅ¥": 6473,
      "ĠsÅ¾eh": 6474,
      "ĠjvÄĽr": 6475,
      "ABCBCA": 6476,
      "Ġtoh": 6477,
      "Ġkyj": 6478,
      "Ġsum": 6479,
      "Ġstov": 6480,
      "Ġdlas": 6481,
      "ĠdrÅ¥": 6482,
      "Ġztou": 6483,
      "ĠbÃ½k": 6484,
      "ĠkamÅ¾": 6485,
      "ĠktvÃ½m": 6486,
      "ĠsvÃ¡Å¡": 6487,
      "Ġvdom": 6488,
      "Ġsmet": 6489,
      "Ġvtrud": 6490,
      "Ġsfinx": 6491,
      "ĠÅ¡vÃ¡r": 6492,
      "ĠvzboÅ¾": 6493,
      "Ġtci": 6494,
      "ĠmnÃ¡": 6495,
      "Ġchnu": 6496,
      "Ġdop": 6497,
      "ABABXA": 6498,
      "ĠboÅĻ": 6499,
      "Ġvzu": 6500,
      "ĠbeÅĪ": 6501,
      "ĠraÄı": 6502,
      "ĠpÅĻeh": 6503,
      "lÃ¡d": 6504,
      "ĠzdÅĻe": 6505,
      "ĠvpÅĻi": 6506,
      "Ġziv": 6507,
      "Ġzot": 6508,
      "Ġsvan": 6509,
      "ĠvhlÃŃ": 6510,
      "Ġzhrd": 6511,
      "Ġshou": 6512,
      "Ġvzpa": 6513,
      "ĠvÅĻeÄį": 6514,
      "ĠbrÃ¡zd": 6515,
      "ĠsvÃ¡Å¾": 6516,
      "Ġzcho": 6517,
      "Ġzpout": 6518,
      "ĠdmÃ½": 6519,
      "Ġkoz": 6520,
      "Ġkad": 6521,
      "XAABBB": 6522,
      "Ġsplo": 6523,
      "Ġtakt": 6524,
      "Ġbac": 6525,
      "ĠbaÅ¥": 6526,
      "Ġodz": 6527,
      "ĠreÅ¡": 6528,
      "Ġlouk": 6529,
      "ĠzvÄĽn": 6530,
      "Ġoud": 6531,
      "Ġnevr": 6532,
      "ĠssÃ¡t": 6533,
      "ĠkÅ¾a": 6534,
      "Ġzac": 6535,
      "ĠloÅĪ": 6536,
      "Ġstam": 6537,
      "ĠÅ¾iÅ¡": 6538,
      "Ġstec": 6539,
      "ĠvdÃ©": 6540,
      "ĠrÃ½t": 6541,
      "ĠzveÅ¡": 6542,
      "ĠzvÄĽt": 6543,
      "ĠstÅĻÃŃÅ¡": 6544,
      "ĠkpÅ¯l": 6545,
      "ĠzÅĻels": 6546,
      "ĠÅ¡tval": 6547,
      "ĠvÅ¡ik": 6548,
      "ĠdÅ¡t": 6549,
      "po": 6550,
      "ABAABB": 6551,
      "ĠchÃ³r": 6552,
      "ĠroÅĪ": 6553,
      "Ġmum": 6554,
      "Ġvsh": 6555,
      "Ġbour": 6556,
      "Ġzbil": 6557,
      "Ġzkrou": 6558,
      "Ġsbou": 6559,
      "ĠstÅĻÃŃk": 6560,
      "ĠkzpÄĽ": 6561,
      "Ġfrau": 6562,
      "ĠstÅĻih": 6563,
      "ĠtnÃŃm": 6564,
      "ĠdbÃ¡t": 6565,
      "lil": 6566,
      "ĠsÄįi": 6567,
      "ĠclÃ¡": 6568,
      "ĠhosÅ¥": 6569,
      "ĠsvlÃŃ": 6570,
      "Ġkach": 6571,
      "ĠloÅ¥": 6572,
      "ĠmÄĽs": 6573,
      "ĠÅ¡ÃŃÄį": 6574,
      "Ġsim": 6575,
      "ĠsteÅ¡": 6576,
      "Ġdran": 6577,
      "ĠchyÅĪ": 6578,
      "Ġmoun": 6579,
      "ĠbÅ¯v": 6580,
      "ĠÄįÃŃms": 6581,
      "Ġzlep": 6582,
      "Ġsrst": 6583,
      "ĠÅ¡Ã¡n": 6584,
      "ĠkÅĻil": 6585,
      "ĠkviÄį": 6586,
      "ĠvzmÄĽ": 6587,
      "Ġvtri": 6588,
      "ĠvpyÅ¡": 6589,
      "26": 6590,
      "nem": 6591,
      "ĠdÃŃÅ¾": 6592,
      "ĠdÃ¡Å¥": 6593,
      "Ġzvat": 6594,
      "ĠÅ¡ij": 6595,
      "ĠluÅ¡": 6596,
      "ĠlÃ©n": 6597,
      "Ġsub": 6598,
      "ĠvÅ¯t": 6599,
      "Ġtils": 6600,
      "Ġzves": 6601,
      "ĠznÄĽt": 6602,
      "Ġsdlou": 6603,
      "Ġtkne": 6604,
      "ĠÅ¡to": 6605,
      "ĠzmÃŃn": 6606,
      "Ġsnub": 6607,
      "ĠÅĪuj": 6608,
      "ABXBAX": 6609,
      "ĠÅ¾Å¯v": 6610,
      "ĠvnuÄį": 6611,
      "ĠÅ¡Å¥av": 6612,
      "ĠsplÃ¡ch": 6613,
      "Ġzsrd": 6614,
      "Ġvtrp": 6615,
      "Ġsrub": 6616,
      "ĠÅ¾nÃŃch": 6617,
      "ĠvÅ¡Å¥ast": 6618,
      "ll": 6619,
      "war": 6620,
      "ĠmÅ¾ÃŃ": 6621,
      "ĠÅ¾rou": 6622,
      "Ġvzvu": 6623,
      "Ġbep": 6624,
      "ĠÅ¡iÅ¡": 6625,
      "Ġvsbo": 6626,
      "Ġpral": 6627,
      "Ġvlach": 6628,
      "ĠzbÅĻe": 6629,
      "ĠstyÄı": 6630,
      "ĠksnÄĽ": 6631,
      "ĠpÅ¯v": 6632,
      "ĠÅ¥at": 6633,
      "ĠdrosÅ¥": 6634,
      "Ġvjes": 6635,
      "ĠknÃŃr": 6636,
      "Ġzrod": 6637,
      "ĠvzkÅĻe": 6638,
      "XABBAA": 6639,
      "Ġchlil": 6640,
      "Ġzdum": 6641,
      "Ġerb": 6642,
      "ĠskvÃŃt": 6643,
      "ĠvÅ¾Ã¡d": 6644,
      "ÅĻil": 6645,
      "ĠvÅ¡k": 6646,
      "ĠvsnÃŃ": 6647,
      "Ġfli": 6648,
      "Ġvouz": 6649,
      "Ġpik": 6650,
      "ĠvbdÄĽ": 6651,
      "ĠzdÃ¡Å¡": 6652,
      "ĠksvÃ¡t": 6653,
      "ĠmÃ½Å¾": 6654,
      "ĠhlÅ¯": 6655,
      "Ġskan": 6656,
      "ĠzlÃŃk": 6657,
      "ĠctnosÅ¥": 6658,
      "ĠÄįtyr": 6659,
      "Ġvdav": 6660,
      "Ġschyl": 6661,
      "tno": 6662,
      "Å¡em": 6663,
      "Ġtop": 6664,
      "ĠjÃŃk": 6665,
      "Ġdesk": 6666,
      "ĠvzÅĻÃŃ": 6667,
      "Ġmach": 6668,
      "ĠspÃ½": 6669,
      "ĠÅĻÃŃn": 6670,
      "Ġprz": 6671,
      "Ġsur": 6672,
      "ĠzÃŃv": 6673,
      "Ġchab": 6674,
      "ĠgÃ¡t": 6675,
      "ĠztÅ¯": 6676,
      "ĠkliÄı": 6677,
      "Ġrous": 6678,
      "Ġstve": 6679,
      "ĠÅ¡kvÃ¡": 6680,
      "Ġznez": 6681,
      "ĠskÅĻip": 6682,
      "Ġkant": 6683,
      "Ġsplet": 6684,
      "Ġvzchop": 6685,
      "us": 6686,
      "Ġzst": 6687,
      "ĠbÅ¯j": 6688,
      "Ġstau": 6689,
      "ĠhaÄį": 6690,
      "ĠsoÅĪ": 6691,
      "Ġsloh": 6692,
      "ĠksÃŃ": 6693,
      "ĠÅ¡lal": 6694,
      "Ġpsem": 6695,
      "ĠvmoÅĻ": 6696,
      "Ġkpod": 6697,
      "ĠsdruÅ¾": 6698,
      "Ġsprch": 6699,
      "ĠsÄįlo": 6700,
      "ĠstÅĻil": 6701,
      "Ġragd": 6702,
      "Ġthic": 6703,
      "Ġbvo": 6704,
      "ĠkrÃ¡st": 6705,
      "AAXABB": 6706,
      "Ġvdny": 6707,
      "Ġzblu": 6708,
      "ĠstÅĻet": 6709,
      "Ġknej": 6710,
      "ĠstÅĻÃŃs": 6711,
      "Ġchri": 6712,
      "Ġdvet": 6713,
      "ĠchlÃ©v": 6714,
      "Ġfos": 6715,
      "Ġnerv": 6716,
      "Ġzjiz": 6717,
      "ĠsÅ¡ÃŃ": 6718,
      "ĠmodÅĻ": 6719,
      "Ġzbez": 6720,
      "pa": 6721,
      "Ġnest": 6722,
      "ĠÅ¡rou": 6723,
      "ĠvoÅ¡": 6724,
      "Ġmast": 6725,
      "ĠsiÅ¥": 6726,
      "ĠÅ¾ÃŃÅ¥": 6727,
      "ĠrÃ¡c": 6728,
      "Ġkouk": 6729,
      "Ġsyc": 6730,
      "Ġvsil": 6731,
      "Ġvklo": 6732,
      "Ġgno": 6733,
      "Ġstoun": 6734,
      "ĠschvÃŃ": 6735,
      "Ġvdum": 6736,
      "Ġharf": 6737,
      "Ġchlip": 6738,
      "ABAABA": 6739,
      "ĠkÄįlo": 6740,
      "ck": 6741,
      "ld": 6742,
      "Ġbak": 6743,
      "Å¡t": 6744,
      "ĠkuÄı": 6745,
      "ĠkÃ¡d": 6746,
      "ĠvsnÅ¯": 6747,
      "Ġvtro": 6748,
      "Ġpodv": 6749,
      "Ġvhym": 6750,
      "Ġkrod": 6751,
      "ĠstrÃ¡m": 6752,
      "ĠsmeÅ¥": 6753,
      "Ġrant": 6754,
      "Ġsejn": 6755,
      "Ġdolf": 6756,
      "ĠÅĻuj": 6757,
      "Ġkcho": 6758,
      "ĠÅ¡tÄĽrk": 6759,
      "Ġsbles": 6760,
      "ĠkdÃ¡": 6761,
      "ĠvÃŃÅ¥": 6762,
      "ĠkÃ¡v": 6763,
      "ĠkÃ¡Äį": 6764,
      "ĠzÃŃc": 6765,
      "ĠbÃŃch": 6766,
      "ĠlÃ½t": 6767,
      "Ġbrv": 6768,
      "ĠstÄĽr": 6769,
      "Ġtknou": 6770,
      "Ġskryj": 6771,
      "ĠÄįÃ¡sÅ¥": 6772,
      "ĠÅ¾luÅ¥": 6773,
      "ĠzruÄį": 6774,
      "Ġzkom": 6775,
      "Ġtlouk": 6776,
      "Ġchcy": 6777,
      "ĠvdruÅ¾": 6778,
      "Ġvskok": 6779,
      "ĠkÅĻÃ¡l": 6780,
      "ABXXAB": 6781,
      "Ġvex": 6782,
      "Ġhuk": 6783,
      "ĠvmlÃ½": 6784,
      "ĠtraÅ¥": 6785,
      "ĠtÅĻiÄį": 6786,
      "Ġkmy": 6787,
      "ĠhlÃ¡v": 6788,
      "ĠdlÃ¡n": 6789,
      "ĠlhÅ¯": 6790,
      "Ġvkrad": 6791,
      "Ġvspa": 6792,
      "ĠtnÃŃch": 6793,
      "ĠchlÃŃp": 6794,
      "ĠvpÄĽst": 6795,
      "AAABBB": 6796,
      "Ġdvrh": 6797,
      "ĠpokÅĻ": 6798,
      "ABAA": 6799,
      "ĠsvÅ¡ÃŃ": 6800,
      "Ġtaz": 6801,
      "ĠÅ¡eÅ¡": 6802,
      "ĠmeÅ¾": 6803,
      "ĠsprÃ¡z": 6804,
      "ĠsvÄĽn": 6805,
      "ĠÅ¡ip": 6806,
      "ĠvtÅĻ": 6807,
      "ĠhÃ¡l": 6808,
      "Ġvdal": 6809,
      "Ġstrah": 6810,
      "Ġvhan": 6811,
      "ĠstÄĽch": 6812,
      "ĠstÅĻes": 6813,
      "ĠsvÃŃc": 6814,
      "ĠsdrÃ¡": 6815,
      "Ġzliv": 6816,
      "Ġkuds": 6817,
      "Ġvloh": 6818,
      "Ġtrouch": 6819,
      "Ġfrank": 6820,
      "Ġxo": 6821,
      "Ġfum": 6822,
      "ĠbdÃŃÅ¡": 6823,
      "Ġlles": 6824,
      "ĠkvoÄį": 6825,
      "ĠkskÃ¡": 6826,
      "ĠÄįlen": 6827,
      "ABAAAB": 6828,
      "Ġpni": 6829,
      "Ġjezd": 6830,
      "Ġnac": 6831,
      "ABAAXB": 6832,
      "ĠÅ¾ec": 6833,
      "Ġjir": 6834,
      "Ġlyp": 6835,
      "Ġhust": 6836,
      "Ġvtrou": 6837,
      "Ġvpru": 6838,
      "ĠzkÅ¯": 6839,
      "Ġzvos": 6840,
      "Ġtrak": 6841,
      "ĠzdÃ¡m": 6842,
      "Ġzvet": 6843,
      "ĠpÅĻÃ¡n": 6844,
      "Ġkzou": 6845,
      "Ġya": 6846,
      "ĠzmÄĽst": 6847,
      "Ġtryl": 6848,
      "Ġplyn": 6849,
      "Ġzbran": 6850,
      "Ġztuh": 6851,
      "ĠvpÃ¡d": 6852,
      "Ġpsot": 6853,
      "ĠzblÃ¡z": 6854,
      "ĠvvÃ½": 6855,
      "Ġrut": 6856,
      "Ġhup": 6857,
      "ĠbÃŃc": 6858,
      "ĠbiÅ¥": 6859,
      "Ġzty": 6860,
      "Ġzust": 6861,
      "ĠtÅĻev": 6862,
      "Ġvhar": 6863,
      "ĠhÃ½l": 6864,
      "Ġvbal": 6865,
      "ĠzvoÅĪ": 6866,
      "ĠsnÄĽd": 6867,
      "Ġktu": 6868,
      "Ġcus": 6869,
      "Ġkba": 6870,
      "Ġknem": 6871,
      "ĠÄįÅ¯v": 6872,
      "Ġxa": 6873,
      "Ġllas": 6874,
      "ĠchlÃ¡d": 6875,
      "Ġfouk": 6876,
      "Ġvheb": 6877,
      "ĠvzpÄĽv": 6878,
      "zi": 6879,
      "Ġph": 6880,
      "Ġnand": 6881,
      "Ġlai": 6882,
      "Ġnoz": 6883,
      "Ġdud": 6884,
      "Ġzeh": 6885,
      "ĠÅ¾ÃŃÅ¾": 6886,
      "Ġsav": 6887,
      "ĠpÅĻiv": 6888,
      "ĠpÄĽÅ¥": 6889,
      "Ġhouc": 6890,
      "Ġtlas": 6891,
      "Ġksvat": 6892,
      "ĠkÃ©ms": 6893,
      "ĠÅ¾ov": 6894,
      "ĠkbrÃ¡": 6895,
      "Ġvzbro": 6896,
      "Ġkpoz": 6897,
      "Ġllan": 6898,
      "Ġsjich": 6899,
      "ĠkÅĻivd": 6900,
      "ĠkjÃŃ": 6901,
      "ĠÅ¥uÅ¡": 6902,
      "ĠfÃŃn": 6903,
      "Ġmlkl": 6904,
      "ĠszÃ¡": 6905,
      "ĠÅ¡tÃ¡ÅĻ": 6906,
      "ĠlvÅ¯": 6907,
      "ĠpÅ¡en": 6908,
      "vil": 6909,
      "ĠkÅĪu": 6910,
      "ĠÄįmou": 6911,
      "ĠvaÅ¡": 6912,
      "Ġroch": 6913,
      "Ġsleh": 6914,
      "ĠvraÅ¡": 6915,
      "Ġkslav": 6916,
      "ĠtÅĻem": 6917,
      "Ġkzlo": 6918,
      "Ġye": 6919,
      "Ġzjem": 6920,
      "Ġpnout": 6921,
      "nut": 6922,
      "vor": 6923,
      "ĠhÃ³": 6924,
      "Ġstle": 6925,
      "ĠÅ¡vÃ©": 6926,
      "Ġloj": 6927,
      "ĠcÃŃt": 6928,
      "Ġdim": 6929,
      "Ġsmar": 6930,
      "Ġkvar": 6931,
      "ĠzklÃ¡": 6932,
      "Ġdils": 6933,
      "ĠkpÅ¯": 6934,
      "ĠthÅ¯": 6935,
      "Ġcan": 6936,
      "ĠstruÅ¾": 6937,
      "ĠbÅĻÃŃk": 6938,
      "ĠvsÃŃch": 6939,
      "Ġlhou": 6940,
      "Ġvkry": 6941,
      "ĠvbÃŃd": 6942,
      "ĠstrÅ¯v": 6943,
      "ĠkchvÃ¡": 6944,
      "Ġskvrn": 6945,
      "dÄĽÄį": 6946,
      "Ġlvem": 6947,
      "Ġloh": 6948,
      "ĠvÅ¡ko": 6949,
      "ABBABA": 6950,
      "Ġtyl": 6951,
      "Ġzvin": 6952,
      "ĠpÃ¡st": 6953,
      "Ġbrk": 6954,
      "Ġzhle": 6955,
      "ĠvÅĻev": 6956,
      "Ġskop": 6957,
      "Ġkret": 6958,
      "ĠspÃ¡Äį": 6959,
      "ĠkveÅ¥": 6960,
      "Ġsdr": 6961,
      "ĠvzkvÃ©": 6962,
      "Ġfres": 6963,
      "ĠÅ¡lÃ¡ÅĻ": 6964,
      "ĠÅ¡kub": 6965,
      "XAXBAB": 6966,
      "ir": 6967,
      "ys": 6968,
      "ĠsÅĻas": 6969,
      "ĠzÅĻa": 6970,
      "ĠrÃŃ": 6971,
      "ĠzatÅĻ": 6972,
      "ĠnÃ¡Å¥": 6973,
      "Ġprod": 6974,
      "Ġii": 6975,
      "Ġsyk": 6976,
      "ĠvuÅ¡": 6977,
      "ĠvdneÅ¡": 6978,
      "Ġslup": 6979,
      "Ġhron": 6980,
      "ĠzkÅĻo": 6981,
      "ĠÅĪat": 6982,
      "ĠslÃŃk": 6983,
      "ĠspÃ¡s": 6984,
      "ĠzÅ¯v": 6985,
      "ĠvlÃŃk": 6986,
      "ĠtkÃ¡m": 6987,
      "Ġcaj": 6988,
      "ĠouÅ¡": 6989,
      "Ġzchlad": 6990,
      "ĠvseÄį": 6991,
      "ĠÅĻÃŃct": 6992,
      "Ġsprv": 6993,
      "Ġvblud": 6994,
      "Ġjl": 6995,
      "Ġjry": 6996,
      "Ġril": 6997,
      "Ġrhe": 6998,
      "Ġjech": 6999,
      "Å¾ou": 7000,
      "Ġkain": 7001,
      "ĠmaÅ¥": 7002,
      "ĠsmÃ©": 7003,
      "ĠprÃ©m": 7004,
      "Ġvsli": 7005,
      "ĠzbrÃ¡z": 7006,
      "Ġhral": 7007,
      "ĠvstÄĽ": 7008,
      "ĠzÅĻÃŃc": 7009,
      "ĠvjitÅĻ": 7010,
      "ĠblÃ©m": 7011,
      "ĠhviÄį": 7012,
      "ĠtskÃ½": 7013,
      "zdy": 7014,
      "Ġkk": 7015,
      "Ġmak": 7016,
      "ĠclÃ©": 7017,
      "rÃ¡m": 7018,
      "Ġkyv": 7019,
      "ĠskÅ¯": 7020,
      "Ġvoch": 7021,
      "Ġcom": 7022,
      "ĠÄįis": 7023,
      "ĠtÃ¡Äį": 7024,
      "ĠvtÃ©m": 7025,
      "Ġchuj": 7026,
      "ĠstÃ¡Å¡": 7027,
      "ĠspoÄį": 7028,
      "Ġztla": 7029,
      "Ġvman": 7030,
      "Ġstrej": 7031,
      "ĠmÄĽlÅ¥": 7032,
      "Ġkmr": 7033,
      "ĠÅ¡kor": 7034,
      "Ġvchmur": 7035,
      "Ġbils": 7036,
      "Ġchrp": 7037,
      "ĠvskÅĻÃŃ": 7038,
      "Ġschod": 7039,
      "Ġsjez": 7040,
      "Ġllon": 7041,
      "Ġfaun": 7042,
      "ĠÅ¯v": 7043,
      "Ġzvrat": 7044,
      "ĠvzmuÅ¾": 7045,
      "tin": 7046,
      "Ġhin": 7047,
      "ĠÅ¾ni": 7048,
      "ĠmaÅ¾": 7049,
      "ĠkrÃ¡ch": 7050,
      "Ġsteh": 7051,
      "ĠvdÃ¡t": 7052,
      "ABBAXA": 7053,
      "ĠzhrÅ¯": 7054,
      "Ġdnil": 7055,
      "Ġsmrk": 7056,
      "ĠvlÃ¡z": 7057,
      "Ġant": 7058,
      "ĠsnÃ¡ÅĻ": 7059,
      "Ġjdouc": 7060,
      "Ġvkos": 7061,
      "ĠdÅĻel": 7062,
      "ĠmniÅ¡": 7063,
      "Ġdotk": 7064,
      "ĠÄįteÅ¡": 7065,
      "ĠvstÅĻed": 7066,
      "Ġvcy": 7067,
      "ĠÅ¡ra": 7068,
      "ĠvztÄĽ": 7069,
      "Ġspil": 7070,
      "Ġsij": 7071,
      "ĠdyÅĪ": 7072,
      "liÅ¾": 7073,
      "ĠÅ¡iÅ¥": 7074,
      "ĠsuÅ¡": 7075,
      "Ġskri": 7076,
      "ĠschÅ¯d": 7077,
      "ĠÅĻÃ¡p": 7078,
      "Ġzpov": 7079,
      "ĠskrÃ¡s": 7080,
      "ĠzmÄĽt": 7081,
      "ĠshoÄı": 7082,
      "Ġtlech": 7083,
      "Ġlant": 7084,
      "ĠvspÃŃ": 7085,
      "Ġvspou": 7086,
      "ĠsprÃ¡s": 7087,
      "Ġsfer": 7088,
      "ĠzdÃŃch": 7089,
      "Ġthyr": 7090,
      "ĠshvÄĽzd": 7091,
      "Ġfred": 7092,
      "mÃŃ": 7093,
      "ĠllÅ¯": 7094,
      "Ġchnou": 7095,
      "Ġlif": 7096,
      "Ġuil": 7097,
      "Ġcor": 7098,
      "ĠbÄĽr": 7099,
      "Ġzvil": 7100,
      "ĠÅ¡ir": 7101,
      "Ġprask": 7102,
      "Ġgle": 7103,
      "Ġdrh": 7104,
      "ĠstÅĻeÅĪ": 7105,
      "Ġplev": 7106,
      "ĠklÃŃt": 7107,
      "ĠtÅĻtin": 7108,
      "ĠvchlÃ©": 7109,
      "ĠsÃ½p": 7110,
      "Ġfec": 7111,
      "ĠvpÅĻÃŃt": 7112,
      "ĠÅĻov": 7113,
      "ĠvlÃ©k": 7114,
      "Ġvmih": 7115,
      "Ġsklid": 7116,
      "ĠzÅ¾a": 7117,
      "ĠvtÃ¡h": 7118,
      "ĠdÅ¡ti": 7119,
      "hou": 7120,
      "zv": 7121,
      "Ġkdnu": 7122,
      "Ġskar": 7123,
      "Ġboch": 7124,
      "Ġvzvo": 7125,
      "Ġig": 7126,
      "ĠstÃŃt": 7127,
      "ĠsvÄĽÅĻ": 7128,
      "Ġshan": 7129,
      "Ġvzpi": 7130,
      "ĠblÃŃk": 7131,
      "ĠhrÃ¡Äį": 7132,
      "ĠhrÃ¡Å¡": 7133,
      "ĠstÅĻÃŃÅ¾": 7134,
      "ĠvchvÄĽ": 7135,
      "ĠvruÄį": 7136,
      "Ġthle": 7137,
      "Ġklouz": 7138,
      "ĠvÄįÃŃÅ¡": 7139,
      "Ġnr": 7140,
      "Ġsze": 7141,
      "Ġmzdy": 7142,
      "ĠoÅĪ": 7143,
      "Ġdeh": 7144,
      "Ġdez": 7145,
      "Ġskly": 7146,
      "Ġvych": 7147,
      "Ġtuc": 7148,
      "ĠÅ¡ÃŃt": 7149,
      "Ġrah": 7150,
      "ĠvdÅĻÃŃ": 7151,
      "Ġvlam": 7152,
      "Ġeo": 7153,
      "ĠkvÅ¡em": 7154,
      "ĠstÅĻeÅ¾": 7155,
      "ĠstvÃ©m": 7156,
      "Ġkryv": 7157,
      "ĠÅ¡plÃŃ": 7158,
      "ĠstruÄį": 7159,
      "ĠvskrÃ½": 7160,
      "ĠÅ¾hnu": 7161,
      "ĠÄįnÃŃt": 7162,
      "AXBAXB": 7163,
      "Ġsstou": 7164,
      "Ġjha": 7165,
      "ouch": 7166,
      "ÅĻbi": 7167,
      "ĠnaÅ¡": 7168,
      "ĠchÃ³": 7169,
      "ĠjiÅ¥": 7170,
      "Ġkuch": 7171,
      "Ġstaf": 7172,
      "AABBAB": 7173,
      "Ġsmno": 7174,
      "ĠvtÅĻÃŃ": 7175,
      "AAABAB": 7176,
      "Ġstur": 7177,
      "Ġvstes": 7178,
      "Ġmlas": 7179,
      "Ġstyk": 7180,
      "Ġvlej": 7181,
      "ĠdloÅ¾": 7182,
      "ĠÅĻils": 7183,
      "Ġssrd": 7184,
      "ĠvraÅ¾d": 7185,
      "ĠÄįov": 7186,
      "Ġhnis": 7187,
      "Ġksko": 7188,
      "ĠznÄĽjÅ¾": 7189,
      "ĠpnÃŃ": 7190,
      "ĠÅ¾vÃ½": 7191,
      "Ġchne": 7192,
      "Ġlij": 7193,
      "ĠmoÅ¡": 7194,
      "ĠpÃŃn": 7195,
      "ĠbÃŃÅĻ": 7196,
      "ĠÃºl": 7197,
      "ĠmÃ©r": 7198,
      "Ġef": 7199,
      "Ġspoz": 7200,
      "ĠstÅĻep": 7201,
      "ĠznÃ¡Å¥": 7202,
      "Ġspan": 7203,
      "ĠmÃ½t": 7204,
      "Ġvchmu": 7205,
      "Ġfel": 7206,
      "ĠssvÃ½m": 7207,
      "Ġvsvor": 7208,
      "ĠzdÄĽl": 7209,
      "XABABA": 7210,
      "Ġvklet": 7211,
      "ĠmÃ³d": 7212,
      "ĠblÅ¯v": 7213,
      "ĠjÃº": 7214,
      "ĠzÅĻas": 7215,
      "Ġsvrou": 7216,
      "Ġvest": 7217,
      "XAABBA": 7218,
      "ĠslÃº": 7219,
      "ĠdeÅ¥": 7220,
      "ĠÄįep": 7221,
      "XAXAAX": 7222,
      "ĠpÅĻÃŃj": 7223,
      "Ġzraj": 7224,
      "Ġvkva": 7225,
      "Ġzbru": 7226,
      "Ġzyv": 7227,
      "Ġmrk": 7228,
      "Ġshud": 7229,
      "Ġtrost": 7230,
      "XXAAAX": 7231,
      "ĠvzÃ¡Å¡": 7232,
      "ĠkzÃ¡m": 7233,
      "Ġchals": 7234,
      "Ġdved": 7235,
      "Ġvlov": 7236,
      "ĠÅ¡ta": 7237,
      "ĠvÅĻÃŃm": 7238,
      "Ġgun": 7239,
      "Ġxy": 7240,
      "ĠkÃºs": 7241,
      "Ġcvik": 7242,
      "ĠzmlÃ¡d": 7243,
      "ĠÅ¡vÃ¡b": 7244,
      "Ġnven": 7245,
      "ĠvmhÃ¡ch": 7246,
      "ĠÅ¾hÃ¡ÅĻ": 7247,
      "ĠdÃ¡c": 7248,
      "Ġvzas": 7249,
      "Ġrai": 7250,
      "ĠÅ¾ÃŃÄį": 7251,
      "ĠiÃŃ": 7252,
      "ĠmÃŃl": 7253,
      "ĠzvÃ©": 7254,
      "ÅĪat": 7255,
      "ĠÅĻid": 7256,
      "ĠvkrÅ¯": 7257,
      "Ġztru": 7258,
      "Ġklis": 7259,
      "Ġstrp": 7260,
      "Ġpys": 7261,
      "Ġklost": 7262,
      "Ġvros": 7263,
      "Ġvkam": 7264,
      "ĠÅ¡tvou": 7265,
      "ĠzÃ½s": 7266,
      "ĠzlÃŃÄį": 7267,
      "ĠzjÃ¡": 7268,
      "Ġhryz": 7269,
      "Ġmhla": 7270,
      "ĠzbÄĽÅĻ": 7271,
      "Ġbvaz": 7272,
      "ĠdÅ¡tÃ½": 7273,
      "rt": 7274,
      "ĠmÅ¾ou": 7275,
      "Ġaet": 7276,
      "Ġdow": 7277,
      "Ġvau": 7278,
      "Ġdai": 7279,
      "ĠtyÅ¥": 7280,
      "Ġhab": 7281,
      "ĠhaÅ¡": 7282,
      "Äıa": 7283,
      "Ġbrah": 7284,
      "ĠgÃ¶": 7285,
      "Ġdraz": 7286,
      "ĠprÃ¡Å¡": 7287,
      "Ġbrech": 7288,
      "Ġvbro": 7289,
      "ĠpsÃ¡n": 7290,
      "ĠdrÃ¡n": 7291,
      "ĠÄįemÅ¾": 7292,
      "ĠÅ¾ul": 7293,
      "Ġvzbra": 7294,
      "Ġzbur": 7295,
      "Ġvpros": 7296,
      "ĠkrÃ½v": 7297,
      "Ġkstra": 7298,
      "ĠkstrÃ¡": 7299,
      "ĠvrÅ¯Å¾": 7300,
      "ĠzmuÅ¾": 7301,
      "Ġshroz": 7302,
      "Ġfric": 7303,
      "ĠrtÃŃk": 7304,
      "Ġvga": 7305,
      "ĠvkÅĻÃŃÅ¾": 7306,
      "ĠÅĻkouc": 7307,
      "ĠkÅĻtu": 7308,
      "ĠjradÅ¡": 7309,
      "Ġnrich": 7310,
      "Ġtwar": 7311,
      "Ġllou": 7312,
      "ĠmÅ¾e": 7313,
      "ĠÅ¾eÅ¾": 7314,
      "Ġloch": 7315,
      "ĠmÄĽÄı": 7316,
      "Ġlys": 7317,
      "Ġie": 7318,
      "ĠmÃŃz": 7319,
      "ĠbaÅĻ": 7320,
      "Ġbard": 7321,
      "Ġsyr": 7322,
      "Ġzpan": 7323,
      "Ġsost": 7324,
      "ĠzbrÃ¡": 7325,
      "Ġvzdmu": 7326,
      "ĠbÅĻev": 7327,
      "ĠpleÅ¡": 7328,
      "Ġkzla": 7329,
      "Ġsrou": 7330,
      "ĠÄįtla": 7331,
      "Ġkhr": 7332,
      "ĠÅ¡tkal": 7333,
      "Ġzchat": 7334,
      "ĠvzplaÅĪ": 7335,
      "Ġvsoud": 7336,
      "Ġkjich": 7337,
      "Ġmhu": 7338,
      "Ġkvoj": 7339,
      "Ġvbit": 7340,
      "ĠshlÃŃd": 7341,
      "ĠrvaÄį": 7342,
      "Ġflex": 7343,
      "Ġpten": 7344,
      "Ġsblan": 7345,
      "Ġvdrs": 7346,
      "Ġzmdlob": 7347,
      "im": 7348,
      "un": 7349,
      "Ġchmou": 7350,
      "ĠÅĻvÃ¡t": 7351,
      "Ġlisk": 7352,
      "rÃ¡t": 7353,
      "Ġkdvo": 7354,
      "Ġnoun": 7355,
      "Ġtvem": 7356,
      "Ġbuv": 7357,
      "ĠsvÄĽc": 7358,
      "Ġhul": 7359,
      "ĠkdyÅ¾s": 7360,
      "Ġvsmu": 7361,
      "ĠjÃ¡r": 7362,
      "Ġvply": 7363,
      "Ġzprou": 7364,
      "ĠpÃ¡Äį": 7365,
      "Ġed": 7366,
      "Ġzmet": 7367,
      "ĠgÃ³": 7368,
      "Ġvbor": 7369,
      "ĠvlÃ¡n": 7370,
      "ĠvlÃ¡st": 7371,
      "ĠstÅĻÃŃd": 7372,
      "ĠstÅĻÃŃt": 7373,
      "ĠÄıo": 7374,
      "ĠchouÄį": 7375,
      "Ġvkob": 7376,
      "Ġvstan": 7377,
      "ĠvÄįin": 7378,
      "Ġknil": 7379,
      "Ġklus": 7380,
      "Ġsrost": 7381,
      "Ġzbit": 7382,
      "Ġtba": 7383,
      "Ġpstru": 7384,
      "vÅ¯r": 7385,
      "Ġstak": 7386,
      "Ġmich": 7387,
      "ĠslÃ©m": 7388,
      "ĠmuÄį": 7389,
      "Ġtuk": 7390,
      "Ġruf": 7391,
      "ĠjÃ¡n": 7392,
      "Ġdoup": 7393,
      "Ġzke": 7394,
      "Ġdls": 7395,
      "ĠzlosÅ¥": 7396,
      "Ġpils": 7397,
      "Ġkpros": 7398,
      "Ġhrub": 7399,
      "ĠtrÃ¡k": 7400,
      "ĠklÃ¡t": 7401,
      "Ġvnov": 7402,
      "Ġjon": 7403,
      "ĠsrsÅ¥": 7404,
      "Ġcam": 7405,
      "Ġkbi": 7406,
      "Ġzruch": 7407,
      "ĠvsnÄĽÅ¾": 7408,
      "Ġstmou": 7409,
      "Ġag": 7410,
      "Ġap": 7411,
      "ĠÅ¡lÃ½m": 7412,
      "Ġvzna": 7413,
      "Ġslam": 7414,
      "ĠfÃ½": 7415,
      "Ġec": 7416,
      "Ġvpom": 7417,
      "Ġscha": 7418,
      "Ġschle": 7419,
      "Ġkplu": 7420,
      "ĠÅ¡pal": 7421,
      "Ġfic": 7422,
      "ĠvÃºt": 7423,
      "Ġkhe": 7424,
      "ĠkhÅĻÃŃ": 7425,
      "ĠbÅĻÃŃm": 7426,
      "Ġssy": 7427,
      "Ġtroup": 7428,
      "Ġfyr": 7429,
      "Ġvtre": 7430,
      "ĠzÅ¾u": 7431,
      "Ġsdiv": 7432,
      "XAXBBA": 7433,
      "ĠvÅ¡pi": 7434,
      "ĠvvÄĽÄį": 7435,
      "mÃ©": 7436,
      "ĠcÅ¾": 7437,
      "ÅĻu": 7438,
      "ĠÄįtÄĽ": 7439,
      "ĠÅĻal": 7440,
      "Ġted": 7441,
      "rÃ¡d": 7442,
      "ĠniÅ¡Å¥": 7443,
      "Ġdun": 7444,
      "Ġvoc": 7445,
      "ĠvoÄį": 7446,
      "Ġpai": 7447,
      "ĠboÄı": 7448,
      "ĠsmlÃ¡": 7449,
      "ĠvsÃ¡l": 7450,
      "Ġznou": 7451,
      "ĠzÃŃn": 7452,
      "ĠtamÅ¥": 7453,
      "ĠsÃ¡r": 7454,
      "Ġvkyt": 7455,
      "ĠgÅĻÃŃ": 7456,
      "ĠzhlÃ©": 7457,
      "ĠbÅĻeÅ¾": 7458,
      "ĠÄįÃŃmÅ¾": 7459,
      "ĠtÅĻo": 7460,
      "Ġkzb": 7461,
      "Ġmde": 7462,
      "ĠnÄĽls": 7463,
      "ĠbÅĻÃŃÅ¡": 7464,
      "ĠvplÃ¡ÅĪ": 7465,
      "Ġsprost": 7466,
      "Ġsfa": 7467,
      "ĠchÅĻic": 7468,
      "ĠzrÅ¯z": 7469,
      "ĠzkÅĻik": 7470,
      "ĠÅ¡tej": 7471,
      "ĠsvÅ¡ÃŃm": 7472,
      "ĠtÃº": 7473,
      "Ġdch": 7474,
      "Ġroic": 7475,
      "ĠkdÃ¡l": 7476,
      "ĠÅ¡ÃŃr": 7477,
      "ĠspÅ¯d": 7478,
      "ĠÅĻÃŃp": 7479,
      "ĠzkvÄĽt": 7480,
      "Ġstrost": 7481,
      "ĠkroÅ¥": 7482,
      "ĠsnÃŃc": 7483,
      "ĠvÃŃmÅ¥": 7484,
      "Ġknes": 7485,
      "Ġzpol": 7486,
      "ĠpÃ½t": 7487,
      "ĠzvÃŃm": 7488,
      "ĠvzklÃŃ": 7489,
      "ĠsÃ½Å¡": 7490,
      "AAXAXX": 7491,
      "Ġhmat": 7492,
      "ĠsÄįel": 7493,
      "Ġzjis": 7494,
      "Ġvcir": 7495,
      "Ġtvic": 7496,
      "Ġchrup": 7497,
      "ĠzkvÃ©st": 7498,
      "Ġzfran": 7499,
      "Ġnymf": 7500,
      "Ġvklub": 7501,
      "Ġnra": 7502,
      "ĠvÅĻad": 7503,
      "ĠneÅ¥": 7504,
      "ĠnoÅ¥": 7505,
      "ĠdÃŃr": 7506,
      "ĠdÃ¡s": 7507,
      "Ġstaj": 7508,
      "ĠstÃŃk": 7509,
      "Ġzvar": 7510,
      "Ġvsna": 7511,
      "ĠpraÄı": 7512,
      "ĠpÅĻÃŃst": 7513,
      "Ġgju": 7514,
      "Ġzkme": 7515,
      "ĠrÃ½s": 7516,
      "skÃ©": 7517,
      "Ġtrus": 7518,
      "ĠÅ¥ou": 7519,
      "ĠklÃŃb": 7520,
      "ĠhlÃŃÅĻ": 7521,
      "Ġvchat": 7522,
      "Ġyo": 7523,
      "Ġzmok": 7524,
      "Ġgran": 7525,
      "ĠskÅĻÃŃn": 7526,
      "Ġzhyz": 7527,
      "Ġchlup": 7528,
      "ĠkÅĻtÃŃ": 7529,
      "Ġkis": 7530,
      "Ġskliz": 7531,
      "ĠzkÅĻiÅ¡": 7532,
      "ĠchmÃº": 7533,
      "Ġtbu": 7534,
      "Ġvhed": 7535,
      "Ġzknih": 7536,
      "Ġvf": 7537,
      "ĠstÅĻa": 7538,
      "ĠÅ¾le": 7539,
      "ĠÅĻvÃ¡": 7540,
      "Ġtvil": 7541,
      "ĠspÃ©": 7542,
      "ĠÅ¾ic": 7543,
      "ĠvÅ¡ep": 7544,
      "Ġsyv": 7545,
      "ĠzpouÅ¡": 7546,
      "Ġhyl": 7547,
      "ĠÃºd": 7548,
      "Ġtrar": 7549,
      "ĠshÅĻÃŃ": 7550,
      "Ġdloud": 7551,
      "Ġtrov": 7552,
      "ĠÅ¡tÄĽk": 7553,
      "ĠbÅĻed": 7554,
      "ĠsmÄĽt": 7555,
      "Ġplej": 7556,
      "ĠÄįils": 7557,
      "ĠhrÅ¯Å¾": 7558,
      "Ġfix": 7559,
      "ĠvÄįar": 7560,
      "Ġsmyl": 7561,
      "ĠsÃºz": 7562,
      "ĠxÃŃ": 7563,
      "ĠsrÃ¡Å¾": 7564,
      "Ġvctno": 7565,
      "Ġakt": 7566,
      "Ġchrop": 7567,
      "ĠvsnÃŃh": 7568,
      "Ġdky": 7569,
      "Ġllem": 7570,
      "ĠmÅĪ": 7571,
      "ĠÅ¾re": 7572,
      "Ġdoh": 7573,
      "Ġdet": 7574,
      "ĠvÃŃl": 7575,
      "Ġich": 7576,
      "Ġist": 7577,
      "ĠhaÅĪ": 7578,
      "ĠtÃ¡k": 7579,
      "Ġvur": 7580,
      "Ġvdne": 7581,
      "Ġvdve": 7582,
      "ABBAXB": 7583,
      "ĠsleÅ¥": 7584,
      "Ġstrof": 7585,
      "ĠbÅĻesk": 7586,
      "Ġsvic": 7587,
      "ĠkpÄĽ": 7588,
      "ĠÅĻÃ¡b": 7589,
      "Ġpsu": 7590,
      "Ġvju": 7591,
      "Ġznoz": 7592,
      "ĠctnÃ½ch": 7593,
      "ĠÄįems": 7594,
      "Ġzjar": 7595,
      "ĠdbÃ¡m": 7596,
      "Ġvmet": 7597,
      "ĠfÃŃk": 7598,
      "ĠtkÃ¡Å¡": 7599,
      "ĠstlÃ¡t": 7600,
      "ĠcÃ©v": 7601,
      "Ġkhan": 7602,
      "Ġtme": 7603,
      "ĠtnÃ½ch": 7604,
      "Ġdz": 7605,
      "Ġjro": 7606,
      "ĠrÅ¾e": 7607,
      "ĠnÃŃÅĻ": 7608,
      "Ġtest": 7609,
      "ĠnoÅĻ": 7610,
      "AABBBA": 7611,
      "Ġzdmu": 7612,
      "Ġzdvou": 7613,
      "luz": 7614,
      "Ġbezv": 7615,
      "Ġdven": 7616,
      "Ġblas": 7617,
      "Ġblat": 7618,
      "ĠÅ¾Ã¡c": 7619,
      "Ġslic": 7620,
      "Ġrim": 7621,
      "Ġhls": 7622,
      "ĠstÃ½n": 7623,
      "Ġfik": 7624,
      "Ġtryz": 7625,
      "Ġthem": 7626,
      "AXXXAX": 7627,
      "Ġvkol": 7628,
      "Ġblom": 7629,
      "Ġtlit": 7630,
      "Ġbdi": 7631,
      "ĠzchÃ½": 7632,
      "ĠfÃ¡ÅĻ": 7633,
      "Ġchlit": 7634,
      "ĠzprÃ¡ch": 7635,
      "Ġtloust": 7636,
      "XABABB": 7637,
      "ĠsdÄĽs": 7638,
      "ĠvbÃ¡j": 7639,
      "Ġthos": 7640,
      "ĠsÄįÃŃm": 7641,
      "ĠrvÃ¡n": 7642,
      "ĠlÅ¾eÅ¡": 7643,
      "ĠÅ¾neÄį": 7644,
      "yn": 7645,
      "Ġvvo": 7646,
      "Ġvvy": 7647,
      "Ġtc": 7648,
      "Ġtnu": 7649,
      "Ġlvy": 7650,
      "Ġmber": 7651,
      "Ġcra": 7652,
      "ĠÄįpa": 7653,
      "lech": 7654,
      "Ġnok": 7655,
      "Ġrup": 7656,
      "Ġvik": 7657,
      "ĠvÅ¡eÅĻ": 7658,
      "ĠstÃŃh": 7659,
      "ĠpÅĻit": 7660,
      "ĠvÅ¾u": 7661,
      "ĠvrÃ¡m": 7662,
      "Ġvpoh": 7663,
      "Ġfac": 7664,
      "Ġbrost": 7665,
      "Ġsdnem": 7666,
      "ĠhlouÄį": 7667,
      "ĠÅĪan": 7668,
      "ĠtkÃ¡t": 7669,
      "Ġvrub": 7670,
      "Ġkbou": 7671,
      "XABBBA": 7672,
      "ĠskÅĻÃŃp": 7673,
      "Ġvryb": 7674,
      "Ġllis": 7675,
      "ĠtlÃŃt": 7676,
      "Ġgry": 7677,
      "AAAAAA": 7678,
      "Ġkblan": 7679,
      "Ġsbez": 7680,
      "ĠztÅĻeÅ¡": 7681,
      "ĠsÃ©m": 7682,
      "Ġjla": 7683,
      "Ġcal": 7684,
      "Ġvaj": 7685,
      "Ġun": 7686,
      "Ġsplu": 7687,
      "Ġvig": 7688,
      "ĠstiÅ¡": 7689,
      "ĠtyÅĪ": 7690,
      "AABBXA": 7691,
      "ĠvsÃ½": 7692,
      "ĠjÃ¡Äį": 7693,
      "Ġfak": 7694,
      "ĠklaÄı": 7695,
      "ĠkeÅ¡": 7696,
      "Ġzuz": 7697,
      "Ġvbur": 7698,
      "ĠvÅĻed": 7699,
      "AXAAXX": 7700,
      "ĠdÅĻÃŃk": 7701,
      "ĠdlÃŃk": 7702,
      "ĠpÃ½ÅĻ": 7703,
      "ĠkbÄĽ": 7704,
      "ĠzvaÅ¾": 7705,
      "Ġzkap": 7706,
      "ĠlkÃ¡Å¡": 7707,
      "Ġkvit": 7708,
      "ĠsdÄĽl": 7709,
      "ĠmdlÃ©m": 7710,
      "Ġzfa": 7711,
      "ĠvbÅĻeh": 7712,
      "Ġtchy": 7713,
      "ĠtchÃ¡n": 7714,
      "ĠÅ¾by": 7715,
      "Ġghis": 7716,
      "Ġvkmen": 7717,
      "ĠÅ¾rout": 7718,
      "Ġvychr": 7719,
      "ĠrÃº": 7720,
      "ĠnÄĽÅ¥": 7721,
      "Ġmik": 7722,
      "Ġveb": 7723,
      "ĠvÃ¡Å¥": 7724,
      "Ġvov": 7725,
      "ĠrÃ¡s": 7726,
      "ĠzdÅĻi": 7727,
      "Ġlun": 7728,
      "Ġvpil": 7729,
      "ĠsuÅĪ": 7730,
      "ĠsvaÅ¾": 7731,
      "Ġobzv": 7732,
      "ĠzÅĻÃŃÅ¥": 7733,
      "Ġtlach": 7734,
      "XXAAXA": 7735,
      "ĠtrÃ¡ch": 7736,
      "Ġthur": 7737,
      "Ġblin": 7738,
      "ĠhliÄį": 7739,
      "ĠsÃ½Äį": 7740,
      "Ġtlel": 7741,
      "ĠÅ¾dyc": 7742,
      "Ġvsma": 7743,
      "Ġmont": 7744,
      "Ġfun": 7745,
      "Ġsjem": 7746,
      "Ġkment": 7747,
      "ĠvtvÅ¯r": 7748,
      "ĠzkrÄį": 7749,
      "Ġzevs": 7750,
      "Ġmlet": 7751,
      "ĠshÃ½b": 7752,
      "Ġvvla": 7753,
      "ĠzpÅĻed": 7754,
      "AABABB": 7755,
      "ĠvhouÅ¡Å¥": 7756,
      "Ġdmy": 7757,
      "ĠÅ¾ev": 7758,
      "ĠloÅ¡": 7759,
      "Ġsps": 7760,
      "Ġdyk": 7761,
      "Ġit": 7762,
      "ĠmÃŃs": 7763,
      "Ġvsch": 7764,
      "ĠzraÄı": 7765,
      "ĠdÅĻÃŃn": 7766,
      "ĠslÃŃc": 7767,
      "Ġusch": 7768,
      "ĠklÃŃc": 7769,
      "Ġknit": 7770,
      "Ġctnou": 7771,
      "Ġchrli": 7772,
      "Ġstruh": 7773,
      "ĠrtÅ¯v": 7774,
      "ĠnauÄį": 7775,
      "ĠgrÃ©": 7776,
      "ĠÅ¡vest": 7777,
      "Ġsvlast": 7778,
      "ĠspÅĻÃŃz": 7779,
      "ĠkskrÃ¡": 7780,
      "ĠvtÅĻpy": 7781,
      "ĠzklÃ¡Å¡": 7782,
      "mr": 7783,
      "ĠtnÃ½m": 7784,
      "Ġcro": 7785,
      "Ġrich": 7786,
      "ĠÅ¡nÄĽ": 7787,
      "ĠÅ¡lil": 7788,
      "Ġnir": 7789,
      "ĠÄįeÅĪ": 7790,
      "Ġboz": 7791,
      "ĠzÃ¡z": 7792,
      "Ġchun": 7793,
      "AAABXB": 7794,
      "ĠvpÃ©": 7795,
      "Ġvpta": 7796,
      "Ġslap": 7797,
      "Ġzpor": 7798,
      "Ġstos": 7799,
      "Ġdour": 7800,
      "ĠbraÄį": 7801,
      "ĠbÃ¡c": 7802,
      "ĠdraÄį": 7803,
      "Ġkes": 7804,
      "AXABAB": 7805,
      "Ġvpov": 7806,
      "Ġsby": 7807,
      "ĠzÅĻek": 7808,
      "ĠznÃŃz": 7809,
      "ĠprouÅ¾": 7810,
      "Ġkmla": 7811,
      "ĠvÄįest": 7812,
      "ĠklÃ¡l": 7813,
      "ĠhlÃŃk": 7814,
      "ĠsdÃ¡": 7815,
      "Ġsdvo": 7816,
      "ĠsrÅ¡": 7817,
      "Ġvruch": 7818,
      "Ġalt": 7819,
      "Ġkpoc": 7820,
      "Ġsvez": 7821,
      "Ġzchmur": 7822,
      "Ġfoi": 7823,
      "ĠfrÃ©": 7824,
      "ĠkÅĻtÄĽ": 7825,
      "ĠkÅ¡i": 7826,
      "ĠÅ¡viÅ¾": 7827,
      "Ġscu": 7828,
      "Ġsvras": 7829,
      "ĠÅ¡ÅĪu": 7830,
      "ĠÅ¡ÅĪÅ¯r": 7831,
      "ĠkÄįa": 7832,
      "ĠcÅ¾es": 7833,
      "ĠvÅĻÃ¡d": 7834,
      "ĠsÅ¡i": 7835,
      "ĠvÃ³": 7836,
      "Ġrzi": 7837,
      "ĠsvlÃ¡": 7838,
      "ĠnÃ¡z": 7839,
      "Ġlyr": 7840,
      "ĠbiÅ¡": 7841,
      "Ġzlad": 7842,
      "Ġzost": 7843,
      "Ġstrak": 7844,
      "Ġvher": 7845,
      "Ġhek": 7846,
      "Ġhet": 7847,
      "Ġzhlo": 7848,
      "Ġtmo": 7849,
      "ĠmÃ¡mÅ¥": 7850,
      "Ġbrot": 7851,
      "ĠklÅĪ": 7852,
      "ĠdvÄĽt": 7853,
      "ĠdvÄĽÄį": 7854,
      "ĠzmÄĽÅĪ": 7855,
      "ĠvÄįÃ¡": 7856,
      "Ġknost": 7857,
      "ĠkboÅ¾": 7858,
      "ĠvzleÅ¥": 7859,
      "ĠstÅĻik": 7860,
      "ĠvmlÅ¾": 7861,
      "Ġhip": 7862,
      "Ġkvol": 7863,
      "ĠÅ¾dÃ¡m": 7864,
      "Ġent": 7865,
      "Ġsaic": 7866,
      "Ġsaul": 7867,
      "ĠhnÃŃt": 7868,
      "ĠmÃ½Å¾Äı": 7869,
      "ĠkÃ³": 7870,
      "Ġjluz": 7871,
      "XXAXAA": 7872,
      "ĠÅ¡vÃŃ": 7873,
      "Å¡ti": 7874,
      "Ġid": 7875,
      "ĠÄįim": 7876,
      "ĠzvÃ¡l": 7877,
      "ĠbaÄį": 7878,
      "ĠlÃ©v": 7879,
      "ĠhuÅ¡": 7880,
      "ĠvÅ¾as": 7881,
      "Ġvbyt": 7882,
      "Ġtlap": 7883,
      "ĠstÃ©n": 7884,
      "Ġkals": 7885,
      "Ġschro": 7886,
      "ĠblÃ¡h": 7887,
      "ĠkhÃ¡": 7888,
      "ĠkhrÃ¡m": 7889,
      "Ġkpos": 7890,
      "Ġmstil": 7891,
      "ĠfÃ¡Å¡": 7892,
      "Ġfus": 7893,
      "Ġzprz": 7894,
      "Ġztaj": 7895,
      "ĠÅ¾dÃ¡l": 7896,
      "Ġzga": 7897,
      "ĠflÃ³r": 7898,
      "ĠÄįmel": 7899,
      "ĠklÅ¯Å¾": 7900,
      "si": 7901,
      "Ġssk": 7902,
      "Ġkct": 7903,
      "ĠmÅĻem": 7904,
      "Ġvam": 7905,
      "ĠveÅ¾": 7906,
      "Ġskme": 7907,
      "Ġbov": 7908,
      "Ġmaur": 7909,
      "ĠspÅ¯l": 7910,
      "ĠÄįic": 7911,
      "ĠsaÅ¥": 7912,
      "ĠhuÄį": 7913,
      "Ġpraz": 7914,
      "ĠfÃ³": 7915,
      "ĠgÅĻi": 7916,
      "ĠvhÅĻe": 7917,
      "Ġvhnu": 7918,
      "Ġzhur": 7919,
      "ĠÄıat": 7920,
      "Ġtant": 7921,
      "Ġkrist": 7922,
      "Ġblic": 7923,
      "Ġgel": 7924,
      "ĠshoÅĻ": 7925,
      "ĠbruÄį": 7926,
      "ĠvpÅĻÃŃs": 7927,
      "ĠzdÃŃl": 7928,
      "ĠÅ¡vÃ½": 7929,
      "Ġvpark": 7930,
      "Ġkvlast": 7931,
      "ĠsvlÃ©k": 7932,
      "ĠnÃ³": 7933,
      "Ġkak": 7934,
      "ĠlÃº": 7935,
      "Ġrl": 7936,
      "Å¯v": 7937,
      "ĠvÃ¡h": 7938,
      "Ġpav": 7939,
      "Ġstig": 7940,
      "ĠpÅĻep": 7941,
      "ĠhaÅ¥": 7942,
      "ĠpeÅĻ": 7943,
      "ĠpÅĻiÅĻ": 7944,
      "ĠÃºÅ¾": 7945,
      "ĠztÅĻÃŃ": 7946,
      "Ġpty": 7947,
      "ĠshrÃ¡": 7948,
      "ĠÅ¡tÄĽv": 7949,
      "ĠdÅĻÃŃm": 7950,
      "Ġmars": 7951,
      "Ġkrup": 7952,
      "Ġsnej": 7953,
      "ĠvzkvÄĽ": 7954,
      "ĠzlÃŃt": 7955,
      "Ġvysv": 7956,
      "Ġstkal": 7957,
      "Ġwal": 7958,
      "Ġsvrch": 7959,
      "ĠblÃ©k": 7960,
      "ĠzrÅ¯st": 7961,
      "Ġzpev": 7962,
      "ĠÅ¡Å¥Ã¡v": 7963,
      "Ġzblan": 7964,
      "Ġmzda": 7965,
      "ĠvkÅĻiÅ¡": 7966,
      "ĠclÃ©ÅĻ": 7967,
      "zt": 7968,
      "ĠsÃ³": 7969,
      "ĠsÅĻa": 7970,
      "Ġrr": 7971,
      "Ġlac": 7972,
      "ĠvaÅĻ": 7973,
      "ĠproÅ¡": 7974,
      "Ġbach": 7975,
      "Ġvum": 7976,
      "Ġsut": 7977,
      "ĠbiÅĻ": 7978,
      "Ġvkmi": 7979,
      "Ġgl": 7980,
      "Ġhrk": 7981,
      "ĠzoÄį": 7982,
      "Ġzont": 7983,
      "ĠnnÃ¡m": 7984,
      "ĠheÅĻ": 7985,
      "ĠtvoÅĻ": 7986,
      "ĠsmrÅ¡": 7987,
      "Ġksi": 7988,
      "Ġkslad": 7989,
      "ĠvlÃ¡Äį": 7990,
      "ĠhrÃ¡n": 7991,
      "ĠhrÃ¡Å¥": 7992,
      "Ġstals": 7993,
      "Ġzrou": 7994,
      "Ġvzhou": 7995,
      "ĠjmÃŃ": 7996,
      "Ġzmiz": 7997,
      "ĠssvÃ½": 7998,
      "ĠvzdÃ¡n": 7999,
      "ĠdvÃ©st": 8000,
      "ĠmstÄĽ": 8001,
      "ĠdnÃ©ÅĻ": 8002,
      "Ġztrp": 8003,
      "Ġkir": 8004,
      "ĠvzlÃ©m": 8005,
      "Ġzhroz": 8006,
      "ĠzbÄĽd": 8007,
      "ĠsklÃŃÄį": 8008,
      "ĠvssÃ¡": 8009,
      "ĠcÃºn": 8010,
      "mÄĽ": 8011,
      "ĠbÃº": 8012,
      "Ġcev": 8013,
      "ĠkdÅ¯": 8014,
      "ĠÅ¡ÃŃÅ¥": 8015,
      "ĠsprÅ¯": 8016,
      "ĠbuÅĪ": 8017,
      "ĠzÃŃt": 8018,
      "ĠstÃ¡j": 8019,
      "Ġdouch": 8020,
      "Ġdrich": 8021,
      "ĠzyÄį": 8022,
      "ĠstÅĻeÅ¡": 8023,
      "ĠÅ¡lek": 8024,
      "Ġfas": 8025,
      "ĠÅ¡krÃ¡": 8026,
      "ĠktÃ¡": 8027,
      "Ġtknul": 8028,
      "Ġblon": 8029,
      "ĠkhrÅ¯": 8030,
      "ĠztÄĽs": 8031,
      "ĠblÃ½sk": 8032,
      "ĠkrÅ¯Äį": 8033,
      "ĠvlÃ©Äį": 8034,
      "Ġvslz": 8035,
      "Ġvtrys": 8036,
      "Ġgym": 8037,
      "ĠvdÃŃk": 8038,
      "ĠvhnÄĽv": 8039,
      "ĠvcÃŃl": 8040,
      "Ġvplod": 8041,
      "ĠvzkÅĻek": 8042,
      "ĠmÅ¡ÃŃ": 8043,
      "ĠÅ¡lem": 8044,
      "ĠmiÅ¡": 8045,
      "Ġkdce": 8046,
      "ABABBB": 8047,
      "ĠÅ¡ech": 8048,
      "Ġvosk": 8049,
      "ĠmeÅ¥": 8050,
      "ill": 8051,
      "ĠlÃ¡j": 8052,
      "ĠbuÅ¾": 8053,
      "Ġlul": 8054,
      "Ġhun": 8055,
      "ĠzpÅĻÃ¡": 8056,
      "Ġchym": 8057,
      "Ġvzdar": 8058,
      "ĠzdeÅ¥": 8059,
      "ĠÅ¡tÄĽj": 8060,
      "Ġsils": 8061,
      "Ġtlam": 8062,
      "Ġmens": 8063,
      "Ġksu": 8064,
      "ĠzÅĻev": 8065,
      "Ġkmra": 8066,
      "Ġhlem": 8067,
      "Ġktvo": 8068,
      "ĠstvoÅĻ": 8069,
      "ĠzroÅ¾": 8070,
      "Ġstruk": 8071,
      "Ġgin": 8072,
      "ĠkhnÄĽ": 8073,
      "Ġkhor": 8074,
      "Ġssvou": 8075,
      "Ġchlic": 8076,
      "ĠkÅĻÅ¯": 8077,
      "Ġchis": 8078,
      "Ġvca": 8079,
      "Ġscy": 8080,
      "Ġkchu": 8081,
      "ĠdÅ¾a": 8082,
      "ĠzÄįÃ¡": 8083,
      "Ġsza": 8084,
      "ĠsÅ¡u": 8085,
      "Ġsbuj": 8086,
      "Ġcri": 8087,
      "Ġvyc": 8088,
      "Ġzec": 8089,
      "ĠcÃŃn": 8090,
      "ĠpaÅ¡": 8091,
      "Ġiem": 8092,
      "ĠtÃ¡c": 8093,
      "ĠluÅ¾": 8094,
      "ĠhuÅ¾": 8095,
      "ĠzmlÃ½": 8096,
      "Ġplz": 8097,
      "Ġklej": 8098,
      "Ġlous": 8099,
      "ĠstraÅĪ": 8100,
      "ĠvmÃ½": 8101,
      "Ġvstat": 8102,
      "ĠstrÅ¯m": 8103,
      "ĠÅ¾Ã¡Äį": 8104,
      "ĠvbÅĻi": 8105,
      "ĠkroÄį": 8106,
      "ĠzvÄĽd": 8107,
      "ĠÅ¥me": 8108,
      "ĠschÅĻa": 8109,
      "ĠÅ¡ky": 8110,
      "Ġktem": 8111,
      "ĠdrÃ¡h": 8112,
      "ĠzrÅ¯d": 8113,
      "Ġvrus": 8114,
      "ĠÄįtem": 8115,
      "ĠranÅ¾": 8116,
      "Ġtrik": 8117,
      "Ġploul": 8118,
      "Ġsnop": 8119,
      "Ġchlost": 8120,
      "ĠsproÅ¡": 8121,
      "Ġblb": 8122,
      "Ġsmoc": 8123,
      "ĠÅ¡lÃŃÅ¡": 8124,
      "ĠvpouÅ¥": 8125,
      "Ġrold": 8126,
      "AABXBB": 8127,
      "ABBAAA": 8128,
      "it": 8129,
      "ĠzÅĻad": 8130,
      "Å¾b": 8131,
      "Ġnard": 8132,
      "ĠnÄĽd": 8133,
      "Ġprom": 8134,
      "ĠprÃ³": 8135,
      "Ġkrs": 8136,
      "Ġryv": 8137,
      "ĠvdnÅ¯": 8138,
      "Ġzmlad": 8139,
      "Ġgat": 8140,
      "ĠrÃ©s": 8141,
      "Ġvzdra": 8142,
      "Ġnuls": 8143,
      "ĠÅ¡lej": 8144,
      "Ġdlin": 8145,
      "ĠÅ¥ouÄį": 8146,
      "ĠznÃŃÅ¡": 8147,
      "ĠzpÃŃt": 8148,
      "ĠklÃŃch": 8149,
      "ĠvchlÃ¡d": 8150,
      "ĠÅĪav": 8151,
      "Ġhlost": 8152,
      "ĠtÃ½mÅ¾": 8153,
      "ĠdlÃ¡ÅĻ": 8154,
      "ĠskvÄĽt": 8155,
      "ĠssvÄĽ": 8156,
      "Ġsklet": 8157,
      "ĠznÃ¡mÅ¥": 8158,
      "ĠtrÃ½s": 8159,
      "ĠhmoÅ¾": 8160,
      "Ġkjas": 8161,
      "Ġpres": 8162,
      "ĠsmÃ½t": 8163,
      "ĠspÅĻed": 8164,
      "Ġcvrli": 8165,
      "ĠsÅ¾Ã¡": 8166,
      "ĠÅ¾ral": 8167,
      "Ġaeo": 8168,
      "ĠnÃº": 8169,
      "ĠhvÃ©": 8170,
      "ÅĻou": 8171,
      "ĠÄįk": 8172,
      "XAA": 8173,
      "XAAAXX": 8174,
      "ĠvÅ¡ar": 8175,
      "ĠvÃŃÅĻ": 8176,
      "Ġcij": 8177,
      "ĠboÅĪ": 8178,
      "Ġzdmi": 8179,
      "ĠsaÄį": 8180,
      "Ġkoun": 8181,
      "Ġvtk": 8182,
      "Ġsom": 8183,
      "Ġflu": 8184,
      "ĠvdÅĻe": 8185,
      "ĠsÃ¡c": 8186,
      "ĠsÃ¡Äį": 8187,
      "ĠzbÅ¯j": 8188,
      "Ġdrat": 8189,
      "Ġvzdro": 8190,
      "AXABBA": 8191,
      "Ġshru": 8192,
      "Ġzlok": 8193,
      "ĠschlÃŃ": 8194,
      "Ġtvat": 8195,
      "Ġkmar": 8196,
      "ĠtluÄį": 8197,
      "ĠÅ¡pu": 8198,
      "ĠÄįtli": 8199,
      "ĠzlÃ©t": 8200,
      "Ġsmyk": 8201,
      "Ġtrep": 8202,
      "Ġzprav": 8203,
      "Ġwin": 8204,
      "Ġzse": 8205,
      "ĠtkÃ¡ÅĪ": 8206,
      "ĠsÅ¡a": 8207,
      "ĠdbÃ¡Å¡": 8208,
      "ĠkmÃŃn": 8209,
      "Ġspekt": 8210,
      "ĠmnÃ¡c": 8211,
      "ĠzÃ³": 8212,
      "Ġzze": 8213,
      "ĠbvÃ¡": 8214,
      "ĠrrÃ¡": 8215,
      "ĠnaÅĻ": 8216,
      "ĠÅ¾vÃ¡": 8217,
      "ĠÅ¡m": 8218,
      "ĠÅ¡Ã©": 8219,
      "Ġhof": 8220,
      "ĠsvÅĻe": 8221,
      "Ġlix": 8222,
      "Ġkau": 8223,
      "ĠsknÄĽ": 8224,
      "ĠsknÃŃ": 8225,
      "Ġpaf": 8226,
      "Ġjah": 8227,
      "Ġmad": 8228,
      "ĠÅĻep": 8229,
      "ĠspÅĻi": 8230,
      "Ġsprou": 8231,
      "ĠlyÅĪ": 8232,
      "ĠkÃ¡ÅĪ": 8233,
      "ĠbÄĽc": 8234,
      "ĠstÃŃc": 8235,
      "ĠkrÃ¡p": 8236,
      "Ġpris": 8237,
      "Ġzpli": 8238,
      "Ġfru": 8239,
      "Ġfech": 8240,
      "Ġdland": 8241,
      "ĠdÄĽlÅ¥": 8242,
      "Ġvhmo": 8243,
      "ĠvpoÄį": 8244,
      "ĠhneÅ¡": 8245,
      "Ġkrum": 8246,
      "ĠmÃ½l": 8247,
      "ĠdrÃ¡Äį": 8248,
      "Ġplos": 8249,
      "ĠÄıouÄį": 8250,
      "Ġsnez": 8251,
      "ĠÅ¡pen": 8252,
      "ĠchvÃ¡ÅĻ": 8253,
      "ĠdlÃ¡Å¡": 8254,
      "Ġvskvost": 8255,
      "ĠtresÅ¥": 8256,
      "ĠvÅĻÃŃj": 8257,
      "ĠvtuÅ¾": 8258,
      "Ġvspor": 8259,
      "Ġztrouch": 8260,
      "Ġkloub": 8261,
      "ĠhnÅ¯j": 8262,
      "ĠkjÃ¡": 8263,
      "ĠzsvÃ©": 8264,
      "ĠdvÃŃk": 8265,
      "Ġkspo": 8266,
      "ĠÅ¾old": 8267,
      "ĠstlÃ©m": 8268,
      "Ġvslast": 8269,
      "ĠsÅ¥al": 8270,
      "ĠtrÃ³n": 8271,
      "ĠpÅ¡t": 8272,
      "Ġdmul": 8273,
      "Ġkzdro": 8274,
      "27": 8275,
      "XABXB": 8276,
      "ĠkÄıa": 8277,
      "Ġjve": 8278,
      "Ġlvu": 8279,
      "Ġdog": 8280,
      "Ġrom": 8281,
      "ĠkdÃŃt": 8282,
      "Ġmoi": 8283,
      "Ġzvrou": 8284,
      "Ġzprud": 8285,
      "ĠstÃ¡k": 8286,
      "ĠvlaÄį": 8287,
      "Ġez": 8288,
      "Ġziz": 8289,
      "ĠvhrÃ¡": 8290,
      "ĠstrÅĪ": 8291,
      "Ġvzpup": 8292,
      "Ġjud": 8293,
      "Ġjus": 8294,
      "Ġjuch": 8295,
      "Ġvpoc": 8296,
      "ĠdliÅ¡": 8297,
      "ĠÅ¡uj": 8298,
      "ĠzvÄĽr": 8299,
      "ĠktvÃ¡": 8300,
      "Ġvkov": 8301,
      "ĠpÅ¯jÄį": 8302,
      "ĠptaÄį": 8303,
      "Ġbrouz": 8304,
      "Ġfant": 8305,
      "Ġstma": 8306,
      "Ġchic": 8307,
      "ĠvhÃ¡d": 8308,
      "ĠcnosÅ¥": 8309,
      "Ġblysk": 8310,
      "Ġvdes": 8311,
      "ĠsÅ¡tÄĽ": 8312,
      "ĠvkeÅĻ": 8313,
      "Ġfron": 8314,
      "ĠzjichÅ¾": 8315,
      "Ġjhu": 8316,
      "Ġvsrp": 8317,
      "ĠkÅĻtem": 8318,
      "ĠpskÃ½ch": 8319,
      "Ġchroust": 8320,
      "XABXBA": 8321,
      "Ġds": 8322,
      "Ġmk": 8323,
      "Ġchnul": 8324,
      "Ġleg": 8325,
      "ĠhoÅ¥": 8326,
      "Ġtih": 8327,
      "ĠvzlÃŃ": 8328,
      "Ġchaj": 8329,
      "ĠgrÅ¯": 8330,
      "ĠhrÅĪ": 8331,
      "ĠzoÅ¡": 8332,
      "ĠvlÃ½": 8333,
      "ĠzpÄĽn": 8334,
      "Ġjul": 8335,
      "ĠvlÃ¡h": 8336,
      "Ġplech": 8337,
      "Ġschlou": 8338,
      "Ġvdub": 8339,
      "Ġlils": 8340,
      "Ġtku": 8341,
      "Ġvzals": 8342,
      "ĠpÃ©r": 8343,
      "ĠÅ¡tvÃ¡t": 8344,
      "Ġsjezd": 8345,
      "ABXBAA": 8346,
      "Ġllic": 8347,
      "Ġvmlh": 8348,
      "Ġsfe": 8349,
      "Ġsfi": 8350,
      "ĠsdÄĽv": 8351,
      "ĠzpÅ¯l": 8352,
      "ĠvbÄĽd": 8353,
      "ĠvstÅĻet": 8354,
      "Ġfons": 8355,
      "Ġvklam": 8356,
      "Ġfekt": 8357,
      "Ġsge": 8358,
      "ĠchÅĻtÃ¡": 8359,
      "Ġvsklon": 8360,
      "ĠzjÃŃc": 8361,
      "XABAAB": 8362,
      "ĠseÅ¾": 8363,
      "ABXAXB": 8364,
      "ĠpoÅ¾": 8365,
      "ĠzaÅ¾": 8366,
      "Ġtaur": 8367,
      "Ġmah": 8368,
      "ĠstÃŃÅ¾": 8369,
      "Ġchus": 8370,
      "ĠvzdÃ¡m": 8371,
      "Ġkliv": 8372,
      "ĠvlÅ¯m": 8373,
      "Ġzhmo": 8374,
      "ĠÅ¡uÅ¡": 8375,
      "ĠÅ¡lik": 8376,
      "ĠvzÃ¡r": 8377,
      "ĠpsÅ¯m": 8378,
      "ĠÅ¡tÃŃp": 8379,
      "ĠÅ¡tÃŃr": 8380,
      "ĠÅ¡pÃ¡s": 8381,
      "Ġyal": 8382,
      "Ġthor": 8383,
      "Ġtlil": 8384,
      "Ġplyt": 8385,
      "Ġzmij": 8386,
      "ĠzÃ½c": 8387,
      "AAXBBA": 8388,
      "Ġvcel": 8389,
      "ĠÄįoÅ¡": 8390,
      "Ġkstar": 8391,
      "Ġvplet": 8392,
      "Ġdant": 8393,
      "ĠsklÃŃn": 8394,
      "ĠrvÃ¡Äį": 8395,
      "ĠkÅ¾Ã¡": 8396,
      "ĠvsmÄĽs": 8397,
      "Ġvklouz": 8398,
      "ĠgrÃ¡n": 8399,
      "Ġzklid": 8400,
      "ĠvÄįty": 8401,
      "ĠzcÃŃ": 8402,
      "ĠzÅĪal": 8403,
      "ĠposÅ¥": 8404,
      "Ġdod": 8405,
      "Ġkdra": 8406,
      "Ġkdal": 8407,
      "ĠtÃŃz": 8408,
      "ĠdÃ¡Äį": 8409,
      "Ġtyk": 8410,
      "ĠkrÃ¡d": 8411,
      "ĠsvÄĽr": 8412,
      "Ġtaks": 8413,
      "Ġkouc": 8414,
      "Ġbau": 8415,
      "ĠkrÃ½m": 8416,
      "ĠvsvÃŃ": 8417,
      "Ġslas": 8418,
      "Ġryh": 8419,
      "Ġnadv": 8420,
      "ĠchaÄį": 8421,
      "ĠdÃ½k": 8422,
      "ĠvkÅ¡ti": 8423,
      "ĠplÅ¯": 8424,
      "Ġdlan": 8425,
      "Ġkrop": 8426,
      "ĠchvÃ¡l": 8427,
      "ĠÅ¡leÅ¡": 8428,
      "ĠksÅĪat": 8429,
      "Ġsbal": 8430,
      "ĠspÄĽv": 8431,
      "ĠspÄĽÅ¾": 8432,
      "Ġschlu": 8433,
      "Ġdvar": 8434,
      "ĠhruÅ¾": 8435,
      "ĠblÃ¡n": 8436,
      "ĠvnÃ¡ÅĻ": 8437,
      "Ġvskro": 8438,
      "ĠtliÄį": 8439,
      "ĠzmoÅĻ": 8440,
      "Ġsman": 8441,
      "Ġzdiv": 8442,
      "Ġzbron": 8443,
      "ĠvjaÅĻ": 8444,
      "ĠkÅ¡u": 8445,
      "ĠtlÃ¡k": 8446,
      "ĠstÅĻÃ¡st": 8447,
      "ĠvhÃ¡v": 8448,
      "ĠzbÄĽh": 8449,
      "ĠchlÃŃm": 8450,
      "Ġvsuk": 8451,
      "AXXBAB": 8452,
      "Ġthyst": 8453,
      "ĠkÄįÃŃ": 8454,
      "ĠsnichÅ¾": 8455,
      "Ġnnen": 8456,
      "Ġdcem": 8457,
      "Ġdzin": 8458,
      "hi": 8459,
      "ĠsÄıÃ¡": 8460,
      "Ġvva": 8461,
      "ĠjvÃ¡": 8462,
      "Ġaz": 8463,
      "Ġsec": 8464,
      "ĠkaÅĪ": 8465,
      "Ġnop": 8466,
      "Ġsklu": 8467,
      "Ġtyp": 8468,
      "ĠzdÃ½m": 8469,
      "ĠÅ¡ic": 8470,
      "ĠkÃ©t": 8471,
      "Ġzpil": 8472,
      "ĠzprÃ¡z": 8473,
      "louz": 8474,
      "Ġvdy": 8475,
      "Ġei": 8476,
      "Ġsouz": 8477,
      "Ġvmas": 8478,
      "Ġksla": 8479,
      "Ġschi": 8480,
      "Ġkves": 8481,
      "ĠmlÃ¡z": 8482,
      "Ġvchvil": 8483,
      "ĠstÃ¡ls": 8484,
      "Ġkzu": 8485,
      "Ġtknut": 8486,
      "ĠcÃ½r": 8487,
      "Ġkby": 8488,
      "ĠkbliÅ¾": 8489,
      "ĠsboÅ¾": 8490,
      "ĠsklÃ¡n": 8491,
      "Ġkhlu": 8492,
      "Ġhlin": 8493,
      "Ġtref": 8494,
      "Ġtlen": 8495,
      "ĠbÅĻÃŃch": 8496,
      "ĠprÅ¯s": 8497,
      "Ġssl": 8498,
      "Ġfrain": 8499,
      "Ġvsluj": 8500,
      "Ġspik": 8501,
      "Ġberk": 8502,
      "Ġzbah": 8503,
      "ĠmÅ¾it": 8504,
      "ĠrdÃŃt": 8505,
      "ĠvpÅĻÃŃz": 8506,
      "ĠspusÅ¥": 8507,
      "ĠtnÃŃk": 8508,
      "ĠkÅ¡p": 8509,
      "Ġller": 8510,
      "Ġmhly": 8511,
      "ĠskÅĻes": 8512,
      "ĠrdÃŃc": 8513,
      "Ġfrid": 8514,
      "ĠzvÃ½h": 8515,
      "ĠÅ¯m": 8516,
      "ĠvbÅĻez": 8517,
      "AABABA": 8518,
      "ĠdskÃ©": 8519,
      "Ġvssu": 8520,
      "ĠkvraÅ¾": 8521,
      "ĠsvlÃŃd": 8522,
      "ĠdÃº": 8523,
      "Ġlb": 8524,
      "Ġbve": 8525,
      "ĠÄįka": 8526,
      "ĠdoÅĪ": 8527,
      "ĠÅ¾esÅ¥": 8528,
      "Ġjap": 8529,
      "Ġmai": 8530,
      "Ġdir": 8531,
      "Ġbut": 8532,
      "Ġzdve": 8533,
      "ĠzdnÅ¯": 8534,
      "ĠsmÅ¯": 8535,
      "Ġsuv": 8536,
      "ĠznÃ©": 8537,
      "ĠfÅ¯m": 8538,
      "ĠdÃ©n": 8539,
      "Ġcham": 8540,
      "ĠgÅ¯m": 8541,
      "ĠpouÄį": 8542,
      "Ġspom": 8543,
      "Ġhrab": 8544,
      "Ġzov": 8545,
      "ĠztÃŃ": 8546,
      "Ġvhle": 8547,
      "ĠÅĪou": 8548,
      "ĠÅ¡lap": 8549,
      "Ġkml": 8550,
      "ĠkmlÃ½": 8551,
      "Ġvner": 8552,
      "Ġznov": 8553,
      "Ġthar": 8554,
      "ĠdlÃ©t": 8555,
      "ĠkhnÃŃz": 8556,
      "ĠmÅĻÃŃÅ¥": 8557,
      "ĠsÄįet": 8558,
      "ĠkstÅĻe": 8559,
      "Ġsju": 8560,
      "Ġsfou": 8561,
      "ĠsvrÅ¡": 8562,
      "ĠÄıau": 8563,
      "ĠstlÃ½m": 8564,
      "ĠvztyÄį": 8565,
      "Ġcvrk": 8566,
      "ĠspÅĻÃŃs": 8567,
      "ĠkvyÅ¡": 8568,
      "Ġzcy": 8569,
      "ĠzÅ¡u": 8570,
      "ĠrmuÅ¥": 8571,
      "ĠspyÅ¡": 8572,
      "ĠvtÅĻes": 8573,
      "ĠÅ¾bÃ¡n": 8574,
      "ĠvchÃ½Å¾": 8575,
      "Ġsklouz": 8576,
      "Ġshlt": 8577,
      "Ġtnost": 8578,
      "Ġbrloh": 8579,
      "ĠÅ¡roub": 8580,
      "nÅ¯m": 8581,
      "ĠvÅ¥": 8582,
      "Ġtni": 8583,
      "Ġlbi": 8584,
      "Ġac": 8585,
      "ĠÅ¾nou": 8586,
      "ĠÅ¡mo": 8587,
      "ĠÄįpÄĽ": 8588,
      "ĠvÄĽs": 8589,
      "Ġsket": 8590,
      "Ġtut": 8591,
      "Ġnys": 8592,
      "ĠlyÅ¥": 8593,
      "ĠpÅĻet": 8594,
      "ĠvÃ½sk": 8595,
      "ĠsÃŃr": 8596,
      "Ġvsak": 8597,
      "ĠstÃ¡Å¥": 8598,
      "ĠvÅ¾en": 8599,
      "ĠkvÄĽÅ¥": 8600,
      "ĠchÃ¡b": 8601,
      "ĠkvÅ¯d": 8602,
      "Ġvhi": 8603,
      "Ġvhej": 8604,
      "Ġshlou": 8605,
      "ĠsmÄĽv": 8606,
      "ĠzÅĻen": 8607,
      "ĠstÅĻÃŃl": 8608,
      "Ġktru": 8609,
      "ĠtrÃ¡l": 8610,
      "ĠdrÃ¡l": 8611,
      "ĠsdvÄĽ": 8612,
      "ĠvskvÄĽ": 8613,
      "Ġvhon": 8614,
      "ĠÅ¡tÃ½": 8615,
      "ĠhÅĻmi": 8616,
      "ĠplÃŃÅĻ": 8617,
      "Ġjilm": 8618,
      "ĠvmÄĽst": 8619,
      "Ġfuj": 8620,
      "Ġwer": 8621,
      "Ġspev": 8622,
      "ĠchlÃŃk": 8623,
      "Ġzryl": 8624,
      "Ġclau": 8625,
      "Ġnnin": 8626,
      "Ġlvic": 8627,
      "Ġzfi": 8628,
      "ĠzvraÅ¾": 8629,
      "Ġtcho": 8630,
      "ĠckÃ½": 8631,
      "ĠdcÃ©": 8632,
      "Ġkctno": 8633,
      "Ġpho": 8634,
      "Ġrvu": 8635,
      "Ġsth": 8636,
      "ĠÅ¾lÃ¡": 8637,
      "ĠchÅĪa": 8638,
      "Ġkys": 8639,
      "Ġloi": 8640,
      "ĠÄįÃŃÅ¾": 8641,
      "ĠzdÅ¯l": 8642,
      "ĠzÃ¡t": 8643,
      "Ġmyk": 8644,
      "Ġvtva": 8645,
      "ĠzmÃ¡t": 8646,
      "Ġplil": 8647,
      "Ġpouz": 8648,
      "Ġblech": 8649,
      "Ġvhlav": 8650,
      "Ġstros": 8651,
      "Ġzhni": 8652,
      "AXABBB": 8653,
      "ĠzdÃ¡n": 8654,
      "Ġksli": 8655,
      "Ġschech": 8656,
      "Ġkpla": 8657,
      "ĠtloÅ¡": 8658,
      "ĠvtiÅ¡": 8659,
      "ĠzlÅ¯m": 8660,
      "ĠzvÃŃs": 8661,
      "Ġmohs": 8662,
      "Ġkhu": 8663,
      "Ġparr": 8664,
      "Ġvztr": 8665,
      "Ġthes": 8666,
      "Ġvmraz": 8667,
      "Ġwar": 8668,
      "ĠzbÃ½t": 8669,
      "ĠvtrÃ½z": 8670,
      "Ġzvous": 8671,
      "ĠvtouÅ¾": 8672,
      "ĠÅ¡kam": 8673,
      "ĠpsÃŃk": 8674,
      "Ġvsym": 8675,
      "ĠpÃ³l": 8676,
      "ĠzbÃ¡s": 8677,
      "ĠvÅ¾ÃŃz": 8678,
      "Ġvtrap": 8679,
      "Ġkfa": 8680,
      "ĠkpÅ¯t": 8681,
      "ĠgÃ¶r": 8682,
      "ĠmÅĪou": 8683,
      "hn": 8684,
      "ĠvvÃ¡": 8685,
      "Ġtna": 8686,
      "ĠcÃ³": 8687,
      "ĠÅ¡me": 8688,
      "ĠtaÄį": 8689,
      "ĠtuÄı": 8690,
      "ĠvzÃº": 8691,
      "Ġsip": 8692,
      "ĠtakÅ¥": 8693,
      "ĠvtrÅ¯": 8694,
      "ĠÅĻip": 8695,
      "ĠzpÅĻi": 8696,
      "Ġsoj": 8697,
      "ĠvdÃ³": 8698,
      "Ġvdvou": 8699,
      "Ġboum": 8700,
      "ĠvknÃŃ": 8701,
      "Ġgas": 8702,
      "ĠziÅ¾": 8703,
      "Ġdvad": 8704,
      "Ġzos": 8705,
      "Ġvraz": 8706,
      "Ġvhlo": 8707,
      "Ġmraj": 8708,
      "Ġmlal": 8709,
      "ĠjsmeÅ¥": 8710,
      "ĠtmÃŃt": 8711,
      "Ġstyl": 8712,
      "Ġstych": 8713,
      "ĠskosÅ¥": 8714,
      "Ġvpor": 8715,
      "Ġsbar": 8716,
      "ĠÅ¥li": 8717,
      "Ġbrok": 8718,
      "ĠkpÅĻi": 8719,
      "ĠsdÃ½": 8720,
      "Ġvpras": 8721,
      "Ġgai": 8722,
      "ĠsvÃ½s": 8723,
      "Ġgois": 8724,
      "Ġvlip": 8725,
      "ĠzlÃ¡z": 8726,
      "Ġvtur": 8727,
      "Ġzkost": 8728,
      "Ġzdus": 8729,
      "Ġvsmy": 8730,
      "Ġxal": 8731,
      "Ġbzuk": 8732,
      "ĠzvÃ½z": 8733,
      "ĠzkraÅ¥": 8734,
      "ĠvjÃŃz": 8735,
      "Ġzhrad": 8736,
      "Ġvmrz": 8737,
      "ĠvstrÃ¡ÅĪ": 8738,
      "ĠvhrÅ¯z": 8739,
      "Ġvtlum": 8740,
      "ĠzhnÃŃzd": 8741,
      "ĠvtÃ©mÅ¾": 8742,
      "Ġvhnus": 8743,
      "lt": 8744,
      "nÃ©m": 8745,
      "ĠvvÃŃ": 8746,
      "Ġtst": 8747,
      "Ġdt": 8748,
      "ĠjÅĻÃŃ": 8749,
      "ĠjrÅ¯": 8750,
      "Ġpf": 8751,
      "ĠÅ¡rÃ¡": 8752,
      "ĠÅ¡ut": 8753,
      "ĠkoÅ¥": 8754,
      "ĠnÃ½Å¥": 8755,
      "ĠjÃŃl": 8756,
      "ĠzeÄį": 8757,
      "Ġdad": 8758,
      "ĠrÃ¡h": 8759,
      "Ġkoust": 8760,
      "Ġlut": 8761,
      "Ġkrem": 8762,
      "ĠslaÅĻ": 8763,
      "ĠÅĻim": 8764,
      "ĠvdvÅ¯r": 8765,
      "Ġest": 8766,
      "ĠbraÅ¡": 8767,
      "nitÅĻ": 8768,
      "Ġzul": 8769,
      "Ġvzdi": 8770,
      "Ġvsty": 8771,
      "Ġzyn": 8772,
      "Ġzyz": 8773,
      "Ġshy": 8774,
      "skÃ½": 8775,
      "ĠsvÃŃt": 8776,
      "ĠdÅĻÃŃt": 8777,
      "ĠproÄįs": 8778,
      "ĠknÄĽn": 8779,
      "Ġfai": 8780,
      "ĠvÄįet": 8781,
      "Ġkpu": 8782,
      "Ġkplo": 8783,
      "Ġkver": 8784,
      "ĠkvÃŃch": 8785,
      "Ġzdom": 8786,
      "Ġkudr": 8787,
      "ĠvzkvÃŃ": 8788,
      "ĠrÃ©mÅ¾": 8789,
      "ĠpÃ©Äį": 8790,
      "BBA": 8791,
      "Ġsraz": 8792,
      "ĠvÅ¡an": 8793,
      "Ġtloun": 8794,
      "ĠkÅĻou": 8795,
      "ĠkstÄĽ": 8796,
      "ĠÄıaur": 8797,
      "Ġvplach": 8798,
      "Ġvbub": 8799,
      "ĠzhuÅ¡": 8800,
      "Ġojc": 8801,
      "Ġgend": 8802,
      "Ġflet": 8803,
      "Ġmyrr": 8804,
      "ĠzÅ¡a": 8805,
      "ĠÅ¾lab": 8806,
      "Ġcpe": 8807,
      "Ġvshro": 8808,
      "Ġflin": 8809,
      "Ġvkvap": 8810,
      "ĠjmÃŃn": 8811,
      "hu": 8812,
      "Ġtg": 8813,
      "Ġdp": 8814,
      "ĠjÃ©": 8815,
      "Ġmro": 8816,
      "Ġrme": 8817,
      "ĠÄįku": 8818,
      "ĠsvrÃ¡": 8819,
      "ĠsvdÄĽÄį": 8820,
      "ĠjiÅ¡Å¥": 8821,
      "ĠvoÅĻ": 8822,
      "Ġpag": 8823,
      "Ġvij": 8824,
      "ĠmÃ¡st": 8825,
      "ĠzdÃ©": 8826,
      "lout": 8827,
      "Ġgha": 8828,
      "ĠkvlÃ¡": 8829,
      "Ġvhlad": 8830,
      "ĠchvÃŃc": 8831,
      "ĠkÅĻÃŃÅ¡": 8832,
      "ĠdroÅ¾": 8833,
      "Ġkpl": 8834,
      "Ġvjho": 8835,
      "Ġyet": 8836,
      "ĠvrouÅ¡": 8837,
      "Ġvlist": 8838,
      "Ġsrol": 8839,
      "ĠvÅ¡ach": 8840,
      "Ġkmoc": 8841,
      "ĠksmÄĽ": 8842,
      "ĠsmiÅĻ": 8843,
      "Ġllin": 8844,
      "ĠslÅ¯Å¾": 8845,
      "Ġzmrz": 8846,
      "ĠvtrÃ¡v": 8847,
      "ĠstkvÃŃt": 8848,
      "Ġmlel": 8849,
      "ĠvpÄĽsÅ¥": 8850,
      "Ġchecht": 8851,
      "AAABBA": 8852,
      "ĠtrÃ©t": 8853,
      "ĠÅ¾hnout": 8854,
      "ĠsÅ¥at": 8855,
      "Ġsvlh": 8856,
      "Ġsvrhl": 8857,
      "Ġnnes": 8858,
      "Ġsmluv": 8859,
      "ĠvssÃ¡l": 8860,
      "Ġsvlek": 8861,
      "ĠjÃ³n": 8862,
      "ĠvÄįtve": 8863,
      "ĠmnÃ¡ct": 8864,
      "Ġdvent": 8865,
      "ĠvÅĻem": 8866,
      "Ġmva": 8867,
      "Ġrho": 8868,
      "Ġnuc": 8869,
      "ĠnuÅ¥": 8870,
      "Ġvzje": 8871,
      "Ġspnou": 8872,
      "ĠtÃ©v": 8873,
      "Ġmys": 8874,
      "Ġvsb": 8875,
      "AAAXXX": 8876,
      "ĠhÃ¡ÅĪ": 8877,
      "Ġryz": 8878,
      "Ġhyp": 8879,
      "Ġdlat": 8880,
      "Ġkvin": 8881,
      "Ġblast": 8882,
      "ĠrÃ©n": 8883,
      "ĠslÃ¡t": 8884,
      "Ġchvu": 8885,
      "ĠzdaÅĻ": 8886,
      "Ġvlesk": 8887,
      "ĠkruÅ¾": 8888,
      "Ġsche": 8889,
      "Ġotr": 8890,
      "ĠkmÃ¡": 8891,
      "ĠÅ¡kar": 8892,
      "ĠdlÃŃc": 8893,
      "ĠvjÃŃt": 8894,
      "Ã³p": 8895,
      "Ġtkou": 8896,
      "ĠdveÄı": 8897,
      "Ġtrej": 8898,
      "Ġspin": 8899,
      "ĠzdÄĽr": 8900,
      "ĠvsaÄı": 8901,
      "Ġvkrou": 8902,
      "ĠvnÃ©st": 8903,
      "Ġxis": 8904,
      "Ġind": 8905,
      "Ġvset": 8906,
      "ĠvpÅĻÃŃÄį": 8907,
      "ĠsprÃ¡ch": 8908,
      "Ġsfor": 8909,
      "Ġzten": 8910,
      "ĠskvÃŃÅ¡": 8911,
      "ĠchlÃŃÅ¡": 8912,
      "Ġsco": 8913,
      "Ġrint": 8914,
      "Ġgent": 8915,
      "Ġzkrot": 8916,
      "ĠcÃ©ÅĻ": 8917,
      "Ġvge": 8918,
      "ĠzbÃ¡z": 8919,
      "ĠnimÅ¾": 8920,
      "ĠschvÄĽl": 8921,
      "Ġvpsa": 8922,
      "ĠdÅ¡tÃ½n": 8923,
      "ĠcÅ¾ech": 8924,
      "Ġjroz": 8925,
      "Ġzplic": 8926,
      "ĠpÅ¡tro": 8927,
      "Ġnry": 8928,
      "Ġkko": 8929,
      "cho": 8930,
      "ĠceÅ¥": 8931,
      "ĠnÄĽs": 8932,
      "Ġmud": 8933,
      "ĠvÃŃz": 8934,
      "ABBABB": 8935,
      "ABBXAA": 8936,
      "Ġtun": 8937,
      "Ġnuch": 8938,
      "ĠkÅ¯st": 8939,
      "Ġslar": 8940,
      "ĠslaÄı": 8941,
      "Ġzpru": 8942,
      "Ġchon": 8943,
      "ĠvdÅ¾b": 8944,
      "ĠchÃ¡Äį": 8945,
      "ĠhrÃ½z": 8946,
      "ĠztÃŃs": 8947,
      "Ġzhar": 8948,
      "ĠÅĪouÄį": 8949,
      "Ġrid": 8950,
      "Ġkryp": 8951,
      "ĠkprÅ¯": 8952,
      "ĠhnÄĽd": 8953,
      "ĠtrÃ¡c": 8954,
      "Ġvchlu": 8955,
      "Ġsdla": 8956,
      "Ġzleb": 8957,
      "ĠthÄĽ": 8958,
      "Ġcag": 8959,
      "ĠÄįta": 8960,
      "ĠsvÃ½Å¡": 8961,
      "ĠzlÃŃch": 8962,
      "ĠsmuÅ¾": 8963,
      "ĠpÄĽls": 8964,
      "Ġsves": 8965,
      "Ġzdrob": 8966,
      "ĠtÃ³m": 8967,
      "Ġdnin": 8968,
      "Ġzpust": 8969,
      "Ġspus": 8970,
      "Ġvhlas": 8971,
      "ĠzmÃ¡st": 8972,
      "Ġgrem": 8973,
      "Ġscest": 8974,
      "Ġvklec": 8975,
      "ĠvzÃ½t": 8976,
      "Ġzvrt": 8977,
      "ĠsÅ¡k": 8978,
      "Ġkurs": 8979,
      "ĠvmdlÃ©": 8980,
      "ĠscÃ©n": 8981,
      "ABBBAX": 8982,
      "Ġoasy": 8983,
      "Ġdvyk": 8984,
      "ĠÅ¡uth": 8985,
      "cy": 8986,
      "ĠzÅ¡i": 8987,
      "Ġrru": 8988,
      "ĠjesÅ¥": 8989,
      "ĠkuÅ¡": 8990,
      "ĠroÄı": 8991,
      "ĠvÃ¡p": 8992,
      "ĠdÃŃÅ¥": 8993,
      "Ġbeg": 8994,
      "ĠÄįÃŃÅĻ": 8995,
      "Ġvisk": 8996,
      "Ġio": 8997,
      "Ġsaz": 8998,
      "AAAAXX": 8999,
      "Ġkdek": 9000,
      "ĠvÅ¾hou": 9001,
      "ĠkvÃ¡l": 9002,
      "ĠvhÅĻ": 9003,
      "Ġzver": 9004,
      "ĠÅ¡lit": 9005,
      "Ġtluc": 9006,
      "Ġtals": 9007,
      "Ġjmou": 9008,
      "AXXBBA": 9009,
      "Ġztrav": 9010,
      "Ġsbol": 9011,
      "ĠsklÃ¡t": 9012,
      "ĠÅ¾lic": 9013,
      "Ġpart": 9014,
      "ĠzlÃŃm": 9015,
      "ĠzlÃŃÅ¡": 9016,
      "ĠvliÄį": 9017,
      "Ġzju": 9018,
      "ĠstkÃ¡n": 9019,
      "ĠkÅ¡a": 9020,
      "ĠhÅĻmÄĽt": 9021,
      "ĠpneÅ¡": 9022,
      "Ġkskut": 9023,
      "ĠkdÄĽc": 9024,
      "Ġzca": 9025,
      "ĠÅ¡krt": 9026,
      "ĠvhvÄĽzd": 9027,
      "ĠvÅ¾ÃŃr": 9028,
      "ABAXBA": 9029,
      "ĠÅ¾rÃ¡t": 9030,
      "Ġvtroud": 9031,
      "ĠzhrÅ¯z": 9032,
      "Ġuille": 9033,
      "ĠglÃ³": 9034,
      "Ġjlo": 9035,
      "Ġpje": 9036,
      "Ġclou": 9037,
      "Ġcka": 9038,
      "ĠcmÃŃ": 9039,
      "Ġnais": 9040,
      "Ġoi": 9041,
      "lan": 9042,
      "Ġnoj": 9043,
      "ĠnÃ©Å¥": 9044,
      "ĠtaÅĻ": 9045,
      "ĠkyÅĻ": 9046,
      "ĠÄįeb": 9047,
      "Ġdut": 9048,
      "Ġcip": 9049,
      "Ġnyx": 9050,
      "ĠviÅ¾": 9051,
      "ĠlÃŃz": 9052,
      "ĠmÃŃk": 9053,
      "ĠstÃŃÄį": 9054,
      "Ġsab": 9055,
      "ĠprÃ½m": 9056,
      "Ġsuc": 9057,
      "Ġsug": 9058,
      "ĠpÄĽr": 9059,
      "ĠvÅ¾ur": 9060,
      "ĠklaÅĪ": 9061,
      "Ġslost": 9062,
      "Ġglu": 9063,
      "Ġhous": 9064,
      "Ġkdom": 9065,
      "Ġslen": 9066,
      "ĠplÃ¡ch": 9067,
      "Ġzkal": 9068,
      "Ġzhvoz": 9069,
      "Ġstvin": 9070,
      "Ġskre": 9071,
      "Ġzjes": 9072,
      "Ġtlup": 9073,
      "ĠznoÄį": 9074,
      "ĠÅ¡pÃ¡": 9075,
      "Ġkzbo": 9076,
      "Ġfij": 9077,
      "ĠtÃ©mÅ¾": 9078,
      "Ġcau": 9079,
      "Ġzals": 9080,
      "ĠchrÅ¯m": 9081,
      "Ġgos": 9082,
      "Ġstils": 9083,
      "ĠkpohÅĻ": 9084,
      "Ġzarr": 9085,
      "Ġzchlu": 9086,
      "ĠÅ¾erÄı": 9087,
      "ĠvmÄĽl": 9088,
      "ĠlstnÃ©": 9089,
      "Ġmass": 9090,
      "Ġztes": 9091,
      "Ġvpout": 9092,
      "ĠvdlaÅ¾": 9093,
      "ĠsplÅĪ": 9094,
      "Ġbryn": 9095,
      "Ġbrit": 9096,
      "Ġzvrb": 9097,
      "Ġkprv": 9098,
      "ĠzmeÅ¡": 9099,
      "Ġgypt": 9100,
      "ĠÅ¾bÃ¡": 9101,
      "ĠthÃ©n": 9102,
      "ĠfÄĽr": 9103,
      "ĠÅ¡vÃ©d": 9104,
      "Ġpstruh": 9105,
      "ĠfÃ½r": 9106,
      "ÄĽn": 9107,
      "ĠÅ¡Ã¡m": 9108,
      "Ġsvz": 9109,
      "ĠpaÅ¥": 9110,
      "Ġvzvy": 9111,
      "ĠÅĻeÅ¡": 9112,
      "ĠkÃ¡p": 9113,
      "Ġzdem": 9114,
      "ĠtrÃ½ch": 9115,
      "ĠvalÅ¥": 9116,
      "Ġdoub": 9117,
      "ĠvouÅ¡": 9118,
      "ĠdvÃ¡l": 9119,
      "Ġstul": 9120,
      "Ġspoc": 9121,
      "Ġkvzd": 9122,
      "Ġshlav": 9123,
      "Ġtrop": 9124,
      "Ġskol": 9125,
      "ĠsmÄĽst": 9126,
      "Ġmark": 9127,
      "Ġdvard": 9128,
      "Ġkven": 9129,
      "ĠÅĻÃ¡k": 9130,
      "han": 9131,
      "ĠctnÃ½m": 9132,
      "Ġsnim": 9133,
      "ĠvlÃŃp": 9134,
      "Ġjob": 9135,
      "ĠkÅĻen": 9136,
      "Ġkzr": 9137,
      "ĠkzÃŃ": 9138,
      "Ġmand": 9139,
      "ĠsÃ½r": 9140,
      "ĠrÃ½mÅ¾": 9141,
      "ĠzmÃŃst": 9142,
      "Ġssr": 9143,
      "Ġspras": 9144,
      "ĠzdÄĽv": 9145,
      "ĠÅ¡os": 9146,
      "ĠzÃºz": 9147,
      "ĠplouÄį": 9148,
      "Ġclow": 9149,
      "Ġksmut": 9150,
      "Ġhnut": 9151,
      "ĠtlÃŃk": 9152,
      "ĠtlÃŃm": 9153,
      "ĠtlÃŃch": 9154,
      "ĠvbÄĽl": 9155,
      "Ġszim": 9156,
      "Ġscim": 9157,
      "Ġkstol": 9158,
      "Ġnvent": 9159,
      "ĠvchÃ½Å¡": 9160,
      "Ġkzda": 9161,
      "Ġwell": 9162,
      "Ġvmhu": 9163,
      "ĠjseÅ¡": 9164,
      "Ġstaff": 9165,
      "ĠstÅĻap": 9166,
      "ĠvhrÃ¡ch": 9167,
      "AXXXX": 9168,
      "hy": 9169,
      "rÃ©": 9170,
      "Ġvvr": 9171,
      "ĠsvÄįe": 9172,
      "Ġtex": 9173,
      "ĠjiÄį": 9174,
      "Ġuo": 9175,
      "ĠvyÅ¥": 9176,
      "Ġvzj": 9177,
      "Ġspru": 9178,
      "ĠÅ¡iÅĻ": 9179,
      "Ġznad": 9180,
      "Ġtouc": 9181,
      "Ġpum": 9182,
      "ĠstÄĽs": 9183,
      "lÃ½s": 9184,
      "AABAXB": 9185,
      "Ġstouc": 9186,
      "Ġschmi": 9187,
      "Ġkls": 9188,
      "ĠstrÃ¡t": 9189,
      "ĠdrÃ¡m": 9190,
      "ĠÄıÃ¡l": 9191,
      "ĠvdÄĽc": 9192,
      "ĠhlÃ¡Å¡": 9193,
      "Ġzlej": 9194,
      "ĠzleÅ¥": 9195,
      "Ġthou": 9196,
      "ĠthÅ¯m": 9197,
      "Ġkhar": 9198,
      "Ġshoj": 9199,
      "Ġgog": 9200,
      "ĠknouÅ¥": 9201,
      "Ġzruk": 9202,
      "ĠzdÄĽs": 9203,
      "ĠzchÃ¡": 9204,
      "Ġzchmu": 9205,
      "Ġgup": 9206,
      "ĠÅĪÃ¡Äį": 9207,
      "ĠkÄįes": 9208,
      "Ġzhoj": 9209,
      "ĠzsvÃ½ch": 9210,
      "ĠÅ¡vej": 9211,
      "Ġvstrach": 9212,
      "Ġtskou": 9213,
      "Ġthan": 9214,
      "ĠzÅ¾Ã¡": 9215,
      "ĠvtÃ½Å¾": 9216,
      "Ġvsyp": 9217,
      "ĠkdruÅ¾": 9218,
      "Ġvklas": 9219,
      "ĠzpyÅ¡": 9220,
      "Ġshrad": 9221,
      "ĠlpÄĽl": 9222,
      "Ġvvel": 9223,
      "Ġbrecht": 9224,
      "Ġdpran": 9225,
      "AXXXXA": 9226,
      "Ġnber": 9227,
      "ĠvÅĻas": 9228,
      "ĠdÅ¾i": 9229,
      "Ġmnu": 9230,
      "Ġaf": 9231,
      "Ġast": 9232,
      "ĠÅ¾mo": 9233,
      "ĠlaÅĻ": 9234,
      "Ġlast": 9235,
      "leb": 9236,
      "Ġdoch": 9237,
      "Ġnold": 9238,
      "Ġmiv": 9239,
      "ĠtÄĽv": 9240,
      "ĠnouÄį": 9241,
      "Ġtven": 9242,
      "Ġjaz": 9243,
      "Ġmaz": 9244,
      "Ġbesk": 9245,
      "Ġies": 9246,
      "ĠÄįisÅ¥": 9247,
      "Ġhaf": 9248,
      "ĠhlaÅ¥": 9249,
      "Ġsap": 9250,
      "Ġvuc": 9251,
      "ĠpÃŃÅ¥": 9252,
      "ĠzprÅ¯": 9253,
      "ĠflÃ¡": 9254,
      "Ġvdva": 9255,
      "ĠvÅ¾il": 9256,
      "ĠdÃ©r": 9257,
      "Ġchard": 9258,
      "Ġvkve": 9259,
      "Ġzmen": 9260,
      "ĠvmÅĻÃŃ": 9261,
      "ĠbrÅ¯m": 9262,
      "Ġvstrou": 9263,
      "ĠstÄĽl": 9264,
      "ĠvzpÅĻÃ¡": 9265,
      "ĠsliÅ¥": 9266,
      "Ġnesv": 9267,
      "ĠsvÃŃÅ¾": 9268,
      "Ġkslou": 9269,
      "ĠksnÅ¯m": 9270,
      "ĠÅ¾aÄį": 9271,
      "ĠÅ¥oun": 9272,
      "ĠkpÃ³": 9273,
      "ĠvlÃŃst": 9274,
      "Ġkbal": 9275,
      "ĠdlÃ¡Äį": 9276,
      "ĠdlÃ¡ch": 9277,
      "Ġgir": 9278,
      "Ġskul": 9279,
      "Ġchran": 9280,
      "Ġssou": 9281,
      "Ġzkan": 9282,
      "ĠÃ¡h": 9283,
      "Ġpoll": 9284,
      "ĠmÄĽjÅ¾": 9285,
      "Ġzhan": 9286,
      "ĠzdrÅ¥": 9287,
      "ĠzjaÅĻ": 9288,
      "Ġvkrok": 9289,
      "Ġkult": 9290,
      "ĠvbÄĽs": 9291,
      "ĠÅ¾dÃ¡t": 9292,
      "ĠkspÄĽ": 9293,
      "Ġkpras": 9294,
      "ĠvjÃŃc": 9295,
      "ĠvÅ¾eÅĪ": 9296,
      "Ġvvl": 9297,
      "ĠvrÃ½t": 9298,
      "Ġvztah": 9299,
      "Ġzmlkl": 9300,
      "ĠvtÃ½d": 9301,
      "ĠmÃ³n": 9302,
      "Ġmyrt": 9303,
      "ĠkÅ¾er": 9304,
      "ĠsmraÄį": 9305,
      "Ġskiz": 9306,
      "ĠbÃ³v": 9307,
      "Ġvvzpo": 9308,
      "Ġtknout": 9309,
      "Ġvzvon": 9310,
      "Ġtmel": 9311,
      "ĠmkrÃ¡t": 9312,
      "ĠjrÅ¯z": 9313,
      "rr": 9314,
      "vem": 9315,
      "Ġnri": 9316,
      "Ġts": 9317,
      "Ġlve": 9318,
      "Ġbrd": 9319,
      "ĠnaÅ¾": 9320,
      "ĠÅ¾ÄıÃ¡": 9321,
      "ĠchÅĻÃ¡": 9322,
      "Ġtir": 9323,
      "Ġtoc": 9324,
      "Ġtoch": 9325,
      "ĠnÃ½r": 9326,
      "XAABAB": 9327,
      "XAAXAX": 9328,
      "ĠtÄĽd": 9329,
      "ĠvÄĽch": 9330,
      "ĠvÅ¡o": 9331,
      "ĠmoÄį": 9332,
      "Ġjad": 9333,
      "Ġrur": 9334,
      "Ġbeh": 9335,
      "ĠpÅĻeÅ¾": 9336,
      "Ġpep": 9337,
      "ĠvsrÃ¡z": 9338,
      "Ġfj": 9339,
      "ĠfÃ³r": 9340,
      "Ġhrat": 9341,
      "Ġkval": 9342,
      "Ġvrad": 9343,
      "Ġvpoch": 9344,
      "ĠÅ¡up": 9345,
      "ĠspÄĽk": 9346,
      "ĠslÃŃd": 9347,
      "Ġkryb": 9348,
      "Ġschmu": 9349,
      "ĠtÅĻiÅ¥": 9350,
      "Ġzour": 9351,
      "Ġvjez": 9352,
      "ĠdlÃŃÄį": 9353,
      "ĠchÅ¯z": 9354,
      "ĠjoÅ¡t": 9355,
      "ĠsnÃ¡d": 9356,
      "ĠvskÅĻe": 9357,
      "ĠvkaÅ¡": 9358,
      "Ġoul": 9359,
      "Ġrakt": 9360,
      "ĠplÃŃÅ¡": 9361,
      "Ġgrand": 9362,
      "Ġfranc": 9363,
      "Ġvspi": 9364,
      "Ġploun": 9365,
      "ĠnehÅĻ": 9366,
      "Ġvhluk": 9367,
      "ĠcÃ¡b": 9368,
      "Ġkim": 9369,
      "Ġzmuk": 9370,
      "Ġvcud": 9371,
      "ĠdÅ¾Ã¡r": 9372,
      "ĠvnouÄį": 9373,
      "ĠpnÄĽl": 9374,
      "ĠpnÄĽm": 9375,
      "ĠkÅĻtil": 9376,
      "ĠmlÃŃÄį": 9377,
      "ĠtmÃ¡ÅĻ": 9378,
      "ĠÅ¡kvÃ¡r": 9379,
      "ĠÄįmoud": 9380,
      "ĠvtÅĻpyt": 9381,
      "ĠsÅĻi": 9382,
      "Ġtnul": 9383,
      "Ġlak": 9384,
      "ĠÅ¾Äı": 9385,
      "Ġchich": 9386,
      "Ġnol": 9387,
      "ĠvÃ¡ÅĪ": 9388,
      "Ġlois": 9389,
      "ĠtÃ¡v": 9390,
      "Ġbaf": 9391,
      "ÅĪk": 9392,
      "Ġhlej": 9393,
      "ĠzpÃ½": 9394,
      "Ġvdvor": 9395,
      "Ġklac": 9396,
      "ĠsloÄı": 9397,
      "ĠchyÅ¾": 9398,
      "Ġztle": 9399,
      "ĠvhÅĻbi": 9400,
      "Ġstrech": 9401,
      "Ġmram": 9402,
      "Ġshnu": 9403,
      "Ġklok": 9404,
      "ĠtlaÄį": 9405,
      "Ġksle": 9406,
      "Ġsber": 9407,
      "ĠknÄĽj": 9408,
      "ĠktÅ¯": 9409,
      "ĠkzÅĻÃŃ": 9410,
      "Ġvrok": 9411,
      "Ġyer": 9412,
      "ĠtkÃ¡n": 9413,
      "ĠÅ¡ils": 9414,
      "ĠcheÅĪ": 9415,
      "ĠvÄįlun": 9416,
      "Ġberg": 9417,
      "ĠÅ¾uÅ¾": 9418,
      "XABBAB": 9419,
      "ĠvjiÅ¾": 9420,
      "Ġxer": 9421,
      "Ġvtep": 9422,
      "Ġkstu": 9423,
      "Ġsjis": 9424,
      "Ġkloud": 9425,
      "ĠklouÄį": 9426,
      "ĠztuÄį": 9427,
      "ĠmhÃ¡ch": 9428,
      "Ġshlas": 9429,
      "ĠrdÃŃÅ¡": 9430,
      "Ġvcval": 9431,
      "ĠzpÅĻÃŃz": 9432,
      "ĠzÄįlo": 9433,
      "ĠstlÃ¡n": 9434,
      "Ġvstrom": 9435,
      "Ġvgo": 9436,
      "ĠzvÅ¡ed": 9437,
      "ĠdskÃ½": 9438,
      "Ġzza": 9439,
      "Ġvklus": 9440,
      "ĠvepÅĻ": 9441,
      "ĠllÃ¡r": 9442,
      "ĠzhÃ½Äį": 9443,
      "ĠvÅ¡ke": 9444,
      "ĠvsliÄį": 9445,
      "ĠvskrÃ½Å¡": 9446,
      "Ġdchnu": 9447,
      "ĠzdÅĻim": 9448,
      "ĠcmÃŃr": 9449,
      "kou": 9450,
      "ĠjÅĻi": 9451,
      "Ġzsk": 9452,
      "ĠrÄįe": 9453,
      "ĠaÅ¡": 9454,
      "XXXAAA": 9455,
      "ĠÄįkÃ¡": 9456,
      "Ġchnut": 9457,
      "ĠnÃŃl": 9458,
      "ĠdohÅĻ": 9459,
      "Ġmiz": 9460,
      "Ġnip": 9461,
      "ĠlÃŃv": 9462,
      "ĠhaÅĻ": 9463,
      "Ġhlan": 9464,
      "ĠvÃ©zt": 9465,
      "Ġev": 9466,
      "ĠgÃ¡l": 9467,
      "Ġgto": 9468,
      "ĠÄįerÅĪ": 9469,
      "Ġdlak": 9470,
      "Ġspoh": 9471,
      "ĠpiÅ¾": 9472,
      "Ġzden": 9473,
      "Ġvblouz": 9474,
      "Ġshar": 9475,
      "skÃ½ch": 9476,
      "AXAAA": 9477,
      "ĠjuÅ¡": 9478,
      "Ġtlal": 9479,
      "Ġsbli": 9480,
      "Ġdlov": 9481,
      "ĠÅ¥si": 9482,
      "Ġhort": 9483,
      "Ġnalt": 9484,
      "ĠsvÃ¡n": 9485,
      "Ġkzt": 9486,
      "ĠsrÃ½": 9487,
      "Ġskald": 9488,
      "ĠbluÄı": 9489,
      "ĠkbÃ¡s": 9490,
[...]
