{
  "version": "1.0",
  "truncation": null,
  "padding": null,
  "added_tokens": [
    {
      "id": 0,
      "content": "<|EOS|>",
      "single_word": false,
      "lstrip": false,
      "rstrip": false,
      "normalized": false,
      "special": true
    },
    {
      "id": 1,
      "content": "<|PAD|>",
      "single_word": false,
      "lstrip": false,
      "rstrip": false,
      "normalized": false,
      "special": true
    },
    {
      "id": 2,
      "content": "<|UNK|>",
      "single_word": false,
      "lstrip": false,
      "rstrip": false,
      "normalized": false,
      "special": true
    }
  ],
  "normalizer": null,
  "pre_tokenizer": {
    "type": "ByteLevel",
    "add_prefix_space": false,
    "trim_offsets": true,
    "use_regex": true
  },
  "post_processor": {
    "type": "ByteLevel",
    "add_prefix_space": true,
    "trim_offsets": false,
    "use_regex": true
  },
  "decoder": {
    "type": "ByteLevel",
    "add_prefix_space": true,
    "trim_offsets": true,
    "use_regex": true
  },
  "model": {
    "type": "BPE",
    "dropout": null,
    "unk_token": null,
    "continuing_subword_prefix": null,
    "end_of_word_suffix": null,
    "fuse_unk": false,
    "byte_fallback": false,
    "vocab": {
      "<|EOS|>": 0,
      "<|PAD|>": 1,
      "<|UNK|>": 2,
      "!": 3,
      "#": 4,
      ",": 5,
      ".": 6,
      "0": 7,
      "1": 8,
      "2": 9,
      "3": 10,
      "4": 11,
      "5": 12,
      "6": 13,
      "7": 14,
      "8": 15,
      "9": 16,
      "?": 17,
      "A": 18,
      "B": 19,
      "C": 20,
      "D": 21,
      "H": 22,
      "J": 23,
      "N": 24,
      "P": 25,
      "T": 26,
      "X": 27,
      "Y": 28,
      "a": 29,
      "b": 30,
      "c": 31,
      "d": 32,
      "e": 33,
      "f": 34,
      "g": 35,
      "h": 36,
      "i": 37,
      "j": 38,
      "k": 39,
      "l": 40,
      "m": 41,
      "n": 42,
      "o": 43,
      "p": 44,
      "q": 45,
      "r": 46,
      "s": 47,
      "t": 48,
      "u": 49,
      "v": 50,
      "w": 51,
      "x": 52,
      "y": 53,
      "z": 54,
      "¡": 55,
      "¤": 56,
      "¥": 57,
      "©": 58,
      "¯": 59,
      "³": 60,
      "¶": 61,
      "º": 62,
      "¼": 63,
      "½": 64,
      "¾": 65,
      "Ã": 66,
      "Ä": 67,
      "Å": 68,
      "Ċ": 69,
      "Ġ": 70,
      "Ī": 71,
      "į": 72,
      "ı": 73,
      "Ļ": 74,
      "Ľ": 75,
      "Ń": 76,
      "Ġ#": 77,
      "Ġs": 78,
      "Ġn": 79,
      "Ġv": 80,
      "Ġt": 81,
      "ÃŃ": 82,
      "Ġk": 83,
      "Ġ1": 84,
      "Ġd": 85,
      "Ã¡": 86,
      "Ġp": 87,
      "Ġj": 88,
      "ÄĽ": 89,
      "Ġm": 90,
      "Ġl": 91,
      "Ġz": 92,
      "ĠÅ": 93,
      "Ġb": 94,
      "Ġc": 95,
      "Ġh": 96,
      "ou": 97,
      "Ġr": 98,
      "Ã½": 99,
      "Äį": 100,
      "Ġa": 101,
      "Ã©": 102,
      "Ġst": 103,
      "ÅĻ": 104,
      "Ġje": 105,
      "Ġ10": 106,
      "Ġ8": 107,
      "ch": 108,
      "Ġse": 109,
      "Å¾": 110,
      "la": 111,
      "Ġ11": 112,
      "Ġne": 113,
      "ĠÅ¾": 114,
      "Ġna": 115,
      "ĠÅ¡": 116,
      "Å¡": 117,
      "ra": 118,
      "ĠÄį": 119,
      "Ġch": 120,
      "Ġo": 121,
      "em": 122,
      "Ġpo": 123,
      "Å¯": 124,
      "XX": 125,
      "Ġsv": 126,
      "Ġle": 127,
      "le": 128,
      "ĠnÃŃ": 129,
      "Ġko": 130,
      "ak": 131,
      "ro": 132,
      "Ġho": 133,
      "st": 134,
      "AB": 135,
      "Ġli": 136,
      "ĠÅĻ": 137,
      "Ġce": 138,
      "Ġ9": 139,
      "Ġte": 140,
      "Ġza": 141,
      "Ġdo": 142,
      "ĠnÄĽ": 143,
      "ÅĻe": 144,
      "Ġto": 145,
      "Ġti": 146,
      "al": 147,
      "ĠÅ¾e": 148,
      "Ġby": 149,
      "Ġji": 150,
      "Ġno": 151,
      "Ġka": 152,
      "Ġmi": 153,
      "Ġ19": 154,
      "Ġ7": 155,
      "Ġni": 156,
      "Ġla": 157,
      "ĠnÃ¡": 158,
      "Ġve": 159,
      "rÃ¡": 160,
      "Ġro": 161,
      "ĠnÃ½": 162,
      "Ġsl": 163,
      "Ġta": 164,
      "Ġu": 165,
      "ĠvÄĽ": 166,
      "Ġkd": 167,
      "ne": 168,
      "ĠjÃŃ": 169,
      "ĠnÃ©": 170,
      "ĠtÄĽ": 171,
      "ni": 172,
      "ĠvÅ¡": 173,
      "Ġsk": 174,
      "Ġde": 175,
      "Ġva": 176,
      "li": 177,
      "Ġvo": 178,
      "ĠÅ¡e": 179,
      "ĠÄįe": 180,
      "ÅĻi": 181,
      "Ġlo": 182,
      "Ġky": 183,
      "Ġmo": 184,
      "Ġku": 185,
      "Ġ6": 186,
      "ĠdÄĽ": 187,
      "Ġvi": 188,
      "Ġmu": 189,
      "Ġdu": 190,
      "ĠvÃ¡": 191,
      "Ġvy": 192,
      "Ġpa": 193,
      "Ġbo": 194,
      "Ġ12": 195,
      "Ġtv": 196,
      "Ġjak": 197,
      "Ġdi": 198,
      "ÅĻÃŃ": 199,
      "Ġvz": 200,
      "lo": 201,
      "Ġjs": 202,
      "Ġma": 203,
      "Ġ18": 204,
      "vÄĽ": 205,
      "ĠmÄĽ": 206,
      "Ġme": 207,
      "nÄĽ": 208,
      "ĠtÃŃ": 209,
      "Ġja": 210,
      "Ġze": 211,
      "Ġsp": 212,
      "ĠvÃŃ": 213,
      "Ġpro": 214,
      "Ġsi": 215,
      "ru": 216,
      "Ġtu": 217,
      "Ġru": 218,
      "Ġci": 219,
      "Ġsta": 220,
      "ĠÅ¾i": 221,
      "Ġda": 222,
      "Ġnou": 223,
      "ĠAB": 224,
      "Ġnu": 225,
      "Ġbe": 226,
      "ĠdÃŃ": 227,
      "na": 228,
      "00": 229,
      "ĠdÃ¡": 230,
      "Ġra": 231,
      "Ġ1900": 232,
      "Ġjen": 233,
      "ĠÄįi": 234,
      "ti": 235,
      "Å¥": 236,
      "XXXX": 237,
      "XA": 238,
      "ĠcÃŃ": 239,
      "ĠÅĻe": 240,
      "Ã½ch": 241,
      "Ġ13": 242,
      "ĠpÅĻe": 243,
      "Ġco": 244,
      "Ġbu": 245,
      "lu": 246,
      "va": 247,
      "ĠÅ¡ÃŃ": 248,
      "Ġkdy": 249,
      "ĠmÃ¡": 250,
      "Ġsm": 251,
      "Ġzd": 252,
      "Ġny": 253,
      "Ġty": 254,
      "ĠABAB": 255,
      "Ġi": 256,
      "Ġsti": 257,
      "Ġhla": 258,
      "lÃ¡": 259,
      "ĠvÅ¡e": 260,
      "ĠÄįÃŃ": 261,
      "ĠsvÄĽ": 262,
      "ĠlÃ¡": 263,
      "Ġzv": 264,
      "ĠlÃŃ": 265,
      "Ġdy": 266,
      "Ġha": 267,
      "ĠA": 268,
      "80": 269,
      "Ġ1880": 270,
      "ĠkÃ¡": 271,
      "20": 272,
      "te": 273,
      "Ġsa": 274,
      "ĠXXXX": 275,
      "ĠrÃ¡": 276,
      "Ġly": 277,
      "ĠbÄĽ": 278,
      "ny": 279,
      "ĠÅĻÃŃ": 280,
      "ĠmÃŃ": 281,
      "Ã½m": 282,
      "Ġtak": 283,
      "Äı": 284,
      "ce": 285,
      "ly": 286,
      "ĠÃ": 287,
      "Ġpra": 288,
      "ĠkrÃ¡": 289,
      "no": 290,
      "ĠÅ¡i": 291,
      "Ġpe": 292,
      "Ġ1920": 293,
      "Ġjsem": 294,
      "je": 295,
      "ĠÅ¾ÃŃ": 296,
      "ĠpÅĻi": 297,
      "ĠzÃ¡": 298,
      "Ġba": 299,
      "Ġhle": 300,
      "ÅĪ": 301,
      "Ġpr": 302,
      "Ġkou": 303,
      "Ġkr": 304,
      "ĠsÃŃ": 305,
      "ĠÅĻi": 306,
      "ĠstÃŃ": 307,
      "Ġbi": 308,
      "tÄĽ": 309,
      "Ġlu": 310,
      "ĠvÃ½": 311,
      "rd": 312,
      "Ġtr": 313,
      "Ġzp": 314,
      "Ġsla": 315,
      "Ġvs": 316,
      "ĠvÃ©": 317,
      "ci": 318,
      "ji": 319,
      "ĠkdyÅ¾": 320,
      "dy": 321,
      "Ġcho": 322,
      "lou": 323,
      "ĠkÃ©": 324,
      "Ġmy": 325,
      "Ġvp": 326,
      "ĠtÃ¡": 327,
      "lÃŃ": 328,
      "vi": 329,
      "ka": 330,
      "ku": 331,
      "Ġhu": 332,
      "Ġsto": 333,
      "Ġ5": 334,
      "ĠjÃ¡": 335,
      "nÃŃ": 336,
      "ĠtÃ©": 337,
      "ĠAAB": 338,
      "Ġod": 339,
      "Ġsy": 340,
      "ĠlÃ©": 341,
      "Å¯j": 342,
      "Ġpla": 343,
      "vÃŃ": 344,
      "ĠvÅ¡ak": 345,
      "ĠXA": 346,
      "Ġroz": 347,
      "ĠsvÃ©": 348,
      "ĠpÄĽ": 349,
      "ky": 350,
      "Ġso": 351,
      "ĠpÃŃ": 352,
      "nou": 353,
      "ĠÄįa": 354,
      "Ġten": 355,
      "Ġf": 356,
      "Ġkde": 357,
      "Ġvu": 358,
      "Ġvd": 359,
      "Ġsu": 360,
      "ĠnÃ½ch": 361,
      "Ġpi": 362,
      "nu": 363,
      "Ġchu": 364,
      "Ġry": 365,
      "Ġsrd": 366,
      "Ġste": 367,
      "ĠbÃŃ": 368,
      "ĠAABB": 369,
      "Ġvla": 370,
      "me": 371,
      "Ġtam": 372,
      "ve": 373,
      "ĠhÃ¡": 374,
      "Ġre": 375,
      "Ġbra": 376,
      "ĠpÃ¡": 377,
      "Ġvt": 378,
      "ĠjiÅ¾": 379,
      "Ġpu": 380,
      "Ġslu": 381,
      "40": 382,
      "ĠstÃ¡": 383,
      "ĠÃº": 384,
      "Ġtou": 385,
      "ĠkÅ¯": 386,
      "ĠkÃ½": 387,
      "ĠzÃŃ": 388,
      "sti": 389,
      "Ġkra": 390,
      "Ġbyl": 391,
      "Ġval": 392,
      "Ġzra": 393,
      "Å¾i": 394,
      "Ġhy": 395,
      "ĠpÅĻÃŃ": 396,
      "Ġnad": 397,
      "ĠXAXA": 398,
      "Ġslo": 399,
      "Ġcha": 400,
      "Ġdra": 401,
      "ĠjeÅ¾": 402,
      "Ġkem": 403,
      "Ġkla": 404,
      "Ġzm": 405,
      "Ġkle": 406,
      "ĠkvÄĽ": 407,
      "lÃ©": 408,
      "Ġzb": 409,
      "Ġzi": 410,
      "Ġzla": 411,
      "ho": 412,
      "Ġhra": 413,
      "Ġbou": 414,
      "ta": 415,
      "ĠvÅ¾": 416,
      "ĠsÃ¡": 417,
      "Ġzas": 418,
      "nÃ¡": 419,
      "Ġhro": 420,
      "du": 421,
      "ĠmÃ©": 422,
      "Äįi": 423,
      "Ġdou": 424,
      "vy": 425,
      "Ġvra": 426,
      "Ġtem": 427,
      "Ġg": 428,
      "Ġden": 429,
      "Ġe": 430,
      "ĠlÃ½": 431,
      "ĠnÃ½m": 432,
      "de": 433,
      "vo": 434,
      "ĠlÃ¡s": 435,
      "CC": 436,
      "ry": 437,
      "di": 438,
      "Ġstra": 439,
      "Ġsva": 440,
      "Ġkte": 441,
      "Ġpou": 442,
      "ĠÄįer": 443,
      "ĠvÅ¾dy": 444,
      "Å¡i": 445,
      "Ġpak": 446,
      "Ġpod": 447,
      "Ġbez": 448,
      "Ġkdo": 449,
      "ha": 450,
      "ĠdÃ©": 451,
      "ĠbÃ¡": 452,
      "ĠdÃ½": 453,
      "Ġspo": 454,
      "Ġbla": 455,
      "Ġvk": 456,
      "Ġsou": 457,
      "ĠnÃŃm": 458,
      "Ġsle": 459,
      "Ġ15": 460,
      "ĠjenÅ¾": 461,
      "Ġlem": 462,
      "Ġjed": 463,
      "Ġsna": 464,
      "Ġ14": 465,
      "Ġmne": 466,
      "ĠtÃ½": 467,
      "Ġzo": 468,
      "Ġpl": 469,
      "ĠaÅ¾": 470,
      "ĠXXXXXX": 471,
      "Äįe": 472,
      "Ġjest": 473,
      "Ġjich": 474,
      "60": 475,
      "Ġsvo": 476,
      "ĠpÅĻed": 477,
      "Ġvou": 478,
      "Ġhou": 479,
      "Ġchy": 480,
      "ĠÃ³": 481,
      "Ġdne": 482,
      "Ġvm": 483,
      "ĠtÅĻe": 484,
      "da": 485,
      "Ġzem": 486,
      "Ġkli": 487,
      "Ġstu": 488,
      "ĠnÃ¡m": 489,
      "Ġlou": 490,
      "Ġvr": 491,
      "Ġke": 492,
      "ĠsvÄĽt": 493,
      "Ġsly": 494,
      "Ġhr": 495,
      "Ġdal": 496,
      "Ġble": 497,
      "Ġ4": 498,
      "sk": 499,
      "Ġdru": 500,
      "Ġvst": 501,
      "mi": 502,
      "Ġzu": 503,
      "ĠtvÃ¡": 504,
      "ĠchÃ¡": 505,
      "ĠteÄı": 506,
      "ĠjeÅ¡": 507,
      "Ġsem": 508,
      "Ġdla": 509,
      "Ġdr": 510,
      "ĠprÃ¡": 511,
      "ĠkaÅ¾": 512,
      "Ġsvou": 513,
      "ĠrÅ¯": 514,
      "ĠÅ¡el": 515,
      "ĠdÄĽl": 516,
      "Ġlid": 517,
      "Ġ16": 518,
      "Ġhe": 519,
      "Ġzt": 520,
      "ma": 521,
      "ty": 522,
      "ĠuÅ¾": 523,
      "Ġmra": 524,
      "Ġtvo": 525,
      "Ġ1940": 526,
      "Ġstro": 527,
      "Ġjej": 528,
      "vÄĽz": 529,
      "Ġbr": 530,
      "Ġjsou": 531,
      "Ġvl": 532,
      "ĠrÃ©": 533,
      "BA": 534,
      "Å¯m": 535,
      "Ġzvo": 536,
      "Ġon": 537,
      "ĠchvÄĽ": 538,
      "Ġjsi": 539,
      "ĠplÃ¡": 540,
      "Ġvb": 541,
      "Ġmla": 542,
      "Ġkro": 543,
      "ĠbÃ½": 544,
      "Ġvel": 545,
      "ĠvÅ¡ech": 546,
      "ĠhvÄĽz": 547,
      "ĠskÃ©": 548,
      "Ġjem": 549,
      "Ġslun": 550,
      "ĠtÃŃm": 551,
      "ĠtvÃ©": 552,
      "ĠstÅĻe": 553,
      "ĠstÄĽ": 554,
      "Ġnech": 555,
      "Ġsnad": 556,
      "ĠmnÄĽ": 557,
      "Å¡e": 558,
      "Ġtra": 559,
      "ĠvÅ¯": 560,
      "ĠnÃ©m": 561,
      "Ġzde": 562,
      "ĠvÅ¡ec": 563,
      "ĠmÅ¯j": 564,
      "Ġmr": 565,
      "ĠmÅ¯": 566,
      "Ġspa": 567,
      "Ġneb": 568,
      "Ġnej": 569,
      "mu": 570,
      "ĠABBA": 571,
      "Ġbych": 572,
      "Ġdnes": 573,
      "ĠneÅ¾": 574,
      "ĠrÃ½": 575,
      "Ġob": 576,
      "Ġnes": 577,
      "Ġrou": 578,
      "Ġ1860": 579,
      "Ġhlas": 580,
      "ĠÅ¾Ã¡": 581,
      "Ġvh": 582,
      "Ġsvi": 583,
      "Ġkol": 584,
      "ĠvÅĻe": 585,
      "Ġtro": 586,
      "Ġdlou": 587,
      "Ġdem": 588,
      "Ġjas": 589,
      "Ġstr": 590,
      "ĠÅ¡tÄĽ": 591,
      "Ġsli": 592,
      "Ġ1840": 593,
      "ĠzpÄĽ": 594,
      "Ġzk": 595,
      "Ġvzp": 596,
      "Ġdle": 597,
      "Ġmou": 598,
      "Ġslad": 599,
      "Ġhlu": 600,
      "ĠaÅ¥": 601,
      "ĠÄįas": 602,
      "ĠkÅĻi": 603,
      "ĠvÄĽÄį": 604,
      "Ġzy": 605,
      "Ġnem": 606,
      "Ġmat": 607,
      "Ġtel": 608,
      "ÅĻÃ¡": 609,
      "ĠÅ¾a": 610,
      "ĠchvÃŃ": 611,
      "vÃ¡": 612,
      "lÃ½": 613,
      "Ġpy": 614,
      "ĠAA": 615,
      "Ġles": 616,
      "ĠkvÄĽt": 617,
      "Ġmno": 618,
      "ĠsmÄĽ": 619,
      "Ġsmu": 620,
      "ĠhÃ½": 621,
      "Ġzh": 622,
      "Ġpt": 623,
      "ĠchtÄĽ": 624,
      "Ġsmr": 625,
      "Ġvot": 626,
      "ĠÅ¡le": 627,
      "ĠkrÃ¡s": 628,
      "Ġnik": 629,
      "Ġjsme": 630,
      "Ġstou": 631,
      "Ġzve": 632,
      "ĠvÃ¡m": 633,
      "ĠsÃ¡m": 634,
      "Ġple": 635,
      "Ġkam": 636,
      "ĠnÃ¡s": 637,
      "Ġdiv": 638,
      "Ġtva": 639,
      "ĠkÅĻÃŃ": 640,
      "ĠmÄĽl": 641,
      "ĠsnÃŃ": 642,
      "ze": 643,
      "Ġks": 644,
      "Ġklo": 645,
      "dÄĽ": 646,
      "Ġzlo": 647,
      "ĠstvÃŃ": 648,
      "ĠbÅ¯": 649,
      "ko": 650,
      "Ġzda": 651,
      "ĠsnÄĽ": 652,
      "ĠdÃ¡l": 653,
      "Ġsko": 654,
      "Ġml": 655,
      "Ġchla": 656,
      "Ġpoz": 657,
      "ĠspÄĽ": 658,
      "ĠhÃ©": 659,
      "to": 660,
      "Ġmlu": 661,
      "Ġtom": 662,
      "Ġsb": 663,
      "Ġnic": 664,
      "ĠnÄĽj": 665,
      "si": 666,
      "ĠzÅĻÃŃ": 667,
      "Å¾e": 668,
      "Ġjim": 669,
      "Ġdli": 670,
      "ĠbÅĻe": 671,
      "Ġnost": 672,
      "val": 673,
      "ĠtÅ¯": 674,
      "vu": 675,
      "tu": 676,
      "ĠzdÃ¡": 677,
      "ĠslÃ¡": 678,
      "Ġju": 679,
      "ĠsvÃŃ": 680,
      "ĠÅĻa": 681,
      "ĠÅ¡u": 682,
      "Ġnez": 683,
      "ĠnÅ¯": 684,
      "Ġsni": 685,
      "Ġzrak": 686,
      "ste": 687,
      "Ġsty": 688,
      "Ġvpo": 689,
      "Ġmoc": 690,
      "Ġvle": 691,
      "Ġtil": 692,
      "ĠznÃ¡": 693,
      "Ġtru": 694,
      "ĠleÄį": 695,
      "Ġkre": 696,
      "ĠcÃŃch": 697,
      "ĠÅĪ": 698,
      "Ġzvu": 699,
      "Ġri": 700,
      "chu": 701,
      "ĠvrÃ¡": 702,
      "ĠptÃ¡": 703,
      "at": 704,
      "Ġkry": 705,
      "Ġmen": 706,
      "Ġsil": 707,
      "Ġnul": 708,
      "Ġsen": 709,
      "Ġsmut": 710,
      "Ġmar": 711,
      "hu": 712,
      "Ġdost": 713,
      "ĠXX": 714,
      "Ġvto": 715,
      "Ġven": 716,
      "Ġhne": 717,
      "ĠskÃ¡": 718,
      "ĠdÅ¯": 719,
      "ĠÄįlo": 720,
      "Ġpad": 721,
      "vou": 722,
      "Ġkru": 723,
      "Ġlet": 724,
      "vÃ©": 725,
      "sÅ¥": 726,
      "Ġchem": 727,
      "ĠdÅĻÃŃ": 728,
      "nich": 729,
      "Ġvil": 730,
      "ĠsvÅ¯j": 731,
      "Ġsud": 732,
      "Ġtla": 733,
      "hy": 734,
      "ĠlÅ¯": 735,
      "ĠbrÃ¡": 736,
      "ĠpÃŃs": 737,
      "zi": 738,
      "Ġklid": 739,
      "ĠtÅĻÃŃ": 740,
      "ĠblÃŃ": 741,
      "ĠbÅ¯h": 742,
      "Ġkal": 743,
      "ĠtÅĻi": 744,
      "ĠzvÄĽ": 745,
      "ĠAABBCC": 746,
      "Ġan": 747,
      "Ġsch": 748,
      "Ġhned": 749,
      "ĠvlÃ¡": 750,
      "Ġchce": 751,
      "ĠvnÄĽ": 752,
      "Ġdl": 753,
      "Ġrem": 754,
      "Ġsh": 755,
      "Ġrod": 756,
      "ĠknÄĽ": 757,
      "ĠvÃ½ch": 758,
      "Ġtek": 759,
      "ĠAAXX": 760,
      "bi": 761,
      "ĠvÃŃc": 762,
      "Ġvat": 763,
      "ĠvÃŃm": 764,
      "ĠtÄĽch": 765,
      "Ġzna": 766,
      "ĠpÅ¯": 767,
      "ĠÅ¥": 768,
      "Ġach": 769,
      "Ġdil": 770,
      "ĠtvÅ¯j": 771,
      "nem": 772,
      "Ġnoc": 773,
      "Ġvem": 774,
      "ĠkÃ½ch": 775,
      "Ġot": 776,
      "Ġsled": 777,
      "ĠtÄĽÅ¾": 778,
      "ĠproÄį": 779,
      "Ġdech": 780,
      "Ġzje": 781,
      "ĠbuÄı": 782,
      "Ãº": 783,
      "ĠÅ¡li": 784,
      "ĠtÃ©Å¾": 785,
      "ĠzÅĻe": 786,
      "Ġkve": 787,
      "ĠkrÃ¡t": 788,
      "Ġnom": 789,
      "Ġfa": 790,
      "Ġhru": 791,
      "Ġslou": 792,
      "ĠvÄĽk": 793,
      "ĠpÅĻec": 794,
      "Ġstal": 795,
      "Ġbro": 796,
      "ĠÅ¾il": 797,
      "Ġnn": 798,
      "Ġhled": 799,
      "ĠskÃ½": 800,
      "Ġhor": 801,
      "Ġkrev": 802,
      "ĠsvÃ½ch": 803,
      "se": 804,
      "ĠÅ¡la": 805,
      "mÄĽ": 806,
      "Ġcem": 807,
      "ÅĻa": 808,
      "ĠseÅĪ": 809,
      "or": 810,
      "my": 811,
      "Ġvdu": 812,
      "Ġprav": 813,
      "ĠsmÃŃ": 814,
      "Ġnek": 815,
      "Ġvtom": 816,
      "Ġdro": 817,
      "Ġprou": 818,
      "ĠvÃ¡s": 819,
      "tÃŃ": 820,
      "ĠvÄįe": 821,
      "ĠznÄĽ": 822,
      "ĠÄįek": 823,
      "ĠnÃ¡Å¡": 824,
      "ĠÄįÃŃm": 825,
      "Ã¡t": 826,
      "dou": 827,
      "ĠjÃŃm": 828,
      "ĠstÃ©": 829,
      "Ġchvi": 830,
      "bÄĽ": 831,
      "Ġvol": 832,
      "Ġkp": 833,
      "Ġjste": 834,
      "ĠmÃ¡m": 835,
      "ĠpÅĻÃ¡": 836,
      "ĠvÃ½m": 837,
      "ĠspÃŃ": 838,
      "Ġprv": 839,
      "Ġvlast": 840,
      "Ġslav": 841,
      "Ġkne": 842,
      "ĠhrÃ¡": 843,
      "ĠzpÃŃ": 844,
      "ĠpÅĻes": 845,
      "ĠslÃŃ": 846,
      "ĠÅ¡a": 847,
      "Ġduch": 848,
      "ĠsvÃ½m": 849,
      "ĠnÃŃk": 850,
      "ĠABABCC": 851,
      "Ġbes": 852,
      "ĠmuÅ¾": 853,
      "Ġjde": 854,
      "Ġdva": 855,
      "lem": 856,
      "ĠvÄĽr": 857,
      "ĠvnÄĽm": 858,
      "ĠdÃŃm": 859,
      "Ġus": 860,
      "ĠdÃ¡v": 861,
      "ĠÅ¾en": 862,
      "ĠÅ¡ÃŃm": 863,
      "ĠvÃ¡Å¡": 864,
      "ali": 865,
      "Ġhem": 866,
      "Ġlen": 867,
      "Ġvje": 868,
      "Ġbli": 869,
      "ĠnÄĽm": 870,
      "ĠhnÄĽ": 871,
      "Ġzou": 872,
      "ĠcÅ¯": 873,
      "Ġkni": 874,
      "ĠhÅĻÃŃ": 875,
      "ja": 876,
      "Ġtma": 877,
      "Ġvzd": 878,
      "Ġdej": 879,
      "ĠnÃŃch": 880,
      "ĠstÅĻÃŃ": 881,
      "Ġnec": 882,
      "ĠkÃ½m": 883,
      "AX": 884,
      "Ġskry": 885,
      "ĠsÅ¯": 886,
      "ĠspÃ¡": 887,
      "ĠchtÄĽl": 888,
      "Ġnil": 889,
      "Ġzno": 890,
      "Ġvsrd": 891,
      "AA": 892,
      "ĠznÃŃ": 893,
      "Ġdlo": 894,
      "Ã¡l": 895,
      "Ġchlad": 896,
      "Ġvzdu": 897,
      "Ġtlu": 898,
      "ĠstrÃ¡": 899,
      "ĠneÄį": 900,
      "ĠrÃ¡d": 901,
      "Ġoh": 902,
      "ĠkvÃŃ": 903,
      "Ġ3": 904,
      "ĠABABXX": 905,
      "sy": 906,
      "Ġvzpo": 907,
      "Ġdvo": 908,
      "kem": 909,
      "ĠchÃ½": 910,
      "Ġ1960": 911,
      "Ġvne": 912,
      "Ġkon": 913,
      "Ġpan": 914,
      "pi": 915,
      "ĠnÄĽk": 916,
      "Ġnout": 917,
      "ĠvÅ¡em": 918,
      "ĠbÃ½t": 919,
      "Ġkl": 920,
      "Ġpil": 921,
      "ĠdeÅ¡": 922,
      "Ġplo": 923,
      "ĠÅĻek": 924,
      "ĠpÄĽt": 925,
      "ĠskÃ½ch": 926,
      "su": 927,
      "ĠdÃŃv": 928,
      "sa": 929,
      "ĠÄįil": 930,
      "ĠvÅ¾dyÅ¥": 931,
      "ĠmlÃ¡": 932,
      "ĠÅ¡Å¥": 933,
      "Ġlost": 934,
      "be": 935,
      "py": 936,
      "Ġblou": 937,
      "ast": 938,
      "ĠmÃ½": 939,
      "ĠvzÃ¡": 940,
      "ĠchrÃ¡": 941,
      "Ġchle": 942,
      "Ġcit": 943,
      "Ġhl": 944,
      "Ġpom": 945,
      "Ġnal": 946,
      "ĠdÄĽt": 947,
      "ĠpÅĻij": 948,
      "Ġ17": 949,
      "ĠhÅĻ": 950,
      "sky": 951,
      "Ġvod": 952,
      "sta": 953,
      "ĠklÃŃ": 954,
      "Ġdob": 955,
      "Ġmnou": 956,
      "Ġhlou": 957,
      "vat": 958,
      "Ġstat": 959,
      "Ġrov": 960,
      "Ġsne": 961,
      "Ġvza": 962,
      "ĠtrÃ¡": 963,
      "Ġvno": 964,
      "cha": 965,
      "ĠvdÄĽ": 966,
      "ĠsvÃ¡": 967,
      "ĠvÅ¡i": 968,
      "Ġzle": 969,
      "Ġvna": 970,
      "ĠzmÄĽ": 971,
      "ĠstÃ½": 972,
      "ĠÄı": 973,
      "Ġplu": 974,
      "ĠÅ¾al": 975,
      "re": 976,
      "Ġsed": 977,
      "Ġpru": 978,
      "Ġleh": 979,
      "Ġnosti": 980,
      "Ġhod": 981,
      "Ġjo": 982,
      "ĠÅĻil": 983,
      "Ġztra": 984,
      "ĠkÅĻe": 985,
      "ĠXXAA": 986,
      "ĠÄįes": 987,
      "Ġsve": 988,
      "ĠÅ¾el": 989,
      "ĠhlÃŃ": 990,
      "Ġca": 991,
      "ĠmÃŃr": 992,
      "Ġzpo": 993,
      "Ġdce": 994,
      "ĠtvÃ¡ÅĻ": 995,
      "ĠvÅ¡u": 996,
      "ĠjuÅ¾": 997,
      "ĠzpÄĽv": 998,
      "ĠsÃŃc": 999,
      "ĠklÃ¡": 1000,
      "Ġska": 1001,
      "ĠcoÅ¾": 1002,
      "Ġstvo": 1003,
      "Ġlov": 1004,
      "Ġves": 1005,
      "Ġvbo": 1006,
      "Ġpal": 1007,
      "Ġlil": 1008,
      "ĠhÅ¯": 1009,
      "ĠtÃ½ch": 1010,
      "ĠknÃŃ": 1011,
      "ĠdÃ¡m": 1012,
      "ĠtvÃ½ch": 1013,
      "ĠÅ¾eh": 1014,
      "Ġtlo": 1015,
      "ĠpÃ¡n": 1016,
      "CCB": 1017,
      "Ġchra": 1018,
      "Ġzmi": 1019,
      "Ġdn": 1020,
      "hou": 1021,
      "ĠaÄį": 1022,
      "ĠkÃ©m": 1023,
      "ĠdrÃ¡": 1024,
      "ĠzÅ¯": 1025,
      "ĠtvÃŃ": 1026,
      "ĠlÃ½ch": 1027,
      "ĠÅĻÃ¡": 1028,
      "Ġ1820": 1029,
      "ĠÅĪa": 1030,
      "Ġkto": 1031,
      "kou": 1032,
      "ĠÅ¡ep": 1033,
      "Ġvti": 1034,
      "nych": 1035,
      "Ġtys": 1036,
      "ĠkrÃ¡l": 1037,
      "Ġbys": 1038,
      "Ġzbo": 1039,
      "Ġvch": 1040,
      "Ġhrob": 1041,
      "Ġbal": 1042,
      "Ġvni": 1043,
      "ĠvÃ©m": 1044,
      "Ġvrou": 1045,
      "ĠdvÄĽ": 1046,
      "Ġfi": 1047,
      "ĠtÄĽz": 1048,
      "ĠAXA": 1049,
      "ĠchÃ©": 1050,
      "ĠAABCCB": 1051,
      "Ġply": 1052,
      "ba": 1053,
      "ABB": 1054,
      "Ġvro": 1055,
      "Ġbles": 1056,
      "Ġvoj": 1057,
      "Ġskal": 1058,
      "Ġzdo": 1059,
      "Ġmd": 1060,
      "ĠÅ¾ha": 1061,
      "ĠchÅ¯": 1062,
      "Ġzli": 1063,
      "Ġvsta": 1064,
      "Ġchci": 1065,
      "Ġzva": 1066,
      "ĠnÃ¡ch": 1067,
      "Å¡Å¥": 1068,
      "Ġdar": 1069,
      "Ġsmrt": 1070,
      "nost": 1071,
      "ĠÃºs": 1072,
      "ĠkÃ¡ch": 1073,
      "ĠcÃŃm": 1074,
      "ĠneÅ¡": 1075,
      "ĠzrÃ¡": 1076,
      "ĠdlÃŃ": 1077,
      "Ġvzde": 1078,
      "Ġcy": 1079,
      "Ġzro": 1080,
      "Ġtal": 1081,
      "Ġkme": 1082,
      "Ġspi": 1083,
      "Ġhrad": 1084,
      "mo": 1085,
      "ĠÅ¾o": 1086,
      "ĠvlÃŃ": 1087,
      "ĠÅ¡tÃŃ": 1088,
      "Ġzel": 1089,
      "Ġstej": 1090,
      "ĠXAAX": 1091,
      "ĠchvÃ¡": 1092,
      "Ġpev": 1093,
      "Ġboj": 1094,
      "Ġsvit": 1095,
      "ĠmÃ½ch": 1096,
      "Ġvmo": 1097,
      "ĠmÅĻe": 1098,
      "ĠtÅĻ": 1099,
      "Ġblo": 1100,
      "ĠÅ¡Å¥ast": 1101,
      "Ġkri": 1102,
      "Ġche": 1103,
      "Ġlik": 1104,
      "ĠsvÃ©m": 1105,
      "Ġzby": 1106,
      "Ġlek": 1107,
      "Ġtry": 1108,
      "Ġtec": 1109,
      "Ġhroz": 1110,
      "Ġsku": 1111,
      "Ġkva": 1112,
      "Ġkvi": 1113,
      "Ġper": 1114,
      "ĠvnÃŃ": 1115,
      "Ġhlo": 1116,
      "Ġcu": 1117,
      "Ġtes": 1118,
      "Ġlest": 1119,
      "ĠvÄĽt": 1120,
      "ĠhrÅ¯": 1121,
      "ĠdÄĽj": 1122,
      "ĠstÃŃn": 1123,
      "ĠteÄį": 1124,
      "ĠzpÄĽt": 1125,
      "Ġmal": 1126,
      "Ġvzh": 1127,
      "Ã³": 1128,
      "Ġvru": 1129,
      "ĠhlÃ©": 1130,
      "Ġvli": 1131,
      "ĠhlÃ¡": 1132,
      "ĠÅ¡p": 1133,
      "Ġkraj": 1134,
      "Ġok": 1135,
      "ĠhvÄĽzd": 1136,
      "Å¡ti": 1137,
      "Ġzdra": 1138,
      "Ġnit": 1139,
      "Ġpta": 1140,
      "Ġman": 1141,
      "ĠboÅ¾": 1142,
      "Ġsho": 1143,
      "ĠslyÅ¡": 1144,
      "Ġrad": 1145,
      "bu": 1146,
      "Ġskr": 1147,
      "Ġdve": 1148,
      "ĠpÃ½": 1149,
      "Ġvan": 1150,
      "Ġhli": 1151,
      "Ġga": 1152,
      "Ġleb": 1153,
      "Ġsmi": 1154,
      "Ġkdys": 1155,
      "Ġsbo": 1156,
      "Ġskou": 1157,
      "Ġy": 1158,
      "Ġtvou": 1159,
      "ĠÅ¾Ã¡d": 1160,
      "ĠskrÃ¡": 1161,
      "Ġpoj": 1162,
      "Ġvpra": 1163,
      "ĠvÃ¡n": 1164,
      "ĠzÅĻel": 1165,
      "Ġblu": 1166,
      "Ġzved": 1167,
      "Ġtan": 1168,
      "nul": 1169,
      "ĠÄįem": 1170,
      "Ġchou": 1171,
      "Ġsr": 1172,
      "ĠnnÃ©": 1173,
      "Ġchod": 1174,
      "Ġge": 1175,
      "ĠtÃ¡h": 1176,
      "ĠvÅ¾dyc": 1177,
      "ĠvdÃ¡l": 1178,
      "nim": 1179,
      "ĠprÃ½": 1180,
      "Ġled": 1181,
      "tem": 1182,
      "by": 1183,
      "Ġmem": 1184,
      "ĠdÃ½m": 1185,
      "Ġmoh": 1186,
      "Ġjdou": 1187,
      "ĠÅ¡ko": 1188,
      "Ġgi": 1189,
      "Ġbar": 1190,
      "ĠhÅĻe": 1191,
      "ĠvtÃ©": 1192,
      "ĠtoÅ¥": 1193,
      "Ġtk": 1194,
      "ĠmoÅ¾": 1195,
      "Ġlas": 1196,
      "Ġznich": 1197,
      "nym": 1198,
      "Ġvnich": 1199,
      "Ġsklo": 1200,
      "ĠjÃŃc": 1201,
      "ĠvÃº": 1202,
      "Ġzni": 1203,
      "ĠstÃ¡l": 1204,
      "ĠsnÃ¡": 1205,
      "he": 1206,
      "ĠbÃ¡s": 1207,
      "Ġstru": 1208,
      "Ġvko": 1209,
      "Ġvpa": 1210,
      "Ġjar": 1211,
      "Ġvdo": 1212,
      "Ġsn": 1213,
      "ĠÄįin": 1214,
      "Ġchal": 1215,
      "Ġbol": 1216,
      "Ġpoh": 1217,
      "Ġdat": 1218,
      "Ġkmi": 1219,
      "ĠÄįen": 1220,
      "Ġhud": 1221,
      "Ġpot": 1222,
      "ĠnnÃŃ": 1223,
      "ĠÄįel": 1224,
      "ĠdÅĻÃŃv": 1225,
      "ĠlÃ½m": 1226,
      "Ġvze": 1227,
      "Ġvho": 1228,
      "Ġzr": 1229,
      "ĠÅĻÃŃm": 1230,
      "Ġcen": 1231,
      "Ġtaj": 1232,
      "Ġbil": 1233,
      "ĠskvÄĽ": 1234,
      "ĠzvÃŃ": 1235,
      "Ġvzne": 1236,
      "ĠÄįet": 1237,
      "Ġkb": 1238,
      "Ġzma": 1239,
      "Ġsyn": 1240,
      "Ġtvr": 1241,
      "Ġzbra": 1242,
      "ĠlÃ©m": 1243,
      "ĠtrÅ¯": 1244,
      "Ġdin": 1245,
      "rou": 1246,
      "ĠblÃ¡": 1247,
      "Ġkles": 1248,
      "Ġzvy": 1249,
      "ĠdÄĽs": 1250,
      "ĠprÃ¡z": 1251,
      "ĠzÃ¡ÅĻ": 1252,
      "rem": 1253,
      "Ġzdvi": 1254,
      "Ġct": 1255,
      "ĠvÅ¡ÃŃ": 1256,
      "ĠÅ¡len": 1257,
      "Ġ2": 1258,
      "Ġvit": 1259,
      "Ġtis": 1260,
      "ĠnechÅ¥": 1261,
      "ĠÅ¡lÃ©": 1262,
      "Ġstem": 1263,
      "ĠvtÄĽ": 1264,
      "Ġnen": 1265,
      "mÃ©": 1266,
      "Ġnich": 1267,
      "Ġbraz": 1268,
      "ĠmÄĽv": 1269,
      "Ġslov": 1270,
      "Ġsten": 1271,
      "Ġzpi": 1272,
      "ĠrÃ½ch": 1273,
      "Ġcos": 1274,
      "ĠsnÃŃm": 1275,
      "Ġvzte": 1276,
      "ĠmÃŃn": 1277,
      "Ġlist": 1278,
      "Ġver": 1279,
      "ĠvÃŃÅ¡": 1280,
      "ĠÅ¡ich": 1281,
      "ĠÅ¾iti": 1282,
      "Ġsmy": 1283,
      "Ġzka": 1284,
      "ĠÅ¾li": 1285,
      "Ġpov": 1286,
      "ĠtÅĻpy": 1287,
      "Ġdit": 1288,
      "ĠÅ¾Ã¡r": 1289,
      "Ġvka": 1290,
      "Ġret": 1291,
      "Ġps": 1292,
      "ĠsmÃŃch": 1293,
      "Ġjis": 1294,
      "Ġvlo": 1295,
      "mÃŃ": 1296,
      "ĠmÃ¡Å¡": 1297,
      "ĠvÅ¾i": 1298,
      "Ġtech": 1299,
      "ĠÅ¾it": 1300,
      "ĠsklÃ¡": 1301,
      "Ġsvy": 1302,
      "Ġdruh": 1303,
      "Ġcest": 1304,
      "Ġpat": 1305,
      "Ġzvol": 1306,
      "Ġfe": 1307,
      "ĠsÃŃm": 1308,
      "Ġou": 1309,
      "ĠjÃŃÅ¾": 1310,
      "Ġlal": 1311,
      "Ġral": 1312,
      "ÅĪa": 1313,
      "ĠniÄį": 1314,
      "Ġpos": 1315,
      "dne": 1316,
      "Ġstva": 1317,
      "ĠvnÃ¡": 1318,
      "Ġzne": 1319,
      "vr": 1320,
      "Ġzti": 1321,
      "ĠkÅ¯m": 1322,
      "Ġvej": 1323,
      "stvi": 1324,
      "Ġkat": 1325,
      "ĠdlÃ©": 1326,
      "ĠnÄĽl": 1327,
      "ĠjÃŃt": 1328,
      "ĠÅ¥a": 1329,
      "ĠvsvÄĽ": 1330,
      "Ġsme": 1331,
      "Ġzor": 1332,
      "Ġpar": 1333,
      "Ġtre": 1334,
      "Ġkud": 1335,
      "ĠnÄĽÅ¾": 1336,
      "Ġjin": 1337,
      "Ġhal": 1338,
      "ĠliÄį": 1339,
      "ĠkÃ¡m": 1340,
      "Ġsma": 1341,
      "Ġsel": 1342,
      "Ġvani": 1343,
      "Ġtit": 1344,
      "Ġsd": 1345,
      "Ġzjev": 1346,
      "ĠnuÅ¾": 1347,
      "Ġsny": 1348,
      "ĠÅ¡ÃŃch": 1349,
      "ĠpÄĽk": 1350,
      "Ġjme": 1351,
      "Ġvlas": 1352,
      "ĠsnÅ¯": 1353,
      "led": 1354,
      "ĠjejÅ¾": 1355,
      "Ġvzal": 1356,
      "ĠdiÄį": 1357,
      "Ġdly": 1358,
      "ĠjmÃ©": 1359,
      "mou": 1360,
      "ĠtÄĽl": 1361,
      "ĠÅ¡em": 1362,
      "ĠÄįit": 1363,
      "Ġklad": 1364,
      "Ġdav": 1365,
      "til": 1366,
      "ĠvÄĽn": 1367,
      "pa": 1368,
      "ĠmeÄį": 1369,
      "Ġstli": 1370,
      "Ġjici": 1371,
      "Ġor": 1372,
      "ĠpouÅ¡": 1373,
      "ĠÄįÃ¡": 1374,
      "ĠdÄĽv": 1375,
      "Ġstup": 1376,
      "Ġder": 1377,
      "ĠruÄį": 1378,
      "Ġnici": 1379,
      "ĠÅ¾lu": 1380,
      "ĠdÅĻe": 1381,
      "Ġblesk": 1382,
      "ĠÅĻeÄį": 1383,
      "ĠvÃ¡Å¾": 1384,
      "Ġkdes": 1385,
      "Ġlej": 1386,
      "ĠXAXAXX": 1387,
      "Ġas": 1388,
      "Ġbem": 1389,
      "ĠmÄĽk": 1390,
      "Ġol": 1391,
      "Ġnev": 1392,
      "Ġskla": 1393,
      "Ġneni": 1394,
      "Ġkz": 1395,
      "ska": 1396,
      "Ġjal": 1397,
      "ĠÅ¡um": 1398,
      "Ġvzduch": 1399,
      "ĠdÃŃÅ¡": 1400,
      "ĠmÃ½m": 1401,
      "ĠÅ¾ÃŃm": 1402,
      "Ġbyt": 1403,
      "Ġhej": 1404,
      "Ġmrak": 1405,
      "Ġdlit": 1406,
      "ĠAXAX": 1407,
      "Ġgo": 1408,
      "ĠtÃ½m": 1409,
      "Ġhnu": 1410,
      "Ġzvuk": 1411,
      "ĠÄįest": 1412,
      "nal": 1413,
      "ĠhoÅ¾": 1414,
      "Ġprud": 1415,
      "Ġved": 1416,
      "ĠpÅ¯j": 1417,
      "ĠhleÄı": 1418,
      "ĠsvÃ½": 1419,
      "Ġchvili": 1420,
      "Ġkot": 1421,
      "Ġzal": 1422,
      "Ġtle": 1423,
      "ĠzÅĻÃŃm": 1424,
      "ĠpÅ¯l": 1425,
      "ĠhruÄı": 1426,
      "Ġkrok": 1427,
      "ĠÅ¡lo": 1428,
      "Ġzce": 1429,
      "ĠvÅ¡ich": 1430,
      "Ġum": 1431,
      "Ġnel": 1432,
      "ĠliÅ¡": 1433,
      "Ġproud": 1434,
      "ĠtÃ©m": 1435,
      "Ġstar": 1436,
      "Ġkso": 1437,
      "ĠÅ¡il": 1438,
      "ĠdÃ½ch": 1439,
      "Ġsal": 1440,
      "Ġsnu": 1441,
      "ĠdlÃ¡": 1442,
      "Ġskle": 1443,
      "Ġrak": 1444,
      "Ġfra": 1445,
      "Ġhlad": 1446,
      "ĠvzhÅ¯": 1447,
      "ĠtoÅ¾": 1448,
      "nout": 1449,
      "Ġsam": 1450,
      "Ġzim": 1451,
      "Ġnav": 1452,
      "Ġkost": 1453,
      "ĠÅĻem": 1454,
      "Ġvzk": 1455,
      "ĠtÄĽm": 1456,
      "Ġdel": 1457,
      "ĠvlÃ¡d": 1458,
      "Ġjel": 1459,
      "ĠkÅĻik": 1460,
      "Ġran": 1461,
      "Ġkoj": 1462,
      "ĠduÅ¡i": 1463,
      "Ġples": 1464,
      "Ġvin": 1465,
      "ĠÅ¾iv": 1466,
      "Ġchmu": 1467,
      "ĠstÃŃm": 1468,
      "ĠhoÅĻ": 1469,
      "ĠzlÃ©": 1470,
      "ke": 1471,
      "ĠÄįÃŃch": 1472,
      "ĠvÄĽz": 1473,
      "dÄĽl": 1474,
      "Ġaj": 1475,
      "Ġdum": 1476,
      "ĠoÄįi": 1477,
      "Ġhoj": 1478,
      "ĠslÃ©": 1479,
      "ĠvsvÃ©": 1480,
      "ĠstÅ¯": 1481,
      "Ġsek": 1482,
      "Ġov": 1483,
      "ĠzmÃŃ": 1484,
      "Ġpor": 1485,
      "ĠcÃ½": 1486,
      "Ġvte": 1487,
      "Ġchvil": 1488,
      "ĠpÃ©": 1489,
      "Ġnaj": 1490,
      "dil": 1491,
      "ĠdÄĽc": 1492,
      "Ġzha": 1493,
      "Ġvzdech": 1494,
      "Ġvhro": 1495,
      "Ġchva": 1496,
      "XB": 1497,
      "ĠvÃ½Å¡": 1498,
      "Ġvzdy": 1499,
      "Ġset": 1500,
      "Ġprs": 1501,
      "Ġkras": 1502,
      "Ġvslu": 1503,
      "ĠÅĻÃ¡d": 1504,
      "ĠviÄį": 1505,
      "ĠjÃŃch": 1506,
      "ĠhÅĻi": 1507,
      "Ġhan": 1508,
      "ĠdÅ¯m": 1509,
      "Ġrek": 1510,
      "ĠpuÅ¡": 1511,
      "ĠzlÃŃ": 1512,
      "ĠmÃŃt": 1513,
      "ĠztrÃ¡": 1514,
      "ĠÄıa": 1515,
      "Ġzru": 1516,
      "Ġchr": 1517,
      "Ġstrom": 1518,
      "Ġtic": 1519,
      "Ġvez": 1520,
      "ĠdÅĻi": 1521,
      "Ġpout": 1522,
      "Ġtli": 1523,
      "Ġber": 1524,
      "ĠÅ¾u": 1525,
      "Ġvali": 1526,
      "ĠblÃŃÅ¾": 1527,
      "ABAB": 1528,
      "ĠptÃ¡k": 1529,
      "Ġtve": 1530,
      "ĠhnÄĽv": 1531,
      "Ġkze": 1532,
      "rÃ¡z": 1533,
      "Ġzen": 1534,
      "Ġbuj": 1535,
      "Ġzbu": 1536,
      "ĠtÅĻÃ¡": 1537,
      "Ġal": 1538,
      "Ġkv": 1539,
      "ĠbÃŃd": 1540,
      "ĠvstÅĻÃŃ": 1541,
      "Ġhad": 1542,
      "Ġvad": 1543,
      "Ġher": 1544,
      "ĠnoÄį": 1545,
      "vost": 1546,
      "ĠkdoÅ¾": 1547,
      "ĠdrÃ©": 1548,
      "Ġzaz": 1549,
      "Ġspra": 1550,
      "Ġkh": 1551,
      "Ġhrom": 1552,
      "dem": 1553,
      "Ġdouc": 1554,
      "ĠknÃ¡": 1555,
      "Ġvic": 1556,
      "ĠprÅ¯": 1557,
      "ĠskrÃ½": 1558,
      "ĠnaÄį": 1559,
      "ĠnnÄĽ": 1560,
      "ĠÅĻit": 1561,
      "bou": 1562,
      "ĠdruÅ¾": 1563,
      "zy": 1564,
      "Ġtich": 1565,
      "Ġleti": 1566,
      "ĠstÅĻi": 1567,
      "ĠvÅĻa": 1568,
      "Ġpol": 1569,
      "ĠÅ¡t": 1570,
      "ĠvÄį": 1571,
      "Ġsra": 1572,
      "Ġstech": 1573,
      "Ġvji": 1574,
      "ĠdÄĽti": 1575,
      "ĠbÃ©": 1576,
      "ĠÅ¡k": 1577,
      "Ġar": 1578,
      "Ġkrou": 1579,
      "ĠbouÅĻ": 1580,
      "ĠvÅ¡a": 1581,
      "ĠpyÅ¡": 1582,
      "Ġzmo": 1583,
      "ĠrÃ©m": 1584,
      "ĠztÄĽ": 1585,
      "ĠvÃ¡l": 1586,
      "ĠnnÃ½": 1587,
      "ĠsvÄĽd": 1588,
      "Ġklam": 1589,
      "ĠsnÃŃh": 1590,
      "Ġneho": 1591,
      "Ġdiva": 1592,
      "Ġdrob": 1593,
      "ĠbÅĻÃŃ": 1594,
      "ĠsÃ½": 1595,
      "ĠrÃ½m": 1596,
      "ĠjÅ¯": 1597,
      "Ġprach": 1598,
      "Ġzba": 1599,
      "Ġlez": 1600,
      "Ġstrach": 1601,
      "ĠÅ¡at": 1602,
      "Ġpry": 1603,
      "Ġzvon": 1604,
      "Ġvice": 1605,
      "Ġvsa": 1606,
      "Ġrej": 1607,
      "Ġnat": 1608,
      "ĠvlÃŃd": 1609,
      "Ġzemi": 1610,
      "ĠstÅĻed": 1611,
      "Ġsoud": 1612,
      "Ġvln": 1613,
      "zd": 1614,
      "Ġkno": 1615,
      "ĠtiÄį": 1616,
      "ĠzvÃ¡": 1617,
      "ĠzÃ½": 1618,
      "Ġrok": 1619,
      "Ġhrou": 1620,
      "Ġnebe": 1621,
      "ĠhÃ¡d": 1622,
      "Ġned": 1623,
      "ĠzemÄĽ": 1624,
      "ĠbÄĽd": 1625,
      "Ġbrat": 1626,
      "Ġlesk": 1627,
      "ĠvstÅĻÃŃc": 1628,
      "Ġhas": 1629,
      "Ġvys": 1630,
      "Ġtin": 1631,
      "ĠdÃ©m": 1632,
      "ĠbrÃ©": 1633,
      "Ġtl": 1634,
      "ĠmraÄį": 1635,
      "Ġvpr": 1636,
      "Ġjit": 1637,
      "ĠvdÃ¡": 1638,
      "ĠÅ¡tÄĽsti": 1639,
      "Ġdno": 1640,
      "ĠheÅĪ": 1641,
      "Ġzvi": 1642,
      "Ġbrou": 1643,
      "ĠzboÅ¾": 1644,
      "Ġstin": 1645,
      "ĠvyÅ¡": 1646,
      "ĠstraÅ¡": 1647,
      "vem": 1648,
      "ĠbiÄį": 1649,
      "ĠhÃ½ch": 1650,
      "Ġscho": 1651,
      "ĠÅ¾ÃŃt": 1652,
      "Ġspou": 1653,
      "ĠvpÅĻe": 1654,
      "Äįek": 1655,
      "Ġvkra": 1656,
      "ĠmÄĽst": 1657,
      "Ġtrp": 1658,
      "ĠkoÅ¡": 1659,
      "ABBX": 1660,
      "Ġnuti": 1661,
      "ĠbrÃ½": 1662,
      "ĠchvÄĽl": 1663,
      "Ġstav": 1664,
      "Ġvrh": 1665,
      "Ġsviti": 1666,
      "Ġzdro": 1667,
      "Ġcel": 1668,
      "Ġchat": 1669,
      "ĠvzdÃ¡": 1670,
      "ĠblÃŃz": 1671,
      "ĠskÃ½m": 1672,
      "ĠbÅĻi": 1673,
      "Ġbor": 1674,
      "vil": 1675,
      "ĠbyÅ¥": 1676,
      "Ġklu": 1677,
      "ĠvÄĽc": 1678,
      "ĠskÅĻi": 1679,
      "men": 1680,
      "Ġcti": 1681,
      "Ġvrat": 1682,
      "ĠmÅĻÃŃ": 1683,
      "Ġhost": 1684,
      "Ġvja": 1685,
      "ĠÅ¡et": 1686,
      "Ġvzdor": 1687,
      "Ġniku": 1688,
      "ech": 1689,
      "ĠtvÃ½m": 1690,
      "ĠÅ¡ek": 1691,
      "Ġnut": 1692,
      "Ġkpo": 1693,
      "Ġstoji": 1694,
      "Ġpli": 1695,
      "ĠÃ¡": 1696,
      "tech": 1697,
      "Ġtvor": 1698,
      "Ġknu": 1699,
      "Ġpsa": 1700,
      "Ġdosti": 1701,
      "Ġpis": 1702,
      "ĠchceÅ¡": 1703,
      "Ġrel": 1704,
      "ĠpÄĽl": 1705,
      "nÃŃz": 1706,
      "ĠvÅĻÃŃ": 1707,
      "Ġsky": 1708,
      "ĠchlÃ©": 1709,
      "ĠspoÅĪ": 1710,
      "in": 1711,
      "Å¡el": 1712,
      "Ġnice": 1713,
      "Ġruch": 1714,
      "ĠkÃ©Å¾": 1715,
      "Ġlici": 1716,
      "Ġstil": 1717,
      "tek": 1718,
      "ĠpoÄį": 1719,
      "Ġhly": 1720,
      "Ġlep": 1721,
      "ĠnÄĽn": 1722,
      "Ġvzle": 1723,
      "Ġlk": 1724,
      "ĠvraÅ¾": 1725,
      "Ġkbo": 1726,
      "ĠÅĻad": 1727,
      "Ġstk": 1728,
      "Ġur": 1729,
      "ĠjichÅ¾": 1730,
      "Ġnoci": 1731,
      "ĠkÅĻÃŃÅ¾": 1732,
      "ĠzdÄĽ": 1733,
      "ĠÅ¡o": 1734,
      "ĠzdÃ¡l": 1735,
      "Ġjeho": 1736,
      "Ġnak": 1737,
      "Ġkov": 1738,
      "Ġklet": 1739,
      "ĠpojÄı": 1740,
      "Ġvce": 1741,
      "Ġvzpla": 1742,
      "ĠvnÄĽmÅ¾": 1743,
      "ĠÅĻen": 1744,
      "uj": 1745,
      "ĠnÃŃÅ¾": 1746,
      "Ġrty": 1747,
      "ĠÅ¡lÃ©n": 1748,
      "ĠzdrÃ¡": 1749,
      "ĠdvÃ©": 1750,
      "ĠknÃ¡m": 1751,
      "Ġbled": 1752,
      "Ġtrou": 1753,
      "ĠvÄĽÅĻ": 1754,
      "Ġkyt": 1755,
      "Ġnno": 1756,
      "ĠdÄĽla": 1757,
      "Ġter": 1758,
      "Ġthe": 1759,
      "ĠvstÃ¡": 1760,
      "Ġlan": 1761,
      "Ġzum": 1762,
      "ĠzÅĻi": 1763,
      "Ġmor": 1764,
      "ĠmÄĽj": 1765,
      "ĠÃŃ": 1766,
      "Ġtost": 1767,
      "ĠskÃ©m": 1768,
      "BC": 1769,
      "ÅĻil": 1770,
      "Ġvta": 1771,
      "Ġvec": 1772,
      "Ġsvoji": 1773,
      "ĠdnÃŃ": 1774,
      "ĠÅ¡en": 1775,
      "ĠnaÅĪ": 1776,
      "Ġmech": 1777,
      "Ġlin": 1778,
      "ĠznÃ¡m": 1779,
      "rÅ¯": 1780,
      "ĠblÃ½": 1781,
      "Ġlib": 1782,
      "Å¯r": 1783,
      "nil": 1784,
      "Ġvse": 1785,
      "Ġtrh": 1786,
      "Ġkej": 1787,
      "Ġvala": 1788,
      "ĠÅ¾em": 1789,
      "tou": 1790,
      "Ġpit": 1791,
      "Ġzdu": 1792,
      "ĠloÄı": 1793,
      "Ġlic": 1794,
      "ĠjÃŃmÅ¾": 1795,
      "ĠvmÃ©": 1796,
      "Ġkar": 1797,
      "Ġsmich": 1798,
      "Ġzdi": 1799,
      "er": 1800,
      "Ġskro": 1801,
      "Ġjdu": 1802,
      "hem": 1803,
      "ĠstrÃ½": 1804,
      "Ġzhy": 1805,
      "lad": 1806,
      "vÄĽt": 1807,
      "Ġmluv": 1808,
      "ĠzeÅĪ": 1809,
      "sty": 1810,
      "Å¾il": 1811,
      "Ġblud": 1812,
      "ĠplÃ©": 1813,
      "ĠleÅ¾i": 1814,
      "Ġbit": 1815,
      "Ġvyz": 1816,
      "Ġzar": 1817,
      "Ġzto": 1818,
      "Ġzku": 1819,
      "Ġvpro": 1820,
      "Ġskra": 1821,
      "Ġhoch": 1822,
      "ĠpÅĻÃŃÅ¡": 1823,
      "Ġhlavy": 1824,
      "vym": 1825,
      "ĠÄįech": 1826,
      "Ġbod": 1827,
      "Ġjeji": 1828,
      "ĠmÃ©m": 1829,
      "Ġkaz": 1830,
      "ĠstÃ¡t": 1831,
      "ĠnÃŃz": 1832,
      "Ġ1800": 1833,
      "ĠnÅ¯m": 1834,
      "Ġkly": 1835,
      "CBC": 1836,
      "Ġsbor": 1837,
      "ĠÃºz": 1838,
      "cem": 1839,
      "Ġpen": 1840,
      "Ġzko": 1841,
      "Ġhlav": 1842,
      "rat": 1843,
      "ĠsmÃ¡": 1844,
      "Ġsro": 1845,
      "ri": 1846,
      "Ġchli": 1847,
      "ĠhoÅĻi": 1848,
      "Ġlit": 1849,
      "Ġdni": 1850,
      "ĠfÃ¡": 1851,
      "Ġkor": 1852,
      "Ġzl": 1853,
      "Ġcet": 1854,
      "ĠXXABAB": 1855,
      "Ġrost": 1856,
      "ĠpryÄį": 1857,
      "Ġpel": 1858,
      "Ġnam": 1859,
      "ĠznÄĽl": 1860,
      "nek": 1861,
      "dla": 1862,
      "Ġpani": 1863,
      "Ġbec": 1864,
      "hne": 1865,
      "Ġpros": 1866,
      "Ġtev": 1867,
      "Ġvsi": 1868,
      "Ġtri": 1869,
      "Ġhar": 1870,
      "ĠÅ¾ena": 1871,
      "Ġben": 1872,
      "Ġdny": 1873,
      "ĠzlÃ¡": 1874,
      "ĠpÅĻÃŃs": 1875,
      "Ġvtu": 1876,
      "Ġslova": 1877,
      "ĠmÄĽni": 1878,
      "Ġjez": 1879,
      "ĠhÃ½m": 1880,
      "ĠÅ¾eny": 1881,
      "Ġtrem": 1882,
      "Ġblan": 1883,
      "Ġlec": 1884,
      "Ġvsk": 1885,
      "Ġviz": 1886,
      "ĠpÄĽv": 1887,
      "ĠlÃŃm": 1888,
      "Ġoz": 1889,
      "Ġstran": 1890,
      "Ġsno": 1891,
      "Ġmil": 1892,
      "Ġsnem": 1893,
      "Ġstesk": 1894,
      "Ġbyla": 1895,
      "ĠÄįÃŃÅ¡": 1896,
      "ĠABBACC": 1897,
      "Ġtor": 1898,
      "ĠmÅ¾i": 1899,
      "Ġdlu": 1900,
      "Ġtov": 1901,
      "ĠbliÅ¾": 1902,
      "Ġhat": 1903,
      "Ġgu": 1904,
      "lav": 1905,
      "ĠdÃ¡t": 1906,
      "Ġgra": 1907,
      "Ġhez": 1908,
      "Ġpln": 1909,
      "Ġfo": 1910,
      "vych": 1911,
      "Ġbru": 1912,
      "ĠdÃŃt": 1913,
      "Ġbude": 1914,
      "Ġbylo": 1915,
      "Ġzpra": 1916,
      "ĠzrÃ¡d": 1917,
      "Ġzkve": 1918,
      "ĠsplÃ½": 1919,
      "ĠÅ¾dy": 1920,
      "ĠvzÃ¡c": 1921,
      "Ġskvost": 1922,
      "Ġzho": 1923,
      "ĠÄįo": 1924,
      "Ġpas": 1925,
      "ĠmoÅĻe": 1926,
      "ĠvdÄĽÄį": 1927,
      "ĠsvÄĽta": 1928,
      "ĠstrÃ¡Å¾": 1929,
      "len": 1930,
      "ĠÅ¡eni": 1931,
      "Ġsje": 1932,
      "pÄĽ": 1933,
      "Ġlat": 1934,
      "Ġplou": 1935,
      "ĠÅ¡er": 1936,
      "Ġdava": 1937,
      "Ġluz": 1938,
      "ĠvÅ¯d": 1939,
      "ĠAXAA": 1940,
      "Ġvry": 1941,
      "ĠkrÅ¯": 1942,
      "ĠnÃ¡d": 1943,
      "ĠXAABBX": 1944,
      "ĠvsÃŃ": 1945,
      "ĠduÅ¡e": 1946,
      "Ġdek": 1947,
      "Ġfran": 1948,
      "ĠsluÅ¾": 1949,
      "Ġclo": 1950,
      "Ġfal": 1951,
      "Ġzja": 1952,
      "ĠÅ¡ly": 1953,
      "ĠÅ¾as": 1954,
      "ĠhnÃŃz": 1955,
      "ĠvtvÃ¡": 1956,
      "ĠÄįej": 1957,
      "ĠtvÃ©m": 1958,
      "cy": 1959,
      "ĠpÃ¡r": 1960,
      "ct": 1961,
      "ske": 1962,
      "ĠÄįu": 1963,
      "ĠÄıÃ¡": 1964,
      "Ġtmy": 1965,
      "Ġkmo": 1966,
      "Ġlka": 1967,
      "Ġdot": 1968,
      "ĠpÅĻa": 1969,
      "Ġhol": 1970,
      "Ġzlou": 1971,
      "Ġuz": 1972,
      "ĠzvlÃ¡": 1973,
      "Ġmoci": 1974,
      "Ġbin": 1975,
      "Ġlosti": 1976,
      "chy": 1977,
      "Ġbyti": 1978,
      "cich": 1979,
      "Ġlice": 1980,
      "Ġhloub": 1981,
      "Ġvzru": 1982,
      "ĠblÃ½s": 1983,
      "Ġtly": 1984,
      "Ġvidi": 1985,
      "ĠvlÃ¡s": 1986,
      "Ġkt": 1987,
      "ĠplÃŃ": 1988,
      "Ġsha": 1989,
      "Ġsic": 1990,
      "Ġhlavu": 1991,
      "ĠbÄĽh": 1992,
      "ĠlaÄį": 1993,
      "ĠvkrÃ¡": 1994,
      "ĠÅ¡Ã¡": 1995,
      "Ġvzdo": 1996,
      "Ġmdlo": 1997,
      "Ġtaji": 1998,
      "Ġkus": 1999,
      "ĠÅ¾er": 2000,
      "Ġzval": 2001,
      "Ġdali": 2002,
      "ĠdnÅ¯": 2003,
      "ĠtlÃ©": 2004,
      "Ġvor": 2005,
      "Ġvhlou": 2006,
      "Ġmek": 2007,
      "ĠrÃ¡m": 2008,
      "Ġchl": 2009,
      "Ġcely": 2010,
      "ĠtÃŃÅ¡": 2011,
      "ĠzÃŃch": 2012,
      "ĠdrÃ½": 2013,
      "Ġsit": 2014,
      "Ġzbro": 2015,
      "ĠÄįt": 2016,
      "ĠdvÃ¡": 2017,
      "nik": 2018,
      "ĠrÅ¯z": 2019,
      "Ġbral": 2020,
      "Ġken": 2021,
      "ĠplÃ¡Äį": 2022,
      "dÃŃ": 2023,
      "ĠmuÅ¾e": 2024,
      "Ġplod": 2025,
      "Ġzpu": 2026,
      "Äįil": 2027,
      "Ġvstou": 2028,
      "ĠdÄĽje": 2029,
      "ĠztÄĽch": 2030,
      "ĠAABCBC": 2031,
      "ĠÄįal": 2032,
      "ĠdÃ¡Å¡": 2033,
      "ĠchrÃ¡m": 2034,
      "Ġraj": 2035,
      "nÃ©": 2036,
      "ĠnÄĽjÅ¡i": 2037,
      "ĠdnÃ©": 2038,
      "ĠknÄĽÅ¾": 2039,
      "cu": 2040,
      "nam": 2041,
      "ĠkrÃ½": 2042,
      "ĠhÅĻbi": 2043,
      "Ġos": 2044,
      "Ġspat": 2045,
      "ĠvznÃ¡": 2046,
      "Ġhbi": 2047,
      "Ġnas": 2048,
      "Ġchlu": 2049,
      "Ġlam": 2050,
      "ĠniÅ¾": 2051,
      "ĠskÅĻÃŃ": 2052,
      "ĠvÅ¡ed": 2053,
      "Ġsily": 2054,
      "Äįer": 2055,
      "Ġpada": 2056,
      "Ġdlem": 2057,
      "Ġvroz": 2058,
      "Ġzpiva": 2059,
      "ĠvmÄĽ": 2060,
      "ĠzaÅĻi": 2061,
      "pe": 2062,
      "ĠÅ¡ÃŃÅ¡": 2063,
      "ĠbÃ¡ch": 2064,
      "Ġtlou": 2065,
      "Ġchvat": 2066,
      "nach": 2067,
      "Ġbily": 2068,
      "Ġzil": 2069,
      "Ġrt": 2070,
      "Ġsply": 2071,
      "ĠsÃ¡h": 2072,
      "ĠdlÃ½": 2073,
      "Ġvrati": 2074,
      "Ġjan": 2075,
      "Ġdomu": 2076,
      "zu": 2077,
      "ĠsÃº": 2078,
      "Ġtrys": 2079,
      "Ġsej": 2080,
      "Ġtok": 2081,
      "ĠvkaÅ¾": 2082,
      "ĠtvaÅĻi": 2083,
      "ĠdÃ¡n": 2084,
      "Ġvnad": 2085,
      "Ġtmou": 2086,
      "ĠX": 2087,
      "Ġmin": 2088,
      "Ġvtem": 2089,
      "ĠsvÃ¡t": 2090,
      "Ġkan": 2091,
      "Ġstla": 2092,
      "Ġlze": 2093,
      "ĠdlaÅĪ": 2094,
      "Ġhvo": 2095,
      "ĠvÄįa": 2096,
      "Å¯d": 2097,
      "Ġdrav": 2098,
      "Ġvdi": 2099,
      "ĠÅ¾ÃŃÅ¡": 2100,
      "ĠtÄĽj": 2101,
      "Ġpes": 2102,
      "Ġkdos": 2103,
      "Ġzdvih": 2104,
      "ĠÅĻÅ¯": 2105,
      "Ġdale": 2106,
      "ĠtÃ³": 2107,
      "Ġnnou": 2108,
      "ĠsaÅĻ": 2109,
      "ĠhÃ¡m": 2110,
      "Ġau": 2111,
      "Ġvso": 2112,
      "Ġstes": 2113,
      "Ġnna": 2114,
      "ĠvÅĻel": 2115,
      "ĠÄįeni": 2116,
      "ĠditÄĽ": 2117,
      "ĠÅ¡ti": 2118,
      "ĠÅĪu": 2119,
      "Ġplat": 2120,
      "Ġvlh": 2121,
      "ĠvpÅĻed": 2122,
      "ĠtÃ¡m": 2123,
      "ĠvÅ¡ÃŃm": 2124,
      "Ġjsa": 2125,
      "ĠhÃ©m": 2126,
      "Ġjdi": 2127,
      "Ġvpou": 2128,
      "Ġchmur": 2129,
      "Ġnani": 2130,
      "Ġnika": 2131,
      "mÃ¡": 2132,
      "Ġkruh": 2133,
      "Ġmli": 2134,
      "Ġnese": 2135,
      "Ġvnu": 2136,
      "ĠklÃ©": 2137,
      "Ġvstal": 2138,
      "Ġvzbu": 2139,
      "Ġvjed": 2140,
      "Ġknim": 2141,
      "ĠchtÃŃ": 2142,
      "Ġpur": 2143,
      "ĠlÃŃc": 2144,
      "Ġin": 2145,
      "ĠtÅĻpyt": 2146,
      "Ġx": 2147,
      "Ġtele": 2148,
      "Ġctno": 2149,
      "Ġvkou": 2150,
      "Ġzvl": 2151,
      "ĠÅĻÃŃÅ¡": 2152,
      "mr": 2153,
      "ĠzÃº": 2154,
      "ĠmlÄį": 2155,
      "ĠrÃ¡ch": 2156,
      "Ġskon": 2157,
      "ral": 2158,
      "Ġboji": 2159,
      "ĠÄįty": 2160,
      "ĠslÃŃm": 2161,
      "ĠboÅ¥": 2162,
      "ĠoÄį": 2163,
      "Ġtah": 2164,
      "ĠvÄĽÅ¡": 2165,
      "ĠÅĻici": 2166,
      "ĠnosÅ¥": 2167,
      "ĠhluÄį": 2168,
      "ĠcÅ¯m": 2169,
      "ĠpeÄį": 2170,
      "Ġbel": 2171,
      "ĠzÃŃm": 2172,
      "ĠknÄĽz": 2173,
      "Ġtvy": 2174,
      "Ġpem": 2175,
      "Ġzch": 2176,
      "stÄĽ": 2177,
      "Ġmam": 2178,
      "Ġvhla": 2179,
      "stu": 2180,
      "ĠAABBXX": 2181,
      "Ġsad": 2182,
      "ĠboÅ¾i": 2183,
      "ĠnnÃ¡": 2184,
      "Ġteh": 2185,
      "ĠÅĻec": 2186,
      "ĠrÃ¡j": 2187,
      "ĠkÅĻ": 2188,
      "ĠlkÃ¡": 2189,
      "Ġtkli": 2190,
      "Ġkap": 2191,
      "Ġlasky": 2192,
      "Ġzhou": 2193,
      "Ġdnem": 2194,
      "Ġslil": 2195,
      "Ġsrdce": 2196,
      "Ġdna": 2197,
      "ĠtÄĽs": 2198,
      "Äįku": 2199,
      "ĠzvÄĽst": 2200,
      "ĠdÃ¡ch": 2201,
      "Ġhon": 2202,
      "ĠpÄĽj": 2203,
      "Ġjat": 2204,
      "Ġvmy": 2205,
      "ĠvstÃŃ": 2206,
      "Ġknou": 2207,
      "ĠvzplÃ¡": 2208,
      "ĠhlÃ½": 2209,
      "ĠzprÃ¡": 2210,
      "Ġslech": 2211,
      "ĠlÃŃch": 2212,
      "Ġkolem": 2213,
      "Ġlad": 2214,
      "Ġkup": 2215,
      "Ġspu": 2216,
      "Ġtiv": 2217,
      "Ġdala": 2218,
      "Ġrat": 2219,
      "Ġprch": 2220,
      "ĠtiÅ¡e": 2221,
      "Ġrtech": 2222,
      "ĠsliÄį": 2223,
      "Ġbly": 2224,
      "Ġhna": 2225,
      "ĠABBAXX": 2226,
      "Ġtebe": 2227,
      "Ġmon": 2228,
      "Ġvola": 2229,
      "ĠmrÃ¡z": 2230,
      "Ġvaji": 2231,
      "Ġspro": 2232,
      "Ġspla": 2233,
      "Ġvrouc": 2234,
      "ĠstvÃŃm": 2235,
      "ĠÅ¾eni": 2236,
      "ĠÅ¾eb": 2237,
      "Ġnaz": 2238,
      "Ġnli": 2239,
      "Ġchyt": 2240,
      "Ġjil": 2241,
      "Ġmuj": 2242,
      "Ġtur": 2243,
      "Ġdiny": 2244,
      "Ġksrd": 2245,
      "ĠÅĻo": 2246,
      "ĠsbÃŃ": 2247,
      "Ġzkou": 2248,
      "nec": 2249,
      "ĠnÄĽni": 2250,
      "ĠstrÃ©": 2251,
      "ĠvÃ½s": 2252,
      "ĠdÄĽli": 2253,
      "Ġbej": 2254,
      "ĠvÃŃr": 2255,
      "ĠkÅĻes": 2256,
      "ĠhÅĻmÄĽ": 2257,
      "ĠkvÃ©": 2258,
      "Ġciti": 2259,
      "Ġstavi": 2260,
      "ĠÅ¡it": 2261,
      "ĠchÃ¡m": 2262,
      "Ġdan": 2263,
      "ĠhoÅĻe": 2264,
      "ej": 2265,
      "Ġlev": 2266,
      "Ġstez": 2267,
      "Ġtej": 2268,
      "ĠAAXA": 2269,
      "Ġmit": 2270,
      "ĠspÃŃÅ¡": 2271,
      "ĠvÄĽku": 2272,
      "Ġdoj": 2273,
      "Ġvda": 2274,
      "Ġdrech": 2275,
      "ĠÅ¥ast": 2276,
      "Ġsple": 2277,
      "Ġvkr": 2278,
      "Ġcou": 2279,
      "Ġraz": 2280,
      "ĠtmÄĽ": 2281,
      "ĠpÅĻej": 2282,
      "tÅĻ": 2283,
      "ĠdÃŃk": 2284,
      "ĠzaÄį": 2285,
      "Ġren": 2286,
      "ABBA": 2287,
      "ĠlÃ¡ch": 2288,
      "ĠzpÃ¡t": 2289,
      "ĠÄįist": 2290,
      "Å¡tÄĽ": 2291,
      "Ġdvou": 2292,
      "ĠABABAB": 2293,
      "Ġstih": 2294,
      "ĠvnÃŃÅ¾": 2295,
      "nech": 2296,
      "Ġkop": 2297,
      "ĠsobÄĽ": 2298,
      "Ġmoz": 2299,
      "Ġbuh": 2300,
      "Ġvyh": 2301,
      "ĠvpÃŃ": 2302,
      "ĠskrÃ¡ÅĪ": 2303,
      "Ġtat": 2304,
      "Ġfu": 2305,
      "Ġsila": 2306,
      "Ġpravi": 2307,
      "Ġjiz": 2308,
      "Ġnami": 2309,
      "Ġrev": 2310,
      "Ġnos": 2311,
      "Ġchvile": 2312,
      "Ġstala": 2313,
      "Ġmoje": 2314,
      "ĠvsvÃ©m": 2315,
      "Ġkmet": 2316,
      "ĠhÅĻÃŃch": 2317,
      "Äįka": 2318,
      "ĠvpÅĻÃŃ": 2319,
      "Ġhni": 2320,
      "Ġstvu": 2321,
      "ĠvÄįer": 2322,
      "Ġspal": 2323,
      "Ġkani": 2324,
      "Ġdom": 2325,
      "ĠdiÅ¾": 2326,
      "Ġzdr": 2327,
      "Ġskut": 2328,
      "ĠvsnÄĽ": 2329,
      "ĠvdÄĽk": 2330,
      "ĠvznÄĽ": 2331,
      "Ġmily": 2332,
      "Ġnah": 2333,
      "ĠmÅ¯Å¾": 2334,
      "ĠjvÃŃ": 2335,
      "Ġvet": 2336,
      "ĠÅ¡lech": 2337,
      "vyÅ¡": 2338,
      "ĠkvÃŃt": 2339,
      "Ġdev": 2340,
      "Ġmila": 2341,
      "ĠspÄĽch": 2342,
      "ĠÅ¡pi": 2343,
      "ĠtvaÅĻ": 2344,
      "Ġvztek": 2345,
      "Ġhi": 2346,
      "ĠveÅ¡": 2347,
      "Ġvar": 2348,
      "ĠmÃ¡t": 2349,
      "Ġmrou": 2350,
      "ĠvzkÅĻi": 2351,
      "ĠhÅ¯m": 2352,
      "Ġss": 2353,
      "Ġdila": 2354,
      "Ġspolu": 2355,
      "ĠmÅĻel": 2356,
      "Ġzase": 2357,
      "Ġruce": 2358,
      "Ġvde": 2359,
      "Ġnap": 2360,
      "ĠkvÄĽtu": 2361,
      "Ġmeni": 2362,
      "Ġtrud": 2363,
      "Ġzah": 2364,
      "ĠsÅ¯m": 2365,
      "Ġbat": 2366,
      "Ġptak": 2367,
      "ĠhlÃ©d": 2368,
      "Ġneh": 2369,
      "ĠlÃŃÄį": 2370,
      "Ġvost": 2371,
      "ĠbdÄĽ": 2372,
      "ĠÄįelo": 2373,
      "ĠtvÃ½": 2374,
      "ĠXXA": 2375,
      "ĠÅ¡va": 2376,
      "ĠslÃ½": 2377,
      "Ġvaly": 2378,
      "ĠdÄĽji": 2379,
      "Ġleni": 2380,
      "ĠtÅĻil": 2381,
      "Ġvhru": 2382,
      "Ġvslun": 2383,
      "ĠÄįÅ¯": 2384,
      "Ġchti": 2385,
      "Ġzji": 2386,
      "ĠcÃŃl": 2387,
      "vÃ½ch": 2388,
      "Ġkviti": 2389,
      "ĠkÅ¯v": 2390,
      "Ġlidi": 2391,
      "Ġvhlu": 2392,
      "Ġsob": 2393,
      "Ġklas": 2394,
      "ĠzlÃ½": 2395,
      "ĠplÃ½": 2396,
      "Ġvila": 2397,
      "ĠzÅĻÃŃt": 2398,
      "cho": 2399,
      "ĠtÃ¡n": 2400,
      "ĠdÃŃl": 2401,
      "ĠsnÄĽni": 2402,
      "Ġnuv": 2403,
      "Ġsnil": 2404,
      "ĠÅĪo": 2405,
      "Ġvzly": 2406,
      "Ġklen": 2407,
      "Ġske": 2408,
      "Ġroj": 2409,
      "Ġvpla": 2410,
      "Ġmih": 2411,
      "ĠteÅ¾": 2412,
      "ĠvtÄĽch": 2413,
      "ĠÄįte": 2414,
      "Ġtvi": 2415,
      "Ġmusi": 2416,
      "ĠrtÅ¯": 2417,
      "ÅĻem": 2418,
      "ĠÅ¡Å¥a": 2419,
      "Ġlla": 2420,
      "ĠbÅĻeh": 2421,
      "Ġhlavou": 2422,
      "Ġvaz": 2423,
      "Ġkos": 2424,
      "ĠdobÄĽ": 2425,
      "Ġvpe": 2426,
      "ĠnaÅ¡i": 2427,
      "ĠdraÅ¾": 2428,
      "Ġvma": 2429,
      "ĠchÅĻi": 2430,
      "ĠÅ¾ene": 2431,
      "Ġvane": 2432,
      "Ġsveho": 2433,
      "lych": 2434,
      "Ġznal": 2435,
      "ĠtÃ½l": 2436,
      "Ġhut": 2437,
      "tel": 2438,
      "Ġhledi": 2439,
      "Ġsah": 2440,
      "Ġsvat": 2441,
      "ĠvplÃ¡": 2442,
      "ĠvbÃŃ": 2443,
      "sud": 2444,
      "ĠjvyÅ¡": 2445,
      "Ġctnost": 2446,
      "BB": 2447,
      "Ġvpu": 2448,
      "Ġvten": 2449,
      "Ġblak": 2450,
      "ÅĻit": 2451,
      "Ġvlu": 2452,
      "pu": 2453,
      "skou": 2454,
      "Ġvml": 2455,
      "Ġkrat": 2456,
      "Ġchlo": 2457,
      "ĠhÅĻmÃŃ": 2458,
      "Ġtka": 2459,
      "ĠkvÃ¡": 2460,
      "dlo": 2461,
      "ĠtÅĻa": 2462,
      "Ġpoc": 2463,
      "ĠÄįela": 2464,
      "Ġstry": 2465,
      "Ġpoli": 2466,
      "Ġjov": 2467,
      "Ġpraci": 2468,
      "ĠvÅ¡ic": 2469,
      "Ġvmi": 2470,
      "Ġzav": 2471,
      "Ġzlu": 2472,
      "Ġzlem": 2473,
      "Ġhleda": 2474,
      "Ġmlad": 2475,
      "Ġsot": 2476,
      "Ġvkro": 2477,
      "Ġlos": 2478,
      "Ġkral": 2479,
      "Ġdnu": 2480,
      "dli": 2481,
      "Ġej": 2482,
      "ĠsluÅ¡": 2483,
      "Ġsvor": 2484,
      "Ġstrh": 2485,
      "Ġsf": 2486,
      "Ġbila": 2487,
      "dal": 2488,
      "ĠpoÅ¡": 2489,
      "ĠchÃ©m": 2490,
      "ĠviÅ¡": 2491,
      "Ġkmit": 2492,
      "mut": 2493,
      "pil": 2494,
      "ĠvÄĽst": 2495,
      "Ġzhas": 2496,
      "ĠlÃ¡m": 2497,
      "den": 2498,
      "ĠÅ¡pat": 2499,
      "Ġdol": 2500,
      "ĠdnÄĽ": 2501,
      "Ġner": 2502,
      "ĠpohÅĻ": 2503,
      "ĠtÄĽlo": 2504,
      "ĠstaÅĪ": 2505,
      "Ġdani": 2506,
      "ĠstÅĻel": 2507,
      "Ġvbou": 2508,
      "ĠÅĪÃ¡": 2509,
      "Ġluh": 2510,
      "Ġstan": 2511,
      "ĠÅ¾hou": 2512,
      "emi": 2513,
      "Ġvzla": 2514,
      "ĠvraÅ¥": 2515,
      "Ġzek": 2516,
      "Ġkel": 2517,
      "Ġkev": 2518,
      "ĠÅĻeÄįi": 2519,
      "ĠvnichÅ¾": 2520,
      "Ġvlid": 2521,
      "ĠleÅ¾": 2522,
      "ĠreÄį": 2523,
      "Ġlli": 2524,
      "Ġmraz": 2525,
      "ĠtuÅ¾": 2526,
      "Ġlena": 2527,
      "ĠdneÅ¡": 2528,
      "Ġdok": 2529,
      "ĠkÃ¡n": 2530,
      "Ġnach": 2531,
      "ĠlÃ©b": 2532,
      "XXA": 2533,
      "ĠvÄĽj": 2534,
      "Ġpast": 2535,
      "ĠhrÃ¡l": 2536,
      "Ġchi": 2537,
      "Ġslz": 2538,
      "Ġspja": 2539,
      "ĠÅ¾Å¯": 2540,
      "Ġvsku": 2541,
      "Ġbrov": 2542,
      "Ġvsp": 2543,
      "ĠvÅĪa": 2544,
      "Ġmec": 2545,
      "Ġrci": 2546,
      "ĠmÄĽla": 2547,
      "ĠsvÄĽtu": 2548,
      "ĠjimÅ¾": 2549,
      "ĠÅ¾eÅ¡": 2550,
      "ĠkÃ½s": 2551,
      "Ġzat": 2552,
      "ĠtÄĽla": 2553,
      "ĠspÄĽÅ¡": 2554,
      "ĠsÄįe": 2555,
      "Ġsvym": 2556,
      "Ġnila": 2557,
      "ĠtÃŃÅĻ": 2558,
      "ĠzvuÄį": 2559,
      "Ġmov": 2560,
      "ĠcÃŃr": 2561,
      "Ġvmra": 2562,
      "ĠmrÃ¡": 2563,
      "Ġstale": 2564,
      "Ġzml": 2565,
      "ĠdeÄį": 2566,
      "ĠvlÅ¯": 2567,
      "Ġstane": 2568,
      "Ġbran": 2569,
      "Ġvyr": 2570,
      "Ġchom": 2571,
      "ĠzbraÅĪ": 2572,
      "Ġsvych": 2573,
      "ĠruÅ¾e": 2574,
      "kal": 2575,
      "um": 2576,
      "Ã¡n": 2577,
      "ĠsnÄĽÅ¾": 2578,
      "Ġdrs": 2579,
      "seÅĪ": 2580,
      "Ġhym": 2581,
      "BX": 2582,
      "Ġsmo": 2583,
      "Ġpras": 2584,
      "sli": 2585,
      "Ġhmo": 2586,
      "Ġmni": 2587,
      "Ġvati": 2588,
      "Ġkmen": 2589,
      "Ġvzlet": 2590,
      "ĠzvlÃ¡Å¡": 2591,
      "Ġdolu": 2592,
      "Ġstic": 2593,
      "Ġruku": 2594,
      "ĠtÅ¯m": 2595,
      "XABB": 2596,
      "Ġhluk": 2597,
      "Ġpane": 2598,
      "ĠstÃ½ch": 2599,
      "dÄĽt": 2600,
      "Ġsebe": 2601,
      "Ġceni": 2602,
      "ĠpÃ¡d": 2603,
      "Ġzyk": 2604,
      "ĠtiÅ¡": 2605,
      "ĠtÃŃch": 2606,
      "Ġbek": 2607,
      "ĠmÄĽÅ¡": 2608,
      "ĠnÃ¡ÅĻ": 2609,
      "Ġmas": 2610,
      "Ġstud": 2611,
      "ĠztÃ©": 2612,
      "Ġtlem": 2613,
      "ĠtoÄįi": 2614,
      "Ġsluch": 2615,
      "ĠtnÃŃ": 2616,
      "ĠÅ¡kle": 2617,
      "Ġfor": 2618,
      "Ġfan": 2619,
      "ĠstÃ©m": 2620,
      "ĠklÃ½": 2621,
      "Ġvyj": 2622,
      "Ġzed": 2623,
      "Ġvrah": 2624,
      "ĠslÃ©z": 2625,
      "ĠzÃ¡m": 2626,
      "Ġhvoz": 2627,
      "ĠÅ¾ÃŃz": 2628,
      "ĠpeÅ¾": 2629,
      "Ġpili": 2630,
      "ĠmiÅ¾": 2631,
      "Ġdic": 2632,
      "Ġsvem": 2633,
      "Ġleta": 2634,
      "Ġsklani": 2635,
      "Ġw": 2636,
      "Ġlesti": 2637,
      "Ġprost": 2638,
      "ĠÄįeka": 2639,
      "ĠsÃŃch": 2640,
      "ĠtrÃ½": 2641,
      "ĠbÃ¡m": 2642,
      "Ġnny": 2643,
      "Ġvkte": 2644,
      "ĠtÃŃÅ¾": 2645,
      "an": 2646,
      "ĠÅĻÃŃch": 2647,
      "ĠhÅĻÃŃÅ¡": 2648,
      "Ġtud": 2649,
      "ĠnnÃ½ch": 2650,
      "Ġklou": 2651,
      "ĠtÃŃs": 2652,
      "ĠtÃ¡ÅĻ": 2653,
      "ĠchlÃ©b": 2654,
      "ĠmoÅĻ": 2655,
      "Ġkom": 2656,
      "ĠschvÃ¡": 2657,
      "Ġki": 2658,
      "Ġleka": 2659,
      "ĠmoÅĻi": 2660,
      "Ġztu": 2661,
      "ĠklÃŃn": 2662,
      "Ġdvi": 2663,
      "Ġvzi": 2664,
      "ĠvÃŃÄį": 2665,
      "ĠmÄĽch": 2666,
      "ĠsÃŃÅ¡": 2667,
      "Ġniv": 2668,
      "ĠÅ¡leh": 2669,
      "Ġpec": 2670,
      "ĠÅ¡ak": 2671,
      "ĠÅ¾ek": 2672,
      "ĠÅ¾ÃŃch": 2673,
      "ĠduÅ¡": 2674,
      "Ġvzma": 2675,
      "Ġsice": 2676,
      "ĠvrÃ¡s": 2677,
      "ĠmÄĽr": 2678,
      "Ġlis": 2679,
      "ĠtobÄĽ": 2680,
      "Ġplach": 2681,
      "Ġvrch": 2682,
      "ĠblÃ¡z": 2683,
      "Ġcela": 2684,
      "Ġteb": 2685,
      "ĠÅĻin": 2686,
      "Ġkloni": 2687,
      "ĠkÄįe": 2688,
      "ĠvrÃ¡z": 2689,
      "Ġvbe": 2690,
      "Ġzn": 2691,
      "Äįky": 2692,
      "ĠnÄĽch": 2693,
      "Ġkali": 2694,
      "ĠtlÃ½": 2695,
      "Ġnau": 2696,
      "ĠmlÃ¡d": 2697,
      "ĠÅ¥an": 2698,
      "ĠdoÄį": 2699,
      "ĠtiÅ¾": 2700,
      "ĠsmÄĽs": 2701,
      "Ġmlou": 2702,
      "ĠlÃŃp": 2703,
      "ĠkeÅĻ": 2704,
      "Ġrto": 2705,
      "Ġzraky": 2706,
      "ĠvklÃŃ": 2707,
      "Ġchot": 2708,
      "ĠvtvÃ©": 2709,
      "ĠsprÃ¡": 2710,
      "ĠmÃŃm": 2711,
      "ĠABA": 2712,
      "Ġheb": 2713,
      "ĠzÃ¡Å¡": 2714,
      "ĠpusÅ¥": 2715,
      "ĠzraÄį": 2716,
      "Ġdec": 2717,
      "ĠXAXABB": 2718,
      "Ġmoji": 2719,
      "Ġbis": 2720,
      "ĠtÅĻÃŃÅ¡": 2721,
      "Ġrodu": 2722,
      "ĠspÄĽl": 2723,
      "Ġvtip": 2724,
      "ĠzÅĻÃŃÅ¡": 2725,
      "Ġliv": 2726,
      "Ġnove": 2727,
      "ĠtÃ¡ch": 2728,
      "ĠlÃ¡t": 2729,
      "ĠrÃ¡z": 2730,
      "Ġjednou": 2731,
      "ĠbdÃŃ": 2732,
      "Ġav": 2733,
      "Ġvme": 2734,
      "ĠjeÅ¥": 2735,
      "Ġztr": 2736,
      "ĠspÃ¡n": 2737,
      "Ġmot": 2738,
      "ĠÄįÃ¡t": 2739,
      "Ġhali": 2740,
      "Ġlich": 2741,
      "Ġvprach": 2742,
      "Ġprah": 2743,
      "ĠchÃ½m": 2744,
      "Ġvzt": 2745,
      "ĠAXXA": 2746,
      "ĠpÅĻÃŃm": 2747,
      "ĠdnÃ½": 2748,
      "ĠtvÅ¯r": 2749,
      "Ġkosti": 2750,
      "ĠvÃ¡ch": 2751,
      "ĠÅ¾es": 2752,
      "Ġpeni": 2753,
      "Ġsnih": 2754,
      "Ġvkli": 2755,
      "Ġvota": 2756,
      "ĠstÃ¡r": 2757,
      "Ġvku": 2758,
      "Ġzte": 2759,
      "Ġsce": 2760,
      "Ġzaj": 2761,
      "Ġvab": 2762,
      "Ġzvoni": 2763,
      "Ġslunce": 2764,
      "ĠÅ¾iÅ¾": 2765,
      "Ġkout": 2766,
      "ĠÄįnÃŃ": 2767,
      "Ġdina": 2768,
      "ĠpÃ¡s": 2769,
      "Ġ20": 2770,
      "Ġrve": 2771,
      "Ġznova": 2772,
      "Ġsan": 2773,
      "ĠzmÃ¡": 2774,
      "ĠjvÄĽt": 2775,
      "Ġvdla": 2776,
      "Ġkraje": 2777,
      "Ġchyb": 2778,
      "Ġros": 2779,
      "ĠkÅ¾i": 2780,
      "Ġluj": 2781,
      "Ġkst": 2782,
      "ĠmÅĻi": 2783,
      "Ġhrd": 2784,
      "Ġmani": 2785,
      "ĠnaÅ¡": 2786,
      "ĠslyÅ¡i": 2787,
      "Ġmala": 2788,
      "Ġvj": 2789,
      "Ġstiny": 2790,
      "ĠÅ¡tÃŃt": 2791,
      "Ġzkr": 2792,
      "Ġspad": 2793,
      "Ġskrom": 2794,
      "Ġjeti": 2795,
      "Ġvles": 2796,
      "Ġvci": 2797,
      "Ġmaly": 2798,
      "Ġsvr": 2799,
      "Ġnov": 2800,
      "Ġtrest": 2801,
      "Ġpek": 2802,
      "Ġvsou": 2803,
      "ĠchraÅĪ": 2804,
      "ĠÅ¡in": 2805,
      "Ġstinu": 2806,
      "Ġvskut": 2807,
      "ĠstÅĻÃ¡": 2808,
      "ĠtÅĻese": 2809,
      "Ġryb": 2810,
      "Ġkraji": 2811,
      "Ġchova": 2812,
      "dam": 2813,
      "Ġchyli": 2814,
      "ĠÄıas": 2815,
      "ĠvlÃ©": 2816,
      "ĠÅ¾to": 2817,
      "Ġut": 2818,
      "ar": 2819,
      "Ġvraci": 2820,
      "Ġvzro": 2821,
      "Ġbile": 2822,
      "mÃ¡ch": 2823,
      "Ġmladi": 2824,
      "Ġchlap": 2825,
      "Ġtul": 2826,
      "Ġvple": 2827,
      "ĠÅ¾ije": 2828,
      "Ġkho": 2829,
      "ur": 2830,
      "Ġpali": 2831,
      "ĠdÃ©l": 2832,
      "ĠhÅĻÃ¡": 2833,
      "lun": 2834,
      "ĠÅĻu": 2835,
      "Ġzlost": 2836,
      "Ġdoz": 2837,
      "Ġsnou": 2838,
      "ĠkvÃ¡m": 2839,
      "ĠzkÃ¡": 2840,
      "Ġkoli": 2841,
      "Ġzlata": 2842,
      "ĠvzÃŃ": 2843,
      "Ġzmat": 2844,
      "Ġmed": 2845,
      "Ġstoj": 2846,
      "ĠbÄĽÅ¥": 2847,
      "ĠvpÅ¯": 2848,
      "Ġprin": 2849,
      "rad": 2850,
      "Ġmost": 2851,
      "Ġvlasy": 2852,
      "ĠchvÄĽje": 2853,
      "Ġvek": 2854,
      "ĠmlÃ½": 2855,
      "Ġtila": 2856,
      "Ġspe": 2857,
      "Ġrana": 2858,
      "ĠstÄĽn": 2859,
      "Ġdych": 2860,
      "ĠsÃ©": 2861,
      "Ġcele": 2862,
      "ĠplÃ¡l": 2863,
      "Ġodv": 2864,
      "Ġbiti": 2865,
      "Ġchet": 2866,
      "ĠmÅĻÃŃt": 2867,
      "Ġbur": 2868,
      "Ġboli": 2869,
      "ĠstaÄįi": 2870,
      "Ġskaly": 2871,
      "ĠvÃ¡b": 2872,
      "Ġstroj": 2873,
      "Ġmsti": 2874,
      "ĠchÅĻe": 2875,
      "Ġpovi": 2876,
      "Ġzeni": 2877,
      "Ġkrasy": 2878,
      "ĠbrÃ¡z": 2879,
      "Ġtisk": 2880,
      "Ġstis": 2881,
      "Ġdaji": 2882,
      "Ġslava": 2883,
      "Ġvira": 2884,
      "ĠcÃ¡": 2885,
      "Ġlho": 2886,
      "ĠzaÅĻ": 2887,
      "ĠvbÄĽ": 2888,
      "Ġzam": 2889,
      "Ġvech": 2890,
      "Ġbl": 2891,
      "Ġstrou": 2892,
      "ĠsvÅ¯d": 2893,
      "Ġznak": 2894,
      "Ġdon": 2895,
      "Ġzhro": 2896,
      "Ġkje": 2897,
      "Ġluje": 2898,
      "Ġhosti": 2899,
      "Ġbohu": 2900,
      "ĠÅ¡tva": 2901,
      "ĠstkvÄĽ": 2902,
      "Ġsmrti": 2903,
      "Ġvob": 2904,
      "Ġslast": 2905,
      "Ġzmr": 2906,
      "ĠtuÅ¡i": 2907,
      "ĠÄįasu": 2908,
      "ĠstÅ¯j": 2909,
      "Ġveni": 2910,
      "ĠXXAABB": 2911,
      "Ġzry": 2912,
      "Ġkul": 2913,
      "dit": 2914,
      "ĠÅ¾et": 2915,
      "Ġdoby": 2916,
      "Ġstv": 2917,
      "Ġlech": 2918,
      "ĠjvÃŃc": 2919,
      "Ġmeny": 2920,
      "Ġnymi": 2921,
      "Ġstus": 2922,
      "Ġlud": 2923,
      "Ġshla": 2924,
      "Ġnoch": 2925,
      "Ġvok": 2926,
      "ĠAAXB": 2927,
      "ĠvÄįas": 2928,
      "ĠmÄĽt": 2929,
      "Ġslal": 2930,
      "ĠctÃŃ": 2931,
      "Ġchval": 2932,
      "Ġzraku": 2933,
      "Ġnouti": 2934,
      "Ġbas": 2935,
      "ĠvzrÅ¯": 2936,
      "ĠstÃ½m": 2937,
      "ĠslÅ¯": 2938,
      "Ġpsal": 2939,
      "Ġvzra": 2940,
      "Ġsvaty": 2941,
      "Ġmira": 2942,
      "ĠsvÄĽÅ¾i": 2943,
      "ĠzÃ¡ch": 2944,
      "Ġrech": 2945,
      "ĠbÃ¡j": 2946,
      "Ġrtu": 2947,
      "ĠznÃ¡s": 2948,
      "Ġcizi": 2949,
      "ost": 2950,
      "ĠplaÄį": 2951,
      "Å¾ÃŃ": 2952,
      "Ġtep": 2953,
      "Ġvzda": 2954,
      "Ġzdal": 2955,
      "ĠtlÃ¡": 2956,
      "ĠlÅ¯m": 2957,
      "ĠuÅ¡": 2958,
      "Ġmez": 2959,
      "Ġbije": 2960,
      "ĠhÃ¡ch": 2961,
      "Ġceny": 2962,
      "ĠvÅ¡ecko": 2963,
      "ĠschÃ¡": 2964,
      "ĠhÅĻeb": 2965,
      "Ġhry": 2966,
      "ĠtrÅ¯n": 2967,
      "Ġdam": 2968,
      "ĠsmÃ¡l": 2969,
      "Ġkryl": 2970,
      "bil": 2971,
      "ĠkÅĻiv": 2972,
      "Ġzhlu": 2973,
      "ĠzdaÅ¾": 2974,
      "Ġnyni": 2975,
      "ĠdÃ©Å¡Å¥": 2976,
      "Ġvkru": 2977,
      "cÃŃ": 2978,
      "Ġteli": 2979,
      "Ġzej": 2980,
      "sku": 2981,
      "ĠsÃŃÄį": 2982,
      "Ġklek": 2983,
      "Ġkrov": 2984,
      "Ġkrut": 2985,
      "ĠÅ¾ik": 2986,
      "Ġmnich": 2987,
      "Ġtady": 2988,
      "ĠnÃŃÄį": 2989,
      "zel": 2990,
      "ĠmnÃŃ": 2991,
      "ĠhnÃ¡": 2992,
      "Ġroku": 2993,
      "ĠvÄĽÄı": 2994,
      "Ġskli": 2995,
      "Ġkove": 2996,
      "Ġtvar": 2997,
      "ĠnoÅ¾": 2998,
      "Ġplani": 2999,
      "Ġvbla": 3000,
      "ĠnÃŃÅ¡": 3001,
      "Ġzlaty": 3002,
      "ĠtÅĻeÅ¡": 3003,
      "Ġhvi": 3004,
      "Ġvas": 3005,
      "ĠlÃ¡n": 3006,
      "Ġlesy": 3007,
      "Ġskrani": 3008,
      "Ġhnal": 3009,
      "Ġhaj": 3010,
      "Ġmuk": 3011,
      "Ġsse": 3012,
      "ĠblÃ©": 3013,
      "sil": 3014,
      "Ġprsk": 3015,
      "Ġspl": 3016,
      "ĠsvÄĽtla": 3017,
      "Ġstromu": 3018,
      "Ġboje": 3019,
      "ĠkÅ¯ÅĪ": 3020,
      "Ġzit": 3021,
      "ĠjdeÅ¡": 3022,
      "Ġzta": 3023,
      "ĠbÄĽÅ¾i": 3024,
      "ĠklÃ¡Å¡": 3025,
      "ĠÄįar": 3026,
      "Ġtlum": 3027,
      "ĠÅ¡eÅĪ": 3028,
      "ĠvzpÃŃ": 3029,
      "ĠÅ¡var": 3030,
      "Ġcla": 3031,
      "ĠvzlÃ©": 3032,
      "Ġzhu": 3033,
      "Ġsech": 3034,
      "ĠtÃ¡z": 3035,
      "ĠÅ¥u": 3036,
      "Ġjima": 3037,
      "Ġzveda": 3038,
      "ĠsrÃ¡": 3039,
      "ĠruÅ¡": 3040,
      "ĠlÅ¾i": 3041,
      "Ġbyva": 3042,
      "Ġspor": 3043,
      "Ġmena": 3044,
      "Ġton": 3045,
      "ĠmeÅ¡": 3046,
      "Ġslavy": 3047,
      "ĠlÃŃÅ¡": 3048,
      "ĠsvÄĽtem": 3049,
      "Ġvzem": 3050,
      "Ġvsl": 3051,
      "Ġdati": 3052,
      "ĠÅĻiti": 3053,
      "Ġvlasti": 3054,
      "Ġdlani": 3055,
      "Ġzin": 3056,
      "ĠÅ¡vi": 3057,
      "ĠvnitÅĻ": 3058,
      "ĠdlÃ½ch": 3059,
      "Ġhyb": 3060,
      "Ġani": 3061,
      "Ġnan": 3062,
      "Ġplane": 3063,
      "Ġzhlou": 3064,
      "ĠvkvÄĽ": 3065,
      "ĠskÅĻe": 3066,
      "ĠvzÅĪa": 3067,
      "Ġkoji": 3068,
      "Ġkala": 3069,
      "Ġboha": 3070,
      "Ġdvor": 3071,
      "ĠÅ¾ivo": 3072,
      "Ġfy": 3073,
      "Ġhory": 3074,
      "ĠvÅ¾a": 3075,
      "ĠpÃŃt": 3076,
      "ĠchÃ¡ch": 3077,
      "Ġnula": 3078,
      "Ġzmu": 3079,
      "ĠprÃ¡h": 3080,
      "Ġzdroj": 3081,
      "Ġvzni": 3082,
      "ĠzpÅ¯": 3083,
      "ÅĻic": 3084,
      "ĠÄįiny": 3085,
      "Ġnot": 3086,
      "Ġel": 3087,
      "Ġsdu": 3088,
      "Ġdov": 3089,
      "Ġvina": 3090,
      "Ġsat": 3091,
      "ĠsÃºs": 3092,
      "nÄĽl": 3093,
      "Ġkrase": 3094,
      "Ġspas": 3095,
      "Ġsig": 3096,
      "ĠmÃ¡l": 3097,
      "Ġclav": 3098,
      "ĠvÄĽÅĻi": 3099,
      "ĠtÅĻes": 3100,
      "dle": 3101,
      "Ġnim": 3102,
      "Ġgic": 3103,
      "Ġviru": 3104,
      "ĠvÃŃs": 3105,
      "ĠjeÅ¡tÄĽ": 3106,
      "ĠXXXA": 3107,
      "ĠdrÃ½ch": 3108,
      "ĠvÄĽÅ¾": 3109,
      "Ġrec": 3110,
      "ĠsdÃŃ": 3111,
      "ĠkÅĻo": 3112,
      "Ġzdar": 3113,
      "lÃ½ch": 3114,
      "ĠchÃ½ch": 3115,
      "ĠnÃ¡c": 3116,
      "Ġvznes": 3117,
      "Ġstek": 3118,
      "ĠvhÃ¡": 3119,
      "ĠkvÃ½": 3120,
      "Ġmir": 3121,
      "Ġtani": 3122,
      "Ġlsti": 3123,
      "Ġvboj": 3124,
      "Ġjdem": 3125,
      "ĠbÄĽl": 3126,
      "Ġzbi": 3127,
      "ĠvmÃŃ": 3128,
      "Ġrus": 3129,
      "vit": 3130,
      "Ġslib": 3131,
      "Ġzvyk": 3132,
      "Ġchcem": 3133,
      "Ġjice": 3134,
      "Ġvdali": 3135,
      "Ġdrahy": 3136,
      "ĠzbÄĽ": 3137,
      "ĠplÃ¡t": 3138,
      "Ġmina": 3139,
      "Ġvita": 3140,
      "ĠkdeÅ¾": 3141,
      "ĠvstÅĻe": 3142,
      "Ġsnech": 3143,
      "Ġniti": 3144,
      "ĠzvÄĽÅĻ": 3145,
      "zni": 3146,
      "Ġchut": 3147,
      "Ġvlet": 3148,
      "Ġmile": 3149,
      "Ġvcho": 3150,
      "ĠdosÅ¥": 3151,
      "ĠzeÄı": 3152,
      "Ġvist": 3153,
      "Ġksmr": 3154,
      "Ġzira": 3155,
      "Ġkvet": 3156,
      "ĠÅ¾ila": 3157,
      "Ġkous": 3158,
      "ĠstÅ¯l": 3159,
      "Ġvid": 3160,
      "Ġmus": 3161,
      "ĠsleÄį": 3162,
      "Ġvhod": 3163,
      "Ġrada": 3164,
      "vam": 3165,
      "ĠvtvÃ¡ÅĻ": 3166,
      "ĠvpÃŃs": 3167,
      "ĠpsÃ¡": 3168,
      "ĠvÄĽl": 3169,
      "ĠpravÄĽ": 3170,
      "Ġchol": 3171,
      "ĠvlasÅ¥": 3172,
      "ĠbliÅ¾i": 3173,
      "ĠtvaÅĻe": 3174,
      "Ġkryt": 3175,
      "ĠpÄĽst": 3176,
      "ĠÅĻas": 3177,
      "nku": 3178,
      "Ġztraci": 3179,
      "ĠjÃ¡k": 3180,
      "Å¾en": 3181,
      "ĠpÅĻÃ¡l": 3182,
      "ĠvyÅ¡e": 3183,
      "ĠbÃŃt": 3184,
      "ĠvmÃ©m": 3185,
      "Ġmaji": 3186,
      "Ġhnus": 3187,
      "Ġzpr": 3188,
      "ĠvchrÃ¡": 3189,
      "Ġzrov": 3190,
      "ven": 3191,
      "ĠÅ¾ivot": 3192,
      "ĠvÄįel": 3193,
      "ĠzÄįe": 3194,
      "ĠkÅĻiÅ¾": 3195,
      "dce": 3196,
      "Ġbudi": 3197,
      "Ġsedi": 3198,
      "Ġsvoje": 3199,
      "Ġstaly": 3200,
      "ĠÄįtvr": 3201,
      "Ġzdech": 3202,
      "ĠÅĻli": 3203,
      "Ġer": 3204,
      "ĠtÅĻas": 3205,
      "krat": 3206,
      "ĠmÃ¡j": 3207,
      "ĠznÃ¡Å¡": 3208,
      "ĠhvÃŃ": 3209,
      "Ġviny": 3210,
      "Ġvty": 3211,
      "tku": 3212,
      "ĠÃºst": 3213,
      "ĠdÄĽd": 3214,
      "Ġstrany": 3215,
      "ĠksvÃ©": 3216,
      "vÅ¯r": 3217,
      "ĠzbÃ½": 3218,
      "ĠplÃ¡Å¡": 3219,
      "ĠcÅ¯v": 3220,
      "ĠzdrÃ¡v": 3221,
      "Ġnni": 3222,
      "Ġdrost": 3223,
      "Ġleny": 3224,
      "Ġskvou": 3225,
      "Ġrukou": 3226,
      "Ġdus": 3227,
      "Ġspol": 3228,
      "Ġshlu": 3229,
      "ĠsmÄĽÅ¡": 3230,
      "Ġptal": 3231,
      "ĠseÄį": 3232,
      "Ġvdal": 3233,
      "Ġth": 3234,
      "Ġlh": 3235,
      "ĠvÃŃk": 3236,
      "ĠlÅ¯Å¾": 3237,
      "Ġdub": 3238,
      "Ġzep": 3239,
      "Ġdraha": 3240,
      "ĠsmrÅ¥": 3241,
      "ĠkÃ¡Å¡": 3242,
      "Ġztich": 3243,
      "Ġzer": 3244,
      "ĠÅ¾eÅĪ": 3245,
      "lek": 3246,
      "ĠpÃŃÅ¡": 3247,
      "ĠkvÄĽty": 3248,
      "Ġmalo": 3249,
      "Ġvzty": 3250,
      "ĠnoÅ¡": 3251,
      "ĠzdÃŃ": 3252,
      "ĠvstÅĻic": 3253,
      "Ġpre": 3254,
      "ĠÄįasy": 3255,
      "ĠjmÄĽ": 3256,
      "ĠpÃŃm": 3257,
      "ĠmÃ¡Å¥": 3258,
      "Ġses": 3259,
      "Ġbry": 3260,
      "ĠÅĻev": 3261,
      "Ġmle": 3262,
      "Ġshle": 3263,
      "ĠtÄĽn": 3264,
      "ĠsplÃ¡": 3265,
      "Ġvpod": 3266,
      "ĠÅ¥Ã¡": 3267,
      "Ġmene": 3268,
      "Ġjle": 3269,
      "ĠbÃ¡z": 3270,
      "ĠkraÄįi": 3271,
      "Ġmrav": 3272,
      "Ġchej": 3273,
      "ĠÄįiÅ¡": 3274,
      "vim": 3275,
      "Ġzlate": 3276,
      "Ġstava": 3277,
      "Ġmatky": 3278,
      "Ġmet": 3279,
      "Ġvsva": 3280,
      "ĠchvÄĽla": 3281,
      "ĠnÄĽmÅ¾": 3282,
      "Ġsja": 3283,
      "ĠsbÄĽ": 3284,
      "Ġryt": 3285,
      "Ġdnech": 3286,
      "ĠvsvÄĽt": 3287,
      "lym": 3288,
      "Ġstel": 3289,
      "Ġston": 3290,
      "Ġsnes": 3291,
      "ĠznichÅ¾": 3292,
      "Ġnovy": 3293,
      "ĠAAAX": 3294,
      "ĠvtrÃ¡": 3295,
      "Ġchen": 3296,
      "ĠhÅĻbe": 3297,
      "ĠÅ¡Å¯": 3298,
      "ĠmÅ¾ik": 3299,
      "Ġpne": 3300,
      "Ġtrav": 3301,
      "Ġrva": 3302,
      "Ġkami": 3303,
      "ĠbÄĽs": 3304,
      "ÅĻad": 3305,
      "Ġvha": 3306,
      "ĠnaÅ¡e": 3307,
      "ĠkÃº": 3308,
      "Ġstalo": 3309,
      "ĠvÅ¡ude": 3310,
      "Ġhlasem": 3311,
      "ĠvzkÅĻik": 3312,
      "Ġdcer": 3313,
      "Ġshr": 3314,
      "Ġniky": 3315,
      "Ġvosti": 3316,
      "Ġplav": 3317,
      "lil": 3318,
      "ĠzaÅĻe": 3319,
      "ĠAX": 3320,
      "Ġvzor": 3321,
      "ĠÅ¡pa": 3322,
      "pal": 3323,
      "Ġlila": 3324,
      "ĠhrÃ¡t": 3325,
      "Ġhaji": 3326,
      "ĠdyÅ¡e": 3327,
      "kach": 3328,
      "Ġhradu": 3329,
      "Ġjist": 3330,
      "Ġlel": 3331,
      "ĠvlaÅ¡": 3332,
      "Ġkdysi": 3333,
      "Ġzpa": 3334,
      "Ġhani": 3335,
      "ĠÅ¡per": 3336,
      "ĠvrÅ¯": 3337,
      "Ġsloup": 3338,
      "Ġvine": 3339,
      "atky": 3340,
      "ĠvÅ¡emi": 3341,
      "ĠtÅĻÃŃs": 3342,
      "Ġjiti": 3343,
      "van": 3344,
      "ĠpÄĽni": 3345,
      "ĠsvÄĽtÄĽ": 3346,
      "Ġblouz": 3347,
      "ĠABABAX": 3348,
      "jal": 3349,
      "ĠÅ¡im": 3350,
      "Ġlok": 3351,
      "ĠveÄı": 3352,
      "ĠtlÃŃ": 3353,
      "ĠtÅĻÃ¡s": 3354,
      "ĠvaÅ¾": 3355,
      "ĠmeÅĪ": 3356,
      "ĠÅĻeni": 3357,
      "ĠplaÄįe": 3358,
      "Ġker": 3359,
      "Ġlidu": 3360,
      "Ġvam": 3361,
      "skych": 3362,
      "Å¡im": 3363,
      "Ġchazi": 3364,
      "ĠmlÃ©": 3365,
      "Ġtros": 3366,
      "Ġstrani": 3367,
      "ĠplÃ¡Å¡Å¥": 3368,
      "Ġzmra": 3369,
      "ĠkÅ¡ti": 3370,
      "Ġloval": 3371,
      "Ġrun": 3372,
      "ĠkÅĻeh": 3373,
      "Ġsdru": 3374,
      "Ġkzemi": 3375,
      "Ġvzdych": 3376,
      "Ġmiru": 3377,
      "ĠnÅ¯v": 3378,
      "Ġvede": 3379,
      "ĠhÃ¡r": 3380,
      "Ġvmu": 3381,
      "Ġbyli": 3382,
      "ĠbÃ¡l": 3383,
      "Ġvjich": 3384,
      "ĠÄįert": 3385,
      "Ġpouze": 3386,
      "ĠÅ¡lÃŃ": 3387,
      "ĠvÅ¾dycky": 3388,
      "ĠchoÅ¥": 3389,
      "nd": 3390,
      "kych": 3391,
      "ĠtvÃ¡r": 3392,
      "Ġnet": 3393,
      "cen": 3394,
      "Ġpisni": 3395,
      "Ġlip": 3396,
      "Ġrano": 3397,
      "Ġvany": 3398,
      "Ġmrz": 3399,
      "Ġlaska": 3400,
      "Ġvran": 3401,
      "ĠkpÅĻe": 3402,
      "ĠzkrÃ¡": 3403,
      "Ġlle": 3404,
      "Ġlha": 3405,
      "Ġvpl": 3406,
      "Ġvbi": 3407,
      "Ġsar": 3408,
      "ĠÅ¾enou": 3409,
      "ĠsnÃŃt": 3410,
      "Ġrol": 3411,
      "Ġkvas": 3412,
      "ĠhrÅ¯z": 3413,
      "Ġsledni": 3414,
      "Ġztem": 3415,
      "Ġzdob": 3416,
      "ĠstvÃ¡": 3417,
      "ĠhÃ¡j": 3418,
      "ĠsmÄĽl": 3419,
      "ĠschÃ½": 3420,
      "Ġkav": 3421,
      "Ġsvate": 3422,
      "ĠmÃ¡n": 3423,
      "Ġbolu": 3424,
      "ĠbratÅĻi": 3425,
      "Ġzpod": 3426,
      "ĠruÄįi": 3427,
      "ĠpiseÅĪ": 3428,
      "Ġvody": 3429,
      "ĠvÄĽru": 3430,
      "Ġstor": 3431,
      "Ġluk": 3432,
      "ĠspÅĻÃ¡": 3433,
      "Ġzble": 3434,
      "ĠvÃ¡r": 3435,
      "Ġzev": 3436,
      "ĠpÄĽti": 3437,
      "Ġbeni": 3438,
      "Ġjiny": 3439,
      "ĠXXABBA": 3440,
      "Ġdilo": 3441,
      "ĠleÅĪ": 3442,
      "ĠspÃ¡t": 3443,
      "Ġzpatky": 3444,
      "Ġokem": 3445,
      "Ġvhloub": 3446,
      "Ġvinu": 3447,
      "ĠpouÅ¥": 3448,
      "Ġpana": 3449,
      "Ġdivy": 3450,
      "Ġlom": 3451,
      "ĠchvÄĽj": 3452,
      "ĠhÅĻich": 3453,
      "Ġpnou": 3454,
      "ĠmaÅ¡": 3455,
      "Ġkvo": 3456,
      "ĠsmÄĽle": 3457,
      "ĠvÅĻi": 3458,
      "Ġhlava": 3459,
      "ĠchaÅ¥": 3460,
      "ĠXXAAXX": 3461,
      "ĠvznÃŃ": 3462,
      "Ġvtou": 3463,
      "Ġlene": 3464,
      "Ġzblou": 3465,
      "Ġtvoje": 3466,
      "kam": 3467,
      "Ġshon": 3468,
      "ĠÅ¡ve": 3469,
      "ĠÅ¡est": 3470,
      "Ġboku": 3471,
      "ĠskvÃŃ": 3472,
      "cim": 3473,
      "Ġtrap": 3474,
      "Ġnemu": 3475,
      "Ġcov": 3476,
      "Ġstit": 3477,
      "Ġvalo": 3478,
      "Ġhrst": 3479,
      "ĠtÅĻÃŃm": 3480,
      "Ġzpup": 3481,
      "ĠruÅ¥": 3482,
      "Ġvslad": 3483,
      "Ġfri": 3484,
      "ĠdvÅ¯r": 3485,
      "ĠnnÃ½m": 3486,
      "ĠÅ¥al": 3487,
      "ĠzhlÃŃ": 3488,
      "Ġrany": 3489,
      "Ġchlou": 3490,
      "Ġtuj": 3491,
      "Ġzbled": 3492,
      "Ġklin": 3493,
      "Ġvuje": 3494,
      "nÃ½": 3495,
      "Ġcno": 3496,
      "Ġsym": 3497,
      "Ġbzu": 3498,
      "Ġkji": 3499,
      "ĠteÅĻ": 3500,
      "ĠraÄį": 3501,
      "Ġvstra": 3502,
      "ĠjemnÄĽ": 3503,
      "Ġjek": 3504,
      "Ġdry": 3505,
      "ĠstmÄĽ": 3506,
      "Äįel": 3507,
      "Ġkoje": 3508,
      "ĠjiÅ¡": 3509,
      "ĠÅĻiÅ¡e": 3510,
      "Ġbri": 3511,
      "Ġvhou": 3512,
      "ĠÅ¡ÃŃp": 3513,
      "Ġstoup": 3514,
      "Ġvcha": 3515,
      "Ġzet": 3516,
      "Ġchly": 3517,
      "qu": 3518,
      "ĠvidÄĽl": 3519,
      "Ġbrani": 3520,
      "Ġkams": 3521,
      "Ġkaji": 3522,
      "Ġcar": 3523,
      "ĠknÃ©": 3524,
      "ĠÅĻist": 3525,
      "ĠvzduÅ¡": 3526,
      "Ġslovy": 3527,
      "ĠtouÅ¾i": 3528,
      "Ġdobu": 3529,
      "Ġsyl": 3530,
      "ĠlÃ¡Äį": 3531,
      "Ġster": 3532,
      "ĠhlÃŃd": 3533,
      "Ġdavy": 3534,
      "Ġrani": 3535,
      "lÃŃz": 3536,
      "Ġchvo": 3537,
      "ÅĻel": 3538,
      "ĠkÃ©n": 3539,
      "ĠvduÅ¡i": 3540,
      "ĠmdlÃ©": 3541,
      "Ġmysli": 3542,
      "Ġzmar": 3543,
      "Ġpuk": 3544,
      "ĠtÅĻÃŃk": 3545,
      "Ġsvla": 3546,
      "ĠnÄĽmy": 3547,
      "ĠvÄĽky": 3548,
      "Ġslit": 3549,
      "Ġptac": 3550,
      "Ġllo": 3551,
      "Ġzbyl": 3552,
      "ĠdÅ¾": 3553,
      "Ġsmal": 3554,
      "ĠzÃŃs": 3555,
      "Ġraje": 3556,
      "ĠÄįila": 3557,
      "Ġschy": 3558,
      "Ġrtem": 3559,
      "ĠÄįinu": 3560,
      "Ġzhr": 3561,
      "ĠmdlÃ½": 3562,
      "Ġkdu": 3563,
      "Ġplati": 3564,
      "ĠnÃ¡n": 3565,
      "Ġqu": 3566,
      "ĠdÃ¡k": 3567,
      "ĠhouÅ¡": 3568,
      "ĠvÄĽka": 3569,
      "Ġgy": 3570,
      "Ġtroc": 3571,
      "Ġkpa": 3572,
      "Ġkpra": 3573,
      "Ġdrou": 3574,
      "Ġsval": 3575,
      "Ġcin": 3576,
      "ĠbÄĽt": 3577,
      "Ġhrudi": 3578,
      "ĠvzkÅĻÃŃ": 3579,
      "ĠrÃ¡l": 3580,
      "Ġkrot": 3581,
      "Ġraji": 3582,
      "Ġjou": 3583,
      "ĠjÃŃÅ¡": 3584,
      "tych": 3585,
      "ĠXXXAXA": 3586,
      "Ġvtma": 3587,
      "ĠbÃ¡t": 3588,
      "ĠvnÃ¡s": 3589,
      "Ġdb": 3590,
      "Ġhlub": 3591,
      "Ġsup": 3592,
      "Ġzlato": 3593,
      "ĠvÄĽd": 3594,
      "Ġllu": 3595,
      "Ġkrve": 3596,
      "dech": 3597,
      "skem": 3598,
      "Ġsaha": 3599,
      "ĠfÃŃ": 3600,
      "ĠvbÃ¡": 3601,
      "ĠÅ¡lÃ¡": 3602,
      "ĠspÅĻe": 3603,
      "ĠvprÃ¡": 3604,
      "ĠÅ¾ar": 3605,
      "ĠXABAB": 3606,
      "Ġprava": 3607,
      "ĠtrÃ½z": 3608,
      "Ġvkraj": 3609,
      "ĠÅ¡ku": 3610,
      "Ġskryt": 3611,
      "Ġvnoc": 3612,
      "Ġsru": 3613,
      "Ġgro": 3614,
      "Ġcud": 3615,
      "ĠnÃ¡ct": 3616,
      "Ġdival": 3617,
      "ĠvstaÅĪ": 3618,
      "zky": 3619,
      "ĠzvÃ¡s": 3620,
      "Ġmiti": 3621,
      "ĠÄįina": 3622,
      "ĠÄįele": 3623,
      "lost": 3624,
      "Ġslep": 3625,
      "ĠkzÃ¡": 3626,
      "Ġzvou": 3627,
      "ĠdÅĻima": 3628,
      "Ġnep": 3629,
      "Ġvba": 3630,
      "Ġchor": 3631,
      "Ġdym": 3632,
      "Ġkvili": 3633,
      "ĠÅ¾iva": 3634,
      "ĠsÃŃÅĪ": 3635,
      "Ġvre": 3636,
      "Ġvstu": 3637,
      "Ġprosi": 3638,
      "Ġslem": 3639,
      "Ġvprou": 3640,
      "Ġhrot": 3641,
      "ĠÅ¡al": 3642,
      "ĠlÃŃst": 3643,
      "en": 3644,
      "Ġpole": 3645,
      "Ġrob": 3646,
      "ĠdÄĽni": 3647,
      "Ġbrem": 3648,
      "Ġ21": 3649,
      "ĠvÄįi": 3650,
      "Ġmizi": 3651,
      "ĠmÄĽn": 3652,
      "Ġsele": 3653,
      "Ġvzej": 3654,
      "ĠtvÄĽ": 3655,
      "ÅĻen": 3656,
      "ĠvÅ¯z": 3657,
      "ĠzlÃ½ch": 3658,
      "Ġsplyva": 3659,
      "ĠsdÄĽ": 3660,
      "ĠpanÄĽ": 3661,
      "Ġvzhu": 3662,
      "Ġknul": 3663,
      "Ġrce": 3664,
      "ĠchlÃŃ": 3665,
      "ĠnÃ©st": 3666,
      "ĠtÅĻti": 3667,
      "Ġvjas": 3668,
      "Ġsep": 3669,
      "Ġneda": 3670,
      "Ġkyva": 3671,
      "Äįim": 3672,
      "Ġmut": 3673,
      "ĠvpÄĽ": 3674,
      "ĠmnoÅ¾": 3675,
      "ĠlÃŃk": 3676,
      "Ġvpi": 3677,
      "ĠleÅ¥": 3678,
      "ĠvpÃ¡": 3679,
      "ĠdrÃ¡Å¾": 3680,
      "ĠpÅĻel": 3681,
      "ĠmÄĽly": 3682,
      "Ġmate": 3683,
      "Ġsbi": 3684,
      "Ġzkla": 3685,
      "ĠtiÅ¾i": 3686,
      "ĠvrÃ¡t": 3687,
      "Ġchech": 3688,
      "Ġvim": 3689,
      "ĠdÃ¡r": 3690,
      "ĠÅĻel": 3691,
      "ĠÅĻÃŃc": 3692,
      "tim": 3693,
      "Ġmrt": 3694,
      "Ġjet": 3695,
      "Ġcitu": 3696,
      "Ġsos": 3697,
      "Ġplem": 3698,
      "Ġchru": 3699,
      "Ġhraje": 3700,
      "Ġmod": 3701,
      "ABXB": 3702,
      "ĠtÅ¯v": 3703,
      "Ġjlep": 3704,
      "Ġak": 3705,
      "Ġloup": 3706,
      "ĠpÅĻiz": 3707,
      "Ġzjas": 3708,
      "ĠpouÅ¡Å¥": 3709,
      "Ġlasku": 3710,
      "jem": 3711,
      "ĠchlÃ½": 3712,
      "Ġkyne": 3713,
      "Ġtomu": 3714,
      "Ġcez": 3715,
      "Ġsyt": 3716,
      "ĠpÃ¡ch": 3717,
      "Ġtvrd": 3718,
      "ĠÅĻila": 3719,
      "ĠzÄįer": 3720,
      "ĠbuÅ¡i": 3721,
      "Ġtaky": 3722,
      "Ġchodi": 3723,
      "ĠzrÅ¯": 3724,
      "Ġnala": 3725,
      "Ġnnost": 3726,
      "Ġmame": 3727,
      "ĠdrÃ½m": 3728,
      "Ġdes": 3729,
      "ĠlÃ¡Å¡": 3730,
      "Ġtouhy": 3731,
      "Ġvhr": 3732,
      "ĠdÄĽn": 3733,
      "Ġpruh": 3734,
      "ĠmyÅ¡": 3735,
      "Ġvhu": 3736,
      "ĠvÅ¯m": 3737,
      "Ġvite": 3738,
      "Ġmyl": 3739,
      "ĠXABABX": 3740,
      "Ġrval": 3741,
      "ĠnichÅ¾": 3742,
      "Ġvzhuru": 3743,
      "Ġbleda": 3744,
      "tky": 3745,
      "Ġcek": 3746,
      "ĠlÅ¯v": 3747,
      "Ġzly": 3748,
      "let": 3749,
      "cel": 3750,
      "zen": 3751,
      "Ġcestu": 3752,
      "ĠÄįtve": 3753,
      "ĠdÄĽÄį": 3754,
      "Ġvici": 3755,
      "Ġspr": 3756,
      "Ġdlel": 3757,
      "ĠÅ¡lÃ½ch": 3758,
      "Ġmlada": 3759,
      "Ġstrun": 3760,
      "Ġpravy": 3761,
      "ĠrdÃŃ": 3762,
      "ĠÅ¾h": 3763,
      "ĠstÄĽny": 3764,
      "Ġvhrob": 3765,
      "ĠlaÅĪ": 3766,
      "Ġvzo": 3767,
      "Ġmati": 3768,
      "Ġfau": 3769,
      "Ġbub": 3770,
      "Å¾it": 3771,
      "ĠÅ¡umi": 3772,
      "Ġrin": 3773,
      "ĠmuÅ¡": 3774,
      "Ġzdali": 3775,
      "ĠmÄĽsta": 3776,
      "Ġposled": 3777,
      "ĠvÃ¡z": 3778,
      "Ġnebes": 3779,
      "Ġstol": 3780,
      "ĠseÅ¡": 3781,
      "Ġvzcho": 3782,
      "ĠmÃŃÅ¡": 3783,
      "ĠlesÅ¥": 3784,
      "Ġvida": 3785,
      "Ġshro": 3786,
      "Ġban": 3787,
      "Ġskryva": 3788,
      "Ġkvil": 3789,
      "ĠnÄĽz": 3790,
      "ĠnnÃ©m": 3791,
      "Ġtos": 3792,
      "ĠvchÃ¡": 3793,
      "ĠÃ¡l": 3794,
      "Ġliba": 3795,
      "Ġmist": 3796,
      "Ġsuk": 3797,
      "Ġvzbou": 3798,
      "ĠchvÄĽni": 3799,
      "ĠtkÃ¡": 3800,
      "ĠdnÃ¡": 3801,
      "Ġmly": 3802,
      "Ġnouc": 3803,
      "ĠplÃ¡ÅĪ": 3804,
      "Ġosud": 3805,
      "Ġskvo": 3806,
      "Ġstev": 3807,
      "Ġkma": 3808,
      "ĠsklÃŃ": 3809,
      "ĠÅ¡ed": 3810,
      "ÅĻim": 3811,
      "ĠhvÃŃz": 3812,
      "Ġchud": 3813,
      "Ġchram": 3814,
      "ĠmÄĽli": 3815,
      "Ġsynu": 3816,
      "ĠsÄį": 3817,
      "ĠvÅ¡eho": 3818,
      "Ġsladky": 3819,
      "Ġtvoji": 3820,
      "stech": 3821,
      "Ġskrz": 3822,
      "ĠzÃºst": 3823,
      "Ġnahle": 3824,
      "ĠmÃ¡ch": 3825,
      "Ġdaly": 3826,
      "on": 3827,
      "Ġschu": 3828,
      "ĠvchvÃŃ": 3829,
      "Ġknout": 3830,
      "Ġveho": 3831,
      "Ġvisi": 3832,
      "Ġnouci": 3833,
      "Ġzur": 3834,
      "Ġstrast": 3835,
      "ĠptÃ¡Äį": 3836,
      "ĠzÅĪa": 3837,
      "Ġrmut": 3838,
      "Ġpych": 3839,
      "Ġkola": 3840,
      "Ġjih": 3841,
      "Ġtala": 3842,
      "Ġzpro": 3843,
      "ĠveÅĪ": 3844,
      "Ġhyne": 3845,
      "Ġnikem": 3846,
      "Ġseni": 3847,
      "ĠjdÄĽ": 3848,
      "Ġpej": 3849,
      "ĠtÃ½r": 3850,
      "ĠrdÄĽ": 3851,
      "Ġsili": 3852,
      "Ġhoun": 3853,
      "ĠchÅ¯m": 3854,
      "Ġsul": 3855,
      "ĠbrÃ¡k": 3856,
      "Äįit": 3857,
      "Ġmlk": 3858,
      "ĠpÅĻÃŃz": 3859,
      "Ġpusti": 3860,
      "ĠkoÄį": 3861,
      "Ġstati": 3862,
      "ĠchvÄĽji": 3863,
      "ĠstrÅ¯": 3864,
      "Ġprace": 3865,
      "Ġkryje": 3866,
      "Ġmlady": 3867,
      "ĠtmÃŃ": 3868,
      "Ġholi": 3869,
      "Ġknih": 3870,
      "Ġgan": 3871,
      "Ġskvr": 3872,
      "Ġtuch": 3873,
      "ĠsmÃ½": 3874,
      "lÃ©d": 3875,
      "hla": 3876,
      "ĠkrÄį": 3877,
      "Ġcena": 3878,
      "Ġdoli": 3879,
      "ĠpÄĽje": 3880,
      "ĠpÅĻedc": 3881,
      "Ġpadne": 3882,
      "ĠsvÄĽtlo": 3883,
      "ĠvdÃŃ": 3884,
      "dny": 3885,
      "Ġom": 3886,
      "Ġusta": 3887,
      "ĠdÃŃc": 3888,
      "Ġstl": 3889,
      "Ġpadu": 3890,
      "Ġkrali": 3891,
      "ĠviÄı": 3892,
      "ĠvunÄĽ": 3893,
      "ĠdvÃŃ": 3894,
      "Ġpila": 3895,
      "Ġchro": 3896,
      "ĠzvÃ½": 3897,
      "ĠchlÃ¡": 3898,
      "Ġlup": 3899,
      "Ġvbu": 3900,
      "ĠÅ¾lou": 3901,
      "Ġmeho": 3902,
      "Ġskrov": 3903,
      "Ġah": 3904,
      "Ġtosti": 3905,
      "Ġzpou": 3906,
      "ĠhÅ¯l": 3907,
      "ĠksobÄĽ": 3908,
      "Ġkok": 3909,
      "Ġbudu": 3910,
      "Ġkrad": 3911,
      "Ġzdravi": 3912,
      "ĠtlÃ½ch": 3913,
      "ĠzvlÃ¡Å¡Å¥": 3914,
      "Ġdmou": 3915,
      "ĠvÅĻela": 3916,
      "ĠXABBA": 3917,
      "Ġjmeno": 3918,
      "Ġkhro": 3919,
      "Ġlvi": 3920,
      "ĠpÄĽsti": 3921,
      "ĠdouÅ¡": 3922,
      "Ġdlech": 3923,
      "Ġzbroj": 3924,
      "ĠvÃŃn": 3925,
      "Ġhlasu": 3926,
      "Ġmraku": 3927,
      "Ġtrs": 3928,
      "ĠhrÃ¡d": 3929,
      "Ġdnou": 3930,
      "Ġbok": 3931,
      "Ġdycha": 3932,
      "Ġzpe": 3933,
      "Ġslavu": 3934,
      "ĠjeÄį": 3935,
      "ĠmrÅ¡": 3936,
      "Ġhlasy": 3937,
      "Ġvzpom": 3938,
      "Ġzkad": 3939,
      "Ġvden": 3940,
      "Ġpij": 3941,
      "ĠdinÄĽ": 3942,
      "Ġoj": 3943,
      "do": 3944,
      "Ġmur": 3945,
      "ĠslyÅ¡el": 3946,
      "Ġskryl": 3947,
      "Ġzoru": 3948,
      "Ġjsouc": 3949,
      "Ġzvla": 3950,
      "Ġzrakem": 3951,
      "ĠÄįÃ¡r": 3952,
      "ĠctÄĽ": 3953,
      "Ġzes": 3954,
      "Ġsici": 3955,
      "Ġstary": 3956,
      "Ġvena": 3957,
      "Ġradi": 3958,
      "ĠvnÄĽj": 3959,
      "Ġsvuj": 3960,
      "Ġpouti": 3961,
      "Ġvnik": 3962,
      "stÃŃ": 3963,
      "Ġjine": 3964,
      "Ġstani": 3965,
      "ĠktÃ©": 3966,
      "ĠkcÃŃ": 3967,
      "Ġniva": 3968,
      "ĠboÅ¾e": 3969,
      "Ġjejich": 3970,
      "ĠsÅĪ": 3971,
      "ĠÄįera": 3972,
      "Ġvzpou": 3973,
      "sic": 3974,
      "Ġvsluch": 3975,
      "Ġrody": 3976,
      "ĠÅ¾ili": 3977,
      "ĠvÄĽtÅ¡i": 3978,
      "Ġvana": 3979,
      "Ġpoji": 3980,
      "Ġplyne": 3981,
      "ĠnÄĽji": 3982,
      "ĠloÅ¾": 3983,
      "ĠstÅ¯m": 3984,
      "Ġen": 3985,
      "nic": 3986,
      "ĠsmÄĽje": 3987,
      "Ġbre": 3988,
      "Ġlak": 3989,
      "Ġvyp": 3990,
      "ĠsnÄĽm": 3991,
      "ĠjlÃŃ": 3992,
      "Ġzad": 3993,
      "Ġkrale": 3994,
      "ĠniÅ¡": 3995,
      "ĠrouÅ¡": 3996,
      "Å¡en": 3997,
      "Ġsama": 3998,
      "Ġkuje": 3999,
      "Ġsvira": 4000,
      "ĠshlÃŃ": 4001,
      "ĠdeÅĪ": 4002,
      "ĠstraÅ¾": 4003,
      "ĠrÅ¯m": 4004,
      "ĠchtÄĽla": 4005,
      "Ġzvuku": 4006,
      "Ġzcela": 4007,
      "is": 4008,
      "Ġdavu": 4009,
      "Ġticha": 4010,
      "Ġvoni": 4011,
      "ĠÅĪÅ¯": 4012,
      "Ġvzka": 4013,
      "Ġzpla": 4014,
      "Ġnova": 4015,
      "Ġkane": 4016,
      "Ġkna": 4017,
      "Ġmohu": 4018,
      "ĠlÃŃt": 4019,
      "ĠtouÅ¾": 4020,
      "Ġmenu": 4021,
      "Ġruka": 4022,
      "Ġrady": 4023,
      "Ġvzhled": 4024,
      "ĠvaÄį": 4025,
      "Ġrude": 4026,
      "Ġkamen": 4027,
      "ĠsprÃ¡v": 4028,
      "ĠkÄįi": 4029,
      "Ġvon": 4030,
      "Ġmych": 4031,
      "ĠÄįan": 4032,
      "ĠnÄĽla": 4033,
      "Ġveny": 4034,
      "ĠvÄĽÅ¾i": 4035,
      "Ġtvuj": 4036,
      "Ġdili": 4037,
      "Ġpiti": 4038,
      "Ġmraky": 4039,
      "Ġvlny": 4040,
      "ĠksvÄĽ": 4041,
      "Ġmha": 4042,
      "Ġvoli": 4043,
      "Ġcer": 4044,
      "Ġih": 4045,
      "ĠzahÅĻ": 4046,
      "ĠobÄĽ": 4047,
      "ĠstÃ½s": 4048,
      "Ġvodu": 4049,
      "Ġcil": 4050,
      "Ġcvi": 4051,
      "ĠlaÅ¡": 4052,
      "Ġsami": 4053,
      "Ġvsmut": 4054,
      "tan": 4055,
      "sko": 4056,
      "ĠAAXBBX": 4057,
      "Ġdoma": 4058,
      "Ġvkle": 4059,
      "Ġhrobu": 4060,
      "Ġhody": 4061,
      "ĠveÄį": 4062,
      "Ġtles": 4063,
      "Ġstly": 4064,
      "Ġuc": 4065,
      "Ġhrady": 4066,
      "ĠÄįeÅ¡": 4067,
      "Ġjicy": 4068,
      "ĠruÅ¾i": 4069,
      "ĠdaÅĻi": 4070,
      "Ġlesa": 4071,
      "ĠrÃ¡Å¾": 4072,
      "Ġdinu": 4073,
      "stal": 4074,
      "Ġstroji": 4075,
      "Ġptaci": 4076,
      "pad": 4077,
      "ĠstvÃ©": 4078,
      "Ġkovi": 4079,
      "Ġdalo": 4080,
      "ĠÄįasem": 4081,
      "ros": 4082,
      "ĠmÄĽti": 4083,
      "ĠhlavÄĽ": 4084,
      "ĠzvÅ¡e": 4085,
      "ĠtÃ½Å¾": 4086,
      "Ġnevi": 4087,
      "Ġfou": 4088,
      "Ġzdy": 4089,
      "Ġstali": 4090,
      "ĠvhrobÄĽ": 4091,
      "chem": 4092,
      "ABX": 4093,
      "Ġcene": 4094,
      "Ġnosi": 4095,
      "Ġpanu": 4096,
      "Ġet": 4097,
      "Ġzuje": 4098,
      "ĠvztÃ¡": 4099,
      "Ġdri": 4100,
      "Ġjemu": 4101,
      "Ġboun": 4102,
      "ĠsÃ¡t": 4103,
      "Ġlani": 4104,
      "Ġzlati": 4105,
      "Ġbyly": 4106,
      "Ġmiva": 4107,
      "Ġvir": 4108,
      "Ġvsmr": 4109,
      "Ġlesu": 4110,
      "ĠsÅ¾e": 4111,
      "Ġnuly": 4112,
      "ĠpiÅ¡": 4113,
      "ĠbÅĻehu": 4114,
      "Ġpluh": 4115,
      "Ġsji": 4116,
      "Ġhodi": 4117,
      "Ġbili": 4118,
      "nit": 4119,
      "ĠtÅĻeba": 4120,
      "ĠÅ¥o": 4121,
      "Ġdoba": 4122,
      "ĠtvoÅĻi": 4123,
      "Ġmis": 4124,
      "Ġsledy": 4125,
      "ĠdeÅ¾": 4126,
      "Ġsvata": 4127,
      "ĠkvÄĽtem": 4128,
      "ĠhraÄį": 4129,
      "Ġpso": 4130,
      "ĠzvrÃ¡": 4131,
      "ĠpÅĻil": 4132,
      "ĠstrÃ½ch": 4133,
      "Ġchleb": 4134,
      "Ġsie": 4135,
      "ĠtÅĻesk": 4136,
      "ĠzkvÄĽ": 4137,
      "ĠkÅĻidla": 4138,
      "ĠvÄĽdi": 4139,
      "ĠrvÃ¡": 4140,
      "Ġblaha": 4141,
      "Ġsrov": 4142,
      "tla": 4143,
      "ĠkÅĻiÅ¡": 4144,
      "Ġshni": 4145,
      "Ġbaj": 4146,
      "ĠsnÃ¡ch": 4147,
      "ĠstÃ¡ch": 4148,
      "Ġdep": 4149,
      "zku": 4150,
      "ĠvpouÅ¡": 4151,
      "ĠXABBAX": 4152,
      "Ġcvr": 4153,
      "ĠpeÄįi": 4154,
      "ĠjitÅĻ": 4155,
      "ĠruÅ¡i": 4156,
      "Ġvmla": 4157,
      "Ġssa": 4158,
      "ĠrtÃŃ": 4159,
      "ĠdiÅ¡": 4160,
      "Ġtrati": 4161,
      "Ġoko": 4162,
      "ĠzaÅ¡": 4163,
      "mÄĽl": 4164,
      "Ġkrvi": 4165,
      "Ġzkra": 4166,
      "ĠznÃŃÅ¾": 4167,
      "Ġvbez": 4168,
      "Ġbech": 4169,
      "ĠÄįiÅĪ": 4170,
      "Ġnohou": 4171,
      "Ġstara": 4172,
      "ĠktÄĽ": 4173,
      "ĠnÄĽna": 4174,
      "ĠnÃ¡v": 4175,
      "Ġvzta": 4176,
      "ĠtÄĽÅ¡": 4177,
      "Ġcesta": 4178,
      "Ġtim": 4179,
      "Ġpsi": 4180,
      "Ġseda": 4181,
      "Ġbav": 4182,
      "ĠznÃ¡t": 4183,
      "ĠmÄĽÅ¥": 4184,
      "ĠvÄĽdÄĽl": 4185,
      "kat": 4186,
      "ĠsuÄı": 4187,
      "ĠvtÄĽÅ¾": 4188,
      "bo": 4189,
      "Ġdole": 4190,
      "ĠÅ¡era": 4191,
      "ĠÄįÃŃst": 4192,
      "Ġvoz": 4193,
      "Ġkrokem": 4194,
      "ĠÅ¾ij": 4195,
      "Ġjasne": 4196,
      "ĠvtvÃ©m": 4197,
      "Ġbaji": 4198,
      "ĠkmÄĽ": 4199,
      "Ġvrouci": 4200,
      "Ġrazem": 4201,
      "Ġlym": 4202,
      "ĠtiÅ¡i": 4203,
      "Ġryk": 4204,
      "Ġkladu": 4205,
      "ĠbrÃ½ch": 4206,
      "Ġchan": 4207,
      "ĠÄįase": 4208,
      "ĠhlÃ½ch": 4209,
      "ĠkvÅ¯": 4210,
      "ĠnÃ¡t": 4211,
      "ĠbouÅĻi": 4212,
      "Ġmenem": 4213,
      "Ġzbyt": 4214,
      "ĠpÅĻim": 4215,
      "ĠhlÃ¡s": 4216,
      "ĠoÅ¡": 4217,
      "Ġduje": 4218,
      "ĠkouÅĻ": 4219,
      "Äįen": 4220,
      "Ġvlek": 4221,
      "Ġmdle": 4222,
      "ĠvklÃŃn": 4223,
      "Ġmru": 4224,
      "ĠÅ¾va": 4225,
      "ĠkaÅ¡": 4226,
      "ĠtÅĻel": 4227,
      "Ġsop": 4228,
      "ĠnoÅĻi": 4229,
      "ĠtÃŃk": 4230,
      "Ġplamen": 4231,
      "Ġkeho": 4232,
      "ĠdnÃ½ch": 4233,
      "Ġkm": 4234,
      "Ġser": 4235,
      "vej": 4236,
      "Ġskeho": 4237,
      "Ġvili": 4238,
      "Ġvtr": 4239,
      "Ġvble": 4240,
      "ĠshÃ½": 4241,
      "vÃ½": 4242,
      "Ġhmy": 4243,
      "Ġvoh": 4244,
      "Ġstira": 4245,
      "ĠpÄĽji": 4246,
      "ĠvspÄĽ": 4247,
      "Ġkrasu": 4248,
      "ĠzbÃŃ": 4249,
      "ĠvÅĻes": 4250,
      "Ġnema": 4251,
      "Ġroste": 4252,
      "ĠÃºc": 4253,
      "ĠnÃŃmÅ¾": 4254,
      "Ġsnim": 4255,
      "Ġhoni": 4256,
      "ĠkdÃŃ": 4257,
      "Ġvraz": 4258,
      "Ġskok": 4259,
      "ĠtmÃ¡ch": 4260,
      "Ġchude": 4261,
      "ĠvmÃ¡": 4262,
      "ĠrÃ¡n": 4263,
      "Ġduchu": 4264,
      "Ġdlil": 4265,
      "Ġktomu": 4266,
      "aku": 4267,
      "zka": 4268,
      "Ġzrad": 4269,
      "Ġzhoub": 4270,
      "Ġdba": 4271,
      "Ġvos": 4272,
      "Ġklidu": 4273,
      "Ġnai": 4274,
      "kym": 4275,
      "ĠdlanÄĽ": 4276,
      "ĠpÃŃr": 4277,
      "Ġmnoho": 4278,
      "Ġrvou": 4279,
      "ĠdÃ¡ÅĻ": 4280,
      "Ġplny": 4281,
      "Ġkslun": 4282,
      "ĠÄįiva": 4283,
      "ĠzkvÃ©": 4284,
      "ĠtuÄį": 4285,
      "Ġvpar": 4286,
      "Ġvjiz": 4287,
      "Ġvnej": 4288,
      "ĠÅĻeny": 4289,
      "ĠstrÃ½m": 4290,
      "ĠvzdÄĽ": 4291,
      "ĠÅ¡ÃŃj": 4292,
      "ĠhÅĻmo": 4293,
      "ĠsluÅ¡i": 4294,
      "Ġasi": 4295,
      "za": 4296,
      "Ġnnosti": 4297,
      "Ġrot": 4298,
      "Ġvlak": 4299,
      "ĠvtÃŃ": 4300,
      "Ġzlatem": 4301,
      "Ġvlese": 4302,
      "Ġtho": 4303,
      "Ġmatku": 4304,
      "ĠdlÃ¡k": 4305,
      "Ġstisk": 4306,
      "ĠleÅ¡": 4307,
      "Ġzdlou": 4308,
      "Ġhazi": 4309,
      "ĠvtmÃ¡ch": 4310,
      "ĠÄıte": 4311,
      "ĠbliÅ¾e": 4312,
      "Ġzach": 4313,
      "Ġnohy": 4314,
      "Ġtrub": 4315,
      "ĠshÅ¯": 4316,
      "Ġkvla": 4317,
      "Ġnnu": 4318,
      "Ġlon": 4319,
      "Ġrab": 4320,
      "Ġstre": 4321,
      "Ġtluk": 4322,
      "Ġjevi": 4323,
      "ĠvyÅ¡i": 4324,
      "Ġvous": 4325,
      "Ġnebi": 4326,
      "Å¾el": 4327,
      "ĠzÃŃÅ¡": 4328,
      "Ġron": 4329,
      "ĠnÄĽt": 4330,
      "Ġvsu": 4331,
      "Ġchodu": 4332,
      "ĠchuÅ¥": 4333,
      "ĠÅ¡ad": 4334,
      "Ġkovy": 4335,
      "ĠtÄĽt": 4336,
      "Ġvsko": 4337,
      "ĠvznÄĽt": 4338,
      "ĠtÅĻit": 4339,
      "Ġlau": 4340,
      "Ġduj": 4341,
      "ĠmÄĽÅĻ": 4342,
      "ĠlÃ¡c": 4343,
      "Ġdenni": 4344,
      "rech": 4345,
      "ĠÅ¡eny": 4346,
      "ĠzdvÃŃ": 4347,
      "ĠÄįat": 4348,
      "ĠklÃ½ch": 4349,
      "Ġrodi": 4350,
      "ĠvzÃ½": 4351,
      "ĠtÃ³n": 4352,
      "Ġhvozd": 4353,
      "Ġlety": 4354,
      "Ġdomi": 4355,
      "ĠfrÃ¡": 4356,
      "Ġhromu": 4357,
      "ĠdÃ©Äį": 4358,
      "Ġvstava": 4359,
      "ĠÄįeÅ¾": 4360,
      "ĠpÅĻis": 4361,
      "Ġdeb": 4362,
      "Ġvate": 4363,
      "Ġtmu": 4364,
      "ĠpÅĻijÄı": 4365,
      "Ġpust": 4366,
      "ĠslÃŃÅ¡": 4367,
      "Ġtvych": 4368,
      "Ġsc": 4369,
      "Ġplam": 4370,
      "Ġklesa": 4371,
      "ĠstkvÃŃ": 4372,
      "Ġtesk": 4373,
      "ĠÅ¡ena": 4374,
      "ĠvslÃ¡": 4375,
      "ĠsnÄĽti": 4376,
      "Ġvc": 4377,
      "ĠsÅĪa": 4378,
      "Ġkvr": 4379,
      "Ġkvap": 4380,
      "Ġkaly": 4381,
      "ĠprÃ½Å¡": 4382,
      "pat": 4383,
      "Ġroni": 4384,
      "Ġsmat": 4385,
      "Ġsyna": 4386,
      "ĠhvÄĽzdy": 4387,
      "ĠmlÃ½n": 4388,
      "Ġmhou": 4389,
      "ol": 4390,
      "ĠchvÄĽt": 4391,
      "ĠpÅĻani": 4392,
      "ĠkÃ©s": 4393,
      "Ġkod": 4394,
      "Ġjsy": 4395,
      "ĠÄįap": 4396,
      "tal": 4397,
      "ĠvÅ¡tÄĽ": 4398,
      "ĠÅĻiÅ¡": 4399,
      "Å¾ik": 4400,
      "Ġfer": 4401,
      "ĠvaÅ¡": 4402,
      "Ġlout": 4403,
      "ĠprÃ¡v": 4404,
      "Ġvuni": 4405,
      "ĠvÅ¾Ã¡": 4406,
      "Ġdruhy": 4407,
      "ĠknÃŃÅ¾": 4408,
      "ĠstranÄĽ": 4409,
      "ĠvhruÄı": 4410,
      "Ġsnami": 4411,
      "Ġnivy": 4412,
      "ĠjÃŃz": 4413,
      "Ġstolu": 4414,
      "Ġflo": 4415,
      "ĠvlaÅ¾": 4416,
      "ĠpouÅ¡ti": 4417,
      "Ġzpival": 4418,
      "Ġtha": 4419,
      "neÅ¡": 4420,
      "Ġzahy": 4421,
      "ĠzpÅĻÃŃ": 4422,
      "Ġstele": 4423,
      "ĠstmÃŃ": 4424,
      "Ġksp": 4425,
      "ĠzÅĻÃŃd": 4426,
      "ĠvmlÃ¡": 4427,
      "ĠhlÃ½m": 4428,
      "rach": 4429,
      "nÄĽn": 4430,
      "Ġvmou": 4431,
      "Ġzvad": 4432,
      "Ġvlou": 4433,
      "ĠkaÅĻ": 4434,
      "ĠmÄĽle": 4435,
      "ĠpiÄį": 4436,
      "ĠshÃ¡": 4437,
      "Ġnaji": 4438,
      "Ġzvr": 4439,
      "ĠkaÅ¾e": 4440,
      "Ġtoho": 4441,
      "ĠnÃ¡k": 4442,
      "Ġbiny": 4443,
      "ĠdrÅ¾": 4444,
      "Ġhel": 4445,
      "ĠslÃ¡s": 4446,
      "ĠknÄĽmu": 4447,
      "Ġlovat": 4448,
      "Ġdame": 4449,
      "ĠÅĻÃŃd": 4450,
      "ĠslÃ¡b": 4451,
      "ĠdÅ¯v": 4452,
      "Ġcle": 4453,
      "Ġletu": 4454,
      "Ġzez": 4455,
      "Ġtuje": 4456,
      "Ġgli": 4457,
      "ĠdlaÅ¾": 4458,
      "ĠÅ¾ada": 4459,
      "Ġhochu": 4460,
      "ĠtaÅĻi": 4461,
      "ĠtÃ¡Å¡": 4462,
      "Ġdral": 4463,
      "Ġprve": 4464,
      "ĠÅĻiÄį": 4465,
      "ĠslavÄĽ": 4466,
      "Ġhraji": 4467,
      "ram": 4468,
      "Ġroh": 4469,
      "ĠvÄĽci": 4470,
      "vÄĽk": 4471,
      "Ġdami": 4472,
      "dim": 4473,
      "Ġkroku": 4474,
      "ĠspÄĽje": 4475,
      "ĠÅ¡ka": 4476,
      "ĠÄįast": 4477,
      "Ġpus": 4478,
      "ĠbÃ¡Å¡": 4479,
      "ĠpisnÄĽ": 4480,
      "ĠÅ¡ene": 4481,
      "ĠkprÃ¡": 4482,
      "ĠnnÃŃm": 4483,
      "Ġnus": 4484,
      "Ġsvaz": 4485,
      "Ġjun": 4486,
      "Ġchleba": 4487,
      "Ġpri": 4488,
      "ĠsmÃŃr": 4489,
      "ĠpÄĽn": 4490,
      "Ġslovo": 4491,
      "Ġrys": 4492,
      "Ġruky": 4493,
      "Ġvplen": 4494,
      "Ġrie": 4495,
      "Ġpluk": 4496,
      "Ġvkout": 4497,
      "Ġram": 4498,
      "ĠtemnÄĽ": 4499,
      "Ġzlob": 4500,
      "kol": 4501,
      "lal": 4502,
      "Ġzkro": 4503,
      "tit": 4504,
      "Ġvnes": 4505,
      "ĠvkvÄĽt": 4506,
      "Ġdruhu": 4507,
      "zil": 4508,
      "ĠtÄĽr": 4509,
      "ĠvsnÃ¡": 4510,
      "Ġmlade": 4511,
      "Ġvzlyk": 4512,
      "Ġbohy": 4513,
      "Ġjara": 4514,
      "ĠtÃ¡l": 4515,
      "ĠÅ¾iÄį": 4516,
      "Ġlita": 4517,
      "ĠÅ¡eÅĻi": 4518,
      "ĠÄįista": 4519,
      "zda": 4520,
      "Ġkvy": 4521,
      "Ġkava": 4522,
      "Ġluji": 4523,
      "Ġtik": 4524,
      "ĠvsnÃ¡ch": 4525,
      "Ġnava": 4526,
      "Ġnimi": 4527,
      "ĠÄįiÄį": 4528,
      "Ġkvete": 4529,
      "Ġroji": 4530,
      "ĠbÄĽda": 4531,
      "Ġlisti": 4532,
      "ĠdÄĽle": 4533,
      "ĠzÃ¡Å¡Å¥": 4534,
      "ĠpatÅĻi": 4535,
      "Ġviti": 4536,
      "Ġrep": 4537,
      "ĠksmÃŃ": 4538,
      "Ġsj": 4539,
      "Ġmale": 4540,
      "Ġdul": 4541,
      "ĠÅ¾ert": 4542,
      "ĠjistÄĽ": 4543,
      "ĠbÅĻit": 4544,
      "Ġshas": 4545,
      "Ġkoni": 4546,
      "Ġnaly": 4547,
      "Ġdrah": 4548,
      "ĠztmÄĽ": 4549,
      "Å¾a": 4550,
      "Ġdik": 4551,
      "Ġleje": 4552,
      "Ġkova": 4553,
      "ĠsmÃ¡t": 4554,
      "ĠvzÃŃt": 4555,
      "vod": 4556,
      "ĠkonÄĽ": 4557,
      "Ġsina": 4558,
      "Ġjasa": 4559,
      "Ġdechu": 4560,
      "ĠptÃ¡m": 4561,
      "Ġchoun": 4562,
      "Ġoku": 4563,
      "Ġthu": 4564,
      "Ġmlh": 4565,
      "ĠkhvÄĽz": 4566,
      "ĠÃ¡n": 4567,
      "ĠstÅĻa": 4568,
      "Ġnar": 4569,
      "Ġmic": 4570,
      "Ġnin": 4571,
      "Ġtily": 4572,
      "Ġpasti": 4573,
      "Ġfon": 4574,
      "ĠnÃ©Äį": 4575,
      "Ġmer": 4576,
      "Ġvlasu": 4577,
      "Ġric": 4578,
      "ĠpÅĻ": 4579,
      "Ġvrab": 4580,
      "Ġstranou": 4581,
      "Ġtrochu": 4582,
      "Ġducha": 4583,
      "Ġost": 4584,
      "ĠmÃŃÅĪ": 4585,
      "Ġhroby": 4586,
      "ĠdÅĻiv": 4587,
      "ĠÃ©": 4588,
      "Ġjeni": 4589,
      "Ġtaje": 4590,
      "ĠsvÄĽti": 4591,
      "ĠvprÃ¡z": 4592,
      "ĠspÅĻÃŃ": 4593,
      "ĠsvÄĽty": 4594,
      "ĠrÅ¯Å¾": 4595,
      "ĠtÄĽÅ¡i": 4596,
      "ĠnÅ¯Å¾": 4597,
      "ĠvyÅĻ": 4598,
      "Ġvsnech": 4599,
      "ĠzÄį": 4600,
      "Ġmej": 4601,
      "ĠvÃ½z": 4602,
      "Ġam": 4603,
      "Ġbij": 4604,
      "Ġgen": 4605,
      "ĠÅĻej": 4606,
      "ĠchÃ¡z": 4607,
      "Ġstrov": 4608,
      "Ġznam": 4609,
      "ĠpovÄĽ": 4610,
      "ĠÄįeji": 4611,
      "ĠÅ¾in": 4612,
      "Ġskala": 4613,
      "Ġtoku": 4614,
      "Ġhav": 4615,
      "Ġvpoli": 4616,
      "ĠbrÃ½m": 4617,
      "Ġzrn": 4618,
      "ĠdÄĽcko": 4619,
      "Ġjra": 4620,
      "Ġpolem": 4621,
      "ĠÄįiv": 4622,
      "ĠpÅĻece": 4623,
      "Ġchoval": 4624,
      "ĠÄįlovÄĽk": 4625,
      "ĠstaÅĻi": 4626,
      "ĠABC": 4627,
      "Ġchysta": 4628,
      "Ġdrem": 4629,
      "Ġvprav": 4630,
      "Ġzumi": 4631,
      "sek": 4632,
      "Ġkrej": 4633,
      "Ġdvoj": 4634,
      "ĠÅ¾eno": 4635,
      "Ġpach": 4636,
      "ĠloÅ¾i": 4637,
      "ĠlosÅ¥": 4638,
      "Ġuj": 4639,
      "Ġklade": 4640,
      "Ġmatka": 4641,
      "Ġletem": 4642,
      "Ġzhla": 4643,
      "ĠÅ¡kol": 4644,
      "ĠvklÃ¡": 4645,
      "ĠzÅĻej": 4646,
      "Ġzdviha": 4647,
      "Ġbouk": 4648,
      "ĠstÅĻech": 4649,
      "Ġtici": 4650,
      "Ġstop": 4651,
      "ĠsrÃ¡z": 4652,
      "Ġjeden": 4653,
      "Ġveli": 4654,
      "ĠnÃ¡l": 4655,
      "nat": 4656,
      "ĠvsvÃ½ch": 4657,
      "Ġzrana": 4658,
      "ĠzkÅĻi": 4659,
      "Ġzs": 4660,
      "Ġmund": 4661,
      "ĠrÃ¡Å¡": 4662,
      "ĠÅ¡ili": 4663,
      "Ġbah": 4664,
      "Ġtouha": 4665,
      "rej": 4666,
      "ĠÅ¡lÃ½": 4667,
      "ĠnÃ¡Äį": 4668,
      "Ġrag": 4669,
      "ĠnÄĽmi": 4670,
      "ĠspÄĽj": 4671,
      "ĠvhouÅ¡": 4672,
      "il": 4673,
      "Ġnis": 4674,
      "ĠchÃ¡Å¡": 4675,
      "ĠzÅ¡e": 4676,
      "ĠnÄĽne": 4677,
      "Ġkrasa": 4678,
      "ĠzlÃ¡s": 4679,
      "Ġvnuk": 4680,
      "ĠkvÃ©st": 4681,
      "Ġzme": 4682,
      "ĠkÃ¡t": 4683,
      "ĠpÅĻiÅ¡el": 4684,
      "Ġchopi": 4685,
      "ĠvÅ¡ecky": 4686,
      "ĠvkrÃ¡t": 4687,
      "ĠdeÅĻ": 4688,
      "ĠbÃŃm": 4689,
      "Ġkrasne": 4690,
      "Ġsroz": 4691,
      "Ġklinu": 4692,
      "ĠdlÃŃm": 4693,
      "Ġvily": 4694,
      "ĠpÅĻiÅ¡": 4695,
      "Ġleho": 4696,
      "ĠlÃ¡ÅĻ": 4697,
      "ĠtÅĻeti": 4698,
      "Ġjemstvi": 4699,
      "Ġlkal": 4700,
      "Ġzdalo": 4701,
      "dra": 4702,
      "stva": 4703,
      "ĠkÃ¡ÅĻ": 4704,
      "Ġhrat": 4705,
      "Ġjev": 4706,
      "ĠÅĻeky": 4707,
      "ĠrÃ¡ÅĻ": 4708,
      "ĠzÅĻiti": 4709,
      "Ġbavi": 4710,
      "Ġdout": 4711,
      "ran": 4712,
      "Ġtrysk": 4713,
      "Ġshor": 4714,
      "Ġsiti": 4715,
      "Ġkati": 4716,
      "ĠlÃ¡k": 4717,
      "Ġvtva": 4718,
      "Ġstuj": 4719,
      "ĠtkvÃŃ": 4720,
      "Ġdluh": 4721,
      "ĠkynÄĽ": 4722,
      "ĠvÅ¾e": 4723,
      "ĠktobÄĽ": 4724,
      "ĠmÄĽvem": 4725,
      "ĠvÅ¡ady": 4726,
      "Ġctnosti": 4727,
      "ĠmÅ¡i": 4728,
      "Ġlese": 4729,
      "ĠkoÅĻi": 4730,
      "Ġlenou": 4731,
      "Ġprst": 4732,
      "Ġretu": 4733,
      "ĠhradÄĽ": 4734,
      "Ġchrem": 4735,
      "Ġjemnou": 4736,
      "Ġzvuky": 4737,
      "ĠstÃ½ÅĻ": 4738,
      "Ġvoku": 4739,
      "ĠtuÅ¥": 4740,
      "Ġzbou": 4741,
      "Ġkhla": 4742,
      "Ġsebou": 4743,
      "Ġzleh": 4744,
      "Ġslavi": 4745,
      "ĠÄıar": 4746,
      "Ġrych": 4747,
      "Ġvkla": 4748,
      "bit": 4749,
      "Ġvhor": 4750,
      "Ġsvymi": 4751,
      "ĠvzplÃ¡l": 4752,
      "Å¡ÃŃ": 4753,
      "Ġmaj": 4754,
      "Ġsedm": 4755,
      "Ġcher": 4756,
      "Ġhoru": 4757,
      "ĠmÄĽlo": 4758,
      "ĠzoÅĻe": 4759,
      "ĠnitÅĻ": 4760,
      "Ġvinou": 4761,
      "ĠÅ¾ivy": 4762,
      "vor": 4763,
      "ĠkÅĻep": 4764,
      "ĠchtÃŃt": 4765,
      "Ġliky": 4766,
      "Ġumi": 4767,
      "Ġslet": 4768,
      "Ġnily": 4769,
      "ĠÅ¥te": 4770,
      "Ġvoru": 4771,
      "ĠrobÄĽ": 4772,
      "ĠpÅĻiÅ¡ti": 4773,
      "Ġranu": 4774,
      "Ġonu": 4775,
      "ĠvÄĽje": 4776,
      "Ġprudce": 4777,
      "Ġskem": 4778,
      "ĠmÃ¡k": 4779,
      "ĠÅĻady": 4780,
      "Ġvchlad": 4781,
      "ĠÄįÃ¡st": 4782,
      "ĠnÄĽny": 4783,
      "Ġtar": 4784,
      "ĠvhnÄĽ": 4785,
      "Ġplen": 4786,
      "Ġstlo": 4787,
      "ĠzvÅ¯": 4788,
      "Ġat": 4789,
      "Ġhledu": 4790,
      "Ġdinou": 4791,
      "ĠlÃ©t": 4792,
      "ĠzblÃŃz": 4793,
      "Ġvdru": 4794,
      "Ġzik": 4795,
      "Ġvlk": 4796,
      "ĠlÅ¾ÃŃ": 4797,
      "Ġuh": 4798,
      "ĠtlaÄįi": 4799,
      "Ġlika": 4800,
      "ĠvaÅ¥": 4801,
      "Ġbolem": 4802,
      "Ġvsla": 4803,
      "Ġpije": 4804,
      "Ġvlad": 4805,
      "Ġspod": 4806,
      "ĠvztÃ½": 4807,
      "ĠÅ¡ev": 4808,
      "ĠÄįena": 4809,
      "Ġsvitu": 4810,
      "Ġzmira": 4811,
      "Ġdlouhy": 4812,
      "Ġschva": 4813,
      "ĠdÃ³": 4814,
      "Ġvtis": 4815,
      "Ġchrani": 4816,
      "Ġsdi": 4817,
      "ĠÅ¡ÅĪ": 4818,
      "Ġdove": 4819,
      "jic": 4820,
      "ĠdveÅĻi": 4821,
      "ĠtkvÄĽ": 4822,
      "ĠspouÅ¡": 4823,
      "Ġraci": 4824,
      "Ġryzi": 4825,
      "Ġhral": 4826,
      "ĠtÅĻen": 4827,
      "ĠchvÄĽly": 4828,
      "Ġ22": 4829,
      "Ġkch": 4830,
      "ĠkÃ¡s": 4831,
      "Ġkob": 4832,
      "Ġnilo": 4833,
      "ĠvÄĽsti": 4834,
      "ĠvÃŃd": 4835,
      "Ġprot": 4836,
      "Ġplul": 4837,
      "ĠtÄĽni": 4838,
      "ĠÄįili": 4839,
      "Ġvratil": 4840,
      "Ġjista": 4841,
      "Ġzvra": 4842,
      "Ġsvemu": 4843,
      "Ġmine": 4844,
      "ĠhrobÄĽ": 4845,
      "Ġvkni": 4846,
      "Ġlide": 4847,
      "ĠhuÄįi": 4848,
      "Ġpic": 4849,
      "ĠkÃ½v": 4850,
      "ĠchvÄĽlo": 4851,
      "Ġmodli": 4852,
      "Ġvznik": 4853,
      "ĠÅ¡tit": 4854,
      "ĠzlÃ½m": 4855,
      "Ġliny": 4856,
      "Ġcile": 4857,
      "ĠzmÃ©": 4858,
      "ĠdliÄį": 4859,
      "ĠhÅĻÃŃÄį": 4860,
      "ĠdaÅĻ": 4861,
      "ĠplemÄĽ": 4862,
      "Ġvodi": 4863,
      "ĠboÅĻi": 4864,
      "Ġvslo": 4865,
      "Ġstromy": 4866,
      "ĠklÃŃÄį": 4867,
      "Ġbudou": 4868,
      "tej": 4869,
      "ĠvÃ©st": 4870,
      "Ġsrdci": 4871,
      "Ġvzduchu": 4872,
      "Ġhov": 4873,
      "ĠÅ¾enu": 4874,
      "Ġdily": 4875,
      "Ġvtru": 4876,
      "ĠhledÄĽl": 4877,
      "ĠzpÄĽvy": 4878,
      "Ġdlesk": 4879,
      "ĠÅ¡leni": 4880,
      "Ġpsy": 4881,
      "Ġhos": 4882,
      "Ġmaje": 4883,
      "Ġpiv": 4884,
      "ĠvÅĻele": 4885,
      "Ġsliv": 4886,
      "ĠÅĻve": 4887,
      "Ġsok": 4888,
      "ĠvnoÄį": 4889,
      "ĠmdlÃ¡": 4890,
      "Ġkrista": 4891,
      "Ġtisni": 4892,
      "Ġdrti": 4893,
      "ĠradÅ¡": 4894,
      "Ġlie": 4895,
      "Ġkyn": 4896,
      "ĠsÅ¾i": 4897,
      "Ġshu": 4898,
      "Ġzdej": 4899,
      "Ġknam": 4900,
      "Ġnie": 4901,
      "Ġviv": 4902,
      "Ġsilu": 4903,
      "Ġsvita": 4904,
      "Ġsbra": 4905,
      "Ġstena": 4906,
      "ĠÅ¡tvÃ¡": 4907,
      "ĠvkÅĻe": 4908,
      "ĠsÅĻÃŃ": 4909,
      "Ġkrate": 4910,
      "Ġksou": 4911,
      "Ġhaje": 4912,
      "Ġvsled": 4913,
      "ĠvdÅ¯": 4914,
      "Ġblaku": 4915,
      "ĠbrÃ¡t": 4916,
      "ĠvjÃŃ": 4917,
      "Ġdak": 4918,
      "ĠvyÄį": 4919,
      "Ġsvod": 4920,
      "Ġknebi": 4921,
      "vÃ½m": 4922,
      "Ġrosy": 4923,
      "Ġprahu": 4924,
      "Ġpravil": 4925,
      "ĠsteÄį": 4926,
      "Ġtrok": 4927,
      "Ġvime": 4928,
      "Ġsile": 4929,
      "Ġleji": 4930,
      "Ġnili": 4931,
      "Ġpadla": 4932,
      "ĠmstÃŃ": 4933,
      "ĠÄįnÄĽ": 4934,
      "ĠmÃ¡Å¾": 4935,
      "ĠzÃ¡k": 4936,
      "Ġbyls": 4937,
      "Ġvzpi": 4938,
      "Ġpyt": 4939,
      "zeÅĪ": 4940,
      "lak": 4941,
      "Ġcech": 4942,
      "ĠvÃŃt": 4943,
      "Ġvstro": 4944,
      "ĠÅ¡kÅ¯d": 4945,
      "ĠÄįita": 4946,
      "Ġhus": 4947,
      "Ġkazal": 4948,
      "Ġzhor": 4949,
      "Ġznovu": 4950,
      "Ġvpad": 4951,
      "ĠhÃ¡Å¡": 4952,
      "dek": 4953,
      "Ġbesa": 4954,
      "Ġvanou": 4955,
      "Ġranni": 4956,
      "ĠdrÃ©m": 4957,
      "tec": 4958,
      "Ġloun": 4959,
      "ĠtÅĻpyti": 4960,
      "ĠÅ¡iÄį": 4961,
      "Å¾im": 4962,
      "Ġchladne": 4963,
      "Ġvv": 4964,
      "ĠsmÄĽly": 4965,
      "Ġkpr": 4966,
      "Ġtmavy": 4967,
      "Ġradost": 4968,
      "Ġledne": 4969,
      "ĠABB": 4970,
      "Ġzob": 4971,
      "ĠvmÃ½ch": 4972,
      "Ġzmoc": 4973,
      "Ġzmy": 4974,
      "ĠdveÅĻe": 4975,
      "Ġproste": 4976,
      "Ġglo": 4977,
      "Ġrouc": 4978,
      "ĠAAAA": 4979,
      "ĠktÄĽm": 4980,
      "ĠÄįlun": 4981,
      "lech": 4982,
      "ĠÅ¾ela": 4983,
      "ĠÄįed": 4984,
      "ĠvsmÃŃ": 4985,
      "Ġkslu": 4986,
      "ĠÄįli": 4987,
      "ĠzvÄĽsti": 4988,
      "Ġslovem": 4989,
      "ĠskraÅĪ": 4990,
      "ĠviÅĻi": 4991,
      "ĠvzpÅĻÃŃ": 4992,
      "Ġpja": 4993,
      "ĠsmeÄį": 4994,
      "Ġplout": 4995,
      "Ġmoj": 4996,
      "ĠmÄĽÅĻi": 4997,
      "Ġmes": 4998,
      "ĠbÄĽti": 4999,
      "ĠAXABBX": 5000,
      "lan": 5001,
      "Ġjinou": 5002,
      "Ġsin": 5003,
      "ĠtrÃ©": 5004,
      "ĠvnÄĽÅ¾": 5005,
      "Ġplanou": 5006,
      "Ġvdech": 5007,
      "ĠÅ¾ol": 5008,
      "Ġzticha": 5009,
      "vÅ¯j": 5010,
      "Ġtice": 5011,
      "ĠuÄį": 5012,
      "Ġstavil": 5013,
      "Ġtahne": 5014,
      "Ġmym": 5015,
      "ĠhÃ¡Äį": 5016,
      "Ġtravy": 5017,
      "ĠsmÄĽr": 5018,
      "ĠstiÄį": 5019,
      "Ġbiji": 5020,
      "Ġkroky": 5021,
      "Ġmiha": 5022,
      "Ġbrany": 5023,
      "Ġzmla": 5024,
      "del": 5025,
      "Ġbledy": 5026,
      "Ġsklen": 5027,
      "ĠbÃ½m": 5028,
      "Ġbab": 5029,
      "ĠÄįeny": 5030,
      "Ġvdlou": 5031,
      "Ġvidim": 5032,
      "ĠzÃ¡c": 5033,
      "Ġsklada": 5034,
      "ĠdvÃ¡b": 5035,
      "Å¡a": 5036,
      "Ġruchu": 5037,
      "Ġvzruch": 5038,
      "fa": 5039,
      "ĠblaÄį": 5040,
      "Ġznej": 5041,
      "ĠÅ¾ra": 5042,
      "ĠvÅĻÃŃt": 5043,
      "Ġab": 5044,
      "ĠABABBX": 5045,
      "ĠplaÅ¡i": 5046,
      "ĠÄįerv": 5047,
      "chÃ¡": 5048,
      "Ġvzna": 5049,
      "Ġstavu": 5050,
      "Ġdleni": 5051,
      "ĠhÅĻichu": 5052,
      "Ġtaly": 5053,
      "ĠverÅ¡": 5054,
      "ĠtÄĽle": 5055,
      "Ġdaj": 5056,
      "Ġrala": 5057,
      "Ġstiv": 5058,
      "Ġryl": 5059,
      "ĠpruÅ¾": 5060,
      "Ġvlok": 5061,
      "Ġvsen": 5062,
      "Ġpop": 5063,
      "ĠlÃŃÅĻ": 5064,
      "ĠsÃ¡l": 5065,
      "Ġvsti": 5066,
      "ĠzÅ¾i": 5067,
      "Ġtili": 5068,
      "Ġvaci": 5069,
      "Ġvtra": 5070,
      "Ġsvad": 5071,
      "ĠÅ¾aru": 5072,
      "Ġvprv": 5073,
      "Ġvene": 5074,
      "ÅĻu": 5075,
      "ben": 5076,
      "Ġcesty": 5077,
      "Ġvhra": 5078,
      "ĠskranÄĽ": 5079,
      "ĠlhÃ¡": 5080,
      "Ġmok": 5081,
      "Ġvska": 5082,
      "ĠÅ¡kr": 5083,
      "Ġjini": 5084,
      "ĠÅ¾ily": 5085,
      "Ġkruhu": 5086,
      "ĠspÃŃs": 5087,
      "Ġdie": 5088,
      "ĠkbÅĻe": 5089,
      "ĠzvuÄįi": 5090,
      "ĠdeÅ¡tÄĽ": 5091,
      "Ġtveho": 5092,
      "hle": 5093,
      "ĠÄįou": 5094,
      "Ġup": 5095,
      "Ġrud": 5096,
      "Ġpul": 5097,
      "ĠÄįÃŃc": 5098,
      "Ġpous": 5099,
      "Ġoba": 5100,
      "Ġruti": 5101,
      "Ġtvol": 5102,
      "Ġex": 5103,
      "Ġcuje": 5104,
      "ĠknÃ½": 5105,
      "ĠzpÄĽvu": 5106,
      "Ġvboji": 5107,
      "Ġvchu": 5108,
      "Ġlala": 5109,
      "ĠÅ¡ik": 5110,
      "Ġtram": 5111,
      "Ġznamy": 5112,
      "Ġbot": 5113,
      "Ġlove": 5114,
      "Ġbani": 5115,
      "ĠXAAXBB": 5116,
      "Ġznik": 5117,
      "Ġvazi": 5118,
      "Ġradu": 5119,
      "Ġtelem": 5120,
      "ĠlejÅ¡i": 5121,
      "Ġcouz": 5122,
      "ĠnuÅ¡": 5123,
      "Ġtake": 5124,
      "ĠrtÅ¯m": 5125,
      "Ġeh": 5126,
      "ĠdeÅ¡Å¥": 5127,
      "Ġmys": 5128,
      "Ġkdesi": 5129,
      "ĠmrÃ¡Äį": 5130,
      "ĠpovÄĽÄı": 5131,
      "ĠmuÅ¾i": 5132,
      "ĠXAAA": 5133,
      "Ġmista": 5134,
      "Ġmos": 5135,
      "Ġvmr": 5136,
      "Ġpost": 5137,
      "Ġtiny": 5138,
      "ĠtÃŃc": 5139,
      "ĠpeÅĪ": 5140,
      "ĠvpÅ¯l": 5141,
      "ĠdÅ¾b": 5142,
      "ĠtmÃ¡": 5143,
      "Ġnale": 5144,
      "ĠveÄįer": 5145,
      "ĠskoÄįi": 5146,
      "Ġhnuti": 5147,
      "Ġoct": 5148,
      "bin": 5149,
      "Ġzraje": 5150,
      "Ġhlida": 5151,
      "Ġzmlk": 5152,
      "Ġzak": 5153,
      "Ġzela": 5154,
      "Ġslab": 5155,
      "Ġzisk": 5156,
      "ĠsÃ¡ch": 5157,
      "Ġlisty": 5158,
      "ĠpsÃ¡t": 5159,
      "Ġshy": 5160,
      "Ġlame": 5161,
      "ĠpasÅ¥": 5162,
      "ĠliÄįka": 5163,
      "Ġnaiv": 5164,
      "Ġporu": 5165,
      "Ġbodu": 5166,
      "tÄĽl": 5167,
      "ĠschrÃ¡": 5168,
      "Ġcnost": 5169,
      "Ġseli": 5170,
      "Ġsdo": 5171,
      "ĠstlÃ¡": 5172,
      "Ġminam": 5173,
      "ĠtÄĽsti": 5174,
      "Ġhles": 5175,
      "ĠdÄĽsi": 5176,
      "Ġdumy": 5177,
      "ĠgÃ¡": 5178,
      "ĠdlÃ½m": 5179,
      "ĠmanÄĽ": 5180,
      "Ġhlasi": 5181,
      "Ġem": 5182,
      "Ġdaval": 5183,
      "ĠhÅĻmi": 5184,
      "Ġchov": 5185,
      "Ġdravy": 5186,
      "Ġvoda": 5187,
      "Ġger": 5188,
      "ĠbÃ½ch": 5189,
      "Ġpasu": 5190,
      "Ġsilou": 5191,
      "Ġlije": 5192,
      "ĠvoÅĻi": 5193,
      "ĠpÅĻÃŃt": 5194,
      "Ġtichu": 5195,
      "Ġcitil": 5196,
      "Ġbuz": 5197,
      "Ġim": 5198,
      "ĠÅĻiÅ¡i": 5199,
      "ĠsmÃŃm": 5200,
      "Ġstanu": 5201,
      "Ġop": 5202,
      "ĠÅĻva": 5203,
      "Ġteho": 5204,
      "ĠÄįici": 5205,
      "Ġvnady": 5206,
      "Ġvnez": 5207,
      "Ġsrp": 5208,
      "ĠÅĻÃŃk": 5209,
      "Ġzhra": 5210,
      "Ġvnoci": 5211,
      "ĠstvÅ¯": 5212,
      "Ġzci": 5213,
      "Ġzena": 5214,
      "Ġpina": 5215,
      "ĠvlÃŃc": 5216,
      "hly": 5217,
      "Ġmag": 5218,
      "tym": 5219,
      "ĠdÄĽly": 5220,
      "ĠdaÅĪ": 5221,
      "ĠpÅĻeÄį": 5222,
      "Ġstvem": 5223,
      "Ġstavy": 5224,
      "Ġchala": 5225,
      "Ġjicich": 5226,
      "Ġland": 5227,
      "ĠjlÃŃp": 5228,
      "Ġsini": 5229,
      "Ġhloubi": 5230,
      "ĠcÃ½ch": 5231,
      "ĠceÅ¡": 5232,
      "ĠvÄĽji": 5233,
      "ĠÅĻeh": 5234,
      "Ġzdvo": 5235,
      "Ġvtmu": 5236,
      "Ġlaskou": 5237,
      "Ġhes": 5238,
      "Ġzkru": 5239,
      "ĠsiÄį": 5240,
      "ĠÅĻika": 5241,
      "Ġplesa": 5242,
      "ĠÅ¡pÃŃ": 5243,
      "Ġkaci": 5244,
      "Ġbidu": 5245,
      "ĠvsÃ¡": 5246,
      "Ġhed": 5247,
      "ÅĻo": 5248,
      "Ġony": 5249,
      "ĠlÃ©k": 5250,
      "ĠpiÅ¡e": 5251,
      "ĠsvÃ¡r": 5252,
      "ĠnÄĽly": 5253,
      "ĠÄįelem": 5254,
      "ĠpÅĻen": 5255,
      "ĠbuÅ¥": 5256,
      "Äįej": 5257,
      "us": 5258,
      "ĠÅĻene": 5259,
      "Å¡ek": 5260,
      "Ġvzhle": 5261,
      "ĠÅ¡Ã¡r": 5262,
      "ĠstÅĻem": 5263,
      "ĠÅ¡ou": 5264,
      "Ġvami": 5265,
      "Ġviry": 5266,
      "Ġsluje": 5267,
      "Ġjasu": 5268,
      "ĠslÅ¯v": 5269,
      "ĠhÅĻbet": 5270,
      "ĠkdÄĽ": 5271,
      "ĠdÄĽlo": 5272,
      "ĠÄįÃŃk": 5273,
      "ĠtrÅ¯m": 5274,
      "Ġklani": 5275,
      "Ġhrej": 5276,
      "Ġdivem": 5277,
      "Ġmluvi": 5278,
      "Ġscha": 5279,
      "Ġzjed": 5280,
      "Ġvly": 5281,
      "Ġnesti": 5282,
      "ĠvÃ¡k": 5283,
      "Ġdana": 5284,
      "ĠbÄĽÅ¾": 5285,
      "Ġjina": 5286,
      "Ġtrn": 5287,
      "ĠzbranÄĽ": 5288,
      "Ġrub": 5289,
      "ĠpÄĽla": 5290,
      "Ġklene": 5291,
      "ĠÅĻadu": 5292,
      "Ġpoch": 5293,
      "Ġput": 5294,
      "Ġdrak": 5295,
      "Ġnud": 5296,
      "ĠhbitÄĽ": 5297,
      "ĠÄįisty": 5298,
      "ĠzvÄĽsÅ¥": 5299,
      "ĠbdÄĽl": 5300,
      "ĠrÅ¯st": 5301,
      "ĠdvÃ¡Å¾": 5302,
      "Ġkytu": 5303,
      "Ġzpl": 5304,
      "Ġfre": 5305,
      "ĠÅ¡Å¥Ã¡": 5306,
      "Ġschop": 5307,
      "Ġnati": 5308,
      "XAX": 5309,
      "Ġzvod": 5310,
      "Ġrii": 5311,
      "ĠspiÅ¡": 5312,
      "ĠzpÅĻe": 5313,
      "Ġsluj": 5314,
      "ĠstÃ¡n": 5315,
      "Ġnald": 5316,
      "ĠAAXXBB": 5317,
      "Ġotce": 5318,
      "Ġnechce": 5319,
      "ĠÅ¡piÄį": 5320,
      "Ġsfin": 5321,
      "ĠplaÄįi": 5322,
      "ĠbÃ¡n": 5323,
      "Ġdlen": 5324,
      "ĠbÅĻeÄį": 5325,
      "Ġvpoz": 5326,
      "Ġvzad": 5327,
      "Ġdive": 5328,
      "ĠvzchÃ¡": 5329,
      "ĠpÃ¡m": 5330,
      "Ġtouze": 5331,
      "Ġklec": 5332,
      "ĠstrÃ¡ÅĪ": 5333,
      "ĠrÅ¯v": 5334,
      "ĠsnÅ¯m": 5335,
      "Ġtina": 5336,
      "ĠsnÄĽt": 5337,
      "skym": 5338,
      "Ġkratky": 5339,
      "Ġvg": 5340,
      "Ġkvou": 5341,
      "Ġpluje": 5342,
      "Ġmali": 5343,
      "Ġlilo": 5344,
      "Ġbyv": 5345,
      "Ġust": 5346,
      "ĠrÃ¡b": 5347,
      "Ġkja": 5348,
      "Ġsnah": 5349,
      "Ġhouf": 5350,
      "ĠÅ¡aty": 5351,
      "ĠkmÃ©": 5352,
      "Ġsvra": 5353,
      "ĠdoÅ¡": 5354,
      "Ġrove": 5355,
      "Ġvanku": 5356,
      "liÅ¾i": 5357,
      "Ġbala": 5358,
      "Ġblesky": 5359,
      "Ġvzala": 5360,
      "Ġnovi": 5361,
      "Ġroda": 5362,
      "Ġvpy": 5363,
      "Ġhany": 5364,
      "Ġgar": 5365,
      "ĠzÅ¾e": 5366,
      "ĠÅ¾d": 5367,
      "ĠtÄĽk": 5368,
      "ĠtoÄį": 5369,
      "Ġhasne": 5370,
      "ĠhoÄı": 5371,
      "ĠtÄĽchu": 5372,
      "Ġkur": 5373,
      "ĠÅ¡iÅĻi": 5374,
      "ĠvÅ¡im": 5375,
      "Ġvjar": 5376,
      "ĠvsÃŃÅĪ": 5377,
      "nt": 5378,
      "Ġzbor": 5379,
      "ĠfÃ¡m": 5380,
      "Ġvzrak": 5381,
      "Ġtet": 5382,
      "Ġlodi": 5383,
      "ĠdennÄĽ": 5384,
      "Ġsniva": 5385,
      "ĠkniÅ¾e": 5386,
      "ĠvÄįÃŃ": 5387,
      "Ġseh": 5388,
      "ĠnouÅ¥": 5389,
      "Ġprazd": 5390,
      "Ġplakal": 5391,
      "Ġbloudi": 5392,
      "ĠtvÃŃch": 5393,
      "ĠÅ¾id": 5394,
      "Ġlito": 5395,
      "Ġkouz": 5396,
      "Ġstrop": 5397,
      "Ġsladce": 5398,
      "ĠviÄįka": 5399,
      "ĠÅ¾eÅ¥": 5400,
      "Ġtvem": 5401,
      "ĠpsÃŃ": 5402,
      "Äįet": 5403,
      "Ġzvony": 5404,
      "Ġstvol": 5405,
      "ĠÅ¡iji": 5406,
      "ĠplaÅ¡e": 5407,
      "ĠztvÃ½ch": 5408,
      "Ġzname": 5409,
      "ĠctnÃ©": 5410,
      "Ġwa": 5411,
      "Ġseb": 5412,
      "Ġona": 5413,
      "ĠdÄĽvy": 5414,
      "ĠhÃ¡v": 5415,
      "ĠvtvÃ½ch": 5416,
      "ĠÅ¾adne": 5417,
      "pit": 5418,
      "Ġskale": 5419,
      "Ġticho": 5420,
      "Ġsmra": 5421,
      "Ġstrachu": 5422,
      "dat": 5423,
      "Ġjmena": 5424,
      "Ġvzkaz": 5425,
      "ĠflÃ©": 5426,
      "Ġzven": 5427,
      "ĠvtÃ¡": 5428,
      "tach": 5429,
      "ĠkÅĻiÅ¾e": 5430,
      "ĠÅ¡ar": 5431,
      "ĠptaÄįe": 5432,
      "ĠsnÃ©": 5433,
      "Ġchry": 5434,
      "ĠvznÃ©": 5435,
      "Ġkrasna": 5436,
      "Ġmuka": 5437,
      "ĠbÃ¡k": 5438,
      "ĠzlÅ¯": 5439,
      "Ġjede": 5440,
      "Ġnali": 5441,
      "Ġstyd": 5442,
      "Ġzbar": 5443,
      "Ġjala": 5444,
      "ĠpÅĻival": 5445,
      "Ġpomo": 5446,
      "Ġouz": 5447,
      "ĠÅ¾hnou": 5448,
      "Ġpany": 5449,
      "ĠpÅ¯t": 5450,
      "Ġbloud": 5451,
      "ju": 5452,
      "Ġtsk": 5453,
      "Ġrysy": 5454,
      "Ġhnul": 5455,
      "ĠzmlÃ¡": 5456,
      "Ġvzpja": 5457,
      "Ġkn": 5458,
      "Ġditi": 5459,
      "Ġbrati": 5460,
      "Ġroc": 5461,
      "ĠsinÄĽ": 5462,
      "Ġmyr": 5463,
      "Ġmlat": 5464,
      "Ġtvym": 5465,
      "ĠvaÅ¡e": 5466,
      "ĠÅ¡eru": 5467,
      "Ġvsy": 5468,
      "Å¡ich": 5469,
      "Ġshled": 5470,
      "Ġchvata": 5471,
      "et": 5472,
      "Ġstiha": 5473,
      "Ġzdani": 5474,
      "Ġdvoji": 5475,
      "ĠvdlaÅĪ": 5476,
      "ĠnÃŃc": 5477,
      "Ġkanou": 5478,
      "Ġdusi": 5479,
      "Ġtvu": 5480,
      "ĠtÃŃÄį": 5481,
      "Ġbud": 5482,
      "Ġnesla": 5483,
      "ĠvidÄĽt": 5484,
      "ĠsitÄĽ": 5485,
      "Ġzkte": 5486,
      "bej": 5487,
      "ic": 5488,
      "ĠliÅ¾": 5489,
      "ĠcÃŃÅĻ": 5490,
      "Ġsala": 5491,
      "Ġvladne": 5492,
      "ĠÅĻvou": 5493,
      "ĠkrÃ©": 5494,
      "Ġchar": 5495,
      "Ġlaka": 5496,
      "Ġjemi": 5497,
      "ĠtÄĽmi": 5498,
      "ĠdÄĽk": 5499,
      "Ġvzou": 5500,
      "ĠstÄĽj": 5501,
      "ĠprÅ¡": 5502,
      "ĠbÃŃn": 5503,
      "Ġtouhou": 5504,
      "Ġ23": 5505,
      "ĠcÃ©": 5506,
      "ĠÅ¾enÄĽ": 5507,
      "Ġdii": 5508,
      "Ġchop": 5509,
      "Ġpuje": 5510,
      "Ġsladka": 5511,
      "Ġboh": 5512,
      "Ġbet": 5513,
      "Ġplni": 5514,
      "ĠvrÃ½": 5515,
      "Ġvlici": 5516,
      "Ġzvonu": 5517,
      "ĠvztÃ¡h": 5518,
      "Ġkomu": 5519,
      "Ġdola": 5520,
      "ĠtÃŃh": 5521,
      "ĠstÄĽÅ¾i": 5522,
      "Ġkmita": 5523,
      "Ġnulo": 5524,
      "ĠsÃŃÅ¥": 5525,
      "Ġplaly": 5526,
      "ĠmÅ¯r": 5527,
      "Ġlesem": 5528,
      "ĠvÅ¡udy": 5529,
      "ĠÅĻval": 5530,
      "Ġtonu": 5531,
      "Ġkdru": 5532,
      "Ġhev": 5533,
      "hal": 5534,
      "Ġdis": 5535,
      "Ġplal": 5536,
      "ĠXAABXB": 5537,
      "ĠvrÅ¡": 5538,
      "Ġstmi": 5539,
      "Ġvyk": 5540,
      "Ġzlil": 5541,
      "Ġcove": 5542,
      "Ġpira": 5543,
      "ĠvÅĻen": 5544,
      "Ġhledne": 5545,
      "ĠdÅĻive": 5546,
      "Ġbaje": 5547,
      "Ġfr": 5548,
      "ĠpleÅ¥": 5549,
      "Ġgon": 5550,
      "Ġblyska": 5551,
      "ĠtaÅĻe": 5552,
      "Ġvava": 5553,
      "Ġsol": 5554,
      "Ġket": 5555,
      "Ġnesu": 5556,
      "ĠtrÃ¡v": 5557,
      "Ġzitra": 5558,
      "Ġsest": 5559,
      "lum": 5560,
      "Ġzbrani": 5561,
      "Ġkci": 5562,
      "ĠÅ¾ÃŃn": 5563,
      "Ġvzdycha": 5564,
      "Ġeu": 5565,
      "Ġhluch": 5566,
      "ĠhlÃ©m": 5567,
      "Ġtkal": 5568,
      "sem": 5569,
      "ĠmistÄĽ": 5570,
      "ĠvzpÄĽ": 5571,
      "Ġdvih": 5572,
      "ĠÄįini": 5573,
      "ĠbÄĽla": 5574,
      "Ġpech": 5575,
      "Ġhledy": 5576,
      "Ġlidem": 5577,
      "ĠztvÃ©": 5578,
      "Ġzkvet": 5579,
      "kÃ¡": 5580,
      "Ġdosud": 5581,
      "ĠpÅĻip": 5582,
      "Ġvuli": 5583,
      "ĠÅĻÃ¡n": 5584,
      "ĠÄįima": 5585,
      "kum": 5586,
      "ĠdveÅĻ": 5587,
      "Ġlkani": 5588,
      "Ġpala": 5589,
      "Ġkrk": 5590,
      "ĠÅĻim": 5591,
      "Ġkleti": 5592,
      "ĠsÄįÃŃ": 5593,
      "chal": 5594,
      "ĠÅ¡ede": 5595,
      "ĠÄįeru": 5596,
      "Ġcim": 5597,
      "Ġslek": 5598,
      "Ġmeta": 5599,
      "Ġdano": 5600,
      "ten": 5601,
      "Ġkvesti": 5602,
      "ĠklÃ¡s": 5603,
      "Ġjes": 5604,
      "ĠÅ¡Ã¡t": 5605,
      "Ġlily": 5606,
      "ĠrÃ¡Äį": 5607,
      "Ġbrav": 5608,
      "ĠÅ¡els": 5609,
      "Ġsklon": 5610,
      "Ġnoh": 5611,
      "Ġblede": 5612,
      "ĠhÅ¯ÅĻ": 5613,
      "ĠjÅ¯m": 5614,
      "Ġvzlo": 5615,
      "Ġfle": 5616,
      "Ġson": 5617,
      "ĠstunÄĽ": 5618,
      "Ġhvizd": 5619,
      "Ġposud": 5620,
      "ĠfÅ¯": 5621,
      "ĠÅ¾havy": 5622,
      "Ġmak": 5623,
      "Ġlina": 5624,
      "Ġbuje": 5625,
      "Ġnym": 5626,
      "Ġkrb": 5627,
      "Ġhub": 5628,
      "Ġcemi": 5629,
      "Ġnest": 5630,
      "rak": 5631,
      "ĠoÅĻ": 5632,
      "Ġpuj": 5633,
      "Ġnuz": 5634,
      "ĠÄįisti": 5635,
      "ĠÅ¡ije": 5636,
      "Ġztmy": 5637,
      "Ġbdi": 5638,
      "ĠzdÃ¡r": 5639,
      "Ġfej": 5640,
      "el": 5641,
      "ĠkosÅ¥": 5642,
      "Ġliti": 5643,
      "ĠvinÄĽ": 5644,
      "Ġbul": 5645,
      "vec": 5646,
      "Ġhlup": 5647,
      "ĠkamÅ¾ik": 5648,
      "ĠskÅĻek": 5649,
      "ĠdbÃ¡": 5650,
      "ĠvÄĽsi": 5651,
      "ĠspÅĻa": 5652,
      "Ġlidsky": 5653,
      "Ġlly": 5654,
      "Ġrami": 5655,
      "ĠskoÄį": 5656,
      "Ġmluvil": 5657,
      "Ġklesla": 5658,
      "Ġtika": 5659,
      "nosÅ¥": 5660,
      "pen": 5661,
      "Ġbyval": 5662,
      "Ġvame": 5663,
      "Ġboka": 5664,
      "ĠmeÄįe": 5665,
      "ĠÅ¡ÃŃk": 5666,
      "ĠluÄį": 5667,
      "Ġzbyva": 5668,
      "ĠstlÃ©": 5669,
      "ĠkoÄįi": 5670,
      "Ġtokem": 5671,
      "ĠvoÄįi": 5672,
      "ĠÅĻena": 5673,
      "ĠvÄįera": 5674,
      "ĠskaÄįe": 5675,
      "ĠteÄįe": 5676,
      "Ġtilo": 5677,
      "ĠvÅĻely": 5678,
      "ĠzdÅĻÃŃ": 5679,
      "ĠzÃ¡r": 5680,
      "Ġsmek": 5681,
      "Ġchvati": 5682,
      "ĠkÄį": 5683,
      "ĠÅĻez": 5684,
      "Ġbilo": 5685,
      "Ġoblak": 5686,
      "ĠktvÃ©": 5687,
      "cÅ¯": 5688,
      "Ġlvo": 5689,
      "ĠziÄį": 5690,
      "Ġhledal": 5691,
      "Ġther": 5692,
      "Ġbost": 5693,
      "Ġproz": 5694,
      "Ġcva": 5695,
      "Ġtebou": 5696,
      "ĠÅ¡ila": 5697,
      "znÄĽ": 5698,
      "Ġsez": 5699,
      "Ġzplo": 5700,
      "ĠdrÅ¯": 5701,
      "Ġzoun": 5702,
      "Ġgyp": 5703,
      "Ġkmat": 5704,
      "Ġpok": 5705,
      "Ġlada": 5706,
      "Ġmohou": 5707,
      "Ġmnoh": 5708,
      "Ġsvel": 5709,
      "Ġsmichu": 5710,
      "ĠblÃ¡Äį": 5711,
      "Ġvtan": 5712,
      "mal": 5713,
      "Ġjho": 5714,
      "ĠlvÃŃ": 5715,
      "ĠsplÃŃ": 5716,
      "Ġsrn": 5717,
      "sni": 5718,
      "stvo": 5719,
      "Ġslzy": 5720,
      "ĠloÅ¾e": 5721,
      "Ġprac": 5722,
      "Ġtrha": 5723,
      "Ġhoum": 5724,
      "Ġvleb": 5725,
      "Ġschla": 5726,
      "Ġtavy": 5727,
      "ĠtyÄį": 5728,
      "cet": 5729,
      "Ġstopy": 5730,
      "Å¡il": 5731,
      "Ġzok": 5732,
      "Ġspati": 5733,
      "Ġvdol": 5734,
      "ĠtÃ½d": 5735,
      "ĠdiÄįky": 5736,
      "Ġtali": 5737,
      "ĠÄįlu": 5738,
      "ĠÄįtu": 5739,
      "Ġcir": 5740,
      "Ġcili": 5741,
      "ĠpuÄįi": 5742,
      "Ġjemne": 5743,
      "Ġhlase": 5744,
      "ĠshvÄĽz": 5745,
      "Ġcelou": 5746,
      "Ġzech": 5747,
      "ĠÅ¾iji": 5748,
      "Ġvzdal": 5749,
      "Ġkbla": 5750,
      "ĠhÅĻima": 5751,
      "ĠchlÃ½m": 5752,
      "Ġthy": 5753,
      "Ġrmu": 5754,
      "ĠÄįely": 5755,
      "Ġbida": 5756,
      "ĠnaÅ¡el": 5757,
      "ĠÄįene": 5758,
      "Ġchudy": 5759,
      "ĠlouÄį": 5760,
      "Ġvotem": 5761,
      "ĠtvÃŃm": 5762,
      "Ġsz": 5763,
      "Ġnaci": 5764,
      "Ġlili": 5765,
      "Ġnoha": 5766,
      "Ġcie": 5767,
      "Ġprahy": 5768,
      "ĠvÃ½h": 5769,
      "ĠvtÅ¯": 5770,
      "ĠhÃ½Äį": 5771,
      "Ġvkap": 5772,
      "Ġsnoubi": 5773,
      "Ġmilo": 5774,
      "Ġtup": 5775,
      "Ġnejv": 5776,
      "ĠzÃ©": 5777,
      "Ġvanim": 5778,
      "Ġdine": 5779,
      "ĠdrÅ¯m": 5780,
      "Ġvoce": 5781,
      "vic": 5782,
      "ĠbylÅ¥": 5783,
      "Ġvmdlo": 5784,
      "ĠsnÄĽhu": 5785,
      "bek": 5786,
      "ĠpomnÄĽl": 5787,
      "ĠÅ¾ed": 5788,
      "ĠsÅ¯v": 5789,
      "Ġdos": 5790,
      "Ġmuch": 5791,
      "Ġboru": 5792,
      "Ġdeme": 5793,
      "Ġpadlo": 5794,
      "ĠdÄĽtem": 5795,
      "Ġvis": 5796,
      "Ġvke": 5797,
      "ĠÄįily": 5798,
      "ĠpraÅ¾": 5799,
      "Ġhuje": 5800,
      "ĠkslÃ¡": 5801,
      "ĠskloÅĪ": 5802,
      "Ġosm": 5803,
      "ĠkÅ¾e": 5804,
      "Ġoc": 5805,
      "rod": 5806,
      "ĠjaÅĻ": 5807,
      "Ġjata": 5808,
      "ĠzkouÅ¡": 5809,
      "Ġkryva": 5810,
      "ĠskvÄĽly": 5811,
      "Ġshluk": 5812,
      "Ġchm": 5813,
      "nes": 5814,
      "Ġslasti": 5815,
      "ĠvÄĽkem": 5816,
      "ĠhÅĻmot": 5817,
      "ĠtÄĽzi": 5818,
      "Ġmuce": 5819,
      "Ġbira": 5820,
      "Ġlehce": 5821,
      "ĠÅ¡eda": 5822,
      "Ġhyz": 5823,
      "Ġvenku": 5824,
      "ĠÅ¡tka": 5825,
      "Ġuv": 5826,
      "Ġhada": 5827,
      "stou": 5828,
      "Ġrav": 5829,
      "Ġgr": 5830,
      "Ġzol": 5831,
      "ĠÅĻada": 5832,
      "Ġvletu": 5833,
      "Ġkhra": 5834,
      "ĠtosÅ¥": 5835,
      "Ġmilou": 5836,
      "Ġvymi": 5837,
      "ĠplaÅĪ": 5838,
      "Ġsor": 5839,
      "Ġreku": 5840,
      "Ġklep": 5841,
      "ĠbÃ¡v": 5842,
      "Ġzroz": 5843,
      "Ġzvedne": 5844,
      "Ġtoval": 5845,
      "pÃŃ": 5846,
      "Ġpon": 5847,
      "ĠÅ¾eli": 5848,
      "Ġplet": 5849,
      "Ġplesu": 5850,
      "ĠznÄĽla": 5851,
      "ĠvkrÃ¡s": 5852,
      "Ġvklid": 5853,
      "Ġstlu": 5854,
      "ĠbeÅĻe": 5855,
      "ĠpeÅĻi": 5856,
      "ĠÅ¥Ã¡t": 5857,
      "ĠzÅĻim": 5858,
      "Å¡t": 5859,
      "Ġroje": 5860,
      "ĠÅ¾at": 5861,
      "ĠstvÃ½": 5862,
      "ĠsÅĪat": 5863,
      "ABC": 5864,
      "ĠhÃ¡n": 5865,
      "ĠABCABC": 5866,
      "Ġtol": 5867,
      "Ġvste": 5868,
      "ĠznÃŃt": 5869,
      "Ġname": 5870,
      "ĠÅ¾ive": 5871,
      "Ġhout": 5872,
      "ĠvrÃ¡j": 5873,
      "Ġbesum": 5874,
      "ĠbloÅĪ": 5875,
      "Ġvrhl": 5876,
      "Ġxi": 5877,
      "ĠÅ¾Å¯m": 5878,
      "Ġjaty": 5879,
      "ĠÅ¾ilo": 5880,
      "Ġblah": 5881,
      "ĠstÅĻela": 5882,
      "Ġvadne": 5883,
      "Ġkleta": 5884,
      "tam": 5885,
      "ĠznÄĽni": 5886,
      "ĠdnÃ½m": 5887,
      "ĠdÅĻev": 5888,
      "XXB": 5889,
      "ĠkpÃ¡": 5890,
      "Ġvrod": 5891,
      "Ġtknu": 5892,
      "Ġsci": 5893,
      "ĠmuÄįi": 5894,
      "Ġvdra": 5895,
      "Ġtrava": 5896,
      "ĠdluÅ¾": 5897,
      "Ġotec": 5898,
      "ĠlÃ¡v": 5899,
      "ĠschÅ¯": 5900,
      "ĠztÄĽÅ¾": 5901,
      "Ġvule": 5902,
      "Ġnesou": 5903,
      "Ġpohled": 5904,
      "ĠÅ¾da": 5905,
      "Ġtuh": 5906,
      "Ġmatce": 5907,
      "ĠdÅ¯l": 5908,
      "Ġgol": 5909,
      "XXX": 5910,
      "Ġminek": 5911,
      "ĠvÃ¡ÅĻ": 5912,
      "ĠmnoÅ¾i": 5913,
      "ĠspÄĽchu": 5914,
      "ĠptaÄįi": 5915,
      "Ġvanek": 5916,
      "ĠÅĻili": 5917,
      "ĠpÃ¡t": 5918,
      "Ġsvist": 5919,
      "Ġplynou": 5920,
      "Ġblohou": 5921,
      "ĠniÄįku": 5922,
      "ĠÅ¯": 5923,
      "ĠstaÅ¥": 5924,
      "ĠlunÄĽ": 5925,
      "Ġrety": 5926,
      "Ġklel": 5927,
      "ĠshrÅ¯": 5928,
      "Ġdechem": 5929,
      "ĠkmÃŃ": 5930,
      "lit": 5931,
      "ĠÄįeÅĻi": 5932,
      "Ġbory": 5933,
      "Ġpet": 5934,
      "stvim": 5935,
      "Ġblys": 5936,
      "ĠAXABXB": 5937,
      "ĠtuÅ¡e": 5938,
      "Ġrudy": 5939,
      "ĠpÃ½ch": 5940,
      "Ġcval": 5941,
      "Ġdici": 5942,
      "ĠÄįiti": 5943,
      "Ġrtoma": 5944,
      "ĠmÃ³": 5945,
      "ĠmotÄĽ": 5946,
      "ĠpaÅ¾e": 5947,
      "Ġzeny": 5948,
      "ĠÅĻic": 5949,
      "Ġfat": 5950,
      "Ġvspo": 5951,
      "Ġvchod": 5952,
      "ĠcvÃ¡": 5953,
      "Ġale": 5954,
      "Ġcep": 5955,
      "Ġkavy": 5956,
      "ĠÅ¾iku": 5957,
      "ĠpÅĻitel": 5958,
      "Ġhledem": 5959,
      "ĠtlÃ©m": 5960,
      "Ġmiji": 5961,
      "Ġnuje": 5962,
      "Ġpin": 5963,
      "Ġchyti": 5964,
      "ĠvÅ¾iti": 5965,
      "Ġvzkve": 5966,
      "ĠÅ¡kleb": 5967,
      "ĠABACCB": 5968,
      "ĠlinÄĽ": 5969,
      "ĠvtÃ½": 5970,
      "Ġklada": 5971,
      "ĠvblÃ¡": 5972,
      "ĠhÅĻeje": 5973,
      "ĠpatÅĻ": 5974,
      "ĠvkrÄį": 5975,
      "Ġvky": 5976,
      "Ġhala": 5977,
      "Ġznati": 5978,
      "ĠtmÃ¡m": 5979,
      "Ġruj": 5980,
      "Ġruk": 5981,
      "Ġtroj": 5982,
      "ĠhnÄĽvu": 5983,
      "ĠvbÃ¡z": 5984,
      "ĠcÃ½m": 5985,
      "Ġpaty": 5986,
      "Ġvzali": 5987,
      "Ġmout": 5988,
      "Ġlicich": 5989,
      "Ġvskry": 5990,
      "ĠvzlÃ©t": 5991,
      "Ġstvi": 5992,
      "Ġmisi": 5993,
      "Ġnuli": 5994,
      "Ġvuji": 5995,
      "Ġhruzy": 5996,
      "Ġdme": 5997,
      "ĠniÅ¥": 5998,
      "Ġchme": 5999,
      "Ġtova": 6000,
      "Ġproj": 6001,
      "Ġbuch": 6002,
      "ĠmÃŃst": 6003,
      "Ġprachu": 6004,
      "Ġvbr": 6005,
      "ĠchrÅ¯": 6006,
      "Ġcitim": 6007,
      "dlem": 6008,
      "Ġzpy": 6009,
      "Ġvotu": 6010,
      "Ġhadky": 6011,
      "Ġtvira": 6012,
      "Ġnano": 6013,
      "Ġroky": 6014,
      "ĠdeÅĻi": 6015,
      "Ġrum": 6016,
      "dly": 6017,
      "lel": 6018,
      "Ġtedy": 6019,
      "ĠmiÄį": 6020,
      "Ġvouk": 6021,
      "Ġjmen": 6022,
      "Ġksta": 6023,
      "Ġliva": 6024,
      "ĠpÅĻev": 6025,
      "ĠlÃ¡z": 6026,
      "ĠzvÃ¡n": 6027,
      "raz": 6028,
      "Ġnii": 6029,
      "ĠchoÄı": 6030,
      "Ġvlni": 6031,
      "Ġsbe": 6032,
      "Ġchout": 6033,
      "Ġzdroje": 6034,
      "ĠsÄįer": 6035,
      "Ġrdou": 6036,
      "Ġhot": 6037,
      "Ġlob": 6038,
      "Ġspar": 6039,
      "ĠÄįÃŃt": 6040,
      "ĠbouÅĻe": 6041,
      "Ġplna": 6042,
      "Ġhnou": 6043,
      "Ġrmou": 6044,
      "Ġvilo": 6045,
      "ĠvhnÃŃz": 6046,
      "Ġvlaje": 6047,
      "Ġnikdy": 6048,
      "ĠÅĪÃ¡t": 6049,
      "Ġskep": 6050,
      "lik": 6051,
      "Ġbice": 6052,
      "Ġvrak": 6053,
      "Ġvbuj": 6054,
      "ĠÄįÅ¯m": 6055,
      "Ġmuky": 6056,
      "Ġbos": 6057,
      "ĠÄįiÅ¡e": 6058,
      "ĠÄįiste": 6059,
      "ĠkÅĻiku": 6060,
      "ĠhrÃ¡z": 6061,
      "ĠvÅ¡emu": 6062,
      "Ġkbra": 6063,
      "ĠsdÄĽt": 6064,
      "ĠÄįesky": 6065,
      "Ġmukou": 6066,
      "Ġsudu": 6067,
      "Ġvrahu": 6068,
      "ĠplÅĪ": 6069,
      "Ġkse": 6070,
      "Ġsnimi": 6071,
      "Ġnaval": 6072,
      "lest": 6073,
      "Ġvyl": 6074,
      "ĠvzÅĪ": 6075,
      "Ġvby": 6076,
      "Ġspasy": 6077,
      "Ġmant": 6078,
      "ĠvÃºz": 6079,
      "Ġzre": 6080,
      "Ġkona": 6081,
      "Ġhovi": 6082,
      "ĠnÄĽte": 6083,
      "ĠjÃŃst": 6084,
      "Ġvelky": 6085,
      "Ġdlouha": 6086,
      "ĠÅ¾ur": 6087,
      "Ã¶": 6088,
      "ĠkaÄį": 6089,
      "Ġmili": 6090,
      "Ġstrasti": 6091,
      "ĠÅĻat": 6092,
      "ĠvjÃ¡": 6093,
      "Ġmoru": 6094,
      "ĠviÅ¾e": 6095,
      "Ġtopi": 6096,
      "ĠÅ¡ej": 6097,
      "ĠÅĻÃŃÄį": 6098,
      "Ġchaji": 6099,
      "Ġblaky": 6100,
      "Ġzub": 6101,
      "Ġzdep": 6102,
      "Ġspani": 6103,
      "ĠvznaÅ¡i": 6104,
      "Ġnohu": 6105,
      "Ġslan": 6106,
      "Ġvhe": 6107,
      "Ġdroz": 6108,
      "Ġtichy": 6109,
      "ĠkÅĻÃ¡": 6110,
      "Ġkoval": 6111,
      "Ġmezi": 6112,
      "ĠvÅ¡ÃŃÅĻ": 6113,
      "Ġmun": 6114,
      "ĠÅ¡ÃŃc": 6115,
      "Ġpily": 6116,
      "Ġhynou": 6117,
      "ĠstraÅ¾i": 6118,
      "ĠbrÅ¯": 6119,
      "Ġpychu": 6120,
      "ĠÅ¡aÅ¡": 6121,
      "ĠÅ¾dÃ¡": 6122,
      "ĠkÅ¡tÄĽ": 6123,
      "Ġpnu": 6124,
      "ĠÄįeti": 6125,
      "ĠtÃŃn": 6126,
      "ĠÅ¾ivi": 6127,
      "num": 6128,
      "ĠÅ¾aly": 6129,
      "ĠkÅĪa": 6130,
      "Ġlava": 6131,
      "ĠkvÄĽl": 6132,
      "Ġkroz": 6133,
      "Ġbali": 6134,
      "Ġpola": 6135,
      "Ġkovu": 6136,
      "ĠvkÅĻi": 6137,
      "ĠvÄįes": 6138,
      "ĠrvÃ¡t": 6139,
      "ĠstÃ¡h": 6140,
      "Ġklady": 6141,
      "ĠvÄįele": 6142,
      "Ġdate": 6143,
      "ĠstuÅ¾": 6144,
      "ĠvÃºs": 6145,
      "ĠsfÃ©": 6146,
      "Ġhmyz": 6147,
      "ĠflÃ©t": 6148,
      "Ġzf": 6149,
      "Ġstvou": 6150,
      "Ġkuji": 6151,
      "Ġjeny": 6152,
      "ĠpÅĻeÅ¡": 6153,
      "ĠmÃ¡Äį": 6154,
      "ĠpraÅ¡": 6155,
      "Ġvsvo": 6156,
      "Ġpud": 6157,
      "ĠstÄĽÅ¾": 6158,
      "Ġkza": 6159,
      "Ġvzrusta": 6160,
      "ĠsÅ¥": 6161,
      "Ġproh": 6162,
      "Ġdleh": 6163,
      "Ġzhru": 6164,
      "Ġkalo": 6165,
      "ĠdlÃ©m": 6166,
      "ĠplÃŃs": 6167,
      "ĠzkrÃ¡t": 6168,
      "Ġvavy": 6169,
      "Ġlod": 6170,
      "Ġdime": 6171,
      "ĠkvÄĽÄį": 6172,
      "ĠklinÄĽ": 6173,
      "Ġstoupa": 6174,
      "Ġzdat": 6175,
      "ĠshlÃ©d": 6176,
      "Ġtrhl": 6177,
      "ĠvskrÃ¡": 6178,
      "ĠstrÃ©m": 6179,
      "ĠÅ¾lout": 6180,
      "Ġvak": 6181,
      "ĠtaÅ¾": 6182,
      "ĠproÅĪ": 6183,
      "Ġnicky": 6184,
      "Ġkvest": 6185,
      "Ġzcha": 6186,
      "Ġrosti": 6187,
      "ĠÅĻeka": 6188,
      "ĠprÃ©": 6189,
      "Ġsyp": 6190,
      "ĠzbÃ¡": 6191,
      "ĠÅ¡tÄĽp": 6192,
      "ĠvÅĻÃŃn": 6193,
      "Ġoka": 6194,
      "ĠvsvÄĽtÄĽ": 6195,
      "Ġnavi": 6196,
      "ĠÄįesÅ¥": 6197,
      "Ġdite": 6198,
      "Ġzkle": 6199,
      "ĠniÅ¾i": 6200,
      "ĠÅĻily": 6201,
      "ĠzkaÅ¾": 6202,
      "Ġvedla": 6203,
      "ĠpÅ¡e": 6204,
      "Ġvuj": 6205,
      "Ġdlouho": 6206,
      "Ġlesku": 6207,
      "ĠtmÄĽl": 6208,
      "Ġksk": 6209,
      "Ġhnout": 6210,
      "ĠÄįla": 6211,
      "Ġlar": 6212,
      "Ġkdi": 6213,
      "Ġplala": 6214,
      "Ġziva": 6215,
      "ĠhruÅ¡": 6216,
      "Ġdceru": 6217,
      "ĠmÅĻela": 6218,
      "ĠkouÅĻi": 6219,
      "Ġpomoc": 6220,
      "Ġdomy": 6221,
      "ĠnÄĽho": 6222,
      "Ġzeji": 6223,
      "Ġstila": 6224,
      "Ġzyva": 6225,
      "Ġkveta": 6226,
      "Ġceli": 6227,
      "ĠmÄĽsti": 6228,
      "ĠstraÅ¡i": 6229,
      "Ġlemu": 6230,
      "Ġchlub": 6231,
      "ĠpÃ³": 6232,
      "ĠchÅĻad": 6233,
      "Ġhoji": 6234,
      "Ġtisic": 6235,
      "Ġsadu": 6236,
      "ĠÄįac": 6237,
      "Ġzoh": 6238,
      "Ġzkusi": 6239,
      "Ġvolal": 6240,
      "Ġsela": 6241,
      "Ġhodu": 6242,
      "ĠtiÅ¾e": 6243,
      "ĠlÃŃn": 6244,
      "Ġgri": 6245,
      "ĠkÅĻiÄįi": 6246,
      "ĠsmÄĽj": 6247,
      "ĠÅ¡lel": 6248,
      "ĠÅĻasy": 6249,
      "Ġmz": 6250,
      "Ġveta": 6251,
      "Ġmuku": 6252,
      "Ġboky": 6253,
      "Ġboda": 6254,
      "ĠvÄĽnce": 6255,
      "Ġvzduchem": 6256,
      "Ġsraz": 6257,
      "Ġzlych": 6258,
      "Ġnete": 6259,
      "ĠstrÃ¡n": 6260,
      "Ġspina": 6261,
      "Ġzvolna": 6262,
      "Ġnva": 6263,
      "oun": 6264,
      "ĠuÄįi": 6265,
      "Ġjedne": 6266,
      "ĠÅ¾Ã¡k": 6267,
      "Ġzpoz": 6268,
      "Ġzene": 6269,
      "Ġzhled": 6270,
      "Ġsmutku": 6271,
      "Ġotci": 6272,
      "Ġzab": 6273,
      "ĠnÄĽma": 6274,
      "Ġpase": 6275,
      "Ġbed": 6276,
      "ĠvmÅ¾i": 6277,
      "ĠvhrÅ¯": 6278,
      "Ġzvyku": 6279,
      "ĠzÅĻit": 6280,
      "ĠtnÄĽ": 6281,
      "ĠÅ¡ke": 6282,
      "Ġtaz": 6283,
      "Ġkuj": 6284,
      "Ġhlasa": 6285,
      "Ġvnic": 6286,
      "ĠskvÄĽla": 6287,
      "ĠÅ¡lenky": 6288,
      "ĠvsnÄĽni": 6289,
      "ĠÅĻiva": 6290,
      "taÅĻ": 6291,
      "tum": 6292,
      "Ġdarmo": 6293,
      "Ġvzdoru": 6294,
      "ĠjvÃ½": 6295,
      "ĠmÅ¯m": 6296,
      "Ġvzr": 6297,
      "ĠkÃ¡r": 6298,
      "Ġloub": 6299,
      "Ġmrs": 6300,
      "ĠsviÅ¥": 6301,
      "ĠslÃ¡v": 6302,
      "ĠptÃ¡t": 6303,
      "Ġhloh": 6304,
      "Ġzkaz": 6305,
      "ĠÃ¡Å¡": 6306,
      "Ġpolu": 6307,
      "Ġhop": 6308,
      "ĠjakÅ¾": 6309,
      "Ġtuji": 6310,
      "Ġluhu": 6311,
      "Ġpuka": 6312,
      "ĠXAXAXA": 6313,
      "Ġdrc": 6314,
      "ĠÅ¾alu": 6315,
      "Ġlaji": 6316,
      "ĠbraÅĪ": 6317,
      "Ġzis": 6318,
      "Ġzuby": 6319,
      "Ġvlna": 6320,
      "ĠmÅĻiti": 6321,
      "ĠbÅ¯m": 6322,
      "Ġtana": 6323,
      "ĠryÄį": 6324,
      "ĠptÃ½": 6325,
      "Ġbrod": 6326,
      "Ġpanny": 6327,
      "ĠÅ¾uje": 6328,
      "ĠvaÅ¡i": 6329,
      "Ġboko": 6330,
      "Ġspoji": 6331,
      "Ġslid": 6332,
      "Ġjicim": 6333,
      "ĠbÅĻÃŃz": 6334,
      "Ġcid": 6335,
      "ĠtÅĻiÅ¡ti": 6336,
      "Ġzpit": 6337,
      "Ġzpivat": 6338,
      "ĠblyÅ¡": 6339,
      "Ġjeli": 6340,
      "ĠlaÅ¥": 6341,
      "ĠÄįeje": 6342,
      "Ġfro": 6343,
      "ĠzoÄįi": 6344,
      "Ġplot": 6345,
      "Ġfek": 6346,
      "ĠpÅĻal": 6347,
      "Ġzap": 6348,
      "ĠvyÅ¡el": 6349,
      "Ġsmlou": 6350,
      "ĠslasÅ¥": 6351,
      "ĠbliÄįej": 6352,
      "Ġtmave": 6353,
      "Ġcuj": 6354,
      "ĠÅĪuje": 6355,
      "Ġvnou": 6356,
      "ĠsaÅĪ": 6357,
      "jel": 6358,
      "ĠsnaÅ¾": 6359,
      "Ġdals": 6360,
      "ĠvprÅ¯": 6361,
      "ĠtÃŃl": 6362,
      "Ġcii": 6363,
      "Ġkstro": 6364,
      "Ġad": 6365,
      "ĠpaÅ¾i": 6366,
      "Ġbleskem": 6367,
      "ĠvaÅ¾i": 6368,
      "Ġpanem": 6369,
      "Ġbid": 6370,
      "Ġsvice": 6371,
      "bach": 6372,
      "Ġvzdej": 6373,
      "Ġkhru": 6374,
      "ĠpÅĻem": 6375,
      "ĠstlÃ½": 6376,
      "Ġbody": 6377,
      "Ġchaty": 6378,
      "ĠklÃ½m": 6379,
      "Ġpark": 6380,
      "Ġksto": 6381,
      "Ġsre": 6382,
      "ĠÅ¾nÃŃ": 6383,
      "Ġskrej": 6384,
      "Ġdur": 6385,
      "Ġhaty": 6386,
      "Ġpravu": 6387,
      "ĠÅĻilo": 6388,
      "Ġtrunu": 6389,
      "Ġsmala": 6390,
      "Ġchlum": 6391,
      "Ġblysk": 6392,
      "ĠÅ¡lÃ¡p": 6393,
      "Ġchali": 6394,
      "Ġdor": 6395,
      "Ġzple": 6396,
      "ĠÅ¡tÄĽr": 6397,
      "Ġvruce": 6398,
      "ĠvidiÅ¡": 6399,
      "Ġranou": 6400,
      "Ġhrazi": 6401,
      "ĠzhnÄĽ": 6402,
      "ĠskrÃ½Å¡": 6403,
      "Ġmechu": 6404,
      "Ġsady": 6405,
      "Ġzboj": 6406,
      "Ġsklad": 6407,
      "Ġzkveta": 6408,
      "ĠÅ¾la": 6409,
      "ĠsvitÄĽ": 6410,
      "Ġtrudu": 6411,
      "jat": 6412,
      "ĠrodÄĽ": 6413,
      "ĠÅĻÃŃÅ¾": 6414,
      "Ġrozv": 6415,
      "Ġvkus": 6416,
      "Ġhma": 6417,
      "ĠpoÅĻad": 6418,
      "ĠtÄĽly": 6419,
      "Ġhrala": 6420,
      "Ġblahy": 6421,
      "ĠvstrÃ¡": 6422,
      "Ġlasce": 6423,
      "ĠABACBC": 6424,
      "ĠAAXBXB": 6425,
      "Ġtaci": 6426,
      "ĠÄįiÅ¡i": 6427,
      "Ġklesti": 6428,
      "Ġvbar": 6429,
      "ĠschvÄĽ": 6430,
      "Ġztratil": 6431,
      "ĠskaÅ¾": 6432,
      "Ġchramu": 6433,
      "Ġsjed": 6434,
      "Ġspek": 6435,
      "ĠnÃŃt": 6436,
      "Ġtava": 6437,
      "ĠuÅ¡i": 6438,
      "Ġvtak": 6439,
      "Ġvkom": 6440,
      "Ġptaku": 6441,
      "ĠpÃ½m": 6442,
      "Ġkyni": 6443,
      "Ġrati": 6444,
      "Ġhati": 6445,
      "ĠvhvÄĽz": 6446,
      "Ġmemu": 6447,
      "Ġtiku": 6448,
      "Ġvedou": 6449,
      "Ġlot": 6450,
      "Ġbohem": 6451,
      "Ġvzpjal": 6452,
      "ĠzÅĻela": 6453,
      "ĠvtÄĽs": 6454,
      "Ġtlesk": 6455,
      "ĠdÅĻich": 6456,
      "ĠÅĻÅ¯m": 6457,
      "ĠnÄĽli": 6458,
      "ĠÅ¾ÃŃc": 6459,
      "Ġvsnach": 6460,
      "ĠliÄįky": 6461,
      "ĠvplaÄįi": 6462,
      "Ġnate": 6463,
      "Ġsyny": 6464,
      "ĠzoÅĻi": 6465,
      "ĠkaÅ¾dy": 6466,
      "ĠznÄĽlo": 6467,
      "ĠstrÃ½c": 6468,
      "Ġcenou": 6469,
      "Ġvlahy": 6470,
      "Ġdlouhou": 6471,
      "ĠvdÄĽku": 6472,
      "Ġblesku": 6473,
      "ĠhÅĻmÄĽl": 6474,
      "ĠvsmÄĽ": 6475,
      "Ġpun": 6476,
      "ĠkÅĻiÅ¾i": 6477,
      "ĠpÄĽsÅ¥": 6478,
      "Ġdruzi": 6479,
      "ĠchtÄĽli": 6480,
      "Ġvpos": 6481,
      "ĠkplÃ¡": 6482,
      "ĠzmÄĽni": 6483,
      "Ġjiste": 6484,
      "ĠmÄĽsic": 6485,
      "ĠlÅ¾e": 6486,
      "ĠroÄį": 6487,
      "ĠvblÃŃz": 6488,
      "Ġhruz": 6489,
      "Ġkaj": 6490,
      "ĠjÃŃn": 6491,
      "ĠABABXB": 6492,
      "rym": 6493,
      "Ġment": 6494,
      "Ġzmita": 6495,
      "ĠsvÄĽdÄįi": 6496,
      "Ġvskal": 6497,
      "Ġvdiv": 6498,
      "Ġxe": 6499,
      "ĠvbouÅĻ": 6500,
      "Ġdbej": 6501,
      "ĠÄįilo": 6502,
      "Ġpouhy": 6503,
      "ĠÅ¾ad": 6504,
      "ĠdceÅĻ": 6505,
      "ĠnnÃŃch": 6506,
      "Ġtivy": 6507,
      "ĠboÄįi": 6508,
      "ĠfÃ©": 6509,
      "Ġhoupa": 6510,
      "koj": 6511,
      "ĠzdÃ¡v": 6512,
      "Ġtmam": 6513,
      "ĠtÅĻu": 6514,
      "ĠdÅĻej": 6515,
      "ĠchlÃ½ch": 6516,
      "Ġkratce": 6517,
      "ĠtiseÅĪ": 6518,
      "ĠvodÄĽ": 6519,
      "jen": 6520,
      "Ġklety": 6521,
      "Ġoken": 6522,
      "Ġnutim": 6523,
      "ctvi": 6524,
      "cum": 6525,
      "Ġchvali": 6526,
      "lÃ½m": 6527,
      "Ġnarod": 6528,
      "Ġvlaj": 6529,
      "ĠhluÅ¡i": 6530,
      "Ġkmu": 6531,
      "ĠmiÅĻi": 6532,
      "ĠÅ¡ip": 6533,
      "Ġvbok": 6534,
      "Ġsnove": 6535,
      "ĠoÅĻe": 6536,
      "Ġkota": 6537,
      "Ġveru": 6538,
      "ĠABCC": 6539,
      "Ġbrachu": 6540,
      "ĠÅ¡tÄĽt": 6541,
      "ĠliÄįku": 6542,
      "Ġkrasny": 6543,
      "Ġpadi": 6544,
      "ĠXAA": 6545,
      "man": 6546,
      "ĠvskÃ¡": 6547,
      "Ġlva": 6548,
      "ĠsedÄĽl": 6549,
      "Ġzan": 6550,
      "Ġdoly": 6551,
      "lic": 6552,
      "Ġvidal": 6553,
      "Ġbranu": 6554,
      "Ġvrha": 6555,
      "ĠrÃ©Å¾": 6556,
      "Ġspanku": 6557,
      "Ġjitra": 6558,
      "Ġstmiva": 6559,
      "Ġhole": 6560,
      "Ġvano": 6561,
      "Ġzimy": 6562,
      "Ġhromy": 6563,
      "ĠchtÄĽlo": 6564,
      "ĠtÄĽzstvi": 6565,
      "Ġbere": 6566,
      "Ġzbe": 6567,
      "Ġvjel": 6568,
      "ĠpÅĻijde": 6569,
      "ĠsnÃŃmÅ¾": 6570,
      "Ġskyt": 6571,
      "Ġhve": 6572,
      "Ġnamy": 6573,
      "Ġdivat": 6574,
      "ĠÅ¾ÃŃr": 6575,
      "Ġpiji": 6576,
      "ĠvÄĽrne": 6577,
      "ĠÃŃch": 6578,
      "zt": 6579,
      "Ġplalo": 6580,
      "Ġzbla": 6581,
      "Ġstranu": 6582,
      "ĠÄįerne": 6583,
      "Ġchyta": 6584,
      "ĠtÅĻeb": 6585,
      "ĠstÅĻely": 6586,
      "sich": 6587,
      "Ġplic": 6588,
      "ĠkÄįer": 6589,
      "Ġvino": 6590,
      "Ġsvatou": 6591,
      "ĠmÄĽsto": 6592,
      "Ġsmichem": 6593,
      "Ġktan": 6594,
      "Ġjda": 6595,
      "ĠflÃŃ": 6596,
      "Ġkrav": 6597,
      "Ġtrup": 6598,
      "Ġsved": 6599,
      "ĠzvÅ¡ech": 6600,
      "co": 6601,
      "Ġkyv": 6602,
      "Ġzeli": 6603,
      "ÅĪu": 6604,
      "Ġhyn": 6605,
      "ĠvkÅĻo": 6606,
      "ĠskvÄĽl": 6607,
      "Ġroval": 6608,
      "Ġstela": 6609,
      "Ġzmno": 6610,
      "ĠzkvÃŃ": 6611,
      "ĠvstÃŃn": 6612,
      "Ġlii": 6613,
      "Ġniny": 6614,
      "ĠtÄĽlem": 6615,
      "Ġjaks": 6616,
      "ĠbeÅ¡": 6617,
      "ĠÅĻekl": 6618,
      "rek": 6619,
      "ĠchÅ¯v": 6620,
      "Ġticky": 6621,
      "Ġzbroji": 6622,
      "Ġjav": 6623,
      "Ġdrahou": 6624,
      "ĠsmÄĽla": 6625,
      "ĠsmÄĽsi": 6626,
      "ĠksvÃ½m": 6627,
      "Ġkpro": 6628,
      "ĠspÃ¡r": 6629,
      "Ġchvatem": 6630,
      "Ġvziti": 6631,
      "Ġschazi": 6632,
      "Ġnavy": 6633,
      "Ġhodou": 6634,
      "ĠzvÄĽÄį": 6635,
      "Ġdejte": 6636,
      "Ġvkon": 6637,
      "Ġhola": 6638,
      "ĠÅ¡iho": 6639,
      "ĠÅĻiv": 6640,
      "Ġdre": 6641,
      "Ġkrom": 6642,
      "ĠzboÅ¾i": 6643,
      "ĠmÃ¡ÅĻ": 6644,
      "ĠvÄĽÄįne": 6645,
      "Ġkspa": 6646,
      "Ġmami": 6647,
      "ĠspÄĽji": 6648,
      "ĠdÅ¯t": 6649,
      "ĠznÄĽj": 6650,
      "Ġvchva": 6651,
      "Ġmdlou": 6652,
      "Ġhil": 6653,
      "ĠÅĻÃŃz": 6654,
      "ĠztÃ¡": 6655,
      "ĠÅ¡lenek": 6656,
      "Ġplec": 6657,
      "Ġstatku": 6658,
      "ĠskvÄĽle": 6659,
      "tÃ¡": 6660,
      "ĠmiÅĪ": 6661,
      "ĠtÃ¡Å¾": 6662,
      "Ġzima": 6663,
      "ĠsrÅ¯": 6664,
      "ĠstÅĻiÄį": 6665,
      "ĠlkÃ¡t": 6666,
      "Ġssu": 6667,
      "Å¡em": 6668,
      "Ġtane": 6669,
      "ĠdaÄį": 6670,
      "ĠstinÄĽ": 6671,
      "ĠdrÅ¾i": 6672,
      "ĠvÄĽÄįna": 6673,
      "ĠsnÃŃÅ¾": 6674,
      "Ġsnebe": 6675,
      "Ġnuty": 6676,
      "Ġdrahe": 6677,
      "Ġhrava": 6678,
      "ĠvÅ¾al": 6679,
      "Ġhrozi": 6680,
      "Ġvmoc": 6681,
      "ĠpliÅ¾i": 6682,
      "ĠvÄĽti": 6683,
      "Ġvym": 6684,
      "Ġvyv": 6685,
      "Ġsis": 6686,
      "ĠmÃ¡c": 6687,
      "ĠAABXB": 6688,
      "Ġzpur": 6689,
      "Ġvaje": 6690,
      "ĠÅ¡edy": 6691,
      "Ġztlu": 6692,
      "Ġpadly": 6693,
      "ĠzmÄĽÅ¥": 6694,
      "ĠdvÄĽd": 6695,
      "Ġsmys": 6696,
      "Ġpst": 6697,
      "Ġjeme": 6698,
      "Ġdany": 6699,
      "Ġbena": 6700,
      "ĠvsvÅ¯j": 6701,
      "Ġnecha": 6702,
      "ĠohnÄĽ": 6703,
      "ĠspiÅ¡e": 6704,
      "Ġdbal": 6705,
      "Ġvoval": 6706,
      "ĠmenÄĽ": 6707,
      "Ġklat": 6708,
      "Ġklasy": 6709,
      "Å¾Ã¡": 6710,
      "Ġhlubin": 6711,
      "Ġkonce": 6712,
      "Ġsboru": 6713,
      "Ġvzep": 6714,
      "ĠvpÅĻÃŃÅ¡": 6715,
      "ĠtÄĽna": 6716,
      "Ġdice": 6717,
      "ĠzhÅ¯": 6718,
      "Ġria": 6719,
      "ot": 6720,
      "Ġsev": 6721,
      "ĠdÄĽvu": 6722,
      "ĠpÅĻeje": 6723,
      "Ġsai": 6724,
      "ĠpÃŃÄı": 6725,
      "Ġschou": 6726,
      "ĠsÅ¡e": 6727,
      "Å¡ku": 6728,
      "Ġstinem": 6729,
      "ĠchÃ¡n": 6730,
      "Ġcity": 6731,
      "Ġvslav": 6732,
      "Ġobz": 6733,
      "Ġvbles": 6734,
      "Ġstka": 6735,
      "Ġkord": 6736,
      "ĠpÄĽli": 6737,
      "Ġtemnou": 6738,
      "ĠmlÄįi": 6739,
      "ĠchÅ¯d": 6740,
      "ĠmlÃ©Äį": 6741,
      "Ġvije": 6742,
      "ĠplaÅ¡": 6743,
      "ĠkÃ½Å¾": 6744,
      "Ġzmdle": 6745,
      "Ġgre": 6746,
      "Ġsvami": 6747,
      "Ġjila": 6748,
      "Ġprvy": 6749,
      "ĠblaÅ¾": 6750,
      "Ġsloucha": 6751,
      "ĠzrÃ½": 6752,
      "Ġletech": 6753,
      "ĠzÃŃr": 6754,
      "ĠÅ¾arem": 6755,
      "ĠsbÃ¡": 6756,
      "Ġprut": 6757,
      "Ġvhroz": 6758,
      "ĠÅ¡perk": 6759,
      "Ġoch": 6760,
      "Ġsvl": 6761,
      "Ġzdou": 6762,
      "Ġbrzy": 6763,
      "sen": 6764,
      "ĠznÄĽly": 6765,
      "Ġmeno": 6766,
      "ĠzkÅĻÃŃ": 6767,
      "Ġdrozd": 6768,
      "ĠhrÃ¡m": 6769,
      "Ġcestou": 6770,
      "ĠslÃ½ch": 6771,
      "Ġklasu": 6772,
      "ĠcestÄĽ": 6773,
      "Ġjesti": 6774,
      "ĠleÄįi": 6775,
      "ĠtÄĽti": 6776,
      "ĠÅĻidi": 6777,
      "Ġsus": 6778,
      "dej": 6779,
      "Ġklina": 6780,
      "Ġstri": 6781,
      "Ġvlastni": 6782,
      "ĠvloÅ¾": 6783,
      "Ġklem": 6784,
      "Ġnovou": 6785,
      "Ġdruha": 6786,
      "Ġzlosti": 6787,
      "Ġvadla": 6788,
      "Ġvzrost": 6789,
      "ĠhnÃ¡t": 6790,
      "hl": 6791,
      "Ġdci": 6792,
      "ĠlÃ©Äį": 6793,
      "ĠkvÄĽte": 6794,
      "Ġris": 6795,
      "ĠtÄĽchy": 6796,
      "ĠvÄįem": 6797,
      "Ġminka": 6798,
      "ĠcÃ¡r": 6799,
      "Ġano": 6800,
      "Ġkrm": 6801,
      "Ġsnit": 6802,
      "ĠvdÄĽs": 6803,
      "Ġlhal": 6804,
      "Ġvaha": 6805,
      "ĠÄįeli": 6806,
      "Ġspali": 6807,
      "ĠstiÅ¥": 6808,
      "ĠbÃŃÅ¡": 6809,
      "zim": 6810,
      "ĠhloÅ¾i": 6811,
      "ĠdraÅ¾Å¡i": 6812,
      "Ġhm": 6813,
      "Ġjela": 6814,
      "ĠkoÅ¾": 6815,
      "Ġtiti": 6816,
      "Ġprob": 6817,
      "Ġluce": 6818,
      "Ġsba": 6819,
      "Ġzoub": 6820,
      "Ġhaly": 6821,
      "Ġvstup": 6822,
      "ĠzaÅĪ": 6823,
      "Ġbozi": 6824,
      "Ġmava": 6825,
      "Ġtyr": 6826,
      "Ġsamy": 6827,
      "Ġvrasky": 6828,
      "ĠhouÅ¡Å¥": 6829,
      "Ġdalky": 6830,
      "ĠsviÅ¡": 6831,
      "Ġlali": 6832,
      "Ġrra": 6833,
      "Ġhodil": 6834,
      "Ġvoje": 6835,
      "Ġbuji": 6836,
      "ĠsÃŃt": 6837,
      "ĠtÅ¯ÅĪ": 6838,
      "ĠmÄĽkka": 6839,
      "Ġskvi": 6840,
      "ĠpÃ¡Å¾": 6841,
      "ĠtravÄĽ": 6842,
      "Ġdmu": 6843,
      "ĠnÄĽhu": 6844,
      "Ġkany": 6845,
      "rud": 6846,
      "Ġruje": 6847,
      "Ġvsvou": 6848,
      "ĠstÃ¡d": 6849,
      "Ġvstru": 6850,
      "ĠpsÅ¯": 6851,
      "ĠniÄįka": 6852,
      "Ġvtaj": 6853,
      "nÅ¯": 6854,
      "ĠzÅ¾ÃŃ": 6855,
      "ĠÅ¡enÄĽ": 6856,
      "ĠvÃ¡t": 6857,
      "Ġstich": 6858,
      "Ġpudu": 6859,
      "Ġhraj": 6860,
      "Ġmalu": 6861,
      "Ġctil": 6862,
      "Ġjete": 6863,
      "Ġneme": 6864,
      "Ġdamy": 6865,
      "ĠgÃ¡n": 6866,
      "Ġpodal": 6867,
      "ĠvkÃ¡": 6868,
      "Ġdrn": 6869,
      "ĠzliÄį": 6870,
      "ĠniÄįky": 6871,
      "Ġvtes": 6872,
      "Ġzsi": 6873,
      "ĠÅ¾hne": 6874,
      "Ġhorach": 6875,
      "ĠnÄĽnou": 6876,
      "Ġdane": 6877,
      "Ġpravou": 6878,
      "ĠpeÅ¡": 6879,
      "Ġpeny": 6880,
      "Ġstokrat": 6881,
      "Ġdent": 6882,
      "Ġzove": 6883,
      "ĠzlobÄĽ": 6884,
      "Ġsedne": 6885,
      "ĠvzhlÃ©d": 6886,
      "Ġvryl": 6887,
      "Ġpokoj": 6888,
      "Ġkosi": 6889,
      "Ġdovi": 6890,
      "Ġsnahy": 6891,
      "ĠbÃ½Å¥": 6892,
      "ĠpyÅ¡e": 6893,
      "ĠjmÄĽni": 6894,
      "Ġdoval": 6895,
      "ĠnÄĽhy": 6896,
      "ĠvaÅ¾e": 6897,
      "Ġkut": 6898,
      "ĠjsouÅ¥": 6899,
      "ĠÅ¥Ã¡l": 6900,
      "Ġzleho": 6901,
      "ĠsÅĪal": 6902,
      "bal": 6903,
      "Ġae": 6904,
      "ĠjeÄı": 6905,
      "ĠcÃŃÅ¡": 6906,
      "ĠzpÃ¡": 6907,
      "Ġvudce": 6908,
      "Ġpuch": 6909,
      "din": 6910,
      "Ġvsto": 6911,
      "Ġmrakem": 6912,
      "Ġjasna": 6913,
      "ĠstÅ¯v": 6914,
      "Ġvryt": 6915,
      "Ġtahla": 6916,
      "ĠvchrÃ¡m": 6917,
      "Ġcesti": 6918,
      "Ġcosi": 6919,
      "Ġvsnu": 6920,
      "ĠblaÅ¾i": 6921,
      "michu": 6922,
      "ĠdejÅ¾": 6923,
      "Ġstinne": 6924,
      "nky": 6925,
      "rÃ½": 6926,
      "ĠvÅ¾ÃŃ": 6927,
      "ĠhliÅ¾i": 6928,
      "Ġraly": 6929,
      "Ġjvo": 6930,
      "Ġsoka": 6931,
      "Ġslepy": 6932,
      "Ġdvod": 6933,
      "ĠvdÄĽt": 6934,
      "ĠvmoÅĻi": 6935,
      "Ġtany": 6936,
      "ĠvÄĽla": 6937,
      "Ġlova": 6938,
      "Ġvzky": 6939,
      "Ġmaci": 6940,
      "ĠruÄįe": 6941,
      "Ġvzpru": 6942,
      "Ġstyska": 6943,
      "Ġfar": 6944,
      "Ġbros": 6945,
      "ĠssÃ¡": 6946,
      "ĠÅ¾houci": 6947,
      "ĠvspÃ¡n": 6948,
      "Ġkojen": 6949,
      "Ġlany": 6950,
      "Ġdeal": 6951,
      "Ġvadi": 6952,
      "Ġsprav": 6953,
      "Ġlovi": 6954,
      "Ġjaky": 6955,
      "Ġmel": 6956,
      "Ġprok": 6957,
      "Ġlub": 6958,
      "Ġmenne": 6959,
      "Ġzjevi": 6960,
      "ĠspÃ¡d": 6961,
      "Ġzvedla": 6962,
      "kej": 6963,
      "ĠXXAXAX": 6964,
      "ĠnÃŃn": 6965,
      "Ġmady": 6966,
      "Ġbrana": 6967,
      "ĠchvÃŃl": 6968,
      "Ġditky": 6969,
      "Ġsdra": 6970,
      "Ġkluk": 6971,
      "Ġhnizd": 6972,
      "ĠsÅ¡": 6973,
      "Ġkana": 6974,
      "Ġrovy": 6975,
      "Ġudy": 6976,
      "Ġdanou": 6977,
      "Ġrac": 6978,
      "Ġdraze": 6979,
      "ĠÅĪad": 6980,
      "ĠÅ¾luÄį": 6981,
      "ĠbÃ©m": 6982,
      "Ġlepe": 6983,
      "Ġkoch": 6984,
      "Ġvaty": 6985,
      "rum": 6986,
      "Ġramen": 6987,
      "Ġil": 6988,
      "ĠkÃ¡z": 6989,
      "Ġpraz": 6990,
      "ĠzplÃ¡": 6991,
      "Ġsluni": 6992,
      "Ġmohl": 6993,
      "Ġpoto": 6994,
      "ter": 6995,
      "Ġchuti": 6996,
      "ĠmÃ©n": 6997,
      "Ġjasny": 6998,
      "Ġtmava": 6999,
      "Ġstatky": 7000,
      "Ġnana": 7001,
      "Ġkonec": 7002,
      "Ġholy": 7003,
      "Ġlibi": 7004,
      "ĠnivÄĽ": 7005,
      "Ġdete": 7006,
      "Ġpaji": 7007,
      "ĠÄįinou": 7008,
      "Äįin": 7009,
      "Ġmaha": 7010,
      "mek": 7011,
      "ĠzmÃ½ch": 7012,
      "ĠkÅĻti": 7013,
      "ĠÅ¡vih": 7014,
      "Ġpam": 7015,
      "Ġvojsk": 7016,
      "ĠvzhlÃŃ": 7017,
      "Ġkboji": 7018,
      "ĠÅ¡vÃ¡": 7019,
      "ĠtÄĽka": 7020,
      "ĠÅ¡ela": 7021,
      "Ġis": 7022,
      "Ġpest": 7023,
      "ĠdÄĽls": 7024,
      "ĠvbÅĻe": 7025,
      "Ġsvitil": 7026,
      "Ġvzadu": 7027,
      "ĠÅ¾emi": 7028,
      "ĠscÃ©": 7029,
      "Ġzj": 7030,
      "Ġrunu": 7031,
      "ĠbraÅ¥": 7032,
      "ĠdruÅ¾i": 7033,
      "Ġobraz": 7034,
      "Ġnitra": 7035,
      "ĠspÅĻada": 7036,
      "Ġsely": 7037,
      "ĠÅ¡ÃŃÅĻ": 7038,
      "jit": 7039,
      "Ġproudy": 7040,
      "ĠkrouÅ¾i": 7041,
      "ĠvotÄĽ": 7042,
      "ĠÅ¡ery": 7043,
      "ĠzÃ¡n": 7044,
      "Ġvraha": 7045,
      "ĠkliÄį": 7046,
      "Ġkrovem": 7047,
      "Ġznat": 7048,
      "ĠÄįekal": 7049,
      "Ġmisto": 7050,
      "Ġtovy": 7051,
      "Ġvslou": 7052,
      "ĠkÅĻest": 7053,
      "Ġvzdechu": 7054,
      "ĠÅ¡koly": 7055,
      "pas": 7056,
      "ĠvdÃ¡v": 7057,
      "Ġmenech": 7058,
      "ĠtuÅ¡": 7059,
      "ĠtÅ¯Äį": 7060,
      "ĠÄıme": 7061,
      "ĠÄįenstvi": 7062,
      "Ġtony": 7063,
      "Ġdile": 7064,
      "Ġsoudu": 7065,
      "Ġsledu": 7066,
      "ĠsvÄĽtly": 7067,
      "ĠmlÅ¾": 7068,
      "sel": 7069,
      "Ġdcera": 7070,
      "ĠblÅ¯": 7071,
      "ĠraÄįi": 7072,
      "Ġhara": 7073,
      "ĠkrÃ¡m": 7074,
      "ĠvÅ¡ichni": 7075,
      "ĠzchrÃ¡": 7076,
      "Ġpustil": 7077,
      "ĠteÅ¡": 7078,
      "Ġvodou": 7079,
      "ĠviÅĪ": 7080,
      "ĠpaÅ¾": 7081,
      "Ġvsho": 7082,
      "ĠvpÃ½": 7083,
      "Ġvblu": 7084,
      "kost": 7085,
      "Ġchcete": 7086,
      "ĠÅ¡af": 7087,
      "Ġspici": 7088,
      "ĠtlÃ½m": 7089,
      "ĠzÄįi": 7090,
      "ĠÅ¾eti": 7091,
      "Ġvanu": 7092,
      "louz": 7093,
      "Ġhraly": 7094,
      "Ġsporu": 7095,
      "ĠchyÅ¥": 7096,
      "ĠptÃ¡Å¡": 7097,
      "Ġvzdechy": 7098,
      "Ġkvetla": 7099,
      "ĠÄįinÄĽ": 7100,
      "ĠslyÅ¡iÅ¡": 7101,
      "Ġciho": 7102,
      "ĠÅ¾adny": 7103,
      "ĠslÃ©t": 7104,
      "Ġcour": 7105,
      "ĠpÅ¯m": 7106,
      "stem": 7107,
      "ĠÅ¡erem": 7108,
      "ĠbÄĽhu": 7109,
      "Ġbrali": 7110,
      "Ġkleb": 7111,
      "ĠspÄĽcha": 7112,
      "pÄĽt": 7113,
      "kla": 7114,
      "ĠtÄĽny": 7115,
      "Ġvav": 7116,
      "Ġdivi": 7117,
      "Ġvtros": 7118,
      "Ġnechal": 7119,
      "ĠdobÅĻe": 7120,
      "Ġzpom": 7121,
      "Ġvstoup": 7122,
      "Ġdiky": 7123,
      "Ġspy": 7124,
      "Ġhladi": 7125,
      "Ġblaze": 7126,
      "Ġbloudil": 7127,
      "ĠzmÄĽny": 7128,
      "Ġpluj": 7129,
      "Ġvtichu": 7130,
      "Ġkvit": 7131,
      "ĠÅ¡tvÃ¡n": 7132,
      "Ġkcili": 7133,
      "Ġrti": 7134,
      "Ġlenych": 7135,
      "Ġkama": 7136,
      "Ġsahne": 7137,
      "ĠchÃ¡s": 7138,
      "Ġskokem": 7139,
      "Ġvedl": 7140,
      "Ġnne": 7141,
      "Ġcr": 7142,
      "ĠÅĻka": 7143,
      "Ġvukol": 7144,
      "ĠkpÅĻÃŃ": 7145,
      "ĠhnÄĽt": 7146,
      "ĠknimÅ¾": 7147,
      "ĠjvÃ½Å¡": 7148,
      "ĠpaÄį": 7149,
      "Ġsoum": 7150,
      "Ġjedna": 7151,
      "ĠbrÅ¾": 7152,
      "Ġsble": 7153,
      "Ġzmizi": 7154,
      "Ġvanky": 7155,
      "ĠvbÄĽh": 7156,
      "Ġtahy": 7157,
      "ĠrÃ¡k": 7158,
      "ÅĪÃ¡": 7159,
      "Ġvlase": 7160,
      "Ġztros": 7161,
      "ĠtÅĻÃŃÄį": 7162,
      "ĠÄįuje": 7163,
      "ĠvhlavÄĽ": 7164,
      "ĠmnÃŃÅ¡": 7165,
      "ĠvklÃ¡Å¡": 7166,
      "ĠkÅ¡": 7167,
      "Ġbvy": 7168,
      "Å¾ku": 7169,
      "Ġmova": 7170,
      "Ġbraci": 7171,
      "ĠvÅĻeÅ¡": 7172,
      "Å¾et": 7173,
      "Ġskryta": 7174,
      "Ġleskem": 7175,
      "ĠvkroÄįi": 7176,
      "Ġsbira": 7177,
      "sal": 7178,
      "ĠchÅĻa": 7179,
      "Å¯l": 7180,
      "ĠÅ¡enim": 7181,
      "Ġvyt": 7182,
      "ĠkraÅ¡": 7183,
      "ĠpÅĻÃŃl": 7184,
      "ĠkleÄįi": 7185,
      "ĠdÄĽlem": 7186,
      "ĠpyÅĻi": 7187,
      "Ġzlom": 7188,
      "mÄĽt": 7189,
      "Ġvzteku": 7190,
      "Ġzvln": 7191,
      "Ġniho": 7192,
      "Ġduji": 7193,
      "ĠmaÅĻi": 7194,
      "Ġchove": 7195,
      "Ġplazi": 7196,
      "Ġfry": 7197,
      "Ġsouc": 7198,
      "ĠÅ¾ary": 7199,
      "Ġkryla": 7200,
      "Ġrovna": 7201,
      "Ġzdrav": 7202,
      "Ġchvatu": 7203,
      "ĠhÅĻÃ¡t": 7204,
      "ĠAABXBX": 7205,
      "kne": 7206,
      "ĠsÅĻe": 7207,
      "Ġrali": 7208,
      "ĠkavÄĽ": 7209,
      "Ġbati": 7210,
      "Ġpiva": 7211,
      "ĠkeÅĻi": 7212,
      "ĠbÅĻeÅ¾i": 7213,
      "Ġmenna": 7214,
      "ĠbrÃ¡c": 7215,
      "rev": 7216,
      "ĠÅ¡Å¥astni": 7217,
      "Ġskles": 7218,
      "Ġchrt": 7219,
      "Ġnaha": 7220,
      "Ġjisk": 7221,
      "Ġmival": 7222,
      "Ġdleti": 7223,
      "ĠslouÅ¾i": 7224,
      "ĠdrÃ¡ch": 7225,
      "Ġledni": 7226,
      "ĠvsluÅ¾": 7227,
      "Ġvzmat": 7228,
      "rob": 7229,
      "ĠÅ¡eÅĻ": 7230,
      "ĠtyÄįi": 7231,
      "Ġstini": 7232,
      "Ġzlatou": 7233,
      "ĠvÅĻeni": 7234,
      "Ġhluku": 7235,
      "ĠÅĻekne": 7236,
      "ĠviÄįku": 7237,
      "Ġnaty": 7238,
      "Ġspjal": 7239,
      "ĠzvÃ¡t": 7240,
      "Ġsava": 7241,
      "Ġfla": 7242,
      "ĠbÃ¡ÅĪ": 7243,
      "Ġdneska": 7244,
      "ĠkruÅ¡": 7245,
      "ĠklidnÄĽ": 7246,
      "ber": 7247,
      "Ġjeh": 7248,
      "Ġdary": 7249,
      "ĠtouÅ¾il": 7250,
      "Ġzdola": 7251,
      "Ġzniti": 7252,
      "ĠsvlÃ©": 7253,
      "Ġleno": 7254,
      "Ġhavy": 7255,
      "Ġces": 7256,
      "Ġjary": 7257,
      "Ġtyka": 7258,
      "Ġvedli": 7259,
      "ĠÅ¡tve": 7260,
      "ĠpryÅ¡ti": 7261,
      "Ġshani": 7262,
      "ĠhnÃŃ": 7263,
      "Ġkai": 7264,
      "Ġtum": 7265,
      "ĠABAABX": 7266,
      "ĠvnÄĽjÅ¾": 7267,
      "ĠvtvaÅĻi": 7268,
      "Ġlebi": 7269,
      "Ġsiv": 7270,
      "Ġtuhy": 7271,
      "Ġbeny": 7272,
      "Ġslavou": 7273,
      "Ġvrb": 7274,
      "Ġdlouze": 7275,
      "ĠvleÄįe": 7276,
      "ĠÅ¾itim": 7277,
      "ĠÄįtyÅĻ": 7278,
      "Ġhviz": 7279,
      "Ġpjal": 7280,
      "ĠtaÅ¥": 7281,
      "ĠXXXXAA": 7282,
      "Ġvplo": 7283,
      "ĠzhvÄĽz": 7284,
      "ĠÅ¾hava": 7285,
      "ĠpÃ½r": 7286,
      "Ġdoucnost": 7287,
      "Ġtove": 7288,
      "ĠjiÅ¡ti": 7289,
      "Ġnive": 7290,
      "Ġlav": 7291,
      "Ġvedu": 7292,
      "ĠmÃ¡v": 7293,
      "ĠAXB": 7294,
      "Ġprak": 7295,
      "ĠplanÄĽ": 7296,
      "ĠplaÅ¡Å¥": 7297,
      "ĠvtÅĻe": 7298,
      "ĠzmÅ¯": 7299,
      "Ġjase": 7300,
      "ĠÅ¡atu": 7301,
      "ĠzmÄĽn": 7302,
      "Ġsklep": 7303,
      "Ġzchy": 7304,
      "Ġleky": 7305,
      "Ġloz": 7306,
      "Ġjab": 7307,
      "ĠÄįile": 7308,
      "ĠsÃ¡z": 7309,
      "Ġzlet": 7310,
      "ĠfraÅ¡": 7311,
      "Ġfaly": 7312,
      "ĠtÄĽne": 7313,
      "ĠloÅ¾il": 7314,
      "Ġtuni": 7315,
      "Ġbidy": 7316,
      "ĠvÃ½t": 7317,
      "ĠsnÃŃl": 7318,
      "Ġtlukou": 7319,
      "bra": 7320,
      "Ġsg": 7321,
      "Ġjene": 7322,
      "ĠkoÅĪ": 7323,
      "Ġsoko": 7324,
      "Ġklete": 7325,
      "Ġtravi": 7326,
      "Ġhrud": 7327,
      "Ġlibal": 7328,
      "Ġvzmach": 7329,
      "Ġvbah": 7330,
      "ĠÄįÃŃl": 7331,
      "Ġrez": 7332,
      "Ġslovu": 7333,
      "ĠbouÄį": 7334,
      "Ġzod": 7335,
      "ĠtÅĻebi": 7336,
      "ĠzhÅĻÃŃ": 7337,
      "Ġsedla": 7338,
      "ĠÅ¡ept": 7339,
      "ĠvloÄį": 7340,
      "Ġdivam": 7341,
      "Ġrokem": 7342,
      "ĠvÄĽsÅ¥": 7343,
      "Ġduni": 7344,
      "voz": 7345,
      "Ġkslo": 7346,
      "ĠknÄĽÅ¾i": 7347,
      "ĠsvyÅ¡e": 7348,
      "Ġtric": 7349,
      "Ġvtmach": 7350,
      "Ġptej": 7351,
      "Ġtip": 7352,
      "Ġzlat": 7353,
      "Ġlidske": 7354,
      "Ġsviji": 7355,
      "ĠsjÃŃ": 7356,
      "Ġanu": 7357,
      "Ġnany": 7358,
      "ĠÅ¾ej": 7359,
      "ĠjÃ¡c": 7360,
      "Ġvtvo": 7361,
      "Ġslez": 7362,
      "Ġklidem": 7363,
      "Ġumf": 7364,
      "Ġshyba": 7365,
      "Ġkta": 7366,
      "Ġsir": 7367,
      "ĠÅ¾itÄĽ": 7368,
      "Ġhanu": 7369,
      "ĠbÄĽj": 7370,
      "Ġchodil": 7371,
      "Ġhude": 7372,
      "Ġdlid": 7373,
      "ĠmaÄį": 7374,
      "Ġnouze": 7375,
      "Ġsof": 7376,
      "Ġpice": 7377,
      "nut": 7378,
      "Ġpouta": 7379,
      "Ġtrob": 7380,
      "Ġvmar": 7381,
      "ĠuÅ¡t": 7382,
      "th": 7383,
      "ĠÄįni": 7384,
      "Ġlaci": 7385,
      "liÅ¡": 7386,
      "ĠraÅ¾i": 7387,
      "ĠramÄĽ": 7388,
      "Ġsani": 7389,
      "Ġbilou": 7390,
      "Ġes": 7391,
      "ĠbÃ¡ÅĻ": 7392,
      "Ġvrej": 7393,
      "ĠzkÅĻe": 7394,
      "Ġklub": 7395,
      "ĠvzbuÄı": 7396,
      "Ġvesti": 7397,
      "ĠmÄĽje": 7398,
      "Ġbiz": 7399,
      "Ġzrady": 7400,
      "Ġdouci": 7401,
      "Ġvled": 7402,
      "Ġvratky": 7403,
      "ĠvspÃ¡": 7404,
      "Ġkas": 7405,
      "Ġkum": 7406,
      "Ġvisti": 7407,
      "Ġhrati": 7408,
      "Ġpycha": 7409,
      "Ġkolu": 7410,
      "Ġstatu": 7411,
      "ĠÅĻed": 7412,
      "Ġvdou": 7413,
      "Ġbranou": 7414,
      "Ġsvah": 7415,
      "Ġvhrad": 7416,
      "ĠspÄĽt": 7417,
      "Ġfani": 7418,
      "Ġ24": 7419,
      "kle": 7420,
      "Ġzg": 7421,
      "ĠÅ¡lu": 7422,
      "ĠmÄĽvu": 7423,
      "Ġzera": 7424,
      "Ġnute": 7425,
      "ĠÅ¾have": 7426,
      "Ġnor": 7427,
      "Ġstep": 7428,
      "Ġdrava": 7429,
      "Ġstrem": 7430,
      "Ġchramy": 7431,
      "Ġzlid": 7432,
      "ĠvtÄĽle": 7433,
      "Ġvpev": 7434,
      "ĠjlÃ©": 7435,
      "Ġjedu": 7436,
      "ĠÄįlÃ¡": 7437,
      "Ġkopi": 7438,
      "Ġrova": 7439,
      "ĠÅ¡ere": 7440,
      "Ġsmou": 7441,
      "ĠsÃŃd": 7442,
      "Ġsluji": 7443,
      "Ġtvaru": 7444,
      "ĠÅĪat": 7445,
      "Ġlence": 7446,
      "Ġpanna": 7447,
      "ĠAXAXBB": 7448,
      "Ġfaust": 7449,
      "Na": 7450,
      "ĠNa": 7451,
      "ĠvcÃŃ": 7452,
      "Ġsplav": 7453,
      "ĠÅ¡ily": 7454,
      "Ġstebou": 7455,
      "ĠchtÄĽj": 7456,
      "Ġksva": 7457,
      "Ġhodne": 7458,
      "Ġvzplane": 7459,
      "Ġtroud": 7460,
      "ĠNaN": 7461,
      "Ġtky": 7462,
      "ĠjÃŃÅ¥": 7463,
      "ĠsvÃŃÄį": 7464,
      "Ġlati": 7465,
      "ĠdavÄĽ": 7466,
      "ĠvdÅ¯m": 7467,
      "Ġchazel": 7468,
      "ĠplÃ¡n": 7469,
      "Ġmnohy": 7470,
      "ĠzmÄĽna": 7471,
      "Ġdavno": 7472,
      "Ġvkruh": 7473,
      "ÄĽl": 7474,
      "ĠÅ¡ta": 7475,
      "Ġnoty": 7476,
      "Ġdiku": 7477,
      "ĠtunÄĽ": 7478,
      "Ġbudem": 7479,
      "Ġztre": 7480,
      "ĠmraÄįi": 7481,
      "ĠznaÅ¡": 7482,
      "Ġchlej": 7483,
      "ĠdÅĻime": 7484,
      "ĠchlÃ©m": 7485,
      "Ġvmech": 7486,
      "ĠvzÅĪal": 7487,
      "Ġleku": 7488,
      "Ġtime": 7489,
      "ĠlaÅĻe": 7490,
      "Ġveden": 7491,
      "ĠvÄĽÅĻil": 7492,
      "vÄĽl": 7493,
      "ĠpÄĽny": 7494,
      "Ġvlada": 7495,
      "Ġsladke": 7496,
      "Ġmusil": 7497,
      "Ġvblan": 7498,
      "Ġlnou": 7499,
      "ĠÅ¡enou": 7500,
      "Ġzdru": 7501,
      "ĠplaÅ¥": 7502,
      "Ġztro": 7503,
      "Ġmrazi": 7504,
      "Ġstoud": 7505,
      "ĠsdÅ¯": 7506,
      "ĠkrasnÄĽ": 7507,
      "Ġprys": 7508,
      "ĠspuÅ¡": 7509,
      "Ġpoly": 7510,
      "Ġnovu": 7511,
      "Ġlap": 7512,
      "Ġvece": 7513,
      "ĠroÅ¾": 7514,
      "Ġstanul": 7515,
      "Ġvmno": 7516,
      "ĠprÃ¡s": 7517,
      "Ġduchem": 7518,
      "ĠvÄĽrny": 7519,
      "Ġzpola": 7520,
      "Ġvstala": 7521,
      "Ġvstane": 7522,
      "ĠÅ¡tkÃ¡": 7523,
      "po": 7524,
      "Ã¼": 7525,
      "ĠhÃº": 7526,
      "ĠkoÅĻe": 7527,
      "ĠsplÃ©": 7528,
      "ĠnejÅ¡i": 7529,
      "Ġdlivy": 7530,
      "ĠvÅ¡um": 7531,
      "ĠmoÅ¾no": 7532,
      "Ġvkrada": 7533,
      "pÄĽl": 7534,
      "Ġminky": 7535,
      "ĠhnÃ¡n": 7536,
      "ĠtÅĻesou": 7537,
      "ÃŃs": 7538,
      "Ġzani": 7539,
      "Ġtav": 7540,
      "Ġprov": 7541,
      "ĠÄįÃŃn": 7542,
      "Ġbradu": 7543,
      "Ġvrt": 7544,
      "ĠvÅĻene": 7545,
      "ĠvlÃ¡k": 7546,
      "ĠdlÃŃÅ¡": 7547,
      "Ġtalo": 7548,
      "Ġgil": 7549,
      "Ġstkvost": 7550,
      "ĠnÄĽme": 7551,
      "Ġir": 7552,
      "Ġklame": 7553,
      "Ġvkri": 7554,
      "ĠhvÄĽzda": 7555,
      "Ġkluz": 7556,
      "ĠlÃ³": 7557,
      "Ġjena": 7558,
      "Ġlepy": 7559,
      "Ġhove": 7560,
      "Ġzely": 7561,
      "Ġsyti": 7562,
      "Ġhran": 7563,
      "Ġstul": 7564,
      "ĠÅ¡leha": 7565,
      "Ġsbory": 7566,
      "ĠbÅĻin": 7567,
      "Ġknut": 7568,
      "Ġxan": 7569,
      "chod": 7570,
      "Ġzapad": 7571,
      "ĠsloÅ¾i": 7572,
      "Ġtrat": 7573,
      "ĠnÄĽjÅ¾": 7574,
      "ĠvzkÃ¡": 7575,
      "ĠvsobÄĽ": 7576,
      "ĠkspÃ¡n": 7577,
      "AC": 7578,
      "Ġroli": 7579,
      "ĠtÅĻek": 7580,
      "Ġcelem": 7581,
      "Ġvinem": 7582,
      "Ġduh": 7583,
      "ĠchaÅĻ": 7584,
      "ĠhouÅ¡ti": 7585,
      "Ġvlnou": 7586,
      "Ġvbod": 7587,
      "Ġznes": 7588,
      "ĠklÃ©m": 7589,
      "ĠblyÅ¡ti": 7590,
      "Ġbokem": 7591,
      "Ġbledne": 7592,
      "Ġsnich": 7593,
      "ĠneÄįna": 7594,
      "Ġkvam": 7595,
      "Ġsbohem": 7596,
      "ĠmÅĻÃŃÅ¾": 7597,
      "Ġhvizda": 7598,
      "Ġaly": 7599,
      "Ġstada": 7600,
      "Ġrym": 7601,
      "Ġpudi": 7602,
      "Ġhrada": 7603,
      "ĠstÅĻeÅ¾i": 7604,
      "Ġnesl": 7605,
      "Ġznoj": 7606,
      "ĠzlÃ¡t": 7607,
      "ĠdnÃ©m": 7608,
      "ĠbasnÄĽ": 7609,
      "eÅĪ": 7610,
      "Ġnivou": 7611,
      "Ġsazi": 7612,
      "Ġbinu": 7613,
      "ĠztÃ½": 7614,
      "ĠsnÄĽÅ¥": 7615,
      "ĠsnÅ¯v": 7616,
      "ĠzviÅĻe": 7617,
      "ĠÅ¾ou": 7618,
      "Ġtiky": 7619,
      "ĠÅ¡ine": 7620,
      "Ġztvr": 7621,
      "Å¡et": 7622,
      "Ġchviva": 7623,
      "ĠÅĻekla": 7624,
      "ĠhrouÅ¾i": 7625,
      "Ġgraf": 7626,
      "ĠdÅ¾bÃ¡": 7627,
      "ĠsÅ¾a": 7628,
      "Ġhoda": 7629,
      "Ġvabi": 7630,
      "Ġluhy": 7631,
      "Ġpusta": 7632,
      "Ġvals": 7633,
      "ĠkliÄįi": 7634,
      "Ġvzpu": 7635,
      "Ġdrosti": 7636,
      "ĠvÄĽtvi": 7637,
      "ĠsdÃŃl": 7638,
      "Ġprosim": 7639,
      "Ġshury": 7640,
      "Ġkin": 7641,
      "Ġnac": 7642,
      "rost": 7643,
      "ĠvÅ¡tÃŃ": 7644,
      "Ġdilu": 7645,
      "Ġpena": 7646,
      "Ġhum": 7647,
      "Ġtluku": 7648,
      "ĠzmÄĽk": 7649,
      "Ġtliv": 7650,
      "ĠABAXXB": 7651,
      "ÅĻek": 7652,
      "Ġpramen": 7653,
      "ĠÅ¡ira": 7654,
      "Ġzhl": 7655,
      "ĠspÄĽla": 7656,
      "Ġshrou": 7657,
      "Ġdnove": 7658,
      "ĠÅĻeji": 7659,
      "ĠstÃŃÅ¡": 7660,
      "Ġsosti": 7661,
      "Ġjednu": 7662,
      "Ġjasem": 7663,
      "ĠzklÃŃ": 7664,
      "kot": 7665,
      "ĠzlÃ©m": 7666,
      "ĠdÅ¾bÃ¡n": 7667,
      "Ġmsty": 7668,
      "ĠÅ¡ali": 7669,
      "Ġzuji": 7670,
      "Ġvbra": 7671,
      "Ġsnive": 7672,
      "Ġkpla": 7673,
      "Ġzdravy": 7674,
      "ĠvspÄĽch": 7675,
      "Ġkj": 7676,
      "ĠdiÅ¥": 7677,
      "Ġtus": 7678,
      "ĠkÃ¡Å¾": 7679,
      "ĠrÃ¡r": 7680,
      "Ġreji": 7681,
      "Ġpluji": 7682,
      "Ġbaly": 7683,
      "Ġkha": 7684,
      "ĠletÄĽl": 7685,
      "ĠÅ¾ele": 7686,
      "Ġvzemi": 7687,
      "ĠstÃŃs": 7688,
      "Ġvspa": 7689,
      "Ġvkal": 7690,
      "ĠÅĪal": 7691,
      "ĠznaÄįi": 7692,
      "ĠusmÄĽ": 7693,
      "Ġbloze": 7694,
      "ĠhÅĻichy": 7695,
      "ĠzvÃ¡Å¾": 7696,
      "ĠvpouÅ¡Å¥": 7697,
      "Ġvhrudi": 7698,
      "Ġvspol": 7699,
      "Ġmav": 7700,
      "Ġdravi": 7701,
      "deÅ¡": 7702,
      "ĠvÅ¡ecka": 7703,
      "ĠtÅĻiv": 7704,
      "Ġznate": 7705,
      "Ġkvetou": 7706,
      "ĠvzdÃ¡t": 7707,
      "ĠskrytÄĽ": 7708,
      "Ġzdrava": 7709,
      "Ġskloni": 7710,
      "Ġznit": 7711,
      "Ġnicich": 7712,
      "ĠzhoÅĻ": 7713,
      "Ġsjel": 7714,
      "Ġmoty": 7715,
      "Ġpary": 7716,
      "Ġhavu": 7717,
      "Ġhul": 7718,
      "Ġsnivy": 7719,
      "ĠvleÄį": 7720,
      "Ġtmavou": 7721,
      "ĠslyÅ¡im": 7722,
      "ĠtemÄĽ": 7723,
      "Ġgal": 7724,
      "ĠkruÅ¡i": 7725,
      "Ġvmoz": 7726,
      "Ġkrajem": 7727,
      "ĠvmÄĽk": 7728,
      "ĠhÅĻa": 7729,
      "ĠkyÅĪ": 7730,
      "Ġcoval": 7731,
      "Ġvsny": 7732,
      "Ġhravy": 7733,
      "ĠrÃ½Å¾": 7734,
      "tor": 7735,
      "ĠpÅ¯r": 7736,
      "ĠÅ¡kod": 7737,
      "Ġstesku": 7738,
      "Ġvdalku": 7739,
      "ĠtinÄĽ": 7740,
      "Ġzeje": 7741,
      "ĠpÄĽna": 7742,
      "Ġproudu": 7743,
      "Ġztrati": 7744,
      "ĠÅĻÃ¡s": 7745,
      "Ġzdomu": 7746,
      "Ġleskne": 7747,
      "Ġruchem": 7748,
      "ĠvÅ¡edni": 7749,
      "ĠssÃ¡l": 7750,
      "ĠÅ¡klebi": 7751,
      "ĠzÄįÃŃ": 7752,
      "Ġrhy": 7753,
      "Ġzada": 7754,
      "ĠmÄĽls": 7755,
      "ÅĻas": 7756,
      "ĠhÅĻal": 7757,
      "Ġdobry": 7758,
      "Ġgram": 7759,
      "Ġzvlh": 7760,
      "Ġptaka": 7761,
      "Ġpekla": 7762,
      "as": 7763,
      "Ġzky": 7764,
      "ĠniÄįek": 7765,
      "Ġrazi": 7766,
      "Ġmluvit": 7767,
      "Ġvjezd": 7768,
      "ĠzrÃ¡l": 7769,
      "ĠdiÄįka": 7770,
      "ĠÅ¡tÃ¡": 7771,
      "ĠbÃŃk": 7772,
      "Ġkralem": 7773,
      "ĠÄįerni": 7774,
      "Ġsmol": 7775,
      "Ġalu": 7776,
      "aky": 7777,
      "Ġdere": 7778,
      "Ġspli": 7779,
      "Ġsii": 7780,
      "Ġvladce": 7781,
      "Ġzkli": 7782,
      "Ġmoud": 7783,
      "ĠÅĻadi": 7784,
      "Ġzbyla": 7785,
      "dlech": 7786,
      "Ġcnosti": 7787,
      "ĠÅ¾nÄĽ": 7788,
      "ĠvÄĽÅ¾e": 7789,
      "Ġnuj": 7790,
      "Ġpici": 7791,
      "Ġsnila": 7792,
      "Ġbludu": 7793,
      "ĠÅ¡koda": 7794,
      "Ġtovat": 7795,
      "ĠvÄĽdÄĽt": 7796,
      "Ġchyl": 7797,
      "Ġschlad": 7798,
      "ĠzÅĻeli": 7799,
      "Ġblouk": 7800,
      "ĠsbÄĽh": 7801,
      "ĠpnÄĽ": 7802,
      "Ġlim": 7803,
      "Ġline": 7804,
      "Ġzami": 7805,
      "Ġsiva": 7806,
      "ĠjsemÅ¥": 7807,
      "ĠzÃŃtÅĻ": 7808,
      "ĠsÃ¡k": 7809,
      "ĠsÃ¡n": 7810,
      "Ġfin": 7811,
      "ĠÅĻÅ¯v": 7812,
      "Ġsahla": 7813,
      "Ġstanou": 7814,
      "ĠÅĻech": 7815,
      "ĠzÃ¡j": 7816,
      "Ġpuji": 7817,
      "Ġslunci": 7818,
      "ĠvnÃ¡d": 7819,
      "ĠvtravÄĽ": 7820,
      "Ã¤": 7821,
      "Ġtera": 7822,
      "Ġnite": 7823,
      "ĠvtmÄĽ": 7824,
      "Ġtlumi": 7825,
      "ĠÅ¡epce": 7826,
      "ĠjvyÅ¡Å¡i": 7827,
      "Ġmilost": 7828,
      "Ġsluhu": 7829,
      "Ġzran": 7830,
      "ĠÄįerny": 7831,
      "Ġzdala": 7832,
      "ĠvÄįely": 7833,
      "ĠÅ¾enstvi": 7834,
      "Ġcyt": 7835,
      "Ġfes": 7836,
      "Ġobzor": 7837,
      "Ġblem": 7838,
      "ĠcÅ¾e": 7839,
      "Ġrohy": 7840,
      "ĠbodÄĽ": 7841,
      "Ġjam": 7842,
      "Ġbene": 7843,
      "Ġbuk": 7844,
      "Ġbrala": 7845,
      "Ġvmat": 7846,
      "Ġpozna": 7847,
      "ĠtrÃ¡m": 7848,
      "ĠÅ¡plou": 7849,
      "ĠztiÅ¡": 7850,
      "ĠvlidnÄĽ": 7851,
      "ĠÅĻuje": 7852,
      "ĠsÃ½m": 7853,
      "Ġtelu": 7854,
      "ĠÄįeno": 7855,
      "Ġjate": 7856,
      "Ġchopil": 7857,
      "Ġtoul": 7858,
      "Ġsvadi": 7859,
      "ĠhÅĻiva": 7860,
      "ĠÄįechu": 7861,
      "ĠviÅĻe": 7862,
      "Ġjaro": 7863,
      "Ġtuli": 7864,
      "ĠbeÄį": 7865,
      "Ġprave": 7866,
      "ĠhravÄĽ": 7867,
      "Ġzvednou": 7868,
      "Ġzchla": 7869,
      "Ġsvrh": 7870,
      "Ġbytu": 7871,
      "Ġmau": 7872,
      "ĠlÃ¡d": 7873,
      "Ġkrati": 7874,
      "ĠkleÅ¡": 7875,
      "Ġskot": 7876,
      "tost": 7877,
      "ĠoheÅĪ": 7878,
      "Ġtres": 7879,
      "Ġpsan": 7880,
      "Ġnvi": 7881,
      "Ġmita": 7882,
      "Ġvale": 7883,
      "Ġvzmu": 7884,
      "ĠÅĻet": 7885,
      "Ġbram": 7886,
      "ĠsmÄĽji": 7887,
      "ĠzhÃ¡": 7888,
      "ĠbÅĻehy": 7889,
      "Ġfil": 7890,
      "Ġstruny": 7891,
      "Ġtvrz": 7892,
      "ĠÅ¾uj": 7893,
      "Ġzmatku": 7894,
      "Ġmsta": 7895,
      "ĠÄįnÄĽl": 7896,
      "ĠchÅĻ": 7897,
      "Ġchvost": 7898,
      "ĠletÄĽ": 7899,
      "ĠvÄĽno": 7900,
      "Ġmuti": 7901,
      "Ġstoru": 7902,
      "ĠpÄĽÅ¡": 7903,
      "Ġloudi": 7904,
      "ĠvolnÄĽ": 7905,
      "Ġpaly": 7906,
      "Ġzmije": 7907,
      "Ġjitro": 7908,
      "Ġtlouci": 7909,
      "Ġvavou": 7910,
      "Ġzebe": 7911,
      "ĠsiÅĪ": 7912,
      "Ġpile": 7913,
      "Ġpudy": 7914,
      "Ġjedno": 7915,
      "ĠvmÅ¯j": 7916,
      "ĠsviÅ¾": 7917,
      "ĠpevnÄĽ": 7918,
      "ĠtiÄįka": 7919,
      "Ġchvaly": 7920,
      "ĠABCCAB": 7921,
      "ĠzÅ¯m": 7922,
      "Ġzast": 7923,
      "ĠÅ¾est": 7924,
      "Ġklati": 7925,
      "Ġsnaha": 7926,
      "ĠsnÄĽÅ¾i": 7927,
      "ban": 7928,
      "Ġsdce": 7929,
      "Ġvzplal": 7930,
      "Ġkaty": 7931,
      "ĠvosÅ¥": 7932,
      "Ġras": 7933,
      "ĠsaÅĻi": 7934,
      "Ġdenkrat": 7935,
      "ĠsnaÅ¡i": 7936,
      "Ġtron": 7937,
      "ĠpÅĻÃ¡t": 7938,
      "ĠzpÃŃs": 7939,
      "ĠdvoÅĻi": 7940,
      "ĠvzÃ¡m": 7941,
      "Ġzdobi": 7942,
      "Ġlebky": 7943,
      "Ġvinnost": 7944,
      "Ġprsou": 7945,
      "Ġvadlo": 7946,
      "Ġlamp": 7947,
      "ĠusmÄĽv": 7948,
      "om": 7949,
      "ĠÅ¾enych": 7950,
      "cit": 7951,
      "Ġvraji": 7952,
      "Ġsladkou": 7953,
      "Ġsmutek": 7954,
      "zek": 7955,
      "ĠtluÄįe": 7956,
      "Ġthi": 7957,
      "ĠgroÅ¡": 7958,
      "Ġvzho": 7959,
      "ĠÅ¾an": 7960,
      "ĠsbÅĻe": 7961,
      "Ġschra": 7962,
      "Ġvemu": 7963,
      "Ġsmalo": 7964,
      "Ġvproud": 7965,
      "Å¡ad": 7966,
      "ĠÄįeÅ¥": 7967,
      "ĠÅ¡ij": 7968,
      "Ġdrave": 7969,
      "der": 7970,
      "Ġpouha": 7971,
      "ĠstÅĻedu": 7972,
      "ĠvhÅĻÃŃ": 7973,
      "ĠbÅĻes": 7974,
      "Ġplody": 7975,
      "ĠhÅ¯v": 7976,
      "Ġgii": 7977,
      "ĠctnÃ½": 7978,
      "Ġpsani": 7979,
      "Ġstkvou": 7980,
      "ĠXXXAAX": 7981,
      "ĠsÃ½ch": 7982,
      "ĠsÅ¾ÃŃ": 7983,
      "Ġzvat": 7984,
      "Ġtati": 7985,
      "ĠvÄĽly": 7986,
      "Ġvave": 7987,
      "ĠÅ¡ec": 7988,
      "Ġkranu": 7989,
      "Ġsoudi": 7990,
      "ĠznÄĽji": 7991,
      "Ġzvykem": 7992,
      "Ġstojim": 7993,
      "Ġkole": 7994,
      "Ġholem": 7995,
      "Ġvinul": 7996,
      "ĠvÅ¡eru": 7997,
      "Ġkladou": 7998,
      "Ġvrata": 7999,
      "Ġplnou": 8000,
      "Ġbron": 8001,
      "Ġkonal": 8002,
      "ĠbratÅĻe": 8003,
      "Ġzdroji": 8004,
      "ĠvmraÄį": 8005,
      "Ġpotom": 8006,
      "Ġbyst": 8007,
      "Ġlog": 8008,
      "ĠsvÄĽÅ¥": 8009,
      "ĠvplÃŃ": 8010,
      "ĠstÅĻechu": 8011,
      "ĠstÃ½l": 8012,
      "Ġhadka": 8013,
      "ĠpÅĻatel": 8014,
      "ĠchÅĻest": 8015,
      "Ġlaur": 8016,
      "ĠÄįinil": 8017,
      "ĠbÄĽli": 8018,
      "ĠprsÅ¥": 8019,
      "ĠtenÅ¥": 8020,
      "Ġhouci": 8021,
      "Ġsniti": 8022,
      "ĠhnÄĽvy": 8023,
      "ĠskryÅ¡": 8024,
      "Ġvchla": 8025,
      "Ġztoho": 8026,
      "ĠzluÄį": 8027,
      "por": 8028,
      "Ġsef": 8029,
      "Ġpotu": 8030,
      "ĠtÄĽÅ¾i": 8031,
      "Ġvada": 8032,
      "Ġvtlu": 8033,
      "Ġmladou": 8034,
      "Ġdles": 8035,
      "ĠdvoÅĻe": 8036,
      "Ġmalem": 8037,
      "ĠtevÅĻ": 8038,
      "Ġpovim": 8039,
      "pou": 8040,
      "ĠstvÄĽ": 8041,
      "Ġnoho": 8042,
      "ĠÅĻela": 8043,
      "Ġdrama": 8044,
      "ĠgÃ©": 8045,
      "Ġzuru": 8046,
      "Ġspala": 8047,
      "Ġchvilku": 8048,
      "lÃ³": 8049,
      "ĠtoÅ¡": 8050,
      "Ġtoky": 8051,
      "Ġnon": 8052,
      "Ġgor": 8053,
      "ĠzumÄĽl": 8054,
      "Ġtvoru": 8055,
      "ĠAAABBX": 8056,
      "Ġzhnu": 8057,
      "Ġdivu": 8058,
      "Ġkres": 8059,
      "Ġzbav": 8060,
      "ĠÅ¡ÅĪÅ¯": 8061,
      "Ġkoh": 8062,
      "ĠÄįec": 8063,
      "Ġmota": 8064,
      "ĠtÃ©r": 8065,
      "Ġdrahu": 8066,
      "ĠvÄĽÄįny": 8067,
      "sit": 8068,
      "ÅĻan": 8069,
      "ĠÅ¡atÄĽ": 8070,
      "Ġvchmu": 8071,
      "ĠpÅĻano": 8072,
      "ĠzÄįech": 8073,
      "ĠÄįasto": 8074,
      "Ġrhyt": 8075,
      "Ġzchu": 8076,
      "ĠÅ¡ero": 8077,
      "Ġcis": 8078,
      "Ġtran": 8079,
      "ĠmdlÃ½m": 8080,
      "Ġsvitem": 8081,
      "ĠhÅĻÃ¡l": 8082,
      "ĠÄįtou": 8083,
      "ĠÅĻkou": 8084,
      "Ġceno": 8085,
      "Ġcenu": 8086,
      "ĠtoÅĪ": 8087,
      "Ġskte": 8088,
      "Ġvysk": 8089,
      "Ġbohou": 8090,
      "Ġspjat": 8091,
      "Ġkryta": 8092,
      "Ġvesna": 8093,
      "Ġbasni": 8094,
      "ĠknÃ½ch": 8095,
      "Ġsry": 8096,
      "Ġbob": 8097,
      "Ġpravo": 8098,
      "Ġbinach": 8099,
      "Ġstolem": 8100,
      "Ġhrali": 8101,
      "Ġdvoru": 8102,
      "ĠchÃ½Å¾": 8103,
      "Ġvtisk": 8104,
      "ĠnoÄįni": 8105,
      "Ġvsad": 8106,
      "ĠskÅĻÃŃt": 8107,
      "Ġtahle": 8108,
      "Ġskvouci": 8109,
      "Ġmysl": 8110,
      "os": 8111,
      "Ġkce": 8112,
      "ĠÅĻÃ¡t": 8113,
      "Ġminu": 8114,
      "ĠÅ¾izni": 8115,
      "Ġplan": 8116,
      "Ġsod": 8117,
      "Ġzila": 8118,
      "ĠstÅĻet": 8119,
      "ĠstÄĽna": 8120,
      "Ġrouci": 8121,
      "ĠshnÄĽ": 8122,
      "Ġpalu": 8123,
      "Ġpliv": 8124,
      "Ġmusim": 8125,
      "ĠsÅ¥a": 8126,
      "ĠÅĻisÅ¥": 8127,
      "Ġchory": 8128,
      "Ġvdnech": 8129,
      "Ġzlomi": 8130,
      "vur": 8131,
      "Ġshra": 8132,
      "Ġjarem": 8133,
      "Ġrychle": 8134,
      "ĠvznÃ©st": 8135,
      "Ġjvi": 8136,
      "Ġai": 8137,
      "Ġleko": 8138,
      "ĠroÅ¡": 8139,
      "ĠvÄĽnec": 8140,
      "ĠdÄĽÅ¥": 8141,
      "Ġnuta": 8142,
      "ĠmÃŃch": 8143,
      "Ġvul": 8144,
      "Ġksmichu": 8145,
      "Ġchladu": 8146,
      "ĠhnÄĽte": 8147,
      "Ġvdov": 8148,
      "ĠsÄįela": 8149,
      "ĠmÅĻit": 8150,
      "Ġjic": 8151,
      "Ġdeho": 8152,
      "Ġbon": 8153,
      "Ġdim": 8154,
      "Ġluny": 8155,
      "ĠvkÅĻÃŃ": 8156,
      "Ġkrovy": 8157,
      "Ġcitem": 8158,
      "Ġmdlob": 8159,
      "Ġnane": 8160,
      "Ġdolem": 8161,
      "Ġviska": 8162,
      "Ġvzy": 8163,
      "Ġmany": 8164,
      "Ġzeti": 8165,
      "Ġvper": 8166,
      "ĠpÃ¡Å¡": 8167,
      "Ġzradu": 8168,
      "Ġspoj": 8169,
      "ĠonÅ¥": 8170,
      "ĠzkvÄĽt": 8171,
      "Ġsmil": 8172,
      "ĠhÅĻiv": 8173,
      "ĠÅ¡kÃ¡": 8174,
      "ĠcvrÄį": 8175,
      "ĠlstÃŃ": 8176,
      "Ġnoval": 8177,
      "ĠjÃŃÄį": 8178,
      "ĠÅ¡eli": 8179,
      "Ġzeb": 8180,
      "ĠÅĻeku": 8181,
      "Ġkralu": 8182,
      "Ġvraj": 8183,
      "Ġzoval": 8184,
      "ĠmarnÄĽ": 8185,
      "Ġchvale": 8186,
      "ĠbrÃ©m": 8187,
      "Ġnikum": 8188,
      "ĠdcÅ¯": 8189,
      "ĠleÄı": 8190,
      "ĠkoÅ¡i": 8191,
      "Ġlavy": 8192,
      "Ġlami": 8193,
      "ĠvÃŃÅ¾": 8194,
      "Ġnulost": 8195,
      "ĠzblÃ¡": 8196,
      "Ġvstr": 8197,
      "ĠABBAAB": 8198,
      "Ġmls": 8199,
      "ĠÅĻadou": 8200,
      "Ġstydi": 8201,
      "Ġproudi": 8202,
      "ĠÅ¡epta": 8203,
      "Ġspit": 8204,
      "Ġstrhl": 8205,
      "Ġschyli": 8206,
      "ĠtÄĽp": 8207,
      "Ġboce": 8208,
      "ĠtÅĻej": 8209,
      "ĠneÄįne": 8210,
      "Ġzhloub": 8211,
      "Ġmnil": 8212,
      "Ġpau": 8213,
      "Ġtymi": 8214,
      "ĠÃºÄį": 8215,
      "Ġbesy": 8216,
      "ĠÄıoun": 8217,
      "ĠÅ¡ov": 8218,
      "Ġzjich": 8219,
      "Ġvchazi": 8220,
      "ĠsvÅ¡e": 8221,
      "ĠteÅĻi": 8222,
      "Ġtiva": 8223,
      "Ġvenou": 8224,
      "ĠvÄĽda": 8225,
      "Ġmovu": 8226,
      "ĠhavÄĽ": 8227,
      "ĠpÅĻih": 8228,
      "Ġstroje": 8229,
      "Ġtravou": 8230,
      "ĠÅ¥at": 8231,
      "Ġjvice": 8232,
      "zne": 8233,
      "Äįem": 8234,
      "ĠvisÅ¥": 8235,
      "Ġpilo": 8236,
      "Ġvtvr": 8237,
      "Ġtemne": 8238,
      "Ġhoust": 8239,
      "Ġzust": 8240,
      "ĠÅ¾asu": 8241,
      "Ġkrytu": 8242,
      "ĠsmÃŃÅ¡": 8243,
      "ĠvÄĽtÅĻi": 8244,
      "Ġchmuru": 8245,
      "ĠbiÄįku": 8246,
      "ĠtÄĽjÅ¡i": 8247,
      "ĠzhouÅ¡": 8248,
      "Ġzmlh": 8249,
      "ĠvtÅ¯ÅĪ": 8250,
      "ĠlpÃŃ": 8251,
      "Ġcli": 8252,
      "ĠÄįme": 8253,
      "ĠliÄįek": 8254,
      "Ġlace": 8255,
      "ĠvÄĽstu": 8256,
      "Ġvyska": 8257,
      "Ġsaji": 8258,
      "ĠbanÄĽ": 8259,
      "Ġspanek": 8260,
      "ĠÅ¡an": 8261,
      "Ġtichem": 8262,
      "ĠnÄĽjÅ¡im": 8263,
      "ĠvÄĽÅĻim": 8264,
      "bro": 8265,
      "ĠtnÃ©": 8266,
      "Ġrre": 8267,
      "Ġamen": 8268,
      "Ġvzdou": 8269,
      "ĠvÅ¡er": 8270,
      "Ġpene": 8271,
      "ĠtÃ©l": 8272,
      "ĠkraÄįel": 8273,
      "Ġhrn": 8274,
      "ĠvzÃ¡ÅĻ": 8275,
      "ĠdlÃŃt": 8276,
      "Ġvsed": 8277,
      "ĠzhyÅĪ": 8278,
      "Ġtahnou": 8279,
      "Ġvstinu": 8280,
      "Ġroka": 8281,
      "Ġstot": 8282,
      "ĠstÅĻej": 8283,
      "zich": 8284,
      "ĠhrÃ¡ch": 8285,
      "ĠslÃŃÄį": 8286,
      "ĠstejnÄĽ": 8287,
      "Ġvital": 8288,
      "ĠÅ¡kra": 8289,
      "ĠstrÃ½Äį": 8290,
      "Ġsteskem": 8291,
      "Ġschvati": 8292,
      "cky": 8293,
      "Ġone": 8294,
      "Ġzau": 8295,
      "ĠnÄĽlo": 8296,
      "ĠÅĻizy": 8297,
      "Ġfli": 8298,
      "Ġvus": 8299,
      "Ġvlady": 8300,
      "ĠbranÄĽ": 8301,
      "Ġvtla": 8302,
      "ĠvmÅ¾ik": 8303,
      "ĠpozdÄĽ": 8304,
      "Ġklesl": 8305,
      "Ġkbohu": 8306,
      "ĠzdÅĻÃŃm": 8307,
      "Ġzcu": 8308,
      "Ġseje": 8309,
      "Ġleha": 8310,
      "Ġvest": 8311,
      "ĠvÄĽÅ¥": 8312,
      "ĠtÄĽte": 8313,
      "Ġzelo": 8314,
      "Ġzeno": 8315,
      "Ġdas": 8316,
      "Ġdaru": 8317,
      "Ġprahne": 8318,
      "ĠvdÃ½": 8319,
      "Ġsrdcem": 8320,
      "Ġklamy": 8321,
      "Ġzhe": 8322,
      "ĠshlÃ©": 8323,
      "ĠvniÅ¾": 8324,
      "Ġvzim": 8325,
      "Ġvzit": 8326,
      "Ġsda": 8327,
      "ĠvÅĪÃ¡": 8328,
      "lec": 8329,
      "Ġlity": 8330,
      "Ġzala": 8331,
      "Ġlomi": 8332,
      "ĠÅĻiÄı": 8333,
      "mech": 8334,
      "Ġblahu": 8335,
      "Ġzloby": 8336,
      "ĠpÅĻÃ¡h": 8337,
      "Ġmohla": 8338,
      "Ġstkvi": 8339,
      "ĠÄįtvrt": 8340,
      "kli": 8341,
      "Ġdvr": 8342,
      "ABA": 8343,
      "ĠÄįiha": 8344,
      "Ġzory": 8345,
      "Ġvesla": 8346,
      "Ġsickrat": 8347,
      "ĠsmrÃ¡": 8348,
      "Ġchas": 8349,
      "ĠstÅĻen": 8350,
      "Ġpychy": 8351,
      "ĠdlÃ¡Å¾": 8352,
      "ĠvznÄĽtu": 8353,
      "ĠmnÃŃm": 8354,
      "Ġkoho": 8355,
      "Ġjisti": 8356,
      "Ġtai": 8357,
      "ĠtrÃ³": 8358,
      "Ġchovat": 8359,
      "Ġhuj": 8360,
      "Ġziral": 8361,
      "ĠÅ¾ab": 8362,
      "Ġklon": 8363,
      "Ġprus": 8364,
      "Ġzbude": 8365,
      "ĠzÅĻidla": 8366,
      "ĠvtÃŃs": 8367,
      "ĠstÅĻasa": 8368,
      "Ġtmi": 8369,
      "ĠpoÄı": 8370,
      "Ġkovat": 8371,
      "Ġhovor": 8372,
      "Ġlinu": 8373,
      "ĠjiÅĻi": 8374,
      "Ġpata": 8375,
      "ĠdyÅ¡i": 8376,
      "Ġhadi": 8377,
      "Ġmyka": 8378,
      "Ġretem": 8379,
      "Ġchav": 8380,
      "Ġhouk": 8381,
      "Ġvelka": 8382,
      "Ġvleh": 8383,
      "Ġschnou": 8384,
      "ĠkneÅ¡": 8385,
      "ĠvhoÅĻ": 8386,
      "ĠzvÃŃÅ¡": 8387,
      "ĠmÅĻiÅ¾i": 8388,
      "ĠkspÃ¡": 8389,
      "ĠsÅĻi": 8390,
      "ĠsÄįi": 8391,
      "Ġllen": 8392,
      "ĠzÅ¾": 8393,
      "lach": 8394,
      "Ġnovem": 8395,
      "ĠviÅ¥": 8396,
      "Ġhami": 8397,
      "Ġvlaji": 8398,
      "ĠziÅ¡": 8399,
      "Ġvrazi": 8400,
      "Ġsvoj": 8401,
      "ĠÅĻan": 8402,
      "Ġvkar": 8403,
      "Ġstrachem": 8404,
      "ĠvzrÅ¯st": 8405,
      "ĠksluÅ¾": 8406,
      "ĠoÅĻi": 8407,
      "Ġtot": 8408,
      "ĠlaÅĻi": 8409,
      "Ġvoji": 8410,
      "ĠpaÅĪ": 8411,
      "Ġberu": 8412,
      "ĠÅ¡ile": 8413,
      "ĠbÃ¡r": 8414,
      "Ġblaho": 8415,
      "Ġhrb": 8416,
      "Ġhen": 8417,
      "ĠvÅĻena": 8418,
      "Ġzhli": 8419,
      "Ġzloba": 8420,
      "ĠtÅĻima": 8421,
      "Ġvlidny": 8422,
      "ĠkÅĻovi": 8423,
      "Ġsjas": 8424,
      "Ġnavist": 8425,
      "Ġmzdu": 8426,
      "Ġmaru": 8427,
      "Ġsmla": 8428,
      "ĠtouÄį": 8429,
      "Ġslovi": 8430,
      "Ġsvati": 8431,
      "Ġkroj": 8432,
      "Ġkryji": 8433,
      "Ġsplyval": 8434,
      "Ġhmot": 8435,
      "ĠstvÃ½m": 8436,
      "Ġstret": 8437,
      "Ġcej": 8438,
      "Ġlaj": 8439,
      "ĠtÄĽli": 8440,
      "Ġbum": 8441,
      "Ġkoupa": 8442,
      "Ġhynu": 8443,
      "ĠvÅ¾ha": 8444,
      "Ġznas": 8445,
      "Ġznaji": 8446,
      "ĠÄįtr": 8447,
      "ĠvdeÅ¡": 8448,
      "Ġlaje": 8449,
      "ĠvoÄı": 8450,
      "Ġprosty": 8451,
      "Ġzkni": 8452,
      "Ġplesy": 8453,
      "Ġkvitky": 8454,
      "Ġvinne": 8455,
      "Ġmrazem": 8456,
      "ĠknÃ½m": 8457,
      "hrad": 8458,
      "ĠkoÅĻan": 8459,
      "ĠmoÅĻem": 8460,
      "Ġmac": 8461,
      "ĠhynÄĽ": 8462,
      "Ġdarem": 8463,
      "ĠvlÃŃÄį": 8464,
      "ĠvÃºc": 8465,
      "Ġskel": 8466,
      "Ġlichu": 8467,
      "Ġtanu": 8468,
      "nÄĽz": 8469,
      "Ġprodli": 8470,
      "Ġhana": 8471,
      "Ġplaz": 8472,
      "ĠjasnÄĽ": 8473,
      "ĠtÅĻÃŃÅ¡Å¥": 8474,
      "Ġvejte": 8475,
      "ĠtiÄįku": 8476,
      "ĠXABB": 8477,
      "tvi": 8478,
      "Ġdvur": 8479,
      "ĠÅ¡lou": 8480,
      "ĠÅ¡eÄı": 8481,
      "ruh": 8482,
      "Ġvalu": 8483,
      "Ġtral": 8484,
      "Ġdliva": 8485,
      "Ġjinak": 8486,
      "ĠvadÅ¾": 8487,
      "ĠbiÄįka": 8488,
      "ĠtevÅĻel": 8489,
      "ĠdevÅ¡ad": 8490,
      "Ġvples": 8491,
      "ĠnaÅ¥": 8492,
      "Ġvaze": 8493,
      "ĠfÄĽ": 8494,
      "ĠstÃ¡m": 8495,
      "Ġslok": 8496,
      "ĠstraÅĪ": 8497,
      "Ġdliv": 8498,
      "ĠvloÅ¾i": 8499,
      "Ġprinc": 8500,
      "Ġviva": 8501,
      "Ġduhy": 8502,
      "Ġbesich": 8503,
      "Ġzdla": 8504,
      "Ġsun": 8505,
      "Ġkruhy": 8506,
      "Ġshl": 8507,
      "ĠtÄĽÅ¾ka": 8508,
      "Ġzjevu": 8509,
      "Ġpsano": 8510,
      "Ġgur": 8511,
      "Ġzahrad": 8512,
      "ĠthÃ©": 8513,
      "Ġlinou": 8514,
      "Ġveno": 8515,
      "ĠjÃ¡Å¥": 8516,
      "Ġchasu": 8517,
      "ĠstraÅ¾e": 8518,
      "ĠvÄĽÄįnÄĽ": 8519,
      "Ġskost": 8520,
      "ĠniÄįko": 8521,
      "ĠoltaÅĻ": 8522,
      "ĠÅ¡atem": 8523,
      "ĠchtÃŃÄį": 8524,
      "ĠspÅĻeÅ¾": 8525,
      "Ġroby": 8526,
      "ĠtavÄĽ": 8527,
      "Ġkymi": 8528,
      "Ġboty": 8529,
      "Ġstili": 8530,
      "Ġtelne": 8531,
      "ĠkpÃŃs": 8532,
      "Ġlovna": 8533,
      "ĠhÅĻej": 8534,
      "pan": 8535,
      "ĠskrÃ½t": 8536,
      "ĠmraÄįna": 8537,
      "ĠbrouÄį": 8538,
      "ĠktrÅ¯": 8539,
      "ĠÅ¡Ã¡k": 8540,
      "ĠzchvÃ¡": 8541,
      "ĠhÅĻmÃŃt": 8542,
      "Ġsfer": 8543,
      "ĠXAAXXX": 8544,
      "Ġcon": 8545,
      "Ġtyl": 8546,
      "Ġvsr": 8547,
      "Ġplany": 8548,
      "ĠvÅĻelo": 8549,
      "Ġvduchu": 8550,
      "Ġpravda": 8551,
      "Ġbliz": 8552,
      "Ġlebce": 8553,
      "Ġvprachu": 8554,
      "Ġllah": 8555,
      "ĠtiÅ¥": 8556,
      "Ġrovat": 8557,
      "Ġmenou": 8558,
      "ĠlÃ¡r": 8559,
      "Ġbam": 8560,
      "Ġzradi": 8561,
      "Ġmlazi": 8562,
      "ĠkÅĻiky": 8563,
      "Ġmatko": 8564,
      "Ġmnohem": 8565,
      "Ġksa": 8566,
      "Ġsnici": 8567,
      "Ġtman": 8568,
      "ĠvchÃ½": 8569,
      "Ġtkliva": 8570,
      "Ġheslo": 8571,
      "Ġtovi": 8572,
      "Ġski": 8573,
      "Ġvady": 8574,
      "Ġboke": 8575,
      "Ġjako": 8576,
      "ĠradÄĽ": 8577,
      "ĠÄįiÅ¾": 8578,
      "Ġsmlu": 8579,
      "Ġsluh": 8580,
      "Ġzbr": 8581,
      "Ġsvar": 8582,
      "ĠstÅĻeh": 8583,
      "Ġspasa": 8584,
      "ĠÅ¾Ã¡t": 8585,
      "ĠbÅĻez": 8586,
      "sten": 8587,
      "ĠklÃ¡st": 8588,
      "ĠmÄĽkky": 8589,
      "ĠmÄĽstu": 8590,
      "ĠmÄĽstÄĽ": 8591,
      "ĠbudeÅ¡": 8592,
      "Ġsplet": 8593,
      "Ġnahla": 8594,
      "Ġvbrz": 8595,
      "Ġlne": 8596,
      "Å¡ka": 8597,
      "Ġpota": 8598,
      "Ġsvu": 8599,
      "ĠkanÄĽ": 8600,
      "Ġdele": 8601,
      "Ġmavy": 8602,
      "ĠpÃŃc": 8603,
      "Ġvalem": 8604,
      "Ġspov": 8605,
      "Ġchyby": 8606,
      "ĠkroÄįi": 8607,
      "Ġskorem": 8608,
      "ĠtisnÄĽ": 8609,
      "Ġlistu": 8610,
      "Ġtret": 8611,
      "Ġrostou": 8612,
      "ĠvplÃ¡Äį": 8613,
      "mem": 8614,
      "ĠmÃº": 8615,
      "Ġkonu": 8616,
      "ĠnÃ½ÅĻ": 8617,
      "ĠvÄĽÅĻe": 8618,
      "Ġkynou": 8619,
      "ĠbeÅĻ": 8620,
      "Ġsbu": 8621,
      "Ġzvani": 8622,
      "Ġfrak": 8623,
      "ĠvdÃŃl": 8624,
      "Ġnama": 8625,
      "Ġdovat": 8626,
      "Ġruny": 8627,
      "ĠÅ¾ivÄĽ": 8628,
      "ĠbuÅ¡": 8629,
      "Ġlum": 8630,
      "Ġfem": 8631,
      "Ġzon": 8632,
      "ĠkÅĻiÄį": 8633,
      "Ġzjevy": 8634,
      "Ġblohu": 8635,
      "ĠchÅĻice": 8636,
      "ĠctÃŃt": 8637,
      "Ġhn": 8638,
      "Ġtoh": 8639,
      "Ġninu": 8640,
      "ĠniÄįi": 8641,
      "Ġvory": 8642,
      "Ġhladu": 8643,
      "Ġred": 8644,
      "Ġstudi": 8645,
      "Ġnesa": 8646,
      "ĠbrÃ¡n": 8647,
      "ĠvlÃ¡l": 8648,
      "ĠzmÄĽti": 8649,
      "Ġzbudi": 8650,
      "Ġbrouk": 8651,
      "ĠplÃ©m": 8652,
      "ĠspÄĽchem": 8653,
      "ĠvtvaÅĻ": 8654,
      "ym": 8655,
      "Ġniz": 8656,
      "ĠtaÅ¾e": 8657,
      "Ġzvem": 8658,
      "Ġchudou": 8659,
      "ĠzÃŃk": 8660,
      "Ġblahem": 8661,
      "Ġvklu": 8662,
      "Ġvstej": 8663,
      "Ġpravdu": 8664,
      "Ġknihu": 8665,
      "ĠvyÅ¡Å¡i": 8666,
      "Ġhnizda": 8667,
      "ĠvaÅ¡nÄĽ": 8668,
      "Ġhora": 8669,
      "Ġtih": 8670,
      "ĠÅ¾ely": 8671,
      "Ġhlady": 8672,
      "Ġbavy": 8673,
      "ĠsouÅ¾i": 8674,
      "ĠABBAAX": 8675,
      "Ġskoku": 8676,
      "ĠÅ¡las": 8677,
      "Ġtryzni": 8678,
      "Ġkvasu": 8679,
      "Ġumr": 8680,
      "ĠkrÃ½t": 8681,
      "Ġpeklo": 8682,
      "Ġlenym": 8683,
      "ĠÅ¡eti": 8684,
      "lon": 8685,
      "ĠÅ¾ite": 8686,
      "Ġkrt": 8687,
      "Ġhyba": 8688,
      "Ġvlnach": 8689,
      "hev": 8690,
      "Ġkrasnou": 8691,
      "ĠvÄįlo": 8692,
      "ĠÅ¡van": 8693,
      "ĠbÅĻa": 8694,
      "Ġleto": 8695,
      "ĠliÅ¥": 8696,
      "Ġjinu": 8697,
      "Ġkanu": 8698,
      "ĠmoÅĪ": 8699,
      "Ġstiska": 8700,
      "Ġbada": 8701,
      "ĠtÃ½n": 8702,
      "Ġchytil": 8703,
      "Ġblek": 8704,
      "Ġdlej": 8705,
      "Ġzhrd": 8706,
      "Ġhlednou": 8707,
      "ĠneÄįnÄĽ": 8708,
      "Ġdobou": 8709,
      "Ġkvetly": 8710,
      "Ġteskne": 8711,
      "ĠzaÅ¡ti": 8712,
      "Ġtas": 8713,
      "ĠviÄįek": 8714,
      "ĠABX": 8715,
      "Ġstiti": 8716,
      "Ġprk": 8717,
      "Ġmyli": 8718,
      "skÃ©": 8719,
      "Ġdivou": 8720,
      "ĠotÄįe": 8721,
      "ĠslouÅ¾il": 8722,
      "Ġvodni": 8723,
      "ĠÅ¡lenka": 8724,
      "Ġhostem": 8725,
      "ĠsÃºc": 8726,
      "Ġsvaly": 8727,
      "ĠsvÅ¯": 8728,
      "ĠhodÄĽ": 8729,
      "Ġnotu": 8730,
      "Ġvodil": 8731,
      "Ġsau": 8732,
      "ĠÅ¡ilo": 8733,
      "ĠvÄĽÄįnost": 8734,
      "Ġtelny": 8735,
      "ĠzÅĻeni": 8736,
      "Ġlostne": 8737,
      "Ġlovstvi": 8738,
      "Ġkladem": 8739,
      "ĠÅĪÃ¡k": 8740,
      "Ġryth": 8741,
      "ĠpÅĻer": 8742,
      "Ġcot": 8743,
      "ĠreÅ¾": 8744,
      "Ġchab": 8745,
      "Ġchani": 8746,
      "Ġhraz": 8747,
      "Ġjemna": 8748,
      "Ġvhrou": 8749,
      "ĠtroÅ¡": 8750,
      "Ġsrb": 8751,
      "Ġzbuj": 8752,
      "ĠplouÅ¾i": 8753,
      "ĠvÅ¾Ã¡r": 8754,
      "ĠvdÅ¯l": 8755,
      "ĠsfÃ©r": 8756,
      "Ġukol": 8757,
      "ĠvÄĽry": 8758,
      "Ġvich": 8759,
      "rych": 8760,
      "Ġkroji": 8761,
      "ĠzdÃ¡t": 8762,
      "Ġbloni": 8763,
      "Ġzbylo": 8764,
      "ĠÅ¡pe": 8765,
      "Ġstupu": 8766,
      "Ġsnuje": 8767,
      "Ġvezdy": 8768,
      "ĠvrÅ¯z": 8769,
      "ĠÅ¡ÅĪu": 8770,
      "ll": 8771,
      "ĠÅ¡to": 8772,
      "Ġlibek": 8773,
      "Ġvoze": 8774,
      "Ġkuru": 8775,
      "Ġkusy": 8776,
      "Ġbolest": 8777,
      "ĠspÅ¯": 8778,
      "ĠpÅĻede": 8779,
      "ĠkÃ¡l": 8780,
      "Ġpoda": 8781,
      "mat": 8782,
      "ĠkÅĻidlech": 8783,
      "Ġtelstvi": 8784,
      "Ġtlak": 8785,
      "ĠzvÄĽna": 8786,
      "ĠznaÄį": 8787,
      "Ġzmaru": 8788,
      "ĠliÄįko": 8789,
      "Ġvtaji": 8790,
      "ĠctÃŃm": 8791,
      "Ġlibil": 8792,
      "Ġtoka": 8793,
      "Ġtato": 8794,
      "ĠÄįim": 8795,
      "ÄıÃ¡": 8796,
      "ĠpÃŃk": 8797,
      "ĠÄįatku": 8798,
      "ĠhyÅĻi": 8799,
      "ĠskryÅ¡e": 8800,
      "ĠvÅĻava": 8801,
      "ĠschrÃ¡n": 8802,
      "Ġmirat": 8803,
      "Ġlab": 8804,
      "ĠÅ¾ici": 8805,
      "ĠÅ¡ÃŃn": 8806,
      "Ġryn": 8807,
      "Ġbrach": 8808,
      "Ġblaka": 8809,
      "Ġneslo": 8810,
      "Ġkpi": 8811,
      "Ġsnum": 8812,
      "ouÄį": 8813,
      "Ġrvat": 8814,
      "Ġselo": 8815,
      "Ġlicha": 8816,
      "Ġstatek": 8817,
      "Ġravy": 8818,
      "ĠÄįis": 8819,
      "ĠkleÄį": 8820,
      "ĠgÅ¯": 8821,
      "Ġkdosi": 8822,
      "ĠtÄĽzem": 8823,
      "Ġvklin": 8824,
      "ĠvjichÅ¾": 8825,
      "ĠtkvÄĽl": 8826,
      "ĠdÅ¡ti": 8827,
      "ĠmÄĽnu": 8828,
      "Ġtyru": 8829,
      "vech": 8830,
      "Ġhynul": 8831,
      "Ġtravu": 8832,
      "Ġvlep": 8833,
      "ĠÅ¡pl": 8834,
      "ĠbÅĻimÄĽ": 8835,
      "Ġskyta": 8836,
      "ĠzÅĻiÅ¡": 8837,
      "Ġznu": 8838,
      "Ġkynul": 8839,
      "Ġviji": 8840,
      "Ġvzno": 8841,
      "ĠmeÄįi": 8842,
      "ĠÄįice": 8843,
      "Ġtyli": 8844,
      "Ġzvali": 8845,
      "ĠÅ¡inou": 8846,
      "ĠhledÄĽt": 8847,
      "ĠpÄĽly": 8848,
      "ĠstrasÅ¥": 8849,
      "ĠplÃ½ch": 8850,
      "ĠprÃ¡t": 8851,
      "Ġnezv": 8852,
      "Ġbesku": 8853,
      "ĠviÄįky": 8854,
      "Ġspros": 8855,
      "Ġvmrak": 8856,
      "Ġbrys": 8857,
      "ĠdÅ¡": 8858,
      "Ġmetu": 8859,
      "ĠdÃ¡Å¾": 8860,
      "Ġzici": 8861,
      "ĠkÅĻikem": 8862,
      "ĠkÅĻidel": 8863,
      "Ġnikdo": 8864,
      "ĠsnÃŃÅ¡": 8865,
      "Ġrodne": 8866,
      "ĠblÃ½Å¡": 8867,
      "Ġvskle": 8868,
      "rt": 8869,
      "ĠtcÅ¯": 8870,
      "ĠÅ¡tu": 8871,
      "ĠsiÅ¥": 8872,
      "Ġtuze": 8873,
      "Ġstany": 8874,
      "ĠdaÅ¡": 8875,
      "Ġberou": 8876,
      "ĠÅĻid": 8877,
      "Ġzbli": 8878,
      "Ġpadl": 8879,
      "Ġplyva": 8880,
      "ĠvÅĻÃŃs": 8881,
      "ĠvlÅ¯Å¾": 8882,
      "hÅĻ": 8883,
      "Ġrdi": 8884,
      "Ġrosi": 8885,
      "Ġstare": 8886,
      "Ġcovat": 8887,
      "Ġbledou": 8888,
      "Ġzustal": 8889,
      "Ġkpe": 8890,
      "Ġsmati": 8891,
      "ĠvÄĽnci": 8892,
      "Ġdavam": 8893,
      "ĠÅ¥uk": 8894,
      "ĠnaÅĻ": 8895,
      "Ġposti": 8896,
      "Ġrohu": 8897,
      "ĠmadÄĽ": 8898,
      "ĠÅ¡iny": 8899,
      "Ġlus": 8900,
      "Ġnebem": 8901,
      "ĠsnÄĽhy": 8902,
      "tov": 8903,
      "Ġtryska": 8904,
      "ĠsbÃ¡z": 8905,
      "aka": 8906,
      "ĠhonÄĽ": 8907,
      "Ġlite": 8908,
      "ĠÅ¾eji": 8909,
      "Ġrovu": 8910,
      "ĠtaÅ¡": 8911,
      "ĠvitÄĽ": 8912,
      "Ġtrva": 8913,
      "ĠstoÅĻe": 8914,
      "ĠryÅ¡": 8915,
      "ĠpÃ¡l": 8916,
      "Ġsluchu": 8917,
      "Ġhrany": 8918,
      "Ġvracel": 8919,
      "Ġnemo": 8920,
      "Ġtrudy": 8921,
      "ĠbliÅ¾il": 8922,
      "ĠÅ¡eptal": 8923,
      "ĠspatÅĻi": 8924,
      "Ġtahly": 8925,
      "ĠvbÃ¡s": 8926,
      "Ġpory": 8927,
      "Ġdova": 8928,
      "Ġtinu": 8929,
      "ĠmaÅ¥": 8930,
      "ĠbÄĽn": 8931,
      "Ġsov": 8932,
      "Ġchuzi": 8933,
      "Ġvalky": 8934,
      "Ġmrl": 8935,
      "Ġmnoha": 8936,
      "Ġtrudi": 8937,
      "Ġvlil": 8938,
      "Ġvzniti": 8939,
      "yl": 8940,
      "ĠstvÃ½ch": 8941,
      "Ġkatu": 8942,
      "ĠkuÅ¾e": 8943,
      "Ġsidla": 8944,
      "ĠdaÅ¥": 8945,
      "ĠstiÅ¾": 8946,
      "Ġhava": 8947,
      "ĠluÅ¾": 8948,
      "ĠzlatÄĽ": 8949,
      "Ġstoupi": 8950,
      "ĠanÅ¥": 8951,
      "Ġkvel": 8952,
      "Ġkpou": 8953,
      "ĠvÄĽjÅ¡i": 8954,
      "ĠAAAXBB": 8955,
      "ĠpÅĻisnÄĽ": 8956,
      "ĠdÄĽne": 8957,
      "Ġvity": 8958,
      "ĠboÅ¡": 8959,
      "ĠhledÄĽ": 8960,
      "ĠvtvÅ¯j": 8961,
      "ĠzhÅĻe": 8962,
      "Ġskryla": 8963,
      "ĠkÅĻeÄį": 8964,
      "Ġdcery": 8965,
      "Ġhlod": 8966,
      "Ġvrum": 8967,
      "Ġgie": 8968,
      "Ġhadce": 8969,
      "Ġnedal": 8970,
      "ĠpliÄį": 8971,
      "ĠdnÃŃm": 8972,
      "Ġmrouci": 8973,
      "Ġnahy": 8974,
      "ĠchÃ³": 8975,
      "ĠleÅ¾el": 8976,
      "Ġzali": 8977,
      "ĠdomÄĽ": 8978,
      "ĠslÃ½m": 8979,
      "Ġmol": 8980,
      "ĠbaÅ¡": 8981,
      "ĠtrÄį": 8982,
      "Ġvplu": 8983,
      "Ġrozum": 8984,
      "Ġzrada": 8985,
      "Ġhralo": 8986,
      "Ġvklen": 8987,
      "Ġslel": 8988,
      "Ġzhrou": 8989,
      "Ġpoznal": 8990,
      "ĠzpÄĽvem": 8991,
      "ĠvzhlÃ©": 8992,
      "Ġskemu": 8993,
      "Ġzac": 8994,
      "ĠslÅ¯m": 8995,
      "ĠjÃŃÅĻ": 8996,
      "ĠdÄĽlu": 8997,
      "ĠAABBBX": 8998,
      "Ġhyly": 8999,
      "ĠvÅ¾er": 9000,
      "ĠvÅĻeny": 9001,
      "ĠkÅĻidly": 9002,
      "Ġcas": 9003,
      "Ġskane": 9004,
      "Ġzbyly": 9005,
      "ĠÄįinku": 9006,
      "ĠchtÃŃc": 9007,
      "ĠnaÅ¡ich": 9008,
      "Ġlnu": 9009,
      "ĠÅ¾ne": 9010,
      "ĠkoÅĻen": 9011,
      "ĠvavÄĽ": 9012,
      "Ġprsa": 9013,
      "Ġvelke": 9014,
      "Ġvhvoz": 9015,
      "ĠÅ¾adal": 9016,
      "Ġplete": 9017,
      "Ġplese": 9018,
      "Ġtekla": 9019,
      "Ġvzav": 9020,
      "Ġpalem": 9021,
      "Ġmdly": 9022,
      "ĠzdÄĽt": 9023,
      "Ġzhyne": 9024,
      "ĠnÄĽjÅ¡ich": 9025,
      "ĠtviÄį": 9026,
      "Ġminat": 9027,
      "bat": 9028,
      "ĠvvÄĽ": 9029,
      "Ġveh": 9030,
      "ĠdivÄĽ": 9031,
      "Ġbrz": 9032,
      "ĠslÃ¡n": 9033,
      "ĠshliÅ¾i": 9034,
      "ĠÅ¡ach": 9035,
      "Ġblizka": 9036,
      "Ġhezky": 9037,
      "Ġbojim": 9038,
      "Ġvpur": 9039,
      "Ġsvatych": 9040,
      "ĠÄįtver": 9041,
      "Ġchmel": 9042,
      "ĠkplaÄįi": 9043,
      "Ġck": 9044,
      "ĠÄįle": 9045,
      "Ġmotu": 9046,
      "Ġpral": 9047,
      "Ġvdr": 9048,
      "CCA": 9049,
      "ĠmnÄĽl": 9050,
      "Ġnesli": 9051,
      "ĠstrÅ¾i": 9052,
      "Ġskalu": 9053,
      "Ġhliny": 9054,
      "Ġzcest": 9055,
      "Ġpravim": 9056,
      "Ġzluk": 9057,
      "ĠzhlÃŃd": 9058,
      "ĠzÄįa": 9059,
      "ĠABBCCA": 9060,
      "ĠzhvÄĽzd": 9061,
      "Ġbvi": 9062,
      "Ġsvle": 9063,
      "ĠnÄĽno": 9064,
      "Ġladu": 9065,
      "ĠvÃŃch": 9066,
      "ĠvplÃ©": 9067,
      "ĠAABBAA": 9068,
      "ved": 9069,
      "ĠdraÄįi": 9070,
      "Ġsvatem": 9071,
      "Ġslila": 9072,
      "Ġklonil": 9073,
      "kop": 9074,
      "ĠpÄĽkne": 9075,
      "Ġcouv": 9076,
      "Ġvzmar": 9077,
      "Ġlymp": 9078,
      "Ġjisty": 9079,
      "Ġskali": 9080,
      "Ġsoch": 9081,
      "Ġhrani": 9082,
      "Ġzuj": 9083,
      "vÃ¡t": 9084,
      "AXB": 9085,
      "Ġbrazem": 9086,
      "Ġsmavy": 9087,
      "ĠvÅĻavu": 9088,
      "ĠspouÅ¡ti": 9089,
      "Ġhold": 9090,
      "Ġvzdory": 9091,
      "Ġsavad": 9092,
      "Ġnevim": 9093,
      "Ġslze": 9094,
      "Ġul": 9095,
      "Ġulic": 9096,
      "Ġmana": 9097,
      "Ġprsty": 9098,
      "Ġbiha": 9099,
      "Ġvtvou": 9100,
      "Ġpusty": 9101,
      "Ġzradce": 9102,
      "ĠÄįerem": 9103,
      "Ġvnebi": 9104,
      "ĠÅ¾alem": 9105,
      "Ġvesny": 9106,
      "Ġbrazy": 9107,
      "ĠÅ¡etÅĻ": 9108,
      "ĠtuÅ¡il": 9109,
      "sou": 9110,
      "Ġrro": 9111,
      "Å¾ky": 9112,
      "Ġcenych": 9113,
      "Ġmeh": 9114,
      "Ġprosil": 9115,
      "Ġrust": 9116,
      "Äıa": 9117,
      "ĠÅ¡irem": 9118,
      "Ġres": 9119,
      "Ġzrani": 9120,
      "Ġbrlo": 9121,
      "Ġsvici": 9122,
      "ĠkÅĻisi": 9123,
      "ĠÅ¡uje": 9124,
      "Ġkple": 9125,
      "Ġsnese": 9126,
      "ĠdrÃ¡t": 9127,
      "Ġzkvetla": 9128,
      "Ġminku": 9129,
      "Ġstezku": 9130,
      "Ġjezd": 9131,
      "ĠneÄįek": 9132,
      "Ġnaven": 9133,
      "ĠÅ¡ma": 9134,
      "Ġtavi": 9135,
      "ĠvÄĽra": 9136,
      "Ġkyval": 9137,
      "ĠkuÅĪ": 9138,
      "ĠdÄĽny": 9139,
      "ĠkÅ¯r": 9140,
      "BAX": 9141,
      "Ġzlit": 9142,
      "Ġcym": 9143,
      "Ġgis": 9144,
      "ĠdlÃ¡m": 9145,
      "Ġprslek": 9146,
      "Ġkrasou": 9147,
      "Ġvskutku": 9148,
      "lej": 9149,
      "Ġvata": 9150,
      "ĠdÄĽdu": 9151,
      "Ġsmali": 9152,
      "Ġzmou": 9153,
      "ĠÄįerna": 9154,
      "Ġdruhe": 9155,
      "Ġheho": 9156,
      "Ġjemny": 9157,
      "ĠznÄĽho": 9158,
      "Ġsnesti": 9159,
      "Ġchodni": 9160,
      "Ġvpan": 9161,
      "Ġzmatek": 9162,
      "Ġvdar": 9163,
      "ĠzluÅ¡": 9164,
      "bor": 9165,
      "Ġlij": 9166,
      "Ġmane": 9167,
      "Ġsivy": 9168,
      "Ġsvatek": 9169,
      "Ġhlasky": 9170,
      "Ġslout": 9171,
      "Ġskryval": 9172,
      "Ġvsrdci": 9173,
      "ĠklÅ¯": 9174,
      "Ġbludy": 9175,
      "Ġhadku": 9176,
      "Ġvkraji": 9177,
      "Ġpisku": 9178,
      "Ġtiskne": 9179,
      "Ġzdych": 9180,
      "Ġminul": 9181,
      "ĠvoÅĻil": 9182,
      "Ġmenout": 9183,
      "tÄĽn": 9184,
      "ĠÄįata": 9185,
      "Ġryje": 9186,
      "ĠsvÄĽtlem": 9187,
      "Ġtruni": 9188,
      "ĠvÄĽrna": 9189,
      "Ġzchlad": 9190,
      "ĠsvraÅ¡": 9191,
      "hi": 9192,
      "Ġhokam": 9193,
      "ĠtaÄįi": 9194,
      "Ġvanem": 9195,
      "ĠÅ¡enych": 9196,
      "Ġstaji": 9197,
      "vaz": 9198,
      "ĠÅĻiÅ¥": 9199,
      "ĠvlaÄįi": 9200,
      "Ġvlasky": 9201,
      "Ġgou": 9202,
      "Ġjedem": 9203,
      "Ġsnaze": 9204,
      "ĠtÅĻisni": 9205,
      "Ġskryti": 9206,
      "Ġhrozna": 9207,
      "Ġbolna": 9208,
      "Ġvlasem": 9209,
      "Ġklamne": 9210,
      "ĠtskÃ©": 9211,
      "ĠchmÃ½": 9212,
      "tra": 9213,
      "ĠhoÅ¡": 9214,
      "ĠkaÅĻe": 9215,
      "ĠkaÅĻi": 9216,
      "Ġvep": 9217,
      "Ġrop": 9218,
      "ĠÄįeske": 9219,
      "ĠkyÅ¾": 9220,
      "Ġdag": 9221,
      "Ġstivy": 9222,
      "Ġpraha": 9223,
      "ĠÅ¾ÃŃk": 9224,
      "Ġbic": 9225,
      "Ġsoku": 9226,
      "Ġdivne": 9227,
      "Ġmocy": 9228,
      "Ġkruty": 9229,
      "Ġjom": 9230,
      "Ġkmeny": 9231,
      "ĠvÄĽtru": 9232,
      "Ġpasem": 9233,
      "Ġspaly": 9234,
      "ĠchÅĻici": 9235,
      "Ġztad": 9236,
      "ĠsdÃŃv": 9237,
      "ĠkpÅĻedu": 9238,
      "Ġkprav": 9239,
      "ĠkÅ¡e": 9240,
      "Ġteto": 9241,
      "Ġnij": 9242,
      "ĠvÄĽzi": 9243,
      "ĠvÄĽÅĻit": 9244,
      "ĠdÄĽr": 9245,
      "ĠmaÅĻ": 9246,
      "Ġharu": 9247,
      "ĠlÃ©zt": 9248,
      "ĠvÅ¾lu": 9249,
      "Ġloubi": 9250,
      "Ġstoupil": 9251,
      "Ġslavny": 9252,
      "ĠsmyÄį": 9253,
      "Ġzjara": 9254,
      "Ġprosti": 9255,
      "Ġbuti": 9256,
      "Ġvrahy": 9257,
      "Ġmravy": 9258,
      "ĠrouÅ¾": 9259,
      "Ġvnika": 9260,
      "Ġzvedl": 9261,
      "Ġdruhem": 9262,
      "ĠbÅĻizy": 9263,
      "Ġvluz": 9264,
      "Ġvzpira": 9265,
      "Ġkcha": 9266,
      "Ġstvy": 9267,
      "ĠseÄįe": 9268,
      "Ġholu": 9269,
      "Ġdovy": 9270,
      "Ġrace": 9271,
      "ĠÄįivy": 9272,
      "Ġbudil": 9273,
      "ĠlÃŃh": 9274,
      "Ġbim": 9275,
      "Ġslaby": 9276,
      "Ġstoh": 9277,
      "ĠstÃ¡v": 9278,
      "ĠsloÅ¾": 9279,
      "Ġhoup": 9280,
      "Ġtrun": 9281,
      "Ġchaly": 9282,
      "ĠvÅ¡ad": 9283,
      "ctno": 9284,
      "Ġnachem": 9285,
      "Ġkotu": 9286,
      "ĠtovÄĽ": 9287,
      "ĠdeÅ¡el": 9288,
      "ĠÅĻima": 9289,
      "Ġbidny": 9290,
      "Ġzraji": 9291,
      "Ġziny": 9292,
      "ĠvkÅ¯": 9293,
      "ĠsvÄĽtle": 9294,
      "Ġmatkou": 9295,
      "Ġjuj": 9296,
      "Ġgest": 9297,
      "ĠdÄĽsna": 9298,
      "ĠspÄĽchal": 9299,
      "ĠmÅĻiÅ¾e": 9300,
      "tce": 9301,
      "ĠsvÃ¡l": 9302,
      "Ġhoste": 9303,
      "Ġdopad": 9304,
      "ĠnÄĽmÄĽ": 9305,
      "Ġsklem": 9306,
      "Ġvyje": 9307,
      "Ġsilo": 9308,
      "ĠrÃ¡t": 9309,
      "ĠsoÄįi": 9310,
      "Ġmravu": 9311,
      "ĠhÃ½n": 9312,
      "Ġzvala": 9313,
      "Ġchmury": 9314,
      "ĠnnÄĽj": 9315,
      "ich": 9316,
      "ĠlenÄĽ": 9317,
      "lim": 9318,
      "ĠdÄĽna": 9319,
      "ĠÅ¾iÅ¥": 9320,
      "ĠÅĻely": 9321,
      "Ġhata": 9322,
      "ĠpeÄįe": 9323,
      "Ġbami": 9324,
      "Ġvalne": 9325,
      "Ġtvary": 9326,
      "ĠvlÃ¡t": 9327,
      "ĠdÄĽlal": 9328,
      "ĠvhluÄį": 9329,
      "ĠvpÅ¯t": 9330,
      "Ġvzdava": 9331,
      "ĠvjÃŃÅ¾": 9332,
      "Ġvzpina": 9333,
      "Ġrobu": 9334,
      "ĠÅ¡iti": 9335,
      "Ġtrne": 9336,
      "ĠflÃ³": 9337,
      "Ġvut": 9338,
      "Ġvdvo": 9339,
      "vel": 9340,
      "Ġchati": 9341,
      "Ġklap": 9342,
      "Ġvzpur": 9343,
      "Ġzyl": 9344,
      "ĠblÃŃÄį": 9345,
      "ĠstÅĻin": 9346,
      "ĠÅĻadku": 9347,
      "Ġsvojim": 9348,
      "ĠvplÃ¡Å¡Å¥": 9349,
      "Ġsmaly": 9350,
      "Ġzlym": 9351,
      "ras": 9352,
      "ĠÄįenou": 9353,
      "Ġmul": 9354,
      "ĠzeÅ¡": 9355,
      "Ġvprud": 9356,
      "Ġvuz": 9357,
      "Ġjedli": 9358,
      "Ġrouhev": 9359,
      "Ġdlela": 9360,
      "Ġksy": 9361,
      "ĠzvÄĽÅĻi": 9362,
      "bel": 9363,
      "Ġvbolu": 9364,
      "Ġnitro": 9365,
      "ĠzbuÄı": 9366,
      "Ġknuti": 9367,
      "ĠskÅĻÃŃÅĪ": 9368,
      "stup": 9369,
      "ĠjvÄĽtÅ¡i": 9370,
      "ĠÅ¡Å¯v": 9371,
      "ĠmstÃŃt": 9372,
      "Ġledu": 9373,
      "ĠÅĻku": 9374,
      "ĠtoÄįil": 9375,
      "ĠdanÄĽ": 9376,
      "Ġhate": 9377,
      "ĠluÅ¾e": 9378,
      "Ġslat": 9379,
      "Ġvlez": 9380,
      "Ġpadnou": 9381,
      "Ġrado": 9382,
      "hej": 9383,
      "ĠvÅ¡ade": 9384,
      "ĠÅ¾asem": 9385,
      "ĠÅ¡paÄį": 9386,
      "Ġtolik": 9387,
      "Ġvisky": 9388,
      "Ġmeze": 9389,
      "Ġpere": 9390,
      "Ġvsle": 9391,
      "deÅĪ": 9392,
      "Ġblaz": 9393,
      "ĠvÅ¡echny": 9394,
      "Ġdivka": 9395,
      "Ġslavne": 9396,
      "ĠvÄĽrou": 9397,
      "Ġsklonil": 9398,
      "ĠzvÃ¡Å¡": 9399,
      "ĠvraÅ¾dy": 9400,
      "Ġmlej": 9401,
      "Ġmlo": 9402,
      "ĠbÅĻad": 9403,
      "Ġhno": 9404,
      "Ġbydli": 9405,
      "ĠÅĻeje": 9406,
      "Ġbici": 9407,
      "Ġvsni": 9408,
      "Ġplakat": 9409,
      "ĠbÃŃÄį": 9410,
      "ĠkÃ½n": 9411,
      "ĠslyÅ¡et": 9412,
      "ĠprÃ¡ch": 9413,
      "Ġpyl": 9414,
      "ĠzhnÃŃz": 9415,
      "Ġprout": 9416,
      "ĠkÅĻeÄįi": 9417,
      "Ġvitr": 9418,
      "ĠsraÅ¾i": 9419,
      "ĠtiÄįky": 9420,
      "ĠmÄĽstem": 9421,
      "ĠchÅĻesti": 9422,
      "ĠvspÄĽchu": 9423,
      "ĠsnÃ©st": 9424,
      "Ġsplita": 9425,
      "ĠjvÄĽ": 9426,
      "Ġkovem": 9427,
      "Ġkame": 9428,
      "Ġminal": 9429,
      "Ġluna": 9430,
      "Ġchoti": 9431,
      "Ġpival": 9432,
      "ĠkÅ¯l": 9433,
      "Ġdrazi": 9434,
      "ĠzmÃ½": 9435,
      "ĠsvaÅĻi": 9436,
      "Ġzlobu": 9437,
      "Ġnicy": 9438,
[...]
