{
  "version": "1.0",
  "truncation": null,
  "padding": null,
  "added_tokens": [
    {
      "id": 0,
      "content": "<|EOS|>",
      "single_word": false,
      "lstrip": false,
      "rstrip": false,
      "normalized": false,
      "special": true
    },
    {
      "id": 1,
      "content": "<|PAD|>",
      "single_word": false,
      "lstrip": false,
      "rstrip": false,
      "normalized": false,
      "special": true
    },
    {
      "id": 2,
      "content": "<|UNK|>",
      "single_word": false,
      "lstrip": false,
      "rstrip": false,
      "normalized": false,
      "special": true
    }
  ],
  "normalizer": null,
  "pre_tokenizer": {
    "type": "ByteLevel",
    "add_prefix_space": false,
    "trim_offsets": true,
    "use_regex": true
  },
  "post_processor": {
    "type": "ByteLevel",
    "add_prefix_space": true,
    "trim_offsets": false,
    "use_regex": true
  },
  "decoder": {
    "type": "ByteLevel",
    "add_prefix_space": true,
    "trim_offsets": true,
    "use_regex": true
  },
  "model": {
    "type": "BPE",
    "dropout": null,
    "unk_token": null,
    "continuing_subword_prefix": null,
    "end_of_word_suffix": null,
    "fuse_unk": false,
    "byte_fallback": false,
    "vocab": {
      "<|EOS|>": 0,
      "<|PAD|>": 1,
      "<|UNK|>": 2,
      "!": 3,
      "#": 4,
      "+": 5,
      ",": 6,
      ".": 7,
      "0": 8,
      "1": 9,
      "2": 10,
      "3": 11,
      "4": 12,
      "5": 13,
      "6": 14,
      "7": 15,
      "8": 16,
      "9": 17,
      "=": 18,
      "?": 19,
      "A": 20,
      "B": 21,
      "C": 22,
      "D": 23,
      "E": 24,
      "F": 25,
      "H": 26,
      "J": 27,
      "N": 28,
      "P": 29,
      "T": 30,
      "X": 31,
      "Y": 32,
      "`": 33,
      "a": 34,
      "b": 35,
      "c": 36,
      "d": 37,
      "e": 38,
      "f": 39,
      "g": 40,
      "h": 41,
      "i": 42,
      "j": 43,
      "k": 44,
      "l": 45,
      "m": 46,
      "n": 47,
      "o": 48,
      "p": 49,
      "q": 50,
      "r": 51,
      "s": 52,
      "t": 53,
      "u": 54,
      "v": 55,
      "w": 56,
      "x": 57,
      "y": 58,
      "z": 59,
      "¡": 60,
      "¢": 61,
      "¤": 62,
      "¥": 63,
      "¦": 64,
      "§": 65,
      "¨": 66,
      "©": 67,
      "ª": 68,
      "«": 69,
      "®": 70,
      "¯": 71,
      "²": 72,
      "³": 73,
      "´": 74,
      "¶": 75,
      "º": 76,
      "»": 77,
      "¼": 78,
      "½": 79,
      "¾": 80,
      "Â": 81,
      "Ã": 82,
      "Ä": 83,
      "Å": 84,
      "Ï": 85,
      "â": 86,
      "Ċ": 87,
      "Ġ": 88,
      "Ģ": 89,
      "Ĥ": 90,
      "Ħ": 91,
      "ĩ": 92,
      "Ī": 93,
      "Ĭ": 94,
      "į": 95,
      "ı": 96,
      "Ĵ": 97,
      "ĵ": 98,
      "Ļ": 99,
      "ļ": 100,
      "Ľ": 101,
      "Ł": 102,
      "ł": 103,
      "Ń": 104,
      "Ġ#": 105,
      "ÃŃ": 106,
      "Ã¡": 107,
      "Ġs": 108,
      "Ġv": 109,
      "ÄĽ": 110,
      "Ġp": 111,
      "Ġn": 112,
      "Ġt": 113,
      "Ġj": 114,
      "Å¾": 115,
      "Ġz": 116,
      "ch": 117,
      "Ġa": 118,
      "Ġk": 119,
      "Å¡": 120,
      "Ã½": 121,
      "Ġm": 122,
      "ÅĻ": 123,
      "Ã©": 124,
      "Ġd": 125,
      "ou": 126,
      "Äį": 127,
      "la": 128,
      "Ġo": 129,
      "Ġb": 130,
      "10": 131,
      "en": 132,
      "Ġ1": 133,
      "st": 134,
      "11": 135,
      "em": 136,
      "AB": 137,
      "Ġh": 138,
      "XX": 139,
      "le": 140,
      "Ġse": 141,
      "Å¯": 142,
      "ro": 143,
      "ak": 144,
      "ra": 145,
      "li": 146,
      "Ġ19": 147,
      "Ġpo": 148,
      "Ġne": 149,
      "Ġje": 150,
      "Ġna": 151,
      "nÃŃ": 152,
      "Ġst": 153,
      "lo": 154,
      "rÃ¡": 155,
      "Ġu": 156,
      "ĠJ": 157,
      "ce": 158,
      "ÅĻe": 159,
      "nÄĽ": 160,
      "ĠÅ¾": 161,
      "Ġsv": 162,
      "al": 163,
      "ÅĻÃŃ": 164,
      "Ġ18": 165,
      "Ġi": 166,
      "Å¡e": 167,
      "dy": 168,
      "ĠT": 169,
      "Ġza": 170,
      "ne": 171,
      "ĠÄį": 172,
      "ru": 173,
      "il": 174,
      "Ġjak": 175,
      "ho": 176,
      "00": 177,
      "nÃ½": 178,
      "Ġ1900": 179,
      "sk": 180,
      "Ġch": 181,
      "lÃ¡": 182,
      "nÃ©": 183,
      "ÄĽt": 184,
      "de": 185,
      "Ġe": 186,
      "ĠÃ¡": 187,
      "Ġdo": 188,
      "at": 189,
      "je": 190,
      "XXXX": 191,
      "ÃŃm": 192,
      "Ġto": 193,
      "vÃ¡": 194,
      "Ġc": 195,
      "te": 196,
      "ABAB": 197,
      "jÃŃ": 198,
      "lu": 199,
      "no": 200,
      "lÃŃ": 201,
      "na": 202,
      "Ġby": 203,
      "ky": 204,
      "ku": 205,
      "XA": 206,
      "ÅĻi": 207,
      "80": 208,
      "Ġ1880": 209,
      "ti": 210,
      "Ġji": 211,
      "ĠÃŃ": 212,
      "ko": 213,
      "Ã¡m": 214,
      "12": 215,
      "ka": 216,
      "vo": 217,
      "vÄĽ": 218,
      "ABB": 219,
      "20": 220,
      "Ġve": 221,
      "tÃŃ": 222,
      "va": 223,
      "Ġr": 224,
      "Ã½ch": 225,
      "Ġro": 226,
      "ni": 227,
      "ly": 228,
      "ĠÅ¡": 229,
      "Ġjs": 230,
      "vÃŃ": 231,
      "tÄĽ": 232,
      "nÃ¡": 233,
      "Ġ1920": 234,
      "ci": 235,
      "Ġle": 236,
      "nou": 237,
      "Ġpro": 238,
      "nu": 239,
      "Å¥": 240,
      "Ġjen": 241,
      "Ã½m": 242,
      "..": 243,
      "ĠÅ¾e": 244,
      "Ġko": 245,
      "vÃ©": 246,
      "Ġho": 247,
      "do": 248,
      "Ġvy": 249,
      "am": 250,
      "13": 251,
      "ny": 252,
      "cÃŃ": 253,
      "ĠÄĽ": 254,
      "Ġmo": 255,
      "lÃ©": 256,
      "du": 257,
      "Ġkdy": 258,
      "Å¡ÃŃ": 259,
      "Ġvz": 260,
      "po": 261,
      "Ġbo": 262,
      "dÄĽ": 263,
      "ĠpÅĻe": 264,
      "ÄįÃŃ": 265,
      "Ġtak": 266,
      "Ġco": 267,
      "ar": 268,
      "Ġob": 269,
      "dÃŃ": 270,
      "it": 271,
      "mu": 272,
      "dÃ¡": 273,
      "kÃ¡": 274,
      "AABB": 275,
      "as": 276,
      "Ġmi": 277,
      "Ġdu": 278,
      "ĠÃ": 279,
      "lou": 280,
      "ĠvÄĽ": 281,
      "Ġtu": 282,
      "to": 283,
      "Ġmu": 284,
      "40": 285,
      "ĠvÅ¡": 286,
      "Å¾ÃŃ": 287,
      "Ġroz": 288,
      "ÅĪ": 289,
      "Å¾e": 290,
      "CC": 291,
      "da": 292,
      "ĠnÃ¡": 293,
      "se": 294,
      "enÃŃ": 295,
      "Äįe": 296,
      "ĠvÅ¡e": 297,
      "ĠÄįe": 298,
      "ĠtÄĽ": 299,
      "Ġte": 300,
      "Ġli": 301,
      "di": 302,
      "ji": 303,
      "sti": 304,
      "Ġti": 305,
      "ĠvÃŃ": 306,
      "Äı": 307,
      "Ġni": 308,
      "Ġno": 309,
      "ve": 310,
      "Ġjsem": 311,
      "ĠnÄĽ": 312,
      "by": 313,
      "XAXA": 314,
      "ĠdÃ¡": 315,
      "ry": 316,
      "rd": 317,
      "ĠzÃ¡": 318,
      "Ġod": 319,
      "vu": 320,
      "tÃ¡": 321,
      "vi": 322,
      "Ġpa": 323,
      "Ġhla": 324,
      "be": 325,
      "mÄĽ": 326,
      "Ġsp": 327,
      "vy": 328,
      "ĠN": 329,
      "ĠÅ¾i": 330,
      "ĠmÄĽ": 331,
      "ĠkdyÅ¾": 332,
      "Ġru": 333,
      "Ġsk": 334,
      "ze": 335,
      "mÃŃ": 336,
      "ĠkrÃ¡": 337,
      "ta": 338,
      "Ġsi": 339,
      "Ġbu": 340,
      "ĠpÅĻi": 341,
      "ĠmÃ¡": 342,
      "ĠsvÃ©": 343,
      "Ġl": 344,
      "ĠsvÄĽt": 345,
      "...": 346,
      "Å¯j": 347,
      "Ġty": 348,
      "Äįi": 349,
      "Ġvo": 350,
      "lÃ½": 351,
      "Å¡i": 352,
      "Ġsrd": 353,
      "mi": 354,
      "Ġjako": 355,
      "ĠrÃ¡": 356,
      "bo": 357,
      "Ġpra": 358,
      "ĠjÃ¡": 359,
      "ĠÃº": 360,
      "60": 361,
      "Ġta": 362,
      "me": 363,
      "XXXXXX": 364,
      "Ġpr": 365,
      "ĠvÅ¡ak": 366,
      "ĠvÃ¡": 367,
      "Ġten": 368,
      "Ã©m": 369,
      "ĠlÃ¡": 370,
      "vÃ½": 371,
      "Ġce": 372,
      "lad": 373,
      "Ġkde": 374,
      "ha": 375,
      "Ġka": 376,
      "Ġra": 377,
      "sÃŃ": 378,
      "ez": 379,
      "ĠdÄĽ": 380,
      "bÄĽ": 381,
      "Ġvi": 382,
      "Ġtam": 383,
      "hu": 384,
      "kÅ¯": 385,
      "ĠdÃŃ": 386,
      "Ġ1940": 387,
      "ĠjiÅ¾": 388,
      "nÃ½ch": 389,
      "Ġnad": 390,
      "sta": 391,
      "Ġzem": 392,
      "hy": 393,
      "hÃ¡": 394,
      "tu": 395,
      "stÃŃ": 396,
      "ma": 397,
      "Ġpod": 398,
      "val": 399,
      "Ġen": 400,
      "ABC": 401,
      "Ġjeho": 402,
      "Ġy": 403,
      "led": 404,
      "zÃŃ": 405,
      "kou": 406,
      "Ġkr": 407,
      "ĠjeÅ¾": 408,
      "Ġbyl": 409,
      "ĠpÅĻÃŃ": 410,
      "ĠÅ¡e": 411,
      "sy": 412,
      "vÄĽt": 413,
      "rak": 414,
      "Ġslu": 415,
      "mo": 416,
      "Ġjed": 417,
      "Ġsta": 418,
      "ĠnÃŃ": 419,
      "ĠlÃŃ": 420,
      "pÃŃ": 421,
      "Ġzas": 422,
      "vou": 423,
      "Ġmy": 424,
      "ABBA": 425,
      "ĠÅĻe": 426,
      "bu": 427,
      "ĠjÃŃ": 428,
      "kÃ©": 429,
      "Å¡tÄĽ": 430,
      "su": 431,
      "Ġ1860": 432,
      "ĠpÃ¡": 433,
      "len": 434,
      "ad": 435,
      "cho": 436,
      "ĠtÃ©": 437,
      "Ġsrdce": 438,
      "Ġpe": 439,
      "Ġ1840": 440,
      "lem": 441,
      "Ġkte": 442,
      "ty": 443,
      "ĠnÃ¡m": 444,
      "ĠstÃŃ": 445,
      "ĠmÃŃ": 446,
      "ĠstÃ¡": 447,
      "sa": 448,
      "Ġvla": 449,
      "kÃ½": 450,
      "si": 451,
      "chu": 452,
      "Å¾dy": 453,
      "Ġze": 454,
      "ĠpÃŃ": 455,
      "Ġlid": 456,
      "ĠlÃ¡sk": 457,
      "Ã©ho": 458,
      "Ġdi": 459,
      "ba": 460,
      "Å¾i": 461,
      "rou": 462,
      "nÃ½m": 463,
      "Ġpak": 464,
      "ĠjenÅ¾": 465,
      "XB": 466,
      "Ġbez": 467,
      "Ġnou": 468,
      "ĠbÃŃ": 469,
      "kem": 470,
      "Å¯m": 471,
      "ĠpÅĻed": 472,
      "Ġnem": 473,
      "ĠvÅ¾dy": 474,
      "ĠĊ": 475,
      "rÃ½": 476,
      "Ġzla": 477,
      "15": 478,
      "zd": 479,
      "Ġkdo": 480,
      "Ġla": 481,
      "my": 482,
      "Ġhro": 483,
      "Ġso": 484,
      "Ġmne": 485,
      "14": 486,
      "Ġpla": 487,
      "bi": 488,
      "Ġdne": 489,
      "ĠÃ³": 490,
      "men": 491,
      "ej": 492,
      "ĠaÅ¾": 493,
      "Ġtou": 494,
      "Ġhle": 495,
      "ĠkvÄĽt": 496,
      "dou": 497,
      "Ġsti": 498,
      "ÅĻÃ¡": 499,
      "ĠvÃ½": 500,
      "Ġtv": 501,
      "CD": 502,
      "ĠtvÃ¡": 503,
      "pÄĽ": 504,
      "Ġnes": 505,
      "ĠÄįi": 506,
      "Ġjest": 507,
      "ste": 508,
      "Ġnej": 509,
      "ĠÅĻÃŃ": 510,
      "ĠÅ¾ivo": 511,
      "Ġslo": 512,
      "ĠkaÅ¾": 513,
      "Ġjej": 514,
      "ĠteÄı": 515,
      "ĠdÃ¡l": 516,
      "ĠÄįas": 517,
      "Ġden": 518,
      "rÅ¯": 519,
      "ĠmÃ©": 520,
      "Ġku": 521,
      "Ġon": 522,
      "an": 523,
      "Ġnez": 524,
      "Ġsto": 525,
      "Ġpou": 526,
      "ĠprÃ¡": 527,
      "ĠÄįer": 528,
      "Ġsna": 529,
      "16": 530,
      "ĠuÅ¾": 531,
      "ĠÅ¾en": 532,
      "Ġkou": 533,
      "pu": 534,
      "sto": 535,
      "ĠneÅ¾": 536,
      "hou": 537,
      "ĠvÄĽt": 538,
      "Ġmil": 539,
      "Ġpos": 540,
      "Ġslun": 541,
      "mÃ¡": 542,
      "Ġsla": 543,
      "ĠplÃ¡": 544,
      "Ġdob": 545,
      "Ġf": 546,
      "rt": 547,
      "ĠmnÄĽ": 548,
      "ĠÃ¡nÃŃ": 549,
      "Ġnebe": 550,
      "Ġale": 551,
      "ĠmÅ¯j": 552,
      "AABBCC": 553,
      "Ġchu": 554,
      "bÃŃ": 555,
      "Ġsvo": 556,
      "AA": 557,
      "nÅ¯": 558,
      "ABCC": 559,
      "Ġme": 560,
      "Ġsvou": 561,
      "Ġtem": 562,
      "ĠenÃŃ": 563,
      "AABC": 564,
      "re": 565,
      "Ġjsi": 566,
      "rÃ©": 567,
      "ĠtvÃ©": 568,
      "Ġlu": 569,
      "ĠvÅ¡ech": 570,
      "ĠpÄĽ": 571,
      "Ġjsou": 572,
      "chÃ¡": 573,
      "tÃ½": 574,
      "Ġlo": 575,
      "ĠnÃ¡s": 576,
      "Ġdru": 577,
      "pe": 578,
      "Ġsvat": 579,
      "ĠjeÅ¡tÄĽ": 580,
      "ĠsÃŃ": 581,
      "Ġsy": 582,
      "Ġvel": 583,
      "Ġre": 584,
      "Ġbra": 585,
      "Ġde": 586,
      "bou": 587,
      "vat": 588,
      "zy": 589,
      "nÃ©m": 590,
      "Ġpl": 591,
      "ĠnÄĽm": 592,
      "ĠduÅ¡e": 593,
      "tr": 594,
      "ĠcÃŃ": 595,
      "Ġsou": 596,
      "Ġtom": 597,
      "Ġda": 598,
      "skÃ©": 599,
      "ĠkaÅ¾d": 600,
      "pa": 601,
      "dÄĽl": 602,
      "Ġkra": 603,
      "ĠbÄĽ": 604,
      "tÃ©": 605,
      "Ġval": 606,
      "ĠhvÄĽ": 607,
      "ĠjejÃŃ": 608,
      "Ġmat": 609,
      "Ġzrak": 610,
      "ĠbÃ½": 611,
      "ĠnÃŃm": 612,
      "Ġvl": 613,
      "ĠÄĽt": 614,
      "nÃŃm": 615,
      "nem": 616,
      "Ġsnad": 617,
      "Ġbla": 618,
      "Ġot": 619,
      "Ġzde": 620,
      "ĠsÃ¡m": 621,
      "Ġnech": 622,
      "hÃ½": 623,
      "ĠvÅ¯": 624,
      "ĠÃ½ch": 625,
      "Ġsm": 626,
      "ĠD": 627,
      "Ġost": 628,
      "Ġry": 629,
      "Ġstar": 630,
      "Ġkle": 631,
      "Ġdra": 632,
      "Ġhu": 633,
      "Ġsem": 634,
      "ĠrÅ¯": 635,
      "Ġstra": 636,
      "ĠÃ½": 637,
      "ÅĻen": 638,
      "ĠvÅ¡ec": 639,
      "Ġcho": 640,
      "Ġpoh": 641,
      "Ġhra": 642,
      "Ġoh": 643,
      "Ġneb": 644,
      "ĠaÅ¥": 645,
      "Ġpu": 646,
      "Ġbou": 647,
      "Ġkam": 648,
      "ĠbÃ¡": 649,
      "Å¾en": 650,
      "Å¡el": 651,
      "ĠtÃ¡": 652,
      "ĠchvÃŃ": 653,
      "Ġnu": 654,
      "ĠvÃ¡m": 655,
      "ĠoÄįi": 656,
      "ABABCC": 657,
      "ĠÅ¾Ã¡": 658,
      "stu": 659,
      "vil": 660,
      "Ġjas": 661,
      "ĠÅ¾ivot": 662,
      "Ġsly": 663,
      "ĠÅ¡tÄĽ": 664,
      "Ġhlu": 665,
      "Ġja": 666,
      "Ġbude": 667,
      "Ġsam": 668,
      "Ġva": 669,
      "Ġma": 670,
      "Ġzd": 671,
      "ĠduÅ¡i": 672,
      "nost": 673,
      "cha": 674,
      "Ġtr": 675,
      "sÃ¡": 676,
      "ĠvÄĽÄį": 677,
      "pÃ¡": 678,
      "py": 679,
      "Ġmod": 680,
      "ĠÅĻ": 681,
      "Ġpoz": 682,
      "ĠkrÃ¡s": 683,
      "Ġsl": 684,
      "Ġjsme": 685,
      "nÃ¡m": 686,
      "Ġdlou": 687,
      "sÅ¥": 688,
      "Ġzvo": 689,
      "til": 690,
      "Ġslad": 691,
      "Ġba": 692,
      "Ġsmu": 693,
      "nul": 694,
      "ĠnenÃŃ": 695,
      "Ġmno": 696,
      "jem": 697,
      "Ġjich": 698,
      "Ġdnes": 699,
      "Ġ1960": 700,
      "Ã½mi": 701,
      "Ġstro": 702,
      "bÃ¡": 703,
      "Ġmou": 704,
      "Ġbych": 705,
      "Ġvra": 706,
      "nosti": 707,
      "cen": 708,
      "ĠtÄĽch": 709,
      "ĠkÅĻÃŃ": 710,
      "ven": 711,
      "Ġspo": 712,
      "Ġhne": 713,
      "Ġslunce": 714,
      "pi": 715,
      "zi": 716,
      "Ġtvo": 717,
      "Ġbylo": 718,
      "Ġlet": 719,
      "Å¯h": 720,
      "ĠtÅĻe": 721,
      "Ġach": 722,
      "Ġjim": 723,
      "hle": 724,
      "tel": 725,
      "ĠdÄĽt": 726,
      "Ġem": 727,
      "Ġci": 728,
      "Ġnep": 729,
      "dem": 730,
      "so": 731,
      "rem": 732,
      "ĠsnÄĽ": 733,
      "cÃŃch": 734,
      "vÃ½ch": 735,
      "stÃ¡": 736,
      "tra": 737,
      "jÅ¡ÃŃ": 738,
      "ABABCD": 739,
      "Å¡en": 740,
      "ĠchtÄĽ": 741,
      "Ġala": 742,
      "Ġech": 743,
      "Ġml": 744,
      "stvÃŃ": 745,
      "ĠslÃ¡": 746,
      "ĠptÃ¡": 747,
      "ĠmÃ¡m": 748,
      "Ġmar": 749,
      "ĠÃ©": 750,
      "ĠvÃŃc": 751,
      "Ġhlas": 752,
      "zu": 753,
      "ĠÅ¯": 754,
      "ĠtÃŃm": 755,
      "lÅ¯": 756,
      "chy": 757,
      "ev": 758,
      "Ġnik": 759,
      "mÅ¯": 760,
      "Ġnich": 761,
      "Ġkli": 762,
      "Ġkol": 763,
      "Ġkro": 764,
      "hÃ©": 765,
      "lovÄĽ": 766,
      "Ġbe": 767,
      "ĠzÅĻÃŃ": 768,
      "Ġkla": 769,
      "Ġani": 770,
      "ĠobÄĽ": 771,
      "Ġg": 772,
      "Ġbyla": 773,
      "stou": 774,
      "ĠbÅ¯h": 775,
      "ĠsvÅ¯j": 776,
      "Ġsmut": 777,
      "Ġdal": 778,
      "Ġsen": 779,
      "skÃ½": 780,
      "Ġmys": 781,
      "stÄĽ": 782,
      "Ġles": 783,
      "ĠmÄĽl": 784,
      "ĠlÃ¡sky": 785,
      "cem": 786,
      "vnÃŃ": 787,
      "Ġmilo": 788,
      "Ġila": 789,
      "nÃ©ho": 790,
      "dla": 791,
      "jich": 792,
      "krÃ¡": 793,
      "chem": 794,
      "ĠÄįlovÄĽ": 795,
      "ĠpÃŃs": 796,
      "ĠsmÄĽ": 797,
      "ĠoÄįÃŃ": 798,
      "Ġvou": 799,
      "Ġvr": 800,
      "ĠtÃŃ": 801,
      "ĠÅ¡ÃŃ": 802,
      "ABCCB": 803,
      "ÅĻel": 804,
      "ĠsvÃŃ": 805,
      "tek": 806,
      "Äįen": 807,
      "ĠvÃ¡s": 808,
      "ĠtÃ©Å¾": 809,
      "Ġnoc": 810,
      "nil": 811,
      "Äįka": 812,
      "Ġ1820": 813,
      "ĠsobÄĽ": 814,
      "Ġkolem": 815,
      "ĠÃŃch": 816,
      "skÃ¡": 817,
      "Ġan": 818,
      "ÅĻil": 819,
      "Ġke": 820,
      "vem": 821,
      "Ġou": 822,
      "Ġjem": 823,
      "ĠtvÅ¯j": 824,
      "sud": 825,
      "nal": 826,
      "Ġhou": 827,
      "ĠzdÃ¡": 828,
      "Ġzda": 829,
      "lesk": 830,
      "Ġop": 831,
      "Ġmal": 832,
      "ĠblÃŃ": 833,
      "ĠpÅ¯": 834,
      "ĠkaÅ¾dÃ½": 835,
      "ĠtobÄĽ": 836,
      "Å¡Å¥": 837,
      "ĠtÄĽÅ¾": 838,
      "Ġhned": 839,
      "ĠsvÃ½ch": 840,
      "ĠpÅĻes": 841,
      "ĠlÃ©": 842,
      "Ġaby": 843,
      "Ġrado": 844,
      "Ġok": 845,
      "Ġkem": 846,
      "ĠzemÄĽ": 847,
      "tou": 848,
      "cÅ¯": 849,
      "ĠhÃ¡": 850,
      "dil": 851,
      "Ġpan": 852,
      "tem": 853,
      "ĠproÄį": 854,
      "za": 855,
      "Ġchy": 856,
      "tÃŃm": 857,
      "AABCCB": 858,
      "Ġdiv": 859,
      "Å¡ÃŃm": 860,
      "Å¡tÃŃ": 861,
      "Ġsu": 862,
      "ĠÅ¾itÃŃ": 863,
      "hla": 864,
      "hÅ¯": 865,
      "Ġmrt": 866,
      "ĠajÃŃ": 867,
      "ri": 868,
      "ĠsnÃŃ": 869,
      "Ġjejich": 870,
      "ĠÃ©ho": 871,
      "Ġsil": 872,
      "ĠskÃ¡": 873,
      "sty": 874,
      "ĠvÅ¡em": 875,
      "Ġju": 876,
      "Ġlou": 877,
      "ĠÅ¡u": 878,
      "ĠsmÃŃ": 879,
      "ĠdÅĻÃŃ": 880,
      "ĠÅĻek": 881,
      "Ġruce": 882,
      "ĠbuÄı": 883,
      "ĠÅ¾al": 884,
      "ĠÄĽnÃŃ": 885,
      "Ġtich": 886,
      "Ġdla": 887,
      "ĠrÃ¡d": 888,
      "ĠleÄį": 889,
      "ĠÄįa": 890,
      "pr": 891,
      "nky": 892,
      "Ġlem": 893,
      "Ġoko": 894,
      "Ġchce": 895,
      "Ġsrdci": 896,
      "Ġus": 897,
      "co": 898,
      "vÃ½m": 899,
      "ĠsvÃ½m": 900,
      "Ġzemi": 901,
      "Ġmoc": 902,
      "Äįky": 903,
      "ĠveÄįe": 904,
      "ĠvÅ¡ecko": 905,
      "Ġmoje": 906,
      "ĠmuÅ¾": 907,
      "seÅĪ": 908,
      "Ġhor": 909,
      "Ġdce": 910,
      "om": 911,
      "Ġnepo": 912,
      "ĠnÃ¡Å¡": 913,
      "Äįek": 914,
      "Ġmra": 915,
      "ĠhvÄĽz": 916,
      "Ġsmr": 917,
      "lÃ½ch": 918,
      "ĠzpÄĽ": 919,
      "ĠchvÄĽ": 920,
      "Ġsko": 921,
      "Ġvlast": 922,
      "sla": 923,
      "AXB": 924,
      "Ġprav": 925,
      "ĠÅ¡el": 926,
      "pomÃŃ": 927,
      "ÅĻem": 928,
      "Ġpad": 929,
      "Ġzp": 930,
      "ĠnaÅ¡e": 931,
      "ĠpÅĻec": 932,
      "dnÃ©": 933,
      "skÃ½ch": 934,
      "Ġuje": 935,
      "Ġzlo": 936,
      "ĠspÃ¡": 937,
      "ĠÅ¡tÄĽstÃŃ": 938,
      "ĠÅ¾ÃŃ": 939,
      "Ġjste": 940,
      "ved": 941,
      "er": 942,
      "Ġhr": 943,
      "Ġstu": 944,
      "hne": 945,
      "Ġjenom": 946,
      "dÃ©": 947,
      "Ġha": 948,
      "ĠnÃ¡ro": 949,
      "kal": 950,
      "kÃ½ch": 951,
      "Ġzb": 952,
      "Ġnoci": 953,
      "ĠĠ": 954,
      "Ġtebe": 955,
      "ĠvlÃ¡": 956,
      "Ġzah": 957,
      "Ġhlavu": 958,
      "Ġote": 959,
      "ĠdÄĽl": 960,
      "Äįil": 961,
      "Ġple": 962,
      "Ġjde": 963,
      "zo": 964,
      "Ġmez": 965,
      "Ġcit": 966,
      "Ġhru": 967,
      "lil": 968,
      "pad": 969,
      "ÃŃme": 970,
      "pla": 971,
      "ĠbÃ½t": 972,
      "Ġny": 973,
      "Ġnic": 974,
      "Ġdou": 975,
      "Ġmlad": 976,
      "nek": 977,
      "Ġkru": 978,
      "nÃŃch": 979,
      "ĠÅ¡i": 980,
      "ĠÅĪ": 981,
      "ĠzpÃŃ": 982,
      "ĠdÃ¡v": 983,
      "ABBC": 984,
      "hem": 985,
      "Ġprou": 986,
      "sku": 987,
      "Ġbi": 988,
      "jde": 989,
      "kla": 990,
      "ĠstÅĻe": 991,
      "Äįku": 992,
      "sky": 993,
      "ĠÄįÃŃ": 994,
      "Ġven": 995,
      "ĠÄĽla": 996,
      "tÅ¯": 997,
      "Ġali": 998,
      "dnÄĽ": 999,
      "nout": 1000,
      "ĠojÃŃ": 1001,
      "nÃŃk": 1002,
      "vit": 1003,
      "Ġboj": 1004,
      "ABCD": 1005,
      "Ġnev": 1006,
      "ĠhvÄĽzd": 1007,
      "ast": 1008,
      "ĠcelÃ½": 1009,
      "Ġky": 1010,
      "Ġmlu": 1011,
      "uje": 1012,
      "ĠdÃŃv": 1013,
      "Ġduch": 1014,
      "ĠmlÃ¡": 1015,
      "Å¡li": 1016,
      "ĠhÅĻÃŃ": 1017,
      "dnÃ½": 1018,
      "ĠÃºs": 1019,
      "Ġkrev": 1020,
      "Å¾il": 1021,
      "ĠtakÃ©": 1022,
      "Ġzvu": 1023,
      "sou": 1024,
      "zen": 1025,
      "ĠvÃ¡Å¡": 1026,
      "Ġslova": 1027,
      "Ġtro": 1028,
      "ĠkÅĻi": 1029,
      "Ġneu": 1030,
      "hl": 1031,
      "Ġobra": 1032,
      "Ġblesk": 1033,
      "ĠpÃŃseÅĪ": 1034,
      "jÃŃcÃŃ": 1035,
      "ĠnÃ¡hle": 1036,
      "Ġnebo": 1037,
      "ĠchvÃŃli": 1038,
      "ĠmoÅĻe": 1039,
      "Ġas": 1040,
      "Ġhlou": 1041,
      "Ġbole": 1042,
      "ĠstrÃ¡": 1043,
      "Ġos": 1044,
      "Ġtoho": 1045,
      "ĠchrÃ¡": 1046,
      "ĠmyÅ¡": 1047,
      "Ġtru": 1048,
      "ĠsvÄĽ": 1049,
      "ati": 1050,
      "ĠspÄĽ": 1051,
      "aly": 1052,
      "BC": 1053,
      "Ġved": 1054,
      "sko": 1055,
      "ĠznÃŃ": 1056,
      "ĠÃŃvÃ¡": 1057,
      "ĠvrÃ¡": 1058,
      "ska": 1059,
      "tva": 1060,
      "Ġpok": 1061,
      "ĠÃŃcÃŃ": 1062,
      "ĠtvÃ¡ÅĻ": 1063,
      "ĠnÄĽk": 1064,
      "Ġbrat": 1065,
      "ĠzÃŃ": 1066,
      "dech": 1067,
      "ĠvÅ¾dyÅ¥": 1068,
      "Ġsku": 1069,
      "nce": 1070,
      "jÃŃc": 1071,
      "vnÄĽ": 1072,
      "ĠchtÄĽl": 1073,
      "ĠvÃŃm": 1074,
      "ĠsvÃ©ho": 1075,
      "Ġzo": 1076,
      "ĠnynÃŃ": 1077,
      "dÃŃm": 1078,
      "ĠspÃŃ": 1079,
      "Ġmezi": 1080,
      "ĠÄįlovÄĽk": 1081,
      "Ġzje": 1082,
      "Ġpat": 1083,
      "ABA": 1084,
      "ĠhnÄĽ": 1085,
      "Ġmla": 1086,
      "Ġjeden": 1087,
      "ĠpÃ¡n": 1088,
      "17": 1089,
      "Ġste": 1090,
      "Ġhe": 1091,
      "Ġvol": 1092,
      "ĠÅ¡tÃŃ": 1093,
      "ĠkterÃ©": 1094,
      "ĠsvÃ©m": 1095,
      "ĠlÃ¡ska": 1096,
      "ĠstÅĻÃŃ": 1097,
      "Ġzase": 1098,
      "ĠkvÃŃ": 1099,
      "dÅ¯": 1100,
      "ĠX": 1101,
      "Ġtma": 1102,
      "Ġela": 1103,
      "ĠkterÃ½": 1104,
      "Ġchlad": 1105,
      "Ġpoto": 1106,
      "Ġpi": 1107,
      "Ġjednou": 1108,
      "ĠdÃŃtÄĽ": 1109,
      "ĠjÃŃm": 1110,
      "ĠstÃ¡le": 1111,
      "Ġdr": 1112,
      "nÃ¡ch": 1113,
      "ĠsvÄĽta": 1114,
      "Ġoje": 1115,
      "ĠstojÃŃ": 1116,
      "Ġoz": 1117,
      "ĠbÅĻe": 1118,
      "tky": 1119,
      "ĠÃŃtÃŃ": 1120,
      "dnÃŃ": 1121,
      "Å¯Å¾e": 1122,
      "ĠhrÃ¡": 1123,
      "ĠtiÅ¡e": 1124,
      "kÃ½m": 1125,
      "Ġice": 1126,
      "Ġoku": 1127,
      "Å¡la": 1128,
      "krÃ¡t": 1129,
      "rov": 1130,
      "ĠÃºsmÄĽ": 1131,
      "Ġnemo": 1132,
      "Ġzm": 1133,
      "Ġrou": 1134,
      "ĠvÃŃce": 1135,
      "rnÄĽ": 1136,
      "Ġona": 1137,
      "ĠtisÃŃ": 1138,
      "ĠstÄĽ": 1139,
      "Ġsed": 1140,
      "rost": 1141,
      "Ġvzdu": 1142,
      "dÃ½": 1143,
      "ĠjuÅ¾": 1144,
      "ĠoÅĻe": 1145,
      "ĠpÅĻÃ¡": 1146,
      "ĠkÃ¡": 1147,
      "Ġjar": 1148,
      "ĠÃŃce": 1149,
      "Ġkal": 1150,
      "Ġnen": 1151,
      "Ġveli": 1152,
      "ĠbÃŃlÃ©": 1153,
      "ĠÅ¡Å¥": 1154,
      "Ġane": 1155,
      "pra": 1156,
      "Ġtra": 1157,
      "nku": 1158,
      "vala": 1159,
      "Ġbled": 1160,
      "Ġodpo": 1161,
      "ĠsvÃ¡": 1162,
      "Ġhled": 1163,
      "ĠcoÅ¾": 1164,
      "dnou": 1165,
      "Ġklo": 1166,
      "XAX": 1167,
      "vÃ©m": 1168,
      "ĠaÄį": 1169,
      "zem": 1170,
      "ĠznÃ¡m": 1171,
      "Ġsebe": 1172,
      "Ġrukou": 1173,
      "nka": 1174,
      "Ġpoko": 1175,
      "ĠtrÃ¡": 1176,
      "ĠÃ¡ch": 1177,
      "Ġposled": 1178,
      "Ġpal": 1179,
      "Ġmrak": 1180,
      "znÄĽ": 1181,
      "Ġnebi": 1182,
      "Ġvoj": 1183,
      "ĠsÃ¡": 1184,
      "el": 1185,
      "dce": 1186,
      "Ġest": 1187,
      "ĠÄįÃŃm": 1188,
      "ĠveÄįer": 1189,
      "stal": 1190,
      "ÅĻÃŃm": 1191,
      "ĠboÅ¾ÃŃ": 1192,
      "sl": 1193,
      "Ġsa": 1194,
      "nat": 1195,
      "ĠÅ¾il": 1196,
      "Ġrak": 1197,
      "ĠkrÃ¡l": 1198,
      "lech": 1199,
      "Ġili": 1200,
      "Ġpot": 1201,
      "Ġiny": 1202,
      "Ġebe": 1203,
      "Ġum": 1204,
      "Ġnikdy": 1205,
      "Ġplamen": 1206,
      "ĠbrÃ¡": 1207,
      "lit": 1208,
      "Ġzi": 1209,
      "nec": 1210,
      "Ġaly": 1211,
      "skou": 1212,
      "stÃ©": 1213,
      "Ġdar": 1214,
      "lek": 1215,
      "Ġjedi": 1216,
      "ĠovÃ©": 1217,
      "Ġtomu": 1218,
      "ĠnaÅ¡i": 1219,
      "Ġvese": 1220,
      "Ġjedno": 1221,
      "Ġves": 1222,
      "ĠhrÅ¯": 1223,
      "Ġnedo": 1224,
      "ĠznÃ¡": 1225,
      "Ġsle": 1226,
      "ĠklÃŃ": 1227,
      "ĠnadÄĽ": 1228,
      "Ġbudou": 1229,
      "Ġtys": 1230,
      "nÄĽjÅ¡ÃŃ": 1231,
      "mÃ©": 1232,
      "ĠvzpomÃŃ": 1233,
      "Ġmnou": 1234,
      "Ġslav": 1235,
      "Ã³": 1236,
      "Ġzak": 1237,
      "dal": 1238,
      "ĠzvÄĽ": 1239,
      "Ġkdyby": 1240,
      "ĠutÃŃ": 1241,
      "ĠÃŃti": 1242,
      "Ġpom": 1243,
      "ÄįnÃŃ": 1244,
      "Äįko": 1245,
      "ĠmÄĽsÃŃ": 1246,
      "Ġemi": 1247,
      "ĠÄĽje": 1248,
      "ĠÅ¡Å¥ast": 1249,
      "Ġzno": 1250,
      "Ġena": 1251,
      "Ġpoli": 1252,
      "ĠvÃŃtÄĽ": 1253,
      "Ġpov": 1254,
      "ĠnevÄĽ": 1255,
      "ben": 1256,
      "ĠrÅ¯Å¾e": 1257,
      "jÃŃm": 1258,
      "rnÃ©": 1259,
      "den": 1260,
      "Ġhem": 1261,
      "Å¡ti": 1262,
      "Ġsli": 1263,
      "Ġova": 1264,
      "Ġdva": 1265,
      "ĠhÅĻ": 1266,
      "cky": 1267,
      "ĠdÄĽti": 1268,
      "Ġleh": 1269,
      "ĠnÃŃÅ¾": 1270,
      "Ġzna": 1271,
      "tku": 1272,
      "ami": 1273,
      "ĠdÅ¯": 1274,
      "ĠstÃŃn": 1275,
      "ĠprvnÃŃ": 1276,
      "cÃŃm": 1277,
      "vra": 1278,
      "ĠzÃ¡ÅĻ": 1279,
      "Ġady": 1280,
      "ĠznÄĽ": 1281,
      "Ġnevi": 1282,
      "vÅ¯": 1283,
      "ĠenÃ©": 1284,
      "ĠÃ¡vÃ¡": 1285,
      "Ġbar": 1286,
      "Ġsotva": 1287,
      "Ġhlavy": 1288,
      "Ġnebes": 1289,
      "Ġhrob": 1290,
      "Ġkraj": 1291,
      "rnÃ½": 1292,
      "Ġstr": 1293,
      "ĠetÃŃ": 1294,
      "ÄįnÄĽ": 1295,
      "ĠoÅĻÃŃ": 1296,
      "stÃ½": 1297,
      "tal": 1298,
      "ĠcelÃ©": 1299,
      "dlo": 1300,
      "ĠÃŃrÃ¡": 1301,
      "Ġoka": 1302,
      "ĠumÃŃ": 1303,
      "ĠÅ¡at": 1304,
      "Ġpros": 1305,
      "ĠkterÃ¡": 1306,
      "Ġtaj": 1307,
      "Ġsmrti": 1308,
      "vali": 1309,
      "pil": 1310,
      "ĠtvÃ½ch": 1311,
      "bit": 1312,
      "Ġpru": 1313,
      "ĠdÃ¡le": 1314,
      "Ġchci": 1315,
      "Ġlesk": 1316,
      "AX": 1317,
      "ĠnovÃ©": 1318,
      "ĠmusÃŃ": 1319,
      "XAXAXB": 1320,
      "Ġjemu": 1321,
      "Ġdvo": 1322,
      "Ġproti": 1323,
      "hat": 1324,
      "ĠknÄĽ": 1325,
      "lik": 1326,
      "zel": 1327,
      "nice": 1328,
      "Ġhrd": 1329,
      "Ġneby": 1330,
      "kÃ¡ch": 1331,
      "ĠpÅĻece": 1332,
      "Ġruka": 1333,
      "Ġhy": 1334,
      "vÃ¡nÃŃ": 1335,
      "Ġnit": 1336,
      "ĠÅĻÃ¡": 1337,
      "ĠchÃ¡": 1338,
      "Ġneo": 1339,
      "Ġbr": 1340,
      "Ġruku": 1341,
      "Ġticho": 1342,
      "Ġsh": 1343,
      "lÃ½m": 1344,
      "ĠavÃŃ": 1345,
      "ĠvolÃ¡": 1346,
      "Ġradost": 1347,
      "Ġhroz": 1348,
      "Ġdlouho": 1349,
      "mou": 1350,
      "lov": 1351,
      "ĠenÃ½": 1352,
      "Ġavy": 1353,
      "jte": 1354,
      "Ġobla": 1355,
      "Ġsmrt": 1356,
      "zÃ¡": 1357,
      "Ġup": 1358,
      "Ġproto": 1359,
      "ĠstarÃ½": 1360,
      "ÅĻit": 1361,
      "ĠvÅ¡i": 1362,
      "Ġdem": 1363,
      "kÃ©m": 1364,
      "Ġpy": 1365,
      "ĠletÃŃ": 1366,
      "Ġtlu": 1367,
      "Ġdech": 1368,
      "ĠmeÄį": 1369,
      "Ġoji": 1370,
      "Ġele": 1371,
      "ĠleÅ¾ÃŃ": 1372,
      "Ġrozko": 1373,
      "let": 1374,
      "pl": 1375,
      "Ġode": 1376,
      "ÄĽti": 1377,
      "Ġhlavou": 1378,
      "Ġjin": 1379,
      "Ġrych": 1380,
      "ĠdÃ¡m": 1381,
      "pen": 1382,
      "Ġvlasti": 1383,
      "Ġtvoje": 1384,
      "Ġplo": 1385,
      "ĠskrÃ¡": 1386,
      "ĠmÃ½ch": 1387,
      "ĠzpÄĽv": 1388,
      "Ġsky": 1389,
      "Ġsvit": 1390,
      "Ġaje": 1391,
      "Ġeny": 1392,
      "ĠkÅĻe": 1393,
      "Ġpohled": 1394,
      "Ġskry": 1395,
      "sÅ¯": 1396,
      "ĠÄĽti": 1397,
      "ĠÃ¡ti": 1398,
      "nit": 1399,
      "Ġskal": 1400,
      "ĠprÃ½": 1401,
      "ral": 1402,
      "ĠduÅ¡ÃŃ": 1403,
      "ĠdÃ¡vno": 1404,
      "ĠnÄĽj": 1405,
      "Ġmoh": 1406,
      "ct": 1407,
      "Ġvat": 1408,
      "ĠnÃ½m": 1409,
      "Ġzbo": 1410,
      "Ġzra": 1411,
      "Äįel": 1412,
      "ĠtÅĻi": 1413,
      "ĠvidÃŃ": 1414,
      "vr": 1415,
      "ĠuÅ¡ÃŃ": 1416,
      "Ġosud": 1417,
      "ĠonÃŃ": 1418,
      "Ġled": 1419,
      "ĠÄįasto": 1420,
      "um": 1421,
      "pal": 1422,
      "ech": 1423,
      "ĠcizÃŃ": 1424,
      "ĠvÅ¡u": 1425,
      "Ġsamo": 1426,
      "sil": 1427,
      "ĠvÃ½m": 1428,
      "Ġpozd": 1429,
      "Ġzh": 1430,
      "Ġzelen": 1431,
      "ĠbÃ¡s": 1432,
      "lal": 1433,
      "ĠvidÄĽl": 1434,
      "pat": 1435,
      "Ġhlubo": 1436,
      "ĠhvÄĽzdy": 1437,
      "ĠdobÅĻe": 1438,
      "vÃ¡m": 1439,
      "Ġzou": 1440,
      "alo": 1441,
      "Ġuch": 1442,
      "Ġnimi": 1443,
      "ĠanÃŃ": 1444,
      "Ġdej": 1445,
      "ĠzÃ¡ÅĻÃŃ": 1446,
      "Ġdruh": 1447,
      "Ġtesk": 1448,
      "ĠzlatÃ©": 1449,
      "ĠtoÅ¥": 1450,
      "ĠstÅĻÃŃb": 1451,
      "Ġper": 1452,
      "AAXB": 1453,
      "Ġtajem": 1454,
      "Ġami": 1455,
      "sem": 1456,
      "ĠÃ¡le": 1457,
      "Ġhal": 1458,
      "Ġlas": 1459,
      "ĠboÅ¾e": 1460,
      "Ġzk": 1461,
      "ĠvÅĻe": 1462,
      "ĠsvÄĽtÄĽ": 1463,
      "Ġsvoje": 1464,
      "ĠvÅ¡ecky": 1465,
      "jen": 1466,
      "Ġkdys": 1467,
      "vÃŃm": 1468,
      "dnÃ¡": 1469,
      "stÅĻe": 1470,
      "pou": 1471,
      "ĠhledÃŃ": 1472,
      "Ġkri": 1473,
      "Ġpane": 1474,
      "Ġtla": 1475,
      "ĠmÅ¯Å¾e": 1476,
      "Ġsch": 1477,
      "Ġpil": 1478,
      "Ġslou": 1479,
      "Ġzt": 1480,
      "ĠÅ¾ena": 1481,
      "ÄįnÃ©": 1482,
      "cy": 1483,
      "Ġilo": 1484,
      "ĠÃ½vÃ¡": 1485,
      "Ġsni": 1486,
      "Ġadu": 1487,
      "ĠposlednÃŃ": 1488,
      "ran": 1489,
      "ĠÅ¾ivota": 1490,
      "Ġplu": 1491,
      "ĠtÅĻÃŃ": 1492,
      "Ġpam": 1493,
      "Ġran": 1494,
      "ĠÃ¡na": 1495,
      "ĠtÃ¡h": 1496,
      "Ġblou": 1497,
      "ĠÄįelo": 1498,
      "Ġuli": 1499,
      "Ġuk": 1500,
      "Ġotec": 1501,
      "dl": 1502,
      "Ġcha": 1503,
      "ĠÅ¡ep": 1504,
      "nutÃŃ": 1505,
      "Ġkon": 1506,
      "ĠnÃ¡rod": 1507,
      "ĠÅ¾ha": 1508,
      "Ġese": 1509,
      "ÄįÃŃm": 1510,
      "ĠprÃ¡zd": 1511,
      "Ġzapo": 1512,
      "Ġzu": 1513,
      "Ġtebou": 1514,
      "ĠstÃ¡l": 1515,
      "ĠpanÃŃ": 1516,
      "rob": 1517,
      "ĠkvÄĽty": 1518,
      "Ġpole": 1519,
      "ĠpoÄį": 1520,
      "nic": 1521,
      "Ġrem": 1522,
      "Å¡em": 1523,
      "Ġvil": 1524,
      "dÄĽla": 1525,
      "ala": 1526,
      "nes": 1527,
      "Ġlidst": 1528,
      "Ġvrou": 1529,
      "Ġati": 1530,
      "ĠpohÃ¡": 1531,
      "ĠsnÅ¯": 1532,
      "Ġzach": 1533,
      "Ġoba": 1534,
      "ĠboÅ¾": 1535,
      "Ġhud": 1536,
      "ĠtÄĽlo": 1537,
      "tka": 1538,
      "ĠÄĽlo": 1539,
      "ĠtvÃŃ": 1540,
      "Ġklid": 1541,
      "ĠdrÃ¡": 1542,
      "ĠjakÃ½": 1543,
      "ĠÅĪad": 1544,
      "ĠzÅ¯": 1545,
      "ĠsvÃŃtÃŃ": 1546,
      "ĠavÃ½": 1547,
      "Ġtky": 1548,
      "Ġztra": 1549,
      "Ġkraji": 1550,
      "Ġdale": 1551,
      "ĠtÅĻeba": 1552,
      "Å¡il": 1553,
      "ĠchvÃŃle": 1554,
      "Ġmnoho": 1555,
      "Ġnek": 1556,
      "Ġavu": 1557,
      "Äįit": 1558,
      "Ġzve": 1559,
      "Ġbys": 1560,
      "tech": 1561,
      "ĠitÃŃ": 1562,
      "ĠsmÃŃch": 1563,
      "Å¯Å¾": 1564,
      "ĠnechÅ¥": 1565,
      "ĠlÃ¡skou": 1566,
      "Ġsvobo": 1567,
      "ĠdÄĽs": 1568,
      "Ġpouze": 1569,
      "kÃ¡m": 1570,
      "Ġlidu": 1571,
      "Å¯v": 1572,
      "mnÄĽ": 1573,
      "Ġkry": 1574,
      "ĠÃŃm": 1575,
      "Ġ1800": 1576,
      "ĠedÃ¡": 1577,
      "ĠvelkÃ©": 1578,
      "Ġkni": 1579,
      "ĠpÅ¯l": 1580,
      "Å¡enÃŃ": 1581,
      "vÃ¡n": 1582,
      "ĠolÃŃ": 1583,
      "ĠlÃ¡sku": 1584,
      "ĠnÄĽho": 1585,
      "Ġjisk": 1586,
      "ĠpÄĽt": 1587,
      "Ġsny": 1588,
      "Ġolu": 1589,
      "Ġtady": 1590,
      "Ġtat": 1591,
      "znÃŃ": 1592,
      "pas": 1593,
      "ĠuÄįÃŃ": 1594,
      "Ġtil": 1595,
      "ĠvdÄĽ": 1596,
      "ĠuÅ¡i": 1597,
      "Ġpotom": 1598,
      "Ġdost": 1599,
      "ĠchvÃ¡": 1600,
      "ĠvÃ½Å¡": 1601,
      "rÃ½ch": 1602,
      "Ġpomo": 1603,
      "Ġoci": 1604,
      "Ġned": 1605,
      "Ġmoud": 1606,
      "ĠsvÄĽtlo": 1607,
      "ABCB": 1608,
      "nech": 1609,
      "ĠkÃ½": 1610,
      "Ġvem": 1611,
      "Ġzouf": 1612,
      "ĠdÅĻÃŃv": 1613,
      "Ġpoj": 1614,
      "Ġvys": 1615,
      "ĠtÅĻ": 1616,
      "Ġude": 1617,
      "ĠvelkÃ½": 1618,
      "Ġvod": 1619,
      "ĠpolÃŃ": 1620,
      "Ġhory": 1621,
      "ĠnovÃ½": 1622,
      "ĠÃ¡li": 1623,
      "ĠbÃ½ti": 1624,
      "Ġtedy": 1625,
      "ĠbÃŃlÃ½": 1626,
      "kol": 1627,
      "ĠsklÃ¡": 1628,
      "Ġvich": 1629,
      "Ġtep": 1630,
      "Ġhlava": 1631,
      "Ġkve": 1632,
      "ĠÅ¾eny": 1633,
      "Ġout": 1634,
      "Ġtvou": 1635,
      "ĠvÅ¾dycky": 1636,
      "hlÃ©": 1637,
      "Ġsklo": 1638,
      "Ġret": 1639,
      "Ġsyn": 1640,
      "Ġska": 1641,
      "Ġoru": 1642,
      "ĠÃŃli": 1643,
      "ĠpÃŃsnÄĽ": 1644,
      "Ġalo": 1645,
      "ĠdÃ¡li": 1646,
      "ĠÅ¾Ã¡r": 1647,
      "Ġzby": 1648,
      "ĠslyÅ¡": 1649,
      "ĠÃŃci": 1650,
      "vajÃŃ": 1651,
      "ĠnÃ¡ru": 1652,
      "Ġzlat": 1653,
      "Ġpar": 1654,
      "Ġici": 1655,
      "Ġjdou": 1656,
      "Ġnese": 1657,
      "Ġnevy": 1658,
      "Ġich": 1659,
      "ĠzmÄĽ": 1660,
      "zko": 1661,
      "Ġmr": 1662,
      "ĠvlastnÃŃ": 1663,
      "Ġslzy": 1664,
      "Ġblu": 1665,
      "Ġstat": 1666,
      "Ġnce": 1667,
      "Ġposta": 1668,
      "Ġzlato": 1669,
      "Å¾el": 1670,
      "ĠdÃ½m": 1671,
      "ĠenÃ¡": 1672,
      "ĠvÄĽru": 1673,
      "Ġdivo": 1674,
      "stÅĻÃŃ": 1675,
      "Ġlist": 1676,
      "Å¾o": 1677,
      "ĠvÃŃtÄĽz": 1678,
      "ĠsvatÃ½": 1679,
      "ĠjejÅ¾": 1680,
      "ĠvÃŃtr": 1681,
      "ĠsvojÃŃ": 1682,
      "ĠÅ¡um": 1683,
      "bil": 1684,
      "ĠvÃ¡Å¾": 1685,
      "ĠmÃ¡Å¡": 1686,
      "chni": 1687,
      "kud": 1688,
      "Ġobraz": 1689,
      "mit": 1690,
      "ĠopÄĽt": 1691,
      "Ġpolo": 1692,
      "nostÃŃ": 1693,
      "Ġpapr": 1694,
      "Ġasy": 1695,
      "ĠmyÅ¡len": 1696,
      "Ġsty": 1697,
      "Ġneza": 1698,
      "ĠbouÅĻ": 1699,
      "Ġkrve": 1700,
      "Ġbol": 1701,
      "Ġzahra": 1702,
      "nik": 1703,
      "Ġol": 1704,
      "ek": 1705,
      "ĠmarnÄĽ": 1706,
      "ĠvÅ¡eho": 1707,
      "ĠstarÃ©": 1708,
      "Ġstej": 1709,
      "tla": 1710,
      "kÅĻi": 1711,
      "ĠjmÃ©": 1712,
      "ABBACC": 1713,
      "chÃ¡zÃŃ": 1714,
      "ÄįnÃ½": 1715,
      "hal": 1716,
      "Ġcos": 1717,
      "Ġzmi": 1718,
      "Ġnikdo": 1719,
      "spo": 1720,
      "ĠnÃ¡mi": 1721,
      "AXAX": 1722,
      "ÄįenÃŃ": 1723,
      "rÃ½m": 1724,
      "Ġije": 1725,
      "ABBCC": 1726,
      "ĠvaÅ¡e": 1727,
      "ĠblÃ¡": 1728,
      "zou": 1729,
      "Ġuti": 1730,
      "ĠdvÄĽ": 1731,
      "Ġboji": 1732,
      "ĠÃ¡ly": 1733,
      "dÄĽt": 1734,
      "Ġcestu": 1735,
      "ĠrÃ¡z": 1736,
      "ĠvÅ¡ude": 1737,
      "Ġpocho": 1738,
      "Ġbolest": 1739,
      "ĠpÅĻem": 1740,
      "ĠA": 1741,
      "Ġkar": 1742,
      "Ġily": 1743,
      "Ġmatka": 1744,
      "ĠmÃ¡lo": 1745,
      "Ġor": 1746,
      "ĠnÄĽkdy": 1747,
      "Ġbohat": 1748,
      "ĠnÄĽmu": 1749,
      "ĠkaÅ¾dÃ©": 1750,
      "Ġkat": 1751,
      "ĠhoÅĻÃŃ": 1752,
      "stra": 1753,
      "ĠmÃ©ho": 1754,
      "ĠÅĻa": 1755,
      "lna": 1756,
      "ĠÄı": 1757,
      "Ġodu": 1758,
      "Ġmysl": 1759,
      "ĠzÅĻel": 1760,
      "ĠmilÃ½": 1761,
      "ĠpÄĽk": 1762,
      "div": 1763,
      "ĠkrÃ¡t": 1764,
      "ĠneznÃ¡m": 1765,
      "dne": 1766,
      "hÅ¯ru": 1767,
      "ĠsvatÃ©": 1768,
      "Ġopu": 1769,
      "ĠsmÃ¡": 1770,
      "or": 1771,
      "ĠrÃ¡na": 1772,
      "Ġvele": 1773,
      "vost": 1774,
      "ĠpadÃ¡": 1775,
      "ĠhlÃ¡": 1776,
      "ĠprÃ¡vÄĽ": 1777,
      "ĠmÃŃr": 1778,
      "Ġrok": 1779,
      "Ġotev": 1780,
      "Ġzav": 1781,
      "Ġov": 1782,
      "Ġbal": 1783,
      "ĠpÅĻiÅ¡el": 1784,
      "ĠvidÃŃm": 1785,
      "Å¾it": 1786,
      "ĠmÃŃt": 1787,
      "Ġase": 1788,
      "Ġtek": 1789,
      "ĠnuÅ¾": 1790,
      "Ġbuj": 1791,
      "Ġaj": 1792,
      "sal": 1793,
      "Ġkouz": 1794,
      "ĠjistÄĽ": 1795,
      "Ġnul": 1796,
      "jat": 1797,
      "AXBB": 1798,
      "ĠdomÅ¯": 1799,
      "ĠlidÃ©": 1800,
      "ĠdnÃŃ": 1801,
      "ĠÃºsmÄĽv": 1802,
      "Ġct": 1803,
      "ĠdnÃ©": 1804,
      "tit": 1805,
      "din": 1806,
      "AC": 1807,
      "Ġnav": 1808,
      "Ġbohu": 1809,
      "ĠmÃŃsto": 1810,
      "Ġvon": 1811,
      "Ġvyh": 1812,
      "Ġeho": 1813,
      "ABAA": 1814,
      "lenÃŃ": 1815,
      "ĠkrÃ¡lov": 1816,
      "ĠnÄĽmÅ¾": 1817,
      "ĠtrÅ¯": 1818,
      "ĠsÃŃly": 1819,
      "ĠnemÃ¡": 1820,
      "Ġiti": 1821,
      "nÃ½mi": 1822,
      "ĠzpÄĽt": 1823,
      "snÄĽ": 1824,
      "lÃ©m": 1825,
      "Ġsvoji": 1826,
      "ĠzlatÃ½": 1827,
      "Ġeli": 1828,
      "Ġzal": 1829,
      "ĠsvÄĽtla": 1830,
      "ĠÃ¡la": 1831,
      "ĠhoÅĻe": 1832,
      "Ġmen": 1833,
      "Ġmilen": 1834,
      "Ġsama": 1835,
      "ĠucÃŃ": 1836,
      "ĠmlÃ¡dÃŃ": 1837,
      "Ġinu": 1838,
      "Ġrychle": 1839,
      "ĠvÅ¡echno": 1840,
      "Ġfi": 1841,
      "ĠprÃ¡ci": 1842,
      "Ġjaro": 1843,
      "sce": 1844,
      "ĠmilÃ¡": 1845,
      "ĠuÅ¡e": 1846,
      "Ġzv": 1847,
      "ĠstÃŃny": 1848,
      "ĠslÃ¡vy": 1849,
      "ĠÄĽÅ¾ÃŃ": 1850,
      "AABCBC": 1851,
      "Ġvzdo": 1852,
      "ĠprÃ¡ce": 1853,
      "kÅ¯m": 1854,
      "ĠbouÅĻe": 1855,
      "Ġzved": 1856,
      "ĠdÅ¯m": 1857,
      "ĠkrÃ¡sy": 1858,
      "ĠzÃ¡ÅĻi": 1859,
      "ĠneÅ¾li": 1860,
      "ĠkÅĻÃŃÅ¾": 1861,
      "ĠpÅĻijde": 1862,
      "Ġtrochu": 1863,
      "ĠmÃ½m": 1864,
      "Ġhovo": 1865,
      "Ġlad": 1866,
      "ĠÃŃÅ¾ÃŃ": 1867,
      "Ġvyp": 1868,
      "ĠÅ¡ko": 1869,
      "Ġboha": 1870,
      "ĠknÃŃ": 1871,
      "kle": 1872,
      "ĠnaÅ¡ÃŃ": 1873,
      "Ġody": 1874,
      "ĠavÄĽ": 1875,
      "ĠÅ¡la": 1876,
      "ĠdÄĽv": 1877,
      "ĠvzhÅ¯ru": 1878,
      "ĠchÃ½": 1879,
      "ĠvÄĽr": 1880,
      "Ġroze": 1881,
      "Ġsr": 1882,
      "Ġzr": 1883,
      "Ġtan": 1884,
      "ĠzpÃŃvÃ¡": 1885,
      "ckÃ©": 1886,
      "he": 1887,
      "Ġhospo": 1888,
      "Ġbyli": 1889,
      "XAXB": 1890,
      "ĠÄįek": 1891,
      "mÄĽnÃŃ": 1892,
      "tk": 1893,
      "ĠlidÃŃ": 1894,
      "tnÃ©": 1895,
      "ĠpÃŃsnÃŃ": 1896,
      "tnÃŃ": 1897,
      "dit": 1898,
      "ĠvÄįe": 1899,
      "Ġrozp": 1900,
      "lost": 1901,
      "ĠmoÅ¾": 1902,
      "ĠandÄĽl": 1903,
      "ĠjakÃ©": 1904,
      "der": 1905,
      "ĠtvÃ¡ÅĻe": 1906,
      "Ġspolu": 1907,
      "ĠnÄĽÅ¾": 1908,
      "Ġtal": 1909,
      "Å¾eh": 1910,
      "ĠÅĻeÄį": 1911,
      "Ġkoru": 1912,
      "ĠzaÄį": 1913,
      "skÃ©ho": 1914,
      "AXBC": 1915,
      "ĠnevÃŃ": 1916,
      "Ġzvolna": 1917,
      "Ġtku": 1918,
      "vila": 1919,
      "Ġbyly": 1920,
      "ĠtÃ½": 1921,
      "Ġslovo": 1922,
      "Ġnena": 1923,
      "ĠtvÃ¡ÅĻÃŃ": 1924,
      "valy": 1925,
      "Ġuku": 1926,
      "Ġnapo": 1927,
      "Ġina": 1928,
      "Ãº": 1929,
      "ĠkvÄĽtÅ¯": 1930,
      "Ġuz": 1931,
      "Ġzraky": 1932,
      "ĠpÅĻij": 1933,
      "Ġmysli": 1934,
      "ĠpovÄĽ": 1935,
      "Ġrov": 1936,
      "ĠvÃŃÅ¡": 1937,
      "ĠtvÃ¡ÅĻi": 1938,
      "ĠkÃ¡m": 1939,
      "ĠplÃ¡Äį": 1940,
      "ĠÅ¾iv": 1941,
      "Ġtolik": 1942,
      "Ġblaho": 1943,
      "stup": 1944,
      "Ġducha": 1945,
      "Ġkles": 1946,
      "Ġzdra": 1947,
      "ĠÅ¾el": 1948,
      "ĠvÄĽÄįnÄĽ": 1949,
      "nula": 1950,
      "bor": 1951,
      "ĠdolÅ¯": 1952,
      "Ġomu": 1953,
      "ĠzrÃ¡": 1954,
      "ÅĻa": 1955,
      "ĠvÅ¡ichni": 1956,
      "Å¾Ã¡": 1957,
      "Ġkamen": 1958,
      "Ġaky": 1959,
      "ĠmÄĽsta": 1960,
      "Ġvyso": 1961,
      "ABBCCD": 1962,
      "ĠjÅ¡ÃŃ": 1963,
      "bra": 1964,
      "Ġbudu": 1965,
      "Ġbeze": 1966,
      "ĠÅ¾ÃŃt": 1967,
      "Ġdoby": 1968,
      "ĠhruÄı": 1969,
      "vÃ©ho": 1970,
      "Ġhoj": 1971,
      "Ġoby": 1972,
      "ĠnichÅ¾": 1973,
      "ĠÃ½mi": 1974,
      "ĠÅ¾lu": 1975,
      "ĠÃ¡ÅĻe": 1976,
      "Ġzbra": 1977,
      "ĠoÅ¾ÃŃ": 1978,
      "Ġprach": 1979,
      "ĠskrÃ½": 1980,
      "ĠatÃ©": 1981,
      "ĠzÅĻÃŃm": 1982,
      "Ġnel": 1983,
      "ĠivÃ½": 1984,
      "ĠÅĻÃŃm": 1985,
      "ĠujÃŃ": 1986,
      "Ġsmy": 1987,
      "Ġsebou": 1988,
      "Ġpodo": 1989,
      "Ġopo": 1990,
      "ĠmyÅ¡lÃ©": 1991,
      "ĠÄįekÃ¡": 1992,
      "Ġprsou": 1993,
      "Ġkrva": 1994,
      "Ġlesy": 1995,
      "Ġkap": 1996,
      "in": 1997,
      "ĠÄįku": 1998,
      "Ġdil": 1999,
      "Ġzdo": 2000,
      "ĠÃ¡me": 2001,
      "Ġzdvi": 2002,
      "Ġory": 2003,
      "dÄĽj": 2004,
      "ĠmÄĽk": 2005,
      "Ġvlny": 2006,
      "rÃ©m": 2007,
      "ĠtÅĻpy": 2008,
      "ĠÄįernÃ©": 2009,
      "sek": 2010,
      "18": 2011,
      "!...": 2012,
      "stil": 2013,
      "ĠtisÃŃc": 2014,
      "ĠivÃ¡": 2015,
      "Ġasu": 2016,
      "ĠanÃ©": 2017,
      "ĠmrÃ¡": 2018,
      "ĠÄĽli": 2019,
      "Ġnap": 2020,
      "ĠjinÃ©": 2021,
      "ĠÄĽjÃŃ": 2022,
      "Ġtouhy": 2023,
      "ĠnaÅ¡ich": 2024,
      "bal": 2025,
      "ĠodÃŃ": 2026,
      "ĠptÃ¡k": 2027,
      "Ġyla": 2028,
      "ĠzvÃŃ": 2029,
      "tila": 2030,
      "Ġmd": 2031,
      "stem": 2032,
      "Ġchat": 2033,
      "Ġspat": 2034,
      "Ġelo": 2035,
      "nici": 2036,
      "ĠudÃŃ": 2037,
      "ĠkdoÅ¾": 2038,
      "Ġhlubi": 2039,
      "dila": 2040,
      "ĠklÃ¡": 2041,
      "Ġhrad": 2042,
      "Ġtakto": 2043,
      "ĠlÃ¡sce": 2044,
      "Ġkdes": 2045,
      "ĠsladkÃ©": 2046,
      "Ġprch": 2047,
      "ĠblÃŃÅ¾": 2048,
      "ĠÃŃle": 2049,
      "Ġvzp": 2050,
      "ĠÃ¡zÃŃ": 2051,
      "skÃ©m": 2052,
      "ec": 2053,
      "Ġpev": 2054,
      "Ġokem": 2055,
      "ÅĻela": 2056,
      "Ġhej": 2057,
      "Ġply": 2058,
      "Ġnku": 2059,
      "Ġstrom": 2060,
      "ĠvlÃŃ": 2061,
      "Ġvna": 2062,
      "Ġdosud": 2063,
      "ĠpÅĻÃŃro": 2064,
      "Ã¡c": 2065,
      "ĠÄįem": 2066,
      "Ġmilost": 2067,
      "ĠnocÃŃ": 2068,
      "ĠÃ¡lo": 2069,
      "skÃ½m": 2070,
      "Ġcen": 2071,
      "Ġbohem": 2072,
      "on": 2073,
      "ĠztrÃ¡": 2074,
      "ĠÃ¡ÅĻÃŃ": 2075,
      "ĠÅ¯Å¾e": 2076,
      "ĠvÄĽk": 2077,
      "tko": 2078,
      "zni": 2079,
      "Ġdle": 2080,
      "ĠmÄĽsÃŃc": 2081,
      "ĠÄįil": 2082,
      "ĠvÅ¯nÄĽ": 2083,
      "ĠkrÃ¡snÃ©": 2084,
      "ĠzmÃŃ": 2085,
      "bÃ½": 2086,
      "ĠsnÃ¡": 2087,
      "ĠstÃ©": 2088,
      "ĠvÃ½Å¡e": 2089,
      "Ġchmu": 2090,
      "Å¡ka": 2091,
      "ĠtÄĽla": 2092,
      "ĠpÅ¯j": 2093,
      "Ġznova": 2094,
      "gi": 2095,
      "ĠvÃ¡l": 2096,
      "Ġperu": 2097,
      "ĠsnÃŃh": 2098,
      "ĠÃ¡ÅĻi": 2099,
      "ĠslyÅ¡ÃŃ": 2100,
      "Ġzjev": 2101,
      "ABCDCD": 2102,
      "ĠsvÄĽtem": 2103,
      "Ġrod": 2104,
      "Ġklen": 2105,
      "Ġlil": 2106,
      "ĠohnÄĽ": 2107,
      "letÃŃ": 2108,
      "ĠejÃŃ": 2109,
      "ĠlÃŃc": 2110,
      "stech": 2111,
      "mÃ½": 2112,
      "AXX": 2113,
      "Ġzap": 2114,
      "Ġasi": 2115,
      "ĠÄįasem": 2116,
      "ĠsedÃŃ": 2117,
      "zal": 2118,
      "teli": 2119,
      "ĠnesmÃŃ": 2120,
      "cela": 2121,
      "ĠprÅ¯": 2122,
      "Ġnebu": 2123,
      "nÃ¡nÃŃ": 2124,
      "Ġvody": 2125,
      "ĠnÃ¡d": 2126,
      "ĠkÅĻÃŃdla": 2127,
      "ĠatÃ½": 2128,
      "ĠÃ©mu": 2129,
      "ĠlÃŃce": 2130,
      "Å¡nÄĽ": 2131,
      "Ġchla": 2132,
      "ĠmÃ©m": 2133,
      "ĠusmÃŃ": 2134,
      "Ġvyz": 2135,
      "ĠkÅ¯": 2136,
      "ĠhoÅĻ": 2137,
      "ĠvÄĽky": 2138,
      "ĠjakÃ¡": 2139,
      "Ġpropa": 2140,
      "chÅ¯": 2141,
      "Ġoli": 2142,
      "rk": 2143,
      "ĠhnÃŃ": 2144,
      "tÅĻe": 2145,
      "nila": 2146,
      "ĠpravÃŃ": 2147,
      "ĠÅ¡li": 2148,
      "ĠeÅ¾ÃŃ": 2149,
      "ĠslyÅ¡e": 2150,
      "ABABAB": 2151,
      "roz": 2152,
      "novÃ©": 2153,
      "ĠcelÃ¡": 2154,
      "valo": 2155,
      "ĠjÃŃt": 2156,
      "Ġobzo": 2157,
      "ĠnaÄį": 2158,
      "ĠÃ¡no": 2159,
      "Ġpta": 2160,
      "ĠdÃ¡t": 2161,
      "Ġdrob": 2162,
      "ĠemÄĽ": 2163,
      "Ġuce": 2164,
      "Ġpozdra": 2165,
      "tro": 2166,
      "kÃ¡nÃŃ": 2167,
      "Ġole": 2168,
      "ĠÄįka": 2169,
      "ĠtÄĽm": 2170,
      "Ġvzal": 2171,
      "ali": 2172,
      "ĠÃ¡ni": 2173,
      "ĠkrvÃŃ": 2174,
      "rech": 2175,
      "Ġkterak": 2176,
      "Ġvzne": 2177,
      "ĠÃºst": 2178,
      "leh": 2179,
      "Ġubo": 2180,
      "Ġdomo": 2181,
      "Ġar": 2182,
      "ĠzaÅ¡": 2183,
      "ĠÄĽly": 2184,
      "Ġmodlit": 2185,
      "ĠsnÄĽnÃŃ": 2186,
      "ĠnÃ©m": 2187,
      "Ġver": 2188,
      "Ġproud": 2189,
      "Ġobje": 2190,
      "ĠpojÄı": 2191,
      "ĠvstÅĻÃŃ": 2192,
      "Ġstru": 2193,
      "ĠzÃ¡vo": 2194,
      "Ġlep": 2195,
      "ĠÄįele": 2196,
      "ĠtoÅ¾": 2197,
      "ĠmluvÃŃ": 2198,
      "ĠanÄĽ": 2199,
      "ĠstarÃ¡": 2200,
      "kli": 2201,
      "ata": 2202,
      "Ġete": 2203,
      "ĠÃ¡ny": 2204,
      "Ġkrok": 2205,
      "ĠidÃŃ": 2206,
      "klo": 2207,
      "Ġotro": 2208,
      "ĠmyslÃŃ": 2209,
      "Å¾ÃŃm": 2210,
      "Ġcesty": 2211,
      "del": 2212,
      "ĠvstÅĻÃŃc": 2213,
      "lez": 2214,
      "ĠvzdÃ¡": 2215,
      "ĠjinÃ½": 2216,
      "Ġtisk": 2217,
      "ĠslavÃŃ": 2218,
      "ĠzÃ¡pas": 2219,
      "Ġoce": 2220,
      "ĠblaÅ¾en": 2221,
      "Ġmohu": 2222,
      "AAXX": 2223,
      "Ġsnu": 2224,
      "dr": 2225,
      "lila": 2226,
      "hlÃŃ": 2227,
      "lÃ©b": 2228,
      "Ġudu": 2229,
      "Ġjedna": 2230,
      "ABBACD": 2231,
      "hra": 2232,
      "Ġsho": 2233,
      "ĠÅ¾ije": 2234,
      "Ġkterou": 2235,
      "Ġkdysi": 2236,
      "ĠmÄĽla": 2237,
      "ĠzÃ¡m": 2238,
      "Å¡ku": 2239,
      "Ġkmit": 2240,
      "ĠdÃŃvÃ¡": 2241,
      "Ġoblo": 2242,
      "ĠÃ¡ci": 2243,
      "Ġzvy": 2244,
      "ĠÃŃme": 2245,
      "ĠnÄĽco": 2246,
      "zrak": 2247,
      "Ġlam": 2248,
      "cit": 2249,
      "ĠalÃŃ": 2250,
      "Ġnky": 2251,
      "ĠzÃ¡ÅĻe": 2252,
      "ĠuÄįi": 2253,
      "Ġcestou": 2254,
      "Ġvedle": 2255,
      "ĠslÃ¡va": 2256,
      "Ġeje": 2257,
      "ĠjÃŃÅ¾": 2258,
      "Ġrad": 2259,
      "Ġpest": 2260,
      "Ġnelze": 2261,
      "Ġrozum": 2262,
      "ĠdÃ½ch": 2263,
      "ujÃŃ": 2264,
      "Ġplach": 2265,
      "ĠcÃŃtÃŃ": 2266,
      "Ġdosti": 2267,
      "ĠzboÅ¾": 2268,
      "kone": 2269,
      "ĠpÄĽv": 2270,
      "Ġony": 2271,
      "mÄĽl": 2272,
      "ĠbÃŃlÃ¡": 2273,
      "ĠplnÃ½": 2274,
      "ÅĻenÃŃ": 2275,
      "jel": 2276,
      "mem": 2277,
      "vati": 2278,
      "Ġhloub": 2279,
      "Ġbratr": 2280,
      "Ġlen": 2281,
      "Ġjara": 2282,
      "ĠuÅ¾ÃŃ": 2283,
      "ĠvÅ¡echny": 2284,
      "Ġvln": 2285,
      "ĠÃ½Å¡e": 2286,
      "Å¾enÃŃ": 2287,
      "ĠatÃŃ": 2288,
      "Ġmatky": 2289,
      "ĠsvÃ©mu": 2290,
      "ĠdÄĽc": 2291,
      "ĠbouÅĻÃŃ": 2292,
      "ĠmladÃ½": 2293,
      "vÄĽl": 2294,
      "ĠskÃ¡ly": 2295,
      "Ġble": 2296,
      "Ġohni": 2297,
      "vad": 2298,
      "Ġtrp": 2299,
      "Ġvez": 2300,
      "Ġslunci": 2301,
      "Ġdole": 2302,
      "ĠmoÅĻi": 2303,
      "ĠrÃ¡j": 2304,
      "uj": 2305,
      "Ġdav": 2306,
      "pÃ½": 2307,
      "kl": 2308,
      "ĠdÃ½": 2309,
      "kro": 2310,
      "ĠvÄĽc": 2311,
      "Ġvlas": 2312,
      "ke": 2313,
      "liÅ¡": 2314,
      "Ġhodi": 2315,
      "Ġvzduch": 2316,
      "ĠcÃŃsa": 2317,
      "Ġtouha": 2318,
      "ĠÄįela": 2319,
      "tÄĽl": 2320,
      "Ġhlasem": 2321,
      "sen": 2322,
      "Ġzti": 2323,
      "vol": 2324,
      "XABB": 2325,
      "Ġdoma": 2326,
      "Ġ,": 2327,
      "Ġnaz": 2328,
      "AABBCD": 2329,
      "ĠmnohÃ½": 2330,
      "hled": 2331,
      "ĠÄįky": 2332,
      "Ġhrobu": 2333,
      "ĠmojÃŃ": 2334,
      "mlu": 2335,
      "ĠadÃ¡": 2336,
      "ĠovÃ¡": 2337,
      "dÄĽli": 2338,
      "ĠhÅĻe": 2339,
      "roj": 2340,
      "koli": 2341,
      "ĠtvÃ©ho": 2342,
      "ĠbÄĽda": 2343,
      "Ġnil": 2344,
      "Ġcelou": 2345,
      "Ġfa": 2346,
      "ĠnevÃŃm": 2347,
      "Ġano": 2348,
      "ĠÃºsta": 2349,
      "nouti": 2350,
      "ĠdvÃ©": 2351,
      "Ã¡ch": 2352,
      "ĠdlÃŃ": 2353,
      "Ġohe": 2354,
      "hod": 2355,
      "Ġnohou": 2356,
      "Ġrty": 2357,
      "Ġtvrd": 2358,
      "ĠhlavÄĽ": 2359,
      "ĠvyÅ¡": 2360,
      "ĠhlÃŃ": 2361,
      "ĠedÃŃ": 2362,
      "ĠjehoÅ¾": 2363,
      "Ġman": 2364,
      "str": 2365,
      "Ġchvil": 2366,
      "ĠkaÅ¾dÃ¡": 2367,
      "ĠovÃŃ": 2368,
      "Ġminu": 2369,
      "ĠbyÅ¥": 2370,
      "Ġpravil": 2371,
      "dky": 2372,
      "Ġstou": 2373,
      "Ġely": 2374,
      "ĠstÃŃnu": 2375,
      "ĠsladkÃ½": 2376,
      "dra": 2377,
      "Ġsme": 2378,
      "Ġokam": 2379,
      "Ġhas": 2380,
      "ĠstromÅ¯": 2381,
      "ABXB": 2382,
      "Ġtmy": 2383,
      "dÃ¡m": 2384,
      "Ġzpo": 2385,
      "hÃ½ch": 2386,
      "ĠmuÅ¾i": 2387,
      "Ġvsta": 2388,
      "Ġkraje": 2389,
      "ĠsvÄĽÅ¾ÃŃ": 2390,
      "ĠÃ¡te": 2391,
      "ĠÃŃnÃ¡": 2392,
      "Ġkva": 2393,
      "Ġylo": 2394,
      "Ġzku": 2395,
      "ĠaÄįÃŃ": 2396,
      "ĠivÃ©": 2397,
      "ĠÅĻad": 2398,
      "ĠoheÅĪ": 2399,
      "ĠdnÅ¯": 2400,
      "ĠklidnÄĽ": 2401,
      "Ġera": 2402,
      "Ġnak": 2403,
      "Ġramen": 2404,
      "sÃŃm": 2405,
      "cÃ½": 2406,
      "ĠkÃ©": 2407,
      "ĠslÃŃ": 2408,
      "ckÃ½": 2409,
      "Å¡ek": 2410,
      "ĠdruÅ¾": 2411,
      "ĠdÃ¡lky": 2412,
      "Ġruky": 2413,
      "ĠplnÃ©": 2414,
      "Ġjdu": 2415,
      "ĠodÄĽ": 2416,
      "ĠkrÃ¡snÃ¡": 2417,
      "ĠÅĻÃŃci": 2418,
      "Ġtry": 2419,
      "Ġeno": 2420,
      "Ġsoud": 2421,
      "ĠloÄı": 2422,
      "ĠhledÃ¡": 2423,
      "Ġtre": 2424,
      "ĠzatÃŃm": 2425,
      "Ġata": 2426,
      "Ġkonec": 2427,
      "ĠhnÃŃz": 2428,
      "Ġvzdech": 2429,
      "ÅĻo": 2430,
      "ĠdobrÃ½": 2431,
      "dajÃŃ": 2432,
      "ĠdÃ¡vÃ¡": 2433,
      "ĠhleÄı": 2434,
      "ĠÅĻi": 2435,
      "tnÃ½": 2436,
      "Ġprosto": 2437,
      "Ġtako": 2438,
      "ĠkrÃ¡ÄįÃŃ": 2439,
      "Ġzka": 2440,
      "ĠÅ¾it": 2441,
      "ĠjarnÃŃ": 2442,
      "Ġvzdy": 2443,
      "ĠÃŃÅ¾e": 2444,
      "nko": 2445,
      "ĠtÃ©to": 2446,
      "ĠÄįt": 2447,
      "ĠmladÃ©": 2448,
      "ĠonÄĽ": 2449,
      "Ġtka": 2450,
      "ĠchÅ¯": 2451,
      "Ġvlasy": 2452,
      "ĠskvÄĽ": 2453,
      "ĠrÃ¡no": 2454,
      "ĠnadÄĽje": 2455,
      "vec": 2456,
      "ĠÅĻil": 2457,
      "Ġal": 2458,
      "ĠÄįÃ¡": 2459,
      "Ġohu": 2460,
      "ĠkÃ©Å¾": 2461,
      "dat": 2462,
      "ĠnaÅĪ": 2463,
      "Ġdobro": 2464,
      "ĠsÃŃla": 2465,
      "ĠÃ¡cÃŃ": 2466,
      "ĠlidskÃ©": 2467,
      "ĠÃŃtÄĽ": 2468,
      "Ġjakby": 2469,
      "ABAC": 2470,
      "Ġovi": 2471,
      "ĠinÄĽ": 2472,
      "Ġobu": 2473,
      "Ġotce": 2474,
      "ĠlÃ©ta": 2475,
      "ĠvÄĽÄįnÃ©": 2476,
      "Ġany": 2477,
      "Ġkmen": 2478,
      "dala": 2479,
      "ĠtvÃ½m": 2480,
      "Å¡ky": 2481,
      "Ġrej": 2482,
      "Å¡nÃ©": 2483,
      "Ġnebyl": 2484,
      "ĠkÃ¡men": 2485,
      "ĠmuÅ¾e": 2486,
      "prv": 2487,
      "ĠtvÃ©m": 2488,
      "ĠdrahÃ¡": 2489,
      "Ġdny": 2490,
      "tnÄĽ": 2491,
      "ĠmÃ¡me": 2492,
      "ĠnemÄĽ": 2493,
      "Ġhlo": 2494,
      "ĠdnÄĽ": 2495,
      "mr": 2496,
      "Ġpravda": 2497,
      "ĠusÃŃ": 2498,
      "ĠslyÅ¡el": 2499,
      "ĠtichÃ©": 2500,
      "ĠÃ¡nÄĽ": 2501,
      "snÃ©": 2502,
      "Ġzro": 2503,
      "tajÃŃ": 2504,
      "ĠÃŃru": 2505,
      "ĠÃ¡tÃŃ": 2506,
      "ĠÅ¾eh": 2507,
      "ĠpÃ¡r": 2508,
      "ĠavÃ©": 2509,
      "Ġnade": 2510,
      "Ġonu": 2511,
      "ĠÄįest": 2512,
      "zeÅĪ": 2513,
      "ĠrÃ¡ny": 2514,
      "ĠmilÃ©": 2515,
      "tÃ¡m": 2516,
      "ĠjichÅ¾": 2517,
      "ĠtisÃŃce": 2518,
      "ĠoltÃ¡": 2519,
      "Ġbrzy": 2520,
      "Ġhod": 2521,
      "poÅĪ": 2522,
      "Ġslov": 2523,
      "ĠvÄĽtÅ¡ÃŃ": 2524,
      "Ġspou": 2525,
      "ĠÄįin": 2526,
      "ĠÄįernÃ½": 2527,
      "Ġnekone": 2528,
      "ĠÃŃlÃŃ": 2529,
      "ĠaspoÅĪ": 2530,
      "ĠÄįech": 2531,
      "ĠilÃ½": 2532,
      "ĠvÃ©m": 2533,
      "ĠrytÃŃ": 2534,
      "Ġradosti": 2535,
      "ĠjÃŃmÅ¾": 2536,
      "hnu": 2537,
      "Ġsud": 2538,
      "ĠÃŃmÃ¡": 2539,
      "mil": 2540,
      "ĠÅĻeÄįi": 2541,
      "ĠmalÃ½": 2542,
      "Ġslz": 2543,
      "ĠomÅ¯": 2544,
      "ĠÃ¡dÃ¡": 2545,
      "ĠdruhÃ½": 2546,
      "neÅ¡": 2547,
      "dej": 2548,
      "ĠzÃŃtra": 2549,
      "Ġrozk": 2550,
      "Ġpodzi": 2551,
      "ĠoÅĻi": 2552,
      "van": 2553,
      "Ġyne": 2554,
      "losti": 2555,
      "ĠzdrÃ¡": 2556,
      "Äįin": 2557,
      "Ġtento": 2558,
      "ĠtichÃ½": 2559,
      "ĠcÃŃtÃŃm": 2560,
      "ĠrÅ¯Å¾ÃŃ": 2561,
      "kala": 2562,
      "Å¯l": 2563,
      "ĠmotÃ½": 2564,
      "ĠtÄĽl": 2565,
      "Ġlze": 2566,
      "Ġjazy": 2567,
      "Ġene": 2568,
      "ÅĻed": 2569,
      "Ġblanky": 2570,
      "Ġjinak": 2571,
      "Ġrodi": 2572,
      "ĠpÅĻede": 2573,
      "ĠlÅ¯": 2574,
      "ĠobrÃ¡": 2575,
      "ĠÅĻekl": 2576,
      "ĠzdÃ¡lo": 2577,
      "ĠmÃŃru": 2578,
      "Ġota": 2579,
      "Ġdoko": 2580,
      "Äįet": 2581,
      "Ġznovu": 2582,
      "ĠÃŃtÃ¡": 2583,
      "Ġpry": 2584,
      "Å¡te": 2585,
      "ĠpoÅ¾eh": 2586,
      "noucÃŃ": 2587,
      "ĠpÅĻÃŃliÅ¡": 2588,
      "Ġsrdcem": 2589,
      "ĠpovÃŃ": 2590,
      "Ġhlad": 2591,
      "ĠvÄĽÅĻ": 2592,
      "Ġstromy": 2593,
      "Ġpovz": 2594,
      "Ġdni": 2595,
      "Ġprapo": 2596,
      "Ġmoji": 2597,
      "ĠÅ¾alo": 2598,
      "ĠvÄĽkÅ¯": 2599,
      "Ġhar": 2600,
      "Ġroste": 2601,
      "lÃ©t": 2602,
      "ĠkÅĻÃŃd": 2603,
      "bnÃŃ": 2604,
      "Ġlek": 2605,
      "XC": 2606,
      "ĠkonÄĽ": 2607,
      "Ġboje": 2608,
      "Ġcti": 2609,
      "rÃ¡ch": 2610,
      "ĠelÃ½": 2611,
      "Ġovy": 2612,
      "ĠdÃŃvka": 2613,
      "ĠskÃ½": 2614,
      "ck": 2615,
      "ĠmÄĽsto": 2616,
      "Ġdarmo": 2617,
      "Ġpol": 2618,
      "ĠÄĽtÃŃ": 2619,
      "ĠdlouhÃ©": 2620,
      "Ġset": 2621,
      "ĠvÃŃru": 2622,
      "ĠdobÄĽ": 2623,
      "Ġjiz": 2624,
      "sel": 2625,
      "Ġhloubi": 2626,
      "ÅĻila": 2627,
      "ĠkrÃ¡snÃ½": 2628,
      "ĠdÃ©": 2629,
      "Ġprachu": 2630,
      "Ġzmat": 2631,
      "ĠlesÅ¯": 2632,
      "Ġuze": 2633,
      "ĠchodÃŃ": 2634,
      "snÃ½": 2635,
      "rnÃ¡": 2636,
      "Ġvti": 2637,
      "ĠbÃ¡snÃŃ": 2638,
      "Ġleb": 2639,
      "ĠzÃ¡ko": 2640,
      "Ġeru": 2641,
      "Ġuka": 2642,
      "Ġedu": 2643,
      "ĠkvÃŃtÃŃ": 2644,
      "Ġovu": 2645,
      "Ġosu": 2646,
      "ju": 2647,
      "ĠhvÄĽzda": 2648,
      "Ġvede": 2649,
      "ĠchrÃ¡m": 2650,
      "nami": 2651,
      "ĠbratÅĻÃŃ": 2652,
      "rnÃŃ": 2653,
      "ĠÄĽta": 2654,
      "ĠkrÃ¡li": 2655,
      "ĠdÄĽdi": 2656,
      "Äįkou": 2657,
      "Ġoly": 2658,
      "Ġrek": 2659,
      "Ġzrakem": 2660,
      "Ġnapos": 2661,
      "Ġsad": 2662,
      "brÃ¡": 2663,
      "tele": 2664,
      "Ġrve": 2665,
      "Ġzvuk": 2666,
      "nÃ¡Å¡ÃŃ": 2667,
      "Ġmilosti": 2668,
      "ĠchceÅ¡": 2669,
      "ie": 2670,
      "Ġzam": 2671,
      "ĠkteÅĻÃŃ": 2672,
      "lÃ©ho": 2673,
      "ÄįÃ¡": 2674,
      "ĠanÃ½": 2675,
      "ĠhnÄĽv": 2676,
      "kat": 2677,
      "ĠzÅ¯sta": 2678,
      "ĠdrahÃ©": 2679,
      "Ġstaro": 2680,
      "vÃŃrÃ¡": 2681,
      "ĠrÅ¯z": 2682,
      "Ġonen": 2683,
      "ĠÄįasu": 2684,
      "ÄįnÃ¡": 2685,
      "Ġuky": 2686,
      "zku": 2687,
      "ĠvaÅ¡i": 2688,
      "Ġoch": 2689,
      "ĠcÃŃtil": 2690,
      "ĠsnÃ©": 2691,
      "Ġsest": 2692,
      "ĠnedÃ¡": 2693,
      "ĠknÃŃÅ¾e": 2694,
      "Ġtruch": 2695,
      "livÄĽ": 2696,
      "ĠÅ¡umÃŃ": 2697,
      "Ġraj": 2698,
      "ĠacÃŃ": 2699,
      "Ã½vÃ¡": 2700,
      "ĠchvÄĽje": 2701,
      "ĠÃŃly": 2702,
      "Ġdum": 2703,
      "ĠmajÃŃ": 2704,
      "ĠbÅĻehu": 2705,
      "Ġjmen": 2706,
      "Ġhrudi": 2707,
      "ĠtenkrÃ¡t": 2708,
      "ĠpÅĻÃŃÅ¡tÃŃ": 2709,
      "ĠpÃŃsni": 2710,
      "ĠÃŃte": 2711,
      "Ġlesa": 2712,
      "Å¡ÃŃch": 2713,
      "vej": 2714,
      "Ġine": 2715,
      "ĠlistÃŃ": 2716,
      "ÅĻÅ¯": 2717,
      "ĠpÃ¡ni": 2718,
      "Ġokna": 2719,
      "Ġjestli": 2720,
      "ĠvzÃ¡c": 2721,
      "ĠstrÃ¡Å¾": 2722,
      "kÅĻik": 2723,
      "ĠbudeÅ¡": 2724,
      "ĠvÅ¯kol": 2725,
      "Ġposud": 2726,
      "Ġcesta": 2727,
      "ĠsÃŃlu": 2728,
      "ĠubÃŃ": 2729,
      "Ġpln": 2730,
      "ĠÃ¡va": 2731,
      "chal": 2732,
      "ĠÄıÃ¡": 2733,
      "Ġduchu": 2734,
      "ĠlÃŃto": 2735,
      "Ġrost": 2736,
      "ĠslyÅ¡ÃŃm": 2737,
      "Ġdve": 2738,
      "ĠnÃ¡ruÄį": 2739,
      "Ġtouhou": 2740,
      "ABCCD": 2741,
      "ĠrÅ¯Å¾o": 2742,
      "ĠrÃ¡t": 2743,
      "chÃ½": 2744,
      "Ġnim": 2745,
      "ĠblÃ½": 2746,
      "ĠmalÃ©": 2747,
      "Ġscho": 2748,
      "Ġnesly": 2749,
      "Ġvit": 2750,
      "slo": 2751,
      "ĠovÃ½": 2752,
      "ĠdobrÃ©": 2753,
      "ĠrÃ¡zem": 2754,
      "nala": 2755,
      "Ġroj": 2756,
      "AXAB": 2757,
      "ĠÄįet": 2758,
      "Ġsma": 2759,
      "Ġviz": 2760,
      "ĠvÅ¡emi": 2761,
      "ĠÅĪa": 2762,
      "ĠkrÃ¡se": 2763,
      "ĠsplÃ½": 2764,
      "Ġuhy": 2765,
      "ĠskÃ©": 2766,
      "her": 2767,
      "ĠilÃ¡": 2768,
      "Ġhoch": 2769,
      "ĠvÅ¯le": 2770,
      "Ġsne": 2771,
      "ĠotÃ¡": 2772,
      "ÅĻÃŃt": 2773,
      "ĠÅĪader": 2774,
      "Å¡lo": 2775,
      "pÅ¯": 2776,
      "ĠvalÃŃ": 2777,
      "ĠukÃ¡": 2778,
      "Ġzapla": 2779,
      "ĠjasnÃ©": 2780,
      "Ġzbu": 2781,
      "ĠkrÃ¡le": 2782,
      "Ġlese": 2783,
      "ĠsvÄĽtu": 2784,
      "lku": 2785,
      "ĠekÃ¡": 2786,
      "Ġprobu": 2787,
      "Ġuse": 2788,
      "Ġlidstva": 2789,
      "et": 2790,
      "Ġzoufal": 2791,
      "ĠĠĊ": 2792,
      "Ġtit": 2793,
      "skem": 2794,
      "stÃ¡vÃ¡": 2795,
      "ĠvÄĽÄįnÃ½": 2796,
      "ĠrozkoÅ¡": 2797,
      "ĠzvlÃ¡": 2798,
      "ĠzapomnÄĽ": 2799,
      "Ġzasta": 2800,
      "ĠpryÄį": 2801,
      "Ġpravdu": 2802,
      "Ġoho": 2803,
      "Ġspi": 2804,
      "Ġpas": 2805,
      "Ġnas": 2806,
      "ĠpÃ©": 2807,
      "Ġvenku": 2808,
      "Ġnevin": 2809,
      "Ġom": 2810,
      "Äįila": 2811,
      "Ġklam": 2812,
      "Ġkoste": 2813,
      "Ġuna": 2814,
      "Ġbit": 2815,
      "dek": 2816,
      "enÃ¡": 2817,
      "Ġzadu": 2818,
      "ĠcÃŃl": 2819,
      "Ġklet": 2820,
      "ĠklonÃŃ": 2821,
      "ĠjmÃ©no": 2822,
      "ĠsvatÃ¡": 2823,
      "ÅĻenÃ©": 2824,
      "ĠoÄįÃŃch": 2825,
      "ĠokamÅ¾i": 2826,
      "Ġlidem": 2827,
      "ĠzÃ¡hy": 2828,
      "ĠovÅ¡em": 2829,
      "Ġnechce": 2830,
      "Ġchle": 2831,
      "met": 2832,
      "rom": 2833,
      "ĠpÅĻiÅ¡la": 2834,
      "ĠtÄĽÅ¾kÃ©": 2835,
      "Ġples": 2836,
      "ĠrÃ¡l": 2837,
      "ĠpÃ½ch": 2838,
      "Ġpout": 2839,
      "Ġbudouc": 2840,
      "us": 2841,
      "ĠvÃ½Å¡i": 2842,
      "ĠÃ¡Äįe": 2843,
      "ĠÃŃnu": 2844,
      "chÃ¡ze": 2845,
      "Ġztracen": 2846,
      "Ġzdi": 2847,
      "ĠmÅ¾i": 2848,
      "Ġdala": 2849,
      "Ġrozho": 2850,
      "ĠplÃ¡Äįe": 2851,
      "ĠkrÅ¯": 2852,
      "Ġfran": 2853,
      "ĠÃŃÅ¡e": 2854,
      "hÃ¡m": 2855,
      "Ġstvo": 2856,
      "penÃŃ": 2857,
      "Ġtva": 2858,
      "ĠzdÄĽ": 2859,
      "ĠdÃŃm": 2860,
      "ĠdÄĽtÃŃ": 2861,
      "ĠdÅ¯vÄĽ": 2862,
      "ĠatÃ¡": 2863,
      "Ġpoho": 2864,
      "dÃ¡nÃŃ": 2865,
      "dka": 2866,
      "Ġava": 2867,
      "Ġspas": 2868,
      "Ġsladce": 2869,
      "Ġral": 2870,
      "Ġzni": 2871,
      "Ġovo": 2872,
      "vin": 2873,
      "ĠtÃ³": 2874,
      "Äįnou": 2875,
      "ĠÃŃkÅ¯": 2876,
      "Ġmohl": 2877,
      "ĠÃ¡ÄįÃŃ": 2878,
      "Ġnohy": 2879,
      "Ġudy": 2880,
      "ĠÅĻas": 2881,
      "Ġoni": 2882,
      "Ġur": 2883,
      "hli": 2884,
      "ĠÄĽlÃ½": 2885,
      "Ġzhas": 2886,
      "Ġpokoj": 2887,
      "ĠÅĻÃŃÅ¡": 2888,
      "klad": 2889,
      "ĠdrahÃ½": 2890,
      "ĠopÃŃ": 2891,
      "ĠmizÃŃ": 2892,
      "ĠvÄĽz": 2893,
      "ĠelÃ©": 2894,
      "Ġboku": 2895,
      "Ġspra": 2896,
      "Ġpodzim": 2897,
      "jÃŃch": 2898,
      "Ġvztek": 2899,
      "ĠrÃ¡da": 2900,
      "Ġstrach": 2901,
      "ĠsmutnÄĽ": 2902,
      "ĠdÄĽla": 2903,
      "dÃ½ch": 2904,
      "Ġvyk": 2905,
      "ĠchtÄĽla": 2906,
      "Ġaty": 2907,
      "ĠhÃ¡j": 2908,
      "Ġluh": 2909,
      "Ġrev": 2910,
      "stvo": 2911,
      "bnÃ©": 2912,
      "ĠmladÃ¡": 2913,
      "Ġmni": 2914,
      "ĠsvÃ½mi": 2915,
      "vuje": 2916,
      "ĠÄĽtu": 2917,
      "Ġodpu": 2918,
      "Ġkone": 2919,
      "Ġbojo": 2920,
      "Äįem": 2921,
      "Ġdomu": 2922,
      "pit": 2923,
      "ĠskÅĻi": 2924,
      "cet": 2925,
      "Ġhad": 2926,
      "Ġcky": 2927,
      "Ġpramen": 2928,
      "lenÃ©": 2929,
      "ĠstarÃ½ch": 2930,
      "ĠzvonÃŃ": 2931,
      "ĠvÅ¡ÃŃm": 2932,
      "Ġslza": 2933,
      "Ġsva": 2934,
      "Ġhan": 2935,
      "ĠjejÃŃm": 2936,
      "lÃŃÅ¾ÃŃ": 2937,
      "ĠsrdcÃŃ": 2938,
      "ĠmoÅ¾no": 2939,
      "go": 2940,
      "alu": 2941,
      "jÃŃt": 2942,
      "bÅ¯": 2943,
      "ĠhrobÄĽ": 2944,
      "kajÃŃ": 2945,
      "ĠrÃ¡m": 2946,
      "deme": 2947,
      "Ġnka": 2948,
      "ĠÄįeskÃ©": 2949,
      "Ġpoe": 2950,
      "Ġprsa": 2951,
      "ĠbouÅĻi": 2952,
      "ĠÄĽle": 2953,
      "cel": 2954,
      "Ġcy": 2955,
      "rnou": 2956,
      "Ġzba": 2957,
      "ĠahÃ¡": 2958,
      "ĠizÃŃ": 2959,
      "Ġzcela": 2960,
      "ĠÃ¡vÄĽ": 2961,
      "ĠdÅĻÃŃve": 2962,
      "snÃŃ": 2963,
      "ĠÃºtÄĽ": 2964,
      "Å¡nÃ½": 2965,
      "ĠrnÃ©": 2966,
      "ĠnepÅĻÃ¡": 2967,
      "Ġetu": 2968,
      "ĠhÃ½": 2969,
      "Ġvrcho": 2970,
      "ĠtÅĻÃ¡": 2971,
      "Ġjino": 2972,
      "cnÄĽ": 2973,
      "Ġhnu": 2974,
      "Ġjeze": 2975,
      "ĠÄįnÃŃ": 2976,
      "ĠmÃ¡j": 2977,
      "ĠadÃŃ": 2978,
      "ĠstÃ¡la": 2979,
      "Äįej": 2980,
      "ĠpevnÄĽ": 2981,
      "Ġly": 2982,
      "ĠÃ¡vy": 2983,
      "ĠÅ¾Ã¡dnÃ½": 2984,
      "Ġkus": 2985,
      "Ġdlo": 2986,
      "Ġbil": 2987,
      "ĠÅ¾enu": 2988,
      "Ġhlaho": 2989,
      "jal": 2990,
      "Ġpravdy": 2991,
      "ĠolÃ¡": 2992,
      "nosÅ¥": 2993,
      "ĠvelkÃ¡": 2994,
      "ĠsluÅ¾": 2995,
      "ĠzÅĻe": 2996,
      "ĠbÅĻÃŃ": 2997,
      "ĠzlatÃ¡": 2998,
      "ĠnepÅĻÃŃ": 2999,
      "ĠmodrÃ©": 3000,
      "ĠdnÃ½": 3001,
      "vod": 3002,
      "XAXABB": 3003,
      "bito": 3004,
      "Ġin": 3005,
      "ĠkaÅ¾dou": 3006,
      "ja": 3007,
      "ĠavÃ¡": 3008,
      "Ġchvat": 3009,
      "ĠzÃ¡zrak": 3010,
      "ĠdennÄĽ": 3011,
      "es": 3012,
      "raz": 3013,
      "Å¡t": 3014,
      "ĠkrÃ¡sa": 3015,
      "dlÃŃ": 3016,
      "ĠvÃ¡mi": 3017,
      "ĠmraÄį": 3018,
      "Ġchyt": 3019,
      "pÄĽt": 3020,
      "ĠÅ¡le": 3021,
      "AAXA": 3022,
      "bÃ©": 3023,
      "dli": 3024,
      "ĠmÄĽnÃŃ": 3025,
      "Ġvar": 3026,
      "ĠodpovÄĽ": 3027,
      "ĠvÃ½ch": 3028,
      "Ġjal": 3029,
      "stva": 3030,
      "Ġnec": 3031,
      "ĠÃºdo": 3032,
      "ĠjedinÃ½": 3033,
      "Ġjsa": 3034,
      "vet": 3035,
      "Ġluk": 3036,
      "ĠÄĽlÃ¡": 3037,
      "Ġpsa": 3038,
      "Ġaku": 3039,
      "Ġsmutek": 3040,
      "ĠkrÅ¯pÄĽ": 3041,
      "ĠtouÅ¾ÃŃ": 3042,
      "ĠtnÃ©": 3043,
      "kot": 3044,
      "jÃ¡": 3045,
      "ĠbÄĽÅ¾ÃŃ": 3046,
      "ĠtÃŃÅ¾": 3047,
      "ĠstejnÄĽ": 3048,
      "Ġkrou": 3049,
      "slu": 3050,
      "ĠÅĻel": 3051,
      "ĠvÃ½cho": 3052,
      "Ġplane": 3053,
      "Ġono": 3054,
      "ĠslÃ¡vÄĽ": 3055,
      "CCB": 3056,
      "Ġeni": 3057,
      "zvu": 3058,
      "tor": 3059,
      "Ġchra": 3060,
      "Ġvlo": 3061,
      "Ġmdlo": 3062,
      "ĠnÃŃz": 3063,
      "ĠpÅĻÃ¡tel": 3064,
      "ĠjednÃ©": 3065,
      "ĠnepÅĻi": 3066,
      "ÅĻek": 3067,
      "kaz": 3068,
      "rÃ¡m": 3069,
      "Ġpotu": 3070,
      "ĠÅĻeÄįÃŃ": 3071,
      "pÄĽl": 3072,
      "lÃŃm": 3073,
      "ĠÃ¡lÃŃ": 3074,
      "Ġbije": 3075,
      "ĠklÃŃn": 3076,
      "Å¾ila": 3077,
      "Ġmlado": 3078,
      "ĠÅ¡a": 3079,
      "Ġpodle": 3080,
      "hÃ½m": 3081,
      "ĠbudÃŃ": 3082,
      "Ġidu": 3083,
      "Ġotu": 3084,
      "Ġteprv": 3085,
      "Ġjednu": 3086,
      "Ġtemno": 3087,
      "ĠneboÅ¥": 3088,
      "ĠeÅĻÃŃ": 3089,
      "Ġhez": 3090,
      "Ġsilou": 3091,
      "vÅ¡": 3092,
      "ĠadÄĽ": 3093,
      "Ġkali": 3094,
      "ĠtÅĻetÃŃ": 3095,
      "Ġnal": 3096,
      "ĠlkÃ¡": 3097,
      "ĠvzneÅ¡en": 3098,
      "ĠÅ¡Ã¡": 3099,
      "ĠdÃ©m": 3100,
      "ĠslÃ¡vu": 3101,
      "Ġpohle": 3102,
      "ctvÃŃ": 3103,
      "ĠzemÃŃ": 3104,
      "ĠknÄĽÅ¾": 3105,
      "ĠenÄĽ": 3106,
      "ĠdruhÃ©": 3107,
      "Ġoha": 3108,
      "lan": 3109,
      "ĠmÃŃti": 3110,
      "Ġvlh": 3111,
      "ĠobÄĽt": 3112,
      "Ġzlata": 3113,
      "ĠdlouhÃ½": 3114,
      "ĠhÅĻbito": 3115,
      "bnÄĽ": 3116,
      "Ġklad": 3117,
      "ĠrtÅ¯": 3118,
      "ĠÄįerven": 3119,
      "Ġkne": 3120,
      "ĠnoÄįnÃŃ": 3121,
      "Ġmraky": 3122,
      "Ġklu": 3123,
      "ĠchtÃŃ": 3124,
      "Ġzapad": 3125,
      "Ġtvr": 3126,
      "ĠrudÃ©": 3127,
      "Ġnebylo": 3128,
      "Ġzhy": 3129,
      "ĠÄįlovÄĽka": 3130,
      "Ġudi": 3131,
      "ĠtÄĽle": 3132,
      "Ġsouse": 3133,
      "ĠptÃ¡ci": 3134,
      "Ġruch": 3135,
      "klÃŃ": 3136,
      "ĠstavÃŃ": 3137,
      "ĠÅ¾ÃŃti": 3138,
      "ĠmalÃ¡": 3139,
      "Ġbro": 3140,
      "ĠÅ¡ÃŃlen": 3141,
      "Ġanu": 3142,
      "Ġhrou": 3143,
      "cla": 3144,
      "Ġskvost": 3145,
      "Ġjo": 3146,
      "man": 3147,
      "las": 3148,
      "ĠvracÃŃ": 3149,
      "Ġspole": 3150,
      "Ġporo": 3151,
      "Ġpodiv": 3152,
      "Ġsami": 3153,
      "ĠÄįaro": 3154,
      "ĠvÅ¯li": 3155,
      "lnÃŃ": 3156,
      "Ġjdi": 3157,
      "ĠnenÃ¡": 3158,
      "Ġprud": 3159,
      "kovÃ©": 3160,
      "ĠbÃŃlÃ½ch": 3161,
      "Ġjimi": 3162,
      "Ġkrokem": 3163,
      "Ġholu": 3164,
      "Ġskr": 3165,
      "ĠlÃŃbÃ¡": 3166,
      "cÅ¯m": 3167,
      "ĠmlÄįÃŃ": 3168,
      "Ġnepro": 3169,
      "ĠtÅ¯": 3170,
      "chou": 3171,
      "Ġesy": 3172,
      "ĠvÄįera": 3173,
      "ĠÃ¡je": 3174,
      "ĠzÃ¡vi": 3175,
      "Ġvzpo": 3176,
      "Ġnechci": 3177,
      "zÃŃm": 3178,
      "19": 3179,
      "stvÃŃm": 3180,
      "ĠivÄĽ": 3181,
      "ĠÄįty": 3182,
      "bli": 3183,
      "Ġau": 3184,
      "jÅ¡ÃŃm": 3185,
      "ĠÅĻeky": 3186,
      "ĠblÃŃz": 3187,
      "Ġzrc": 3188,
      "Ġmoci": 3189,
      "ĠÃºzko": 3190,
      "Ġhudba": 3191,
      "ĠÃ½ti": 3192,
      "rky": 3193,
      "ĠsklÃ¡nÃŃ": 3194,
      "ĠvÃŃr": 3195,
      "Ġvesele": 3196,
      "jednou": 3197,
      "ĠalÃ½": 3198,
      "boj": 3199,
      "ĠnadÅ¡en": 3200,
      "jas": 3201,
      "ĠÃ¡dÃŃ": 3202,
      "Ġteh": 3203,
      "ĠkvÄĽtu": 3204,
      "ĠolÅ¯": 3205,
      "ĠÅ¯nÄĽ": 3206,
      "Ġsvi": 3207,
      "vili": 3208,
      "ĠÃŃka": 3209,
      "Ġada": 3210,
      "Ġide": 3211,
      "kne": 3212,
      "ĠbohatÃ½": 3213,
      "ĠpÅ¯lno": 3214,
      "dÃ¡ch": 3215,
      "ĠstÃ¡t": 3216,
      "Ġuhu": 3217,
      "ĠÅĪadra": 3218,
      "ĠiÅ¡e": 3219,
      "ĠvÃ¡ÅĻ": 3220,
      "Ġvstou": 3221,
      "dili": 3222,
      "ĠbÃ½vÃ¡": 3223,
      "tno": 3224,
      "ĠzÃ¡pa": 3225,
      "ĠbledÃ¡": 3226,
      "dku": 3227,
      "ĠvÄĽn": 3228,
      "Ġstrany": 3229,
      "mÃ¡ch": 3230,
      "rce": 3231,
      "ĠprostÅĻe": 3232,
      "nÃ©mu": 3233,
      "dÄĽnÃŃ": 3234,
      "ĠÃŃny": 3235,
      "ĠtÃ¡hne": 3236,
      "teÄį": 3237,
      "ĠnÄĽjak": 3238,
      "Ġsoum": 3239,
      "lnÄĽ": 3240,
      "Ġhvo": 3241,
      "ĠÃ¡nu": 3242,
      "Ġkdos": 3243,
      "Ġslovem": 3244,
      "ĠchrÃ¡mu": 3245,
      "Ġola": 3246,
      "Ġpes": 3247,
      "Ġnesou": 3248,
      "Ġjte": 3249,
      "Ġhochu": 3250,
      "Ġsyna": 3251,
      "ĠznÄĽl": 3252,
      "ĠmrÃ¡z": 3253,
      "ĠzpÃ¡": 3254,
      "Å¡nÃŃ": 3255,
      "rku": 3256,
      "liÄį": 3257,
      "ĠytÃŃ": 3258,
      "ĠÄĽny": 3259,
      "Ġvle": 3260,
      "Å¡it": 3261,
      "ĠdÅĻe": 3262,
      "ĠvyÅ¡el": 3263,
      "ĠrÃ¡je": 3264,
      "hlÃ¡": 3265,
      "ĠzÃ¡stup": 3266,
      "hÃ¡nÃŃ": 3267,
      "Ġist": 3268,
      "ĠÄĽji": 3269,
      "Ġstk": 3270,
      "ĠrÃ½": 3271,
      "Ġpek": 3272,
      "ĠÅ¡edi": 3273,
      "Ġhradu": 3274,
      "Ġtce": 3275,
      "Ġzlatem": 3276,
      "ĠkrÃ¡su": 3277,
      "ĠupÃŃ": 3278,
      "Ġsbor": 3279,
      "Ġlili": 3280,
      "Ġnejs": 3281,
      "ĠzlatÃ½ch": 3282,
      "Ġedy": 3283,
      "vice": 3284,
      "Ġhlasy": 3285,
      "Ġspad": 3286,
      "Ġmati": 3287,
      "ĠdlaÅĪ": 3288,
      "Ġblesky": 3289,
      "ĠeÄįÃŃ": 3290,
      "Ġzrcad": 3291,
      "ĠzvedÃ¡": 3292,
      "ĠvÅ¯nÃŃ": 3293,
      "Ġtrou": 3294,
      "ĠÄįeskÃ½": 3295,
      "Ġkyne": 3296,
      "ten": 3297,
      "Ġsic": 3298,
      "Ġstesk": 3299,
      "ĠskrÃ¡ÅĪ": 3300,
      "ĠvzplÃ¡": 3301,
      "ĠÅ¡ÃŃm": 3302,
      "lena": 3303,
      "Ġoty": 3304,
      "Ġprost": 3305,
      "Ġaji": 3306,
      "Ġdy": 3307,
      "dali": 3308,
      "ĠnÄĽkdo": 3309,
      "ĠÄĽty": 3310,
      "bnÃ½": 3311,
      "Ġnaslou": 3312,
      "ĠrtÃŃ": 3313,
      "ĠÅĻÃŃÅ¡e": 3314,
      "dnÃ½ch": 3315,
      "Ġnovou": 3316,
      "Ġklidu": 3317,
      "nÄĽl": 3318,
      "kÃ©ho": 3319,
      "Ġblaha": 3320,
      "ĠtÃŃn": 3321,
      "ĠÄįÃŃÅ¡": 3322,
      "Å¾Å¡ÃŃ": 3323,
      "ĠblÃŃÅ¾ÃŃ": 3324,
      "rel": 3325,
      "jÃŃce": 3326,
      "Ġvin": 3327,
      "Å¾enÃ©": 3328,
      "?!": 3329,
      "Ġrci": 3330,
      "ĠsmutnÃ©": 3331,
      "Å¡Å¥ast": 3332,
      "ost": 3333,
      "ĠÄĽlÃ©": 3334,
      "Ġmrtvo": 3335,
      "ĠÃŃku": 3336,
      "hly": 3337,
      "ĠpodÃ¡": 3338,
      "ĠbÃŃlou": 3339,
      "ĠdÃ¡lku": 3340,
      "sit": 3341,
      "stÃŃm": 3342,
      "Ġjab": 3343,
      "jeÅ¡": 3344,
      "Ġtato": 3345,
      "tÃ½ch": 3346,
      "Ġvypra": 3347,
      "Ġvola": 3348,
      "Ġseve": 3349,
      "ĠhÅĻÃŃch": 3350,
      "Ġhosti": 3351,
      "Ġabych": 3352,
      "Ġkroky": 3353,
      "ĠvÃ¡cla": 3354,
      "pem": 3355,
      "ĠvroucÃŃ": 3356,
      "bat": 3357,
      "Ġposlou": 3358,
      "ĠpÄĽl": 3359,
      "ĠpÅĻÃŃÅ¡e": 3360,
      "ĠzkÃ¡": 3361,
      "Ġzab": 3362,
      "Ġkomu": 3363,
      "lÃ©z": 3364,
      "ĠmusÃŃm": 3365,
      "ĠpotÄĽ": 3366,
      "Ġpope": 3367,
      "domÃŃ": 3368,
      "ĠcestÄĽ": 3369,
      "Ġato": 3370,
      "Ġosla": 3371,
      "ĠvisÃŃ": 3372,
      "Ġobli": 3373,
      "ĠÃºsmÄĽvem": 3374,
      "Ġhrom": 3375,
      "Ġnebude": 3376,
      "ÅĻÃŃk": 3377,
      "Äįo": 3378,
      "vÄĽd": 3379,
      "Ġvad": 3380,
      "Ġvze": 3381,
      "Ġcest": 3382,
      "Ġjat": 3383,
      "Ġzle": 3384,
      "Ġcko": 3385,
      "ĠmÃŃsta": 3386,
      "Ġdali": 3387,
      "Ġana": 3388,
      "ĠcÃŃsaÅĻ": 3389,
      "zna": 3390,
      "ĠÄįasy": 3391,
      "ĠotÄįe": 3392,
      "ĠmrtvÃ©": 3393,
      "ĠÅĻÃŃc": 3394,
      "ĠaÅ¡e": 3395,
      "ĠÅ¡t": 3396,
      "dÃŃÅ¡": 3397,
      "ĠdÃ¡lce": 3398,
      "Ġpen": 3399,
      "ĠÃ¡mi": 3400,
      "ABX": 3401,
      "rat": 3402,
      "Ġmed": 3403,
      "Ġtel": 3404,
      "Ġlov": 3405,
      "vÃ½mi": 3406,
      "ĠotÄĽ": 3407,
      "ĠmÄĽli": 3408,
      "Ġnci": 3409,
      "Ġjit": 3410,
      "Ġpode": 3411,
      "vanÃ©": 3412,
      "ĠvÃŃry": 3413,
      "Ġplno": 3414,
      "ĠvonÃŃ": 3415,
      "Ġzat": 3416,
      "Ġjel": 3417,
      "Ġvytr": 3418,
      "ĠblÃŃÅ¾e": 3419,
      "tala": 3420,
      "ĠkÅĻesÅ¥": 3421,
      "ĠsmÃŃchu": 3422,
      "ĠoÅ¾i": 3423,
      "ĠpÃ¡nÄĽ": 3424,
      "Ġohy": 3425,
      "ĠopuÅ¡tÄĽ": 3426,
      "ĠtÄĽÅ¾kÃ½": 3427,
      "Ġtuto": 3428,
      "Ġskon": 3429,
      "lka": 3430,
      "Ġzmo": 3431,
      "lky": 3432,
      "Ġpoc": 3433,
      "ĠtvojÃŃ": 3434,
      "hÃ©m": 3435,
      "ĠzprÃ¡": 3436,
      "Ġoky": 3437,
      "ĠvÃ¡Å¡nÃŃ": 3438,
      "ĠobjetÃŃ": 3439,
      "ĠtoÄįÃŃ": 3440,
      "Ġluz": 3441,
      "ĠjasnÃ½": 3442,
      "ĠasÅ¯": 3443,
      "ĠnenÃ¡vi": 3444,
      "ĠsladkÃ¡": 3445,
      "Ġvet": 3446,
      "Ġzvon": 3447,
      "Ġvsi": 3448,
      "Ġbor": 3449,
      "Ġpaprsk": 3450,
      "ĠÃŃnÄĽ": 3451,
      "ĠandÄĽ": 3452,
      "ĠÅ¡lech": 3453,
      "ĠvidÄĽt": 3454,
      "ĠlÃ©m": 3455,
      "nÄĽn": 3456,
      "ĠnovÃ¡": 3457,
      "Ġpolib": 3458,
      "ĠslyÅ¡et": 3459,
      "ĠjevÃŃ": 3460,
      "Ġbyst": 3461,
      "ĠjinÃ½ch": 3462,
      "Ġsynu": 3463,
      "ĠklesÃ¡": 3464,
      "Ġbolesti": 3465,
      "ĠvÅĻa": 3466,
      "Ġuvi": 3467,
      "ĠÅ¾ene": 3468,
      "Ġmlhy": 3469,
      "Ġhon": 3470,
      "zky": 3471,
      "ĠvÃŃte": 3472,
      "Ġkonce": 3473,
      "Ġvzbu": 3474,
      "ĠÄįernÃ½ch": 3475,
      "Ġkolo": 3476,
      "Ġmilu": 3477,
      "ĠmyslÃŃm": 3478,
      "ĠÄįist": 3479,
      "Ġvelkou": 3480,
      "Ġpoch": 3481,
      "Ġcizi": 3482,
      "ĠohnÄĽm": 3483,
      "Ġsoumrak": 3484,
      "Ġdvou": 3485,
      "eni": 3486,
      "nitÅĻ": 3487,
      "Ġjan": 3488,
      "Ġcu": 3489,
      "Ġlehce": 3490,
      "Ġbyto": 3491,
      "ĠvÃ©": 3492,
      "Ġesk": 3493,
      "ĠnadÅ¡enÃŃ": 3494,
      "Ġtlo": 3495,
      "ĠpÃ¡na": 3496,
      "Ġbohy": 3497,
      "Ġstalo": 3498,
      "vÃ¡t": 3499,
      "ĠbledÃ©": 3500,
      "ĠvÅ¡a": 3501,
      "ĠskÅĻÃŃ": 3502,
      "Ġjakoby": 3503,
      "Ġtichou": 3504,
      "Ġdoba": 3505,
      "ĠotcÅ¯": 3506,
      "ĠkoÅĻi": 3507,
      "Ġruh": 3508,
      "Ġety": 3509,
      "Ġdokud": 3510,
      "ĠcÃŃrk": 3511,
      "Ã¡me": 3512,
      "ĠmÄĽj": 3513,
      "ĠlÃŃci": 3514,
      "Ġsklen": 3515,
      "ĠhuÄįÃŃ": 3516,
      "ĠÄįernÃ¡": 3517,
      "ĠsrÃ¡": 3518,
      "Ġsbo": 3519,
      "Ġutr": 3520,
      "Ġhora": 3521,
      "ĠÃ½lÃŃ": 3522,
      "ĠkoÅĻen": 3523,
      "Ġvzduchu": 3524,
      "ĠveÅ¡": 3525,
      "ĠpatÅĻÃŃ": 3526,
      "Ġzor": 3527,
      "ĠkÃ½m": 3528,
      "ĠlepÅ¡ÃŃ": 3529,
      "diÅ¾": 3530,
      "ĠtÃ¡l": 3531,
      "livÃ½": 3532,
      "Ġlev": 3533,
      "ĠtÃ©m": 3534,
      "Ġahy": 3535,
      "ĠtemnÃ©": 3536,
      "hnÄĽ": 3537,
      "osti": 3538,
      "ĠhrÅ¯zou": 3539,
      "Ġdaleko": 3540,
      "ABABAC": 3541,
      "Ġproro": 3542,
      "Ġzlatou": 3543,
      "Ġhrdi": 3544,
      "ĠrnÃ½": 3545,
      "ĠsmÄĽle": 3546,
      "pro": 3547,
      "ĠvÅ¡emu": 3548,
      "ĠzpÃ¡tky": 3549,
      "Ġpoled": 3550,
      "rnÃ½ch": 3551,
      "Ġkole": 3552,
      "ĠstaÅĻe": 3553,
      "ĠnejvÃŃ": 3554,
      "ĠokÅ¯": 3555,
      "hnou": 3556,
      "rka": 3557,
      "ĠzÃŃrÃ¡": 3558,
      "ĠdÃŃk": 3559,
      "hlu": 3560,
      "Ġeti": 3561,
      "ĠÃŃlÃ½": 3562,
      "ĠtichÃ¡": 3563,
      "sly": 3564,
      "Ġzamy": 3565,
      "Ġede": 3566,
      "ĠÃŃla": 3567,
      "ĠÃŃky": 3568,
      "ĠrannÃŃ": 3569,
      "ĠstÃ½": 3570,
      "ĠkolÃ©b": 3571,
      "ĠjasnÄĽ": 3572,
      "ĠnavÅ¾dy": 3573,
      "ĠdÃŃt": 3574,
      "Ġbleskem": 3575,
      "ĠÃ¡da": 3576,
      "ĠbÅĻeh": 3577,
      "ĠdÄĽvÄįe": 3578,
      "Ġcosi": 3579,
      "ĠÄįel": 3580,
      "Ġzpu": 3581,
      "Ġej": 3582,
      "ĠrÅ¯Å¾i": 3583,
      "ĠvÄĽci": 3584,
      "Ġlky": 3585,
      "ĠpÅĻÃŃtel": 3586,
      "Äįer": 3587,
      "ĠdobrÃ¡": 3588,
      "Ġdouf": 3589,
      "ĠÅ¾alu": 3590,
      "Å¡o": 3591,
      "ĠlnÃ½": 3592,
      "ĠdÄĽje": 3593,
      "ĠvraÅ¾": 3594,
      "ĠzlÃ¡": 3595,
      "anil": 3596,
      "bem": 3597,
      "Ġama": 3598,
      "Ġiku": 3599,
      "Ġtichu": 3600,
      "Ġkdesi": 3601,
      "nak": 3602,
      "ĠelÃŃ": 3603,
      "ĠÄįistÃ©": 3604,
      "kojen": 3605,
      "ĠzdravÃŃ": 3606,
      "ĠzlÃ½": 3607,
      "Ġchlu": 3608,
      "ĠloÅ¾e": 3609,
      "cenÃŃ": 3610,
      "ĠvÅ¡ÃŃ": 3611,
      "jÃŃmÃ¡": 3612,
      "tom": 3613,
      "Ġmatko": 3614,
      "ĠÄĽna": 3615,
      "lel": 3616,
      "ĠpoÄįÃŃ": 3617,
      "ĠsmutnÃ½": 3618,
      "ĠvÃŃno": 3619,
      "Ġenu": 3620,
      "ĠvÅ¡ecka": 3621,
      "Ġhost": 3622,
      "han": 3623,
      "ĠvolnÄĽ": 3624,
      "ĠÃºÅ¾": 3625,
      "ĠÄĽzd": 3626,
      "Ġsled": 3627,
      "ĠÄįnÄĽ": 3628,
      "nikÃ¡": 3629,
      "Å¾enÃ½": 3630,
      "zra": 3631,
      "Ġstuden": 3632,
      "ĠlÃŃp": 3633,
      "Ġmlha": 3634,
      "Å¡to": 3635,
      "ĠevÃŃ": 3636,
      "Ġmluvil": 3637,
      "Ġlidstvo": 3638,
      "ĠÄĽte": 3639,
      "Ġsmutku": 3640,
      "Ġpomoc": 3641,
      "ĠpsÃ¡": 3642,
      "Ġpochy": 3643,
      "ĠÅĻÃ¡d": 3644,
      "vce": 3645,
      "Ġletu": 3646,
      "ĠkvÄĽtem": 3647,
      "Ġnikde": 3648,
      "ĠzlÃ©": 3649,
      "ĠpÅĻedu": 3650,
      "ĠtÄĽÅ¾ce": 3651,
      "ĠmrtvÃ½ch": 3652,
      "ÅĪte": 3653,
      "ĠrÃ¡nu": 3654,
      "hajÃŃ": 3655,
      "bÃ¡ch": 3656,
      "ĠpÅ¯va": 3657,
      "stupu": 3658,
      "krÃ¡s": 3659,
      "Ġzdali": 3660,
      "Ġzim": 3661,
      "Ġoblak": 3662,
      "Ġdechem": 3663,
      "cenÃ©": 3664,
      "Ġvnu": 3665,
      "nali": 3666,
      "Ġoda": 3667,
      "bel": 3668,
      "padÃ¡": 3669,
      "Ġeme": 3670,
      "ĠdÃŃvky": 3671,
      "ĠzÃ¡pad": 3672,
      "Ġbolu": 3673,
      "ĠpromÄĽ": 3674,
      "Äįiny": 3675,
      "Ġsluch": 3676,
      "ĠÅ¡iro": 3677,
      "ĠjimÅ¾": 3678,
      "ĠÅĻekla": 3679,
      "ĠnÃŃk": 3680,
      "ĠbratÅĻi": 3681,
      "Ġesa": 3682,
      "Ġsluncem": 3683,
      "ĠvyprÃ¡": 3684,
      "ĠaÅ¡ÃŃ": 3685,
      "Ġrozu": 3686,
      "ĠÄĽtÅ¯": 3687,
      "ĠÃ¡sy": 3688,
      "ĠbÄĽd": 3689,
      "Ġunaven": 3690,
      "stat": 3691,
      "ĠhledÄĽl": 3692,
      "ĠbÃ¡j": 3693,
      "Ġvoda": 3694,
      "ĠrytÃŃÅĻ": 3695,
      "ĠlnÃ©": 3696,
      "ĠocÃŃ": 3697,
      "ĠvrÃ¡tÃŃ": 3698,
      "ovÃ©": 3699,
      "ĠzlÃŃ": 3700,
      "Ġprahu": 3701,
      "Ġula": 3702,
      "Ġkom": 3703,
      "ĠbÃ½val": 3704,
      "lenÃ½": 3705,
      "ĠknÄĽz": 3706,
      "ĠÅ¾as": 3707,
      "ĠspÃŃÅ¡": 3708,
      "venÃŃ": 3709,
      "Ġjeli": 3710,
      "lovÃ©": 3711,
      "ĠuÅ¡": 3712,
      "Ġjakou": 3713,
      "ĠmnohÃ©": 3714,
      "chÃ©": 3715,
      "ĠovÄĽ": 3716,
      "Ġnero": 3717,
      "ĠpamÃ¡": 3718,
      "Å¾nÃ©": 3719,
      "Ġkvetou": 3720,
      "ĠnÃ¡dher": 3721,
      "ĠmÃ¡te": 3722,
      "Ġpust": 3723,
      "ĠbloudÃŃ": 3724,
      "ĠneznÃ¡": 3725,
      "vÃ¡Å¡": 3726,
      "Ġslune": 3727,
      "ĠhrdÄĽ": 3728,
      "fi": 3729,
      "Ġdnu": 3730,
      "ĠdÃŃlo": 3731,
      "Ġvzde": 3732,
      "ĠnemÄĽl": 3733,
      "Ġneroz": 3734,
      "ĠÃŃhÃ¡": 3735,
      "Ġbod": 3736,
      "ĠvÄĽÅĻÃŃ": 3737,
      "ĠtÅĻese": 3738,
      "ĠÄįnÃ©": 3739,
      "ĠdÅĻÃŃmÃ¡": 3740,
      "Ġsnem": 3741,
      "mat": 3742,
      "Ġvzpla": 3743,
      "Ġzraku": 3744,
      "Ġvstal": 3745,
      "ĠumÄĽnÃŃ": 3746,
      "Ġvlna": 3747,
      "zuje": 3748,
      "ĠstÄĽny": 3749,
      "Ġrtech": 3750,
      "Ġdno": 3751,
      "Ġnaposled": 3752,
      "lin": 3753,
      "peÅ¾": 3754,
      "ĠleÅ¾": 3755,
      "Ġsvatou": 3756,
      "ĠmocnÄĽ": 3757,
      "ĠlidskÃ½": 3758,
      "kra": 3759,
      "lep": 3760,
      "Ġoud": 3761,
      "ĠbledÃ½": 3762,
      "Ġcem": 3763,
      "Ġnitru": 3764,
      "ĠplÃ©": 3765,
      "ĠprovÃ¡": 3766,
      "ĠnemÅ¯Å¾e": 3767,
      "ĠdÄĽcko": 3768,
      "Ġdna": 3769,
      "Ġchod": 3770,
      "ĠcÃŃm": 3771,
      "rek": 3772,
      "ĠhalÃŃ": 3773,
      "Ġkouzel": 3774,
      "ĠplÃ¡po": 3775,
      "ĠÅĪadrech": 3776,
      "ĠÅ¾ebrÃ¡": 3777,
      "ĠpÅĻÃŃsa": 3778,
      "ĠvÅ¯ni": 3779,
      "Ã¡n": 3780,
      "ĠitÄĽ": 3781,
      "ĠÅ¾enou": 3782,
      "Ġmatce": 3783,
      "Ġchcem": 3784,
      "Å¡ko": 3785,
      "ĠrokÅ¯": 3786,
      "Ġjindy": 3787,
      "ĠÃ¡Å¾e": 3788,
      "Ġmaje": 3789,
      "ĠÅ¡ti": 3790,
      "Ġostat": 3791,
      "Ġzvuky": 3792,
      "ĠoÅ¾e": 3793,
      "ĠÄĽvu": 3794,
      "ĠbÃ¡snÃŃk": 3795,
      "ĠÄĽÅĻÃŃ": 3796,
      "Ġdraho": 3797,
      "ĠkaÅ¾dÃ©m": 3798,
      "ĠhÅĻmÃŃ": 3799,
      "ĠÃ¡vu": 3800,
      "ĠnepÅĻe": 3801,
      "vÃ¡ch": 3802,
      "Ġluny": 3803,
      "Ġdok": 3804,
      "Ġvelko": 3805,
      "ĠvaÅ¡ÃŃ": 3806,
      "Ã¡l": 3807,
      "ĠradostÃŃ": 3808,
      "tat": 3809,
      "Ġplna": 3810,
      "ĠmlÄįky": 3811,
      "Ġzar": 3812,
      "Ġpanen": 3813,
      "Ġneod": 3814,
      "Ġyje": 3815,
      "Ġnajde": 3816,
      "Ġjitra": 3817,
      "Ġstane": 3818,
      "ĠdÃ½Å¡e": 3819,
      "gu": 3820,
      "Ġvyvo": 3821,
      "Ġslovy": 3822,
      "Ġomy": 3823,
      "ĠtÄĽÅ¾ko": 3824,
      "Ġvzduchem": 3825,
      "ĠklÃ¡Å¡te": 3826,
      "tkem": 3827,
      "Ġpouta": 3828,
      "Å¾ka": 3829,
      "Ġmimo": 3830,
      "ĠlnÃŃ": 3831,
      "Ġmodra": 3832,
      "Ġznal": 3833,
      "Äįkem": 3834,
      "Ġber": 3835,
      "ĠsÃŃÅĪ": 3836,
      "ĠumÃŃrÃ¡": 3837,
      "ĠzachvÄĽ": 3838,
      "Ġzhou": 3839,
      "nuly": 3840,
      "ĠmÄĽst": 3841,
      "ĠvÃŃra": 3842,
      "ĠÅĻem": 3843,
      "ĠkvÄĽti": 3844,
      "Ġrozm": 3845,
      "pot": 3846,
      "ĠÄĽtÄĽ": 3847,
      "ĠseÅĪ": 3848,
      "ÅĪat": 3849,
      "ĠÄĽku": 3850,
      "Ġitu": 3851,
      "ĠtemnÄĽ": 3852,
      "ĠpoznÃ¡": 3853,
      "ĠprosÃŃm": 3854,
      "nÄĽnÃŃ": 3855,
      "tvo": 3856,
      "Ġstez": 3857,
      "ĠchvÄĽl": 3858,
      "Ġvan": 3859,
      "Ġsvad": 3860,
      "ĠupomÃŃ": 3861,
      "Ġeta": 3862,
      "ĠjÃŃc": 3863,
      "ĠpÄĽknÄĽ": 3864,
      "voucÃŃ": 3865,
      "Ġopat": 3866,
      "Ġkost": 3867,
      "ĠÅ¾Ã¡dnÃ©": 3868,
      "ĠsbÃŃ": 3869,
      "amÄĽ": 3870,
      "Ġstarou": 3871,
      "zek": 3872,
      "ĠtmavÃ©": 3873,
      "ĠlÃŃbe": 3874,
      "Ġtmou": 3875,
      "Ġspanil": 3876,
      "Ġsladkou": 3877,
      "livÃ©": 3878,
      "Ġkoho": 3879,
      "ĠmlÃ½": 3880,
      "ĠmocÃŃ": 3881,
      "ĠptÃ¡Äįe": 3882,
      "ĠkoneÄįnÄĽ": 3883,
      "ĠpoÅ¾Ã¡": 3884,
      "ĠelÃ¡": 3885,
      "Ġodkud": 3886,
      "Å¾ky": 3887,
      "Ġvp": 3888,
      "Ġlidi": 3889,
      "tÃ¡nÃŃ": 3890,
      "sÃŃch": 3891,
      "Ġlodi": 3892,
      "Ġhraje": 3893,
      "Ġemu": 3894,
      "ĠsmÄĽje": 3895,
      "Ġahu": 3896,
      "ĠnaÅ¡el": 3897,
      "ĠlÅ¯Å¾": 3898,
      "ĠpozdÄĽ": 3899,
      "ÄįnÃ½ch": 3900,
      "Ġdobu": 3901,
      "Äıte": 3902,
      "ĠnovÃ½ch": 3903,
      "ĠmÅ¯Å¾": 3904,
      "ĠosÃŃ": 3905,
      "Ġvej": 3906,
      "Ġhorou": 3907,
      "stro": 3908,
      "ĠbohÅ¯": 3909,
      "lk": 3910,
      "ĠsvÄĽty": 3911,
      "chom": 3912,
      "Ġvelmi": 3913,
      "ĠvelikÃ½": 3914,
      "Ġdnem": 3915,
      "tÃ¡n": 3916,
      "tnÃ¡": 3917,
      "ĠneÅ¡Å¥ast": 3918,
      "Ġnebem": 3919,
      "ĠdÃŃvÄįÃŃ": 3920,
      "Ġkade": 3921,
      "Ġchleba": 3922,
      "dru": 3923,
      "vel": 3924,
      "ĠsnÄĽhu": 3925,
      "ĠztrÃ¡cÃŃ": 3926,
      "lejÅ¡ÃŃ": 3927,
      "nÃ¡Å¡e": 3928,
      "bec": 3929,
      "Ġlku": 3930,
      "ĠtrÃ½": 3931,
      "ĠjinÃŃ": 3932,
      "Ġkruh": 3933,
      "blÃŃ": 3934,
      "kry": 3935,
      "ĠynÃŃ": 3936,
      "ĠpohÅĻ": 3937,
      "ĠvÅ¯j": 3938,
      "Ġaha": 3939,
      "Ġkos": 3940,
      "ĠutÄĽ": 3941,
      "ĠbudiÅ¾": 3942,
      "ĠÅ¾ivotem": 3943,
      "Ġpoznal": 3944,
      "Ġskoro": 3945,
      "Ġbarev": 3946,
      "liv": 3947,
      "ĠÄĽst": 3948,
      "hnul": 3949,
      "ĠvÃ¡n": 3950,
      "Ġsvato": 3951,
      "pila": 3952,
      "hlÃ½": 3953,
      "host": 3954,
      "bila": 3955,
      "ĠvÃ¡Å¡nÄĽ": 3956,
      "Ġjazyk": 3957,
      "ĠvÃŃna": 3958,
      "ĠbÄĽh": 3959,
      "ÅĻenÃ½": 3960,
      "ĠvrÃ¡til": 3961,
      "ĠpÅĻÃ¡nÃŃ": 3962,
      "ĠchÃ½lÃŃ": 3963,
      "Ġchas": 3964,
      "ĠpoÅĻÃ¡": 3965,
      "nilo": 3966,
      "Ġpoesi": 3967,
      "ĠdivnÃ©": 3968,
      "ĠlesnÃŃ": 3969,
      "ĠmladÃŃ": 3970,
      "ĠvÄĽÅ¾e": 3971,
      "Ġpano": 3972,
      "koj": 3973,
      "sÃ½": 3974,
      "Ġprst": 3975,
      "kÃ¡n": 3976,
      "ĠdÃ¡ti": 3977,
      "ĠprÃ¡vo": 3978,
      "Ġstran": 3979,
      "Ġzvony": 3980,
      "ĠdivÃ½": 3981,
      "Ġlesem": 3982,
      "ĠnÄĽkde": 3983,
      "ckÃ½ch": 3984,
      "Ġhroby": 3985,
      "sle": 3986,
      "ĠsvÄĽtÅ¯": 3987,
      "Ġpromlu": 3988,
      "Ġnesmr": 3989,
      "Ġnemoc": 3990,
      "hlo": 3991,
      "ĠzÃ¡vra": 3992,
      "ĠposmÄĽ": 3993,
      "ĠhorÃ¡ch": 3994,
      "ĠÄĽch": 3995,
      "Ġmatku": 3996,
      "ĠtnÃ½": 3997,
      "ĠveÄįera": 3998,
      "vyÅ¡": 3999,
      "Ġstranou": 4000,
      "Ġvzdor": 4001,
      "tnou": 4002,
      "tili": 4003,
      "ĠplÃ¡Äįi": 4004,
      "Ġozdo": 4005,
      "Ġztich": 4006,
      "ĠilÃ©": 4007,
      "Ġece": 4008,
      "viti": 4009,
      "ĠpÅĻÃŃval": 4010,
      "ĠmeÄįem": 4011,
      "ĠmÅĻÃŃ": 4012,
      "ckni": 4013,
      "ĠdÄĽji": 4014,
      "ĠtvÅ¯": 4015,
      "ĠslavnÃ½": 4016,
      "ot": 4017,
      "Å¾nÄĽ": 4018,
      "ĠpÅĻipra": 4019,
      "ĠzÅĻÃŃt": 4020,
      "ĠvÅ¡ickni": 4021,
      "Ġspraved": 4022,
      "Ġzkou": 4023,
      "Ġmili": 4024,
      "Ġrozech": 4025,
      "ĠvÄĽÄįnosti": 4026,
      "Ġholubi": 4027,
      "ĠrÃ½m": 4028,
      "Ġrud": 4029,
      "Ġnoha": 4030,
      "Ġoken": 4031,
      "ena": 4032,
      "rÃ¡tÃŃ": 4033,
      "Ġdom": 4034,
      "covÃ©": 4035,
      "ĠÃºÅ¾as": 4036,
      "ĠjÃŃti": 4037,
      "cenÃ½": 4038,
      "Ġvichr": 4039,
      "ĠlÃ½m": 4040,
      "Ġmate": 4041,
      "ĠvidÃŃÅ¡": 4042,
      "ĠÅĪÃ¡": 4043,
      "hnout": 4044,
      "ĠuhÃ½": 4045,
      "bek": 4046,
      "nkou": 4047,
      "ĠnnÃ©": 4048,
      "ĠdnÃ¡": 4049,
      "ĠokÃ©": 4050,
      "ĠvÄĽtru": 4051,
      "ĠÃ¡Å¾ÃŃ": 4052,
      "ĠkÃ©m": 4053,
      "Ġesu": 4054,
      "kali": 4055,
      "ĠbolÃŃ": 4056,
      "ĠicÃŃ": 4057,
      "ĠnemÃ¡m": 4058,
      "ĠtajemstvÃŃ": 4059,
      "Ġdavy": 4060,
      "Ġneho": 4061,
      "ĠnechÃ¡": 4062,
      "Ġotci": 4063,
      "ĠschvÃ¡": 4064,
      "ÄįÅ¯": 4065,
      "ĠpravÃ½": 4066,
      "kÅ¯v": 4067,
      "Ġdruhdy": 4068,
      "Å¾nÃ½": 4069,
      "Ġkmet": 4070,
      "Å¡enÃ©": 4071,
      "ĠhrÅ¯zy": 4072,
      "ĠzpÃŃval": 4073,
      "Ġukry": 4074,
      "zÃ½": 4075,
      "Ġprv": 4076,
      "Ġtvor": 4077,
      "ĠsmrtÃŃ": 4078,
      "kaly": 4079,
      "ĠvojÃ¡": 4080,
      "ĠÃ¡se": 4081,
      "ĠÅ¡pat": 4082,
      "ĠvÄĽtvÃŃ": 4083,
      "ĠslavnÄĽ": 4084,
      "ĠkaÅ¾dÃ½m": 4085,
      "ABABC": 4086,
      "tÅĻÃŃ": 4087,
      "rajÃŃ": 4088,
      "ĠmÄĽstÄĽ": 4089,
      "Ġhym": 4090,
      "ĠsÃŃm": 4091,
      "telÃ©": 4092,
      "ĠdÄĽj": 4093,
      "ĠkÅĻÃŃÅ¾e": 4094,
      "ĠtÃŃÅ¾ÃŃ": 4095,
      "kej": 4096,
      "ĠtmÄĽ": 4097,
      "ĠrudÃ½": 4098,
      "ĠÃºt": 4099,
      "ĠÅĻeka": 4100,
      "ĠlaÅĪ": 4101,
      "Ġebi": 4102,
      "has": 4103,
      "jme": 4104,
      "mek": 4105,
      "Ġplnou": 4106,
      "Ġmusil": 4107,
      "Ġctnost": 4108,
      "ĠmeÄįe": 4109,
      "Ġobzor": 4110,
      "Ġbrou": 4111,
      "Ġzima": 4112,
      "Ġprudce": 4113,
      "ĠvÅ¡ady": 4114,
      "benÃŃ": 4115,
      "ĠÄĽvy": 4116,
      "Ġkdybych": 4117,
      "Ġmramo": 4118,
      "Ġbudem": 4119,
      "ĠstÃŃnÅ¯": 4120,
      "ĠpÃŃt": 4121,
      "Ġnevz": 4122,
      "tev": 4123,
      "vosti": 4124,
      "Å¾ÃŃÅ¡": 4125,
      "ĠusmÃ¡": 4126,
      "Ġpoklad": 4127,
      "zpe": 4128,
      "bÃ¡m": 4129,
      "Äįa": 4130,
      "rÃ©ho": 4131,
      "ĠeÄįe": 4132,
      "ĠmÃ©mu": 4133,
      "Ġdceru": 4134,
      "Ġproudy": 4135,
      "nuv": 4136,
      "Ġspu": 4137,
      "Ġnejsem": 4138,
      "Ġdlouhou": 4139,
      "Ġlok": 4140,
      "ĠposlÃ©z": 4141,
      "Ġlisty": 4142,
      "krÃ¡te": 4143,
      "Ġkristu": 4144,
      "ĠÃºdolÃŃ": 4145,
      "kva": 4146,
      "Ġvine": 4147,
      "Ġdro": 4148,
      "lÃ¡nÃŃ": 4149,
      "ĠoÄįima": 4150,
      "vÅ¡ak": 4151,
      "ĠnepÅĻÃ¡tel": 4152,
      "lec": 4153,
      "Ġuji": 4154,
      "Ġlaho": 4155,
      "Ġfan": 4156,
      "ĠosamÄĽ": 4157,
      "Ġpit": 4158,
      "Ġhmo": 4159,
      "ĠpÃ¡lÃŃ": 4160,
      "ĠtnÃ¡": 4161,
      "ĠpodÃŃ": 4162,
      "ĠeÄįi": 4163,
      "ĠlÃ¡n": 4164,
      "ĠnÃ¡ruÄįÃŃ": 4165,
      "ĠnosÃŃ": 4166,
      "ĠpÃ¡d": 4167,
      "Ġkryje": 4168,
      "ĠsplÃ½vÃ¡": 4169,
      "Ġstolu": 4170,
      "uk": 4171,
      "Ġatu": 4172,
      "ĠchlÃ©b": 4173,
      "ĠvÄĽnec": 4174,
      "ĠprostÅĻed": 4175,
      "ĠnnÃŃ": 4176,
      "Ġjitro": 4177,
      "lÃ©tÃ¡": 4178,
      "ĠkrÃ¡Äįel": 4179,
      "ĠÅĻetÄĽ": 4180,
      "bro": 4181,
      "ĠÅ¡em": 4182,
      "ĠstaÄįÃŃ": 4183,
      "ĠdlanÃŃ": 4184,
      "Ġazu": 4185,
      "ĠtajÃŃ": 4186,
      "ĠlidskÃ½ch": 4187,
      "ĠnÄĽmÃ½": 4188,
      "ĠptaÄįÃŃ": 4189,
      "Ġnapl": 4190,
      "Ġvzk": 4191,
      "ĠtemnÃ½": 4192,
      "Ġhlubin": 4193,
      "XABA": 4194,
      "ĠslavnÃ©": 4195,
      "ĠsedÄĽl": 4196,
      "Ġvykou": 4197,
      "ĠvlasÅ¯": 4198,
      "ĠumÄĽ": 4199,
      "ĠÃŃÅĻÃŃ": 4200,
      "dovÃ©": 4201,
      "Ġkrvi": 4202,
      "Ġpropast": 4203,
      "Ġstal": 4204,
      "Ġzdr": 4205,
      "ĠblÃŃzko": 4206,
      "Ġzapomen": 4207,
      "Ġtk": 4208,
      "Ġdosta": 4209,
      "vanÃ½": 4210,
      "ĠrodÃŃ": 4211,
      "ĠnÄĽl": 4212,
      "ĠtvoÅĻÃŃ": 4213,
      "Ġzacho": 4214,
      "ĠvÅ¯dce": 4215,
      "Ġryt": 4216,
      "ĠsprÃ¡": 4217,
      "Ġpadne": 4218,
      "ĠskÃ¡la": 4219,
      "Ġule": 4220,
      "ĠvelkÃ½ch": 4221,
      "ĠavÅ¡ak": 4222,
      "Ġkop": 4223,
      "ÄįnÃ½m": 4224,
      "mÃŃr": 4225,
      "ĠprÃ¡va": 4226,
      "ĠslzÃŃ": 4227,
      "Ġprapor": 4228,
      "ÅĻad": 4229,
      "ĠudÃ©": 4230,
      "Ġtehdy": 4231,
      "ge": 4232,
      "jÃŃcÃŃm": 4233,
      "cuje": 4234,
      "znÃ¡": 4235,
      "sila": 4236,
      "ĠpalÃ¡": 4237,
      "Ġnesmrtel": 4238,
      "ĠjÃ¡so": 4239,
      "ĠdlouhÃ¡": 4240,
      "ĠduchÅ¯": 4241,
      "Ġosi": 4242,
      "Ġeba": 4243,
      "menÃŃ": 4244,
      "Ġulo": 4245,
      "ĠÃ¡hy": 4246,
      "ĠdÃŃval": 4247,
      "Ġkouzlo": 4248,
      "Ġtkli": 4249,
      "Ġara": 4250,
      "ĠnejvyÅ¡": 4251,
      "Ġvane": 4252,
      "ĠÅ¡tÃŃt": 4253,
      "ĠinÃ½": 4254,
      "ĠÄįko": 4255,
      "ĠÃ¡ji": 4256,
      "nily": 4257,
      "Ġpouti": 4258,
      "ĠÄįervÃ¡n": 4259,
      "ĠsamÃ©": 4260,
      "Ġtvoji": 4261,
      "Ġzmizel": 4262,
      "ĠtnÄĽ": 4263,
      "Ġmrou": 4264,
      "rÃ¡l": 4265,
      "ĠkÅĻik": 4266,
      "ĠchladnÃ©": 4267,
      "ene": 4268,
      "ĠhnÄĽvu": 4269,
      "ĠÄįemu": 4270,
      "tud": 4271,
      "?...": 4272,
      "Ġdly": 4273,
      "ĠdlanÄĽ": 4274,
      "Ġnebezpe": 4275,
      "Ġyly": 4276,
      "ĠÄįasÅ¯": 4277,
      "ĠvelkÃ½m": 4278,
      "ĠstraÅ¡": 4279,
      "Ġzaz": 4280,
      "ĠrnÄĽ": 4281,
      "ĠanÃ¡": 4282,
      "Å¡a": 4283,
      "ĠalÃ¡": 4284,
      "ĠzpÄĽvu": 4285,
      "ĠcitÅ¯": 4286,
      "ĠkÅ¯ÅĪ": 4287,
      "slav": 4288,
      "Ġhni": 4289,
      "ĠnÃŃh": 4290,
      "ĠÅĻÃŃtÃŃ": 4291,
      "ĠpÃ½": 4292,
      "Å¾ili": 4293,
      "ĠozvÄĽ": 4294,
      "ĠtrÃ¡vÄĽ": 4295,
      "Ġobrov": 4296,
      "ĠdÃ¡n": 4297,
      "Ġhed": 4298,
      "ĠdrÅ¾ÃŃ": 4299,
      "ĠstaÅĻec": 4300,
      "ĠjinÃ¡": 4301,
      "Ġvzte": 4302,
      "ĠhnÃ¡": 4303,
      "ĠitÃ¡": 4304,
      "Ġzel": 4305,
      "bla": 4306,
      "ĠvÄĽku": 4307,
      "Ġad": 4308,
      "Ġrob": 4309,
      "Ġvyr": 4310,
      "ĠÄįistÃ½": 4311,
      "ĠchovÃ¡": 4312,
      "ĠmocnÃ½": 4313,
      "ĠmotÃ½l": 4314,
      "ĠÃ½m": 4315,
      "ĠÅ¡edÃ©": 4316,
      "Ġdlu": 4317,
      "ĠsnÃ½": 4318,
      "Å¾em": 4319,
      "vede": 4320,
      "ĠtÄĽchto": 4321,
      "ĠatÄĽ": 4322,
      "ĠdveÅĻÃŃ": 4323,
      "Ġprokle": 4324,
      "Ġjev": 4325,
      "Ġplanou": 4326,
      "ĠdeÅ¡tÄĽ": 4327,
      "Ġrce": 4328,
      "Ġvyje": 4329,
      "ĠmyÅ¡lenky": 4330,
      "ĠmnÃ©": 4331,
      "nÃŃkÅ¯": 4332,
      "ĠdivnÃ½": 4333,
      "ĠspÃ¡nku": 4334,
      "ĠvÃ¡Å¾nÄĽ": 4335,
      "Ġca": 4336,
      "Ġpur": 4337,
      "ĠjemnÄĽ": 4338,
      "Ġsat": 4339,
      "Ġznak": 4340,
      "vÄĽti": 4341,
      "ĠazÃŃ": 4342,
      "skal": 4343,
      "ĠÅ¾es": 4344,
      "Ġskle": 4345,
      "Ġhledal": 4346,
      "ĠzÃ¡voj": 4347,
      "Å¾ela": 4348,
      "Ġmas": 4349,
      "ĠÅ¡eru": 4350,
      "cu": 4351,
      "ĠpravÃ©": 4352,
      "Ġcel": 4353,
      "ĠvroucnÄĽ": 4354,
      "ĠsnÃ¡ch": 4355,
      "Ġznamen": 4356,
      "Ġusta": 4357,
      "vici": 4358,
      "XAXBXB": 4359,
      "rav": 4360,
      "ĠÅ¡pi": 4361,
      "Ġytu": 4362,
      "Ġvrah": 4363,
      "ĠkÅĻÃŃdel": 4364,
      "Ġpora": 4365,
      "Ġucho": 4366,
      "Ġhoto": 4367,
      "ĠjÃ¡sa": 4368,
      "Ġlaska": 4369,
      "vech": 4370,
      "Ġbru": 4371,
      "Ġpovo": 4372,
      "Ġkola": 4373,
      "ĠnadÄĽj": 4374,
      "ĠvÄĽtve": 4375,
      "Ġkrajem": 4376,
      "ĠstÅĻedu": 4377,
      "Ġnaho": 4378,
      "ĠchudÃ©": 4379,
      "ĠhÃ¡je": 4380,
      "ga": 4381,
      "pÃ©": 4382,
      "ĠbÃŃdy": 4383,
      "ĠtÄĽÅ¾kÃ¡": 4384,
      "ĠnadÄĽjÃŃ": 4385,
      "ĠjeÅ¥": 4386,
      "Ġstopy": 4387,
      "Äįte": 4388,
      "ĠÅ¾Ã¡dÃ¡": 4389,
      "ĠÅ¡ku": 4390,
      "Ġmet": 4391,
      "Ġher": 4392,
      "ĠupÅĻÃŃm": 4393,
      "Ġvzdych": 4394,
      "ĠstÃ¡ti": 4395,
      "ĠvÃ¡Å¡ni": 4396,
      "Ġora": 4397,
      "kami": 4398,
      "Ġmohla": 4399,
      "ĠtÄĽlem": 4400,
      "Ġpekel": 4401,
      "ĠÃŃna": 4402,
      "vek": 4403,
      "ĠvÃŃtÄĽzstvÃŃ": 4404,
      "ĠsvÄĽtel": 4405,
      "ĠsvÃŃrÃ¡": 4406,
      "ĠbratÅĻe": 4407,
      "rÃ½vÃ¡": 4408,
      "Ġalu": 4409,
      "ĠmnÃŃ": 4410,
      "Ġzaho": 4411,
      "ĠpÅĻiÅ¡li": 4412,
      "klÃ¡": 4413,
      "ĠplÃŃ": 4414,
      "Ġlabu": 4415,
      "ĠtrÅ¯nu": 4416,
      "ĠÅ¾hou": 4417,
      "ĠvÄĽrnÄĽ": 4418,
      "Äįili": 4419,
      "pÃŃnÃ¡": 4420,
      "Ġharf": 4421,
      "ĠpÅĻelu": 4422,
      "dost": 4423,
      "ĠvÄĽtrem": 4424,
      "Ġkarel": 4425,
      "Ġvzru": 4426,
      "Ġheb": 4427,
      "Ġpomoci": 4428,
      "Å¡ly": 4429,
      "ĠuÅĻÃŃ": 4430,
      "dnÃ½m": 4431,
      "vky": 4432,
      "ĠÃŃlÃ©": 4433,
      "Äįce": 4434,
      "ĠÄįar": 4435,
      "Ġpadla": 4436,
      "dro": 4437,
      "ĠvaÅ¡ich": 4438,
      "ĠnuÅ¾e": 4439,
      "Ġkvete": 4440,
      "ĠtuÅ¡ÃŃ": 4441,
      "ĠobÄĽÅ¥": 4442,
      "Ġrti": 4443,
      "Ġduchem": 4444,
      "ĠzÅ¯stal": 4445,
      "ĠzÃ¡kon": 4446,
      "ĠrnÃŃ": 4447,
      "ĠrodnÃ©": 4448,
      "Ġvid": 4449,
      "ĠdivÃ©": 4450,
      "Ġklade": 4451,
      "Ġdotk": 4452,
      "Ġtouze": 4453,
      "ĠzamyÅ¡": 4454,
      "ĠzÃ¡ha": 4455,
      "ĠodpovÃŃ": 4456,
      "loudil": 4457,
      "lenou": 4458,
      "Ġznaven": 4459,
      "Ġstav": 4460,
      "ĠpotÅĻe": 4461,
      "ĠbrÃ¡ny": 4462,
      "ĠaÅĻÃŃ": 4463,
      "ĠlÃŃÅ¾": 4464,
      "ĠusmÃŃvÃ¡": 4465,
      "ĠdivÃ¡": 4466,
      "Ġmilou": 4467,
      "Äįnosti": 4468,
      "ĠsvÅ¯": 4469,
      "Ġeji": 4470,
      "kov": 4471,
      "ĠjednÃŃm": 4472,
      "Ġkrista": 4473,
      "ÄįkÃ¡": 4474,
      "ĠkrÃ¡sou": 4475,
      "ĠtmÃ¡ch": 4476,
      "Ġvyko": 4477,
      "Ġtaky": 4478,
      "Ġodva": 4479,
      "ĠsvÄĽd": 4480,
      "ĠonÃ©": 4481,
      "Ġoma": 4482,
      "Ġdrahou": 4483,
      "Ġvdo": 4484,
      "ĠbÃŃda": 4485,
      "ĠtrÅ¯n": 4486,
      "ĠÅ¡lo": 4487,
      "lej": 4488,
      "ĠdÃ½chÃ¡": 4489,
      "ÅĻili": 4490,
      "ĠloÅ¾i": 4491,
      "AABA": 4492,
      "ĠÃ¡sÃ¡": 4493,
      "ĠdÃ¡vnÃ½ch": 4494,
      "slÃŃ": 4495,
      "Ġtko": 4496,
      "Ġpodi": 4497,
      "ĠodvÃ¡": 4498,
      "Ġrat": 4499,
      "ĠÅĻec": 4500,
      "ĠtÃ¡t": 4501,
      "Ġhluk": 4502,
      "ÅĪo": 4503,
      "Ġmem": 4504,
      "Ġnesta": 4505,
      "Ġumu": 4506,
      "ĠlidskÃ¡": 4507,
      "ĠkÅĻo": 4508,
      "Ġri": 4509,
      "ĠhÅ¯": 4510,
      "rozen": 4511,
      "kost": 4512,
      "ĠynÄĽ": 4513,
      "Ġstromu": 4514,
      "ĠtÃ¡hnou": 4515,
      "Ġjesti": 4516,
      "Ġzahy": 4517,
      "rie": 4518,
      "Ġhi": 4519,
      "ĠuhÃ¡": 4520,
      "ĠÃŃra": 4521,
      "ĠÅ¾elez": 4522,
      "ĠpracÃŃ": 4523,
      "hÃ¡ch": 4524,
      "ĠskÃ¡le": 4525,
      "ĠÅĻady": 4526,
      "ĠdvÃ©ÅĻe": 4527,
      "ĠjinÃ½m": 4528,
      "Ġvolal": 4529,
      "ĠvÃ½kÅĻik": 4530,
      "ĠtuÅ¾": 4531,
      "ĠtÄĽÅ¡ÃŃ": 4532,
      "ĠzdaÅ¾": 4533,
      "Ġivy": 4534,
      "ĠvichÅĻi": 4535,
      "ĠskrÃ½vÃ¡": 4536,
      "ABCA": 4537,
      "Ġoknem": 4538,
      "ĠvzÃŃ": 4539,
      "ĠvznÃ¡Å¡ÃŃ": 4540,
      "ĠÄįernou": 4541,
      "Ġdavu": 4542,
      "Ġtri": 4543,
      "sli": 4544,
      "ĠpÅĻil": 4545,
      "ĠakÅ¯": 4546,
      "ĠahÃ½": 4547,
      "ĠvzrÅ¯": 4548,
      "ĠstÅĻÃŃbro": 4549,
      "Ġbolem": 4550,
      "ĠbÃ¡je": 4551,
      "Ġzbled": 4552,
      "jdu": 4553,
      "ĠmoÅĻem": 4554,
      "ĠÃ©tÃ¡": 4555,
      "ĠÅ¾alÃ¡": 4556,
      "ĠrozechvÄĽ": 4557,
      "Ġpurpu": 4558,
      "Ġaze": 4559,
      "Ġtyto": 4560,
      "ĠÅ¯ru": 4561,
      "ĠhrÅ¯za": 4562,
      "ĠdÃ©Å¡Å¥": 4563,
      "ĠokamÅ¾ik": 4564,
      "ĠvstÃ¡vÃ¡": 4565,
      "ĠikÃ¡": 4566,
      "ĠsvÄĽtlem": 4567,
      "ĠkrÃ¡snou": 4568,
      "Ġpozdrav": 4569,
      "Ġkolik": 4570,
      "ĠpÃ¡nu": 4571,
      "Ġstisk": 4572,
      "chod": 4573,
      "lÃ¡k": 4574,
      "Ġtur": 4575,
      "ĠvelikÃ©": 4576,
      "Ġsnil": 4577,
      "lid": 4578,
      "rÃ¡t": 4579,
      "Äįela": 4580,
      "Ġradu": 4581,
      "set": 4582,
      "ĠvÄĽÄįnÃ¡": 4583,
      "Ġmladi": 4584,
      "ĠÃ¡ry": 4585,
      "ĠlnÄĽ": 4586,
      "kovi": 4587,
      "ĠkterÃ½m": 4588,
      "ĠÅ¾ivÃ©": 4589,
      "ĠÅĻÃŃÅ¡i": 4590,
      "ĠÃŃjÃŃ": 4591,
      "ĠmÃ¡ti": 4592,
      "AAAB": 4593,
      "Ġmech": 4594,
      "ÄįenÃ©": 4595,
      "ĠchvÄĽla": 4596,
      "ĠÄıas": 4597,
      "ĠkÃ½vÃ¡": 4598,
      "Ġuha": 4599,
      "ĠvÄĽÅ¾ÃŃ": 4600,
      "Ġmuk": 4601,
      "ĠzvÄĽst": 4602,
      "ĠbdÃŃ": 4603,
      "ĠplÃ¡Å¡Å¥": 4604,
      "Ġplyne": 4605,
      "ĠsÃ½": 4606,
      "ABBCD": 4607,
      "ĠÄĽru": 4608,
      "Ġspokojen": 4609,
      "Ġdat": 4610,
      "ĠsedÃ¡": 4611,
      "Å¾et": 4612,
      "Ġdneska": 4613,
      "ĠkÃ¡Å¾e": 4614,
      "ĠnejvÃŃc": 4615,
      "Ġrosa": 4616,
      "ĠÄįarov": 4617,
      "ĠpÅĻÃŃrody": 4618,
      "ĠaÅ¾ÃŃ": 4619,
      "Ġsve": 4620,
      "nili": 4621,
      "Ġsmutno": 4622,
      "ĠplnÃ¡": 4623,
      "ĠpoÅ¡": 4624,
      "ĠmÃŃstÄĽ": 4625,
      "ĠmanÄĽ": 4626,
      "ĠsmutnÃ¡": 4627,
      "jÃŃcÃ½": 4628,
      "ĠÅ¡pe": 4629,
      "Ġspa": 4630,
      "Ġut": 4631,
      "Ġumy": 4632,
      "ĠmladÃ½ch": 4633,
      "zÃ¡ch": 4634,
      "ĠstoupÃ¡": 4635,
      "ĠÅ¡ka": 4636,
      "ĠÄĽnÃ©": 4637,
      "ĠvlÃ¡dne": 4638,
      "Ġpne": 4639,
      "rad": 4640,
      "ĠupÃ¡": 4641,
      "ĠmrtvÃ½": 4642,
      "ĠzbraÅĪ": 4643,
      "Ġpri": 4644,
      "Ġlal": 4645,
      "Ġplou": 4646,
      "ĠnÃ©": 4647,
      "dilo": 4648,
      "ĠstÃ¡li": 4649,
      "tily": 4650,
      "ĠnechtÄĽ": 4651,
      "Ġzdro": 4652,
      "vak": 4653,
      "ĠodmÄĽ": 4654,
      "Ġpanna": 4655,
      "AXXA": 4656,
      "ĠÄįnÃ½": 4657,
      "dovat": 4658,
      "ĠpÅĻÃŃs": 4659,
      "ĠbÃŃdu": 4660,
      "Ġdcera": 4661,
      "Ġrodu": 4662,
      "Ġklobou": 4663,
      "ĠvÃ¡clav": 4664,
      "ĠchvÄĽjÃŃ": 4665,
      "ĠdÄĽlÃ¡": 4666,
      "ĠÃ©st": 4667,
      "Ġperly": 4668,
      "ABCCDD": 4669,
      "ĠkvÃŃlÃŃ": 4670,
      "Ġner": 4671,
      "ĠplnÃŃ": 4672,
      "ĠchladnÃ½": 4673,
      "jak": 4674,
      "Ġosy": 4675,
      "Ġvzlet": 4676,
      "ĠtatÃŃ": 4677,
      "nÅ¯m": 4678,
      "vro": 4679,
      "Ġdit": 4680,
      "ĠbolestÃŃ": 4681,
      "ĠÃºto": 4682,
      "ĠpÃ¡s": 4683,
      "ĠdennÃŃ": 4684,
      "stnÄĽ": 4685,
      "ĠÄįase": 4686,
      "Ġmluvit": 4687,
      "ĠÅĻada": 4688,
      "vÅ¡e": 4689,
      "ĠvnitÅĻ": 4690,
      "lÃŃk": 4691,
      "ĠchvÃŃlÃŃ": 4692,
      "Ġpokry": 4693,
      "ĠsmÃ¡l": 4694,
      "ĠnazpÄĽt": 4695,
      "Ġprsty": 4696,
      "ĠstÃ¡ÅĻÃŃ": 4697,
      "ĠcÃŃle": 4698,
      "Ġpomalu": 4699,
      "ĠÃŃdÃ¡": 4700,
      "ĠjejÃŃch": 4701,
      "Ġrosy": 4702,
      "nulo": 4703,
      "Ġmistr": 4704,
      "ĠchudÃ¡": 4705,
      "ÅĻenÃ¡": 4706,
      "mal": 4707,
      "Ġstanul": 4708,
      "ĠjÃ¡sÃ¡": 4709,
      "ĠpotÃ¡": 4710,
      "ÄĽte": 4711,
      "ĠÃºz": 4712,
      "ĠtnÃŃ": 4713,
      "Ġaru": 4714,
      "ĠÄįeho": 4715,
      "rovna": 4716,
      "rnÃ½m": 4717,
      "Ġoj": 4718,
      "tali": 4719,
      "ĠpÅĻÃŃmo": 4720,
      "Ġkruhu": 4721,
      "ĠmuÅ¾Å¯": 4722,
      "ĠvÅ¡udy": 4723,
      "ĠÃºdy": 4724,
      "ĠklÃŃnu": 4725,
      "Ġiky": 4726,
      "ĠvÄĽnce": 4727,
      "Ġmyslil": 4728,
      "ĠlÃ©pe": 4729,
      "Ġshas": 4730,
      "ĠzÃ¡padu": 4731,
      "Ġpop": 4732,
      "Ġjede": 4733,
      "Ġbyt": 4734,
      "ĠrÃ¡mÄĽ": 4735,
      "Ġnitro": 4736,
      "ĠhnÃŃzdo": 4737,
      "Ġdli": 4738,
      "rovÃ©": 4739,
      "Å¡eÅĪ": 4740,
      "ĠÃŃÅĻe": 4741,
      "ĠiÄįÃŃ": 4742,
      "hala": 4743,
      "Å¡enÃ½": 4744,
      "ĠzdÃŃ": 4745,
      "ĠdÃŃky": 4746,
      "Ġuta": 4747,
      "ĠijÃŃ": 4748,
      "ĠsÃŃnÄĽ": 4749,
      "ĠjedinÃ¡": 4750,
      "Ġrozpu": 4751,
      "ĠzpÄĽvy": 4752,
      "ĠrozkoÅ¡e": 4753,
      "ĠmÃ½": 4754,
      "Ġdumy": 4755,
      "ĠvÄĽl": 4756,
      "ĠÄįekal": 4757,
      "ĠmnohÃ¡": 4758,
      "ĠpamÄĽti": 4759,
      "ĠÅ¾itÃŃm": 4760,
      "ĠstÅ¯l": 4761,
      "ĠpÃ¡nem": 4762,
      "ĠÄįinÃŃ": 4763,
      "Ġchlap": 4764,
      "Ġjinoch": 4765,
      "Ġuza": 4766,
      "ĠkonÃŃ": 4767,
      "Ġkosti": 4768,
      "ĠÅĻev": 4769,
      "ĠskrÃ¡nÃŃ": 4770,
      "ol": 4771,
      "Ġnemlu": 4772,
      "Ġvrch": 4773,
      "ĠÅ¾enÄĽ": 4774,
      "Ġletem": 4775,
      "Ġopoj": 4776,
      "vaje": 4777,
      "Ġspla": 4778,
      "Ġstin": 4779,
      "Ġnemoh": 4780,
      "zdy": 4781,
      "ĠdomÃ¡": 4782,
      "ĠmoÅĻ": 4783,
      "ĠptÃ¡kÅ¯": 4784,
      "ajÃŃ": 4785,
      "Ġnejsou": 4786,
      "Ġgra": 4787,
      "ĠskrÃ¡nÄĽ": 4788,
      "Ġkot": 4789,
      "ĠÅ¾havÃ½": 4790,
      "ĠzbranÄĽ": 4791,
      "chÃ¡ch": 4792,
      "ĠdlouhÃ½ch": 4793,
      "Ġpor": 4794,
      "ABBX": 4795,
      "Ġrostou": 4796,
      "ĠtrÃ¡vy": 4797,
      "Ġzmize": 4798,
      "Ġvida": 4799,
      "Ġpozo": 4800,
      "Ġpozor": 4801,
      "ĠmrakÅ¯": 4802,
      "Ġsal": 4803,
      "ĠudÄĽ": 4804,
      "ĠÄįÃŃÅ¡e": 4805,
      "zÅ¯": 4806,
      "Ġtoto": 4807,
      "ĠÅ¾ert": 4808,
      "zenÃŃ": 4809,
      "Ġslzou": 4810,
      "Ġplod": 4811,
      "ĠÅ¾havÃ©": 4812,
      "hostej": 4813,
      "ĠdlÃ¡": 4814,
      "ĠÄįelem": 4815,
      "Ġlesku": 4816,
      "Ġpekla": 4817,
      "ĠtkÃ¡": 4818,
      "Ġex": 4819,
      "ĠÄĽky": 4820,
      "Ġztr": 4821,
      "ĠÃ¡ru": 4822,
      "Ġtamo": 4823,
      "ĠprÃ¡zdno": 4824,
      "cÃŃho": 4825,
      "Ġobo": 4826,
      "Ġdub": 4827,
      "ÄįkÅ¯": 4828,
      "ĠjiÅĻÃŃ": 4829,
      "Å¡ila": 4830,
      "Ġpadl": 4831,
      "Ġhrdin": 4832,
      "Ġsvobody": 4833,
      "ĠprostÃ©": 4834,
      "ĠvÄĽÅ¾": 4835,
      "ĠrÃ¡ji": 4836,
      "ĠradÄĽj": 4837,
      "Ġnetu": 4838,
      "ĠvÄĽdÄĽl": 4839,
      "Ġlit": 4840,
      "ĠÄįistÃ¡": 4841,
      "ĠmarnÃ©": 4842,
      "ĠkrÃ¡tkÃ½": 4843,
      "Ġtopo": 4844,
      "ĠhonÃŃ": 4845,
      "ĠnÄĽko": 4846,
      "Ġnutno": 4847,
      "ĠpÅ¯jde": 4848,
      "pnÄĽ": 4849,
      "ĠpÅĻÃŃteli": 4850,
      "tvÃ¡": 4851,
      "ĠÅ¡ak": 4852,
      "ĠzvÃŃÅĻe": 4853,
      "Ġpoesie": 4854,
      "nuli": 4855,
      "viny": 4856,
      "ĠpyÅ¡": 4857,
      "Ġdomov": 4858,
      "ĠdÃŃÅ¡": 4859,
      "ĠsvÄĽdomÃŃ": 4860,
      "ĠvdÄĽk": 4861,
      "ĠÃ¡Å¡ÃŃ": 4862,
      "nut": 4863,
      "Ġevro": 4864,
      "Ġdol": 4865,
      "Ġdivy": 4866,
      "Ġdruhu": 4867,
      "Ġmiloval": 4868,
      "ĠmlÃ¡den": 4869,
      "ĠÅ¡Å¥asten": 4870,
      "Ġstruny": 4871,
      "krÃ¡snÄĽjÅ¡ÃŃ": 4872,
      "dni": 4873,
      "ĠuvÃŃ": 4874,
      "ĠinÃ©": 4875,
      "ĠÅ¡kle": 4876,
      "ĠvÃŃtÃ¡": 4877,
      "ĠhÃ¡zÃŃ": 4878,
      "ĠÄįtyÅĻi": 4879,
      "Ġhce": 4880,
      "rala": 4881,
      "ĠneÅ¡tÄĽ": 4882,
      "ĠetÃ¡": 4883,
      "Ġclo": 4884,
      "klady": 4885,
      "ABCBCD": 4886,
      "ĠdÃ¡Å¡": 4887,
      "ĠprchÃ¡": 4888,
      "ĠzeÄı": 4889,
      "ĠnejkrÃ¡snÄĽjÅ¡ÃŃ": 4890,
      "ĠjemuÅ¾": 4891,
      "nd": 4892,
      "ÅĻena": 4893,
      "dec": 4894,
      "Ġvot": 4895,
      "ĠplÃ¡Äįem": 4896,
      "Ġzavo": 4897,
      "ĠtmavÃ½": 4898,
      "nej": 4899,
      "armo": 4900,
      "ĠÅ¡ÃŃp": 4901,
      "ĠjakÃ½s": 4902,
      "Ġsten": 4903,
      "ĠprosÃŃ": 4904,
      "ÅĪÅ¯": 4905,
      "ĠkrÃ¡snÄĽ": 4906,
      "Ġyli": 4907,
      "ĠnesmÄĽ": 4908,
      "rej": 4909,
      "ĠÃŃlÃ¡": 4910,
      "Ġlhostej": 4911,
      "ĠkdeÅ¾": 4912,
      "Ġbarvy": 4913,
      "Ġeku": 4914,
      "ĠÄĽhu": 4915,
      "Ġstrachu": 4916,
      "ckÃ¡": 4917,
      "Ġtmu": 4918,
      "Ġuby": 4919,
      "ĠivÃŃ": 4920,
      "Ġvzly": 4921,
      "Å¾eb": 4922,
      "ĠnaÅ¡em": 4923,
      "hovÃ©": 4924,
      "ĠletnÃŃ": 4925,
      "Ġobzoru": 4926,
      "Ġapo": 4927,
      "ĠzvonÅ¯": 4928,
      "ĠÃ¡Äįi": 4929,
      "Ġmor": 4930,
      "ĠvÄĽrnÃ½": 4931,
      "Ġsev": 4932,
      "vic": 4933,
      "ĠÄįlovÄĽku": 4934,
      "ĠrnÃ¡": 4935,
      "Ġlka": 4936,
      "Ġpeklo": 4937,
      "ĠpoÅ¾ehnÃ¡nÃŃ": 4938,
      "Ġklesla": 4939,
      "ĠkÅĻiv": 4940,
      "vÅ¯r": 4941,
      "bar": 4942,
      "tilo": 4943,
      "ĠÅ¡edÃ½": 4944,
      "ĠdivnÄĽ": 4945,
      "Ġhovor": 4946,
      "ĠmÅĻe": 4947,
      "livÃ¡": 4948,
      "ĠÃºc": 4949,
      "ĠÅ¡koda": 4950,
      "Ġzky": 4951,
      "ĠlÃŃcÃŃ": 4952,
      "vor": 4953,
      "Ġkor": 4954,
      "ĠvÃŃÅĻÃŃ": 4955,
      "ĠnovÃ½m": 4956,
      "mech": 4957,
      "ĠvÃ¡bÃŃ": 4958,
      "Ġlny": 4959,
      "ĠtÃ½m": 4960,
      "ĠckÃ½": 4961,
      "Ġmile": 4962,
      "ĠnejvÄĽt": 4963,
      "Ġgi": 4964,
      "Ġjiskry": 4965,
      "ĠmyÅ¡lÃ©nky": 4966,
      "chvÄĽ": 4967,
      "ĠmÃ¡Å¥": 4968,
      "ĠlÃŃn": 4969,
      "Ġzuby": 4970,
      "vla": 4971,
      "ĠjeÅ¡": 4972,
      "ĠhrozÃŃ": 4973,
      "ĠeÅĻe": 4974,
      "Ġkomo": 4975,
      "zÃŃch": 4976,
      "ĠtichÃ©m": 4977,
      "luje": 4978,
      "ĠdÃŃl": 4979,
      "Ġmalou": 4980,
      "Ġsmrtel": 4981,
      "rostÅĻed": 4982,
      "ĠvzpomÃŃnÃ¡m": 4983,
      "ĠvznÄĽ": 4984,
      "ĠvÃ¡Å¡eÅĪ": 4985,
      "ĠÅ¥": 4986,
      "Ġuny": 4987,
      "Ġobou": 4988,
      "ĠÃŃho": 4989,
      "ĠpÄĽstÃŃ": 4990,
      "ĠzahrÃ¡": 4991,
      "Ġbisku": 4992,
      "ĠmlÃ¡d": 4993,
      "Ġuly": 4994,
      "Ġbychom": 4995,
      "Ġrtu": 4996,
      "ĠlÃŃm": 4997,
      "Ġhyne": 4998,
      "ĠbojovnÃŃ": 4999,
      "Ġnach": 5000,
      "ĠkÅĻÃŃdlem": 5001,
      "ĠÅ¾ivÃ½": 5002,
      "ĠÅ¡ero": 5003,
      "ĠzrakÅ¯": 5004,
      "ily": 5005,
      "nutÃŃm": 5006,
      "ĠkÅĻiÄįÃŃ": 5007,
      "nt": 5008,
      "Äįas": 5009,
      "ĠÅĻÃŃkÃ¡": 5010,
      "ĠotvÃŃrÃ¡": 5011,
      "ĠcelÃ©m": 5012,
      "Ġletech": 5013,
      "ĠvlnÃŃ": 5014,
      "letu": 5015,
      "Ġhlavi": 5016,
      "lenÃ¡": 5017,
      "pec": 5018,
      "Ġjez": 5019,
      "ĠnoÅĻÃŃ": 5020,
      "ĠÄįerno": 5021,
      "ĠodpusÅ¥": 5022,
      "Ġsnech": 5023,
      "ĠalÃ©": 5024,
      "ĠzaznÃŃ": 5025,
      "ĠbuÅ¡ÃŃ": 5026,
      "pek": 5027,
      "ĠkeÅĻ": 5028,
      "ĠtajnÄĽ": 5029,
      "Ġpovin": 5030,
      "Ġobe": 5031,
      "ĠvelikÃ¡": 5032,
      "ĠnÃ¡dhe": 5033,
      "Ġbok": 5034,
      "Ġrozma": 5035,
      "Ġdobrou": 5036,
      "Ġblaze": 5037,
      "Ġproudem": 5038,
      "ĠjÃŃmÃ¡": 5039,
      "Ġhore": 5040,
      "Ġodtud": 5041,
      "ĠtÄĽÅ¾kou": 5042,
      "ĠesÃ¡": 5043,
      "ĠsmÃŃchem": 5044,
      "Ġbrzo": 5045,
      "Ġmilio": 5046,
      "Ã©mu": 5047,
      "Ġlec": 5048,
      "Ġnemohu": 5049,
      "ĠpÅĻÃŃroda": 5050,
      "ĠpÃŃsku": 5051,
      "ĠÅĻit": 5052,
      "Ġdky": 5053,
      "ĠstÅ¯j": 5054,
      "Ġuho": 5055,
      "ĠÅ¡il": 5056,
      "ĠkorÃ¡": 5057,
      "ĠkrÄį": 5058,
      "neme": 5059,
      "Ġslunko": 5060,
      "ĠdÄĽtem": 5061,
      "Ġnaklo": 5062,
      "Ġjablo": 5063,
      "Ġak": 5064,
      "ĠdÄĽvy": 5065,
      "Ġpel": 5066,
      "Ġnebesa": 5067,
      "lili": 5068,
      "Ġnesla": 5069,
      "ĠznamenÃŃ": 5070,
      "ĠneÅ¡": 5071,
      "Ġveleb": 5072,
      "Ġmladosti": 5073,
      "ĠrozlÃ©": 5074,
      "Ġpozved": 5075,
      "ÅĻily": 5076,
      "ĠznÃ¡Å¡": 5077,
      "Ġysi": 5078,
      "ĠslzÃ¡ch": 5079,
      "Ġzma": 5080,
      "Äįina": 5081,
      "ĠhroznÃ½": 5082,
      "nÄĽnÃ©": 5083,
      "nese": 5084,
      "Ġmechu": 5085,
      "Ġhvozd": 5086,
      "Ġzen": 5087,
      "ĠpojÃŃ": 5088,
      "fe": 5089,
      "Ġvzala": 5090,
      "ĠplÃ¡nÃŃ": 5091,
      "Ġpoza": 5092,
      "Ġleskem": 5093,
      "Ġuto": 5094,
      "ĠÅĻÃŃÅ¾": 5095,
      "ĠvlnÃ¡ch": 5096,
      "ĠÄıÃ¡bel": 5097,
      "ĠzvuÄįÃŃ": 5098,
      "najÃŃ": 5099,
      "Ġkomnat": 5100,
      "ĠtÅ¡ÃŃ": 5101,
      "Ġorel": 5102,
      "ĠcelÃ½m": 5103,
      "Ġracho": 5104,
      "ĠsvatÃ½ch": 5105,
      "Ġcity": 5106,
      "Ġsvobodu": 5107,
      "Ġzvyk": 5108,
      "jdou": 5109,
      "Ã½Å¡": 5110,
      "ĠnechtÄĽl": 5111,
      "ĠmanÅ¾el": 5112,
      "sat": 5113,
      "Ġhlav": 5114,
      "Ġhladi": 5115,
      "ĠvÃ½s": 5116,
      "Ġztratil": 5117,
      "ĠÃ¡my": 5118,
      "Ġluna": 5119,
      "ĠzdrÃ¡v": 5120,
      "ĠcÃ¡": 5121,
      "Ġren": 5122,
      "ĠplaÅ¡e": 5123,
      "ĠÅ¾Ã¡rem": 5124,
      "ĠzaÄįal": 5125,
      "ĠrdÃŃ": 5126,
      "ĠcÃŃli": 5127,
      "Ġohrom": 5128,
      "zat": 5129,
      "ĠrÃ©": 5130,
      "ĠpastÃ½": 5131,
      "ĠverÅ¡": 5132,
      "Ġvtip": 5133,
      "ĠdÄĽva": 5134,
      "ĠbÄĽlost": 5135,
      "ÅĻÃŃÅ¡": 5136,
      "ĠvÄĽÄįnou": 5137,
      "skne": 5138,
      "ĠÄįerst": 5139,
      "Ġbran": 5140,
      "ĠnÃ¡rodu": 5141,
      "hlou": 5142,
      "ĠhnutÃŃ": 5143,
      "jeme": 5144,
      "Ġklas": 5145,
      "ĠpapeÅ¾": 5146,
      "Ġteskno": 5147,
      "ĠleÅ¾el": 5148,
      "ĠhrÃ¡l": 5149,
      "Ġsice": 5150,
      "ĠbÃŃt": 5151,
      "Ġpanny": 5152,
      "Ġdaleka": 5153,
      "znÃ©": 5154,
      "Ġvno": 5155,
      "Å¾ek": 5156,
      "Ġchudo": 5157,
      "ÅĻenÃ½ch": 5158,
      "Ġpochyb": 5159,
      "Ġvry": 5160,
      "ĠhvÃŃ": 5161,
      "Ġdos": 5162,
      "ĠvÃ¡nek": 5163,
      "Ġzahal": 5164,
      "pky": 5165,
      "Ġpob": 5166,
      "ĠvÄĽcÃŃ": 5167,
      "Ġvodo": 5168,
      "ĠzdÃ¡l": 5169,
      "Ġzbro": 5170,
      "ĠnÃŃmÅ¾": 5171,
      "Ġslovan": 5172,
      "ĠctÃŃ": 5173,
      "ĠdunÃŃ": 5174,
      "ĠrÃ¡di": 5175,
      "huje": 5176,
      "Ġmari": 5177,
      "ĠÅ¡eptÃ¡": 5178,
      "ĠpovÄĽz": 5179,
      "ĠverÅ¡e": 5180,
      "Ġkristus": 5181,
      "ĠvnÄĽ": 5182,
      "raje": 5183,
      "ĠÅ¾eno": 5184,
      "Ġmlh": 5185,
      "ĠvlÃ¡d": 5186,
      "ĠdÃŃtky": 5187,
      "ĠstokrÃ¡t": 5188,
      "ÄįenÃ½": 5189,
      "ĠpravdÄĽ": 5190,
      "Ġhavra": 5191,
      "AXBCBC": 5192,
      "stek": 5193,
      "Ġctnosti": 5194,
      "Ġblankyt": 5195,
      "Ġzdy": 5196,
      "ĠpozdnÃŃ": 5197,
      "ĠslyÅ¡ÃŃÅ¡": 5198,
      "ĠkÅĻesÅ¥an": 5199,
      "letÄĽ": 5200,
      "Ġcitu": 5201,
      "Ġchvilku": 5202,
      "lala": 5203,
      "Å¯so": 5204,
      "ĠuÅ¾i": 5205,
      "dalo": 5206,
      "ĠplÃ¡l": 5207,
      "Ġvysoko": 5208,
      "ĠkrÅ¯pÄĽj": 5209,
      "tin": 5210,
      "ĠpÄĽnÃŃ": 5211,
      "ĠÅ¾Ã¡dnÃ¡": 5212,
      "Ġusly": 5213,
      "ĠspÃ¡nek": 5214,
      "Ġsek": 5215,
      "ĠsÃŃni": 5216,
      "ĠtrhÃ¡": 5217,
      "ĠjedinÃ©": 5218,
      "Å¡u": 5219,
      "Å¡tÃŃm": 5220,
      "ĠhledÃŃm": 5221,
      "cou": 5222,
      "nati": 5223,
      "Ġhat": 5224,
      "ĠzavÃ¡": 5225,
      "niti": 5226,
      "ĠpouÅ¡ti": 5227,
      "mÃ¡nÃŃ": 5228,
      "ĠÅ¾u": 5229,
      "vlÃ¡": 5230,
      "ÄįnÃ©m": 5231,
      "Ġbli": 5232,
      "Ġjinou": 5233,
      "Ġchud": 5234,
      "Ġpusti": 5235,
      "ĠmoÅ¾nÃ¡": 5236,
      "ĠmlÃ©": 5237,
      "Ġvrat": 5238,
      "ĠstrÃ½": 5239,
      "Ġnesko": 5240,
      "Ġnechal": 5241,
      "ĠnaÅĻÃŃ": 5242,
      "ĠÅ¡va": 5243,
      "ĠvÄĽÄįnost": 5244,
      "ĠhÃ¡ji": 5245,
      "Ġukru": 5246,
      "ĠvnÃ©": 5247,
      "nÃ¡ct": 5248,
      "cie": 5249,
      "dÄĽji": 5250,
      "hali": 5251,
      "ĠstÃŃnem": 5252,
      "ĠhrdÃ©": 5253,
      "Ġdci": 5254,
      "ĠobÃŃ": 5255,
      "Ġzdroj": 5256,
      "ĠzÅĻÃŃÅ¡": 5257,
      "Ġneji": 5258,
      "Ġeka": 5259,
      "nicÃŃ": 5260,
      "Ġmalo": 5261,
      "ĠĠĠ": 5262,
      "Ġsmysl": 5263,
      "ĠpÅ¯jdu": 5264,
      "ĠvÅ¡ednÃŃ": 5265,
      "Ġticha": 5266,
      "ĠpustÃ©": 5267,
      "ĠzvÄĽda": 5268,
      "Ġnitra": 5269,
      "ĠhroznÃ©": 5270,
      "Ġmoudro": 5271,
      "ĠnejvyÅ¡Å¡ÃŃ": 5272,
      "ĠnÃ¡ho": 5273,
      "Ġviny": 5274,
      "ĠpouÅ¡tÃŃ": 5275,
      "ĠjasnÃ¡": 5276,
      "Ġtrest": 5277,
      "AABX": 5278,
      "Ġvypu": 5279,
      "Ġkalich": 5280,
      "ĠosÅ¥": 5281,
      "ĠvlÃŃdnÄĽ": 5282,
      "ĠneÅ¡tÄĽstÃŃ": 5283,
      "Ġhnal": 5284,
      "Ġobej": 5285,
      "ĠhrajÃŃ": 5286,
      "ĠÅ¡tÄĽstÃŃm": 5287,
      "Ġmladou": 5288,
      "ĠuprostÅĻed": 5289,
      "ĠzÅĻela": 5290,
      "ilÃŃ": 5291,
      "Ġjinde": 5292,
      "Ġpohy": 5293,
      "Ġnalez": 5294,
      "Ġdon": 5295,
      "ĠvÄĽrnÃ©": 5296,
      "ĠspÃŃcÃŃ": 5297,
      "ĠinÃŃ": 5298,
      "ĠnÄĽme": 5299,
      "Ġprahy": 5300,
      "ĠsamÃ½": 5301,
      "Ġpropasti": 5302,
      "telem": 5303,
      "Ġprocit": 5304,
      "ĠvÅ¡eli": 5305,
      "ter": 5306,
      "ĠkterÃ½ch": 5307,
      "ĠvraÅ¥": 5308,
      "Ġkorunu": 5309,
      "fa": 5310,
      "ĠdvÅ¯r": 5311,
      "bÅ¯h": 5312,
      "Ġzrovna": 5313,
      "Ġimi": 5314,
      "Ġbratra": 5315,
      "Ġmluv": 5316,
      "ĠdrobnÃ©": 5317,
      "gra": 5318,
      "AXBCCB": 5319,
      "ĠspÄĽchÃ¡": 5320,
      "BB": 5321,
      "Ġnau": 5322,
      "ĠÄįeskÃ¡": 5323,
      "ĠtÄĽmi": 5324,
      "Ġnadarmo": 5325,
      "Ġchcete": 5326,
      "ĠpenÃŃ": 5327,
      "nÄĽte": 5328,
      "ĠvÅ¯z": 5329,
      "ĠlÅ¯nÄĽ": 5330,
      "ĠpoutnÃŃk": 5331,
      "ĠvstÃ¡": 5332,
      "ĠlÃ¡l": 5333,
      "ĠmodlÃŃ": 5334,
      "ĠchystÃ¡": 5335,
      "Ġvojsko": 5336,
      "Ġhalu": 5337,
      "Ġztu": 5338,
      "Ġrmu": 5339,
      "Ġlna": 5340,
      "ĠvodÄĽ": 5341,
      "Ġzasmu": 5342,
      "Ġplameny": 5343,
      "ĠbrÃ¡nÃŃ": 5344,
      "ĠstÅĻÃ¡": 5345,
      "ĠÃ¡dy": 5346,
      "Å¾ena": 5347,
      "ĠpoÄįal": 5348,
      "ĠH": 5349,
      "Ġvodou": 5350,
      "Ġpopel": 5351,
      "ĠutÃ½": 5352,
      "mot": 5353,
      "ĠonÅ¯": 5354,
      "ĠzÃ¡ÅĻÃŃcÃŃ": 5355,
      "Ġminul": 5356,
      "Ġdel": 5357,
      "ĠsÃŃle": 5358,
      "hni": 5359,
      "Ġpsal": 5360,
      "ĠomÃŃ": 5361,
      "Ġnasta": 5362,
      "Ġbral": 5363,
      "Ġnecha": 5364,
      "Ġjednoho": 5365,
      "ĠvzpomÃŃnka": 5366,
      "ĠcizÃŃch": 5367,
      "ĠzelenÃ©": 5368,
      "ĠzlatÃ½m": 5369,
      "Äįnost": 5370,
      "Ġpolem": 5371,
      "pili": 5372,
      "ĠsmÄĽs": 5373,
      "Ġhry": 5374,
      "Ġjezd": 5375,
      "nie": 5376,
      "Ġrozlo": 5377,
      "Ġosudu": 5378,
      "vrÃ¡": 5379,
      "ĠtanÄįÃŃ": 5380,
      "ĠhlÃ©": 5381,
      "Ġkup": 5382,
      "ÅĪuje": 5383,
      "ĠÅ¾ivotÄĽ": 5384,
      "Ġtomto": 5385,
      "znÄĽl": 5386,
      "ĠvzdychÃ¡": 5387,
      "Ġvzdechy": 5388,
      "ĠvelÃŃ": 5389,
      "dÃ¡vÃ¡": 5390,
      "Ġbezpe": 5391,
      "Ġzvolal": 5392,
      "ĠhvÄĽzdi": 5393,
      "Ġbratry": 5394,
      "Ġade": 5395,
      "Ġhledat": 5396,
      "ĠmÄĽsÃŃce": 5397,
      "hr": 5398,
      "ĠÃ¡ce": 5399,
      "vodu": 5400,
      "ĠÅ¾er": 5401,
      "ĠÄĽnÃ½": 5402,
      "ĠznÃ¡mÃ½": 5403,
      "ledy": 5404,
      "leÅĪ": 5405,
      "ĠlnÃ¡": 5406,
      "ĠpospÃŃ": 5407,
      "ĠtÃ¡bo": 5408,
      "ĠzpÃŃvat": 5409,
      "tej": 5410,
      "ĠslavÃŃk": 5411,
      "ĠmÅ¾ik": 5412,
      "ĠchudÃ½": 5413,
      "ĠvÅ¡echen": 5414,
      "Ġslzu": 5415,
      "Ġrozmar": 5416,
      "tl": 5417,
      "Ġuko": 5418,
      "XAAB": 5419,
      "Ġpohledem": 5420,
      "Ġpozem": 5421,
      "ĠkrÃ¡lem": 5422,
      "ĠkrÃ¡lÅ¯": 5423,
      "ĠvlasÅ¥": 5424,
      "stoj": 5425,
      "Ġtemnou": 5426,
      "ĠÅ¡tÄĽd": 5427,
      "ĠsmrÅ¥": 5428,
      "Ġstud": 5429,
      "ĠtÅĻpytÃŃ": 5430,
      "Ġarci": 5431,
      "ĠpouÅ¡tÄĽ": 5432,
      "Ġmiluje": 5433,
      "Ġslast": 5434,
      "ĠtrÃ¡va": 5435,
      "ĠmÅ¯Å¾eÅ¡": 5436,
      "ĠkvÃ©": 5437,
      "ĠdivÄĽ": 5438,
      "Ġvodu": 5439,
      "Ġstroj": 5440,
      "ĠstojÃŃm": 5441,
      "Ġpocti": 5442,
      "ĠÄĽlÃŃ": 5443,
      "ĠsrdcÃŃch": 5444,
      "venÃ©": 5445,
      "ĠdruhÃ¡": 5446,
      "ĠneÃº": 5447,
      "venÃ½": 5448,
      "Ġknihy": 5449,
      "ĠperutÃŃ": 5450,
      "Ġplen": 5451,
      "ĠtvÅ¯r": 5452,
      "skla": 5453,
      "ĠpohÃ¡r": 5454,
      "Ġast": 5455,
      "ĠÃºro": 5456,
      "Ġlav": 5457,
      "pomÃŃnÃ¡": 5458,
      "Ġmnich": 5459,
      "Ġchr": 5460,
      "Ġdnech": 5461,
      "ĠchtÄĽli": 5462,
      "Ġnajednou": 5463,
      "Ġkov": 5464,
      "Ġstarost": 5465,
      "ĠskuteÄį": 5466,
      "ckou": 5467,
      "ĠnnÃ½": 5468,
      "ÄįkÃ¡ch": 5469,
      "ĠdomÄĽ": 5470,
      "ĠÄįervÃ¡": 5471,
      "Ġkouzlem": 5472,
      "ÅĻiti": 5473,
      "Ġodho": 5474,
      "Ġnesl": 5475,
      "ĠpouÅ¡Å¥": 5476,
      "ĠpoutnÃŃ": 5477,
      "ĠspÄĽch": 5478,
      "vci": 5479,
      "Ġchodil": 5480,
      "Ġeky": 5481,
      "Ġpetr": 5482,
      "Ġzahrad": 5483,
      "Ġboh": 5484,
      "ÄįnÃŃm": 5485,
      "Ġzachy": 5486,
      "ĠeÅĻi": 5487,
      "ĠzlatÃŃ": 5488,
      "Ġjme": 5489,
      "AAAA": 5490,
      "lÃ¡m": 5491,
      "Ġynu": 5492,
      "Ġdiva": 5493,
      "ĠtÃ¡k": 5494,
      "ĠhospodÃ¡": 5495,
      "Ġposel": 5496,
      "ĠzavÃŃ": 5497,
      "ĠÅ¡ÃŃji": 5498,
      "ĠbuÄıte": 5499,
      "Ġnerozu": 5500,
      "dle": 5501,
      "is": 5502,
      "ĠsluÅ¡ÃŃ": 5503,
      "ĠvÅ¯d": 5504,
      "ĠzbranÃŃ": 5505,
      "lily": 5506,
      "Ġsluje": 5507,
      "fo": 5508,
      "Ġvedou": 5509,
      "Ġposlu": 5510,
      "nci": 5511,
      "ĠhostÃŃ": 5512,
      "Ġvlta": 5513,
      "Ġmali": 5514,
      "ĠperuÅ¥": 5515,
      "ĠplÃ©mÄĽ": 5516,
      "ĠorÅ¯": 5517,
      "jÃŃÅ¾": 5518,
      "ĠkolÃ©": 5519,
      "ĠpouhÃ½": 5520,
      "Ġsoucit": 5521,
      "ĠÅĻen": 5522,
      "Å¡et": 5523,
      "ĠvyÅ¡la": 5524,
      "Äįiti": 5525,
      "ĠmalÃŃ": 5526,
      "Ġpotok": 5527,
      "ĠpÅ¯vab": 5528,
      "Ġroky": 5529,
      "Ġvinu": 5530,
      "pala": 5531,
      "ĠsmÄĽlÃ½": 5532,
      "ĠjdeÅ¡": 5533,
      "ĠsamotÄĽ": 5534,
      "Ġjmeno": 5535,
      "ĠzapomnÄĽl": 5536,
      "Ġtuze": 5537,
      "ABCCBD": 5538,
      "ĠdÃ¡vnÃ©": 5539,
      "Ġbledou": 5540,
      "Ġmiluji": 5541,
      "tÃ©m": 5542,
      "Ġvkro": 5543,
      "ĠzbÄĽ": 5544,
      "Ġpoky": 5545,
      "nÃŃci": 5546,
      "ĠÃŃlu": 5547,
      "ĠrovnÄĽ": 5548,
      "ĠbojÃŃ": 5549,
      "Ġpravo": 5550,
      "ĠtÃ©mÄĽ": 5551,
      "ĠvÅ¯bec": 5552,
      "ĠschÃ½": 5553,
      "ĠtmÃŃ": 5554,
      "Ġzho": 5555,
      "Ġpono": 5556,
      "ÅĻej": 5557,
      "ĠzaÅ¡e": 5558,
      "Ġkoli": 5559,
      "ĠlÃŃbal": 5560,
      "ĠvzpomÃŃnÃ¡": 5561,
      "Ġproko": 5562,
      "ĠÅ¾ivotu": 5563,
      "ĠÅĻekne": 5564,
      "ĠÄĽsÃŃ": 5565,
      "ĠÅ¾eni": 5566,
      "ĠpÃŃÅ¡e": 5567,
      "lko": 5568,
      "Ġat": 5569,
      "ĠpÅ¯du": 5570,
      "ĠsilnÃ½": 5571,
      "Ġvojska": 5572,
      "Ġpraze": 5573,
      "ĠtvÃ©mu": 5574,
      "ĠdruÅ¾i": 5575,
      "ĠsvatÃ½m": 5576,
      "ĠsladkÃ½ch": 5577,
      "Ġmysti": 5578,
      "Ġplesu": 5579,
      "Ġzlou": 5580,
      "ĠbÅĻi": 5581,
      "ĠÅ¡ly": 5582,
      "Ġge": 5583,
      "ĠhÅĻÃŃchu": 5584,
      "ĠvonnÃ½": 5585,
      "ĠobliÄįej": 5586,
      "novi": 5587,
      "ĠÄĽda": 5588,
      "Ġspjat": 5589,
      "ĠhrabÄĽ": 5590,
      "ĠboÅ¾ÃŃm": 5591,
      "ĠzlatÃ©m": 5592,
      "ĠvÄĽÅĻÃŃm": 5593,
      "Ġroztou": 5594,
      "Ġhodiny": 5595,
      "nÄĽnÃ½": 5596,
      "ĠvÄĽtrÅ¯": 5597,
      "Ġsym": 5598,
      "ĠklÃŃnÄĽ": 5599,
      "ren": 5600,
      "ber": 5601,
      "ĠnÃ¡mÄĽ": 5602,
      "chÃ¡zel": 5603,
      "Ġbabi": 5604,
      "Ġmora": 5605,
      "Ġkout": 5606,
      "Ġtlum": 5607,
      "ĠdÄĽd": 5608,
      "Ġtouhu": 5609,
      "ĠhÅ¯l": 5610,
      "ĠzÃ¡pal": 5611,
      "Ġrady": 5612,
      "Ġproudu": 5613,
      "Ġw": 5614,
      "Ġchti": 5615,
      "ĠbÃŃlÃ©m": 5616,
      "ĠprvnÃŃm": 5617,
      "tÅ¯m": 5618,
      "ĠkÅ¯m": 5619,
      "ĠzeleÅĪ": 5620,
      "Ġhlahol": 5621,
      "ĠkoÅĻist": 5622,
      "ÅĻilo": 5623,
      "vilo": 5624,
      "Ġmnohou": 5625,
      "ĠhnÄĽvem": 5626,
      "ĠjeÅ¾ÃŃ": 5627,
      "Ġbrachu": 5628,
      "Ġhrst": 5629,
      "ĠnedÄĽ": 5630,
      "ĠruÄı": 5631,
      "Ġlicho": 5632,
      "Ġhlasu": 5633,
      "Ġskla": 5634,
      "ĠtÅĻesou": 5635,
      "Ġmoudrost": 5636,
      "les": 5637,
      "Ġsel": 5638,
      "jÃŃcÃŃch": 5639,
      "milo": 5640,
      "ABAX": 5641,
      "Ġses": 5642,
      "ĠuÅ¾e": 5643,
      "Ġzad": 5644,
      "ĠvznÃŃ": 5645,
      "ĠdneÅ¡nÃŃ": 5646,
      "ĠÅ¾Ã¡ru": 5647,
      "Ġga": 5648,
      "ĠpÅĻemo": 5649,
      "Ġtne": 5650,
      "ĠarÃ½": 5651,
      "ĠÅ¡er": 5652,
      "ĠbÃ¡l": 5653,
      "ĠpolÃŃch": 5654,
      "Ġhospodi": 5655,
      "Ġjihu": 5656,
      "ĠvÅ¡echnÄĽ": 5657,
      "ĠdvojÃŃ": 5658,
      "ĠzÃ¡mku": 5659,
      "Ġsestry": 5660,
      "Ġlsti": 5661,
      "ĠlÅ¾i": 5662,
      "dlen": 5663,
      "Ġbub": 5664,
      "DC": 5665,
      "ĠprÃ¡h": 5666,
      "ĠmodrÃ½": 5667,
      "ĠdÄĽjin": 5668,
      "nkem": 5669,
      "zdu": 5670,
      "Ġsvr": 5671,
      "ĠyÅ¡ÃŃ": 5672,
      "ĠpouÅ¥": 5673,
      "ĠspatÅĻil": 5674,
      "Ġnaposledy": 5675,
      "Ġslasti": 5676,
      "Ġpoliti": 5677,
      "ĠnenadÃ¡": 5678,
      "ĠÅ¾ÃŃm": 5679,
      "Ġmuka": 5680,
      "buje": 5681,
      "ĠodpoÄįi": 5682,
      "Ġbalva": 5683,
      "Ġuzav": 5684,
      "ĠvÄĽtry": 5685,
      "ĠstÅ¯": 5686,
      "Ġroztr": 5687,
      "ĠpÅĻÃŃk": 5688,
      "ĠnutÃŃ": 5689,
      "ĠzpÄĽvem": 5690,
      "Ġulic": 5691,
      "Ġslzami": 5692,
      "ĠpenÄĽ": 5693,
      "Ġmist": 5694,
      "bili": 5695,
      "razil": 5696,
      "tly": 5697,
      "Ġvuk": 5698,
      "BX": 5699,
      "ul": 5700,
      "ĠpapÃŃ": 5701,
      "ĠlÃŃba": 5702,
      "ĠkÅĻÃŃdlo": 5703,
      "ĠmraÄįna": 5704,
      "ĠtichÃ½m": 5705,
      "Ġvedla": 5706,
      "ĠpÅĻedsta": 5707,
      "Å¾enou": 5708,
      "Ġzdar": 5709,
      "ĠvrhÃ¡": 5710,
      "Ġabys": 5711,
      "Ġmrz": 5712,
      "Ġrto": 5713,
      "Ġrozlou": 5714,
      "Ġvpad": 5715,
      "ĠÄįiny": 5716,
      "ĠvÄĽtÅĻÃŃk": 5717,
      "ĠtlaÄįÃŃ": 5718,
      "Ġdrahoka": 5719,
      "dlÃ©": 5720,
      "os": 5721,
      "Ġpokud": 5722,
      "Ġvece": 5723,
      "ĠveÅ¡el": 5724,
      "Ġjednom": 5725,
      "ĠzmÃŃrÃ¡": 5726,
      "Ġminulosti": 5727,
      "znÃ½": 5728,
      "Ġove": 5729,
      "vedla": 5730,
      "ĠtÅĻpyt": 5731,
      "ĠsvÄĽtlu": 5732,
      "ĠlÃ¡sko": 5733,
      "Ġary": 5734,
      "ĠletÄĽ": 5735,
      "ĠÅ¡Å¥astnÃ½": 5736,
      "Ġjiskra": 5737,
      "Ġsf": 5738,
      "ĠnevÃ½": 5739,
      "Ġil": 5740,
      "sklo": 5741,
      "Ġklasy": 5742,
      "Ġkolena": 5743,
      "tan": 5744,
      "chala": 5745,
      "tkÅ¯": 5746,
      "Ġbozi": 5747,
      "ĠhvÄĽzdÃ¡m": 5748,
      "Ġvedl": 5749,
      "Ġsloup": 5750,
      "ĠÃºzkost": 5751,
      "Ġiva": 5752,
      "ĠprostÃ½": 5753,
      "Ġniv": 5754,
      "Ġnos": 5755,
      "ĠÅĻÃŃt": 5756,
      "nika": 5757,
      "Ġlibo": 5758,
      "tÃ¡ch": 5759,
      "ĠjejÃŃÅ¾": 5760,
      "ĠtvrdÃ©": 5761,
      "snÃ¡": 5762,
      "ĠopÃ¡": 5763,
      "ĠÅ¡ky": 5764,
      "ĠkrÃ¡snÃ½ch": 5765,
      "Ġochra": 5766,
      "ĠitÃ©": 5767,
      "Ġstrachem": 5768,
      "ĠsleÄį": 5769,
      "ĠmyÅ¡lenek": 5770,
      "AXA": 5771,
      "Ġrozto": 5772,
      "ĠplÃ¡ÅĪ": 5773,
      "ĠpÄĽje": 5774,
      "Ġdoktor": 5775,
      "ĠedÃ©": 5776,
      "Ġhlado": 5777,
      "ĠveÄįernÃŃ": 5778,
      "ĠÅ¡aty": 5779,
      "Ġhluboko": 5780,
      "Ġmohy": 5781,
      "ÄįÃŃch": 5782,
      "ĠpÅĻÃŃzrak": 5783,
      "stoupil": 5784,
      "Ġokno": 5785,
      "Ġhrdlo": 5786,
      "chovÃ©": 5787,
      "ĠryzÃŃ": 5788,
      "ĠprÅ¯vod": 5789,
      "ĠzÃ¡zra": 5790,
      "ĠkterÃ©m": 5791,
      "ĠpÄĽÅ¡i": 5792,
      "Ġsladko": 5793,
      "ĠnechaÅ¥": 5794,
      "bky": 5795,
      "Ġzne": 5796,
      "Ġnat": 5797,
      "Ġkrbu": 5798,
      "Ġdechu": 5799,
      "AXXB": 5800,
      "Å¾uje": 5801,
      "Ġpovy": 5802,
      "Ġruchu": 5803,
      "ĠÅ¡erÃ©": 5804,
      "ĠlÃŃst": 5805,
      "ĠbÄĽla": 5806,
      "Å¾enÃ¡": 5807,
      "mÃŃm": 5808,
      "tne": 5809,
      "ĠkaÅ¾dÃ©ho": 5810,
      "Ġpohr": 5811,
      "Ġmrtev": 5812,
      "ĠjÃ¡sot": 5813,
      "Ġondy": 5814,
      "ĠhlubokÃ©": 5815,
      "ĠzvÃŃtÄĽ": 5816,
      "ĠÅ¡era": 5817,
      "ĠtrpÃŃ": 5818,
      "Ġpyt": 5819,
      "ĠÄĽkÅ¯": 5820,
      "Ġvznes": 5821,
      "ĠÄįÃŃÅ¡i": 5822,
      "ĠkrvavÃ©": 5823,
      "ĠÄĽmi": 5824,
      "ĠzÃ¡hu": 5825,
      "mÃ¡n": 5826,
      "Ġvlnou": 5827,
      "ĠtratÃŃ": 5828,
      "Ġima": 5829,
      "ĠÄįnÃ¡": 5830,
      "die": 5831,
      "ĠstraÅ¡li": 5832,
      "ĠhnÃŃzda": 5833,
      "Ġvzpomen": 5834,
      "ĠÅ¾houcÃŃ": 5835,
      "ĠdkÃ½": 5836,
      "sili": 5837,
      "ĠzpÅ¯so": 5838,
      "Ġsvitu": 5839,
      "Ġknihu": 5840,
      "ĠodpovÄĽÄı": 5841,
      "ĠzÃ¡ba": 5842,
      "Ġskrom": 5843,
      "Ġkudy": 5844,
      "Ġslib": 5845,
      "ABCCDE": 5846,
      "ĠdÃ©man": 5847,
      "Äįan": 5848,
      "nÃŃky": 5849,
      "ĠÅ¡en": 5850,
      "ĠÅ¡est": 5851,
      "Ġjasu": 5852,
      "ĠÃ©mÄĽ": 5853,
      "Ġpokro": 5854,
      "Ġneob": 5855,
      "Ġdejte": 5856,
      "ĠjimiÅ¾": 5857,
      "ĠvÃ©vo": 5858,
      "vÃŃÅ¡": 5859,
      "sech": 5860,
      "ĠÄįert": 5861,
      "Ġsnadno": 5862,
      "ĠsmÄĽsi": 5863,
      "ĠÅ¡ÃŃÅĻÃŃ": 5864,
      "ĠspÃ¡t": 5865,
      "ĠblÃ½skÃ¡": 5866,
      "Ġdku": 5867,
      "Ġnesu": 5868,
      "alou": 5869,
      "ĠesÅ¯": 5870,
      "ĠmÄĽlo": 5871,
      "ĠspÄĽje": 5872,
      "rovnÃ¡": 5873,
      "Ġtok": 5874,
      "nouc": 5875,
      "ĠmoÅĻÃŃ": 5876,
      "Ġvzty": 5877,
      "Ġkdosi": 5878,
      "Ġkams": 5879,
      "Ġmarno": 5880,
      "cemi": 5881,
      "ĠpolÃŃbenÃŃ": 5882,
      "ĠnejvÄĽtÅ¡ÃŃ": 5883,
      "ĠkovÃ¡": 5884,
      "Äįilo": 5885,
      "ĠspÃ¡sy": 5886,
      "ĠstrÃ¡ni": 5887,
      "ĠmusÃŃÅ¡": 5888,
      "ĠtesknÄĽ": 5889,
      "mnÄĽl": 5890,
      "ĠjmÃ©na": 5891,
      "Ġzdvih": 5892,
      "ĠoltÃ¡ÅĻ": 5893,
      "ĠvzdÃ¡len": 5894,
      "zil": 5895,
      "ĠnnÃ¡": 5896,
      "Ġzane": 5897,
      "Ġbyste": 5898,
      "Ġzakle": 5899,
      "Ġbudoucnost": 5900,
      "ĠpÅĻiÅ¡lo": 5901,
      "ĠkrutÃ½": 5902,
      "ĠrozkoÅ¡ÃŃ": 5903,
      "ĠtÃ³n": 5904,
      "Ġbytost": 5905,
      "Å¾u": 5906,
      "Å¡tnÃŃ": 5907,
      "Ġmih": 5908,
      "Ġvidi": 5909,
      "menÄĽ": 5910,
      "ĠkÅĻiÅ¡Å¥": 5911,
      "Ġleda": 5912,
      "Ġspal": 5913,
      "Ġvaz": 5914,
      "ĠkrokÅ¯": 5915,
      "ĠaniÅ¾": 5916,
      "ĠkÃ¡zal": 5917,
      "rnÃ©m": 5918,
      "ĠvnÃ½": 5919,
      "nÃŃku": 5920,
      "ĠstÅĻel": 5921,
      "ĠhovoÅĻÃŃ": 5922,
      "ĠveÅ¡ke": 5923,
      "Ġhly": 5924,
      "bitÄĽ": 5925,
      "Ġtiskne": 5926,
      "Å¾te": 5927,
      "Ġjaksi": 5928,
      "vÅ¡i": 5929,
      "diti": 5930,
      "Ġlau": 5931,
      "Ġkoni": 5932,
      "ĠvÄĽÅ¡t": 5933,
      "Ġmatkou": 5934,
      "Ġvolnost": 5935,
      "Ġkme": 5936,
      "Ġotcem": 5937,
      "ĠdivnÃ¡": 5938,
      "AXBBCC": 5939,
      "blesk": 5940,
      "Ġere": 5941,
      "ĠÅ¾ele": 5942,
      "ĠspÅĻÃ¡": 5943,
      "Ġpraco": 5944,
      "ĠstaÅĻÃŃ": 5945,
      "Ġdeset": 5946,
      "ĠzvÄĽÅĻ": 5947,
      "ĠtÅĻikrÃ¡t": 5948,
      "Ġneh": 5949,
      "vostÃŃ": 5950,
      "ĠÄįechÃ¡ch": 5951,
      "Ġvor": 5952,
      "Ġranou": 5953,
      "ĠposvÃ¡t": 5954,
      "Ġrosou": 5955,
      "ĠÄĽmu": 5956,
      "ĠhrÃ¡t": 5957,
      "Ġlidstvu": 5958,
      "ĠboÅ¾skÃ©": 5959,
      "ĠnepÅĻÃŃtel": 5960,
      "kova": 5961,
      "ĠsvÄĽtle": 5962,
      "ĠsladkÃ½m": 5963,
      "ĠusmÄĽ": 5964,
      "ĠproudÃŃ": 5965,
      "anÃ©": 5966,
      "Ġtly": 5967,
      "ĠÄįlu": 5968,
      "ĠnebesÅ¯m": 5969,
      "ĠskrÃ¡ni": 5970,
      "ĠslyÅ¡te": 5971,
      "Ġopy": 5972,
      "Ġedl": 5973,
      "ĠdÃŃla": 5974,
      "Ġsvate": 5975,
      "ĠvzkÅĻÃŃ": 5976,
      "Ġdrak": 5977,
      "Ġopi": 5978,
      "lilo": 5979,
      "ĠzÃ¡Å¡tÃŃ": 5980,
      "Ġroucho": 5981,
      "ĠvyÅ¡Å¡ÃŃ": 5982,
      "ĠÄįarodÄĽj": 5983,
      "dno": 5984,
      "ice": 5985,
      "rÅ¯m": 5986,
      "sÃ©": 5987,
      "ĠnnÄĽ": 5988,
      "21": 5989,
      "ĠzÅĻÃŃti": 5990,
      "ĠtÃŃt": 5991,
      "ĠjunÃ¡": 5992,
      "Ġblesku": 5993,
      "ĠstrÃ¡nÃŃ": 5994,
      "ĠpyÅ¡nÄĽ": 5995,
      "Ġsnou": 5996,
      "ĠpodÄĽ": 5997,
      "Ġpluje": 5998,
      "ĠpÄĽknÃ©": 5999,
      "Ġejhle": 6000,
      "zdÄĽ": 6001,
      "Ġptal": 6002,
      "Ġery": 6003,
      "Ġpravou": 6004,
      "Ġtaje": 6005,
      "ĠmodrÃ½ch": 6006,
      "ĠbÃŃlÃ½m": 6007,
      "ĠÃŃnÃŃ": 6008,
      "ĠpÃŃlÃŃ": 6009,
      "Ġdvak": 6010,
      "Ġity": 6011,
      "ĠstrojÃŃ": 6012,
      "ĠhroznÃ¡": 6013,
      "ĠÄįtve": 6014,
      "ron": 6015,
      "dÃ¡Å¡": 6016,
      "ĠchoÅ¥": 6017,
      "Ġbes": 6018,
      "ĠkÅĻÃŃÅ¾em": 6019,
      "try": 6020,
      "Ġbzu": 6021,
      "Ġehu": 6022,
      "ĠlesÃŃch": 6023,
      "Ġobro": 6024,
      "ĠpÅĻÃ¡l": 6025,
      "Ġhlubiny": 6026,
      "nkÃ©": 6027,
      "Å¡kou": 6028,
      "ĠuÄįe": 6029,
      "Ġzast": 6030,
      "ĠletÄĽl": 6031,
      "Ġkul": 6032,
      "Ġpovr": 6033,
      "ĠhrdÃ½": 6034,
      "Ġvte": 6035,
      "Ġzru": 6036,
      "ĠuÄįen": 6037,
      "Ġpodve": 6038,
      "ĠpÅĻÃŃtom": 6039,
      "Ġdruha": 6040,
      "Ġjasnou": 6041,
      "Ġdcery": 6042,
      "ĠnavrÃ¡": 6043,
      "ĠÄįerv": 6044,
      "Ġmelo": 6045,
      "ĠpÅĻÃ¡telÃ©": 6046,
      "ĠvonnÃ©": 6047,
      "vnÃ©": 6048,
      "Ġmsti": 6049,
      "voj": 6050,
      "ÅĪÃ¡": 6051,
      "ĠÅĻed": 6052,
      "Ġsvaty": 6053,
      "ĠhÅĻbe": 6054,
      "ĠÄĽka": 6055,
      "Ġniko": 6056,
      "ĠlÃ¡kÃ¡": 6057,
      "Ġaneb": 6058,
      "ĠsahÃ¡": 6059,
      "ĠÄıÃ¡b": 6060,
      "ĠvÄįel": 6061,
      "ĠhÃ©m": 6062,
      "Ġsoudu": 6063,
      "Ġnepla": 6064,
      "tlo": 6065,
      "Ġodda": 6066,
      "kouz": 6067,
      "ĠplÃ¡ni": 6068,
      "Ġnivy": 6069,
      "Ġmohlo": 6070,
      "Ġkriti": 6071,
      "Ġhudby": 6072,
      "Ġlce": 6073,
      "ĠpÄĽst": 6074,
      "zenÃ©": 6075,
      "Ġskali": 6076,
      "dÄĽte": 6077,
      "Ġfau": 6078,
      "ĠostatnÃŃ": 6079,
      "ĠzlÃ½ch": 6080,
      "enÃ½": 6081,
      "Ġpojednou": 6082,
      "bitÃŃ": 6083,
      "pis": 6084,
      "ĠkypÃŃ": 6085,
      "tce": 6086,
      "ĠhbitÄĽ": 6087,
      "Ġdoz": 6088,
      "chodu": 6089,
      "Ġsouzvu": 6090,
      "Ġhli": 6091,
      "Ġhust": 6092,
      "Ġvrh": 6093,
      "ĠdrtÃŃ": 6094,
      "Ġzahrady": 6095,
      "nÃŃka": 6096,
      "ĠplatÃŃ": 6097,
      "ĠozÃ¡": 6098,
      "ĠnadÄĽji": 6099,
      "Ġdvacet": 6100,
      "ĠzachvÄĽl": 6101,
      "ĠzaplÃ¡": 6102,
      "Ġspasi": 6103,
      "Å¾stvÃŃ": 6104,
      "Ġdomy": 6105,
      "voval": 6106,
      "ĠronÃŃ": 6107,
      "Ġvinou": 6108,
      "ĠnemÅ¯Å¾": 6109,
      "ĠtÄĽÅ¾kÃ½ch": 6110,
      "gy": 6111,
      "ĠÅ¾ez": 6112,
      "Ġsyny": 6113,
      "Ġdary": 6114,
      "Ġkouzla": 6115,
      "eny": 6116,
      "vobo": 6117,
      "ĠskvÃŃ": 6118,
      "ĠpÃ¡t": 6119,
      "Ġotco": 6120,
      "Ġspoj": 6121,
      "Ġpostavy": 6122,
      "Ġharmo": 6123,
      "jala": 6124,
      "lat": 6125,
      "ĠÄįeskÃ½ch": 6126,
      "Ġsce": 6127,
      "ĠvnÃŃ": 6128,
      "ĠpÅĻis": 6129,
      "prvÃ©": 6130,
      "Ġvlasten": 6131,
      "skutku": 6132,
      "ĠnÅ¯m": 6133,
      "Ġzkvet": 6134,
      "Ġobloze": 6135,
      "kÃ½mi": 6136,
      "Ġvskutku": 6137,
      "hor": 6138,
      "Ġvzali": 6139,
      "moc": 6140,
      "ĠÃ©ÅĻe": 6141,
      "vnÃŃk": 6142,
      "ĠznÄĽlo": 6143,
      "Ġulici": 6144,
      "ĠzmizÃŃ": 6145,
      "fÃ¡": 6146,
      "qu": 6147,
      "snou": 6148,
      "Å¡ÃŃÅ¡": 6149,
      "Ġslze": 6150,
      "Ġnepoz": 6151,
      "ĠnÄĽhoÅ¾": 6152,
      "ĠhlÃ¡sÃ¡": 6153,
      "Ġlety": 6154,
      "mysl": 6155,
      "ĠÅ¾ivoby": 6156,
      "rec": 6157,
      "ĠÅ¾ili": 6158,
      "ĠtemnÃ½ch": 6159,
      "ĠÅ¾alem": 6160,
      "ĠnÃ¡roda": 6161,
      "ĠzbÃ½vÃ¡": 6162,
      "ĠisÃŃ": 6163,
      "lÃŃÅ¡": 6164,
      "ĠÃŃry": 6165,
      "ĠvyÅ¡e": 6166,
      "ĠzlatÄĽ": 6167,
      "ĠdÃ¡lnÃ©": 6168,
      "ĠsÃŃtÄĽ": 6169,
      "Ġdruhou": 6170,
      "Ġblahem": 6171,
      "ĠmlÃ¡de": 6172,
      "Ġbudoucnosti": 6173,
      "Äįat": 6174,
      "Ġporu": 6175,
      "ĠnecÃŃ": 6176,
      "Ġcar": 6177,
      "Ġproh": 6178,
      "Ġozval": 6179,
      "Ġsedm": 6180,
      "Ġpaprsky": 6181,
      "ĠvzkÅĻik": 6182,
      "ĠnÄĽhy": 6183,
      "ĠneustÃ¡": 6184,
      "ĠkalÃŃ": 6185,
      "Ġslep": 6186,
      "ĠkÅĻeh": 6187,
      "ĠmdlÃ½": 6188,
      "ĠhÃ¡m": 6189,
      "ĠtakÃ½": 6190,
      "Ġrozmil": 6191,
      "ĠmÄĽstem": 6192,
      "Ġfra": 6193,
      "ĠbÄĽl": 6194,
      "Ã©ÅĻe": 6195,
      "ĠÄįit": 6196,
      "Ġmus": 6197,
      "ĠodÅĻÃŃ": 6198,
      "ĠstÃ¡ly": 6199,
      "ĠplÃ¡la": 6200,
      "ĠstranÄĽ": 6201,
      "Ġfilo": 6202,
      "Ġpodob": 6203,
      "Ġzvad": 6204,
      "Ġrom": 6205,
      "ama": 6206,
      "Ġtanci": 6207,
      "Ġero": 6208,
      "ĠznÄĽla": 6209,
      "ĠadÃ½": 6210,
      "Ġbas": 6211,
      "kynÄĽ": 6212,
      "Ġmok": 6213,
      "Ġrozv": 6214,
      "ĠpaÅĻÃŃ": 6215,
      "ĠbÅĻehy": 6216,
      "Ġbludi": 6217,
      "Ġmost": 6218,
      "ĠytÃ¡": 6219,
      "ĠdÃŃvku": 6220,
      "Ġzkr": 6221,
      "ĠkrÃ¡tce": 6222,
      "ĠkrouÅ¾ÃŃ": 6223,
      "ĠnÄĽkolik": 6224,
      "Ġbem": 6225,
      "ĠÅ¡pa": 6226,
      "ĠsvÄĽtlÃ½": 6227,
      "ĠpuÄįÃŃ": 6228,
      "ĠspÃŃÅ¡e": 6229,
      "ĠknÃŃÅ¾": 6230,
      "Ġsoudru": 6231,
      "ÅĻuje": 6232,
      "vÄĽla": 6233,
      "Ġkan": 6234,
      "nÅ¯v": 6235,
      "ĠtrpÄĽ": 6236,
      "ĠlÃ©to": 6237,
      "prch": 6238,
      "ĠvÅ¡ed": 6239,
      "vete": 6240,
      "ĠvÅ¡ecku": 6241,
      "stoup": 6242,
      "ĠÅ¾lutÃ©": 6243,
      "Ġzmu": 6244,
      "Ġdostal": 6245,
      "boÅ¾": 6246,
      "ĠstÃ¡r": 6247,
      "Ġfor": 6248,
      "Ġuva": 6249,
      "ĠÅ¡leh": 6250,
      "ĠdivÃ©m": 6251,
      "ĠcizÃŃm": 6252,
      "kr": 6253,
      "lice": 6254,
      "ĠostrÃ½": 6255,
      "vedl": 6256,
      "ĠÅ¡Å¥astnÄĽ": 6257,
      "ĠÄĽmÃ½": 6258,
      "ĠÄįekÃ¡m": 6259,
      "skÃ©mu": 6260,
      "Ġstarce": 6261,
      "ĠsvÃŃtil": 6262,
      "ĠzvukÅ¯": 6263,
      "ĠodpoÄįÃŃ": 6264,
      "ĠzvlÃ¡Å¡Å¥": 6265,
      "Ġchou": 6266,
      "ĠzÃ¡pla": 6267,
      "ĠÅĻadu": 6268,
      "ĠzalÃ©": 6269,
      "Ġskrz": 6270,
      "nkÃ¡ch": 6271,
      "svit": 6272,
      "tÃ¡h": 6273,
      "ĠÃ©ta": 6274,
      "ĠstrÃ¡nÄĽ": 6275,
      "ĠzoÅĻe": 6276,
      "ĠzahradÄĽ": 6277,
      "Ġsrde": 6278,
      "ĠfarÃ¡": 6279,
      "ĠvÃŃnem": 6280,
      "ĠvolnÃ½": 6281,
      "ĠkvÃŃtek": 6282,
      "ĠkÅĻÃŃdly": 6283,
      "Ġjdem": 6284,
      "Ġpoku": 6285,
      "vujÃŃ": 6286,
      "ĠvodnÃŃ": 6287,
      "Ġnejlep": 6288,
      "Ġgeni": 6289,
      "ĠÃ¡du": 6290,
      "Ġholou": 6291,
      "Ġmohou": 6292,
      "ĠpilnÄĽ": 6293,
      "dÃ¡l": 6294,
      "ĠrÃ¡ko": 6295,
      "ĠslÃ¡vou": 6296,
      "ĠdÅ¯stoj": 6297,
      "Ġhudbou": 6298,
      "ĠvnÃ¡": 6299,
      "lami": 6300,
      "Ġledo": 6301,
      "ĠnÃ¡ÅĻek": 6302,
      "ĠpÅĻichÃ¡zÃŃ": 6303,
      "ejte": 6304,
      "ĠemÃŃ": 6305,
      "Ġhouf": 6306,
      "Ġsklonil": 6307,
      "Ġnapad": 6308,
      "ĠumÄĽl": 6309,
      "ĠÃŃÅ¡i": 6310,
      "Ġhromu": 6311,
      "ĠdÄĽtstvÃŃ": 6312,
      "Ġokny": 6313,
      "ĠznÄĽly": 6314,
      "ĠkrÃ¡lovstvÃŃ": 6315,
      "ĠpÅĻijdou": 6316,
      "eno": 6317,
      "Ġpusto": 6318,
      "ĠsmÄĽl": 6319,
      "ĠvzpomÃŃnky": 6320,
      "Ġhasne": 6321,
      "Ġoso": 6322,
      "ato": 6323,
      "dÄĽly": 6324,
      "Ġmudr": 6325,
      "ĠotvÃŃ": 6326,
      "ÅĻenou": 6327,
      "natÃ©": 6328,
      "Ġkdybys": 6329,
      "Ġbloudil": 6330,
      "vka": 6331,
      "Ġsply": 6332,
      "ĠdÄĽk": 6333,
      "Ġryl": 6334,
      "ĠpohÅĻe": 6335,
      "cenÃ¡": 6336,
      "ĠzdvihÃ¡": 6337,
      "ĠseÅ¡": 6338,
      "Ġvav": 6339,
      "ary": 6340,
      "ĠpoupÄĽ": 6341,
      "Ġplny": 6342,
      "ĠÅ¡ÃŃje": 6343,
      "ĠvÃ½chodu": 6344,
      "ĠsnovÃ©": 6345,
      "ĠtÃ¡m": 6346,
      "ĠoÄįka": 6347,
      "ĠÄįen": 6348,
      "jela": 6349,
      "Ġblahu": 6350,
      "Ġsuk": 6351,
      "ĠmraÄįen": 6352,
      "Ġplody": 6353,
      "ĠmyÅ¡lenka": 6354,
      "Ġsep": 6355,
      "ĠkolÃŃ": 6356,
      "ĠtajnÃ©": 6357,
      "zka": 6358,
      "Ġzhu": 6359,
      "Ġocho": 6360,
      "ĠilÃŃ": 6361,
      "Ġjih": 6362,
      "ĠtouÅ¾il": 6363,
      "ĠlÃŃtÃ¡": 6364,
      "ĠblahÃ©": 6365,
      "ĠskÃ¡Äįe": 6366,
      "Ġpije": 6367,
      "enÃ©": 6368,
      "Ġpova": 6369,
      "Äįily": 6370,
      "ĠchrÃ¡nÃŃ": 6371,
      "Ġdych": 6372,
      "ĠÃºna": 6373,
      "ĠposvÄĽ": 6374,
      "Ġlos": 6375,
      "ĠpohÃ¡d": 6376,
      "ĠslednÃŃ": 6377,
      "cek": 6378,
      "Ġvina": 6379,
      "Ġsedmi": 6380,
      "ĠuvÄĽ": 6381,
      "ĠrozlÃŃ": 6382,
      "Ġlip": 6383,
      "ĠkrvÃ¡": 6384,
      "ĠspÄĽl": 6385,
      "Ġchaty": 6386,
      "ABABBC": 6387,
      "Ġvzej": 6388,
      "Äįeji": 6389,
      "Ġsvojich": 6390,
      "ĠosvÄĽt": 6391,
      "Ġpokoje": 6392,
      "Ġzimy": 6393,
      "Ġvesel": 6394,
      "Ġnebyla": 6395,
      "vÃŃvÃ¡": 6396,
      "ĠkoÄįÃ¡": 6397,
      "dum": 6398,
      "ĠvÄĽÅĻit": 6399,
      "Ġdlani": 6400,
      "Ġpravdou": 6401,
      "Ġvnik": 6402,
      "ĠaÅ¡i": 6403,
      "ĠitÃ½": 6404,
      "vinu": 6405,
      "Ġpozdvi": 6406,
      "ĠvysokÃ©": 6407,
      "meÅĪ": 6408,
      "ĠstÃ¡lo": 6409,
      "ĠmocnÃ©": 6410,
      "Ġzdu": 6411,
      "Ġvych": 6412,
      "ĠpÅĻekva": 6413,
      "mÄĽla": 6414,
      "ĠbÃŃdnÃ½": 6415,
      "ster": 6416,
      "Ġjedinou": 6417,
      "ĠnevÃŃÅ¡": 6418,
      "ĠkmitÃ¡": 6419,
      "Ġsnes": 6420,
      "chÃ¡m": 6421,
      "ĠzÃ¡stu": 6422,
      "ĠbÄĽlo": 6423,
      "ĠsnivÃ©": 6424,
      "ĠÅ¾ivobytÃŃ": 6425,
      "desÃ¡": 6426,
      "ĠedÃ½": 6427,
      "vÃ©tÃ¡": 6428,
      "ĠhoÅ¡i": 6429,
      "ĠvidÄĽla": 6430,
      "ĠpÅ¯dy": 6431,
      "ĠzmÃ¡m": 6432,
      "Ġhrobem": 6433,
      "Ġsatan": 6434,
      "slov": 6435,
      "ĠnÅ¯Å¾": 6436,
      "ĠÅ¾eÅĪ": 6437,
      "Ġposlal": 6438,
      "ĠstudÃ¡": 6439,
      "tuje": 6440,
      "Ġoblaky": 6441,
      "Ġodev": 6442,
      "Ġpohro": 6443,
      "Ġsmutnou": 6444,
      "Ġrakev": 6445,
      "ĠinÃ¡": 6446,
      "ĠhÅĻÃŃchy": 6447,
      "Ġjarem": 6448,
      "ĠzimÄĽ": 6449,
      "Ġramena": 6450,
      "ĠonÄĽch": 6451,
      "ĠjitÅĻ": 6452,
      "BD": 6453,
      "ĠutÃ©": 6454,
      "ĠÃŃkÃ¡": 6455,
      "ĠÅĻeh": 6456,
      "ĠhvÄĽzdami": 6457,
      "ĠpestrÃ©": 6458,
      "bral": 6459,
      "Ġlibu": 6460,
      "Ġyku": 6461,
      "ĠdÃ©le": 6462,
      "ĠzimnÃŃ": 6463,
      "Ġamy": 6464,
      "roval": 6465,
      "Äįinu": 6466,
      "Ġlidskou": 6467,
      "Ġzoufa": 6468,
      "Ġoze": 6469,
      "Ġzato": 6470,
      "ĠÃŃnÅ¯": 6471,
      "ĠholÃ©": 6472,
      "Ġpoupat": 6473,
      "Ġzlost": 6474,
      "ĠsadÄĽ": 6475,
      "Å¾emi": 6476,
      "rÃ¡Å¾ÃŃ": 6477,
      "lÃ¡dÃ¡": 6478,
      "ĠoblÃ¡": 6479,
      "ĠdÄĽsÃŃ": 6480,
      "ĠmilÃŃ": 6481,
      "ĠhouÅ¡tÃŃ": 6482,
      "hned": 6483,
      "ĠprospÄĽ": 6484,
      "Ġblankytu": 6485,
      "Ġskro": 6486,
      "Ġile": 6487,
      "Ġdoj": 6488,
      "Ġjisto": 6489,
      "ĠleÅ¥": 6490,
      "Ġvypla": 6491,
      "ĠnÃ¡v": 6492,
      "ĠÃºkol": 6493,
      "ĠlÃ©ka": 6494,
      "ĠhÅĻÃŃÅ¡": 6495,
      "ĠznÃ¡mÃ©": 6496,
      "ĠsÃ¡h": 6497,
      "Ġrukama": 6498,
      "Ġsoused": 6499,
      "Ġihned": 6500,
      "ĠpÅĻÃŃsnÄĽ": 6501,
      "vily": 6502,
      "ĠpoÅĻÃ¡d": 6503,
      "vnÃ½": 6504,
      "ĠarÃ¡": 6505,
      "ĠÃ¡kÅ¯": 6506,
      "ĠÃ¡sa": 6507,
      "ĠmÄĽstu": 6508,
      "bÄĽh": 6509,
      "Ġtrh": 6510,
      "Ġzlomen": 6511,
      "Ġpokra": 6512,
      "ÅĻiv": 6513,
      "ĠsklÃŃ": 6514,
      "ĠslÃ½ch": 6515,
      "Ġmilovat": 6516,
      "Ġknih": 6517,
      "ĠzazpÃŃ": 6518,
      "Å¾nÃ¡": 6519,
      "Ġjedovat": 6520,
      "ĠÃ¡ky": 6521,
      "lÃŃcÃŃ": 6522,
      "Ġluhy": 6523,
      "Ġjsouc": 6524,
      "Ġklesl": 6525,
      "ĠpustÃ½": 6526,
      "ĠskÃ¡lu": 6527,
      "ĠchvÄĽnÃŃ": 6528,
      "Ġseveru": 6529,
      "chne": 6530,
      "vanÃ¡": 6531,
      "Ġleto": 6532,
      "Ġrato": 6533,
      "ĠdÄĽsnÃ½": 6534,
      "ĠutrpenÃŃ": 6535,
      "deÅĪ": 6536,
      "ĠpÃ¡dÃŃ": 6537,
      "ĠpÅĻedc": 6538,
      "ĠplÃ¡t": 6539,
      "Ġrysy": 6540,
      "ĠvlastnÄĽ": 6541,
      "ĠlistÅ¯": 6542,
      "ĠmyÅ¡lÃ©nek": 6543,
      "Ġjesen": 6544,
      "ABABXX": 6545,
      "ĠÄĽnÃ¡": 6546,
      "ĠlÃ¡t": 6547,
      "Ġdes": 6548,
      "ĠschÃ¡zÃŃ": 6549,
      "Ġbly": 6550,
      "Ġhodin": 6551,
      "ĠsnÄĽhem": 6552,
      "ĠhrobÅ¯": 6553,
      "ĠchraÅĪ": 6554,
      "volu": 6555,
      "tÃŃÅ¡": 6556,
      "Ġprok": 6557,
      "ĠÅ¾ivÃ¡": 6558,
      "Ġpre": 6559,
      "Ġprcha": 6560,
      "ĠvÃ½Äįit": 6561,
      "ĠsÃŃc": 6562,
      "ĠplnÃ½m": 6563,
      "ĠbujnÃ©": 6564,
      "ĠmyÅ¡lÃ©nka": 6565,
      "tÃ½m": 6566,
      "Ġnoh": 6567,
      "ĠknÄĽÅ¾ÃŃ": 6568,
      "Ġsmysly": 6569,
      "Ġpoledne": 6570,
      "vÄĽjÅ¡ÃŃ": 6571,
      "ĠnÄĽv": 6572,
      "ĠzÃ¡ho": 6573,
      "Ġnejsi": 6574,
      "Ġrety": 6575,
      "Ġpomsty": 6576,
      "Ã¡Å¡": 6577,
      "ĠokÃ¡": 6578,
      "ĠseÄį": 6579,
      "ako": 6580,
      "ĠuvÃ¡": 6581,
      "ĠtuÅ¡ÃŃm": 6582,
      "Ġkres": 6583,
      "lemi": 6584,
      "ĠchrÃ¡my": 6585,
      "ĠzvlÃ¡Å¡tnÃŃ": 6586,
      "Ġtlou": 6587,
      "Ġter": 6588,
      "Ġpavu": 6589,
      "ĠstÃŃhÃ¡": 6590,
      "ĠznÃ¡te": 6591,
      "ĠhlubokÃ½": 6592,
      "ĠchvÃ¡tÃ¡": 6593,
      "ĠdlÃ½": 6594,
      "Ġpoha": 6595,
      "vanou": 6596,
      "ĠpÃ¡ry": 6597,
      "Ġslab": 6598,
      "ĠplÃ¡ly": 6599,
      "ĠnapÅĻed": 6600,
      "ĠhedvÃ¡": 6601,
      "ĠvichÅĻice": 6602,
      "Ġmladist": 6603,
      "zne": 6604,
      "Ġhoru": 6605,
      "Ġsie": 6606,
      "Å¾iti": 6607,
      "ĠzoufalstvÃŃ": 6608,
      "ĠÅ¡lehÃ¡": 6609,
      "byl": 6610,
      "ĠÅ¡ele": 6611,
      "ĠÅ¡edÃ¡": 6612,
      "ĠotrÃ¡": 6613,
      "Ġzmar": 6614,
      "ĠdÃ¡my": 6615,
      "ĠzmÃŃtÃ¡": 6616,
      "ĠckÃ©": 6617,
      "ĠÅĻÃŃma": 6618,
      "ĠstarÃ©m": 6619,
      "ĠmaÄı": 6620,
      "stÃ¡nÃŃ": 6621,
      "ĠptÃ¡ka": 6622,
      "Ġulice": 6623,
      "ĠÅ¡tva": 6624,
      "ĠvzpÃŃ": 6625,
      "sej": 6626,
      "ĠÃ½Å¡i": 6627,
      "ĠÅ¯li": 6628,
      "ĠnaÅ¡eho": 6629,
      "Ġjisker": 6630,
      "Ġpopra": 6631,
      "ĠulÃŃ": 6632,
      "ĠÃ¡lu": 6633,
      "Ġdopro": 6634,
      "ĠdvakrÃ¡t": 6635,
      "nkÃ¡": 6636,
      "ĠnelÃŃ": 6637,
      "Ġnehy": 6638,
      "ĠÃ¡su": 6639,
      "ĠobjÃŃm": 6640,
      "Ġsiro": 6641,
      "ĠslabÃ©": 6642,
      "ĠÅĻadou": 6643,
      "ÅĻeli": 6644,
      "stila": 6645,
      "ĠÅ¾ilÃ¡ch": 6646,
      "Ġvysko": 6647,
      "Ġvzbou": 6648,
      "ĠbleskÅ¯": 6649,
      "Ġzpup": 6650,
      "bled": 6651,
      "ĠzvÃ¡": 6652,
      "ÅĻeje": 6653,
      "dosti": 6654,
      "Ġkyti": 6655,
      "ĠskÅĻivan": 6656,
      "ĠanÅ¯": 6657,
      "Ġoblou": 6658,
      "dÃŃl": 6659,
      "ĠprvÃ½": 6660,
      "Ġjedem": 6661,
      "ĠdruzÃŃ": 6662,
      "ĠtakovÃ©": 6663,
      "ĠzdrÃ¡va": 6664,
      "ĠpomÃ¡": 6665,
      "ĠÄįte": 6666,
      "ĠÃ¡ze": 6667,
      "ĠpÃ¡ny": 6668,
      "ĠvÄĽÄįnÃ½ch": 6669,
      "ĠpamÄĽt": 6670,
      "ĠprÃ¡zdnÃ©": 6671,
      "ĠpÅĻemÃ½Å¡": 6672,
      "stane": 6673,
      "ĠpÅĻÃŃsta": 6674,
      "AXABBC": 6675,
      "ĠpodzimnÃŃ": 6676,
      "ĠÄįervÃ¡nkÅ¯": 6677,
      "Ġjil": 6678,
      "Ġzko": 6679,
      "letÄĽl": 6680,
      "ĠslastÃŃ": 6681,
      "ĠdeÅ¡": 6682,
      "ĠkamenÃŃ": 6683,
      "ĠvlastnÃŃm": 6684,
      "ĠrÅ¯znÃ©": 6685,
      "Ġah": 6686,
      "ĠoÄį": 6687,
      "Ġoct": 6688,
      "Ġdojem": 6689,
      "ĠpÅĻines": 6690,
      "ĠlodÃŃ": 6691,
      "ĠoltÃ¡ÅĻi": 6692,
      "ĠmÅ¾ikem": 6693,
      "Ġovoce": 6694,
      "Ġrol": 6695,
      "ĠÅ¡erem": 6696,
      "ĠchtÄĽjÃŃ": 6697,
      "ĠvÃ¡lky": 6698,
      "ĠznÃ©": 6699,
      "Ġlidmi": 6700,
      "ĠpravÃŃm": 6701,
      "ĠhÅĻÃŃchÅ¯": 6702,
      "Ġobrazy": 6703,
      "ĠrÅ¯znÃ½ch": 6704,
      "Ã¡t": 6705,
      "ĠjnÄĽ": 6706,
      "Ġpohan": 6707,
      "Ġmlze": 6708,
      "CB": 6709,
      "Ġsestra": 6710,
      "Ġvypl": 6711,
      "zli": 6712,
      "ĠpohlÃ©": 6713,
      "ĠbavÃŃ": 6714,
      "ĠÅ¡epce": 6715,
      "Ġbalvan": 6716,
      "Ġzkad": 6717,
      "ĠvavÅĻÃŃ": 6718,
      "Ġvce": 6719,
      "ĠvtÄĽ": 6720,
      "ĠneÅĻe": 6721,
      "Ġrolan": 6722,
      "ĠruÄįky": 6723,
      "ĠburÃ¡": 6724,
      "rÃ¡nÃŃ": 6725,
      "Å¡tÄĽnÃŃ": 6726,
      "ĠsklÃ¡dÃ¡": 6727,
      "ABBB": 6728,
      "ĠobjÃŃmÃ¡": 6729,
      "ĠmlÄįenÃŃ": 6730,
      "ĠtÄĽÅ¾kÃ½m": 6731,
      "ĠneznÃ¡mÃ½": 6732,
      "ĠideÃ¡": 6733,
      "chat": 6734,
      "Ġbezna": 6735,
      "ĠÅ¡o": 6736,
      "ĠboÅĻÃŃ": 6737,
      "Äįeli": 6738,
      "ĠÅ¡et": 6739,
      "rouh": 6740,
      "ĠtÃ¡bor": 6741,
      "ĠjejichÅ¾": 6742,
      "ĠÅ¡irÃ½": 6743,
      "ĠbohatÃ½r": 6744,
      "ABABCX": 6745,
      "Ġmam": 6746,
      "ĠbÃ©ÅĻe": 6747,
      "ĠrvÃŃ": 6748,
      "ĠprobÃŃ": 6749,
      "ĠzelenÃ½": 6750,
      "Ġpaprs": 6751,
      "ĠperutÄĽ": 6752,
      "Ġprostor": 6753,
      "Ġchceme": 6754,
      "Ġkly": 6755,
      "ĠdlÃ©": 6756,
      "razÃŃ": 6757,
      "Ġpoklady": 6758,
      "Ġodlesk": 6759,
      "ĠzdobÃŃ": 6760,
      "ĠveÅ¡k": 6761,
      "Ġster": 6762,
      "ĠpenÄĽz": 6763,
      "ĠvylÃŃ": 6764,
      "ĠbodÃ¡": 6765,
      "ĠzÃ¡vÄĽ": 6766,
      "ĠpÅĻÃŃklad": 6767,
      "ĠpÃ¡nÅ¯": 6768,
      "jou": 6769,
      "Ġust": 6770,
      "Ġzanech": 6771,
      "Ġton": 6772,
      "ĠteÄįe": 6773,
      "Ġpraha": 6774,
      "ĠstÃ¡do": 6775,
      "Ġcig": 6776,
      "ĠnevidÄĽl": 6777,
      "Ġmoudrosti": 6778,
      "Ġratole": 6779,
      "ĠÅ¾dy": 6780,
      "titi": 6781,
      "ĠnohÃ¡m": 6782,
      "Ġspro": 6783,
      "stala": 6784,
      "Ġtrud": 6785,
      "Ġrenal": 6786,
      "vrt": 6787,
      "Ġnohu": 6788,
      "pÃŃÅ¡": 6789,
      "ĠmÃŃhÃ¡": 6790,
      "ĠposvÃ¡": 6791,
      "ĠkaÅ¾dÃ©mu": 6792,
      "ĠpÅ¯lnoc": 6793,
      "ĠpoprvÃ©": 6794,
      "Ġoddech": 6795,
      "ĠbÄĽhu": 6796,
      "Å¾ily": 6797,
      "ĠpoÅ¾Ã¡r": 6798,
      "dÅĻÃŃ": 6799,
      "ĠakÃ©": 6800,
      "Ġneje": 6801,
      "mÄĽly": 6802,
      "Ġhromo": 6803,
      "Ġsoko": 6804,
      "ĠsvatÃ©m": 6805,
      "ĠzahÅĻ": 6806,
      "Ã¡nÃŃ": 6807,
      "tiv": 6808,
      "ĠÅ¡nÄĽ": 6809,
      "Ġvza": 6810,
      "Ġryk": 6811,
      "stÃ¡ch": 6812,
      "ĠhlasÅ¯": 6813,
      "Ġgu": 6814,
      "Ġnepoko": 6815,
      "ĠvrÃ¡sky": 6816,
      "ĠmdlÃ©": 6817,
      "taly": 6818,
      "Ġpocit": 6819,
      "ĠÅ¾Å¡ÃŃ": 6820,
      "Ġlevo": 6821,
      "ĠpÃŃti": 6822,
      "Ġposly": 6823,
      "Ġnechte": 6824,
      "ĠvlÃ¡dy": 6825,
      "ĠÅ¡irÃ©": 6826,
      "ĠtajemnÃ©": 6827,
      "ĠnÄĽÅ¾nÃ©": 6828,
      "sni": 6829,
      "Ġkej": 6830,
      "ĠnÄĽmÃ¡": 6831,
      "Ġyna": 6832,
      "ĠlÃŃstek": 6833,
      "ĠÅ¡ÃŃj": 6834,
      "ĠpÅĻesvÄĽd": 6835,
      "ĠpoÄįne": 6836,
      "Ġvzdoru": 6837,
      "Ġvnady": 6838,
      "Äįuje": 6839,
      "ĠÃ¡hÃ¡": 6840,
      "ĠlÃ¡me": 6841,
      "ĠvÃ½kÅĻi": 6842,
      "ĠslabÃ½": 6843,
      "Ġhrdla": 6844,
      "Ġplynou": 6845,
      "ptÃ¡": 6846,
      "Å¾dÄĽ": 6847,
      "ĠzaÄįÃŃ": 6848,
      "Ġrie": 6849,
      "ĠhoÅĻi": 6850,
      "ĠhladÃŃ": 6851,
      "ĠkoutÄĽ": 6852,
      "ĠretÅ¯": 6853,
      "ÄĽjÅ¡ÃŃ": 6854,
      "ĠnevÃ¡": 6855,
      "Ġvysta": 6856,
      "ĠvojÃŃ": 6857,
      "ĠrÃ¡ÅĪ": 6858,
      "ĠspoÄįÃŃ": 6859,
      "ĠÅ¡ÃŃÅĻ": 6860,
      "ĠzjevÃŃ": 6861,
      "Ġprince": 6862,
      "ĠuhlÃŃ": 6863,
      "Ġprova": 6864,
      "ĠÅĻece": 6865,
      "Ġnejde": 6866,
      "ÅĻeny": 6867,
      "dily": 6868,
      "ĠchvÄĽlo": 6869,
      "ĠdivokÃ©": 6870,
      "ĠdnovÃ©": 6871,
      "Ġben": 6872,
      "lon": 6873,
      "ĠÅ¾ila": 6874,
      "Ġnejen": 6875,
      "Ġohlas": 6876,
      "ĠchceÅ¡li": 6877,
      "ĠmajestÃ¡": 6878,
      "ĠpÅĻelud": 6879,
      "ABABXC": 6880,
      "ĠvÃŃÄįka": 6881,
      "ĠÄįinu": 6882,
      "ĠmateÅĻ": 6883,
      "zdÃ¡": 6884,
      "Å¾nou": 6885,
      "ÄįekÃ¡": 6886,
      "ĠhledÃ¡m": 6887,
      "ĠskalÃ¡ch": 6888,
      "ĠhÅĻbitov": 6889,
      "ĠkÅ¡ti": 6890,
      "ĠukÅ¯": 6891,
      "ĠchtÄĽlo": 6892,
      "ĠvesmÃŃr": 6893,
      "nÄįÃŃ": 6894,
      "Ġstranu": 6895,
      "Ġgo": 6896,
      "ĠvteÅĻi": 6897,
      "ĠnÄĽt": 6898,
      "ÄįkÃ½": 6899,
      "Ġchech": 6900,
      "ÅĪu": 6901,
      "ĠnÃ¡ÅĻ": 6902,
      "ĠvrahÅ¯": 6903,
      "ĠÅ¯nÃŃ": 6904,
      "ĠdrÃ¡hy": 6905,
      "Ġdopo": 6906,
      "ĠÄįechy": 6907,
      "ĠprvÃ©": 6908,
      "piti": 6909,
      "Ġmraku": 6910,
      "Ġslavnost": 6911,
      "ĠdÄĽtin": 6912,
      "Ġzbyl": 6913,
      "Ġvnad": 6914,
      "rny": 6915,
      "Å¡ce": 6916,
      "Ġoto": 6917,
      "ĠiÅ¡ÃŃ": 6918,
      "ĠsvatÃ©ho": 6919,
      "ĠblaÅ¾ÃŃ": 6920,
      "Ġbet": 6921,
      "ĠvzpomÃŃnek": 6922,
      "ĠmoudrÃ½": 6923,
      "ĠapoÅ¡to": 6924,
      "zpÄĽ": 6925,
      "ĠuÅĻe": 6926,
      "ĠkaÅ¡": 6927,
      "AAXBBC": 6928,
      "Ġhospody": 6929,
      "Ġprokop": 6930,
      "Ġekl": 6931,
      "ĠjinÃ©ho": 6932,
      "ĠrÄįÃŃ": 6933,
      "Å¾eli": 6934,
      "Å¡ili": 6935,
      "ĠmocnÃ¡": 6936,
      "ĠznÃ¡t": 6937,
      "ĠpohÃ¡dky": 6938,
      "Ġvyho": 6939,
      "daje": 6940,
      "ĠzÃ¡dum": 6941,
      "ÄįinÄĽ": 6942,
      "Ġstan": 6943,
      "Ġostro": 6944,
      "Ġhluku": 6945,
      "ĠpÃ½cha": 6946,
      "Å¡til": 6947,
      "ĠrozÅ¾": 6948,
      "ĠdÃ¡no": 6949,
      "ĠÅ¾iva": 6950,
      "Ġnejdra": 6951,
      "ĠnÄĽmÃ©": 6952,
      "Ġmodro": 6953,
      "ĠchvÄĽj": 6954,
      "Ġzjevil": 6955,
      "ĠnÃ¡mÄĽstÃŃ": 6956,
      "Ġposu": 6957,
      "ĠnabÃŃ": 6958,
      "ĠdÄĽlÃŃ": 6959,
      "ĠpouhÃ©": 6960,
      "Ġlampy": 6961,
      "Ġzticha": 6962,
      "Ġleta": 6963,
      "Ġprs": 6964,
      "ĠnebeskÃ©": 6965,
      "ĠtÃŃsnÃŃ": 6966,
      "ĠkrutÃ©": 6967,
      "Ġhel": 6968,
      "ĠkÃ½v": 6969,
      "tli": 6970,
      "ĠhÅĻÃ¡": 6971,
      "rali": 6972,
      "Ġesl": 6973,
      "ĠlhÃ¡": 6974,
      "ĠÅ¾ÃŃzni": 6975,
      "ĠÅ¡eptal": 6976,
      "tas": 6977,
      "lÃŃch": 6978,
      "Ġrku": 6979,
      "Ġrozka": 6980,
      "ĠsrdÃ©": 6981,
      "Ġsos": 6982,
      "hÃ½bÃ¡": 6983,
      "Ġhubi": 6984,
      "ckÃ½m": 6985,
      "Ġace": 6986,
      "ĠebÃŃ": 6987,
      "ĠÃ¡ty": 6988,
      "ĠrodnÃ½": 6989,
      "Ġrevolu": 6990,
      "Ġryb": 6991,
      "Ġpuk": 6992,
      "ĠnevÄĽdÄĽl": 6993,
      "Ġparku": 6994,
      "Ġminulost": 6995,
      "ĠÄįtvrt": 6996,
      "Ġnavra": 6997,
      "Ġzaji": 6998,
      "mÃŃra": 6999,
      "Ġcele": 7000,
      "ĠmÃŃsÃŃ": 7001,
      "ĠradosÅ¥": 7002,
      "ĠkrÃ¡tkÃ©": 7003,
      "ĠpevnÃ½": 7004,
      "AXAXB": 7005,
      "ĠrÃ©m": 7006,
      "ĠvÅ¡echna": 7007,
      "ĠskoÄįÃŃ": 7008,
      "Ġmladost": 7009,
      "liti": 7010,
      "Ġpose": 7011,
      "Ġpomy": 7012,
      "ĠrekÅ¯": 7013,
      "ĠÄįlovÄĽkem": 7014,
      "Ġsmys": 7015,
      "ĠzÃ¡dumÄįi": 7016,
      "Ġsno": 7017,
      "Å¾nÃ½ch": 7018,
      "ÄįnÃŃch": 7019,
      "Ġzbylo": 7020,
      "Ġroztomil": 7021,
      "ca": 7022,
      "ĠpÄĽti": 7023,
      "Äįely": 7024,
      "Ġpravi": 7025,
      "Ġplakal": 7026,
      "ĠklidnÃ½": 7027,
      "AAXBBX": 7028,
      "ĠvÄĽÅĻte": 7029,
      "ĠpÃ½Å¡e": 7030,
      "Ġzkla": 7031,
      "ĠkacÃŃ": 7032,
      "tul": 7033,
      "ĠplnÃ½ch": 7034,
      "ĠhvÄĽzdou": 7035,
      "Ġvesna": 7036,
      "Ġpovstal": 7037,
      "Ġvezmi": 7038,
      "ĠhleÄıte": 7039,
      "ĠposmÄĽch": 7040,
      "lie": 7041,
      "ĠmistÅĻe": 7042,
      "Ġych": 7043,
      "Ġokra": 7044,
      "ĠnovÃ©ho": 7045,
      "Ġshon": 7046,
      "Ġzmatku": 7047,
      "ÅĻte": 7048,
      "Ġvzrost": 7049,
      "ĠhledÄĽ": 7050,
      "Äįena": 7051,
      "ĠkÃ¡cÃŃ": 7052,
      "ĠkÅĻovÃŃ": 7053,
      "ĠposÃŃ": 7054,
      "Ġnasy": 7055,
      "ÅĻely": 7056,
      "ĠÃŃcÃ½": 7057,
      "ĠvÃ¡no": 7058,
      "Ġsouci": 7059,
      "ĠspÃ¡ti": 7060,
      "ĠhlÃ¡sÃŃ": 7061,
      "stupuje": 7062,
      "ĠvyÅ¡ehra": 7063,
      "gna": 7064,
      "staly": 7065,
      "Ġnet": 7066,
      "ĠniÅ¾": 7067,
      "ĠvÃ¡le": 7068,
      "Ġlat": 7069,
      "hro": 7070,
      "snÃ½ch": 7071,
      "Ġchalou": 7072,
      "ĠkopÃŃ": 7073,
      "Ġshlu": 7074,
      "Ġtrium": 7075,
      "pce": 7076,
      "ĠzadÃŃ": 7077,
      "kalo": 7078,
      "Ġvyjde": 7079,
      "ĠskvoucÃŃ": 7080,
      "ĠdÄĽcka": 7081,
      "ĠpoÅ¾ehnÃ¡": 7082,
      "ĠÅ¾ebrÃ¡k": 7083,
      "Ġpopla": 7084,
      "Ġneli": 7085,
      "Ġdocela": 7086,
      "ĠÅĻÃŃdÃŃ": 7087,
      "zenÃ½": 7088,
      "ĠdÃ½mu": 7089,
      "ĠkrvavÃ½": 7090,
      "ĠrovnÄĽÅ¾": 7091,
      "ĠÃŃst": 7092,
      "ĠdÄĽvu": 7093,
      "adil": 7094,
      "cÅ¯v": 7095,
      "ĠbÅĻehÅ¯": 7096,
      "Ġnedal": 7097,
      "ÅĻÃŃti": 7098,
      "lÃ¡n": 7099,
      "mÃŃvÃ¡": 7100,
      "ĠstÃ¡da": 7101,
      "ĠÄįernÃ½m": 7102,
      "Ġskokem": 7103,
      "ĠdÃŃvce": 7104,
      "ĠzboÅ¾nÄĽ": 7105,
      "Ġmine": 7106,
      "ÄįeÅ¾": 7107,
      "ĠnovÃ©m": 7108,
      "taj": 7109,
      "ĠhradÄĽ": 7110,
      "ĠhouÅ¡ti": 7111,
      "zala": 7112,
      "ĠteplÃ½": 7113,
      "razi": 7114,
      "nÃ¡c": 7115,
      "ĠproklÃŃ": 7116,
      "jila": 7117,
      "Ġhroma": 7118,
      "ĠdruhÅ¯": 7119,
      "ĠkleÄįÃŃ": 7120,
      "ĠhustÃ©": 7121,
      "Ġjasno": 7122,
      "vitÃ©": 7123,
      "ĠjizbÄĽ": 7124,
      "Ã½t": 7125,
      "Ġnevo": 7126,
      "ĠÃŃbÃ¡": 7127,
      "ĠrhÃ¡": 7128,
      "Ġprobou": 7129,
      "tÃ¡ÅĻ": 7130,
      "Ġslovu": 7131,
      "ĠsvÃŃtÃ¡": 7132,
      "ĠchvÄĽly": 7133,
      "ĠÃºsmÄĽvu": 7134,
      "Ġpokoji": 7135,
      "Ġmohli": 7136,
      "Ġhejno": 7137,
      "ĠmlÃ½n": 7138,
      "kru": 7139,
      "Ġusy": 7140,
      "ĠÄįistou": 7141,
      "ĠkrutÄĽ": 7142,
      "ĠkrÃ¡lovna": 7143,
      "tnÃ½ch": 7144,
      "Ġzval": 7145,
      "Ġodpla": 7146,
      "Ġsrdcy": 7147,
      "ĠÃºtro": 7148,
      "Ġspor": 7149,
      "ĠsÃ¡l": 7150,
      "bÃ½vÃ¡": 7151,
      "ĠÅ¾alost": 7152,
      "Ġhisto": 7153,
      "ĠvÃŃme": 7154,
      "Ġuru": 7155,
      "teÄįnÃŃ": 7156,
      "novu": 7157,
      "mus": 7158,
      "ĠcestÃ¡ch": 7159,
      "Ġperel": 7160,
      "ĠÄįinÅ¯": 7161,
      "pali": 7162,
      "ĠzdvÃŃ": 7163,
      "Ġzpit": 7164,
      "ĠsnÃ¡Å¡ÃŃ": 7165,
      "bnou": 7166,
      "Ġkl": 7167,
      "Ġdovo": 7168,
      "Ġkopy": 7169,
      "ĠpÅĻehlu": 7170,
      "veÅĪ": 7171,
      "Ġhladem": 7172,
      "ĠklasÅ¯": 7173,
      "ĠslepÃ½": 7174,
      "Ġhorami": 7175,
      "Ġzjas": 7176,
      "loval": 7177,
      "Ġsval": 7178,
      "ĠzavÄĽ": 7179,
      "Ġkorouh": 7180,
      "ABCABC": 7181,
      "Ġsocha": 7182,
      "Ġzloba": 7183,
      "hlÃ½m": 7184,
      "ĠtisÃŃci": 7185,
      "Ġzahu": 7186,
      "Ġrav": 7187,
      "stÃŃrÃ¡": 7188,
      "ĠhÃ¡v": 7189,
      "ĠvÅ¡emo": 7190,
      "Ġhanu": 7191,
      "Ġzbroj": 7192,
      "ĠposlednÃŃm": 7193,
      "ĠzmÄĽnÃŃ": 7194,
      "gan": 7195,
      "ĠpaÅ¾ÃŃ": 7196,
      "ĠstoletÃŃ": 7197,
      "ĠnedoÄįka": 7198,
      "ĠstkvÄĽ": 7199,
      "Ġsoumraku": 7200,
      "Ġprsten": 7201,
      "ĠjmÄĽnÃŃ": 7202,
      "ĠÃ¡ka": 7203,
      "ĠÅ¾ivÃŃ": 7204,
      "ĠmÃ¡k": 7205,
      "Ġvoje": 7206,
      "ĠlÃŃpy": 7207,
      "Ġoblaka": 7208,
      "ĠvÃ¡Å¾nÃ½": 7209,
      "jo": 7210,
      "ĠohÃ½": 7211,
      "Ġbky": 7212,
      "stit": 7213,
      "Ġubi": 7214,
      "ĠerÃ©": 7215,
      "ĠvlaÅ¡to": 7216,
      "Å¾enÃ½ch": 7217,
      "ĠmarnÃ¡": 7218,
      "zda": 7219,
      "Ġsit": 7220,
      "Ġjsy": 7221,
      "pÄĽla": 7222,
      "hlas": 7223,
      "ĠnÃ¡rodÅ¯": 7224,
      "ĠhrÅ¯z": 7225,
      "ĠbÃ¡snÄĽ": 7226,
      "ĠstÅĻÃŃbrnÃ©": 7227,
      "ĠjmÃ©nem": 7228,
      "ĠubohÃ©": 7229,
      "don": 7230,
      "Ġvzhled": 7231,
      "ĠplÃ¡lo": 7232,
      "Ġfo": 7233,
      "ĠmrtvÃŃ": 7234,
      "pÃŃm": 7235,
      "ĠorÃ¡": 7236,
      "ĠtuÅ¾eb": 7237,
      "ĠpodlÃ©": 7238,
      "ĠprÃ¡zdnÃ½": 7239,
      "ĠotevÅĻel": 7240,
      "mÅ¯Å¾e": 7241,
      "Ġblud": 7242,
      "Ġnko": 7243,
      "ĠchÅĻe": 7244,
      "ĠpÅĻipo": 7245,
      "Ġoprav": 7246,
      "Ġzakry": 7247,
      "ÄįkovÃ©": 7248,
      "Ġkonci": 7249,
      "ĠblÃ½ska": 7250,
      "ĠzlÃ©ho": 7251,
      "ÅĻÃŃvÃ¡": 7252,
      "ĠÅ¡epo": 7253,
      "ĠpovÄĽst": 7254,
      "ĠknÄĽÅ¾na": 7255,
      "Ġsymbo": 7256,
      "ÄĽÅ¥": 7257,
      "Ġmha": 7258,
      "stvu": 7259,
      "ĠpoÅ¡e": 7260,
      "ĠÅ¾a": 7261,
      "ĠodvÄĽ": 7262,
      "Å¾ilo": 7263,
      "ĠlehkÃ½": 7264,
      "ĠpoÄįÃ¡": 7265,
      "ĠdÄĽsnÃ©": 7266,
      "Ġteplo": 7267,
      "ĠcÃŃrkev": 7268,
      "ÄįkÃ©": 7269,
      "Ġroku": 7270,
      "ĠvydÃ¡": 7271,
      "ĠrubÃŃ": 7272,
      "Ġstole": 7273,
      "ĠstarÅ¡ÃŃ": 7274,
      "ĠdvoÅĻe": 7275,
      "ĠsmÃ¡la": 7276,
      "dly": 7277,
      "ĠozÃŃ": 7278,
      "Ġbce": 7279,
      "ĠzÃ¡po": 7280,
      "Ġodsou": 7281,
      "Ġskvr": 7282,
      "Ġnemu": 7283,
      "ĠpÄĽjÃŃ": 7284,
      "ĠmnoÅ¾stvÃŃ": 7285,
      "ceni": 7286,
      "Ġtrosky": 7287,
      "ĠstÅĻÃŃbrem": 7288,
      "ĠpÅ¯lnoci": 7289,
      "Ġjdeme": 7290,
      "ĠmÄĽly": 7291,
      "Ġnemy": 7292,
      "ĠblahÃ½": 7293,
      "ĠpamÄĽÅ¥": 7294,
      "ĠplachÃ½": 7295,
      "ĠvÃ½chod": 7296,
      "Ġhezky": 7297,
      "ĠodÃ¡": 7298,
      "nov": 7299,
      "ĠÅ¡vi": 7300,
      "ditel": 7301,
      "vitÄĽ": 7302,
      "ĠhoupÃ¡": 7303,
      "benÃ©": 7304,
      "Ġfial": 7305,
      "ĠbohynÄĽ": 7306,
      "ĠtkÃ½": 7307,
      "nÄĽnou": 7308,
      "Ġmuzi": 7309,
      "Ġlup": 7310,
      "ĠmrtvÃ¡": 7311,
      "nickÃ©": 7312,
      "ĠubohÃ½": 7313,
      "ĠspanÃŃ": 7314,
      "ĠplÃŃÅ¾ÃŃ": 7315,
      "ĠzÃ¡slu": 7316,
      "ĠmÃ¡li": 7317,
      "ĠpÅĻedtu": 7318,
      "Ġkoruny": 7319,
      "ĠpevnÃ©": 7320,
      "ĠvzÃ¡cnÃ©": 7321,
      "ĠlÃŃtost": 7322,
      "drÃ¡": 7323,
      "zdÃŃ": 7324,
      "ĠuhÅ¯": 7325,
      "nÄĽla": 7326,
      "Ġihu": 7327,
      "ĠÃ¡mÃ½": 7328,
      "ĠdÄĽtskÃ©": 7329,
      "ĠnenadÃ¡nÃŃ": 7330,
      "ĠÅ¡av": 7331,
      "ĠpaprskÅ¯": 7332,
      "fy": 7333,
      "Ġthe": 7334,
      "nÃ¡Å¡el": 7335,
      "Ġkohou": 7336,
      "Ġlak": 7337,
      "Ġstrasti": 7338,
      "pÃ¡n": 7339,
      "ĠsladkÃ©m": 7340,
      "Ġbere": 7341,
      "ĠnÃ¡rody": 7342,
      "ĠpÅĻemÃŃ": 7343,
      "ĠÅ¾ehnÃ¡": 7344,
      "ÅĻelo": 7345,
      "vÃ¡nÃŃm": 7346,
      "ĠtuÅ¥": 7347,
      "ĠpÃŃÅ¡": 7348,
      "ABACCB": 7349,
      "ĠpÃ¡nbÅ¯h": 7350,
      "ĠzboÅ¾ÃŃ": 7351,
      "ĠoltÃ¡ÅĻe": 7352,
      "Ġbiskup": 7353,
      "Ġpce": 7354,
      "ĠmÅ¯": 7355,
      "ĠjeseÅĪ": 7356,
      "ĠvzkÅĻi": 7357,
      "ÅĪal": 7358,
      "ĠnÃ¡vra": 7359,
      "bej": 7360,
      "Ġkyp": 7361,
      "ĠbÅĻÃŃmÄĽ": 7362,
      "ĠnaÅ¡ÃŃm": 7363,
      "tisk": 7364,
      "ĠÄĽno": 7365,
      "Ġmuky": 7366,
      "ĠnÄĽn": 7367,
      "ĠmnozÃŃ": 7368,
      "ĠnedbÃ¡": 7369,
      "ĠjakÃ©s": 7370,
      "dnu": 7371,
      "ĠnaÅ¡li": 7372,
      "ÅĻÃŃch": 7373,
      "vÃ¡na": 7374,
      "Ġroh": 7375,
      "ĠtiÅ¡": 7376,
      "ĠtemnÃ¡": 7377,
      "ĠmalÃ½ch": 7378,
      "Ġzvuku": 7379,
      "ĠnÄĽkte": 7380,
      "ĠzvlÃ¡Å¡tÄĽ": 7381,
      "Ġvzejde": 7382,
      "vku": 7383,
      "zar": 7384,
      "Å¾ku": 7385,
      "Ġkmo": 7386,
      "Å¡kem": 7387,
      "Ġuhas": 7388,
      "Ġzasy": 7389,
      "Ġrozpo": 7390,
      "ĠraÅĪ": 7391,
      "Ġslabo": 7392,
      "ĠsÃŃÅ¥": 7393,
      "ĠdravÃ½": 7394,
      "ĠzelenÃ¡": 7395,
      "ĠsnivÃ¡": 7396,
      "Ġam": 7397,
      "Ġolo": 7398,
      "Ġsedla": 7399,
      "Ġposte": 7400,
      "skÃ½mi": 7401,
      "jÃŃti": 7402,
      "ĠodÅ¯": 7403,
      "ABCDDC": 7404,
      "ĠzÃ¡mek": 7405,
      "ĠtÅ¯nÄĽ": 7406,
      "fÃŃ": 7407,
      "Ġvku": 7408,
      "rami": 7409,
      "Ġnachem": 7410,
      "Ġmozo": 7411,
      "ĠtÄĽkÃ¡": 7412,
      "bech": 7413,
      "ĠÅ¾ik": 7414,
      "Å¾iv": 7415,
      "Ġstate": 7416,
      "Ġhodina": 7417,
      "ĠtakovÃ½": 7418,
      "Ġolym": 7419,
      "ĠY": 7420,
      "ĠzaÅ¡el": 7421,
      "Ġroje": 7422,
      "ĠvysÃŃ": 7423,
      "Ġstala": 7424,
      "ĠmÃ©nÄĽ": 7425,
      "ĠpÄĽsti": 7426,
      "ĠchytÃ¡": 7427,
      "Ġtragi": 7428,
      "ĠtrÃ¡vu": 7429,
      "lÃ½mi": 7430,
      "Ã½val": 7431,
      "Ġevy": 7432,
      "ĠprochÃ¡": 7433,
      "ĠrozvÃ¡": 7434,
      "Ġhus": 7435,
      "ĠbijÃŃ": 7436,
      "ĠhÅĻÃŃmÃ¡": 7437,
      "ĠveselÃ½": 7438,
      "Ġpruh": 7439,
      "ĠzÅĻeli": 7440,
      "ĠjdÄĽte": 7441,
      "Ġlel": 7442,
      "sala": 7443,
      "ĠrybnÃŃ": 7444,
      "Ġdvoj": 7445,
      "ĠneznÃ¡mÃ©": 7446,
      "Ġzpola": 7447,
      "Ġvas": 7448,
      "dechu": 7449,
      "XAXX": 7450,
      "ĠsynÅ¯": 7451,
      "Ġnebla": 7452,
      "nickÃ½": 7453,
      "Ġhudbu": 7454,
      "Ġdivoce": 7455,
      "ĠdivokÃ½": 7456,
      "Ġzrozen": 7457,
      "ĠnekoneÄį": 7458,
      "ĠvzÃ¡cnÃ½": 7459,
      "ĠokamÅ¾iku": 7460,
      "vÅ¡ad": 7461,
      "ĠÅĪÃ¡dra": 7462,
      "ĠnevÃ½slov": 7463,
      "Ġuh": 7464,
      "Ġjist": 7465,
      "ĠobÄĽti": 7466,
      "vyk": 7467,
      "ĠmarnÃ½": 7468,
      "ĠÅ¡uma": 7469,
      "ĠhorÅ¡ÃŃ": 7470,
      "Ġtmavou": 7471,
      "ĠznÃ¡ti": 7472,
      "ĠuÅ¡lech": 7473,
      "Ġvzplane": 7474,
      "ĠhospodÃ¡ÅĻ": 7475,
      "ĠveÅ¡ker": 7476,
      "Å¾nÃŃ": 7477,
      "jeli": 7478,
      "ĠdÃ¡val": 7479,
      "ĠzdÃ¡la": 7480,
      "ĠsvÃ¡tek": 7481,
      "ĠodeÅ¡el": 7482,
      "ĠnÄĽjÅ¾": 7483,
      "Ġjizby": 7484,
      "ĠspoleÄįnosti": 7485,
      "Ġmiliony": 7486,
      "kam": 7487,
      "Ġvzpou": 7488,
      "Ġrozez": 7489,
      "mila": 7490,
      "Ġkane": 7491,
      "Ġzaslech": 7492,
      "Ġjasem": 7493,
      "Ġkroku": 7494,
      "ĠzdÃ¡nÃŃ": 7495,
      "Ġmrazem": 7496,
      "ĠÅ¡ik": 7497,
      "ĠstÅĻechy": 7498,
      "ĠÃºsvit": 7499,
      "Ġuml": 7500,
      "ĠpohÃ¡dka": 7501,
      "ĠboÅ¾stvÃŃ": 7502,
      "ĠÅ¡koly": 7503,
      "Å¡Ã¡": 7504,
      "ĠbdÄĽ": 7505,
      "lom": 7506,
      "tovÃ¡nÃŃ": 7507,
      "ĠÄįeskou": 7508,
      "ĠÃºkry": 7509,
      "ĠplaÅ¡ÃŃ": 7510,
      "Ġtemna": 7511,
      "ĠsvobodÄĽ": 7512,
      "Ġopustil": 7513,
      "Ġshle": 7514,
      "ÅĻka": 7515,
      "ĠdusÃŃ": 7516,
      "ĠrudÃ¡": 7517,
      "ĠpÅĻÃŃtele": 7518,
      "Å¡enÃ¡": 7519,
      "ĠpalÃ¡c": 7520,
      "Ġskryt": 7521,
      "ĠcÃŃrkve": 7522,
      "dati": 7523,
      "fu": 7524,
      "nan": 7525,
      "ĠrumÄĽ": 7526,
      "ĠjasnÃ½m": 7527,
      "Ġlehko": 7528,
      "Ġjek": 7529,
      "ĠÅ¾nÄĽ": 7530,
      "nova": 7531,
      "Ġlehou": 7532,
      "ĠmÄĽÅ¡Å¥": 7533,
      "Ġdie": 7534,
      "Ġnouze": 7535,
      "ĠsnÃŃt": 7536,
      "ĠmuÅ¾em": 7537,
      "kladu": 7538,
      "Ġodpor": 7539,
      "ĠradostnÄĽ": 7540,
      "ĠdrÃ¡hu": 7541,
      "ĠvodopÃ¡": 7542,
      "ĠzasmuÅ¡il": 7543,
      "bami": 7544,
      "ĠdÅ¾": 7545,
      "ĠviÄı": 7546,
      "ĠlÃŃnÄĽ": 7547,
      "sajÃŃ": 7548,
      "bala": 7549,
      "ĠnevÄĽÅĻÃŃ": 7550,
      "ĠskalnÃŃ": 7551,
      "ĠuchvÃ¡": 7552,
      "ĠtvrdÃ½": 7553,
      "ĠÅ¾iÅ¾ka": 7554,
      "Ġstarci": 7555,
      "ĠÅ¯ry": 7556,
      "ĠmÄĽkce": 7557,
      "Ġjezera": 7558,
      "ĠstkvÃŃ": 7559,
      "ĠÃºtra": 7560,
      "Ġhrot": 7561,
      "ĠlÃ©k": 7562,
      "Ġshr": 7563,
      "ĠdÄĽvÄįÃ¡": 7564,
      "Ġklene": 7565,
      "ĠbohÅ¯m": 7566,
      "chvÃ¡": 7567,
      "Ġidy": 7568,
      "Ġobec": 7569,
      "toval": 7570,
      "ĠsvÃŃce": 7571,
      "ĠtesknÃ©": 7572,
      "Ġzbude": 7573,
      "ĠssÃ¡": 7574,
      "ĠzapÃ¡": 7575,
      "Ġtoli": 7576,
      "Ġvym": 7577,
      "Å¡tÄĽm": 7578,
      "ĠkÅĻÃŃÅ¾i": 7579,
      "lÅ¯v": 7580,
      "ĠslavnÃ½ch": 7581,
      "Ġpevnou": 7582,
      "vcÅ¯": 7583,
      "chla": 7584,
      "ĠroznÃŃ": 7585,
      "ĠnÃ¡po": 7586,
      "ĠzÃ¡Å¡Å¥": 7587,
      "ĠvlastnÃŃch": 7588,
      "Ġdoli": 7589,
      "ĠhoÅĻem": 7590,
      "Ġsul": 7591,
      "ĠtmavÃ¡": 7592,
      "Ġvezme": 7593,
      "ĠandÄĽlÃ©": 7594,
      "bÅĻe": 7595,
      "Ġupy": 7596,
      "Ġika": 7597,
      "Ġche": 7598,
      "kuje": 7599,
      "ĠstatnÃ½": 7600,
      "tiny": 7601,
      "ĠÅ¡ve": 7602,
      "ĠÅ¡kÅ¯": 7603,
      "duje": 7604,
      "ĠbÃŃdÄĽ": 7605,
      "Ġhrozi": 7606,
      "ĠjaÅĻe": 7607,
      "naly": 7608,
      "ĠplesÃ¡": 7609,
      "Ġshro": 7610,
      "Ġzil": 7611,
      "ĠzanÃŃ": 7612,
      "ĠbÃŃdnÃ©": 7613,
      "zdra": 7614,
      "Ġdruhy": 7615,
      "ĠstraÅ¡nÃ½": 7616,
      "ĠchrÃ¡mÄĽ": 7617,
      "ckÃ©ho": 7618,
      "Ġzaml": 7619,
      "ĠusmÃ¡l": 7620,
      "slil": 7621,
      "ĠudÃ½": 7622,
      "ĠtovÃ¡": 7623,
      "kolem": 7624,
      "Ġvzcho": 7625,
      "Ġnepokoj": 7626,
      "Ġsadu": 7627,
      "Ġcenu": 7628,
      "ĠobrÃ¡til": 7629,
      "ĠpohleÄı": 7630,
      "Ġvdech": 7631,
      "ĠÃ¡vÃŃ": 7632,
      "cii": 7633,
      "ĠoblÃ©": 7634,
      "ĠÅ¾ijÃŃ": 7635,
      "ÅĻeno": 7636,
      "cena": 7637,
      "Ġklidem": 7638,
      "ĠzÃŃral": 7639,
      "ĠmÄĽkkÃ½": 7640,
      "Ġobloha": 7641,
      "Ġvstoupil": 7642,
      "ĠÃ¡mu": 7643,
      "ĠÃŃlo": 7644,
      "Ġobdi": 7645,
      "Ġlide": 7646,
      "ĠlÃ½": 7647,
      "ĠlÅ¾ÃŃ": 7648,
      "Ġdek": 7649,
      "ÅĻenÃ½m": 7650,
      "ĠnevdÄĽ": 7651,
      "ĠpropastÃŃ": 7652,
      "ĠmraÄįno": 7653,
      "ĠpÅĻÃ¡telstvÃŃ": 7654,
      "ĠvleÄįe": 7655,
      "lumen": 7656,
      "Ġzoufalo": 7657,
      "AXXX": 7658,
      "Ġoblohou": 7659,
      "Ġpronik": 7660,
      "ĠÄĽÅ¡ÃŃ": 7661,
      "Äįeho": 7662,
      "ĠzÃ¡ro": 7663,
      "mÄĽlo": 7664,
      "Ġpranic": 7665,
      "ĠÃºstech": 7666,
      "ĠostÅĻÃŃ": 7667,
      "ĠÅĻekli": 7668,
      "Ġanebo": 7669,
      "ĠsnivÃ½": 7670,
      "ĠtÃ½Å¾": 7671,
      "ĠpsanÃŃ": 7672,
      "ĠklÃ¡Å¡ter": 7673,
      "hi": 7674,
      "ĠahÃ©": 7675,
      "Ġokouz": 7676,
      "ĠvÃ¡t": 7677,
      "ĠkouÅĻ": 7678,
      "Ġpustil": 7679,
      "ĠbÃ¡znÃŃ": 7680,
      "ĠmnoÅ¾ÃŃ": 7681,
      "ĠzrÃ¡d": 7682,
      "Ġzastavil": 7683,
      "ĠtÃ³ny": 7684,
      "ĠptÃ¡m": 7685,
      "Ġame": 7686,
      "ĠhodÃŃ": 7687,
      "ĠpravÃ¡": 7688,
      "ĠÅ¡eÅĻÃŃ": 7689,
      "ĠveselÃŃ": 7690,
      "hÃ©ho": 7691,
      "zla": 7692,
      "ĠutÃ¡": 7693,
      "ĠdotÃ½": 7694,
      "Ġobry": 7695,
      "ĠÃºpÃŃ": 7696,
      "rÅ¯v": 7697,
      "ĠjemnÃ©": 7698,
      "ĠmocnÃ½m": 7699,
      "ĠpestrÃ½": 7700,
      "Ġroman": 7701,
      "Ġkovo": 7702,
      "Ġhonem": 7703,
      "ĠmÄĽÅĻÃŃ": 7704,
      "ĠpeÅĻÃŃ": 7705,
      "ĠvÄĽÄįnÃ½m": 7706,
      "ĠdlaÅ¾": 7707,
      "Ġvstala": 7708,
      "svÄĽt": 7709,
      "Ġhbit": 7710,
      "Ġdop": 7711,
      "Ġhol": 7712,
      "ĠvybÃŃ": 7713,
      "Ġvyrost": 7714,
      "Ġsluha": 7715,
      "ĠtrÄįÃŃ": 7716,
      "cenou": 7717,
      "ĠvlÃ¡dce": 7718,
      "Ġkapky": 7719,
      "Ġer": 7720,
      "Ġmuce": 7721,
      "ĠlkÃ¡nÃŃ": 7722,
      "ĠdÃŃtko": 7723,
      "Ġvlaje": 7724,
      "Ġlampa": 7725,
      "stroj": 7726,
      "Ġmukou": 7727,
      "ÅĪa": 7728,
      "Ġbur": 7729,
      "ĠnejdÅĻÃŃ": 7730,
      "ĠmodrÃ¡": 7731,
      "Ġtrap": 7732,
      "Ġklobouk": 7733,
      "out": 7734,
      "roti": 7735,
      "ĠjakÃ½m": 7736,
      "Ġhody": 7737,
      "Ġvzo": 7738,
      "ĠmaliÄį": 7739,
      "Ġkrov": 7740,
      "ĠstÅĻela": 7741,
      "ĠbujnÃ½": 7742,
      "ĠzalÃŃ": 7743,
      "Ġvypro": 7744,
      "ĠvÄĽrnÃ¡": 7745,
      "ĠbÅĻit": 7746,
      "Ġrtem": 7747,
      "ĠvyÅ¡li": 7748,
      "tost": 7749,
      "ĠruÄįe": 7750,
      "ĠkouÅĻÃŃ": 7751,
      "ĠÅ¡irÃ©m": 7752,
      "Ġroucha": 7753,
      "ĠdokonÃ¡": 7754,
      "ĠsvatebnÃŃ": 7755,
      "Ġ!": 7756,
      "atÃ©": 7757,
      "ĠlekÃ¡": 7758,
      "Ġprovo": 7759,
      "doval": 7760,
      "Ġrozva": 7761,
      "Ġsnahy": 7762,
      "ĠozÃ½vÃ¡": 7763,
      "ĠzuÅĻi": 7764,
      "ĠtÅ¯m": 7765,
      "ĠaÅĻe": 7766,
      "ĠÅ¾nÃ©": 7767,
      "Ġcvr": 7768,
      "AABBXX": 7769,
      "Ġrah": 7770,
      "ĠdÃŃvÃ¡m": 7771,
      "ĠÅĻÃŃv": 7772,
      "ĠpohlÃŃ": 7773,
      "ĠtÃŃÅ¡": 7774,
      "ABBCDC": 7775,
      "bnÃ¡": 7776,
      "ÃŃch": 7777,
      "Ġvlek": 7778,
      "ĠÅ¡al": 7779,
      "Ġvlno": 7780,
      "ĠstarÃ½m": 7781,
      "Ġmilos": 7782,
      "XAXABC": 7783,
      "ĠmÄĽkkÃ©": 7784,
      "ĠnejlepÅ¡ÃŃ": 7785,
      "Ġodo": 7786,
      "ĠrtÅ¯m": 7787,
      "ĠdobrÃ½ch": 7788,
      "ĠÅ¾ÃŃzeÅĪ": 7789,
      "ĠtmavÃ½ch": 7790,
      "Ġvesny": 7791,
      "Ġtajemnou": 7792,
      "ĠzaÅ¡lÃ½ch": 7793,
      "Ġrozumu": 7794,
      "ĠlÅ¯Å¾ko": 7795,
      "Ġmit": 7796,
      "ĠvodÃŃ": 7797,
      "Ġtane": 7798,
      "ĠkabÃ¡": 7799,
      "ĠprÃ¡vem": 7800,
      "jemi": 7801,
      "Ġcizo": 7802,
      "ĠhlasnÄĽ": 7803,
      "ĠhvÄĽzdnÃ©": 7804,
      "ĠpamÃ¡tku": 7805,
      "ĠvÄĽÅ¾i": 7806,
      "ĠmuÄįÃŃ": 7807,
      "Ġtec": 7808,
      "Ġpravila": 7809,
      "Ġopou": 7810,
      "ĠvolÃ¡m": 7811,
      "ĠstÅĻÃŃbrnÃ½": 7812,
      "Ġkostela": 7813,
      "Ġlilie": 7814,
      "Ġrcete": 7815,
      "Ġazy": 7816,
      "ĠkÅĻ": 7817,
      "ĠÅ¾nÃ¡": 7818,
      "ĠpÅĻip": 7819,
      "ĠÄįÃŃst": 7820,
      "ĠpokolenÃŃ": 7821,
      "Ġupu": 7822,
      "Ġduma": 7823,
      "Ġvozy": 7824,
      "ĠÅ¡erÃ½": 7825,
      "ĠdrahÃ½ch": 7826,
      "ĠkrÃ¡snÄĽjÅ¡ÃŃ": 7827,
      "ĠpÅ¯dÄĽ": 7828,
      "ĠsuchÃ©": 7829,
      "Ġjun": 7830,
      "koliv": 7831,
      "Ġvstane": 7832,
      "ĠpalÃ¡ce": 7833,
      "haly": 7834,
      "chi": 7835,
      "Ġuc": 7836,
      "ruje": 7837,
      "nutÃ©": 7838,
      "Ġhocha": 7839,
      "Ġlie": 7840,
      "ĠruÅ¡ÃŃ": 7841,
      "leno": 7842,
      "ĠstÄĽn": 7843,
      "ĠumÅĻel": 7844,
      "Ġprosil": 7845,
      "ĠÅĻetÄĽz": 7846,
      "ĠvzÃŃti": 7847,
      "Ġchalu": 7848,
      "Ġdojat": 7849,
      "ĠjasnÃ½ch": 7850,
      "ĠÃ©no": 7851,
      "ĠzÅĻÃŃdka": 7852,
      "Ġmrazi": 7853,
      "Ġdarem": 7854,
      "Ġsloupy": 7855,
      "hlÃŃÅ¾ÃŃ": 7856,
      "ĠmroucÃŃ": 7857,
      "stin": 7858,
      "ĠzemÅĻel": 7859,
      "ĠjeÅ¾to": 7860,
      "Ġmiluj": 7861,
      "ĠstraÅ¡nÃ©": 7862,
      "ĠÅ¡Å¥astnÃ©": 7863,
      "Ġstrun": 7864,
      "ĠzkuÅ¡en": 7865,
      "Ġdobrodru": 7866,
      "ĠkvÄĽtiny": 7867,
      "Ġpropad": 7868,
      "ĠpÅĻÃŃko": 7869,
      "ĠpÅĻedce": 7870,
      "Ġheslo": 7871,
      "ĠobÄĽtÃŃ": 7872,
      "nÄĽna": 7873,
      "lÃŃp": 7874,
      "ĠÃŃsÃŃ": 7875,
      "ĠtÄĽn": 7876,
      "Ġhladu": 7877,
      "ĠjenÅ¾to": 7878,
      "Ġflo": 7879,
      "Ġref": 7880,
      "chali": 7881,
      "Ġsup": 7882,
      "ĠhorkÃ©": 7883,
      "Ġchladnou": 7884,
      "ĠzachrÃ¡": 7885,
      "ĠjiskÅĻÃŃ": 7886,
      "ĠtÅ¯ÅĪ": 7887,
      "Ġzdroje": 7888,
      "ABXX": 7889,
      "Ġprob": 7890,
      "ĠvÄĽno": 7891,
      "Ġkladi": 7892,
      "ĠbrÃ¡na": 7893,
      "Ġnebudu": 7894,
      "Ġdys": 7895,
      "Ġsever": 7896,
      "ĠbystÅĻi": 7897,
      "ĠmlÃ¡deÅ¾": 7898,
      "Ġdka": 7899,
      "ĠÃ¡nÅ¯": 7900,
      "Ġvysla": 7901,
      "Ġpavou": 7902,
      "ĠÅĻÃŃd": 7903,
      "ĠdlouhÃ½m": 7904,
      "ĠtÃŃseÅĪ": 7905,
      "Ġpamat": 7906,
      "ĠsÃŃmÄĽ": 7907,
      "tna": 7908,
      "Ġpsy": 7909,
      "ĠjnÃ©": 7910,
      "ĠvÃŃnek": 7911,
      "vedu": 7912,
      "ĠkrÃ¡lo": 7913,
      "mon": 7914,
      "ĠchuÄı": 7915,
      "Å¾eno": 7916,
      "Ġjala": 7917,
      "Ġbah": 7918,
      "vena": 7919,
      "Å¡ena": 7920,
      "ĠÅ¾aly": 7921,
      "Ġpolibek": 7922,
      "ĠzamyÅ¡len": 7923,
      "ĠmaÄıar": 7924,
      "Ġhodil": 7925,
      "ĠstÃ¡vÃ¡": 7926,
      "ĠbÄĽlÃ¡": 7927,
      "ĠbÃ¡znÄĽ": 7928,
      "ĠbolesÅ¥": 7929,
      "ĠosvÄĽ": 7930,
      "Ġpivo": 7931,
      "ĠsedlÃ¡": 7932,
      "Ġtrav": 7933,
      "ĠslavnÃ¡": 7934,
      "Ġvichrem": 7935,
      "Ġceny": 7936,
      "Ġkletba": 7937,
      "ĠzÃ¡stupy": 7938,
      "Ġita": 7939,
      "XAXAXA": 7940,
      "ĠsloÅ¾il": 7941,
      "ĠmetÃ¡": 7942,
      "ĠbÃ¡jÃŃ": 7943,
      "ĠspÄĽchu": 7944,
      "ĠsedlÃ¡k": 7945,
      "ĠznaÄįÃŃ": 7946,
      "ĠÃŃmi": 7947,
      "ĠblÃ¡ho": 7948,
      "ĠzapomnÄĽnÃŃ": 7949,
      "Ġpohledu": 7950,
      "Ġsmo": 7951,
      "ĠtkÅ¯": 7952,
      "Ġsej": 7953,
      "ĠotÅĻÃ¡": 7954,
      "ĠsnÄĽho": 7955,
      "Ġgro": 7956,
      "Ġcitem": 7957,
      "ĠpotkÃ¡": 7958,
      "ĠvzÃŃt": 7959,
      "Ġaci": 7960,
      "ĠunÃŃ": 7961,
      "Ġzabo": 7962,
      "ĠlÃŃt": 7963,
      "ĠnahoÅĻe": 7964,
      "kati": 7965,
      "Ġose": 7966,
      "Ġnehle": 7967,
      "Ġzavr": 7968,
      "Ġeci": 7969,
      "Ġneznal": 7970,
      "ĠsnÄĽti": 7971,
      "ĠslÃ¡b": 7972,
      "Ġgene": 7973,
      "ĠdÅĻÃŃma": 7974,
      "Ġvolnosti": 7975,
      "Ġmrakem": 7976,
      "Ġvyslo": 7977,
      "ĠnÄĽmec": 7978,
      "ĠjitÅĻnÃŃ": 7979,
      "znou": 7980,
      "ĠsÅ¯m": 7981,
      "ĠcÃ½": 7982,
      "Ġvec": 7983,
      "ĠÅ¡Å¡ÃŃ": 7984,
      "Ġmojich": 7985,
      "ĠkvÄĽtech": 7986,
      "ĠzhlÃŃ": 7987,
      "jÃ¡k": 7988,
      "dlem": 7989,
      "Ġdoho": 7990,
      "Ġdoly": 7991,
      "ĠÅ¡kol": 7992,
      "Äįeno": 7993,
      "ĠsilnÄĽ": 7994,
      "ĠokolÃŃ": 7995,
      "ĠdÃ¡vnÃ½": 7996,
      "ĠkvÃŃtÃŃm": 7997,
      "ĠulicÃŃch": 7998,
      "ABACBC": 7999,
      "ĠlÅ¯no": 8000,
      "Ġfrancou": 8001,
      "ĠzaÅ¡ep": 8002,
      "ĠfarÃ¡ÅĻ": 8003,
      "Å¡lÃŃ": 8004,
      "Ġjesky": 8005,
      "mund": 8006,
      "ĠmÃ¡je": 8007,
      "Ġskok": 8008,
      "ĠspÄĽchal": 8009,
      "ĠpÄĽknÃ½": 8010,
      "ĠmrÃ¡ko": 8011,
      "Ġneskonal": 8012,
      "ovi": 8013,
      "Ġrus": 8014,
      "Ġkousek": 8015,
      "ĠplÃ¡nÄĽ": 8016,
      "Ġluhu": 8017,
      "cenÃ½ch": 8018,
      "Ġmlhou": 8019,
      "Ġsady": 8020,
      "Ġvezdy": 8021,
      "Ġkletby": 8022,
      "ĠnÃ©sti": 8023,
      "ĠpastÃ½ÅĻ": 8024,
      "Ġhl": 8025,
      "ĠzabÃŃ": 8026,
      "ĠkoÅ¡": 8027,
      "ĠvyrÅ¯": 8028,
      "ĠpÅĻeje": 8029,
      "ĠÄįernÃ©m": 8030,
      "ĠnÃ¡sil": 8031,
      "ĠmilovÃ¡nÃŃ": 8032,
      "Ġdcero": 8033,
      "ĠspÃ¡su": 8034,
      "ĠkrutÃ¡": 8035,
      "ĠmoudÅĻe": 8036,
      "ĠÅĻasy": 8037,
      "nesl": 8038,
      "Ġvznik": 8039,
      "ladÅ¡ÃŃ": 8040,
      "Ġysy": 8041,
      "Ġlupen": 8042,
      "ĠdeÅ¡ti": 8043,
      "ĠvÃ½smÄĽ": 8044,
      "any": 8045,
      "dÅĻi": 8046,
      "ĠadÃ©": 8047,
      "Ġiro": 8048,
      "dol": 8049,
      "ĠpÅĻim": 8050,
      "ĠpÃŃsek": 8051,
      "ÄįenÃ¡": 8052,
      "ĠsilnÃ©": 8053,
      "Ġnepohnu": 8054,
      "ĠteplÃ©": 8055,
      "Ġpolibky": 8056,
      "ĠnejdraÅ¾Å¡ÃŃ": 8057,
      "ĠudÃ¡": 8058,
      "ĠniÄįem": 8059,
      "ĠdÃŃtek": 8060,
      "Ġhromy": 8061,
      "ĠtrnÃŃ": 8062,
      "bÃ¡n": 8063,
      "ĠhlubinÃ¡ch": 8064,
      "ĠdrobnÃ½ch": 8065,
      "ĠzaÅ¡u": 8066,
      "ĠsbÃŃrÃ¡": 8067,
      "Ġpodu": 8068,
      "ĠnahÃ¡": 8069,
      "Ġtichem": 8070,
      "Ġodve": 8071,
      "ĠkvÄĽte": 8072,
      "ĠpohnutÃŃ": 8073,
      "Ġmrav": 8074,
      "Ġhmy": 8075,
      "ĠÃ¡jÃŃ": 8076,
      "ĠnÄĽz": 8077,
      "Ġskou": 8078,
      "ĠpraÅ¾": 8079,
      "ĠpÅĻÃŃsnÃ½": 8080,
      "ĠmÃŃÅĻÃŃ": 8081,
      "ĠtÃ¡hla": 8082,
      "chajÃŃ": 8083,
      "ĠjarÃ½": 8084,
      "ĠhedbÃ¡": 8085,
      "clo": 8086,
      "hej": 8087,
      "pka": 8088,
      "Ġutk": 8089,
      "ĠveÄı": 8090,
      "Ġbudeme": 8091,
      "Ġpodal": 8092,
      "ĠdobÃ¡ch": 8093,
      "ĠshlÃ©": 8094,
      "ĠÅ¾havÃ¡": 8095,
      "Ġkameny": 8096,
      "ĠhojnÄĽ": 8097,
      "ĠskvÄĽlÃ½": 8098,
      "ĠsluneÄįnÃŃ": 8099,
      "ĠverÅ¡Å¯": 8100,
      "vnitÅĻ": 8101,
      "lÃ¡ch": 8102,
      "ĠÃ¡di": 8103,
      "Ġprokla": 8104,
      "ĠvyÄįÃŃ": 8105,
      "Ġske": 8106,
      "Ġsig": 8107,
      "ĠdobrÃ½m": 8108,
      "Ġleskne": 8109,
      "ĠstvoÅĻil": 8110,
      "Ġuvad": 8111,
      "Ġcou": 8112,
      "ĠÄĽdÃŃ": 8113,
      "ĠtulÃŃ": 8114,
      "ĠrozvÃŃ": 8115,
      "ĠpaÅ¾e": 8116,
      "ĠdÄĽlo": 8117,
      "ĠzloÄįin": 8118,
      "ĠdÃŃvko": 8119,
      "Ġstatky": 8120,
      "ĠÄįtenÃ¡": 8121,
      "Ġvrchol": 8122,
      "ĠvzlÃ©t": 8123,
      "ĠvÄĽd": 8124,
      "ĠdÃŃlu": 8125,
      "Ġreka": 8126,
      "ĠcÃŃtit": 8127,
      "Ġzloby": 8128,
      "ĠÅĻÃ¡s": 8129,
      "Ġuply": 8130,
      "Ġkniha": 8131,
      "Ġrozply": 8132,
      "ĠzaÄįne": 8133,
      "Ġsboru": 8134,
      "XXAA": 8135,
      "ĠnachÃ½": 8136,
      "naje": 8137,
      "kosti": 8138,
      "Ġrez": 8139,
      "Ġpropu": 8140,
      "vÄĽtÅĻÃŃ": 8141,
      "ĠbezdÄĽ": 8142,
      "ĠklidnÃ©": 8143,
      "ĠĠĠĊ": 8144,
      "ĠumÅĻÃŃt": 8145,
      "ĠpÅĻijÄı": 8146,
      "ĠzbabÄĽ": 8147,
      "ĠsÅĪat": 8148,
      "Ġznik": 8149,
      "ĠasÃŃ": 8150,
      "Ġudat": 8151,
      "vÃ¡no": 8152,
      "Å¥Ã¡": 8153,
      "Ġrozkaz": 8154,
      "Ġnovo": 8155,
      "ĠmÃ¡ji": 8156,
      "ĠpÅĻedkÅ¯": 8157,
      "Ġchudi": 8158,
      "ĠpustÃ¡": 8159,
      "Ġtvojich": 8160,
      "Ġgar": 8161,
      "ĠstÄĽÅ¾ÃŃ": 8162,
      "Ġplamenem": 8163,
      "ĠmÄĽsÃŃci": 8164,
      "ĠslouÅ¾ÃŃ": 8165,
      "Ġzbyla": 8166,
      "ĠspanilÃ¡": 8167,
      "Å¾no": 8168,
      "ĠnedÅ¯": 8169,
      "ĠerÃ¡": 8170,
      "voÅĻÃŃ": 8171,
      "ĠÅ¡ek": 8172,
      "Ġsluchu": 8173,
      "ĠnÃŃt": 8174,
      "ĠvÃ½so": 8175,
      "ĠdÃ¡lnÃ½ch": 8176,
      "Ġvlk": 8177,
      "ĠkÅĻÃŃdlech": 8178,
      "ĠpÃ½chou": 8179,
      "ĠsnoubÃŃ": 8180,
      "leÅ¥": 8181,
      "vÃ¡me": 8182,
      "XAAX": 8183,
      "Ġjina": 8184,
      "Ġmozku": 8185,
      "ĠvÄĽdÄĽt": 8186,
      "Ġstanu": 8187,
      "Ġpospo": 8188,
      "trp": 8189,
      "ĠbÄĽs": 8190,
      "ĠÅĻekni": 8191,
      "ĠnevrÃ¡tÃŃ": 8192,
      "Ġbledne": 8193,
      "ctvo": 8194,
      "Ġkapit": 8195,
      "Ġvizte": 8196,
      "ĠvzplÃ¡l": 8197,
      "ĠchuÄıas": 8198,
      "mrt": 8199,
      "pÅĻi": 8200,
      "ĠneÄįi": 8201,
      "Ġjelen": 8202,
      "Ġnastal": 8203,
      "ĠÅ¾ky": 8204,
      "Ġtakou": 8205,
      "ĠnÄĽhu": 8206,
      "ĠdÃŃvat": 8207,
      "Ġanti": 8208,
      "ĠnÃ¡rodnÃŃ": 8209,
      "Ġpaty": 8210,
      "ĠveselÃ©": 8211,
      "ĠÅ¡Å¥astni": 8212,
      "Ġchrab": 8213,
      "ĠkoÅĻeny": 8214,
      "Ġsata": 8215,
      "Ã©l": 8216,
      "ĠdbÃ¡": 8217,
      "Ġdmou": 8218,
      "tiÅ¾": 8219,
      "ĠrubÃ¡": 8220,
      "Å¡ilo": 8221,
      "Ġstrast": 8222,
      "ĠsvÄĽÅ¾e": 8223,
      "ĠsmÃ¡t": 8224,
      "ĠÄįÃ¡st": 8225,
      "ĠrÅ¯Å¾ovÃ©": 8226,
      "dnÃ©ho": 8227,
      "Ġchar": 8228,
      "ĠkomÃŃ": 8229,
      "ĠmilÃ©ho": 8230,
      "ĠsnÄĽtÃŃ": 8231,
      "ĠptÃ¡Äįek": 8232,
      "ĠbojÅ¯": 8233,
      "skot": 8234,
      "Ġnedba": 8235,
      "ĠpÅĻemy": 8236,
      "ĠvÄįely": 8237,
      "star": 8238,
      "ĠzaÅ¡la": 8239,
      "ĠkoÅĻÃŃ": 8240,
      "Ġvypo": 8241,
      "ĠpÅĻeko": 8242,
      "ĠvÃŃla": 8243,
      "ĠvÃ¡hÃ¡": 8244,
      "ĠslunÃ©": 8245,
      "ĠzpÃŃvajÃŃ": 8246,
      "AXABCB": 8247,
      "ĠzrÃ¡dce": 8248,
      "ĠdÄĽlat": 8249,
      "ĠrudÃ½m": 8250,
      "!!": 8251,
      "vaÅ¥": 8252,
      "Ġodk": 8253,
      "Ġrada": 8254,
      "pajÃŃ": 8255,
      "jdeÅ¡": 8256,
      "Ġzvukem": 8257,
      "Ġneur": 8258,
      "Ġzraje": 8259,
      "Ġblouzni": 8260,
      "volnÄĽ": 8261,
      "gen": 8262,
      "Ġpnou": 8263,
      "ĠnkÅ¯": 8264,
      "ĠvztÃ½": 8265,
      "Ġboky": 8266,
      "Ġdivou": 8267,
      "Ġresi": 8268,
      "ĠbÄĽlou": 8269,
      "Ġsamy": 8270,
      "Ġokovy": 8271,
      "ĠbrÃ¡nu": 8272,
      "ĠpoÅ¾ehna": 8273,
      "Ġchasa": 8274,
      "br": 8275,
      "pku": 8276,
      "Ġzadr": 8277,
      "ĠÄįna": 8278,
      "Ġdor": 8279,
      "Ġtor": 8280,
      "ĠÃŃzy": 8281,
      "Ġvyv": 8282,
      "Ġmozek": 8283,
      "ĠvÄĽdomÃŃ": 8284,
      "ĠfrÃ¡": 8285,
      "ĠsterÃ©": 8286,
      "penÃ©": 8287,
      "Ġskryl": 8288,
      "AAABB": 8289,
      "ĠvznÃ¡Å¡e": 8290,
      "danÃ©": 8291,
      "Ġlom": 8292,
      "ĠtÅĻesk": 8293,
      "ĠvlÃŃdnÃ½": 8294,
      "ĠvstaÅĪ": 8295,
      "bÅ¡ÃŃ": 8296,
      "mÃ¡m": 8297,
      "Ġzva": 8298,
      "vami": 8299,
      "Ġprose": 8300,
      "nuje": 8301,
      "Äįinou": 8302,
      "Ġtahy": 8303,
      "ĠstaletÃŃ": 8304,
      "prve": 8305,
      "ĠmyslÃŃÅ¡": 8306,
      "Ġhloubky": 8307,
      "ĠkolÃ©bky": 8308,
      "ĠnebezpeÄįÃŃ": 8309,
      "prÃ¡": 8310,
      "pne": 8311,
      "Ġschy": 8312,
      "Ġzava": 8313,
      "ĠÄĽhy": 8314,
      "ĠvÄĽjÃŃ": 8315,
      "ĠÅ¾ivou": 8316,
      "Ġskrov": 8317,
      "ĠmÃ¡l": 8318,
      "Ġprale": 8319,
      "Ġsynem": 8320,
      "ĠpoÄįkej": 8321,
      "ĠjakÃ¡s": 8322,
      "slem": 8323,
      "ĠÃ¡tu": 8324,
      "ĠvidÄĽli": 8325,
      "Ġposlech": 8326,
      "Ġdivnou": 8327,
      "ĠhlÃŃdÃ¡": 8328,
      "Ġholubice": 8329,
      "ĠidÃ©": 8330,
      "Ġevu": 8331,
      "ĠholÃ¡": 8332,
      "ĠmÃŃjÃŃ": 8333,
      "Ġdivem": 8334,
      "bilo": 8335,
      "Ġlud": 8336,
      "Ġhrady": 8337,
      "Å¡enÃ½ch": 8338,
      "Ġpadlo": 8339,
      "ĠjedenkrÃ¡t": 8340,
      "ĠoblakÅ¯": 8341,
      "Ġmrzu": 8342,
      "ĠnemÃ¡Å¡": 8343,
      "Ġnevinnosti": 8344,
      "Ġchvatem": 8345,
      "rÃ½mi": 8346,
      "ĠslÃ©t": 8347,
      "Ġaf": 8348,
      "Ġave": 8349,
      "Ġneda": 8350,
      "Ġjedu": 8351,
      "ĠetÅ¯": 8352,
      "ĠÃ¡ku": 8353,
      "Ġlest": 8354,
      "ĠÄĽho": 8355,
      "kÃ¡zal": 8356,
      "ĠÄįej": 8357,
      "talo": 8358,
      "ĠkrajÅ¯": 8359,
      "ĠchvÃ¡lÃŃ": 8360,
      "rozenÃŃ": 8361,
      "Ġtrysk": 8362,
      "ĠnajdeÅ¡": 8363,
      "ĠvzrÅ¯stÃ¡": 8364,
      "ABBCDD": 8365,
      "Ġvzadu": 8366,
      "arÃ¡": 8367,
      "Ġvs": 8368,
      "Ġkoj": 8369,
      "Ġnemi": 8370,
      "Ġchoti": 8371,
      "Ġvraha": 8372,
      "ĠdivÃ½m": 8373,
      "ĠloupeÅ¾": 8374,
      "ĠdÅ¯kaz": 8375,
      "ĠzÃ¡vod": 8376,
      "ĠplachÃ©": 8377,
      "Ġudiven": 8378,
      "ĠsbÄĽ": 8379,
      "Ġpsi": 8380,
      "Ġmami": 8381,
      "Ġivo": 8382,
      "ĠveÅ¡la": 8383,
      "ÄįÃŃÅ¡": 8384,
      "Ġpacho": 8385,
      "ĠÅĻeku": 8386,
      "ĠhroznÄĽ": 8387,
      "Ġsoudce": 8388,
      "ĠemÃ¡": 8389,
      "ĠtichÃ½ch": 8390,
      "ĠhrÃ¡la": 8391,
      "Ġnemohou": 8392,
      "ĠvÅĻele": 8393,
      "Ġkriste": 8394,
      "Ġkvas": 8395,
      "Ġrozvi": 8396,
      "Ġlije": 8397,
      "ĠÄįisto": 8398,
      "Ġvous": 8399,
      "ĠkeÅĻi": 8400,
      "Ġopil": 8401,
      "Ġzmatek": 8402,
      "pak": 8403,
      "Ġsmilo": 8404,
      "ĠmÅ¡i": 8405,
      "lali": 8406,
      "ĠÃ¡mÄĽ": 8407,
      "Ġleck": 8408,
      "dÄĽje": 8409,
      "Ġrozhod": 8410,
      "vejte": 8411,
      "ĠzeÅĪ": 8412,
      "Ġdivu": 8413,
      "ĠplnÃ©m": 8414,
      "ĠvÅ¯lÃŃ": 8415,
      "ĠpukÃ¡": 8416,
      "ĠmodrÃ½m": 8417,
      "ĠÄįlovÄĽÄįen": 8418,
      "ĠjednotvÃ¡": 8419,
      "ĠzulÃŃ": 8420,
      "Ġnekli": 8421,
      "ĠstejnÃ©": 8422,
      "ĠzÃ¡vist": 8423,
      "ĠvojÃ¡k": 8424,
      "ĠuÅ¡lechtil": 8425,
      "hrÃ¡": 8426,
      "chan": 8427,
      "Ġpronika": 8428,
      "ĠÅ¡ed": 8429,
      "ĠkaÅ¾di": 8430,
      "ĠchutÄĽ": 8431,
      "ĠsÃŃnÃŃ": 8432,
      "Ġzvedne": 8433,
      "ĠzkamenÄĽ": 8434,
      "Ġsestro": 8435,
      "ĠnÃ©st": 8436,
      "ĠtlÃŃ": 8437,
      "ĠÃ¡lÃ¡": 8438,
      "Ġrodnou": 8439,
      "Ġobsa": 8440,
      "ĠtiÅ¡i": 8441,
      "Ġstavu": 8442,
      "Ġslunka": 8443,
      "ĠstraÅ¡nÄĽ": 8444,
      "ĠcizÃ¡": 8445,
      "Ġrakvi": 8446,
      "ĠvÅĻelÃ©": 8447,
      "ĠvdÄĽÄįnÄĽ": 8448,
      "Ġtci": 8449,
      "ĠoÄįÃŃm": 8450,
      "Ġponu": 8451,
      "ĠurÃ¡": 8452,
      "ĠzaznÄĽl": 8453,
      "Ġvydal": 8454,
      "ĠnÄĽhou": 8455,
      "stoupÃŃ": 8456,
      "ĠstÅĻely": 8457,
      "ĠspÃŃnÃ¡": 8458,
      "Ġrostla": 8459,
      "ĠtkvÃŃ": 8460,
      "cÃ©": 8461,
      "leti": 8462,
      "Ġneve": 8463,
      "nesla": 8464,
      "ĠrojÃŃ": 8465,
      "ĠskÅ¯": 8466,
      "ĠprÃ¡vu": 8467,
      "ĠpÄĽvec": 8468,
      "ĠsÃŃtÃŃ": 8469,
      "Ġmrtvou": 8470,
      "ĠÃ½ma": 8471,
      "hlÃ½ch": 8472,
      "ĠpÅĻen": 8473,
      "lekÃ¡": 8474,
      "Ġtohle": 8475,
      "ĠvÄĽÄı": 8476,
      "XAXAXX": 8477,
      "ĠÃºko": 8478,
      "ĠpodÃ©l": 8479,
      "Ġbranou": 8480,
      "rii": 8481,
      "ĠÅ¡tÃŃty": 8482,
      "ĠvesmÃŃ": 8483,
      "ĠhrÅ¯zu": 8484,
      "Ġpostava": 8485,
      "ĠzvrÃ¡": 8486,
      "Ġpase": 8487,
      "Ġsje": 8488,
      "lostÃŃ": 8489,
      "Ġvzor": 8490,
      "ĠnÃŃtÃŃ": 8491,
      "Ġdoubra": 8492,
      "Ġzik": 8493,
      "ĠÅĻadÄĽ": 8494,
      "ana": 8495,
      "Ġtas": 8496,
      "ĠvÄĽÅĻil": 8497,
      "ĠskÅĻe": 8498,
      "ĠrÅ¯Å¾emi": 8499,
      "Ġohla": 8500,
      "ĠvÄĽÄįna": 8501,
      "ĠcÃŃtÃŃÅ¡": 8502,
      "ĠpÅĻÃŃÅ¡tÃŃch": 8503,
      "ĠchtÃŃt": 8504,
      "ĠkÅĻiÅ¡Å¥Ã¡": 8505,
      "ĠshromÃ¡": 8506,
      "ĠbnÃ©": 8507,
      "ĠÄįechÅ¯": 8508,
      "ĠohÅ¯": 8509,
      "Ġanto": 8510,
      "Ġstup": 8511,
      "Ġzmije": 8512,
      "nÄĽly": 8513,
      "ĠÃ¡kÃ¡": 8514,
      "ĠhodnÄĽ": 8515,
      "Ġobr": 8516,
      "dÃŃte": 8517,
      "ĠvÃŃsky": 8518,
      "Ġdin": 8519,
      "anÅ¯": 8520,
      "Ġsyt": 8521,
      "Ġkruhy": 8522,
      "ĠkÃ½s": 8523,
      "ĠadÅ¯": 8524,
      "ĠdÃ³": 8525,
      "Ġban": 8526,
      "rati": 8527,
      "livou": 8528,
      "vavÄĽ": 8529,
      "Ġnico": 8530,
      "Ġprin": 8531,
      "ledne": 8532,
      "Å¡enÄĽ": 8533,
      "ĠuÄįitel": 8534,
      "ĠtvÅ¯rÄįÃŃ": 8535,
      "22": 8536,
      "ur": 8537,
      "ĠetÄĽ": 8538,
      "tina": 8539,
      "ĠvÃŃt": 8540,
      "bych": 8541,
      "ĠbÃ¡zeÅĪ": 8542,
      "ĠÅ¯le": 8543,
      "Ġvedli": 8544,
      "ĠpalÄįi": 8545,
      "plnÃ©": 8546,
      "ĠokamÅ¾enÃŃ": 8547,
      "ĠkvapÃŃ": 8548,
      "ĠpÃ½chu": 8549,
      "ĠmilÃ½m": 8550,
      "Ġlucy": 8551,
      "ĠkÅĻiku": 8552,
      "ĠpyÅ¡nÃ½": 8553,
      "ĠzvÃŃÅĻ": 8554,
      "ĠvÅĻava": 8555,
      "ĠdomÃ¡cÃŃ": 8556,
      "Ġposa": 8557,
      "tÄĽjÅ¡ÃŃ": 8558,
      "Ġrozbit": 8559,
      "ĠvÃŃÅĻe": 8560,
      "ĠptÃ¡ky": 8561,
      "Ġvrouc": 8562,
      "ĠÅ¾lutÃ½": 8563,
      "Ġdokola": 8564,
      "Ġvadne": 8565,
      "ĠhoroucÃŃ": 8566,
      "AXAA": 8567,
      "Ġsan": 8568,
      "Ġesi": 8569,
      "ĠrozpÃ¡": 8570,
      "ĠÃºdÄĽl": 8571,
      "ĠlÃ¡d": 8572,
      "Ġyta": 8573,
      "ĠkvÄĽtin": 8574,
      "Ġfe": 8575,
      "ĠrybÃ¡": 8576,
      "Ġhranice": 8577,
      "ĠvÃŃtÄĽznÄĽ": 8578,
      "Ġknize": 8579,
      "brat": 8580,
      "ĠvÄĽzenÃŃ": 8581,
      "Ġskrze": 8582,
      "Ġhymnu": 8583,
      "Ġnecho": 8584,
      "ĠpÅĻivÃ¡": 8585,
      "ĠÅ¡edou": 8586,
      "Ġlod": 8587,
      "ĠsmÃŃm": 8588,
      "Ġdlouze": 8589,
      "ĠblÃŃzku": 8590,
      "Ġsrp": 8591,
      "ĠtÅĻÃ¡s": 8592,
      "smÃ¡": 8593,
      "ĠzlÃ½m": 8594,
      "XXAX": 8595,
      "skat": 8596,
      "Ġmuse": 8597,
      "ĠsnÄĽhy": 8598,
      "cÃŃmi": 8599,
      "ĠzaÅ¡lÃ©": 8600,
      "Ġkmeny": 8601,
      "ĠznamenÃ¡": 8602,
      "Ġuleh": 8603,
      "Ġuprch": 8604,
      "ĠÃ¡Å¡Å¥": 8605,
      "Ġrval": 8606,
      "Ġsprost": 8607,
      "Ġrab": 8608,
      "ĠhravÄĽ": 8609,
      "Ġvrab": 8610,
      "ĠsuchÃ½": 8611,
      "ĠdÅĻÃŃme": 8612,
      "Ġmocnou": 8613,
      "ĠdÃ¡me": 8614,
      "Ġzvedl": 8615,
      "ĠuÄįinil": 8616,
      "rnÃ©ho": 8617,
      "ĠsedÃŃm": 8618,
      "Ġunu": 8619,
      "ĠrvÃ¡": 8620,
      "Ġrovi": 8621,
      "Ġkynul": 8622,
      "ĠnaÅ¡im": 8623,
      "Ġpluh": 8624,
      "ĠdrÃ¡Å¾": 8625,
      "Ġotrok": 8626,
      "Ġoblohy": 8627,
      "ĠnenÃ¡vist": 8628,
      "ĠdeÅ¡tÄĽm": 8629,
      "ĠvnitÅĻnÃŃ": 8630,
      "ĠnÃ¡hodou": 8631,
      "mbu": 8632,
      "ĠnahÃ©": 8633,
      "ĠvyvÃ¡": 8634,
      "Ġduje": 8635,
      "ĠpouhÃ¡": 8636,
      "ĠchorÃ©": 8637,
      "cos": 8638,
      "ĠhvÄĽzdu": 8639,
      "Ġzbloudil": 8640,
      "ĠtÅĻÃŃÅ¡tÃŃ": 8641,
      "Ġlebky": 8642,
      "Ġloktech": 8643,
      "Ġneto": 8644,
      "nÃŃkem": 8645,
      "Ġzatra": 8646,
      "Ġrky": 8647,
      "ĠprostÄĽ": 8648,
      "Ġvycho": 8649,
      "ĠvzÅĪat": 8650,
      "Ġmini": 8651,
      "Ġprachem": 8652,
      "Ġtemnu": 8653,
      "Ġdalo": 8654,
      "ĠtÃ¡Å¾e": 8655,
      "ĠveÄįeru": 8656,
      "Ġzpra": 8657,
      "Ġhloupo": 8658,
      "Ġzmr": 8659,
      "ĠstÅĻÃŃbra": 8660,
      "AAXXBB": 8661,
      "bas": 8662,
      "rci": 8663,
      "ĠÃŃdÃŃ": 8664,
      "vetla": 8665,
      "Ġklek": 8666,
      "ĠdlouhÃ©m": 8667,
      "ĠpovÅ¾dy": 8668,
      "ĠvidÄĽti": 8669,
      "ĠodpovÃŃdÃ¡": 8670,
      "Ġpola": 8671,
      "ĠhostÃ©": 8672,
      "Ġkara": 8673,
      "douc": 8674,
      "Ġrys": 8675,
      "Ġkolkolem": 8676,
      "Ġhousle": 8677,
      "Ġklesne": 8678,
      "Ġchmury": 8679,
      "ĠlÅ¯na": 8680,
      "ĠzpomÃŃ": 8681,
      "nÄĽt": 8682,
      "ĠzaÅ¥": 8683,
      "ĠmÄĽs": 8684,
      "ĠmÃŃÅĪ": 8685,
      "Ġmraven": 8686,
      "ĠobracÃŃ": 8687,
      "ĠosvÃŃ": 8688,
      "Ġbarbar": 8689,
      "Ġhrdli": 8690,
      "ĠbohatstvÃŃ": 8691,
      "Ġosudem": 8692,
      "ĠvÅ¡echnÄĽch": 8693,
      "ĠuhÃ©": 8694,
      "ÅĻÃŃd": 8695,
      "nÃ©st": 8696,
      "ĠepÃ½": 8697,
      "ĠtÄĽsnÄĽ": 8698,
      "Ġnie": 8699,
      "Ġnesli": 8700,
      "ĠÄįasnÄĽ": 8701,
      "ĠhÅĻÃŃchem": 8702,
      "Ġvysch": 8703,
      "ĠbludnÃ©": 8704,
      "Ġpostav": 8705,
      "ĠvÄĽrnou": 8706,
      "ĠluznÃ©": 8707,
      "ĠncÅ¯": 8708,
      "ĠzmÃ¡": 8709,
      "emi": 8710,
      "ĠÄĽnu": 8711,
      "ĠvÅ¡ecek": 8712,
      "ĠÅ¡epot": 8713,
      "ĠhvÄĽzdnÃ½": 8714,
      "ĠchladnÃ¡": 8715,
      "Ġsnila": 8716,
      "ĠpÃ©ro": 8717,
      "ĠvlhkÃ©": 8718,
      "ĠzachvÄĽla": 8719,
      "Ġzapomenu": 8720,
      "ĠÄįkÃ¡": 8721,
      "vÃŃtÃ¡": 8722,
      "ĠpÃŃÅ¡Å¥": 8723,
      "ĠvalnÃ©": 8724,
      "Ġostrov": 8725,
      "ĠtajemnÃ½": 8726,
      "ĠvyklÃ¡": 8727,
      "plo": 8728,
      "sÅ¡ÃŃ": 8729,
      "ĠvÅĻel": 8730,
      "Ġuchy": 8731,
      "ĠihÃ¡": 8732,
      "dÄĽlo": 8733,
      "Ġtanec": 8734,
      "lenÃ½ch": 8735,
      "ĠdÄĽtskÃ½ch": 8736,
      "ĠjemnÃ½": 8737,
      "tÃŃme": 8738,
      "ĠÅ¾ÃŃznÃŃ": 8739,
      "Ġzelena": 8740,
      "Ġrozep": 8741,
      "Ġzvyku": 8742,
      "ĠpestrÃ½ch": 8743,
      "Ġrodiny": 8744,
      "chÃ¡zejÃŃ": 8745,
      "ĠvzpomnÄĽl": 8746,
      "Ġhrdina": 8747,
      "Ġvztekem": 8748,
      "ĠÄįervÃ¡nky": 8749,
      "Ġrtoma": 8750,
      "daly": 8751,
      "Äįata": 8752,
      "Ġel": 8753,
      "Ġrudou": 8754,
      "Ġkapra": 8755,
      "Ġvih": 8756,
      "Ġfu": 8757,
      "ĠkamarÃ¡": 8758,
      "Ġnepra": 8759,
      "ĠhvÄĽzdo": 8760,
      "Ġhynou": 8761,
      "Ġopojen": 8762,
      "ĠnadÅ¡enÃŃm": 8763,
      "ĠmatiÄįko": 8764,
      "ĠlabuÅ¥": 8765,
      "Ġzry": 8766,
      "ĠponÃŃ": 8767,
      "lÃ¡Å¡": 8768,
      "Ġhostem": 8769,
      "ĠtÄĽs": 8770,
      "Ġcet": 8771,
      "ĠyzÃŃ": 8772,
      "pÄĽnÃŃ": 8773,
      "Ġmeze": 8774,
      "ÅĻemen": 8775,
      "ĠnavÅ¡tÃŃ": 8776,
      "Ġnaproti": 8777,
      "uji": 8778,
      "Ġledu": 8779,
      "ĠÄĽkÃ¡": 8780,
      "ĠtuÅ¡il": 8781,
      "Äįeje": 8782,
      "ĠÅ¾ivÃ½ch": 8783,
      "Ġtaji": 8784,
      "ĠÃ½ÅĻÃŃ": 8785,
      "Ġkalu": 8786,
      "Ġtravou": 8787,
      "Ġsvoboda": 8788,
      "ĠdÄĽsnÃ¡": 8789,
      "Ġplachty": 8790,
      "ĠkrÅ¯pÄĽje": 8791,
      "ĠvpÅĻed": 8792,
      "ĠchudÃ¡k": 8793,
      "ble": 8794,
      "blou": 8795,
      "ĠvchÃ¡zÃŃ": 8796,
      "Ġzte": 8797,
      "Ġmoder": 8798,
      "ĠvÄĽsÃŃ": 8799,
      "ĠnÃ¡bo": 8800,
      "ĠÅ¾ivÄĽ": 8801,
      "Ġskvo": 8802,
      "ĠpÃ¡du": 8803,
      "ĠveÄįerem": 8804,
      "Ġpoklo": 8805,
      "ĠchladnÄĽ": 8806,
      "ĠhledÄĽt": 8807,
      "ĠbrÃ¡t": 8808,
      "ĠhoÅĻce": 8809,
      "ĠpolnÃŃ": 8810,
      "ĠnÃŃzkÃ©": 8811,
      "Ġkas": 8812,
      "Ġkvil": 8813,
      "Ġposk": 8814,
      "Ġsvla": 8815,
      "Ġleje": 8816,
      "Ġrozs": 8817,
      "ĠberÃ¡": 8818,
      "ĠskoÄįil": 8819,
      "Ġtrub": 8820,
      "ĠboÅ¾skÃ½": 8821,
      "Ġhovoru": 8822,
      "Ġklenu": 8823,
      "Ġzamra": 8824,
      "ĠmatiÄįka": 8825,
      "ĠpsÃ¡no": 8826,
      "Ġopa": 8827,
      "ent": 8828,
      "ĠÃ¡ta": 8829,
      "ĠpÅĻivi": 8830,
      "ĠpÅĻiÅ¡ly": 8831,
      "Ġplav": 8832,
      "Ġdere": 8833,
      "ĠtÃŃÅ¾e": 8834,
      "ĠpovÃŃm": 8835,
      "Ġsamoty": 8836,
      "ĠkonÄįÃŃ": 8837,
      "AXBBCD": 8838,
      "ĠnekoneÄįnÃ©": 8839,
      "ĠleknÃŃ": 8840,
      "ĠhÅ¯ry": 8841,
      "lce": 8842,
      "par": 8843,
      "Ġoc": 8844,
      "ĠnetÅĻe": 8845,
      "ĠÃŃni": 8846,
      "dovi": 8847,
      "ver": 8848,
      "Ġdvora": 8849,
      "ĠspatÅĻÃŃ": 8850,
      "ĠuboÅ¾Ã¡": 8851,
      "Ġmodlitby": 8852,
      "rmu": 8853,
      "ĠslÃ©": 8854,
      "ĠÃ¡lÅ¯": 8855,
      "Ġveta": 8856,
      "ĠrÅ¾ÃŃ": 8857,
      "ĠrudÃ½ch": 8858,
      "ĠsvÄĽto": 8859,
      "Ġlada": 8860,
      "ĠbÃ¡seÅĪ": 8861,
      "ĠstÅĻechu": 8862,
      "ĠjedinÄĽ": 8863,
      "ĠzvÄĽsti": 8864,
      "ĠmÄĽkkÃ¡": 8865,
      "ĠblaÅ¾enosti": 8866,
      "ĠnÃ¡vÅ¡tÄĽ": 8867,
      "ĠsmyslÅ¯": 8868,
      "pt": 8869,
      "paly": 8870,
      "nÄĽnÃ¡": 8871,
      "ĠctÄĽ": 8872,
      "Ġjene": 8873,
      "ĠvztÃ¡": 8874,
      "Ġmistra": 8875,
      "Ġston": 8876,
      "Ġmedu": 8877,
      "ĠdeÅ¡Å¥": 8878,
      "ĠhustÃ½": 8879,
      "ĠrÅ¯Å¾en": 8880,
      "Ġpohla": 8881,
      "ĠpoznÃ¡nÃŃ": 8882,
      "Ġpochod": 8883,
      "ĠzÅ¯stane": 8884,
      "Ġfiloso": 8885,
      "ĠokÃ½": 8886,
      "rag": 8887,
      "ĠÅ¾ol": 8888,
      "Ġtone": 8889,
      "Ġcka": 8890,
      "nalo": 8891,
      "ĠÃŃdu": 8892,
      "Ġrum": 8893,
      "ĠchutÃŃ": 8894,
      "ĠostrÃ©": 8895,
      "zujÃŃ": 8896,
      "ĠhÅĻeje": 8897,
      "Ġnna": 8898,
      "ĠdkÃ¡": 8899,
      "vajÃŃcÃŃ": 8900,
      "Ġrmo": 8901,
      "Ġstatek": 8902,
      "Ġzmaten": 8903,
      "Ġnejsme": 8904,
      "Ġamo": 8905,
      "ĠpoÄįe": 8906,
      "ĠnedÄĽli": 8907,
      "Ġrny": 8908,
      "ĠvyÅĻ": 8909,
      "Ġvyno": 8910,
      "Ġbudo": 8911,
      "ĠpÄĽj": 8912,
      "ĠsmÄĽlÃ©": 8913,
      "ĠkÅĻikem": 8914,
      "Ġzkro": 8915,
      "ĠmdlÃ¡": 8916,
      "Ġpovzdech": 8917,
      "Ġtvar": 8918,
      "ĠnejvÃŃce": 8919,
      "ĠÅ¡klebÃŃ": 8920,
      "Ġmilosrd": 8921,
      "bnÃ½ch": 8922,
      "ĠmnÃ½": 8923,
      "ĠnamÃ¡": 8924,
      "Ġdomek": 8925,
      "Ġmon": 8926,
      "ĠvzhlÃ©": 8927,
      "Å¡enÃŃm": 8928,
      "ĠtÃ©mÄĽÅĻ": 8929,
      "Ġrenald": 8930,
      "ĠaÅĻi": 8931,
      "raÅ¾en": 8932,
      "ĠjeÅ¾ÃŃÅ¡": 8933,
      "Ġeva": 8934,
      "ĠdoÅ¡el": 8935,
      "ĠpravÄĽ": 8936,
      "ĠhluÄįnÄĽ": 8937,
      "ĠtrpÄĽl": 8938,
      "Ġsmutkem": 8939,
      "Ġpadal": 8940,
      "ĠzavÅĻel": 8941,
      "ĠbujnÄĽ": 8942,
      "Ġkladou": 8943,
      "ĠpoÄįÃŃnÃ¡": 8944,
      "Ġresigna": 8945,
      "ÄįnÃ©ho": 8946,
      "ĠdÃŃvek": 8947,
      "hÃ¡Äį": 8948,
      "ĠtouÅ¾e": 8949,
      "ĠvelkÃ©m": 8950,
      "zoval": 8951,
      "Ġzvedla": 8952,
      "Ġsouzvuk": 8953,
      "Ġpso": 8954,
      "ĠmstÃŃ": 8955,
      "vajÃŃc": 8956,
      "ĠleÅ¾e": 8957,
      "Ġobna": 8958,
      "ĠÃºbÄĽ": 8959,
      "pÃ¡ch": 8960,
      "ĠÅ¡ÃŃpy": 8961,
      "Ġtrudu": 8962,
      "ĠznÃ¡me": 8963,
      "ĠblÃ¡z": 8964,
      "Ġhospodin": 8965,
      "ĠtÃ½den": 8966,
      "ĠubohÃ¡": 8967,
      "Ġrozkvet": 8968,
      "Ġnaro": 8969,
      "Ġzask": 8970,
      "Ġzapu": 8971,
      "Ġvyjas": 8972,
      "ĠniÄįeho": 8973,
      "ĠnÄĽha": 8974,
      "ĠlouÄįÃŃ": 8975,
      "ĠvolnÃ©": 8976,
      "Ġmodlitbou": 8977,
      "ĠmÃ¡jo": 8978,
      "Ġnesa": 8979,
      "ĠustÃ¡nÃŃ": 8980,
      "Ġdoved": 8981,
      "Ġmoj": 8982,
      "taje": 8983,
      "ĠÃºle": 8984,
      "ĠvÄĽtev": 8985,
      "ĠsvojÃŃm": 8986,
      "ĠdrazÃŃ": 8987,
      "ĠchorÃ½": 8988,
      "Ġmodli": 8989,
      "ĠdÄĽtskÃ½": 8990,
      "ĠsnÄĽm": 8991,
      "zali": 8992,
      "ĠstrÃ¡ÅĪ": 8993,
      "benÃ½": 8994,
      "ĠÃŃmÄĽ": 8995,
      "ĠtvÅ¯rce": 8996,
      "ĠzvÄĽt": 8997,
      "Ġab": 8998,
      "Ġdosa": 8999,
      "ĠÄįekajÃŃ": 9000,
      "zela": 9001,
      "ĠstÃ¡lÃ½": 9002,
      "ĠvÃ½stra": 9003,
      "ĠspoÄįi": 9004,
      "Ġzjevy": 9005,
      "ĠprÃ½Å¡tÃŃ": 9006,
      "ĠpojÄıte": 9007,
      "ĠÅĻik": 9008,
      "ĠarÅ¯": 9009,
      "Ġmhou": 9010,
      "Ġim": 9011,
      "Ġelu": 9012,
      "Ġduhy": 9013,
      "ĠmÃ¡lem": 9014,
      "ĠtouÅ¾ÃŃm": 9015,
      "ĠpÅ¯da": 9016,
      "ĠdceÅĻi": 9017,
      "ĠvÃ¡Å¾nÃ©": 9018,
      "ĠkvÃ©sti": 9019,
      "ĠkolikrÃ¡t": 9020,
      "pÅĻe": 9021,
      "ABXC": 9022,
      "ĠÃŃÅ¾i": 9023,
      "Å¾ejÃŃ": 9024,
      "Ġmag": 9025,
      "Ġobrazem": 9026,
      "ĠknÄĽze": 9027,
      "ĠÄįekat": 9028,
      "gie": 9029,
      "Ġhotov": 9030,
      "jit": 9031,
      "Å¡kÃ¡": 9032,
      "Ġdam": 9033,
      "Ġpoo": 9034,
      "ĠÅ¾nÃ½": 9035,
      "ĠÅ¾ka": 9036,
      "nÃ¡ÅĻ": 9037,
      "Ġhodo": 9038,
      "Ġvzma": 9039,
      "dÄĽlÃ¡": 9040,
      "ĠvÃŃly": 9041,
      "ĠnocÃŃch": 9042,
      "Ġkadi": 9043,
      "Ġpodla": 9044,
      "Ġsype": 9045,
      "Ġchoro": 9046,
      "Äįenou": 9047,
      "ĠÄįÃŃhÃ¡": 9048,
      "ĠÅ¡Å¥Ã¡": 9049,
      "ĠpÅ¯jdem": 9050,
      "ĠosamÄĽlÃ½": 9051,
      "Ġadam": 9052,
      "kly": 9053,
      "the": 9054,
      "ĠopÄĽ": 9055,
      "dan": 9056,
      "ĠnÃ¡pad": 9057,
      "ĠhlavnÃŃ": 9058,
      "ĠpÅĻÃŃbu": 9059,
      "Ġvladi": 9060,
      "Ġvrata": 9061,
      "ĠandÄĽla": 9062,
      "ĠstrÃ¡Å¾e": 9063,
      "Ġzora": 9064,
      "nÄĽjÅ¡ÃŃch": 9065,
      "ĠlehkÃ©": 9066,
      "ĠtluÄįe": 9067,
      "ĠchvÃ¡la": 9068,
      "ĠpÅĻÃŃrodÄĽ": 9069,
      "ĠzÅ¯staÅĪ": 9070,
      "ĠÅ¡ÃŃlenstvÃŃ": 9071,
      "tnÃ½m": 9072,
      "Ġnaj": 9073,
      "Ġodpou": 9074,
      "Ġyni": 9075,
      "ĠdobÅĻÃŃ": 9076,
      "ĠdajÃŃ": 9077,
      "ĠsamÃ¡": 9078,
      "ĠpÃŃsmo": 9079,
      "Äįkami": 9080,
      "ĠschÅ¯": 9081,
      "Ġmilence": 9082,
      "Ġspravedl": 9083,
      "chvat": 9084,
      "cejÃŃ": 9085,
      "ĠchlÃ¡": 9086,
      "atou": 9087,
      "voru": 9088,
      "ĠvÄĽje": 9089,
      "ĠÅ¾id": 9090,
      "Ġkre": 9091,
      "Ġkrej": 9092,
      "ĠkeÅĻe": 9093,
      "Ġoknech": 9094,
      "zena": 9095,
      "Ġstesku": 9096,
      "ĠkvÃŃtky": 9097,
      "Ġused": 9098,
      "ĠkvÃ©st": 9099,
      "ĠneustÃ¡le": 9100,
      "Ġury": 9101,
      "ĠikÃ½": 9102,
      "ĠÅ¡pÃŃ": 9103,
      "lout": 9104,
      "ĠplazÃŃ": 9105,
      "Ġmodrou": 9106,
      "Ġstudu": 9107,
      "ĠhrÅ¯ze": 9108,
      "ĠtajnÃ½": 9109,
      "ĠskvÄĽlÃ©": 9110,
      "ĠÅ¾alosti": 9111,
      "Ġsmarag": 9112,
      "ĠpÃ½chy": 9113,
      "ckÃ©m": 9114,
      "Ġvho": 9115,
      "Ġtle": 9116,
      "Ġvic": 9117,
      "ĠdobrÃ©ho": 9118,
      "ĠsvornÄĽ": 9119,
      "Ġsyl": 9120,
      "Ġchoval": 9121,
      "ĠmlÄįel": 9122,
      "Ġang": 9123,
      "ĠhrdÃ¡": 9124,
      "Ġkostel": 9125,
      "ĠkadeÅĻ": 9126,
      "Ġvky": 9127,
      "teÄįnÄĽ": 9128,
      "Äįiv": 9129,
      "ĠÅĻekou": 9130,
      "Ġonde": 9131,
      "Ġmrtva": 9132,
      "coval": 9133,
      "Ġzmlk": 9134,
      "plnÃ½": 9135,
      "vrh": 9136,
      "ĠsklonÃŃ": 9137,
      "Ġptactvo": 9138,
      "Ġzvykem": 9139,
      "ĠkvetoucÃŃ": 9140,
      "ĠlÅ¯Å¾ku": 9141,
      "ĠÅ¾alÃ¡ÅĻ": 9142,
      "ĠstÅ¯nÄĽ": 9143,
      "ĠnetopÃ½": 9144,
      "ĠpÅ¡en": 9145,
      "ĠotÃŃ": 9146,
      "Ġzabu": 9147,
      "ĠhoÅĻel": 9148,
      "ĠnÃ¡do": 9149,
      "ĠbujÃŃ": 9150,
      "ĠhromÅ¯": 9151,
      "ĠÄįili": 9152,
      "Ġkoutku": 9153,
      "ĠpospÄĽ": 9154,
      "tÃ©Å¾": 9155,
      "ĠÅ¯nu": 9156,
      "ĠÅ¯Å¾ÃŃ": 9157,
      "Ġoknu": 9158,
      "Ġokolo": 9159,
      "ĠdÅ¯l": 9160,
      "Ġprosby": 9161,
      "Ġdomova": 9162,
      "Ġstarosti": 9163,
      "hdy": 9164,
      "mar": 9165,
      "Å¡nou": 9166,
      "Ġposko": 9167,
      "Ġepi": 9168,
      "Ġduhu": 9169,
      "ĠvÄĽdo": 9170,
      "ĠnÃ¡pÄĽ": 9171,
      "ĠniÄįÃŃ": 9172,
      "ĠlÃ¡ny": 9173,
      "ĠpÅĻÃŃjem": 9174,
      "Ġpustou": 9175,
      "Ġglo": 9176,
      "ĠchÃ¡pe": 9177,
      "ĠdruhÃ©ho": 9178,
      "ĠtÃ¡hly": 9179,
      "ĠzuÅĻÃŃ": 9180,
      "ĠvÃŃtÄĽznÃ½": 9181,
      "jatÃ©": 9182,
      "ĠnÄĽÅ¾nÄĽ": 9183,
      "ĠmladÃŃk": 9184,
      "Ġvni": 9185,
      "Ġdan": 9186,
      "ĠseÅ¡li": 9187,
      "ĠuÅĻi": 9188,
      "ĠzajÃ¡": 9189,
      "ĠobilÃŃ": 9190,
      "ĠslunÃŃ": 9191,
      "Ġjedle": 9192,
      "Ġlon": 9193,
      "Ġhude": 9194,
      "ĠtÃŃsni": 9195,
      "Ġdomovu": 9196,
      "ĠstrÃ¡Å¾ce": 9197,
      "ĠÅ¡tÄĽt": 9198,
      "Ġjinam": 9199,
      "ĠtotiÅ¾": 9200,
      "kan": 9201,
      "Ġtyra": 9202,
      "ĠceliÄį": 9203,
      "silo": 9204,
      "Ġsokol": 9205,
      "Ġlum": 9206,
      "tri": 9207,
      "ĠtrvÃ¡": 9208,
      "ĠdÄĽtmi": 9209,
      "ĠrozkoÅ¡i": 9210,
      "ĠvÄĽrnÃ½ch": 9211,
      "Ġbalvany": 9212,
      "raly": 9213,
      "Ġrvou": 9214,
      "Äįelo": 9215,
      "ĠÅ¾ivÃ½m": 9216,
      "Ġkusy": 9217,
      "skÃ¡ch": 9218,
      "Ġnemohl": 9219,
      "ĠsnÃŃm": 9220,
      "ĠpotÅ¯": 9221,
      "Ġrosu": 9222,
      "ĠpÅĻej": 9223,
      "ĠnÃ¡la": 9224,
      "ĠytÄĽ": 9225,
      "biti": 9226,
      "Ġouzko": 9227,
      "Ġzml": 9228,
      "Ġshnil": 9229,
      "ĠnimiÅ¾": 9230,
      "Ġdlel": 9231,
      "ĠnevinnÃ©": 9232,
      "ĠpsÃ¡t": 9233,
      "pej": 9234,
      "Ġnesk": 9235,
      "ruÅ¡ÃŃ": 9236,
      "tivÄĽ": 9237,
      "ĠpromÄĽnÃŃ": 9238,
      "Ġrozev": 9239,
      "ĠdÃ¡na": 9240,
      "ĠkrÃ¡ÄįÃŃm": 9241,
      "ĠbÃŃdnÄĽ": 9242,
      "ĠnezmÄĽ": 9243,
      "chÃ¡zÃŃm": 9244,
      "Ġmnohem": 9245,
      "ÄįenÃ½ch": 9246,
      "ĠzlobÄĽ": 9247,
      "ĠpyÅ¡nÃ©": 9248,
      "ĠzoufalÃ½": 9249,
      "zkou": 9250,
      "XXXA": 9251,
      "Ġpoti": 9252,
      "ĠÃºÄį": 9253,
      "Ġjedni": 9254,
      "Ġzvonek": 9255,
      "stÃ¡r": 9256,
      "ĠkvÃŃtko": 9257,
      "ĠveselÃ¡": 9258,
      "ĠradÅ¡": 9259,
      "Ġpasu": 9260,
      "ĠumÃŃrÃ¡nÃŃ": 9261,
      "Ġillu": 9262,
      "Ġtriumf": 9263,
      "ĠnejdÅĻÃŃv": 9264,
      "ĠpsÃŃ": 9265,
      "ĠoÅĻ": 9266,
      "ĠpoÅ¾ÃŃ": 9267,
      "jetÃŃ": 9268,
      "Ġpropas": 9269,
      "ĠnÃ¡val": 9270,
      "Ġlite": 9271,
      "stili": 9272,
      "Ġpara": 9273,
      "Ġvlak": 9274,
      "ĠbÃ¡zni": 9275,
      "Ġberou": 9276,
      "Ġmyslit": 9277,
      "ĠspÃ¡sa": 9278,
      "ĠvrÃ¡tit": 9279,
      "Ġsteskem": 9280,
      "ĠvÃŃtÄĽzÃŃ": 9281,
      "Ġkrajiny": 9282,
[...]
