{
  "version": "1.0",
  "truncation": null,
  "padding": null,
  "added_tokens": [
    {
      "id": 0,
      "content": "<|EOS|>",
      "single_word": false,
      "lstrip": false,
      "rstrip": false,
      "normalized": false,
      "special": true
    },
    {
      "id": 1,
      "content": "<|PAD|>",
      "single_word": false,
      "lstrip": false,
      "rstrip": false,
      "normalized": false,
      "special": true
    },
    {
      "id": 2,
      "content": "<|UNK|>",
      "single_word": false,
      "lstrip": false,
      "rstrip": false,
      "normalized": false,
      "special": true
    }
  ],
  "normalizer": null,
  "pre_tokenizer": {
    "type": "ByteLevel",
    "add_prefix_space": false,
    "trim_offsets": true,
    "use_regex": true
  },
  "post_processor": {
    "type": "ByteLevel",
    "add_prefix_space": true,
    "trim_offsets": false,
    "use_regex": true
  },
  "decoder": {
    "type": "ByteLevel",
    "add_prefix_space": true,
    "trim_offsets": true,
    "use_regex": true
  },
  "model": {
    "type": "BPE",
    "dropout": null,
    "unk_token": null,
    "continuing_subword_prefix": null,
    "end_of_word_suffix": null,
    "fuse_unk": false,
    "byte_fallback": false,
    "vocab": {
      "<|EOS|>": 0,
      "<|PAD|>": 1,
      "<|UNK|>": 2,
      "!": 3,
      "#": 4,
      "+": 5,
      ",": 6,
      ".": 7,
      "0": 8,
      "1": 9,
      "2": 10,
      "3": 11,
      "4": 12,
      "5": 13,
      "6": 14,
      "7": 15,
      "8": 16,
      "9": 17,
      "=": 18,
      "?": 19,
      "A": 20,
      "B": 21,
      "C": 22,
      "D": 23,
      "H": 24,
      "J": 25,
      "N": 26,
      "P": 27,
      "T": 28,
      "X": 29,
      "Y": 30,
      "`": 31,
      "a": 32,
      "b": 33,
      "c": 34,
      "d": 35,
      "e": 36,
      "f": 37,
      "g": 38,
      "h": 39,
      "i": 40,
      "j": 41,
      "k": 42,
      "l": 43,
      "m": 44,
      "n": 45,
      "o": 46,
      "p": 47,
      "q": 48,
      "r": 49,
      "s": 50,
      "t": 51,
      "u": 52,
      "v": 53,
      "w": 54,
      "x": 55,
      "y": 56,
      "z": 57,
      "¡": 58,
      "¢": 59,
      "¤": 60,
      "¥": 61,
      "¦": 62,
      "§": 63,
      "¨": 64,
      "©": 65,
      "ª": 66,
      "«": 67,
      "®": 68,
      "¯": 69,
      "²": 70,
      "³": 71,
      "´": 72,
      "¶": 73,
      "º": 74,
      "»": 75,
      "¼": 76,
      "½": 77,
      "¾": 78,
      "Â": 79,
      "Ã": 80,
      "Ä": 81,
      "Å": 82,
      "Ï": 83,
      "â": 84,
      "Ċ": 85,
      "Ġ": 86,
      "Ģ": 87,
      "Ĥ": 88,
      "Ħ": 89,
      "ĩ": 90,
      "Ī": 91,
      "Ĭ": 92,
      "į": 93,
      "ı": 94,
      "Ĵ": 95,
      "ĵ": 96,
      "Ļ": 97,
      "ļ": 98,
      "Ľ": 99,
      "Ł": 100,
      "ł": 101,
      "Ń": 102,
      "Ġ#": 103,
      "ÃŃ": 104,
      "Ġ1": 105,
      "Ġs": 106,
      "Ã¡": 107,
      "Ġv": 108,
      "Ġn": 109,
      "ÄĽ": 110,
      "Ġt": 111,
      "Ġp": 112,
      "Ġj": 113,
      "Ġk": 114,
      "Å¾": 115,
      "Ġz": 116,
      "ch": 117,
      "Ġm": 118,
      "Ġd": 119,
      "Å¡": 120,
      "Ã½": 121,
      "ÅĻ": 122,
      "Ã©": 123,
      "ou": 124,
      "Ġa": 125,
      "Ġb": 126,
      "la": 127,
      "Äį": 128,
      "Ġ10": 129,
      "Ġ8": 130,
      "XX": 131,
      "le": 132,
      "Ġh": 133,
      "st": 134,
      "Ġ11": 135,
      "Ġje": 136,
      "Ġse": 137,
      "AB": 138,
      "em": 139,
      "ro": 140,
      "ak": 141,
      "Å¯": 142,
      "Ġo": 143,
      "Ġne": 144,
      "ra": 145,
      "li": 146,
      "Ġ19": 147,
      "Ġpo": 148,
      "Ġna": 149,
      "en": 150,
      "Ġst": 151,
      "lo": 152,
      "rÃ¡": 153,
      "Ġc": 154,
      "ĠÅ¾": 155,
      "nÃŃ": 156,
      "ÅĻe": 157,
      "Ġsv": 158,
      "Ġ9": 159,
      "nÄĽ": 160,
      "al": 161,
      "ÅĻÃŃ": 162,
      "Ġ18": 163,
      "Ġl": 164,
      "Å¡e": 165,
      "ĠÄį": 166,
      "Ġza": 167,
      "ce": 168,
      "ru": 169,
      "Ġch": 170,
      "ĠAB": 171,
      "dy": 172,
      "Ġjak": 173,
      "Ġ7": 174,
      "il": 175,
      "00": 176,
      "ne": 177,
      "Ġ1900": 178,
      "sk": 179,
      "nÃ½": 180,
      "XXXX": 181,
      "XA": 182,
      "ho": 183,
      "Ġdo": 184,
      "Ġto": 185,
      "at": 186,
      "vÄĽ": 187,
      "de": 188,
      "Ġu": 189,
      "nÃ©": 190,
      "ÃŃm": 191,
      "ĠABAB": 192,
      "no": 193,
      "te": 194,
      "Ġby": 195,
      "Ġji": 196,
      "Ã¡m": 197,
      "ĠA": 198,
      "Ġ6": 199,
      "ÅĻi": 200,
      "80": 201,
      "Ġ1880": 202,
      "na": 203,
      "ĠÅ¡": 204,
      "Ġle": 205,
      "Ġ12": 206,
      "Ġve": 207,
      "vo": 208,
      "20": 209,
      "vÃ¡": 210,
      "je": 211,
      "ĠXXXX": 212,
      "ko": 213,
      "lu": 214,
      "Ġjs": 215,
      "Ã½ch": 216,
      "ti": 217,
      "Ġro": 218,
      "lÃ¡": 219,
      "jÃŃ": 220,
      "va": 221,
      "Ġ1920": 222,
      "tÄĽ": 223,
      "ni": 224,
      "nou": 225,
      "Ġho": 226,
      "ĠÅ¾e": 227,
      "ka": 228,
      "ĠnÃŃ": 229,
      "Ġpro": 230,
      "vÃŃ": 231,
      "nÃ¡": 232,
      "ky": 233,
      "Ġvy": 234,
      "Ġr": 235,
      "Å¥": 236,
      "Ġko": 237,
      "ku": 238,
      "..": 239,
      "Ġta": 240,
      "lÃŃ": 241,
      "Ġti": 242,
      "Ġli": 243,
      "Ã½m": 244,
      "tÃŃ": 245,
      "Ġmi": 246,
      "Ġjen": 247,
      "ĠvÄĽ": 248,
      "do": 249,
      "nu": 250,
      "ly": 251,
      "Ġdu": 252,
      "Ġvz": 253,
      "Ġ13": 254,
      "ĠAAB": 255,
      "Ġmo": 256,
      "ci": 257,
      "ĠnÃ¡": 258,
      "ĠnÄĽ": 259,
      "Ġkdy": 260,
      "ĠXA": 261,
      "po": 262,
      "dÄĽ": 263,
      "vÃ©": 264,
      "Ġka": 265,
      "Ġtu": 266,
      "Ġmu": 267,
      "ĠpÅĻe": 268,
      "Ġbo": 269,
      "Ġte": 270,
      "Ġce": 271,
      "ĠtÄĽ": 272,
      "Ġtak": 273,
      "Ġni": 274,
      "Ġco": 275,
      "Ġi": 276,
      "Ġno": 277,
      "ĠvÃŃ": 278,
      "ĠAABB": 279,
      "ĠÄįe": 280,
      "ar": 281,
      "ĠvÅ¡": 282,
      "mu": 283,
      "to": 284,
      "as": 285,
      "Ġla": 286,
      "ĠÃ": 287,
      "ĠdÃ¡": 288,
      "40": 289,
      "ny": 290,
      "Ġroz": 291,
      "du": 292,
      "ÅĪ": 293,
      "lÃ©": 294,
      "ÄĽt": 295,
      "ĠvÅ¡e": 296,
      "cÃŃ": 297,
      "ĠvÃ¡": 298,
      "di": 299,
      "Å¡ÃŃ": 300,
      "Ġsk": 301,
      "Ġru": 302,
      "sti": 303,
      "ĠXAXA": 304,
      "lou": 305,
      "ĠjÃŃ": 306,
      "dÃ¡": 307,
      "vi": 308,
      "da": 309,
      "Äı": 310,
      "Äįe": 311,
      "Ġjsem": 312,
      "Ġpa": 313,
      "Ġob": 314,
      "ÄįÃŃ": 315,
      "ve": 316,
      "Ġhla": 317,
      "dÃŃ": 318,
      "ĠÅ¾i": 319,
      "Ġty": 320,
      "Ġneb": 321,
      "ĠmÄĽ": 322,
      "Ġsp": 323,
      "ĠzÃ¡": 324,
      "mÄĽ": 325,
      "rd": 326,
      "Å¾e": 327,
      "Ġod": 328,
      "se": 329,
      "Ġku": 330,
      "Ġbu": 331,
      "ĠkrÃ¡": 332,
      "Ġsi": 333,
      "ĠdÃŃ": 334,
      "ĠmÃ¡": 335,
      "ĠkdyÅ¾": 336,
      "ji": 337,
      "CC": 338,
      "ĠdÄĽ": 339,
      "kÃ¡": 340,
      "mÃŃ": 341,
      "ĠsvÃ©": 342,
      "mi": 343,
      "ĠpÅĻi": 344,
      "ry": 345,
      "Ġvo": 346,
      "by": 347,
      "Å¾ÃŃ": 348,
      "tÃ¡": 349,
      "...": 350,
      "Å¯j": 351,
      "ĠlÃ¡": 352,
      "Äįi": 353,
      "vu": 354,
      "Ġ5": 355,
      "ez": 356,
      "Ġsrd": 357,
      "Ġpra": 358,
      "Ġjako": 359,
      "ĠÅ¡e": 360,
      "Ġpr": 361,
      "ĠXXXXXX": 362,
      "ĠlÃŃ": 363,
      "ĠjÃ¡": 364,
      "ĠrÃ¡": 365,
      "ta": 366,
      "ĠsvÄĽt": 367,
      "ĠvÅ¡ak": 368,
      "60": 369,
      "ĠÃº": 370,
      "Ġvi": 371,
      "ĠtÃŃ": 372,
      "Å¡i": 373,
      "Ġky": 374,
      "ze": 375,
      "vy": 376,
      "Ġkde": 377,
      "Ġten": 378,
      "Ã©m": 379,
      "Ġci": 380,
      "Ġra": 381,
      "Ġlo": 382,
      "ĠÅĻe": 383,
      "me": 384,
      "Ġtam": 385,
      "bÄĽ": 386,
      "nÃ½ch": 387,
      "bo": 388,
      "ĠcÃŃ": 389,
      "lad": 390,
      "ha": 391,
      "Ġ1940": 392,
      "ĠjiÅ¾": 393,
      "lÃ½": 394,
      "ma": 395,
      "mo": 396,
      "sta": 397,
      "led": 398,
      "Ġzem": 399,
      "stÃŃ": 400,
      "Ġmy": 401,
      "Ġkr": 402,
      "ĠtÃ©": 403,
      "rak": 404,
      "BA": 405,
      "Ġpod": 406,
      "val": 407,
      "Ġnad": 408,
      "Ġjeho": 409,
      "kou": 410,
      "Ġze": 411,
      "ĠÅĻÃŃ": 412,
      "sÃŃ": 413,
      "ĠjeÅ¾": 414,
      "Ġbyl": 415,
      "ĠvÃ½": 416,
      "ĠpÅĻÃŃ": 417,
      "Ġny": 418,
      "Ġzp": 419,
      "tu": 420,
      "Ġslu": 421,
      "ĠmÃŃ": 422,
      "Ġsta": 423,
      "vou": 424,
      "Ġzas": 425,
      "Ġjed": 426,
      "lem": 427,
      "ĠstÃ¡": 428,
      "ĠABBA": 429,
      "vÃ½": 430,
      "ĠpÃ¡": 431,
      "Å¡tÄĽ": 432,
      "hu": 433,
      "Ġpe": 434,
      "ĠstÃŃ": 435,
      "Ġ1860": 436,
      "Ġde": 437,
      "cho": 438,
      "ĠpÃŃ": 439,
      "Ġnu": 440,
      "men": 441,
      "ad": 442,
      "Ġsrdce": 443,
      "Ġdi": 444,
      "Ġ1840": 445,
      "Ġvla": 446,
      "hÃ¡": 447,
      "Ġkte": 448,
      "ĠÄįi": 449,
      "Ġbez": 450,
      "Å¯m": 451,
      "ĠbÃŃ": 452,
      "hy": 453,
      "vÄĽt": 454,
      "ĠnÃ¡m": 455,
      "ud": 456,
      "Å¾dy": 457,
      "Å¾i": 458,
      "chu": 459,
      "ĠnÃ©": 460,
      "sa": 461,
      "nÃ½m": 462,
      "ĠAA": 463,
      "rou": 464,
      "kÃ©": 465,
      "ĠÅ¡ÃŃ": 466,
      "ĠlÃ¡sk": 467,
      "Ġme": 468,
      "si": 469,
      "Ġsy": 470,
      "Ġva": 471,
      "be": 472,
      "Ġpak": 473,
      "ĠÅ¾ÃŃ": 474,
      "ĠjenÅ¾": 475,
      "Ġhro": 476,
      "zÃŃ": 477,
      "Ġjest": 478,
      "ĠÄįÃŃ": 479,
      "ĠbÄĽ": 480,
      "ĠvÅ¾dy": 481,
      "ĠmÃ©": 482,
      "kem": 483,
      "ĠpÅĻed": 484,
      "Ġlid": 485,
      "kÅ¯": 486,
      "Ġnou": 487,
      "Ġly": 488,
      "enÃŃ": 489,
      "ĠĊ": 490,
      "Ġtv": 491,
      "Ġda": 492,
      "Ġzla": 493,
      "bu": 494,
      "ba": 495,
      "Ġpla": 496,
      "Ġ15": 497,
      "Ġso": 498,
      "Ġkdo": 499,
      "ĠtvÃ¡": 500,
      "Ġ14": 501,
      "Ġmne": 502,
      "Ġnem": 503,
      "Ġhle": 504,
      "ste": 505,
      "zd": 506,
      "ĠsÃŃ": 507,
      "ĠaÅ¾": 508,
      "Ġsti": 509,
      "Ġsm": 510,
      "rÃ½": 511,
      "Ġsa": 512,
      "ÅĻÃ¡": 513,
      "dou": 514,
      "Ġlu": 515,
      "ĠÃ³": 516,
      "ty": 517,
      "sy": 518,
      "kÃ½": 519,
      "Ġtou": 520,
      "nes": 521,
      "Ġslo": 522,
      "Ġma": 523,
      "Ġnej": 524,
      "Ġpos": 525,
      "Ġry": 526,
      "bi": 527,
      "ĠÅ¾ivo": 528,
      "ĠkaÅ¾": 529,
      "ĠkvÄĽt": 530,
      "Ġjej": 531,
      "ĠteÄı": 532,
      "Ġ4": 533,
      "Ġsna": 534,
      "Ġpou": 535,
      "Ġsto": 536,
      "ĠprÃ¡": 537,
      "ĠÄįas": 538,
      "re": 539,
      "Ġden": 540,
      "ĠtÃ¡": 541,
      "Ġsvou": 542,
      "Ġnes": 543,
      "Ġnez": 544,
      "ĠÄįer": 545,
      "ĠdÃ¡l": 546,
      "ĠplÃ¡": 547,
      "ĠXX": 548,
      "Ġ16": 549,
      "Ġon": 550,
      "ĠÅ¾en": 551,
      "nce": 552,
      "ĠuÅ¾": 553,
      "Ġsla": 554,
      "hou": 555,
      "Ġkou": 556,
      "sto": 557,
      "ĠneÅ¾": 558,
      "ĠnÃ½": 559,
      "skÃ©": 560,
      "Ġkle": 561,
      "tr": 562,
      "pÃŃ": 563,
      "Ġf": 564,
      "ĠAABBCC": 565,
      "ĠvÅ¡ech": 566,
      "Ġjsou": 567,
      "Ġhu": 568,
      "Ġdob": 569,
      "rt": 570,
      "Ġsvo": 571,
      "ĠmÅ¯j": 572,
      "ĠAAXX": 573,
      "Ġre": 574,
      "Ġzrak": 575,
      "Ġbra": 576,
      "rÃ©": 577,
      "ĠtvÃ©": 578,
      "Ġdru": 579,
      "ĠkÃ¡": 580,
      "Ġjsi": 581,
      "Ġnech": 582,
      "Ġale": 583,
      "rÅ¯": 584,
      "ĠpÄĽ": 585,
      "my": 586,
      "nem": 587,
      "Ġnebe": 588,
      "nÃ©m": 589,
      "mÃ¡": 590,
      "ĠhvÄĽ": 591,
      "Ġsvat": 592,
      "ĠmnÄĽ": 593,
      "ĠnÃ¡s": 594,
      "ĠrÅ¯": 595,
      "ĠjeÅ¡tÄĽ": 596,
      "pu": 597,
      "Ġba": 598,
      "vat": 599,
      "Ġtem": 600,
      "Ġkra": 601,
      "nÅ¯": 602,
      "pe": 603,
      "Ġvel": 604,
      "Ġsnad": 605,
      "nÃŃm": 606,
      "pa": 607,
      "bou": 608,
      "Ġstra": 609,
      "Ġpl": 610,
      "ĠduÅ¡e": 611,
      "dÄĽl": 612,
      "chÃ¡": 613,
      "Ġdy": 614,
      "ĠkaÅ¾d": 615,
      "ĠbÃ½": 616,
      "Ġtom": 617,
      "ĠvÅ¯": 618,
      "Ġbla": 619,
      "Ġmil": 620,
      "Ġhra": 621,
      "ĠjejÃŃ": 622,
      "bÃŃ": 623,
      "Ġmat": 624,
      "ĠbÃ¡": 625,
      "Ġzde": 626,
      "Ġvl": 627,
      "ĠnÄĽm": 628,
      "Ġja": 629,
      "Ġcho": 630,
      "ĠsÃ¡m": 631,
      "Ġdra": 632,
      "Ġot": 633,
      "Ġsou": 634,
      "ĠhÃ¡": 635,
      "Ġstar": 636,
      "ĠkrÃ¡s": 637,
      "ĠnÃŃm": 638,
      "Ġpu": 639,
      "Ġchu": 640,
      "ÅĻen": 641,
      "ĠvÅ¡ec": 642,
      "Ġhlas": 643,
      "Ġpoh": 644,
      "Ġval": 645,
      "ĠABABCC": 646,
      "Ġbou": 647,
      "Ġsl": 648,
      "Ġdnes": 649,
      "ĠchvÃŃ": 650,
      "ĠaÅ¥": 651,
      "vil": 652,
      "Ġzd": 653,
      "ĠlÃ©": 654,
      "ĠzÃŃ": 655,
      "Å¾en": 656,
      "ej": 657,
      "Å¡el": 658,
      "pÄĽ": 659,
      "Ġsly": 660,
      "Ġhlu": 661,
      "Ġha": 662,
      "Ġjich": 663,
      "ĠÅ¡i": 664,
      "nost": 665,
      "stu": 666,
      "cha": 667,
      "pi": 668,
      "ĠÅ¾Ã¡": 669,
      "Ġtr": 670,
      "Ġzlat": 671,
      "ĠvÃ¡m": 672,
      "Ġoh": 673,
      "nÃ¡m": 674,
      "ĠÅ¾ivot": 675,
      "Ġjas": 676,
      "ĠsvÄĽ": 677,
      "Ġbe": 678,
      "zy": 679,
      "Ġbude": 680,
      "Ġos": 681,
      "AX": 682,
      "ĠduÅ¡i": 683,
      "Ġjsme": 684,
      "Ġzvo": 685,
      "Ġmod": 686,
      "ĠvÄĽÄį": 687,
      "AA": 688,
      "ev": 689,
      "Ġpoz": 690,
      "nul": 691,
      "rÃ¡t": 692,
      "Ġdlou": 693,
      "Ġstro": 694,
      "Ġvra": 695,
      "sÅ¥": 696,
      "ĠABABXX": 697,
      "jem": 698,
      "Ġslad": 699,
      "ĠkÅĻÃŃ": 700,
      "tel": 701,
      "ĠnenÃŃ": 702,
      "Ġmno": 703,
      "hÃ½": 704,
      "Ġsmu": 705,
      "Ġ1960": 706,
      "ĠÅĻ": 707,
      "ĠtÄĽch": 708,
      "Ġbych": 709,
      "Ġspo": 710,
      "nosti": 711,
      "tra": 712,
      "ĠchtÄĽ": 713,
      "Ġkli": 714,
      "Ġsu": 715,
      "ĠkÅ¯": 716,
      "Ġsem": 717,
      "cen": 718,
      "ven": 719,
      "Ġslunce": 720,
      "Ġtvo": 721,
      "Ġbylo": 722,
      "hle": 723,
      "ĠÅ¡tÄĽ": 724,
      "ĠoÄįi": 725,
      "ĠtÅĻe": 726,
      "Ġjim": 727,
      "Å¯h": 728,
      "ĠptÃ¡": 729,
      "Ġkro": 730,
      "Ġkla": 731,
      "nil": 732,
      "Ġmou": 733,
      "Ġe": 734,
      "ĠzÅĻÃŃ": 735,
      "jÅ¡ÃŃ": 736,
      "ĠvÃ©": 737,
      "stÃ¡": 738,
      "ÅĻel": 739,
      "Ġnep": 740,
      "ĠsvÃ½m": 741,
      "sÃ¡": 742,
      "vÃ½ch": 743,
      "cÃŃch": 744,
      "Å¡en": 745,
      "len": 746,
      "bÃ¡": 747,
      "Ġnich": 748,
      "ned": 749,
      "zi": 750,
      "py": 751,
      "ĠsvÅ¯j": 752,
      "Ġml": 753,
      "stvÃŃ": 754,
      "ĠvÃŃc": 755,
      "chy": 756,
      "ĠslÃ¡": 757,
      "Ġg": 758,
      "Ġmar": 759,
      "Ġkol": 760,
      "ĠmÃ¡m": 761,
      "Ġbi": 762,
      "Ġhy": 763,
      "ĠsmÄĽ": 764,
      "hÃ©": 765,
      "lovÄĽ": 766,
      "Ġlet": 767,
      "Ġnik": 768,
      "so": 769,
      "stou": 770,
      "ĠtÃŃm": 771,
      "nÃ©ho": 772,
      "Ġbyla": 773,
      "dem": 774,
      "ĠbÅ¯h": 775,
      "Ġsmut": 776,
      "tÃ½": 777,
      "ĠXXAA": 778,
      "ĠsvÃ½ch": 779,
      "vÃ½m": 780,
      "skÃ½": 781,
      "cem": 782,
      "stÄĽ": 783,
      "chem": 784,
      "Ġmys": 785,
      "pÃ¡": 786,
      "ĠsmÃŃ": 787,
      "ĠlÃ¡sky": 788,
      "ĠblÃŃ": 789,
      "vnÃŃ": 790,
      "Ġdal": 791,
      "Ġhned": 792,
      "rem": 793,
      "Ġmilo": 794,
      "tek": 795,
      "dla": 796,
      "jich": 797,
      "til": 798,
      "ĠmÄĽl": 799,
      "ĠÄįlovÄĽ": 800,
      "ĠpÃŃs": 801,
      "Ġvr": 802,
      "ĠtvÅ¯j": 803,
      "Ġsen": 804,
      "lesk": 805,
      "CCB": 806,
      "nal": 807,
      "zu": 808,
      "ĠsvÃŃ": 809,
      "Äįen": 810,
      "ÅĻil": 811,
      "ĠsnÄĽ": 812,
      "Ġkam": 813,
      "ĠtÃ©Å¾": 814,
      "Äįka": 815,
      "Ġ1820": 816,
      "Ġnoc": 817,
      "za": 818,
      "ĠvÃ¡s": 819,
      "ĠpÅ¯": 820,
      "ĠsobÄĽ": 821,
      "Ġkolem": 822,
      "vem": 823,
      "ĠlÃ½": 824,
      "tÃŃm": 825,
      "Ġke": 826,
      "Ġach": 827,
      "Ġan": 828,
      "skÃ¡": 829,
      "ĠAXA": 830,
      "ĠAABCCB": 831,
      "ĠvÅ¡em": 832,
      "ĠzdÃ¡": 833,
      "ABB": 834,
      "Ġmal": 835,
      "ĠkaÅ¾dÃ½": 836,
      "Ġchy": 837,
      "ĠtobÄĽ": 838,
      "Å¡Å¥": 839,
      "ri": 840,
      "ĠpÅĻes": 841,
      "ĠtÄĽÅ¾": 842,
      "Ġok": 843,
      "tem": 844,
      "Ġvu": 845,
      "Ġles": 846,
      "Ġop": 847,
      "Ġrado": 848,
      "ĠproÄį": 849,
      "ĠdÅĻÃŃ": 850,
      "ĠzpÄĽ": 851,
      "ĠÅĻi": 852,
      "ĠzemÄĽ": 853,
      "Ġani": 854,
      "Ġkem": 855,
      "Ġpan": 856,
      "Ġdla": 857,
      "Ġaby": 858,
      "Ġhou": 859,
      "Å¡ÃŃm": 860,
      "Ġtich": 861,
      "Ġzda": 862,
      "Å¡tÃŃ": 863,
      "hla": 864,
      "nom": 865,
      "ĠvÄĽt": 866,
      "Ġju": 867,
      "ĠÅ¾itÃŃ": 868,
      "ĠchvÄĽ": 869,
      "Ġple": 870,
      "ĠXAAX": 871,
      "Ġchce": 872,
      "lÃ½ch": 873,
      "sty": 874,
      "ĠhvÄĽz": 875,
      "Ġjejich": 876,
      "ĠÅ¡u": 877,
      "ĠÄįa": 878,
      "ĠpÅĻec": 879,
      "Ġklid": 880,
      "nky": 881,
      "kla": 882,
      "tÃ©": 883,
      "Ġruce": 884,
      "Ġsil": 885,
      "vÃŃm": 886,
      "ĠspÃ¡": 887,
      "ĠrÃ¡d": 888,
      "Ġkrev": 889,
      "ĠbuÄı": 890,
      "ĠsnÃŃ": 891,
      "ĠleÄį": 892,
      "ĠkÃ½": 893,
      "Ġvlast": 894,
      "Ġsrdci": 895,
      "Ġzemi": 896,
      "Ġus": 897,
      "Äįky": 898,
      "Ġmra": 899,
      "ĠveÄįe": 900,
      "tou": 901,
      "Ġmoc": 902,
      "mÅ¯": 903,
      "ĠvÅ¡ecko": 904,
      "Ġmoje": 905,
      "seÅĪ": 906,
      "Ġdiv": 907,
      "Ġmrt": 908,
      "ĠmuÅ¾": 909,
      "ved": 910,
      "co": 911,
      "Ġnepo": 912,
      "lÅ¯": 913,
      "Ġzb": 914,
      "Äįek": 915,
      "Ġsmr": 916,
      "Ġsko": 917,
      "Ġhru": 918,
      "pr": 919,
      "nek": 920,
      "ĠmÅ¯": 921,
      "Ġjste": 922,
      "Ġduch": 923,
      "Ġlou": 924,
      "Ġzlo": 925,
      "Ġhor": 926,
      "ĠnÃ¡Å¡": 927,
      "aly": 928,
      "ÅĻem": 929,
      "pomÃŃ": 930,
      "Ġmez": 931,
      "ĠÅ¡el": 932,
      "cÅ¯": 933,
      "Ġkru": 934,
      "lil": 935,
      "ĠvlÃ¡": 936,
      "ĠnaÅ¡e": 937,
      "skÃ½ch": 938,
      "Ġprou": 939,
      "an": 940,
      "hÅ¯": 941,
      "ĠstÅĻe": 942,
      "dil": 943,
      "ĠÅ¡tÄĽstÃŃ": 944,
      "Ġpad": 945,
      "nÃŃk": 946,
      "ĠtvÃ¡ÅĻ": 947,
      "Ġjenom": 948,
      "Ġste": 949,
      "ĠhvÄĽzd": 950,
      "ĠnÃ¡ro": 951,
      "kÃ½ch": 952,
      "Ġnoci": 953,
      "ĠdÃ¡v": 954,
      "ĠĠ": 955,
      "Ġtebe": 956,
      "Ġhlavu": 957,
      "ĠhÅĻÃŃ": 958,
      "Ġhr": 959,
      "pad": 960,
      "Ġote": 961,
      "Ġzvu": 962,
      "ĠdÃŃv": 963,
      "ĠspÄĽ": 964,
      "ĠdÄĽl": 965,
      "dnÃ©": 966,
      "pla": 967,
      "Ġprav": 968,
      "zo": 969,
      "ĠÅ¾al": 970,
      "ĠbÃ½t": 971,
      "su": 972,
      "nout": 973,
      "Ġmlad": 974,
      "nÃŃch": 975,
      "Ġnic": 976,
      "Äįil": 977,
      "ĠsÃ¡": 978,
      "Ġoko": 979,
      "hem": 980,
      "ĠzpÃŃ": 981,
      "ĠtÃ½": 982,
      "ĠmlÃ¡": 983,
      "sku": 984,
      "jde": 985,
      "Äįku": 986,
      "sky": 987,
      "hne": 988,
      "Ġven": 989,
      "ĠchtÄĽl": 990,
      "ĠÅĻek": 991,
      "Ġmlu": 992,
      "ĠchrÃ¡": 993,
      "dech": 994,
      "Ġlem": 995,
      "Ġblesk": 996,
      "Ġpi": 997,
      "ĠkÅĻi": 998,
      "ĠstrÃ¡": 999,
      "tÅ¯": 1000,
      "ĠcelÃ½": 1001,
      "ast": 1002,
      "Ġvou": 1003,
      "Ġhe": 1004,
      "Ġzah": 1005,
      "ĠskÃ¡": 1006,
      "ĠÃºs": 1007,
      "Ġzje": 1008,
      "Å¡li": 1009,
      "Ġdou": 1010,
      "uje": 1011,
      "ĠtakÃ©": 1012,
      "Ġboj": 1013,
      "Ġjde": 1014,
      "Å¾il": 1015,
      "Ġdne": 1016,
      "Ġhlou": 1017,
      "dÃŃm": 1018,
      "Ġtro": 1019,
      "Ġsvi": 1020,
      "ĠsvÃ©m": 1021,
      "ĠÅĪ": 1022,
      "ĠvÃ¡Å¡": 1023,
      "Ġtru": 1024,
      "ĠdÅ¯": 1025,
      "Ġslova": 1026,
      "ĠdÃŃtÄĽ": 1027,
      "zen": 1028,
      "Ġobra": 1029,
      "Ġneu": 1030,
      "ĠpÃŃseÅĪ": 1031,
      "jÃŃcÃŃ": 1032,
      "ĠnÃ¡hle": 1033,
      "Ġnebo": 1034,
      "ĠchvÃŃli": 1035,
      "ĠmoÅĻe": 1036,
      "kÃ½m": 1037,
      "Ġbole": 1038,
      "Ġzi": 1039,
      "tva": 1040,
      "Ġdech": 1041,
      "ska": 1042,
      "ĠhnÄĽ": 1043,
      "Ġchlad": 1044,
      "ĠspÃŃ": 1045,
      "Ġtoho": 1046,
      "nÄĽjÅ¡ÃŃ": 1047,
      "ati": 1048,
      "ĠkrÃ¡l": 1049,
      "sko": 1050,
      "ĠmyÅ¡": 1051,
      "Ġslun": 1052,
      "Ġ3": 1053,
      "sou": 1054,
      "dnÃ½": 1055,
      "Ġvol": 1056,
      "Ġpok": 1057,
      "kal": 1058,
      "Ã©ho": 1059,
      "ĠkterÃ©": 1060,
      "dle": 1061,
      "ĠvÅ¾dyÅ¥": 1062,
      "jÃŃc": 1063,
      "ĠvÃŃm": 1064,
      "hl": 1065,
      "ĠoÄįÃŃ": 1066,
      "ĠnÄĽk": 1067,
      "Ġslav": 1068,
      "ĠsvÃ©ho": 1069,
      "ĠnynÃŃ": 1070,
      "Ġmezi": 1071,
      "Ġmla": 1072,
      "nÃ¡ch": 1073,
      "ĠstÃŃn": 1074,
      "Ġvzdu": 1075,
      "Ġzo": 1076,
      "Ġpy": 1077,
      "ĠbÅĻe": 1078,
      "ĠÄįlovÄĽk": 1079,
      "Ġmrak": 1080,
      "ĠstÅĻÃŃ": 1081,
      "tky": 1082,
      "Ġhled": 1083,
      "Ġjeden": 1084,
      "ĠpÃ¡n": 1085,
      "Ġ17": 1086,
      "Ġbrat": 1087,
      "Ġmnou": 1088,
      "ĠlÃ¡ska": 1089,
      "Ġost": 1090,
      "Ġzase": 1091,
      "er": 1092,
      "Ġdr": 1093,
      "Ġtma": 1094,
      "ĠznÃŃ": 1095,
      "ĠkterÃ½": 1096,
      "ĠpÅĻÃ¡": 1097,
      "ĠstÄĽ": 1098,
      "ĠjÃŃm": 1099,
      "Ġpoto": 1100,
      "Ġjednou": 1101,
      "ĠklÃŃ": 1102,
      "ĠhrÃ¡": 1103,
      "ĠznÃ¡m": 1104,
      "ĠlÅ¯": 1105,
      "ĠstÃ¡le": 1106,
      "rov": 1107,
      "ĠsvÄĽta": 1108,
      "ĠzvÄĽ": 1109,
      "ĠstojÃŃ": 1110,
      "Ġpat": 1111,
      "krÃ¡t": 1112,
      "rost": 1113,
      "ĠtiÅ¡e": 1114,
      "Ġdost": 1115,
      "Ġoz": 1116,
      "Ġbled": 1117,
      "pra": 1118,
      "Ġzm": 1119,
      "ĠkvÃŃ": 1120,
      "ĠsvÃ¡": 1121,
      "Å¡la": 1122,
      "ĠXAXAXX": 1123,
      "dnÃŃ": 1124,
      "Ġsle": 1125,
      "mÃ©": 1126,
      "ĠÃºsmÄĽ": 1127,
      "Ġnemo": 1128,
      "sla": 1129,
      "ĠvÃŃce": 1130,
      "lÃ½m": 1131,
      "ĠtisÃŃ": 1132,
      "ĠjuÅ¾": 1133,
      "nec": 1134,
      "Ġjar": 1135,
      "nku": 1136,
      "nka": 1137,
      "ĠAXAX": 1138,
      "mnÄĽ": 1139,
      "Ġveli": 1140,
      "ĠÅ¡Å¥": 1141,
      "ĠbÃŃlÃ©": 1142,
      "Ġtra": 1143,
      "spo": 1144,
      "vala": 1145,
      "Ġodpo": 1146,
      "Ġklo": 1147,
      "ĠcoÅ¾": 1148,
      "vÃ©m": 1149,
      "ĠvÄĽr": 1150,
      "zem": 1151,
      "lit": 1152,
      "Ġrukou": 1153,
      "ĠzpÄĽv": 1154,
      "Ġpoko": 1155,
      "Ġsebe": 1156,
      "ĠtrÃ¡": 1157,
      "Ġposled": 1158,
      "ĠaÄį": 1159,
      "dnou": 1160,
      "Ġnebi": 1161,
      "Ġvoj": 1162,
      "ĠkÃ©": 1163,
      "lek": 1164,
      "jte": 1165,
      "ĠÄįÃŃm": 1166,
      "ĠveÄįer": 1167,
      "dce": 1168,
      "Ġhrob": 1169,
      "ĠboÅ¾ÃŃ": 1170,
      "nat": 1171,
      "Ġum": 1172,
      "ĠsmÃŃch": 1173,
      "Ġkraj": 1174,
      "ĠÅ¾il": 1175,
      "Ġstu": 1176,
      "Ġpot": 1177,
      "Ġplamen": 1178,
      "dal": 1179,
      "ĠhÅĻ": 1180,
      "ĠhrÅ¯": 1181,
      "Ġnikdy": 1182,
      "jÃŃm": 1183,
      "skou": 1184,
      "stÃ©": 1185,
      "mou": 1186,
      "Ġjedi": 1187,
      "Ġtomu": 1188,
      "ĠnaÅ¡i": 1189,
      "ĠtvÃ½ch": 1190,
      "Ġvese": 1191,
      "vra": 1192,
      "Ġnedo": 1193,
      "ÅĻÃŃm": 1194,
      "ĠnadÄĽ": 1195,
      "Ġrou": 1196,
      "ĠnÃ½ch": 1197,
      "Ġbudou": 1198,
      "Ġtys": 1199,
      "vz": 1200,
      "vr": 1201,
      "ĠvzpomÃŃ": 1202,
      "Ã¡me": 1203,
      "Ġzak": 1204,
      "Ġsli": 1205,
      "Ã³": 1206,
      "Ġkdyby": 1207,
      "Ġdar": 1208,
      "dlo": 1209,
      "tku": 1210,
      "stal": 1211,
      "XB": 1212,
      "Äįko": 1213,
      "ÄįnÃŃ": 1214,
      "ĠmÄĽsÃŃ": 1215,
      "Ġzno": 1216,
      "ĠÅ¡Å¥ast": 1217,
      "Ġpal": 1218,
      "ĠstÃ¡l": 1219,
      "Ġpoli": 1220,
      "Å¡ti": 1221,
      "Ġves": 1222,
      "Ġona": 1223,
      "ĠznÃ¡": 1224,
      "Ġzele": 1225,
      "Ġlesk": 1226,
      "ĠvÃŃtÄĽ": 1227,
      "ĠnevÄĽ": 1228,
      "ĠvrÃ¡": 1229,
      "tal": 1230,
      "ben": 1231,
      "ĠbrÃ¡": 1232,
      "ĠrÅ¯Å¾e": 1233,
      "Ġzu": 1234,
      "ude": 1235,
      "cÃŃm": 1236,
      "Ġdva": 1237,
      "ABAB": 1238,
      "cky": 1239,
      "ĠmÃ½ch": 1240,
      "ĠdÄĽti": 1241,
      "Ġpru": 1242,
      "ĠnÃŃÅ¾": 1243,
      "lech": 1244,
      "ĠdÃ©": 1245,
      "Ġsmrt": 1246,
      "Ġstr": 1247,
      "ĠprvnÃŃ": 1248,
      "Ġskal": 1249,
      "vit": 1250,
      "Ġhroz": 1251,
      "Ġsed": 1252,
      "ĠzÃ¡ÅĻ": 1253,
      "Ġnevi": 1254,
      "Ġbar": 1255,
      "Ġsotva": 1256,
      "Ġhlavy": 1257,
      "Ġtlu": 1258,
      "Ġnebes": 1259,
      "Ġchci": 1260,
      "ÄįnÄĽ": 1261,
      "stÃ½": 1262,
      "ĠknÄĽ": 1263,
      "Ġdce": 1264,
      "ĠcelÃ©": 1265,
      "ĠchÃ¡": 1266,
      "Ġzna": 1267,
      "vnÄĽ": 1268,
      "Ġleh": 1269,
      "ĠkterÃ¡": 1270,
      "pil": 1271,
      "ĠÅ¡at": 1272,
      "Ġsmrti": 1273,
      "vali": 1274,
      "lik": 1275,
      "ĠdÃ¡le": 1276,
      "ĠznÄĽ": 1277,
      "Ġpom": 1278,
      "Ġsh": 1279,
      "sil": 1280,
      "ĠskrÃ¡": 1281,
      "Ġtaj": 1282,
      "nice": 1283,
      "Ġbr": 1284,
      "let": 1285,
      "Ġneo": 1286,
      "ĠnovÃ©": 1287,
      "ĠmusÃŃ": 1288,
      "Ġjemu": 1289,
      "Ġdvo": 1290,
      "Ġskry": 1291,
      "ĠdÄĽt": 1292,
      "Ġplo": 1293,
      "Ġproti": 1294,
      "hat": 1295,
      "Ġjedno": 1296,
      "Ġhrd": 1297,
      "Ġneby": 1298,
      "kÃ¡ch": 1299,
      "dÅ¯": 1300,
      "Ġosud": 1301,
      "ĠpÅĻece": 1302,
      "Ġruka": 1303,
      "vÃ¡nÃŃ": 1304,
      "tech": 1305,
      "zel": 1306,
      "Ġruku": 1307,
      "ĠtÅ¯": 1308,
      "Ġticho": 1309,
      "Ġkal": 1310,
      "Ġradost": 1311,
      "Ġdlouho": 1312,
      "Ġzh": 1313,
      "ĠzpÄĽt": 1314,
      "ĠÅ¡tÃŃ": 1315,
      "Ġobla": 1316,
      "Ġkdys": 1317,
      "ĠdÃ½": 1318,
      "Ġproto": 1319,
      "ĠstarÃ½": 1320,
      "znÄĽ": 1321,
      "Ġvlas": 1322,
      "lov": 1323,
      "dnÄĽ": 1324,
      "kÃ©m": 1325,
      "ĠletÃŃ": 1326,
      "Äįel": 1327,
      "ĠmeÄį": 1328,
      "Ġzk": 1329,
      "ĠleÅ¾ÃŃ": 1330,
      "ĠkÅĻe": 1331,
      "ĠvÅ¡i": 1332,
      "Ġrozko": 1333,
      "Ã½mi": 1334,
      "Ġhlavou": 1335,
      "Ġjin": 1336,
      "Ġplu": 1337,
      "Ġrych": 1338,
      "pen": 1339,
      "Ġvlasti": 1340,
      "nic": 1341,
      "pl": 1342,
      "Ġtvoje": 1343,
      "nit": 1344,
      "Ġdruh": 1345,
      "ABBX": 1346,
      "Ġzbo": 1347,
      "Ġzra": 1348,
      "Ġode": 1349,
      "ĠvÅĻe": 1350,
      "ĠkvÄĽ": 1351,
      "pou": 1352,
      "Ġdem": 1353,
      "ĠtÅĻi": 1354,
      "ĠprÃ½": 1355,
      "ral": 1356,
      "ĠduÅ¡ÃŃ": 1357,
      "ĠdÃ¡vno": 1358,
      "ĠnÅ¯": 1359,
      "ÄįÃŃm": 1360,
      "nech": 1361,
      "ĠvidÃŃ": 1362,
      "stÅĻÃŃ": 1363,
      "rnÃ©": 1364,
      "Ġpohled": 1365,
      "ĠnÄĽj": 1366,
      "rnÄĽ": 1367,
      "Ġsamo": 1368,
      "ĠÄįasto": 1369,
      "lal": 1370,
      "ĠcizÃŃ": 1371,
      "Ġslou": 1372,
      "Ġcit": 1373,
      "Ġpozd": 1374,
      "ĠbÃ¡s": 1375,
      "Ġroze": 1376,
      "Ġmoh": 1377,
      "ĠkrÃ¡t": 1378,
      "pat": 1379,
      "ĠvidÄĽl": 1380,
      "Ġhlubo": 1381,
      "ĠhvÄĽzdy": 1382,
      "ĠdobÅĻe": 1383,
      "Ġzou": 1384,
      "Ġkles": 1385,
      "ĠobÄĽ": 1386,
      "Ġnimi": 1387,
      "vÅ¯": 1388,
      "nutÃŃ": 1389,
      "Ġper": 1390,
      "ĠzÃ¡ÅĻÃŃ": 1391,
      "alo": 1392,
      "Ġpros": 1393,
      "Ġtesk": 1394,
      "ĠzlatÃ©": 1395,
      "Ġsch": 1396,
      "ĠtoÅ¥": 1397,
      "ĠvdÄĽ": 1398,
      "zÃ¡": 1399,
      "ĠstÅĻÃŃb": 1400,
      "Ġrud": 1401,
      "Ġzt": 1402,
      "Ġtajem": 1403,
      "pal": 1404,
      "ĠÅ¾ena": 1405,
      "ĠchvÃŃle": 1406,
      "ĠboÅ¾e": 1407,
      "jen": 1408,
      "lÃŃm": 1409,
      "ĠsvÄĽtÄĽ": 1410,
      "ĠnÃ½m": 1411,
      "Ġsvoje": 1412,
      "ĠvÅ¡ecky": 1413,
      "Ġlist": 1414,
      "ĠtÅĻÃŃ": 1415,
      "ĠdÅĻÃŃv": 1416,
      "Ġkri": 1417,
      "ĠzÅ¯": 1418,
      "Ġblou": 1419,
      "Ġcha": 1420,
      "stÅĻe": 1421,
      "ĠvolÃ¡": 1422,
      "ĠhledÃŃ": 1423,
      "Ġjdou": 1424,
      "Ġpane": 1425,
      "Ġy": 1426,
      "ĠmÅ¯Å¾e": 1427,
      "Ġtla": 1428,
      "ran": 1429,
      "Ġpole": 1430,
      "den": 1431,
      "rob": 1432,
      "ÄįnÃ©": 1433,
      "Ġtvou": 1434,
      "ĠposlednÃŃ": 1435,
      "ĠÅ¾ivota": 1436,
      "rÃ½ch": 1437,
      "Ġkry": 1438,
      "ĠÄįelo": 1439,
      "Ġvrou": 1440,
      "ĠÅ¡ep": 1441,
      "Ġotec": 1442,
      "Ġpil": 1443,
      "Ġuk": 1444,
      "ĠtÅĻ": 1445,
      "tka": 1446,
      "ĠdÃ¡m": 1447,
      "rnÃ½": 1448,
      "ĠhÃ½": 1449,
      "dnÃ¡": 1450,
      "ĠÅ¾ha": 1451,
      "ĠnÃ¡rod": 1452,
      "BC": 1453,
      "ĠsnÅ¯": 1454,
      "Ġvat": 1455,
      "ĠprÃ¡zd": 1456,
      "Ġzapo": 1457,
      "Ġtebou": 1458,
      "ĠpanÃŃ": 1459,
      "ct": 1460,
      "ĠzmÄĽ": 1461,
      "Ġsku": 1462,
      "ĠdÄĽs": 1463,
      "ĠkvÄĽty": 1464,
      "Å¡em": 1465,
      "kle": 1466,
      "vÃ¡n": 1467,
      "Ġoka": 1468,
      "ĠpoÄį": 1469,
      "hlÃ©": 1470,
      "Ġkni": 1471,
      "Ġhud": 1472,
      "dÄĽla": 1473,
      "Ġlidst": 1474,
      "ĠslyÅ¡": 1475,
      "chvÄĽ": 1476,
      "ĠzÅĻel": 1477,
      "ĠpohÃ¡": 1478,
      "ĠboÅ¾": 1479,
      "ĠtÄĽlo": 1480,
      "ala": 1481,
      "Ġkon": 1482,
      "ĠkÅĻÃŃÅ¾": 1483,
      "ĠjakÃ½": 1484,
      "ĠÅĪad": 1485,
      "Ġdale": 1486,
      "ĠsvÃŃtÃŃ": 1487,
      "Ġztra": 1488,
      "Ġkraji": 1489,
      "ĠtÅĻeba": 1490,
      "Ġou": 1491,
      "Å¡il": 1492,
      "Ġmnoho": 1493,
      "Ġzve": 1494,
      "Ġsvit": 1495,
      "kli": 1496,
      "krÃ¡": 1497,
      "Ġup": 1498,
      "ĠsmÃ¡": 1499,
      "Ġbys": 1500,
      "Ġjem": 1501,
      "ĠnechÅ¥": 1502,
      "um": 1503,
      "ĠlÃ¡skou": 1504,
      "Ġsvobo": 1505,
      "Ġpouze": 1506,
      "ĠÅĻÃ¡": 1507,
      "Ġlidu": 1508,
      "Ġ1800": 1509,
      "ĠvelkÃ©": 1510,
      "Ġsklo": 1511,
      "CBC": 1512,
      "ĠdrÃ¡": 1513,
      "ĠlÃ¡sku": 1514,
      "Ġpoj": 1515,
      "ĠnÄĽho": 1516,
      "ĠpÅ¯l": 1517,
      "Ġjisk": 1518,
      "Ġtady": 1519,
      "pas": 1520,
      "ÅĻit": 1521,
      "Å¡enÃŃ": 1522,
      "Ġkve": 1523,
      "ĠchvÃ¡": 1524,
      "ĠblÃŃÅ¾": 1525,
      "Ġpotom": 1526,
      "Ġpomo": 1527,
      "ĠsklÃ¡": 1528,
      "ĠsnÃŃh": 1529,
      "ĠÄįek": 1530,
      "ĠsvÄĽtlo": 1531,
      "Ġmoud": 1532,
      "Ġ2": 1533,
      "ĠXXABAB": 1534,
      "Ġzouf": 1535,
      "Ġvys": 1536,
      "ĠvÃ½Å¡": 1537,
      "Ġstat": 1538,
      "vÃ¡m": 1539,
      "Ġblu": 1540,
      "ĠvelkÃ½": 1541,
      "ĠpolÃŃ": 1542,
      "Ġhory": 1543,
      "Ġhrad": 1544,
      "ĠnovÃ½": 1545,
      "vost": 1546,
      "kol": 1547,
      "ĠbÃ½ti": 1548,
      "nik": 1549,
      "Ġtedy": 1550,
      "ĠbÃŃlÃ½": 1551,
      "Ġvich": 1552,
      "Ġzby": 1553,
      "Ġhlava": 1554,
      "ĠbouÅĻ": 1555,
      "ĠÅ¾eny": 1556,
      "ĠvÅ¾dycky": 1557,
      "tla": 1558,
      "Ġsyn": 1559,
      "nÃ½mi": 1560,
      "ĠptÃ¡k": 1561,
      "Ġtep": 1562,
      "ĠpÃŃsnÄĽ": 1563,
      "Ġtat": 1564,
      "ĠdÃ¡li": 1565,
      "Ġneza": 1566,
      "vajÃŃ": 1567,
      "ĠtÃ¡h": 1568,
      "ĠnÃ¡ru": 1569,
      "kÅĻi": 1570,
      "Ġvem": 1571,
      "ĠÅ¾Ã¡r": 1572,
      "Ġpar": 1573,
      "Ġnese": 1574,
      "Ġnevy": 1575,
      "ke": 1576,
      "Ġzved": 1577,
      "sem": 1578,
      "zko": 1579,
      "ĠvlastnÃŃ": 1580,
      "Ġsny": 1581,
      "ĠABBACC": 1582,
      "ĠvÃ½ch": 1583,
      "Ġdos": 1584,
      "Ġslzy": 1585,
      "Ġrem": 1586,
      "Ġposta": 1587,
      "ĠhruÄı": 1588,
      "Ġsni": 1589,
      "Ġzlato": 1590,
      "Ġret": 1591,
      "Ġdej": 1592,
      "znÃŃ": 1593,
      "ĠvÄĽru": 1594,
      "nostÃŃ": 1595,
      "Ġsty": 1596,
      "rÃ½m": 1597,
      "tro": 1598,
      "ĠjejÅ¾": 1599,
      "ĠsvatÃ½": 1600,
      "bil": 1601,
      "ĠvÃŃtr": 1602,
      "Ġdivo": 1603,
      "ĠsvojÃŃ": 1604,
      "Ġzjev": 1605,
      "ĠmÃ¡Å¡": 1606,
      "kud": 1607,
      "dÄĽt": 1608,
      "ĠdÃ½m": 1609,
      "chni": 1610,
      "Ġobraz": 1611,
      "Ġmr": 1612,
      "Ġpolo": 1613,
      "ĠÅ¡um": 1614,
      "Å¾el": 1615,
      "Ġvzdo": 1616,
      "Ġpapr": 1617,
      "Ġkamen": 1618,
      "Ġkrve": 1619,
      "Ġstej": 1620,
      "ĠumÃŃ": 1621,
      "Ġzahra": 1622,
      "Ġct": 1623,
      "ĠvidÃŃm": 1624,
      "ĠmarnÄĽ": 1625,
      "ĠvÅ¡eho": 1626,
      "Ġbol": 1627,
      "ĠvÃ¡Å¾": 1628,
      "ĠstarÃ©": 1629,
      "ĠopÄĽt": 1630,
      "lÃ©m": 1631,
      "Ġzmi": 1632,
      "ĠnÃ¡mi": 1633,
      "ĠvÃŃtÄĽz": 1634,
      "chÃ¡zÃŃ": 1635,
      "Ġcos": 1636,
      "ĠjmÃ©": 1637,
      "Ġnikdo": 1638,
      "ĠblÃ¡": 1639,
      "ata": 1640,
      "ĠdvÄĽ": 1641,
      "Å¾o": 1642,
      "ÄįenÃŃ": 1643,
      "ĠvaÅ¡e": 1644,
      "ĠAXAA": 1645,
      "Ġuli": 1646,
      "zou": 1647,
      "ĠXAABBX": 1648,
      "Ġvele": 1649,
      "Ġboji": 1650,
      "ĠÅĻa": 1651,
      "Ġol": 1652,
      "Ġcestu": 1653,
      "ĠvÅ¡ude": 1654,
      "Ġpocho": 1655,
      "ys": 1656,
      "Ġbolest": 1657,
      "hal": 1658,
      "ĠpÅĻem": 1659,
      "he": 1660,
      "Ġsbo": 1661,
      "Ġor": 1662,
      "Ġmatka": 1663,
      "ĠmÃ¡lo": 1664,
      "Ġprach": 1665,
      "ĠnÄĽkdy": 1666,
      "Ġchud": 1667,
      "Ġbohat": 1668,
      "tk": 1669,
      "ĠvstÅĻÃŃ": 1670,
      "lna": 1671,
      "Ġnena": 1672,
      "ĠnÄĽmu": 1673,
      "ĠkaÅ¾dÃ©": 1674,
      "stra": 1675,
      "ĠhoÅĻÃŃ": 1676,
      "ĠmÃ©ho": 1677,
      "Ġvil": 1678,
      "div": 1679,
      "ĠmilÃ½": 1680,
      "ĠvstÅĻÃŃc": 1681,
      "ĠpÄĽk": 1682,
      "Ġvzal": 1683,
      "ĠknÃŃ": 1684,
      "ĠneznÃ¡m": 1685,
      "ĠmrÃ¡": 1686,
      "ĠtrÅ¯": 1687,
      "hÅ¯ru": 1688,
      "ĠsvatÃ©": 1689,
      "tit": 1690,
      "ĠrÃ¡na": 1691,
      "dit": 1692,
      "Ġvod": 1693,
      "ĠpadÃ¡": 1694,
      "ĠprÃ¡vÄĽ": 1695,
      "Ġotev": 1696,
      "Ġstou": 1697,
      "ĠpÅĻiÅ¡el": 1698,
      "ĠhlÃ¡": 1699,
      "Ġzv": 1700,
      "Ġved": 1701,
      "ĠnuÅ¾": 1702,
      "Ġbuj": 1703,
      "ÄįnÃ½": 1704,
      "Ġkouz": 1705,
      "or": 1706,
      "ĠjistÄĽ": 1707,
      "ĠmÃŃr": 1708,
      "Ġkdes": 1709,
      "ĠplÃ¡Äį": 1710,
      "ĠdomÅ¯": 1711,
      "ĠlidÃ©": 1712,
      "ĠÃºsmÄĽv": 1713,
      "Ġran": 1714,
      "ĠstvÃŃ": 1715,
      "Ġtil": 1716,
      "din": 1717,
      "Ġbohu": 1718,
      "ĠchÃ½": 1719,
      "ĠmÃŃsto": 1720,
      "Ġbal": 1721,
      "ĠAABCBC": 1722,
      "sal": 1723,
      "ĠnÄĽmÅ¾": 1724,
      "ĠkrÃ¡lov": 1725,
      "ĠsÃŃly": 1726,
      "ĠnemÃ¡": 1727,
      "Ġvyh": 1728,
      "Ġsvoji": 1729,
      "snÄĽ": 1730,
      "ĠzÅĻÃŃm": 1731,
      "ĠzlatÃ½": 1732,
      "ĠsvÄĽtla": 1733,
      "tnÃ©": 1734,
      "ĠhoÅĻe": 1735,
      "Ġsama": 1736,
      "ĠmlÃ¡dÃŃ": 1737,
      "Ġrychle": 1738,
      "Ġzdvi": 1739,
      "ĠvÅ¡echno": 1740,
      "sce": 1741,
      "Ġas": 1742,
      "ĠprÃ¡ci": 1743,
      "Ġjaro": 1744,
      "ĠmÃŃt": 1745,
      "ĠmilÃ¡": 1746,
      "Ġzbra": 1747,
      "Ġproud": 1748,
      "Ġhal": 1749,
      "ĠstÃŃny": 1750,
      "ĠslÃ¡vy": 1751,
      "ĠprÃ¡ce": 1752,
      "lenÃŃ": 1753,
      "dne": 1754,
      "ĠbouÅĻe": 1755,
      "ĠkrÃ¡sy": 1756,
      "Ġfi": 1757,
      "Ġspat": 1758,
      "Ġov": 1759,
      "Ġnev": 1760,
      "ĠzÃ¡ÅĻi": 1761,
      "Å¯v": 1762,
      "mÄĽnÃŃ": 1763,
      "ĠneÅ¾li": 1764,
      "Ġvyp": 1765,
      "ĠpÅĻijde": 1766,
      "Ġtrochu": 1767,
      "ĠÅ¡la": 1768,
      "Ġhovo": 1769,
      "ĠmÃ½m": 1770,
      "Ġkrok": 1771,
      "Ġboha": 1772,
      "ĠdÅ¯m": 1773,
      "ĠtÅĻpy": 1774,
      "Ġsr": 1775,
      "ĠnaÅ¡ÃŃ": 1776,
      "Ġstrom": 1777,
      "ĠpÅĻij": 1778,
      "ĠvzhÅ¯ru": 1779,
      "ĠÄı": 1780,
      "ĠskrÃ½": 1781,
      "ĠdÄĽv": 1782,
      "Ġchem": 1783,
      "ĠX": 1784,
      "Ġzr": 1785,
      "lost": 1786,
      "Ġaj": 1787,
      "ĠhÅ¯": 1788,
      "ckÃ©": 1789,
      "Ġhospo": 1790,
      "Ġbyli": 1791,
      "ĠlidÃŃ": 1792,
      "ĠpÃŃsnÃŃ": 1793,
      "ĠzpÃŃvÃ¡": 1794,
      "cy": 1795,
      "ĠmoÅ¾": 1796,
      "Ãº": 1797,
      "Å¾eh": 1798,
      "der": 1799,
      "ĠandÄĽl": 1800,
      "ĠjakÃ©": 1801,
      "ĠtvÃ¡ÅĻe": 1802,
      "ÅĻa": 1803,
      "Ġspolu": 1804,
      "ĠnÄĽÅ¾": 1805,
      "Ġkat": 1806,
      "ĠÅ¡ko": 1807,
      "skÃ©ho": 1808,
      "Ġkoru": 1809,
      "ĠzaÄį": 1810,
      "ĠnevÃŃ": 1811,
      "Ġzvolna": 1812,
      "vila": 1813,
      "Ġbyly": 1814,
      "Ġslovo": 1815,
      "ĠtvÃ¡ÅĻÃŃ": 1816,
      "Ġnav": 1817,
      "nula": 1818,
      "Ġvzdech": 1819,
      "Ġducha": 1820,
      "Ġrozp": 1821,
      "valy": 1822,
      "Ġopu": 1823,
      "Ġnapo": 1824,
      "Ġtolik": 1825,
      "Ġpout": 1826,
      "ĠkvÄĽtÅ¯": 1827,
      "Ġvzduch": 1828,
      "ĠpovÄĽ": 1829,
      "Ġvzp": 1830,
      "Ġzraky": 1831,
      "stup": 1832,
      "Ã¡c": 1833,
      "ĠÅĻeÄį": 1834,
      "Ġmysli": 1835,
      "Ġnul": 1836,
      "ĠtvÃ¡ÅĻi": 1837,
      "nÄĽm": 1838,
      "ĠÄįech": 1839,
      "Ġblaho": 1840,
      "Ġzdra": 1841,
      "Ġchla": 1842,
      "jat": 1843,
      "ĠÅ¾lu": 1844,
      "ĠvÄĽÄįnÄĽ": 1845,
      "Äįit": 1846,
      "ĠdolÅ¯": 1847,
      "ĠvlÃŃ": 1848,
      "Ġmen": 1849,
      "ĠvÅ¡ichni": 1850,
      "tila": 1851,
      "Ġchat": 1852,
      "hod": 1853,
      "Å¾Ã¡": 1854,
      "ĠzrÃ¡": 1855,
      "ĠmÄĽsta": 1856,
      "Ġvyso": 1857,
      "Ġnek": 1858,
      "ĠklÃ¡": 1859,
      "bra": 1860,
      "ĠkÃ¡m": 1861,
      "Ġdle": 1862,
      "Ġbudu": 1863,
      "ĠÅ¾ÃŃt": 1864,
      "Ġdoby": 1865,
      "ĠvÄĽk": 1866,
      "vÃ©ho": 1867,
      "ĠnichÅ¾": 1868,
      "ĠÅ¾iv": 1869,
      "Ġmd": 1870,
      "ĠvÄįe": 1871,
      "Ġples": 1872,
      "rÃ©m": 1873,
      "ĠÅ¾el": 1874,
      "Ġnel": 1875,
      "Ġhoj": 1876,
      "nici": 1877,
      "ĠvÃŃÅ¡": 1878,
      "ĠAABBXX": 1879,
      "Ġvon": 1880,
      "Ġsebou": 1881,
      "Ġpodo": 1882,
      "Ġzdo": 1883,
      "Ġzy": 1884,
      "ĠmyÅ¡lÃ©": 1885,
      "ĠÄįekÃ¡": 1886,
      "Ġprsou": 1887,
      "Ġkrva": 1888,
      "Å¾ÃŃm": 1889,
      "Ġprch": 1890,
      "ĠzvÃŃ": 1891,
      "Ġlesy": 1892,
      "Ġopo": 1893,
      "Ġbratr": 1894,
      "Ġdil": 1895,
      "sek": 1896,
      "ĠchrÃ¡m": 1897,
      "dÄĽj": 1898,
      "Ġvlny": 1899,
      "stil": 1900,
      "ĠÄįernÃ©": 1901,
      "lÃ©b": 1902,
      "!...": 1903,
      "ĠtisÃŃc": 1904,
      "rech": 1905,
      "ĠmÄĽk": 1906,
      "Ġuz": 1907,
      "ĠjinÃ©": 1908,
      "Ġtouhy": 1909,
      "Ġtan": 1910,
      "ĠÄįest": 1911,
      "Ġpev": 1912,
      "ĠnaÅ¡ich": 1913,
      "ĠcÃŃch": 1914,
      "stem": 1915,
      "Ġply": 1916,
      "ĠkdoÅ¾": 1917,
      "gi": 1918,
      "Ġchmu": 1919,
      "Ġhlubi": 1920,
      "dila": 1921,
      "Ġstud": 1922,
      "Ġtek": 1923,
      "Ġtakto": 1924,
      "ĠlÃ¡sce": 1925,
      "ĠsladkÃ©": 1926,
      "Ġcen": 1927,
      "skÃ©m": 1928,
      "ĠABBAXX": 1929,
      "skÃ½m": 1930,
      "Ġokem": 1931,
      "ÅĻela": 1932,
      "Ġnap": 1933,
      "ĠpÅĻÃŃro": 1934,
      "Ġdosud": 1935,
      "ĠÄįem": 1936,
      "tko": 1937,
      "Ġmilost": 1938,
      "ĠnocÃŃ": 1939,
      "Ġzvuk": 1940,
      "Ġoba": 1941,
      "Ġkmi": 1942,
      "Ġbohem": 1943,
      "Ġstru": 1944,
      "ĠÄįil": 1945,
      "Ġrov": 1946,
      "ĠmÄĽsÃŃc": 1947,
      "Ġbeze": 1948,
      "ĠvÅ¯nÄĽ": 1949,
      "ĠkrÃ¡snÃ©": 1950,
      "ĠzmÃŃ": 1951,
      "Ġsho": 1952,
      "ĠstÃ©": 1953,
      "roz": 1954,
      "ĠvÃ½Å¡e": 1955,
      "Ġvna": 1956,
      "ĠpÅ¯j": 1957,
      "Å¡ka": 1958,
      "Ġoku": 1959,
      "ĠtÄĽla": 1960,
      "bal": 1961,
      "ĠvÃ½m": 1962,
      "Ġznova": 1963,
      "leh": 1964,
      "ĠÅ¡ed": 1965,
      "Ġperu": 1966,
      "ĠslyÅ¡ÃŃ": 1967,
      "nila": 1968,
      "ĠsvÄĽtem": 1969,
      "Ġzap": 1970,
      "stech": 1971,
      "letÃŃ": 1972,
      "ĠprÅ¯": 1973,
      "Ġslov": 1974,
      "Ġcy": 1975,
      "ĠhnÃŃ": 1976,
      "rk": 1977,
      "ĠAAXA": 1978,
      "ĠÄįasem": 1979,
      "sÃŃm": 1980,
      "roj": 1981,
      "Ġchvil": 1982,
      "ĠdÃ½ch": 1983,
      "ĠsedÃŃ": 1984,
      "teli": 1985,
      "ĠnesmÃŃ": 1986,
      "Ġned": 1987,
      "tÅĻe": 1988,
      "ĠpojÄı": 1989,
      "cela": 1990,
      "nÃ¡nÃŃ": 1991,
      "Ġzav": 1992,
      "Ġvody": 1993,
      "ĠnÃ¡d": 1994,
      "ĠrÃ½": 1995,
      "ĠkÅĻÃŃdla": 1996,
      "ĠhÅĻÃŃch": 1997,
      "ĠlÃŃce": 1998,
      "Ġkva": 1999,
      "Å¡nÄĽ": 2000,
      "ABBA": 2001,
      "Ġhej": 2002,
      "ĠmÃ©m": 2003,
      "ĠusmÃŃ": 2004,
      "ĠmyÅ¡len": 2005,
      "Ġvyz": 2006,
      "mÄĽl": 2007,
      "ĠvzdÃ¡": 2008,
      "ĠABABAB": 2009,
      "novÃ©": 2010,
      "ĠvÄĽky": 2011,
      "Ġklam": 2012,
      "ĠjakÃ¡": 2013,
      "Ġpropa": 2014,
      "ĠhvÄĽzda": 2015,
      "ĠhoÅĻ": 2016,
      "ĠÅ¡li": 2017,
      "ĠpravÃŃ": 2018,
      "zni": 2019,
      "Ġrod": 2020,
      "ĠslyÅ¡e": 2021,
      "Ġzvy": 2022,
      "Ġtisk": 2023,
      "cit": 2024,
      "kÃ¡m": 2025,
      "valo": 2026,
      "ĠcelÃ¡": 2027,
      "Ġdrob": 2028,
      "Ġobzo": 2029,
      "ĠnaÄį": 2030,
      "ĠvÃ¡l": 2031,
      "Ġtre": 2032,
      "Ġhloub": 2033,
      "Ġpta": 2034,
      "Ġsoud": 2035,
      "jel": 2036,
      "Ġpozdra": 2037,
      "kÃ¡nÃŃ": 2038,
      "ĠsÅ¯": 2039,
      "ĠjÃŃt": 2040,
      "ĠtÄĽm": 2041,
      "ĠkrvÃŃ": 2042,
      "Ġkterak": 2043,
      "ĠztrÃ¡": 2044,
      "lez": 2045,
      "Ġdomo": 2046,
      "Ġver": 2047,
      "Ġubo": 2048,
      "ĠlÃŃc": 2049,
      "Ġar": 2050,
      "ĠÄįele": 2051,
      "vol": 2052,
      "Ġmodlit": 2053,
      "ĠsnÄĽnÃŃ": 2054,
      "ĠzÃ¡vo": 2055,
      "ĠhnÄĽv": 2056,
      "chÃ½": 2057,
      "Ġnit": 2058,
      "ali": 2059,
      "Ġobje": 2060,
      "ĠtoÅ¾": 2061,
      "ĠmluvÃŃ": 2062,
      "ĠstarÃ¡": 2063,
      "ĠzaÅ¡": 2064,
      "Ġkole": 2065,
      "nÃ¡Å¡ÃŃ": 2066,
      "Ġfa": 2067,
      "Ġhlad": 2068,
      "klo": 2069,
      "ÅĻed": 2070,
      "Ġotro": 2071,
      "ĠtvÃ½m": 2072,
      "ĠmyslÃŃ": 2073,
      "Ġcesty": 2074,
      "hra": 2075,
      "Ġzti": 2076,
      "del": 2077,
      "ĠjinÃ½": 2078,
      "ĠÃºst": 2079,
      "ĠslavÃŃ": 2080,
      "Ġnost": 2081,
      "Ã½vÃ¡": 2082,
      "ĠzÃ¡pas": 2083,
      "ĠnevÃŃm": 2084,
      "ĠblaÅ¾en": 2085,
      "ĠskvÄĽ": 2086,
      "Ġmohu": 2087,
      "lila": 2088,
      "hlÃŃ": 2089,
      "ĠhleÄı": 2090,
      "Ġjedna": 2091,
      "rel": 2092,
      "hled": 2093,
      "ĠÅ¾ije": 2094,
      "Ġkterou": 2095,
      "ĠdlÃŃ": 2096,
      "Ġkdysi": 2097,
      "sen": 2098,
      "ĠmÄĽla": 2099,
      "Å¡ku": 2100,
      "ĠXXA": 2101,
      "Ġoblo": 2102,
      "ĠnÄĽco": 2103,
      "zrak": 2104,
      "ĠhÅĻe": 2105,
      "Ġslza": 2106,
      "ĠzÃ¡ÅĻe": 2107,
      "Ġvedle": 2108,
      "Ġcestou": 2109,
      "met": 2110,
      "zal": 2111,
      "ĠslÃ¡va": 2112,
      "ĠstÃ¡t": 2113,
      "Ġtouha": 2114,
      "ĠjÃŃÅ¾": 2115,
      "Ġpest": 2116,
      "Ġnelze": 2117,
      "ĠcÃŃtÃŃ": 2118,
      "Ġdosti": 2119,
      "ĠzboÅ¾": 2120,
      "nko": 2121,
      "kone": 2122,
      "Å¡t": 2123,
      "ĠbÃŃlÃ¡": 2124,
      "ĠplnÃ½": 2125,
      "ĠdÃŃvÃ¡": 2126,
      "Ġkmen": 2127,
      "ÅĻenÃŃ": 2128,
      "vati": 2129,
      "Å¾it": 2130,
      "Ġzal": 2131,
      "ujÃŃ": 2132,
      "Ġjara": 2133,
      "ĠvÅ¡echny": 2134,
      "on": 2135,
      "Å¾enÃŃ": 2136,
      "Ġdole": 2137,
      "Ġmatky": 2138,
      "ĠdÄĽc": 2139,
      "ĠsvÃ©mu": 2140,
      "ĠbouÅĻÃŃ": 2141,
      "ĠmladÃ½": 2142,
      "ĠskÃ¡ly": 2143,
      "Ġble": 2144,
      "ĠdÃ¡t": 2145,
      "Ġohni": 2146,
      "Ġvsta": 2147,
      "Ġslunci": 2148,
      "ĠmoÅĻi": 2149,
      "Ġvln": 2150,
      "ĠslÃŃ": 2151,
      "Ġkap": 2152,
      "mlu": 2153,
      "kro": 2154,
      "liÅ¡": 2155,
      "Ġdav": 2156,
      "Ġhodi": 2157,
      "ĠcÃŃsa": 2158,
      "ĠÄįela": 2159,
      "Ġhlasem": 2160,
      "rÃ¡til": 2161,
      "Ġdoma": 2162,
      "tÄĽl": 2163,
      "Ġ,": 2164,
      "Ġnaz": 2165,
      "Ġvez": 2166,
      "ĠvÄĽc": 2167,
      "ĠmnohÃ½": 2168,
      "Ġstrach": 2169,
      "ĠtvÃ©m": 2170,
      "Ġhoch": 2171,
      "ĠrÃ¡j": 2172,
      "Ġhrobu": 2173,
      "BB": 2174,
      "Ġlep": 2175,
      "ĠbÄĽda": 2176,
      "ĠmojÃŃ": 2177,
      "ĠhlÃŃ": 2178,
      "dÄĽli": 2179,
      "ĠdvÃ©": 2180,
      "ĠtvÃ©ho": 2181,
      "nouti": 2182,
      "ĠÃºsta": 2183,
      "Ġcelou": 2184,
      "uj": 2185,
      "ĠnÃ©m": 2186,
      "kÅĻik": 2187,
      "ĠdruÅ¾": 2188,
      "koli": 2189,
      "Ġrozum": 2190,
      "Ġohe": 2191,
      "ckÃ½": 2192,
      "Ã¡ch": 2193,
      "Ġnohou": 2194,
      "ĠÅĻÃŃm": 2195,
      "ĠhlavÄĽ": 2196,
      "dr": 2197,
      "ĠdnÅ¯": 2198,
      "ĠjehoÅ¾": 2199,
      "ĠkaÅ¾dÃ¡": 2200,
      "tajÃŃ": 2201,
      "Ġminu": 2202,
      "ĠbyÅ¥": 2203,
      "Ġpravil": 2204,
      "Ġzpo": 2205,
      "dra": 2206,
      "ech": 2207,
      "ĠstÃŃnu": 2208,
      "ĠsladkÃ½": 2209,
      "in": 2210,
      "ĠuÄįi": 2211,
      "Ġokam": 2212,
      "ĠstromÅ¯": 2213,
      "Ġtrp": 2214,
      "str": 2215,
      "hÃ½ch": 2216,
      "ĠmuÅ¾i": 2217,
      "Ġmile": 2218,
      "Ġkraje": 2219,
      "ĠsvÄĽÅ¾ÃŃ": 2220,
      "Ġvzdy": 2221,
      "Ġtvrd": 2222,
      "ĠÄįÃ¡": 2223,
      "kala": 2224,
      "ĠoheÅĪ": 2225,
      "Ġramen": 2226,
      "dky": 2227,
      "Ġman": 2228,
      "Ġlil": 2229,
      "ĠdobrÃ©": 2230,
      "Å¡ek": 2231,
      "ĠdÃ¡lky": 2232,
      "ĠmÃ½": 2233,
      "Ġruky": 2234,
      "ĠplnÃ©": 2235,
      "ĠkrÃ¡snÃ¡": 2236,
      "Ġruch": 2237,
      "ĠÅĻÃŃci": 2238,
      "ĠklidnÄĽ": 2239,
      "ĠpÄĽt": 2240,
      "ĠhledÃ¡": 2241,
      "ĠhnÃŃz": 2242,
      "ĠloÄı": 2243,
      "ĠzatÃŃm": 2244,
      "vec": 2245,
      "Ġkonec": 2246,
      "ĠzdrÃ¡": 2247,
      "Ġsnu": 2248,
      "ÅĻo": 2249,
      "ĠdobrÃ½": 2250,
      "dajÃŃ": 2251,
      "ĠklÃŃn": 2252,
      "Ġrak": 2253,
      "vad": 2254,
      "XXA": 2255,
      "Ġal": 2256,
      "Ġzam": 2257,
      "Ġspi": 2258,
      "Ġprosto": 2259,
      "Ġtako": 2260,
      "ĠkrÃ¡ÄįÃŃ": 2261,
      "spoÅĪ": 2262,
      "ĠjarnÃŃ": 2263,
      "Ġrok": 2264,
      "ĠtÃ©to": 2265,
      "ĠmladÃ©": 2266,
      "Ġskle": 2267,
      "Ġtmy": 2268,
      "ĠchÅ¯": 2269,
      "ÅĻÃ¡s": 2270,
      "Ġvlasy": 2271,
      "ĠrÃ¡no": 2272,
      "ĠnadÄĽje": 2273,
      "ĠkÃ©Å¾": 2274,
      "Ġvti": 2275,
      "ÅĻÃŃt": 2276,
      "ĠnaÅĪ": 2277,
      "Ġdobro": 2278,
      "Ġsmys": 2279,
      "ĠsÃŃla": 2280,
      "lnÃŃ": 2281,
      "Ġpry": 2282,
      "neÅ¡": 2283,
      "ĠvyÅ¡": 2284,
      "Äįet": 2285,
      "sed": 2286,
      "ĠlidskÃ©": 2287,
      "ĠchceÅ¡": 2288,
      "Ġstesk": 2289,
      "Ġjakby": 2290,
      "ĠdÃ¡vÃ¡": 2291,
      "sÅ¯": 2292,
      "Ġotce": 2293,
      "ĠvÄĽÄįnÃ©": 2294,
      "Ġhlo": 2295,
      "ĠstrÃ¡Å¾": 2296,
      "Ġrty": 2297,
      "lÃ©t": 2298,
      "ĠÄįt": 2299,
      "ĠÅĻad": 2300,
      "BX": 2301,
      "ek": 2302,
      "dala": 2303,
      "Å¡ky": 2304,
      "Å¡nÃ©": 2305,
      "Ġnebyl": 2306,
      "ĠkÃ¡men": 2307,
      "ĠmuÅ¾e": 2308,
      "dat": 2309,
      "ĠdrahÃ¡": 2310,
      "Ġrost": 2311,
      "ĠmÃ¡me": 2312,
      "Ġsud": 2313,
      "prv": 2314,
      "ĠnemÄĽ": 2315,
      "Ġpravda": 2316,
      "Ġspa": 2317,
      "Ġzro": 2318,
      "XABB": 2319,
      "ĠlÃ©ta": 2320,
      "kali": 2321,
      "ĠslyÅ¡el": 2322,
      "ĠtichÃ©": 2323,
      "tom": 2324,
      "ĠvÄĽtr": 2325,
      "Ġsled": 2326,
      "Ġnade": 2327,
      "zeÅĪ": 2328,
      "ĠrÃ¡ny": 2329,
      "ĠmilÃ©": 2330,
      "ĠjichÅ¾": 2331,
      "Ġspou": 2332,
      "ĠtisÃŃce": 2333,
      "ĠoltÃ¡": 2334,
      "ĠpÃ©": 2335,
      "ĠrÃ¡z": 2336,
      "dej": 2337,
      "Ġbrzy": 2338,
      "Ġhem": 2339,
      "Ġcest": 2340,
      "hnu": 2341,
      "Å¡ÃŃch": 2342,
      "Ġstvo": 2343,
      "ĠÄįernÃ½": 2344,
      "Ġvztek": 2345,
      "Ġnekone": 2346,
      "ĠaspoÅĪ": 2347,
      "ĠÅ¾eh": 2348,
      "Äįin": 2349,
      "ĠrytÃŃ": 2350,
      "Ġradosti": 2351,
      "ĠjÃŃmÅ¾": 2352,
      "Ġkar": 2353,
      "ĠÅĻeÄįi": 2354,
      "ĠmalÃ½": 2355,
      "Ġasi": 2356,
      "van": 2357,
      "ĠdruhÃ½": 2358,
      "ĠÄįin": 2359,
      "ĠzÃŃtra": 2360,
      "Ġpodzi": 2361,
      "losti": 2362,
      "ĠdrahÃ©": 2363,
      "Ġhrom": 2364,
      "Ġtento": 2365,
      "ĠtichÃ½": 2366,
      "ĠcÃŃtÃŃm": 2367,
      "ĠrÅ¯Å¾ÃŃ": 2368,
      "mr": 2369,
      "ĠmotÃ½": 2370,
      "Ġjazy": 2371,
      "ĠdlouhÃ©": 2372,
      "mÃ½": 2373,
      "Ġblanky": 2374,
      "Ġjinak": 2375,
      "Ġrodi": 2376,
      "ĠpÅĻede": 2377,
      "cel": 2378,
      "Ġtry": 2379,
      "ĠÅĻekl": 2380,
      "ĠÄįet": 2381,
      "ĠzdÃ¡lo": 2382,
      "noucÃŃ": 2383,
      "Ġchle": 2384,
      "ĠmÃŃru": 2385,
      "Ġano": 2386,
      "Ġdoko": 2387,
      "Ġznovu": 2388,
      "Ġjdu": 2389,
      "Å¡te": 2390,
      "ĠpoÅ¾eh": 2391,
      "Ġpovz": 2392,
      "ĠpÅĻÃŃliÅ¡": 2393,
      "kaz": 2394,
      "Ġsrdcem": 2395,
      "ĠpovÃŃ": 2396,
      "Ġnak": 2397,
      "Ġstromy": 2398,
      "klÃ¡": 2399,
      "Ġzach": 2400,
      "Ġprapo": 2401,
      "Ġmoji": 2402,
      "Ġrek": 2403,
      "ĠÅ¾alo": 2404,
      "rÃ¡ch": 2405,
      "snÃ©": 2406,
      "el": 2407,
      "Ġhar": 2408,
      "ĠvÄĽkÅ¯": 2409,
      "rnÃ¡": 2410,
      "Ġroste": 2411,
      "Ġjmen": 2412,
      "ĠmrÃ¡z": 2413,
      "Ġboje": 2414,
      "Ġnil": 2415,
      "nami": 2416,
      "Ġhas": 2417,
      "ĠmÄĽsto": 2418,
      "ĠvÄĽtÅ¡ÃŃ": 2419,
      "Ġdarmo": 2420,
      "Ġhloubi": 2421,
      "sle": 2422,
      "Ġcesta": 2423,
      "ĠvÃŃru": 2424,
      "ĠdÃŃvka": 2425,
      "kat": 2426,
      "ĠdobÄĽ": 2427,
      "Ġjiz": 2428,
      "Ġzmat": 2429,
      "ÅĻila": 2430,
      "ĠkrÃ¡snÃ½": 2431,
      "Ġprachu": 2432,
      "ĠlesÅ¯": 2433,
      "Ġzhas": 2434,
      "Ġdny": 2435,
      "ĠchodÃŃ": 2436,
      "sel": 2437,
      "tele": 2438,
      "Ġsbor": 2439,
      "Ġklad": 2440,
      "ĠABA": 2441,
      "ĠzÃ¡ko": 2442,
      "ĠXAXABB": 2443,
      "ĠkvÃŃtÃŃ": 2444,
      "bnÃŃ": 2445,
      "Ġpov": 2446,
      "Ġvede": 2447,
      "ĠbratÅĻÃŃ": 2448,
      "Ġcti": 2449,
      "ec": 2450,
      "Ġplach": 2451,
      "tnÄĽ": 2452,
      "ĠkrÃ¡li": 2453,
      "ĠdÄĽdi": 2454,
      "ĠpÃ¡r": 2455,
      "ĠpryÄį": 2456,
      "Äįkou": 2457,
      "Ġzrakem": 2458,
      "pÃ½": 2459,
      "ĠdruhÃ©": 2460,
      "ĠÅĻil": 2461,
      "rnÃŃ": 2462,
      "Ġstal": 2463,
      "Ġmilosti": 2464,
      "ĠmÅ¾i": 2465,
      "ĠkteÅĻÃŃ": 2466,
      "brÃ¡": 2467,
      "Ġchvat": 2468,
      "ÄįÃ¡": 2469,
      "tnÃ½": 2470,
      "ĠAXXA": 2471,
      "ĠzÅ¯sta": 2472,
      "lÃ©ho": 2473,
      "Ġstaro": 2474,
      "Ġrej": 2475,
      "vÃŃrÃ¡": 2476,
      "Ġvzne": 2477,
      "Ġonen": 2478,
      "ĠÄįasu": 2479,
      "ÄįnÃ¡": 2480,
      "ĠblÃŃz": 2481,
      "ĠvaÅ¡i": 2482,
      "ĠcÃŃtil": 2483,
      "dÃ¡m": 2484,
      "Ġsest": 2485,
      "Ġsad": 2486,
      "ĠnedÃ¡": 2487,
      "ĠbÃ¡snÃŃ": 2488,
      "ĠknÃŃÅ¾e": 2489,
      "Ġklet": 2490,
      "Ġtruch": 2491,
      "Ġmilen": 2492,
      "mat": 2493,
      "ĠvÅ¡ÃŃm": 2494,
      "ĠÅ¡umÃŃ": 2495,
      "ĠchvÄĽje": 2496,
      "ĠmajÃŃ": 2497,
      "ĠbÅĻehu": 2498,
      "livÄĽ": 2499,
      "Ġhrudi": 2500,
      "Ġhost": 2501,
      "ĠtenkrÃ¡t": 2502,
      "es": 2503,
      "Ġlesa": 2504,
      "vej": 2505,
      "ĠpÅĻÃŃÅ¡tÃŃ": 2506,
      "ĠzvlÃ¡": 2507,
      "Ġzni": 2508,
      "ĠpÃŃsni": 2509,
      "Ġset": 2510,
      "ĠlÃŃb": 2511,
      "ĠlistÃŃ": 2512,
      "ĠpÃ¡ni": 2513,
      "Ġokna": 2514,
      "Ġjestli": 2515,
      "Ġscho": 2516,
      "ĠvzÃ¡c": 2517,
      "Ġdve": 2518,
      "ĠblÃ½": 2519,
      "ĠbudeÅ¡": 2520,
      "ÅĻek": 2521,
      "ĠsÃŃlu": 2522,
      "Ġposud": 2523,
      "Ġpln": 2524,
      "Ġspas": 2525,
      "ĠdlaÅĪ": 2526,
      "tost": 2527,
      "Ġmysl": 2528,
      "Ġduchu": 2529,
      "tÃ¡m": 2530,
      "nala": 2531,
      "mys": 2532,
      "ĠÄıÃ¡": 2533,
      "lku": 2534,
      "Ġleb": 2535,
      "ĠvÅ¯kol": 2536,
      "ĠslyÅ¡ÃŃm": 2537,
      "ĠrÅ¯Å¾o": 2538,
      "ĠnÃ¡ruÄį": 2539,
      "Ġtouhou": 2540,
      "bit": 2541,
      "kÅ¯m": 2542,
      "Ġsme": 2543,
      "chal": 2544,
      "Ġvp": 2545,
      "ĠmalÃ©": 2546,
      "her": 2547,
      "Ġsnem": 2548,
      "Ġnesly": 2549,
      "Ġdum": 2550,
      "ĠrÃ¡zem": 2551,
      "ĠnemÅ¯": 2552,
      "ĠÅĪa": 2553,
      "snÃ½": 2554,
      "Ġviz": 2555,
      "ĠvÅ¡emi": 2556,
      "ĠrÅ¯z": 2557,
      "ĠkrÃ¡se": 2558,
      "ĠsplÃ½": 2559,
      "ĠskrÃ¡ÅĪ": 2560,
      "nd": 2561,
      "ĠÅ¡a": 2562,
      "Ġskvost": 2563,
      "Ġsten": 2564,
      "ĠkonÄĽ": 2565,
      "ĠvÅ¯le": 2566,
      "ĠÅĪader": 2567,
      "Å¡lo": 2568,
      "ĠzachvÄĽ": 2569,
      "ĠvalÃŃ": 2570,
      "ĠznÄĽl": 2571,
      "Ġsva": 2572,
      "Ġmni": 2573,
      "Ġznamen": 2574,
      "Ġzapla": 2575,
      "ĠkrÃ¡le": 2576,
      "ĠjasnÃ©": 2577,
      "ĠokamÅ¾i": 2578,
      "ck": 2579,
      "Ġlese": 2580,
      "ĠsvÄĽtu": 2581,
      "Ġlidstva": 2582,
      "stÃ¡vÃ¡": 2583,
      "Ġzoufal": 2584,
      "ĠĠĊ": 2585,
      "ĠvÄĽÄįnÃ½": 2586,
      "ĠrozkoÅ¡": 2587,
      "Ġsma": 2588,
      "ĠzapomnÄĽ": 2589,
      "Ġzasta": 2590,
      "ĠpÃ½ch": 2591,
      "Ġpravdu": 2592,
      "rom": 2593,
      "Ġvenku": 2594,
      "Ġnevin": 2595,
      "Äįila": 2596,
      "Ġrozm": 2597,
      "bÃ½": 2598,
      "Ġbudouc": 2599,
      "Ġkoste": 2600,
      "mÃ¡ch": 2601,
      "Ġzadu": 2602,
      "ĠklonÃŃ": 2603,
      "ĠjmÃ©no": 2604,
      "jal": 2605,
      "ĠsvatÃ¡": 2606,
      "ÅĻenÃ©": 2607,
      "ĠoÄįÃŃch": 2608,
      "ĠvÄĽÅĻ": 2609,
      "Ġnas": 2610,
      "Ġlidem": 2611,
      "ĠzÃ¡hy": 2612,
      "ĠovÅ¡em": 2613,
      "Ġpramen": 2614,
      "Ġnechce": 2615,
      "Ġchal": 2616,
      "ĠdÃŃm": 2617,
      "Ġpoe": 2618,
      "pÅ¯": 2619,
      "ĠcÃŃl": 2620,
      "ĠpÅĻiÅ¡la": 2621,
      "ĠtÄĽÅ¾kÃ©": 2622,
      "klad": 2623,
      "Ġfran": 2624,
      "ĠvÃ½Å¡i": 2625,
      "chÃ¡ze": 2626,
      "Ġztracen": 2627,
      "ĠkrÅ¯": 2628,
      "Ġdala": 2629,
      "ĠplÃ¡Äįe": 2630,
      "vin": 2631,
      "Ġzdi": 2632,
      "kajÃŃ": 2633,
      "ĠrÃ©": 2634,
      "man": 2635,
      "Ġpodzim": 2636,
      "penÃŃ": 2637,
      "jÃŃt": 2638,
      "ĠdÄĽtÃŃ": 2639,
      "ĠdÅ¯vÄĽ": 2640,
      "Å¾ka": 2641,
      "dÃ¡nÃŃ": 2642,
      "Ġsladce": 2643,
      "ĠXXAABB": 2644,
      "klÃŃ": 2645,
      "Ġchyt": 2646,
      "ĠtÃ³": 2647,
      "zÃŃm": 2648,
      "ĠstÅ¯": 2649,
      "ĠchtÃŃ": 2650,
      "nosÅ¥": 2651,
      "Äįnou": 2652,
      "Ġmohl": 2653,
      "nÃ©mu": 2654,
      "Ġhrou": 2655,
      "ĠmodrÃ©": 2656,
      "Ġchra": 2657,
      "Ġnohy": 2658,
      "Ġnim": 2659,
      "ĠAAXB": 2660,
      "cet": 2661,
      "hli": 2662,
      "Ġur": 2663,
      "ĠbÅĻÃŃ": 2664,
      "Ġspra": 2665,
      "Ġpokoj": 2666,
      "dl": 2667,
      "ĠdrahÃ½": 2668,
      "ĠmizÃŃ": 2669,
      "ĠkrÃ¡sa": 2670,
      "Ġboku": 2671,
      "ĠzÃ¡m": 2672,
      "jÃŃch": 2673,
      "ĠrÃ¡da": 2674,
      "ĠsmutnÄĽ": 2675,
      "ĠdÄĽla": 2676,
      "Ġzvon": 2677,
      "ĠÅ¡le": 2678,
      "ĠchtÄĽla": 2679,
      "ju": 2680,
      "stvo": 2681,
      "ĠvÄĽz": 2682,
      "Ġpas": 2683,
      "ĠmladÃ¡": 2684,
      "Ġnout": 2685,
      "ĠsvÃ½mi": 2686,
      "rnou": 2687,
      "Äįem": 2688,
      "vuje": 2689,
      "Ġkone": 2690,
      "Ġbojo": 2691,
      "Ġdomu": 2692,
      "ĠskÅĻi": 2693,
      "Ġodpu": 2694,
      "ĠstarÃ½ch": 2695,
      "ĠzvonÃŃ": 2696,
      "dka": 2697,
      "ĠjejÃŃm": 2698,
      "ĠsrdcÃŃ": 2699,
      "lÃŃÅ¾ÃŃ": 2700,
      "Ġhad": 2701,
      "Ġzba": 2702,
      "ĠhrobÄĽ": 2703,
      "Ġrozho": 2704,
      "Ġprsa": 2705,
      "ĠmoÅ¾no": 2706,
      "ĠÄįeskÃ©": 2707,
      "ĠbouÅĻi": 2708,
      "Ġzka": 2709,
      "Ġlek": 2710,
      "Å¡le": 2711,
      "vce": 2712,
      "Ġzcela": 2713,
      "ĠdÅĻÃŃve": 2714,
      "ĠÃºtÄĽ": 2715,
      "ĠvzplÃ¡": 2716,
      "Å¡nÃ½": 2717,
      "Ġlam": 2718,
      "ĠnepÅĻÃ¡": 2719,
      "vet": 2720,
      "Ġvrcho": 2721,
      "Ġkruh": 2722,
      "Ġpohle": 2723,
      "Ġjino": 2724,
      "Ġjeze": 2725,
      "rÃ¡m": 2726,
      "Ġtmou": 2727,
      "ĠmÃ¡j": 2728,
      "ĠstÃ¡la": 2729,
      "bito": 2730,
      "Äįej": 2731,
      "lnÄĽ": 2732,
      "ĠÅ¾Ã¡dnÃ½": 2733,
      "ĠÅ¾enu": 2734,
      "Ġvlo": 2735,
      "Ġhlaho": 2736,
      "et": 2737,
      "Ġpravdy": 2738,
      "ĠÅĻas": 2739,
      "ĠvelkÃ¡": 2740,
      "vod": 2741,
      "ĠnepÅĻÃŃ": 2742,
      "cnÄĽ": 2743,
      "Ġmdlo": 2744,
      "ĠzlatÃ¡": 2745,
      "ĠchvÄĽl": 2746,
      "Ġled": 2747,
      "Ġdlo": 2748,
      "ĠmraÄį": 2749,
      "ĠmusÃŃm": 2750,
      "ĠkaÅ¾dou": 2751,
      "nÃ¡Å¡e": 2752,
      "ĠzÃ¡zrak": 2753,
      "ĠdennÄĽ": 2754,
      "dek": 2755,
      "vÃ¡t": 2756,
      "ĠvÃ¡mi": 2757,
      "Ġbil": 2758,
      "Ġom": 2759,
      "Ġtvr": 2760,
      "Ġbro": 2761,
      "ĠmÄĽnÃŃ": 2762,
      "ĠodpovÄĽ": 2763,
      "Ġkrou": 2764,
      "ĠpevnÄĽ": 2765,
      "boj": 2766,
      "stva": 2767,
      "ĠÃºdo": 2768,
      "Ġklu": 2769,
      "ĠbÅĻeh": 2770,
      "Ġpsa": 2771,
      "ĠjedinÃ½": 2772,
      "go": 2773,
      "Ġnec": 2774,
      "Ġsmutek": 2775,
      "ĠkrÅ¯pÄĽ": 2776,
      "Ġjsa": 2777,
      "ĠtouÅ¾ÃŃ": 2778,
      "Ġstk": 2779,
      "ĠbÄĽÅ¾ÃŃ": 2780,
      "ĠstejnÄĽ": 2781,
      "bnÃ©": 2782,
      "ĠvÃ½cho": 2783,
      "sled": 2784,
      "ĠtÃŃÅ¾": 2785,
      "Ġplane": 2786,
      "jÃ¡": 2787,
      "kot": 2788,
      "ĠslÃ¡vÄĽ": 2789,
      "Ġjo": 2790,
      "pÄĽl": 2791,
      "ĠnÃŃz": 2792,
      "ĠzÅĻe": 2793,
      "ĠpÅĻÃ¡tel": 2794,
      "ĠjednÃ©": 2795,
      "ĠskÃ½": 2796,
      "ĠnepÅĻi": 2797,
      "ja": 2798,
      "deme": 2799,
      "Ġprost": 2800,
      "zvu": 2801,
      "Ġpotu": 2802,
      "Ġpaprsk": 2803,
      "Ġhvo": 2804,
      "ĠÅĻeÄįÃŃ": 2805,
      "Ġvle": 2806,
      "Ġbije": 2807,
      "Å¾ila": 2808,
      "Ġmlado": 2809,
      "Ġpodle": 2810,
      "hÃ½m": 2811,
      "Ġstran": 2812,
      "hÃ¡m": 2813,
      "ĠbudÃŃ": 2814,
      "Ġpoho": 2815,
      "Ġteprv": 2816,
      "Ġjednu": 2817,
      "mem": 2818,
      "Ġzhy": 2819,
      "ĠneboÅ¥": 2820,
      "Ġlze": 2821,
      "ĠpÃ½": 2822,
      "Ġhan": 2823,
      "Ġsilou": 2824,
      "vÅ¡": 2825,
      "Ġhez": 2826,
      "ĠkvÄĽti": 2827,
      "kra": 2828,
      "Ġtemno": 2829,
      "Ġkali": 2830,
      "Ġkus": 2831,
      "ĠXXXA": 2832,
      "ĠtÅĻetÃŃ": 2833,
      "ĠsluÅ¾": 2834,
      "ĠvzneÅ¡en": 2835,
      "ĠÅ¡Ã¡": 2836,
      "rce": 2837,
      "ĠdÃ©m": 2838,
      "ĠslÃ¡vu": 2839,
      "ĠzemÃŃ": 2840,
      "dlÃŃ": 2841,
      "ĠzÃ¡pa": 2842,
      "ĠmÃŃti": 2843,
      "ĠspÃŃÅ¡": 2844,
      "lav": 2845,
      "Ġzlata": 2846,
      "ĠdlouhÃ½": 2847,
      "ĠhÅĻbito": 2848,
      "bnÄĽ": 2849,
      "ĠÄįerven": 2850,
      "ĠnoÄįnÃŃ": 2851,
      "vÃ½mi": 2852,
      "Ġpol": 2853,
      "Ġmraky": 2854,
      "Ġzapad": 2855,
      "Ġtrou": 2856,
      "Ġnebylo": 2857,
      "ĠrudÃ©": 2858,
      "nak": 2859,
      "Ġsluch": 2860,
      "rku": 2861,
      "ĠÄįlovÄĽka": 2862,
      "snÃŃ": 2863,
      "ĠtÄĽle": 2864,
      "ĠptÃ¡ci": 2865,
      "nÄĽl": 2866,
      "ĠstavÃŃ": 2867,
      "ĠÅ¾ÃŃti": 2868,
      "Ġkdos": 2869,
      "ĠmalÃ¡": 2870,
      "lenÃ©": 2871,
      "Ġsami": 2872,
      "Ġpodiv": 2873,
      "Ġrozk": 2874,
      "ĠdÅĻe": 2875,
      "ĠvracÃŃ": 2876,
      "Ġspole": 2877,
      "Ġporo": 2878,
      "Ġzbu": 2879,
      "jas": 2880,
      "rky": 2881,
      "Ġvlh": 2882,
      "ÅĻÅ¯": 2883,
      "ĠvÅ¯li": 2884,
      "ĠnenÃ¡": 2885,
      "Ġprud": 2886,
      "las": 2887,
      "ĠzÃ¡vi": 2888,
      "ĠbÃŃlÃ½ch": 2889,
      "jÅ¡ÃŃm": 2890,
      "Ġjimi": 2891,
      "kovÃ©": 2892,
      "Ġkrokem": 2893,
      "cÅ¯m": 2894,
      "Ġholu": 2895,
      "tor": 2896,
      "Ġin": 2897,
      "ĠlÃŃbÃ¡": 2898,
      "ĠmlÄįÃŃ": 2899,
      "Ġvstal": 2900,
      "chou": 2901,
      "Ġspad": 2902,
      "stÃŃm": 2903,
      "Ġvzpo": 2904,
      "ĠvÄįera": 2905,
      "stvÃŃm": 2906,
      "ĠrtÅ¯": 2907,
      "Ġnechci": 2908,
      "Ġtva": 2909,
      "ĠknÄĽz": 2910,
      "Ġvstou": 2911,
      "Ġhnu": 2912,
      "ĠhÃ¡j": 2913,
      "Ġhudba": 2914,
      "bli": 2915,
      "Ġau": 2916,
      "ĠÅĻeky": 2917,
      "Ġzrc": 2918,
      "ĠÄįty": 2919,
      "Ġmoci": 2920,
      "ĠÃºzko": 2921,
      "ĠÅĻÃŃÅ¡": 2922,
      "Ġvesele": 2923,
      "liÄį": 2924,
      "ĠkÅĻÃŃd": 2925,
      "ĠsklÃ¡nÃŃ": 2926,
      "dÄĽnÃŃ": 2927,
      "Ġhod": 2928,
      "Ġkost": 2929,
      "Ġmati": 2930,
      "Å¾em": 2931,
      "jednou": 2932,
      "ĠvÃŃr": 2933,
      "ĠnadÅ¡en": 2934,
      "Ġjdi": 2935,
      "Ġoch": 2936,
      "Ġnepro": 2937,
      "ĠkvÄĽtu": 2938,
      "vili": 2939,
      "Ġjal": 2940,
      "Ġdvou": 2941,
      "Ġvzdor": 2942,
      "Ġteh": 2943,
      "ĠbohatÃ½": 2944,
      "kne": 2945,
      "ĠskÃ©": 2946,
      "ĠpÅ¯lno": 2947,
      "teÄį": 2948,
      "dÃ¡ch": 2949,
      "ĠÅĪadra": 2950,
      "ĠvÃ¡c": 2951,
      "dili": 2952,
      "ĠÅ¡edi": 2953,
      "Ġskon": 2954,
      "ĠbledÃ¡": 2955,
      "Ġstrany": 2956,
      "ĠprostÅĻe": 2957,
      "ĠmÄĽst": 2958,
      "ĠbÃ½vÃ¡": 2959,
      "zku": 2960,
      "Ġsoum": 2961,
      "tno": 2962,
      "ĠtÃ¡hne": 2963,
      "ĠnÄĽjak": 2964,
      "ĠknÄĽÅ¾": 2965,
      "Ġbit": 2966,
      "eni": 2967,
      "Ġslovem": 2968,
      "ĠchrÃ¡mu": 2969,
      "liv": 2970,
      "Ġnesou": 2971,
      "Ġhochu": 2972,
      "Ġpes": 2973,
      "Ġsyna": 2974,
      "Ġvar": 2975,
      "ĠÄįist": 2976,
      "Ġuna": 2977,
      "Ġzku": 2978,
      "Ġdni": 2979,
      "Ġzab": 2980,
      "ĠvyÅ¡el": 2981,
      "ĠzpÃ¡": 2982,
      "tev": 2983,
      "ĠrÃ¡je": 2984,
      "pit": 2985,
      "dnÃ½ch": 2986,
      "ĠzÃ¡stup": 2987,
      "Ġvoda": 2988,
      "hÃ¡nÃŃ": 2989,
      "Ġnejs": 2990,
      "hlÃ¡": 2991,
      "us": 2992,
      "Ġtal": 2993,
      "slo": 2994,
      "Ġvznes": 2995,
      "ĠÅ¡tÃŃt": 2996,
      "Ġhradu": 2997,
      "Ġzlatem": 2998,
      "Å¡nÃŃ": 2999,
      "ĠkrÃ¡su": 3000,
      "tÃ½ch": 3001,
      "Ġlili": 3002,
      "lÃ©z": 3003,
      "ĠzlatÃ½ch": 3004,
      "ĠobrÃ¡": 3005,
      "vice": 3006,
      "Ġhlasy": 3007,
      "tala": 3008,
      "bÃ©": 3009,
      "ĠÄįaro": 3010,
      "Ġblesky": 3011,
      "ĠsÃ½": 3012,
      "Ġzrcad": 3013,
      "ĠzvedÃ¡": 3014,
      "ĠzdÄĽ": 3015,
      "ĠvÅ¯nÃŃ": 3016,
      "Ġrtech": 3017,
      "ĠÄįeskÃ½": 3018,
      "Ġkyne": 3019,
      "ĠAAAX": 3020,
      "Ġsic": 3021,
      "ĠpamÄĽ": 3022,
      "ĠnÄĽkdo": 3023,
      "Ġzmo": 3024,
      "bnÃ½": 3025,
      "dali": 3026,
      "Ġnaslou": 3027,
      "ĠÅĻÃŃÅ¡e": 3028,
      "Ġhosti": 3029,
      "Ġnovou": 3030,
      "Ġblaha": 3031,
      "Ġklidu": 3032,
      "kÃ©ho": 3033,
      "Å¾Å¡ÃŃ": 3034,
      "ÅĻÃŃk": 3035,
      "ĠblÃŃÅ¾ÃŃ": 3036,
      "Ġide": 3037,
      "ĠlkÃ¡": 3038,
      "Ġmech": 3039,
      "Å¾enÃ©": 3040,
      "?!": 3041,
      "ĠsrÃ¡": 3042,
      "ĠÄįÃŃÅ¡": 3043,
      "Ġzle": 3044,
      "Ġchod": 3045,
      "sit": 3046,
      "raz": 3047,
      "ĠAX": 3048,
      "ĠsmutnÃ©": 3049,
      "Å¡Å¥ast": 3050,
      "hly": 3051,
      "Ġkmet": 3052,
      "ĠpodÃ¡": 3053,
      "ĠbÃŃlou": 3054,
      "ĠdÃ¡lku": 3055,
      "ĠnÃ¡ch": 3056,
      "dÃŃÅ¡": 3057,
      "Ġjab": 3058,
      "jeÅ¡": 3059,
      "Ġtato": 3060,
      "Ġmlha": 3061,
      "jÃŃce": 3062,
      "Ġvypra": 3063,
      "Ġseve": 3064,
      "enÃ¡": 3065,
      "tvo": 3066,
      "Ġabych": 3067,
      "Ġkroky": 3068,
      "pem": 3069,
      "slu": 3070,
      "Ġnoha": 3071,
      "Ġdnem": 3072,
      "ĠvroucÃŃ": 3073,
      "bÅ¯": 3074,
      "ĠvÄĽn": 3075,
      "Ġposlou": 3076,
      "ĠpÅĻÃŃÅ¡e": 3077,
      "dku": 3078,
      "Ġkomu": 3079,
      "ĠpotÄĽ": 3080,
      "Ġpope": 3081,
      "domÃŃ": 3082,
      "ĠcestÄĽ": 3083,
      "Ġmrtvo": 3084,
      "ĠtÅĻÃ¡s": 3085,
      "ĠvisÃŃ": 3086,
      "Ġobli": 3087,
      "Ġvze": 3088,
      "ĠÃºsmÄĽvem": 3089,
      "ĠABABAX": 3090,
      "Ġnebude": 3091,
      "Äįo": 3092,
      "Ġprobu": 3093,
      "ĠzÅĻÃŃt": 3094,
      "Ġvin": 3095,
      "ĠmÃŃsta": 3096,
      "Ġdali": 3097,
      "ĠcÃŃsaÅĻ": 3098,
      "lky": 3099,
      "ten": 3100,
      "ĠÄįasy": 3101,
      "ĠotÄįe": 3102,
      "ĠmrtvÃ©": 3103,
      "Ġznal": 3104,
      "vÄĽl": 3105,
      "ĠdÃ¡lce": 3106,
      "Ġpoc": 3107,
      "ĠzprÃ¡": 3108,
      "lka": 3109,
      "vÄĽd": 3110,
      "Ġpen": 3111,
      "ĠkÅĻik": 3112,
      "ĠpsÃ¡": 3113,
      "ĠmÄĽli": 3114,
      "Ġjit": 3115,
      "Ġpode": 3116,
      "vanÃ©": 3117,
      "ĠvÃŃry": 3118,
      "Ġplno": 3119,
      "Ġvola": 3120,
      "zna": 3121,
      "ĠvonÃŃ": 3122,
      "Ġvytr": 3123,
      "ĠblÃŃÅ¾e": 3124,
      "Ġtvor": 3125,
      "ĠskÅĻÃŃ": 3126,
      "ĠkÅĻesÅ¥": 3127,
      "ĠmyslÃŃm": 3128,
      "hÃ©m": 3129,
      "Ġluz": 3130,
      "ĠsmÃŃchu": 3131,
      "ĠpÃ¡nÄĽ": 3132,
      "rej": 3133,
      "ĠzvÄĽst": 3134,
      "ĠopuÅ¡tÄĽ": 3135,
      "nÄĽn": 3136,
      "Ġchlu": 3137,
      "Ġuvi": 3138,
      "ĠtÄĽÅ¾kÃ½": 3139,
      "ĠotÃ¡": 3140,
      "Ġtuto": 3141,
      "tÃ¡n": 3142,
      "ĠtvojÃŃ": 3143,
      "ĠhÅĻmÃŃ": 3144,
      "ĠvÃ¡Å¡nÃŃ": 3145,
      "Ġbyst": 3146,
      "ĠobjetÃŃ": 3147,
      "fi": 3148,
      "ĠtoÄįÃŃ": 3149,
      "Ġskr": 3150,
      "Ġzat": 3151,
      "nÄĽnÃŃ": 3152,
      "ĠjasnÃ½": 3153,
      "ĠnenÃ¡vi": 3154,
      "ĠsladkÃ¡": 3155,
      "ĠandÄĽ": 3156,
      "nitÅĻ": 3157,
      "ĠÅ¡lech": 3158,
      "hnou": 3159,
      "ĠvidÄĽt": 3160,
      "ĠvÅĻa": 3161,
      "lenÃ½": 3162,
      "ĠnovÃ¡": 3163,
      "Ġpolib": 3164,
      "ĠslyÅ¡et": 3165,
      "ĠjevÃŃ": 3166,
      "ĠjinÃ½ch": 3167,
      "Ġsynu": 3168,
      "Ġrozu": 3169,
      "ĠklesÃ¡": 3170,
      "Ġbolesti": 3171,
      "ĠvdÄĽk": 3172,
      "ĠÅ¾ene": 3173,
      "Ġmlhy": 3174,
      "ĠkolÃ©b": 3175,
      "Ġkmit": 3176,
      "ĠvÃŃte": 3177,
      "Å¡it": 3178,
      "Ġkonce": 3179,
      "ĠÄįernÃ½ch": 3180,
      "Ġkolo": 3181,
      "Ġmilu": 3182,
      "Ġsvato": 3183,
      "Ġjat": 3184,
      "Ġvelkou": 3185,
      "Ġcizi": 3186,
      "ĠlÃŃto": 3187,
      "ĠohnÄĽm": 3188,
      "Ġsoumrak": 3189,
      "ctvÃŃ": 3190,
      "Ġsnes": 3191,
      "Ġpoch": 3192,
      "Ġlehce": 3193,
      "Ġvsi": 3194,
      "ĠnadÅ¡enÃŃ": 3195,
      "Ġdoba": 3196,
      "Ġroj": 3197,
      "ĠpÃ¡na": 3198,
      "Ġbohy": 3199,
      "Ġstav": 3200,
      "Ġstalo": 3201,
      "ĠvÅ¡a": 3202,
      "Ġluh": 3203,
      "ĠbledÃ©": 3204,
      "Ġjakoby": 3205,
      "Ġtichou": 3206,
      "ĠotcÅ¯": 3207,
      "ĠkoÅĻi": 3208,
      "Ġdokud": 3209,
      "ĠcÃŃrk": 3210,
      "ĠXXABBA": 3211,
      "ĠlÃŃci": 3212,
      "Äįer": 3213,
      "ĠhuÄįÃŃ": 3214,
      "ĠstÃ½": 3215,
      "ĠÄįernÃ¡": 3216,
      "livÃ½": 3217,
      "Ġhora": 3218,
      "Ġkl": 3219,
      "ĠkoÅĻen": 3220,
      "Ġvzduchu": 3221,
      "ĠpatÅĻÃŃ": 3222,
      "ĠXXAAXX": 3223,
      "Ġslz": 3224,
      "ĠmnohÃ©": 3225,
      "Ġutr": 3226,
      "diÅ¾": 3227,
      "ĠlepÅ¡ÃŃ": 3228,
      "rka": 3229,
      "Ġvad": 3230,
      "ĠzlÃŃ": 3231,
      "Ġtk": 3232,
      "ĠtemnÃ©": 3233,
      "Ġtel": 3234,
      "ĠhrÅ¯zou": 3235,
      "Ġdaleko": 3236,
      "Ġproro": 3237,
      "Ġzlatou": 3238,
      "Ġhrdi": 3239,
      "hlu": 3240,
      "tvÃ¡": 3241,
      "ĠsmÄĽle": 3242,
      "ĠvÅ¡emu": 3243,
      "ĠzpÃ¡tky": 3244,
      "Ġpoled": 3245,
      "pro": 3246,
      "ĠstaÅĻe": 3247,
      "ĠnejvÃŃ": 3248,
      "ĠveÅ¡": 3249,
      "ĠzÃŃrÃ¡": 3250,
      "Ġvrah": 3251,
      "ĠtichÃ¡": 3252,
      "ĠvraÅ¾": 3253,
      "ĠcÃ½": 3254,
      "ĠmÄĽj": 3255,
      "ĠtÃ¡bo": 3256,
      "ĠrannÃŃ": 3257,
      "Ġzpu": 3258,
      "ĠjasnÄĽ": 3259,
      "ĠnavÅ¾dy": 3260,
      "Ġbleskem": 3261,
      "hnÄĽ": 3262,
      "ĠdÄĽvÄįe": 3263,
      "Ġcosi": 3264,
      "ĠrÅ¯Å¾i": 3265,
      "chÅ¯": 3266,
      "ĠvÄĽci": 3267,
      "ĠpÅĻÃŃtel": 3268,
      "cÃ½": 3269,
      "Ġdouf": 3270,
      "ĠdobrÃ¡": 3271,
      "Ġctnost": 3272,
      "Ġztich": 3273,
      "Ġej": 3274,
      "ĠdÄĽje": 3275,
      "bem": 3276,
      "ĠdÃŃk": 3277,
      "cenÃŃ": 3278,
      "Ġtichu": 3279,
      "Ġkdesi": 3280,
      "Ġmed": 3281,
      "Ġchcem": 3282,
      "ĠÄįistÃ©": 3283,
      "ĠchlÃ©b": 3284,
      "kojen": 3285,
      "ĠÅĻekla": 3286,
      "ĠzdravÃŃ": 3287,
      "ĠzlÃ½": 3288,
      "ĠloÅ¾e": 3289,
      "Ġtlo": 3290,
      "Ġlev": 3291,
      "jÃŃmÃ¡": 3292,
      "Ġmatko": 3293,
      "lovÃ©": 3294,
      "han": 3295,
      "ĠpoÄįÃŃ": 3296,
      "Ġneroz": 3297,
      "ĠsmutnÃ½": 3298,
      "zra": 3299,
      "nikÃ¡": 3300,
      "ĠvÅ¡ecka": 3301,
      "ĠvolnÄĽ": 3302,
      "ĠvÃŃno": 3303,
      "Å¾enÃ½": 3304,
      "ĠÃºÅ¾": 3305,
      "Ġjel": 3306,
      "Ġosla": 3307,
      "Ġsnil": 3308,
      "Å¡to": 3309,
      "Ġmluvil": 3310,
      "Ġlidstvo": 3311,
      "Ġsmutku": 3312,
      "Ġpomoc": 3313,
      "Ġraj": 3314,
      "ĠÅĻÃ¡d": 3315,
      "Ġpochy": 3316,
      "Ġletu": 3317,
      "ĠkvÄĽtem": 3318,
      "Ġnikde": 3319,
      "ĠzlÃ©": 3320,
      "ĠpÅĻedu": 3321,
      "bÃ¡ch": 3322,
      "ĠtÄĽÅ¾ce": 3323,
      "ĠmrtvÃ½ch": 3324,
      "ÅĪte": 3325,
      "ĠrÃ¡nu": 3326,
      "hajÃŃ": 3327,
      "ĠohnÄĽ": 3328,
      "ĠpÅ¯va": 3329,
      "stupu": 3330,
      "Ġzdali": 3331,
      "Ġoblak": 3332,
      "tkem": 3333,
      "nali": 3334,
      "Ġdechem": 3335,
      "bel": 3336,
      "cenÃ©": 3337,
      "Ġzim": 3338,
      "ga": 3339,
      "rnÃ½ch": 3340,
      "rat": 3341,
      "padÃ¡": 3342,
      "ĠdÃŃvky": 3343,
      "dli": 3344,
      "ĠzÃ¡pad": 3345,
      "Ġbolu": 3346,
      "ĠjimÅ¾": 3347,
      "ĠpromÄĽ": 3348,
      "Äįiny": 3349,
      "ĠÅ¡iro": 3350,
      "Ġosa": 3351,
      "ĠvÅ¡ÃŃ": 3352,
      "ĠplÃ©": 3353,
      "ĠbratÅĻi": 3354,
      "ĠbÃ¡snÃŃk": 3355,
      "ĠmlÃ½": 3356,
      "Ġsluncem": 3357,
      "ĠvyprÃ¡": 3358,
      "Å¡o": 3359,
      "stat": 3360,
      "Ġunaven": 3361,
      "ĠhledÄĽl": 3362,
      "ĠrytÃŃÅĻ": 3363,
      "tÃ¡nÃŃ": 3364,
      "Äįa": 3365,
      "ĠvrÃ¡tÃŃ": 3366,
      "krÃ¡s": 3367,
      "Ġprahu": 3368,
      "ĠbÃ½val": 3369,
      "Ġkom": 3370,
      "ĠhÃ©": 3371,
      "ĠXXXAXA": 3372,
      "Ġjeli": 3373,
      "Ġjakou": 3374,
      "chÃ©": 3375,
      "kovi": 3376,
      "ĠpamÃ¡": 3377,
      "ĠbÃ¡j": 3378,
      "lk": 3379,
      "Å¾nÃ©": 3380,
      "Ġkvetou": 3381,
      "ĠnÃ¡dher": 3382,
      "alu": 3383,
      "ĠmÃ¡te": 3384,
      "ĠbÄĽd": 3385,
      "ĠbloudÃŃ": 3386,
      "Å¾ky": 3387,
      "ĠneznÃ¡": 3388,
      "ĠsmÃ¡l": 3389,
      "Ġvet": 3390,
      "Ġvzpla": 3391,
      "Ġslune": 3392,
      "ĠhrdÄĽ": 3393,
      "Ġvzde": 3394,
      "ĠdÃŃlo": 3395,
      "ĠlÃŃp": 3396,
      "Ġvnu": 3397,
      "ĠnÃŃk": 3398,
      "Ġono": 3399,
      "ĠnemÄĽl": 3400,
      "zky": 3401,
      "ĠvÄĽÅĻÃŃ": 3402,
      "ĠXABAB": 3403,
      "ĠtÅĻese": 3404,
      "ĠÅ¾as": 3405,
      "ĠdÅĻÃŃmÃ¡": 3406,
      "Ġnevz": 3407,
      "nÃŃkÅ¯": 3408,
      "Ġzraku": 3409,
      "nt": 3410,
      "ĠumÄĽnÃŃ": 3411,
      "Ġvlna": 3412,
      "ĠstÄĽny": 3413,
      "Ġstez": 3414,
      "stro": 3415,
      "Ġnaposled": 3416,
      "Ġznak": 3417,
      "Ġoce": 3418,
      "Ġsvatou": 3419,
      "ĠmocnÄĽ": 3420,
      "ĠzbraÅĪ": 3421,
      "ĠlidskÃ½": 3422,
      "zuje": 3423,
      "ĠbledÃ½": 3424,
      "udu": 3425,
      "ĠÅ¡ÃŃm": 3426,
      "Ġnitru": 3427,
      "ĠprovÃ¡": 3428,
      "ĠprosÃŃm": 3429,
      "ĠdÄĽcko": 3430,
      "ĠnemÅ¯Å¾e": 3431,
      "ĠcÃŃm": 3432,
      "ĠhalÃŃ": 3433,
      "rek": 3434,
      "ĠplÃ¡po": 3435,
      "Ġkouzel": 3436,
      "ĠÅĪadrech": 3437,
      "ĠÅ¾ebrÃ¡": 3438,
      "ĠpÅĻÃŃsa": 3439,
      "ĠvÅ¯ni": 3440,
      "ĠÅ¾enou": 3441,
      "Ġhluk": 3442,
      "Ġmatce": 3443,
      "nkou": 3444,
      "Ġdl": 3445,
      "ĠmÅĻÃŃ": 3446,
      "skem": 3447,
      "ĠrokÅ¯": 3448,
      "Ġjindy": 3449,
      "Ġca": 3450,
      "Ġnal": 3451,
      "Ġmaje": 3452,
      "Ġzvuky": 3453,
      "Ġostat": 3454,
      "pÄĽt": 3455,
      "Ġsvad": 3456,
      "nuly": 3457,
      "Ġdraho": 3458,
      "ĠkaÅ¾dÃ©m": 3459,
      "Ġrad": 3460,
      "vÃ¡ch": 3461,
      "Ġluny": 3462,
      "ĠnepÅĻe": 3463,
      "Ġzor": 3464,
      "ĠvaÅ¡ÃŃ": 3465,
      "Ġvelko": 3466,
      "nÅ¯m": 3467,
      "Ġhlav": 3468,
      "ĠradostÃŃ": 3469,
      "tat": 3470,
      "Ġplna": 3471,
      "ĠmlÄįky": 3472,
      "ĠtÄĽl": 3473,
      "Ġpanen": 3474,
      "ĠleÅ¾": 3475,
      "vÃ¡Å¡": 3476,
      "Ġnajde": 3477,
      "Ġjitra": 3478,
      "Ġvyvo": 3479,
      "Ġstane": 3480,
      "Ġber": 3481,
      "ĠdÃ½Å¡e": 3482,
      "Ġslovy": 3483,
      "ÅĪat": 3484,
      "ĠtÄĽÅ¾ko": 3485,
      "Ġvzduchem": 3486,
      "ĠklÃ¡Å¡te": 3487,
      "Ġpouta": 3488,
      "Ġzhou": 3489,
      "Ġmimo": 3490,
      "Ġmodra": 3491,
      "Äįkem": 3492,
      "Ġzar": 3493,
      "Ġneod": 3494,
      "ĠumÃŃrÃ¡": 3495,
      "Ġnero": 3496,
      "tili": 3497,
      "ĠvÃŃra": 3498,
      "Ġral": 3499,
      "ĠseÅĪ": 3500,
      "Ġbod": 3501,
      "ĠtemnÄĽ": 3502,
      "ĠpoznÃ¡": 3503,
      "Ġnach": 3504,
      "ĠsbÃŃ": 3505,
      "slav": 3506,
      "ĠupomÃŃ": 3507,
      "ĠjÃŃc": 3508,
      "ĠpÄĽknÄĽ": 3509,
      "voucÃŃ": 3510,
      "Ġopat": 3511,
      "sÃŃch": 3512,
      "ĠÅ¾Ã¡dnÃ©": 3513,
      "Ġstarou": 3514,
      "ABXB": 3515,
      "ĠtmavÃ©": 3516,
      "Ġdlu": 3517,
      "rÃ¡tÃŃ": 3518,
      "ĠuÅ¡": 3519,
      "Ġsladkou": 3520,
      "Ġspanil": 3521,
      "tnÃ¡": 3522,
      "Ġkoho": 3523,
      "ĠmocÃŃ": 3524,
      "ĠptÃ¡Äįe": 3525,
      "Ġzdvih": 3526,
      "ĠkoneÄįnÄĽ": 3527,
      "ĠpoÅ¾Ã¡": 3528,
      "Ġodkud": 3529,
      "Ġprst": 3530,
      "Ġlidi": 3531,
      "Ġvs": 3532,
      "Ġlodi": 3533,
      "Ġhraje": 3534,
      "ĠsmÄĽje": 3535,
      "ĠnaÅ¡el": 3536,
      "Ġprob": 3537,
      "ĠpozdÄĽ": 3538,
      "Äıte": 3539,
      "Ġvej": 3540,
      "ÄįnÃ½ch": 3541,
      "ĠnovÃ½ch": 3542,
      "ĠhrÃ¡l": 3543,
      "Ġhorou": 3544,
      "bec": 3545,
      "ĠbohÅ¯": 3546,
      "Ġklas": 3547,
      "ovÃ©": 3548,
      "vci": 3549,
      "ĠsvÄĽty": 3550,
      "chom": 3551,
      "Ġvelmi": 3552,
      "ĠvelikÃ½": 3553,
      "Ġane": 3554,
      "ĠÅĻem": 3555,
      "tnou": 3556,
      "ĠneÅ¡Å¥ast": 3557,
      "Ġdok": 3558,
      "Ġnebem": 3559,
      "ĠdÃŃvÄįÃŃ": 3560,
      "ĠhnÃ¡": 3561,
      "Ġkade": 3562,
      "vel": 3563,
      "ĠpÄĽl": 3564,
      "Ġchleba": 3565,
      "Ġbral": 3566,
      "ĠsnÄĽhu": 3567,
      "ĠztrÃ¡cÃŃ": 3568,
      "udil": 3569,
      "ĠjinÃŃ": 3570,
      "Ġplod": 3571,
      "ĠcitÅ¯": 3572,
      "kry": 3573,
      "blÃŃ": 3574,
      "ĠÄįel": 3575,
      "ĠpohÅĻ": 3576,
      "Ġstuden": 3577,
      "ĠXABABX": 3578,
      "ĠÅ¾a": 3579,
      "Ġdro": 3580,
      "ĠbudiÅ¾": 3581,
      "peÅ¾": 3582,
      "ĠÅ¾ivotem": 3583,
      "Ġpoznal": 3584,
      "bila": 3585,
      "Ġskoro": 3586,
      "Ġbarev": 3587,
      "Ġneho": 3588,
      "ĠsÃŃÅĪ": 3589,
      "ĠvÃ¡Å¡nÄĽ": 3590,
      "Ġjazyk": 3591,
      "Ġchas": 3592,
      "nilo": 3593,
      "ÃŃme": 3594,
      "ĠvÃŃna": 3595,
      "ÅĻenÃ½": 3596,
      "ckÃ½ch": 3597,
      "Ã¡l": 3598,
      "hlÃ½": 3599,
      "ĠvrÃ¡til": 3600,
      "nese": 3601,
      "ĠpÅĻÃ¡nÃŃ": 3602,
      "ĠchÃ½lÃŃ": 3603,
      "Ġsnech": 3604,
      "ĠdnÃŃ": 3605,
      "ĠpoÅĻÃ¡": 3606,
      "Ġpoesi": 3607,
      "Ġcem": 3608,
      "ĠplÃ¡Å¡Å¥": 3609,
      "ĠdivnÃ©": 3610,
      "pila": 3611,
      "ĠmladÃŃ": 3612,
      "ĠvÃ©m": 3613,
      "Ġkos": 3614,
      "ĠvÄĽÅ¾e": 3615,
      "Ġpano": 3616,
      "ĠlesnÃŃ": 3617,
      "Ġbrou": 3618,
      "livÃ©": 3619,
      "Ġklen": 3620,
      "ĠdÃ¡ti": 3621,
      "ĠprÃ¡vo": 3622,
      "Ġzvony": 3623,
      "ĠdivÃ½": 3624,
      "ĠsmÄĽs": 3625,
      "Ġlesem": 3626,
      "ĠnÄĽkde": 3627,
      "Ġhroby": 3628,
      "ĠsvÄĽtÅ¯": 3629,
      "Ġpromlu": 3630,
      "Ġnesmr": 3631,
      "ĠplÃ¡l": 3632,
      "Ġpust": 3633,
      "Ġnemoc": 3634,
      "ĠzÃ¡vra": 3635,
      "kÃ¡n": 3636,
      "ĠposmÄĽ": 3637,
      "ĠhorÃ¡ch": 3638,
      "Ġmatku": 3639,
      "ĠveÄįera": 3640,
      "ĠzlÃ¡": 3641,
      "Ġhon": 3642,
      "Ġstranou": 3643,
      "ĠplÃ¡Äįi": 3644,
      "Ġozdo": 3645,
      "viti": 3646,
      "vyÅ¡": 3647,
      "ĠmeÄįem": 3648,
      "ĠcÅ¯": 3649,
      "ckni": 3650,
      "Ġspraved": 3651,
      "ĠdÄĽji": 3652,
      "ĠtvÅ¯": 3653,
      "ĠslavnÃ½": 3654,
      "ĠpÅĻipra": 3655,
      "ĠvÅ¡ickni": 3656,
      "tÅĻÃŃ": 3657,
      "Ġzkou": 3658,
      "Ġmili": 3659,
      "ĠvÄĽÄįnosti": 3660,
      "Ġmari": 3661,
      "Ġholubi": 3662,
      "jme": 3663,
      "Ġoken": 3664,
      "ĠÄįnÃŃ": 3665,
      "Ġdom": 3666,
      "Ġrci": 3667,
      "covÃ©": 3668,
      "ĠÃºÅ¾as": 3669,
      "ĠjÃŃti": 3670,
      "Å¾ÃŃÅ¡": 3671,
      "bek": 3672,
      "Ġjan": 3673,
      "cenÃ½": 3674,
      "Ġvichr": 3675,
      "Ġmate": 3676,
      "ĠvidÃŃÅ¡": 3677,
      "Ġpozdrav": 3678,
      "hnul": 3679,
      "ĠÅĪÃ¡": 3680,
      "ĠnnÃ©": 3681,
      "zek": 3682,
      "ĠvÄĽtru": 3683,
      "Ġdobu": 3684,
      "ĠbolÃŃ": 3685,
      "ĠnemÃ¡m": 3686,
      "ĠtajemstvÃŃ": 3687,
      "mek": 3688,
      "Ġdavy": 3689,
      "gu": 3690,
      "Å¾nÄĽ": 3691,
      "ĠnechÃ¡": 3692,
      "Ġotci": 3693,
      "ĠmlÃ¡d": 3694,
      "ĠschvÃ¡": 3695,
      "ĠpravÃ½": 3696,
      "Ġdruhdy": 3697,
      "Å¾nÃ½": 3698,
      "ĠukÃ¡": 3699,
      "Ġprv": 3700,
      "Å¡enÃ©": 3701,
      "ĠhrÅ¯zy": 3702,
      "ĠzpÃŃval": 3703,
      "Ġukry": 3704,
      "hlo": 3705,
      "ĠsmrtÃŃ": 3706,
      "ĠvojÃ¡": 3707,
      "ĠÅ¡pat": 3708,
      "ĠkaÅ¾dÃ½m": 3709,
      "ĠvÄĽtvÃŃ": 3710,
      "udy": 3711,
      "Ġmrou": 3712,
      "ĠvzÃŃ": 3713,
      "Ġstem": 3714,
      "ĠmÄĽstÄĽ": 3715,
      "ĠvelkÃ½m": 3716,
      "Ġhym": 3717,
      "dÃ©": 3718,
      "nÄĽch": 3719,
      "dÃ¡l": 3720,
      "ĠsÃŃm": 3721,
      "telÃ©": 3722,
      "ĠkÅĻÃŃÅ¾e": 3723,
      "rajÃŃ": 3724,
      "ĠÅĻeka": 3725,
      "ĠrudÃ½": 3726,
      "ĠtÃŃÅ¾ÃŃ": 3727,
      "has": 3728,
      "Ġplnou": 3729,
      "Ġmusil": 3730,
      "ĠdÄĽj": 3731,
      "ÅĻad": 3732,
      "ĠmeÄįe": 3733,
      "Ġzima": 3734,
      "Ġobzor": 3735,
      "Ġvzru": 3736,
      "Ġprudce": 3737,
      "ĠvÅ¡ady": 3738,
      "benÃŃ": 3739,
      "nuv": 3740,
      "Ġkdybych": 3741,
      "kva": 3742,
      "Ġmramo": 3743,
      "Ġbudem": 3744,
      "ĠstÃŃnÅ¯": 3745,
      "kej": 3746,
      "vosti": 3747,
      "stej": 3748,
      "Ġfan": 3749,
      "ĠusmÃ¡": 3750,
      "Ġpoklad": 3751,
      "ezpe": 3752,
      "ĠsnÃ¡ch": 3753,
      "lej": 3754,
      "Ġspu": 3755,
      "ĠmÃ©mu": 3756,
      "Ġproudy": 3757,
      "Ġdceru": 3758,
      "ĠÃºt": 3759,
      "ĠtmÄĽ": 3760,
      "Ġnejsem": 3761,
      "Ġdlouhou": 3762,
      "ĠposlÃ©z": 3763,
      "Ġlisty": 3764,
      "Ġkristu": 3765,
      "Ġhmo": 3766,
      "ĠÃºdolÃŃ": 3767,
      "Ġchou": 3768,
      "Ġvine": 3769,
      "ĠoÄįima": 3770,
      "vÅ¡ak": 3771,
      "ĠnepÅĻÃ¡tel": 3772,
      "bro": 3773,
      "ĠtmÃ¡ch": 3774,
      "ĠstÅ¯j": 3775,
      "ĠzkÃ¡": 3776,
      "ĠhrÃ¡t": 3777,
      "ĠpÃ¡lÃŃ": 3778,
      "ĠtrÅ¯n": 3779,
      "ĠpodÃŃ": 3780,
      "ĠnÃ¡ruÄįÃŃ": 3781,
      "ĠnosÃŃ": 3782,
      "Ġkryje": 3783,
      "Ġstolu": 3784,
      "ĠXABBA": 3785,
      "hnout": 3786,
      "ĠvÄĽnec": 3787,
      "ĠprostÅĻed": 3788,
      "ĠnnÃŃ": 3789,
      "Ġjitro": 3790,
      "lÃ©tÃ¡": 3791,
      "ĠkrÃ¡Äįel": 3792,
      "ĠÅĻetÄĽ": 3793,
      "ĠpÃŃt": 3794,
      "ĠsplÃ½vÃ¡": 3795,
      "ĠÅ¡pi": 3796,
      "Ġvzlet": 3797,
      "ĠstaÄįÃŃ": 3798,
      "ĠdlanÃŃ": 3799,
      "ĠspÄĽch": 3800,
      "dru": 3801,
      "ĠtajÃŃ": 3802,
      "Ġlaho": 3803,
      "ĠlidskÃ½ch": 3804,
      "Å¡ko": 3805,
      "ĠnÄĽmÃ½": 3806,
      "ĠptaÄįÃŃ": 3807,
      "Ġnapl": 3808,
      "mÃŃr": 3809,
      "ĠtemnÃ½": 3810,
      "Ġhlubin": 3811,
      "Ġzdr": 3812,
      "ĠslavnÃ©": 3813,
      "ĠsedÄĽl": 3814,
      "Ġvykou": 3815,
      "dovÃ©": 3816,
      "Ġkrvi": 3817,
      "Ġpropast": 3818,
      "ĠblÃŃzko": 3819,
      "Ġzapomen": 3820,
      "ĠtÃ©m": 3821,
      "sila": 3822,
      "Ġdosta": 3823,
      "ĠrodÃŃ": 3824,
      "vanÃ½": 3825,
      "ĠsprÃ¡": 3826,
      "ĠtvoÅĻÃŃ": 3827,
      "Ġplou": 3828,
      "Ġzacho": 3829,
      "ĠvÅ¯dce": 3830,
      "ĠvlasÅ¯": 3831,
      "Å¡a": 3832,
      "Ġhl": 3833,
      "Ġvzk": 3834,
      "Ġpadne": 3835,
      "Ġvzdych": 3836,
      "bat": 3837,
      "ĠskÃ¡la": 3838,
      "ĠvelkÃ½ch": 3839,
      "ĠavÅ¡ak": 3840,
      "ÄįnÃ½m": 3841,
      "ene": 3842,
      "koj": 3843,
      "ĠprÃ¡va": 3844,
      "ĠslzÃŃ": 3845,
      "Ġprapor": 3846,
      "Ġoni": 3847,
      "Ġtehdy": 3848,
      "jÃŃcÃŃm": 3849,
      "cuje": 3850,
      "ĠpalÃ¡": 3851,
      "Ġnesmrtel": 3852,
      "ĠjÃ¡so": 3853,
      "ĠdlouhÃ¡": 3854,
      "ĠduchÅ¯": 3855,
      "vÅ¯r": 3856,
      "pÃŃnÃ¡": 3857,
      "ĠlÃ©m": 3858,
      "ĠdÃŃval": 3859,
      "Ġvdo": 3860,
      "Ġtkli": 3861,
      "Ġkouzlo": 3862,
      "ĠstÅ¯l": 3863,
      "ĠbÄĽh": 3864,
      "rav": 3865,
      "Ġvane": 3866,
      "ĠnejvyÅ¡": 3867,
      "ĠsamÃ©": 3868,
      "Ġpouti": 3869,
      "ĠÄįervÃ¡n": 3870,
      "Ġtvoji": 3871,
      "Ġzmizel": 3872,
      "Ġzamy": 3873,
      "osti": 3874,
      "Ġbru": 3875,
      "tud": 3876,
      "ĠchladnÃ©": 3877,
      "pot": 3878,
      "ĠhnÄĽvu": 3879,
      "ĠÄįemu": 3880,
      "ge": 3881,
      "ĠslavnÄĽ": 3882,
      "ĠdÃ©Å¡Å¥": 3883,
      "?...": 3884,
      "Ġdly": 3885,
      "rÃ¡l": 3886,
      "ĠdlanÄĽ": 3887,
      "ĠspÃ¡t": 3888,
      "Ġvan": 3889,
      "ĠstraÅ¡": 3890,
      "Ġzbled": 3891,
      "Ġnebezpe": 3892,
      "bla": 3893,
      "Ġzaz": 3894,
      "ĠÄįasÅ¯": 3895,
      "ĠvznÄĽ": 3896,
      "Ġvzbu": 3897,
      "Å¾ili": 3898,
      "letÄĽ": 3899,
      "lÃ¡nÃŃ": 3900,
      "ĠzpÄĽvu": 3901,
      "kÅ¯v": 3902,
      "ĠkÅ¯ÅĪ": 3903,
      "Ġkop": 3904,
      "ĠstaÅĻec": 3905,
      "ĠozvÄĽ": 3906,
      "Ġprokle": 3907,
      "ĠÅ¾alu": 3908,
      "Ġkolik": 3909,
      "ĠÅĻÃŃtÃŃ": 3910,
      "Ġvtip": 3911,
      "Ã¡n": 3912,
      "Ġzel": 3913,
      "ĠtrÃ¡vÄĽ": 3914,
      "Ġ20": 3915,
      "ĠnÃŃch": 3916,
      "Ġhed": 3917,
      "ĠdrÅ¾ÃŃ": 3918,
      "ĠjinÃ¡": 3919,
      "ĠumÄĽ": 3920,
      "ĠvÄĽku": 3921,
      "Ġobrov": 3922,
      "lan": 3923,
      "Ġuti": 3924,
      "ĠÄįistÃ½": 3925,
      "ĠmocnÃ½": 3926,
      "ĠmotÃ½l": 3927,
      "Ġmas": 3928,
      "ĠÄįarov": 3929,
      "ĠÅ¡edÃ©": 3930,
      "ĠlÃŃbez": 3931,
      "ĠÅ¡t": 3932,
      "Ġstisk": 3933,
      "Ġvyr": 3934,
      "Ġvzte": 3935,
      "vede": 3936,
      "ĠtÄĽchto": 3937,
      "Ġvrat": 3938,
      "ĠdveÅĻÃŃ": 3939,
      "dnÃ½m": 3940,
      "ost": 3941,
      "Ġlok": 3942,
      "ĠdeÅ¡tÄĽ": 3943,
      "Ġplanou": 3944,
      "Ġpora": 3945,
      "Ġusta": 3946,
      "Ġvyje": 3947,
      "Ġslep": 3948,
      "ĠmyÅ¡lenky": 3949,
      "Ġnaho": 3950,
      "ĠspÃ¡nku": 3951,
      "ĠdivnÃ½": 3952,
      "ĠvÃ¡Å¾nÄĽ": 3953,
      "ĠAAXBBX": 3954,
      "ĠhrÅ¯za": 3955,
      "Ġpovo": 3956,
      "ĠjemnÄĽ": 3957,
      "ĠÅ¾hou": 3958,
      "Å¾ela": 3959,
      "vky": 3960,
      "ĠÅ¾es": 3961,
      "Ġhledal": 3962,
      "kel": 3963,
      "ĠzÃ¡voj": 3964,
      "ĠvzrÅ¯": 3965,
      "ĠÅ¡eru": 3966,
      "vech": 3967,
      "ĠpravÃ©": 3968,
      "ĠvroucnÄĽ": 3969,
      "Ġtri": 3970,
      "ĠpÅĻÃŃval": 3971,
      "ĠkÅĻÃŃdel": 3972,
      "nily": 3973,
      "Ġpur": 3974,
      "Ġgo": 3975,
      "Ġucho": 3976,
      "Ġhoto": 3977,
      "Ġlaska": 3978,
      "vici": 3979,
      "ĠjÃ¡sa": 3980,
      "ĠznÃ¡Å¡": 3981,
      "ĠplÃŃ": 3982,
      "ĠkvÃ©": 3983,
      "Ġzvyk": 3984,
      "Ġtrest": 3985,
      "lep": 3986,
      "ĠstrÃ½": 3987,
      "Ġuza": 3988,
      "Ġkola": 3989,
      "ĠchovÃ¡": 3990,
      "ĠnadÄĽj": 3991,
      "Ġkrajem": 3992,
      "ĠvÄĽtve": 3993,
      "ĠstÅĻedu": 3994,
      "ĠhÃ¡je": 3995,
      "ĠchudÃ©": 3996,
      "ĠbÃŃdy": 3997,
      "ĠtÄĽÅ¾kÃ¡": 3998,
      "ĠnadÄĽjÃŃ": 3999,
      "ĠjeÅ¥": 4000,
      "ABX": 4001,
      "Ġstopy": 4002,
      "Ġcel": 4003,
      "ĠrozechvÄĽ": 4004,
      "Äįte": 4005,
      "rie": 4006,
      "ĠÅ¾Ã¡dÃ¡": 4007,
      "Ġhbi": 4008,
      "Ġharf": 4009,
      "Ġlen": 4010,
      "ĠstÃ¡ti": 4011,
      "ĠvÃ¡Å¡ni": 4012,
      "Ġvzly": 4013,
      "Ġmohla": 4014,
      "ĠtÄĽlem": 4015,
      "vek": 4016,
      "Ġkout": 4017,
      "ĠvÃŃtÄĽzstvÃŃ": 4018,
      "ĠsvÄĽtel": 4019,
      "ĠsvÃŃrÃ¡": 4020,
      "ĠbratÅĻe": 4021,
      "hÃ¡ch": 4022,
      "Ġzaho": 4023,
      "Ġvrch": 4024,
      "ĠpÅĻiÅ¡li": 4025,
      "Ġbran": 4026,
      "Ġlabu": 4027,
      "ĠtrÅ¯nu": 4028,
      "cu": 4029,
      "ĠkÃ½m": 4030,
      "Äįili": 4031,
      "Ġgra": 4032,
      "dost": 4033,
      "ĠpÅĻelu": 4034,
      "ĠpÃ¡s": 4035,
      "rÃ½vÃ¡": 4036,
      "sÃ½": 4037,
      "lÃ¡k": 4038,
      "ĠvÄĽtrem": 4039,
      "ĠtÃ½ch": 4040,
      "Ġkarel": 4041,
      "ĠdÃ¡n": 4042,
      "Ġpomoci": 4043,
      "Å¡ly": 4044,
      "skal": 4045,
      "ĠtrÃ½": 4046,
      "ĠlÃ½ch": 4047,
      "Ġheb": 4048,
      "Ġtlum": 4049,
      "Å¾ku": 4050,
      "Äįce": 4051,
      "Ġpadla": 4052,
      "Ġzdroj": 4053,
      "ĠvaÅ¡ich": 4054,
      "ĠÄįar": 4055,
      "ĠnuÅ¾e": 4056,
      "Ġkvete": 4057,
      "ĠrÃ½m": 4058,
      "ĠtuÅ¡ÃŃ": 4059,
      "Ġodva": 4060,
      "ĠobÄĽÅ¥": 4061,
      "ĠXABBAX": 4062,
      "Ġduchem": 4063,
      "ĠzÅ¯stal": 4064,
      "chvÃ¡": 4065,
      "ĠrodnÃ©": 4066,
      "ĠdivÃ©": 4067,
      "Ġklade": 4068,
      "Ġtouze": 4069,
      "ĠzÃ¡ha": 4070,
      "Ġdnech": 4071,
      "ĠodpovÃŃ": 4072,
      "loudil": 4073,
      "Ġsam": 4074,
      "Ġznaven": 4075,
      "ĠbÃŃda": 4076,
      "Ġmali": 4077,
      "ĠpotÅĻe": 4078,
      "ĠbrÃ¡ny": 4079,
      "ĠsvÄĽd": 4080,
      "nÃŃci": 4081,
      "Ġskou": 4082,
      "ĠdivÃ¡": 4083,
      "ĠprÃ¡h": 4084,
      "Ġmilou": 4085,
      "ĠbdÃŃ": 4086,
      "ÄįkÃ¡": 4087,
      "Äįnosti": 4088,
      "ĠsvÅ¯": 4089,
      "ĠjednÃŃm": 4090,
      "chod": 4091,
      "Ġkrista": 4092,
      "ĠzdrÃ¡v": 4093,
      "lÃŃk": 4094,
      "ĠkrÃ¡sou": 4095,
      "ĠtÅĻpyt": 4096,
      "Ġvyko": 4097,
      "Ġtaky": 4098,
      "Ġlho": 4099,
      "ĠÅ¡lo": 4100,
      "Ġdrahou": 4101,
      "ĠvÃ½kÅĻik": 4102,
      "ĠdÃ½chÃ¡": 4103,
      "Ġhi": 4104,
      "ĠoÅ¾i": 4105,
      "Ġdotk": 4106,
      "ÅĻili": 4107,
      "Ġrve": 4108,
      "ĠloÅ¾i": 4109,
      "ĠzdaÅ¾": 4110,
      "krÃ¡te": 4111,
      "ĠusmÃŃvÃ¡": 4112,
      "ÅĪo": 4113,
      "ĠdÃ¡vnÃ½ch": 4114,
      "ĠzÃ¡kon": 4115,
      "lec": 4116,
      "ĠÅ¡pe": 4117,
      "kost": 4118,
      "Ġmem": 4119,
      "Ġhnal": 4120,
      "Ġnesta": 4121,
      "ĠlidskÃ¡": 4122,
      "Ġsat": 4123,
      "ĠkÅĻo": 4124,
      "Äįas": 4125,
      "ĠzdÃ¡l": 4126,
      "ĠosamÄĽ": 4127,
      "Ġjesti": 4128,
      "rozen": 4129,
      "nili": 4130,
      "ĠodvÃ¡": 4131,
      "Ġstromu": 4132,
      "ĠskÃ¡le": 4133,
      "ĠtÃ¡hnou": 4134,
      "Ġzahy": 4135,
      "Ġchlap": 4136,
      "Ġpodi": 4137,
      "ĠpracÃŃ": 4138,
      "ĠzÅĻÃŃÅ¡": 4139,
      "ĠvÄĽrnÄĽ": 4140,
      "ĠÅĻady": 4141,
      "ĠdvÃ©ÅĻe": 4142,
      "ĠjinÃ½m": 4143,
      "Ġvolal": 4144,
      "ĠtÄĽÅ¡ÃŃ": 4145,
      "ĠÅĻada": 4146,
      "ĠvichÅĻi": 4147,
      "ĠvÃ¡n": 4148,
      "Ġoknem": 4149,
      "ĠÅ¾elez": 4150,
      "ĠvznÃ¡Å¡ÃŃ": 4151,
      "Ġdavu": 4152,
      "ĠÄįernou": 4153,
      "ĠpÅĻil": 4154,
      "dÄĽti": 4155,
      "set": 4156,
      "ĠstÅĻÃŃbro": 4157,
      "ĠbÃ¡je": 4158,
      "jdu": 4159,
      "ĠÅ¾ert": 4160,
      "ĠmoÅĻem": 4161,
      "ĠÅ¾alÃ¡": 4162,
      "Ġpurpu": 4163,
      "Ġtyto": 4164,
      "ĠskrÃ½vÃ¡": 4165,
      "ĠokamÅ¾ik": 4166,
      "Ġhvozd": 4167,
      "Ġrosa": 4168,
      "ĠsvÄĽtlem": 4169,
      "ĠhÃ¡ji": 4170,
      "ĠkrÃ¡snou": 4171,
      "ĠpÃ¡nu": 4172,
      "Ġshas": 4173,
      "ĠvstÃ¡vÃ¡": 4174,
      "Ġpsal": 4175,
      "ĠkÃ¡ch": 4176,
      "ĠvelikÃ©": 4177,
      "Ġslast": 4178,
      "kov": 4179,
      "Äįela": 4180,
      "Ġradu": 4181,
      "Ġony": 4182,
      "Ġpop": 4183,
      "ĠpÅĻÃŃs": 4184,
      "ĠvÄĽÄįnÃ¡": 4185,
      "Ġmladi": 4186,
      "Ġsve": 4187,
      "ĠkterÃ½m": 4188,
      "ĠÃŃ": 4189,
      "ĠÅ¾ivÃ©": 4190,
      "ĠÅĻÃŃÅ¡i": 4191,
      "ĠdnÄĽ": 4192,
      "ĠmÃ¡ti": 4193,
      "Ġpri": 4194,
      "Ġdiva": 4195,
      "lejÅ¡ÃŃ": 4196,
      "ĠtuÅ¾": 4197,
      "ÄįenÃ©": 4198,
      "ĠchvÄĽla": 4199,
      "ĠvlÃ¡d": 4200,
      "ĠÄıas": 4201,
      "ĠdvÅ¯r": 4202,
      "nej": 4203,
      "ĠvÄĽÅ¾ÃŃ": 4204,
      "Ġbolem": 4205,
      "Ġplyne": 4206,
      "Ġluk": 4207,
      "Ġspokojen": 4208,
      "ĠsedÃ¡": 4209,
      "Ġmuk": 4210,
      "Å¾et": 4211,
      "ĠkÃ¡Å¾e": 4212,
      "Ġdneska": 4213,
      "ĠnejvÃŃc": 4214,
      "tali": 4215,
      "ĠpÅĻÃŃrody": 4216,
      "kami": 4217,
      "ĠvnitÅĻ": 4218,
      "Ġsmutno": 4219,
      "ĠkÃ½vÃ¡": 4220,
      "Ġzlost": 4221,
      "it": 4222,
      "vak": 4223,
      "Ġner": 4224,
      "ĠplnÃ¡": 4225,
      "ĠmÃŃstÄĽ": 4226,
      "Ġpekel": 4227,
      "ĠmanÄĽ": 4228,
      "ĠsmutnÃ¡": 4229,
      "jÃŃcÃ½": 4230,
      "Ġstin": 4231,
      "vcÅ¯": 4232,
      "Ġdat": 4233,
      "Ġpusti": 4234,
      "Ġnepoz": 4235,
      "ĠmladÃ½ch": 4236,
      "zÃ¡ch": 4237,
      "ĠstoupÃ¡": 4238,
      "rad": 4239,
      "ĠvlÃ¡dne": 4240,
      "ĠmrtvÃ½": 4241,
      "Ġvry": 4242,
      "dilo": 4243,
      "ĠstÃ¡li": 4244,
      "ĠnechtÄĽ": 4245,
      "Ġzdro": 4246,
      "nulo": 4247,
      "ĠodmÄĽ": 4248,
      "Ġpanna": 4249,
      "ĠbÃŃdu": 4250,
      "Ġdcera": 4251,
      "Ġrodu": 4252,
      "Ġklobou": 4253,
      "ĠvÃ¡clav": 4254,
      "dovat": 4255,
      "pÃŃrÃ¡": 4256,
      "ĠchvÄĽjÃŃ": 4257,
      "Ġperly": 4258,
      "ĠkÃ½ch": 4259,
      "nut": 4260,
      "ĠkvÃŃlÃŃ": 4261,
      "ĠplnÃŃ": 4262,
      "ĠchladnÃ½": 4263,
      "jak": 4264,
      "ĠtatÃŃ": 4265,
      "ĠbolestÃŃ": 4266,
      "ÄįÅ¯": 4267,
      "ĠÃºto": 4268,
      "ĠletÄĽ": 4269,
      "ĠpÅĻines": 4270,
      "Ġdit": 4271,
      "ĠÄįase": 4272,
      "Ġmluvit": 4273,
      "Ġskali": 4274,
      "rovÃ©": 4275,
      "ĠdennÃŃ": 4276,
      "ĠchvÃŃlÃŃ": 4277,
      "Ġpokry": 4278,
      "ĠnazpÄĽt": 4279,
      "Ġprsty": 4280,
      "ĠcÃŃle": 4281,
      "ĠstÃ¡ÅĻÃŃ": 4282,
      "Ġpomalu": 4283,
      "Ġdli": 4284,
      "ĠjejÃŃch": 4285,
      "ÅĻenÃ¡": 4286,
      "Ġrosy": 4287,
      "Ġmistr": 4288,
      "ĠchudÃ¡": 4289,
      "ĠzlÃ½ch": 4290,
      "Ġstanul": 4291,
      "rnÃ½m": 4292,
      "ĠjÃ¡sÃ¡": 4293,
      "ĠpotÃ¡": 4294,
      "ĠÃºz": 4295,
      "ckÃ¡": 4296,
      "Ġsev": 4297,
      "Ġlest": 4298,
      "ĠÄįeho": 4299,
      "rovna": 4300,
      "ĠpÅĻÃŃmo": 4301,
      "Ġkruhu": 4302,
      "mÄĽt": 4303,
      "ĠÅ¡kle": 4304,
      "ĠvÅ¡udy": 4305,
      "ĠmuÅ¾Å¯": 4306,
      "nÄĽnÃ©": 4307,
      "Ġnitro": 4308,
      "mech": 4309,
      "ĠklÃŃnu": 4310,
      "ĠvÄĽnce": 4311,
      "ĠlÃ©pe": 4312,
      "Ġmyslil": 4313,
      "ĠzÃ¡padu": 4314,
      "Ġev": 4315,
      "Ġjede": 4316,
      "ĠlÃ¡n": 4317,
      "ĠrÃ¡mÄĽ": 4318,
      "ĠhnÃŃzdo": 4319,
      "Å¡eÅĪ": 4320,
      "ily": 4321,
      "hala": 4322,
      "Å¡enÃ½": 4323,
      "ĠdÃŃky": 4324,
      "Ġmnich": 4325,
      "Ġska": 4326,
      "ĠsÃŃnÄĽ": 4327,
      "ĠjedinÃ¡": 4328,
      "Ġjez": 4329,
      "Ġclo": 4330,
      "Ġrozpu": 4331,
      "ĠzpÄĽvy": 4332,
      "ĠrozkoÅ¡e": 4333,
      "Ġdumy": 4334,
      "ĠÄįekal": 4335,
      "ĠÅ¾itÃŃm": 4336,
      "ĠmnohÃ¡": 4337,
      "ĠutÃŃ": 4338,
      "Ġkot": 4339,
      "ĠpÃ¡nem": 4340,
      "ĠÄįinÃŃ": 4341,
      "Ġjinoch": 4342,
      "Ġkosti": 4343,
      "ĠskrÃ¡nÃŃ": 4344,
      "ĠpamÄĽti": 4345,
      "ĠkÃ©m": 4346,
      "ĠvzkÅĻik": 4347,
      "Ġnemlu": 4348,
      "ĠÅ¾enÄĽ": 4349,
      "Ġletem": 4350,
      "nÃŃku": 4351,
      "ĠubÃŃ": 4352,
      "vaje": 4353,
      "Ġnemoh": 4354,
      "ĠdomÃ¡": 4355,
      "ĠptÃ¡kÅ¯": 4356,
      "ĠmoÅĻ": 4357,
      "Ġnejsou": 4358,
      "ĠskrÃ¡nÄĽ": 4359,
      "rovi": 4360,
      "ĠÅ¾havÃ½": 4361,
      "lenÃ¡": 4362,
      "Ġbyt": 4363,
      "Ġtur": 4364,
      "chÃ¡ch": 4365,
      "ĠdlouhÃ½ch": 4366,
      "ĠzbranÄĽ": 4367,
      "Ġrostou": 4368,
      "ĠnÄĽko": 4369,
      "Ġpozor": 4370,
      "ĠtrÃ¡vy": 4371,
      "Ġzmize": 4372,
      "nuli": 4373,
      "Ġvida": 4374,
      "Å¡ila": 4375,
      "ĠmrakÅ¯": 4376,
      "ĠmÅ¾ik": 4377,
      "ĠÄįÃŃÅ¡e": 4378,
      "Ġpozo": 4379,
      "ĠstÅĻel": 4380,
      "Ġtoto": 4381,
      "Ġslzou": 4382,
      "ĠÅ¾havÃ©": 4383,
      "ĠÄįelem": 4384,
      "Ġlesku": 4385,
      "Ġpekla": 4386,
      "Ġztr": 4387,
      "bÃ¡m": 4388,
      "Ġzlou": 4389,
      "Ġtamo": 4390,
      "ĠprÃ¡zdno": 4391,
      "nutÃŃm": 4392,
      "cÃŃho": 4393,
      "ÄįkÅ¯": 4394,
      "ĠjiÅĻÃŃ": 4395,
      "Ġdub": 4396,
      "Å¾eb": 4397,
      "Ġhrdin": 4398,
      "Ġsvobody": 4399,
      "ĠprostÃ©": 4400,
      "ĠrÃ¡ji": 4401,
      "ĠradÄĽj": 4402,
      "Ġnetu": 4403,
      "ĠvÄĽdÄĽl": 4404,
      "Å¾ek": 4405,
      "ĠÄįistÃ¡": 4406,
      "ĠmarnÃ©": 4407,
      "ĠkrÃ¡tkÃ½": 4408,
      "Ġtopo": 4409,
      "ĠhonÃŃ": 4410,
      "Ġnutno": 4411,
      "ĠpÅ¯jde": 4412,
      "zenÃŃ": 4413,
      "nÃŃky": 4414,
      "ĠvÄĽÅ¾": 4415,
      "ĠobÄĽt": 4416,
      "ĠpÅĻÃŃteli": 4417,
      "ĠzvÃŃÅĻe": 4418,
      "Ġpoesie": 4419,
      "ĠpyÅ¡": 4420,
      "Ġdomov": 4421,
      "Ġobo": 4422,
      "ĠsvÄĽdomÃŃ": 4423,
      "ĠmÅ¯Å¾": 4424,
      "tan": 4425,
      "Ġdivy": 4426,
      "Ġdruhu": 4427,
      "Ġmiloval": 4428,
      "ĠmlÃ¡den": 4429,
      "ĠÅ¡Å¥asten": 4430,
      "Ġstruny": 4431,
      "krÃ¡snÄĽjÅ¡ÃŃ": 4432,
      "Ġevro": 4433,
      "rala": 4434,
      "Ġuse": 4435,
      "ĠvÃŃtÃ¡": 4436,
      "ĠhÃ¡zÃŃ": 4437,
      "ĠÄįtyÅĻi": 4438,
      "ĠneÅ¡tÄĽ": 4439,
      "klady": 4440,
      "lili": 4441,
      "ĠprchÃ¡": 4442,
      "ĠnejkrÃ¡snÄĽjÅ¡ÃŃ": 4443,
      "ĠnesmÄĽ": 4444,
      "ĠpÄĽst": 4445,
      "ĠkÅĻiv": 4446,
      "ĠjemuÅ¾": 4447,
      "ĠplÃ¡t": 4448,
      "ÅĻena": 4449,
      "Ġztratil": 4450,
      "ĠmÅĻe": 4451,
      "ĠonÃ©": 4452,
      "tilo": 4453,
      "Ġvot": 4454,
      "ĠstojÃŃm": 4455,
      "Ġpadl": 4456,
      "ĠjdeÅ¡": 4457,
      "Ġopoj": 4458,
      "Ġzaha": 4459,
      "ĠplÃ¡Äįem": 4460,
      "ĠzeÄı": 4461,
      "ĠtmavÃ½": 4462,
      "Ġut": 4463,
      "armo": 4464,
      "ĠkdeÅ¾": 4465,
      "ĠjakÃ½s": 4466,
      "dec": 4467,
      "ĠprosÃŃ": 4468,
      "Ġspal": 4469,
      "ĠkrÃ¡snÄĽ": 4470,
      "Ġmluv": 4471,
      "kl": 4472,
      "viny": 4473,
      "ĠÅ¡ÃŃp": 4474,
      "ĠplÃ¡ÅĪ": 4475,
      "Ġbarvy": 4476,
      "Ġstrachu": 4477,
      "Ġex": 4478,
      "ĠpÃ¡d": 4479,
      "ĠnaÅ¡em": 4480,
      "hovÃ©": 4481,
      "ĠletnÃŃ": 4482,
      "Ġobzoru": 4483,
      "ĠzvonÅ¯": 4484,
      "hlou": 4485,
      "ÅĻÃŃÅ¡": 4486,
      "Ġapo": 4487,
      "ĠzvÄĽÅĻ": 4488,
      "ĠÄįlovÄĽku": 4489,
      "ĠctÃŃ": 4490,
      "Ġhovor": 4491,
      "bar": 4492,
      "Ġpeklo": 4493,
      "ĠpoÅ¾ehnÃ¡nÃŃ": 4494,
      "Ġklesla": 4495,
      "najÃŃ": 4496,
      "ĠdivnÄĽ": 4497,
      "ĠÅ¡edÃ½": 4498,
      "ĠÃºc": 4499,
      "ĠÅ¡koda": 4500,
      "ĠlÃŃcÃŃ": 4501,
      "ĠnovÃ½m": 4502,
      "ĠvÃ¡bÃŃ": 4503,
      "ĠÅ¡tÄĽd": 4504,
      "Ġveleb": 4505,
      "Ġren": 4506,
      "ĠnejvÄĽt": 4507,
      "Ġjiskry": 4508,
      "ĠmyÅ¡lÃ©nky": 4509,
      "Ġzuby": 4510,
      "vla": 4511,
      "vÅ¡e": 4512,
      "lel": 4513,
      "ĠjeÅ¡": 4514,
      "luje": 4515,
      "ĠhrozÃŃ": 4516,
      "Ġlhostej": 4517,
      "tÅ¯m": 4518,
      "Ġkomo": 4519,
      "ĠvÃŃÅĻÃŃ": 4520,
      "ĠtichÃ©m": 4521,
      "Ġsloup": 4522,
      "Ġmor": 4523,
      "ĠdÃ¡Å¡": 4524,
      "Ġhlavi": 4525,
      "ĠdÃŃÅ¡": 4526,
      "Ġmalou": 4527,
      "Ġsmrtel": 4528,
      "rostÅĻed": 4529,
      "ĠvzpomÃŃnÃ¡m": 4530,
      "ĠvÃ¡Å¡eÅĪ": 4531,
      "ĠvraÅ¥": 4532,
      "Ġga": 4533,
      "ĠvrÃ¡t": 4534,
      "Ġobou": 4535,
      "ĠmÃ¡Å¥": 4536,
      "zÃŃch": 4537,
      "ĠvelikÃ¡": 4538,
      "Ġused": 4539,
      "ĠdÃŃl": 4540,
      "ĠpÄĽstÃŃ": 4541,
      "Ġbisku": 4542,
      "ĠzahrÃ¡": 4543,
      "ĠvÄĽrnÃ½": 4544,
      "Å¡u": 4545,
      "Ġbychom": 4546,
      "letu": 4547,
      "Ġhyne": 4548,
      "ĠbojovnÃŃ": 4549,
      "ĠvlasÅ¥": 4550,
      "ĠkÅĻÃŃdlem": 4551,
      "nÃŃka": 4552,
      "Ġmost": 4553,
      "ĠÅ¾ivÃ½": 4554,
      "ĠÅ¡ero": 4555,
      "ĠzrakÅ¯": 4556,
      "ĠkÅĻiÄįÃŃ": 4557,
      "ĠdlÃ¡": 4558,
      "tin": 4559,
      "Ġobe": 4560,
      "ĠÅĻÃŃkÃ¡": 4561,
      "ĠotvÃŃrÃ¡": 4562,
      "ĠcelÃ©m": 4563,
      "Ġletech": 4564,
      "ĠvlnÃŃ": 4565,
      "Ġdna": 4566,
      "Ġkor": 4567,
      "pec": 4568,
      "Ġtit": 4569,
      "ĠpoupÄĽ": 4570,
      "Ġkvet": 4571,
      "ĠodpusÅ¥": 4572,
      "ĠsnÃŃm": 4573,
      "ĠzaznÃŃ": 4574,
      "ĠbuÅ¡ÃŃ": 4575,
      "Ġpovin": 4576,
      "ĠpÅĻÃ¡l": 4577,
      "ĠnÃ¡dhe": 4578,
      "Ġrmu": 4579,
      "Ġrozma": 4580,
      "Ġdobrou": 4581,
      "Ġblaze": 4582,
      "Ġpoza": 4583,
      "Ġproudem": 4584,
      "ĠmyÅ¡le": 4585,
      "ĠjÃŃmÃ¡": 4586,
      "ĠtajnÄĽ": 4587,
      "Ġzma": 4588,
      "Ġhore": 4589,
      "Ġodtud": 4590,
      "ĠtÄĽÅ¾kou": 4591,
      "ĠodÄĽ": 4592,
      "ĠsmÃŃchem": 4593,
      "ĠspÄĽl": 4594,
      "Ġbrzo": 4595,
      "ĠpÅĻÃŃroda": 4596,
      "Ġmilio": 4597,
      "Ġvyk": 4598,
      "ĠÄįerno": 4599,
      "Ġnemohu": 4600,
      "ĠpÃŃsku": 4601,
      "neme": 4602,
      "pek": 4603,
      "ĠkorÃ¡": 4604,
      "Ġnebesa": 4605,
      "Ġsf": 4606,
      "vor": 4607,
      "Ġslunko": 4608,
      "ĠdÄĽtem": 4609,
      "Ġnaklo": 4610,
      "Ġjablo": 4611,
      "ĠÅ¡il": 4612,
      "ĠdÄĽvy": 4613,
      "Ġpel": 4614,
      "ĠverÅ¡": 4615,
      "ĠznamenÃŃ": 4616,
      "livÃ¡": 4617,
      "Ġuka": 4618,
      "Ġmladosti": 4619,
      "ĠrozlÃ©": 4620,
      "Ġpozved": 4621,
      "ÅĻily": 4622,
      "ĠcelÃ½m": 4623,
      "ĠhrabÄĽ": 4624,
      "ĠkeÅĻ": 4625,
      "ĠkrÄį": 4626,
      "ĠslzÃ¡ch": 4627,
      "ĠvstÃ¡": 4628,
      "Ġtech": 4629,
      "Äįina": 4630,
      "ĠpouÅ¡Å¥": 4631,
      "ĠhroznÃ½": 4632,
      "Ġdol": 4633,
      "Ġmechu": 4634,
      "Ġzdar": 4635,
      "ĠpojÃŃ": 4636,
      "ĠÅ¾u": 4637,
      "Ġvzala": 4638,
      "Ġcitu": 4639,
      "ĠplÃ¡nÃŃ": 4640,
      "Ġleskem": 4641,
      "ĠvÅ¡eli": 4642,
      "ĠvlnÃ¡ch": 4643,
      "ĠÄıÃ¡bel": 4644,
      "ĠzvuÄįÃŃ": 4645,
      "ĠdÄĽlÃ¡": 4646,
      "Ġstroj": 4647,
      "ĠpoutnÃŃk": 4648,
      "Ġkomnat": 4649,
      "ĠtvÃŃ": 4650,
      "ĠABC": 4651,
      "ilÃŃ": 4652,
      "Ġorel": 4653,
      "Ġpob": 4654,
      "Ġracho": 4655,
      "ĠnoÅĻÃŃ": 4656,
      "Ġcity": 4657,
      "ĠsvatÃ½ch": 4658,
      "Ġsvobodu": 4659,
      "jdou": 4660,
      "ĠtÄĽmi": 4661,
      "ĠnechtÄĽl": 4662,
      "ĠmanÅ¾el": 4663,
      "Ġhladi": 4664,
      "mot": 4665,
      "Ġkup": 4666,
      "Ġluna": 4667,
      "ĠplaÅ¡e": 4668,
      "ĠÅ¾Ã¡rem": 4669,
      "ĠzaÄįal": 4670,
      "ĠcÃŃli": 4671,
      "Ġohrom": 4672,
      "nicÃŃ": 4673,
      "lÃŃÅ¡": 4674,
      "ĠsmrÅ¥": 4675,
      "ĠpastÃ½": 4676,
      "Ġstan": 4677,
      "Ġzbro": 4678,
      "ĠdÄĽva": 4679,
      "ĠbÄĽlost": 4680,
      "Ġnecha": 4681,
      "ĠhrÅ¯z": 4682,
      "ÅĪÅ¯": 4683,
      "ĠvÄĽÄįnou": 4684,
      "jeme": 4685,
      "skne": 4686,
      "ĠÄįerst": 4687,
      "ĠnÃ¡rodu": 4688,
      "ĠhnutÃŃ": 4689,
      "Ġvit": 4690,
      "zat": 4691,
      "rosti": 4692,
      "ĠcÃ¡": 4693,
      "Ġteskno": 4694,
      "zÃ½": 4695,
      "ĠleÅ¾el": 4696,
      "ĠskvÃŃ": 4697,
      "jÃŃÅ¾": 4698,
      "Ġsice": 4699,
      "Ġpanny": 4700,
      "Ġdaleka": 4701,
      "Ġzavo": 4702,
      "ĠpouÅ¥": 4703,
      "Ġchudo": 4704,
      "ÅĻenÃ½ch": 4705,
      "Ġzho": 4706,
      "raje": 4707,
      "ĠÅ¡va": 4708,
      "ĠvÃ¡nek": 4709,
      "ĠÅĻev": 4710,
      "ĠvÄįel": 4711,
      "Ġptal": 4712,
      "Ġsek": 4713,
      "Ġnau": 4714,
      "ĠvÄĽcÃŃ": 4715,
      "Ġvodo": 4716,
      "ĠnÃŃmÅ¾": 4717,
      "Ġslovan": 4718,
      "niti": 4719,
      "ĠdunÃŃ": 4720,
      "ĠrÃ¡di": 4721,
      "huje": 4722,
      "ĠÅ¡eptÃ¡": 4723,
      "ĠpovÄĽz": 4724,
      "ĠverÅ¡e": 4725,
      "Ġkristus": 4726,
      "ĠpÅĻis": 4727,
      "ĠÅ¾eno": 4728,
      "Ġtmu": 4729,
      "ĠdÃŃtky": 4730,
      "ĠstokrÃ¡t": 4731,
      "Ġhavra": 4732,
      "ÄįenÃ½": 4733,
      "ĠpravdÄĽ": 4734,
      "ĠbÃŃt": 4735,
      "Ġctnosti": 4736,
      "Ġpochyb": 4737,
      "Ġztu": 4738,
      "lala": 4739,
      "ĠhrdÃ©": 4740,
      "lÃ©d": 4741,
      "dalo": 4742,
      "stek": 4743,
      "Ġnesla": 4744,
      "ĠpozdnÃŃ": 4745,
      "ĠslyÅ¡ÃŃÅ¡": 4746,
      "Ġblankyt": 4747,
      "ĠbÃ©": 4748,
      "lÃ½mi": 4749,
      "Ġchvilku": 4750,
      "Å¯so": 4751,
      "Ġvysoko": 4752,
      "ĠkrÅ¯pÄĽj": 4753,
      "sat": 4754,
      "Ġbli": 4755,
      "ĠpÄĽnÃŃ": 4756,
      "ĠÅ¾Ã¡dnÃ¡": 4757,
      "ĠspÃ¡nek": 4758,
      "Ġusly": 4759,
      "Ġneji": 4760,
      "ĠsÃŃni": 4761,
      "ĠtrhÃ¡": 4762,
      "ĠjedinÃ©": 4763,
      "ĠÅ¥": 4764,
      "Å¡tÃŃm": 4765,
      "ĠhledÃŃm": 4766,
      "cou": 4767,
      "nati": 4768,
      "Ġnalez": 4769,
      "ĠpouÅ¡ti": 4770,
      "ter": 4771,
      "ÄįnÃ©m": 4772,
      "Ġchr": 4773,
      "Ġuko": 4774,
      "Ġjinou": 4775,
      "ĠmoÅ¾nÃ¡": 4776,
      "ĠmlÃ©": 4777,
      "Ġsouse": 4778,
      "ĠÃºzkost": 4779,
      "Ġnesko": 4780,
      "Ġnechal": 4781,
      "tily": 4782,
      "fe": 4783,
      "Ġak": 4784,
      "dÄĽji": 4785,
      "ĠpouÅ¡tÄĽ": 4786,
      "ĠvÄĽÄįnost": 4787,
      "Ġukru": 4788,
      "Ġnitra": 4789,
      "Ġspla": 4790,
      "ĠstÃŃnem": 4791,
      "is": 4792,
      "dum": 4793,
      "Ġmalo": 4794,
      "ĠĠĠ": 4795,
      "ĠpÅ¯jdu": 4796,
      "Ġticha": 4797,
      "ĠvÅ¡ednÃŃ": 4798,
      "ĠpustÃ©": 4799,
      "ĠzvÄĽda": 4800,
      "ĠhroznÃ©": 4801,
      "ĠnejvyÅ¡Å¡ÃŃ": 4802,
      "ena": 4803,
      "ĠnÃ¡ho": 4804,
      "Ġviny": 4805,
      "ĠpouÅ¡tÃŃ": 4806,
      "ĠjasnÃ¡": 4807,
      "Ġdon": 4808,
      "Ġkalich": 4809,
      "kaly": 4810,
      "Ġbor": 4811,
      "ĠneÅ¡tÄĽstÃŃ": 4812,
      "Ġobej": 4813,
      "ĠhrajÃŃ": 4814,
      "ĠÅ¡tÄĽstÃŃm": 4815,
      "Ġmladou": 4816,
      "ĠuprostÅĻed": 4817,
      "ĠzÅĻela": 4818,
      "Ġjinde": 4819,
      "ĠmnÃŃ": 4820,
      "Ġpohy": 4821,
      "cie": 4822,
      "ĠspÃŃcÃŃ": 4823,
      "ĠnÄĽme": 4824,
      "Ġbok": 4825,
      "Ġprahy": 4826,
      "ĠsamÃ½": 4827,
      "Ġpropasti": 4828,
      "telem": 4829,
      "Ġprocit": 4830,
      "novi": 4831,
      "Ġpetr": 4832,
      "ĠkterÃ½ch": 4833,
      "Ġkorunu": 4834,
      "nÄĽte": 4835,
      "Ġzrovna": 4836,
      "Ġbratra": 4837,
      "ĠdrobnÃ©": 4838,
      "gra": 4839,
      "ĠspÄĽchÃ¡": 4840,
      "mbo": 4841,
      "ĠzavÃ¡": 4842,
      "Ġsoused": 4843,
      "Ġzmar": 4844,
      "Ġvnad": 4845,
      "vlÃ¡": 4846,
      "ĠÄįeskÃ¡": 4847,
      "Ġnadarmo": 4848,
      "mÃ¡nÃŃ": 4849,
      "Ġchcete": 4850,
      "ĠpenÃŃ": 4851,
      "Ġslib": 4852,
      "ĠvÅ¯z": 4853,
      "venÃ©": 4854,
      "ĠlÅ¯nÄĽ": 4855,
      "ĠchystÃ¡": 4856,
      "Ġvojsko": 4857,
      "Ġhalu": 4858,
      "ĠvodÄĽ": 4859,
      "Ġzasmu": 4860,
      "Ġplameny": 4861,
      "jit": 4862,
      "Ġdel": 4863,
      "ĠsÃŃle": 4864,
      "Å¾ena": 4865,
      "ĠpoÄįal": 4866,
      "Ġvodou": 4867,
      "Ġpopel": 4868,
      "Ġtrud": 4869,
      "ĠzÃ¡ÅĻÃŃcÃŃ": 4870,
      "ĠzdÃŃ": 4871,
      "Ġminul": 4872,
      "ĠbrÃ¡nÃŃ": 4873,
      "nie": 4874,
      "ĠvlÃŃdnÄĽ": 4875,
      "ckou": 4876,
      "rci": 4877,
      "Ġazu": 4878,
      "Ġhry": 4879,
      "tej": 4880,
      "ĠnaÅĻÃŃ": 4881,
      "Ġnasta": 4882,
      "Ġskla": 4883,
      "ĠzlatÃ½m": 4884,
      "ĠvzpomÃŃnka": 4885,
      "ĠzelenÃ©": 4886,
      "Ġjednoho": 4887,
      "ĠcizÃŃch": 4888,
      "Äįnost": 4889,
      "Ġspor": 4890,
      "ĠÅ¾er": 4891,
      "Ġrozlo": 4892,
      "Ġosudu": 4893,
      "Ġsmysl": 4894,
      "jÃŃcÃŃch": 4895,
      "ĠtanÄįÃŃ": 4896,
      "Ġzval": 4897,
      "Ġge": 4898,
      "ĠhvÄĽzdi": 4899,
      "ĠoÅĻe": 4900,
      "nÄĽnÃ½": 4901,
      "ÅĪuje": 4902,
      "ĠÅ¾ivotÄĽ": 4903,
      "Ġtomto": 4904,
      "ĠvzdychÃ¡": 4905,
      "Ġvzdechy": 4906,
      "ĠÅ¡leh": 4907,
      "Ġbezpe": 4908,
      "Ġzvolal": 4909,
      "tÃ©ho": 4910,
      "Ġbratry": 4911,
      "pky": 4912,
      "Ġil": 4913,
      "Ġhledat": 4914,
      "ĠmÄĽsÃŃce": 4915,
      "ĠznÃ¡mÃ½": 4916,
      "vodu": 4917,
      "tÃ¡h": 4918,
      "ĠpospÃŃ": 4919,
      "ĠzpÃŃvat": 4920,
      "hr": 4921,
      "vic": 4922,
      "ĠslavÃŃk": 4923,
      "tce": 4924,
      "lily": 4925,
      "ĠvÅ¡echen": 4926,
      "Ġslzu": 4927,
      "ĠchudÃ½": 4928,
      "Ġrozmar": 4929,
      "Ġovo": 4930,
      "ĠposvÄĽ": 4931,
      "Ġpohledem": 4932,
      "Ġpozem": 4933,
      "Ġodho": 4934,
      "ĠkrÃ¡lem": 4935,
      "ĠkrÃ¡lÅ¯": 4936,
      "Ġtemnou": 4937,
      "pili": 4938,
      "ĠtÅĻpytÃŃ": 4939,
      "Ġarci": 4940,
      "Ġmiluje": 4941,
      "ĠtrÃ¡va": 4942,
      "ĠmÅ¯Å¾eÅ¡": 4943,
      "ĠdivÄĽ": 4944,
      "ĠvÅĻel": 4945,
      "Ġcu": 4946,
      "Ġvodu": 4947,
      "lena": 4948,
      "Ġpocti": 4949,
      "ĠbÅĻi": 4950,
      "ĠsrdcÃŃch": 4951,
      "ĠÅ¡est": 4952,
      "ĠchoÅ¥": 4953,
      "Ġhrst": 4954,
      "mil": 4955,
      "tovÃ©": 4956,
      "ĠÅ¾it": 4957,
      "ĠdruhÃ¡": 4958,
      "Ġw": 4959,
      "Ġvpad": 4960,
      "ĠneÃº": 4961,
      "ĠlÃ½m": 4962,
      "venÃ½": 4963,
      "Ġknihy": 4964,
      "ĠperutÃŃ": 4965,
      "Ġstech": 4966,
      "ĠneÅ¡": 4967,
      "skla": 4968,
      "ĠpohÃ¡r": 4969,
      "ĠÃºro": 4970,
      "pomÃŃnÃ¡": 4971,
      "Ġpne": 4972,
      "ĠchtÄĽli": 4973,
      "ĠskuteÄį": 4974,
      "Ġnajednou": 4975,
      "Ġstarost": 4976,
      "tne": 4977,
      "ĠnnÃ½": 4978,
      "ÄįkÃ¡ch": 4979,
      "ĠdomÄĽ": 4980,
      "ĠÄįervÃ¡": 4981,
      "ĠvÄĽrnÃ©": 4982,
      "Ġkouzlem": 4983,
      "nci": 4984,
      "lid": 4985,
      "ÅĻiti": 4986,
      "Ġnesl": 4987,
      "stoj": 4988,
      "Ġchodil": 4989,
      "ĠznÃ¡t": 4990,
      "fa": 4991,
      "dÃ¡vÃ¡": 4992,
      "ĠtÃ½m": 4993,
      "Ġjdem": 4994,
      "Ġvypu": 4995,
      "ĠÅĻit": 4996,
      "ÄįnÃŃm": 4997,
      "Ġzachy": 4998,
      "ĠzlatÃŃ": 4999,
      "ĠÄįert": 5000,
      "nÅ¯v": 5001,
      "Ġvkro": 5002,
      "Ġboh": 5003,
      "ĠrÃ¡m": 5004,
      "dÃ½": 5005,
      "Ġdrak": 5006,
      "Ġsoucit": 5007,
      "ĠhospodÃ¡": 5008,
      "tÃ©m": 5009,
      "Ġposel": 5010,
      "ĠzavÃŃ": 5011,
      "ĠstÃ¡r": 5012,
      "ĠÅ¡ÃŃji": 5013,
      "ĠbuÄıte": 5014,
      "ĠvpÅĻed": 5015,
      "Ġnerozu": 5016,
      "pnÄĽ": 5017,
      "Ġkne": 5018,
      "Ġdnu": 5019,
      "ĠsluÅ¡ÃŃ": 5020,
      "ĠvÅ¯d": 5021,
      "ĠmodlÃŃ": 5022,
      "ĠzbranÃŃ": 5023,
      "ĠmdlÃ½": 5024,
      "Ġshon": 5025,
      "ĠveÅ¡ke": 5026,
      "Ġkov": 5027,
      "Ġsluje": 5028,
      "fo": 5029,
      "Ġvedou": 5030,
      "Ġposlu": 5031,
      "les": 5032,
      "Ġjezd": 5033,
      "ĠhostÃŃ": 5034,
      "ĠpapeÅ¾": 5035,
      "Ġvlta": 5036,
      "ĠperuÅ¥": 5037,
      "ĠpÅ¯vab": 5038,
      "ĠplÃ©mÄĽ": 5039,
      "ĠpouhÃ½": 5040,
      "Ġude": 5041,
      "ĠvelÃŃ": 5042,
      "ĠvyÅ¡la": 5043,
      "Äįiti": 5044,
      "ĠmalÃŃ": 5045,
      "Ġpotok": 5046,
      "nkÃ©": 5047,
      "Ġlsti": 5048,
      "nÃ¡ct": 5049,
      "Ġlost": 5050,
      "ĠzaÅ¡e": 5051,
      "Ġroky": 5052,
      "Ġvinu": 5053,
      "hali": 5054,
      "pala": 5055,
      "ĠsmÄĽlÃ½": 5056,
      "ĠsamotÄĽ": 5057,
      "Ġjmeno": 5058,
      "ĠzapomnÄĽl": 5059,
      "ÅĻej": 5060,
      "ĠkonÃŃ": 5061,
      "lko": 5062,
      "Ġvni": 5063,
      "Ġtuze": 5064,
      "ĠdÃ¡vnÃ©": 5065,
      "Ġbledou": 5066,
      "Ġmiluji": 5067,
      "Ã©mu": 5068,
      "Ġpoky": 5069,
      "Ġpravo": 5070,
      "ĠtÃ©mÄĽ": 5071,
      "ĠvÅ¯bec": 5072,
      "ĠschÃ½": 5073,
      "Ġpono": 5074,
      "ĠbojÃŃ": 5075,
      "ĠlÃŃbal": 5076,
      "ĠvzpomÃŃnÃ¡": 5077,
      "ren": 5078,
      "Ġproko": 5079,
      "ĠÅ¾ivotu": 5080,
      "ĠÅĻekne": 5081,
      "mal": 5082,
      "ĠrovnÄĽ": 5083,
      "ĠÅ¾eni": 5084,
      "nÃ¡Å¡el": 5085,
      "ĠpÃŃÅ¡e": 5086,
      "ĠpÅ¯du": 5087,
      "ĠsilnÃ½": 5088,
      "Ġvojska": 5089,
      "th": 5090,
      "ĠABB": 5091,
      "Ġpraze": 5092,
      "ĠtvÃ©mu": 5093,
      "ĠdruÅ¾i": 5094,
      "ĠsvatÃ½m": 5095,
      "ĠsladkÃ½ch": 5096,
      "ĠkÅĻesÅ¥a": 5097,
      "ĠÅ¡erÃ©": 5098,
      "Ġmysti": 5099,
      "Ġplesu": 5100,
      "ĠÅ¡ly": 5101,
      "ĠAAAA": 5102,
      "ĠhÅĻÃŃchu": 5103,
      "ĠhÅĻbe": 5104,
      "ĠvonnÃ½": 5105,
      "ĠobliÄįej": 5106,
      "Ġchti": 5107,
      "bÄĽh": 5108,
      "ĠzlatÃ©m": 5109,
      "ĠboÅ¾ÃŃm": 5110,
      "ĠvÄĽÅĻÃŃm": 5111,
      "Ġroztou": 5112,
      "Ġhodiny": 5113,
      "ĠklÃŃnÄĽ": 5114,
      "ĠnÃ¡mÄĽ": 5115,
      "Ġbabi": 5116,
      "chÃ¡zel": 5117,
      "Å¡et": 5118,
      "Ġmora": 5119,
      "vilo": 5120,
      "ĠsladkÃ½m": 5121,
      "ĠsmÄĽl": 5122,
      "sledy": 5123,
      "Ġtouhu": 5124,
      "ĠAXABBX": 5125,
      "Ġrady": 5126,
      "Ġproudu": 5127,
      "ĠdÄĽd": 5128,
      "ĠbÃŃlÃ©m": 5129,
      "Ġkvas": 5130,
      "ĠprvnÃŃm": 5131,
      "ĠzeleÅĪ": 5132,
      "Ġses": 5133,
      "ÅĻilo": 5134,
      "Ġmnohou": 5135,
      "ĠhnÄĽvem": 5136,
      "ĠkÅ¯m": 5137,
      "nÃ©st": 5138,
      "Ġbrachu": 5139,
      "ĠstÄĽn": 5140,
      "Ġhlahol": 5141,
      "Ġzad": 5142,
      "tkÅ¯": 5143,
      "Ġlicho": 5144,
      "ĠtÅĻesou": 5145,
      "Ġmoudrost": 5146,
      "rÄįÃŃ": 5147,
      "Ġsel": 5148,
      "ĠvznÃŃ": 5149,
      "Ġmist": 5150,
      "ĠÅ¾Ã¡ru": 5151,
      "ĠdneÅ¡nÃŃ": 5152,
      "ĠpÅĻemo": 5153,
      "ĠlÅ¾i": 5154,
      "kam": 5155,
      "milo": 5156,
      "tÃ¡ch": 5157,
      "ĠpolÃŃch": 5158,
      "Ġhospodi": 5159,
      "Ġule": 5160,
      "Ġjihu": 5161,
      "ĠbÃ¡l": 5162,
      "Ġhlasu": 5163,
      "ĠdvojÃŃ": 5164,
      "Ġsestry": 5165,
      "ĠzÃ¡mku": 5166,
      "Ġudi": 5167,
      "ĠvÃ½s": 5168,
      "ĠkoÅĻist": 5169,
      "nkem": 5170,
      "Ġbub": 5171,
      "ĠABABBX": 5172,
      "ĠmodrÃ½": 5173,
      "ĠdÄĽjin": 5174,
      "Ġzen": 5175,
      "ĠbÅ¯": 5176,
      "ĠlÃ¡m": 5177,
      "ĠÄįlu": 5178,
      "ĠspatÅĻil": 5179,
      "Ġnaposledy": 5180,
      "ĠchraÅĪ": 5181,
      "ĠpÅĻÃŃk": 5182,
      "Ġslasti": 5183,
      "ĠtrpÄĽ": 5184,
      "Ġpoliti": 5185,
      "Ġmuka": 5186,
      "buje": 5187,
      "ĠodpoÄįi": 5188,
      "Ġbalva": 5189,
      "ĠvÄĽtrÅ¯": 5190,
      "Ġuzav": 5191,
      "ĠvÄĽtry": 5192,
      "mÃ¡m": 5193,
      "ĠÅ¾ÃŃm": 5194,
      "Ġroztr": 5195,
      "ĠnutÃŃ": 5196,
      "bili": 5197,
      "ĠzpÄĽvem": 5198,
      "Ġulic": 5199,
      "Ġslzami": 5200,
      "ĠpenÄĽ": 5201,
      "Ġrtem": 5202,
      "ĠzvlÃ¡Å¡t": 5203,
      "ĠÄįÃŃst": 5204,
      "ĠÄįerv": 5205,
      "Ġsvr": 5206,
      "ĠpapÃŃ": 5207,
      "ĠlÃŃba": 5208,
      "sili": 5209,
      "ĠkÅĻÃŃdlo": 5210,
      "ĠmraÄįna": 5211,
      "Ġdno": 5212,
      "ĠtichÃ½m": 5213,
      "razil": 5214,
      "Ġvedla": 5215,
      "ĠpÅĻedsta": 5216,
      "Å¾enou": 5217,
      "ĠvrhÃ¡": 5218,
      "Ġabys": 5219,
      "sklo": 5220,
      "Ġrozlou": 5221,
      "zdy": 5222,
      "Ġsal": 5223,
      "ĠÄįiny": 5224,
      "ĠvÄĽtÅĻÃŃk": 5225,
      "Ġzakle": 5226,
      "ĠtlaÄįÃŃ": 5227,
      "ĠnedÄĽ": 5228,
      "Ġpokud": 5229,
      "Ġvece": 5230,
      "ĠveÅ¡el": 5231,
      "Ġjednom": 5232,
      "ĠlÃ¡sko": 5233,
      "ĠzmÃŃrÃ¡": 5234,
      "Ġminulosti": 5235,
      "vedla": 5236,
      "Ġmrz": 5237,
      "ĠÅ¡vi": 5238,
      "ĠsvÄĽtlu": 5239,
      "snÃ¡": 5240,
      "ĠzÃ¡me": 5241,
      "chala": 5242,
      "ĠÅ¡Å¥astnÃ½": 5243,
      "Ġjiskra": 5244,
      "Ġkolena": 5245,
      "ĠnevÃ½": 5246,
      "Ġklasy": 5247,
      "ĠzvlÃ¡Å¡Å¥": 5248,
      "tnÃŃ": 5249,
      "Å¾ko": 5250,
      "jo": 5251,
      "ĠzaznÄĽ": 5252,
      "Ġbozi": 5253,
      "ĠhvÄĽzdÃ¡m": 5254,
      "Ġvedl": 5255,
      "ĠprostÃ½": 5256,
      "Ġlibo": 5257,
      "ĠskÃ½ch": 5258,
      "Ġgi": 5259,
      "try": 5260,
      "ĠÅ¡er": 5261,
      "ĠjejÃŃÅ¾": 5262,
      "ĠXAAXBB": 5263,
      "ĠtvrdÃ©": 5264,
      "lenou": 5265,
      "ĠkrÃ¡snÃ½ch": 5266,
      "Ġzahrad": 5267,
      "Ġochra": 5268,
      "Ġstrachem": 5269,
      "Ġher": 5270,
      "ĠsleÄį": 5271,
      "mnÄĽl": 5272,
      "ĠmyÅ¡lenek": 5273,
      "ĠpoÅ¡": 5274,
      "ĠpÄĽje": 5275,
      "ĠjeÅ¾ÃŃ": 5276,
      "Ġhlado": 5277,
      "ĠÅ¡aty": 5278,
      "Ġhluboko": 5279,
      "ĠÅ¡o": 5280,
      "Ġmohy": 5281,
      "ĠXAAA": 5282,
      "ĠpÅĻÃŃzrak": 5283,
      "stoupil": 5284,
      "Ġokno": 5285,
      "Ġhrdlo": 5286,
      "Ġdoktor": 5287,
      "Ġrtu": 5288,
      "chovÃ©": 5289,
      "ĠryzÃŃ": 5290,
      "Ġsladko": 5291,
      "ĠprÅ¯vod": 5292,
      "ckÃ½m": 5293,
      "ĠokÃ©": 5294,
      "Ġpovy": 5295,
      "Ġbyto": 5296,
      "ĠzÃ¡zra": 5297,
      "ĠkterÃ©m": 5298,
      "ĠpÄĽÅ¡i": 5299,
      "ĠnechaÅ¥": 5300,
      "ĠhÅĻÃ¡": 5301,
      "Ġpova": 5302,
      "Ġnat": 5303,
      "ĠÃºdy": 5304,
      "Ġkrbu": 5305,
      "Ġdechu": 5306,
      "ĠupÅĻÃŃm": 5307,
      "Å¾uje": 5308,
      "Ġlal": 5309,
      "Ġruchu": 5310,
      "ĠlÃŃst": 5311,
      "ĠbÄĽla": 5312,
      "Å¾enÃ¡": 5313,
      "Ġneob": 5314,
      "Ġknih": 5315,
      "nouc": 5316,
      "vinu": 5317,
      "Ġspjat": 5318,
      "ĠkaÅ¾dÃ©ho": 5319,
      "Ġpohr": 5320,
      "Ġkams": 5321,
      "ĠkolÃ©": 5322,
      "ĠveÄįernÃŃ": 5323,
      "Ġmrtev": 5324,
      "ĠjÃ¡sot": 5325,
      "ĠzvÃ¡": 5326,
      "menÄĽ": 5327,
      "Ġondy": 5328,
      "ĠhlubokÃ©": 5329,
      "ĠzvÃŃtÄĽ": 5330,
      "mÃŃm": 5331,
      "Ġzvad": 5332,
      "ĠopÃ¡": 5333,
      "ĠÅ¡era": 5334,
      "ĠtrpÃŃ": 5335,
      "ĠvÄĽÅ¡t": 5336,
      "ĠÄįÃŃÅ¡i": 5337,
      "ĠkrvavÃ©": 5338,
      "lilo": 5339,
      "ĠzÃ¡hu": 5340,
      "Ġvlnou": 5341,
      "ĠtratÃŃ": 5342,
      "Ġopusti": 5343,
      "bky": 5344,
      "Ġvnik": 5345,
      "die": 5346,
      "ĠstraÅ¡li": 5347,
      "Ġzbyl": 5348,
      "ĠhnÃŃzda": 5349,
      "Ġvzpomen": 5350,
      "ĠÅ¾houcÃŃ": 5351,
      "Ġoby": 5352,
      "sech": 5353,
      "ĠzpÅ¯so": 5354,
      "Ġsvitu": 5355,
      "Ġzkvet": 5356,
      "Ġknihu": 5357,
      "ĠodpovÄĽÄı": 5358,
      "razi": 5359,
      "Ġkoni": 5360,
      "Ġskrom": 5361,
      "ĠzÃ¡ba": 5362,
      "Ġkudy": 5363,
      "ĠvÃ©vo": 5364,
      "ĠhÅ¯l": 5365,
      "ĠdÃ©man": 5366,
      "ĠÅ¡en": 5367,
      "Ġdejte": 5368,
      "Ġjasu": 5369,
      "Ġpokro": 5370,
      "ĠjimiÅ¾": 5371,
      "vÃŃvÃ¡": 5372,
      "Ġvzty": 5373,
      "ĠÅ¡ÃŃÅĻÃŃ": 5374,
      "Ġsnadno": 5375,
      "ĠsmÄĽsi": 5376,
      "ĠblÃ½skÃ¡": 5377,
      "ĠtmÃŃ": 5378,
      "ĠmÄĽlo": 5379,
      "ĠposvÃ¡t": 5380,
      "ĠspÄĽje": 5381,
      "rovnÃ¡": 5382,
      "nÃ¡ÅĻ": 5383,
      "ĠmoÅĻÃŃ": 5384,
      "Ġkdosi": 5385,
      "cemi": 5386,
      "ĠpolÃŃbenÃŃ": 5387,
      "ĠnejvÄĽtÅ¡ÃŃ": 5388,
      "ĠnnÃ¡": 5389,
      "Ġdoz": 5390,
      "tÄĽjÅ¡ÃŃ": 5391,
      "ĠkovÃ¡": 5392,
      "Äįilo": 5393,
      "Ġvrh": 5394,
      "ĠspÃ¡sy": 5395,
      "ĠstrÃ¡ni": 5396,
      "ĠmusÃŃÅ¡": 5397,
      "ĠtesknÄĽ": 5398,
      "ĠjmÃ©na": 5399,
      "ĠoltÃ¡ÅĻ": 5400,
      "ron": 5401,
      "Ġniv": 5402,
      "Ġnesu": 5403,
      "Ġmarno": 5404,
      "Ġbyste": 5405,
      "Ġbudoucnost": 5406,
      "Ġpolem": 5407,
      "Ġbytost": 5408,
      "ĠÅ¾ele": 5409,
      "ĠpÅĻiÅ¡lo": 5410,
      "ĠkrutÃ½": 5411,
      "ĠrozkoÅ¡ÃŃ": 5412,
      "lnÃ©": 5413,
      "Ġneh": 5414,
      "Ġvidi": 5415,
      "ĠkÅĻiÅ¡Å¥": 5416,
      "Ġskryt": 5417,
      "ĠtÃ³n": 5418,
      "dno": 5419,
      "Ġleda": 5420,
      "Ġdeset": 5421,
      "moc": 5422,
      "ĠkÃ¡zal": 5423,
      "ĠkrokÅ¯": 5424,
      "ĠaniÅ¾": 5425,
      "ĠkÅĻesÅ¥an": 5426,
      "Å¾te": 5427,
      "ĠhovoÅĻÃŃ": 5428,
      "mÃ¡n": 5429,
      "Ġtiskne": 5430,
      "tli": 5431,
      "ĠtkÃ¡": 5432,
      "Ġpor": 5433,
      "Ġjaksi": 5434,
      "Ġtok": 5435,
      "ĠnÄĽl": 5436,
      "diti": 5437,
      "ĠzbÄĽ": 5438,
      "Ġmatkou": 5439,
      "ĠsnÃŃt": 5440,
      "Ġvolnost": 5441,
      "Ġnos": 5442,
      "ĠspÅĻÃ¡": 5443,
      "Ġotcem": 5444,
      "ĠdivnÃ¡": 5445,
      "ie": 5446,
      "Ġzru": 5447,
      "ĠrdÃŃ": 5448,
      "Ġpraco": 5449,
      "ĠstaÅĻÃŃ": 5450,
      "ĠtÅĻikrÃ¡t": 5451,
      "vostÃŃ": 5452,
      "nika": 5453,
      "ĠÄįechÃ¡ch": 5454,
      "Ġranou": 5455,
      "ĠsÃ¡h": 5456,
      "dro": 5457,
      "Ġrosou": 5458,
      "bor": 5459,
      "Ġlidstvu": 5460,
      "ĠboÅ¾skÃ©": 5461,
      "ĠnepÅĻÃŃtel": 5462,
      "vÅ¡i": 5463,
      "Ġkme": 5464,
      "ĠsvÄĽtle": 5465,
      "bej": 5466,
      "Ġhrot": 5467,
      "Ġgeni": 5468,
      "ĠusmÄĽ": 5469,
      "ĠproudÃŃ": 5470,
      "Ġjist": 5471,
      "ĠnebesÅ¯m": 5472,
      "ĠskrÃ¡ni": 5473,
      "ĠslyÅ¡te": 5474,
      "Ġplen": 5475,
      "Ġbzu": 5476,
      "Ġdoj": 5477,
      "ĠdÃŃla": 5478,
      "Ġsvate": 5479,
      "pis": 5480,
      "ĠvzkÅĻÃŃ": 5481,
      "ĠnnÄĽ": 5482,
      "Ġtlou": 5483,
      "vÃŃÅ¡": 5484,
      "ĠjÃŃch": 5485,
      "ĠzÃ¡Å¡tÃŃ": 5486,
      "Ġkrov": 5487,
      "Ġroucho": 5488,
      "ĠvyÅ¡Å¡ÃŃ": 5489,
      "ĠÄįarodÄĽj": 5490,
      "Ġsnou": 5491,
      "ĠzÅĻÃŃti": 5492,
      "ĠjunÃ¡": 5493,
      "Ġblesku": 5494,
      "ĠstrÃ¡nÃŃ": 5495,
      "ĠpyÅ¡nÄĽ": 5496,
      "zdÄĽ": 5497,
      "ĠpodÄĽ": 5498,
      "dÃ¡Å¡": 5499,
      "Ġpluje": 5500,
      "ĠpÄĽknÃ©": 5501,
      "Ġejhle": 5502,
      "Ġtaje": 5503,
      "Ġpravou": 5504,
      "ĠnÃ©st": 5505,
      "ĠmodrÃ½ch": 5506,
      "dlÃ©": 5507,
      "Ġsky": 5508,
      "ĠudÄĽ": 5509,
      "Ġlau": 5510,
      "ĠbÃŃlÃ½m": 5511,
      "dÄĽte": 5512,
      "Ġbes": 5513,
      "Ġ21": 5514,
      "Ġdvak": 5515,
      "ĠstrojÃŃ": 5516,
      "Ġdvacet": 5517,
      "ĠhroznÃ¡": 5518,
      "Ġfau": 5519,
      "ĠÄįtve": 5520,
      "rnÃ©m": 5521,
      "Ġpovr": 5522,
      "ĠkÅĻÃŃÅ¾em": 5523,
      "ĠlesÃŃch": 5524,
      "Ġhlubiny": 5525,
      "Å¾u": 5526,
      "Å¡kou": 5527,
      "Ġonu": 5528,
      "ĠupÃŃ": 5529,
      "ĠletÄĽl": 5530,
      "Ġdruha": 5531,
      "ĠhrdÃ½": 5532,
      "Ġmsti": 5533,
      "lat": 5534,
      "Ġzast": 5535,
      "ĠuÄįen": 5536,
      "Ġpodve": 5537,
      "ĠpÅĻÃŃtom": 5538,
      "Ġjasnou": 5539,
      "Ġpruh": 5540,
      "Ġdcery": 5541,
      "vÄĽti": 5542,
      "Ġmelo": 5543,
      "Ġmlh": 5544,
      "ĠpÅĻÃ¡telÃ©": 5545,
      "ĠvonnÃ©": 5546,
      "ÅĪÃ¡": 5547,
      "Ġsvaty": 5548,
      "Ġgu": 5549,
      "zÅ¯": 5550,
      "Ġnnou": 5551,
      "Ġhni": 5552,
      "Ġkoli": 5553,
      "Ġniko": 5554,
      "ĠlÃ¡kÃ¡": 5555,
      "Ġsmy": 5556,
      "ĠsahÃ¡": 5557,
      "Ġsedm": 5558,
      "ĠÄıÃ¡b": 5559,
      "Ġaneb": 5560,
      "Ġkul": 5561,
      "Ġsoudu": 5562,
      "ĠÅ¡irÃ©": 5563,
      "Ġmih": 5564,
      "Ġodda": 5565,
      "kouz": 5566,
      "ĠplÃ¡ni": 5567,
      "ĠtÅĻÃ¡": 5568,
      "Ġnivy": 5569,
      "Ġmohlo": 5570,
      "Ġkriti": 5571,
      "Ġhudby": 5572,
      "XAX": 5573,
      "lÃŃch": 5574,
      "ĠpÃŃlÃŃ": 5575,
      "Ġpojednou": 5576,
      "ĠuÄįÃŃ": 5577,
      "ĠkypÃŃ": 5578,
      "ĠostatnÃŃ": 5579,
      "chodu": 5580,
      "Ġsouzvu": 5581,
      "ĠAAXXBB": 5582,
      "Ġnepla": 5583,
      "ĠdrtÃŃ": 5584,
      "Ġzahrady": 5585,
      "ĠplatÃŃ": 5586,
      "Ġfra": 5587,
      "ĠozÃ¡": 5588,
      "ĠnadÄĽji": 5589,
      "Ġblud": 5590,
      "ĠzaplÃ¡": 5591,
      "Ġspasi": 5592,
      "ĠzachvÄĽl": 5593,
      "nkÃ¡ch": 5594,
      "snou": 5595,
      "Å¾stvÃŃ": 5596,
      "Ġopi": 5597,
      "voval": 5598,
      "ĠronÃŃ": 5599,
      "Ġvinou": 5600,
      "Ġhust": 5601,
      "ĠtÄĽÅ¾kÃ½ch": 5602,
      "ĠÅ¾ez": 5603,
      "Ġsyny": 5604,
      "Ġdary": 5605,
      "Ġkouzla": 5606,
      "lenÃ½ch": 5607,
      "vobo": 5608,
      "ĠblahÃ©": 5609,
      "Ġotco": 5610,
      "Ġpostavy": 5611,
      "Ġharmo": 5612,
      "ĠhlÃ©": 5613,
      "lin": 5614,
      "ĠlÃŃm": 5615,
      "ĠÄįeskÃ½ch": 5616,
      "ako": 5617,
      "bitÃŃ": 5618,
      "prvÃ©": 5619,
      "skutku": 5620,
      "ĠÅ¾alost": 5621,
      "Ġobloze": 5622,
      "ĠnÄĽkolik": 5623,
      "Ġvskutku": 5624,
      "Ġvzali": 5625,
      "vnÃŃk": 5626,
      "Ġtrav": 5627,
      "ĠznÄĽlo": 5628,
      "ĠzmizÃŃ": 5629,
      "Ġulici": 5630,
      "Ġslze": 5631,
      "ĠnÄĽhoÅ¾": 5632,
      "ĠhlÃ¡sÃ¡": 5633,
      "Ġcar": 5634,
      "Ġlety": 5635,
      "Ġproh": 5636,
      "ĠÅ¾ivoby": 5637,
      "kova": 5638,
      "ĠÅ¾ili": 5639,
      "ĠzÃ¡pal": 5640,
      "ber": 5641,
      "ĠtemnÃ½ch": 5642,
      "ĠzbÃ½vÃ¡": 5643,
      "ĠnÃ¡roda": 5644,
      "ĠÅ¾alem": 5645,
      "ĠvyÅ¡e": 5646,
      "ĠsÃŃtÄĽ": 5647,
      "ĠdÃ¡lnÃ©": 5648,
      "Ġdruhou": 5649,
      "Ġblahem": 5650,
      "ĠmlÃ¡de": 5651,
      "Ġpodob": 5652,
      "Ġbudoucnosti": 5653,
      "ĠnecÃŃ": 5654,
      "Ġporu": 5655,
      "Ġrozs": 5656,
      "Ġvaz": 5657,
      "Ġozval": 5658,
      "Ġpaprsky": 5659,
      "ĠhbitÄĽ": 5660,
      "Ġulo": 5661,
      "ĠnÄĽhy": 5662,
      "Ġdych": 5663,
      "ĠneustÃ¡": 5664,
      "ĠkalÃŃ": 5665,
      "ĠkÅĻeh": 5666,
      "ĠnenadÃ¡": 5667,
      "ĠtakÃ½": 5668,
      "ĠmÄĽstem": 5669,
      "ĠstÃ¡ly": 5670,
      "ĠzlatÄĽ": 5671,
      "ĠplÃ¡la": 5672,
      "ĠstranÄĽ": 5673,
      "Ġfilo": 5674,
      "ĠkvÃ©st": 5675,
      "Äįat": 5676,
      "ĠodvÄĽ": 5677,
      "zenÃ©": 5678,
      "Ġtanci": 5679,
      "lÃ¡m": 5680,
      "Ġcud": 5681,
      "ĠÅ¡pa": 5682,
      "rec": 5683,
      "stoup": 5684,
      "ĠznÄĽla": 5685,
      "Ġbas": 5686,
      "ĠpaÅĻÃŃ": 5687,
      "ĠbÅĻehy": 5688,
      "Ġzkr": 5689,
      "Ġbludi": 5690,
      "Ġskrz": 5691,
      "voj": 5692,
      "ĠvÅ¡ed": 5693,
      "Ġfor": 5694,
      "ĠdÃŃvku": 5695,
      "ĠkrÃ¡tce": 5696,
      "hlÃ©d": 5697,
      "ĠsmÃ¡t": 5698,
      "ĠkrouÅ¾ÃŃ": 5699,
      "hor": 5700,
      "Ġkan": 5701,
      "ĠsvÄĽtlÃ½": 5702,
      "ĠpuÄįÃŃ": 5703,
      "ĠspÃŃÅ¡e": 5704,
      "Ġsoudru": 5705,
      "ÅĻuje": 5706,
      "ĠodÅĻÃŃ": 5707,
      "ĠlÃ©to": 5708,
      "Ġbem": 5709,
      "ĠbrÃ¡t": 5710,
      "Ġzavz": 5711,
      "vÄĽla": 5712,
      "Ġvzhled": 5713,
      "vete": 5714,
      "ĠvÅ¡ecku": 5715,
      "ĠÅ¾lutÃ©": 5716,
      "lnÃ½": 5717,
      "ĠÄįit": 5718,
      "ĠtÄĽÅ¾kÃ½m": 5719,
      "Ġhouf": 5720,
      "prch": 5721,
      "Ġdostal": 5722,
      "Ġzmu": 5723,
      "Ġsply": 5724,
      "ĠcizÃŃm": 5725,
      "ĠdivÃ©m": 5726,
      "ĠbÄĽl": 5727,
      "Ġzbroj": 5728,
      "Å¾nÃ¡": 5729,
      "nÄĽla": 5730,
      "vedl": 5731,
      "ĠostrÃ½": 5732,
      "ĠÅ¡Å¥astnÄĽ": 5733,
      "bÅ¯h": 5734,
      "ot": 5735,
      "skÃ©mu": 5736,
      "Ġstarce": 5737,
      "ĠzvukÅ¯": 5738,
      "ĠodpoÄįÃŃ": 5739,
      "qu": 5740,
      "ĠzÃ¡pla": 5741,
      "ĠÅĻadu": 5742,
      "ĠzalÃ©": 5743,
      "kru": 5744,
      "liti": 5745,
      "ĠstrÃ¡nÄĽ": 5746,
      "ĠzoÅĻe": 5747,
      "ĠzahradÄĽ": 5748,
      "Ġsrde": 5749,
      "ĠfarÃ¡": 5750,
      "Ġsep": 5751,
      "ĠvÃŃnem": 5752,
      "Ġvav": 5753,
      "ĠvolnÃ½": 5754,
      "ĠkvÃŃtek": 5755,
      "ĠkÅĻÃŃdly": 5756,
      "Ġpoku": 5757,
      "ĠvodnÃŃ": 5758,
      "vujÃŃ": 5759,
      "Ġnejlep": 5760,
      "ĠhvÃŃ": 5761,
      "Ġholou": 5762,
      "Ġmohou": 5763,
      "ĠpilnÄĽ": 5764,
      "Ã¡Å¡": 5765,
      "Ġlit": 5766,
      "ĠnÃ¡ÅĻek": 5767,
      "ĠrÃ¡ko": 5768,
      "ĠslÃ¡vou": 5769,
      "ĠdÅ¯stoj": 5770,
      "Ġhudbou": 5771,
      "vnÃ©": 5772,
      "ĠpÅĻichÃ¡zÃŃ": 5773,
      "ĠslÃ½ch": 5774,
      "Ġsklonil": 5775,
      "Ġnapad": 5776,
      "Ġledo": 5777,
      "Ġhromu": 5778,
      "Ġokny": 5779,
      "ĠznÄĽly": 5780,
      "ĠdÄĽtstvÃŃ": 5781,
      "Ġzoufa": 5782,
      "ĠkrÃ¡lovstvÃŃ": 5783,
      "ĠpÅĻijdou": 5784,
      "Ġzhu": 5785,
      "Ġosi": 5786,
      "Ġlad": 5787,
      "Å¡ÃŃÅ¡": 5788,
      "Ġpusto": 5789,
      "ĠvzpomÃŃnky": 5790,
      "Ġhasne": 5791,
      "hej": 5792,
      "dÄĽly": 5793,
      "Ġmudr": 5794,
      "ĠotvÃŃ": 5795,
      "ÅĻenou": 5796,
      "ĠosvÄĽ": 5797,
      "natÃ©": 5798,
      "Ġkdybys": 5799,
      "Ġbloudil": 5800,
      "ĠumÄĽl": 5801,
      "toval": 5802,
      "ĠpohÅĻe": 5803,
      "ĠzdvihÃ¡": 5804,
      "ÅĪal": 5805,
      "tuje": 5806,
      "ĠÄįen": 5807,
      "jela": 5808,
      "ĠlaÅĪ": 5809,
      "ĠÅ¡ÃŃje": 5810,
      "Ġplny": 5811,
      "ĠvÃ½chodu": 5812,
      "ĠsnovÃ©": 5813,
      "ĠoÄįka": 5814,
      "ĠÅ¾o": 5815,
      "ĠpÅĻedc": 5816,
      "Ġblahu": 5817,
      "ĠmraÄįen": 5818,
      "Ġplody": 5819,
      "ĠmdlÃ©": 5820,
      "ĠmyÅ¡lenka": 5821,
      "ĠpestrÃ©": 5822,
      "jala": 5823,
      "kalo": 5824,
      "ÄįÃŃch": 5825,
      "Ġsuk": 5826,
      "Ġvlasten": 5827,
      "ĠtajnÃ©": 5828,
      "vÃ¡me": 5829,
      "Ġocho": 5830,
      "ĠkolÃŃ": 5831,
      "ĠtouÅ¾il": 5832,
      "Ġhus": 5833,
      "ĠlÃŃtÃ¡": 5834,
      "Ġpije": 5835,
      "ĠskÃ¡Äįe": 5836,
      "ĠstÅĻÃ¡": 5837,
      "Äįily": 5838,
      "ĠchrÃ¡nÃŃ": 5839,
      "ĠprospÄĽ": 5840,
      "ĠvzplÃ¡l": 5841,
      "ĠpohÃ¡d": 5842,
      "ĠslednÃŃ": 5843,
      "ĠmlÃ½n": 5844,
      "roval": 5845,
      "Ġvina": 5846,
      "Ġsedmi": 5847,
      "Ġmok": 5848,
      "ĠrozlÃŃ": 5849,
      "ĠkrvÃ¡": 5850,
      "Ġchaty": 5851,
      "lice": 5852,
      "cek": 5853,
      "Ġvzej": 5854,
      "Ġrozv": 5855,
      "Äįeji": 5856,
      "Ġsvojich": 5857,
      "Ġpokoje": 5858,
      "Ġnebyla": 5859,
      "Ġrozmil": 5860,
      "kynÄĽ": 5861,
      "ĠkoÄįÃ¡": 5862,
      "ĠvÄĽÅĻit": 5863,
      "Ġdlani": 5864,
      "Ġpravdou": 5865,
      "Ġnekli": 5866,
      "meÅĪ": 5867,
      "Ġpohro": 5868,
      "Ġzimy": 5869,
      "Ġpozdvi": 5870,
      "ĠvysokÃ©": 5871,
      "Ġramena": 5872,
      "nkÃ¡": 5873,
      "Ġvzrost": 5874,
      "ĠXAABXB": 5875,
      "ĠzÃ¡vÄĽ": 5876,
      "ĠÃºna": 5877,
      "ĠstÃ¡lo": 5878,
      "ĠmocnÃ©": 5879,
      "venÃŃ": 5880,
      "ĠpÅĻekva": 5881,
      "mÄĽla": 5882,
      "ĠbÃŃdnÃ½": 5883,
      "Ġjedinou": 5884,
      "ĠnevÃŃÅ¡": 5885,
      "chÃ¡m": 5886,
      "ĠzÃ¡stu": 5887,
      "ĠbÄĽlo": 5888,
      "Ġjsouc": 5889,
      "ĠsnivÃ©": 5890,
      "ĠvzÃŃt": 5891,
      "ĠÅ¾ivobytÃŃ": 5892,
      "desÃ¡": 5893,
      "ĠhoÅ¡i": 5894,
      "vÃ©tÃ¡": 5895,
      "ĠvidÄĽla": 5896,
      "Ġlos": 5897,
      "Ġfo": 5898,
      "ĠpÅ¯dy": 5899,
      "ĠzmÃ¡m": 5900,
      "Ġhrobem": 5901,
      "Ġlec": 5902,
      "Ġposlal": 5903,
      "ĠhÅĻÃŃÅ¡": 5904,
      "ĠstudÃ¡": 5905,
      "gy": 5906,
      "sud": 5907,
      "Ġbly": 5908,
      "Ġoblaky": 5909,
      "ajÃŃ": 5910,
      "blesk": 5911,
      "Ġvte": 5912,
      "Ġsmutnou": 5913,
      "Ġrakev": 5914,
      "ĠonÄĽch": 5915,
      "Ġih": 5916,
      "Ġoso": 5917,
      "Ġzlomen": 5918,
      "ĠhÅĻÃŃchy": 5919,
      "ĠzimÄĽ": 5920,
      "Ġjarem": 5921,
      "Å¾emi": 5922,
      "ĠjitÅĻ": 5923,
      "Ġprsten": 5924,
      "tÃŃÅ¡": 5925,
      "ĠÅ¾ila": 5926,
      "ster": 5927,
      "ĠhvÄĽzdami": 5928,
      "ĠpoÅĻÃ¡d": 5929,
      "ĠutÄĽ": 5930,
      "ĠÅ¾eÅĪ": 5931,
      "Ġlibu": 5932,
      "ĠdÃ©le": 5933,
      "ĠzimnÃŃ": 5934,
      "Ġoj": 5935,
      "nÃ¡c": 5936,
      "Äįinu": 5937,
      "tajen": 5938,
      "Ġlidskou": 5939,
      "Ġtly": 5940,
      "Ġzato": 5941,
      "ĠholÃ©": 5942,
      "ĠsadÄĽ": 5943,
      "Ġpoupat": 5944,
      "cenÃ¡": 5945,
      "Ġpud": 5946,
      "ĠkÅ¡ti": 5947,
      "Å¡lÃŃ": 5948,
      "Ġad": 5949,
      "rÃ¡Å¾ÃŃ": 5950,
      "vÄĽjÅ¡ÃŃ": 5951,
      "ĠoblÃ¡": 5952,
      "ĠdÄĽsÃŃ": 5953,
      "Å¾iti": 5954,
      "ĠmilÃŃ": 5955,
      "ĠhouÅ¡tÃŃ": 5956,
      "Ġblankytu": 5957,
      "kr": 5958,
      "Ġjisto": 5959,
      "Ġvypla": 5960,
      "lÃŃcÃŃ": 5961,
      "ĠnÃ¡v": 5962,
      "ĠÃºkol": 5963,
      "trem": 5964,
      "ĠlÃ©ka": 5965,
      "ĠznÃ¡mÃ©": 5966,
      "Ġrukama": 5967,
      "Å¾nou": 5968,
      "ĠpÅĻÃŃsnÄĽ": 5969,
      "ĠÅ¡ÃŃlen": 5970,
      "vily": 5971,
      "ĠstkvÃŃ": 5972,
      "Ġihned": 5973,
      "ĠmÄĽstu": 5974,
      "nÄĽjÅ¡ÃŃch": 5975,
      "Ġpokra": 5976,
      "zil": 5977,
      "ĠsklÃŃ": 5978,
      "Ġkres": 5979,
      "Ġmilovat": 5980,
      "ĠubohÃ©": 5981,
      "ĠzazpÃŃ": 5982,
      "Ġluhy": 5983,
      "ĠpustÃ½": 5984,
      "ĠchvÄĽnÃŃ": 5985,
      "ĠskÃ¡lu": 5986,
      "Ġseveru": 5987,
      "ĠuvÄĽ": 5988,
      "Ġleto": 5989,
      "Ġrato": 5990,
      "Ġskryl": 5991,
      "ĠdÄĽsnÃ½": 5992,
      "ĠkmitÃ¡": 5993,
      "ĠutrpenÃŃ": 5994,
      "ĠvnÄĽm": 5995,
      "Ġjedovat": 5996,
      "deÅĪ": 5997,
      "Ġvych": 5998,
      "ĠnÃ¡bo": 5999,
      "ĠpÃ¡dÃŃ": 6000,
      "Ġrysy": 6001,
      "ĠvlastnÄĽ": 6002,
      "ĠlistÅ¯": 6003,
      "ĠmyÅ¡lÃ©nek": 6004,
      "Ġjesen": 6005,
      "Ġpre": 6006,
      "ĠschÃ¡zÃŃ": 6007,
      "Ġhly": 6008,
      "Ġdomy": 6009,
      "Ġhodin": 6010,
      "sej": 6011,
      "ĠsnÄĽhem": 6012,
      "ĠhrobÅ¯": 6013,
      "taly": 6014,
      "volu": 6015,
      "ĠrtÅ¯m": 6016,
      "ĠÅ¾ivÃ¡": 6017,
      "Ġprcha": 6018,
      "ĠsÃŃc": 6019,
      "ĠplnÃ½m": 6020,
      "Ġskok": 6021,
      "ĠbujnÃ©": 6022,
      "ĠmyÅ¡lÃ©nka": 6023,
      "chne": 6024,
      "ĠuÅ¡i": 6025,
      "vanou": 6026,
      "ĠknÄĽÅ¾ÃŃ": 6027,
      "Ġsmysly": 6028,
      "Ġpoledne": 6029,
      "ĠssÃ¡": 6030,
      "ĠzÃ¡ho": 6031,
      "Ġnejsi": 6032,
      "Ġrety": 6033,
      "Ġpomsty": 6034,
      "ĠtuÅ¡ÃŃm": 6035,
      "ĠzÃ¡Å¡Å¥": 6036,
      "Ġslab": 6037,
      "ĠchrÃ¡my": 6038,
      "ĠzvlÃ¡Å¡tnÃŃ": 6039,
      "Ġpavu": 6040,
      "ĠstÃŃhÃ¡": 6041,
      "ĠznÃ¡te": 6042,
      "ĠhlubokÃ½": 6043,
      "ĠchvÃ¡tÃ¡": 6044,
      "Ġpoha": 6045,
      "ary": 6046,
      "ĠpÃ¡ry": 6047,
      "ĠplÃ¡ly": 6048,
      "ĠnapÅĻed": 6049,
      "ĠhedvÃ¡": 6050,
      "ĠvichÅĻice": 6051,
      "Ġmladist": 6052,
      "Ġhli": 6053,
      "Ġhoru": 6054,
      "byl": 6055,
      "vÃŃme": 6056,
      "ĠzoufalstvÃŃ": 6057,
      "ĠÅ¡lehÃ¡": 6058,
      "dÃ½ch": 6059,
      "ĠlhÃ¡": 6060,
      "ÅĻiv": 6061,
      "ĠÅ¡ele": 6062,
      "ĠÅ¡edÃ¡": 6063,
      "ĠotrÃ¡": 6064,
      "ĠdÃ¡my": 6065,
      "ĠzmÃŃtÃ¡": 6066,
      "Ġuva": 6067,
      "Ġjih": 6068,
      "ĠÅĻÃŃma": 6069,
      "ĠmaÄı": 6070,
      "Ġston": 6071,
      "ĠstarÃ©m": 6072,
      "ĠptÃ¡ka": 6073,
      "stÃ¡nÃŃ": 6074,
      "ĠsvÃŃtil": 6075,
      "Ġulice": 6076,
      "ĠbohatÃ½r": 6077,
      "ĠsrÃ¡z": 6078,
      "Ġuto": 6079,
      "ĠÅ¡tva": 6080,
      "Ġsiro": 6081,
      "ĠnaÅ¡eho": 6082,
      "Ġjisker": 6083,
      "ĠvtÄĽ": 6084,
      "Ġpopra": 6085,
      "Ġdopro": 6086,
      "Ġmrav": 6087,
      "ĠdvakrÃ¡t": 6088,
      "ĠnelÃŃ": 6089,
      "Ġnehy": 6090,
      "ÅĻeli": 6091,
      "ĠobjÃŃm": 6092,
      "ĠslabÃ©": 6093,
      "ĠÅĻadou": 6094,
      "vka": 6095,
      "Ġdmou": 6096,
      "Ġrol": 6097,
      "ĠrtÃŃ": 6098,
      "ĠÅ¾ilÃ¡ch": 6099,
      "Ġzkad": 6100,
      "nÃ¡n": 6101,
      "Ġvysko": 6102,
      "Ġvzbou": 6103,
      "Ġsoko": 6104,
      "ĠbleskÅ¯": 6105,
      "Ġzpup": 6106,
      "chat": 6107,
      "ÅĻeje": 6108,
      "dosti": 6109,
      "Ġkyti": 6110,
      "ĠpÅĻemÃ½": 6111,
      "ĠskÅĻivan": 6112,
      "tiv": 6113,
      "Ġoblou": 6114,
      "ĠprvÃ½": 6115,
      "Ġjedem": 6116,
      "ĠdruzÃŃ": 6117,
      "ĠzdrÃ¡va": 6118,
      "ĠtakovÃ©": 6119,
      "ĠpomÃ¡": 6120,
      "ĠÅĻÃŃc": 6121,
      "ĠpÃ¡ny": 6122,
      "ĠvÄĽÄįnÃ½ch": 6123,
      "ĠprÃ¡zdnÃ©": 6124,
      "Ġstrun": 6125,
      "vanÃ¡": 6126,
      "dÃŃvÃ¡": 6127,
      "stane": 6128,
      "ĠpÅĻÃŃsta": 6129,
      "Ġryt": 6130,
      "Ġvesel": 6131,
      "Ġpluh": 6132,
      "ĠpodzimnÃŃ": 6133,
      "ĠÄįervÃ¡nkÅ¯": 6134,
      "Å¡lenÃŃ": 6135,
      "ĠslastÃŃ": 6136,
      "ĠvlastnÃŃm": 6137,
      "ĠkamenÃŃ": 6138,
      "ĠrÅ¯znÃ©": 6139,
      "Ġkvil": 6140,
      "ĠoÄį": 6141,
      "Ġdojem": 6142,
      "ĠlodÃŃ": 6143,
      "pÃŃÅ¡": 6144,
      "ĠoltÃ¡ÅĻi": 6145,
      "ĠmÅ¾ikem": 6146,
      "Ġovoce": 6147,
      "bled": 6148,
      "zka": 6149,
      "Ġjil": 6150,
      "letÄĽl": 6151,
      "Ġsval": 6152,
      "ĠÅ¡et": 6153,
      "ĠÅ¡erem": 6154,
      "ĠchtÄĽjÃŃ": 6155,
      "Ġshlu": 6156,
      "ĠvÃ¡lky": 6157,
      "Å¾nÃ½ch": 6158,
      "Ġoct": 6159,
      "nÄĽly": 6160,
      "Ġprok": 6161,
      "Ġskro": 6162,
      "ĠpravÃŃm": 6163,
      "Ġlidmi": 6164,
      "Ġobrazy": 6165,
      "ĠzelenÃ½": 6166,
      "Ġklesl": 6167,
      "ĠhÅĻÃŃchÅ¯": 6168,
      "ĠrÅ¯znÃ½ch": 6169,
      "Ġpohan": 6170,
      "Ġrce": 6171,
      "Ġmlze": 6172,
      "tÃ½m": 6173,
      "Ġsestra": 6174,
      "Ġat": 6175,
      "ĠbavÃŃ": 6176,
      "ĠtÅĻesk": 6177,
      "ĠÅ¡epce": 6178,
      "Ġbalvan": 6179,
      "ĠvavÅĻÃŃ": 6180,
      "zdu": 6181,
      "Ġah": 6182,
      "ĠruÄįky": 6183,
      "ĠburÃ¡": 6184,
      "titi": 6185,
      "Å¡tÄĽnÃŃ": 6186,
      "ĠsnÄĽm": 6187,
      "ĠsklÃ¡dÃ¡": 6188,
      "Ġvza": 6189,
      "Äįeli": 6190,
      "ĠobjÃŃmÃ¡": 6191,
      "ĠmlÄįenÃŃ": 6192,
      "Ġpaprs": 6193,
      "ĠneznÃ¡mÃ½": 6194,
      "Ġtvar": 6195,
      "ĠideÃ¡": 6196,
      "vrt": 6197,
      "Ġbezna": 6198,
      "slov": 6199,
      "ĠÅĻen": 6200,
      "ĠboÅĻÃŃ": 6201,
      "ĠÅ¡irÃ½": 6202,
      "ĠjejichÅ¾": 6203,
      "ĠprobÃŃ": 6204,
      "Ġvypl": 6205,
      "hlas": 6206,
      "ĠperutÄĽ": 6207,
      "Ġprostor": 6208,
      "Ġchceme": 6209,
      "jou": 6210,
      "rali": 6211,
      "Ġpoklady": 6212,
      "Ġodlesk": 6213,
      "ĠzdobÃŃ": 6214,
      "ĠbÃ©ÅĻe": 6215,
      "ĠpenÄĽz": 6216,
      "ĠvylÃŃ": 6217,
      "ĠbodÃ¡": 6218,
      "Ġpraha": 6219,
      "ĠpÅĻÃŃklad": 6220,
      "ĠpÃ¡nÅ¯": 6221,
      "razÃŃ": 6222,
      "Ġzanech": 6223,
      "ĠuvÃŃ": 6224,
      "ĠteÄįe": 6225,
      "Ġcig": 6226,
      "ĠstÃ¡do": 6227,
      "ĠnevidÄĽl": 6228,
      "Ġmoudrosti": 6229,
      "ĠpoÅ¾Ã¡r": 6230,
      "Ġratole": 6231,
      "Ġkorou": 6232,
      "ĠnohÃ¡m": 6233,
      "stala": 6234,
      "Ġumdle": 6235,
      "Ġrenal": 6236,
      "Ġnohu": 6237,
      "ĠmÃŃhÃ¡": 6238,
      "ĠkaÅ¾dÃ©mu": 6239,
      "ĠpÅ¯lnoc": 6240,
      "ĠpoprvÃ©": 6241,
      "nÃ©sti": 6242,
      "Ġoddech": 6243,
      "ĠbÄĽhu": 6244,
      "Å¾ily": 6245,
      "Ġout": 6246,
      "Å¡til": 6247,
      "Ġneje": 6248,
      "mÄĽly": 6249,
      "Ġhromo": 6250,
      "ĠsvatÃ©m": 6251,
      "ĠzahÅĻ": 6252,
      "Ġvno": 6253,
      "ĠchÅĻe": 6254,
      "Ġryk": 6255,
      "ĠhlasÅ¯": 6256,
      "stÃ¡ch": 6257,
      "Ġnepoko": 6258,
      "ĠvrÃ¡sky": 6259,
      "ĠnÅ¯Å¾": 6260,
      "dÅĻÃŃ": 6261,
      "Ġben": 6262,
      "ĠseÄį": 6263,
      "Ġpocit": 6264,
      "Ġlevo": 6265,
      "ĠpÃŃti": 6266,
      "Ġposly": 6267,
      "Ġnechte": 6268,
      "ĠvlÃ¡dy": 6269,
      "ĠtajemnÃ©": 6270,
      "ĠnÄĽÅ¾nÃ©": 6271,
      "Ġsatan": 6272,
      "Ġprova": 6273,
      "ĠnÄĽmÃ¡": 6274,
      "ĠlÃŃstek": 6275,
      "ĠpÅĻesvÄĽd": 6276,
      "ĠpoÄįne": 6277,
      "Ġvzdoru": 6278,
      "Ġvnady": 6279,
      "Ġvlek": 6280,
      "Äįuje": 6281,
      "Ġlov": 6282,
      "ĠpouhÃ©": 6283,
      "ĠslabÃ½": 6284,
      "Ġhrdla": 6285,
      "Ġplynou": 6286,
      "ptÃ¡": 6287,
      "ĠzaÄįÃŃ": 6288,
      "ĠhoÅĻi": 6289,
      "ĠkoutÄĽ": 6290,
      "ĠretÅ¯": 6291,
      "dlech": 6292,
      "ĠnevÃ¡": 6293,
      "Ġvysta": 6294,
      "ĠvojÃŃ": 6295,
      "ĠÅ¡ÃŃch": 6296,
      "ĠspoÄįÃŃ": 6297,
      "ĠzjevÃŃ": 6298,
      "Ġprince": 6299,
      "bral": 6300,
      "Ġkej": 6301,
      "Ġchech": 6302,
      "ĠuhlÃŃ": 6303,
      "ĠÅĻece": 6304,
      "ĠÅ¡ÃŃj": 6305,
      "Ġnejde": 6306,
      "ÅĻeny": 6307,
      "ĠchvÄĽj": 6308,
      "ĠchvÄĽlo": 6309,
      "Ġstup": 6310,
      "ĠdivokÃ©": 6311,
      "ĠdnovÃ©": 6312,
      "taj": 6313,
      "Ġnejen": 6314,
      "Ġohlas": 6315,
      "ĠchceÅ¡li": 6316,
      "ĠmajestÃ¡": 6317,
      "ABC": 6318,
      "Ġdovo": 6319,
      "ĠvÃŃÄįka": 6320,
      "ÅĪu": 6321,
      "ĠÄįinu": 6322,
      "ĠmateÅĻ": 6323,
      "ĠABCABC": 6324,
      "ÄįekÃ¡": 6325,
      "ĠhledÃ¡m": 6326,
      "ĠskalÃ¡ch": 6327,
      "ĠhÅĻbitov": 6328,
      "ĠpÅĻelud": 6329,
      "nÄįÃŃ": 6330,
      "Å¾at": 6331,
      "Ã½t": 6332,
      "mon": 6333,
      "Ġbah": 6334,
      "ĠchtÄĽlo": 6335,
      "vracÃŃ": 6336,
      "ĠvesmÃŃr": 6337,
      "Ġstranu": 6338,
      "ĠvteÅĻi": 6339,
      "ÄįkÃ½": 6340,
      "ĠlÃ¡me": 6341,
      "ĠhladÃŃ": 6342,
      "Å¾eli": 6343,
      "tÃ¡ÅĻ": 6344,
      "ĠvrahÅ¯": 6345,
      "ĠdrÃ¡hy": 6346,
      "ĠdÅ¾": 6347,
      "XXB": 6348,
      "Ġdopo": 6349,
      "Ġvyho": 6350,
      "ĠÄįechy": 6351,
      "ĠprvÃ©": 6352,
      "ĠposvÃ¡": 6353,
      "Ġslavnost": 6354,
      "Ġmraku": 6355,
      "ĠdÄĽtin": 6356,
      "sni": 6357,
      "Ġkly": 6358,
      "Å¾dÄĽ": 6359,
      "ĠmÅĻÃŃt": 6360,
      "ĠpÄĽsti": 6361,
      "ĠsvatÃ©ho": 6362,
      "ĠblaÅ¾ÃŃ": 6363,
      "ĠvzpomÃŃnek": 6364,
      "ĠmoudrÃ½": 6365,
      "ĠapoÅ¡to": 6366,
      "mbu": 6367,
      "zpÄĽ": 6368,
      "Ġhospody": 6369,
      "ĠÄįtvrt": 6370,
      "rny": 6371,
      "zne": 6372,
      "ĠsnÃ¡Å¡ÃŃ": 6373,
      "Å¡ce": 6374,
      "ĠjinÃ©ho": 6375,
      "Ġvyv": 6376,
      "Å¡ili": 6377,
      "ĠvÃ½kÅĻi": 6378,
      "ĠpohÃ¡dky": 6379,
      "ĠzlÃ½m": 6380,
      "mus": 6381,
      "Ġrozvi": 6382,
      "daje": 6383,
      "ĠzÃ¡dum": 6384,
      "ÄįinÄĽ": 6385,
      "Ġhluku": 6386,
      "ĠpÃ½cha": 6387,
      "ĠtmÃ¡m": 6388,
      "Ġpnou": 6389,
      "XXX": 6390,
      "ĠdÃ¡no": 6391,
      "ĠÅ¾iva": 6392,
      "Ġnejdra": 6393,
      "ĠnÄĽmÃ©": 6394,
      "Ġzjevil": 6395,
      "ĠnÃ¡mÄĽstÃŃ": 6396,
      "ĠnabÃŃ": 6397,
      "rÃ¡nÃŃ": 6398,
      "nÄĽnou": 6399,
      "ĠdÄĽlÃŃ": 6400,
      "mÃŃra": 6401,
      "ĠkouÅĻ": 6402,
      "Ġzticha": 6403,
      "Ġlampy": 6404,
      "Ġprokop": 6405,
      "ĠptÃ¡m": 6406,
      "ĠseÅ¡": 6407,
      "Ġleta": 6408,
      "Ġrozka": 6409,
      "ĠtÃŃsnÃŃ": 6410,
      "ĠnebeskÃ©": 6411,
      "Ġpuk": 6412,
      "ĠkÃ½v": 6413,
      "ĠkrutÃ©": 6414,
      "ĠtkvÃŃ": 6415,
      "tas": 6416,
      "Ġter": 6417,
      "Ġpamat": 6418,
      "Ġhubi": 6419,
      "ĠÅ¡eptal": 6420,
      "ĠAXABXB": 6421,
      "ĠshÃ½": 6422,
      "lon": 6423,
      "ĠsrdÃ©": 6424,
      "Ġsos": 6425,
      "Ġzmaten": 6426,
      "staly": 6427,
      "Ġpobo": 6428,
      "ÅĻÃŃch": 6429,
      "tec": 6430,
      "ĠrodnÃ½": 6431,
      "ĠÅ¡ÃŃÅĻ": 6432,
      "Ġrevolu": 6433,
      "ĠnevÄĽdÄĽl": 6434,
      "Ġparku": 6435,
      "Ġminulost": 6436,
      "Ġzaji": 6437,
      "Ġcele": 6438,
      "Ġprs": 6439,
      "ĠmÃŃsÃŃ": 6440,
      "ĠslÃ¡b": 6441,
      "ĠradosÅ¥": 6442,
      "ĠkrÃ¡tkÃ©": 6443,
      "ĠpevnÃ½": 6444,
      "cÃ¡": 6445,
      "Ġrval": 6446,
      "ĠnÃ¡ÅĻ": 6447,
      "ĠvÃ¡le": 6448,
      "bami": 6449,
      "ĠvÅ¡echna": 6450,
      "ĠskoÄįÃŃ": 6451,
      "ÅĻemen": 6452,
      "Ġmladost": 6453,
      "lie": 6454,
      "lÃ¡n": 6455,
      "Ġvzor": 6456,
      "ĠlÃŃtost": 6457,
      "ĠrekÅ¯": 6458,
      "ĠÄįlovÄĽkem": 6459,
      "Ġhel": 6460,
      "Ġperla": 6461,
      "ĠABACCB": 6462,
      "ĠzÃ¡dumÄįi": 6463,
      "vnÃ½": 6464,
      "Ġtka": 6465,
      "ÄįnÃŃch": 6466,
      "Ġroztom": 6467,
      "Ġskvr": 6468,
      "ĠÃºtro": 6469,
      "Ġposu": 6470,
      "Ġzbylo": 6471,
      "Ã¡nÃŃ": 6472,
      "Äįely": 6473,
      "Ġpravi": 6474,
      "Ġplakal": 6475,
      "ĠvÄĽÅĻte": 6476,
      "ĠpÃ½Å¡e": 6477,
      "Ġzkla": 6478,
      "ĠkacÃŃ": 6479,
      "ĠplnÃ½ch": 6480,
      "Ġmodro": 6481,
      "ĠstÅĻela": 6482,
      "ĠhvÄĽzdou": 6483,
      "Ġvesna": 6484,
      "ĠhleÄıte": 6485,
      "Ġvezmi": 6486,
      "Ġpovstal": 6487,
      "ĠposmÄĽch": 6488,
      "ĠmistÅĻe": 6489,
      "Ġokra": 6490,
      "ĠnovÃ©ho": 6491,
      "Ġzmatku": 6492,
      "gna": 6493,
      "ÅĻte": 6494,
      "Ġsocha": 6495,
      "ĠhledÄĽ": 6496,
      "ĠkÃ¡cÃŃ": 6497,
      "Äįena": 6498,
      "umf": 6499,
      "Ġdlel": 6500,
      "ĠkÅĻovÃŃ": 6501,
      "ĠposÃŃ": 6502,
      "Ġnasy": 6503,
      "ĠvÃ¡no": 6504,
      "ĠÅ¡ÃŃle": 6505,
      "ĠspÃ¡ti": 6506,
      "ĠhlÃ¡sÃŃ": 6507,
      "stupuje": 6508,
      "ĠvyÅ¡ehra": 6509,
      "Ġhrozi": 6510,
      "pce": 6511,
      "Ġvhod": 6512,
      "Å¾nÃŃ": 6513,
      "ÅĻely": 6514,
      "ĠkopÃŃ": 6515,
      "ĠniÅ¾": 6516,
      "ĠnemÅ¯Å¾": 6517,
      "Ġchalou": 6518,
      "roti": 6519,
      "Ġvyjde": 6520,
      "nutÃ©": 6521,
      "Ġvznik": 6522,
      "ĠskvoucÃŃ": 6523,
      "ĠÅ¾ÃŃzni": 6524,
      "Ġostro": 6525,
      "ĠdÄĽcka": 6526,
      "ĠÅ¾ebrÃ¡k": 6527,
      "Ġneli": 6528,
      "Ġpopla": 6529,
      "Ġdocela": 6530,
      "ĠÅĻÃŃdÃŃ": 6531,
      "ĠpÄĽti": 6532,
      "ĠdÃ½mu": 6533,
      "ĠkrvavÃ½": 6534,
      "ĠrovnÄĽÅ¾": 6535,
      "Ġnet": 6536,
      "Ġodv": 6537,
      "ĠdÄĽvu": 6538,
      "adil": 6539,
      "Ġryb": 6540,
      "ĠklidnÃ½": 6541,
      "ĠbÅĻehÅ¯": 6542,
      "Ġnedal": 6543,
      "ÅĻÃŃti": 6544,
      "ĠstÃ¡da": 6545,
      "Ġhroma": 6546,
      "ĠÄįernÃ½m": 6547,
      "Ġsouci": 6548,
      "Ġskokem": 6549,
      "ĠdÃŃvce": 6550,
      "ĠzboÅ¾nÄĽ": 6551,
      "Ġzrozen": 6552,
      "Ġmine": 6553,
      "ĠnovÃ©m": 6554,
      "ÄįeÅ¾": 6555,
      "ĠhradÄĽ": 6556,
      "zala": 6557,
      "ĠhouÅ¡ti": 6558,
      "ĠvrÃ¡z": 6559,
      "ĠteplÃ½": 6560,
      "novu": 6561,
      "ĠproklÃŃ": 6562,
      "jila": 6563,
      "ĠÃºtu": 6564,
      "ĠkleÄįÃŃ": 6565,
      "ĠhustÃ©": 6566,
      "ĠdruhÅ¯": 6567,
      "Ġjasno": 6568,
      "ĠjizbÄĽ": 6569,
      "ĠvznÄĽt": 6570,
      "bÃ½vÃ¡": 6571,
      "Ġprobou": 6572,
      "Ġslovu": 6573,
      "ĠsvÃŃtÃ¡": 6574,
      "ĠchvÄĽly": 6575,
      "ĠÃºsmÄĽvu": 6576,
      "Ġpokoji": 6577,
      "Ġmohli": 6578,
      "Ġhejno": 6579,
      "Ġzaml": 6580,
      "Ġmha": 6581,
      "ÅĪa": 6582,
      "mÃŃvÃ¡": 6583,
      "ĠÄįistou": 6584,
      "ĠzdvÃŃ": 6585,
      "ĠkrÃ¡lovna": 6586,
      "ĠstkvÄĽ": 6587,
      "Ġroztomil": 6588,
      "ĠjÅ¯": 6589,
      "ĠzavÄĽ": 6590,
      "Ġrozva": 6591,
      "Ġodpla": 6592,
      "Ġsrdcy": 6593,
      "Ġstole": 6594,
      "Ġtluk": 6595,
      "Ġhisto": 6596,
      "ĠcestÃ¡ch": 6597,
      "Ġperel": 6598,
      "ĠÄįinÅ¯": 6599,
      "pali": 6600,
      "bÃ¡n": 6601,
      "ĠvÃŃme": 6602,
      "tnÃ½ch": 6603,
      "jÃŃti": 6604,
      "Ġkopy": 6605,
      "ĠpÅĻehlu": 6606,
      "ĠpamÄĽt": 6607,
      "veÅĪ": 6608,
      "Ġhladem": 6609,
      "naly": 6610,
      "ĠslepÃ½": 6611,
      "ĠpoÄįÃ¡": 6612,
      "Ġhorami": 6613,
      "drÃ¡": 6614,
      "snÃ½ch": 6615,
      "Ġzjas": 6616,
      "Äįan": 6617,
      "loval": 6618,
      "teÄįnÃŃ": 6619,
      "Ġzloba": 6620,
      "hlÃ½m": 6621,
      "ĠtisÃŃci": 6622,
      "Ġkorouh": 6623,
      "Ġvdech": 6624,
      "Ġzahu": 6625,
      "stÃŃrÃ¡": 6626,
      "ĠhÃ¡v": 6627,
      "Ġhanu": 6628,
      "ĠvÅ¡emo": 6629,
      "ĠposlednÃŃm": 6630,
      "ĠzmÄĽnÃŃ": 6631,
      "ĠÄįekÃ¡m": 6632,
      "zli": 6633,
      "Ġri": 6634,
      "ĠpaÅ¾ÃŃ": 6635,
      "ĠstoletÃŃ": 6636,
      "ĠnedoÄįka": 6637,
      "Ġsoumraku": 6638,
      "Ġthe": 6639,
      "ĠjmÄĽnÃŃ": 6640,
      "ĠÅ¾ivÃŃ": 6641,
      "Ġspro": 6642,
      "ĠmÃ¡k": 6643,
      "Ġvoje": 6644,
      "ĠlÃŃpy": 6645,
      "Ġoblaka": 6646,
      "ĠvÃ¡Å¾nÃ½": 6647,
      "rÅ¯m": 6648,
      "lom": 6649,
      "ĠvlaÅ¡to": 6650,
      "Å¾enÃ½ch": 6651,
      "ĠmarnÃ¡": 6652,
      "Ġdrahoka": 6653,
      "pÃŃm": 6654,
      "pÄĽla": 6655,
      "ĠnÃ¡rodÅ¯": 6656,
      "ĠstÅĻÃŃbrnÃ©": 6657,
      "ĠjmÃ©nem": 6658,
      "Ġjsy": 6659,
      "don": 6660,
      "ĠplÃ¡lo": 6661,
      "ĠmrtvÃŃ": 6662,
      "ĠtuÅ¾eb": 6663,
      "ĠÅ¡epo": 6664,
      "ĠpodlÃ©": 6665,
      "ĠprÃ¡zdnÃ½": 6666,
      "ĠotevÅĻel": 6667,
      "Ġtriumf": 6668,
      "ĠkaÅ¡": 6669,
      "ĠobrÃ¡til": 6670,
      "Ġnemu": 6671,
      "Ġstrast": 6672,
      "mÅ¯Å¾e": 6673,
      "ĠvÃ¡cla": 6674,
      "ĠpÅĻipo": 6675,
      "ĠvÃ½Äįi": 6676,
      "Ġoprav": 6677,
      "Ġzakry": 6678,
      "ÄįkovÃ©": 6679,
      "Ġkonci": 6680,
      "ĠblÃ½ska": 6681,
      "vku": 6682,
      "ĠsnÅ¯m": 6683,
      "ĠzlÃ©ho": 6684,
      "ĠpomnÄĽ": 6685,
      "Å¾ilo": 6686,
      "Ġsymbo": 6687,
      "ĠklasÅ¯": 6688,
      "ĠbÃ¡snÄĽ": 6689,
      "ĠpovÄĽst": 6690,
      "ĠknÄĽÅ¾na": 6691,
      "ĠsnÃ¡Å¡e": 6692,
      "Ġkmo": 6693,
      "stvu": 6694,
      "Ġnevo": 6695,
      "ĠpoÅ¡e": 6696,
      "ĠvydÃ¡": 6697,
      "ari": 6698,
      "ĠlehkÃ½": 6699,
      "ĠdÄĽsnÃ©": 6700,
      "Ġteplo": 6701,
      "ĠchtÃŃt": 6702,
      "ĠcÃŃrkev": 6703,
      "ÄįkÃ©": 6704,
      "Ġroku": 6705,
      "ĠrubÃŃ": 6706,
      "Ġzdech": 6707,
      "ĠstarÅ¡ÃŃ": 6708,
      "ceni": 6709,
      "ĠdvoÅĻe": 6710,
      "ĠsmÃ¡la": 6711,
      "ĠzÃ¡po": 6712,
      "Ġodsou": 6713,
      "Ġkyp": 6714,
      "ĠpÄĽjÃŃ": 6715,
      "ĠmnoÅ¾stvÃŃ": 6716,
      "Ġtrosky": 6717,
      "ĠstÅĻÃŃbrem": 6718,
      "ĠpÅ¯lnoci": 6719,
      "Ġjdeme": 6720,
      "ĠmÄĽly": 6721,
      "ĠplachÃ½": 6722,
      "ĠblahÃ½": 6723,
      "piti": 6724,
      "ĠvÃ½chod": 6725,
      "Ġhezky": 6726,
      "ĠpamÄĽÅ¥": 6727,
      "ditel": 6728,
      "ĠhoupÃ¡": 6729,
      "benÃ©": 6730,
      "ĠbohynÄĽ": 6731,
      "Ġmuzi": 6732,
      "ĠmrtvÃ¡": 6733,
      "nickÃ©": 6734,
      "ĠubohÃ½": 6735,
      "ĠspanÃŃ": 6736,
      "ĠplÃŃÅ¾ÃŃ": 6737,
      "ÅĻÃŃvÃ¡": 6738,
      "ĠvyklÃ¡": 6739,
      "Ġrozhod": 6740,
      "ĠzÃ¡slu": 6741,
      "ĠmÃ¡li": 6742,
      "ĠpÅĻedtu": 6743,
      "dÃŃme": 6744,
      "Ġkoruny": 6745,
      "ĠpevnÃ©": 6746,
      "ĠvzÃ¡cnÃ©": 6747,
      "Å¾iv": 6748,
      "ĠdÄĽtskÃ©": 6749,
      "ĠnenadÃ¡nÃŃ": 6750,
      "Ġfial": 6751,
      "ĠÅ¡av": 6752,
      "ĠpaprskÅ¯": 6753,
      "Ġkohou": 6754,
      "Ġstrasti": 6755,
      "Ġbere": 6756,
      "ĠsladkÃ©m": 6757,
      "ĠnÃ¡rody": 6758,
      "ĠpÅĻemÃŃ": 6759,
      "ĠsdÃŃ": 6760,
      "ĠdlÃ©": 6761,
      "nov": 6762,
      "ĠpÃ¡nbÅ¯h": 6763,
      "ĠzelenÃ¡": 6764,
      "ĠzboÅ¾ÃŃ": 6765,
      "ĠoltÃ¡ÅĻe": 6766,
      "Ġbiskup": 6767,
      "ĠjeseÅĪ": 6768,
      "rami": 6769,
      "tisk": 6770,
      "ĠnÃ¡vra": 6771,
      "ĠlÃŃch": 6772,
      "Ġmet": 6773,
      "ĠbÅĻÃŃmÄĽ": 6774,
      "ca": 6775,
      "chla": 6776,
      "ĠnaÅ¡ÃŃm": 6777,
      "lym": 6778,
      "Ġmuky": 6779,
      "ĠmnozÃŃ": 6780,
      "lÅ¯v": 6781,
      "ĠjakÃ©s": 6782,
      "ĠnekoneÄį": 6783,
      "ĠzvlÃ¡Å¡tÄĽ": 6784,
      "Ġhmy": 6785,
      "ĠnaÅ¡li": 6786,
      "vÃ¡nÃŃm": 6787,
      "jeli": 6788,
      "ĠtemnÃ¡": 6789,
      "ĠmalÃ½ch": 6790,
      "Ġzvuku": 6791,
      "ĠnÄĽkte": 6792,
      "Ġvzejde": 6793,
      "zar": 6794,
      "Ġada": 6795,
      "Ġposte": 6796,
      "ÅĻelo": 6797,
      "Ġuhas": 6798,
      "nova": 6799,
      "Ġrozpo": 6800,
      "Ġzasy": 6801,
      "Ġslabo": 6802,
      "ĠdravÃ½": 6803,
      "ĠsnivÃ¡": 6804,
      "Ġsedla": 6805,
      "skÃ½mi": 6806,
      "tovÃ¡nÃŃ": 6807,
      "ĠtÅ¯nÄĽ": 6808,
      "ĠzÃ¡mek": 6809,
      "ĠtÃ¡m": 6810,
      "Ġolym": 6811,
      "Ġnachem": 6812,
      "Ġmozo": 6813,
      "ĠtÄĽkÃ¡": 6814,
      "bech": 6815,
      "Ġstate": 6816,
      "ĠnedbÃ¡": 6817,
      "Ġhodina": 6818,
      "ĠtakovÃ½": 6819,
      "haly": 6820,
      "ĠÄįte": 6821,
      "ĠzaÅ¡el": 6822,
      "ĠvysÃŃ": 6823,
      "vyk": 6824,
      "ĠmÃŃst": 6825,
      "Ġstala": 6826,
      "sala": 6827,
      "ĠmÃ©nÄĽ": 6828,
      "ĠsmÃŃm": 6829,
      "pÃ¡n": 6830,
      "ĠchytÃ¡": 6831,
      "Ġtragi": 6832,
      "ĠtrÃ¡vu": 6833,
      "ĠÄįÃ¡st": 6834,
      "fÃŃ": 6835,
      "fÃ¡": 6836,
      "os": 6837,
      "Å¡kem": 6838,
      "Ã½val": 6839,
      "ĠonÄĽ": 6840,
      "ĠprochÃ¡": 6841,
      "sajÃŃ": 6842,
      "Ġer": 6843,
      "ĠbijÃŃ": 6844,
      "Ġmraz": 6845,
      "ĠhÅĻÃŃmÃ¡": 6846,
      "ĠveselÃ½": 6847,
      "ĠzÅĻeli": 6848,
      "ĠjdÄĽte": 6849,
      "Ġroje": 6850,
      "ĠneznÃ¡mÃ©": 6851,
      "ĠvstaÅĪ": 6852,
      "Ġzpola": 6853,
      "ĠkÅĻ": 6854,
      "dechu": 6855,
      "Ġvym": 6856,
      "Ġnebla": 6857,
      "ĠsynÅ¯": 6858,
      "nickÃ½": 6859,
      "Ġhudbu": 6860,
      "Ġdivoce": 6861,
      "ĠdivokÃ½": 6862,
      "ĠvzÃ¡cnÃ½": 6863,
      "ĠokamÅ¾iku": 6864,
      "vÅ¡ad": 6865,
      "ĠÅĪÃ¡dra": 6866,
      "ĠnevÃ½slov": 6867,
      "Ġshle": 6868,
      "mila": 6869,
      "ĠmarnÃ½": 6870,
      "ĠÅ¡uma": 6871,
      "ĠhorÅ¡ÃŃ": 6872,
      "Ġtmavou": 6873,
      "ĠznÃ¡ti": 6874,
      "Ġshr": 6875,
      "Ġvzplane": 6876,
      "ĠuÅ¡lech": 6877,
      "ĠhospodÃ¡ÅĻ": 6878,
      "ĠneÅĻe": 6879,
      "ĠÅ¡kol": 6880,
      "Ġvzpou": 6881,
      "ĠdÃ¡val": 6882,
      "ĠrozvÃ¡": 6883,
      "ĠzdÃ¡la": 6884,
      "ĠsvÃ¡tek": 6885,
      "Ġlehko": 6886,
      "ĠodeÅ¡el": 6887,
      "ĠnÄĽjÅ¾": 6888,
      "Ġjizby": 6889,
      "ĠspoleÄįnosti": 6890,
      "Ġmiliony": 6891,
      "Å¡Ã¡": 6892,
      "kuje": 6893,
      "Ġkane": 6894,
      "Ġrozez": 6895,
      "Ġzaslech": 6896,
      "ĠsÃŃÅ¥": 6897,
      "Ġjasem": 6898,
      "Ġspoj": 6899,
      "Ġkroku": 6900,
      "ĠzdÃ¡nÃŃ": 6901,
      "Ġmrazem": 6902,
      "ĠstÅĻed": 6903,
      "ĠstÅĻechy": 6904,
      "kÃ½mi": 6905,
      "ĠpohÃ¡dka": 6906,
      "ĠboÅ¾stvÃŃ": 6907,
      "ĠÅ¡koly": 6908,
      "Ġlip": 6909,
      "ĠÄįeskou": 6910,
      "ĠÃºkry": 6911,
      "ĠplaÅ¡ÃŃ": 6912,
      "Ġtemna": 6913,
      "Ġel": 6914,
      "ĠstrÃ¡ÅĪ": 6915,
      "ĠobÄĽti": 6916,
      "ĠsvobodÄĽ": 6917,
      "Ġopustil": 6918,
      "ĠbdÄĽ": 6919,
      "Ġjek": 6920,
      "ĠdusÃŃ": 6921,
      "ĠrudÃ¡": 6922,
      "ĠpÅĻÃŃtele": 6923,
      "Å¡enÃ¡": 6924,
      "Ġtrap": 6925,
      "ĠpalÃ¡c": 6926,
      "ĠcÃŃrkve": 6927,
      "Ġroh": 6928,
      "Ġvzcho": 6929,
      "ĠrumÄĽ": 6930,
      "ĠXAXAXA": 6931,
      "ĠrybnÃŃ": 6932,
      "ĠjasnÃ½m": 6933,
      "Ġtrysk": 6934,
      "bnou": 6935,
      "nan": 6936,
      "Ġlehou": 6937,
      "Ġpronik": 6938,
      "ĠmÄĽÅ¡Å¥": 6939,
      "Ġnouze": 6940,
      "Ġplam": 6941,
      "kladu": 6942,
      "ĠmuÅ¾em": 6943,
      "ĠradostnÄĽ": 6944,
      "ĠdrÃ¡hu": 6945,
      "ĠveÅ¡k": 6946,
      "ĠvodopÃ¡": 6947,
      "ĠzasmuÅ¡il": 6948,
      "Ġzne": 6949,
      "ĠuchvÃ¡": 6950,
      "Å¥te": 6951,
      "ĠlÃŃnÄĽ": 6952,
      "ĠviÄı": 6953,
      "bala": 6954,
      "ĠnevÄĽÅĻÃŃ": 6955,
      "ĠskalnÃŃ": 6956,
      "ĠtvrdÃ½": 6957,
      "ĠnÄĽn": 6958,
      "duje": 6959,
      "ĠÅ¾iÅ¾ka": 6960,
      "Ġstarci": 6961,
      "ĠkrutÄĽ": 6962,
      "Ġkniha": 6963,
      "ĠmÄĽkce": 6964,
      "Ġjezera": 6965,
      "Ġsata": 6966,
      "Ġrus": 6967,
      "ĠÃºtra": 6968,
      "ĠdÄĽvÄįÃ¡": 6969,
      "ĠbohÅ¯m": 6970,
      "tiny": 6971,
      "Ġobec": 6972,
      "ĠsvÃŃce": 6973,
      "ĠtesknÃ©": 6974,
      "Ġzbude": 6975,
      "rÃ½mi": 6976,
      "Ġcvr": 6977,
      "ĠzapÃ¡": 6978,
      "Ġdoli": 6979,
      "Å¡tÄĽm": 6980,
      "ĠkÅĻÃŃÅ¾i": 6981,
      "ĠmocnÃ¡": 6982,
      "ĠslavnÃ½ch": 6983,
      "Ġpevnou": 6984,
      "bÅĻe": 6985,
      "ĠmÅĻel": 6986,
      "Ġprosil": 6987,
      "ĠnÃ¡po": 6988,
      "ĠroznÃŃ": 6989,
      "ĠvlastnÃŃch": 6990,
      "Ġodpor": 6991,
      "ĠctÄĽ": 6992,
      "lumen": 6993,
      "ĠhoÅĻem": 6994,
      "ĠpÅĻiz": 6995,
      "Ġpek": 6996,
      "Ġklek": 6997,
      "ĠtmavÃ¡": 6998,
      "ĠsvÃ¡r": 6999,
      "Ġvezme": 7000,
      "ĠandÄĽlÃ©": 7001,
      "ĠpÅĻen": 7002,
      "ĠstatnÃ½": 7003,
      "ĠovÄĽ": 7004,
      "ĠÅ¡ve": 7005,
      "ĠbÃŃdÄĽ": 7006,
      "ĠjaÅĻe": 7007,
      "ĠplesÃ¡": 7008,
      "ĠspÄĽÅ¡": 7009,
      "Ġzil": 7010,
      "ĠzanÃŃ": 7011,
      "Ġche": 7012,
      "ĠbÃŃdnÃ©": 7013,
      "Ġshro": 7014,
      "Ġlampa": 7015,
      "dati": 7016,
      "lÃŃp": 7017,
      "Ġdruhy": 7018,
      "ĠstraÅ¡nÃ½": 7019,
      "ĠchrÃ¡mÄĽ": 7020,
      "ckÃ©ho": 7021,
      "ĠzrÃ¡d": 7022,
      "ĠusmÃ¡l": 7023,
      "ĠtovÃ¡": 7024,
      "kolem": 7025,
      "Ġtuch": 7026,
      "Ġsadu": 7027,
      "Ġsul": 7028,
      "Ġnepokoj": 7029,
      "zenÃ½": 7030,
      "Ġcenu": 7031,
      "ĠpohleÄı": 7032,
      "chi": 7033,
      "Ġstil": 7034,
      "ĠvzlÃ©t": 7035,
      "ĠÅ¾ijÃŃ": 7036,
      "kÃ¡zal": 7037,
      "ĠzÃŃral": 7038,
      "ĠÅ¡ik": 7039,
      "Ġklidem": 7040,
      "cena": 7041,
      "ĠmÄĽkkÃ½": 7042,
      "Ġobloha": 7043,
      "Ġvstoupil": 7044,
      "ĠrÃ©m": 7045,
      "Ġlide": 7046,
      "Ġobdi": 7047,
      "Ġdek": 7048,
      "ĠsmÃ½": 7049,
      "Ġfu": 7050,
      "ÅĻenÃ½m": 7051,
      "ĠnevdÄĽ": 7052,
      "ĠpropastÃŃ": 7053,
      "ĠmraÄįno": 7054,
      "ĠpÅĻÃ¡telstvÃŃ": 7055,
      "ĠvleÄįe": 7056,
      "stroj": 7057,
      "dale": 7058,
      "Ġgro": 7059,
      "Ġzoufalo": 7060,
      "Ġoblohou": 7061,
      "pÃ©": 7062,
      "Ġoli": 7063,
      "Äįeho": 7064,
      "ĠoblÃ©": 7065,
      "ĠzÃ¡ro": 7066,
      "mÄĽlo": 7067,
      "Ġpranic": 7068,
      "ĠÃºstech": 7069,
      "ĠtÃ½Å¾": 7070,
      "ĠÅĻekli": 7071,
      "ĠostÅĻÃŃ": 7072,
      "ĠsnivÃ½": 7073,
      "ĠmdlÃ¡": 7074,
      "ĠpsanÃŃ": 7075,
      "ĠpsÃ¡t": 7076,
      "ĠklÃ¡Å¡ter": 7077,
      "Ġanebo": 7078,
      "Ġokouz": 7079,
      "Ġbur": 7080,
      "ĠbÃ¡znÃŃ": 7081,
      "Ġpustil": 7082,
      "ĠmnoÅ¾ÃŃ": 7083,
      "Å¡eni": 7084,
      "ĠzhlÃŃ": 7085,
      "ĠABACBC": 7086,
      "Ġzastavil": 7087,
      "ĠtÃ³ny": 7088,
      "ĠAAXBXB": 7089,
      "Ġcou": 7090,
      "ĠlÅ¾ÃŃ": 7091,
      "ĠhodÃŃ": 7092,
      "ĠpÅĻip": 7093,
      "ĠpravÃ¡": 7094,
      "ĠÅ¡eÅĻÃŃ": 7095,
      "Ġsluha": 7096,
      "Ġklene": 7097,
      "ĠveselÃŃ": 7098,
      "zla": 7099,
      "ĠdotÃ½": 7100,
      "cii": 7101,
      "Ġobry": 7102,
      "Ġrat": 7103,
      "ĠmocnÃ½m": 7104,
      "Ġpit": 7105,
      "ĠjemnÃ©": 7106,
      "ĠpestrÃ½": 7107,
      "Ġroman": 7108,
      "Ġhonem": 7109,
      "Ġrvou": 7110,
      "Ġkovo": 7111,
      "ĠmÄĽÅĻÃŃ": 7112,
      "ĠpeÅĻÃŃ": 7113,
      "ĠvÄĽÄįnÃ½m": 7114,
      "ĠdlaÅ¾": 7115,
      "ĠzuÅĻi": 7116,
      "Ġvstala": 7117,
      "liÄįky": 7118,
      "Ġuho": 7119,
      "ĠvybÃŃ": 7120,
      "Ġvyrost": 7121,
      "ĠtrÄįÃŃ": 7122,
      "cenou": 7123,
      "ĠvlÃ¡dce": 7124,
      "Ġvous": 7125,
      "Ġpluk": 7126,
      "Ġkapky": 7127,
      "ĠlkÃ¡nÃŃ": 7128,
      "Ġhodil": 7129,
      "ĠtuÅ¥": 7130,
      "Ġmuce": 7131,
      "ĠdÃŃtko": 7132,
      "Ġvlaje": 7133,
      "gan": 7134,
      "ĠdlÃ½": 7135,
      "Ġutk": 7136,
      "Ġmukou": 7137,
      "ĠnejdÅĻÃŃ": 7138,
      "ĠmodrÃ¡": 7139,
      "ĠtÃ¡bor": 7140,
      "Ġklobouk": 7141,
      "ĠbÅĻit": 7142,
      "ĠjakÃ½m": 7143,
      "Ġhody": 7144,
      "ĠvÄĽÅ¾i": 7145,
      "Ġvzo": 7146,
      "ĠmaliÄį": 7147,
      "ĠlÃ©k": 7148,
      "ĠvÄĽrnÃ¡": 7149,
      "ĠbujnÃ½": 7150,
      "ĠzalÃŃ": 7151,
      "Ġzapomenu": 7152,
      "ĠslÃ©t": 7153,
      "Ġpli": 7154,
      "ĠvyÅ¡li": 7155,
      "ĠruÄįe": 7156,
      "ĠkouÅĻÃŃ": 7157,
      "ĠÅ¡irÃ©m": 7158,
      "ĠÃºsvi": 7159,
      "Ġroucha": 7160,
      "bnÃ¡": 7161,
      "Ġ!": 7162,
      "ĠlekÃ¡": 7163,
      "doval": 7164,
      "Ġsnahy": 7165,
      "ĠozÃ½vÃ¡": 7166,
      "ÃŃch": 7167,
      "ĠÅ¡al": 7168,
      "Ġduma": 7169,
      "Ġcizo": 7170,
      "Ġzpi": 7171,
      "ĠpohlÃŃ": 7172,
      "Ġmilos": 7173,
      "ĠdÃŃvÃ¡m": 7174,
      "Ġvyslo": 7175,
      "Ġprovo": 7176,
      "Ġskrov": 7177,
      "ĠstarÃ½m": 7178,
      "ĠmÄĽkkÃ©": 7179,
      "ĠtvÅ¯rÄįÃŃ": 7180,
      "ĠnejlepÅ¡ÃŃ": 7181,
      "Ġznik": 7182,
      "Ġam": 7183,
      "nÄĽt": 7184,
      "ĠchvÄĽt": 7185,
      "ĠABABXB": 7186,
      "ĠÅ¾ÃŃzeÅĪ": 7187,
      "Ġnemys": 7188,
      "ĠdobrÃ½ch": 7189,
      "ĠtmavÃ½ch": 7190,
      "ĠlÅ¯Å¾ko": 7191,
      "Ġvesny": 7192,
      "Ġtajemnou": 7193,
      "ĠzaÅ¡lÃ½ch": 7194,
      "Ġrozumu": 7195,
      "nÃŃkem": 7196,
      "nÄĽna": 7197,
      "Ġdop": 7198,
      "ĠuvÃ¡": 7199,
      "Ġtane": 7200,
      "ĠkabÃ¡": 7201,
      "ĠprÃ¡vem": 7202,
      "ĠhlasnÄĽ": 7203,
      "jemi": 7204,
      "Ġopou": 7205,
      "cÅ¯v": 7206,
      "ĠhvÄĽzdnÃ©": 7207,
      "ĠpamÃ¡tku": 7208,
      "cestÃŃ": 7209,
      "Ġuc": 7210,
      "ĠmuÄįÃŃ": 7211,
      "Ġpravila": 7212,
      "Ġmrazi": 7213,
      "ĠvolÃ¡m": 7214,
      "ĠobÄĽtÃŃ": 7215,
      "ĠstÅĻÃŃbrnÃ½": 7216,
      "Ġkostela": 7217,
      "Ġlilie": 7218,
      "Ġrcete": 7219,
      "ĠsbÄĽ": 7220,
      "Ġvozy": 7221,
      "ĠÅ¡erÃ½": 7222,
      "ĠdrahÃ½ch": 7223,
      "ĠsuchÃ©": 7224,
      "ĠpÅ¯dÄĽ": 7225,
      "Ġjun": 7226,
      "Ġvstane": 7227,
      "koliv": 7228,
      "ĠpalÃ¡ce": 7229,
      "ĠsvatebnÃŃ": 7230,
      "Ġana": 7231,
      "Ġhocha": 7232,
      "ĠruÅ¡ÃŃ": 7233,
      "Ġflo": 7234,
      "ĠpokolenÃŃ": 7235,
      "ĠumÅĻel": 7236,
      "Ġsever": 7237,
      "ĠvzÃŃti": 7238,
      "ĠÅĻetÄĽz": 7239,
      "ĠABCC": 7240,
      "ĠjasnÃ½ch": 7241,
      "ĠzÅĻÃŃdka": 7242,
      "Ġdarem": 7243,
      "Ġsloupy": 7244,
      "ĠskrÃ½Å¡": 7245,
      "hlÃŃÅ¾ÃŃ": 7246,
      "Ġchalu": 7247,
      "ĠmroucÃŃ": 7248,
      "ÅĻka": 7249,
      "Ġhol": 7250,
      "ĠXAA": 7251,
      "stin": 7252,
      "talo": 7253,
      "ĠzemÅĻel": 7254,
      "ĠjeÅ¾to": 7255,
      "Ġref": 7256,
      "ĠstraÅ¡nÃ©": 7257,
      "Ġmiluj": 7258,
      "Ġvlno": 7259,
      "ĠÅ¡Å¥astnÃ©": 7260,
      "Ġdobrodru": 7261,
      "ĠkvÄĽtiny": 7262,
      "ĠzkuÅ¡en": 7263,
      "gen": 7264,
      "Ġpropad": 7265,
      "ĠpÅĻÃŃko": 7266,
      "ĠpÅĻedce": 7267,
      "Ġheslo": 7268,
      "ĠsnÃ¡": 7269,
      "Ġtoli": 7270,
      "Å¥at": 7271,
      "ĠtiÅ¡": 7272,
      "Ġvzma": 7273,
      "Ġhladu": 7274,
      "ĠjenÅ¾to": 7275,
      "chali": 7276,
      "ĠhorkÃ©": 7277,
      "Ġchladnou": 7278,
      "Ġdvoj": 7279,
      "ĠjiskÅĻÃŃ": 7280,
      "ĠzachrÃ¡": 7281,
      "Ġzdroje": 7282,
      "ĠnÅ¯m": 7283,
      "ĠopÃŃ": 7284,
      "Ġuvad": 7285,
      "ĠvÄĽno": 7286,
      "Ġnebudu": 7287,
      "Ġkladi": 7288,
      "ĠbrÃ¡na": 7289,
      "ĠbystÅĻi": 7290,
      "ĠmlÃ¡deÅ¾": 7291,
      "Ġnehle": 7292,
      "Ġvysla": 7293,
      "Ġrozbi": 7294,
      "Ġpavou": 7295,
      "ĠkrÃ¡lo": 7296,
      "ĠtÃŃseÅĪ": 7297,
      "ĠdlouhÃ½m": 7298,
      "ĠmrÃ¡ko": 7299,
      "ĠsÃŃmÄĽ": 7300,
      "Ġem": 7301,
      "Ġpose": 7302,
      "ĠÅ¾aly": 7303,
      "lÃ¡ch": 7304,
      "Ġkapi": 7305,
      "ĠvÃŃnek": 7306,
      "vedu": 7307,
      "Ġjala": 7308,
      "ĠchuÄı": 7309,
      "Å¾eno": 7310,
      "vena": 7311,
      "Å¡ena": 7312,
      "Ġpolibek": 7313,
      "tna": 7314,
      "Ġsej": 7315,
      "ruje": 7316,
      "ĠbÄĽlÃ¡": 7317,
      "ĠbÃ¡znÄĽ": 7318,
      "Ġpivo": 7319,
      "ĠbolesÅ¥": 7320,
      "ĠslavnÃ¡": 7321,
      "vrh": 7322,
      "Ġvichrem": 7323,
      "Ġceny": 7324,
      "ĠÅ¾ehnÃ¡": 7325,
      "Ġkletba": 7326,
      "ĠzÃ¡stupy": 7327,
      "Ġrez": 7328,
      "ĠmetÃ¡": 7329,
      "ĠsloÅ¾il": 7330,
      "ĠbÃ¡jÃŃ": 7331,
      "ĠchuÅ¥": 7332,
      "Ġbet": 7333,
      "Ġsup": 7334,
      "ĠsnÄĽho": 7335,
      "ĠspÄĽchu": 7336,
      "ĠsedlÃ¡k": 7337,
      "ĠznaÄįÃŃ": 7338,
      "ĠblÃ¡ho": 7339,
      "ĠpÅĻijÄı": 7340,
      "ĠzapomnÄĽnÃŃ": 7341,
      "Ġpohledu": 7342,
      "ĠzamyÅ¡le": 7343,
      "Ġcitem": 7344,
      "ĠpotkÃ¡": 7345,
      "ĠsedlÃ¡": 7346,
      "ĠhvÃŃz": 7347,
      "Ġhvi": 7348,
      "star": 7349,
      "Ġzabo": 7350,
      "ĠvodÃŃ": 7351,
      "Ġpych": 7352,
      "ĠnahoÅĻe": 7353,
      "vÃ¡na": 7354,
      "ĠstÃ¡vÃ¡": 7355,
      "Ġneznal": 7356,
      "Ġgene": 7357,
      "ĠsnÄĽti": 7358,
      "ĠdÅĻÃŃma": 7359,
      "Ġvolnosti": 7360,
      "Ġmrakem": 7361,
      "ĠnÄĽmec": 7362,
      "ĠjitÅĻnÃŃ": 7363,
      "hro": 7364,
      "mpe": 7365,
      "Ġmojich": 7366,
      "ĠkvÄĽtech": 7367,
      "jÃ¡k": 7368,
      "kati": 7369,
      "Ġdoho": 7370,
      "Ġdoly": 7371,
      "mund": 7372,
      "mit": 7373,
      "Äįeno": 7374,
      "ĠsilnÄĽ": 7375,
      "ĠdÃ¡vnÃ½": 7376,
      "ĠokolÃŃ": 7377,
      "ĠlÅ¯no": 7378,
      "ĠkvÃŃtÃŃm": 7379,
      "ĠulicÃŃch": 7380,
      "Ġfrancou": 7381,
      "ĠzaÅ¡ep": 7382,
      "ĠfarÃ¡ÅĻ": 7383,
      "Ġjesky": 7384,
      "Ġtec": 7385,
      "ĠmÃ¡je": 7386,
      "ĠspÄĽchal": 7387,
      "ĠpÄĽknÃ½": 7388,
      "ĠpoÅ¾ehnÃ¡": 7389,
      "Ġneskonal": 7390,
      "Ġmhou": 7391,
      "Ġsklen": 7392,
      "ĠbezdÄĽ": 7393,
      "ĠnÃ©sti": 7394,
      "Ġsady": 7395,
      "Ġluhu": 7396,
      "Ġkousek": 7397,
      "cenÃ½ch": 7398,
      "Ġmlhou": 7399,
      "Ġumlk": 7400,
      "Ġvezdy": 7401,
      "Ġkletby": 7402,
      "ĠpastÃ½ÅĻ": 7403,
      "ĠmaÄıar": 7404,
      "ĠzabÃŃ": 7405,
      "ĠvyrÅ¯": 7406,
      "ĠkoÅ¡": 7407,
      "ĠpÅĻeje": 7408,
      "ĠÄįernÃ©m": 7409,
      "ĠplÃ¡nÄĽ": 7410,
      "ĠnÃ¡sil": 7411,
      "ĠmilovÃ¡nÃŃ": 7412,
      "ĠspÃ¡su": 7413,
      "ĠkrutÃ¡": 7414,
      "Ġdcero": 7415,
      "ĠtÅ¯ÅĪ": 7416,
      "ĠmoudÅĻe": 7417,
      "ĠÅĻasy": 7418,
      "Ġposa": 7419,
      "ladÅ¡ÃŃ": 7420,
      "ĠdeÅ¡ti": 7421,
      "Ġlupen": 7422,
      "ĠvÃ½smÄĽ": 7423,
      "Ġzvou": 7424,
      "Ġhat": 7425,
      "ĠosvÄĽt": 7426,
      "ÄįenÃ¡": 7427,
      "ĠsilnÃ©": 7428,
      "Ġnepohnu": 7429,
      "ĠteplÃ©": 7430,
      "ĠzaÅ¡u": 7431,
      "Ġpolibky": 7432,
      "ĠnejdraÅ¾Å¡ÃŃ": 7433,
      "dlem": 7434,
      "Ġschy": 7435,
      "ĠniÄįem": 7436,
      "ĠdÃŃtek": 7437,
      "ĠpÃŃsek": 7438,
      "Ġvlak": 7439,
      "Ġhromy": 7440,
      "ĠtrnÃŃ": 7441,
      "ĠhlubinÃ¡ch": 7442,
      "ĠdrobnÃ½ch": 7443,
      "ĠsbÃŃrÃ¡": 7444,
      "dÅĻi": 7445,
      "ĠnahÃ¡": 7446,
      "Ġtichem": 7447,
      "ĠpÅĻej": 7448,
      "danÃ©": 7449,
      "Ġodve": 7450,
      "Ġrada": 7451,
      "ĠbÄĽs": 7452,
      "ÅĻeno": 7453,
      "ĠpohnutÃŃ": 7454,
      "ĠkvÄĽte": 7455,
      "Ġzava": 7456,
      "ĠpraÅ¾": 7457,
      "ĠpÅĻÃŃsnÃ½": 7458,
      "ĠmÃŃÅĻÃŃ": 7459,
      "ĠtÃ¡hla": 7460,
      "chajÃŃ": 7461,
      "ĠjarÃ½": 7462,
      "ĠhedbÃ¡": 7463,
      "clo": 7464,
      "pka": 7465,
      "ĠsÅ¯m": 7466,
      "ĠAABXB": 7467,
      "Ġiro": 7468,
      "Ġbudeme": 7469,
      "Ġpodal": 7470,
      "ĠdobÃ¡ch": 7471,
      "ĠÅ¾havÃ¡": 7472,
      "Ġkameny": 7473,
      "ĠhojnÄĽ": 7474,
      "ĠskvÄĽlÃ½": 7475,
      "ĠsluneÄįnÃŃ": 7476,
      "Ġdluh": 7477,
      "ĠverÅ¡Å¯": 7478,
      "vnitÅĻ": 7479,
      "Ã©l": 7480,
      "Ġprokla": 7481,
      "ĠvyÄįÃŃ": 7482,
      "Å¥Ã¡": 7483,
      "ĠdÄĽlo": 7484,
      "ĠdobrÃ½m": 7485,
      "Ġleskne": 7486,
      "ĠstvoÅĻil": 7487,
      "mrt": 7488,
      "ĠsÅĪat": 7489,
      "naje": 7490,
      "kosti": 7491,
      "ĠtulÃŃ": 7492,
      "ĠrozvÃŃ": 7493,
      "Ġske": 7494,
      "ĠpaÅ¾e": 7495,
      "ĠzloÄįin": 7496,
      "ĠdÃŃvko": 7497,
      "Ġstatky": 7498,
      "ĠÄįtenÃ¡": 7499,
      "Å¾no": 7500,
      "nÄĽnÃ¡": 7501,
      "tiÅ¾": 7502,
      "Ġsig": 7503,
      "ĠdÃŃlu": 7504,
      "ĠcÃŃtit": 7505,
      "Ġreka": 7506,
      "Ġzloby": 7507,
      "Ġuply": 7508,
      "Ġsboru": 7509,
      "ĠzaÄįne": 7510,
      "Ġrozply": 7511,
      "ĠmstÃŃ": 7512,
      "land": 7513,
      "Ġpodu": 7514,
      "ĠnachÃ½": 7515,
      "vÄĽtÅĻÃŃ": 7516,
      "Ġkleno": 7517,
      "ĠĠĠĊ": 7518,
      "ĠumÅĻÃŃt": 7519,
      "ĠzbabÄĽ": 7520,
      "pne": 7521,
      "Ġsje": 7522,
      "Ġudat": 7523,
      "Ġpropu": 7524,
      "Ġnovo": 7525,
      "ĠvÃŃla": 7526,
      "Ġrozkaz": 7527,
      "ĠmÃ¡ji": 7528,
      "ĠÅĻÃŃd": 7529,
      "ĠpÅĻedkÅ¯": 7530,
      "ret": 7531,
      "ĠpustÃ¡": 7532,
      "Ġchudi": 7533,
      "Ġtvojich": 7534,
      "ĠstÄĽÅ¾ÃŃ": 7535,
      "Ġplamenem": 7536,
      "ĠmÄĽsÃŃci": 7537,
      "ĠslouÅ¾ÃŃ": 7538,
      "ĠuklÃ¡": 7539,
      "Ġzbyla": 7540,
      "ĠspanilÃ¡": 7541,
      "ĠnedÅ¯": 7542,
      "vami": 7543,
      "ĠÅ¡ek": 7544,
      "ĠvÃ½so": 7545,
      "Ġsluchu": 7546,
      "ĠdÃ¡lnÃ½ch": 7547,
      "Ġvlk": 7548,
      "ĠkÅĻÃŃdlech": 7549,
      "ĠklidnÃ©": 7550,
      "ĠpÃ½chou": 7551,
      "ĠzÃ¡vist": 7552,
      "ĠsnoubÃŃ": 7553,
      "mar": 7554,
      "ĠtlÃŃ": 7555,
      "Ġjina": 7556,
      "ĠvÄĽdÄĽt": 7557,
      "Ġmozku": 7558,
      "Ġstanu": 7559,
      "Ġpospo": 7560,
      "ĠÅĻekni": 7561,
      "Ġbledne": 7562,
      "ĠnevrÃ¡tÃŃ": 7563,
      "Ġvizte": 7564,
      "ĠchuÄıas": 7565,
      "pÅĻi": 7566,
      "Ġzko": 7567,
      "ĠneÄįi": 7568,
      "Ġnastal": 7569,
      "ĠnÄĽhu": 7570,
      "Ġtakou": 7571,
      "ĠdÃŃvat": 7572,
      "Ġanti": 7573,
      "Ġhousle": 7574,
      "ĠnÃ¡rodnÃŃ": 7575,
      "skot": 7576,
      "Ġpaty": 7577,
      "ĠveselÃ©": 7578,
      "ĠÅ¡Å¥astni": 7579,
      "Ġchrab": 7580,
      "ĠkoÅĻeny": 7581,
      "dnÃ©ho": 7582,
      "dovi": 7583,
      "ĠrubÃ¡": 7584,
      "ĠpÅĻim": 7585,
      "Å¡ilo": 7586,
      "ĠsvÄĽÅ¾e": 7587,
      "ĠrÅ¯Å¾ovÃ©": 7588,
      "leÅ¥": 7589,
      "ĠkomÃŃ": 7590,
      "ĠfrÃ¡": 7591,
      "ĠmilÃ©ho": 7592,
      "ĠptÃ¡Äįek": 7593,
      "ĠsnÄĽtÃŃ": 7594,
      "ĠbojÅ¯": 7595,
      "ĠvÄįely": 7596,
      "Ġnedba": 7597,
      "rz": 7598,
      "chvat": 7599,
      "ĠzaÅ¡la": 7600,
      "Ġvypo": 7601,
      "ĠkoÅĻÃŃ": 7602,
      "ĠpÅĻeko": 7603,
      "ĠvÃ¡hÃ¡": 7604,
      "ĠslunÃ©": 7605,
      "ĠchorÃ©": 7606,
      "ĠzpÃŃvajÃŃ": 7607,
      "ĠrudÃ½m": 7608,
      "ĠzrÃ¡dce": 7609,
      "ĠdÄĽlat": 7610,
      "!!": 7611,
      "svit": 7612,
      "pajÃŃ": 7613,
      "chÃ¡zÃŃm": 7614,
      "Ġzvukem": 7615,
      "jdeÅ¡": 7616,
      "Ġtrub": 7617,
      "Ġneur": 7618,
      "Ġzraje": 7619,
      "Ġptact": 7620,
      "cÃ©": 7621,
      "ĠveÄı": 7622,
      "ĠvztÃ½": 7623,
      "Ġboky": 7624,
      "Ġdivou": 7625,
      "ĠbÄĽlou": 7626,
      "Ġsamy": 7627,
      "Ġlup": 7628,
      "Ġresi": 7629,
      "Ġhluch": 7630,
      "ĠsterÃ©": 7631,
      "Ġokovy": 7632,
      "ĠbrÃ¡nu": 7633,
      "Ġkryl": 7634,
      "ĠpoÅ¾ehna": 7635,
      "Ġchasa": 7636,
      "pku": 7637,
      "ĠnahÃ©": 7638,
      "Ġzadr": 7639,
      "ĠvÄĽdomÃŃ": 7640,
      "Ġmozek": 7641,
      "Ġodk": 7642,
      "ĠfÃ¡": 7643,
      "penÃ©": 7644,
      "Ġznich": 7645,
      "hrÃ¡": 7646,
      "ĠvznÃ¡Å¡e": 7647,
      "ĠvlÃŃdnÃ½": 7648,
      "bÅ¡ÃŃ": 7649,
      "tlo": 7650,
      "vÃ¡no": 7651,
      "vaÅ¥": 7652,
      "Ġtahy": 7653,
      "Äįinou": 7654,
      "ĠstaletÃŃ": 7655,
      "zdra": 7656,
      "trp": 7657,
      "Å¡enÄĽ": 7658,
      "prve": 7659,
      "Ġhloubky": 7660,
      "ĠmyslÃŃÅ¡": 7661,
      "Ġvrchol": 7662,
      "ĠkolÃ©bky": 7663,
      "Ġvnuk": 7664,
      "ĠnebezpeÄįÃŃ": 7665,
      "prÃ¡": 7666,
      "ĠmÅ¡i": 7667,
      "ĠvÄĽjÃŃ": 7668,
      "ĠÅ¾ivou": 7669,
      "Ġsynem": 7670,
      "Ġfe": 7671,
      "ĠpÄĽv": 7672,
      "ĠpoÄįkej": 7673,
      "ĠjakÃ¡s": 7674,
      "nkÃ½": 7675,
      "Ã¡jem": 7676,
      "out": 7677,
      "ĠvidÄĽli": 7678,
      "Ġnemi": 7679,
      "Ġposlech": 7680,
      "Ġtrh": 7681,
      "Ġdivnou": 7682,
      "beni": 7683,
      "ĠhlÃŃdÃ¡": 7684,
      "Ġholubice": 7685,
      "ĠholÃ¡": 7686,
      "Ġvzdal": 7687,
      "Ġpast": 7688,
      "ÄįÃŃÅ¡": 7689,
      "Ġprale": 7690,
      "ĠmÃŃjÃŃ": 7691,
      "Ġdivem": 7692,
      "Ġhrady": 7693,
      "Å¡enÃ½ch": 7694,
      "Ġpadlo": 7695,
      "ĠjedenkrÃ¡t": 7696,
      "ĠoblakÅ¯": 7697,
      "Ġmrzu": 7698,
      "ĠnemÃ¡Å¡": 7699,
      "ĠdokonÃ¡": 7700,
      "Ġchvatem": 7701,
      "Ġnevinnosti": 7702,
      "ĠzmÃ¡": 7703,
      "Ġjedu": 7704,
      "ato": 7705,
      "ĠÄįej": 7706,
      "ĠkrajÅ¯": 7707,
      "ĠchvÃ¡lÃŃ": 7708,
      "rozenÃŃ": 7709,
      "ĠzkamenÄĽ": 7710,
      "ĠnajdeÅ¡": 7711,
      "ĠvzrÅ¯stÃ¡": 7712,
      "Ġvzadu": 7713,
      "dÄĽje": 7714,
      "ĠrozÅ¾": 7715,
      "ĠdivÃ½m": 7716,
      "Ġchoti": 7717,
      "Ġpohla": 7718,
      "Ġvraha": 7719,
      "ĠdÅ¯kaz": 7720,
      "ĠzÃ¡vod": 7721,
      "ĠplachÃ©": 7722,
      "Ġudiven": 7723,
      "zdÃŃ": 7724,
      "lali": 7725,
      "ĠveÅ¡la": 7726,
      "voÅĻÃŃ": 7727,
      "Ġpacho": 7728,
      "ĠÅĻeku": 7729,
      "Ġmami": 7730,
      "Ġsoudce": 7731,
      "ĠkrÃ¡snÄĽjÅ¡ÃŃ": 7732,
      "ĠtichÃ½ch": 7733,
      "ĠloupeÅ¾": 7734,
      "ĠhrÃ¡la": 7735,
      "Ġnemohou": 7736,
      "ĠvÅĻele": 7737,
      "Ġkriste": 7738,
      "trÃ¡": 7739,
      "Ġzva": 7740,
      "Ġlije": 7741,
      "ĠÄįisto": 7742,
      "ĠkeÅĻi": 7743,
      "Ġopil": 7744,
      "Ġzmatek": 7745,
      "pak": 7746,
      "Ġsmilo": 7747,
      "ĠzÃ½": 7748,
      "Ġleck": 7749,
      "Ġprose": 7750,
      "vejte": 7751,
      "ĠzeÅĪ": 7752,
      "ĠvÃ½ho": 7753,
      "Ġdivu": 7754,
      "ĠplnÃ©m": 7755,
      "ĠvÅ¯lÃŃ": 7756,
      "ĠpukÃ¡": 7757,
      "ĠmodrÃ½m": 7758,
      "ĠÄįlovÄĽÄįen": 7759,
      "ĠhrÃ¡z": 7760,
      "ĠzulÃŃ": 7761,
      "ĠjednotvÃ¡": 7762,
      "ĠstejnÃ©": 7763,
      "Ġsestro": 7764,
      "ĠvojÃ¡k": 7765,
      "ĠuÅ¡lechtil": 7766,
      "hni": 7767,
      "ĠÅ¡ku": 7768,
      "Ġpronika": 7769,
      "Ġobsa": 7770,
      "ĠdeÅ¡": 7771,
      "ĠsÃŃnÃŃ": 7772,
      "ĠkaÅ¾di": 7773,
      "ĠchutÄĽ": 7774,
      "ĠsÃ¡l": 7775,
      "Ġzvedne": 7776,
      "zda": 7777,
      "Ġrodnou": 7778,
      "ĠtiÅ¡i": 7779,
      "Ġprin": 7780,
      "ĠcizÃ¡": 7781,
      "Ġstavu": 7782,
      "ĠstraÅ¡nÄĽ": 7783,
      "Ġslunka": 7784,
      "ĠvÅĻelÃ©": 7785,
      "ĠvdÄĽÄįnÄĽ": 7786,
      "Ġrakvi": 7787,
      "ĠoÄįÃŃm": 7788,
      "Ġponu": 7789,
      "Ġvydal": 7790,
      "ĠnÄĽhou": 7791,
      "ver": 7792,
      "stoupÃŃ": 7793,
      "ĠstÅĻely": 7794,
      "ĠspÃŃnÃ¡": 7795,
      "Ġrostla": 7796,
      "ĠnenÃ¡vist": 7797,
      "ĠzaznÄĽl": 7798,
      "slÃŃ": 7799,
      "ĠrojÃŃ": 7800,
      "toma": 7801,
      "Ġlom": 7802,
      "ĠsÃŃtÃŃ": 7803,
      "ĠprÃ¡vu": 7804,
      "ĠpÄĽvec": 7805,
      "Ġmrtvou": 7806,
      "Ġpochod": 7807,
      "ĠveÅ¡ker": 7808,
      "hlÃ½ch": 7809,
      "Ġsmo": 7810,
      "Ġpso": 7811,
      "Ġtohle": 7812,
      "ĠvÄĽÄı": 7813,
      "ĠskÅĻe": 7814,
      "ĠÃºko": 7815,
      "ĠtouÅ¾ÃŃm": 7816,
      "Ġbranou": 7817,
      "rii": 7818,
      "ĠhrÅ¯zu": 7819,
      "ĠvesmÃŃ": 7820,
      "ĠÅ¡tÃŃty": 7821,
      "Ġpostava": 7822,
      "Ġpase": 7823,
      "ĠdÃ³": 7824,
      "ĠjeÅ¾ÃŃÅ¡": 7825,
      "rati": 7826,
      "Ġstva": 7827,
      "lostÃŃ": 7828,
      "Ġchar": 7829,
      "ĠnÃŃtÃŃ": 7830,
      "ĠtÃŃÅ¡": 7831,
      "Ġdoubra": 7832,
      "Ġzik": 7833,
      "ĠÅĻadÄĽ": 7834,
      "volnÄĽ": 7835,
      "ĠvÄĽÅĻil": 7836,
      "nuje": 7837,
      "ĠpodÃ©l": 7838,
      "bilo": 7839,
      "ĠrÅ¯st": 7840,
      "ĠrÅ¯Å¾emi": 7841,
      "ĠvÄĽÄįna": 7842,
      "ĠkÃ½s": 7843,
      "ĠdrÃ¡Å¾": 7844,
      "ĠcÃŃtÃŃÅ¡": 7845,
      "ĠpÅĻÃŃÅ¡tÃŃch": 7846,
      "Ġvzlyk": 7847,
      "ĠkÅĻiÅ¡Å¥Ã¡": 7848,
      "ĠshromÃ¡": 7849,
      "ĠdbÃ¡": 7850,
      "Ġnecho": 7851,
      "ĠchÃ¡m": 7852,
      "ĠprÃ¡v": 7853,
      "Ġanto": 7854,
      "Ġzmije": 7855,
      "ĠÄįechÅ¯": 7856,
      "tina": 7857,
      "ĠvÃŃsky": 7858,
      "dÃŃte": 7859,
      "Ġdin": 7860,
      "ĠsvÄĽto": 7861,
      "Ġkruhy": 7862,
      "plnÃ©": 7863,
      "br": 7864,
      "vavÄĽ": 7865,
      "Ġnico": 7866,
      "ledne": 7867,
      "ĠuÄįitel": 7868,
      "ĠvzÅĪat": 7869,
      "Ġpape": 7870,
      "bych": 7871,
      "ĠbÃ¡zeÅĪ": 7872,
      "Ġohla": 7873,
      "Ġzmlk": 7874,
      "Ġuml": 7875,
      "ĠpalÄįi": 7876,
      "Ġvedli": 7877,
      "ĠkvapÃŃ": 7878,
      "ĠokamÅ¾enÃŃ": 7879,
      "ĠpÃ½chu": 7880,
      "ĠvnÃŃ": 7881,
      "Ġpsi": 7882,
      "ĠzadÃŃ": 7883,
      "ĠÅ¡kÅ¯": 7884,
      "Ġvec": 7885,
      "Ġkama": 7886,
      "lout": 7887,
      "ĠdeÅ¡Å¥": 7888,
      "Ġlucy": 7889,
      "ĠmilÃ½m": 7890,
      "ĠkÅĻiku": 7891,
      "ĠpyÅ¡nÃ½": 7892,
      "ĠznÃŃt": 7893,
      "Ġvypro": 7894,
      "ĠzvÃŃÅĻ": 7895,
      "ĠvÅĻava": 7896,
      "ĠdomÃ¡cÃŃ": 7897,
      "ovi": 7898,
      "tkou": 7899,
      "ĠvdÃ¡l": 7900,
      "Ġzry": 7901,
      "ĠhÃ©m": 7902,
      "Ġumu": 7903,
      "nus": 7904,
      "ĠvÃŃÅĻe": 7905,
      "ĠptÃ¡ky": 7906,
      "Ġvrouc": 7907,
      "ĠÅ¾lutÃ½": 7908,
      "ĠXXAXAX": 7909,
      "Ġdokola": 7910,
      "Ġvadne": 7911,
      "ĠhoroucÃŃ": 7912,
      "Ġdojat": 7913,
      "ĠrozpÃ¡": 7914,
      "ĠÃºdÄĽl": 7915,
      "ĠrybÃ¡": 7916,
      "Ġhranice": 7917,
      "Ġknize": 7918,
      "ĠvÄĽzenÃŃ": 7919,
      "Ġskrze": 7920,
      "ĠbdÄĽl": 7921,
      "Ġzane": 7922,
      "ĠÅ¡edou": 7923,
      "Ġsyt": 7924,
      "Ġdlouze": 7925,
      "Ġsrp": 7926,
      "ĠblÃŃzku": 7927,
      "Ġsno": 7928,
      "Ġpomys": 7929,
      "skat": 7930,
      "Ġmuse": 7931,
      "Ġzpra": 7932,
      "ĠsnÄĽhy": 7933,
      "cÃŃmi": 7934,
      "Ġ22": 7935,
      "ĠzaÅ¡lÃ©": 7936,
      "ĠznamenÃ¡": 7937,
      "ĠdÃ¡me": 7938,
      "Ġuleh": 7939,
      "Ġuprch": 7940,
      "ĠrvÃ¡t": 7941,
      "ĠhravÄĽ": 7942,
      "Ġvrab": 7943,
      "ĠsuchÃ½": 7944,
      "ĠdÅĻÃŃme": 7945,
      "Ġmocnou": 7946,
      "ĠvÃŃtÄĽznÄĽ": 7947,
      "Ġblouzni": 7948,
      "Ġzvedl": 7949,
      "brat": 7950,
      "ĠuÄįinil": 7951,
      "Ġklou": 7952,
      "ĠsedÃŃm": 7953,
      "ĠuÅ¾ÃŃ": 7954,
      "Ġrovi": 7955,
      "Ġkynul": 7956,
      "ĠnaÅ¡im": 7957,
      "Ġotrok": 7958,
      "Ġoblohy": 7959,
      "Ġkmeny": 7960,
      "ĠdeÅ¡tÄĽm": 7961,
      "ĠvnitÅĻnÃŃ": 7962,
      "ĠnÃ¡hodou": 7963,
      "Ġneve": 7964,
      "Ġpola": 7965,
      "ĠvyvÃ¡": 7966,
      "Ġduje": 7967,
      "ĠpÅĻivÃ¡": 7968,
      "ĠpouhÃ¡": 7969,
      "ĠhvÄĽzdu": 7970,
      "cos": 7971,
      "Ġzbloudil": 7972,
      "dily": 7973,
      "ĠtÅĻÃŃÅ¡tÃŃ": 7974,
      "Ġlebky": 7975,
      "ĠÅ¡lechet": 7976,
      "Ġloktech": 7977,
      "ur": 7978,
      "Ġneto": 7979,
      "Ġzatra": 7980,
      "ĠchlÃ¡": 7981,
      "ĠprostÄĽ": 7982,
      "Ġvycho": 7983,
      "Ġmini": 7984,
      "Ġprachem": 7985,
      "Ġdalo": 7986,
      "ĠtÃ¡Å¾e": 7987,
      "Ġtemnu": 7988,
      "ĠveÄįeru": 7989,
      "Ġhloupo": 7990,
      "Ġrozep": 7991,
      "ĠstÅĻÃŃbra": 7992,
      "Ġrmut": 7993,
      "bas": 7994,
      "budil": 7995,
      "the": 7996,
      "vetla": 7997,
      "ĠdlouhÃ©m": 7998,
      "ĠostrÃ©": 7999,
      "ĠpovÅ¾dy": 8000,
      "ĠodpovÃŃdÃ¡": 8001,
      "livou": 8002,
      "ĠhostÃ©": 8003,
      "Ġkara": 8004,
      "ĠvidÄĽti": 8005,
      "Ġkolkolem": 8006,
      "ĠklÃŃÄį": 8007,
      "ĠlÅ¯na": 8008,
      "Ġklesne": 8009,
      "Ġchmury": 8010,
      "Ġvpra": 8011,
      "Ġzdu": 8012,
      "ĠzpomÃŃ": 8013,
      "Ġzavr": 8014,
      "ĠhodnÄĽ": 8015,
      "Ġrab": 8016,
      "ĠmÃŃÅĪ": 8017,
      "tri": 8018,
      "ĠvÅ¡echnÄĽch": 8019,
      "ĠosvÃŃ": 8020,
      "Ġmraven": 8021,
      "ĠobracÃŃ": 8022,
      "Ġbarbar": 8023,
      "Ġosudem": 8024,
      "ĠbohatstvÃŃ": 8025,
      "lce": 8026,
      "Ġust": 8027,
      "ĠtÄĽsnÄĽ": 8028,
      "ĠÄįasnÄĽ": 8029,
      "Ġnesli": 8030,
      "ĠhÅĻÃŃchem": 8031,
      "ĠvÄĽrnou": 8032,
      "Ġzelena": 8033,
      "Ġvysch": 8034,
      "ĠbludnÃ©": 8035,
      "ĠluznÃ©": 8036,
      "smÃ¡": 8037,
      "Äįata": 8038,
      "dÄĽlo": 8039,
      "ĠvÅ¡ecek": 8040,
      "Ġsprost": 8041,
      "ĠrÃ¡ch": 8042,
      "Ġkras": 8043,
      "ĠhvÄĽzdnÃ½": 8044,
      "ĠchladnÃ¡": 8045,
      "Ġsnila": 8046,
      "ĠpÃ©ro": 8047,
      "ĠzachvÄĽla": 8048,
      "ĠvlhkÃ©": 8049,
      "ĠÅ¾ol": 8050,
      "Ġaf": 8051,
      "vÃŃtÃ¡": 8052,
      "ĠrozdÃŃ": 8053,
      "ĠpÃŃÅ¡Å¥": 8054,
      "douc": 8055,
      "ĠvalnÃ©": 8056,
      "Ġostrov": 8057,
      "ĠtajemnÃ½": 8058,
      "fy": 8059,
      "plo": 8060,
      "Ġsvla": 8061,
      "ĠusÃŃ": 8062,
      "Ġuchy": 8063,
      "Ġrtoma": 8064,
      "Ġtanec": 8065,
      "Ġsit": 8066,
      "ĠÅ¾ÃŃznÃŃ": 8067,
      "ĠdÄĽtskÃ½ch": 8068,
      "ĠjemnÃ½": 8069,
      "Ġsvoboda": 8070,
      "Ġzvyku": 8071,
      "ĠpestrÃ½ch": 8072,
      "Ġrodiny": 8073,
      "chÃ¡zejÃŃ": 8074,
      "ĠvzpomnÄĽl": 8075,
      "Ġhrdina": 8076,
      "Ġvztekem": 8077,
      "ĠÄįervÃ¡nky": 8078,
      "Ġkapra": 8079,
      "Ġrudou": 8080,
      "ĠÅ¡epot": 8081,
      "pÄĽtÃŃ": 8082,
      "Ġnepra": 8083,
      "Ġhynou": 8084,
      "Ġzkro": 8085,
      "Ġopojen": 8086,
      "ĠmatiÄįko": 8087,
      "ĠnadÅ¡enÃŃm": 8088,
      "ĠlabuÅ¥": 8089,
      "ĠkamarÃ¡": 8090,
      "ble": 8091,
      "rag": 8092,
      "ĠponÃŃ": 8093,
      "lÃ¡Å¡": 8094,
      "Ġhostem": 8095,
      "ĠtÄĽs": 8096,
      "ĠpÅĻivi": 8097,
      "Ġrys": 8098,
      "pÄĽnÃŃ": 8099,
      "ĠsvÄĽti": 8100,
      "ĠnavÅ¡tÃŃ": 8101,
      "Ġnaproti": 8102,
      "ĠknÃ¡m": 8103,
      "Ġledu": 8104,
      "Ġtaji": 8105,
      "Ġmoder": 8106,
      "ĠtuÅ¡il": 8107,
      "Äįeje": 8108,
      "ĠÅ¾ivÃ½ch": 8109,
      "Ġplav": 8110,
      "Ġtravou": 8111,
      "ĠdÄĽsnÃ¡": 8112,
      "Ġplachty": 8113,
      "ĠkrÅ¯pÄĽje": 8114,
      "ĠchudÃ¡k": 8115,
      "blou": 8116,
      "ĠvchÃ¡zÃŃ": 8117,
      "ĠpolnÃŃ": 8118,
      "ĠvÄĽsÃŃ": 8119,
      "Ġskvo": 8120,
      "ĠÅ¾ivÄĽ": 8121,
      "ĠpÃ¡du": 8122,
      "ĠhledÄĽt": 8123,
      "ĠveÄįerem": 8124,
      "ĠchladnÄĽ": 8125,
      "Ġpoklo": 8126,
      "Ġkalu": 8127,
      "ĠhoÅĻce": 8128,
      "ĠnÃŃzkÃ©": 8129,
      "ĠkvÄĽtin": 8130,
      "ckÃ©m": 8131,
      "Ġvje": 8132,
      "Ġnna": 8133,
      "Ġposk": 8134,
      "Ġleje": 8135,
      "ĠberÃ¡": 8136,
      "ĠskoÄįil": 8137,
      "ĠboÅ¾skÃ½": 8138,
      "Ġhovoru": 8139,
      "Ġzamra": 8140,
      "ĠmatiÄįka": 8141,
      "ĠpsÃ¡no": 8142,
      "Ġvzruch": 8143,
      "ĠpovÃŃm": 8144,
      "ĠpÅĻiÅ¡ly": 8145,
      "ĠtÃŃÅ¾e": 8146,
      "Ġdere": 8147,
      "Ġsype": 8148,
      "ĠhvÄĽzdo": 8149,
      "ĠzvÄĽsti": 8150,
      "Ġsamoty": 8151,
      "ĠkonÄįÃŃ": 8152,
      "ĠhÅ¯ry": 8153,
      "ĠnekoneÄįnÃ©": 8154,
      "ĠleknÃŃ": 8155,
      "Ġpsy": 8156,
      "Å¾nÃ½m": 8157,
      "ĠnetÅĻe": 8158,
      "ĠkrÃ¡ÄįÃŃm": 8159,
      "Ġvost": 8160,
      "Ġdvora": 8161,
      "ĠspatÅĻÃŃ": 8162,
      "Ġmodlitby": 8163,
      "par": 8164,
      "rmu": 8165,
      "Ġveta": 8166,
      "Ġlada": 8167,
      "ĠbÃ¡seÅĪ": 8168,
      "ĠstÅĻechu": 8169,
      "ĠjedinÄĽ": 8170,
      "ĠrudÃ½ch": 8171,
      "ĠmÄĽkkÃ¡": 8172,
      "ĠblaÅ¾enosti": 8173,
      "ĠsmyslÅ¯": 8174,
      "ĠzmÃ¡men": 8175,
      "ĠnÃ¡vÅ¡tÄĽ": 8176,
      "paly": 8177,
      "Ġjene": 8178,
      "ĠÅ¡ka": 8179,
      "ĠleÅ¥": 8180,
      "Ġkoj": 8181,
      "Ġmistra": 8182,
      "Ġmedu": 8183,
      "nesl": 8184,
      "ĠhustÃ½": 8185,
      "rÅ¯v": 8186,
      "ĠrÅ¯Å¾en": 8187,
      "ĠpoznÃ¡nÃŃ": 8188,
      "ĠspÃ¡r": 8189,
      "ĠuboÅ¾Ã¡": 8190,
      "ĠzÅ¯stane": 8191,
      "ĠradÅ¡": 8192,
      "Ġfiloso": 8193,
      "Ġtone": 8194,
      "nalo": 8195,
      "Ġkrej": 8196,
      "ĠchutÃŃ": 8197,
      "ĠhÅĻeje": 8198,
      "Ġprobudil": 8199,
      "rnÃ©ho": 8200,
      "lis": 8201,
      "Ġstrou": 8202,
      "Ġdoved": 8203,
      "ĠdoznÄĽ": 8204,
      "vajÃŃcÃŃ": 8205,
      "Ġmeze": 8206,
      "ĠstÅĻech": 8207,
      "ĠÅ¡Å¥Ã¡": 8208,
      "Ġstatek": 8209,
      "Ġnejsme": 8210,
      "lnost": 8211,
      "Ġodo": 8212,
      "ĠnedÄĽli": 8213,
      "ĠvyÅĻ": 8214,
      "Ġvyno": 8215,
      "Ġbudo": 8216,
      "tavÃ½": 8217,
      "Ġstop": 8218,
      "ĠsmÄĽlÃ©": 8219,
      "ĠkÅĻikem": 8220,
      "Ġpovzdech": 8221,
      "ĠnejvÃŃce": 8222,
      "ĠÅ¡klebÃŃ": 8223,
      "Ġmilosrd": 8224,
      "bnÃ½ch": 8225,
      "ĠnamÃ¡": 8226,
      "Ġdomek": 8227,
      "ÄįÃŃs": 8228,
      "Å¡enÃŃm": 8229,
      "zujÃŃ": 8230,
      "ĠtÃ©mÄĽÅĻ": 8231,
      "Ġrenald": 8232,
      "lkÅ¯": 8233,
      "raÅ¾en": 8234,
      "Ġpoo": 8235,
      "ĠdoÅ¡el": 8236,
      "Ġmus": 8237,
      "ĠpravÄĽ": 8238,
      "taje": 8239,
      "Ġnejkra": 8240,
      "ĠhluÄįnÄĽ": 8241,
      "ĠtrpÄĽl": 8242,
      "Ġsmutkem": 8243,
      "Ġpadal": 8244,
      "ĠblÃ¡z": 8245,
      "ĠbujnÄĽ": 8246,
      "ĠzavÅĻel": 8247,
      "Ġkladou": 8248,
      "ĠpoÄįÃŃnÃ¡": 8249,
      "Ġresigna": 8250,
      "ĠslÃ©": 8251,
      "Ġvt": 8252,
      "Ġab": 8253,
      "ÄįnÃ©ho": 8254,
      "nÄĽjÃŃ": 8255,
      "Ġdosa": 8256,
      "Ġmon": 8257,
      "ĠdÃŃvek": 8258,
      "hÃ¡Äį": 8259,
      "ĠvelkÃ©m": 8260,
      "zoval": 8261,
      "Ġzvedla": 8262,
      "Ġsouzvuk": 8263,
      "ĠAABXBX": 8264,
      "ĠpoÄįe": 8265,
      "ĠleÅ¾e": 8266,
      "Ġobna": 8267,
      "ĠÃºbÄĽ": 8268,
      "ĠÅ¡ÃŃpy": 8269,
      "ĠtouÅ¾e": 8270,
      "ĠsvojÃŃm": 8271,
      "Ġmrtvol": 8272,
      "ĠtÃ½den": 8273,
      "Ġtrudu": 8274,
      "ĠznÃ¡me": 8275,
      "Ġzvl": 8276,
      "Ġhospodin": 8277,
      "ĠubohÃ¡": 8278,
      "ĠmÃ¡jo": 8279,
      "Ġrozkvet": 8280,
      "Ġnesa": 8281,
      "Ġcvi": 8282,
      "nÃŃÅ¡": 8283,
      "Ġzask": 8284,
      "vajÃŃc": 8285,
      "Ġvyjas": 8286,
      "ĠnÄĽha": 8287,
      "ĠniÄįeho": 8288,
      "ĠspoÄįi": 8289,
      "ĠlouÄįÃŃ": 8290,
      "ĠvolnÃ©": 8291,
      "Ġodevz": 8292,
      "Ġmodlitbou": 8293,
      "Ġnaro": 8294,
      "ĠustÃ¡nÃŃ": 8295,
      "ĠvÄĽtev": 8296,
      "Ġmoj": 8297,
      "vÃ©st": 8298,
      "Ġjedle": 8299,
      "ĠchorÃ½": 8300,
      "ĠdrazÃŃ": 8301,
      "chan": 8302,
      "Ġmodli": 8303,
      "Ġgar": 8304,
      "zali": 8305,
      "benÃ½": 8306,
      "ĠdÄĽtskÃ½": 8307,
      "ĠtvÅ¯rce": 8308,
      "ĠzvÄĽt": 8309,
      "ĠÄįekajÃŃ": 8310,
      "zela": 8311,
      "ĠvÃ½stra": 8312,
      "ĠstÃ¡lÃ½": 8313,
      "Ġzjevy": 8314,
      "ĠchÃ¡pe": 8315,
      "ĠprÃ½Å¡tÃŃ": 8316,
      "ĠpojÄıte": 8317,
      "tati": 8318,
      "Å¡kÃ¡": 8319,
      "lekÃ¡": 8320,
      "Ġchlou": 8321,
      "Ġduhy": 8322,
      "ĠmÃ¡lem": 8323,
      "Ġchoro": 8324,
      "Ġvrata": 8325,
      "ĠpÅ¯da": 8326,
      "ĠdceÅĻi": 8327,
      "ĠvÃ¡Å¾nÃ©": 8328,
      "ĠkvÃ©sti": 8329,
      "ĠkolikrÃ¡t": 8330,
      "Ġuh": 8331,
      "Å¾ejÃŃ": 8332,
      "Ġmag": 8333,
      "Ġobrazem": 8334,
      "ĠknÄĽze": 8335,
      "ĠchvÃ¡la": 8336,
      "ĠÄįekat": 8337,
      "gie": 8338,
      "ĠvlÃ©": 8339,
      "ĠvsÃŃ": 8340,
      "Ġhodo": 8341,
      "Ġkadi": 8342,
      "ĠnocÃŃch": 8343,
      "ĠvÃŃly": 8344,
      "dan": 8345,
      "dami": 8346,
      "Ġpodla": 8347,
      "ĠÄįÃŃhÃ¡": 8348,
      "pÃ¡ch": 8349,
      "Äįenou": 8350,
      "ĠpÅ¯jdem": 8351,
      "ĠÅ¾alosti": 8352,
      "Ġhnus": 8353,
      "Ġhotov": 8354,
      "ĠosamÄĽlÃ½": 8355,
      "Ġlkal": 8356,
      "ĠnÃ¡pad": 8357,
      "Ġobr": 8358,
      "ĠhlavnÃŃ": 8359,
      "ĠpÅĻÃŃbu": 8360,
      "Ġvladi": 8361,
      "ĠsmÄĽr": 8362,
      "ĠandÄĽla": 8363,
      "ĠstrÃ¡Å¾e": 8364,
      "Ġzora": 8365,
      "ĠtluÄįe": 8366,
      "ĠlehkÃ©": 8367,
      "ĠpÅĻÃŃrodÄĽ": 8368,
      "ĠABAABX": 8369,
      "ĠzÅ¯staÅĪ": 8370,
      "ĠÅ¡ÃŃlenstvÃŃ": 8371,
      "uji": 8372,
      "Ġvho": 8373,
      "chej": 8374,
      "ĠstvÃŃm": 8375,
      "Ġkobe": 8376,
      "Ġodpou": 8377,
      "ĠdajÃŃ": 8378,
      "ĠsamÃ¡": 8379,
      "ĠdobÅĻÃŃ": 8380,
      "ĠpÃŃsmo": 8381,
      "Äįkami": 8382,
      "ĠschÅ¯": 8383,
      "Ġmilence": 8384,
      "Ġplout": 8385,
      "Å¾kou": 8386,
      "cejÃŃ": 8387,
      "ĠÅ¡pÃŃ": 8388,
      "voru": 8389,
      "ĠXXXXAA": 8390,
      "ĠvÄĽje": 8391,
      "ĠpospÄĽ": 8392,
      "ĠkeÅĻe": 8393,
      "Ġoknech": 8394,
      "tÃ©Å¾": 8395,
      "Ġstesku": 8396,
      "ĠzvÄĽsÅ¥": 8397,
      "ĠkvÃŃtky": 8398,
      "ĠvÅĻes": 8399,
      "ĠneustÃ¡le": 8400,
      "Ġvku": 8401,
      "ĠAXB": 8402,
      "ĠÃºpÃŃ": 8403,
      "Ġzemdle": 8404,
      "Ġkre": 8405,
      "ĠplazÃŃ": 8406,
      "Ġmodrou": 8407,
      "Ġstudu": 8408,
      "ĠhrÅ¯ze": 8409,
      "ĠtajnÃ½": 8410,
      "ĠskvÄĽlÃ©": 8411,
      "Ġsmarag": 8412,
      "ĠpÃ½chy": 8413,
      "ĠÅ¥u": 8414,
      "Ġchoval": 8415,
      "ĠmlÄįel": 8416,
      "ĠhrdÃ¡": 8417,
      "ĠdobrÃ©ho": 8418,
      "Ġkostel": 8419,
      "ĠkadeÅĻ": 8420,
      "daly": 8421,
      "teÄįnÄĽ": 8422,
      "Äįiv": 8423,
      "ĠÅĻekou": 8424,
      "Ġsluj": 8425,
      "Ġonde": 8426,
      "Ġglo": 8427,
      "Ġang": 8428,
      "Ġmrtva": 8429,
      "coval": 8430,
      "ĠlÅ¯Å¾ku": 8431,
      "plnÃ½": 8432,
      "Ġpostav": 8433,
      "Ġzvykem": 8434,
      "ĠkvetoucÃŃ": 8435,
      "ĠÅ¾alÃ¡ÅĻ": 8436,
      "ĠhÅĻbet": 8437,
      "Ġptactvo": 8438,
      "ĠnetopÃ½": 8439,
      "kly": 8440,
      "tivÄĽ": 8441,
      "ĠhoÅĻel": 8442,
      "ĠnÃ¡do": 8443,
      "ĠbujÃŃ": 8444,
      "ĠhromÅ¯": 8445,
      "Ġkoutku": 8446,
      "ĠsvornÄĽ": 8447,
      "ĠokÅĻÃŃ": 8448,
      "Ġoknu": 8449,
      "Ġokolo": 8450,
      "Ġprosby": 8451,
      "Ġdomova": 8452,
      "Ġstarosti": 8453,
      "hdy": 8454,
      "Ġmdle": 8455,
      "Ã©r": 8456,
      "Ġposko": 8457,
      "Ġpohod": 8458,
      "ĠvÄĽdo": 8459,
      "Ġduhu": 8460,
      "ĠnÃ¡pÄĽ": 8461,
      "ĠniÄįÃŃ": 8462,
      "dÃ¡n": 8463,
      "ĠÅ¾id": 8464,
      "ĠlÃ¡ny": 8465,
      "ĠpÅĻÃŃjem": 8466,
      "Ġpustou": 8467,
      "zena": 8468,
      "ĠzuÅĻÃŃ": 8469,
      "ĠtÃ¡hly": 8470,
      "ĠvÃŃtÄĽznÃ½": 8471,
      "ĠnÄĽÅ¾nÄĽ": 8472,
      "ĠdruhÃ©ho": 8473,
      "ĠmladÃŃk": 8474,
      "Ġhvizd": 8475,
      "dni": 8476,
      "ĠseÅ¡li": 8477,
      "Ġnaj": 8478,
      "ĠzajÃ¡": 8479,
      "ĠnÃ¡la": 8480,
      "ĠobilÃŃ": 8481,
      "Ġnebu": 8482,
      "ĠtÃŃsni": 8483,
      "ĠslunÃŃ": 8484,
      "ĠÄįÃŃch": 8485,
      "Ġnejmi": 8486,
      "Ġhude": 8487,
      "Ġshnil": 8488,
      "Ġdomovu": 8489,
      "ĠstrÃ¡Å¾ce": 8490,
      "ĠstÅ¯nÄĽ": 8491,
      "Ġjinam": 8492,
      "raly": 8493,
      "ĠtotiÅ¾": 8494,
      "dol": 8495,
      "ĠceliÄį": 8496,
      "Ġrozle": 8497,
      "Ġtyra": 8498,
      "mor": 8499,
      "silo": 8500,
      "ĠtrvÃ¡": 8501,
      "ĠvÄĽrnÃ½ch": 8502,
      "ĠdÄĽtmi": 8503,
      "ĠrozkoÅ¡i": 8504,
      "Ġbalvany": 8505,
      "Ġidy": 8506,
      "Äįelo": 8507,
      "ĠÅ¾ivÃ½m": 8508,
      "Ġkusy": 8509,
      "ĠÄįili": 8510,
      "skÃ¡ch": 8511,
      "Ġnemohl": 8512,
      "ĠpsÃŃ": 8513,
      "leno": 8514,
      "Ġoc": 8515,
      "ĠpotÅ¯": 8516,
      "Ġrosu": 8517,
      "stÃ¡r": 8518,
      "ĠnimiÅ¾": 8519,
      "Ġouzko": 8520,
      "klÃ¡dÃ¡": 8521,
      "ĠnevinnÃ©": 8522,
      "Ġtlesk": 8523,
      "ĠorÃ¡": 8524,
      "Ġnetr": 8525,
      "ruÅ¡ÃŃ": 8526,
      "ĠpromÄĽnÃŃ": 8527,
      "dÄĽlÃ¡": 8528,
      "ĠdÃ¡na": 8529,
      "ĠnezmÄĽ": 8530,
      "Ġmnohem": 8531,
      "ÄįenÃ½ch": 8532,
      "ĠzlobÄĽ": 8533,
      "Ġpia": 8534,
      "ĠpyÅ¡nÃ©": 8535,
      "jatÃ©": 8536,
      "ĠzoufalÃ½": 8537,
      "Ġpoti": 8538,
      "ĠchlÃ©": 8539,
      "ĠvykÅĻik": 8540,
      "ĠvztÃ¡": 8541,
      "ĠÃºÄį": 8542,
      "Ġjedni": 8543,
      "syl": 8544,
      "Ġzvonek": 8545,
      "ĠkvÃŃtko": 8546,
      "ĠveselÃ¡": 8547,
      "Ġpasu": 8548,
      "ĠumÃŃrÃ¡nÃŃ": 8549,
      "Ġillu": 8550,
      "ĠnejdÅĻÃŃv": 8551,
      "Å¡nou": 8552,
      "Ġnesk": 8553,
      "ĠpoÅ¾ÃŃ": 8554,
      "jetÃŃ": 8555,
      "Ġpropas": 8556,
      "ĠbÃ¡zni": 8557,
      "Ġdrah": 8558,
      "Ġberou": 8559,
      "Ġmyslit": 8560,
      "ĠspÃ¡sa": 8561,
      "ĠvÃŃtÄĽzÃŃ": 8562,
      "ĠvrÃ¡tit": 8563,
      "Ġkrajiny": 8564,
      "ĠzdravÃ½": 8565,
      "Ġsteskem": 8566,
      "ĠotcÅ¯v": 8567,
      "ĠodpoÄįÃŃvÃ¡": 8568,
      "Ġton": 8569,
      "Ġroland": 8570,
      "ĠnoÄįnÃŃm": 8571,
      "Ġhlase": 8572,
      "Ġjedou": 8573,
      "Ġstromech": 8574,
      "Ġzlosti": 8575,
      "ĠvlÃ¡da": 8576,
      "ĠhrÃ¡m": 8577,
      "Ġskutky": 8578,
      "ĠpÅĻijmi": 8579,
      "ĠnenadÃ¡le": 8580,
      "Ġsoucitu": 8581,
      "nskÃ©": 8582,
      "tvÃŃ": 8583,
      "ĠtuhÃ½": 8584,
      "ĠtuhÃ©": 8585,
      "Ġrozev": 8586,
      "Ġpana": 8587,
      "Ġsplet": 8588,
      "Ġprstem": 8589,
      "ĠbÃ¡z": 8590,
      "Ġhes": 8591,
      "Ġhero": 8592,
      "ĠsnivÄĽ": 8593,
      "ĠhoÅĻkÃ½": 8594,
      "ĠÄįinÅ¯m": 8595,
      "leti": 8596,
      "rovat": 8597,
      "Ġnai": 8598,
      "Ġzahle": 8599,
      "ĠholÃŃ": 8600,
      "Ġlite": 8601,
      "ĠnÃ¡hlÃ½": 8602,
      "Ġpara": 8603,
      "ĠzÃ¡klad": 8604,
      "ĠsyÄįÃŃ": 8605,
      "ĠlukÃ¡ch": 8606,
      "ĠmilÃ½ch": 8607,
      "Ġvrchu": 8608,
      "ĠstrmÃŃ": 8609,
      "ĠdvÄĽma": 8610,
      "ĠandÄĽlÅ¯": 8611,
      "Ġchladu": 8612,
      "ĠzajistÃ©": 8613,
      "Ġnny": 8614,
      "Ġdlem": 8615,
      "ĠoÅĻ": 8616,
      "Ġlech": 8617,
      "Ġsvitem": 8618,
      "Ġhroznou": 8619,
      "ĠÅ¡atÄĽ": 8620,
      "ĠhlubokÃ¡": 8621,
      "ĠbratrÅ¯": 8622,
      "ĠchmurnÃ½": 8623,
      "Ġzmoc": 8624,
      "Ġhavran": 8625,
      "Ġotcov": 8626,
      "tru": 8627,
      "Ġpost": 8628,
      "ĠzamÄĽ": 8629,
      "Ġtor": 8630,
      "ĠpronikÃ¡": 8631,
      "ĠbohovÃ©": 8632,
      "Ġluka": 8633,
      "Ġklec": 8634,
      "Ġneuz": 8635,
      "ĠAXAXBB": 8636,
      "ĠÅ¡tÃŃhlÃ©": 8637,
      "Ġpomoz": 8638,
      "ĠÅ¾ezlo": 8639,
      "Na": 8640,
      "ĠNa": 8641,
      "ĠnahÃ½": 8642,
      "nÄĽnÃ½ch": 8643,
      "ĠrobÄĽ": 8644,
      "Ġprop": 8645,
      "Ġkotou": 8646,
      "Ġcet": 8647,
      "ĠvÃŃrem": 8648,
      "Ġnebud": 8649,
      "Ġusnul": 8650,
      "ĠvolnÃ½m": 8651,
      "ĠtÅĻicet": 8652,
      "ĠzmÄĽna": 8653,
      "ĠpÅĻemys": 8654,
      "ĠnevlÃŃ": 8655,
      "ĠÅ¾ivlÅ¯": 8656,
      "Ġprostoru": 8657,
      "ĠblÃŃzka": 8658,
      "ĠlÃŃbat": 8659,
      "ĠbÅĻÃŃzy": 8660,
      "ĠNaN": 8661,
      "lovi": 8662,
      "Ġvozu": 8663,
      "Ġnespo": 8664,
      "Ġsvor": 8665,
      "ĠÅ¾Ã¡dosti": 8666,
      "Ġvrahy": 8667,
      "ĠdruhÃ½m": 8668,
      "Ġstatku": 8669,
      "ĠblÃ¡zen": 8670,
      "ĠhlÃŃny": 8671,
      "anÃ©": 8672,
      "ĠvÄĽdÃŃ": 8673,
      "vÃ©mu": 8674,
      "Ġinu": 8675,
      "Ġlako": 8676,
      "ĠvÄĽÄįnÃ©ho": 8677,
      "ĠÅĻÅ¯": 8678,
      "ĠdivnÃ½ch": 8679,
      "ĠbudoucÃŃ": 8680,
      "Ġtlukou": 8681,
      "ĠmodlitbÄĽ": 8682,
      "Ġhromem": 8683,
      "ĠskÅĻivÃ¡n": 8684,
      "ĠtuÅ¾by": 8685,
      "ctva": 8686,
      "Ġvrak": 8687,
      "Ġjho": 8688,
      "Ġken": 8689,
      "ĠoÅĻi": 8690,
      "Ġchvo": 8691,
      "ĠvÄĽzÃŃ": 8692,
      "Ġrozli": 8693,
      "Ġrozpa": 8694,
      "ĠprvnÄĽ": 8695,
      "vÄĽtil": 8696,
      "Ġslovech": 8697,
      "Ġstromo": 8698,
      "Ġvracel": 8699,
      "ĠÅĻve": 8700,
      "Ġspojen": 8701,
      "zeno": 8702,
      "Ġpoklid": 8703,
      "ĠostÅĻe": 8704,
      "Ġzml": 8705,
      "ĠmoudrÃ©": 8706,
      "Ġvysly": 8707,
      "ĠÅ¡edÃ½ch": 8708,
      "Ġpovinnost": 8709,
      "bÃŃm": 8710,
      "Ġzabu": 8711,
      "ĠbystÅĻe": 8712,
      "ĠÅ¡ar": 8713,
      "ria": 8714,
      "ĠbÅĻeÄį": 8715,
      "ĠtisÃŃckrÃ¡t": 8716,
      "Ġpochmu": 8717,
      "ĠpustÃ½ch": 8718,
      "Ġmly": 8719,
      "rova": 8720,
      "ĠlÃŃpa": 8721,
      "ĠdivÃŃ": 8722,
      "Ġbel": 8723,
      "Ġpozve": 8724,
      "ĠÅ¾havÃ½ch": 8725,
      "Ġzbytky": 8726,
      "ĠdÅĻevÄĽ": 8727,
      "ÃŃnÃ¡": 8728,
      "Ġcnost": 8729,
      "ĠuÄįil": 8730,
      "ĠpÅĻijÃŃt": 8731,
      "ĠdaÅĪ": 8732,
      "Ġsochy": 8733,
      "Ġsmuten": 8734,
      "Ġkamsi": 8735,
      "ĠotevÃŃrÃ¡": 8736,
      "ĠhrÃ¡ly": 8737,
      "Ġzpod": 8738,
      "ĠvÃŃtej": 8739,
      "ĠsvÄĽdÄįÃŃ": 8740,
      "ĠÄįlun": 8741,
      "ĠÅ¾ilo": 8742,
      "ĠzÃ¡da": 8743,
      "ĠprÅ¡ÃŃ": 8744,
      "ĠsvÄĽtlÃ©": 8745,
      "ĠzpÃŃvÃ¡m": 8746,
      "Ġtroj": 8747,
      "ĠdalekÃ©": 8748,
      "ĠpenÃŃz": 8749,
      "tnÃ½m": 8750,
      "Å¡nÃ¡": 8751,
      "leni": 8752,
      "ÅĻik": 8753,
      "vovat": 8754,
      "luv": 8755,
      "ĠvÃŃrou": 8756,
      "ĠvÃŃdal": 8757,
      "Ġrozpla": 8758,
      "ÄįÃŃk": 8759,
      "Ġdruzi": 8760,
      "Ġspolku": 8761,
      "Ġeh": 8762,
      "ĠspÄĽjÃŃ": 8763,
      "ĠvÄĽrnost": 8764,
      "ĠblÃ¡to": 8765,
      "ĠhloÅ¾ÃŃ": 8766,
      "ĠpotÄĽÅ¡enÃŃ": 8767,
      "ĠpolibkÅ¯": 8768,
      "Ġvzteku": 8769,
      "ĠpobÃŃ": 8770,
      "ĠbolÅ¯": 8771,
      "ĠdÃ¡lek": 8772,
      "cÃŃtil": 8773,
      "zet": 8774,
      "Ġbyls": 8775,
      "biti": 8776,
      "ĠpÄĽny": 8777,
      "ĠjasmÃŃ": 8778,
      "Ġpromluvil": 8779,
      "ĠlÃŃstky": 8780,
      "desÃ¡t": 8781,
      "Ġcheru": 8782,
      "ÅĻelÃ©": 8783,
      "ĠhoÅ¡ÃŃ": 8784,
      "ĠstrastÃŃ": 8785,
      "ĠbiÄį": 8786,
      "ĠzpÄĽvÃ¡": 8787,
      "Ġskutku": 8788,
      "ĠzÃ¡pasu": 8789,
      "ĠvkrÃ¡": 8790,
      "Å¡uje": 8791,
      "Ġrohu": 8792,
      "ĠnÄĽkam": 8793,
      "Ġtudy": 8794,
      "ĠpÅĻetr": 8795,
      "hujÃŃ": 8796,
      "pej": 8797,
      "Ġosm": 8798,
      "ĠchtÄĽly": 8799,
      "ĠmrtvÃ½m": 8800,
      "ĠznÄĽnÃŃ": 8801,
      "ĠÅ¾havou": 8802,
      "ĠvzdechÅ¯": 8803,
      "Ġmodlitba": 8804,
      "Ġschop": 8805,
      "Ġfrancie": 8806,
      "ĠzÅĻej": 8807,
      "ĠpropasÅ¥": 8808,
      "AC": 8809,
      "zkou": 8810,
      "Ġvbo": 8811,
      "ĠnaÅ¡la": 8812,
      "Ġnavra": 8813,
      "ĠcenÃŃ": 8814,
      "ĠvlastÃŃ": 8815,
      "ĠÅ¡irÃ¡": 8816,
      "Ġzvonky": 8817,
      "ĠsÃ©": 8818,
      "Å¡len": 8819,
      "nutÃ½": 8820,
      "Ġnosil": 8821,
      "stila": 8822,
      "Ġvlada": 8823,
      "ĠnebeskÃ½": 8824,
      "Ġchor": 8825,
      "ĠhoÅĻkÃ©": 8826,
      "Ġdokonal": 8827,
      "ĠlkÃ¡t": 8828,
      "Ġzoufale": 8829,
      "ĠvlnobitÃŃ": 8830,
      "nenÃ¡": 8831,
      "Ġnedej": 8832,
      "Ġpomi": 8833,
      "Ġducho": 8834,
      "ĠvzpÃŃnÃ¡": 8835,
      "are": 8836,
      "Ġsokol": 8837,
      "ĠpusÅ¥": 8838,
      "veno": 8839,
      "ĠtÃŃmto": 8840,
      "padne": 8841,
      "Ġvelikou": 8842,
      "ĠvyhlÃŃ": 8843,
      "ĠÃºtÄĽchu": 8844,
      "ĠstÃ½skÃ¡": 8845,
      "Ġnachu": 8846,
      "ĠdosÃ¡": 8847,
      "tosti": 8848,
      "ĠÃºle": 8849,
      "ĠvÃ½zna": 8850,
      "Ġtouto": 8851,
      "ĠkvÄĽtnÃ©": 8852,
      "Ġsnah": 8853,
      "ĠklekÃ¡nÃŃ": 8854,
      "ĠoknÄĽ": 8855,
      "Ġlouky": 8856,
      "ĠstÅĻevÃŃ": 8857,
      "nÃŃkÅ¯m": 8858,
      "Ġzove": 8859,
      "ĠkalnÃ©": 8860,
      "ĠchvÃ¡ly": 8861,
      "ĠneslyÅ¡ÃŃ": 8862,
      "ĠodÅĻÃŃkÃ¡nÃŃ": 8863,
      "ĠoÄįekÃ¡": 8864,
      "ĠtÄĽÅ¡il": 8865,
      "Ġvor": 8866,
      "ĠvÃ½bo": 8867,
      "ĠvÃ½slu": 8868,
      "Ġdruhem": 8869,
      "ĠpÄĽn": 8870,
      "ĠplnÄĽ": 8871,
      "ĠchorÃ¡": 8872,
      "Ġdrav": 8873,
      "Å¾enÃ½m": 8874,
      "pÄĽje": 8875,
      "Ġhane": 8876,
      "Ġstrop": 8877,
      "ĠjarnÃŃm": 8878,
      "ĠnedÃ¡v": 8879,
      "ĠzastavÃŃ": 8880,
      "aje": 8881,
      "Ġki": 8882,
      "emi": 8883,
      "Ġstrak": 8884,
      "ĠrodnÃ¡": 8885,
      "ĠdÄĽdÅ¯": 8886,
      "Ġnejra": 8887,
      "ĠstraÅ¡ÃŃ": 8888,
      "Ġvlnami": 8889,
      "ĠpudÃŃ": 8890,
      "Ġtrne": 8891,
      "ĠsvÄĽtÃŃ": 8892,
      "ĠsnÄĽt": 8893,
      "ĠneumÃŃ": 8894,
      "ĠÅ¡Å¥astna": 8895,
      "ĠlesklÃ©": 8896,
      "Ġvichru": 8897,
      "ĠsrÅ¡ÃŃ": 8898,
      "Ġtvrdou": 8899,
      "Ġpoce": 8900,
      "ĠniÄįÃŃm": 8901,
      "Ġsnaha": 8902,
      "ĠslunnÃ½": 8903,
      "Ġostru": 8904,
      "ĠprÅ¯vodu": 8905,
      "Ġzrcadlo": 8906,
      "eÅ¡": 8907,
      "tly": 8908,
      "ĠzatÃŃ": 8909,
      "stit": 8910,
      "Ġpaho": 8911,
      "ĠzÃ¡blesk": 8912,
      "ĠpÅĻÃŃzeÅĪ": 8913,
      "ĠpÃ¡tra": 8914,
      "ĠnejlÃŃp": 8915,
      "Å¾eny": 8916,
      "ÄįenÃŃm": 8917,
      "ĠspÃ¡d": 8918,
      "ĠhroznÄĽ": 8919,
      "ĠABAXXB": 8920,
      "Ġbitvy": 8921,
      "bce": 8922,
      "ĠpÃ³": 8923,
      "tickÃ©": 8924,
      "Ġzej": 8925,
      "ÅĻÃ¡n": 8926,
      "Ġstopu": 8927,
      "ĠsvÃŃjÃŃ": 8928,
      "ĠmuÅ¾nÄĽ": 8929,
      "Ġtaju": 8930,
      "Ġdokto": 8931,
      "ĠozvÄĽna": 8932,
      "Ġutich": 8933,
      "dly": 8934,
      "dnÃ©m": 8935,
      "ĠvÄĽstÃŃ": 8936,
      "ĠdumÃ¡ch": 8937,
      "ĠvzpÃŃ": 8938,
      "Ġoddechu": 8939,
      "ĠmeÄįi": 8940,
      "ĠpohlÃ©": 8941,
      "Ġozve": 8942,
      "Ġzaku": 8943,
      "cÃŃmu": 8944,
      "ĠznÄĽjÃŃ": 8945,
      "ĠÅ¾havÃ½m": 8946,
      "ĠupÅĻÃŃ": 8947,
      "Ġmdloby": 8948,
      "ĠkorÃ¡b": 8949,
      "ĠpoÄįÃ¡tku": 8950,
      "Ġfrancouz": 8951,
      "ĠnedÅ¯vÄĽ": 8952,
      "mel": 8953,
      "Ġpodpo": 8954,
      "ĠbÃŃdnÄĽ": 8955,
      "ĠtrÃ¡vÃŃ": 8956,
      "Ġdvoru": 8957,
      "Ġzabloudil": 8958,
      "ĠpenÃŃze": 8959,
      "hi": 8960,
      "pati": 8961,
      "Ġpem": 8962,
      "ĠneÅĻek": 8963,
      "Ġveden": 8964,
      "Ġrohy": 8965,
      "Ġnezna": 8966,
      "Ġbed": 8967,
      "ĠptÃ¡t": 8968,
      "Å¡enou": 8969,
      "Ġplesem": 8970,
      "ĠhrudÃŃ": 8971,
      "Ġzisk": 8972,
      "Ġzrady": 8973,
      "ĠpÅĻijal": 8974,
      "ĠdruÅ¾ky": 8975,
      "ĠdveÅĻe": 8976,
      "Ġzaduma": 8977,
      "ĠlÃ©kaÅĻ": 8978,
      "ĠovÄĽn": 8979,
      "Ġhnul": 8980,
      "aku": 8981,
      "Ġzajde": 8982,
      "ĠnÃŃÅ¾e": 8983,
      "Ġprostou": 8984,
      "Ġtakhle": 8985,
      "ĠzasvÄĽ": 8986,
      "ĠstarÃ©ho": 8987,
      "Ġchuti": 8988,
      "ĠkÅ¯Å¾e": 8989,
      "ĠzmÄĽny": 8990,
      "ĠsklonÃŃ": 8991,
      "Ġvyhas": 8992,
      "ĠhnÃ¡t": 8993,
      "Ġjezdec": 8994,
      "Ġmelodi": 8995,
      "rko": 8996,
      "Ġonom": 8997,
      "livÃ½m": 8998,
      "ĠnÄĽmÄĽ": 8999,
      "Ġplatno": 9000,
      "Ġstolem": 9001,
      "Ġdobou": 9002,
      "Ġbrali": 9003,
      "ĠÅ¡ibeni": 9004,
      "ĠprotoÅ¾": 9005,
      "Ġchvilkou": 9006,
      "ĠzboÅ¾nÃ©": 9007,
      "ĠÃºtÄĽchy": 9008,
      "Ġpodep": 9009,
      "Ġzmizela": 9010,
      "Ġodhodla": 9011,
      "!?": 9012,
      "Ġocel": 9013,
      "ĠstÅĻem": 9014,
      "ĠbytÃŃ": 9015,
      "ĠpÅĻeÅ¡el": 9016,
      "ĠspÅĻe": 9017,
      "venÃ¡": 9018,
      "ĠznÃ¡mo": 9019,
      "ĠpokornÄĽ": 9020,
      "Ġhluboce": 9021,
      "ĠsluÅ¾bÄĽ": 9022,
      "Ġmramoru": 9023,
      "ĠspÅĻÃ¡dÃ¡": 9024,
      "Ġope": 9025,
      "Ġnest": 9026,
      "ĠvÄĽdy": 9027,
      "ĠsplÃ¡": 9028,
      "ĠvaÅ¡em": 9029,
      "Ġsmil": 9030,
      "ĠtÃ¡ch": 9031,
      "ĠnesÄįÃŃs": 9032,
      "ĠpozdÄĽj": 9033,
      "ĠsilnÃ¡": 9034,
      "ĠsÃ¡lÃ¡": 9035,
      "ĠvÄĽrnÃ½m": 9036,
      "ĠznajÃŃ": 9037,
      "ĠzmÄĽnil": 9038,
      "ĠneznÃ¡mÃ½ch": 9039,
      "Ġjezero": 9040,
      "ĠluznÃ½": 9041,
      "Ġztrnu": 9042,
      "ĠÅ¡veho": 9043,
      "Ġoto": 9044,
      "ĠnestÃ¡": 9045,
      "Ġpoda": 9046,
      "jet": 9047,
      "Ġvzta": 9048,
      "ĠvÃŃÅ¾e": 9049,
      "dÃ¡v": 9050,
      "ĠpadajÃŃ": 9051,
      "valu": 9052,
      "ĠÄįÃŃsti": 9053,
      "ĠhledÄĽla": 9054,
      "res": 9055,
      "Ġpohrd": 9056,
      "ĠloubÃŃ": 9057,
      "ĠhÃ½ÅĻÃŃ": 9058,
      "ĠulicÃŃ": 9059,
      "Ġpospolu": 9060,
      "nicky": 9061,
      "Ġobjal": 9062,
      "ĠmÃ¡to": 9063,
      "Ġdan": 9064,
      "ĠpÄĽvce": 9065,
      "ĠlÃ©tÄĽ": 9066,
      "ĠmlhÃ¡ch": 9067,
      "ĠdÃŃvÄįi": 9068,
      "ĠhrÃ¡ti": 9069,
      "ĠplujÃŃ": 9070,
      "Ġzbor": 9071,
      "ĠslouÅ¾it": 9072,
      "Ġjizbu": 9073,
      "ĠvloÅ¾il": 9074,
      "Ġdivadlo": 9075,
      "ĠstinnÃ©": 9076,
      "Ġkultu": 9077,
      "cujÃŃ": 9078,
      "eny": 9079,
      "ĠzapadÃ¡": 9080,
      "ĠbokÅ¯": 9081,
      "ĠjÃŃst": 9082,
      "ĠcÃŃlem": 9083,
      "Ġpouste": 9084,
      "pech": 9085,
      "ĠzÅĻÃŃtel": 9086,
      "ĠsmutnÃ½ch": 9087,
      "ĠspÄĽla": 9088,
      "ĠstejnÃ½": 9089,
      "ĠhoÅĻÃŃcÃŃ": 9090,
      "Ġrakve": 9091,
      "Ġbytosti": 9092,
      "ĠhvÃŃzdÃ¡": 9093,
      "Ġdojde": 9094,
      "niku": 9095,
      "ĠtiÅ¡ÃŃ": 9096,
      "ĠvÄĽda": 9097,
      "Ġobro": 9098,
      "Ġobno": 9099,
      "ĠdÄĽku": 9100,
      "ĠpÅĻiv": 9101,
      "ĠsÃŃdlo": 9102,
      "Ġfer": 9103,
      "Ġchytil": 9104,
      "hneÅ¡": 9105,
      "ĠbrÃ¡nÄĽ": 9106,
      "Ġstrh": 9107,
      "ĠvelkÃ©ho": 9108,
      "ĠdÃ½chal": 9109,
      "Ġrevoluce": 9110,
      "Ġkata": 9111,
      "ĠdvÃŃ": 9112,
      "Ġnedale": 9113,
      "ĠuÅ¾i": 9114,
      "ĠnÃŃÅ¾ÃŃ": 9115,
      "Ġkomi": 9116,
      "dajÃŃcÃŃ": 9117,
      "ĠpraskÃ¡": 9118,
      "Ġjaru": 9119,
      "Ġpurk": 9120,
      "ĠÅ¡umu": 9121,
      "ĠmlÃ¡zÃŃ": 9122,
      "ĠnevÄĽstu": 9123,
      "Ġprchla": 9124,
      "mysl": 9125,
      "Ġhanby": 9126,
      "ĠpodivnÃ½": 9127,
      "ĠrajskÃ©": 9128,
      "ĠdoprovÃ¡": 9129,
      "ĠzapomÃŃnÃ¡": 9130,
      "Ġchru": 9131,
      "ĠjakÃ½ch": 9132,
      "ĠurÃ¡": 9133,
      "novÃ½": 9134,
      "ĠkozÃ¡": 9135,
      "ĠskÃ½m": 9136,
      "lÃ½vÃ¡": 9137,
      "ĠÅ¾ÃŃly": 9138,
      "Ġhukot": 9139,
      "ĠzÅĻÃŃme": 9140,
      "Ġskoku": 9141,
      "ĠsluncÃŃ": 9142,
      "Ġpokli": 9143,
      "ĠklÃŃna": 9144,
      "ĠschrÃ¡": 9145,
      "ĠvÄĽtvÃŃch": 9146,
      "ĠzdvÃŃhÃ¡": 9147,
      "Ġoha": 9148,
      "Ġtoku": 9149,
      "tesk": 9150,
      "Ġvesla": 9151,
      "ĠpÅĻekÃ¡": 9152,
      "ĠroztÅĻÃŃ": 9153,
      "ĠkrÃ¡m": 9154,
      "ceno": 9155,
      "Ġtram": 9156,
      "Ġnapsal": 9157,
      "ĠchÅ¯zi": 9158,
      "ĠstenÃ¡": 9159,
      "Ġzch": 9160,
      "Ġstvol": 9161,
      "Ġroce": 9162,
      "Ġlich": 9163,
      "Ġvzbudil": 9164,
      "ĠranÃŃ": 9165,
      "Ġzaslou": 9166,
      "ĠstÃ¡lÃ©m": 9167,
      "ĠflÃ©t": 9168,
      "ĠpÄĽna": 9169,
      "panÃ©": 9170,
      "ĠmodrÃ©m": 9171,
      "Ġvran": 9172,
      "rio": 9173,
      "ĠjarnÃŃch": 9174,
      "Ġpluky": 9175,
      "ÄįÃŃme": 9176,
      "ĠbolnÄĽ": 9177,
      "ĠotevÅĻe": 9178,
      "Ġbratrem": 9179,
      "ĠcÃŃsaÅĻi": 9180,
      "Ġzhyne": 9181,
      "Ġharfy": 9182,
      "mnÃŃ": 9183,
      "Ġzalo": 9184,
      "Ġustr": 9185,
      "ĠproÄįeÅ¾": 9186,
      "ĠkonÃ¡": 9187,
      "....": 9188,
      "Ġlila": 9189,
      "ĠÄįekala": 9190,
      "ĠrudÄĽ": 9191,
      "Ġkrb": 9192,
      "ĠÅ¡ÃŃÅ¡": 9193,
      "Ġmlat": 9194,
      "Ġvelice": 9195,
      "Ġjemnou": 9196,
      "Ġkardi": 9197,
      "Ġdrozd": 9198,
      "ĠÅ¡patnÄĽ": 9199,
      "ĠmlÃ¡denec": 9200,
      "leny": 9201,
      "Ġis": 9202,
      "Ġrozer": 9203,
      "ĠpeÅĻe": 9204,
      "Ġfri": 9205,
      "ĠpÅ¯li": 9206,
      "Ġokla": 9207,
      "ĠmocnÃ½ch": 9208,
      "Ġkristo": 9209,
      "ĠdÄĽsnÄĽ": 9210,
      "bily": 9211,
      "Ġfili": 9212,
      "ĠbÃ¡snÃŃka": 9213,
      "ĠnaslouchÃ¡": 9214,
      "ĠÅ¡pina": 9215,
      "Ġnejisto": 9216,
      "ĠvÄĽkem": 9217,
      "ĠmÃŃval": 9218,
[...]
