{
  "version": "1.0",
  "truncation": null,
  "padding": null,
  "added_tokens": [
    {
      "id": 0,
      "content": "<|EOS|>",
      "single_word": false,
      "lstrip": false,
      "rstrip": false,
      "normalized": false,
      "special": true
    },
    {
      "id": 1,
      "content": "<|PAD|>",
      "single_word": false,
      "lstrip": false,
      "rstrip": false,
      "normalized": false,
      "special": true
    },
    {
      "id": 2,
      "content": "<|UNK|>",
      "single_word": false,
      "lstrip": false,
      "rstrip": false,
      "normalized": false,
      "special": true
    },
    {
      "id": 3,
      "content": "<|CLS|>",
      "single_word": false,
      "lstrip": false,
      "rstrip": false,
      "normalized": false,
      "special": true
    }
  ],
  "normalizer": null,
  "pre_tokenizer": {
    "type": "ByteLevel",
    "add_prefix_space": false,
    "trim_offsets": true,
    "use_regex": true
  },
  "post_processor": {
    "type": "RobertaProcessing",
    "sep": [
      "<|EOS|>",
      0
    ],
    "cls": [
      "<|CLS|>",
      3
    ],
    "trim_offsets": false,
    "add_prefix_space": false
  },
  "decoder": {
    "type": "ByteLevel",
    "add_prefix_space": true,
    "trim_offsets": true,
    "use_regex": true
  },
  "model": {
    "type": "BPE",
    "dropout": null,
    "unk_token": null,
    "continuing_subword_prefix": null,
    "end_of_word_suffix": null,
    "fuse_unk": false,
    "byte_fallback": false,
    "vocab": {
      "<|EOS|>": 0,
      "<|PAD|>": 1,
      "<|UNK|>": 2,
      "<|CLS|>": 3,
      "!": 4,
      "\"": 5,
      "#": 6,
      "&": 7,
      "'": 8,
      "(": 9,
      ")": 10,
      "*": 11,
      "+": 12,
      ",": 13,
      "-": 14,
      ".": 15,
      "/": 16,
      "0": 17,
      "1": 18,
      "2": 19,
      "3": 20,
      "4": 21,
      "5": 22,
      "6": 23,
      "7": 24,
      "8": 25,
      "9": 26,
      ":": 27,
      ";": 28,
      "<": 29,
      "=": 30,
      ">": 31,
      "?": 32,
      "A": 33,
      "B": 34,
      "C": 35,
      "D": 36,
      "E": 37,
      "F": 38,
      "G": 39,
      "H": 40,
      "I": 41,
      "J": 42,
      "K": 43,
      "L": 44,
      "M": 45,
      "N": 46,
      "O": 47,
      "P": 48,
      "Q": 49,
      "R": 50,
      "S": 51,
      "T": 52,
      "U": 53,
      "V": 54,
      "W": 55,
      "X": 56,
      "Y": 57,
      "Z": 58,
      "[": 59,
      "]": 60,
      "_": 61,
      "a": 62,
      "b": 63,
      "c": 64,
      "d": 65,
      "e": 66,
      "f": 67,
      "g": 68,
      "h": 69,
      "i": 70,
      "j": 71,
      "k": 72,
      "l": 73,
      "m": 74,
      "n": 75,
      "o": 76,
      "p": 77,
      "q": 78,
      "r": 79,
      "s": 80,
      "t": 81,
      "u": 82,
      "v": 83,
      "w": 84,
      "x": 85,
      "y": 86,
      "z": 87,
      "|": 88,
      "¡": 89,
      "¢": 90,
      "£": 91,
      "¤": 92,
      "¥": 93,
      "§": 94,
      "¨": 95,
      "©": 96,
      "ª": 97,
      "«": 98,
      "®": 99,
      "¯": 100,
      "°": 101,
      "±": 102,
      "³": 103,
      "´": 104,
      "µ": 105,
      "¶": 106,
      "º": 107,
      "¼": 108,
      "½": 109,
      "¾": 110,
      "¿": 111,
      "Â": 112,
      "Ã": 113,
      "Ä": 114,
      "Å": 115,
      "Ë": 116,
      "Î": 117,
      "Ï": 118,
      "Ð": 119,
      "â": 120,
      "Ċ": 121,
      "Ġ": 122,
      "Ģ": 123,
      "ģ": 124,
      "Ĥ": 125,
      "ĥ": 126,
      "Ħ": 127,
      "ħ": 128,
      "Ĩ": 129,
      "ĩ": 130,
      "Ī": 131,
      "ī": 132,
      "Ĭ": 133,
      "ĭ": 134,
      "Į": 135,
      "į": 136,
      "İ": 137,
      "ı": 138,
      "Ĵ": 139,
      "ĵ": 140,
      "Ķ": 141,
      "ķ": 142,
      "ĸ": 143,
      "ĺ": 144,
      "Ļ": 145,
      "ļ": 146,
      "Ľ": 147,
      "ľ": 148,
      "Ŀ": 149,
      "ŀ": 150,
      "Ł": 151,
      "ł": 152,
      "Ń": 153,
      "Ġ#": 154,
      "Ġn": 155,
      "Ġs": 156,
      "<|": 157,
      "|>": 158,
      "Ġv": 159,
      "ÃŃ": 160,
      "Ġt": 161,
      "Ġk": 162,
      "Ã¡": 163,
      "Ġd": 164,
      "ÄĽ": 165,
      "Ġp": 166,
      "Ġj": 167,
      "ST": 168,
      "Ġm": 169,
      "Ġl": 170,
      "Ġz": 171,
      "ĠÅ": 172,
      "ch": 173,
      "Ġb": 174,
      "RO": 175,
      "Ġh": 176,
      "ME": 177,
      "HE": 178,
      "STRO": 179,
      "STROP": 180,
      "STROPHE": 181,
      "Ã½": 182,
      "ou": 183,
      "Äį": 184,
      "Ã©": 185,
      "AR": 186,
      "ÅĻ": 187,
      "Ġa": 188,
      "XX": 189,
      "Ġr": 190,
      "la": 191,
      "Å¾": 192,
      "Ġst": 193,
      "Ġc": 194,
      "Ġje": 195,
      "Å¡": 196,
      "Ġse": 197,
      "ra": 198,
      "Ġne": 199,
      "EN": 200,
      "Ġna": 201,
      "ER": 202,
      "STAR": 203,
      "TER": 204,
      "HY": 205,
      "END": 206,
      "RHY": 207,
      "METER": 208,
      "START": 209,
      "RHYME": 210,
      "ĠÅ¾": 211,
      "em": 212,
      "ĠÅ¡": 213,
      "AB": 214,
      "Ġo": 215,
      "st": 216,
      "ĠÄį": 217,
      "Ġpo": 218,
      "Å¯": 219,
      "le": 220,
      "Ġch": 221,
      "ro": 222,
      "ĠJ": 223,
      "ak": 224,
      "ĠnÃŃ": 225,
      "en": 226,
      "Ġko": 227,
      "li": 228,
      "XXXX": 229,
      "Ġsv": 230,
      "LE": 231,
      "Ġho": 232,
      "HO": 233,
      "Ġle": 234,
      "TI": 235,
      "Ġ1": 236,
      "ÅĻe": 237,
      "UT": 238,
      "HOR": 239,
      "TIT": 240,
      "AUT": 241,
      "EAR": 242,
      "YEAR": 243,
      "TITLE": 244,
      "AUTHOR": 245,
      "Ġce": 246,
      "Ġza": 247,
      "ĠÅĻ": 248,
      "Ġli": 249,
      "ĠnÄĽ": 250,
      "Ġdo": 251,
      "Ġto": 252,
      "al": 253,
      "Ġti": 254,
      "rÃ¡": 255,
      "Ġby": 256,
      "ĠnÃ¡": 257,
      "ne": 258,
      "lo": 259,
      "ĠÅ¾e": 260,
      "Ġka": 261,
      "va": 262,
      "ni": 263,
      "ĠnÃ½": 264,
      "Ġji": 265,
      "Ġno": 266,
      "Ġte": 267,
      "Ġla": 268,
      "Ġmi": 269,
      "ĠAB": 270,
      "ĠT": 271,
      "ĠA": 272,
      "ÅĻi": 273,
      "vÄĽ": 274,
      "Ġu": 275,
      "Ġro": 276,
      "Ġve": 277,
      "Ġta": 278,
      "ĠjÃŃ": 279,
      "Ġkd": 280,
      "lu": 281,
      "Ġ19": 282,
      "Ġni": 283,
      "ĠnÃ©": 284,
      "XA": 285,
      "ti": 286,
      "ĠvÄĽ": 287,
      "ĠvÅ¡": 288,
      "ĠtÄĽ": 289,
      "Ġky": 290,
      "nÄĽ": 291,
      "ĠvÃ¡": 292,
      "Ġku": 293,
      "ĠÅ¡e": 294,
      "Ġlo": 295,
      "ru": 296,
      "ÅĻÃŃ": 297,
      "ĠABAB": 298,
      "Ġsk": 299,
      "Ġvo": 300,
      "na": 301,
      "Ġjak": 302,
      "Ġvy": 303,
      "ĠÄįe": 304,
      "Ġmu": 305,
      "Ġmo": 306,
      "Ġdu": 307,
      "il": 308,
      "Ġva": 309,
      "Ġjs": 310,
      "ĠtÃŃ": 311,
      "ĠdÄĽ": 312,
      "ĠvÃŃ": 313,
      "Ġde": 314,
      "lÃ¡": 315,
      "Ġpro": 316,
      "sk": 317,
      "Ġbo": 318,
      "Ġpa": 319,
      "Ġja": 320,
      "Ġze": 321,
      "vo": 322,
      "Ġvz": 323,
      "Ġtu": 324,
      "ĠmÄĽ": 325,
      "ĠdÃŃ": 326,
      "Ġnou": 327,
      "ĠdÃ¡": 328,
      "Å¥": 329,
      "Ġci": 330,
      "vi": 331,
      "Ġma": 332,
      "ka": 333,
      "to": 334,
      "ĠV": 335,
      "Ġru": 336,
      "Ġnu": 337,
      "te": 338,
      "Ġsp": 339,
      "Ġjen": 340,
      "Ã½ch": 341,
      "Ġbe": 342,
      "no": 343,
      "ĠcÃŃ": 344,
      "Ġme": 345,
      "XXXXXXXX": 346,
      "je": 347,
      "Ġvi": 348,
      "Ġsta": 349,
      "Ġdi": 350,
      "Ġco": 351,
      "ĠpÅĻe": 352,
      "ĠmÃ¡": 353,
      "ĠÅ¡ÃŃ": 354,
      "se": 355,
      "Ġtv": 356,
      "00": 357,
      "ce": 358,
      "Ġ1900": 359,
      "Ġkdy": 360,
      "da": 361,
      "Ġi": 362,
      "ly": 363,
      "Ġda": 364,
      "ĠS": 365,
      "tÄĽ": 366,
      "Ġny": 367,
      "Ġsi": 368,
      "nÃŃ": 369,
      "ĠÅĻe": 370,
      "ĠÅ¾i": 371,
      "lav": 372,
      "Ġty": 373,
      "ji": 374,
      "ĠÄįÃŃ": 375,
      "Ġbu": 376,
      "ĠlÃ¡": 377,
      "Ġ18": 378,
      "Ġra": 379,
      "ve": 380,
      "du": 381,
      "ĠN": 382,
      "ĠlÃŃ": 383,
      "ĠvÅ¡e": 384,
      "ĠÄįi": 385,
      "ĠXA": 386,
      "ma": 387,
      "ĠkÃ¡": 388,
      "Ġdy": 389,
      "ĠK": 390,
      "de": 391,
      "Ġsm": 392,
      "ci": 393,
      "ĠrÃ¡": 394,
      "Ġsti": 395,
      "ĠÅĻÃŃ": 396,
      "Ġly": 397,
      "Ã½m": 398,
      "ĠmÃŃ": 399,
      "lÃŃ": 400,
      "Äı": 401,
      "ta": 402,
      "ÅĪ": 403,
      "ĠÃ": 404,
      "lou": 405,
      "CD": 406,
      "di": 407,
      "ĠkrÃ¡": 408,
      "dy": 409,
      "ho": 410,
      "do": 411,
      "mi": 412,
      "ĠÅ¾ÃŃ": 413,
      "Ġtak": 414,
      "ĠXAXA": 415,
      "ĠsvÄĽ": 416,
      "Ġhla": 417,
      "ĠzÃ¡": 418,
      "Ġha": 419,
      "ny": 420,
      "Ġjsem": 421,
      "ĠbÄĽ": 422,
      "ĠP": 423,
      "Å¡e": 424,
      "ko": 425,
      "po": 426,
      "ĠsÃŃ": 427,
      "ĠAAB": 428,
      "ar": 429,
      "ĠstÃŃ": 430,
      "ĠvÃ½": 431,
      "ĠpÅĻi": 432,
      "Ġsa": 433,
      "Ġkou": 434,
      "rd": 435,
      "vÃŃ": 436,
      "ĠvÃ©": 437,
      "ry": 438,
      "nu": 439,
      "ĠM": 440,
      "sti": 441,
      "ĠkdyÅ¾": 442,
      "ĠtÃ¡": 443,
      "20": 444,
      "ĠkÃ©": 445,
      "Å¾i": 446,
      "ku": 447,
      "Ġhle": 448,
      "Ġpr": 449,
      "Ġpe": 450,
      "bo": 451,
      "ĠÅ¡i": 452,
      "ĠjÃ¡": 453,
      "ĠtÃ©": 454,
      "Ġod": 455,
      "Ġlu": 456,
      "ĠD": 457,
      "Ġmy": 458,
      "Ġpra": 459,
      "Ġ1920": 460,
      "dÄĽ": 461,
      "pa": 462,
      "Å¯j": 463,
      "ĠlÃ©": 464,
      "Ġba": 465,
      "Ġ188": 466,
      "Ġ1880": 467,
      "Äįi": 468,
      "Ġhu": 469,
      "Äįe": 470,
      "me": 471,
      "slav": 472,
      "ĠpÃŃ": 473,
      "ha": 474,
      "ky": 475,
      "Ġroz": 476,
      "Ġtr": 477,
      "Ġcho": 478,
      "ĠsvÃ©": 479,
      "ĠJa": 480,
      "ĠvÅ¡ak": 481,
      "Ġsy": 482,
      "nou": 483,
      "Ġvs": 484,
      "vy": 485,
      "Ġkde": 486,
      "ĠnÃ½ch": 487,
      "Ġten": 488,
      "Ġsto": 489,
      "ĠbÃŃ": 490,
      "mÄĽ": 491,
      "Ãį": 492,
      "ĠAABB": 493,
      "as": 494,
      "CC": 495,
      "ĠpÃ¡": 496,
      "ĠhÃ¡": 497,
      "Ġkr": 498,
      "Ġsu": 499,
      "Ġsrd": 500,
      "Ġchu": 501,
      "Ġso": 502,
      "lÃ©": 503,
      "Ġvu": 504,
      "ĠÃº": 505,
      "Ġzp": 506,
      "Ġf": 507,
      "Ġry": 508,
      "ĠstÃ¡": 509,
      "Ġtam": 510,
      "ĠÅĻi": 511,
      "ĠH": 512,
      "ĠAA": 513,
      "lad": 514,
      "ĠkÅ¯": 515,
      "ĠpÄĽ": 516,
      "ĠzÃŃ": 517,
      "ĠkÃ½": 518,
      "sta": 519,
      "Å¡i": 520,
      "ĠB": 521,
      "ĠjiÅ¾": 522,
      "Ġbi": 523,
      "ĠpÅĻÃŃ": 524,
      "mo": 525,
      "mu": 526,
      "nÃ¡": 527,
      "Ġnad": 528,
      "ĠJo": 529,
      "sef": 530,
      "II": 531,
      "ĠJosef": 532,
      "Ãģ": 533,
      "ĠjeÅ¾": 534,
      "Ġbyl": 535,
      "Ġkem": 536,
      "vÄĽt": 537,
      "Ġtou": 538,
      "Ġslu": 539,
      "BA": 540,
      "Ġpu": 541,
      "ĠX": 542,
      "Ġhy": 543,
      "Ġpla": 544,
      "Ġre": 545,
      "ĠsÃ¡": 546,
      "Ġste": 547,
      "ran": 548,
      "Ġvp": 549,
      "ĠmÃ©": 550,
      "ĠF": 551,
      "Ġvla": 552,
      "Ġbou": 553,
      "ck": 554,
      "si": 555,
      "ĠvÅ¾": 556,
      "er": 557,
      "vu": 558,
      "Ġzd": 559,
      "ĠlÃ½": 560,
      "ĠJaro": 561,
      "by": 562,
      "ĠZ": 563,
      "ĠlÃ¡s": 564,
      "ĠnÃ½m": 565,
      "Ġval": 566,
      "Ġdou": 567,
      "rch": 568,
      "bi": 569,
      "Ġbra": 570,
      "Ġtem": 571,
      "XXXXXXXXXXXXXXXX": 572,
      "Ġkte": 573,
      "ckÃ½": 574,
      "ĠbÃ¡": 575,
      "40": 576,
      "Ġpod": 577,
      "Ġslo": 578,
      "Ġkdo": 579,
      "el": 580,
      "Ġzla": 581,
      "Ġcha": 582,
      "Ġbez": 583,
      "ĠdÃ©": 584,
      "ĠJaroslav": 585,
      "Ġdra": 586,
      "ĠÄįer": 587,
      "ĠdÃ½": 588,
      "ĠvÅ¾dy": 589,
      "Ġg": 590,
      "Ġzra": 591,
      "pi": 592,
      "ĠjenÅ¾": 593,
      "ĠnÃŃm": 594,
      "ĠABBA": 595,
      "Ġkle": 596,
      "Ġpak": 597,
      "skÃ½": 598,
      "tu": 599,
      "ty": 600,
      "ĠtÃ½": 601,
      "Ġzas": 602,
      "Ġzi": 603,
      "Ġhro": 604,
      "vÃ¡": 605,
      "Ġe": 606,
      "ÄĮ": 607,
      "ĠaÅ¾": 608,
      "Ġlem": 609,
      "Ġsou": 610,
      "lÃ½": 611,
      "Ġjich": 612,
      "ĠXXXX": 613,
      "Ġmne": 614,
      "Ġvou": 615,
      "ĠpÅĻed": 616,
      "lickÃ½": 617,
      "ĠVrch": 618,
      "ĠVrchlickÃ½": 619,
      "CDD": 620,
      "Ġden": 621,
      "ĠÃ³": 622,
      "Ġpou": 623,
      "ĠnÃ¡m": 624,
      "luk": 625,
      "Å¡ek": 626,
      "nes": 627,
      "sa": 628,
      "vz": 629,
      "Ġkla": 630,
      "Ġhou": 631,
      "rou": 632,
      "Ġsl": 633,
      "ĠO": 634,
      "Ġ(": 635,
      "led": 636,
      "Ġspo": 637,
      "ĠtvÃ¡": 638,
      "Ġjed": 639,
      "ĠchÃ¡": 640,
      "pÄĽ": 641,
      "vÄĽz": 642,
      "Ġsva": 643,
      "ĠÄįa": 644,
      "ĠrÅ¯": 645,
      "ĠprÃ¡": 646,
      "ĠL": 647,
      "Ġlou": 648,
      "bu": 649,
      "Ġjest": 650,
      "Ġsla": 651,
      "Ġbla": 652,
      "eni": 653,
      "Äļ": 654,
      "Ġhra": 655,
      "ĠjeÅ¡": 656,
      "Ġpi": 657,
      "kra": 658,
      "Ġsem": 659,
      "Ġsna": 660,
      "ĠteÄı": 661,
      "Ġzo": 662,
      "Ġpl": 663,
      "ĠFran": 664,
      "Ġstu": 665,
      "dol": 666,
      "ĠFranti": 667,
      "be": 668,
      "ĠFrantiÅ¡ek": 669,
      "Ġsly": 670,
      "hu": 671,
      "ĠuÅ¾": 672,
      "ĠkaÅ¾": 673,
      "EF": 674,
      "ĠÅ¡el": 675,
      "re": 676,
      "Ġsvo": 677,
      "ba": 678,
      "zi": 679,
      "ĠSva": 680,
      "ĠMa": 681,
      "Å¯m": 682,
      "Ġvt": 683,
      "top": 684,
      "ĠdÄĽl": 685,
      "dolf": 686,
      "Ġvra": 687,
      "ÅĻÃ¡": 688,
      "Ġjej": 689,
      ".)": 690,
      "topluk": 691,
      "ĠSvatopluk": 692,
      "ĠplÃ¡": 693,
      "val": 694,
      "Ġchy": 695,
      "ĠrÃ©": 696,
      "Ġdru": 697,
      "Ġkra": 698,
      "ĠtÅĻe": 699,
      "Ġjsi": 700,
      "Ġdla": 701,
      "Ġsvou": 702,
      "ĠbÃ½": 703,
      "bÄĽ": 704,
      "Ġjsou": 705,
      "Ġhr": 706,
      "ĠXX": 707,
      "Ġon": 708,
      "ĠtvÃ©": 709,
      "ĠskÃ©": 710,
      "Ġlid": 711,
      "ĠtÃŃm": 712,
      "Ġzu": 713,
      "les": 714,
      "ĠvÅ¯": 715,
      "Ġstra": 716,
      "ĠmÅ¯j": 717,
      "60": 718,
      "ste": 719,
      "Ġvel": 720,
      "ey": 721,
      "ĠnÃ©m": 722,
      "ĠmÅ¯": 723,
      "hy": 724,
      "lid": 725,
      "Ġvl": 726,
      "Å¾e": 727,
      "ĠvÅ¡ech": 728,
      "Ġdr": 729,
      "Ġslun": 730,
      "ze": 731,
      "ĠneÅ¾": 732,
      "Ġke": 733,
      "Ġzde": 734,
      "Ġtvo": 735,
      "pla": 736,
      "Ġnech": 737,
      "ĠAdolf": 738,
      "ĠrÃ½": 739,
      "ĠÅ¾Ã¡": 740,
      "Ġbych": 741,
      "pra": 742,
      "ĠhvÄĽz": 743,
      "my": 744,
      "Ġstro": 745,
      "ĠmnÄĽ": 746,
      "Ġnej": 747,
      "Ġsnad": 748,
      "ĠR": 749,
      "XB": 750,
      "ĠAn": 751,
      "Ġzvo": 752,
      "cha": 753,
      "Ġvk": 754,
      "CCDD": 755,
      "ĠvÅ¡ec": 756,
      "Ġ1940": 757,
      "ĠstÄĽ": 758,
      "char": 759,
      "Ġmra": 760,
      "Ġdem": 761,
      "ĠaÅ¥": 762,
      "ĠÄĮ": 763,
      "bra": 764,
      "ĠchvÃŃ": 765,
      "Ġrou": 766,
      "Ġzem": 767,
      "Ġnem": 768,
      "ĠkvÄĽ": 769,
      "Ġmr": 770,
      "tÃ¡": 771,
      "cho": 772,
      "Ġjem": 773,
      "Ġbr": 774,
      "chu": 775,
      "Ġhe": 776,
      "Ġkro": 777,
      "Ġdnes": 778,
      "Ġdal": 779,
      "ĠMachar": 780,
      "ut": 781,
      "Ġzy": 782,
      "CDCD": 783,
      "CCB": 784,
      "hla": 785,
      "ĠstÅĻe": 786,
      "ĠAnto": 787,
      "ĠvÄĽÄį": 788,
      "ĠhÃ½": 789,
      "ĠkrÃ¡s": 790,
      "Ġob": 791,
      "Ġtra": 792,
      "ĠAntonÃŃ": 793,
      "Ġzt": 794,
      "za": 795,
      "Ġmou": 796,
      "ĠAntonÃŃn": 797,
      "Ġjsme": 798,
      "ĠsÃ¡m": 799,
      "ĠkÅĻÃŃ": 800,
      "Ġdlou": 801,
      "ĠnÃ¡s": 802,
      "duk": 803,
      "ĠHey": 804,
      "ĠHeyduk": 805,
      "Ġtro": 806,
      "ĠsnÃŃ": 807,
      "Ġkol": 808,
      "ĠvÃ¡m": 809,
      "ĠsvÄĽt": 810,
      "vou": 811,
      "Å¾en": 812,
      "Ġslad": 813,
      "lem": 814,
      "Ġdle": 815,
      "ĠdÃ¡l": 816,
      "ĠbÅ¯": 817,
      "Ġsmr": 818,
      "Ġvot": 819,
      "Ġvd": 820,
      "Ġvst": 821,
      "ĠstvÃŃ": 822,
      "Ġmla": 823,
      "Ġkam": 824,
      "vÃ©": 825,
      "Ġstr": 826,
      "Ġsli": 827,
      "ĠE": 828,
      "ĠchvÄĽ": 829,
      "ĠzÅĻÃŃ": 830,
      "Ġtel": 831,
      "Ġneb": 832,
      "Ġstou": 833,
      "Ġvr": 834,
      "ĠJan": 835,
      "ĠNe": 836,
      "men": 837,
      "ĠÅ¡tÄĽ": 838,
      "NÃį": 839,
      "Ġmat": 840,
      "ĠhÃ©": 841,
      "Ġnik": 842,
      "ĠsvÃŃ": 843,
      "Ġmno": 844,
      "mÃŃ": 845,
      "ĠslÃ¡": 846,
      "Åĺ": 847,
      "ĠKar": 848,
      "hra": 849,
      "Ġml": 850,
      "ĠtÅ¯": 851,
      "Ġpy": 852,
      "Ã¡l": 853,
      "Ġpoz": 854,
      "Ġhlu": 855,
      "sy": 856,
      "ĠKarel": 857,
      "ĠzpÄĽ": 858,
      "ĠnÅ¯": 859,
      "Ġnost": 860,
      "Ġnes": 861,
      "Ġjim": 862,
      "Ã¡c": 863,
      "ĠptÃ¡": 864,
      "ĠznÃ¡": 865,
      "..": 866,
      "Ġnez": 867,
      "ĠchtÄĽ": 868,
      "Ġtom": 869,
      "ĠcÃŃch": 870,
      "ĠvrÃ¡": 871,
      "ĠmÄĽl": 872,
      "Ġmlu": 873,
      "Ġtil": 874,
      "ĠvÅĻe": 875,
      "Ġsle": 876,
      "sÅ¥": 877,
      "Ġjas": 878,
      "ÅĻa": 879,
      "nem": 880,
      "Ġvh": 881,
      "nich": 882,
      "Ġzda": 883,
      "Ãī": 884,
      "ja": 885,
      "Ġvpo": 886,
      "Ġnul": 887,
      "Ġklo": 888,
      "Ġju": 889,
      "ĠC": 890,
      "ĠpÃŃs": 891,
      "ĠleÄį": 892,
      "Ġzlo": 893,
      "ĠÅ¡le": 894,
      "ĠskÃ¡": 895,
      "OV": 896,
      "tÃŃ": 897,
      "Ġspa": 898,
      "Ġnic": 899,
      "ĠdÅ¯": 900,
      "ĠbÅĻe": 901,
      "Ġ1860": 902,
      "nÃ©": 903,
      "ĠAXA": 904,
      "Ġchem": 905,
      "Ġsko": 906,
      "Ġble": 907,
      "ĠdÅĻÃŃ": 908,
      "ĠbrÃ¡": 909,
      "ĠsvÅ¯j": 910,
      "Ġdiv": 911,
      "ned": 912,
      "ĠlÅ¯": 913,
      "Ġks": 914,
      "ĠbÅ¯h": 915,
      "ĠABABCDCD": 916,
      "Ġzk": 917,
      "Ġsmut": 918,
      "ĠtÅĻÃŃ": 919,
      "ĠI": 920,
      "ÃĿ": 921,
      "ĠnÄĽj": 922,
      "Ġvto": 923,
      "ĠÄįlo": 924,
      "ĠblÃŃ": 925,
      "zem": 926,
      "Ġmar": 927,
      "Ġsty": 928,
      "ĠvlÃ¡": 929,
      "ĠsmÄĽ": 930,
      "Ġmoc": 931,
      "Ġan": 932,
      "Ġvil": 933,
      "Ġsud": 934,
      "Ġsil": 935,
      "Ġzve": 936,
      "ĠkÅĻi": 937,
      "ĠAABCCB": 938,
      "Ġdli": 939,
      "dou": 940,
      "ĠpÅ¯": 941,
      "ĠvÃ½ch": 942,
      "Ġ1840": 943,
      "ĠvÃŃc": 944,
      "Ġrem": 945,
      "GH": 946,
      "ĠÅĪ": 947,
      "Ġchce": 948,
      "ĠtvÅ¯j": 949,
      "ĠvÃŃm": 950,
      "ĠÅ¡u": 951,
      "LA": 952,
      "vra": 953,
      "ĠzdÃ¡": 954,
      "Ġach": 955,
      "ĠproÄį": 956,
      "dra": 957,
      "Ġtla": 958,
      "nÄĽm": 959,
      "ĠkÃ½ch": 960,
      "Ġhlas": 961,
      "su": 962,
      "Ġkre": 963,
      "ĠVÃ¡c": 964,
      "Ġvat": 965,
      "Ãº": 966,
      "ĠVÃ¡clav": 967,
      "Ġdost": 968,
      "ĠkvÄĽt": 969,
      "ĠXXXXXXXX": 970,
      "Ġmen": 971,
      "Ġtru": 972,
      "Ġtek": 973,
      "dal": 974,
      "III": 975,
      "vla": 976,
      "ĠspÄĽ": 977,
      "Ã¡t": 978,
      "Ġdil": 979,
      "py": 980,
      "ĠtÃ©Å¾": 981,
      "Ġven": 982,
      "Ġvem": 983,
      "ĠÄįas": 984,
      "Ġles": 985,
      "ĠkrÃ¡t": 986,
      "ĠBo": 987,
      "Ġzrak": 988,
      "ĠsnÄĽ": 989,
      "ĠtÄĽÅ¾": 990,
      "Ġnom": 991,
      "Ġri": 992,
      "ĠÅ¡li": 993,
      "Ġnoc": 994,
      "svÄĽt": 995,
      "Ġhned": 996,
      "ĠskÃ½": 997,
      "ĠÅł": 998,
      "ĠsvÃ½ch": 999,
      "Ġzvu": 1000,
      "hou": 1001,
      "ĠsmÃŃ": 1002,
      "ĠKo": 1003,
      "kem": 1004,
      "sto": 1005,
      "ĠseÅĪ": 1006,
      "ĠtÄĽch": 1007,
      "CH": 1008,
      "zra": 1009,
      "Ġrod": 1010,
      "Ġvm": 1011,
      "kou": 1012,
      "ĠbuÄı": 1013,
      "ĠÅ¾a": 1014,
      "EFF": 1015,
      "ĠknÄĽ": 1016,
      "ĠtÅĻi": 1017,
      "ri": 1018,
      "ED": 1019,
      "Ġnek": 1020,
      "Ġprv": 1021,
      "Ġklid": 1022,
      "ĠzpÃŃ": 1023,
      "ĠvÃ¡s": 1024,
      "Ġot": 1025,
      "ĠmÃ¡m": 1026,
      "ĠnÃ¡Å¡": 1027,
      "ĠÄįÃŃm": 1028,
      "ĠÅ¡la": 1029,
      "ĠjÃŃm": 1030,
      "Ġcem": 1031,
      "Ġsled": 1032,
      "tem": 1033,
      "hro": 1034,
      "lÃ¡Å¡": 1035,
      "ĠspÃŃ": 1036,
      "Ġvtom": 1037,
      "Ġkru": 1038,
      "ĠstÃ©": 1039,
      "ĠÄįek": 1040,
      "ĠÅ¥": 1041,
      "ĠpÅĻec": 1042,
      "den": 1043,
      "Ġkry": 1044,
      "chy": 1045,
      "pu": 1046,
      "ĠhrÃ¡": 1047,
      "ĠÅ¾il": 1048,
      "ĠpÅĻÃ¡": 1049,
      "ĠÅ¡a": 1050,
      "Ġsen": 1051,
      "ĠPO": 1052,
      "ĠvÄĽk": 1053,
      "Ġfa": 1054,
      "ĠslÃŃ": 1055,
      "Ġjste": 1056,
      "ĠpÅĻes": 1057,
      "ova": 1058,
      "ĠvÃ½m": 1059,
      "Ġkal": 1060,
      "ĠsvÃ½m": 1061,
      "Ġprav": 1062,
      "Ġsvi": 1063,
      "Ġdl": 1064,
      "ÅĻel": 1065,
      "RA": 1066,
      "ĠzvÄĽ": 1067,
      "ĠvÃ¡Å¡": 1068,
      "ĠnÃŃk": 1069,
      "ĠVi": 1070,
      "sky": 1071,
      "ska": 1072,
      "stra": 1073,
      "ĠdÃ¡v": 1074,
      "ĠdÃŃm": 1075,
      "ĠhÅĻÃŃ": 1076,
      "Ġzje": 1077,
      "nÃ½": 1078,
      "man": 1079,
      "Ġvle": 1080,
      "Å¥a": 1081,
      "ĠÅ¡ÃŃm": 1082,
      "ĠSta": 1083,
      "Ġjde": 1084,
      "Ġtva": 1085,
      "slo": 1086,
      "Ġslou": 1087,
      "Ġdro": 1088,
      "Ġvol": 1089,
      "Ġhem": 1090,
      "kla": 1091,
      "ĠcÅ¯": 1092,
      "Ġvdu": 1093,
      "Ġkne": 1094,
      "Ġhor": 1095,
      "sni": 1096,
      "Ġdech": 1097,
      "tÄĽch": 1098,
      "Ġbro": 1099,
      "ĠspÃ¡": 1100,
      "Ġkli": 1101,
      "Ġple": 1102,
      "Ġvlast": 1103,
      "so": 1104,
      "ĠznÃŃ": 1105,
      "ĠnÃŃch": 1106,
      "svi": 1107,
      "Ġus": 1108,
      "ĠstÅĻÃŃ": 1109,
      "Ġzou": 1110,
      "Ġslav": 1111,
      "Ġkrev": 1112,
      "Ġvje": 1113,
      "pe": 1114,
      "ĠABABCC": 1115,
      "is": 1116,
      "ĠsÅ¯": 1117,
      "ĠkÃ½m": 1118,
      "ĠstrÃ¡": 1119,
      "ĠvnÄĽm": 1120,
      "ily": 1121,
      "Ġlet": 1122,
      "Ġnec": 1123,
      "ĠkvÃŃ": 1124,
      "Ġpad": 1125,
      "ĠvÄįe": 1126,
      "tra": 1127,
      "Ġnil": 1128,
      "ĠnÄĽm": 1129,
      "ĠrÃ¡d": 1130,
      "CB": 1131,
      "nosti": 1132,
      "XXX": 1133,
      "hle": 1134,
      "ĠÅĻa": 1135,
      "Ġzb": 1136,
      "ĠÅ¾en": 1137,
      "kle": 1138,
      "Ġvzpo": 1139,
      "Ġkve": 1140,
      "nskÃ½": 1141,
      "SK": 1142,
      "Åł": 1143,
      "tva": 1144,
      "Ġdva": 1145,
      "Ġdlo": 1146,
      "aly": 1147,
      "Ġvsrd": 1148,
      "ene": 1149,
      "ĠchÃ½": 1150,
      "ĠbÃ½t": 1151,
      "dla": 1152,
      "rskÃ½": 1153,
      "ĠXXXXXXXXXXXXXXXX": 1154,
      "Ġnout": 1155,
      "tou": 1156,
      "Ġprou": 1157,
      "us": 1158,
      "ĠmlÃ¡": 1159,
      "Äįas": 1160,
      "ĠmuÅ¾": 1161,
      "ĠAABBCCDD": 1162,
      "Ġbes": 1163,
      "tak": 1164,
      "Ġlen": 1165,
      "ĠKa": 1166,
      "ĠdÃŃv": 1167,
      "vskÃ½": 1168,
      "ĠskÃ½ch": 1169,
      "Ġdej": 1170,
      "kÅĻi": 1171,
      "AN": 1172,
      "ĠnÄĽk": 1173,
      "ĠchrÃ¡": 1174,
      "Ġoh": 1175,
      "Ġvb": 1176,
      "Ġkl": 1177,
      "CE": 1178,
      "ĠmÃ½": 1179,
      "ĠvÄĽr": 1180,
      "ĠznÄĽ": 1181,
      "ĠXXX": 1182,
      "ĠvÅ¾dyÅ¥": 1183,
      "ĠchtÄĽl": 1184,
      "vr": 1185,
      "ĠU": 1186,
      "kvÄĽt": 1187,
      "ĠklÃŃ": 1188,
      "Å¡tÄĽ": 1189,
      "kli": 1190,
      "Ġhled": 1191,
      "Ġsni": 1192,
      "Ġzm": 1193,
      "he": 1194,
      "ĠÄįil": 1195,
      "let": 1196,
      "ĠSova": 1197,
      "kto": 1198,
      "dek": 1199,
      "vem": 1200,
      "Ġhru": 1201,
      "Ġnal": 1202,
      "Ġhl": 1203,
      "vat": 1204,
      "skÃ¡": 1205,
      "ĠtrÃ¡": 1206,
      "ĠG": 1207,
      "Å¡ti": 1208,
      "hlav": 1209,
      "Ġkon": 1210,
      "ĠpÄĽt": 1211,
      "dech": 1212,
      "ĠsvÃ¡": 1213,
      "vil": 1214,
      "ĠdeÅ¡": 1215,
      "Ġpil": 1216,
      "Ġkni": 1217,
      "Ġzna": 1218,
      "Ġduch": 1219,
      "Ġvne": 1220,
      "ĠPo": 1221,
      "Ġsh": 1222,
      "zla": 1223,
      "ven": 1224,
      "oj": 1225,
      "sen": 1226,
      "ĠpÅĻij": 1227,
      "ĠstÃ½": 1228,
      "Ġzh": 1229,
      "Ġlost": 1230,
      "Ġblou": 1231,
      "ĠhnÄĽ": 1232,
      "Ġvzdu": 1233,
      "ĠdÄĽt": 1234,
      "cen": 1235,
      "Ġ1960": 1236,
      "Å¡Å¥": 1237,
      "nÅ¯": 1238,
      "ĠknÃŃ": 1239,
      "ĠStani": 1240,
      "ĠÅĻil": 1241,
      "ĠsÃŃc": 1242,
      "chÃ¡": 1243,
      "dne": 1244,
      "ĠneÄį": 1245,
      "ĠhlÃŃ": 1246,
      "ĠtvÃ¡ÅĻ": 1247,
      "ĠStanislav": 1248,
      "ĠcoÅ¾": 1249,
      "ĠmÃŃr": 1250,
      "snÄĽ": 1251,
      "chvÄĽ": 1252,
      "svÄĽ": 1253,
      "jem": 1254,
      "ĠdÃ¡m": 1255,
      "stu": 1256,
      "Ġzno": 1257,
      "ĠtvÃ½ch": 1258,
      "KA": 1259,
      "Ġtma": 1260,
      "ĠkrÃ¡l": 1261,
      "Ġpom": 1262,
      "ĠtÃ½ch": 1263,
      "pou": 1264,
      "âĢ": 1265,
      "ĠhÅ¯": 1266,
      "ĠpÃ¡n": 1267,
      "yk": 1268,
      "...": 1269,
      "bla": 1270,
      "sem": 1271,
      "ĠÄįes": 1272,
      "Ġvno": 1273,
      "hor": 1274,
      "nost": 1275,
      "Ġchle": 1276,
      "ĠÄĮe": 1277,
      "XBXB": 1278,
      "SE": 1279,
      "Äįek": 1280,
      "vÅ¡e": 1281,
      "ĠÅ¡Å¥a": 1282,
      "Ġdvo": 1283,
      "Ġvod": 1284,
      "Ġtlo": 1285,
      "ĠdrÃ¡": 1286,
      "Ġzpo": 1287,
      "Ġchlad": 1288,
      "ĠABA": 1289,
      "ĠlÃ½ch": 1290,
      "ĠzÅ¯": 1291,
      "Ġlil": 1292,
      "tÅĻ": 1293,
      "ĠkÃ©m": 1294,
      "ĠÅĻÃ¡": 1295,
      "ktor": 1296,
      "tr": 1297,
      "ĠtvÃŃ": 1298,
      "Ġhlou": 1299,
      "zu": 1300,
      "Ġmnou": 1301,
      "ABB": 1302,
      "Ġtys": 1303,
      "ĠaÄį": 1304,
      "zd": 1305,
      "ĠhÅĻ": 1306,
      "slu": 1307,
      "jas": 1308,
      "sva": 1309,
      "ĠViktor": 1310,
      "ĠDyk": 1311,
      "mann": 1312,
      "Ġplo": 1313,
      "stka": 1314,
      "ĠÅĻek": 1315,
      "mra": 1316,
      "ĠÄı": 1317,
      "Ġbys": 1318,
      "IV": 1319,
      "ĠvÃ©m": 1320,
      "ĠchÅ¯": 1321,
      "ON": 1322,
      "chvi": 1323,
      "ug": 1324,
      "Ġrov": 1325,
      "spa": 1326,
      "pÅĻi": 1327,
      "ĠjuÅ¾": 1328,
      "Ġsbo": 1329,
      "Ġjo": 1330,
      "EEFF": 1331,
      "ĠÃºs": 1332,
      "ĠchÃ©": 1333,
      "IN": 1334,
      "mat": 1335,
      "Ġchci": 1336,
      "ĠnÃ¡ch": 1337,
      "Ġtlu": 1338,
      "ĠNA": 1339,
      "ĠvÅ¡i": 1340,
      "Å®": 1341,
      "ĠzrÃ¡": 1342,
      "Ġstal": 1343,
      "ĠXAXAXBXB": 1344,
      "ĠkÃ¡ch": 1345,
      "bli": 1346,
      "Ġdne": 1347,
      "ĠKostka": 1348,
      "an": 1349,
      "ĠNeu": 1350,
      "zna": 1351,
      "ĠÅ¾el": 1352,
      "Ġsmrt": 1353,
      "ĠNeumann": 1354,
      "rÃ½": 1355,
      "ĠneÅ¡": 1356,
      "Ġvza": 1357,
      "ĠvÅ¡em": 1358,
      "vÅ¡": 1359,
      "pro": 1360,
      "ĠdlÃŃ": 1361,
      "Ġleh": 1362,
      "lÃ¡Å¡te": 1363,
      "Äįka": 1364,
      "Ġstvo": 1365,
      "pÅĻe": 1366,
      "sna": 1367,
      "sla": 1368,
      "Ġsed": 1369,
      "ĠkÅĻe": 1370,
      "Å½": 1371,
      "Ġcit": 1372,
      "ĠÅ¡ep": 1373,
      "ÅĪa": 1374,
      "ĠÅ¡tÃŃ": 1375,
      "bou": 1376,
      "ĠcÃŃm": 1377,
      "Ġzv": 1378,
      "ĠÅ¾eh": 1379,
      "Ġpan": 1380,
      "ĠvlÃŃ": 1381,
      "ĠmÃ½ch": 1382,
      "ĠKlÃ¡Å¡te": 1383,
      "Ġzbo": 1384,
      "jed": 1385,
      "Ġbles": 1386,
      "len": 1387,
      "pÄĽv": 1388,
      "ĠKlÃ¡Å¡terskÃ½": 1389,
      "ĠchvÃ¡": 1390,
      "ĠstÃŃn": 1391,
      "Ġdce": 1392,
      "jen": 1393,
      "Ġpal": 1394,
      "mr": 1395,
      "Ġbal": 1396,
      "mou": 1397,
      "ĠklÃ¡": 1398,
      "ĠsvÃ©m": 1399,
      "Ã³": 1400,
      "ĠSlÃ¡": 1401,
      "ĠÅĪa": 1402,
      "ĠvnÃŃ": 1403,
      "ĠhrÅ¯": 1404,
      "Ġvbo": 1405,
      "Ġchla": 1406,
      "Ġtes": 1407,
      "Ġpru": 1408,
      "Ġhod": 1409,
      "Ġzel": 1410,
      "sty": 1411,
      "ĠdvÄĽ": 1412,
      "dan": 1413,
      "Ġvro": 1414,
      "Ġstat": 1415,
      "ĠvdÄĽ": 1416,
      "ÅĻen": 1417,
      "ĠhlÃ©": 1418,
      "ĠSlÃ¡dek": 1419,
      "Ġtec": 1420,
      "Ġlov": 1421,
      "ĠzpÄĽv": 1422,
      "ĠvzÃ¡": 1423,
      "Å¾ena": 1424,
      "ĠhlÃ¡": 1425,
      "Ġves": 1426,
      "ĠABABCCDD": 1427,
      "ĠtÃ¡h": 1428,
      "ĠpÃ½": 1429,
      "Ġvoj": 1430,
      "GHH": 1431,
      "Ġsch": 1432,
      "ĠskrÃ¡": 1433,
      "Åĩ": 1434,
      "ĠvÅ¡u": 1435,
      "Ġlik": 1436,
      "ĠLe": 1437,
      "OU": 1438,
      "Ġvmo": 1439,
      "Ġvna": 1440,
      "Ġvti": 1441,
      "ĠvdÃ¡l": 1442,
      "Ġstej": 1443,
      "Ġzro": 1444,
      "ke": 1445,
      "ĠvÃ¡n": 1446,
      "ĠÅ½": 1447,
      "nul": 1448,
      "Ġzle": 1449,
      "Ġcy": 1450,
      "zka": 1451,
      "stin": 1452,
      "ĠÅ¡Å¥ast": 1453,
      "Ġhroz": 1454,
      "Ġpev": 1455,
      "vali": 1456,
      "ĠÅ¾Ã¡d": 1457,
      "stÄĽ": 1458,
      "Ġkto": 1459,
      "or": 1460,
      "ĠPÃį": 1461,
      "Ġper": 1462,
      "Ġsne": 1463,
      "dli": 1464,
      "ĠzmÄĽ": 1465,
      "Å¡ka": 1466,
      "ĠÄįem": 1467,
      "Ġfi": 1468,
      "ĠprÃ½": 1469,
      "ĠNa": 1470,
      "Ġskou": 1471,
      "Ġlest": 1472,
      "ĠtoÅ¥": 1473,
      "XXXXXXXXXXXXXXXXXXXXXXXXXXXXXXXX": 1474,
      "stro": 1475,
      "ĠtÄĽz": 1476,
      "Ġvni": 1477,
      "ĠbÃ¡s": 1478,
      "Ġskry": 1479,
      "ĠnnÃ©": 1480,
      "nych": 1481,
      "Ġtal": 1482,
      "ĠdÃ½m": 1483,
      "Ġpoj": 1484,
      "Ġvrou": 1485,
      "EE": 1486,
      "nka": 1487,
      "kÃ¡": 1488,
      "Ġmd": 1489,
      "ĠboÅ¾": 1490,
      "ĠAABBCC": 1491,
      "ĠdÄĽj": 1492,
      "ĠslyÅ¡": 1493,
      "dru": 1494,
      "ner": 1495,
      "tek": 1496,
      "ĠsnÃ¡": 1497,
      "ĠÅ¾o": 1498,
      "Ġtan": 1499,
      "Ġman": 1500,
      "Ġplu": 1501,
      "Ġy": 1502,
      "Ġchou": 1503,
      "sku": 1504,
      "ĠvtÃ©": 1505,
      "Ġbar": 1506,
      "kro": 1507,
      "ĠstÃ¡l": 1508,
      "Ġdar": 1509,
      "ĠvÃº": 1510,
      "dÄĽl": 1511,
      "Ġboj": 1512,
      "Ġkri": 1513,
      "Ġlek": 1514,
      "ĠjÃŃc": 1515,
      "Å¾iti": 1516,
      "ĠAAX": 1517,
      "ĠÅ¾ha": 1518,
      "Ġtvou": 1519,
      "ĠÅ¾al": 1520,
      "sou": 1521,
      "tÅĻe": 1522,
      "Ġvru": 1523,
      "Ġhlo": 1524,
      "Ġzdo": 1525,
      "ĠVoj": 1526,
      "Å¾ÃŃ": 1527,
      "Äįer": 1528,
      "Ġhrad": 1529,
      "Ġztra": 1530,
      "Ġkdys": 1531,
      "ĠdÅĻÃŃv": 1532,
      "ver": 1533,
      "Ġok": 1534,
      "Ġska": 1535,
      "ĠÅĻÃŃm": 1536,
      "dem": 1537,
      "mÃ©": 1538,
      "smÄĽ": 1539,
      "ĠÄĮech": 1540,
      "Ġtry": 1541,
      "hled": 1542,
      "Ġsr": 1543,
      "ĠnnÃŃ": 1544,
      "ĠzÅĻel": 1545,
      "nim": 1546,
      "ĠblÃ¡": 1547,
      "Ġcu": 1548,
      "sp": 1549,
      "Ġchal": 1550,
      "ĠlÃ½m": 1551,
      "SEÅĩ": 1552,
      "alo": 1553,
      "ĠzvÃŃ": 1554,
      "Ġvnich": 1555,
      "ĠVojtÄĽch": 1556,
      "ĠtrÅ¯": 1557,
      "Ġzmi": 1558,
      "zy": 1559,
      "Ġchod": 1560,
      "CCD": 1561,
      "Ġkraj": 1562,
      "Ġvko": 1563,
      "nek": 1564,
      "Ġca": 1565,
      "ĠII": 1566,
      "ĠPro": 1567,
      "Ġbil": 1568,
      "ĠzÃ¡ÅĻ": 1569,
      "ĠprÃ¡z": 1570,
      "LI": 1571,
      "Ġjdou": 1572,
      "ĠÄįel": 1573,
      "ĠlÃ©m": 1574,
      "Ġznich": 1575,
      "ĠteÄį": 1576,
      "Ġmem": 1577,
      "ĠvÅ¡ÃŃ": 1578,
      "Ġ1820": 1579,
      "Ġvze": 1580,
      "ĠrÃ½ch": 1581,
      "Ġhud": 1582,
      "ĠmoÅ¾": 1583,
      "ĠsnÃŃm": 1584,
      "Ġvsta": 1585,
      "tÅĻi": 1586,
      "ĠsmÃŃch": 1587,
      "DA": 1588,
      "ĠÅ¾Ã¡r": 1589,
      "Ġply": 1590,
      "Ġblo": 1591,
      "mla": 1592,
      "Ġpoh": 1593,
      "ĠsÃŃm": 1594,
      "ĠvÃŃÅ¡": 1595,
      "ĠmÃŃn": 1596,
      "duÅ¡i": 1597,
      "ĠtÅĻ": 1598,
      "Ġtvr": 1599,
      "Ġcos": 1600,
      "Ġzli": 1601,
      "Ġpot": 1602,
      "ĠÅ¡lÃ©": 1603,
      "ĠJu": 1604,
      "Ã¡n": 1605,
      "Ġzby": 1606,
      "Ġstem": 1607,
      "Ġblu": 1608,
      "ĠnechÅ¥": 1609,
      "spo": 1610,
      "ĠDo": 1611,
      "ĠmÃ¡Å¡": 1612,
      "Ġbli": 1613,
      "ĠâĢ": 1614,
      "Ġzva": 1615,
      "ĠÅ¡ich": 1616,
      "ÄļV": 1617,
      "ĠsklÃ¡": 1618,
      "Ġvpra": 1619,
      "Ġvzp": 1620,
      "ĠzÅĻe": 1621,
      "Ġjis": 1622,
      "Ġvzh": 1623,
      "svo": 1624,
      "Ġtech": 1625,
      "oÄįi": 1626,
      "Ġjar": 1627,
      "stvi": 1628,
      "ĠvÅ¾dyc": 1629,
      "dÃ¡": 1630,
      "Ġhrob": 1631,
      "tvo": 1632,
      "zas": 1633,
      "dle": 1634,
      "Ġzr": 1635,
      "Ġcen": 1636,
      "ĠÅ¾li": 1637,
      "vani": 1638,
      "Ġtaj": 1639,
      "ĠBoh": 1640,
      "sve": 1641,
      "spÄĽ": 1642,
      "Ġkva": 1643,
      "nici": 1644,
      "til": 1645,
      "ĠjÃŃÅ¾": 1646,
      "Ã©m": 1647,
      "ĠjÃŃt": 1648,
      "vych": 1649,
      "nal": 1650,
      "vym": 1651,
      "ÅĺE": 1652,
      "Ġsvit": 1653,
      "ĠPÃįSEÅĩ": 1654,
      "Ġpov": 1655,
      "Ġvka": 1656,
      "ĠkÅ¯m": 1657,
      "ĠÄįen": 1658,
      "ĠKami": 1659,
      "Ġsklo": 1660,
      "Ġvan": 1661,
      "ĠdlÃ©": 1662,
      "ĠBohdan": 1663,
      "ĠKaminskÃ½": 1664,
      "AT": 1665,
      "ĠvnÃ¡": 1666,
      "ĠsnÅ¯": 1667,
      "ĠnÄĽl": 1668,
      "ĠW": 1669,
      "Ġnich": 1670,
      "ĠXAB": 1671,
      "kvi": 1672,
      "Ġver": 1673,
      "pr": 1674,
      "nym": 1675,
      "kve": 1676,
      "skry": 1677,
      "ĠjmÃ©": 1678,
      "EFEF": 1679,
      "Äįa": 1680,
      "GG": 1681,
      "ĠkÃ¡m": 1682,
      "Ġstru": 1683,
      "dali": 1684,
      "rÃ¡z": 1685,
      "smi": 1686,
      "on": 1687,
      "Ġmoh": 1688,
      "sli": 1689,
      "Ġnen": 1690,
      "Ġtit": 1691,
      "hru": 1692,
      "Ġstva": 1693,
      "Ġnit": 1694,
      "ĠjejÅ¾": 1695,
      "ĠXa": 1696,
      "ĠÅ¡ko": 1697,
      "LO": 1698,
      "ĠXaver": 1699,
      "mÃŃr": 1700,
      "Ġdruh": 1701,
      "Ġvit": 1702,
      "ct": 1703,
      "zemi": 1704,
      "ĠhÅĻe": 1705,
      "Ġkud": 1706,
      "ble": 1707,
      "ĠDvo": 1708,
      "stÅĻe": 1709,
      "Ġlal": 1710,
      "zvo": 1711,
      "ĠÅ¡ÃŃch": 1712,
      "Ġsyn": 1713,
      "ĠmÄĽv": 1714,
      "Ġzvol": 1715,
      "dÃŃ": 1716,
      "raf": 1717,
      "rÃ¡s": 1718,
      "ĠvÄĽt": 1719,
      "Å¾a": 1720,
      "ĠRu": 1721,
      "Ġdly": 1722,
      "in": 1723,
      "ĠXXXXXXXXXXXX": 1724,
      "jÅ¡i": 1725,
      "rem": 1726,
      "ĠDvoÅĻÃ¡": 1727,
      "ĠÄįÃ¡": 1728,
      "ĠÄįet": 1729,
      "ĠRO": 1730,
      "Ġvdo": 1731,
      "Ġkat": 1732,
      "jici": 1733,
      "van": 1734,
      "Ġbol": 1735,
      "ĠhvÄĽzd": 1736,
      "tel": 1737,
      "pad": 1738,
      "Ġdat": 1739,
      "Ġdit": 1740,
      "PÄļV": 1741,
      "tky": 1742,
      "Ġskal": 1743,
      "CX": 1744,
      "ĠSe": 1745,
      "ĠzpÄĽt": 1746,
      "Ġleb": 1747,
      "Ġsel": 1748,
      "ĠÅ¥a": 1749,
      "ĠruÄį": 1750,
      "Ġgi": 1751,
      "ĠnuÅ¾": 1752,
      "neni": 1753,
      "ĠÄĮer": 1754,
      "ĠvÃ¡Å¾": 1755,
      "ĠHo": 1756,
      "Ġjin": 1757,
      "ĠpÅ¯l": 1758,
      "Ġbem": 1759,
      "nce": 1760,
      "Ġnev": 1761,
      "Ġvej": 1762,
      "ĠÄįin": 1763,
      "Ġzka": 1764,
      "Ġdve": 1765,
      "Ġdin": 1766,
      "Ġvzdo": 1767,
      "ĠdÃŃÅ¡": 1768,
      "ĠpÅ¯j": 1769,
      "ĠJuli": 1770,
      "ĠJe": 1771,
      "ĠÅ¾ÃŃm": 1772,
      "Äįku": 1773,
      "rad": 1774,
      "Å¡el": 1775,
      "ĠpouÅ¡": 1776,
      "Ġtis": 1777,
      "lek": 1778,
      "ĠtÄĽl": 1779,
      "Ġled": 1780,
      "leti": 1781,
      "ĠmÃ½m": 1782,
      "Ġor": 1783,
      "Ġder": 1784,
      "ĠpÄĽk": 1785,
      "ĠÅ¡em": 1786,
      "ĠzÅĻÃŃm": 1787,
      "ĠnÄĽÅ¾": 1788,
      "hlas": 1789,
      "zve": 1790,
      "ĠvÅ¾i": 1791,
      "ĠtÃ½m": 1792,
      "ĠJulius": 1793,
      "Ġge": 1794,
      "ĠDvoÅĻÃ¡k": 1795,
      "Ġzor": 1796,
      "CDDC": 1797,
      "Ġsho": 1798,
      "ĠÄįit": 1799,
      "EM": 1800,
      "ĠBene": 1801,
      "ĠXXXXXX": 1802,
      "jest": 1803,
      "ĠKu": 1804,
      "ĠBeneÅ¡": 1805,
      "ĠABAAB": 1806,
      "Ġzne": 1807,
      "Ġche": 1808,
      "ĠsvÃ½": 1809,
      "dil": 1810,
      "ĠABABAB": 1811,
      "ĠdÄĽs": 1812,
      "nuti": 1813,
      "ĠXXXXX": 1814,
      "tro": 1815,
      "GGHH": 1816,
      "chvili": 1817,
      "Ġga": 1818,
      "Ġsku": 1819,
      "ĠXAA": 1820,
      "ĠdÃ½ch": 1821,
      "Ġhal": 1822,
      "seÅĪ": 1823,
      "Ġvch": 1824,
      "RÃģ": 1825,
      "Ġvho": 1826,
      "Ġsny": 1827,
      "ĠtÃ©m": 1828,
      "Ġol": 1829,
      "stal": 1830,
      "Ġsmy": 1831,
      "ĠdÄĽv": 1832,
      "ĠvzhÅ¯": 1833,
      "Ġral": 1834,
      "ĠhoÅ¾": 1835,
      "Ġbraz": 1836,
      "zni": 1837,
      "Ġou": 1838,
      "ĠZey": 1839,
      "AL": 1840,
      "nd": 1841,
      "zo": 1842,
      "ĠZeyer": 1843,
      "Ġzal": 1844,
      "Ġkmi": 1845,
      "ĠÅ¡len": 1846,
      "ĠÅ¡il": 1847,
      "ĠvlÃ¡d": 1848,
      "Äįen": 1849,
      "ĠÅĻem": 1850,
      "ĠslÃ©": 1851,
      "ĠÄįÃŃch": 1852,
      "CI": 1853,
      "ĠdlÃ¡": 1854,
      "ĠÅ¡lo": 1855,
      "Ġsten": 1856,
      "Ġpar": 1857,
      "ĠstÅ¯": 1858,
      "Ġchra": 1859,
      "Äįky": 1860,
      "chÃ¡zka": 1861,
      "VI": 1862,
      "jich": 1863,
      "ĠÅ¾lu": 1864,
      "nout": 1865,
      "hvÄĽz": 1866,
      "DD": 1867,
      "tal": 1868,
      "ĠtoÅ¾": 1869,
      "ĠzlÃ©": 1870,
      "Ġvlo": 1871,
      "ĠstÃŃm": 1872,
      "Ġzvy": 1873,
      "Ġzim": 1874,
      "vice": 1875,
      "cky": 1876,
      "Ġkme": 1877,
      "ĠProchÃ¡zka": 1878,
      "chra": 1879,
      "Ġnel": 1880,
      "kry": 1881,
      "zpi": 1882,
      "ĠXAX": 1883,
      "ĠVE": 1884,
      "sam": 1885,
      "ĠtÄĽm": 1886,
      "Ġzdra": 1887,
      "ĠliÅ¡": 1888,
      "ĠPe": 1889,
      "nebe": 1890,
      "ĠptÃ¡k": 1891,
      "dce": 1892,
      "tru": 1893,
      "Ġstli": 1894,
      "ĠvsvÃ©": 1895,
      "ĠSV": 1896,
      "ĠztrÃ¡": 1897,
      "ĠIII": 1898,
      "Ġct": 1899,
      "Ġhli": 1900,
      "Ġzbra": 1901,
      "ĠdÅ¯m": 1902,
      "ĠMe": 1903,
      "nam": 1904,
      "Ġzma": 1905,
      "ĠjÃŃch": 1906,
      "nik": 1907,
      "Ġstup": 1908,
      "ĠvÃ½Å¡": 1909,
      "sly": 1910,
      "ĠSeraf": 1911,
      "ĠSerafÃŃ": 1912,
      "ĠzmÃŃ": 1913,
      "Ġkot": 1914,
      "ĠvstÅĻÃŃ": 1915,
      "ĠmÃŃt": 1916,
      "Ġpor": 1917,
      "ĠcÃ½": 1918,
      "Ġhej": 1919,
      "ĠSerafÃŃnskÃ½": 1920,
      "ĠhleÄı": 1921,
      "ĠNo": 1922,
      "ĠzvÃ¡": 1923,
      "Ġsek": 1924,
      "sle": 1925,
      "Å¡en": 1926,
      "Ġstar": 1927,
      "lici": 1928,
      "Ġkdes": 1929,
      "ĠÅĻÃ¡d": 1930,
      "Ġkze": 1931,
      "Ġaj": 1932,
      "ĠAABBCCDDEEFF": 1933,
      "ĠzlÃŃ": 1934,
      "nohor": 1935,
      "ĠtÅĻÃ¡": 1936,
      "Ġsme": 1937,
      "liÅ¡ka": 1938,
      "ĠvÅ¡ich": 1939,
      "ĠmÅĻe": 1940,
      "chem": 1941,
      "ĠÅĻeÄį": 1942,
      "klo": 1943,
      "ĠknÃ¡": 1944,
      "Ġjel": 1945,
      "nice": 1946,
      "Ġas": 1947,
      "Ġkost": 1948,
      "Ġdlit": 1949,
      "Ġsmu": 1950,
      "ĠhoÅĻ": 1951,
      "ĠdÅĻe": 1952,
      "Ġdel": 1953,
      "ĠvÄĽz": 1954,
      "ĠblÃŃÅ¾": 1955,
      "ĠbÃŃd": 1956,
      "nohorskÃ¡": 1957,
      "KY": 1958,
      "ĠEliÅ¡ka": 1959,
      "rÃ¡snohorskÃ¡": 1960,
      "Å¾il": 1961,
      "mÄĽni": 1962,
      "Ġjal": 1963,
      "ĠskrÃ½": 1964,
      "Ġtre": 1965,
      "ĠpÃ©": 1966,
      "sko": 1967,
      "Ġzved": 1968,
      "Ġrak": 1969,
      "Ġzdvi": 1970,
      "Ġvpa": 1971,
      "Ġzti": 1972,
      "zpÄĽ": 1973,
      "byl": 1974,
      "vÅĻe": 1975,
      "ET": 1976,
      "ĠvÃ¡l": 1977,
      "Ġnav": 1978,
      "ĠprÅ¯": 1979,
      "ĠmeÄį": 1980,
      "ĠtÅĻpy": 1981,
      "vl": 1982,
      "ĠÅĻit": 1983,
      "ĠvÄĽn": 1984,
      "pta": 1985,
      "Ġpos": 1986,
      "ĠsnÃŃh": 1987,
      "ĠZpÄĽv": 1988,
      "cu": 1989,
      "Å¡a": 1990,
      "rÅ¯": 1991,
      "dÄĽti": 1992,
      "vost": 1993,
      "neho": 1994,
      "srd": 1995,
      "Ġvzne": 1996,
      "Ġkoj": 1997,
      "ĠÅ¾it": 1998,
      "nech": 1999,
      "ĠpuÅ¡": 2000,
      "diva": 2001,
      "noci": 2002,
      "Ġret": 2003,
      "AA": 2004,
      "ĠmÄĽk": 2005,
      "ĠHa": 2006,
      "Ġdob": 2007,
      "ĠkdoÅ¾": 2008,
      "ĠnnÃ½": 2009,
      "hÅĻi": 2010,
      "ĠnnÄĽ": 2011,
      "zvu": 2012,
      "Ġzen": 2013,
      "ĠRudolf": 2014,
      "Ġps": 2015,
      "cy": 2016,
      "Ġslov": 2017,
      "vna": 2018,
      "Ġhoj": 2019,
      "ĠrÃ©m": 2020,
      "kr": 2021,
      "nÄĽv": 2022,
      "Ġstech": 2023,
      "bro": 2024,
      "ĠjÅ¯": 2025,
      "Ġnaj": 2026,
      "ĠhÃ¡d": 2027,
      "ĠbÅĻÃŃ": 2028,
      "Ġzvuk": 2029,
      "cem": 2030,
      "ĠrÃ½m": 2031,
      "NO": 2032,
      "ĠnoÄį": 2033,
      "Ġum": 2034,
      "nov": 2035,
      "ĠkÅĻik": 2036,
      "mÄĽl": 2037,
      "vala": 2038,
      "kar": 2039,
      "znÄĽ": 2040,
      "kal": 2041,
      "ĠdiÄį": 2042,
      "Ġbuj": 2043,
      "ĠskvÄĽ": 2044,
      "Å¡tÄĽsti": 2045,
      "Ġvslu": 2046,
      "stou": 2047,
      "ger": 2048,
      "Ġlej": 2049,
      "ĠvstÅĻÃŃc": 2050,
      "Ġhan": 2051,
      "Ġlas": 2052,
      "pil": 2053,
      "ĠJi": 2054,
      "ĠsÃ½": 2055,
      "Ġset": 2056,
      "ĠAlo": 2057,
      "ĠvlÃŃd": 2058,
      "ĠnaÄį": 2059,
      "Ġzaz": 2060,
      "ĠAlois": 2061,
      "kam": 2062,
      "Ġov": 2063,
      "Ġvzal": 2064,
      "Ġkrok": 2065,
      "ĠMo": 2066,
      "Ġgo": 2067,
      "vÃ½": 2068,
      "Ġprud": 2069,
      "ĠMu": 2070,
      "zemÄĽ": 2071,
      "ĠniÄį": 2072,
      "vyÅ¡": 2073,
      "spi": 2074,
      "Ġal": 2075,
      "tech": 2076,
      "Ġblesk": 2077,
      "lÃ½ch": 2078,
      "Ġpta": 2079,
      "mut": 2080,
      "IT": 2081,
      "ugu": 2082,
      "OR": 2083,
      "ĠAugu": 2084,
      "Ġfe": 2085,
      "ĠheÅĪ": 2086,
      "ĠÅ¾ÃŃt": 2087,
      "ĠvdÃ¡": 2088,
      "Ġmrak": 2089,
      "ĠÅ¡um": 2090,
      "Ġlist": 2091,
      "Ġdrob": 2092,
      "Ġklad": 2093,
      "ĠAABCB": 2094,
      "ĠdÃ©m": 2095,
      "ĠbouÅĻ": 2096,
      "ĠhruÄı": 2097,
      "niku": 2098,
      "sil": 2099,
      "zda": 2100,
      "Ġsal": 2101,
      "ĠzÃ½": 2102,
      "Ġpol": 2103,
      "ĠÄįest": 2104,
      "Ġmal": 2105,
      "ske": 2106,
      "tka": 2107,
      "Ġzjev": 2108,
      "ĠABABA": 2109,
      "NÄļ": 2110,
      "ĠmÅĻÃŃ": 2111,
      "Ġkso": 2112,
      "ĠbÃ©": 2113,
      "Ġsb": 2114,
      "hem": 2115,
      "Ġnat": 2116,
      "Ġvez": 2117,
      "skla": 2118,
      "pl": 2119,
      "Ġstrom": 2120,
      "ĠLE": 2121,
      "ĠLu": 2122,
      "ple": 2123,
      "sviti": 2124,
      "dÅĻi": 2125,
      "Ġvzduch": 2126,
      "kovskÃ½": 2127,
      "hne": 2128,
      "kru": 2129,
      "ub": 2130,
      "Ġber": 2131,
      "Å¡il": 2132,
      "ĠhÃ½ch": 2133,
      "Ġchmu": 2134,
      "ĠpyÅ¡": 2135,
      "Å¡u": 2136,
      "ĠXABBA": 2137,
      "hli": 2138,
      "ĠblÃŃz": 2139,
      "zlo": 2140,
      "Ġrek": 2141,
      "ĠskÃ½m": 2142,
      "Ġar": 2143,
      "ÅĺÃį": 2144,
      "Ġpout": 2145,
      "ĠvsvÄĽ": 2146,
      "ĠMi": 2147,
      "tokar": 2148,
      "ĠOtokar": 2149,
      "dÄĽla": 2150,
      "mnÄĽ": 2151,
      "Ġvlas": 2152,
      "ĠkÅĻÃŃÅ¾": 2153,
      "kvÄĽ": 2154,
      "ĠchlÃ©": 2155,
      "ĠvzdÃ¡": 2156,
      "ĠtvÃ½m": 2157,
      "Ġproud": 2158,
      "co": 2159,
      "Ġprs": 2160,
      "ĠstÅĻed": 2161,
      "ĠÅ¾iv": 2162,
      "chtÄĽ": 2163,
      "dr": 2164,
      "vic": 2165,
      "ĠkoÅ¡": 2166,
      "Å¾eny": 2167,
      "nÃŃz": 2168,
      "ĠbrÃ½": 2169,
      "ĠST": 2170,
      "nÃ½ch": 2171,
      "dina": 2172,
      "has": 2173,
      "NA": 2174,
      "jsem": 2175,
      "ĠzboÅ¾": 2176,
      "Ġspi": 2177,
      "zvÄĽ": 2178,
      "Ġtli": 2179,
      "sled": 2180,
      "Ġdouc": 2181,
      "Ġzbu": 2182,
      "dlo": 2183,
      "ĠZPÄļV": 2184,
      "Ġkno": 2185,
      "Ġzce": 2186,
      "Ġher": 2187,
      "dosti": 2188,
      "ĠdrÃ©": 2189,
      "ĠvÅĻÃŃ": 2190,
      "Ġzru": 2191,
      "Ġhnu": 2192,
      "ĠdruÅ¾": 2193,
      "ĠÅ¾u": 2194,
      "ĠAugustin": 2195,
      "stoji": 2196,
      "Å¾ÃŃk": 2197,
      "ĠEug": 2198,
      "ĠMuÅ¾ÃŃk": 2199,
      "ĠEugen": 2200,
      "hoÅĻi": 2201,
      "Ġvys": 2202,
      "ĠbyÅ¥": 2203,
      "Ġkpo": 2204,
      "ruda": 2205,
      "zen": 2206,
      "kre": 2207,
      "ĠÅ¡ek": 2208,
      "tÃ½": 2209,
      "tam": 2210,
      "ĠzdrÃ¡": 2211,
      "Ġvzdy": 2212,
      "Ġzmo": 2213,
      "pan": 2214,
      "ĠspoÅĪ": 2215,
      "Ġcel": 2216,
      "ĠchceÅ¡": 2217,
      "ĠRÅ¯": 2218,
      "ĠknÃ¡m": 2219,
      "Ġhly": 2220,
      "Ġstil": 2221,
      "NI": 2222,
      "Ġsma": 2223,
      "Ġpat": 2224,
      "ĠbrÃ©": 2225,
      "Ġkles": 2226,
      "Ġspra": 2227,
      "ĠpojÄı": 2228,
      "Ġvln": 2229,
      "hlavy": 2230,
      "Ġrel": 2231,
      "ĠdvÃ©": 2232,
      "vinka": 2233,
      "Ġhrom": 2234,
      "ĠnÃŃÅ¾": 2235,
      "Ġrok": 2236,
      "Ġtic": 2237,
      "Ġchvil": 2238,
      "manu": 2239,
      "ic": 2240,
      "Ġned": 2241,
      "ĠzdÃ¡l": 2242,
      "ĠznÃ¡m": 2243,
      "ĠdÄĽc": 2244,
      "ĠIV": 2245,
      "Ġtrp": 2246,
      "ĠLa": 2247,
      "ryÄį": 2248,
      "zrak": 2249,
      "ĠjichÅ¾": 2250,
      "ĠvstÃ¡": 2251,
      "ĠNeruda": 2252,
      "Ġchr": 2253,
      "Ġspou": 2254,
      "bÅĻe": 2255,
      "ĠÃŃ": 2256,
      "ĠvnÄĽmÅ¾": 2257,
      "Ġkrou": 2258,
      "Ġrty": 2259,
      "takar": 2260,
      "ĠdnÃŃ": 2261,
      "ĠÄĮervinka": 2262,
      "hÅĻ": 2263,
      "EL": 2264,
      "ĠblÃ½": 2265,
      "Ġhlad": 2266,
      "ĠstraÅ¡": 2267,
      "Ġvsa": 2268,
      "Ġnak": 2269,
      "Ġsoud": 2270,
      "uti": 2271,
      "ĠliÄį": 2272,
      "VÄļ": 2273,
      "ÅĻed": 2274,
      "ĠnÄĽn": 2275,
      "ĠÅ¡lÃ©n": 2276,
      "ÅĺI": 2277,
      "sobÄĽ": 2278,
      "ĠDost": 2279,
      "ĠAAA": 2280,
      "ĠOtakar": 2281,
      "ĠvtÄĽ": 2282,
      "ÄįÃŃ": 2283,
      "mÃ¡": 2284,
      "ol": 2285,
      "KU": 2286,
      "Ġzvon": 2287,
      "jeho": 2288,
      "jÃŃ": 2289,
      "Ġvhro": 2290,
      "svou": 2291,
      "skra": 2292,
      "Ġdno": 2293,
      "ĠBohu": 2294,
      "Luti": 2295,
      "ĠDostÃ¡l": 2296,
      "Lutinov": 2297,
      "zÅĻi": 2298,
      "ĠDO": 2299,
      "ĠkÃ©Å¾": 2300,
      "ĠABABABCC": 2301,
      "ĠâĢĵ": 2302,
      "ĠskÃ©m": 2303,
      "tma": 2304,
      "Ġur": 2305,
      "CK": 2306,
      "vam": 2307,
      "boji": 2308,
      "Å¯r": 2309,
      "Ġbrou": 2310,
      "tla": 2311,
      "meni": 2312,
      "Å¡le": 2313,
      "leÅ¾i": 2314,
      "jiÅ¾": 2315,
      "ĠsvÄĽd": 2316,
      "byla": 2317,
      "US": 2318,
      "Ġvpr": 2319,
      "ĠSu": 2320,
      "stÅĻi": 2321,
      "ĠjÃŃmÅ¾": 2322,
      "vle": 2323,
      "Ġvec": 2324,
      "ĠPRO": 2325,
      "ĠXXXXXXX": 2326,
      "Ġdav": 2327,
      "ĠplÃ©": 2328,
      "XXXXXXXXXXXX": 2329,
      "hlu": 2330,
      "dni": 2331,
      "Ġskle": 2332,
      "chlad": 2333,
      "klid": 2334,
      "ĠzeÅĪ": 2335,
      "ĠVI": 2336,
      "dost": 2337,
      "ĠmÃ©m": 2338,
      "ĠHolÃ½": 2339,
      "slad": 2340,
      "Ġnut": 2341,
      "manuel": 2342,
      "Ġjdu": 2343,
      "Ġzni": 2344,
      "ĠEmanuel": 2345,
      "ĠnÃŃz": 2346,
      "ĠvÅ¡a": 2347,
      "tÄĽz": 2348,
      "Ġstav": 2349,
      "ĠsmÃ¡": 2350,
      "ĠÃºz": 2351,
      "ĠÅĻen": 2352,
      "ĠÅ¡et": 2353,
      "ĠKol": 2354,
      "NE": 2355,
      "Ġples": 2356,
      "Ġvli": 2357,
      "ĠÅ¡en": 2358,
      "chva": 2359,
      "bude": 2360,
      "lÃ¡r": 2361,
      "ĠvnÄĽ": 2362,
      "ĠstÃ¡t": 2363,
      "ÅĻil": 2364,
      "ĠhnÄĽv": 2365,
      "lka": 2366,
      "Ġtle": 2367,
      "ĠKrÃ¡snohorskÃ¡": 2368,
      "ĠTo": 2369,
      "ĠpÅĻÃŃÅ¡": 2370,
      "Ġvsk": 2371,
      "ĠKal": 2372,
      "Äįil": 2373,
      "EED": 2374,
      "ĠpÄĽl": 2375,
      "ĠKalus": 2376,
      "lice": 2377,
      "mil": 2378,
      "ten": 2379,
      "ĠchvÄĽl": 2380,
      "ju": 2381,
      "Ġzar": 2382,
      "Ġter": 2383,
      "Ġbor": 2384,
      "ben": 2385,
      "ĠmraÄį": 2386,
      "ĠnÅ¯m": 2387,
      "Ġtost": 2388,
      "pat": 2389,
      "ĠskÅĻi": 2390,
      "Å¡eni": 2391,
      "ĠstrÃ½": 2392,
      "ÃĿCH": 2393,
      "ĠKollÃ¡r": 2394,
      "tÃ©": 2395,
      "vÅ¡em": 2396,
      "rech": 2397,
      "Ġkly": 2398,
      "Ġmluv": 2399,
      "PO": 2400,
      "ber": 2401,
      "Ġprach": 2402,
      "ĠNO": 2403,
      "moÅĻe": 2404,
      "svoji": 2405,
      "LÃģ": 2406,
      "Ġkej": 2407,
      "skÃ©": 2408,
      "Ġvpro": 2409,
      "ĠzlÃ¡": 2410,
      "ĠpÅĻÃŃs": 2411,
      "Ġrej": 2412,
      "cÃŃ": 2413,
      "bÃ¡": 2414,
      "pani": 2415,
      "ĠfÃ¡": 2416,
      "Ġvzde": 2417,
      "ĠvÄĽÅĻ": 2418,
      "dnes": 2419,
      "VA": 2420,
      "Ġklet": 2421,
      "Ġvce": 2422,
      "ĠhÃ½m": 2423,
      "moci": 2424,
      "ĠNejed": 2425,
      "ĠloÄı": 2426,
      "Ã¡bo": 2427,
      "Ġkar": 2428,
      "bylo": 2429,
      "ĠtiÄį": 2430,
      "ĠpoÄį": 2431,
      "ĠlÃŃm": 2432,
      "LU": 2433,
      "per": 2434,
      "ĠÄįÃŃÅ¡": 2435,
      "byt": 2436,
      "Å¾al": 2437,
      "Ġzum": 2438,
      "ĠNejedlÃ½": 2439,
      "Ġran": 2440,
      "slova": 2441,
      "ĠzdÄĽ": 2442,
      "ĠzrÃ¡d": 2443,
      "ĠÅłe": 2444,
      "Ġcet": 2445,
      "ĠTÃ¡bo": 2446,
      "mne": 2447,
      "dlou": 2448,
      "ĠABABCCB": 2449,
      "Ġtrem": 2450,
      "ÅĻad": 2451,
      "ĠsplÃ½": 2452,
      "ĠhÅĻbi": 2453,
      "tve": 2454,
      "ĠstrÃ¡Å¾": 2455,
      "Ġvyz": 2456,
      "Ġmor": 2457,
      "losti": 2458,
      "ĠTÃ¡borskÃ½": 2459,
      "Ġtvor": 2460,
      "Ġvrh": 2461,
      "Å¡ÃŃ": 2462,
      "Ġvzte": 2463,
      "Ġzko": 2464,
      "taji": 2465,
      "ĠdÃ¡t": 2466,
      "usta": 2467,
      "ĠvraÅ¾": 2468,
      "ĠNone": 2469,
      "ĠkrÅ¯": 2470,
      "ĠPÃŃ": 2471,
      "Ġkp": 2472,
      "ĠvÅ¯d": 2473,
      "EK": 2474,
      "ĠTa": 2475,
      "ztra": 2476,
      "Ġtin": 2477,
      "Ġchat": 2478,
      "ml": 2479,
      "Ġtl": 2480,
      "Ġcti": 2481,
      "div": 2482,
      "Ġzba": 2483,
      "Ġsra": 2484,
      "Ġhar": 2485,
      "dislav": 2486,
      "domu": 2487,
      "vim": 2488,
      "nky": 2489,
      "Ġpen": 2490,
      "ĠvzÃ¡c": 2491,
      "ĠFu": 2492,
      "Ġkor": 2493,
      "LOV": 2494,
      "nku": 2495,
      "ĠÅ¾em": 2496,
      "Ã¡k": 2497,
      "nil": 2498,
      "Ġvad": 2499,
      "smr": 2500,
      "ĠbÄĽd": 2501,
      "ĠHnÄĽv": 2502,
      "Ġscho": 2503,
      "ĠJiÅĻÃŃ": 2504,
      "Ġvtu": 2505,
      "Ġvta": 2506,
      "ĠnaÅĪ": 2507,
      "ĠLeub": 2508,
      "ĠLeubner": 2509,
      "ĠpryÄį": 2510,
      "Ġhrou": 2511,
      "ĠÄıÃ¡": 2512,
      "Ġlez": 2513,
      "ĠÅłebe": 2514,
      "Ġlep": 2515,
      "stiÃ¡n": 2516,
      "ĠHnÄĽvkovskÃ½": 2517,
      "ĠÅłebestiÃ¡n": 2518,
      "Å¯v": 2519,
      "duÅ¡e": 2520,
      "tvaÅĻi": 2521,
      "Ġkyt": 2522,
      "Ġlec": 2523,
      "nese": 2524,
      "ĠvÅĻa": 2525,
      "ĠhnÃŃz": 2526,
      "Ġknu": 2527,
      "Ġzdu": 2528,
      "ĠvsÃŃ": 2529,
      "Ġbec": 2530,
      "Ġstrach": 2531,
      "ĠdÃŃt": 2532,
      "Ġoz": 2533,
      "ĠÃ¡": 2534,
      "ĠmÄĽj": 2535,
      "svÄĽta": 2536,
      "Ġkov": 2537,
      "Ġvzdech": 2538,
      "Ġsro": 2539,
      "ĠplÃ¡Äį": 2540,
      "vrati": 2541,
      "ĠtvÃ©m": 2542,
      "ĠblÃ½s": 2543,
      "ĠÅ¾dy": 2544,
      "ĠviÄį": 2545,
      "ĠpÃ¡r": 2546,
      "Ġdum": 2547,
      "Ġos": 2548,
      "Ġsky": 2549,
      "dÄĽje": 2550,
      "ÅĻem": 2551,
      "ĠvtvÃ¡": 2552,
      "ĠplÃŃ": 2553,
      "boÅ¾i": 2554,
      "SKÃī": 2555,
      "Ġsnu": 2556,
      "rej": 2557,
      "byti": 2558,
      "smich": 2559,
      "zdra": 2560,
      "ĠpÄĽv": 2561,
      "ĠÅ¡ly": 2562,
      "ĠÅ¡at": 2563,
      "Ġben": 2564,
      "Ġpros": 2565,
      "ĠMO": 2566,
      "Ġjme": 2567,
      "lan": 2568,
      "ĠAAXA": 2569,
      "Ġklam": 2570,
      "valy": 2571,
      "dava": 2572,
      "muÅ¾e": 2573,
      "hlavu": 2574,
      "ĠdnÅ¯": 2575,
      "Ġblan": 2576,
      "ĠnÃ¡d": 2577,
      "Ġblud": 2578,
      "Ġtly": 2579,
      "ĠvlÃ¡s": 2580,
      "Ġvzdor": 2581,
      "kles": 2582,
      "Ġlit": 2583,
      "dam": 2584,
      "Ġtov": 2585,
      "ĠVla": 2586,
      "ĠtÃŃÅ¡": 2587,
      "tvr": 2588,
      "ĠtlÃ©": 2589,
      "Ġhas": 2590,
      "ĠzÃŃch": 2591,
      "Ġfran": 2592,
      "IM": 2593,
      "ÅĻici": 2594,
      "ĠbiÄį": 2595,
      "vidi": 2596,
      "ĠÅ¡o": 2597,
      "Ġhoch": 2598,
      "cely": 2599,
      "TA": 2600,
      "ĠZA": 2601,
      "poli": 2602,
      "Ġtor": 2603,
      "Ġviz": 2604,
      "Ġdny": 2605,
      "Å¾it": 2606,
      "GHGH": 2607,
      "Ġdek": 2608,
      "krev": 2609,
      "ĠrÃ¡m": 2610,
      "ary": 2611,
      "Ġpel": 2612,
      "ĠdrÃ½": 2613,
      "Ġtrou": 2614,
      "mno": 2615,
      "Ġhlav": 2616,
      "Äįko": 2617,
      "Ġzto": 2618,
      "mira": 2619,
      "AD": 2620,
      "cek": 2621,
      "Ġhat": 2622,
      "ĠLadislav": 2623,
      "Ġjez": 2624,
      "Ġmech": 2625,
      "nova": 2626,
      "fa": 2627,
      "ĠJesen": 2628,
      "Ġbit": 2629,
      "nika": 2630,
      "duch": 2631,
      "nÄĽjÅ¡i": 2632,
      "ĠkrÃ½": 2633,
      "ENÃį": 2634,
      "ĠskÅĻÃŃ": 2635,
      "ĠdÃ¡Å¡": 2636,
      "ĠdvÃ¡": 2637,
      "Ġkbo": 2638,
      "ĠÅ¡ÃŃÅ¡": 2639,
      "ĠRÅ¯Å¾ena": 2640,
      "ĠJesenskÃ¡": 2641,
      "ĠJaromÃŃr": 2642,
      "Ġvkra": 2643,
      "ĠvÄĽc": 2644,
      "pada": 2645,
      "ĠrÅ¯z": 2646,
      "UD": 2647,
      "Ġzdi": 2648,
      "Ġzhy": 2649,
      "ĠchrÃ¡m": 2650,
      "Äįeni": 2651,
      "Ġsve": 2652,
      "ĠdlÃ½": 2653,
      "ĠvznÃ¡": 2654,
      "mal": 2655,
      "hnÄĽ": 2656,
      "Ġlin": 2657,
      "Ġrad": 2658,
      "Ġmek": 2659,
      "Ġgu": 2660,
      "ĠXAXABB": 2661,
      "Ġskro": 2662,
      "GF": 2663,
      "ĠbÃ¡ch": 2664,
      "sily": 2665,
      "Ġpln": 2666,
      "KO": 2667,
      "Ġrt": 2668,
      "Ġzil": 2669,
      "bily": 2670,
      "ĠABABCCD": 2671,
      "ĠzvlÃ¡Å¡": 2672,
      "Ġvin": 2673,
      "ĠdnÃ©": 2674,
      "Ġvor": 2675,
      "ĠNE": 2676,
      "lil": 2677,
      "ÅĻek": 2678,
      "ĠSi": 2679,
      "Ġmil": 2680,
      "zaÅĻi": 2681,
      "tele": 2682,
      "ĠznÄĽl": 2683,
      "Ġdot": 2684,
      "prou": 2685,
      "cela": 2686,
      "Ġpit": 2687,
      "pol": 2688,
      "ĠXAABB": 2689,
      "Ġtrh": 2690,
      "Ġvji": 2691,
      "ĠztÄĽch": 2692,
      "Å¾dy": 2693,
      "Ġved": 2694,
      "Ġdlem": 2695,
      "Ġvroz": 2696,
      "ĠdÃ¡n": 2697,
      "Ġzdro": 2698,
      "sud": 2699,
      "ĠRo": 2700,
      "sten": 2701,
      "vin": 2702,
      "ĠsÃ¡h": 2703,
      "Ġtmy": 2704,
      "Å¯d": 2705,
      "vsta": 2706,
      "zje": 2707,
      "ĠsvÃ¡t": 2708,
      "EFFE": 2709,
      "dat": 2710,
      "Ġnno": 2711,
      "wic": 2712,
      "Ġsit": 2713,
      "ĠÅ¾ÃŃÅ¡": 2714,
      "nec": 2715,
      "cich": 2716,
      "Ġbin": 2717,
      "sl": 2718,
      "nach": 2719,
      "Ġklu": 2720,
      "ÅĻit": 2721,
      "ĠLI": 2722,
      "ĠSuÅ¡il": 2723,
      "Ġkmo": 2724,
      "Ġvrat": 2725,
      "ĠsÃº": 2726,
      "ĠtÃ³": 2727,
      "Ġhol": 2728,
      "Ġtrys": 2729,
      "ĠvkaÅ¾": 2730,
      "wicz": 2731,
      "Ġtev": 2732,
      "ĠAABBCCDDEEFFGGHH": 2733,
      "Ġnnou": 2734,
      "zpiva": 2735,
      "pal": 2736,
      "Ġvhlou": 2737,
      "ditÄĽ": 2738,
      "NÃģ": 2739,
      "lda": 2740,
      "ĠÄįej": 2741,
      "hrad": 2742,
      "Å¾eni": 2743,
      "ĠhÃ¡m": 2744,
      "kni": 2745,
      "lic": 2746,
      "knÄĽ": 2747,
      "ĠÅĻÃŃÅ¡": 2748,
      "Ġbru": 2749,
      "cit": 2750,
      "ĠOd": 2751,
      "Äįela": 2752,
      "ĠÄįal": 2753,
      "VÃį": 2754,
      "ĠvÅ¡ÃŃm": 2755,
      "ĠNÃģ": 2756,
      "ÅĻo": 2757,
      "Ġkdos": 2758,
      "ĠlÃŃc": 2759,
      "ĠzÃº": 2760,
      "vÅ¡ech": 2761,
      "ĠBO": 2762,
      "ĠtÃ¡m": 2763,
      "Ġnna": 2764,
      "LADA": 2765,
      "zpÄĽt": 2766,
      "Ġhloub": 2767,
      "Ġlze": 2768,
      "ples": 2769,
      "nani": 2770,
      "ĠchtÃŃ": 2771,
      "Ġtve": 2772,
      "TÄļ": 2773,
      "VII": 2774,
      "Ġzpu": 2775,
      "vÃ½ch": 2776,
      "Ġlam": 2777,
      "vdÄĽ": 2778,
      "dala": 2779,
      "snÄĽni": 2780,
      "ruce": 2781,
      "ĠklÃ©": 2782,
      "Ġvtem": 2783,
      "Ġzku": 2784,
      "dvo": 2785,
      "plo": 2786,
      "Ġskr": 2787,
      "Ġin": 2788,
      "ĠlkÃ¡": 2789,
      "blo": 2790,
      "tod": 2791,
      "mek": 2792,
      "ĠKulda": 2793,
      "ĠMetod": 2794,
      "ĠrÃ¡ch": 2795,
      "Ġdrav": 2796,
      "Ġjdi": 2797,
      "hen": 2798,
      "nic": 2799,
      "kdy": 2800,
      "Ġluz": 2801,
      "ĠÅ¡er": 2802,
      "Ġhez": 2803,
      "tku": 2804,
      "ĠslÃŃm": 2805,
      "ĠrÃ¡j": 2806,
      "dale": 2807,
      "Ġvsi": 2808,
      "Ġthe": 2809,
      "ĠÅ¾er": 2810,
      "Ġbod": 2811,
      "ĠmlÄį": 2812,
      "kor": 2813,
      "Ġkus": 2814,
      "naÅ¡i": 2815,
      "ĠknÄĽÅ¾": 2816,
      "ĠdÃ¡ch": 2817,
      "Ġpsa": 2818,
      "Ġbled": 2819,
      "diny": 2820,
      "mila": 2821,
      "ĠvzplÃ¡": 2822,
      "srdce": 2823,
      "kowicz": 2824,
      "ojkowicz": 2825,
      "ĠWojkowicz": 2826,
      "bled": 2827,
      "ĠBohuslav": 2828,
      "skem": 2829,
      "hal": 2830,
      "Ġtri": 2831,
      "ĠCH": 2832,
      "tebe": 2833,
      "ĠnnÃ¡": 2834,
      "ĠcÅ¯m": 2835,
      "bil": 2836,
      "RI": 2837,
      "ĠâĢŀ": 2838,
      "Ġvlh": 2839,
      "Ġzlou": 2840,
      "leni": 2841,
      "ĠABABCDCDEFEF": 2842,
      "lasky": 2843,
      "ĠvdÄĽÄį": 2844,
      "plu": 2845,
      "ĠÄįo": 2846,
      "ĠzÃŃm": 2847,
      "Ġpem": 2848,
      "ĠhÃ©m": 2849,
      "ĠÅ¡Ã¡": 2850,
      "ĠvÅĻel": 2851,
      "hvÄĽzd": 2852,
      "Ġken": 2853,
      "Ġhost": 2854,
      "ĠvÃ½s": 2855,
      "Ġvjed": 2856,
      "ĠHO": 2857,
      "Ġdlu": 2858,
      "ĠVin": 2859,
      "ĠsaÅĻ": 2860,
      "ĠmrÃ¡z": 2861,
      "cenc": 2862,
      "ĠmÅ¾i": 2863,
      "Ġjsa": 2864,
      "ĠVÃŃ": 2865,
      "ĠBa": 2866,
      "moc": 2867,
      "ĠzpÃ¡t": 2868,
      "ĠFurch": 2869,
      "ĠVincenc": 2870,
      "ĠkvÃ©": 2871,
      "ĠzprÃ¡": 2872,
      "ell": 2873,
      "mar": 2874,
      "moÅĻi": 2875,
      "Ġsno": 2876,
      "tim": 2877,
      "Ġsic": 2878,
      "Ġmli": 2879,
      "buh": 2880,
      "Ġchli": 2881,
      "ĠstvÃŃm": 2882,
      "ĠsluÅ¾": 2883,
      "ĠnosÅ¥": 2884,
      "Ġkan": 2885,
      "ĠvkrÃ¡": 2886,
      "ĠstÅĻi": 2887,
      "Ġlib": 2888,
      "ĠlÃŃch": 2889,
      "ĠhlÃ½": 2890,
      "Ġchl": 2891,
      "Ġzval": 2892,
      "Ġau": 2893,
      "ĠKRÃģ": 2894,
      "hoÅĻe": 2895,
      "vza": 2896,
      "tvaÅĻ": 2897,
      "dÄĽt": 2898,
      "nÃ½m": 2899,
      "pÅĻa": 2900,
      "Ġ2": 2901,
      "vaji": 2902,
      "cko": 2903,
      "jde": 2904,
      "Ġpur": 2905,
      "ĠZa": 2906,
      "ĠsbÃŃ": 2907,
      "vira": 2908,
      "dÄĽli": 2909,
      "tiÅ¡e": 2910,
      "Ġvte": 2911,
      "Ġbral": 2912,
      "Ġknou": 2913,
      "hrob": 2914,
      "ĠboÅ¥": 2915,
      "Ġjan": 2916,
      "ĠAXAX": 2917,
      "nove": 2918,
      "muj": 2919,
      "ĠvmÄĽ": 2920,
      "slou": 2921,
      "kvÄĽtu": 2922,
      "Ġgra": 2923,
      "ĠvstÃŃ": 2924,
      "Ġzha": 2925,
      "RT": 2926,
      "jte": 2927,
      "ĠBÅĻe": 2928,
      "ĠvÄĽÅ¡": 2929,
      "Ġknim": 2930,
      "Ġbel": 2931,
      "Ġstes": 2932,
      "Ġvstou": 2933,
      "praci": 2934,
      "ĠvÅ¡ed": 2935,
      "ĠÄįty": 2936,
      "kol": 2937,
      "ĠLo": 2938,
      "Ġx": 2939,
      "kras": 2940,
      "ĠlaÄį": 2941,
      "jeji": 2942,
      "krat": 2943,
      "ĠchÃ¡m": 2944,
      "lost": 2945,
      "ĠspÃŃÅ¡": 2946,
      "kolem": 2947,
      "ÃģNÃį": 2948,
      "KOV": 2949,
      "ĠÄįu": 2950,
      "Ġlesk": 2951,
      "Ġvse": 2952,
      "Ġvmy": 2953,
      "ĠJE": 2954,
      "lidi": 2955,
      "Ġsej": 2956,
      "Ġslil": 2957,
      "mÄĽla": 2958,
      "Ġvpou": 2959,
      "ret": 2960,
      "ĠhÅĻÃŃch": 2961,
      "ĠGell": 2962,
      "ĠGellner": 2963,
      "ply": 2964,
      "vola": 2965,
      "nÄĽni": 2966,
      "ĠABBACCDD": 2967,
      "ĠÄįech": 2968,
      "ĠXXXXXXXXX": 2969,
      "Ġruch": 2970,
      "ĠskrÃ¡ÅĪ": 2971,
      "Ġuz": 2972,
      "leb": 2973,
      "Ġtok": 2974,
      "ĠABABB": 2975,
      "ĠJak": 2976,
      "ĠAABCCBDD": 2977,
      "Å¾el": 2978,
      "Ġchmur": 2979,
      "ĠvÃŃr": 2980,
      "Äįelo": 2981,
      "ĠÅ¡it": 2982,
      "Ġsbor": 2983,
      "ĠdÃŃk": 2984,
      "IE": 2985,
      "vÄĽku": 2986,
      "var": 2987,
      "Ġcest": 2988,
      "ĠPOD": 2989,
      "SKÃģ": 2990,
      "mlu": 2991,
      "ĠoÄį": 2992,
      "Ġjil": 2993,
      "Ġdrech": 2994,
      "ĠlÃ¡ch": 2995,
      "VIII": 2996,
      "skou": 2997,
      "ĠvÄįer": 2998,
      "ĠÅĻÅ¯": 2999,
      "Ġteh": 3000,
      "dila": 3001,
      "Ġsje": 3002,
      "Ġtlou": 3003,
      "ĠÅĻec": 3004,
      "Ġlat": 3005,
      "Ġrat": 3006,
      "ĠtÄĽj": 3007,
      "ĠpÄĽj": 3008,
      "ÅĻeÄįi": 3009,
      "Ġplou": 3010,
      "XH": 3011,
      "Ġvkou": 3012,
      "Ġzvl": 3013,
      "Ġchva": 3014,
      "muÅ¾": 3015,
      "Ġplod": 3016,
      "cel": 3017,
      "Ġhad": 3018,
      "sila": 3019,
      "dobÄĽ": 3020,
      "Ġskon": 3021,
      "pru": 3022,
      "dve": 3023,
      "nami": 3024,
      "snu": 3025,
      "sbo": 3026,
      "kova": 3027,
      "CBC": 3028,
      "Ġbyt": 3029,
      "Ġdvou": 3030,
      "mala": 3031,
      "ĠmÅ¯Å¾": 3032,
      "Ġdni": 3033,
      "ĠvpÅĻÃŃ": 3034,
      "Å¾ene": 3035,
      "ĠPa": 3036,
      "voz": 3037,
      "Äįera": 3038,
      "stala": 3039,
      "Äįne": 3040,
      "ĠvpÃŃ": 3041,
      "ĠROM": 3042,
      "mit": 3043,
      "Ġstesk": 3044,
      "ĠRa": 3045,
      "ĠXXXXXXXXXX": 3046,
      "ĠvnÃŃÅ¾": 3047,
      "ptak": 3048,
      "ĠHÃ¡": 3049,
      "ĠMahen": 3050,
      "ÅĻeni": 3051,
      "Ġkz": 3052,
      "nak": 3053,
      "Ġksrd": 3054,
      "ĠLeger": 3055,
      "ĠKO": 3056,
      "Ġtich": 3057,
      "ĠkvÃŃt": 3058,
      "Ġtat": 3059,
      "zpÄĽv": 3060,
      "ĠcÃŃl": 3061,
      "Ġtiv": 3062,
      "ĠVII": 3063,
      "zku": 3064,
      "vila": 3065,
      "spolu": 3066,
      "Ġvzbu": 3067,
      "ĠjvÃŃ": 3068,
      "skal": 3069,
      "kani": 3070,
      "ĠbÄĽh": 3071,
      "Ġmon": 3072,
      "ĠlÃŃÄį": 3073,
      "vati": 3074,
      "Ġzhou": 3075,
      "ĠABB": 3076,
      "hÃ¡": 3077,
      "ĠhÅ¯m": 3078,
      "Ġvso": 3079,
      "NÃī": 3080,
      "noc": 3081,
      "ĠXXXXXXXXXXXXXXXXXXXX": 3082,
      "dum": 3083,
      "ĠhlÃ©d": 3084,
      "ÄĮNÃį": 3085,
      "Ġstla": 3086,
      "Ġvkr": 3087,
      "zim": 3088,
      "ĠvsvÃ©m": 3089,
      "stavi": 3090,
      "ĠzlÃ½": 3091,
      "Ġclo": 3092,
      "ĠmÄĽst": 3093,
      "Ġvrouc": 3094,
      "Ġskvost": 3095,
      "ĠdiÅ¾": 3096,
      "EST": 3097,
      "chvile": 3098,
      "ĠtvÃ½": 3099,
      "mam": 3100,
      "mily": 3101,
      "lena": 3102,
      "vane": 3103,
      "Ġzl": 3104,
      "Ġmdlo": 3105,
      "ĠsÅ¯m": 3106,
      "ĠzÅĻÃŃt": 3107,
      "Ġkup": 3108,
      "dny": 3109,
      "ĠhluÄį": 3110,
      "Ġnaz": 3111,
      "EDE": 3112,
      "ĠhÅĻmÃŃ": 3113,
      "Ġpas": 3114,
      "stat": 3115,
      "pravi": 3116,
      "Ġbej": 3117,
      "ÅĻiti": 3118,
      "ÄĮER": 3119,
      "leta": 3120,
      "âĢľ": 3121,
      "tlu": 3122,
      "pen": 3123,
      "Ġvnu": 3124,
      "dÄĽji": 3125,
      "dly": 3126,
      "vot": 3127,
      "dob": 3128,
      "moje": 3129,
      "kral": 3130,
      "snad": 3131,
      "vota": 3132,
      "ĠplÃ½": 3133,
      "zase": 3134,
      "Ġvost": 3135,
      "bila": 3136,
      "tÄĽla": 3137,
      "ĠvtÄĽch": 3138,
      "ĠkÅĻes": 3139,
      "ĠvyÅ¡": 3140,
      "Ġvyh": 3141,
      "Ġfu": 3142,
      "ĠdÃŃl": 3143,
      "ĠtÅĻil": 3144,
      "ĠABBACC": 3145,
      "Ġblak": 3146,
      "Ġrtech": 3147,
      "ĠBAL": 3148,
      "mena": 3149,
      "meny": 3150,
      "dro": 3151,
      "hlavou": 3152,
      "ceni": 3153,
      "Ġchlu": 3154,
      "ĠtÃ½l": 3155,
      "klad": 3156,
      "ĠslÃ½": 3157,
      "Ġsnem": 3158,
      "ĠXI": 3159,
      "Ġdnem": 3160,
      "vÃŃk": 3161,
      "Ġlan": 3162,
      "ĠvpÅĻed": 3163,
      "RU": 3164,
      "ĠtÃ¡n": 3165,
      "hlou": 3166,
      "Ġsmi": 3167,
      "Ġfal": 3168,
      "jak": 3169,
      "Ġpes": 3170,
      "vod": 3171,
      "ĠPA": 3172,
      "ĠvmÃ©": 3173,
      "ĠÅ¾eb": 3174,
      "Ġspu": 3175,
      "Ġtur": 3176,
      "zli": 3177,
      "kviti": 3178,
      "skvÄĽ": 3179,
      "ĠÅĪu": 3180,
      "HÃģ": 3181,
      "Ġjat": 3182,
      "zina": 3183,
      "Ġzbro": 3184,
      "ĠPÃŃseÅĪ": 3185,
      "Ġrost": 3186,
      "ĠÅ¾as": 3187,
      "ĠmÃ¡t": 3188,
      "SA": 3189,
      "Ġvslun": 3190,
      "ĠsliÄį": 3191,
      "ĠrtÅ¯": 3192,
      "Ġtej": 3193,
      "Ġvet": 3194,
      "Ġstran": 3195,
      "ĠniÅ¾": 3196,
      "ĠMar": 3197,
      "ĠvbÃŃ": 3198,
      "ĠLud": 3199,
      "ĠSM": 3200,
      "Ġrci": 3201,
      "ĠME": 3202,
      "ĠABABX": 3203,
      "dani": 3204,
      "ĠmÅĻel": 3205,
      "ĠGusta": 3206,
      "Ġspro": 3207,
      "Ġhon": 3208,
      "ĠVÃŃtÄĽz": 3209,
      "ĠGustav": 3210,
      "ĠkÅ¯v": 3211,
      "ĠdlaÅĪ": 3212,
      "tÄĽlo": 3213,
      "Ġzkou": 3214,
      "ĠknÄĽz": 3215,
      "Ġdna": 3216,
      "Ġvnad": 3217,
      "ĠPetr": 3218,
      "vÄĽk": 3219,
      "Ã¼": 3220,
      "ĠVÃģ": 3221,
      "Ġslech": 3222,
      "ĠhrÃ¡l": 3223,
      "ĠPokor": 3224,
      "bal": 3225,
      "ĠPokornÃ½": 3226,
      "ÃģN": 3227,
      "Ġren": 3228,
      "hledi": 3229,
      "nila": 3230,
      "vÄĽr": 3231,
      "Ġvten": 3232,
      "ĠÄįÅ¯": 3233,
      "ot": 3234,
      "Ġkap": 3235,
      "ĠÅ½IV": 3236,
      "hr": 3237,
      "Ġprch": 3238,
      "zmÄĽ": 3239,
      "nas": 3240,
      "EEF": 3241,
      "Ġzvi": 3242,
      "Å¡Å¥Ã¡k": 3243,
      "Ġcou": 3244,
      "TE": 3245,
      "ĠLoÅ¡Å¥Ã¡k": 3246,
      "ĠLudvÃŃk": 3247,
      "vas": 3248,
      "ĠkvÃ¡": 3249,
      "Ġrev": 3250,
      "Ġvhlu": 3251,
      "rie": 3252,
      "Ġneh": 3253,
      "zel": 3254,
      "Ġvzpla": 3255,
      "Ġvry": 3256,
      "Ġfo": 3257,
      "Ġ3": 3258,
      "ruÅ¾e": 3259,
      "ca": 3260,
      "ĠkÃ¡n": 3261,
      "ĠchÃ©m": 3262,
      "mene": 3263,
      "gi": 3264,
      "sebe": 3265,
      "ĠZÃģ": 3266,
      "ÃįN": 3267,
      "Ġdoj": 3268,
      "Ġvhla": 3269,
      "ĠvnichÅ¾": 3270,
      "mem": 3271,
      "vuj": 3272,
      "ĠlÃ¡m": 3273,
      "ĠÅ¡lech": 3274,
      "jar": 3275,
      "ĠzÃ¡m": 3276,
      "lesti": 3277,
      "Ġmoz": 3278,
      "Ġej": 3279,
      "Ġvdi": 3280,
      "ĠtÅĻpyt": 3281,
      "Ġkvi": 3282,
      "Ġzek": 3283,
      "sveho": 3284,
      "FF": 3285,
      "Ġkaz": 3286,
      "ĠveÅ¡": 3287,
      "dolu": 3288,
      "svÄĽtu": 3289,
      "ĠÅ¥ast": 3290,
      "stinu": 3291,
      "ĠAABBA": 3292,
      "ĠlÃ©b": 3293,
      "Ġlic": 3294,
      "bliÅ¾": 3295,
      "ĠvraÅ¥": 3296,
      "ĠpohÅĻ": 3297,
      "ÅĻas": 3298,
      "ĠpeÄį": 3299,
      "Ġnuv": 3300,
      "Ġvpe": 3301,
      "ĠPR": 3302,
      "Ġpras": 3303,
      "ani": 3304,
      "ĠÅ¾eÅ¡": 3305,
      "Ġkev": 3306,
      "bohu": 3307,
      "Ġvml": 3308,
      "ceny": 3309,
      "dav": 3310,
      "ĠVÃŃtÄĽzslav": 3311,
      "Ġzdr": 3312,
      "ĠBÅĻezina": 3313,
      "ĠHÃ¡lek": 3314,
      "ruku": 3315,
      "bec": 3316,
      "Ġvja": 3317,
      "Äįel": 3318,
      "ĠchlÃ©b": 3319,
      "nÃŃk": 3320,
      "tobÄĽ": 3321,
      "ĠtÃŃÅĻ": 3322,
      "chazi": 3323,
      "ĠXAXAB": 3324,
      "ĠcÃŃr": 3325,
      "ĠstrÃ©": 3326,
      "toÄįi": 3327,
      "Ġvstal": 3328,
      "ĠmrÃ¡": 3329,
      "stale": 3330,
      "ĠjimÅ¾": 3331,
      "ĠÅ¾ÃŃz": 3332,
      "stane": 3333,
      "LED": 3334,
      "Å¡im": 3335,
      "kÅĻik": 3336,
      "Ġdom": 3337,
      "try": 3338,
      "ĠpÅĻej": 3339,
      "valil": 3340,
      "ĠDU": 3341,
      "Ġpoc": 3342,
      "budi": 3343,
      "ĠkÃ½s": 3344,
      "Ġzho": 3345,
      "maly": 3346,
      "Ġpast": 3347,
      "zky": 3348,
      "Ġdrs": 3349,
      "Ġtmou": 3350,
      "citi": 3351,
      "Å¾ha": 3352,
      "Ġnap": 3353,
      "Ġjov": 3354,
      "Ġpli": 3355,
      "leka": 3356,
      "ĠAABBX": 3357,
      "ĠpÃ¡d": 3358,
      "peni": 3359,
      "svym": 3360,
      "svych": 3361,
      "Ġzpra": 3362,
      "Å¡li": 3363,
      "vÅ¾dy": 3364,
      "Ġraj": 3365,
      "hned": 3366,
      "tom": 3367,
      "Ġchom": 3368,
      "ĠtÄĽs": 3369,
      "Ġsot": 3370,
      "ĠXXXXXXXXXXXXXXXXXXXXXXXXXXXXXXXX": 3371,
      "Ġkel": 3372,
      "um": 3373,
      "ĠhÅĻÃŃÅ¡": 3374,
      "ĠstÃ½ch": 3375,
      "plane": 3376,
      "hni": 3377,
      "Ġklen": 3378,
      "Ġstvu": 3379,
      "byva": 3380,
      "ĠztÃ©": 3381,
      "ĠÅĻad": 3382,
      "nouti": 3383,
      "ĠzaÄį": 3384,
      "ĠvlÅ¯": 3385,
      "ĠslÃ©z": 3386,
      "DY": 3387,
      "mnou": 3388,
      "ĠstaÅĪ": 3389,
      "hÅĻe": 3390,
      "ĠklÃ½": 3391,
      "Ġtud": 3392,
      "ĠsÃŃch": 3393,
      "Ġbek": 3394,
      "ĠVe": 3395,
      "ÄįnÄĽ": 3396,
      "ĠbÃ¡m": 3397,
      "LAV": 3398,
      "Ġner": 3399,
      "Ġzml": 3400,
      "XD": 3401,
      "pane": 3402,
      "hlo": 3403,
      "ĠtÅ¯m": 3404,
      "ĠSVAT": 3405,
      "ĠÅ¾Å¯": 3406,
      "rod": 3407,
      "ĠtÃŃch": 3408,
      "Ġjiz": 3409,
      "ĠtÃ¡ÅĻ": 3410,
      "Ġhym": 3411,
      "Ġnli": 3412,
      "sklani": 3413,
      "jsou": 3414,
      "Ġlad": 3415,
      "Ġmov": 3416,
      "ĠtÃŃÅ¾": 3417,
      "Ġbat": 3418,
      "ĠXXXXXXXXXXX": 3419,
      "ĠVEÄĮER": 3420,
      "mladi": 3421,
      "Ġhbi": 3422,
      "Ġzyk": 3423,
      "ÃģT": 3424,
      "zdvi": 3425,
      "ĠvrÃ¡z": 3426,
      "Ġtrud": 3427,
      "ĠÅĻÃŃch": 3428,
      "ĠÄįtvr": 3429,
      "Ġzkve": 3430,
      "ge": 3431,
      "Ġvbou": 3432,
      "ĠmiÅ¾": 3433,
      "ĠÅ¾ÃŃch": 3434,
      "svem": 3435,
      "ĠVIII": 3436,
      "chyli": 3437,
      "ral": 3438,
      "SKÃĿ": 3439,
      "ĠnnÃ½ch": 3440,
      "stÃŃ": 3441,
      "ĠklÃŃn": 3442,
      "svit": 3443,
      "hl": 3444,
      "ĠnÃ¡ÅĻ": 3445,
      "ĠsÃŃÅ¡": 3446,
      "jal": 3447,
      "chla": 3448,
      "Ġzat": 3449,
      "ĠlÃŃp": 3450,
      "Ġsob": 3451,
      "lov": 3452,
      "Ġvzla": 3453,
      "ĠzÅĻÃŃÅ¡": 3454,
      "ÅłE": 3455,
      "Ġkos": 3456,
      "smrti": 3457,
      "OVA": 3458,
      "kraje": 3459,
      "zmi": 3460,
      "ĠÄįte": 3461,
      "sice": 3462,
      "ĠblÃ¡z": 3463,
      "snih": 3464,
      "Ġchlo": 3465,
      "Ġnos": 3466,
      "pili": 3467,
      "hlÃŃ": 3468,
      "vÅ¡u": 3469,
      "ĠvÃŃÄį": 3470,
      "ĠvrÃ¡s": 3471,
      "kraji": 3472,
      "ĠLi": 3473,
      "Ġlla": 3474,
      "sho": 3475,
      "Ġvkte": 3476,
      "Ġstez": 3477,
      "ĠvklÃŃ": 3478,
      "ĠbdÃŃ": 3479,
      "Ġkop": 3480,
      "ĠstÃ©m": 3481,
      "veni": 3482,
      "ĠmlÃ½": 3483,
      "ĠpoÅ¡": 3484,
      "ĠtnÃŃ": 3485,
      "ĠpusÅ¥": 3486,
      "ĠtlÃ½": 3487,
      "kosti": 3488,
      "kloni": 3489,
      "ĠÅ¾ek": 3490,
      "ĠvÅ¡ic": 3491,
      "ĠSY": 3492,
      "vÅĻel": 3493,
      "Ġkruh": 3494,
      "Ġfan": 3495,
      "stem": 3496,
      "ĠtÃ¡ch": 3497,
      "musi": 3498,
      "mani": 3499,
      "ĠzÃ¡Å¡": 3500,
      "Ġsad": 3501,
      "Ġnny": 3502,
      "teli": 3503,
      "ĠrÃ¡z": 3504,
      "ĠtrÃ½": 3505,
      "ĠPRA": 3506,
      "ĠvÅĪa": 3507,
      "ĠÅĻo": 3508,
      "ĠmÃŃm": 3509,
      "ĠschvÃ¡": 3510,
      "ĠdnÄĽ": 3511,
      "ĠCr": 3512,
      "ĠPAN": 3513,
      "ÃīM": 3514,
      "slava": 3515,
      "zeni": 3516,
      "Ġdev": 3517,
      "ĠpeÅ¾": 3518,
      "Äįna": 3519,
      "duchu": 3520,
      "ur": 3521,
      "ĠÄįnÃŃ": 3522,
      "ĠmlÃ¡d": 3523,
      "CA": 3524,
      "rodu": 3525,
      "Ġlev": 3526,
      "ĠtÃŃs": 3527,
      "Ġhut": 3528,
      "zraky": 3529,
      "zvoni": 3530,
      "Ġzlem": 3531,
      "ĠmoÅĻ": 3532,
      "ĠOpol": 3533,
      "ĠOpolskÃ½": 3534,
      "Å¡ko": 3535,
      "Ġmec": 3536,
      "koli": 3537,
      "Ġvyr": 3538,
      "Ġ1800": 3539,
      "stiny": 3540,
      "Ġctno": 3541,
      "Ġhi": 3542,
      "ĠzvÄĽst": 3543,
      "Å¾ar": 3544,
      "ĠvÃ¡ch": 3545,
      "ĠIX": 3546,
      "ĠdoÄį": 3547,
      "ĠtÅĻÃŃÅ¡": 3548,
      "ĠspÃ¡n": 3549,
      "dit": 3550,
      "hleda": 3551,
      "bile": 3552,
      "ĠvtvÃ©": 3553,
      "Å¡la": 3554,
      "ĠÄįÃ¡t": 3555,
      "Ġsvor": 3556,
      "IS": 3557,
      "Ġkom": 3558,
      "ruch": 3559,
      "ĠnÄĽch": 3560,
      "HA": 3561,
      "Ġvbe": 3562,
      "tich": 3563,
      "ĠdnÃ½": 3564,
      "Ġvhru": 3565,
      "dycha": 3566,
      "ĠMora": 3567,
      "sply": 3568,
      "ĠchÃ½m": 3569,
      "ĠÅ¾es": 3570,
      "had": 3571,
      "ĠreÄį": 3572,
      "mÃ¡ch": 3573,
      "lych": 3574,
      "ĠÅ¡tÃŃt": 3575,
      "Ġvrch": 3576,
      "kali": 3577,
      "ĠjeÅ¥": 3578,
      "ĠÅ¡pat": 3579,
      "Ġvlu": 3580,
      "ĠjvyÅ¡": 3581,
      "Ġmrou": 3582,
      "Ġkmet": 3583,
      "zbra": 3584,
      "Ġdic": 3585,
      "ĠstÃ¡r": 3586,
      "sma": 3587,
      "ĠvplÃ¡": 3588,
      "ĠÅĪÃ¡": 3589,
      "kne": 3590,
      "vraci": 3591,
      "Ġslz": 3592,
      "vel": 3593,
      "ĠlÃ¡t": 3594,
      "dna": 3595,
      "Ġw": 3596,
      "Ġvar": 3597,
      "jeti": 3598,
      "Ġstih": 3599,
      "tÅĻese": 3600,
      "ĠstÅĻÃ¡": 3601,
      "ĠmÄĽÅ¡": 3602,
      "ĠLÃģ": 3603,
      "MA": 3604,
      "Ġstry": 3605,
      "Ġtkli": 3606,
      "znova": 3607,
      "Ġstic": 3608,
      "ĠFer": 3609,
      "ĠÅĪo": 3610,
      "jednou": 3611,
      "ĠvlÃ©": 3612,
      "niti": 3613,
      "bit": 3614,
      "Ġvmra": 3615,
      "ĠzmÃ¡": 3616,
      "ĠpÃ¡s": 3617,
      "CÃį": 3618,
      "ĠvzÃŃ": 3619,
      "ĠÃļ": 3620,
      "Äįny": 3621,
      "vzdo": 3622,
      "ĠsluÅ¡": 3623,
      "ĠvÄĽst": 3624,
      "ĠstÅĻel": 3625,
      "Ġdol": 3626,
      "ĠPÅĺ": 3627,
      "XBB": 3628,
      "ĠzvuÄį": 3629,
      "fer": 3630,
      "ĠbÅĻi": 3631,
      "tila": 3632,
      "ĠFerdina": 3633,
      "lun": 3634,
      "ĠmÄĽch": 3635,
      "Ġav": 3636,
      "stru": 3637,
      "tÅĻpy": 3638,
      "ĠVÄĽ": 3639,
      "ĠtvÅ¯r": 3640,
      "Äįeka": 3641,
      "ĠMI": 3642,
      "pak": 3643,
      "hani": 3644,
      "dlani": 3645,
      "ĠmÅĻÃŃt": 3646,
      "bek": 3647,
      "Ġzdvih": 3648,
      "ĠdneÅ¡": 3649,
      "ÅĻeny": 3650,
      "Ġlli": 3651,
      "vyÅ¡e": 3652,
      "STI": 3653,
      "NÃĿ": 3654,
      "Ġvda": 3655,
      "ĠÅ¡pi": 3656,
      "boje": 3657,
      "slunce": 3658,
      "ĠkÄįe": 3659,
      "Ġpec": 3660,
      "ovÃ¡": 3661,
      "ĠhÅĻÃ¡": 3662,
      "chod": 3663,
      "Ġtlem": 3664,
      "Ġbis": 3665,
      "ĠPra": 3666,
      "Ġprin": 3667,
      "chvÄĽje": 3668,
      "ĠÅ¡ak": 3669,
      "pli": 3670,
      "ĠpÅĻÃŃm": 3671,
      "lesy": 3672,
      "plani": 3673,
      "hali": 3674,
      "ĠCrha": 3675,
      "daji": 3676,
      "jit": 3677,
      "boli": 3678,
      "DKA": 3679,
      "Ġlos": 3680,
      "Ġskut": 3681,
      "ĠFerdinand": 3682,
      "zlata": 3683,
      "Ġzkr": 3684,
      "ĠzkÃ¡": 3685,
      "ĠUden": 3686,
      "nula": 3687,
      "br": 3688,
      "ĠsprÃ¡": 3689,
      "TO": 3690,
      "blou": 3691,
      "smut": 3692,
      "Ġliv": 3693,
      "sme": 3694,
      "Ġvek": 3695,
      "dÄĽle": 3696,
      "ĠvpÅ¯": 3697,
      "ĠplÃ¡l": 3698,
      "skaly": 3699,
      "ĠvsnÄĽ": 3700,
      "Ġdok": 3701,
      "svÄĽtÄĽ": 3702,
      "zvi": 3703,
      "Å¾ije": 3704,
      "XXXXXXXXXXXXXXXXXXXXXXXXXXXXXXXXXXXXXXXXXXXXXXXXXXXXXXXXXXXXXXXX": 3705,
      "ĠbÄĽÅ¥": 3706,
      "ĠbrÃ¡z": 3707,
      "skrani": 3708,
      "Ġspla": 3709,
      "rana": 3710,
      "Ġvci": 3711,
      "ĠbÅĻeh": 3712,
      "dnou": 3713,
      "biti": 3714,
      "TY": 3715,
      "ĠdÃ©l": 3716,
      "vlasy": 3717,
      "Ġzav": 3718,
      "Ġdec": 3719,
      "Ġztr": 3720,
      "Ġryb": 3721,
      "ĠQ": 3722,
      "mÄĽly": 3723,
      "krasy": 3724,
      "DÄļ": 3725,
      "hlad": 3726,
      "Ġvsou": 3727,
      "tan": 3728,
      "ĠÄĮE": 3729,
      "ĠSTAR": 3730,
      "Ġlho": 3731,
      "ĠvÃ¡b": 3732,
      "sny": 3733,
      "Ġvmi": 3734,
      "lani": 3735,
      "Ġvzk": 3736,
      "moji": 3737,
      "GGF": 3738,
      "hosti": 3739,
      "bÃ¡nek": 3740,
      "ĠBabÃ¡nek": 3741,
      "vÅ¯": 3742,
      "staÄįi": 3743,
      "ĠspÄĽÅ¡": 3744,
      "Ġzji": 3745,
      "chle": 3746,
      "ĠbÃ¡j": 3747,
      "ĠsnÄĽÅ¾": 3748,
      "ĠOdvalil": 3749,
      "vni": 3750,
      "Ġteb": 3751,
      "Ġodv": 3752,
      "ĠUhlÃŃ": 3753,
      "Ġvyj": 3754,
      "Ġchot": 3755,
      "stvo": 3756,
      "teÅ¾": 3757,
      "hna": 3758,
      "mlad": 3759,
      "ĠUhlÃŃÅĻ": 3760,
      "zle": 3761,
      "kde": 3762,
      "CXC": 3763,
      "str": 3764,
      "NÃįK": 3765,
      "Ġbrov": 3766,
      "bÅĻi": 3767,
      "Ġki": 3768,
      "malo": 3769,
      "uje": 3770,
      "dalo": 3771,
      "Ġsha": 3772,
      "tah": 3773,
      "bije": 3774,
      "ĠsmÃ¡l": 3775,
      "sklo": 3776,
      "ĠKÅĻi": 3777,
      "Ġplat": 3778,
      "hrudi": 3779,
      "ĠsvÅ¯d": 3780,
      "luje": 3781,
      "Ġctnost": 3782,
      "ĠdÃ©Å¡Å¥": 3783,
      "ĠkvÃ¡m": 3784,
      "Ġzja": 3785,
      "XXXXXX": 3786,
      "cher": 3787,
      "Ġhmo": 3788,
      "Ġznal": 3789,
      "nymi": 3790,
      "ĠzÃ¡ch": 3791,
      "Ġstus": 3792,
      "chova": 3793,
      "ticha": 3794,
      "Ġsnil": 3795,
      "Ġvech": 3796,
      "dati": 3797,
      "Ġroj": 3798,
      "Ġchvat": 3799,
      "cele": 3800,
      "zaÅĻ": 3801,
      "Ġspja": 3802,
      "ĠcÃ¡": 3803,
      "ĠÅ¥an": 3804,
      "ĠtuÅ¾": 3805,
      "vlas": 3806,
      "ĠtrÅ¯n": 3807,
      "vrou": 3808,
      "ĠvÄĽÄı": 3809,
      "JE": 3810,
      "boj": 3811,
      "ĠÅĻin": 3812,
      "Ã¼n": 3813,
      "Äįem": 3814,
      "ÃīHO": 3815,
      "Ġfor": 3816,
      "rada": 3817,
      "zraku": 3818,
      "ĠbdÄĽ": 3819,
      "ĠsÃŃÄį": 3820,
      "ĠÅ¾to": 3821,
      "naÅ¡": 3822,
      "Ġmas": 3823,
      "ĠkeÅĻ": 3824,
      "Ġrech": 3825,
      "Ġluj": 3826,
      "dva": 3827,
      "psa": 3828,
      "Ġchyt": 3829,
      "Ġklou": 3830,
      "Ġstud": 3831,
      "vlad": 3832,
      "ĠÅ¾iÅ¾": 3833,
      "Ġmni": 3834,
      "ĠznÃ¡s": 3835,
      "hrobÄĽ": 3836,
      "ĠvÄĽj": 3837,
      "Ġstis": 3838,
      "stromu": 3839,
      "lada": 3840,
      "ĠvzrÅ¯": 3841,
      "ĠpÃŃt": 3842,
      "DE": 3843,
      "dl": 3844,
      "ĠchÅĻi": 3845,
      "ĠÅłkam": 3846,
      "ĠjvÃŃc": 3847,
      "ĠÅłkampa": 3848,
      "ĠstÃ½m": 3849,
      "Ġvob": 3850,
      "kala": 3851,
      "svÄĽÅ¾i": 3852,
      "star": 3853,
      "tych": 3854,
      "ĠsÃ©": 3855,
      "boha": 3856,
      "vÅ¡ecko": 3857,
      "XE": 3858,
      "kvÃŃ": 3859,
      "Å¡len": 3860,
      "ĠsÄįe": 3861,
      "ĠVO": 3862,
      "rano": 3863,
      "maji": 3864,
      "ĠkÅ¯ÅĪ": 3865,
      "kaz": 3866,
      "Ġsan": 3867,
      "ĠdlÃ½ch": 3868,
      "ĠnÃŃÄį": 3869,
      "tady": 3870,
      "ĠdraÅ¾": 3871,
      "ĠlÅ¯m": 3872,
      "Ġlech": 3873,
      "Ġrve": 3874,
      "Ġplach": 3875,
      "ĠschÃ¡": 3876,
      "Ġlis": 3877,
      "ĠVLA": 3878,
      "Äįele": 3879,
      "ĠAABBCCDDEE": 3880,
      "blu": 3881,
      "Ã¶": 3882,
      "Ġsf": 3883,
      "ĠctÃŃ": 3884,
      "par": 3885,
      "Ġzlu": 3886,
      "hory": 3887,
      "vlasti": 3888,
      "ĠtlÃ¡": 3889,
      "ĠhnÃ¡": 3890,
      "Å®V": 3891,
      "ĠmnÃŃ": 3892,
      "ÅĻim": 3893,
      "ĠhÃ¡ch": 3894,
      "Ġsvat": 3895,
      "ĠdeÄį": 3896,
      "ĠÅ¾et": 3897,
      "matky": 3898,
      "Ġhvoz": 3899,
      "ĠstÅ¯j": 3900,
      "vzdech": 3901,
      "krase": 3902,
      "Ġvzly": 3903,
      "Ġmot": 3904,
      "LÃį": 3905,
      "Ġdoz": 3906,
      "ĠVZ": 3907,
      "ĠvzpÃŃ": 3908,
      "ĠsrÃ¡": 3909,
      "Ġvles": 3910,
      "Ġlich": 3911,
      "Äįasu": 3912,
      "roku": 3913,
      "Ġsple": 3914,
      "Ġspal": 3915,
      "Äįiny": 3916,
      "ĠCa": 3917,
      "her": 3918,
      "ĠblÃ©": 3919,
      "leh": 3920,
      "ĠzbraÅĪ": 3921,
      "vÅ¯r": 3922,
      "zvy": 3923,
      "ĠnÃŃÅ¡": 3924,
      "vina": 3925,
      "Å¥ast": 3926,
      "Ġzte": 3927,
      "Ġkmen": 3928,
      "teÄı": 3929,
      "ĠprÃ¡h": 3930,
      "svÄĽtla": 3931,
      "Ġbur": 3932,
      "rukou": 3933,
      "boku": 3934,
      "Ġklas": 3935,
      "Ġslal": 3936,
      "lep": 3937,
      "kove": 3938,
      "VNÃį": 3939,
      "ÅĻickÃ½": 3940,
      "cest": 3941,
      "Ġvok": 3942,
      "milo": 3943,
      "ĠAl": 3944,
      "ĠvzlÃ©": 3945,
      "Ġzmr": 3946,
      "ĠklÃ¡Å¡": 3947,
      "ĠÄıa": 3948,
      "Ġhluk": 3949,
      "ĠÅ¾hou": 3950,
      "ĠuÅ¡": 3951,
      "ĠÅ¡eÅĪ": 3952,
      "ĠABABCDDC": 3953,
      "pÃŃ": 3954,
      "zveda": 3955,
      "ĠkÅ¾i": 3956,
      "zjev": 3957,
      "sal": 3958,
      "doby": 3959,
      "Ġvkro": 3960,
      "ĠBALLADA": 3961,
      "Ġmlou": 3962,
      "jmen": 3963,
      "Ġchyb": 3964,
      "ĠmÃ¡j": 3965,
      "Ġzhlu": 3966,
      "ĠÄĮen": 3967,
      "Ġhna": 3968,
      "INA": 3969,
      "dar": 3970,
      "tÄĽÅ¾": 3971,
      "pali": 3972,
      "ARO": 3973,
      "staly": 3974,
      "cizi": 3975,
      "ES": 3976,
      "Ġmih": 3977,
      "ĠtÃ¡z": 3978,
      "vapil": 3979,
      "Äįin": 3980,
      "ĠABBACDDC": 3981,
      "svÄĽtem": 3982,
      "Ġ4": 3983,
      "ĠlÃ¡n": 3984,
      "slavy": 3985,
      "ĠÅ¡kle": 3986,
      "Ġdan": 3987,
      "Ġsig": 3988,
      "Ġpre": 3989,
      "TÃį": 3990,
      "Ġsech": 3991,
      "Ġtul": 3992,
      "vit": 3993,
      "Å¡ku": 3994,
      "rost": 3995,
      "nyni": 3996,
      "ĠÅĺ": 3997,
      "prav": 3998,
      "ĠXXXXXXXXXXXXXXXXXXXXXXXX": 3999,
      "ĠÅ¾ik": 4000,
      "ĠÅ½IVO": 4001,
      "Ġvpla": 4002,
      "Ġvrah": 4003,
      "slov": 4004,
      "tÅĻas": 4005,
      "ĠAABCBCDD": 4006,
      "Ġnov": 4007,
      "hradu": 4008,
      "ĠzdaÅ¾": 4009,
      "ĠXXXXXXXXXXXXX": 4010,
      "Ġvbu": 4011,
      "bÄĽÅ¾i": 4012,
      "ĠBoÅ¾ena": 4013,
      "Ġnoch": 4014,
      "ZPÄļV": 4015,
      "Ġvsl": 4016,
      "Ġniv": 4017,
      "dych": 4018,
      "Ġztu": 4019,
      "ĠÅ¡est": 4020,
      "enzi": 4021,
      "ĠtmÄĽ": 4022,
      "Ġsvr": 4023,
      "voj": 4024,
      "Ġvpu": 4025,
      "hlavÄĽ": 4026,
      "ĠchÃ¡ch": 4027,
      "Ġdon": 4028,
      "bolu": 4029,
      "ĠvdÄĽk": 4030,
      "ĠQu": 4031,
      "Äįni": 4032,
      "Ġspe": 4033,
      "ĠplÃ¡t": 4034,
      "ischer": 4035,
      "ĠduÅ¡": 4036,
      "Ġsmo": 4037,
      "ĠtÅĻeÅ¡": 4038,
      "vti": 4039,
      "Ġvab": 4040,
      "ĠFischer": 4041,
      "ĠWenzi": 4042,
      "ĠWenzig": 4043,
      "Å¾ila": 4044,
      "pravÄĽ": 4045,
      "dlit": 4046,
      "Ġstrou": 4047,
      "Ġchi": 4048,
      "ĠvhÃ¡": 4049,
      "viny": 4050,
      "ĠmÃ¡l": 4051,
      "Ġstrh": 4052,
      "ĠMoravskÃ½": 4053,
      "tani": 4054,
      "Ġchet": 4055,
      "ĠSa": 4056,
      "Ġlud": 4057,
      "zira": 4058,
      "ĠMÃ¡": 4059,
      "ĠCh": 4060,
      "Ġchlap": 4061,
      "ĠÅ¡in": 4062,
      "ĠspÄĽl": 4063,
      "ĠmÄĽr": 4064,
      "ĠsÃºs": 4065,
      "ĠchÃ½ch": 4066,
      "chaÅĻ": 4067,
      "ĠnÃ¡c": 4068,
      "ĠzpÅ¯": 4069,
      "Ġzej": 4070,
      "ĠkÅĻiv": 4071,
      "Ġvprach": 4072,
      "ĠsdÃŃ": 4073,
      "Ġdvi": 4074,
      "jim": 4075,
      "ĠbÃŃt": 4076,
      "Ġel": 4077,
      "Ġstoj": 4078,
      "valo": 4079,
      "ĠstÅ¯l": 4080,
      "vdali": 4081,
      "Ġnau": 4082,
      "ĠtiÅ¡": 4083,
      "mir": 4084,
      "Äįet": 4085,
      "Ġvskut": 4086,
      "tvaÅĻe": 4087,
      "pit": 4088,
      "ie": 4089,
      "Ġut": 4090,
      "skne": 4091,
      "Ġvztek": 4092,
      "miru": 4093,
      "ztraci": 4094,
      "ĠjvÄĽt": 4095,
      "prava": 4096,
      "ĠkvÃ½": 4097,
      "lila": 4098,
      "ĠznÃ¡Å¡": 4099,
      "Ġbran": 4100,
      "ĠvznÄĽ": 4101,
      "din": 4102,
      "ĠvÃŃs": 4103,
      "ĠmÄĽt": 4104,
      "kÅĻiÅ¾": 4105,
      "ĠchraÅĪ": 4106,
      "dimÃŃr": 4107,
      "Ġzed": 4108,
      "ĠvmÃ©m": 4109,
      "dej": 4110,
      "leny": 4111,
      "vol": 4112,
      "jeÅ¡tÄĽ": 4113,
      "ĠkdeÅ¾": 4114,
      "ĠdrÃ½ch": 4115,
      "ĠPOS": 4116,
      "boÅ¾": 4117,
      "ĠQuis": 4118,
      "ĠvtvÃ¡ÅĻ": 4119,
      "viru": 4120,
      "ĠzraÄį": 4121,
      "drahy": 4122,
      "Ġvme": 4123,
      "Ġkul": 4124,
      "ĠKvapil": 4125,
      "ĠÃºst": 4126,
      "Ġstek": 4127,
      "pole": 4128,
      "bliÅ¾i": 4129,
      "ĠRacek": 4130,
      "Ġskrom": 4131,
      "ĠABC": 4132,
      "slyÅ¡i": 4133,
      ".*": 4134,
      "ĠKON": 4135,
      "Ġspl": 4136,
      "Ġheb": 4137,
      "Ġclav": 4138,
      "ĠvpÃŃs": 4139,
      "ruÄįi": 4140,
      "Ġskla": 4141,
      "Ġzpi": 4142,
      "buÄı": 4143,
      "strani": 4144,
      "ĠLÃģSK": 4145,
      "vstÅĻi": 4146,
      "zma": 4147,
      "Ġkje": 4148,
      "ĠSE": 4149,
      "jiti": 4150,
      "bly": 4151,
      "CCDCD": 4152,
      "ga": 4153,
      "ĠlÃŃÅ¡": 4154,
      "Ġkryl": 4155,
      "chtÄĽl": 4156,
      "ĠvÄĽl": 4157,
      "ĠleÅ¾": 4158,
      "ĠhvÃŃ": 4159,
      "EDEFF": 4160,
      "Å¾as": 4161,
      "Ġvic": 4162,
      "ĠzbÃ½": 4163,
      "chvÄĽla": 4164,
      "Å¾ivot": 4165,
      "Ġfy": 4166,
      "kvÄĽty": 4167,
      "ĠDÄļ": 4168,
      "ĠBÃģ": 4169,
      "ĠMedek": 4170,
      "dnu": 4171,
      "vlast": 4172,
      "Ġfra": 4173,
      "Ġzaj": 4174,
      "ĠBoro": 4175,
      "novy": 4176,
      "Ġluh": 4177,
      "ĠplÃ¡Å¡": 4178,
      "ĠlÅ¯Å¾": 4179,
      "kov": 4180,
      "ĠpÅĻÃ¡l": 4181,
      "Ġvtip": 4182,
      "ĠBeneÅ¡ovÃ¡": 4183,
      "fle": 4184,
      "niky": 4185,
      "Ġrec": 4186,
      "Å¾enou": 4187,
      "EC": 4188,
      "Ġkho": 4189,
      "Ġprsk": 4190,
      "vÄĽka": 4191,
      "ĠStaÅ¡ek": 4192,
      "ĠvchrÃ¡": 4193,
      "zÅĻe": 4194,
      "jej": 4195,
      "ĠXL": 4196,
      "ĠAntal": 4197,
      "ĠÅ¡t": 4198,
      "ĠnoÅ¾": 4199,
      "ĠjÃ¡k": 4200,
      "ANA": 4201,
      "beni": 4202,
      "Ġlka": 4203,
      "ĠmÃ¡Å¥": 4204,
      "XF": 4205,
      "jdou": 4206,
      "Ġjit": 4207,
      "Ġros": 4208,
      "rek": 4209,
      "ĠKuchaÅĻ": 4210,
      "kva": 4211,
      "vstÅĻic": 4212,
      "Ġzhro": 4213,
      "vÅ¡a": 4214,
      "ĠzdrÃ¡v": 4215,
      "rati": 4216,
      "Ġvist": 4217,
      "mile": 4218,
      "povi": 4219,
      "ĠbÃ¡z": 4220,
      "Ġbl": 4221,
      "Ġkous": 4222,
      "OVÃģ": 4223,
      "patky": 4224,
      "ter": 4225,
      "mina": 4226,
      "Ġ*": 4227,
      "hrou": 4228,
      "tha": 4229,
      "Ġvdla": 4230,
      "svoje": 4231,
      "ĠKou": 4232,
      "Ġrus": 4233,
      "loval": 4234,
      "sedi": 4235,
      "Ġtka": 4236,
      "ĠkÃ¡Å¡": 4237,
      "ĠhÅĻmÄĽ": 4238,
      "Ġzam": 4239,
      "ĠvÃŃk": 4240,
      "ĠÄįist": 4241,
      "OVÃī": 4242,
      "ĠksvÃ©": 4243,
      "ĠcÅ¯v": 4244,
      "mrak": 4245,
      "ĠÅĻu": 4246,
      "skych": 4247,
      "ĠpsÃ¡": 4248,
      "ĠPRVNÃį": 4249,
      "ĠJAR": 4250,
      "tre": 4251,
      "ĠvÄįas": 4252,
      "ĠpÃŃÅ¡": 4253,
      "Ġsse": 4254,
      "ĠzdÃŃ": 4255,
      "strany": 4256,
      "Ġdrost": 4257,
      "stalo": 4258,
      "Äįasy": 4259,
      "ĠvnitÅĻ": 4260,
      "sra": 4261,
      "Ġmus": 4262,
      "zlaty": 4263,
      "ĠsmrÅ¥": 4264,
      "spat": 4265,
      "ĠpÃŃm": 4266,
      "GGH": 4267,
      "Ġstroj": 4268,
      "ĠPÅĺED": 4269,
      "bol": 4270,
      "mÅĻe": 4271,
      "tne": 4272,
      "ĠDE": 4273,
      "ĠtÅĻÃ¡s": 4274,
      "jima": 4275,
      "haji": 4276,
      "ĠjdeÅ¡": 4277,
      "pisni": 4278,
      "ĠhrÃ¡t": 4279,
      "ĠnÄĽmÅ¾": 4280,
      "Äįinu": 4281,
      "zva": 4282,
      "draha": 4283,
      "Ġsdu": 4284,
      "Äįlo": 4285,
      "kat": 4286,
      "AM": 4287,
      "zne": 4288,
      "ĠsplÃ¡": 4289,
      "MEN": 4290,
      "ĠPOHÃģ": 4291,
      "koji": 4292,
      "kami": 4293,
      "Ġdov": 4294,
      "ĠBra": 4295,
      "kri": 4296,
      "Ġshla": 4297,
      "plaÄįe": 4298,
      "Ġhry": 4299,
      "ĠvlaÅ¡": 4300,
      "ĠvtrÃ¡": 4301,
      "hrobu": 4302,
      "DU": 4303,
      "zor": 4304,
      "lene": 4305,
      "Ġmin": 4306,
      "DI": 4307,
      "list": 4308,
      "pÄĽni": 4309,
      "kraÄįi": 4310,
      "ĠÅ¡leh": 4311,
      "Ġvkru": 4312,
      "Ġvpod": 4313,
      "ĠtlÃŃ": 4314,
      "Ġchen": 4315,
      "lidu": 4316,
      "miva": 4317,
      "Ġvsva": 4318,
      "Ġsluch": 4319,
      "ĠspÃ¡t": 4320,
      "ĠKy": 4321,
      "bratÅĻi": 4322,
      "Ġzrov": 4323,
      "ĠVÃį": 4324,
      "Ġzhlou": 4325,
      "svaty": 4326,
      "MU": 4327,
      "tuÅ¡i": 4328,
      "ĠruÅ¡": 4329,
      "Äįest": 4330,
      "Ġsat": 4331,
      "zlate": 4332,
      "jo": 4333,
      "dka": 4334,
      "rov": 4335,
      "vody": 4336,
      "vita": 4337,
      "ĠNOC": 4338,
      "Ġdvor": 4339,
      "Ġ5": 4340,
      "ĠmlÃ©": 4341,
      "ĠsnÃŃt": 4342,
      "ĠtÅĻÃŃs": 4343,
      "Ġkrut": 4344,
      "ĠÄıas": 4345,
      "Ġnot": 4346,
      "CDDCE": 4347,
      "Ġvma": 4348,
      "ĠAABBCDCD": 4349,
      "ĠbliÅ¾": 4350,
      "ĠVa": 4351,
      "Ġzpr": 4352,
      "hlasem": 4353,
      "dyÅ¡e": 4354,
      "ĠznichÅ¾": 4355,
      "lÃŃÄįek": 4356,
      "ĠVlasti": 4357,
      "Ġzhas": 4358,
      "ĠkÃº": 4359,
      "ĠdosÅ¥": 4360,
      "byli": 4361,
      "ĠvkvÄĽ": 4362,
      "ĠOB": 4363,
      "ĠMÃģ": 4364,
      "ĠplÃ¡Å¡Å¥": 4365,
      "hly": 4366,
      "jice": 4367,
      "ĠDÃį": 4368,
      "ĠmeÅ¡": 4369,
      "stava": 4370,
      "ĠspÄĽch": 4371,
      "dÄĽj": 4372,
      "Ġblouz": 4373,
      "pÅĻec": 4374,
      "zde": 4375,
      "zpatky": 4376,
      "Ġksmr": 4377,
      "ĠPfle": 4378,
      "ĠPfleger": 4379,
      "vymi": 4380,
      "Ġlel": 4381,
      "pÄĽti": 4382,
      "Ġzlost": 4383,
      "ĠLEG": 4384,
      "vede": 4385,
      "Ġbrat": 4386,
      "hnu": 4387,
      "ĠY": 4388,
      "Ġchol": 4389,
      "che": 4390,
      "ĠVy": 4391,
      "nci": 4392,
      "zkve": 4393,
      "Ġses": 4394,
      "qu": 4395,
      "Ġpis": 4396,
      "ĠABABCDCDEE": 4397,
      "Ġtros": 4398,
      "ĠXXXXXXXXXXXXXX": 4399,
      "vÅ¡emi": 4400,
      "ĠABBACDCD": 4401,
      "lest": 4402,
      "jiny": 4403,
      "Ġkmit": 4404,
      "vÅ¡ude": 4405,
      "Ġsar": 4406,
      "ĠvbÄĽ": 4407,
      "ras": 4408,
      "ÅĻiÅ¡": 4409,
      "ĠVil": 4410,
      "Ġslast": 4411,
      "UR": 4412,
      "ĠtÄĽn": 4413,
      "ĠbÃ¡l": 4414,
      "NY": 4415,
      "Ġzhu": 4416,
      "kzemi": 4417,
      "klin": 4418,
      "ufer": 4419,
      "vany": 4420,
      "ĠsmÄĽÅ¡": 4421,
      "ĠTaufer": 4422,
      "Ġvku": 4423,
      "ĠsleÄį": 4424,
      "Ġstan": 4425,
      "ĠCEST": 4426,
      "ĠhÅĻeb": 4427,
      "Ġpek": 4428,
      "vdal": 4429,
      "vici": 4430,
      "sek": 4431,
      "ĠEr": 4432,
      "pÃ¡": 4433,
      "Ġkrov": 4434,
      "Ġzta": 4435,
      "hyne": 4436,
      "naÅ¡e": 4437,
      "Ġmed": 4438,
      "Ġvzle": 4439,
      "ĠVÄļ": 4440,
      "vÅ¡ak": 4441,
      "Ġvboj": 4442,
      "ĠviÅ¡": 4443,
      "ĠschÃ½": 4444,
      "ovskÃ½": 4445,
      "Ġvjich": 4446,
      "kÅĻe": 4447,
      "liba": 4448,
      "ĠhÃ¡r": 4449,
      "zdro": 4450,
      "kdysi": 4451,
      "ĠvpÅĻe": 4452,
      "ĠAX": 4453,
      "Ġzin": 4454,
      "pravy": 4455,
      "vÄĽru": 4456,
      "ĠVIN": 4457,
      "padu": 4458,
      "Ġvzlet": 4459,
      "nemu": 4460,
      "fi": 4461,
      "Ġer": 4462,
      "dym": 4463,
      "hnou": 4464,
      "ĠzbÄĽ": 4465,
      "Å¾o": 4466,
      "ĠÅ¡ÃŃp": 4467,
      "raji": 4468,
      "GHHG": 4469,
      "Ġvzra": 4470,
      "ĠBou": 4471,
      "ĠvlasÅ¥": 4472,
      "ĠCo": 4473,
      "ĠAABCBC": 4474,
      "Ġslib": 4475,
      "dÄĽni": 4476,
      "ĠGe": 4477,
      "IX": 4478,
      "ĠVY": 4479,
      "tÄĽj": 4480,
      "zaÅĻe": 4481,
      "Ġsce": 4482,
      "Ġmlad": 4483,
      "ĠleÅĪ": 4484,
      "Ġvaz": 4485,
      "ZE": 4486,
      "Ġnach": 4487,
      "ĠmÃ¡n": 4488,
      "Ġzch": 4489,
      "plati": 4490,
      "mraku": 4491,
      "ĠTomek": 4492,
      "vzal": 4493,
      "ĠhÃ¡j": 4494,
      "Ġss": 4495,
      "ĠÅ¡lÃŃ": 4496,
      "Äįina": 4497,
      "plaÄįi": 4498,
      "prach": 4499,
      "ĠRi": 4500,
      "sledni": 4501,
      "laska": 4502,
      "MÄļ": 4503,
      "ĠvmÃŃ": 4504,
      "ĠhrÅ¯z": 4505,
      "Ġbly": 4506,
      "vinu": 4507,
      "vrat": 4508,
      "ym": 4509,
      "ĠKÅĻiÄįka": 4510,
      "ok": 4511,
      "ĠspÅĻÃ¡": 4512,
      "ĠvÅ¾a": 4513,
      "pouze": 4514,
      "ĠnÅ¯v": 4515,
      "Ġshr": 4516,
      "vaÅ¡": 4517,
      "ei": 4518,
      "ĠmeÅĪ": 4519,
      "mysli": 4520,
      "ĠLIST": 4521,
      "vÅ¾dycky": 4522,
      "Ġplav": 4523,
      "ĠstvÃ¡": 4524,
      "Ġstit": 4525,
      "ĠvrÅ¯": 4526,
      "ĠnoÅ¡": 4527,
      "tiÅ¾": 4528,
      "Ġhni": 4529,
      "vuje": 4530,
      "har": 4531,
      "nouci": 4532,
      "seni": 4533,
      "vÄĽky": 4534,
      "ĠskvÃŃ": 4535,
      "Ġmost": 4536,
      "Ġpsal": 4537,
      "vÄĽtÅ¡i": 4538,
      "ĠmdlÃ½": 4539,
      "selÃ½": 4540,
      "Ġker": 4541,
      "vej": 4542,
      "Ġstel": 4543,
      "sne": 4544,
      "Ġrto": 4545,
      "Ġhyb": 4546,
      "chovÃ¡": 4547,
      "hlava": 4548,
      "stry": 4549,
      "vosti": 4550,
      "ĠÅ¡vi": 4551,
      "Ġdus": 4552,
      "rany": 4553,
      "ĠABABCCDCD": 4554,
      "saha": 4555,
      "panÄĽ": 4556,
      "Ġsym": 4557,
      "Ġnam": 4558,
      "Ġzpod": 4559,
      "ĠtvÃ¡r": 4560,
      "Ġtrest": 4561,
      "Ġkams": 4562,
      "ĠchÅĻe": 4563,
      "Ġvzem": 4564,
      "davy": 4565,
      "Ġvpl": 4566,
      "Ġkryt": 4567,
      "ĠknÃ©": 4568,
      "ĠBA": 4569,
      "ĠOD": 4570,
      "ĠÄįert": 4571,
      "ĠsmÄĽs": 4572,
      "CHO": 4573,
      "Ġrol": 4574,
      "daly": 4575,
      "dilo": 4576,
      "divy": 4577,
      "ĠmdlÃ©": 4578,
      "ĠvznÃŃ": 4579,
      "kaji": 4580,
      "ĠÅ¥u": 4581,
      "Ġzpa": 4582,
      "dobu": 4583,
      "ĠÅ¡im": 4584,
      "Ġmnich": 4585,
      "rani": 4586,
      "Ġmez": 4587,
      "ĠKdy": 4588,
      "Ġkout": 4589,
      "piseÅĪ": 4590,
      "del": 4591,
      "ĠKyselÃ½": 4592,
      "STA": 4593,
      "matku": 4594,
      "Ġchcem": 4595,
      "miti": 4596,
      "posled": 4597,
      "ĠMAR": 4598,
      "Ġvzru": 4599,
      "ĠXABAB": 4600,
      "olc": 4601,
      "ruÅ¡i": 4602,
      "ĠbÄĽl": 4603,
      "ĠÅłolc": 4604,
      "ĠLEGEND": 4605,
      "lista": 4606,
      "ĠNÃ¡": 4607,
      "ĠHav": 4608,
      "ĠdvÅ¯r": 4609,
      "nÄĽmy": 4610,
      "cestu": 4611,
      "Ġdych": 4612,
      "pana": 4613,
      "Ġgic": 4614,
      "bor": 4615,
      "Äįim": 4616,
      "ĠtÅĻÃŃm": 4617,
      "vÅĻa": 4618,
      "ĠÅ¡var": 4619,
      "Ġstor": 4620,
      "vzpla": 4621,
      "chard": 4622,
      "ĠvÃ¡r": 4623,
      "ĠlÃ¡Äį": 4624,
      "host": 4625,
      "ĠÅĻist": 4626,
      "chti": 4627,
      "ĠzhlÃŃ": 4628,
      "svate": 4629,
      "vidÄĽl": 4630,
      "ĠRichard": 4631,
      "ÅĻiÅ¡e": 4632,
      "okem": 4633,
      "ĠLuka": 4634,
      "snem": 4635,
      "vine": 4636,
      "ĠXII": 4637,
      "Ġzer": 4638,
      "ĠchaÅ¥": 4639,
      "Li": 4640,
      "smÄĽle": 4641,
      "MI": 4642,
      "Ġcla": 4643,
      "ĠruÅ¥": 4644,
      "Ġhnus": 4645,
      "Ġvzro": 4646,
      "Ġvslad": 4647,
      "ĠÅ¾eÅĪ": 4648,
      "Ġryt": 4649,
      "bina": 4650,
      "ĠZavÅĻel": 4651,
      "ĠvzkÅĻÃŃ": 4652,
      "jemnÄĽ": 4653,
      "XG": 4654,
      "Ġshle": 4655,
      "emi": 4656,
      "brani": 4657,
      "ĠABABCCDEED": 4658,
      "ĠnnÃ½m": 4659,
      "chce": 4660,
      "Ġrun": 4661,
      "jtha": 4662,
      "ĠÄįar": 4663,
      "bertÃ©": 4664,
      "ĠCajtha": 4665,
      "LibertÃ©": 4666,
      "ĠCajthaml": 4667,
      "ĠkÃ©n": 4668,
      "tvoje": 4669,
      "Äįila": 4670,
      "plou": 4671,
      "Ġvde": 4672,
      "ĠzÃŃs": 4673,
      "Ġztem": 4674,
      "ETÄļ": 4675,
      "Ġzpup": 4676,
      "ĠdÃ¡k": 4677,
      "ĠPÃįS": 4678,
      "ych": 4679,
      "Å¤": 4680,
      "ĠLukavskÃ½": 4681,
      "splyva": 4682,
      "Ġzry": 4683,
      "raje": 4684,
      "ĠÅĻli": 4685,
      "tÄĽl": 4686,
      "Ġhrst": 4687,
      "ĠjÃŃÅ¡": 4688,
      "stech": 4689,
      "slovy": 4690,
      "ĠPi": 4691,
      "pÄĽt": 4692,
      "Ġsedm": 4693,
      "Ġptac": 4694,
      "uÅ¾": 4695,
      "vÅ¡i": 4696,
      "Ġnan": 4697,
      "ismu": 4698,
      "Ġsdru": 4699,
      "ĠvÄĽÅ¾": 4700,
      "pÅĻed": 4701,
      "ĠLEGENDA": 4702,
      "ĠnÃ¡n": 4703,
      "Å¾iva": 4704,
      "chvil": 4705,
      "ĠÅ¡per": 4706,
      "krve": 4707,
      "CCDDEE": 4708,
      "blic": 4709,
      "ĠTablic": 4710,
      "ĠhouÅ¡": 4711,
      "ĠMatÄĽj": 4712,
      "Ġvty": 4713,
      "KrÃ¡snohorskÃ¡": 4714,
      "Ġlsti": 4715,
      "Ġnet": 4716,
      "byly": 4717,
      "cena": 4718,
      "ĠPechovÃ¡": 4719,
      "ĠSig": 4720,
      "vÄĽÅĻi": 4721,
      "dechu": 4722,
      "Ġvhloub": 4723,
      "Ġlle": 4724,
      "ĠnÃ©st": 4725,
      "pouÅ¡ti": 4726,
      "Ġpne": 4727,
      "Ġchly": 4728,
      "ĠrÃ¡l": 4729,
      "lesu": 4730,
      "ĠkÅĻo": 4731,
      "ĠVo": 4732,
      "Ġspad": 4733,
      "ĠtÅĻÃŃk": 4734,
      "ĠzvÄĽÅĻ": 4735,
      "ĠROMAN": 4736,
      "ĠvnÃ¡s": 4737,
      "Ġspas": 4738,
      "ĠABABCDCDEFEFGHGH": 4739,
      "DO": 4740,
      "sele": 4741,
      "lÃŃz": 4742,
      "Ġzblou": 4743,
      "Ġchti": 4744,
      "Ġvlid": 4745,
      "Ġdub": 4746,
      "ĠXAXAXBXBX": 4747,
      "ĠÅ¡lÃ¡": 4748,
      "RAT": 4749,
      "Ġzmu": 4750,
      "zlato": 4751,
      "ĠchoÅ¥": 4752,
      "sie": 4753,
      "vnÃŃ": 4754,
      "Ġlok": 4755,
      "Ġzhr": 4756,
      "zvuk": 4757,
      "ĠmÅ¾ik": 4758,
      "Å¡ky": 4759,
      "dim": 4760,
      "mizi": 4761,
      "Ġchut": 4762,
      "ĠvprÃ¡": 4763,
      "zno": 4764,
      "kovi": 4765,
      "rma": 4766,
      "ÅĻene": 4767,
      "ĠXAAX": 4768,
      "ĠzÄįe": 4769,
      "ĠvpÃ¡": 4770,
      "ĠlÃŃst": 4771,
      "ĠPÅĺÃį": 4772,
      "Ġtlum": 4773,
      "ĠBorovskÃ½": 4774,
      "ĠHavlÃŃÄįek": 4775,
      "BO": 4776,
      "vduÅ¡i": 4777,
      "Ġsnou": 4778,
      "Ġchej": 4779,
      "VO": 4780,
      "ĠfÃŃ": 4781,
      "kvili": 4782,
      "prosi": 4783,
      "ĠtkÃ¡": 4784,
      "ĠvzduÅ¡": 4785,
      "ĠvbÃ¡": 4786,
      "ĠdrÃ¡Å¾": 4787,
      "XXH": 4788,
      "hruÄı": 4789,
      "Ġzmra": 4790,
      "ĠveÄı": 4791,
      "Ġzet": 4792,
      "ĠKA": 4793,
      "ĠROZ": 4794,
      "hnÄĽv": 4795,
      "vÃ½m": 4796,
      "ĠdÄĽd": 4797,
      "ĠjiÅ¡": 4798,
      "MON": 4799,
      "ZIM": 4800,
      "Ġmuk": 4801,
      "ĠzvÃ¡s": 4802,
      "dival": 4803,
      "Ġmrz": 4804,
      "ĠvstÅĻe": 4805,
      "ĠhlÃŃd": 4806,
      "ĠROMÃģN": 4807,
      "Ġknul": 4808,
      "XXXXXXXXXX": 4809,
      "vec": 4810,
      "ĠbÃ¡t": 4811,
      "Ġzep": 4812,
      "kola": 4813,
      "ĠsÃŃÅĪ": 4814,
      "LOG": 4815,
      "nebes": 4816,
      "ĠBrabec": 4817,
      "Ġjou": 4818,
      "viÅ¡": 4819,
      "mych": 4820,
      "Ġvzty": 4821,
      "Ġspol": 4822,
      "huru": 4823,
      "ĠPOHÃģDKA": 4824,
      "RD": 4825,
      "ĠsÅĪa": 4826,
      "rt": 4827,
      "ĠnÃ¡ct": 4828,
      "menu": 4829,
      "stran": 4830,
      "ĠABABCD": 4831,
      "ĠvÅ¯z": 4832,
      "Ġdrou": 4833,
      "SI": 4834,
      "ĠbÄĽt": 4835,
      "ĠBouÅ¡ka": 4836,
      "ismund": 4837,
      "ĠSigismund": 4838,
      "ĠÅĻel": 4839,
      "Ġtrap": 4840,
      "Ġspat": 4841,
      "RAJ": 4842,
      "ĠzlÃ½ch": 4843,
      "Ġbry": 4844,
      "hod": 4845,
      "Ġzmat": 4846,
      "tli": 4847,
      "vange": 4848,
      "tiÅ¾i": 4849,
      "ĠtÅĻes": 4850,
      "ĠtrÃ½z": 4851,
      "ĠzeÄı": 4852,
      "dili": 4853,
      "Ġhnal": 4854,
      "Ġdes": 4855,
      "sladky": 4856,
      "vlo": 4857,
      "Ġdry": 4858,
      "neda": 4859,
      "Äįit": 4860,
      "Ġster": 4861,
      "sic": 4862,
      "ĠAN": 4863,
      "Ġdcer": 4864,
      "Ġtvy": 4865,
      "ĠSEN": 4866,
      "ĠvÄįel": 4867,
      "ÅłÃį": 4868,
      "ĠkzÃ¡": 4869,
      "ĠÅ¡pa": 4870,
      "ÅĻiovskÃ½": 4871,
      "chvÄĽni": 4872,
      "ĠMiÅĻiovskÃ½": 4873,
      "Ġzdar": 4874,
      "ĠVINETÄļ": 4875,
      "ĠzkrÃ¡": 4876,
      "pÄĽsti": 4877,
      "ĠÅ¥Ã¡": 4878,
      "ĠrdÃŃ": 4879,
      "ĠÅĻÃŃc": 4880,
      "povÄĽ": 4881,
      "lasku": 4882,
      "ĠTA": 4883,
      "ĠIrma": 4884,
      "slovÃ¡": 4885,
      "isslovÃ¡": 4886,
      "Ġzble": 4887,
      "bleda": 4888,
      "ĠGeisslovÃ¡": 4889,
      "kyva": 4890,
      "UN": 4891,
      "Ġvran": 4892,
      "Ġvkraj": 4893,
      "ĠAAXX": 4894,
      "TÃģ": 4895,
      "Ġdnu": 4896,
      "ĠSON": 4897,
      "smy": 4898,
      "tej": 4899,
      "ĠkpÅĻe": 4900,
      "ĠpÃ¡ch": 4901,
      "sili": 4902,
      "hraje": 4903,
      "ÅĻila": 4904,
      "kava": 4905,
      "Ġzdech": 4906,
      "ĠseÄį": 4907,
      "ĠDu": 4908,
      "Ġkras": 4909,
      "ĠXXA": 4910,
      "vÅ¡eho": 4911,
      "vzhuru": 4912,
      "Ġptal": 4913,
      "ĠdÃ¡r": 4914,
      "EDEF": 4915,
      "touÅ¾i": 4916,
      "Å¡umi": 4917,
      "Ġtuj": 4918,
      "ĠraÄį": 4919,
      "Ġtroc": 4920,
      "ĠEvange": 4921,
      "ĠlÅ¾i": 4922,
      "tomu": 4923,
      "kyne": 4924,
      "OVI": 4925,
      "VÃģ": 4926,
      "pÄĽje": 4927,
      "touhy": 4928,
      "ĠMilo": 4929,
      "ĠJARNÃį": 4930,
      "zdali": 4931,
      "ĠchlÃŃ": 4932,
      "ĠmÃŃÅ¡": 4933,
      "ĠptÃ¡Äį": 4934,
      "ĠNAD": 4935,
      "lesk": 4936,
      "druh": 4937,
      "ĠnichÅ¾": 4938,
      "Ġslem": 4939,
      "ĠkÅĻeh": 4940,
      "Ġcud": 4941,
      "mlada": 4942,
      "hÅĻich": 4943,
      "stej": 4944,
      "ĠvrÃ¡t": 4945,
      "Ġsloup": 4946,
      "Ġllu": 4947,
      "ĠÅ¡Å¯": 4948,
      "ĠpÅĻel": 4949,
      "Ġmsti": 4950,
      "letu": 4951,
      "ĠstÄĽn": 4952,
      "Ġbrem": 4953,
      "Ġjdem": 4954,
      "davu": 4955,
      "Ġklek": 4956,
      "Ġkav": 4957,
      "ĠvÃ¡z": 4958,
      "nala": 4959,
      "krvi": 4960,
      "dÅĻima": 4961,
      "ĠzrÅ¯": 4962,
      "ĠdÅĻi": 4963,
      "vor": 4964,
      "mÄĽsta": 4965,
      "ĠdrÃ½m": 4966,
      "ĠXXXXXXXXXXXXXXX": 4967,
      "citu": 4968,
      "dinÄĽ": 4969,
      "Ġsyl": 4970,
      "vzte": 4971,
      "LAN": 4972,
      "Ġvbla": 4973,
      "mÄĽli": 4974,
      "Ġqu": 4975,
      "ĠÅ¡k": 4976,
      "ĠpouÅ¥": 4977,
      "Ġbzu": 4978,
      "Ġsvla": 4979,
      "Ġtrav": 4980,
      "visi": 4981,
      "prace": 4982,
      "ĠsklÃŃ": 4983,
      "chram": 4984,
      "bas": 4985,
      "Ġvjas": 4986,
      "ĠlÃ¡Å¡": 4987,
      "taky": 4988,
      "Ġah": 4989,
      "nebi": 4990,
      "Ġcov": 4991,
      "ĠplÃ¡ÅĪ": 4992,
      "naly": 4993,
      "Å¡t": 4994,
      "ĠtÃ½r": 4995,
      "zdo": 4996,
      "ĠvÅ¯m": 4997,
      "ĠvstaÅĪ": 4998,
      "chvÄĽji": 4999,
      "ĠtmÃŃ": 5000,
      "ĠNeÄįas": 5001,
      "ĠbrÃ¡k": 5002,
      "ĠlÅ¯v": 5003,
      "Ġvnoc": 5004,
      "ĠEvangelista": 5005,
      "ĠzÄįer": 5006,
      "LEDNÃį": 5007,
      "Å¾ik": 5008,
      "padne": 5009,
      "bÅĻehu": 5010,
      "Ġznak": 5011,
      "Ġmrav": 5012,
      "ĠtvÄĽ": 5013,
      "Ġtvi": 5014,
      "ĠteÅĻ": 5015,
      "Ġvzi": 5016,
      "nuÅ¡": 5017,
      "nuly": 5018,
      "NECH": 5019,
      "jara": 5020,
      "stÄĽny": 5021,
      "Ġzdroj": 5022,
      "ĠJU": 5023,
      "lit": 5024,
      "Ġskvou": 5025,
      "kamen": 5026,
      "kraj": 5027,
      "Ġvhod": 5028,
      "ĠmÃ¡ch": 5029,
      "POM": 5030,
      "ĠzÃºst": 5031,
      "vodu": 5032,
      "ĠlÃŃk": 5033,
      "Ġvhr": 5034,
      "Ġrtu": 5035,
      "slavu": 5036,
      "vyÅ¡i": 5037,
      "Ġvhu": 5038,
      "ĠSabina": 5039,
      "ĠchlÃ½": 5040,
      "mati": 5041,
      "Ġzev": 5042,
      "toho": 5043,
      "mor": 5044,
      "ĠIN": 5045,
      "ĠPODZIM": 5046,
      "synu": 5047,
      "Ġvhou": 5048,
      "tko": 5049,
      "chodu": 5050,
      "Ġchlou": 5051,
      "cim": 5052,
      "ĠÄĮTY": 5053,
      "jsi": 5054,
      "tin": 5055,
      "ĠvzkÅĻik": 5056,
      "pouti": 5057,
      "go": 5058,
      "Ġkt": 5059,
      "ĠÅ¡lÃ½ch": 5060,
      "Å¾iv": 5061,
      "mÄĽle": 5062,
      "vena": 5063,
      "ĠhÅĻbe": 5064,
      "Ġllo": 5065,
      "XXA": 5066,
      "bira": 5067,
      "nikem": 5068,
      "proud": 5069,
      "ĠdnÃ¡": 5070,
      "chmu": 5071,
      "ĠXXXXXXXXXXXXXXXXXXXXXXXXXXXX": 5072,
      "ĠHanuÅ¡": 5073,
      "ĠhvÃŃz": 5074,
      "vlid": 5075,
      "ruÅ¾i": 5076,
      "syn": 5077,
      "ĠErben": 5078,
      "Ġnouc": 5079,
      "pila": 5080,
      "Ġvtou": 5081,
      "dlanÄĽ": 5082,
      "ĠBÄĽ": 5083,
      "vunÄĽ": 5084,
      "jel": 5085,
      "osud": 5086,
      "lie": 5087,
      "veho": 5088,
      "mate": 5089,
      "ĠbÄĽs": 5090,
      "ĠHer": 5091,
      "buÅ¡i": 5092,
      "klidu": 5093,
      "Ġtos": 5094,
      "ĠsmÄĽl": 5095,
      "ĠsmÃ½": 5096,
      "Ġfri": 5097,
      "ÅĺECH": 5098,
      "Ġspor": 5099,
      "ĠchvÄĽj": 5100,
      "strach": 5101,
      "ĠÃ¡l": 5102,
      "lita": 5103,
      "ĠveÅĪ": 5104,
      "Ġvid": 5105,
      "mÄĽk": 5106,
      "ksobÄĽ": 5107,
      "voslav": 5108,
      "Ġskrz": 5109,
      "ĠÅĻev": 5110,
      "Ġlom": 5111,
      "Ġsply": 5112,
      "mame": 5113,
      "ĠvsvÄĽt": 5114,
      "ĠMrÃ¡z": 5115,
      "Ġnnost": 5116,
      "ĠvchÃ¡": 5117,
      "Ġsep": 5118,
      "rody": 5119,
      "nahle": 5120,
      "met": 5121,
      "Ġhlub": 5122,
      "JÃį": 5123,
      "ĠTO": 5124,
      "tala": 5125,
      "Ġbri": 5126,
      "Ġzkla": 5127,
      "ĠMOD": 5128,
      "Ġgro": 5129,
      "piti": 5130,
      "svÄĽtlo": 5131,
      "ĠstkvÄĽ": 5132,
      "ĠchlÃ¡": 5133,
      "ĠAAXBB": 5134,
      "Ġgy": 5135,
      "Ġvstu": 5136,
      "Ġzvyk": 5137,
      "Ġzkad": 5138,
      "CKÃģ": 5139,
      "OVÃĿCH": 5140,
      "mraky": 5141,
      "Ġvzej": 5142,
      "zÅĻel": 5143,
      "ĠdÄĽn": 5144,
      "panu": 5145,
      "ĠVina": 5146,
      "rodi": 5147,
      "ĠvÃŃn": 5148,
      "mdlo": 5149,
      "slavÄĽ": 5150,
      "skryva": 5151,
      "ĠHOR": 5152,
      "kryje": 5153,
      "Ġcin": 5154,
      "ĠSo": 5155,
      "ĠvdÃŃ": 5156,
      "AS": 5157,
      "lym": 5158,
      "bouÅĻi": 5159,
      "Ġknout": 5160,
      "ĠpÄĽst": 5161,
      "ĠXXAA": 5162,
      "Å¡at": 5163,
      "Ġton": 5164,
      "Ġhaj": 5165,
      "ĠXIII": 5166,
      "budu": 5167,
      "hlasu": 5168,
      "Ġdlech": 5169,
      "ĠhÅ¯l": 5170,
      "mraz": 5171,
      "ÅĻena": 5172,
      "ĠÄįÃ¡r": 5173,
      "ĠlesÅ¥": 5174,
      "Ġmut": 5175,
      "ĠPr": 5176,
      "lÃ©d": 5177,
      "Ġslit": 5178,
      "Ġrce": 5179,
      "Ġchru": 5180,
      "ĠABCAB": 5181,
      "Ġstl": 5182,
      "Ġom": 5183,
      "krali": 5184,
      "ĠnnÃ©m": 5185,
      "nit": 5186,
      "ĠMÄļ": 5187,
      "sici": 5188,
      "ĠKama": 5189,
      "vry": 5190,
      "Ġoj": 5191,
      "klam": 5192,
      "mohu": 5193,
      "bili": 5194,
      "ĠLO": 5195,
      "LEN": 5196,
      "ald": 5197,
      "luh": 5198,
      "Ġzjas": 5199,
      "ruka": 5200,
      "hody": 5201,
      "hej": 5202,
      "hbi": 5203,
      "Ġfau": 5204,
      "ĠSONET": 5205,
      "tÄĽle": 5206,
      "chodi": 5207,
      "ĠvchvÃŃ": 5208,
      "ĠchÅ¯m": 5209,
      "PI": 5210,
      "liva": 5211,
      "maje": 5212,
      "zpo": 5213,
      "ĠdÃŃc": 5214,
      "svira": 5215,
      "Ġskvo": 5216,
      "vÅĻela": 5217,
      "Ġtep": 5218,
      "doli": 5219,
      "ĠstÃ½s": 5220,
      "ĠkcÃŃ": 5221,
      "jine": 5222,
      "ĠzvÃ½": 5223,
      "ĠSVÄļ": 5224,
      "hliÅ¾i": 5225,
      "Ġzbyl": 5226,
      "Ġth": 5227,
      "Ġcek": 5228,
      "ĠPOSLEDNÃį": 5229,
      "Ġjlep": 5230,
      "stary": 5231,
      "hrady": 5232,
      "Å¡Å¥ast": 5233,
      "EEFFGG": 5234,
      "Ġjet": 5235,
      "ĠnÄĽz": 5236,
      "ĠTi": 5237,
      "holi": 5238,
      "sama": 5239,
      "Ġvlet": 5240,
      "zdravi": 5241,
      "ĠvzÅĪa": 5242,
      "tosti": 5243,
      "Ġbub": 5244,
      "jÃ¡": 5245,
      "ĠKAR": 5246,
      "ĠpÅĻÃŃz": 5247,
      "Ġvprou": 5248,
      "Ġdnech": 5249,
      "vnÄĽm": 5250,
      "voni": 5251,
      "boÅ¾e": 5252,
      "zrakem": 5253,
      "ĠÅ½EN": 5254,
      "jmeno": 5255,
      "ĠVinaÅĻickÃ½": 5256,
      "nÄĽla": 5257,
      "meho": 5258,
      "ĠhrÃ¡d": 5259,
      "KÃģ": 5260,
      "Ġdnou": 5261,
      "vzduch": 5262,
      "PU": 5263,
      "dnÄĽ": 5264,
      "knu": 5265,
      "Ġcar": 5266,
      "noÅĻi": 5267,
      "ĠDra": 5268,
      "ĠROMANCE": 5269,
      "ĠtlÃ½ch": 5270,
      "ĠpÅĻedc": 5271,
      "Ġjek": 5272,
      "Ġnep": 5273,
      "kane": 5274,
      "cil": 5275,
      "srdci": 5276,
      "ĠpouÅ¡Å¥": 5277,
      "Ġrva": 5278,
      "zoru": 5279,
      "kl": 5280,
      "Ġsja": 5281,
      "ĠstÅ¯m": 5282,
      "ĠkoÄį": 5283,
      "ĠleÅ¥": 5284,
      "ĠtÅ¯v": 5285,
      "vlny": 5286,
      "ĠmuÅ¡": 5287,
      "ĠKaras": 5288,
      "CXD": 5289,
      "ÄįnÃŃ": 5290,
      "ĠvztÃ¡": 5291,
      "vana": 5292,
      "Ġzpro": 5293,
      "slyÅ¡el": 5294,
      "ĠsdÄĽ": 5295,
      "hlasy": 5296,
      "nÄĽji": 5297,
      "ĠÅ¡tva": 5298,
      "ĠshlÃŃ": 5299,
      "net": 5300,
      "ĠlÃŃt": 5301,
      "Ġluk": 5302,
      "ĠslÅ¯": 5303,
      "BY": 5304,
      "ĠviÄı": 5305,
      "Å¾ili": 5306,
      "veny": 5307,
      "CCDEED": 5308,
      "svat": 5309,
      "stva": 5310,
      "nohou": 5311,
      "ĠÅłmilo": 5312,
      "ĠÅłmilovskÃ½": 5313,
      "Ġshro": 5314,
      "ĠvÄįa": 5315,
      "STVÃį": 5316,
      "vÄĽÅ¾i": 5317,
      "svuj": 5318,
      "ĠsbÄĽ": 5319,
      "lova": 5320,
      "seda": 5321,
      "ĠmnoÅ¾": 5322,
      "tvych": 5323,
      "Ġak": 5324,
      "smÄĽje": 5325,
      "ĠzvlÃ¡Å¡Å¥": 5326,
      "ruky": 5327,
      "Ġsup": 5328,
      "rÃ½t": 5329,
      "Ġsru": 5330,
      "tiÅ¡i": 5331,
      "plat": 5332,
      "ĠRÅ®": 5333,
      "Ġrin": 5334,
      "plyne": 5335,
      "ĠsprÃ¡v": 5336,
      "chou": 5337,
      "aku": 5338,
      "stara": 5339,
      "Ġvzpom": 5340,
      "radi": 5341,
      "Ġchor": 5342,
      "nceslav": 5343,
      "ĠVÄĽnceslav": 5344,
      "Ġsd": 5345,
      "ĠktÃ©": 5346,
      "ĠkrÄį": 5347,
      "Ã¶r": 5348,
      "patÅĻi": 5349,
      "Ġsos": 5350,
      "ĠBal": 5351,
      "Ġzdob": 5352,
      "kmi": 5353,
      "zdu": 5354,
      "niva": 5355,
      "Ġmit": 5356,
      "mÄĽlo": 5357,
      "Å¾eh": 5358,
      "ĠVlastimil": 5359,
      "ĠKamarÃ½t": 5360,
      "vÄĽdi": 5361,
      "stani": 5362,
      "stup": 5363,
      "mlady": 5364,
      "ĠjmÄĽ": 5365,
      "Ġvyp": 5366,
      "ĠDRU": 5367,
      "stati": 5368,
      "Ġzur": 5369,
      "Äįase": 5370,
      "roste": 5371,
      "doma": 5372,
      "lesa": 5373,
      "vili": 5374,
      "pÄĽl": 5375,
      "Ġchech": 5376,
      "ĠjlÃŃ": 5377,
      "Ġston": 5378,
      "cene": 5379,
      "pel": 5380,
      "jic": 5381,
      "ĠÄĮenkova": 5382,
      "zcela": 5383,
      "ĠPÅĻi": 5384,
      "ĠmlÃ½n": 5385,
      "POMÃįN": 5386,
      "Ġstly": 5387,
      "cka": 5388,
      "kaly": 5389,
      "vite": 5390,
      "Å¡era": 5391,
      "ĠrÅ¯m": 5392,
      "ĠMok": 5393,
      "ĠniÅ¡": 5394,
      "vozd": 5395,
      "ĠtÃ½Å¾": 5396,
      "peÄįi": 5397,
      "Å¡um": 5398,
      "Ġtles": 5399,
      "Ġkok": 5400,
      "cke": 5401,
      "vzru": 5402,
      "ĠXXXXXXXXXXXXXXXXXXXXXXXXXXXXXXXXXXXXXXXXXXXXXXXX": 5403,
      "Ġvba": 5404,
      "Ġvzbou": 5405,
      "jejich": 5406,
      "Ġpej": 5407,
      "meÄį": 5408,
      "han": 5409,
      "Ġzit": 5410,
      "ĠmrÅ¡": 5411,
      "ĠKameni": 5412,
      "dinu": 5413,
      "Ġvzor": 5414,
      "ĠHLA": 5415,
      "znam": 5416,
      "ĠsnÃ¡ch": 5417,
      "obÄĽ": 5418,
      "skÃ½ch": 5419,
      "XXXXX": 5420,
      "ĠnÃ¡v": 5421,
      "kuje": 5422,
      "sami": 5423,
      "chtÄĽla": 5424,
      "nosi": 5425,
      "zt": 5426,
      "STÃį": 5427,
      "vÄĽc": 5428,
      "ĠÄĮela": 5429,
      "Ġsnech": 5430,
      "mÄĽti": 5431,
      "zlati": 5432,
      "roni": 5433,
      "liky": 5434,
      "ved": 5435,
      "ĠrvÃ¡": 5436,
      "asi": 5437,
      "ĠMokrÃ½": 5438,
      "ĠKamenickÃ½": 5439,
      "ĠAABBB": 5440,
      "ĠsÃ¡t": 5441,
      "zvuku": 5442,
      "ĠtouÅ¾": 5443,
      "krale": 5444,
      "pust": 5445,
      "spÄĽch": 5446,
      "ĠVladimÃŃr": 5447,
      "nÃ¡ch": 5448,
      "svata": 5449,
      "ĠdvÃŃ": 5450,
      "Å®M": 5451,
      "Ġstev": 5452,
      "ĠKoubek": 5453,
      "rady": 5454,
      "ĠAJ": 5455,
      "velka": 5456,
      "doba": 5457,
      "ĠABABACDDC": 5458,
      "GGFH": 5459,
      "ĠKdyÅ¾": 5460,
      "ĠÅ¡ed": 5461,
      "ĠVrati": 5462,
      "ĠRÃ¡": 5463,
      "ĠÄĮER": 5464,
      "Ġvden": 5465,
      "hasne": 5466,
      "ĠPravoslav": 5467,
      "ĠrtÃŃ": 5468,
      "ĠSLOV": 5469,
      "Ġkrot": 5470,
      "Ġkpa": 5471,
      "ĠveÄį": 5472,
      "ĠWei": 5473,
      "ptaci": 5474,
      "ĠWeiner": 5475,
      "Ġprost": 5476,
      "ĠplaÄį": 5477,
      "tvuj": 5478,
      "EEFGF": 5479,
      "ĠVratislav": 5480,
      "ĠÅ¥al": 5481,
      "kvÄĽtem": 5482,
      "clo": 5483,
      "vhrobÄĽ": 5484,
      "Ġvmu": 5485,
      "ĠstvÃ©": 5486,
      "ĠÅ¾lou": 5487,
      "koj": 5488,
      "ĠÃºc": 5489,
      "ĠÅĪÅ¯": 5490,
      "Ġih": 5491,
      "Ġjsouc": 5492,
      "Ġstoup": 5493,
      "Å½E": 5494,
      "tvoÅĻi": 5495,
      "bÃŃ": 5496,
      "chvat": 5497,
      "Ġhvi": 5498,
      "choval": 5499,
      "ĠPicek": 5500,
      "zou": 5501,
      "ĠlaÅ¡": 5502,
      "duje": 5503,
      "Å¾eno": 5504,
      "ovat": 5505,
      "rude": 5506,
      "der": 5507,
      "ĠZEM": 5508,
      "baji": 5509,
      "Ġgan": 5510,
      "ÅĻada": 5511,
      "Äįasem": 5512,
      "ĠdeÅ¾": 5513,
      "pina": 5514,
      "stira": 5515,
      "ĠznÃŃÅ¾": 5516,
      "nÅ¯m": 5517,
      "Äįnou": 5518,
      "smichu": 5519,
      "ĠÄĮTYÅĺECH": 5520,
      "Ġzpe": 5521,
      "Å¾lu": 5522,
      "Ġzes": 5523,
      "sel": 5524,
      "ĠoÅ¡": 5525,
      "ĠrÃ¡Å¾": 5526,
      "mech": 5527,
      "kruh": 5528,
      "Äįkou": 5529,
      "ĠSYNECH": 5530,
      "ĠÅ½IVOTA": 5531,
      "MONOVÃĿCH": 5532,
      "ĠAJMONOVÃĿCH": 5533,
      "plav": 5534,
      "nÄĽna": 5535,
      "ĠdeÅĪ": 5536,
      "jemu": 5537,
      "ÅĻu": 5538,
      "Ġzah": 5539,
      "sledy": 5540,
      "ĠBohumil": 5541,
      "ĠÄĮelakovskÃ½": 5542,
      "Äįnost": 5543,
      "ĠstrÃ½ch": 5544,
      "kÅĻidla": 5545,
      "ĠvtÄĽÅ¾": 5546,
      "ZD": 5547,
      "fe": 5548,
      "Ġzvou": 5549,
      "ĠAABXB": 5550,
      "tÅĻeba": 5551,
      "daÅĻi": 5552,
      "Ġtrs": 5553,
      "trati": 5554,
      "menem": 5555,
      "ĠvklÃŃn": 5556,
      "ĠjdÄĽ": 5557,
      "Ġbech": 5558,
      "hradÄĽ": 5559,
      "Ġvbez": 5560,
      "ĠdnÃ½ch": 5561,
      "Ġzmar": 5562,
      "ĠznÃ¡t": 5563,
      "ĠhlÃ¡s": 5564,
      "ĠzÅĪa": 5565,
      "Ġvple": 5566,
      "kladu": 5567,
      "stali": 5568,
      "Ġraz": 5569,
      "dole": 5570,
      "nesla": 5571,
      "stolu": 5572,
      "ĠvÄĽd": 5573,
      "zuje": 5574,
      "lety": 5575,
      "ĠtÃŃk": 5576,
      "ĠKVÄļ": 5577,
      "Ġhoun": 5578,
      "plamen": 5579,
      "snÄĽti": 5580,
      "smrt": 5581,
      "ĠÅ¡al": 5582,
      "jicy": 5583,
      "Ġkna": 5584,
      "ĠstÃ¡ch": 5585,
      "Å½Ãį": 5586,
      "ĠMarie": 5587,
      "Ã¡r": 5588,
      "ĠzvrÃ¡": 5589,
      "UM": 5590,
      "ÅĪu": 5591,
      "riÄį": 5592,
      "Ġosm": 5593,
      "Ġzbi": 5594,
      "ĠJED": 5595,
      "ĠmÄĽn": 5596,
      "jevi": 5597,
      "dÄĽnÃŃ": 5598,
      "ĠshÃ½": 5599,
      "chvÄĽl": 5600,
      "ĠMAT": 5601,
      "ĠBÃģS": 5602,
      "ĠvtmÃ¡ch": 5603,
      "krok": 5604,
      "zved": 5605,
      "ĠvpouÅ¡": 5606,
      "RY": 5607,
      "fon": 5608,
      "ĠtmÃ¡ch": 5609,
      "Ġshon": 5610,
      "ĠrÃ¡n": 5611,
      "honi": 5612,
      "blaha": 5613,
      "ĠDraho": 5614,
      "ob": 5615,
      "sce": 5616,
      "zmira": 5617,
      "vraz": 5618,
      "sluÅ¡i": 5619,
      "LÃī": 5620,
      "ZpÄĽv": 5621,
      "gel": 5622,
      "BI": 5623,
      "ĠÄıte": 5624,
      "ĠÄįeÅ¡": 5625,
      "Ġpij": 5626,
      "Ġstol": 5627,
      "ĠFriÄį": 5628,
      "ĠvtÃŃ": 5629,
      "ĠToman": 5630,
      "zbro": 5631,
      "Ġban": 5632,
      "vznÄĽ": 5633,
      "Ġvstra": 5634,
      "ĠzkvÃ©": 5635,
      "vdÄĽk": 5636,
      "ĠPrvnÃŃ": 5637,
      "VY": 5638,
      "Å¡o": 5639,
      "cili": 5640,
      "Ġsuk": 5641,
      "Ġmraz": 5642,
      "tvoji": 5643,
      "Ġcez": 5644,
      "Ġrob": 5645,
      "ĠÄĮerven": 5646,
      "Ġztich": 5647,
      "Ġsul": 5648,
      "Ġloup": 5649,
      "krasu": 5650,
      "Ġdlil": 5651,
      "klinu": 5652,
      "skeho": 5653,
      "jeni": 5654,
      "ĠkÅĻiÅ¡": 5655,
      "bavi": 5656,
      "chude": 5657,
      "ĠstrÅ¯": 5658,
      "ĠABACCB": 5659,
      "oko": 5660,
      "stele": 5661,
      "LY": 5662,
      "cesta": 5663,
      "CCA": 5664,
      "ĠZE": 5665,
      "temnÄĽ": 5666,
      "Ġvbi": 5667,
      "ster": 5668,
      "tiny": 5669,
      "ĠVÃĿ": 5670,
      "sebou": 5671,
      "maÅ¡": 5672,
      "ĠvpÄĽ": 5673,
      "ĠÄįan": 5674,
      "nema": 5675,
      "OVÄļ": 5676,
      "Ġvhrob": 5677,
      "razem": 5678,
      "RAN": 5679,
      "ĠhlÃ½ch": 5680,
      "povÄĽÄı": 5681,
      "ĠjeÄį": 5682,
      "ĠÅ¡ÃŃj": 5683,
      "ĠtÅĻit": 5684,
      "ĠzbÃŃ": 5685,
      "vlese": 5686,
      "Äįely": 5687,
      "ĠBE": 5688,
      "Ġkvas": 5689,
      ".*)": 5690,
      "ĠBALADA": 5691,
      "mÅĻi": 5692,
      "ĠzahÅĻ": 5693,
      "Ġske": 5694,
      "koje": 5695,
      "ĠÄįÃŃst": 5696,
      "Ġvsmut": 5697,
      "sbor": 5698,
      "Ġpnou": 5699,
      "tec": 5700,
      "ĠÄįiÅĪ": 5701,
      "Ġuc": 5702,
      "ĠkdÃŃ": 5703,
      "voli": 5704,
      "pira": 5705,
      "ĠNej": 5706,
      "Ġnnu": 5707,
      "ĠkÅ¡ti": 5708,
      "dami": 5709,
      "kroku": 5710,
      "pasti": 5711,
      "ĠvmÃ¡": 5712,
      "ĠvnÄĽj": 5713,
      "klu": 5714,
      "ĠXAABBCCDD": 5715,
      "ktomu": 5716,
      "Ġzbyt": 5717,
      "âĢľ.": 5718,
      "Äİ": 5719,
      "Ġvcha": 5720,
      "Ġskvr": 5721,
      "ĠksvÄĽ": 5722,
      "ĠÅ¡ad": 5723,
      "gen": 5724,
      "pce": 5725,
      "nevi": 5726,
      "ledne": 5727,
      "snami": 5728,
      "ĠmÄĽÅ¥": 5729,
      "ckÃ¡": 5730,
      "tmou": 5731,
      "klesa": 5732,
      "ĠshÅ¯": 5733,
      "jasne": 5734,
      "Ġstrun": 5735,
      "ĠjitÅĻ": 5736,
      "ĠzÃŃÅ¡": 5737,
      "ĠtÅĻel": 5738,
      "zpival": 5739,
      "lovat": 5740,
      "hazi": 5741,
      "ĠnÃŃmÅ¾": 5742,
      "ÄĮÃį": 5743,
      "ĠXXXXXXXXXXXXXXXXX": 5744,
      "Ġ6": 5745,
      "ĠnÃ¡t": 5746,
      "ĠOS": 5747,
      "Ġtvar": 5748,
      "stranÄĽ": 5749,
      "ĠkvÅ¯": 5750,
      "ĠstmÃŃ": 5751,
      "ĠVÃģC": 5752,
      "ĠBÄĽlo": 5753,
      "Ġcno": 5754,
      "Ġser": 5755,
      "ĠhraÄį": 5756,
      "Ġdlel": 5757,
      "iv": 5758,
      "taÅĻi": 5759,
      "Ġzpou": 5760,
      "ĠrouÅ¡": 5761,
      "ĠvtvÃ©m": 5762,
      "ĠloÅ¾": 5763,
      "ĠdouÅ¡": 5764,
      "sad": 5765,
      "zlatem": 5766,
      "jasa": 5767,
      "Ġvzdych": 5768,
      "PAD": 5769,
      "Ġkji": 5770,
      "ĠspÅĻe": 5771,
      "nohy": 5772,
      "plny": 5773,
      "vÄĽdÄĽl": 5774,
      "Ġkdu": 5775,
      "ĠtÄĽt": 5776,
      "Ġvzo": 5777,
      "viti": 5778,
      "Ġprah": 5779,
      "krokem": 5780,
      "die": 5781,
      "kovy": 5782,
      "ĠBu": 5783,
      "biny": 5784,
      "Ġkvo": 5785,
      "druhu": 5786,
      "ĠvÄįi": 5787,
      "ĠnÄĽt": 5788,
      "ĠpÃŃr": 5789,
      "Ġchud": 5790,
      "keho": 5791,
      "Å¡eny": 5792,
      "hloubi": 5793,
      "vzi": 5794,
      "hromu": 5795,
      "vstava": 5796,
      "raj": 5797,
      "skut": 5798,
      "vrouci": 5799,
      "hlid": 5800,
      "sed": 5801,
      "lex": 5802,
      "ĠbrÃ½ch": 5803,
      "ĠslÃŃÅ¡": 5804,
      "ĠÅ¡ve": 5805,
      "ĠvzÃ½": 5806,
      "male": 5807,
      "ĠpÅĻiz": 5808,
      "ĠXAXABBA": 5809,
      "ĠfrÃ¡": 5810,
      "ĠklÃ½ch": 5811,
      "ĠtÃ³n": 5812,
      "Ġmru": 5813,
      "ÅłI": 5814,
      "ĠXXXXXXXXXXXXXXXXXX": 5815,
      "ĠTI": 5816,
      "lat": 5817,
      "Ġtisk": 5818,
      "dame": 5819,
      "Äįiva": 5820,
      "ĠbÃ¡Å¡": 5821,
      "Ġstrast": 5822,
      "ĠzkvÄĽ": 5823,
      "ĠknÃŃÅ¾": 5824,
      "ĠNOV": 5825,
      "chvati": 5826,
      "PA": 5827,
      "cti": 5828,
      "ĠvzkÅĻi": 5829,
      "ĠSMRT": 5830,
      "Ġen": 5831,
      "ĠsmÃŃr": 5832,
      "tkli": 5833,
      "ĠtÃ¡l": 5834,
      "ĠZÃ¼n": 5835,
      "ĠMaÅ¡ek": 5836,
      "ĠZÃ¼ngel": 5837,
      "sÃŃ": 5838,
      "listi": 5839,
      "vida": 5840,
      "Ġvsmr": 5841,
      "ĠzdvÃŃ": 5842,
      "skala": 5843,
      "dlaÅĪ": 5844,
      "Ġvcho": 5845,
      "ako": 5846,
      "Ġvoh": 5847,
      "ĠvaÄį": 5848,
      "Ġlym": 5849,
      "vuni": 5850,
      "Ġhrot": 5851,
      "ĠshÃ¡": 5852,
      "ĠNOCI": 5853,
      "Ġmis": 5854,
      "ĠlÃ¡c": 5855,
      "ĠDEN": 5856,
      "denni": 5857,
      "Ġmha": 5858,
      "ĠstkvÃŃ": 5859,
      "ĠjÃŃz": 5860,
      "ĠtÃ¡Å¡": 5861,
      "bÄĽda": 5862,
      "ĠTÅĺI": 5863,
      "Ġvzni": 5864,
      "ĠAABAB": 5865,
      "roji": 5866,
      "ĠSLO": 5867,
      "krou": 5868,
      "ĠKrÃ¡": 5869,
      "Å¡eÅĻi": 5870,
      "Ġslep": 5871,
      "ĠdlÃ¡k": 5872,
      "prve": 5873,
      "fl": 5874,
      "Ġmund": 5875,
      "ĠdÃ©Äį": 5876,
      "ĠstrÃ½m": 5877,
      "Ġvnej": 5878,
      "hvÄĽzdy": 5879,
      "Ġcvr": 5880,
      "ĠprvnÃŃ": 5881,
      "druhy": 5882,
      "bohy": 5883,
      "Ġsrov": 5884,
      "siti": 5885,
      "dÄĽly": 5886,
      "ĠVZPOMÃįN": 5887,
      "toku": 5888,
      "ĠsmÃ¡t": 5889,
      "sina": 5890,
      "ĠptÃ¡m": 5891,
      "vzdor": 5892,
      "ĠDÃ¶r": 5893,
      "EEFFGGHH": 5894,
      "kvete": 5895,
      "Ġvre": 5896,
      "ĠDÃ¶rfl": 5897,
      "letem": 5898,
      "Ġpruh": 5899,
      "Ġhne": 5900,
      "ĠseÅ¡": 5901,
      "ĠMA": 5902,
      "Äįista": 5903,
      "Ġvjiz": 5904,
      "ĠvzdÄĽ": 5905,
      "hochu": 5906,
      "Äįist": 5907,
      "retu": 5908,
      "ĠRA": 5909,
      "hraji": 5910,
      "stroji": 5911,
      "CXDXD": 5912,
      "Ġkod": 5913,
      "ĠmÄĽÅĻ": 5914,
      "vÄĽci": 5915,
      "ĠSla": 5916,
      "ĠXAAB": 5917,
      "ÄįiÅ¡": 5918,
      "tuje": 5919,
      "Ġknih": 5920,
      "Äįu": 5921,
      "bliÅ¾e": 5922,
      "kvet": 5923,
      "MO": 5924,
      "TNÃį": 5925,
      "vily": 5926,
      "kaÅ¾e": 5927,
      "ĠpiÅ¡": 5928,
      "straÅ¾": 5929,
      "Ġnus": 5930,
      "ĠprÃ¡v": 5931,
      "vlasu": 5932,
      "ĠÅ½i": 5933,
      "nivy": 5934,
      "CCCB": 5935,
      "ĠDostal": 5936,
      "Ġzhoub": 5937,
      "hnul": 5938,
      "nt": 5939,
      "Ġnas": 5940,
      "Ġspr": 5941,
      "Ġpuk": 5942,
      "Ġpus": 5943,
      "mnoho": 5944,
      "nnosti": 5945,
      "luji": 5946,
      "pÄĽji": 5947,
      "oku": 5948,
      "Å¡ene": 5949,
      "Ġbok": 5950,
      "Å¡ili": 5951,
      "ĠprÃ½Å¡": 5952,
      "ĠÄĮervenka": 5953,
      "ĠvslÃ¡": 5954,
      "pisnÄĽ": 5955,
      "Å¡ena": 5956,
      "Ġlau": 5957,
      "ĠpÃŃseÅĪ": 5958,
      "ĠvmlÃ¡": 5959,
      "snou": 5960,
      "Ġvpar": 5961,
      "snim": 5962,
      "ĠRoman": 5963,
      "ĠktÄĽ": 5964,
      "ĠleÅ¡": 5965,
      "Ġskli": 5966,
      "skÅĻi": 5967,
      "syna": 5968,
      "svÄĽty": 5969,
      "Ġvmou": 5970,
      "kynÄĽ": 5971,
      "Ġsyt": 5972,
      "ĠzÅĻÃŃd": 5973,
      "ĠkprÃ¡": 5974,
      "poji": 5975,
      "Ġet": 5976,
      "leje": 5977,
      "ĠnÃ¡k": 5978,
      "ĠskÅĻe": 5979,
      "ĠHvÄĽz": 5980,
      "zvÄĽst": 5981,
      "bar": 5982,
      "lez": 5983,
      "ĠÅĻÃŃd": 5984,
      "INY": 5985,
      "chleba": 5986,
      "ĠzÃ¡Å¡Å¥": 5987,
      "Ġchro": 5988,
      "liÄįka": 5989,
      "ĠÅĻas": 5990,
      "ĠzpÅĻÃŃ": 5991,
      "zeÅĪ": 5992,
      "prachu": 5993,
      "ĠvzÃŃt": 5994,
      "kdes": 5995,
      "ero": 5996,
      "trou": 5997,
      "Ġvzcho": 5998,
      "ĠkÃ©s": 5999,
      "ĠHy": 6000,
      "Ġlout": 6001,
      "hledu": 6002,
      "ĠpÅĻijÄı": 6003,
      "knÄĽmu": 6004,
      "vene": 6005,
      "ĠnnÃŃm": 6006,
      "smu": 6007,
      "ĠÃ©": 6008,
      "Ġvzpou": 6009,
      "mot": 6010,
      "snech": 6011,
      "ĠlaÅĪ": 6012,
      "ĠdÄĽÄį": 6013,
      "ĠslÃ¡s": 6014,
      "ĠÅ¥o": 6015,
      "CKÃĿ": 6016,
      "onu": 6017,
      "Ġkhro": 6018,
      "Ġrmut": 6019,
      "stvÃŃ": 6020,
      "Ġkslun": 6021,
      "Ġskrov": 6022,
      "ÅĻeky": 6023,
      "Ġlon": 6024,
      "ĠslÃ¡b": 6025,
      "ĠÃ¡n": 6026,
      "ĠnÅ¯Å¾": 6027,
      "ĠABABCCX": 6028,
      "svÄĽti": 6029,
      "dÅĻiv": 6030,
      "Ġzbroj": 6031,
      "ĠkÄįi": 6032,
      "Ġkrad": 6033,
      "tina": 6034,
      "boÅĻi": 6035,
      "spÄĽje": 6036,
      "ĠdÅ¾": 6037,
      "ĠPÅĺI": 6038,
      "ĠHRO": 6039,
      "Ġvtma": 6040,
      "nimi": 6041,
      "Ġron": 6042,
      "hud": 6043,
      "svÄĽd": 6044,
      "zro": 6045,
      "Ġstin": 6046,
      "ĠvprÃ¡z": 6047,
      "slovo": 6048,
      "ĠPod": 6049,
      "konÄĽ": 6050,
      "padla": 6051,
      "zahy": 6052,
      "jme": 6053,
      "vka": 6054,
      "ĠkaÅ¡": 6055,
      "ĠdÃ¡ÅĻ": 6056,
      "domi": 6057,
      "ĠkouÅĻ": 6058,
      "hroby": 6059,
      "jistÄĽ": 6060,
      "mym": 6061,
      "IST": 6062,
      "nesti": 6063,
      "nÄĽl": 6064,
      "Ġmle": 6065,
      "ĠÅ¡ku": 6066,
      "hat": 6067,
      "veli": 6068,
      "ĠsrÃ¡z": 6069,
      "Ġrtem": 6070,
      "koni": 6071,
      "Ġmyl": 6072,
      "ĠvsnÃ¡ch": 6073,
      "ĠchÃ¡Å¡": 6074,
      "ĠVÃģCLAV": 6075,
      "Ġvos": 6076,
      "duchem": 6077,
      "Ġhel": 6078,
      "nÄĽne": 6079,
      "hora": 6080,
      "lemÄĽ": 6081,
      "ĠhlÃ½m": 6082,
      "ĠGr": 6083,
      "zko": 6084,
      "Ġzad": 6085,
      "ĠtÄĽÅ¡": 6086,
      "ĠkÃ¡t": 6087,
      "ĠpÅĻil": 6088,
      "pasu": 6089,
      "ĠSLOKY": 6090,
      "vate": 6091,
      "chysta": 6092,
      "Ġvsluch": 6093,
      "ĠXIX": 6094,
      "Ġvzma": 6095,
      "spja": 6096,
      "ĠkvÃ©st": 6097,
      "pry": 6098,
      "Ġfer": 6099,
      "Ġfon": 6100,
      "Ġskok": 6101,
      "ĠksmÃŃ": 6102,
      "horu": 6103,
      "Ġlup": 6104,
      "ÃģK": 6105,
      "mlade": 6106,
      "Ġsvy": 6107,
      "von": 6108,
      "ĠdiÅ¡": 6109,
      "staÅĻi": 6110,
      "hledne": 6111,
      "liny": 6112,
      "ĠspÅĻÃŃ": 6113,
      "tul": 6114,
      "ĠdÅ¯v": 6115,
      "blesk": 6116,
      "ĠlÃ¡ÅĻ": 6117,
      "bez": 6118,
      "matka": 6119,
      "hrobskÃ½": 6120,
      "ĠBÄĽlohrobskÃ½": 6121,
      "Ġboun": 6122,
      "ĠchÃ¡z": 6123,
      "dÅĻe": 6124,
      "vpoli": 6125,
      "ĠkÅĻ": 6126,
      "Å¡eti": 6127,
      "pÅĻiÅ¡el": 6128,
      "Ġkvil": 6129,
      "raz": 6130,
      "leho": 6131,
      "ros": 6132,
      "lika": 6133,
      "ĠTÅĺE": 6134,
      "moÅ¾": 6135,
      "trochu": 6136,
      "ĠÅ¾va": 6137,
      "voru": 6138,
      "ĠÄįiÄį": 6139,
      "ĠBre": 6140,
      "Ġex": 6141,
      "zumi": 6142,
      "kruhu": 6143,
      "Ġsop": 6144,
      "ÄĮKA": 6145,
      "ĠmÃŃÅĪ": 6146,
      "pusti": 6147,
      "deme": 6148,
      "lenou": 6149,
      "loÅ¾i": 6150,
      "tily": 6151,
      "ÅĻady": 6152,
      "SY": 6153,
      "wald": 6154,
      "koÅĻi": 6155,
      "Å¾ivy": 6156,
      "Ġzik": 6157,
      "Ã¼nwald": 6158,
      "ĠGrÃ¼nwald": 6159,
      "IA": 6160,
      "vir": 6161,
      "dÄĽcko": 6162,
      "Äįech": 6163,
      "od": 6164,
      "nÄĽn": 6165,
      "ĠÄįiÅ¡": 6166,
      "ĠÃĵ": 6167,
      "pÅĻani": 6168,
      "nÄĽmi": 6169,
      "ĠÅ¾iÄį": 6170,
      "ĠdrÅ¾": 6171,
      "Ġdrem": 6172,
      "LIK": 6173,
      "Ġzpla": 6174,
      "nÃ¡nÃŃ": 6175,
      "ĠÄįtve": 6176,
      "Ġvzd": 6177,
      "nÃ¡ct": 6178,
      "CXCXDXD": 6179,
      "ĠAABCBCD": 6180,
      "bÄĽd": 6181,
      "braz": 6182,
      "ĠvhruÄı": 6183,
      "vÅ¯j": 6184,
      "Ġnni": 6185,
      "ĠnÃ©Äį": 6186,
      "Ġrab": 6187,
      "Ġbav": 6188,
      "touze": 6189,
      "tÅĻeti": 6190,
      "KOVI": 6191,
      "lala": 6192,
      "ĠDON": 6193,
      "ĠXIV": 6194,
      "CHA": 6195,
      "âĢĻ": 6196,
      "Ġ7": 6197,
      "Ġtmu": 6198,
      "Å¯l": 6199,
      "veÄįer": 6200,
      "ĠmdlÃ¡": 6201,
      "chrani": 6202,
      "ĠHynek": 6203,
      "lese": 6204,
      "ĠÄįeÅ¾": 6205,
      "jemstvi": 6206,
      "pÅĻece": 6207,
      "ĠmÅ¡i": 6208,
      "Ġvoz": 6209,
      "chat": 6210,
      "ĠztÄĽ": 6211,
      "ducha": 6212,
      "Ġvous": 6213,
      "Ġskryt": 6214,
      "ĠvhouÅ¡": 6215,
      "svymi": 6216,
      "Å¡tit": 6217,
      "ctnosti": 6218,
      "ĠlÃ¡k": 6219,
      "Ġsroz": 6220,
      "hn": 6221,
      "raci": 6222,
      "ĠnÃ¡l": 6223,
      "skvost": 6224,
      "voku": 6225,
      "sini": 6226,
      "hrat": 6227,
      "dlitba": 6228,
      "bem": 6229,
      "Ġfou": 6230,
      "ĠzlÃ¡s": 6231,
      "vÅ¡ady": 6232,
      "Ġnin": 6233,
      "Ġmet": 6234,
      "ĠrÃ¡Å¡": 6235,
      "ĠMRT": 6236,
      "besa": 6237,
      "prahu": 6238,
      "stena": 6239,
      "Å¾u": 6240,
      "Ġdam": 6241,
      "ĠKOR": 6242,
      "polem": 6243,
      "Ġdri": 6244,
      "chlu": 6245,
      "chas": 6246,
      "ĠÅ¾ij": 6247,
      "tvar": 6248,
      "tvor": 6249,
      "nÄĽny": 6250,
      "sile": 6251,
      "Ġdvoj": 6252,
      "ĠdeÅĻ": 6253,
      "Ġchan": 6254,
      "krasne": 6255,
      "ĠtkvÃŃ": 6256,
      "vzly": 6257,
      "tlaÄįi": 6258,
      "et": 6259,
      "touha": 6260,
      "ranu": 6261,
      "ĠÅ¡lÃ½": 6262,
      "Ġchrem": 6263,
      "tice": 6264,
      "mÄĽvem": 6265,
      "ĠAAAA": 6266,
      "ĠvzplÃ¡l": 6267,
      "dily": 6268,
      "smal": 6269,
      "ĠnÃ¡Äį": 6270,
      "vratil": 6271,
      "XAA": 6272,
      "ĠvÃ½z": 6273,
      "ĠvsvÃ½ch": 6274,
      "ĠrÅ¯Å¾": 6275,
      "Ġshni": 6276,
      "znal": 6277,
      "spÄĽchu": 6278,
      "chladne": 6279,
      "kati": 6280,
      "ĠÅ¥te": 6281,
      "vÅ¡ecky": 6282,
      "vdo": 6283,
      "ĠmÃ¡k": 6284,
      "Å¾iku": 6285,
      "Å¾ada": 6286,
      "EDEFGF": 6287,
      "sr": 6288,
      "pas": 6289,
      "ĠbÃŃm": 6290,
      "ĠAAABB": 6291,
      "Ġjih": 6292,
      "Ġdrah": 6293,
      "tum": 6294,
      "ĠvkrÃ¡t": 6295,
      "ĠSRD": 6296,
      "Ġpri": 6297,
      "Ġzdlou": 6298,
      "Ġmlk": 6299,
      "pout": 6300,
      "zvuky": 6301,
      "ĠAlfon": 6302,
      "Ġkvr": 6303,
      "tici": 6304,
      "Ġjsy": 6305,
      "ĠXXXXXXXXXXXXXXXXXXX": 6306,
      "ĠklÃŃÄį": 6307,
      "zoÅĻe": 6308,
      "zÅĻiti": 6309,
      "ĠchtÃŃt": 6310,
      "Ġam": 6311,
      "Ġdeb": 6312,
      "ĠKRAJ": 6313,
      "ĠÅĻiÄį": 6314,
      "ÃģCH": 6315,
      "ĠbrÃ½m": 6316,
      "ria": 6317,
      "chvÄĽly": 6318,
      "ĠspouÅ¡": 6319,
      "IL": 6320,
      "robÄĽ": 6321,
      "Ġbas": 6322,
      "ĠtÅĻti": 6323,
      "znich": 6324,
      "Ġbouk": 6325,
      "zrana": 6326,
      "jemnou": 6327,
      "hÅĻichu": 6328,
      "Å¾ky": 6329,
      "bin": 6330,
      "Ġtrub": 6331,
      "Äįena": 6332,
      "knam": 6333,
      "Ġnar": 6334,
      "jista": 6335,
      "dinou": 6336,
      "ÄįlovÄĽk": 6337,
      "BU": 6338,
      "dvÄĽ": 6339,
      "nily": 6340,
      "ĠnitÅĻ": 6341,
      "mÄĽst": 6342,
      "brat": 6343,
      "stranou": 6344,
      "kdys": 6345,
      "tvou": 6346,
      "tÄĽni": 6347,
      "chopi": 6348,
      "Å¡tva": 6349,
      "nava": 6350,
      "taje": 6351,
      "chvÄĽlo": 6352,
      "ĠkhvÄĽz": 6353,
      "Ġnebe": 6354,
      "XAXA": 6355,
      "ĠXV": 6356,
      "zdviha": 6357,
      "Ġschy": 6358,
      "Ġduj": 6359,
      "Ġzez": 6360,
      "kach": 6361,
      "Ġvlak": 6362,
      "Ġdral": 6363,
      "Ġskryl": 6364,
      "ĠABABCCDEDE": 6365,
      "Ġvkout": 6366,
      "Ġstlo": 6367,
      "LEG": 6368,
      "ĠvztÃ½": 6369,
      "Ġzrn": 6370,
      "ĠsnÄĽm": 6371,
      "rok": 6372,
      "skoÄįi": 6373,
      "klade": 6374,
      "Å¾aru": 6375,
      "dveÅĻi": 6376,
      "umi": 6377,
      "Ġlip": 6378,
      "ĠlÃ©t": 6379,
      "Äįej": 6380,
      "budou": 6381,
      "hluk": 6382,
      "ĠlosÅ¥": 6383,
      "ĠkÃ¡ÅĻ": 6384,
      "douc": 6385,
      "ktobÄĽ": 6386,
      "ĠJÃ¡": 6387,
      "Ġzach": 6388,
      "ĠvÅ¡tÄĽ": 6389,
      "cesty": 6390,
      "ĠXVIII": 6391,
      "sluch": 6392,
      "slyÅ¡": 6393,
      "ĠABABACCDDEE": 6394,
      "ĠNÃģV": 6395,
      "ĠABBAB": 6396,
      "ĠÅ¡ka": 6397,
      "Ġkvap": 6398,
      "Ġsc": 6399,
      "rat": 6400,
      "ĠÅ¡kol": 6401,
      "prudce": 6402,
      "ĠÅ¡tvÃ¡": 6403,
      "zbled": 6404,
      "vaz": 6405,
      "jeden": 6406,
      "ĠstÃ½ÅĻ": 6407,
      "LIT": 6408,
      "zvon": 6409,
      "viÄįka": 6410,
      "Ġgen": 6411,
      "ĠzvÅ¯": 6412,
      "ĠzlÃ½m": 6413,
      "ĠJI": 6414,
      "Ġrot": 6415,
      "vinou": 6416,
      "Äıa": 6417,
      "hral": 6418,
      "svitu": 6419,
      "pÃ¡n": 6420,
      "Ġvnes": 6421,
      "naji": 6422,
      "kop": 6423,
      "ĠvlaÅ¾": 6424,
      "slavi": 6425,
      "strom": 6426,
      "drti": 6427,
      "ĠSonet": 6428,
      "ĠdÃ³": 6429,
      "ĠvyÅĻ": 6430,
      "ĠPÅĺE": 6431,
      "blaku": 6432,
      "hnout": 6433,
      "Ġcvi": 6434,
      "Ġmur": 6435,
      "ĠKvÄĽt": 6436,
      "Ġzkro": 6437,
      "ĠSO": 6438,
      "bau": 6439,
      "Å¾ela": 6440,
      "Ġstrov": 6441,
      "ĠChal": 6442,
      "pÅĻiÅ¡ti": 6443,
      "dlouhy": 6444,
      "ZI": 6445,
      "ĠJARO": 6446,
      "ÅĻeÄį": 6447,
      "ĠvÃ©st": 6448,
      "krasa": 6449,
      "mine": 6450,
      "por": 6451,
      "ĠdlÃŃm": 6452,
      "nÄĽÅ¾": 6453,
      "ĠkÃ½v": 6454,
      "ĠvmÃ½ch": 6455,
      "Ġbah": 6456,
      "proste": 6457,
      "ĠSime": 6458,
      "vÄĽje": 6459,
      "Ġnis": 6460,
      "ĠKR": 6461,
      "ÅĪal": 6462,
      "Ġshlu": 6463,
      "ĠBreska": 6464,
      "ĠAlfons": 6465,
      "lÃ¡k": 6466,
      "Äıas": 6467,
      "tÃŃn": 6468,
      "ĠAlex": 6469,
      "Äįeji": 6470,
      "Ġdlesk": 6471,
      "Ġvmla": 6472,
      "skraÅĪ": 6473,
      "ĠLÃģSKA": 6474,
      "krista": 6475,
      "tluk": 6476,
      "Ġvhor": 6477,
      "Ġvznes": 6478,
      "ĠtuÄį": 6479,
      "jinou": 6480,
      "Ġryk": 6481,
      "biji": 6482,
      "Ġvtr": 6483,
      "Ġvkle": 6484,
      "ĠvnoÄį": 6485,
      "ĠÄıar": 6486,
      "roda": 6487,
      "ĠJAN": 6488,
      "ĠAr": 6489,
      "tok": 6490,
      "ĠpiÄį": 6491,
      "huÄįi": 6492,
      "ĠRy": 6493,
      "Ġzlob": 6494,
      "rosy": 6495,
      "Ġmej": 6496,
      "ĠPil": 6497,
      "skÃ©ho": 6498,
      "Ġflo": 6499,
      "Å¾enu": 6500,
      "Ġvnik": 6501,
      "kazal": 6502,
      "BB": 6503,
      "kmit": 6504,
      "tna": 6505,
      "tahne": 6506,
      "haje": 6507,
      "zdalo": 6508,
      "Ġat": 6509,
      "ABAB": 6510,
      "ĠÄįiv": 6511,
      "muÅ¾i": 6512,
      "bral": 6513,
      "travÄĽ": 6514,
      "Ġpluh": 6515,
      "ĠAlexan": 6516,
      "LOU": 6517,
      "Ġhos": 6518,
      "vodi": 6519,
      "novi": 6520,
      "razim": 6521,
      "jina": 6522,
      "mota": 6523,
      "ĠÄįap": 6524,
      "stesk": 6525,
      "Ġvprav": 6526,
      "tesk": 6527,
      "taj": 6528,
      "ryzi": 6529,
      "dÄĽlenÃŃ": 6530,
      "LET": 6531,
      "Ġmoj": 6532,
      "bala": 6533,
      "ĠBEZ": 6534,
      "plemÄĽ": 6535,
      "lom": 6536,
      "znovu": 6537,
      "zticha": 6538,
      "bÄĽti": 6539,
      "dveÅĻe": 6540,
      "svemu": 6541,
      "knebi": 6542,
      "bky": 6543,
      "Å¾ily": 6544,
      "ĠtÄĽr": 6545,
      "bolem": 6546,
      "ĠAABBCDDC": 6547,
      "Ġrval": 6548,
      "ĠzÃ¡k": 6549,
      "vÃŃn": 6550,
      "ĠhÃ¡Å¡": 6551,
      "ĠBÃ¡": 6552,
      "Ġtrok": 6553,
      "taly": 6554,
      "ĠlÅ¾ÃŃ": 6555,
      "Ġtar": 6556,
      "ĠPou": 6557,
      "ÅłTÄļ": 6558,
      "ĠpÅĻa": 6559,
      "leÅ¾": 6560,
      "lik": 6561,
      "ruchu": 6562,
      "ranni": 6563,
      "CBCX": 6564,
      "ĠzblÃŃz": 6565,
      "Ġchoun": 6566,
      "zpÄĽvy": 6567,
      "ABBA": 6568,
      "tisni": 6569,
      "pomnÄĽ": 6570,
      "ĠoddÄĽlenÃŃ": 6571,
      "dleni": 6572,
      "NICE": 6573,
      "skranÄĽ": 6574,
      "ĠHerma": 6575,
      "hnuti": 6576,
      "snes": 6577,
      "voda": 6578,
      "ÄĮEK": 6579,
      "ĠbrÃ¡t": 6580,
      "svita": 6581,
      "ĠradÅ¡": 6582,
      "ĠÅ¾ert": 6583,
      "ĠSMUT": 6584,
      "zdÄĽ": 6585,
      "Ġsnes": 6586,
      "dumy": 6587,
      "ĠXAXAX": 6588,
      "krate": 6589,
      "ĠhÅĻÃŃÄį": 6590,
      "Ġbre": 6591,
      "Äįili": 6592,
      "ĠErazim": 6593,
      "ĠVocel": 6594,
      "hrd": 6595,
      "Ġhmy": 6596,
      "nie": 6597,
      "ves": 6598,
      "kon": 6599,
      "rys": 6600,
      "pes": 6601,
      "pev": 6602,
      "hvi": 6603,
      "ĠlÃ¡ska": 6604,
      "Ġvsu": 6605,
      "Ġbyls": 6606,
      "ĠZIM": 6607,
      "vzÅĪa": 6608,
      "jasu": 6609,
      "Ġkpr": 6610,
      "Ġrvou": 6611,
      "XXXXXXX": 6612,
      "ĠvyÄį": 6613,
      "ĠchuÅ¥": 6614,
      "ĠvkvÄĽt": 6615,
      "zvuÄįi": 6616,
      "lku": 6617,
      "ĠmstÃŃ": 6618,
      "ĠJA": 6619,
      "ĠkaÅĻ": 6620,
      "cile": 6621,
      "vzduchu": 6622,
      "Ġmlh": 6623,
      "vro": 6624,
      "lava": 6625,
      "ĠABCC": 6626,
      "pravil": 6627,
      "ĠÄįÃ¡st": 6628,
      "erovÃ¡": 6629,
      "bauerovÃ¡": 6630,
      "ĠPilbauerovÃ¡": 6631,
      "ĠvjÃŃ": 6632,
      "ĠkÃ¡s": 6633,
      "ĠdlaÅ¾": 6634,
      "NOST": 6635,
      "radost": 6636,
      "vanou": 6637,
      "naj": 6638,
      "ĠzÃ¡c": 6639,
      "vzlet": 6640,
      "sum": 6641,
      "plesa": 6642,
      "KÃģNÃį": 6643,
      "pne": 6644,
      "Ġmic": 6645,
      "ĠvÃŃd": 6646,
      "viÅĻi": 6647,
      "ĠXVI": 6648,
      "ĠVaÅ¡ÃŃ": 6649,
      "ĠÅ¡kÅ¯d": 6650,
      "Ġjra": 6651,
      "ĠstmÄĽ": 6652,
      "pije": 6653,
      "XXXXXXXXXXXXXX": 6654,
      "Å¾er": 6655,
      "tili": 6656,
      "lÃŃÅ¡ek": 6657,
      "ĠBY": 6658,
      "vznes": 6659,
      "planou": 6660,
      "ĠPelÃŃÅ¡ek": 6661,
      "vÅĻele": 6662,
      "gu": 6663,
      "Ġuj": 6664,
      "ĠSLU": 6665,
      "ĠrÃ¡ÅĻ": 6666,
      "stavy": 6667,
      "cuje": 6668,
      "liti": 6669,
      "tov": 6670,
      "diti": 6671,
      "OVÃģNÃį": 6672,
      "ĠsmÃŃm": 6673,
      "hrom": 6674,
      "ĠctÄĽ": 6675,
      "lidem": 6676,
      "strachu": 6677,
      "zpÄĽvu": 6678,
      "tmavy": 6679,
      "ĠzÅ¡e": 6680,
      "chal": 6681,
      "nili": 6682,
      "nilo": 6683,
      "ĠvaÅ¾": 6684,
      "ĠPÅĻÃŃ": 6685,
      "boru": 6686,
      "ĠABBAA": 6687,
      "pravu": 6688,
      "tÅĻpyti": 6689,
      "Ġeh": 6690,
      "Ġvrab": 6691,
      "Ġvdru": 6692,
      "ĠAABBCCDDEEFFGG": 6693,
      "Ġdmou": 6694,
      "lide": 6695,
      "Ġdep": 6696,
      "XXXXXXXXX": 6697,
      "ĠCe": 6698,
      "travy": 6699,
      "ĠvÅĻÃŃt": 6700,
      "ĠdvÃ¡b": 6701,
      "Ġzly": 6702,
      "ĠbÅĻit": 6703,
      "ĠÅ¡Å¥": 6704,
      "lejÅ¡i": 6705,
      "ĠtiÅ¾": 6706,
      "ĠPako": 6707,
      "stavil": 6708,
      "ĠBAR": 6709,
      "muce": 6710,
      "Ġmrt": 6711,
      "ĠvnÄĽÅ¾": 6712,
      "ĠPakosta": 6713,
      "DÃį": 6714,
      "meta": 6715,
      "TU": 6716,
      "ĠZÃ¡": 6717,
      "Ġdout": 6718,
      "ÅłT": 6719,
      "smÄĽly": 6720,
      "bel": 6721,
      "rto": 6722,
      "Ġvlou": 6723,
      "Ġzvr": 6724,
      "lina": 6725,
      "dana": 6726,
      "vztek": 6727,
      "ĠdrÃ©m": 6728,
      "znÄĽl": 6729,
      "Å¡leni": 6730,
      "Ġsbra": 6731,
      "ĠknÃ½": 6732,
      "ÃģR": 6733,
      "ĠtÅĻetÃŃ": 6734,
      "brany": 6735,
      "Ġpych": 6736,
      "vaci": 6737,
      "Ġnah": 6738,
      "vÄĽsti": 6739,
      "ĠsÃ¡l": 6740,
      "ĠsÅĻÃŃ": 6741,
      "lije": 6742,
      "Ġnoci": 6743,
      "silu": 6744,
      "ĠPOM": 6745,
      "SÃį": 6746,
      "ĠkmÄĽ": 6747,
      "niÅ¾": 6748,
      "ĠTy": 6749,
      "dÄĽv": 6750,
      "Ġvlk": 6751,
      "stromy": 6752,
      "EFFEGG": 6753,
      "zdvih": 6754,
      "oba": 6755,
      "Ġkob": 6756,
      "rii": 6757,
      "Ġjev": 6758,
      "leji": 6759,
      "ĠÄįed": 6760,
      "boky": 6761,
      "SKÃĿCH": 6762,
      "Ġsrp": 6763,
      "ĠBallada": 6764,
      "zdi": 6765,
      "Ġschu": 6766,
      "stavu": 6767,
      "skym": 6768,
      "kroky": 6769,
      "ĠHavelka": 6770,
      "plen": 6771,
      "vce": 6772,
      "Ġhvozd": 6773,
      "ony": 6774,
      "Ġroh": 6775,
      "ĠrtÅ¯m": 6776,
      "fra": 6777,
      "rala": 6778,
      "Ġtik": 6779,
      "ĠTÅ¯": 6780,
      "Ġvzda": 6781,
      "ĠtuÅ¥": 6782,
      "Ġthu": 6783,
      "vime": 6784,
      "draÅ¾": 6785,
      "zraje": 6786,
      "nale": 6787,
      "tÄĽÅ¡i": 6788,
      "soud": 6789,
      "ÄįenÃŃ": 6790,
      "ton": 6791,
      "bodu": 6792,
      "bej": 6793,
      "lemu": 6794,
      "Ġzbou": 6795,
      "ĠKra": 6796,
      "Ġstiv": 6797,
      "miha": 6798,
      "mÄĽÅĻi": 6799,
      "Ġkrej": 6800,
      "Ġvchlad": 6801,
      "ckÃ©": 6802,
      "ĠTÅĺETÃį": 6803,
      "upa": 6804,
      "Ġkvla": 6805,
      "tichu": 6806,
      "bÄĽh": 6807,
      "ing": 6808,
      "NU": 6809,
      "jini": 6810,
      "ĠÅ¡iÄį": 6811,
      "ĠhÃ¡Äį": 6812,
      "plaÄį": 6813,
      "hledÄĽl": 6814,
      "ĠABAX": 6815,
      "poru": 6816,
      "ĠvsmÃŃ": 6817,
      "moh": 6818,
      "vuli": 6819,
      "ĠZV": 6820,
      "zela": 6821,
      "ÄįÃŃk": 6822,
      "GGHXH": 6823,
      "cÅ¯": 6824,
      "Ġsji": 6825,
      "houci": 6826,
      "ĠzmÃ©": 6827,
      "ĠktÄĽm": 6828,
      "Å¾ka": 6829,
      "Ġsrdce": 6830,
      "Ġvdlou": 6831,
      "ĠvaÅ¥": 6832,
      "jede": 6833,
      "slovem": 6834,
      "Ġssa": 6835,
      "vazi": 6836,
      "cie": 6837,
      "kot": 6838,
      "jala": 6839,
      "ĠkÅĻep": 6840,
      "at": 6841,
      "prch": 6842,
      "ĠlhÃ¡": 6843,
      "rob": 6844,
      "ĠÄįerv": 6845,
      "hyba": 6846,
      "Ġtvol": 6847,
      "Ġvstro": 6848,
      "ĠdliÄį": 6849,
      "ĠsmeÄį": 6850,
      "ĠXAXABCBC": 6851,
      "lin": 6852,
      "haj": 6853,
      "Ġbij": 6854,
      "pÄĽla": 6855,
      "ĠvlÃŃc": 6856,
      "ĠÅ¾ol": 6857,
      "zvÄĽsti": 6858,
      "PÃį": 6859,
      "VEN": 6860,
      "chÃ½": 6861,
      "ĠsuÄı": 6862,
      "Ġglo": 6863,
      "ĠVillani": 6864,
      "ĠDrahotÃŃn": 6865,
      "Ġkpra": 6866,
      "dola": 6867,
      "Ġprst": 6868,
      "dÄĽsi": 6869,
      "klas": 6870,
      "lha": 6871,
      "mni": 6872,
      "ona": 6873,
      "Ġtuch": 6874,
      "telem": 6875,
      "Ġvkni": 6876,
      "ĠvzpÅĻÃŃ": 6877,
      "Äįeny": 6878,
      "Ġpach": 6879,
      "ĠÄįÃŃc": 6880,
      "ĠDRA": 6881,
      "ĠXVII": 6882,
      "vouci": 6883,
      "ĠChalupa": 6884,
      "tvira": 6885,
      "Ġvha": 6886,
      "Ġrag": 6887,
      "sala": 6888,
      "prahy": 6889,
      "ÅĻadu": 6890,
      "klada": 6891,
      "Ġvprv": 6892,
      "ĠvÃŃt": 6893,
      "deÅ¡tÄĽ": 6894,
      "Ġjun": 6895,
      "LAD": 6896,
      "Ġvtis": 6897,
      "ĠbÃ½m": 6898,
      "tiÅ¡": 6899,
      "nÄĽly": 6900,
      "mechu": 6901,
      "ĠsteÄį": 6902,
      "Ġspod": 6903,
      "take": 6904,
      "vidim": 6905,
      "ĠKRÃģLE": 6906,
      "ĠvpÅ¯l": 6907,
      "EB": 6908,
      "ĠschrÃ¡": 6909,
      "Ġplul": 6910,
      "tveho": 6911,
      "Ġpluk": 6912,
      "Ġmhou": 6913,
      "ĠlÃŃÅĻ": 6914,
      "ÄĮI": 6915,
      "beÅ¡": 6916,
      "Å¾enÄĽ": 6917,
      "hodi": 6918,
      "stan": 6919,
      "bidu": 6920,
      "ĠLU": 6921,
      "dravy": 6922,
      "ĠspÃŃs": 6923,
      "klinÄĽ": 6924,
      "Ġvnuk": 6925,
      "ĠstlÃ¡": 6926,
      "tost": 6927,
      "ĠlÃ¡sky": 6928,
      "chala": 6929,
      "ĠmrÃ¡Äį": 6930,
      "tvem": 6931,
      "ĠSOU": 6932,
      "dii": 6933,
      "sich": 6934,
      "ĠMODLIT": 6935,
      "Äįici": 6936,
      "ĠLÃ¡": 6937,
      "ctvi": 6938,
      "bledy": 6939,
      "plesu": 6940,
      "Ġcech": 6941,
      "ĠÅĻve": 6942,
      "Ġviv": 6943,
      "tÄĽsti": 6944,
      "ĠtrÃ©": 6945,
      "Ġpust": 6946,
      "Ġrep": 6947,
      "ĠsÃ¡ch": 6948,
      "piÅ¡e": 6949,
      "bran": 6950,
      "ĠvÅĻi": 6951,
      "ĠrdÄĽ": 6952,
      "rysy": 6953,
      "ĠlÃ©k": 6954,
      "ĠÅłi": 6955,
      "skale": 6956,
      "klani": 6957,
      "ĠKuÄįera": 6958,
      "ĠpsÃ¡t": 6959,
      "ĠHe": 6960,
      "ĠceÅ¡": 6961,
      "voÅĻi": 6962,
      "ĠmÃ¡Å¾": 6963,
      "ĠPÅĻed": 6964,
      "vÃ¡nÃŃ": 6965,
      "Ġmdle": 6966,
      "kdesi": 6967,
      "ĠPÃįSNÄļ": 6968,
      "smÄĽs": 6969,
      "Ġzmoc": 6970,
      "ĠsnÅ¯m": 6971,
      "bani": 6972,
      "lesem": 6973,
      "ĠVOJ": 6974,
      "rti": 6975,
      "ĠpÅĻÃŃt": 6976,
      "motÄĽ": 6977,
      "tym": 6978,
      "ĠHvÄĽzdy": 6979,
      "PIS": 6980,
      "ÅĻiÅ¡i": 6981,
      "Ġmer": 6982,
      "prazd": 6983,
      "ĠLÃģSKY": 6984,
      "ĠPODZIMNÃį": 6985,
      "znak": 6986,
      "Ġjist": 6987,
      "ĠdlÃ½m": 6988,
      "spiÅ¡": 6989,
      "ĠDOM": 6990,
      "Ġpja": 6991,
      "Ġchvo": 6992,
      "ĠKor": 6993,
      "ĠjlÃŃp": 6994,
      "ĠHug": 6995,
      "rety": 6996,
      "CKÃī": 6997,
      "ĠSVÄļT": 6998,
      "ĠTÅ¯ma": 6999,
      "vpÅĻed": 7000,
      "Ġab": 7001,
      "manÄĽ": 7002,
      "kratky": 7003,
      "ried": 7004,
      "ĠSTARÃģ": 7005,
      "Ġpsi": 7006,
      "neÄį": 7007,
      "luhu": 7008,
      "Ġprot": 7009,
      "Ġsvaz": 7010,
      "ĠtÅĻesk": 7011,
      "ĠMilan": 7012,
      "ĠFuÄįÃŃk": 7013,
      "hnÄĽvu": 7014,
      "vkra": 7015,
      "ÃŃm": 7016,
      "ĠpasÅ¥": 7017,
      "ĠpÅĻeÄį": 7018,
      "seli": 7019,
      "dÄĽlo": 7020,
      "sklada": 7021,
      "chleb": 7022,
      "ĠÄįlun": 7023,
      "Ġrud": 7024,
      "ĠZLA": 7025,
      "ĠgÃ¡": 7026,
      "eg": 7027,
      "ĠtmÃ¡": 7028,
      "Å¡er": 7029,
      "ĠDÄĽ": 7030,
      "Äįita": 7031,
      "ĠXAXAXBXBXCXCXDXD": 7032,
      "hbitÄĽ": 7033,
      "radu": 7034,
      "Ġvlok": 7035,
      "bloudi": 7036,
      "kte": 7037,
      "vnoci": 7038,
      "Ġtha": 7039,
      "aky": 7040,
      "ĠduÅ¡e": 7041,
      "dik": 7042,
      "dechem": 7043,
      "rÃ©": 7044,
      "ĠÄįÃŃk": 7045,
      "ĠEg": 7046,
      "klene": 7047,
      "nÃ¡ctÃ½": 7048,
      "rud": 7049,
      "ĠÅĻÃŃk": 7050,
      "mista": 7051,
      "minam": 7052,
      "sitÄĽ": 7053,
      "ĠstrÃ¡ÅĪ": 7054,
      "ĠRubeÅ¡": 7055,
      "fal": 7056,
      "vlici": 7057,
      "vboji": 7058,
      "kost": 7059,
      "pany": 7060,
      "vami": 7061,
      "hoji": 7062,
      "Ġvmr": 7063,
      "XEXE": 7064,
      "tvym": 7065,
      "dici": 7066,
      "ĠÄĮÃģ": 7067,
      "ĠKap": 7068,
      "ĠzÅĻej": 7069,
      "kniÅ¾e": 7070,
      "tÄĽchu": 7071,
      "ĠMU": 7072,
      "Äįeru": 7073,
      "ĠpÄĽn": 7074,
      "ĠvÅ¾e": 7075,
      "ĠÅ¡piÄį": 7076,
      "daval": 7077,
      "ĠXAXAXA": 7078,
      "nulo": 7079,
      "bych": 7080,
      "Ġger": 7081,
      "ĠslÅ¯v": 7082,
      "jicich": 7083,
      "ĠHugo": 7084,
      "ĠÅĻej": 7085,
      "plaÅ¡i": 7086,
      "ĠKRÃģLOV": 7087,
      "ptal": 7088,
      "lame": 7089,
      "ĠSNÄļ": 7090,
      "ĠÅłTÄļ": 7091,
      "ĠXXXXXXXXXXXXXXXXXXXXX": 7092,
      "zbranÄĽ": 7093,
      "ĠAXABB": 7094,
      "lip": 7095,
      "Ġcer": 7096,
      "stanu": 7097,
      "nÃ©st": 7098,
      "ĠÄįtvrtÃ½": 7099,
      "Ġmos": 7100,
      "viry": 7101,
      "kos": 7102,
      "ĠsvÃ¡r": 7103,
      "Ġhrd": 7104,
      "ĠstiÄį": 7105,
      "Ġvnez": 7106,
      "silou": 7107,
      "pluje": 7108,
      "Ġlha": 7109,
      "kaci": 7110,
      "poj": 7111,
      "baj": 7112,
      "ĠELEG": 7113,
      "snach": 7114,
      "kroÄįi": 7115,
      "hlida": 7116,
      "Ġnaiv": 7117,
      "nest": 7118,
      "Ġland": 7119,
      "ÅĻika": 7120,
      "citil": 7121,
      "hlasi": 7122,
      "ĠPosled": 7123,
      "snÄĽhu": 7124,
      "gie": 7125,
      "Ġshor": 7126,
      "rami": 7127,
      "Äįelem": 7128,
      "snil": 7129,
      "vsa": 7130,
      "Ġlvi": 7131,
      "ĠzaÅ¡": 7132,
      "tika": 7133,
      "hany": 7134,
      "ĠpÃ¡m": 7135,
      "Ġgar": 7136,
      "ĠStach": 7137,
      "zena": 7138,
      "ĠsÅ¾e": 7139,
      "ĠpÅĻen": 7140,
      "ĠbÃ½ch": 7141,
      "ĠÅ¡pÃŃ": 7142,
      "Å¡eru": 7143,
      "mele": 7144,
      "Ġpous": 7145,
      "ĠrÅ¯st": 7146,
      "Ġpiv": 7147,
      "plakal": 7148,
      "choslav": 7149,
      "Ġmnoh": 7150,
      "sladce": 7151,
      "fried": 7152,
      "ĠABX": 7153,
      "sniva": 7154,
      "ĠKapper": 7155,
      "ĠPoslednÃŃ": 7156,
      "tev": 7157,
      "nosÅ¥": 7158,
      "Ġbab": 7159,
      "ĠLA": 7160,
      "HU": 7161,
      "RE": 7162,
      "Ġim": 7163,
      "Ġzjed": 7164,
      "ĠVeÄįer": 7165,
      "th": 7166,
      "ĠCi": 7167,
      "Ġric": 7168,
      "ust": 7169,
      "ĠtÅĻen": 7170,
      "Ġzkra": 7171,
      "skÃ©m": 7172,
      "kona": 7173,
      "VE": 7174,
      "Ġsdo": 7175,
      "Ġtho": 7176,
      "Ġchry": 7177,
      "ĠtÃŃc": 7178,
      "Ġmag": 7179,
      "cet": 7180,
      "ĠKlo": 7181,
      "ĠrÃ¡b": 7182,
      "taÅĻe": 7183,
      "Ġvpoz": 7184,
      "dnem": 7185,
      "Å¾ku": 7186,
      "listy": 7187,
      "ĠvÃ¡k": 7188,
      "ĠAABCCBD": 7189,
      "kej": 7190,
      "vnady": 7191,
      "sch": 7192,
      "Ġmly": 7193,
      "ĠhÅĻi": 7194,
      "lodi": 7195,
      "ticho": 7196,
      "modli": 7197,
      "Ġhed": 7198,
      "ĠÄįou": 7199,
      "ĠMen": 7200,
      "Å¡iji": 7201,
      "znamy": 7202,
      "vln": 7203,
      "ZNA": 7204,
      "Ã¡z": 7205,
      "Ġstvem": 7206,
      "Ġzleh": 7207,
      "zdrav": 7208,
      "hÅĻeb": 7209,
      "ĠvztÃ¡h": 7210,
      "tit": 7211,
      "tomÄĽ": 7212,
      "komu": 7213,
      "sluje": 7214,
      "ĠABCABC": 7215,
      "UP": 7216,
      "dlem": 7217,
      "love": 7218,
      "tonu": 7219,
      "ĠtrÅ¯m": 7220,
      "vraÅ¾": 7221,
      "ĠtvÃŃch": 7222,
      "ĠpruÅ¾": 7223,
      "laka": 7224,
      "ĠstvÅ¯": 7225,
      "dalky": 7226,
      "blak": 7227,
      "nechce": 7228,
      "ĠdvÃ¡Å¾": 7229,
      "ĠÄĮenkov": 7230,
      "ĠÅ¡Å¥Ã¡": 7231,
      "Äįar": 7232,
      "ĠÅ¡ev": 7233,
      "ĠbÃ¡n": 7234,
      "plaÅ¡e": 7235,
      "Ġzbled": 7236,
      "ĠÄĮÃģST": 7237,
      "DÃģ": 7238,
      "ĠSen": 7239,
      "kytu": 7240,
      "Ġpic": 7241,
      "ĠsÅ¾i": 7242,
      "ĠcÃ½ch": 7243,
      "prah": 7244,
      "Ġrouc": 7245,
      "ĠVELIK": 7246,
      "ĠÅ¡Ã¡r": 7247,
      "ĠSlo": 7248,
      "Å¾ek": 7249,
      "puje": 7250,
      "nen": 7251,
      "Ġnud": 7252,
      "Ġksou": 7253,
      "ONI": 7254,
      "zbrani": 7255,
      "ĠMÃ¡cha": 7256,
      "ĠABAXCBCX": 7257,
      "DIN": 7258,
      "ĠcÃŃÅĻ": 7259,
      "Ġsah": 7260,
      "Ġrys": 7261,
      "mrt": 7262,
      "ĠSieg": 7263,
      "ĠKlose": 7264,
      "ĠSiegfried": 7265,
      "MY": 7266,
      "lna": 7267,
      "uÄįi": 7268,
      "Ġem": 7269,
      "ĠkmÃ©": 7270,
      "Ġmam": 7271,
      "tova": 7272,
      "ĠCO": 7273,
      "ĠMODLITBA": 7274,
      "ĠvÄįÃŃ": 7275,
      "Ġpso": 7276,
      "niÅ¡": 7277,
      "ĠTOU": 7278,
      "divem": 7279,
      "Ġvslo": 7280,
      "Å¾adne": 7281,
      "lilo": 7282,
      "Ġsok": 7283,
      "vzdycha": 7284,
      "baje": 7285,
      "ĠvkÅĻe": 7286,
      "ĠpsÃŃ": 7287,
      "LOVÄļ": 7288,
      "zkou": 7289,
      "vava": 7290,
      "ĠrÅ¯v": 7291,
      "ĠRU": 7292,
      "dennÄĽ": 7293,
      "ĠLETNÃį": 7294,
      "ĠMenhar": 7295,
      "vnich": 7296,
      "laskou": 7297,
      "rove": 7298,
      "Äįisty": 7299,
      "plaly": 7300,
      "hledy": 7301,
      "bÅĻeh": 7302,
      "Ġhov": 7303,
      "vinÄĽ": 7304,
      "ĠctnÃ©": 7305,
      "vlni": 7306,
      "ĠvsÃŃÅĪ": 7307,
      "Ġcher": 7308,
      "dive": 7309,
      "diÄįky": 7310,
      "ĠhÃ¡v": 7311,
      "ĠstÃ¡n": 7312,
      "ĠztvÃ½ch": 7313,
      "pÅĻival": 7314,
      "stÄĽÅ¾i": 7315,
      "teho": 7316,
      "ĠMÅ®": 7317,
      "lidsky": 7318,
      "plal": 7319,
      "Ġcouz": 7320,
      "ĠÄįat": 7321,
      "ĠspÄĽj": 7322,
      "blyska": 7323,
      "ĠSimeon": 7324,
      "**": 7325,
      "Ġvska": 7326,
      "lev": 7327,
      "ĠAABBCCD": 7328,
      "Å¡ije": 7329,
      "nesu": 7330,
      "Ġvkli": 7331,
      "vyÅ¡Å¡i": 7332,
      "ĠteÅ¾": 7333,
      "ĠvtvÃ½ch": 7334,
      "Ġnald": 7335,
      "ĠtrÃ¡v": 7336,
      "stunÄĽ": 7337,
      "vzala": 7338,
      "kdo": 7339,
      "Ġzhor": 7340,
      "Ġvsled": 7341,
      "ĠvÅ¾Ã¡": 7342,
      "ĠLX": 7343,
      "ĠbÅĻeÄį": 7344,
      "ĠpÅ¯t": 7345,
      "blesky": 7346,
      "zvonu": 7347,
      "ÄįkovÃ¡": 7348,
      "ĠLitomÄĽ": 7349,
      "ĠMenhard": 7350,
      "ĠLitomÄĽÅĻickÃ½": 7351,
      "Ġpsy": 7352,
      "nati": 7353,
      "set": 7354,
      "jemi": 7355,
      "hledal": 7356,
      "Å¡aty": 7357,
      "vku": 7358,
      "Ġvjar": 7359,
      "ĠÄįli": 7360,
      "ĠveÄįer": 7361,
      "ĠtÃŃh": 7362,
      "vidÄĽt": 7363,
      "pala": 7364,
      "ĠvtÃ¡": 7365,
      "genda": 7366,
      "brou": 7367,
      "nicky": 7368,
      "ruti": 7369,
      "ĠSy": 7370,
      "pot": 7371,
      "Ġzvad": 7372,
      "vanku": 7373,
      "chvata": 7374,
      "pomnÄĽl": 7375,
      "leslav": 7376,
      "roj": 7377,
      "lily": 7378,
      "ĠtÄĽk": 7379,
      "ĠmÅ¯r": 7380,
      "chÃ¡Äįek": 7381,
      "spani": 7382,
      "NOÄĮNÃį": 7383,
      "pem": 7384,
      "ĠhoÄı": 7385,
      "Ġsin": 7386,
      "ĠMachÃ¡Äįek": 7387,
      "ĠELEGIE": 7388,
      "ren": 7389,
      "ĠHE": 7390,
      "Ġpam": 7391,
      "dusi": 7392,
      "ĠbÃŃn": 7393,
      "Å¡iÅĻi": 7394,
      "bÄĽla": 7395,
      "ĠverÅ¡": 7396,
      "Ġvly": 7397,
      "Ġvhra": 7398,
      "Ġdaj": 7399,
      "ĠOt": 7400,
      "ĠXXII": 7401,
      "CBCDD": 7402,
      "vstal": 7403,
      "LEM": 7404,
      "Ġdul": 7405,
      "ard": 7406,
      "Å¾im": 7407,
      "Ġhus": 7408,
      "sinÄĽ": 7409,
      "ĠzmlÃ¡": 7410,
      "PE": 7411,
      "jmena": 7412,
      "Ġvchu": 7413,
      "tÄĽmi": 7414,
      "Ġstisk": 7415,
      "ĠflÃ©": 7416,
      "SEM": 7417,
      "otce": 7418,
      "ĠÄĮESKÃī": 7419,
      "Ġzci": 7420,
      "Ġoct": 7421,
      "Ġram": 7422,
      "pÄĽst": 7423,
      "bur": 7424,
      "Ġvtmu": 7425,
      "ĠklÃ¡s": 7426,
      "vÄĽsi": 7427,
      "Ġvzou": 7428,
      "ĠPohÃ¡": 7429,
      "ĠVilÃ©m": 7430,
      "ĠvÅĻen": 7431,
      "ĠchvÄĽt": 7432,
      "Ġpyt": 7433,
      "kmita": 7434,
      "ĠKORUN": 7435,
      "ĠzÃ¡r": 7436,
      "muka": 7437,
      "Ġloun": 7438,
      "kleti": 7439,
      "ptaÄįe": 7440,
      "PIT": 7441,
      "ĠtÃŃÄį": 7442,
      "Ġvsen": 7443,
      "ĠHou": 7444,
      "ĠÅ¡els": 7445,
      "ĠRE": 7446,
      "puÄįi": 7447,
      "stkvÄĽ": 7448,
      "lunÄĽ": 7449,
      "maj": 7450,
      "Ġvsnech": 7451,
      "brati": 7452,
      "pily": 7453,
      "zlou": 7454,
      "ĠÅ¡ou": 7455,
      "vaÅ¡e": 7456,
      "Ġboh": 7457,
      "Äįima": 7458,
      "cemi": 7459,
      "lkani": 7460,
      "ĠMiloÅ¡": 7461,
      "ĠSlavo": 7462,
      "kÃ©": 7463,
      "alu": 7464,
      "ĠÅ¾eÅ¥": 7465,
      "ĠAL": 7466,
      "Ġvzhled": 7467,
      "ĠPOU": 7468,
      "Ġzhla": 7469,
      "krasna": 7470,
      "ĠvrÃ½": 7471,
      "touhou": 7472,
      "smutku": 7473,
      "kanou": 7474,
      "rdÄĽ": 7475,
      "ÃįR": 7476,
      "Ġkslu": 7477,
      "pyÅ¡e": 7478,
      "Ġkvy": 7479,
      "Äįkem": 7480,
      "topi": 7481,
      "ĠAnna": 7482,
      "GHXH": 7483,
      "Ġznej": 7484,
      "zdy": 7485,
      "Ġsklen": 7486,
      "Ġtvu": 7487,
      "meÄįe": 7488,
      "ĠzdÅĻÃŃ": 7489,
      "RAV": 7490,
      "kalo": 7491,
      "Ġlly": 7492,
      "ĠnuÅ¡": 7493,
      "mistÄĽ": 7494,
      "rym": 7495,
      "dÄĽvy": 7496,
      "ĠLou": 7497,
      "zvony": 7498,
      "vnad": 7499,
      "Å¾alu": 7500,
      "ZA": 7501,
      "zmÄĽni": 7502,
      "Ġzdy": 7503,
      "stvu": 7504,
      "Ġup": 7505,
      "ĠvzchÃ¡": 7506,
      "ĠMY": 7507,
      "bory": 7508,
      "Ġzbar": 7509,
      "velky": 7510,
      "GGFHH": 7511,
      "ĠcÃ©": 7512,
      "votem": 7513,
      "ĠBOU": 7514,
      "ĠvÅĻes": 7515,
      "kvesti": 7516,
      "blede": 7517,
      "cove": 7518,
      "ÅĻÃŃk": 7519,
      "koÄįi": 7520,
      "tur": 7521,
      "Ġeu": 7522,
      "jat": 7523,
      "ĠdruhÃ½": 7524,
      "ĠKVÄļT": 7525,
      "ĠnouÅ¥": 7526,
      "pilo": 7527,
      "ĠhlÃ©m": 7528,
      "chramu": 7529,
      "ĠTichÃ½": 7530,
      "kvas": 7531,
      "ÃŃr": 7532,
      "ĠkbÅĻe": 7533,
      "Ġpoch": 7534,
      "tilo": 7535,
      "teÄįe": 7536,
      "ĠbuÅ¥": 7537,
      "ĠÅĺÃį": 7538,
      "lili": 7539,
      "vaÅ¾": 7540,
      "nÃŃÄįek": 7541,
      "ĠrÃ¡Äį": 7542,
      "Ġzpl": 7543,
      "ĠbÃ¡k": 7544,
      "ĠÄĮLOVÄļ": 7545,
      "Ġzkte": 7546,
      "ĠVZPOMÃįNKA": 7547,
      "Äįene": 7548,
      "ĠABABCDDCE": 7549,
      "voce": 7550,
      "vÅ¡udy": 7551,
      "oblak": 7552,
      "Å¡nÄĽ": 7553,
      "linÄĽ": 7554,
      "tali": 7555,
      "huje": 7556,
      "Ġdlen": 7557,
      "vrah": 7558,
      "matce": 7559,
      "msti": 7560,
      "ĠsÄįÃŃ": 7561,
      "ĠÅ¾in": 7562,
      "ĠPAR": 7563,
      "ĠsÃŃÅ¥": 7564,
      "zitra": 7565,
      "ĠRY": 7566,
      "peÅĻi": 7567,
      "Ġzlil": 7568,
      "ĠArno": 7569,
      "ale": 7570,
      "ed": 7571,
      "nÄĽj": 7572,
      "nali": 7573,
      "Ġzob": 7574,
      "Ġhev": 7575,
      "Ġsliv": 7576,
      "ĠÅĻÃ¡n": 7577,
      "ĠNOÄĮNÃį": 7578,
      "Äįily": 7579,
      "ĠstÅĻem": 7580,
      "Ġvzta": 7581,
      "ĠsplÃŃ": 7582,
      "noha": 7583,
      "Å¾ive": 7584,
      "boka": 7585,
      "Å¡ila": 7586,
      "hlase": 7587,
      "ÃĿM": 7588,
      "kveta": 7589,
      "zÅĻim": 7590,
      "KOVA": 7591,
      "ĠnÃŃc": 7592,
      "ĠÅ¾ÃŃn": 7593,
      "tmach": 7594,
      "sladka": 7595,
      "vÄįera": 7596,
      "ĠlvÃŃ": 7597,
      "Ġ14": 7598,
      "ĠKDY": 7599,
      "ÄįeÅĻi": 7600,
      "Ġhouf": 7601,
      "kout": 7602,
      "ĠfÃ¡m": 7603,
      "Å¾havy": 7604,
      "zname": 7605,
      "ĠzlÅ¯": 7606,
      "kÃ½": 7607,
      "Ġmes": 7608,
      "jata": 7609,
      "jaty": 7610,
      "kamÅ¾ik": 7611,
      "mÃ½": 7612,
      "Ġzmy": 7613,
      "roz": 7614,
      "lum": 7615,
      "Ġryl": 7616,
      "ĠBe": 7617,
      "kÅĻiÅ¾e": 7618,
      "Ġtluk": 7619,
      "Ġkbla": 7620,
      "ĠÅ¡Ã¡t": 7621,
      "ĠDÃģ": 7622,
      "mohou": 7623,
      "nesou": 7624,
      "ĠhÅ¯ÅĻ": 7625,
      "tÅĻpyt": 7626,
      "pÅĻ": 7627,
      "ĠTU": 7628,
      "tavy": 7629,
      "dine": 7630,
      "bilo": 7631,
      "prost": 7632,
      "slet": 7633,
      "Å¡pi": 7634,
      "Å¡kle": 7635,
      "Ġpost": 7636,
      "ĠliÅ¾": 7637,
      "Ġson": 7638,
      "chuti": 7639,
      "ĠÅ¥Ã¡t": 7640,
      "pek": 7641,
      "venku": 7642,
      "plni": 7643,
      "ir": 7644,
      "Ġvsko": 7645,
      "Ġcim": 7646,
      "tokem": 7647,
      "tebou": 7648,
      "klet": 7649,
      "spanku": 7650,
      "mluvil": 7651,
      "Ġvzlyk": 7652,
      "ENI": 7653,
      "Ġbuz": 7654,
      "ĠztvÃ©": 7655,
      "vÅ¡emu": 7656,
      "jste": 7657,
      "Äįce": 7658,
      "naÅ¡el": 7659,
      "skro": 7660,
      "ĠVÃ¡": 7661,
      "tÄĽzi": 7662,
      "Å¡ede": 7663,
      "bida": 7664,
      "ÄĮENÃį": 7665,
      "ĠstlÃ©": 7666,
      "ĠSA": 7667,
      "posud": 7668,
      "mur": 7669,
      "ĠvrÃ¡j": 7670,
      "slun": 7671,
      "pÅĻedu": 7672,
      "padlo": 7673,
      "ĠSTÃįN": 7674,
      "Ġ***": 7675,
      "zhy": 7676,
      "Ġ8": 7677,
      "Ġkhla": 7678,
      "Ġbyv": 7679,
      "ĠuÄį": 7680,
      "tuÅ¡e": 7681,
      "Ġzvod": 7682,
      "ĠArnoÅ¡t": 7683,
      "naci": 7684,
      "voji": 7685,
      "ĠvtÅ¯": 7686,
      "zly": 7687,
      "ÃŃs": 7688,
      "ĠdÄĽk": 7689,
      "tovÄĽ": 7690,
      "ĠdaÅĻ": 7691,
      "ĠMON": 7692,
      "pur": 7693,
      "klesla": 7694,
      "Ġzmlk": 7695,
      "ĠktvÃ©": 7696,
      "ĠjÅ¯m": 7697,
      "votu": 7698,
      "minka": 7699,
      "Ġvplen": 7700,
      "byval": 7701,
      "sluÅ¾": 7702,
      "spati": 7703,
      "kmet": 7704,
      "Ġseh": 7705,
      "ĠkdÄĽ": 7706,
      "rouci": 7707,
      "Ġnejv": 7708,
      "ĠvhnÄĽ": 7709,
      "zvedne": 7710,
      "ĠchlÃ½m": 7711,
      "kÃ¡t": 7712,
      "mly": 7713,
      "ĠtoÄį": 7714,
      "Ġpech": 7715,
      "Ġchop": 7716,
      "mluvi": 7717,
      "ec": 7718,
      "Ġcnost": 7719,
      "ÅĻice": 7720,
      "Ġrub": 7721,
      "celou": 7722,
      "pola": 7723,
      "dÄĽtem": 7724,
      "CCX": 7725,
      "bice": 7726,
      "vÅĻely": 7727,
      "slzy": 7728,
      "vÄĽji": 7729,
      "Ġtram": 7730,
      "Ġslek": 7731,
      "ĠkslÃ¡": 7732,
      "ĠBoleslav": 7733,
      "dÅĻive": 7734,
      "ĠAu": 7735,
      "ĠÅ¡ÃŃk": 7736,
      "Ġvsla": 7737,
      "Ġkrk": 7738,
      "muÄįi": 7739,
      "mÃŃÄįek": 7740,
      "ĠblÃ¡Äį": 7741,
      "zdani": 7742,
      "ĠTomÃŃÄįek": 7743,
      "ĠSlavomÃŃr": 7744,
      "OT": 7745,
      "ken": 7746,
      "Ġvdech": 7747,
      "Ġsval": 7748,
      "Å¡eda": 7749,
      "ĠvspÄĽ": 7750,
      "buje": 7751,
      "bat": 7752,
      "valu": 7753,
      "menou": 7754,
      "Ġschop": 7755,
      "ĠÅ½IVSA": 7756,
      "zbyva": 7757,
      "XXXXXXXXXXX": 7758,
      "ĠDÃŃ": 7759,
      "ĠAR": 7760,
      "Ġbot": 7761,
      "voje": 7762,
      "stiha": 7763,
      "mnoÅ¾i": 7764,
      "Ġsfin": 7765,
      "ztich": 7766,
      "Äįo": 7767,
      "mali": 7768,
      "vladne": 7769,
      "ĠAXAB": 7770,
      "vnu": 7771,
      "rova": 7772,
      "luhy": 7773,
      "Ġkyn": 7774,
      "kouÅĻi": 7775,
      "ĠpÃ½ch": 7776,
      "ĠcvÃ¡": 7777,
      "Ġchval": 7778,
      "vadne": 7779,
      "nÄĽte": 7780,
      "ĠÅĻeh": 7781,
      "ĠvÃ½h": 7782,
      "Ġjes": 7783,
      "ĠdrÅ¯m": 7784,
      "ĠÅłnaj": 7785,
      "skaÄįe": 7786,
      "nutim": 7787,
      "stoupa": 7788,
      "ĠJUANA": 7789,
      "NOU": 7790,
      "zny": 7791,
      "ĠdbÃ¡": 7792,
      "ĠSudimÃŃr": 7793,
      "ĠÅłnajdr": 7794,
      "ĠAAXB": 7795,
      "ĠFr": 7796,
      "pis": 7797,
      "Ġsvod": 7798,
      "ĠhÃ½Äį": 7799,
      "nÃ©m": 7800,
      "HRA": 7801,
      "vÅĻi": 7802,
      "vÄĽkem": 7803,
      "ĠAAAB": 7804,
      "sudu": 7805,
      "stopy": 7806,
      "Ġblys": 7807,
      "vnik": 7808,
      "Ġzven": 7809,
      "Ġtrn": 7810,
      "ĠXXV": 7811,
      "ĠPOH": 7812,
      "trava": 7813,
      "snoubi": 7814,
      "ĠÅ¡ti": 7815,
      "jela": 7816,
      "paty": 7817,
      "nÃ©ho": 7818,
      "straÅ¾i": 7819,
      "ĠÅ½I": 7820,
      "Ġfej": 7821,
      "ĠDOB": 7822,
      "milou": 7823,
      "tulc": 7824,
      "kojen": 7825,
      "boda": 7826,
      "Ġhoum": 7827,
      "CBCD": 7828,
      "ĠABBACDDCEFEF": 7829,
      "ĠDÃįL": 7830,
      "Ġshas": 7831,
      "ĠJil": 7832,
      "dano": 7833,
      "dosud": 7834,
      "kole": 7835,
      "dÄĽs": 7836,
      "ĠJahn": 7837,
      "reku": 7838,
      "Å¾eli": 7839,
      "Ġgol": 7840,
      "ĠJiljÃŃ": 7841,
      "hÅĻa": 7842,
      "nii": 7843,
      "Ġproz": 7844,
      "voÄįi": 7845,
      "Ġdis": 7846,
      "Ġsol": 7847,
      "ĠdveÅĻ": 7848,
      "licich": 7849,
      "ptaÄįi": 7850,
      "ĠkpÃ¡": 7851,
      "ĠvznÄĽt": 7852,
      "ZNÃģ": 7853,
      "livy": 7854,
      "kleta": 7855,
      "kÅĻiku": 7856,
      "jdeÅ¡": 7857,
      "ĠtkvÄĽ": 7858,
      "Ġkpro": 7859,
      "ĠÅ¾Å¯m": 7860,
      "ĠpÅĻim": 7861,
      "hada": 7862,
      "Ġgli": 7863,
      "Ġwa": 7864,
      "SO": 7865,
      "ĠÄįnÄĽ": 7866,
      "kan": 7867,
      "stav": 7868,
      "ÄĮKY": 7869,
      "ĠznÃŃt": 7870,
      "ĠvblÃ¡": 7871,
      "trudu": 7872,
      "dvoji": 7873,
      "ĠXXXXXXXXXXXXXXXXXXXXXX": 7874,
      "Ġvzrak": 7875,
      "lesku": 7876,
      "loÅ¾e": 7877,
      "ĠpraÅ¾": 7878,
      "ĠkrÃ©": 7879,
      "bÄĽhu": 7880,
      "Ġvrod": 7881,
      "ĠAlexandr": 7882,
      "LÃĿ": 7883,
      "ĠdnÃ½m": 7884,
      "Ġbost": 7885,
      "dilu": 7886,
      "ĠpÃ¡t": 7887,
      "ĠÄĮT": 7888,
      "slasti": 7889,
      "ĠbloÅĪ": 7890,
      "ĠÅ½IVOT": 7891,
      "cou": 7892,
      "niÄįka": 7893,
      "nÃŃch": 7894,
      "Ġplam": 7895,
      "znÄĽla": 7896,
      "blohou": 7897,
      "ĠThe": 7898,
      "ĠÅłtulc": 7899,
      "hleÄı": 7900,
      "Ġzmla": 7901,
      "vanim": 7902,
      "Ġmod": 7903,
      "jitra": 7904,
      "misi": 7905,
      "nuli": 7906,
      "bod": 7907,
      "ĠziÄį": 7908,
      "Ġhout": 7909,
      "beÅĻe": 7910,
      "ĠzdÃ¡r": 7911,
      "jemne": 7912,
      "znat": 7913,
      "hledem": 7914,
      "hola": 7915,
      "Äįiti": 7916,
      "Äįisti": 7917,
      "ĠtÃ½d": 7918,
      "vznaÅ¡i": 7919,
      "ĠtvÃŃm": 7920,
      "ĠMÃģJ": 7921,
      "tmy": 7922,
      "muky": 7923,
      "ĠdÅ¯l": 7924,
      "kratce": 7925,
      "skvÄĽly": 7926,
      "ĠPohÃ¡dka": 7927,
      "CEN": 7928,
      "ĠÅ¾ra": 7929,
      "roky": 7930,
      "ĠJIT": 7931,
      "ĠkosÅ¥": 7932,
      "niÄįku": 7933,
      "Å¾iji": 7934,
      "slunci": 7935,
      "prs": 7936,
      "vletu": 7937,
      "Ġzhra": 7938,
      "ĠÄįtu": 7939,
      "Ġuv": 7940,
      "Ġroc": 7941,
      "ĠMÃī": 7942,
      "hala": 7943,
      "Ġket": 7944,
      "Ġztmy": 7945,
      "plna": 7946,
      "ĠvzlÃ©t": 7947,
      "vÅ¡im": 7948,
      "zry": 7949,
      "naÅĪ": 7950,
      "toval": 7951,
      "Ġvouk": 7952,
      "ĠOT": 7953,
      "pychu": 7954,
      "houÅ¡ti": 7955,
      "ĠstvÃ½": 7956,
      "teb": 7957,
      "Ġnym": 7958,
      "ĠlÃ¡z": 7959,
      "mukou": 7960,
      "besum": 7961,
      "chaji": 7962,
      "jan": 7963,
      "lehce": 7964,
      "ĠHoudek": 7965,
      "lar": 7966,
      "vodÄĽ": 7967,
      "Ġbud": 7968,
      "kovu": 7969,
      "OVO": 7970,
      "ĠsÅ¯v": 7971,
      "klina": 7972,
      "ĠshrÅ¯": 7973,
      "ÅĻasy": 7974,
      "ĠÅ¾hnou": 7975,
      "nohu": 7976,
      "ĠNED": 7977,
      "paÅ¾e": 7978,
      "ĠJaku": 7979,
      "hadky": 7980,
      "jsme": 7981,
      "ĠmÃ³": 7982,
      "skli": 7983,
      "hoj": 7984,
      "Äįini": 7985,
      "ĠblaÄį": 7986,
      "trha": 7987,
      "znÄĽni": 7988,
      "ĠJakubec": 7989,
      "tivy": 7990,
      "ticky": 7991,
      "deÅĻi": 7992,
      "Ġchov": 7993,
      "ĠBU": 7994,
      "ĠbÃ¡v": 7995,
      "ĠXXI": 7996,
      "CHÃģ": 7997,
      "stÅĻed": 7998,
      "hÅĻima": 7999,
      "chvatem": 8000,
      "GGHXXH": 8001,
      "kÅ¡ti": 8002,
      "ĠÅ¡ar": 8003,
      "Ġtet": 8004,
      "ĠpeÅĪ": 8005,
      "Ġmout": 8006,
      "ĠKRÃģL": 8007,
      "ĠJEHO": 8008,
      "ĠDUÅłE": 8009,
      "rtoma": 8010,
      "lito": 8011,
      "ĠÅĻvou": 8012,
      "ĠÄįÃŃt": 8013,
      "muk": 8014,
      "stÄĽn": 8015,
      "ĠtlÃ©m": 8016,
      "ĠSLUN": 8017,
      "ĠmÅĻi": 8018,
      "vad": 8019,
      "vavy": 8020,
      "tor": 8021,
      "ĠÅ¾id": 8022,
      "ĠPan": 8023,
      "ĠprÅ¡": 8024,
      "ÄįiÅ¡e": 8025,
      "ÄįiÅ¡i": 8026,
      "ĠbylÅ¥": 8027,
      "ĠFing": 8028,
      "ĠLan": 8029,
      "Ġzok": 8030,
      "stvim": 8031,
      "CAC": 8032,
      "ĠFingal": 8033,
      "tlou": 8034,
      "vÅ¾iti": 8035,
      "zoÄįi": 8036,
      "Ġsvel": 8037,
      "Ġkdru": 8038,
      "kavy": 8039,
      "ĠSK": 8040,
      "ĠHRA": 8041,
      "Ġzroz": 8042,
      "ĠCESTOU": 8043,
      "liÄįku": 8044,
      "Ġ16": 8045,
      "vich": 8046,
      "citim": 8047,
      "body": 8048,
      "ĠLÃį": 8049,
      "ĠvtÃ½": 8050,
      "ĠAABBCCX": 8051,
      "hruzy": 8052,
      "ĠXAAA": 8053,
      "ost": 8054,
      "Ġlkal": 8055,
      "jeli": 8056,
      "kota": 8057,
      "ĠpÅĻip": 8058,
      "hÅĻeje": 8059,
      "Ġtkal": 8060,
      "minek": 8061,
      "Å¾ilo": 8062,
      "Ġmyr": 8063,
      "ĠzkÅĻi": 8064,
      "Ġouz": 8065,
      "Ġvzruch": 8066,
      "ĠlÃ¡v": 8067,
      "hoch": 8068,
      "pohled": 8069,
      "bali": 8070,
      "chaty": 8071,
      "Ġstyd": 8072,
      "ĠsmÄĽr": 8073,
      "vrahu": 8074,
      "ĠAABBCCDDEEFFGGHHXXXXXXXXXXXXXXXX": 8075,
      "roje": 8076,
      "vame": 8077,
      "Ġuh": 8078,
      "nÄĽho": 8079,
      "polu": 8080,
      "Ġvpi": 8081,
      "stela": 8082,
      "ĠdrÅ¯": 8083,
      "ĠABABCCCB": 8084,
      "ĠRÅ®Å½E": 8085,
      "vlet": 8086,
      "vanek": 8087,
      "ÅĻili": 8088,
      "Ġzkru": 8089,
      "ĠshvÄĽz": 8090,
      "bouÅĻe": 8091,
      "ĠABABCCDDEE": 8092,
      "zeny": 8093,
      "vzali": 8094,
      "ĠsfÃ©": 8095,
      "zal": 8096,
      "zhas": 8097,
      "novÃ¡": 8098,
      "ĠSI": 8099,
      "dime": 8100,
      "hodu": 8101,
      "kuji": 8102,
      "ĠschÅ¯": 8103,
      "stÅĻela": 8104,
      "chvatu": 8105,
      "lej": 8106,
      "ĠmÃŃst": 8107,
      "ĠrvÃ¡t": 8108,
      "ĠchrÅ¯": 8109,
      "nano": 8110,
      "ĠVzpo": 8111,
      "celi": 8112,
      "nÃŃm": 8113,
      "dechy": 8114,
      "cii": 8115,
      "Ġzdvo": 8116,
      "ĠskloÅĪ": 8117,
      "lÅ¯": 8118,
      "lii": 8119,
      "Ġvznik": 8120,
      "dove": 8121,
      "pomoc": 8122,
      "spasy": 8123,
      "lant": 8124,
      "ĠÅ¯": 8125,
      "Å¾aly": 8126,
      "paÅ¾i": 8127,
      "Ġklel": 8128,
      "ĠstÄĽj": 8129,
      "ĠSLOVAN": 8130,
      "Ġseb": 8131,
      "ĠÅ¾dÃ¡": 8132,
      "ÅĻily": 8133,
      "ĠmÃ¡Äį": 8134,
      "mezi": 8135,
      "mÄĽstu": 8136,
      "ĠstÃ¡h": 8137,
      "tyÄįi": 8138,
      "pÅĻitel": 8139,
      "zbraÅĪ": 8140,
      "Å¡lenky": 8141,
      "Ġgyp": 8142,
      "Ġzvla": 8143,
      "ĠÅ¡kr": 8144,
      "Ġchar": 8145,
      "ĠJO": 8146,
      "liÄįky": 8147,
      "ĠÅ¾ed": 8148,
      "ĠAXXA": 8149,
      "tichy": 8150,
      "miji": 8151,
      "ĠPTÃģ": 8152,
      "ĠhÃ¡n": 8153,
      "ĠXXIII": 8154,
      "ĠRAD": 8155,
      "ĠptÃ¡t": 8156,
      "ĠhrÃ¡z": 8157,
      "spina": 8158,
      "ĠvbÃ¡z": 8159,
      "ĠhÅĻbet": 8160,
      "mbro": 8161,
      "smala": 8162,
      "vuji": 8163,
      "piji": 8164,
      "venÃŃ": 8165,
      "druÅ¾": 8166,
      "hluÅ¡i": 8167,
      "ĠvskrÃ¡": 8168,
      "plynou": 8169,
      "darmo": 8170,
      "ĠsÄįer": 8171,
      "Ġvpad": 8172,
      "Ġkmat": 8173,
      "ĠzÅ¾i": 8174,
      "ĠÅĻva": 8175,
      "ĠjÃŃst": 8176,
      "tedy": 8177,
      "ĠSAM": 8178,
      "mili": 8179,
      "ĠPET": 8180,
      "ĠXXIV": 8181,
      "ĠNebe": 8182,
      "dlouha": 8183,
      "ĠZEMÄļ": 8184,
      "ĠLanger": 8185,
      "yer": 8186,
      "ĠvjÃ¡": 8187,
      "ĠcÃ½m": 8188,
      "lel": 8189,
      "ĠtosÅ¥": 8190,
      "tÄĽcha": 8191,
      "Äįiste": 8192,
      "Äįeti": 8193,
      "ĠvhnÃŃz": 8194,
      "ĠÅĪÃ¡t": 8195,
      "Ġvtan": 8196,
      "Ġad": 8197,
      "ram": 8198,
      "ĠJSEM": 8199,
      "veru": 8200,
      "dova": 8201,
      "ĠÅ¡ik": 8202,
      "Ġfre": 8203,
      "muku": 8204,
      "vur": 8205,
      "plala": 8206,
      "cham": 8207,
      "jase": 8208,
      "pka": 8209,
      "Ġther": 8210,
      "Ġkh": 8211,
      "Ġhrej": 8212,
      "Ġstk": 8213,
      "Ġstlu": 8214,
      "nut": 8215,
      "ĠfÅ¯": 8216,
      "strasti": 8217,
      "lence": 8218,
      "ĠLeÅ¡eti": 8219,
      "orem": 8220,
      "ĠÃ¡Å¡": 8221,
      "ĠplÃŃs": 8222,
      "Ġplout": 8223,
      "ĠLeÅ¡etickÃ½": 8224,
      "kmen": 8225,
      "Ġjho": 8226,
      "Ġvsy": 8227,
      "Ġsor": 8228,
      "ĠlouÄį": 8229,
      "slech": 8230,
      "plod": 8231,
      "AAB": 8232,
      "otec": 8233,
      "Ġoc": 8234,
      "sit": 8235,
      "ÅĺB": 8236,
      "znati": 8237,
      "ĠvÅ¡ÃŃÅĻ": 8238,
      "mÅĻela": 8239,
      "ĠMRTV": 8240,
      "RÃĿ": 8241,
      "Å¡tÃŃ": 8242,
      "rosti": 8243,
      "nete": 8244,
      "tisic": 8245,
      "jist": 8246,
      "Ġrav": 8247,
      "ĠMÄĽ": 8248,
      "Ġdrak": 8249,
      "ĠshlÃ©d": 8250,
      "kvest": 8251,
      "ctnost": 8252,
      "ÅĻednÃŃÄįek": 8253,
      "zdroje": 8254,
      "skutku": 8255,
      "ĠAuÅĻednÃŃÄįek": 8256,
      "JEM": 8257,
      "mÅĻiti": 8258,
      "Ġsez": 8259,
      "ĠoÅĻ": 8260,
      "Å¾ivi": 8261,
      "ĠvkrÃ¡s": 8262,
      "Ġschla": 8263,
      "ĠvÃºz": 8264,
      "ĠBOÅ½Ãį": 8265,
      "Ġvky": 8266,
      "ĠJen": 8267,
      "Ġmok": 8268,
      "vilo": 8269,
      "ĠbÄĽÅ¾": 8270,
      "hati": 8271,
      "Ġvzpja": 8272,
      "Ġpark": 8273,
      "ĠvdlaÅĪ": 8274,
      "ĠtmÃ¡m": 8275,
      "ĠÄįÅ¯m": 8276,
      "Ġdos": 8277,
      "Ġskem": 8278,
      "ĠluÄį": 8279,
      "ĠZe": 8280,
      "vlaje": 8281,
      "snimi": 8282,
      "hnal": 8283,
      "pky": 8284,
      "niÅ¾i": 8285,
      "ĠÅĻÃŃÄį": 8286,
      "Ġgon": 8287,
      "straÅ¡i": 8288,
      "ĠNad": 8289,
      "vidiÅ¡": 8290,
      "hloÅ¾i": 8291,
      "vzrusta": 8292,
      "lÃ½m": 8293,
      "ĠpÃ³": 8294,
      "rum": 8295,
      "name": 8296,
      "Ġnuz": 8297,
      "Ġstop": 8298,
      "hlasa": 8299,
      "zvolna": 8300,
      "knÄĽz": 8301,
      "ĠCHVÃį": 8302,
      "viÅ¾e": 8303,
      "ĠHaj": 8304,
      "ĠXAXABBCC": 8305,
      "Ġvbuj": 8306,
      "Ġthy": 8307,
      "ĠkÅĻÃ¡": 8308,
      "Ġzme": 8309,
      "Ġ17": 8310,
      "ĠAmbro": 8311,
      "vule": 8312,
      "stravi": 8313,
      "keÅĻi": 8314,
      "EFEFGHGH": 8315,
      "zÅĻit": 8316,
      "XFXF": 8317,
      "vci": 8318,
      "zene": 8319,
      "stÅĻas": 8320,
      "nej": 8321,
      "mÄĽr": 8322,
      "blaky": 8323,
      "ĠflÃ©t": 8324,
      "ĠVzpomÃŃ": 8325,
      "ĠAmbroÅ¾": 8326,
      "Ġkvou": 8327,
      "nÄĽli": 8328,
      "navi": 8329,
      "ĠmyÅ¡": 8330,
      "ĠchoÄı": 8331,
      "ĠJablo": 8332,
      "ĠXABB": 8333,
      "klady": 8334,
      "dceru": 8335,
      "Å¡lo": 8336,
      "ĠJANA": 8337,
      "mÄĽsti": 8338,
      "Ġzol": 8339,
      "hynou": 8340,
      "mysl": 8341,
      "ĠXXXXXXXXXXXXXXXXXXXXXXX": 8342,
      "ĠNÃģVRAT": 8343,
      "vrch": 8344,
      "rovna": 8345,
      "Ġkrb": 8346,
      "Ġzrad": 8347,
      "Ġzdej": 8348,
      "ĠEdu": 8349,
      "chyti": 8350,
      "ĠpleÅ¥": 8351,
      "kryva": 8352,
      "juÅ¾": 8353,
      "ÃīMU": 8354,
      "Ġdvih": 8355,
      "ĠMÄļST": 8356,
      "bne": 8357,
      "lla": 8358,
      "Ġkur": 8359,
      "ÅłENÃį": 8360,
      "Ġvbr": 8361,
      "stuj": 8362,
      "ĠEduard": 8363,
      "FGF": 8364,
      "oka": 8365,
      "ÅĻeka": 8366,
      "Ġ191": 8367,
      "jedne": 8368,
      "tÄĽna": 8369,
      "nuje": 8370,
      "Ġhyz": 8371,
      "ÅĺÃįÅ½": 8372,
      "vdÄĽku": 8373,
      "volal": 8374,
      "vzdoru": 8375,
      "naval": 8376,
      "ĠstaÅ¥": 8377,
      "ĠPu": 8378,
      "pase": 8379,
      "most": 8380,
      "moru": 8381,
      "ĠvÅĻÃŃn": 8382,
      "otci": 8383,
      "ĠTheer": 8384,
      "MÃĿ": 8385,
      "kÅĻo": 8386,
      "ng": 8387,
      "vsnÄĽni": 8388,
      "ĠzÃ©": 8389,
      "ĠdaÅĪ": 8390,
      "ĠSLAV": 8391,
      "Ġvsvo": 8392,
      "Ġvklid": 8393,
      "hrazi": 8394,
      "ĠCI": 8395,
      "klesti": 8396,
      "ĠPÃŃse": 8397,
      "ĠAdÃ¡": 8398,
      "Ġtuh": 8399,
      "ĠMy": 8400,
      "bati": 8401,
      "Ġtroj": 8402,
      "ĠvrÅ¡": 8403,
      "spor": 8404,
      "trunu": 8405,
      "Ġdluh": 8406,
      "ĠZIMNÃį": 8407,
      "vÄĽnce": 8408,
      "ĠzpÅĻe": 8409,
      "ĠvÃºs": 8410,
      "ĠBÃ¡s": 8411,
      "Ġnva": 8412,
      "ÃŃda": 8413,
      "ranou": 8414,
      "ĠHVÄļ": 8415,
      "cenou": 8416,
      "zlosti": 8417,
      "ĠAdÃ¡mek": 8418,
      "laji": 8419,
      "Ġstre": 8420,
      "Ġnoh": 8421,
      "tÄĽti": 8422,
      "stila": 8423,
      "mÄĽstÄĽ": 8424,
      "ĠvprÅ¯": 8425,
      "Ġvtru": 8426,
      "ĠbrÅ¯": 8427,
      "ĠstÅĻech": 8428,
      "hrala": 8429,
      "chyt": 8430,
      "kÅĻiÄįi": 8431,
      "ĠzvÃ¡n": 8432,
      "cum": 8433,
      "smat": 8434,
      "ÅĻiva": 8435,
      "vÄĽti": 8436,
      "ĠÅ¡ÃŃc": 8437,
      "Ġvdra": 8438,
      "ĠÅ½e": 8439,
      "soudu": 8440,
      "tÅĻiÅ¡ti": 8441,
      "psal": 8442,
      "Ġmun": 8443,
      "ĠDa": 8444,
      "Äįeje": 8445,
      "mel": 8446,
      "ĠXXXXAA": 8447,
      "sadu": 8448,
      "Ġzdep": 8449,
      "Ġplen": 8450,
      "CHY": 8451,
      "Ġnim": 8452,
      "ĠSkÅĻi": 8453,
      "ÄįinÄĽ": 8454,
      "ĠFRI": 8455,
      "Ġzbor": 8456,
      "CÃįCH": 8457,
      "ĠzkrÃ¡t": 8458,
      "Ġsci": 8459,
      "ĠkmÃŃ": 8460,
      "Ġstvou": 8461,
      "Ġcle": 8462,
      "ĠTak": 8463,
      "nÄĽma": 8464,
      "ĠtÃŃl": 8465,
      "Ġproj": 8466,
      "mival": 8467,
      "Ġprac": 8468,
      "Äįesky": 8469,
      "zera": 8470,
      "branu": 8471,
      "ĠkvÄĽÄį": 8472,
      "ĠvhrÅ¯": 8473,
      "zuby": 8474,
      "Ġvkap": 8475,
      "ĠABCCAB": 8476,
      "ĠMÅ®J": 8477,
      "BÄļ": 8478,
      "ZDA": 8479,
      "ssa": 8480,
      "vÄįele": 8481,
      "ĠjvÃ½": 8482,
      "ĠbÅ¯m": 8483,
      "lib": 8484,
      "ĠTÅĻi": 8485,
      "tÄĽly": 8486,
      "dite": 8487,
      "Ġsrn": 8488,
      "nikdy": 8489,
      "ĠNoc": 8490,
      "Ġxi": 8491,
      "kly": 8492,
      "put": 8493,
      "leky": 8494,
      "ĠDru": 8495,
      "haty": 8496,
      "ĠvstrÃ¡": 8497,
      "spatÅĻi": 8498,
      "ĠdlÃ©m": 8499,
      "ĠdluÅ¾": 8500,
      "sboru": 8501,
      "skvÄĽla": 8502,
      "ĠblyÅ¡": 8503,
      "ĠPÃŃseckÃ½": 8504,
      "KOU": 8505,
      "ZO": 8506,
      "hÃ©": 8507,
      "zlych": 8508,
      "Ġznik": 8509,
      "Å¾ba": 8510,
      "ĠJar": 8511,
      ".))": 8512,
      "ĠstrÃ©m": 8513,
      "blizka": 8514,
      "Ġzboj": 8515,
      "XXXXXXXXXXXXX": 8516,
      "LNÃį": 8517,
      "ĠkÅĪa": 8518,
      "ĠmÅ¯m": 8519,
      "tiÅ¾e": 8520,
      "sela": 8521,
      "Ġbul": 8522,
      "ĠÅ¾Ã¡k": 8523,
      "Ġvhe": 8524,
      "Ġvlek": 8525,
      "slovu": 8526,
      "ĠLegenda": 8527,
      "bloudil": 8528,
      "dky": 8529,
      "plet": 8530,
      "niÄįky": 8531,
      "vÄĽstu": 8532,
      "ĠpatÅĻ": 8533,
      "veta": 8534,
      "vedla": 8535,
      "dice": 8536,
      "pul": 8537,
      "puka": 8538,
      "ĠdeÅ¡Å¥": 8539,
      "ĠvkrÄį": 8540,
      "ĠSRDCE": 8541,
      "ĠÄįlu": 8542,
      "navy": 8543,
      "jek": 8544,
      "ĠMer": 8545,
      "Ġvuj": 8546,
      "ĠMacek": 8547,
      "Ġkroz": 8548,
      "neme": 8549,
      "ĠstrÃ¡n": 8550,
      "bliÄįej": 8551,
      "stÅĻel": 8552,
      "ĠdoÅ¡": 8553,
      "vaÅ¡i": 8554,
      "vzduchem": 8555,
      "Ġslunce": 8556,
      "Ġstrop": 8557,
      "Ġdals": 8558,
      "ĠÅ¡lel": 8559,
      "zvyku": 8560,
      "Ġskep": 8561,
      "zval": 8562,
      "lali": 8563,
      "ĠkaÄį": 8564,
      "vaÅ¾i": 8565,
      "ĠtÃŃn": 8566,
      "ĠproÅĪ": 8567,
      "votÄĽ": 8568,
      "Ġhav": 8569,
      "ĠDVA": 8570,
      "svice": 8571,
      "ptaku": 8572,
      "ĠABABXCXC": 8573,
      "boko": 8574,
      "ziva": 8575,
      "chyta": 8576,
      "tmave": 8577,
      "ĠVEÄĮERNÃį": 8578,
      "ĠÅ¡lÃ¡p": 8579,
      "ĠZVON": 8580,
      "uÅ¡i": 8581,
      "zboÅ¾i": 8582,
      "vadla": 8583,
      "tace": 8584,
      "taci": 8585,
      "doly": 8586,
      "ĠMLÃģ": 8587,
      "Ġsvad": 8588,
      "zeji": 8589,
      "ĠkvÄĽl": 8590,
      "Ġmrs": 8591,
      "ĠzkaÅ¾": 8592,
      "Ġtrhl": 8593,
      "ĠXAABBCCDDEEFFGG": 8594,
      "rak": 8595,
      "Ġzisk": 8596,
      "Ġfat": 8597,
      "Ġmant": 8598,
      "blesku": 8599,
      "ĠskrÃ½Å¡": 8600,
      "ĠSTE": 8601,
      "ĠÅ¾ur": 8602,
      "dlouho": 8603,
      "oken": 8604,
      "ĠABABCDCCD": 8605,
      "ĠHajniÅ¡": 8606,
      "MF": 8607,
      "Ġdba": 8608,
      "poÅĻad": 8609,
      "ĠDIV": 8610,
      "ĠBÄļ": 8611,
      "moty": 8612,
      "ĠrÅ¯Å¾e": 8613,
      "vlna": 8614,
      "MLU": 8615,
      "ĠvÄį": 8616,
      "Ġ13": 8617,
      "ĠVl": 8618,
      "dovi": 8619,
      "boÄįi": 8620,
      "ĠDou": 8621,
      "ĠFRAN": 8622,
      "ĠspÃ¡r": 8623,
      "svitÄĽ": 8624,
      "zoÅĻi": 8625,
      "tÄĽzstvi": 8626,
      "trest": 8627,
      "horach": 8628,
      "vruce": 8629,
      "Ġkbra": 8630,
      "Ġzak": 8631,
      "noty": 8632,
      "date": 8633,
      "lÃŃk": 8634,
      "ĠDani": 8635,
      "Ġzoun": 8636,
      "kÅĻiÅ¾i": 8637,
      "panny": 8638,
      "hlubin": 8639,
      "Ġvrhl": 8640,
      "zkveta": 8641,
      "ĠFrÃŃda": 8642,
      "ĠDaniel": 8643,
      "vsnach": 8644,
      "Ġvchod": 8645,
      "ĠTÄļ": 8646,
      "ĠNÄļ": 8647,
      "Ġhub": 8648,
      "kyni": 8649,
      "ĠvÄįes": 8650,
      "Ġvble": 8651,
      "Ġvzad": 8652,
      "vsvÄĽtÄĽ": 8653,
      "Ġcesta": 8654,
      "ĠvÃ¡ÅĻ": 8655,
      "stinÄĽ": 8656,
      "ĠztmÄĽ": 8657,
      "menÄĽ": 8658,
      "ÃīT": 8659,
      "ĠKorvÃŃn": 8660,
      "TUR": 8661,
      "bÃ¡n": 8662,
      "ĠzvÅ¡e": 8663,
      "stmiva": 8664,
      "Ġ10": 8665,
      "rudy": 8666,
      "ĠduÅ¡i": 8667,
      "ĠZla": 8668,
      "tuji": 8669,
      "Ġvleb": 8670,
      "Ġvkom": 8671,
      "padly": 8672,
      "chtÄĽlo": 8673,
      "ĠMarti": 8674,
      "ĠsdÄĽt": 8675,
      "ĠptÃ½": 8676,
      "Ġbet": 8677,
      "jezd": 8678,
      "meno": 8679,
      "druzi": 8680,
      "Ġchout": 8681,
      "ĠBOH": 8682,
      "Ġvc": 8683,
      "Ġkza": 8684,
      "ĠpÅĻem": 8685,
      "Ġhnul": 8686,
      "Ġoch": 8687,
      "Ġpon": 8688,
      "ĠpÅĻev": 8689,
      "kovo": 8690,
      "koval": 8691,
      "sah": 8692,
      "Ġpin": 8693,
      "ĠvdÅ¯": 8694,
      "ĠABABCCDDEFFEGG": 8695,
      "draÅ¾Å¡i": 8696,
      "KÃĿ": 8697,
      "Ġtol": 8698,
      "ĠDI": 8699,
      "ĠplÅĪ": 8700,
      "ĠIn": 8701,
      "ĠJelÃŃ": 8702,
      "MÃį": 8703,
      "Å¾Ã¡": 8704,
      "lovi": 8705,
      "ĠlÃŃn": 8706,
      "ĠKLÃģ": 8707,
      "Ġzplo": 8708,
      "Ġbrav": 8709,
      "ĠsnÄĽt": 8710,
      "zpivat": 8711,
      "hloub": 8712,
      "ĠvbouÅĻ": 8713,
      "vplaÄįi": 8714,
      "ROD": 8715,
      "ĠjÃŃn": 8716,
      "sedne": 8717,
      "mÄĽsto": 8718,
      "zimy": 8719,
      "brachu": 8720,
      "ĠzkvÃŃ": 8721,
      "ztratil": 8722,
      "Ġzre": 8723,
      "ĠÅ¡ÅĪ": 8724,
      "tovi": 8725,
      "Ġbuch": 8726,
      "ĠkÃ¡r": 8727,
      "bohem": 8728,
      "Äįeli": 8729,
      "chali": 8730,
      "zano": 8731,
      "pustil": 8732,
      "tri": 8733,
      "Ãĵ": 8734,
      "ĠÅĻÅ¯m": 8735,
      "neÅ¡": 8736,
      "ĠjakÅ¾": 8737,
      "hon": 8738,
      "vyÅ¡el": 8739,
      "mÄĽt": 8740,
      "pÄĽli": 8741,
      "Ġzoh": 8742,
      "zeli": 8743,
      "pudu": 8744,
      "skryt": 8745,
      "lasce": 8746,
      "leÄįi": 8747,
      "Ġhot": 8748,
      "ĠMOU": 8749,
      "mÄĽj": 8750,
      "ĠklÃ½m": 8751,
      "ĠkplÃ¡": 8752,
      "Ġkhra": 8753,
      "ĠbdÄĽl": 8754,
      "vedou": 8755,
      "tahla": 8756,
      "Ġgri": 8757,
      "Ġzis": 8758,
      "ĠEPI": 8759,
      "syny": 8760,
      "klety": 8761,
      "pouhy": 8762,
      "ĠÃŃch": 8763,
      "rtu": 8764,
      "ĠtyÄį": 8765,
      "hoda": 8766,
      "ĠPER": 8767,
      "mÄĽsic": 8768,
      "ĠpÃ¡tÃ½": 8769,
      "Ġsnah": 8770,
      "ĠskoÄį": 8771,
      "klasy": 8772,
      "smichem": 8773,
      "tmam": 8774,
      "LEDNE": 8775,
      "DRO": 8776,
      "spla": 8777,
      "ĠztÃ¡": 8778,
      "Ġhve": 8779,
      "ĠTRO": 8780,
      "vÄĽÄį": 8781,
      "Ġvzr": 8782,
      "ĠHA": 8783,
      "ĠvhvÄĽz": 8784,
      "zyva": 8785,
      "zkusi": 8786,
      "memu": 8787,
      "oÅĻe": 8788,
      "luce": 8789,
      "ĠjaÅĻ": 8790,
      "ĠVA": 8791,
      "sedla": 8792,
      "Ġfro": 8793,
      "ĠstÄĽÅ¾": 8794,
      "ĠsnÃŃÅ¾": 8795,
      "ĠABAXB": 8796,
      "smÄĽsi": 8797,
      "vanky": 8798,
      "ĠbÅĻÃŃz": 8799,
      "hluku": 8800,
      "malu": 8801,
      "ĠÅ¡kleb": 8802,
      "Ġ9": 8803,
      "hole": 8804,
      "brana": 8805,
      "chudy": 8806,
      "spal": 8807,
      "GI": 8808,
      "ki": 8809,
      "rtech": 8810,
      "chÅĻe": 8811,
      "Å¾uje": 8812,
      "ĠÅ¡ej": 8813,
      "vidal": 8814,
      "ĠKE": 8815,
      "ĠchÃ¡n": 8816,
      "ÅłÅ¤": 8817,
      "menech": 8818,
      "svÄĽdÄįi": 8819,
      "ĠKraso": 8820,
      "oh": 8821,
      "lepe": 8822,
      "ĠnÃŃt": 8823,
      "ĠpraÅ¡": 8824,
      "padi": 8825,
      "Ġrozv": 8826,
      "Ġvtak": 8827,
      "touÅ¡": 8828,
      "Ġsklon": 8829,
      "tle": 8830,
      "Ġvspo": 8831,
      "ĠBÃį": 8832,
      "chazel": 8833,
      "znÄĽlo": 8834,
      "pln": 8835,
      "ĠVLAD": 8836,
      "ĠDONA": 8837,
      "ĠJelÃŃnek": 8838,
      "cku": 8839,
      "rtem": 8840,
      "Ġsmat": 8841,
      "ĠTR": 8842,
      "Ġlob": 8843,
      "tava": 8844,
      "hovi": 8845,
      "ĠMOR": 8846,
      "kus": 8847,
      "vudce": 8848,
      "ĠHaÅ¡ek": 8849,
      "ĠSTO": 8850,
      "zÅĻela": 8851,
      "ĠMartinec": 8852,
      "ĠstlÃ½": 8853,
      "ĠlaÅ¥": 8854,
      "ruje": 8855,
      "ĠABABXB": 8856,
      "kaÅ¾dy": 8857,
      "ĠOstravi": 8858,
      "vrha": 8859,
      "ĠÄĮechoslav": 8860,
      "ĠskaÅ¾": 8861,
      "ĠnnÃŃch": 8862,
      "ĠOstravickÃ½": 8863,
      "kÅĻ": 8864,
      "vsi": 8865,
      "ĠpÅ¡e": 8866,
      "Ġpop": 8867,
      "ĠchlÃ½ch": 8868,
      "ena": 8869,
      "Ġsvra": 8870,
      "mava": 8871,
      "ĠPÅĻe": 8872,
      "vlahy": 8873,
      "Å¡lenek": 8874,
      "ĠPROKO": 8875,
      "ĠJakub": 8876,
      "ĠChmele": 8877,
      "ĠKrasoslav": 8878,
      "ĠChmelenskÃ½": 8879,
      "ech": 8880,
      "zba": 8881,
      "Å¡Å¥a": 8882,
      "ĠniÅ¥": 8883,
      "Ġvyl": 8884,
      "domy": 8885,
      "pom": 8886,
      "Ġdrc": 8887,
      "ĠslÃ¡v": 8888,
      "XXXXXXXXXXXXXXXXXXXXXXXXXXXXXXXXXXXXXXXXXXXXXXXX": 8889,
      "ĠsnÃŃmÅ¾": 8890,
      "jicim": 8891,
      "snove": 8892,
      "sbira": 8893,
      "ĠÄįla": 8894,
      "vano": 8895,
      "ÅĪuje": 8896,
      "divat": 8897,
      "ĠvsvÅ¯j": 8898,
      "ĠhrÃ¡m": 8899,
      "spÄĽl": 8900,
      "zlobÄĽ": 8901,
      "pliÅ¾i": 8902,
      "ĠCESTA": 8903,
      "chceÅ¡": 8904,
      "LES": 8905,
      "dany": 8906,
      "miÅĻi": 8907,
      "Ġpun": 8908,
      "ĠÄįac": 8909,
      "plalo": 8910,
      "HÃĿ": 8911,
      "ĠvskÃ¡": 8912,
      "Ġrdou": 8913,
      "ĠÅ¡p": 8914,
      "lech": 8915,
      "tisk": 8916,
      "nÄĽhu": 8917,
      "ĠskÅĻek": 8918,
      "ĠÅ¾ÃŃc": 8919,
      "mon": 8920,
      "CHU": 8921,
      "hromy": 8922,
      "ĠhÅĻmot": 8923,
      "scho": 8924,
      "liÅ¡": 8925,
      "runu": 8926,
      "Ġvzhle": 8927,
      "panem": 8928,
      "Ġsluj": 8929,
      "ĠksvÃ½m": 8930,
      "ING": 8931,
      "styska": 8932,
      "smÄĽla": 8933,
      "ĠJung": 8934,
      "prvy": 8935,
      "dlouhou": 8936,
      "ĠNOVÃĿ": 8937,
      "ĠscÃ©": 8938,
      "Ġlod": 8939,
      "jiste": 8940,
      "ĠpÃ¡Å¾": 8941,
      "Ġmlat": 8942,
      "ĠsrÅ¯": 8943,
      "Å¾arem": 8944,
      "mdle": 8945,
      "Ġvdol": 8946,
      "Ġdme": 8947,
      "Ġost": 8948,
      "Ġjaks": 8949,
      "jiÅ¡ti": 8950,
      "hodil": 8951,
      "ĠÅ¡aÅ¡": 8952,
      "stranu": 8953,
      "ĠPolÃ¡k": 8954,
      "mrakem": 8955,
      "ĠchÅ¯v": 8956,
      "NES": 8957,
      "dry": 8958,
      "Ġsjed": 8959,
      "ĠroÄį": 8960,
      "ĠÅĻez": 8961,
      "vzma": 8962,
      "ĠRÃģ": 8963,
      "Ġcuj": 8964,
      "jÃŃcÃŃ": 8965,
      "Ġkse": 8966,
      "Ã©ho": 8967,
      "livÄĽ": 8968,
      "Ġruj": 8969,
      "jev": 8970,
      "tÄĽlem": 8971,
      "tÄĽchy": 8972,
      "tana": 8973,
      "dile": 8974,
      "Äįilo": 8975,
      "sady": 8976,
      "snit": 8977,
      "zdar": 8978,
      "vlastni": 8979,
      "ĠdÅĻich": 8980,
      "zby": 8981,
      "narod": 8982,
      "ĠÅ¾ivot": 8983,
      "mih": 8984,
      "muti": 8985,
      "ĠzdÃ¡v": 8986,
      "Ġvbar": 8987,
      "bleskem": 8988,
      "hvoz": 8989,
      "Ġvdiv": 8990,
      "Å¡em": 8991,
      "ÅĻilo": 8992,
      "ĠÅ¾ÃŃr": 8993,
      "ĠPÃģ": 8994,
      "ĠslÃ½ch": 8995,
      "ĠdÄĽls": 8996,
      "ĠvblÃŃz": 8997,
      "blahy": 8998,
      "Ġzpoz": 8999,
      "spad": 9000,
      "chtÄĽli": 9001,
      "ĠhnÃ¡t": 9002,
      "haly": 9003,
      "ĠlkÃ¡t": 9004,
      "oun": 9005,
      "Ġcva": 9006,
      "lia": 9007,
      "ĠbeÅ¡": 9008,
      "ĠÅĻÃŃÅ¾": 9009,
      "Ġplem": 9010,
      "Ġment": 9011,
      "houpa": 9012,
      "svami": 9013,
      "ĠDRUHÃģ": 9014,
      "Ġkch": 9015,
      "ĠztÄĽÅ¾": 9016,
      "ROV": 9017,
      "rovy": 9018,
      "Ġkaj": 9019,
      "vÄĽla": 9020,
      "nate": 9021,
      "Ġproh": 9022,
      "Ġtup": 9023,
      "ĠtÃ¡Å¾": 9024,
      "haut": 9025,
      "Ġvkla": 9026,
      "ĠABACBC": 9027,
      "kvetla": 9028,
      "znÄĽly": 9029,
      "zlost": 9030,
      "ĠvstÃŃn": 9031,
      "ĠMerhaut": 9032,
      "Ġkja": 9033,
      "Ġop": 9034,
      "Ġ15": 9035,
      "ĠÅĻÃŃz": 9036,
      "ĠlÃ©Äį": 9037,
      "ĠÄıme": 9038,
      "tlum": 9039,
      "ĠXAXAXBXBXCXCXDXDXEXE": 9040,
      "ĠJablonskÃ½": 9041,
      "ĠzrÃ½": 9042,
      "letech": 9043,
      "ĠÅĻval": 9044,
      "vÄĽÄįne": 9045,
      "ĠABABCDD": 9046,
      "ĠPOV": 9047,
      "Ġzpy": 9048,
      "NÃįKU": 9049,
      "soka": 9050,
      "ĠzmÅ¯": 9051,
      "znaÅ¡": 9052,
      "ĠstÅ¯v": 9053,
      "spiÅ¡e": 9054,
      "KON": 9055,
      "dno": 9056,
      "gar": 9057,
      "llo": 9058,
      "ĠÅ¾ivota": 9059,
      "tane": 9060,
      "hodou": 9061,
      "konec": 9062,
      "med": 9063,
      "ĠvplÃ¡Å¡": 9064,
      "Ġblah": 9065,
      "ĠvklÃ¡": 9066,
      "temnou": 9067,
      "hrozi": 9068,
      "puli": 9069,
      "stÅĻely": 9070,
      "sledu": 9071,
      "NOSTI": 9072,
      "drÅ¾i": 9073,
      "SKÃīM": 9074,
      "ĠSTARÃĿ": 9075,
      "ĠKDYÅ½": 9076,
      "vmoÅĻi": 9077,
      "dane": 9078,
      "ĠkÃ½Å¾": 9079,
      "statku": 9080,
      "mova": 9081,
      "bÄĽl": 9082,
      "ĠEV": 9083,
      "drahou": 9084,
      "ĠzvÄĽsÅ¥": 9085,
      "ĠzbÃ¡": 9086,
      "druha": 9087,
      "sporu": 9088,
      "ĠRais": 9089,
      "skvÄĽle": 9090,
      "MP": 9091,
      "OLA": 9092,
      "Ġkm": 9093,
      "tiseÅĪ": 9094,
      "viÄįku": 9095,
      "tÄĽny": 9096,
      "Ġbaj": 9097,
      "ĠfÃ©": 9098,
      "ĠXXVI": 9099,
      "hrada": 9100,
      "ĠÅłtÄĽ": 9101,
      "ĠÅ¾at": 9102,
      "pouta": 9103,
      "bru": 9104,
      "lany": 9105,
      "ÅĪÃ¡": 9106,
      "konce": 9107,
      "ĠHUS": 9108,
      "pravou": 9109,
      "ITA": 9110,
      "CKÃĿCH": 9111,
      "krasny": 9112,
      "zmita": 9113,
      "ĠNejlova": 9114,
      "ĠVaÅ¡ÃŃÄįka": 9115,
      "the": 9116,
      "chr": 9117,
      "chni": 9118,
      "titi": 9119,
      "ĠmÃ¡ÅĻ": 9120,
      "pokoj": 9121,
      "Ġsus": 9122,
      "ĠHÅĺB": 9123,
      "ÄĮE": 9124,
      "SKÃīHO": 9125,
      "ÅĻekl": 9126,
      "ĠJarnÃŃ": 9127,
      "tuni": 9128,
      "zam": 9129,
      "hrava": 9130,
      "klasu": 9131,
      "vrh": 9132,
      "bouÅĻ": 9133,
      "Ġxe": 9134,
      "CHOD": 9135,
      "vziti": 9136,
      "car": 9137,
      "Ġvnou": 9138,
      "chvali": 9139,
      "danou": 9140,
      "dejte": 9141,
      "holy": 9142,
      "statky": 9143,
      "ĠABBACCD": 9144,
      "zima": 9145,
      "vraha": 9146,
      "Ġbloud": 9147,
      "jeme": 9148,
      "svatou": 9149,
      "schazi": 9150,
      "letÄĽl": 9151,
      "Ġcep": 9152,
      "nÄĽhy": 9153,
      "Ġdur": 9154,
      "ĠKri": 9155,
      "Ġvke": 9156,
      "Ġris": 9157,
      "SKA": 9158,
      "ĠhruÅ¡": 9159,
      "Ġstvol": 9160,
      "ĠMOTI": 9161,
      "zbroji": 9162,
      "GO": 9163,
      "Ġil": 9164,
      "Ġzab": 9165,
      "Ġjako": 9166,
      "city": 9167,
      "Å¡ela": 9168,
      "buji": 9169,
      "bravskÃ½": 9170,
      "ĠdÅ¯t": 9171,
      "stokrat": 9172,
      "ĠdÅĻej": 9173,
      "Ġvhroz": 9174,
      "ÃģTÃĿ": 9175,
      "ĠKARLU": 9176,
      "ĠpÃ½m": 9177,
      "vije": 9178,
      "ĠtÅ¯ÅĪ": 9179,
      "drahe": 9180,
      "Ġkvet": 9181,
      "ĠPÃįSNI": 9182,
      "BD": 9183,
      "Ġsre": 9184,
      "ĠzÅ¾ÃŃ": 9185,
      "cesti": 9186,
      "lavy": 9187,
      "maÅĻi": 9188,
      "bozi": 9189,
      "ĠpÃŃÄı": 9190,
      "ĠAABBCCDEED": 9191,
      "Ġslan": 9192,
      "ĠrÃ©Å¾": 9193,
      "spÄĽji": 9194,
      "Ġfek": 9195,
      "ĠMilota": 9196,
      "im": 9197,
      "Ġkst": 9198,
      "STEN": 9199,
      "roval": 9200,
      "Ġlese": 9201,
      "vaty": 9202,
      "Ġmoje": 9203,
      "vino": 9204,
      "cestÄĽ": 9205,
      "ĠstÃ¡d": 9206,
      "ĠHi": 9207,
      "reji": 9208,
      "zeÄı": 9209,
      "ĠGol": 9210,
      "Äįerne": 9211,
      "kruÅ¡i": 9212,
      "ĠDÃįV": 9213,
      "ĠVLADIM": 9214,
      "zmar": 9215,
      "Ġ[": 9216,
      "kany": 9217,
      "vedl": 9218,
      "duhu": 9219,
      "tach": 9220,
      "diÅ¡": 9221,
      "ĠCÃį": 9222,
      "RAK": 9223,
      "sluji": 9224,
      "ĠABABBCC": 9225,
      "ĠzkouÅ¡": 9226,
      "ĠZLAT": 9227,
      "DEN": 9228,
      "Ġjda": 9229,
      "ĠtaÅ¾": 9230,
      "tiv": 9231,
      "daÅ¡": 9232,
      "tÄĽka": 9233,
      "jila": 9234,
      "ĠAABBAA": 9235,
      "Å¡iho": 9236,
      "dnech": 9237,
      "Å®L": 9238,
      "ĠXXXXXXXXXXXXXXXXXXXXXXXXX": 9239,
      "ĠvchrÃ¡m": 9240,
      "mÄĽkka": 9241,
      "ĠsÅ¡e": 9242,
      "ĠtnÄĽ": 9243,
      "tiÄįka": 9244,
      "ĠVÃ½": 9245,
      "Ġsis": 9246,
      "taÅĻ": 9247,
      "tahy": 9248,
      "ĠpeÅ¡": 9249,
      "rev": 9250,
      "zum": 9251,
      "Å¡enÄĽ": 9252,
      "ĠvtÄĽs": 9253,
      "ĠRokos": 9254,
      "peny": 9255,
      "ĠmlÃ©Äį": 9256,
      "ĠBÃģSNÃįK": 9257,
      "FA": 9258,
      "niv": 9259,
      "Ġvsvou": 9260,
      "ĠbÃŃÅ¡": 9261,
      "Ġklec": 9262,
      "ĠspÃ¡d": 9263,
      "vÄĽrne": 9264,
      "ĠÅ¡perk": 9265,
      "vanu": 9266,
      "ĠTY": 9267,
      "kum": 9268,
      "Ġkrat": 9269,
      "ĠzkÅĻÃŃ": 9270,
      "CBD": 9271,
      "ĠcÃ¡r": 9272,
      "ĠCestou": 9273,
      "Jed": 9274,
      "udy": 9275,
      "vprach": 9276,
      "Ġdak": 9277,
      "Ġdci": 9278,
      "Å¾emi": 9279,
      "niny": 9280,
      "novou": 9281,
      "Äįinou": 9282,
      "vzdechu": 9283,
      "Ġdleh": 9284,
      "ĠsmÄĽj": 9285,
      "ĠzmÃ½ch": 9286,
      "bena": 9287,
      "ĠstrÃ½c": 9288,
      "brzy": 9289,
      "ĠHÅĺBIT": 9290,
      "JednÃ¡nÃŃ": 9291,
      "DIE": 9292,
      "ĠchÅĻad": 9293,
      "ÅĻev": 9294,
      "niho": 9295,
      "Ġcid": 9296,
      "nouze": 9297,
      "ĠvpÃ½": 9298,
      "vrasky": 9299,
      "ĠDRUHÃĿ": 9300,
      "BER": 9301,
      "zÃŃ": 9302,
      "dÄĽlem": 9303,
      "ĠZEL": 9304,
      "ĠXAXAXBXBXCXC": 9305,
      "ĠDoubravskÃ½": 9306,
      "Ġksto": 9307,
      "ĠJÃį": 9308,
      "mady": 9309,
      "ĠkÃ¡z": 9310,
      "ĠDVÄļ": 9311,
      "ĠzÃŃr": 9312,
      "vze": 9313,
      "Ġztlu": 9314,
      "pekla": 9315,
      "Ġvnic": 9316,
      "Ġtlesk": 9317,
      "ĠvpÅĻÃŃÅ¡": 9318,
      "XXXXXXXXXXXXXXXXXXXXXXXXXXXXXXXXXXXXXXXXXXXXXXXXXXXXXXXXXXXXXXXXXXXXXXXXXXXXXXXXXXXXXXXXXXXXXXXXXXXXXXXXXXXXXXXXXXXXXXXXXXXXXXXX": 9319,
      "ĠÅ¾lout": 9320,
      "doucnost": 9321,
      "Ġvste": 9322,
      "Ġklem": 9323,
      "rodÄĽ": 9324,
      "vÄĽÄįna": 9325,
      "ĠvÃ¡t": 9326,
      "ĠcÃŃÅ¡": 9327,
      "Ġvis": 9328,
      "Ġsmlou": 9329,
      "diky": 9330,
      "RAZ": 9331,
      "ĠzhÅ¯": 9332,
      "ĠslÃ©t": 9333,
      "live": 9334,
      "vodou": 9335,
      "ĠSED": 9336,
      "ĠSmrt": 9337,
      "nuty": 9338,
      "ĠXXIX": 9339,
      "hraly": 9340,
      "ĠsviÅ¡": 9341,
      "Ġschou": 9342,
      "Ġvzdej": 9343,
      "mlÄįi": 9344,
      "ĠsÅĪat": 9345,
      "SPO": 9346,
      "fu": 9347,
      "ĠÅ¡ke": 9348,
      "lec": 9349,
      "kaÅ¾": 9350,
      "ĠVL": 9351,
      "jih": 9352,
      "maci": 9353,
      "kolu": 9354,
      "dÄĽvu": 9355,
      "ĠBer": 9356,
      "ĠbÃ¡snÄĽ": 9357,
      "ĠMatouÅ¡": 9358,
      "kvÄĽte": 9359,
      "ĠRoz": 9360,
      "ZENÃį": 9361,
      "ĠkÅ¡tÄĽ": 9362,
      "Å¡ly": 9363,
      "rali": 9364,
      "lepy": 9365,
      "cestou": 9366,
      "Å¾itÄĽ": 9367,
      "ĠstuÅ¾": 9368,
      "Å¾et": 9369,
      "ĠzvÄĽÄį": 9370,
      "mlazi": 9371,
      "tmava": 9372,
      "ĠNebeskÃ½": 9373,
      "vÅĻeny": 9374,
      "Ġvslav": 9375,
      "noho": 9376,
      "ĠmÃ¡c": 9377,
      "metu": 9378,
      "ĠzpÃ¡": 9379,
      "Ġput": 9380,
      "ĠÅ¡tÄĽp": 9381,
      "blaÅ¾i": 9382,
      "ĠchÅ¯d": 9383,
      "ĠvdÃ¡v": 9384,
      "ĠSkÅĻivan": 9385,
      "05": 9386,
      "ano": 9387,
      "Å¾ne": 9388,
      "ENÃģ": 9389,
      "rokem": 9390,
      "ĠnÃŃn": 9391,
      "Ġhop": 9392,
      "voval": 9393,
      "Ġvzlo": 9394,
      "sedÄĽl": 9395,
      "deal": 9396,
      "stinem": 9397,
      "ĠchÃ¡s": 9398,
      "ĠvkÃ¡": 9399,
      "menne": 9400,
      "sluni": 9401,
      "plese": 9402,
      "ĠPANU": 9403,
      "ĠssÃ¡": 9404,
      "laÅ¡": 9405,
      "visti": 9406,
      "ĠÅ¡ÃŃÅĻ": 9407,
      "sely": 9408,
      "duji": 9409,
      "hanu": 9410,
      "ĠBy": 9411,
      "Ġgr": 9412,
      "ĠLXX": 9413,
      "ĠznÄĽj": 9414,
      "druÅ¾i": 9415,
      "proudu": 9416,
      "Ġvtes": 9417,
      "slyÅ¡iÅ¡": 9418,
      "ĠBulant": 9419,
      "ĠLÃ¡ska": 9420,
      "TRA": 9421,
      "Å¾ary": 9422,
      "raly": 9423,
      "ĠJÃģ": 9424,
      "Ġsvl": 9425,
      "ĠvsmÄĽ": 9426,
      "ĠXXXXXAA": 9427,
      "ĠsviÅ¥": 9428,
      "stinne": 9429,
      "Ġkma": 9430,
      "Ġ11": 9431,
      "nivÄĽ": 9432,
      "ĠAPO": 9433,
      "tovy": 9434,
      "jesti": 9435,
      "tany": 9436,
      "Ġzlat": 9437,
      "Ġbros": 9438,
      "spici": 9439,
      "UDI": 9440,
      "proudy": 9441,
      "ĠKrÃ¡l": 9442,
      "pso": 9443,
      "vÅĻeni": 9444,
      "Å¯h": 9445,
      "lenych": 9446,
      "nÄĽnou": 9447,
      "kama": 9448,
      "tola": 9449,
      "tÄĽli": 9450,
      "Å¡ery": 9451,
      "kosi": 9452,
      "ĠvsÃ¡": 9453,
      "praze": 9454,
      "ĠvdÄĽt": 9455,
      "slepy": 9456,
      "EFFEGHHG": 9457,
      "ĠPAM": 9458,
      "ĠsedmÃ½": 9459,
      "KÅ®": 9460,
      "vstou": 9461,
      "ĠhnÃŃ": 9462,
      "stil": 9463,
      "ĠkoÅ¾": 9464,
      "vaha": 9465,
      "kana": 9466,
      "ĠSP": 9467,
      "paji": 9468,
      "hara": 9469,
      "ĠXXVIII": 9470,
      "ĠPORT": 9471,
      "svitil": 9472,
      "Ġzkaz": 9473,
      "ĠmnÃŃÅ¡": 9474,
      "Ġspek": 9475,
      "POVÄļ": 9476,
      "kboji": 9477,
      "mdly": 9478,
      "thu": 9479,
      "Ġslid": 9480,
      "ĠzvÅ¡ech": 9481,
      "ĠJIN": 9482,
      "ĠAXB": 9483,
      "Ġmuch": 9484,
      "dete": 9485,
      "dom": 9486,
      "ĠsÃŃt": 9487,
      "ĠLÃī": 9488,
      "ÅłTI": 9489,
      "ĠbloudÄĽnÃŃ": 9490,
      "spar": 9491,
      "Ġvkon": 9492,
      "ĠModlitba": 9493,
      "BC": 9494,
      "jmÄĽni": 9495,
      "tlo": 9496,
      "Å¾houci": 9497,
      "Å¡tÃ½": 9498,
      "mami": 9499,
      "Ġsmra": 9500,
      "doval": 9501,
      "ĠÅ¡tÄĽr": 9502,
      "svÄĽtly": 9503,
      "Ġvbles": 9504,
      "chviva": 9505,
      "pÅĻeje": 9506,
      "mouti": 9507,
      "Å¾itim": 9508,
      "ĠvzhlÃŃ": 9509,
      "dcera": 9510,
      "Ġchlub": 9511,
      "KÃī": 9512,
      "kvil": 9513,
      "Ġzsi": 9514,
      "vaje": 9515,
      "tiku": 9516,
      "ĠmoÅĻe": 9517,
      "ATA": 9518,
      "ĠVÃģNOÄĮNÃį": 9519,
      "mdlobÄĽ": 9520,
      "ĠOSUD": 9521,
      "krouÅ¾i": 9522,
      "tove": 9523,
      "tony": 9524,
      "ĠstiÅ¥": 9525,
      "Ġhlup": 9526,
      "jate": 9527,
      "draze": 9528,
      "ĠSTARO": 9529,
      "ĠKAPIT": 9530,
      "ĠJungmann": 9531,
      "vli": 9532,
      "Ġktan": 9533,
      "ĠlÅ¾e": 9534,
      "ĠJin": 9535,
      "ĠÄįesÅ¥": 9536,
      "ĠzÃ¡n": 9537,
      "podal": 9538,
      "ĠÅĻiv": 9539,
      "Ġvlaj": 9540,
      "chuzi": 9541,
      "Ġkrom": 9542,
      "hladi": 9543,
      "lemÃŃr": 9544,
      "ĠptÃ¡Å¡": 9545,
      "ĠBolemÃŃr": 9546,
      "ĠÅ¥Ã¡l": 9547,
      "pÅĻijde": 9548,
      "Ġsbe": 9549,
      "Ġhm": 9550,
      "ENÃĿ": 9551,
      "ÅĪo": 9552,
      "ĠbraÅĪ": 9553,
      "tuch": 9554,
      "ĠÅ¡tÄĽt": 9555,
      "Ġmdlou": 9556,
      "ĠLES": 9557,
      "nive": 9558,
      "naha": 9559,
      "ĠKlÃ¡": 9560,
      "ciho": 9561,
      "kovÃ¡": 9562,
      "ĠmÃ©n": 9563,
      "ĠjsouÅ¥": 9564,
      "Ġvmdlo": 9565,
      "jasna": 9566,
      "snahy": 9567,
      "ĠvdÄĽs": 9568,
      "bere": 9569,
      "shon": 9570,
      "ĠÅ¡tvÃ¡n": 9571,
      "shyba": 9572,
      "ĠvÄįem": 9573,
      "ditky": 9574,
      "Å¡ich": 9575,
      "Å¾eti": 9576,
      "ĠdvÄĽd": 9577,
      "dleti": 9578,
      "ĠBOJE": 9579,
      "ĠJES": 9580,
      "ĠZÃģVÄļ": 9581,
      "anu": 9582,
      "baly": 9583,
      "kcili": 9584,
      "vkroÄįi": 9585,
      "ramen": 9586,
      "Ġdor": 9587,
      "vaÅ¾e": 9588,
      "Ġkuj": 9589,
      "Ġtum": 9590,
      "Ġrych": 9591,
      "ĠABBAX": 9592,
      "brali": 9593,
      "ĠtÅ¯Äį": 9594,
      "jedna": 9595,
      "ĠzvÃ¡t": 9596,
      "ĠPÃŃsnÄĽ": 9597,
      "ĠNEDÄļ": 9598,
      "JI": 9599,
      "STE": 9600,
      "Ġzcha": 9601,
      "nitra": 9602,
      "jete": 9603,
      "mÄĽv": 9604,
      "ĠgÃ¡n": 9605,
      "ĠÅĻat": 9606,
      "krov": 9607,
      "spÅĻada": 9608,
      "vleÄįe": 9609,
      "dlouze": 9610,
      "zjevi": 9611,
      "vzadu": 9612,
      "ĠTAJEM": 9613,
      "ĠHROB": 9614,
      "Ġsdi": 9615,
      "poly": 9616,
      "Ġloub": 9617,
      "Ġvmoc": 9618,
      "zvedla": 9619,
      "skoku": 9620,
      "cosi": 9621,
      "ĠHOSPO": 9622,
      "zleho": 9623,
      "vÅ¡ichni": 9624,
      "ZKA": 9625,
      "Ġhil": 9626,
      "ouha": 9627,
      "Ġvyv": 9628,
      "Ġvzkaz": 9629,
      "vedu": 9630,
      "diku": 9631,
      "mohl": 9632,
      "sahne": 9633,
      "sluchu": 9634,
      "Ġtrysk": 9635,
      "Äįenstvi": 9636,
      "ĠpsÅ¯": 9637,
      "ĠKlÃ¡cel": 9638,
      "tce": 9639,
      "ĠsnÃ©": 9640,
      "ĠpÅ¯m": 9641,
      "Ġlvo": 9642,
      "naty": 9643,
      "nos": 9644,
      "Ġis": 9645,
      "diÄįka": 9646,
      "hodne": 9647,
      "hovor": 9648,
      "Ġsam": 9649,
      "Ġpud": 9650,
      "Ġsouc": 9651,
      "ĠjeÅ¡tÄĽ": 9652,
      "Ġzod": 9653,
[...]
