{
  "version": "1.0",
  "truncation": null,
  "padding": null,
  "added_tokens": [
    {
      "id": 0,
      "content": "<|EOS|>",
      "single_word": false,
      "lstrip": false,
      "rstrip": false,
      "normalized": false,
      "special": true
    },
    {
      "id": 1,
      "content": "<|PAD|>",
      "single_word": false,
      "lstrip": false,
      "rstrip": false,
      "normalized": false,
      "special": true
    },
    {
      "id": 2,
      "content": "<|UNK|>",
      "single_word": false,
      "lstrip": false,
      "rstrip": false,
      "normalized": false,
      "special": true
    },
    {
      "id": 3,
      "content": "<|CLS|>",
      "single_word": false,
      "lstrip": false,
      "rstrip": false,
      "normalized": false,
      "special": true
    }
  ],
  "normalizer": null,
  "pre_tokenizer": {
    "type": "ByteLevel",
    "add_prefix_space": false,
    "trim_offsets": true,
    "use_regex": true
  },
  "post_processor": {
    "type": "RobertaProcessing",
    "sep": [
      "<|EOS|>",
      0
    ],
    "cls": [
      "<|CLS|>",
      3
    ],
    "trim_offsets": false,
    "add_prefix_space": false
  },
  "decoder": {
    "type": "ByteLevel",
    "add_prefix_space": true,
    "trim_offsets": true,
    "use_regex": true
  },
  "model": {
    "type": "BPE",
    "dropout": null,
    "unk_token": null,
    "continuing_subword_prefix": null,
    "end_of_word_suffix": null,
    "fuse_unk": false,
    "byte_fallback": false,
    "vocab": {
      "<|EOS|>": 0,
      "<|PAD|>": 1,
      "<|UNK|>": 2,
      "<|CLS|>": 3,
      "!": 4,
      "\"": 5,
      "#": 6,
      "&": 7,
      "'": 8,
      "(": 9,
      ")": 10,
      "*": 11,
      "+": 12,
      ",": 13,
      "-": 14,
      ".": 15,
      "/": 16,
      "0": 17,
      "1": 18,
      "2": 19,
      "3": 20,
      "4": 21,
      "5": 22,
      "6": 23,
      "7": 24,
      "8": 25,
      "9": 26,
      ":": 27,
      ";": 28,
      "<": 29,
      "=": 30,
      ">": 31,
      "?": 32,
      "A": 33,
      "B": 34,
      "C": 35,
      "D": 36,
      "E": 37,
      "F": 38,
      "G": 39,
      "H": 40,
      "I": 41,
      "J": 42,
      "K": 43,
      "L": 44,
      "M": 45,
      "N": 46,
      "O": 47,
      "P": 48,
      "Q": 49,
      "R": 50,
      "S": 51,
      "T": 52,
      "U": 53,
      "V": 54,
      "W": 55,
      "X": 56,
      "Y": 57,
      "Z": 58,
      "[": 59,
      "]": 60,
      "_": 61,
      "`": 62,
      "a": 63,
      "b": 64,
      "c": 65,
      "d": 66,
      "e": 67,
      "f": 68,
      "g": 69,
      "h": 70,
      "i": 71,
      "j": 72,
      "k": 73,
      "l": 74,
      "m": 75,
      "n": 76,
      "o": 77,
      "p": 78,
      "q": 79,
      "r": 80,
      "s": 81,
      "t": 82,
      "u": 83,
      "v": 84,
      "w": 85,
      "x": 86,
      "y": 87,
      "z": 88,
      "|": 89,
      "¡": 90,
      "¢": 91,
      "£": 92,
      "¤": 93,
      "¥": 94,
      "¦": 95,
      "§": 96,
      "¨": 97,
      "©": 98,
      "ª": 99,
      "«": 100,
      "®": 101,
      "¯": 102,
      "°": 103,
      "±": 104,
      "²": 105,
      "³": 106,
      "´": 107,
      "µ": 108,
      "¶": 109,
      "¹": 110,
      "º": 111,
      "»": 112,
      "¼": 113,
      "½": 114,
      "¾": 115,
      "¿": 116,
      "Â": 117,
      "Ã": 118,
      "Ä": 119,
      "Å": 120,
      "Ë": 121,
      "Î": 122,
      "Ï": 123,
      "Ð": 124,
      "â": 125,
      "Ċ": 126,
      "Ġ": 127,
      "Ģ": 128,
      "ģ": 129,
      "Ĥ": 130,
      "ĥ": 131,
      "Ħ": 132,
      "ħ": 133,
      "Ĩ": 134,
      "ĩ": 135,
      "Ī": 136,
      "ī": 137,
      "Ĭ": 138,
      "ĭ": 139,
      "Į": 140,
      "į": 141,
      "İ": 142,
      "ı": 143,
      "Ĵ": 144,
      "ĵ": 145,
      "Ķ": 146,
      "ķ": 147,
      "ĸ": 148,
      "ĺ": 149,
      "Ļ": 150,
      "ļ": 151,
      "Ľ": 152,
      "ľ": 153,
      "Ŀ": 154,
      "ŀ": 155,
      "Ł": 156,
      "ł": 157,
      "Ń": 158,
      "Ġ#": 159,
      "<|": 160,
      "|>": 161,
      "ÃŃ": 162,
      "Ġs": 163,
      "Ã¡": 164,
      "ÄĽ": 165,
      "Ġv": 166,
      "ST": 167,
      "Ġp": 168,
      "Ġj": 169,
      "Ġn": 170,
      "Ġt": 171,
      "ch": 172,
      "Å¾": 173,
      "Å¡": 174,
      "Ġz": 175,
      "RO": 176,
      "ME": 177,
      "HE": 178,
      "STRO": 179,
      "STROP": 180,
      "STROPHE": 181,
      "Ġk": 182,
      "ÅĻ": 183,
      "ou": 184,
      "Ã½": 185,
      "Ġm": 186,
      "la": 187,
      "Ã©": 188,
      "AR": 189,
      "Ġd": 190,
      "Ġa": 191,
      "Äį": 192,
      "en": 193,
      "st": 194,
      "XX": 195,
      "Ġb": 196,
      "em": 197,
      "le": 198,
      "ra": 199,
      "ro": 200,
      "Ġh": 201,
      "EN": 202,
      "ER": 203,
      "STAR": 204,
      "TER": 205,
      "HY": 206,
      "END": 207,
      "RHY": 208,
      "METER": 209,
      "START": 210,
      "RHYME": 211,
      "li": 212,
      "Ġse": 213,
      "Ġo": 214,
      "ak": 215,
      "AB": 216,
      "Å¯": 217,
      "Ġpo": 218,
      "Ġne": 219,
      "ĠJ": 220,
      "Ġje": 221,
      "Ġna": 222,
      "lo": 223,
      "va": 224,
      "ce": 225,
      "nÃŃ": 226,
      "ÅĻe": 227,
      "nÄĽ": 228,
      "rÃ¡": 229,
      "ti": 230,
      "XXXX": 231,
      "sk": 232,
      "LE": 233,
      "HO": 234,
      "ne": 235,
      "Ġ1": 236,
      "TI": 237,
      "Å¡e": 238,
      "UT": 239,
      "HOR": 240,
      "TIT": 241,
      "AUT": 242,
      "EAR": 243,
      "YEAR": 244,
      "TITLE": 245,
      "AUTHOR": 246,
      "vÄĽ": 247,
      "ĠÅ¾": 248,
      "Ġst": 249,
      "ni": 250,
      "al": 251,
      "dy": 252,
      "ÅĻÃŃ": 253,
      "ru": 254,
      "Ġza": 255,
      "te": 256,
      "ho": 257,
      "Ġjak": 258,
      "de": 259,
      "lÃ¡": 260,
      "na": 261,
      "lu": 262,
      "ÅĻi": 263,
      "ka": 264,
      "je": 265,
      "ĠAB": 266,
      "ĠT": 267,
      "nÃ½": 268,
      "ĠA": 269,
      "Ġdo": 270,
      "ĠÄį": 271,
      "vo": 272,
      "no": 273,
      "ci": 274,
      "Ġu": 275,
      "Ġ19": 276,
      "Ġch": 277,
      "Ġto": 278,
      "il": 279,
      "XA": 280,
      "ky": 281,
      "ku": 282,
      "nÃ©": 283,
      "ko": 284,
      "at": 285,
      "vÃ¡": 286,
      "am": 287,
      "Ġby": 288,
      "tÄĽ": 289,
      "ÃŃm": 290,
      "vÃ©": 291,
      "ĠABAB": 292,
      "..": 293,
      "nou": 294,
      "se": 295,
      "ar": 296,
      "to": 297,
      "Ġji": 298,
      "lÃŃ": 299,
      "ad": 300,
      "Ġve": 301,
      "Ġc": 302,
      "ly": 303,
      "Ġjs": 304,
      "nu": 305,
      "jÃŃ": 306,
      "Ã¡m": 307,
      "ny": 308,
      "Ġro": 309,
      "do": 310,
      "vÃŃ": 311,
      "as": 312,
      "Å¥": 313,
      "Ġpro": 314,
      "Ã½ch": 315,
      "ji": 316,
      "sti": 317,
      "nÃ¡": 318,
      "Ġjen": 319,
      "vi": 320,
      "tÃŃ": 321,
      "er": 322,
      "ĠÅ¡": 323,
      "du": 324,
      "ĠV": 325,
      "Ġko": 326,
      "lav": 327,
      "ĠÅ¾e": 328,
      "Ġle": 329,
      "Ġho": 330,
      "XXXXXXXX": 331,
      "Ġvy": 332,
      "di": 333,
      "dÄĽ": 334,
      "an": 335,
      "Ġmo": 336,
      "po": 337,
      "Ġvz": 338,
      "00": 339,
      "av": 340,
      "Ã½m": 341,
      "Ġ1900": 342,
      "Ġkdy": 343,
      "ĠvÄĽ": 344,
      "ĠS": 345,
      "Ġbo": 346,
      "ĠpÅĻe": 347,
      "mu": 348,
      "ta": 349,
      "Ġco": 350,
      "Ġmi": 351,
      "lÃ©": 352,
      "da": 353,
      "Ġ18": 354,
      "Äįi": 355,
      "Å¡i": 356,
      "Ġr": 357,
      "Ġtak": 358,
      "Ġi": 359,
      "ve": 360,
      "ĠN": 361,
      "ÅĪ": 362,
      "Ġdu": 363,
      "ĠÃ": 364,
      "Å¾e": 365,
      "lou": 366,
      "ĠXA": 367,
      "cÃŃ": 368,
      "ĠK": 369,
      "Ġroz": 370,
      "Å¡ÃŃ": 371,
      "vÄĽt": 372,
      "Ġmu": 373,
      "Äįe": 374,
      "Ġtu": 375,
      "ĠvÅ¡e": 376,
      "rd": 377,
      "Äı": 378,
      "by": 379,
      "be": 380,
      "CD": 381,
      "...": 382,
      "ĠnÃ¡": 383,
      "ĠtÄĽ": 384,
      "Ġti": 385,
      "ĠvÅ¡": 386,
      "Ġni": 387,
      "ÄįÃŃ": 388,
      "kÃ¡": 389,
      "Ġno": 390,
      "ĠXAXA": 391,
      "Ġjsem": 392,
      "mÄĽ": 393,
      "ĠvÃŃ": 394,
      "Ġte": 395,
      "ĠP": 396,
      "Ġod": 397,
      "Ġli": 398,
      "Ġsv": 399,
      "ĠzÃ¡": 400,
      "ry": 401,
      "ĠAAB": 402,
      "mi": 403,
      "ĠÅ¾i": 404,
      "Ġob": 405,
      "dÃŃ": 406,
      "Ġsp": 407,
      "el": 408,
      "mÃŃ": 409,
      "Å¾ÃŃ": 410,
      "Å¾i": 411,
      "tÃ¡": 412,
      "ez": 413,
      "dÃ¡": 414,
      "ĠdÃ¡": 415,
      "ĠkrÃ¡": 416,
      "ĠnÄĽ": 417,
      "ĠM": 418,
      "ĠkdyÅ¾": 419,
      "ĠpÅĻi": 420,
      "kÃ½": 421,
      "20": 422,
      "Ġbu": 423,
      "bÄĽ": 424,
      "bo": 425,
      "ĠmÄĽ": 426,
      "ĠD": 427,
      "Ġru": 428,
      "enÃŃ": 429,
      "Ġsrd": 430,
      "Ġty": 431,
      "ech": 432,
      "Ġsi": 433,
      "ĠsvÃ©": 434,
      "Ġsk": 435,
      "vy": 436,
      "Ġ1920": 437,
      "tu": 438,
      "ĠmÃ¡": 439,
      "Å¯j": 440,
      "me": 441,
      "ĠdÄĽ": 442,
      "Ġjako": 443,
      "Ġ188": 444,
      "Ġ1880": 445,
      "ĠjÃ¡": 446,
      "Ġpra": 447,
      "Ġvo": 448,
      "ha": 449,
      "Ġpr": 450,
      "ĠÃº": 451,
      "hu": 452,
      "slav": 453,
      "lad": 454,
      "ĠvÅ¡ak": 455,
      "ze": 456,
      "lÃ½": 457,
      "si": 458,
      "val": 459,
      "aro": 460,
      "kou": 461,
      "Ġkde": 462,
      "Ġce": 463,
      "pÄĽ": 464,
      "Ġta": 465,
      "ma": 466,
      "hy": 467,
      "Ġten": 468,
      "Ãį": 469,
      "ĠAABB": 470,
      "sta": 471,
      "ĠlÃ¡": 472,
      "vu": 473,
      "Ġka": 474,
      "CC": 475,
      "Ġvi": 476,
      "bi": 477,
      "Ġtam": 478,
      "ud": 479,
      "kem": 480,
      "nÃ½ch": 481,
      "ani": 482,
      "ĠvÃ¡": 483,
      "skÃ½": 484,
      "stÃŃ": 485,
      "ĠH": 486,
      "led": 487,
      "ĠAA": 488,
      "Ġpod": 489,
      "ĠdÃŃ": 490,
      "Ġnad": 491,
      "chu": 492,
      "ty": 493,
      "es": 494,
      "ose": 495,
      "ĠsvÄĽt": 496,
      "ĠB": 497,
      "ĠjiÅ¾": 498,
      "lem": 499,
      "Ġkr": 500,
      "ej": 501,
      "ĠrÃ¡": 502,
      "sÃŃ": 503,
      "Å¡tÄĽ": 504,
      "Ġjeho": 505,
      "eni": 506,
      "mo": 507,
      "Ġra": 508,
      "osef": 509,
      "bu": 510,
      "II": 511,
      "ĠjeÅ¾": 512,
      "ĠJosef": 513,
      "Ãģ": 514,
      "Ġzem": 515,
      "ĠpÅĻÃŃ": 516,
      "kÃ©": 517,
      "rch": 518,
      "Ġslu": 519,
      "BA": 520,
      "kÅ¯": 521,
      "las": 522,
      "ĠÄįe": 523,
      "Ġjed": 524,
      "vat": 525,
      "ed": 526,
      "Ġsrdce": 527,
      "Ġmy": 528,
      "hÃ¡": 529,
      "ĠX": 530,
      "ba": 531,
      "ran": 532,
      "ckÃ½": 533,
      "Ġbyl": 534,
      "ena": 535,
      "ĠF": 536,
      "vou": 537,
      "Å¾dy": 538,
      "Ġbez": 539,
      "pÃŃ": 540,
      "sky": 541,
      "ĠÅ¡e": 542,
      "cho": 543,
      "ala": 544,
      "Ġzas": 545,
      "Ġkte": 546,
      "ĠtÃ©": 547,
      "ĠJaro": 548,
      "ev": 549,
      "ĠZ": 550,
      "ĠpÃ¡": 551,
      "ĠpÃŃ": 552,
      "ĠjÃŃ": 553,
      "zd": 554,
      "Ġpa": 555,
      "et": 556,
      "ĠmÃ©": 557,
      "XXXXXXXXXXXXXXXX": 558,
      "ĠlÃŃ": 559,
      "ali": 560,
      "vÃ½": 561,
      "ĠmÃŃ": 562,
      "40": 563,
      "ĠnÃ¡m": 564,
      "rou": 565,
      "zi": 566,
      "zÃŃ": 567,
      "ĠstÃ¡": 568,
      "nÃ½m": 569,
      "ĠbÃŃ": 570,
      "ĠJaroslav": 571,
      "ĠjenÅ¾": 572,
      "ĠvÅ¾dy": 573,
      "Ġhro": 574,
      "Å¡ek": 575,
      "ÅĻÃ¡": 576,
      "Ġkdo": 577,
      "Ġzla": 578,
      "ĠnÃŃ": 579,
      "ĠpÅĻed": 580,
      "my": 581,
      "ĠABBA": 582,
      "in": 583,
      "Ġpak": 584,
      "dou": 585,
      "skÃ©": 586,
      "Ġlid": 587,
      "hou": 588,
      "Ġdi": 589,
      "ÄĮ": 590,
      "ĠÅĻe": 591,
      "len": 592,
      "ĠaÅ¾": 593,
      "sa": 594,
      "Ġso": 595,
      "iti": 596,
      "Ġtv": 597,
      "ĠXXXX": 598,
      "lickÃ½": 599,
      "Ġmne": 600,
      "ĠVrch": 601,
      "ĠVrchlickÃ½": 602,
      "CDD": 603,
      "it": 604,
      "Ġjest": 605,
      "ĠÃ³": 606,
      "rÃ½": 607,
      "Ġpla": 608,
      "Ġpos": 609,
      "ĠÅ¾ivo": 610,
      "eny": 611,
      "luk": 612,
      "ĠtvÃ¡": 613,
      "ĠvÃ½": 614,
      "Ġnej": 615,
      "Ġhle": 616,
      "ach": 617,
      "ĠO": 618,
      "Ġ(": 619,
      "nes": 620,
      "ĠkaÅ¾": 621,
      "aly": 622,
      "ĠkvÄĽt": 623,
      "Ġslo": 624,
      "ĠL": 625,
      "pu": 626,
      "Ġsm": 627,
      "sto": 628,
      "Ġnez": 629,
      "top": 630,
      "ati": 631,
      "ĠprÃ¡": 632,
      "ĠsvÄĽ": 633,
      "Ġzra": 634,
      "nce": 635,
      "ĠÄįer": 636,
      "ste": 637,
      "um": 638,
      "Ġjej": 639,
      "Ġpou": 640,
      "Äļ": 641,
      "sy": 642,
      "rt": 643,
      "chÃ¡": 644,
      "rÃ©": 645,
      "Ġsta": 646,
      "ĠuÅ¾": 647,
      "ĠneÅ¾": 648,
      "Ġvla": 649,
      "ranti": 650,
      "ĠteÄı": 651,
      "dol": 652,
      "Ġnes": 653,
      "bou": 654,
      "Å¯m": 655,
      "ĠFranti": 656,
      "Ġtou": 657,
      "ĠFrantiÅ¡ek": 658,
      "men": 659,
      "Ġsto": 660,
      "tr": 661,
      "EF": 662,
      "Ġku": 663,
      "Ġnem": 664,
      "Ġsna": 665,
      "ĠÄįi": 666,
      "Ġnebe": 667,
      "ova": 668,
      "ÄĽt": 669,
      "Ġhlav": 670,
      "ĠplÃ¡": 671,
      "Ġon": 672,
      "dÄĽl": 673,
      "Ġtr": 674,
      "dolf": 675,
      "ost": 676,
      "ĠSva": 677,
      "cha": 678,
      "topluk": 679,
      "ĠSvatopluk": 680,
      ".)": 681,
      "ĠdÃ¡l": 682,
      "Ġsvou": 683,
      "nem": 684,
      "ek": 685,
      "Ġjsi": 686,
      "ska": 687,
      "osti": 688,
      "Ġsvo": 689,
      "Ġci": 690,
      "Ġjsou": 691,
      "Ġze": 692,
      "Ġf": 693,
      "tÃ©": 694,
      "ĠXX": 695,
      "ila": 696,
      "ĠvÅ¡ech": 697,
      "Ġdob": 698,
      "ici": 699,
      "ĠtvÃ©": 700,
      "or": 701,
      "ĠduÅ¡e": 702,
      "ĠmÅ¯j": 703,
      "Ġdru": 704,
      "od": 705,
      "ĠjeÅ¡tÄĽ": 706,
      "Ġale": 707,
      "stu": 708,
      "60": 709,
      "ey": 710,
      "zy": 711,
      "Å¡el": 712,
      "nost": 713,
      "ĠÄįas": 714,
      "ĠhvÄĽ": 715,
      "uje": 716,
      "enÃ©": 717,
      "Ġvel": 718,
      "ĠnÃ¡s": 719,
      "Åł": 720,
      "Ġkra": 721,
      "ĠpÄĽ": 722,
      "skÃ¡": 723,
      "Ġpl": 724,
      "ĠÅĻÃŃ": 725,
      "ene": 726,
      "ĠkaÅ¾d": 727,
      "nÃ©m": 728,
      "nÃŃm": 729,
      "Ġden": 730,
      "bÃŃ": 731,
      "Ġsy": 732,
      "ĠAdolf": 733,
      "is": 734,
      "ĠstÃŃ": 735,
      "nul": 736,
      "ĠsÃŃ": 737,
      "ĠcÃŃ": 738,
      "ĠmnÄĽ": 739,
      "Ġl": 740,
      "sku": 741,
      "ĠjejÃŃ": 742,
      "Äįka": 743,
      "Ġpoh": 744,
      "Ġdra": 745,
      "Ġsnad": 746,
      "ĠnÄĽm": 747,
      "ĠR": 748,
      "Ġstar": 749,
      "XB": 750,
      "Ġbra": 751,
      "ili": 752,
      "ĠAn": 753,
      "ĠrÅ¯": 754,
      "tÃ½": 755,
      "Ġlo": 756,
      "CCDD": 757,
      "Ġkle": 758,
      "Ġot": 759,
      "tem": 760,
      "Ġvl": 761,
      "ĠvÅ¯": 762,
      "tel": 763,
      "Ġbla": 764,
      "ĠvÅ¡ec": 765,
      "Ġzde": 766,
      "Ġtom": 767,
      "Ġ1940": 768,
      "Ġnech": 769,
      "ĠkrÃ¡s": 770,
      "ĠaÅ¥": 771,
      "avy": 772,
      "Ġla": 773,
      "ĠÄĮ": 774,
      "Ġneb": 775,
      "est": 776,
      "jem": 777,
      "eÄį": 778,
      "ĠbÄĽ": 779,
      "uÅ¾": 780,
      "tek": 781,
      "Ġhra": 782,
      "ĠbÃ½": 783,
      "ily": 784,
      "py": 785,
      "Ġbude": 786,
      "ĠMach": 787,
      "om": 788,
      "Ġoh": 789,
      "Ġos": 790,
      "Ġmra": 791,
      "ĠvÄĽÄį": 792,
      "Ġkam": 793,
      "ĠchvÃŃ": 794,
      "ĠMachar": 795,
      "ĠduÅ¡i": 796,
      "oud": 797,
      "pa": 798,
      "Ġsam": 799,
      "Ġmod": 800,
      "nÅ¯": 801,
      "CDCD": 802,
      "mÃ¡": 803,
      "ĠbÃ¡": 804,
      "Ġpu": 805,
      "aji": 806,
      "nÃŃn": 807,
      "CCB": 808,
      "Äįek": 809,
      "Ġry": 810,
      "ĠAnto": 811,
      "Ġhlas": 812,
      "Ġstra": 813,
      "Ġzvo": 814,
      "ĠAntonÃŃn": 815,
      "Ġzd": 816,
      "Ġlu": 817,
      "Ġjsme": 818,
      "Ġsmu": 819,
      "pi": 820,
      "duk": 821,
      "ĠÅ¾Ã¡": 822,
      "Ã¡c": 823,
      "oji": 824,
      "Ġsl": 825,
      "rÅ¯": 826,
      "Ġsly": 827,
      "eyduk": 828,
      "ĠHeyduk": 829,
      "Ġhla": 830,
      "nÃ¡m": 831,
      "ale": 832,
      "hle": 833,
      "alo": 834,
      "Ġslad": 835,
      "Ġjich": 836,
      "Ġdnes": 837,
      "ĠÅ¾ivot": 838,
      "ĠnenÃŃ": 839,
      "hÃ½": 840,
      "Ġpad": 841,
      "Åĺ": 842,
      "pad": 843,
      "Ġpoz": 844,
      "ĠsÃ¡m": 845,
      "tra": 846,
      "Ġmat": 847,
      "ov": 848,
      "arel": 849,
      "Ġhlu": 850,
      "hÃ©": 851,
      "bÃ¡": 852,
      "pÃ¡": 853,
      "ice": 854,
      "Ġdlou": 855,
      "Ġbych": 856,
      "Ġstro": 857,
      "Ġvra": 858,
      "ĠE": 859,
      "til": 860,
      "Ġkou": 861,
      "ĠkÅĻÃŃ": 862,
      "Ġmil": 863,
      "Ġjas": 864,
      "ĠJan": 865,
      "us": 866,
      "ĠÅ¡tÄĽ": 867,
      "NÃį": 868,
      "Ġmno": 869,
      "Ġslunce": 870,
      "stÄĽ": 871,
      "ava": 872,
      "ÅĻel": 873,
      "Ġbou": 874,
      "ĠoÄįi": 875,
      "Ġsvat": 876,
      "az": 877,
      "emi": 878,
      "nosti": 879,
      "id": 880,
      "chy": 881,
      "Ġtvo": 882,
      "ĠzpÄĽ": 883,
      "ĠĠ": 884,
      "seÅĪ": 885,
      "Ġspo": 886,
      "eho": 887,
      "ĠKarel": 888,
      "ĠtÄĽch": 889,
      "iva": 890,
      "Ġnep": 891,
      "cÃŃch": 892,
      "stvÃŃ": 893,
      "Ġbylo": 894,
      "Ġma": 895,
      "ĠvÃ¡m": 896,
      "ĠtÅĻe": 897,
      "Ġml": 898,
      "ĠslÃ¡": 899,
      "jich": 900,
      "Ġjim": 901,
      "ĠchtÄĽ": 902,
      "Ġba": 903,
      "stÃ¡": 904,
      "ami": 905,
      "sÅ¥": 906,
      "ĠptÃ¡": 907,
      "Ġsmut": 908,
      "Ġmar": 909,
      "Äįky": 910,
      "jÅ¡ÃŃ": 911,
      "ĠlÃ¡sky": 912,
      "Ġnich": 913,
      "vil": 914,
      "cem": 915,
      "pe": 916,
      "lovÄĽ": 917,
      "ik": 918,
      "Ġnik": 919,
      "ane": 920,
      "Å¯h": 921,
      "tou": 922,
      "cen": 923,
      "Ãī": 924,
      "Å¡Å¥": 925,
      "ĠpÃŃs": 926,
      "ĠzÅĻÃŃ": 927,
      "stou": 928,
      "ĠC": 929,
      "Å¾en": 930,
      "lid": 931,
      "sÃ¡": 932,
      "OV": 933,
      "oj": 934,
      "ast": 935,
      "oh": 936,
      "ic": 937,
      "ĠsvÅ¯j": 938,
      "Ġkro": 939,
      "sty": 940,
      "Ġ1860": 941,
      "emu": 942,
      "ina": 943,
      "ĠAXA": 944,
      "hne": 945,
      "tÃŃm": 946,
      "Ġkol": 947,
      "Ã©m": 948,
      "ĠNe": 949,
      "krÃ¡": 950,
      "Ġcho": 951,
      "Ġmys": 952,
      "Ġmilo": 953,
      "Ġbyla": 954,
      "skou": 955,
      "ĠÄįlovÄĽ": 956,
      "ĠABABCDCD": 957,
      "ĠI": 958,
      "ÃĿ": 959,
      "vem": 960,
      "ĠsvÃŃ": 961,
      "chem": 962,
      "ol": 963,
      "ĠsmÄĽ": 964,
      "Ġtem": 965,
      "Ġsou": 966,
      "ved": 967,
      "ĠsvÃ½m": 968,
      "uj": 969,
      "nek": 970,
      "Ġg": 971,
      "ÄĽla": 972,
      "nÃ©ho": 973,
      "ĠsnÄĽ": 974,
      "ase": 975,
      "ÅĻen": 976,
      "Äįku": 977,
      "ĠAABCCB": 978,
      "nil": 979,
      "ĠnÃŃm": 980,
      "ĠmÃ¡m": 981,
      "ĠtvÅ¯j": 982,
      "Ġ1840": 983,
      "Ġsla": 984,
      "GH": 985,
      "Ġan": 986,
      "ĠtÃ¡": 987,
      "Ġach": 988,
      "LA": 989,
      "Ġja": 990,
      "ĠsobÄĽ": 991,
      "ĠbÅ¯h": 992,
      "on": 993,
      "Ġhu": 994,
      "Ġkolem": 995,
      "rem": 996,
      "ĠtobÄĽ": 997,
      "ÄĽni": 998,
      "ĠkaÅ¾dÃ½": 999,
      "ĠproÄį": 1000,
      "ÅĻil": 1001,
      "ĠvÃŃc": 1002,
      "ĠÅ¡ÃŃ": 1003,
      "Ġke": 1004,
      "ĠzemÄĽ": 1005,
      "Å½": 1006,
      "ady": 1007,
      "ĠVÃ¡c": 1008,
      "Ġhne": 1009,
      "ĠVÃ¡clav": 1010,
      "ĠsvÃ½ch": 1011,
      "ĠpÅ¯": 1012,
      "Ġok": 1013,
      "ĠpÅĻes": 1014,
      "ĠtÄĽÅ¾": 1015,
      "ĠXXXXXXXX": 1016,
      "vnÃŃ": 1017,
      "Ġnoc": 1018,
      "III": 1019,
      "Å¡ÃŃm": 1020,
      "ĠblÃŃ": 1021,
      "nout": 1022,
      "Å¡tÃŃ": 1023,
      "ĠÅ¾itÃŃ": 1024,
      "Ġpan": 1025,
      "Ġrado": 1026,
      "Ġble": 1027,
      "ada": 1028,
      "ĠvÃ¡s": 1029,
      "Ġani": 1030,
      "Ġchce": 1031,
      "Ġzda": 1032,
      "lil": 1033,
      "im": 1034,
      "Ġva": 1035,
      "Ġhned": 1036,
      "nky": 1037,
      "Ġaby": 1038,
      "ÅĻem": 1039,
      "aty": 1040,
      "ĠsmÃŃ": 1041,
      "vit": 1042,
      "Å¡ti": 1043,
      "Ġmrt": 1044,
      "so": 1045,
      "hem": 1046,
      "Ġtich": 1047,
      "nka": 1048,
      "Ġmal": 1049,
      "Ġjejich": 1050,
      "Äįer": 1051,
      "pla": 1052,
      "ĠÅł": 1053,
      "vÃ½ch": 1054,
      "nal": 1055,
      "Ġsrdci": 1056,
      "Ġmoje": 1057,
      "ĠtÃ©Å¾": 1058,
      "ĠdÅĻÃŃ": 1059,
      "ata": 1060,
      "Ġruce": 1061,
      "Ġsmr": 1062,
      "ĠzdÃ¡": 1063,
      "Ġzemi": 1064,
      "Ġsva": 1065,
      "ĠvÅ¡ecko": 1066,
      "os": 1067,
      "CH": 1068,
      "ĠleÄį": 1069,
      "pomÃŃ": 1070,
      "Ġzb": 1071,
      "ĠhvÄĽz": 1072,
      "mÅ¯": 1073,
      "zu": 1074,
      "ela": 1075,
      "ĠchvÄĽ": 1076,
      "Äįil": 1077,
      "iny": 1078,
      "EFF": 1079,
      "Ġus": 1080,
      "Ġsem": 1081,
      "Å¡en": 1082,
      "avu": 1083,
      "ED": 1084,
      "ĠÅ¾en": 1085,
      "Ġles": 1086,
      "ĠvÄĽt": 1087,
      "Ġvlast": 1088,
      "ven": 1089,
      "Ġhor": 1090,
      "ĠtÃŃm": 1091,
      "Ġnepo": 1092,
      "Ġdiv": 1093,
      "Ġprav": 1094,
      "Å¾il": 1095,
      "ĠÅ¡tÄĽstÃŃ": 1096,
      "ĠhÃ¡": 1097,
      "lÃ½ch": 1098,
      "ude": 1099,
      "skÃ½ch": 1100,
      "dem": 1101,
      "Ġnoci": 1102,
      "ĠspÃ¡": 1103,
      "ÄĽti": 1104,
      "nÃŃk": 1105,
      "ah": 1106,
      "ele": 1107,
      "pr": 1108,
      "jde": 1109,
      "ebe": 1110,
      "ĠmÄĽl": 1111,
      "ĠpÅĻec": 1112,
      "ĠnaÅ¡e": 1113,
      "yt": 1114,
      "Ġklid": 1115,
      "ira": 1116,
      "ĠPO": 1117,
      "ĠzpÃŃ": 1118,
      "Ġzrak": 1119,
      "lÅ¯": 1120,
      "any": 1121,
      "ĠbuÄı": 1122,
      "ese": 1123,
      "hÅ¯": 1124,
      "Ġjste": 1125,
      "Å¡li": 1126,
      "Ġzah": 1127,
      "dla": 1128,
      "ĠÅĻek": 1129,
      "obÄĽ": 1130,
      "aci": 1131,
      "Ġple": 1132,
      "oÅĻi": 1133,
      "Ġjenom": 1134,
      "Ġtebe": 1135,
      "dech": 1136,
      "ĠÅĻ": 1137,
      "sou": 1138,
      "RA": 1139,
      "Ġmez": 1140,
      "Ġsko": 1141,
      "ĠnÃ¡ro": 1142,
      "cÅ¯": 1143,
      "Ġhlavu": 1144,
      "ri": 1145,
      "Å¡te": 1146,
      "uÅ¡i": 1147,
      "dek": 1148,
      "kÃ½ch": 1149,
      "Äįen": 1150,
      "Ġzlo": 1151,
      "ot": 1152,
      "Ġsen": 1153,
      "ovi": 1154,
      "Ġhru": 1155,
      "nÃŃch": 1156,
      "Ã½mi": 1157,
      "ĠvlÃ¡": 1158,
      "ĠpÃŃseÅĪ": 1159,
      "ĠhvÄĽzd": 1160,
      "Ġote": 1161,
      "ĠmuÅ¾": 1162,
      "ana": 1163,
      "Ġmlad": 1164,
      "eti": 1165,
      "ĠÅ¾al": 1166,
      "uti": 1167,
      "Ġnev": 1168,
      "ĠlÃ©": 1169,
      "Ġoko": 1170,
      "ije": 1171,
      "Ġre": 1172,
      "ĠhÅĻÃŃ": 1173,
      "ĠdÃ¡v": 1174,
      "ĠstÅĻe": 1175,
      "ĠABABCC": 1176,
      "Ġkrev": 1177,
      "ĠÃºs": 1178,
      "pra": 1179,
      "Ġny": 1180,
      "kal": 1181,
      "ĠcelÃ½": 1182,
      "ĠSta": 1183,
      "aÅĻi": 1184,
      "oni": 1185,
      "za": 1186,
      "Ġmlu": 1187,
      "ĠmlÃ¡": 1188,
      "ych": 1189,
      "tor": 1190,
      "ich": 1191,
      "Ġhr": 1192,
      "ĠdÃŃtÄĽ": 1193,
      "Ġkru": 1194,
      "oÄįi": 1195,
      "oli": 1196,
      "aje": 1197,
      "Ġpok": 1198,
      "ĠmoÅĻe": 1199,
      "Ġduch": 1200,
      "ÄĽl": 1201,
      "hla": 1202,
      "adu": 1203,
      "CB": 1204,
      "era": 1205,
      "ĠÅ¾ÃŃ": 1206,
      "XXX": 1207,
      "Ġjde": 1208,
      "Å¡ich": 1209,
      "Ġmoc": 1210,
      "ĠnÃ¡Å¡": 1211,
      "Ġlet": 1212,
      "rskÃ½": 1213,
      "Ġkla": 1214,
      "eli": 1215,
      "Ġvlas": 1216,
      "lek": 1217,
      "ĠdÃŃv": 1218,
      "avi": 1219,
      "Ġzvu": 1220,
      "Å¡ka": 1221,
      "ĠtakÃ©": 1222,
      "SK": 1223,
      "Ġbole": 1224,
      "ĠrÃ¡d": 1225,
      "ob": 1226,
      "Ġslova": 1227,
      "ĠkterÃ©": 1228,
      "ĠsnÃŃ": 1229,
      "ĠÄįÃŃ": 1230,
      "Ġslav": 1231,
      "Ġmou": 1232,
      "jÃŃcÃŃ": 1233,
      "ĠstrÃ¡": 1234,
      "ĠkÅĻi": 1235,
      "ĠXXXXXXXXXXXXXXXX": 1236,
      "ilo": 1237,
      "Ġhlou": 1238,
      "dnÃ©": 1239,
      "ĠlÃ¡ska": 1240,
      "ĠÅĪ": 1241,
      "Äįko": 1242,
      "vskÃ½": 1243,
      "pil": 1244,
      "tÄĽz": 1245,
      "tva": 1246,
      "Ġsil": 1247,
      "oval": 1248,
      "ĠAABBCCDD": 1249,
      "ĠveÄįer": 1250,
      "Ġvr": 1251,
      "Ġnic": 1252,
      "ĠchrÃ¡": 1253,
      "Ġdech": 1254,
      "su": 1255,
      "tky": 1256,
      "ĠchvÃŃli": 1257,
      "ĠvrÃ¡": 1258,
      "raz": 1259,
      "Ġnebo": 1260,
      "AN": 1261,
      "avou": 1262,
      "nec": 1263,
      "Ġnu": 1264,
      "ove": 1265,
      "CE": 1266,
      "yk": 1267,
      "ate": 1268,
      "nÄĽjÅ¡ÃŃ": 1269,
      "ĠoÄįÃŃ": 1270,
      "ĠXXX": 1271,
      "ĠchtÄĽl": 1272,
      "Ġtoho": 1273,
      "oje": 1274,
      "cky": 1275,
      "Å¡la": 1276,
      "ĠvÅ¾dyÅ¥": 1277,
      "Ġslun": 1278,
      "Ġboj": 1279,
      "Ġtro": 1280,
      "ĠtvÃ¡ÅĻ": 1281,
      "ĠbÃ½t": 1282,
      "ĠmyÅ¡": 1283,
      "dÃŃm": 1284,
      "ĠnÃ¡hle": 1285,
      "ĠU": 1286,
      "ĠtÃŃ": 1287,
      "Ġdal": 1288,
      "ĠÄįlovÄĽk": 1289,
      "ĠnÄĽk": 1290,
      "Ġsu": 1291,
      "asu": 1292,
      "ĠskÃ¡": 1293,
      "ĠspÃŃ": 1294,
      "Ġjeden": 1295,
      "ĠSova": 1296,
      "alu": 1297,
      "ĠsvÃ©ho": 1298,
      "Å¯Å¾e": 1299,
      "tÅ¯": 1300,
      "ĠvÃ¡Å¡": 1301,
      "Ġdne": 1302,
      "ĠÅ¡i": 1303,
      "Ġmezi": 1304,
      "ĠzÃŃ": 1305,
      "Ġost": 1306,
      "ĠnynÃŃ": 1307,
      "anÄĽ": 1308,
      "ĠtiÅ¡e": 1309,
      "ouf": 1310,
      "lit": 1311,
      "adi": 1312,
      "ĠG": 1313,
      "ĠhnÄĽ": 1314,
      "esk": 1315,
      "Ġvol": 1316,
      "sÃŃc": 1317,
      "Ġchlad": 1318,
      "jÃŃc": 1319,
      "Ġzje": 1320,
      "oÅĻe": 1321,
      "ÄĽje": 1322,
      "Ġzase": 1323,
      "ĠstÅĻÃŃ": 1324,
      "eru": 1325,
      "lÃ¡Å¡te": 1326,
      "Ġbrat": 1327,
      "hl": 1328,
      "nÃ¡ch": 1329,
      "ĠsvÄĽta": 1330,
      "Ġmla": 1331,
      "ĠsvÃ©m": 1332,
      "Ġtru": 1333,
      "ĠkvÃŃ": 1334,
      "vÃ½m": 1335,
      "Ġky": 1336,
      "asy": 1337,
      "oru": 1338,
      "dil": 1339,
      "ĠÃºsmÄĽ": 1340,
      "ĠstÃ¡le": 1341,
      "nÄĽl": 1342,
      "ĠkterÃ½": 1343,
      "stal": 1344,
      "Ġneu": 1345,
      "Ġdr": 1346,
      "dal": 1347,
      "ile": 1348,
      "tom": 1349,
      "dnÃ½": 1350,
      "ĠhrÃ¡": 1351,
      "krÃ¡t": 1352,
      "Ġjednou": 1353,
      "Ġme": 1354,
      "ĠstojÃŃ": 1355,
      "Ġvzdu": 1356,
      "rnÃ½": 1357,
      "ĠboÅ¾ÃŃ": 1358,
      "inu": 1359,
      "Ġoz": 1360,
      "Ġ1960": 1361,
      "tal": 1362,
      "ĠvÃŃce": 1363,
      "ĠbÃŃlÃ©": 1364,
      "ĠÅ¡Å¥": 1365,
      "nku": 1366,
      "anu": 1367,
      "olu": 1368,
      "Ġposled": 1369,
      "kÃ½m": 1370,
      "ĠbÅĻe": 1371,
      "tku": 1372,
      "ĠStani": 1373,
      "ohu": 1374,
      "aj": 1375,
      "ÄįnÃŃ": 1376,
      "âĢ": 1377,
      "pat": 1378,
      "stÃ©": 1379,
      "rak": 1380,
      "ĠStanislav": 1381,
      "avÄĽ": 1382,
      "Å¡il": 1383,
      "aÄįi": 1384,
      "ĠcoÅ¾": 1385,
      "Ġnebi": 1386,
      "sko": 1387,
      "Ġjar": 1388,
      "Ġpoko": 1389,
      "ĠpÅĻÃ¡": 1390,
      "Ġodpo": 1391,
      "dnÃŃ": 1392,
      "ovy": 1393,
      "Ġven": 1394,
      "ĠkrÃ¡l": 1395,
      "kla": 1396,
      "ĠznÃ¡m": 1397,
      "lech": 1398,
      "ÅĻÃŃm": 1399,
      "spo": 1400,
      "KA": 1401,
      "vÃ©m": 1402,
      "Ġbled": 1403,
      "ĠvÅ¡em": 1404,
      "ĠsvÃ¡": 1405,
      "tech": 1406,
      "enÃ¡": 1407,
      "Ġnikdy": 1408,
      "pÄĽt": 1409,
      "ug": 1410,
      "ĠrÅ¯Å¾e": 1411,
      "mÃŃr": 1412,
      "ĠznÃŃ": 1413,
      "pou": 1414,
      "eb": 1415,
      "Ġrukou": 1416,
      "Å¯Å¾": 1417,
      "XBXB": 1418,
      "ĠhÅĻ": 1419,
      "SE": 1420,
      "jÃŃm": 1421,
      "Ġveli": 1422,
      "ĠvzpomÃŃ": 1423,
      "Ġsed": 1424,
      "Ġved": 1425,
      "ĠtrÃ¡": 1426,
      "ĠnadÄĽ": 1427,
      "Ġjedi": 1428,
      "ann": 1429,
      "Ġbudou": 1430,
      "ec": 1431,
      "uli": 1432,
      "ĠABA": 1433,
      "Ġper": 1434,
      "ĠprvnÃŃ": 1435,
      "ĠbrÃ¡": 1436,
      "ĠpÃ¡n": 1437,
      "ĠklÃŃ": 1438,
      "Ġpoli": 1439,
      "Ġlou": 1440,
      "Ġnedo": 1441,
      "Ġjedno": 1442,
      "oci": 1443,
      "Ġmnou": 1444,
      "ABB": 1445,
      "Ġtys": 1446,
      "Ġves": 1447,
      "Ġsebe": 1448,
      "Ġvese": 1449,
      "Ġum": 1450,
      "omu": 1451,
      "Ġtomu": 1452,
      "co": 1453,
      "rnÄĽ": 1454,
      "ĠVik": 1455,
      "ĠnevÄĽ": 1456,
      "ĠÅ¡Å¥ast": 1457,
      "iÅ¾": 1458,
      "ĠViktor": 1459,
      "ĠDyk": 1460,
      "ĠaÄį": 1461,
      "Ġvoj": 1462,
      "lov": 1463,
      "Ġzm": 1464,
      "ral": 1465,
      "Ġsle": 1466,
      "mou": 1467,
      "zel": 1468,
      "aku": 1469,
      "ĠhrÅ¯": 1470,
      "Ġpom": 1471,
      "ĠzlatÃ©": 1472,
      "Ġchu": 1473,
      "ĠÄįa": 1474,
      "rat": 1475,
      "Ġzno": 1476,
      "IV": 1477,
      "ym": 1478,
      "ON": 1479,
      "dnou": 1480,
      "stÃ½": 1481,
      "Ġhrob": 1482,
      "EEFF": 1483,
      "ĠjuÅ¾": 1484,
      "ĠzvÄĽ": 1485,
      "alÃŃ": 1486,
      "IN": 1487,
      "Ġhled": 1488,
      "iku": 1489,
      "Ġsmrt": 1490,
      "ĠspÄĽ": 1491,
      "Ġchci": 1492,
      "ĠstÃŃn": 1493,
      "ĠNA": 1494,
      "ĠdÄĽti": 1495,
      "ĠÅ¡el": 1496,
      "Ã¡l": 1497,
      "Å®": 1498,
      "ĠjÃŃm": 1499,
      "Ġhrd": 1500,
      "ĠKost": 1501,
      "Ġsmrti": 1502,
      "Ġhroz": 1503,
      "ĠXAXAXBXB": 1504,
      "lal": 1505,
      "ep": 1506,
      "vala": 1507,
      "Ġona": 1508,
      "ok": 1509,
      "zem": 1510,
      "ĠKostka": 1511,
      "rob": 1512,
      "umann": 1513,
      "Ġbar": 1514,
      "ĠNeumann": 1515,
      "Ġpot": 1516,
      "ĠÅ¡u": 1517,
      "Äįel": 1518,
      "Ġnebes": 1519,
      "Ġdla": 1520,
      "dce": 1521,
      "Ġkdyby": 1522,
      "ÄįnÄĽ": 1523,
      "cÃŃm": 1524,
      "rad": 1525,
      "hlÃŃ": 1526,
      "Ġzna": 1527,
      "ĠtvÃ½ch": 1528,
      "ivy": 1529,
      "Ġpov": 1530,
      "Ġzak": 1531,
      "Ġklo": 1532,
      "Ġhou": 1533,
      "kam": 1534,
      "Ã³": 1535,
      "let": 1536,
      "vÃ¡nÃŃ": 1537,
      "nice": 1538,
      "Ġkraj": 1539,
      "Ġhlavy": 1540,
      "ĠzpÄĽv": 1541,
      "Ġnevi": 1542,
      "stav": 1543,
      "ĠKlÃ¡Å¡te": 1544,
      "Ġdva": 1545,
      "ĠmusÃŃ": 1546,
      "ĠKam": 1547,
      "enou": 1548,
      "oc": 1549,
      "ĠcelÃ©": 1550,
      "Ġdar": 1551,
      "kÃ¡ch": 1552,
      "ÄĽj": 1553,
      "ĠdÅ¯": 1554,
      "ĠKlÃ¡Å¡terskÃ½": 1555,
      "rost": 1556,
      "ĠdÃ¡le": 1557,
      "lÃ¡dek": 1558,
      "mÃ©": 1559,
      "Ġdce": 1560,
      "Ġsotva": 1561,
      "ĠkÃ¡": 1562,
      "roz": 1563,
      "dlo": 1564,
      "lik": 1565,
      "Ġstr": 1566,
      "oku": 1567,
      "Ġpru": 1568,
      "rov": 1569,
      "Ġlesk": 1570,
      "Ġpros": 1571,
      "ima": 1572,
      "Ġbr": 1573,
      "Ġproti": 1574,
      "pal": 1575,
      "hat": 1576,
      "Ġpat": 1577,
      "ely": 1578,
      "ÄĽly": 1579,
      "ys": 1580,
      "kÃ©m": 1581,
      "ĠbÃ¡s": 1582,
      "ĠÄįÃŃm": 1583,
      "ĠnovÃ©": 1584,
      "Ġosud": 1585,
      "Ġruka": 1586,
      "ÄĽsti": 1587,
      "ĠpÅĻece": 1588,
      "ĠvolÃ¡": 1589,
      "Ġchy": 1590,
      "ĠnÃŃÅ¾": 1591,
      "ĠkterÃ¡": 1592,
      "nik": 1593,
      "pl": 1594,
      "ĠvÃŃm": 1595,
      "Ġticho": 1596,
      "ĠletÃŃ": 1597,
      "Ġradost": 1598,
      "nit": 1599,
      "Ġleh": 1600,
      "yÅ¡": 1601,
      "ato": 1602,
      "ĠSlÃ¡dek": 1603,
      "zka": 1604,
      "Ġobla": 1605,
      "ÄĽji": 1606,
      "ĠknÄĽ": 1607,
      "ÄĽlo": 1608,
      "Ġblesk": 1609,
      "ĠstarÃ½": 1610,
      "Ġkles": 1611,
      "Ġsli": 1612,
      "ĠABABCCDD": 1613,
      "Ġbi": 1614,
      "Ġdvo": 1615,
      "ĠdÄĽl": 1616,
      "Ġneby": 1617,
      "Ã©ho": 1618,
      "Ġtvoje": 1619,
      "eda": 1620,
      "ÅĻit": 1621,
      "GHH": 1622,
      "Ġtaj": 1623,
      "ĠleÅ¾ÃŃ": 1624,
      "Ġvlasti": 1625,
      "Åĩ": 1626,
      "Ġruku": 1627,
      "iv": 1628,
      "Ġzel": 1629,
      "ĠmÃ½ch": 1630,
      "ĠnÃ¡rod": 1631,
      "OU": 1632,
      "Ġrozko": 1633,
      "ĠsÃ¡": 1634,
      "ĠvÃŃtÄĽz": 1635,
      "eno": 1636,
      "nic": 1637,
      "ĠÄĮech": 1638,
      "ĠskrÃ¡": 1639,
      "ab": 1640,
      "eji": 1641,
      "ĠÅ½": 1642,
      "Ġskry": 1643,
      "Ġtra": 1644,
      "Ġproto": 1645,
      "Ġode": 1646,
      "has": 1647,
      "ĠduÅ¡ÃŃ": 1648,
      "eta": 1649,
      "vali": 1650,
      "tÄĽch": 1651,
      "hor": 1652,
      "dan": 1653,
      "rnÃ©": 1654,
      "aÅ¡": 1655,
      "yva": 1656,
      "vÃ¡m": 1657,
      "nech": 1658,
      "eh": 1659,
      "lÃ½m": 1660,
      "hlÃ©": 1661,
      "ĠPÃį": 1662,
      "Ġplamen": 1663,
      "ĠkÅĻe": 1664,
      "Ġpozd": 1665,
      "Ġpev": 1666,
      "pÄĽv": 1667,
      "Ġhlavou": 1668,
      "azi": 1669,
      "ĠhvÄĽzdy": 1670,
      "Ġplo": 1671,
      "Ġtesk": 1672,
      "kÅĻi": 1673,
      "Ġjin": 1674,
      "Ġskal": 1675,
      "vr": 1676,
      "Ġdlouho": 1677,
      "uji": 1678,
      "yl": 1679,
      "Ġrych": 1680,
      "Ġpane": 1681,
      "XXXXXXXXXXXXXXXXXXXXXXXXXXXXXXXX": 1682,
      "Ġde": 1683,
      "Ġzbo": 1684,
      "ÄįÃŃm": 1685,
      "dÄĽt": 1686,
      "ĠtoÅ¥": 1687,
      "jte": 1688,
      "Ġnimi": 1689,
      "ĠdÃ¡vno": 1690,
      "EE": 1691,
      "Ġup": 1692,
      "Ġtajem": 1693,
      "ĠÄįech": 1694,
      "odi": 1695,
      "ĠmÅ¯Å¾e": 1696,
      "oz": 1697,
      "ĠznÃ¡": 1698,
      "ĠzÃ¡ÅĻÃŃ": 1699,
      "Ġpohled": 1700,
      "ÅĻed": 1701,
      "ĠAABBCC": 1702,
      "tka": 1703,
      "ĠboÅ¾e": 1704,
      "mys": 1705,
      "ĠÅ¾ivota": 1706,
      "Ġblou": 1707,
      "ĠkvÄĽty": 1708,
      "Ġvys": 1709,
      "ĠpohÃ¡": 1710,
      "atky": 1711,
      "ĠcizÃŃ": 1712,
      "idi": 1713,
      "Ġhlubo": 1714,
      "Ġrud": 1715,
      "ĠÅ¡ep": 1716,
      "ĠposlednÃŃ": 1717,
      "ĠdobÅĻe": 1718,
      "Å¾el": 1719,
      "Ġpal": 1720,
      "ĠÅ¾ena": 1721,
      "ĠvÅ¡ecky": 1722,
      "avÃ½": 1723,
      "Ġzt": 1724,
      "odu": 1725,
      "Ġtebou": 1726,
      "ner": 1727,
      "zÃ¡": 1728,
      "ika": 1729,
      "ĠstÅĻÃŃb": 1730,
      "ĠprÃ½": 1731,
      "Ġsch": 1732,
      "ĠAAX": 1733,
      "Ġzapo": 1734,
      "kol": 1735,
      "lna": 1736,
      "Ġhud": 1737,
      "ĠvidÃŃ": 1738,
      "Ġdale": 1739,
      "ĠpanÃŃ": 1740,
      "zni": 1741,
      "ĠboÅ¾": 1742,
      "ĠVoj": 1743,
      "ĠsvÄĽtÄĽ": 1744,
      "Ġtlu": 1745,
      "Ġsvoje": 1746,
      "ĠmeÄį": 1747,
      "ĠvidÄĽl": 1748,
      "ĠLe": 1749,
      "Ġkdys": 1750,
      "enÄĽ": 1751,
      "aky": 1752,
      "esti": 1753,
      "nutÃŃ": 1754,
      "adne": 1755,
      "ĠhledÃŃ": 1756,
      "Ġslou": 1757,
      "Ġztra": 1758,
      "Ġor": 1759,
      "ĠÅ¡tÃŃ": 1760,
      "znÄĽ": 1761,
      "sil": 1762,
      "ĠzÃ¡ÅĻ": 1763,
      "ĠobÄĽ": 1764,
      "ĠprÃ¡zd": 1765,
      "Ġpam": 1766,
      "oÅ¾i": 1767,
      "kve": 1768,
      "ĠsvÃŃtÃŃ": 1769,
      "ul": 1770,
      "ĠnÄĽj": 1771,
      "vÃŃm": 1772,
      "ie": 1773,
      "Ġjem": 1774,
      "Ġpole": 1775,
      "ĠtÄĽlo": 1776,
      "stva": 1777,
      "ĠÄįelo": 1778,
      "SEÅĩ": 1779,
      "ola": 1780,
      "ĠÄįasto": 1781,
      "Ġkraji": 1782,
      "stra": 1783,
      "ĠVojtÄĽch": 1784,
      "Ġe": 1785,
      "Ġtma": 1786,
      "ade": 1787,
      "ct": 1788,
      "ĠsmÃŃch": 1789,
      "dnÄĽ": 1790,
      "Ġmoh": 1791,
      "Ġzach": 1792,
      "ara": 1793,
      "Ġpoj": 1794,
      "ĠlÃ¡sku": 1795,
      "sem": 1796,
      "aha": 1797,
      "ita": 1798,
      "re": 1799,
      "Ġsti": 1800,
      "CCD": 1801,
      "nskÃ½": 1802,
      "ĠvÅĻe": 1803,
      "itÄĽ": 1804,
      "ĠzÅ¯": 1805,
      "ĠÅĪad": 1806,
      "ĠtÅĻi": 1807,
      "ĠII": 1808,
      "Ġlidu": 1809,
      "ub": 1810,
      "Ġobraz": 1811,
      "ĠzmÄĽ": 1812,
      "ĠstÃ¡l": 1813,
      "Å¡enÃŃ": 1814,
      "LI": 1815,
      "ĠâĢ": 1816,
      "Ġpouze": 1817,
      "ĠNa": 1818,
      "Ġpomo": 1819,
      "ĠPo": 1820,
      "kÃ¡m": 1821,
      "Ġnav": 1822,
      "ÄĽny": 1823,
      "Ġbys": 1824,
      "ÄįnÃ©": 1825,
      "Ġpek": 1826,
      "Ġjdou": 1827,
      "den": 1828,
      "ĠPro": 1829,
      "vost": 1830,
      "Ġ1820": 1831,
      "ĠlÃ¡skou": 1832,
      "lÃŃm": 1833,
      "ĠjakÃ½": 1834,
      "Ġlist": 1835,
      "ĠpÃŃsnÄĽ": 1836,
      "dÄĽla": 1837,
      "ĠpoÄį": 1838,
      "dob": 1839,
      "ĠtÅĻ": 1840,
      "Ġplu": 1841,
      "hal": 1842,
      "Ġsvobo": 1843,
      "ĠchvÃŃle": 1844,
      "Ġsku": 1845,
      "znÃŃ": 1846,
      "DA": 1847,
      "Ġtady": 1848,
      "uÅ¾e": 1849,
      "ÄĽli": 1850,
      "vÃ¡n": 1851,
      "Ġzp": 1852,
      "Ġvrou": 1853,
      "ĠdrÃ¡": 1854,
      "Ġuk": 1855,
      "ĠtÅĻeba": 1856,
      "udi": 1857,
      "Ġtvou": 1858,
      "Ġdej": 1859,
      "ĠpolÃŃ": 1860,
      "Ġzouf": 1861,
      "Ġuz": 1862,
      "stvi": 1863,
      "ĠbÃŃlÃ½": 1864,
      "oÅ¾": 1865,
      "Ġotec": 1866,
      "iÅ¾i": 1867,
      "Ġjemu": 1868,
      "ĠpÅ¯l": 1869,
      "ÅĺE": 1870,
      "ĠnechÅ¥": 1871,
      "ĠchvÃ¡": 1872,
      "ĠnÄĽho": 1873,
      "ÄįenÃŃ": 1874,
      "Ġproud": 1875,
      "uch": 1876,
      "ĠbÃ½ti": 1877,
      "ĠdÅĻÃŃv": 1878,
      "Ġhory": 1879,
      "Å¯v": 1880,
      "ouci": 1881,
      "ovat": 1882,
      "au": 1883,
      "Å¡em": 1884,
      "ĠsvÄĽtlo": 1885,
      "ÄļV": 1886,
      "ĠnÃ¡ru": 1887,
      "Ġbolest": 1888,
      "Ġkon": 1889,
      "ĠvdÄĽ": 1890,
      "ĠÅ¾eny": 1891,
      "div": 1892,
      "Ġvich": 1893,
      "zko": 1894,
      "Ġzby": 1895,
      "yti": 1896,
      "ĠsklÃ¡": 1897,
      "ory": 1898,
      "Ġhlava": 1899,
      "Ġsklo": 1900,
      "Ġkry": 1901,
      "ĠumÃŃ": 1902,
      "enÃ½": 1903,
      "Ġnese": 1904,
      "Ġjisk": 1905,
      "aÅĻe": 1906,
      "ĠvÅ¾dycky": 1907,
      "ĠnÃ¡mi": 1908,
      "Ġsni": 1909,
      "ĠBoh": 1910,
      "anou": 1911,
      "ĠsnÅ¯": 1912,
      "Ġkve": 1913,
      "ĠvelkÃ©": 1914,
      "snÄĽ": 1915,
      "ĠvelkÃ½": 1916,
      "uh": 1917,
      "Ġpi": 1918,
      "Ġdost": 1919,
      "ame": 1920,
      "Ġrou": 1921,
      "ĠdÃ¡li": 1922,
      "ĠvÃŃtr": 1923,
      "ĠnovÃ½": 1924,
      "ĠkÃ½": 1925,
      "Ġkni": 1926,
      "eÅĪ": 1927,
      "Ġslzy": 1928,
      "inÄĽ": 1929,
      "tÃ½ch": 1930,
      "Ġnikdo": 1931,
      "ĠvlastnÃŃ": 1932,
      "Ġprou": 1933,
      "kÅ¯m": 1934,
      "ahy": 1935,
      "Ġpotom": 1936,
      "ovÃ©": 1937,
      "Ġmnoho": 1938,
      "Ġblu": 1939,
      "ole": 1940,
      "esi": 1941,
      "Ġpapr": 1942,
      "kle": 1943,
      "Ġnevy": 1944,
      "ĠPÃįSEÅĩ": 1945,
      "Ġtep": 1946,
      "ĠblÃ¡": 1947,
      "Ġmoud": 1948,
      "inskÃ½": 1949,
      "ĠjmÃ©": 1950,
      "Ġkri": 1951,
      "Ġzlato": 1952,
      "ĠsvatÃ½": 1953,
      "Ġkrve": 1954,
      "Ġpar": 1955,
      "ĠBohdan": 1956,
      "Ġtedy": 1957,
      "ĠKaminskÃ½": 1958,
      "ace": 1959,
      "AT": 1960,
      "vajÃŃ": 1961,
      "ĠbouÅĻ": 1962,
      "zou": 1963,
      "dnÃ¡": 1964,
      "nd": 1965,
      "Å¾nÄĽ": 1966,
      "ĠstarÃ©": 1967,
      "ano": 1968,
      "ĠW": 1969,
      "ĠpadÃ¡": 1970,
      "ĠXAB": 1971,
      "emÄĽ": 1972,
      "ĠmarnÄĽ": 1973,
      "EFEF": 1974,
      "ĠjejÅ¾": 1975,
      "hnou": 1976,
      "rÃ½ch": 1977,
      "ĠvÅ¡eho": 1978,
      "GG": 1979,
      "ite": 1980,
      "Ġzved": 1981,
      "ĠÃºsmÄĽv": 1982,
      "ÄĽÅ¾i": 1983,
      "bil": 1984,
      "eka": 1985,
      "ime": 1986,
      "tit": 1987,
      "ĠhoÅĻÃŃ": 1988,
      "Ġzmi": 1989,
      "dne": 1990,
      "Ġdivo": 1991,
      "Ġstej": 1992,
      "ĠvÄĽru": 1993,
      "Ġboji": 1994,
      "kud": 1995,
      "Ġzav": 1996,
      "uÄįi": 1997,
      "aver": 1998,
      "ĠmyÅ¡len": 1999,
      "Ġdos": 2000,
      "ine": 2001,
      "iÅ¡e": 2002,
      "Ġcestu": 2003,
      "Ġzv": 2004,
      "Ġdruh": 2005,
      "LO": 2006,
      "ĠXaver": 2007,
      "stÅĻÃŃ": 2008,
      "Ġpocho": 2009,
      "ur": 2010,
      "chÃ¡zÃŃ": 2011,
      "Ġy": 2012,
      "ĠDvo": 2013,
      "ĠsvojÃŃ": 2014,
      "Ġsoud": 2015,
      "ete": 2016,
      "stin": 2017,
      "ĠkÅĻÃŃÅ¾": 2018,
      "dÅ¯": 2019,
      "Ġmatka": 2020,
      "dlÃ½": 2021,
      "Ġcos": 2022,
      "ĠzpÃŃvÃ¡": 2023,
      "van": 2024,
      "dit": 2025,
      "Å¡t": 2026,
      "Ġol": 2027,
      "ĠzlatÃ½": 2028,
      "Ġret": 2029,
      "olem": 2030,
      "Äįera": 2031,
      "ĠzÅĻel": 2032,
      "Ġjaro": 2033,
      "ĠXXXXXXXXXXXX": 2034,
      "lost": 2035,
      "ĠneznÃ¡m": 2036,
      "ĠÅ¡at": 2037,
      "ĠvidÃŃm": 2038,
      "ĠDvoÅĻÃ¡": 2039,
      "ĠmlÃ¡dÃŃ": 2040,
      "Ġou": 2041,
      "Ġchud": 2042,
      "ĠvaÅ¡e": 2043,
      "Ġotev": 2044,
      "uku": 2045,
      "ĠRO": 2046,
      "udu": 2047,
      "ĠrÃ¡na": 2048,
      "aÅĻ": 2049,
      "aru": 2050,
      "fÃŃ": 2051,
      "nÃ½mi": 2052,
      "cy": 2053,
      "nostÃŃ": 2054,
      "ĠjistÄĽ": 2055,
      "udy": 2056,
      "ĠdvÄĽ": 2057,
      "bor": 2058,
      "ĠkaÅ¾dÃ©": 2059,
      "hÅ¯ru": 2060,
      "PÄļV": 2061,
      "aÅ¡i": 2062,
      "Ġrov": 2063,
      "stvo": 2064,
      "ĠsvatÃ©": 2065,
      "CX": 2066,
      "ÄĽle": 2067,
      "ĠmÃ©ho": 2068,
      "ĠzpÄĽt": 2069,
      "ary": 2070,
      "ĠnÄĽkdy": 2071,
      "ĠpÃŃsnÃŃ": 2072,
      "lenÃŃ": 2073,
      "ĠlidÃ©": 2074,
      "Ġpolo": 2075,
      "Ġuli": 2076,
      "ĠRu": 2077,
      "skÃ©ho": 2078,
      "iz": 2079,
      "kli": 2080,
      "ĠvÅ¡ude": 2081,
      "Ġmr": 2082,
      "eneÅ¡": 2083,
      "ĠmilÃ½": 2084,
      "ĠsvÄĽtla": 2085,
      "ĠopÄĽt": 2086,
      "Ġboha": 2087,
      "ĠmilÃ¡": 2088,
      "tla": 2089,
      "Ġbohu": 2090,
      "stup": 2091,
      "ĠhoÅĻe": 2092,
      "ise": 2093,
      "ota": 2094,
      "rÃ½m": 2095,
      "Ġkouz": 2096,
      "ĠmÃ¡lo": 2097,
      "ĠÄĮer": 2098,
      "ĠkrÃ¡t": 2099,
      "lÃ©m": 2100,
      "ĠpÄĽk": 2101,
      "sal": 2102,
      "edi": 2103,
      "ĠnuÅ¾": 2104,
      "ĠdomÅ¯": 2105,
      "ĠnÄĽmu": 2106,
      "ĠnemÃ¡": 2107,
      "Ġzve": 2108,
      "Ġsny": 2109,
      "ĠpÅĻiÅ¡el": 2110,
      "Ã¡t": 2111,
      "Ġstrom": 2112,
      "Ġvzdo": 2113,
      "!...": 2114,
      "Ġrozp": 2115,
      "mÄĽl": 2116,
      "ĠJuli": 2117,
      "Ġbohat": 2118,
      "sce": 2119,
      "eÄįi": 2120,
      "pas": 2121,
      "ĠkrÃ¡lov": 2122,
      "rÃ¡z": 2123,
      "din": 2124,
      "ora": 2125,
      "ĠsÃŃly": 2126,
      "sno": 2127,
      "Ġhy": 2128,
      "ĠslÃ¡vy": 2129,
      "nov": 2130,
      "eje": 2131,
      "dina": 2132,
      "Ġzr": 2133,
      "ĠzÃ¡ÅĻi": 2134,
      "Ġov": 2135,
      "ĠmÃŃsto": 2136,
      "ĠvÅ¡echno": 2137,
      "Ġvyp": 2138,
      "Ġsvoji": 2139,
      "ĠJulius": 2140,
      "ĠDvoÅĻÃ¡k": 2141,
      "ĠpÅĻijde": 2142,
      "ĠandÄĽl": 2143,
      "Ġvele": 2144,
      "ĠÅ¡um": 2145,
      "Ġsama": 2146,
      "ĠprÃ¡ci": 2147,
      "nych": 2148,
      "ĠprÃ¡vÄĽ": 2149,
      "Ġsyn": 2150,
      "ĠprÃ¡ce": 2151,
      "CDDC": 2152,
      "ĠpÅĻij": 2153,
      "adÄĽ": 2154,
      "EM": 2155,
      "Ġvrch": 2156,
      "dr": 2157,
      "ĠXXXXXX": 2158,
      "ĠnÄĽmÅ¾": 2159,
      "bal": 2160,
      "Ġtan": 2161,
      "nÃ¡nÃŃ": 2162,
      "ĠkrÃ¡sy": 2163,
      "ĠneÅ¾li": 2164,
      "Ã¡k": 2165,
      "Ã¡n": 2166,
      "ĠABAAB": 2167,
      "ĠÅ¾Ã¡r": 2168,
      "ĠBeneÅ¡": 2169,
      "sÃŃce": 2170,
      "sek": 2171,
      "ĠABABAB": 2172,
      "ĠdÄĽt": 2173,
      "tÄĽl": 2174,
      "ĠstÃŃny": 2175,
      "ĠvÄĽÄįnÄĽ": 2176,
      "uÅ¡e": 2177,
      "Ġprch": 2178,
      "ĠrÅ¯Å¾": 2179,
      "ĠbouÅĻe": 2180,
      "ut": 2181,
      "ĠXXXXX": 2182,
      "Ġrychle": 2183,
      "GGHH": 2184,
      "ÄĽtu": 2185,
      "Å¾eh": 2186,
      "ive": 2187,
      "uk": 2188,
      "ĠknÃŃ": 2189,
      "Å¾it": 2190,
      "ĠplÃ¡Äį": 2191,
      "ĠXAA": 2192,
      "aÅ¾": 2193,
      "tro": 2194,
      "yla": 2195,
      "ody": 2196,
      "RÃģ": 2197,
      "Ġspolu": 2198,
      "Ġhlad": 2199,
      "ĠnaÅ¡ÃŃ": 2200,
      "ĠÅĻÃ¡": 2201,
      "Ġslovo": 2202,
      "Ġtrochu": 2203,
      "ĠpovÄĽ": 2204,
      "mÄĽnÃŃ": 2205,
      "ĠÅ¡ko": 2206,
      "dÄĽj": 2207,
      "ĠvzhÅ¯ru": 2208,
      "ĠtrÅ¯": 2209,
      "Äįit": 2210,
      "atku": 2211,
      "Ġkoru": 2212,
      "Ġbuj": 2213,
      "ĠZey": 2214,
      "enu": 2215,
      "one": 2216,
      "AL": 2217,
      "eÅĻi": 2218,
      "ĠZeyer": 2219,
      "Ġct": 2220,
      "ĠdÄĽs": 2221,
      "Ġmilu": 2222,
      "neÅ¡": 2223,
      "Ġhovo": 2224,
      "Ġzjev": 2225,
      "chÃ¡zka": 2226,
      "Ġsvi": 2227,
      "ĠpÅĻem": 2228,
      "ÄįnÃ½": 2229,
      "ĠmoÅ¾": 2230,
      "iji": 2231,
      "CI": 2232,
      "asa": 2233,
      "ih": 2234,
      "ĠÅ¾lu": 2235,
      "Å¡ku": 2236,
      "Ġzvolna": 2237,
      "dÃ¡m": 2238,
      "ĠznÄĽ": 2239,
      "Ġnapo": 2240,
      "elo": 2241,
      "ĠvÄĽr": 2242,
      "roj": 2243,
      "VI": 2244,
      "ĠzrÃ¡": 2245,
      "Ġopu": 2246,
      "ĠnevÃŃ": 2247,
      "ĠkvÄĽtÅ¯": 2248,
      "DD": 2249,
      "aÅĪ": 2250,
      "ĠslyÅ¡": 2251,
      "Ġtolik": 2252,
      "asem": 2253,
      "Ġhospo": 2254,
      "kÃ¡nÃŃ": 2255,
      "Å¾ÃŃm": 2256,
      "Ġsvit": 2257,
      "ĠtisÃŃc": 2258,
      "Å¡ky": 2259,
      "hled": 2260,
      "Ġprach": 2261,
      "ĠdolÅ¯": 2262,
      "Ġbol": 2263,
      "onu": 2264,
      "ĠhruÄı": 2265,
      "ĠzÅĻÃŃm": 2266,
      "lze": 2267,
      "ĠhlÃ¡": 2268,
      "ĠmÃ¡Å¡": 2269,
      "ĠProchÃ¡zka": 2270,
      "stem": 2271,
      "Ġkrva": 2272,
      "Ġcit": 2273,
      "Ġbudu": 2274,
      "ĠXAX": 2275,
      "zim": 2276,
      "ĠVE": 2277,
      "hod": 2278,
      "ĠtvÃ¡ÅĻe": 2279,
      "eÅ¾i": 2280,
      "Ġmysli": 2281,
      "ĠdÃ¡m": 2282,
      "ĠlidÃŃ": 2283,
      "ĠkvÄĽ": 2284,
      "Ġbyli": 2285,
      "Ġtouhy": 2286,
      "ĠjakÃ©": 2287,
      "skÃ©m": 2288,
      "ĠtvÃ¡ÅĻÃŃ": 2289,
      "ĠptÃ¡k": 2290,
      "Ġbyly": 2291,
      "ĠlÃ¡sce": 2292,
      "ĠSV": 2293,
      "ĠpojÄı": 2294,
      "Ġran": 2295,
      "Ġzu": 2296,
      "Ġsr": 2297,
      "ĠdÄĽv": 2298,
      "ĠÃºst": 2299,
      "ama": 2300,
      "lÃ©b": 2301,
      "ĠIII": 2302,
      "Ġblaho": 2303,
      "ĠnocÃŃ": 2304,
      "outi": 2305,
      "etu": 2306,
      "ĠzaÄį": 2307,
      "del": 2308,
      "Ġzdra": 2309,
      "ÅĻela": 2310,
      "nÄĽm": 2311,
      "ĠSera": 2312,
      "ĠmÃŃr": 2313,
      "ĠSerafÃŃ": 2314,
      "ĠvÅ¯nÄĽ": 2315,
      "ĠÄįernÃ©": 2316,
      "ĠmÄĽsÃŃc": 2317,
      "vod": 2318,
      "ĠtvÃ¡ÅĻi": 2319,
      "ĠÄı": 2320,
      "Ġducha": 2321,
      "stil": 2322,
      "ĠmÄĽk": 2323,
      "Ġbohem": 2324,
      "Ġopo": 2325,
      "cit": 2326,
      "ĠSerafÃŃnskÃ½": 2327,
      "Ġzraky": 2328,
      "ymi": 2329,
      "nula": 2330,
      "Ġzbra": 2331,
      "Ãº": 2332,
      "nat": 2333,
      "Ġaj": 2334,
      "ĠnichÅ¾": 2335,
      "Å¡ichni": 2336,
      "Ġsamo": 2337,
      "Ġlesy": 2338,
      "bec": 2339,
      "ĠpÅ¯j": 2340,
      "lez": 2341,
      "ĠAABBCCDDEEFF": 2342,
      "Ġhlubi": 2343,
      "iky": 2344,
      "ĠvÅ¡ichni": 2345,
      "Ġvlny": 2346,
      "ger": 2347,
      "ĠskrÃ½": 2348,
      "asti": 2349,
      "ĠztrÃ¡": 2350,
      "Å¡et": 2351,
      "Ġdoby": 2352,
      "Ġkdes": 2353,
      "Ġhrad": 2354,
      "liÅ¡ka": 2355,
      "horskÃ¡": 2356,
      "Ġvzp": 2357,
      "ĠtÅĻpy": 2358,
      "zal": 2359,
      "Ġsebou": 2360,
      "ĠsnÃŃh": 2361,
      "Ġzap": 2362,
      "vÅ¯": 2363,
      "vila": 2364,
      "Ġprost": 2365,
      "ĠÄįekÃ¡": 2366,
      "KY": 2367,
      "rÃ¡sno": 2368,
      "nym": 2369,
      "ĠEliÅ¡ka": 2370,
      "rÃ¡snohorskÃ¡": 2371,
      "ĠmÄĽsta": 2372,
      "Ġprsou": 2373,
      "Ġbratr": 2374,
      "cel": 2375,
      "Ġvon": 2376,
      "Äįet": 2377,
      "skÃ½m": 2378,
      "kaz": 2379,
      "ĠdÃ½m": 2380,
      "Ġmodlit": 2381,
      "ĠmyÅ¡lÃ©": 2382,
      "Ġznova": 2383,
      "letÃŃ": 2384,
      "vÄĽl": 2385,
      "tila": 2386,
      "Ġspat": 2387,
      "elem": 2388,
      "Ġop": 2389,
      "koj": 2390,
      "ap": 2391,
      "ET": 2392,
      "Ġzk": 2393,
      "ĠtÅĻÃŃ": 2394,
      "ovÃ¡": 2395,
      "Ġbal": 2396,
      "Ġzdvi": 2397,
      "Ġzahra": 2398,
      "Ġas": 2399,
      "ĠsladkÃ©": 2400,
      "ĠnaÅ¡ich": 2401,
      "ÅĺÃį": 2402,
      "ĠZpÄĽv": 2403,
      "ival": 2404,
      "sÃŃm": 2405,
      "Ġchod": 2406,
      "Ġhoj": 2407,
      "eme": 2408,
      "Ġkap": 2409,
      "ĠpÅĻÃŃro": 2410,
      "ĠtÄĽla": 2411,
      "inou": 2412,
      "oby": 2413,
      "ĠvÃ½Å¡": 2414,
      "ĠjinÃ©": 2415,
      "toka": 2416,
      "Ġvyz": 2417,
      "Ġtvrd": 2418,
      "Ġnap": 2419,
      "nici": 2420,
      "eto": 2421,
      "ugu": 2422,
      "ĠsvÄĽtem": 2423,
      "Ġdosud": 2424,
      "valy": 2425,
      "Ġpozdra": 2426,
      "ĠkÅĻÃŃdla": 2427,
      "ĠzvÃŃ": 2428,
      "AA": 2429,
      "ist": 2430,
      "Ġoku": 2431,
      "teli": 2432,
      "ĠhoÅĻ": 2433,
      "Ġvody": 2434,
      "ĠkrÃ¡snÃ©": 2435,
      "Ã¡ch": 2436,
      "ĠvÄĽky": 2437,
      "Ġobz": 2438,
      "ĠvlÃŃ": 2439,
      "ĠDost": 2440,
      "ĠkdoÅ¾": 2441,
      "uka": 2442,
      "Ġchla": 2443,
      "novÃ©": 2444,
      "Ġmilost": 2445,
      "ĠkrvÃŃ": 2446,
      "Ġklen": 2447,
      "yÅ¡e": 2448,
      "Å¾nÃ©": 2449,
      "ĠRudolf": 2450,
      "ĠÅ¡ed": 2451,
      "Ġobra": 2452,
      "Ġchmu": 2453,
      "ĠslyÅ¡ÃŃ": 2454,
      "ĠblÃŃÅ¾": 2455,
      "ĠprÅ¯": 2456,
      "ĠmÃ½m": 2457,
      "Ġdomo": 2458,
      "ĠzmÃŃ": 2459,
      "Ġstud": 2460,
      "atu": 2461,
      "echu": 2462,
      "ĠÄįaro": 2463,
      "Ġvyso": 2464,
      "ĠnaÅ¡i": 2465,
      "NO": 2466,
      "ber": 2467,
      "Ġstru": 2468,
      "Ġjara": 2469,
      "ĠstÄĽ": 2470,
      "ĠvstÅĻÃŃ": 2471,
      "Ġpest": 2472,
      "ĠvÃ½Å¡e": 2473,
      "Ġperu": 2474,
      "asne": 2475,
      "Ã¡r": 2476,
      "ĠusmÃŃ": 2477,
      "tk": 2478,
      "Ġply": 2479,
      "ĠsnÄĽnÃŃ": 2480,
      "Ġokem": 2481,
      "lois": 2482,
      "Ã¡men": 2483,
      "out": 2484,
      "rom": 2485,
      "jat": 2486,
      "ĠbÃŃlÃ¡": 2487,
      "Ġcesty": 2488,
      "ckÃ©": 2489,
      "ĠvstÅĻÃŃc": 2490,
      "ĠhnÃŃ": 2491,
      "Ġstaro": 2492,
      "ĠslÃ¡va": 2493,
      "zeÅĪ": 2494,
      "Ġpta": 2495,
      "ĠmoÅĻi": 2496,
      "ĠcelÃ¡": 2497,
      "ĠlÃŃce": 2498,
      "Ġdrob": 2499,
      "ĠstarÃ¡": 2500,
      "ĠÅ¾iv": 2501,
      "Ġtakto": 2502,
      "ĠAlois": 2503,
      "ĠÄįasem": 2504,
      "ĠÅĻeÄį": 2505,
      "ĠmÃŃt": 2506,
      "Ġpout": 2507,
      "asi": 2508,
      "yli": 2509,
      "cela": 2510,
      "Ġvzal": 2511,
      "ĠtoÅ¾": 2512,
      "ĠvzdÃ¡": 2513,
      "leh": 2514,
      "Ġver": 2515,
      "Ġotro": 2516,
      "Ġnelze": 2517,
      "ĠchÃ½": 2518,
      "dila": 2519,
      "Ġslunci": 2520,
      "ĠslavÃŃ": 2521,
      "ĠnevÃŃm": 2522,
      "ĠnaÄį": 2523,
      "Ġmilen": 2524,
      "Ġkli": 2525,
      "ĠdÃ©": 2526,
      "ĠtÃ½": 2527,
      "Ġtm": 2528,
      "ĠmluvÃŃ": 2529,
      "Ã½vÃ¡": 2530,
      "ovu": 2531,
      "tak": 2532,
      "Ġpropa": 2533,
      "Ġubo": 2534,
      "nÃ¡Å¡ÃŃ": 2535,
      "aÄį": 2536,
      "ĠsedÃŃ": 2537,
      "liÅ¡": 2538,
      "IT": 2539,
      "kovskÃ½": 2540,
      "OR": 2541,
      "iÅ¡": 2542,
      "ĠAugu": 2543,
      "nila": 2544,
      "dej": 2545,
      "Ġobje": 2546,
      "ke": 2547,
      "ÅĻenÃŃ": 2548,
      "ir": 2549,
      "Ġmatky": 2550,
      "ĠdÃ½ch": 2551,
      "Ġtouha": 2552,
      "Ġval": 2553,
      "Ġhrobu": 2554,
      "ĠAABCB": 2555,
      "Å¾nÃ½": 2556,
      "zdy": 2557,
      "ĠzaÅ¡": 2558,
      "ĠHo": 2559,
      "kone": 2560,
      "Ġjedna": 2561,
      "Ġhloub": 2562,
      "zra": 2563,
      "ĠcÃŃtÃŃ": 2564,
      "ĠmyslÃŃ": 2565,
      "Ġdav": 2566,
      "ĠbÄĽda": 2567,
      "Ġcestou": 2568,
      "jel": 2569,
      "ĠzÃ¡ÅĻe": 2570,
      "Ġtisk": 2571,
      "ĠÅ¡la": 2572,
      "chÃ½": 2573,
      "vÃ©ho": 2574,
      "emnÄĽ": 2575,
      "ĠdÃŃvÃ¡": 2576,
      "ĠÄįele": 2577,
      "aÅ¾i": 2578,
      "ĠABABA": 2579,
      "ĠpyÅ¡": 2580,
      "ĠÄįt": 2581,
      "okem": 2582,
      "NÄļ": 2583,
      "up": 2584,
      "ĠzÃ¡pad": 2585,
      "ĠnÃ¡d": 2586,
      "ĠÅ¾ije": 2587,
      "ony": 2588,
      "ere": 2589,
      "mem": 2590,
      "ĠMu": 2591,
      "Å¾ÃŃk": 2592,
      "edni": 2593,
      "Å¾enÃŃ": 2594,
      "ĠjakÃ¡": 2595,
      "ĠjinÃ½": 2596,
      "lnÄĽ": 2597,
      "ĠzÃ¡m": 2598,
      "Ġoblo": 2599,
      "Ġmohu": 2600,
      "ĠLE": 2601,
      "Ġvzduch": 2602,
      "ĠmÄĽla": 2603,
      "zen": 2604,
      "Ġzvy": 2605,
      "Ġdole": 2606,
      "asky": 2607,
      "Ġkrok": 2608,
      "Ġsho": 2609,
      "ĠbouÅĻÃŃ": 2610,
      "ĠkÅ¯": 2611,
      "Ġkterak": 2612,
      "Ġsest": 2613,
      "ĠXABBA": 2614,
      "ave": 2615,
      "tajÃŃ": 2616,
      "cu": 2617,
      "Ġpe": 2618,
      "ĠjÃŃÅ¾": 2619,
      "ini": 2620,
      "Ġkterou": 2621,
      "mr": 2622,
      "Ġlep": 2623,
      "usi": 2624,
      "ĠnÄĽco": 2625,
      "Ġkmi": 2626,
      "ede": 2627,
      "tokar": 2628,
      "ĠplnÃ½": 2629,
      "ĠsladkÃ½": 2630,
      "Ġzti": 2631,
      "bra": 2632,
      "Ġ,": 2633,
      "Ġdoma": 2634,
      "Ġvedle": 2635,
      "Ġhej": 2636,
      "Ġvod": 2637,
      "ĠOtokar": 2638,
      "kÅĻik": 2639,
      "Ġnen": 2640,
      "adla": 2641,
      "hnu": 2642,
      "Äįkou": 2643,
      "ĠdlouhÃ©": 2644,
      "ĠÄįela": 2645,
      "Ġohni": 2646,
      "ĠmojÃŃ": 2647,
      "ĠsvÃ©mu": 2648,
      "Ġvzdech": 2649,
      "ĠtvÃ©ho": 2650,
      "ĠST": 2651,
      "Ġcelou": 2652,
      "edu": 2653,
      "vad": 2654,
      "Ġklas": 2655,
      "ĠdÃ½": 2656,
      "Ġkdysi": 2657,
      "ĠvÅ¡echny": 2658,
      "Ġkonec": 2659,
      "valo": 2660,
      "Ġzi": 2661,
      "ĠdobrÃ©": 2662,
      "dka": 2663,
      "ĠdruhÃ½": 2664,
      "Ġmd": 2665,
      "ĠcÃŃsa": 2666,
      "Ġdosti": 2667,
      "NA": 2668,
      "uce": 2669,
      "Ġsh": 2670,
      "ĠjarnÃŃ": 2671,
      "ĠdÄĽc": 2672,
      "ĠstromÅ¯": 2673,
      "Ġminu": 2674,
      "oup": 2675,
      "ĠskÃ¡ly": 2676,
      "Ġvna": 2677,
      "ĠÃºsta": 2678,
      "ĠpravÃŃ": 2679,
      "Ġhlasem": 2680,
      "ĠtÄĽm": 2681,
      "ĠZPÄļV": 2682,
      "ÅĻÃ¡s": 2683,
      "ĠmÃ©m": 2684,
      "Ġkraje": 2685,
      "kala": 2686,
      "diny": 2687,
      "ĠÄįin": 2688,
      "Ġmist": 2689,
      "bude": 2690,
      "ugen": 2691,
      "ĠmladÃ½": 2692,
      "Ġoba": 2693,
      "ĠAugustin": 2694,
      "ĠuÄįi": 2695,
      "ohou": 2696,
      "kat": 2697,
      "obu": 2698,
      "zo": 2699,
      "mek": 2700,
      "iÄįka": 2701,
      "ĠEugen": 2702,
      "ĠMuÅ¾ÃŃk": 2703,
      "ĠhÅĻe": 2704,
      "Ġnaz": 2705,
      "iÅ¾e": 2706,
      "lesk": 2707,
      "Äįin": 2708,
      "esa": 2709,
      "Ġples": 2710,
      "osi": 2711,
      "Ġchyt": 2712,
      "vinka": 2713,
      "ĠhlavÄĽ": 2714,
      "Ġnohou": 2715,
      "dÄĽli": 2716,
      "iru": 2717,
      "spoÅĪ": 2718,
      "lÃ©t": 2719,
      "nÃŃkÅ¯": 2720,
      "ĠdÃ¡lky": 2721,
      "ĠstÃŃnu": 2722,
      "ovÄĽ": 2723,
      "ĠoheÅĪ": 2724,
      "ĠbyÅ¥": 2725,
      "iÅĻi": 2726,
      "ĠsvÄĽÅ¾ÃŃ": 2727,
      "mil": 2728,
      "ÅĻek": 2729,
      "ĠlidskÃ©": 2730,
      "Ġvzdy": 2731,
      "ĠkaÅ¾dÃ¡": 2732,
      "ĠvÄĽÄįnÃ©": 2733,
      "Ġju": 2734,
      "hra": 2735,
      "ĠdruhÃ©": 2736,
      "Ġkva": 2737,
      "rÃ¡ch": 2738,
      "ĠchceÅ¡": 2739,
      "Ġpil": 2740,
      "Ġchvil": 2741,
      "ĠkrÃ¡snÃ¡": 2742,
      "pen": 2743,
      "tost": 2744,
      "Ġvlasy": 2745,
      "NI": 2746,
      "her": 2747,
      "ben": 2748,
      "ĠklidnÄĽ": 2749,
      "ĠJi": 2750,
      "ĠkÃ¡men": 2751,
      "ĠnadÄĽje": 2752,
      "Ġvsta": 2753,
      "Ġzapad": 2754,
      "ĠhledÃ¡": 2755,
      "ruda": 2756,
      "ĠstraÅ¡": 2757,
      "Ġzpo": 2758,
      "ĠÅĻÃŃci": 2759,
      "rech": 2760,
      "ouze": 2761,
      "ĠvÃ¡l": 2762,
      "edne": 2763,
      "ĠhlÃŃ": 2764,
      "kot": 2765,
      "dat": 2766,
      "uchu": 2767,
      "ety": 2768,
      "Ġcesta": 2769,
      "Ġal": 2770,
      "ÄĽk": 2771,
      "hÃ½ch": 2772,
      "Ġruky": 2773,
      "ĠtvÃ½m": 2774,
      "lÃ¡r": 2775,
      "ĠtÃ¡h": 2776,
      "ĠhnÃŃz": 2777,
      "ĠdÃ¡vÃ¡": 2778,
      "Ġokam": 2779,
      "Ġjinak": 2780,
      "Ġrty": 2781,
      "ĠdrahÃ©": 2782,
      "ylo": 2783,
      "ĠmnohÃ½": 2784,
      "ĠIV": 2785,
      "idu": 2786,
      "mlu": 2787,
      "rti": 2788,
      "ĠzdrÃ¡": 2789,
      "vej": 2790,
      "ĠNeruda": 2791,
      "amen": 2792,
      "ĠrÃ¡no": 2793,
      "prv": 2794,
      "ĠmuÅ¾i": 2795,
      "ĠÅ¾ÃŃt": 2796,
      "ĠmladÃ©": 2797,
      "ĠrozkoÅ¡": 2798,
      "ĠtvÃ©m": 2799,
      "bit": 2800,
      "pol": 2801,
      "ĠÄĮervinka": 2802,
      "ĠoltÃ¡": 2803,
      "EL": 2804,
      "ĠkrÃ¡ÄįÃŃ": 2805,
      "ĠzÃŃtra": 2806,
      "ista": 2807,
      "ĠsÃŃla": 2808,
      "ĠdrahÃ¡": 2809,
      "nÄĽv": 2810,
      "VÄļ": 2811,
      "avil": 2812,
      "Ġman": 2813,
      "Ġkar": 2814,
      "ĠdvÃ©": 2815,
      "ĠplnÃ©": 2816,
      "ĠdobrÃ½": 2817,
      "Ġslz": 2818,
      "yÅ¡i": 2819,
      "ĠrÅ¯Å¾ÃŃ": 2820,
      "ĠhleÄı": 2821,
      "ÅĺI": 2822,
      "ĠpÅĻÃŃliÅ¡": 2823,
      "ÅĻenÃ©": 2824,
      "ĠAAA": 2825,
      "ĠOtak": 2826,
      "ĠOtakar": 2827,
      "ĠskvÄĽ": 2828,
      "ĠaspoÅĪ": 2829,
      "Å¡ÃŃch": 2830,
      "ĠcÃŃtÃŃm": 2831,
      "ĠslyÅ¡el": 2832,
      "KU": 2833,
      "Å¡lo": 2834,
      "ĠÄįest": 2835,
      "ĠlÃ©ta": 2836,
      "atou": 2837,
      "ĠkÃ©": 2838,
      "kali": 2839,
      "manu": 2840,
      "ĠtÃ©to": 2841,
      "ĠBohu": 2842,
      "Luti": 2843,
      "ĠDostÃ¡l": 2844,
      "Lutinov": 2845,
      "ĠrÃ¡ny": 2846,
      "Ġsmys": 2847,
      "bek": 2848,
      "ĠDO": 2849,
      "Ġrozum": 2850,
      "ĠjehoÅ¾": 2851,
      "zna": 2852,
      "Ġdobro": 2853,
      "ÄĽtem": 2854,
      "Ġnekone": 2855,
      "Ġprosto": 2856,
      "ĠvÄĽtr": 2857,
      "ĠABABABCC": 2858,
      "ĠmodrÃ©": 2859,
      "ĠÅ¾h": 2860,
      "edy": 2861,
      "ĠâĢĵ": 2862,
      "Ġpop": 2863,
      "ĠloÄı": 2864,
      "ĠhnÄĽv": 2865,
      "kro": 2866,
      "oda": 2867,
      "CK": 2868,
      "tnÃ©": 2869,
      "yne": 2870,
      "ĠmotÃ½": 2871,
      "dky": 2872,
      "Ġpravil": 2873,
      "ĠpovÃŃ": 2874,
      "etr": 2875,
      "Ġjakby": 2876,
      "Ġzapom": 2877,
      "ĠÅ¾il": 2878,
      "ĠtichÃ½": 2879,
      "US": 2880,
      "izi": 2881,
      "ĠhÅĻÃŃch": 2882,
      "Ġned": 2883,
      "ÄĽv": 2884,
      "Ġnade": 2885,
      "oha": 2886,
      "Ġslov": 2887,
      "Ġznovu": 2888,
      "aÄįe": 2889,
      "ĠtichÃ©": 2890,
      "bito": 2891,
      "Å¾ik": 2892,
      "koli": 2893,
      "ĠkÅĻÃŃd": 2894,
      "ĠPRO": 2895,
      "ĠXXXXXXX": 2896,
      "ĠmÃ¡me": 2897,
      "ĠzatÃŃm": 2898,
      "ĠkÃ©Å¾": 2899,
      "XXXXXXXXXXXX": 2900,
      "ĠvÃŃÅ¡": 2901,
      "itu": 2902,
      "Ġzam": 2903,
      "Ġvln": 2904,
      "ĠpÃŃsni": 2905,
      "ĠVI": 2906,
      "ĠlistÃŃ": 2907,
      "ĠHolÃ½": 2908,
      "ĠkrÃ¡li": 2909,
      "ĠdÅ¯m": 2910,
      "vati": 2911,
      "chal": 2912,
      "manuel": 2913,
      "sed": 2914,
      "Ġjdu": 2915,
      "ĠEmanuel": 2916,
      "vra": 2917,
      "Ġkost": 2918,
      "ĠjÃŃmÅ¾": 2919,
      "Ġtmy": 2920,
      "Ġpravda": 2921,
      "lila": 2922,
      "ĠÄįernÃ½": 2923,
      "ĠKol": 2924,
      "NE": 2925,
      "Ġset": 2926,
      "ĠtisÃŃce": 2927,
      "ĠmuÅ¾e": 2928,
      "lep": 2929,
      "Ġlese": 2930,
      "ĠknÃŃÅ¾e": 2931,
      "ĠrytÃŃ": 2932,
      "ĠÅĻad": 2933,
      "ĠkvÃŃtÃŃ": 2934,
      "ÅĻÃŃt": 2935,
      "esu": 2936,
      "ĠchrÃ¡m": 2937,
      "oly": 2938,
      "ĠKal": 2939,
      "Ġprapo": 2940,
      "Ã¡bo": 2941,
      "ĠKrÃ¡snohorskÃ¡": 2942,
      "ĠrÃ¡j": 2943,
      "ĠpoÅ¾eh": 2944,
      "Ġpry": 2945,
      "met": 2946,
      "Ġroste": 2947,
      "uhu": 2948,
      "ĠzÃ¡vo": 2949,
      "EED": 2950,
      "Ġhoch": 2951,
      "Ġbrzy": 2952,
      "ĠvÄĽkÅ¯": 2953,
      "ĠlesÅ¯": 2954,
      "Ġasi": 2955,
      "ĠKalus": 2956,
      "ĠvÄĽtÅ¡ÃŃ": 2957,
      "ĠblaÅ¾en": 2958,
      "Ġnebyl": 2959,
      "Ġhar": 2960,
      "Ġstvo": 2961,
      "ĠbudeÅ¡": 2962,
      "Ġradosti": 2963,
      "cenÃ©": 2964,
      "Ġotce": 2965,
      "ĠchvÄĽje": 2966,
      "klÃ¡": 2967,
      "ĠjichÅ¾": 2968,
      "Ġstromy": 2969,
      "Ġtouhou": 2970,
      "ÃĿCH": 2971,
      "Ġsrdcem": 2972,
      "ĠKollÃ¡r": 2973,
      "anem": 2974,
      "orem": 2975,
      "Ġlesa": 2976,
      "ĠtÅĻetÃŃ": 2977,
      "PO": 2978,
      "Ġstesk": 2979,
      "ĠchodÃŃ": 2980,
      "Ġpodzim": 2981,
      "ĠmalÃ½": 2982,
      "ĠNO": 2983,
      "ader": 2984,
      "Ġblanky": 2985,
      "Ġano": 2986,
      "Ġdoko": 2987,
      "Ġvede": 2988,
      "ĠmÃŃru": 2989,
      "ĠÅ¾ha": 2990,
      "ĠhvÄĽzda": 2991,
      "Ġkal": 2992,
      "LÃģ": 2993,
      "teÄį": 2994,
      "Ġnapos": 2995,
      "skem": 2996,
      "ĠkrÃ¡snÃ½": 2997,
      "Ġtento": 2998,
      "ÄĽjÅ¡i": 2999,
      "ÄĽna": 3000,
      "ichu": 3001,
      "Ġmoji": 3002,
      "Ġprachu": 3003,
      "Ġboje": 3004,
      "ÄĽta": 3005,
      "lÃ©ho": 3006,
      "Ġsnu": 3007,
      "uÅ¡il": 3008,
      "Ġjazy": 3009,
      "Ġzvuk": 3010,
      "dÄĽnÃŃ": 3011,
      "ĠlÅ¯": 3012,
      "Ġhloubi": 3013,
      "ouÅ¾i": 3014,
      "Ġjiz": 3015,
      "Ġbeze": 3016,
      "Ġdle": 3017,
      "Ġmrak": 3018,
      "VA": 3019,
      "stoup": 3020,
      "ĠÅ¡umÃŃ": 3021,
      "atem": 3022,
      "sel": 3023,
      "pÄĽl": 3024,
      "ĠbratÅĻÃŃ": 3025,
      "ĠNeje": 3026,
      "ju": 3027,
      "ĠÅĻeÄįi": 3028,
      "rÃ¡m": 3029,
      "ĠmilÃ©": 3030,
      "ĠpÅĻede": 3031,
      "atÄĽ": 3032,
      "ĠÅ¾eh": 3033,
      "Ġtrp": 3034,
      "ejte": 3035,
      "LU": 3036,
      "Ġokna": 3037,
      "ĠÅĻekl": 3038,
      "ĠsmÃ¡": 3039,
      "ĠNejedlÃ½": 3040,
      "eÅ¾": 3041,
      "bnÃŃ": 3042,
      "ĠÅ¾alo": 3043,
      "isi": 3044,
      "ĠzÃ¡ko": 3045,
      "Ġvez": 3046,
      "oky": 3047,
      "ĠrÃ¡z": 3048,
      "Ġklam": 3049,
      "ĠslyÅ¡ÃŃm": 3050,
      "Ġvyh": 3051,
      "Ġspou": 3052,
      "ĠpÅĻÃŃÅ¡tÃŃ": 3053,
      "ĠhÅĻbito": 3054,
      "ĠmajÃŃ": 3055,
      "esen": 3056,
      "Ġha": 3057,
      "ĠTÃ¡bo": 3058,
      "ĠABABCCB": 3059,
      "nosÅ¥": 3060,
      "lk": 3061,
      "ĠnÃ¡ruÄį": 3062,
      "Ġvti": 3063,
      "ĠsplÃ½": 3064,
      "Ġdarmo": 3065,
      "amy": 3066,
      "iha": 3067,
      "ĠTÃ¡borskÃ½": 3068,
      "ĠbÃ¡snÃŃ": 3069,
      "Ġposud": 3070,
      "Ġnemoh": 3071,
      "ĠnedÃ¡": 3072,
      "les": 3073,
      "Äįej": 3074,
      "tÃ¡m": 3075,
      "ĠkrÃ¡le": 3076,
      "ĠpÃ¡r": 3077,
      "ĠsÃŃlu": 3078,
      "enec": 3079,
      "ednou": 3080,
      "ĠplÃ¡Äįe": 3081,
      "ĠNone": 3082,
      "ĠÄıÃ¡": 3083,
      "Å¾ka": 3084,
      "ĠPÃŃ": 3085,
      "Ġhrudi": 3086,
      "ahu": 3087,
      "ĠbouÅĻi": 3088,
      "Ġmrtvo": 3089,
      "ĠdÃŃvka": 3090,
      "ĠvÃŃru": 3091,
      "tele": 3092,
      "tru": 3093,
      "ĠbÅĻehu": 3094,
      "ĠvzÃ¡c": 3095,
      "Ġrod": 3096,
      "vec": 3097,
      "ĠmÄĽsto": 3098,
      "Ġobe": 3099,
      "losti": 3100,
      "ĠdobÄĽ": 3101,
      "Ġnesly": 3102,
      "ĠdnÅ¯": 3103,
      "stÃ¡vÃ¡": 3104,
      "ĠpÅĻÃŃs": 3105,
      "ĠcÃŃtil": 3106,
      "Ġtruch": 3107,
      "ĠvyÅ¡": 3108,
      "Ġcti": 3109,
      "ĠblÃ½": 3110,
      "ĠoÄįÃŃch": 3111,
      "LOV": 3112,
      "EK": 3113,
      "ĠFu": 3114,
      "ĠvÅ¯le": 3115,
      "nko": 3116,
      "Ġdve": 3117,
      "Ġom": 3118,
      "Ġnas": 3119,
      "Ġzrakem": 3120,
      "ĠzdÃ¡lo": 3121,
      "ÄĽku": 3122,
      "Ġmilosti": 3123,
      "Å¾enÃ©": 3124,
      "Ġnechce": 3125,
      "Ġchle": 3126,
      "uky": 3127,
      "ĠkrÅ¯": 3128,
      "Ġpovz": 3129,
      "ĠHnÄĽv": 3130,
      "ĠvÄĽÄįnÃ½": 3131,
      "ĠÄįasu": 3132,
      "ĠsvÄĽtu": 3133,
      "Ġzdo": 3134,
      "ĠÅĪader": 3135,
      "enem": 3136,
      "ĠzvonÃŃ": 3137,
      "ĠzÅ¯sta": 3138,
      "ĠJiÅĻÃŃ": 3139,
      "Ġklet": 3140,
      "ĠnaÅĪ": 3141,
      "ĠsvatÃ¡": 3142,
      "ĠLeub": 3143,
      "ĠLeubner": 3144,
      "ĠÅ¾el": 3145,
      "Ġbudouc": 3146,
      "ĠrÃ¡zem": 3147,
      "Ġplach": 3148,
      "th": 3149,
      "jal": 3150,
      "Ġar": 3151,
      "ĠÅłebe": 3152,
      "Ġrok": 3153,
      "stiÃ¡n": 3154,
      "ĠtenkrÃ¡t": 3155,
      "evi": 3156,
      "ĠHnÄĽvkovskÃ½": 3157,
      "ĠÅłebestiÃ¡n": 3158,
      "aze": 3159,
      "ĠmalÃ©": 3160,
      "nÄĽnÃŃ": 3161,
      "ĠmÄĽsÃŃ": 3162,
      "ĠpryÄį": 3163,
      "ck": 3164,
      "Ġvenku": 3165,
      "ĠkrÃ¡se": 3166,
      "erou": 3167,
      "dost": 3168,
      "dra": 3169,
      "ĠskÅĻi": 3170,
      "ĠjÃŃt": 3171,
      "aÅ¡e": 3172,
      "ĠpÃ½ch": 3173,
      "brÃ¡": 3174,
      "tÅĻe": 3175,
      "ĠjmÃ©no": 3176,
      "op": 3177,
      "Ġzadu": 3178,
      "ĠRÅ¯Å¾": 3179,
      "?!": 3180,
      "ohy": 3181,
      "unÄĽ": 3182,
      "Ġpol": 3183,
      "Ġlidstva": 3184,
      "Äįnou": 3185,
      "ĠklonÃŃ": 3186,
      "Å¾ky": 3187,
      "ĠÄįÃ¡": 3188,
      "ĠpÃ¡ni": 3189,
      "otu": 3190,
      "Ġzoufal": 3191,
      "rnou": 3192,
      "ĠdÄĽtÃŃ": 3193,
      "ÄĽs": 3194,
      "Ġlidem": 3195,
      "Ġtla": 3196,
      "kajÃŃ": 3197,
      "ĠkteÅĻÃŃ": 3198,
      "ĠsmutnÄĽ": 3199,
      "Ġpravdu": 3200,
      "SKÃī": 3201,
      "dala": 3202,
      "boj": 3203,
      "ĠkonÄĽ": 3204,
      "ĠhrobÄĽ": 3205,
      "zku": 3206,
      "man": 3207,
      "ovou": 3208,
      "tko": 3209,
      "Ġonen": 3210,
      "ĠvÅ¯kol": 3211,
      "ĠtÄĽÅ¾kÃ©": 3212,
      "ity": 3213,
      "ĠMO": 3214,
      "Ġrost": 3215,
      "ĠAAXA": 3216,
      "klo": 3217,
      "Ġhad": 3218,
      "Ġzapla": 3219,
      "ĠÅ¡li": 3220,
      "livÄĽ": 3221,
      "Ġleb": 3222,
      "ĠmusÃŃm": 3223,
      "jÃŃch": 3224,
      "Å¾ÃŃÅ¡": 3225,
      "anim": 3226,
      "nich": 3227,
      "Ġmysl": 3228,
      "Ġsa": 3229,
      "Ġjestli": 3230,
      "umi": 3231,
      "Ã¡nÃŃ": 3232,
      "Ġzhas": 3233,
      "Å¯l": 3234,
      "nouti": 3235,
      "oty": 3236,
      "ĠvÃ½Å¡i": 3237,
      "Ġsmutek": 3238,
      "iÅ¡i": 3239,
      "odÄĽ": 3240,
      "Ġduchu": 3241,
      "ucha": 3242,
      "Ġsladce": 3243,
      "iÄįky": 3244,
      "ĠÄįeskÃ©": 3245,
      "Ġdny": 3246,
      "Ġdum": 3247,
      "ĠstarÃ½ch": 3248,
      "ĠlÃŃc": 3249,
      "ĠslÃŃ": 3250,
      "zvu": 3251,
      "Ġnevin": 3252,
      "ĠrÃ¡da": 3253,
      "ÅĻila": 3254,
      "IM": 3255,
      "klad": 3256,
      "iÄįku": 3257,
      "tnÃ½": 3258,
      "ig": 3259,
      "nami": 3260,
      "ĠobrÃ¡": 3261,
      "Ġnim": 3262,
      "TA": 3263,
      "ĠZA": 3264,
      "Ġpokoj": 3265,
      "Ġodpu": 3266,
      "Ġhrom": 3267,
      "ĠjasnÃ©": 3268,
      "Äįem": 3269,
      "Ġvztek": 3270,
      "jÃŃt": 3271,
      "Ġpodiv": 3272,
      "ĠmizÃŃ": 3273,
      "Ġnohy": 3274,
      "ĠvalÃŃ": 3275,
      "ĠdÃ¡t": 3276,
      "Ġstrach": 3277,
      "ĠVla": 3278,
      "GHGH": 3279,
      "rk": 3280,
      "ĠpÅĻiÅ¡la": 3281,
      "hÃ¡m": 3282,
      "ĠvÅ¡emi": 3283,
      "Ġscho": 3284,
      "ula": 3285,
      "cet": 3286,
      "ĠdÅ¯vÄĽ": 3287,
      "ĠrÅ¯z": 3288,
      "AD": 3289,
      "adislav": 3290,
      "ĠpÃ©": 3291,
      "noucÃŃ": 3292,
      "Ġhlo": 3293,
      "nÃ©mu": 3294,
      "ĠLadislav": 3295,
      "eÅĻe": 3296,
      "ĠvÅ¡ÃŃm": 3297,
      "ĠodpovÄĽ": 3298,
      "vÃŃrÃ¡": 3299,
      "Ġspra": 3300,
      "Ġpoto": 3301,
      "vin": 3302,
      "ĠsvÃ½mi": 3303,
      "ÄįnÃ¡": 3304,
      "Ġslza": 3305,
      "Ġstat": 3306,
      "ĠkrÅ¯pÄĽ": 3307,
      "Ġdala": 3308,
      "Äįna": 3309,
      "ĠJesen": 3310,
      "ĠchÃ¡": 3311,
      "ĠnepÅĻi": 3312,
      "ENÃį": 3313,
      "ebi": 3314,
      "Ġbije": 3315,
      "ĠzlatÃ¡": 3316,
      "un": 3317,
      "ida": 3318,
      "Ġviz": 3319,
      "ÃŃme": 3320,
      "ĠÅ¡ÃŃlen": 3321,
      "ĠRÅ¯Å¾ena": 3322,
      "ĠJesenskÃ¡": 3323,
      "ĠsrdcÃŃ": 3324,
      "ĠJaromÃŃr": 3325,
      "Ġmati": 3326,
      "ĠjejÃŃm": 3327,
      "UD": 3328,
      "ĠzÃ¡hy": 3329,
      "Ġzhy": 3330,
      "hli": 3331,
      "ĠmoÅ¾no": 3332,
      "meny": 3333,
      "ĠzvlÃ¡": 3334,
      "arem": 3335,
      "ĠnÄĽÅ¾": 3336,
      "ĠdÄĽla": 3337,
      "ero": 3338,
      "Ġkali": 3339,
      "Ġboku": 3340,
      "ĠdrahÃ½": 3341,
      "ĠXAXABB": 3342,
      "Ġmohl": 3343,
      "vor": 3344,
      "kova": 3345,
      "GF": 3346,
      "Ġbudem": 3347,
      "uÅ¾i": 3348,
      "KO": 3349,
      "lku": 3350,
      "uhy": 3351,
      "ĠABABCCD": 3352,
      "kovÃ©": 3353,
      "Ġpohle": 3354,
      "ĠÅ¾enu": 3355,
      "ĠnepÅĻÃŃ": 3356,
      "ĠkrÃ¡sa": 3357,
      "rdce": 3358,
      "cnÄĽ": 3359,
      "chÃ¡ze": 3360,
      "ĠNE": 3361,
      "ĠovÅ¡em": 3362,
      "krÃ¡s": 3363,
      "Ġpravdy": 3364,
      "ĠzÃ¡pas": 3365,
      "liÅ¾": 3366,
      "tev": 3367,
      "ĠvÃ½s": 3368,
      "Ġdomu": 3369,
      "Å¾Ã¡": 3370,
      "ĠchtÄĽla": 3371,
      "Ġpln": 3372,
      "rha": 3373,
      "ĠmladÃ¡": 3374,
      "Ġhlaho": 3375,
      "amÄĽ": 3376,
      "iÄįi": 3377,
      "ĠXAABB": 3378,
      "nÄĽn": 3379,
      "ĠvÄĽk": 3380,
      "Ġtry": 3381,
      "ĠvÄĽc": 3382,
      "Ġprsa": 3383,
      "ĠÅ¾er": 3384,
      "Ġur": 3385,
      "Ġneroz": 3386,
      "Ġhan": 3387,
      "ij": 3388,
      "ĠjedinÃ½": 3389,
      "Ġplane": 3390,
      "rÃ©m": 3391,
      "ĠmÄĽnÃŃ": 3392,
      "oma": 3393,
      "ĠstÃ¡t": 3394,
      "ĠnepÅĻÃ¡": 3395,
      "Ġkmen": 3396,
      "ĠvÄĽÅĻ": 3397,
      "ĠslÃ¡vÄĽ": 3398,
      "Ġlam": 3399,
      "ĠvÃ¡mi": 3400,
      "esla": 3401,
      "Ġmdlo": 3402,
      "ĠdÅĻÃŃve": 3403,
      "jÃŃce": 3404,
      "ĠdennÄĽ": 3405,
      "yni": 3406,
      "Ġstou": 3407,
      "Ġfran": 3408,
      "ÄĽÅĻi": 3409,
      "EFFE": 3410,
      "ĠkvÄĽti": 3411,
      "dl": 3412,
      "Ġtemno": 3413,
      "imi": 3414,
      "ĠvelkÃ¡": 3415,
      "ĠvÃ½ch": 3416,
      "ÅĻÃŃk": 3417,
      "ĠptÃ¡ci": 3418,
      "wic": 3419,
      "ĠjednÃ©": 3420,
      "uru": 3421,
      "ĠSuÅ¡il": 3422,
      "ĠLI": 3423,
      "ÄĽz": 3424,
      "Ġbyst": 3425,
      "ĠklÃŃn": 3426,
      "Ġkone": 3427,
      "eÄı": 3428,
      "liv": 3429,
      "esy": 3430,
      "ĠstejnÄĽ": 3431,
      "ĠtÃ³": 3432,
      "aval": 3433,
      "Ġholu": 3434,
      "ĠkaÅ¾dou": 3435,
      "wicz": 3436,
      "hÃ½m": 3437,
      "ĠslÃ¡vu": 3438,
      "Ġsme": 3439,
      "ĠpÅĻÃ¡tel": 3440,
      "ĠAABBCCDDEEFFGGHH": 3441,
      "ĠstÃ¡la": 3442,
      "eÅ¡": 3443,
      "ĠzpÃ¡": 3444,
      "ĠnoÄįnÃŃ": 3445,
      "Ġjednu": 3446,
      "klÃŃ": 3447,
      "nala": 3448,
      "rnÃŃ": 3449,
      "Ġpodle": 3450,
      "Ġzcela": 3451,
      "ĠÅ¡le": 3452,
      "NÃģ": 3453,
      "Ġhez": 3454,
      "ĠOd": 3455,
      "ĠstrÃ¡Å¾": 3456,
      "Ġslab": 3457,
      "ĠmlÄįÃŃ": 3458,
      "emnou": 3459,
      "Ġste": 3460,
      "ĠvracÃŃ": 3461,
      "ard": 3462,
      "pÅ¯": 3463,
      "isni": 3464,
      "ĠpÅ¯lno": 3465,
      "penÃŃ": 3466,
      "ĠzemÃŃ": 3467,
      "akem": 3468,
      "ĠdlouhÃ½": 3469,
      "VÃį": 3470,
      "per": 3471,
      "Ġin": 3472,
      "Ġlili": 3473,
      "ĠNÃģ": 3474,
      "Ġmraky": 3475,
      "Ġpotu": 3476,
      "Ġchra": 3477,
      "ĠpÄĽt": 3478,
      "ĠcÃŃsaÅĻ": 3479,
      "ĠÄįlovÄĽka": 3480,
      "ĠchtÃŃ": 3481,
      "ĠrudÃ©": 3482,
      "ĠBO": 3483,
      "ĠpevnÄĽ": 3484,
      "LADA": 3485,
      "oba": 3486,
      "Ġlze": 3487,
      "ĠÅ¾ÃŃti": 3488,
      "ous": 3489,
      "stvÃŃm": 3490,
      "Ġteprv": 3491,
      "Ġkdos": 3492,
      "ĠÅ¾Ã¡dnÃ½": 3493,
      "TÄļ": 3494,
      "icha": 3495,
      "VII": 3496,
      "ĠKul": 3497,
      "lka": 3498,
      "ĠkvÄĽtu": 3499,
      "Ġzrc": 3500,
      "oko": 3501,
      "Ġspas": 3502,
      "mÃ¡ch": 3503,
      "azem": 3504,
      "ÄĽzd": 3505,
      "ĠznÄĽl": 3506,
      "Ġsev": 3507,
      "ĠzÃ¡zra": 3508,
      "ivÄĽ": 3509,
      "Ġhrou": 3510,
      "kvet": 3511,
      "Ġskvost": 3512,
      "ĠrÃ¡je": 3513,
      "avÃ½ch": 3514,
      "Ġzdi": 3515,
      "Ġjino": 3516,
      "ĠMeto": 3517,
      "ĠKulda": 3518,
      "ĠMetod": 3519,
      "uÄı": 3520,
      "ĠsmutnÃ©": 3521,
      "ĠtÃ¡hne": 3522,
      "Ġnak": 3523,
      "cÅ¯m": 3524,
      "rve": 3525,
      "Ġvlo": 3526,
      "ĠdÄĽdi": 3527,
      "ĠÅĻÃŃm": 3528,
      "Ġnechci": 3529,
      "oho": 3530,
      "ĠnenÃ¡": 3531,
      "ĠÃºtÄĽ": 3532,
      "Ġklad": 3533,
      "ĠÅĻeÄįÃŃ": 3534,
      "ĠÅĻi": 3535,
      "Ġmech": 3536,
      "jeÅ¡": 3537,
      "Ġjimi": 3538,
      "ĠlÃŃbÃ¡": 3539,
      "Ġsad": 3540,
      "Ġjdi": 3541,
      "ÄĽr": 3542,
      "ĠzÅĻe": 3543,
      "ĠÅĻeky": 3544,
      "Ġsami": 3545,
      "Ġzab": 3546,
      "Å¡nÄĽ": 3547,
      "Ġoch": 3548,
      "ĠsklÃ¡nÃŃ": 3549,
      "atÅĻi": 3550,
      "Ġnebylo": 3551,
      "ĠÃºzko": 3552,
      "ĠvzplÃ¡": 3553,
      "ĠmÃŃti": 3554,
      "ĠbÃŃlÃ½ch": 3555,
      "Ġhudba": 3556,
      "ĠbudÃŃ": 3557,
      "Ġsoum": 3558,
      "zrak": 3559,
      "ajÃŃ": 3560,
      "ĠtÅ¯": 3561,
      "Ġzlata": 3562,
      "ĠbÄĽÅ¾ÃŃ": 3563,
      "ojko": 3564,
      "Ġveleb": 3565,
      "ĠzÃ¡vi": 3566,
      "ojkowicz": 3567,
      "ĠvÄįera": 3568,
      "ĠĠĠ": 3569,
      "ĠskrÃ¡ÅĪ": 3570,
      "ĠWojkowicz": 3571,
      "ĠdlaÅĪ": 3572,
      "ĠbÅĻÃŃ": 3573,
      "ukou": 3574,
      "ĠBohuslav": 3575,
      "Ġvesele": 3576,
      "Ġzim": 3577,
      "dajÃŃ": 3578,
      "alem": 3579,
      "Ġzro": 3580,
      "jas": 3581,
      "snÃŃ": 3582,
      "Ġoka": 3583,
      "ĠmnohÃ©": 3584,
      "tno": 3585,
      "Ġskr": 3586,
      "ĠCH": 3587,
      "Ġmoci": 3588,
      "ell": 3589,
      "achu": 3590,
      "ĠhÃ½": 3591,
      "tÃ½m": 3592,
      "ĠvonÃŃ": 3593,
      "cenc": 3594,
      "ĠmrÃ¡z": 3595,
      "Ġneo": 3596,
      "RI": 3597,
      "Ġvzpo": 3598,
      "ĠâĢŀ": 3599,
      "ĠmÃ¡j": 3600,
      "ĠstavÃŃ": 3601,
      "ĠnÃŃz": 3602,
      "Ġprud": 3603,
      "ĠABABCDCDEFEF": 3604,
      "atil": 3605,
      "yje": 3606,
      "Ġpost": 3607,
      "isti": 3608,
      "Ġcest": 3609,
      "peÄį": 3610,
      "Ġhochu": 3611,
      "lenÃ©": 3612,
      "lic": 3613,
      "mÃ½": 3614,
      "ĠplÃŃ": 3615,
      "ÄĽty": 3616,
      "ĠÅĪadra": 3617,
      "Ġpodo": 3618,
      "adlo": 3619,
      "ebou": 3620,
      "yse": 3621,
      "Ġruch": 3622,
      "Ġnejs": 3623,
      "Ġsilou": 3624,
      "Ġstav": 3625,
      "ĠHO": 3626,
      "ĠVin": 3627,
      "ona": 3628,
      "ovem": 3629,
      "Ġzvon": 3630,
      "vili": 3631,
      "zÃŃm": 3632,
      "Ġ2": 3633,
      "Ġzka": 3634,
      "Ġono": 3635,
      "Ġzaz": 3636,
      "ĠpÃ¡nÄĽ": 3637,
      "atka": 3638,
      "ĠzvedÃ¡": 3639,
      "ĠÄįty": 3640,
      "Ġjsa": 3641,
      "aÅ¾e": 3642,
      "ĠbledÃ¡": 3643,
      "ĠFurch": 3644,
      "ĠVincenc": 3645,
      "ĠkrÃ¡su": 3646,
      "ĠzÃ¡stup": 3647,
      "Å¾ila": 3648,
      "Ġporo": 3649,
      "Ġklidu": 3650,
      "Ġkrou": 3651,
      "Ġpoho": 3652,
      "ĠbohatÃ½": 3653,
      "Ġkyne": 3654,
      "ĠdÃ¡lku": 3655,
      "ovo": 3656,
      "gi": 3657,
      "Å¡it": 3658,
      "Ġnovou": 3659,
      "ĠvÅ¯nÃŃ": 3660,
      "Ġdvou": 3661,
      "Ġzlatem": 3662,
      "ĠvÅ¯li": 3663,
      "Ġtat": 3664,
      "ence": 3665,
      "kÃ©ho": 3666,
      "Ġnaslou": 3667,
      "lel": 3668,
      "ske": 3669,
      "Ġide": 3670,
      "Ġhlasy": 3671,
      "ĠKRÃģ": 3672,
      "hÃ¡nÃŃ": 3673,
      "ĠtouÅ¾ÃŃ": 3674,
      "ip": 3675,
      "lej": 3676,
      "Ġbro": 3677,
      "Ġposta": 3678,
      "Ġjab": 3679,
      "Ġstu": 3680,
      "ĠchrÃ¡mu": 3681,
      "kovi": 3682,
      "Ġhvo": 3683,
      "ĠbÃ½vÃ¡": 3684,
      "ĠVÃŃ": 3685,
      "Ġtrou": 3686,
      "Äįila": 3687,
      "Ġpolib": 3688,
      "Ġnebude": 3689,
      "Ġspole": 3690,
      "lednÃŃ": 3691,
      "ĠnesmÃŃ": 3692,
      "hly": 3693,
      "uni": 3694,
      "Ġzni": 3695,
      "ĠAXAX": 3696,
      "Å¡Å¥ast": 3697,
      "ĠzlatÃ½ch": 3698,
      "ÅĻÅ¯": 3699,
      "Ġsbor": 3700,
      "dÃŃÅ¡": 3701,
      "ĠÅĻÃŃÅ¡e": 3702,
      "ĠneboÅ¥": 3703,
      "ĠmrtvÃ©": 3704,
      "opi": 3705,
      "RT": 3706,
      "Ġjmen": 3707,
      "ĠbÃŃlou": 3708,
      "Ġkamen": 3709,
      "ĠBÅĻe": 3710,
      "ivo": 3711,
      "nÄĽj": 3712,
      "ĠkolÃ©b": 3713,
      "ĠnÄĽkdo": 3714,
      "ito": 3715,
      "Ġnesou": 3716,
      "Ġslep": 3717,
      "Ġuna": 3718,
      "ĠpÅĻÃŃÅ¡e": 3719,
      "Ġkomu": 3720,
      "Ġdou": 3721,
      "Ġuvi": 3722,
      "ĠvÅ¡i": 3723,
      "ĠobjetÃŃ": 3724,
      "rÃ¡l": 3725,
      "ĠsmÃŃchu": 3726,
      "hlas": 3727,
      "rnÃ¡": 3728,
      "ĠotÄįe": 3729,
      "ĠnÃ¡dher": 3730,
      "ĠzpÃ¡tky": 3731,
      "Ġhnu": 3732,
      "Ġsyna": 3733,
      "Ġvlh": 3734,
      "Ġblesky": 3735,
      "vÃŃk": 3736,
      "kov": 3737,
      "ÅĻad": 3738,
      "sit": 3739,
      "tÃ©m": 3740,
      "kvÃŃ": 3741,
      "ĠÄįeskÃ½": 3742,
      "Ġkrokem": 3743,
      "lÃ©z": 3744,
      "ÃģNÃį": 3745,
      "KOV": 3746,
      "ĠvÄĽz": 3747,
      "Ġabych": 3748,
      "ĠJE": 3749,
      "idla": 3750,
      "Ġfi": 3751,
      "ĠandÄĽ": 3752,
      "ellner": 3753,
      "Ġrej": 3754,
      "Ġbolesti": 3755,
      "dlÃŃ": 3756,
      "ĠGellner": 3757,
      "Ġjez": 3758,
      "Ġhod": 3759,
      "Å¡enÃ©": 3760,
      "ĠslyÅ¡et": 3761,
      "ĠmÄĽli": 3762,
      "ĠcÃŃl": 3763,
      "Ġpaprsk": 3764,
      "ĠABBACCDD": 3765,
      "Ġcizi": 3766,
      "Ġmatko": 3767,
      "Ġstrany": 3768,
      "ĠvyÅ¡el": 3769,
      "ĠXXXXXXXXX": 3770,
      "ĠÃºsmÄĽvem": 3771,
      "Ġkroky": 3772,
      "eÅ¡tÄĽ": 3773,
      "ĠABABB": 3774,
      "ĠnÄĽjak": 3775,
      "ĠtÅĻÃ¡s": 3776,
      "Ġposlou": 3777,
      "ĠblÃŃÅ¾ÃŃ": 3778,
      "hlu": 3779,
      "icky": 3780,
      "ĠAABCCBDD": 3781,
      "ĠrtÅ¯": 3782,
      "oka": 3783,
      "dku": 3784,
      "stÃŃm": 3785,
      "Ġblaha": 3786,
      "ĠopuÅ¡tÄĽ": 3787,
      "ĠklesÃ¡": 3788,
      "ĠmyslÃŃm": 3789,
      "hlÃ¡": 3790,
      "IE": 3791,
      "ĠmalÃ¡": 3792,
      "Ġslovem": 3793,
      "ĠtvojÃŃ": 3794,
      "Ġrozho": 3795,
      "Ġneza": 3796,
      "ĠPOD": 3797,
      "SKÃģ": 3798,
      "ouhy": 3799,
      "esie": 3800,
      "ĠpodÃ¡": 3801,
      "ĠtÄĽle": 3802,
      "ĠkÅĻ": 3803,
      "Ġvzne": 3804,
      "ÄĽte": 3805,
      "ĠzdÄĽ": 3806,
      "ĠvÅ¡emu": 3807,
      "ÄĽm": 3808,
      "Ġdali": 3809,
      "peÅ¾": 3810,
      "kne": 3811,
      "VIII": 3812,
      "Ġteh": 3813,
      "ĠvÃ¡c": 3814,
      "ĠÄįet": 3815,
      "vÄĽd": 3816,
      "ikem": 3817,
      "Å¡k": 3818,
      "lny": 3819,
      "sen": 3820,
      "Å¡to": 3821,
      "Ġkus": 3822,
      "ĠsluÅ¾": 3823,
      "Ġnena": 3824,
      "avÃ½m": 3825,
      "tala": 3826,
      "Ġrozu": 3827,
      "ĠÄįasy": 3828,
      "ĠsladkÃ¡": 3829,
      "XH": 3830,
      "Ġplav": 3831,
      "ĠnavÅ¾dy": 3832,
      "Ġzku": 3833,
      "ĠÄįistÃ©": 3834,
      "Ġpramen": 3835,
      "ĠdÃ¡lce": 3836,
      "ant": 3837,
      "cti": 3838,
      "amu": 3839,
      "ĠvÃ¡Å¡nÃŃ": 3840,
      "Ġsynu": 3841,
      "ĠnenÃ¡vi": 3842,
      "Ġpoch": 3843,
      "Ġprv": 3844,
      "Ġkonce": 3845,
      "vÅ¡": 3846,
      "Ġprobu": 3847,
      "Ġplno": 3848,
      "ĠtichÃ¡": 3849,
      "udil": 3850,
      "ĠvÄĽn": 3851,
      "ĠcestÄĽ": 3852,
      "Ġzmo": 3853,
      "ĠdÅĻe": 3854,
      "CBC": 3855,
      "ĠotÃ¡": 3856,
      "pot": 3857,
      "Ġvypra": 3858,
      "lÃ¡k": 3859,
      "Ġbit": 3860,
      "Ġutr": 3861,
      "Ġrodi": 3862,
      "dosti": 3863,
      "ĠdÄĽvÄįe": 3864,
      "ĠlÃŃto": 3865,
      "ĠtoÄįÃŃ": 3866,
      "Ġmlhy": 3867,
      "cenÃ½": 3868,
      "jednou": 3869,
      "Äįkem": 3870,
      "tÃ¡n": 3871,
      "Ġhradu": 3872,
      "Ġnepro": 3873,
      "ĠnovÃ¡": 3874,
      "Ġmed": 3875,
      "Ġled": 3876,
      "icich": 3877,
      "hnÄĽ": 3878,
      "ĠlepÅ¡ÃŃ": 3879,
      "Ġtato": 3880,
      "ivi": 3881,
      "Ġobli": 3882,
      "livÃ½": 3883,
      "Ġvytr": 3884,
      "Ġskon": 3885,
      "pem": 3886,
      "domÃŃ": 3887,
      "ĠnemÃ¡m": 3888,
      "ery": 3889,
      "bÃ¡ch": 3890,
      "ahen": 3891,
      "ĠvisÃŃ": 3892,
      "ĠvidÄĽt": 3893,
      "ĠvÃŃry": 3894,
      "ĠROM": 3895,
      "ĠloÅ¾e": 3896,
      "Ġkat": 3897,
      "Ġsic": 3898,
      "ĠXXXXXXXXXX": 3899,
      "Ġtichou": 3900,
      "Ġproro": 3901,
      "Ġvola": 3902,
      "vice": 3903,
      "nÃŃci": 3904,
      "ĠvÃŃno": 3905,
      "ĠHÃ¡": 3906,
      "Ġslune": 3907,
      "bat": 3908,
      "eÄįe": 3909,
      "iÅ¡ti": 3910,
      "ĠMahen": 3911,
      "ĠÄįernÃ¡": 3912,
      "lni": 3913,
      "vce": 3914,
      "vÃ¡t": 3915,
      "ĠrÅ¯Å¾i": 3916,
      "ilou": 3917,
      "ĠmrtvÃ½ch": 3918,
      "kost": 3919,
      "ĠmÃŃsta": 3920,
      "ycha": 3921,
      "ĠLeger": 3922,
      "ĠKO": 3923,
      "Ġtuto": 3924,
      "Ġmali": 3925,
      "ĠTo": 3926,
      "diÅ¾": 3927,
      "ĠvroucÃŃ": 3928,
      "ÄĽvu": 3929,
      "ĠÄįernÃ½ch": 3930,
      "Ġtur": 3931,
      "Ġjakoby": 3932,
      "ĠpotÄĽ": 3933,
      "ĠVII": 3934,
      "ĠvraÅ¾": 3935,
      "ĠvrÃ¡tÃŃ": 3936,
      "Ġklu": 3937,
      "dÃ¡ch": 3938,
      "ĠtÄĽÅ¾kÃ½": 3939,
      "uz": 3940,
      "Ġber": 3941,
      "cenÃŃ": 3942,
      "ÄĽsi": 3943,
      "Ġpode": 3944,
      "ĠmÄĽst": 3945,
      "ĠlÃŃci": 3946,
      "Ġsty": 3947,
      "ĠknÄĽÅ¾": 3948,
      "Ġhora": 3949,
      "ĠnejvÃŃ": 3950,
      "ĠkÅĻesÅ¥": 3951,
      "ouha": 3952,
      "ĠohnÄĽm": 3953,
      "ĠpatÅĻÃŃ": 3954,
      "ctvÃŃ": 3955,
      "Ġzn": 3956,
      "Ġspani": 3957,
      "ovÃ½": 3958,
      "otÄĽ": 3959,
      "ĠstÃ©": 3960,
      "ĠblÃŃÅ¾e": 3961,
      "ĠABB": 3962,
      "ĠkoÅĻi": 3963,
      "dali": 3964,
      "NÃī": 3965,
      "ĠXXXXXXXXXXXXXXXXXXXX": 3966,
      "bel": 3967,
      "Ġlehce": 3968,
      "ĠhuÄįÃŃ": 3969,
      "ÄĮNÃį": 3970,
      "Ġzle": 3971,
      "abi": 3972,
      "oro": 3973,
      "Ġzpu": 3974,
      "dili": 3975,
      "milo": 3976,
      "ĠbledÃ©": 3977,
      "Ġvoda": 3978,
      "EST": 3979,
      "ÅĻec": 3980,
      "nÃ¡Å¡": 3981,
      "Ġvelkou": 3982,
      "chou": 3983,
      "ĠpÃ¡na": 3984,
      "Ġdom": 3985,
      "udou": 3986,
      "Ġvzduchu": 3987,
      "ĠklÃ¡": 3988,
      "Ġrek": 3989,
      "ĠkvÄĽtem": 3990,
      "ĠumÃŃrÃ¡": 3991,
      "eku": 3992,
      "host": 3993,
      "Ġpomoc": 3994,
      "isk": 3995,
      "Ġvsi": 3996,
      "ÅĪte": 3997,
      "ĠpÅĻedu": 3998,
      "vyÅ¡": 3999,
      "Ġzlatou": 4000,
      "EDE": 4001,
      "aka": 4002,
      "ĠjinÃ½ch": 4003,
      "ĠskÅĻÃŃ": 4004,
      "dli": 4005,
      "Ġbohy": 4006,
      "Ġraj": 4007,
      "mena": 4008,
      "ÄĮER": 4009,
      "ĠbÅĻeh": 4010,
      "slo": 4011,
      "ĠvÃ©": 4012,
      "nÃ¡Å¡e": 4013,
      "Ġrtech": 4014,
      "âĢľ": 4015,
      "Ġluz": 4016,
      "tnÄĽ": 4017,
      "dolÃŃ": 4018,
      "Ġhost": 4019,
      "enych": 4020,
      "Ġtrest": 4021,
      "ĠdobrÃ¡": 4022,
      "ĠvÅĻ": 4023,
      "ĠpÅĻÃŃtel": 4024,
      "Ġsluncem": 4025,
      "ĠhrÅ¯zou": 4026,
      "pro": 4027,
      "ĠÅ¡edi": 4028,
      "snÃ©": 4029,
      "zina": 4030,
      "Ġvle": 4031,
      "ĠjasnÃ½": 4032,
      "Ġkvetou": 4033,
      "Ġsmutku": 4034,
      "Å¯r": 4035,
      "Å¡Å¥Ã¡k": 4036,
      "Ġdechem": 4037,
      "Ġdouf": 4038,
      "stvu": 4039,
      "ĠnadÅ¡enÃŃ": 4040,
      "eden": 4041,
      "ĠspÃŃÅ¡": 4042,
      "Ġoblak": 4043,
      "ĠrÃ¡nu": 4044,
      "Ġane": 4045,
      "Ġramen": 4046,
      "ĠhÅĻmÃŃ": 4047,
      "Ġvzde": 4048,
      "nitÅĻ": 4049,
      "ĠrannÃŃ": 4050,
      "ÄĽÅ¾": 4051,
      "Ġtichu": 4052,
      "adou": 4053,
      "Ġprst": 4054,
      "ĠotcÅ¯": 4055,
      "ĠtÅĻese": 4056,
      "ĠtÄĽÅ¾ce": 4057,
      "Ġdoba": 4058,
      "ĠvÃŃte": 4059,
      "Ġkdesi": 4060,
      "ĠGu": 4061,
      "ĠABBACC": 4062,
      "Å¡enÃ½": 4063,
      "ĠBAL": 4064,
      "ĠsmutnÃ½": 4065,
      "ĠhorÃ¡ch": 4066,
      "Ġsnem": 4067,
      "ĠXI": 4068,
      "vz": 4069,
      "ĠpoÄįÃŃ": 4070,
      "ĠvÅ¯ni": 4071,
      "atek": 4072,
      "ĠÅ¾ebrÃ¡": 4073,
      "ĠohnÄĽ": 4074,
      "ĠzÃŃrÃ¡": 4075,
      "ĠÅ¾ene": 4076,
      "Ġprahu": 4077,
      "ÄįkÃ¡": 4078,
      "ĠzprÃ¡": 4079,
      "Ġopoj": 4080,
      "Ġsbo": 4081,
      "chod": 4082,
      "ĠLo": 4083,
      "RU": 4084,
      "armo": 4085,
      "Ġletu": 4086,
      "he": 4087,
      "Ã½t": 4088,
      "jme": 4089,
      "iÄįek": 4090,
      "Ġdaleko": 4091,
      "blÃŃ": 4092,
      "ĠÅ¡lech": 4093,
      "ĠvÄĽci": 4094,
      "ĠCh": 4095,
      "Ġnaposled": 4096,
      "kl": 4097,
      "ĠPA": 4098,
      "ĠpromÄĽ": 4099,
      "vrat": 4100,
      "Ġdokud": 4101,
      "Ġpozdrav": 4102,
      "ĠrytÃŃÅĻ": 4103,
      "Ġmatce": 4104,
      "HÃģ": 4105,
      "tÃ¡nÃŃ": 4106,
      "Ġstalo": 4107,
      "ĠhÃ¡j": 4108,
      "ĠprosÃŃm": 4109,
      "Ġchcem": 4110,
      "ĠPÃŃseÅĪ": 4111,
      "nÃŃku": 4112,
      "ĠMar": 4113,
      "vuje": 4114,
      "Ġbleskem": 4115,
      "SA": 4116,
      "Äıte": 4117,
      "Ġzma": 4118,
      "ĠvÄĽÅĻÃŃ": 4119,
      "Ġchvat": 4120,
      "ĠjevÃŃ": 4121,
      "ĠPoko": 4122,
      "Ġnikde": 4123,
      "ĠhalÃŃ": 4124,
      "myÅ¡": 4125,
      "Ġcosi": 4126,
      "ĠklÃ¡Å¡te": 4127,
      "ĠLud": 4128,
      "ĠSM": 4129,
      "ĠtemnÃ©": 4130,
      "ĠME": 4131,
      "ĠABABX": 4132,
      "bem": 4133,
      "adky": 4134,
      "Ġbolu": 4135,
      "ĠzÃ¡p": 4136,
      "ĠsnÄĽhu": 4137,
      "oÅ¾e": 4138,
      "Ġvp": 4139,
      "Ġprapor": 4140,
      "Ġej": 4141,
      "Ġsluch": 4142,
      "Ġzvony": 4143,
      "ĠGustav": 4144,
      "snÃ½": 4145,
      "lovÃ©": 4146,
      "Ġrci": 4147,
      "ĠVÃŃtÄĽz": 4148,
      "Ġmodra": 4149,
      "ĠbloudÃŃ": 4150,
      "Äįas": 4151,
      "ĠmÃ¡te": 4152,
      "osud": 4153,
      "nikÃ¡": 4154,
      "Ġchlu": 4155,
      "ĠknÄĽz": 4156,
      "Ã¼": 4157,
      "ĠlkÃ¡": 4158,
      "Å¾enÃ½": 4159,
      "Ġneod": 4160,
      "ĠPetr": 4161,
      "lenÃ½": 4162,
      "stupu": 4163,
      "ĠdÄĽje": 4164,
      "zky": 4165,
      "ĠVÃģ": 4166,
      "Äįiny": 4167,
      "ĠvÃ¡Å¾": 4168,
      "ĠvÅ¡ecka": 4169,
      "ĠsmÄĽle": 4170,
      "Ġzat": 4171,
      "mal": 4172,
      "esky": 4173,
      "Ġpanen": 4174,
      "Ġobzor": 4175,
      "Ġ3": 4176,
      "ĠlidskÃ½": 4177,
      "Ġvlna": 4178,
      "ĠPokornÃ½": 4179,
      "ÃģN": 4180,
      "ĠztrÃ¡cÃŃ": 4181,
      "ĠdÅĻÃŃmÃ¡": 4182,
      "Ġtva": 4183,
      "Äįela": 4184,
      "ĠzdravÃŃ": 4185,
      "oubi": 4186,
      "Ġkom": 4187,
      "sÃŃch": 4188,
      "ĠÅ½IV": 4189,
      "chÃ©": 4190,
      "vÃ¡Å¡": 4191,
      "ĠvÄĽÄįnosti": 4192,
      "ĠbratÅĻi": 4193,
      "EEF": 4194,
      "ĠvÃ¡Å¡nÄĽ": 4195,
      "Ġlidstvo": 4196,
      "sla": 4197,
      "ĠvyprÃ¡": 4198,
      "ĠmlÃ¡d": 4199,
      "cÃ½": 4200,
      "ĠÄįist": 4201,
      "ĠdruÅ¾": 4202,
      "Ġplna": 4203,
      "TE": 4204,
      "ilu": 4205,
      "ĠLoÅ¡Å¥Ã¡k": 4206,
      "ĠLudvÃŃk": 4207,
      "estu": 4208,
      "Ġvzduchem": 4209,
      "Ġhym": 4210,
      "ĠmlÃ½": 4211,
      "ĠdÃŃlo": 4212,
      "ĠdÃŃvky": 4213,
      "ĠÅ¡iro": 4214,
      "Ġnemoc": 4215,
      "vol": 4216,
      "ĠÅĻekla": 4217,
      "Ġhas": 4218,
      "ĠumÄĽnÃŃ": 4219,
      "ĠpsÃ¡": 4220,
      "hnout": 4221,
      "yly": 4222,
      "Ġvzpla": 4223,
      "usta": 4224,
      "ĠÄįerven": 4225,
      "ĠÄįerv": 4226,
      "ÄĽd": 4227,
      "adem": 4228,
      "Ġnebem": 4229,
      "ĠvÃŃra": 4230,
      "Ġjitra": 4231,
      "Ġjeze": 4232,
      "Ġsma": 4233,
      "byl": 4234,
      "bÅ¯": 4235,
      "ĠÃºÅ¾": 4236,
      "rÃ¡tÃŃ": 4237,
      "Ġvznes": 4238,
      "Ġkouzel": 4239,
      "ĠjimÅ¾": 4240,
      "ĠÅĪadrech": 4241,
      "ĠchvÄĽl": 4242,
      "ĠmrÃ¡": 4243,
      "Ġspi": 4244,
      "Ġpochy": 4245,
      "ĠsvÄĽty": 4246,
      "ĠjasnÄĽ": 4247,
      "Äįce": 4248,
      "vÃ¡ch": 4249,
      "ĠZÃģ": 4250,
      "ĠbÃ¡snÃŃk": 4251,
      "ÃįN": 4252,
      "ĠpÅĻÃŃsa": 4253,
      "Ġtmou": 4254,
      "Ġdnem": 4255,
      "str": 4256,
      "Ġkolo": 4257,
      "Ġsvatou": 4258,
      "Ġoce": 4259,
      "ĠprovÃ¡": 4260,
      "ĠjÃŃti": 4261,
      "ĠsmrtÃŃ": 4262,
      "arÃ¡": 4263,
      "bnÄĽ": 4264,
      "ivou": 4265,
      "?...": 4266,
      "ÄĽch": 4267,
      "ĠpÅ¯va": 4268,
      "Ġzhou": 4269,
      "Ġjeli": 4270,
      "ĠzpÃŃval": 4271,
      "Ġchleba": 4272,
      "Ġstarou": 4273,
      "Ġdni": 4274,
      "ÄįnÃ½ch": 4275,
      "ĠplÃ©": 4276,
      "deme": 4277,
      "benÃŃ": 4278,
      "enim": 4279,
      "ĠzboÅ¾": 4280,
      "ĠkÅĻÃŃÅ¾e": 4281,
      "edla": 4282,
      "ĠveÄįera": 4283,
      "Ġkoste": 4284,
      "tat": 4285,
      "Ġstane": 4286,
      "ĠdlÃŃ": 4287,
      "FF": 4288,
      "mar": 4289,
      "hajÃŃ": 4290,
      "Ġstez": 4291,
      "ĠmlÄįky": 4292,
      "Ġnitru": 4293,
      "ĠÅ¾Ã¡dnÃ©": 4294,
      "ĠbudiÅ¾": 4295,
      "ĠnemÅ¯Å¾e": 4296,
      "ĠsmÄĽje": 4297,
      "ĠdÃ½Å¡e": 4298,
      "Ġholubi": 4299,
      "Ġzraku": 4300,
      "Ġsladkou": 4301,
      "Ġkoho": 4302,
      "ĠvÃŃna": 4303,
      "ĠdÄĽcko": 4304,
      "Ġpouta": 4305,
      "ĠAABBA": 4306,
      "Ġluny": 4307,
      "ĠpozdÄĽ": 4308,
      "ĠhrdÄĽ": 4309,
      "dnÃ½ch": 4310,
      "Ġvstal": 4311,
      "Ġprob": 4312,
      "ĠdÃŃvÄįÃŃ": 4313,
      "bÃ¡m": 4314,
      "Ġvnu": 4315,
      "ĠbledÃ½": 4316,
      "yta": 4317,
      "Ġhosti": 4318,
      "Ġtvor": 4319,
      "Ġvar": 4320,
      "ĠPR": 4321,
      "Ġnajde": 4322,
      "hnul": 4323,
      "ejÅ¡i": 4324,
      "ĠpohÅĻ": 4325,
      "Ġvet": 4326,
      "ĠvolnÄĽ": 4327,
      "Ġmimo": 4328,
      "zek": 4329,
      "eslo": 4330,
      "ĠzlÃŃ": 4331,
      "ĠzachvÄĽ": 4332,
      "kry": 4333,
      "lec": 4334,
      "ĠchlÃ©b": 4335,
      "ĠradostÃŃ": 4336,
      "ĠtÄĽÅ¾ko": 4337,
      "ĠVÃŃtÄĽzslav": 4338,
      "oste": 4339,
      "ÄĽst": 4340,
      "valil": 4341,
      "ĠBÅĻezina": 4342,
      "livÃ©": 4343,
      "ĠÅ¾enou": 4344,
      "ĠlesnÃŃ": 4345,
      "ĠHÃ¡lek": 4346,
      "Ġnesmr": 4347,
      "Ġpekel": 4348,
      "ĠnepÅĻe": 4349,
      "Ġpropast": 4350,
      "ĠbolÃŃ": 4351,
      "bila": 4352,
      "Ġhroby": 4353,
      "ĠplÃ¡Äįi": 4354,
      "ter": 4355,
      "ĠnemÄĽl": 4356,
      "ĠmÅ¯Å¾": 4357,
      "Ġpes": 4358,
      "ĠXAXAB": 4359,
      "ouz": 4360,
      "ĠbohÅ¯": 4361,
      "ĠmÅĻÃŃ": 4362,
      "mund": 4363,
      "Ġrak": 4364,
      "aska": 4365,
      "ĠptÃ¡Äįe": 4366,
      "erdina": 4367,
      "Ġzapomen": 4368,
      "Ġvzdor": 4369,
      "ÄĽc": 4370,
      "ĠvÅ¡ÃŃ": 4371,
      "Ġodkud": 4372,
      "ĠzlÃ©": 4373,
      "ĠnovÃ½ch": 4374,
      "ĠzÅĻÃŃt": 4375,
      "ece": 4376,
      "ynu": 4377,
      "ĠzlÃ¡": 4378,
      "chom": 4379,
      "ĠslyÅ¡e": 4380,
      "Ġzo": 4381,
      "LED": 4382,
      "ĠtmavÃ©": 4383,
      "ĠsplÃ½vÃ¡": 4384,
      "Ġpodob": 4385,
      "ĠrokÅ¯": 4386,
      "ĠÅ¾ivotem": 4387,
      "Ġmaje": 4388,
      "ĠupomÃŃ": 4389,
      "adce": 4390,
      "ĠlÃŃbe": 4391,
      "Ġpromlu": 4392,
      "Ġsnes": 4393,
      "ĠDU": 4394,
      "tud": 4395,
      "Ġdraho": 4396,
      "uly": 4397,
      "fer": 4398,
      "ĠpoÅĻÃ¡": 4399,
      "ĠposmÄĽ": 4400,
      "Ġhraje": 4401,
      "nuly": 4402,
      "ochu": 4403,
      "ĠsbÃŃ": 4404,
      "ĠkaÅ¾dÃ©m": 4405,
      "Ġmatku": 4406,
      "Ġzvuky": 4407,
      "ĠstÄĽny": 4408,
      "nali": 4409,
      "volÃ¡": 4410,
      "Ġzdali": 4411,
      "ĠAABBX": 4412,
      "ĠdÃ¡ti": 4413,
      "Ġrad": 4414,
      "odil": 4415,
      "anku": 4416,
      "ĠpÄĽknÄĽ": 4417,
      "Ġztich": 4418,
      "nÃŃky": 4419,
      "Ġnevz": 4420,
      "ĠtemnÄĽ": 4421,
      "ĠchÃ½lÃŃ": 4422,
      "pit": 4423,
      "ĠnaÅ¡el": 4424,
      "adal": 4425,
      "ujeÅ¡": 4426,
      "acek": 4427,
      "ĠzlÃ½": 4428,
      "ĠXXXXXXXXXXXXXXXXXXXXXXXXXXXXXXXX": 4429,
      "ĠtajemstvÃŃ": 4430,
      "ÄĽtÄĽ": 4431,
      "Ġzal": 4432,
      "Ġkristu": 4433,
      "Ġlodi": 4434,
      "Ġly": 4435,
      "vedl": 4436,
      "ĠvaÅ¡ÃŃ": 4437,
      "prav": 4438,
      "ĠzelenÃ©": 4439,
      "ĠhledÄĽl": 4440,
      "Ġhorou": 4441,
      "ÅĻenÃ½": 4442,
      "Ġdceru": 4443,
      "ust": 4444,
      "ĠnÃ¡ruÄįÃŃ": 4445,
      "DY": 4446,
      "Å¾Å¡ÃŃ": 4447,
      "Ġkade": 4448,
      "ĠrudÃ½": 4449,
      "Ġvichr": 4450,
      "telÃ©": 4451,
      "tili": 4452,
      "ĠmeÄįem": 4453,
      "Ġjazyk": 4454,
      "ĠjinÃŃ": 4455,
      "Ġkole": 4456,
      "nese": 4457,
      "voucÃŃ": 4458,
      "ĠlÃŃp": 4459,
      "Ġslovy": 4460,
      "ĠnÄĽkde": 4461,
      "LAV": 4462,
      "Ġoken": 4463,
      "ĠmÄĽstÄĽ": 4464,
      "ĠmÃ©mu": 4465,
      "ĠvÄĽtru": 4466,
      "ĠÄįtv": 4467,
      "Ġlidi": 4468,
      "Ġsvato": 4469,
      "XD": 4470,
      "Ġjindy": 4471,
      "Ġnesk": 4472,
      "ĠneÅ¡Å¥ast": 4473,
      "ĠblÃŃz": 4474,
      "ĠprostÅĻed": 4475,
      "jdou": 4476,
      "yp": 4477,
      "ĠsvÄĽtÅ¯": 4478,
      "ĠSVAT": 4479,
      "Ġnenad": 4480,
      "ĠprÃ¡vo": 4481,
      "kra": 4482,
      "ekla": 4483,
      "lÃŃÄįek": 4484,
      "ĠpÃ¡lÃŃ": 4485,
      "ĠptaÄįÃŃ": 4486,
      "ujÃŃ": 4487,
      "Ġster": 4488,
      "Ġmate": 4489,
      "ĠmeÄįe": 4490,
      "Ġjitro": 4491,
      "Ġstran": 4492,
      "ĠdÄĽji": 4493,
      "ĠXXXXXXXXXXX": 4494,
      "ĠVEÄĮER": 4495,
      "enci": 4496,
      "Ġlad": 4497,
      "cher": 4498,
      "eba": 4499,
      "ĠmocÃŃ": 4500,
      "adil": 4501,
      "vede": 4502,
      "ÃģT": 4503,
      "alil": 4504,
      "Ġtvr": 4505,
      "ĠlÅ¯Å¾": 4506,
      "ĠstÃŃnÅ¯": 4507,
      "onÄĽ": 4508,
      "Ġopat": 4509,
      "lÃ©tÃ¡": 4510,
      "Ġmluvil": 4511,
      "inka": 4512,
      "Ġzh": 4513,
      "Ġvykou": 4514,
      "Ġkruh": 4515,
      "ent": 4516,
      "Ġbarev": 4517,
      "ĠVIII": 4518,
      "Ġrozech": 4519,
      "Ġnoha": 4520,
      "ĠHav": 4521,
      "ĠdivÃ½": 4522,
      "Å¡nÃ©": 4523,
      "ĠobjÃŃm": 4524,
      "SKÃĿ": 4525,
      "Ġzima": 4526,
      "ĠstaÄįÃŃ": 4527,
      "Ġkrvi": 4528,
      "rku": 4529,
      "ytu": 4530,
      "ledne": 4531,
      "ĠnÄĽmÃ½": 4532,
      "ĠvÅ¯dce": 4533,
      "Ġkos": 4534,
      "Ġbran": 4535,
      "Ġpust": 4536,
      "ÄĽtla": 4537,
      "Ġpoznal": 4538,
      "skne": 4539,
      "Ġtvoji": 4540,
      "ÄĽÄį": 4541,
      "ĠnechÃ¡": 4542,
      "ĠvÅ¡ady": 4543,
      "ÅłE": 4544,
      "ĠvÄĽÅ¾e": 4545,
      "ĠBa": 4546,
      "Ġskoro": 4547,
      "stane": 4548,
      "ĠcitÅ¯": 4549,
      "omy": 4550,
      "OVA": 4551,
      "ĠÃºt": 4552,
      "Ġnesmrtel": 4553,
      "dru": 4554,
      "Äįte": 4555,
      "ĠhrÅ¯zy": 4556,
      "ahle": 4557,
      "kva": 4558,
      "unce": 4559,
      "ĠbÃ¡j": 4560,
      "ĠduchÅ¯": 4561,
      "ĠvÃŃr": 4562,
      "ĠpravÃ½": 4563,
      "ĠtÃŃÅ¾ÃŃ": 4564,
      "luje": 4565,
      "kÃ¡n": 4566,
      "Ġvzdych": 4567,
      "ĠpÅĻÃ¡nÃŃ": 4568,
      "sni": 4569,
      "ĠmÄĽj": 4570,
      "Ġpadne": 4571,
      "mor": 4572,
      "Ġbojov": 4573,
      "Ġukry": 4574,
      "Ġhodi": 4575,
      "ĠvelikÃ½": 4576,
      "Ġlem": 4577,
      "ĠozvÄĽ": 4578,
      "Ġplnou": 4579,
      "hlÃ½": 4580,
      "esku": 4581,
      "ĠnadÅ¡en": 4582,
      "ĠkÅĻik": 4583,
      "ĠdlanÃŃ": 4584,
      "ĠnesmÃŃr": 4585,
      "ĠrodÃŃ": 4586,
      "ĠSY": 4587,
      "ĠvÄĽtvÃŃ": 4588,
      "Ġzdr": 4589,
      "ĠdivnÃ©": 4590,
      "Ġkouzlo": 4591,
      "Ġotci": 4592,
      "ĠkaÅ¾dÃ½m": 4593,
      "polskÃ½": 4594,
      "Ġpsa": 4595,
      "Ġdavy": 4596,
      "Ġneho": 4597,
      "ĠlidskÃ½ch": 4598,
      "ĠskÃ¡la": 4599,
      "Ġlesem": 4600,
      "ĠzkÃ¡": 4601,
      "Ġprokle": 4602,
      "ĠPRA": 4603,
      "ÄĽvy": 4604,
      "ÄįenÃ©": 4605,
      "ĠÄįem": 4606,
      "Ġvane": 4607,
      "Ġjan": 4608,
      "Ġhmo": 4609,
      "Ġpoklad": 4610,
      "Ġzkou": 4611,
      "ĠPAN": 4612,
      "ÃīM": 4613,
      "ĠslavnÃ½": 4614,
      "Ġdoz": 4615,
      "ĠvÃŃtÄĽzstvÃŃ": 4616,
      "Ġhlubin": 4617,
      "jÃ¡": 4618,
      "rpu": 4619,
      "nÄĽch": 4620,
      "ĠtvÅ¯r": 4621,
      "bro": 4622,
      "ĠÅĻeka": 4623,
      "ĠvidÃŃÅ¡": 4624,
      "Ġostat": 4625,
      "CA": 4626,
      "kr": 4627,
      "ĠÅ¾elez": 4628,
      "ĠjÃ¡so": 4629,
      "ĠposlÃ©z": 4630,
      "erdinand": 4631,
      "Å¡nÃŃ": 4632,
      "kej": 4633,
      "Ġher": 4634,
      "nuv": 4635,
      "ĠvÃ¡clav": 4636,
      "ĠÅ¡pat": 4637,
      "bÃ¡nek": 4638,
      "ĠvlasÅ¯": 4639,
      "ĠmotÃ½l": 4640,
      "ĠnepÅĻÃ¡tel": 4641,
      "pis": 4642,
      "ĠÄįervÃ¡n": 4643,
      "ĠusmÃ¡": 4644,
      "Ġbod": 4645,
      "ĠOpolskÃ½": 4646,
      "ĠzpÄĽvu": 4647,
      "ĠslavnÃ©": 4648,
      "ckni": 4649,
      "Ġnejsem": 4650,
      "ĠblÃŃzko": 4651,
      "Ġprudce": 4652,
      "bnÃ©": 4653,
      "viti": 4654,
      "Ġ1800": 4655,
      "Ġdruhdy": 4656,
      "Ġvrah": 4657,
      "rajÃŃ": 4658,
      "vÅ¡ak": 4659,
      "etla": 4660,
      "ĠtvoÅĻÃŃ": 4661,
      "Ġkdybych": 4662,
      "taj": 4663,
      "Ġpouti": 4664,
      "ĠdlanÄĽ": 4665,
      "ĠvÅ¡ickni": 4666,
      "nkou": 4667,
      "Ġuti": 4668,
      "ĠIX": 4669,
      "hlÃŃÅĻ": 4670,
      "Ġvine": 4671,
      "ĠkoneÄįnÄĽ": 4672,
      "ouÅĻi": 4673,
      "ance": 4674,
      "ĠschvÃ¡": 4675,
      "ĠtajÃŃ": 4676,
      "Ġkmet": 4677,
      "IS": 4678,
      "Ġbrou": 4679,
      "ĠnosÃŃ": 4680,
      "ĠÅ¡tÃŃt": 4681,
      "Å¾et": 4682,
      "esta": 4683,
      "HA": 4684,
      "ĠvÄĽnec": 4685,
      "Ġmili": 4686,
      "bla": 4687,
      "omi": 4688,
      "jit": 4689,
      "vic": 4690,
      "Ġstranou": 4691,
      "ĠmocnÄĽ": 4692,
      "fa": 4693,
      "menÃŃ": 4694,
      "Ġzbu": 4695,
      "Ġda": 4696,
      "ĠMora": 4697,
      "ĠÃºdolÃŃ": 4698,
      "Ġkmit": 4699,
      "ĠÅĻÃŃtÃŃ": 4700,
      "Ġctnost": 4701,
      "ĠpodÃŃ": 4702,
      "Ġpozor": 4703,
      "Ġproudy": 4704,
      "ĠdlouhÃ¡": 4705,
      "ĠchladnÃ©": 4706,
      "ĠnejvyÅ¡": 4707,
      "Ġtkli": 4708,
      "Ġhbi": 4709,
      "ĠtmÄĽ": 4710,
      "ince": 4711,
      "ĠukÃ¡": 4712,
      "ĠslzÃŃ": 4713,
      "lejÅ¡ÃŃ": 4714,
      "elka": 4715,
      "echem": 4716,
      "Ġkryje": 4717,
      "Ġut": 4718,
      "ĠoÄįima": 4719,
      "iseÅĪ": 4720,
      "ĠÅ¡pi": 4721,
      "azy": 4722,
      "sila": 4723,
      "padÃ¡": 4724,
      "sÅ¯": 4725,
      "Ġvin": 4726,
      "ĠkÅĻÃŃdel": 4727,
      "ĠÅ¡t": 4728,
      "Ġzmizel": 4729,
      "enstvi": 4730,
      "Ġnapl": 4731,
      "ĠÅ¾es": 4732,
      "Ġnebez": 4733,
      "bli": 4734,
      "ĠhnÄĽvu": 4735,
      "krÃ¡te": 4736,
      "letÄĽ": 4737,
      "ĠÅ¡eru": 4738,
      "jÃŃcÃŃm": 4739,
      "ĠtmÃ¡ch": 4740,
      "ĠumÄĽ": 4741,
      "ĠÅ¾alu": 4742,
      "ÄĽka": 4743,
      "Ġznal": 4744,
      "ĠtemnÃ½": 4745,
      "Ġhav": 4746,
      "Ġlok": 4747,
      "Ġzaho": 4748,
      "ĠchudÃ©": 4749,
      "ÄĽru": 4750,
      "ĠÄįistÃ½": 4751,
      "mat": 4752,
      "ĠLÃģ": 4753,
      "MA": 4754,
      "ĠprÃ¡va": 4755,
      "ĠdeÅ¡tÄĽ": 4756,
      "rnÃ½ch": 4757,
      "Ġtaky": 4758,
      "ĠdÃŃk": 4759,
      "inem": 4760,
      "ĠvrÃ¡til": 4761,
      "isto": 4762,
      "tic": 4763,
      "Å¾iv": 4764,
      "Ġroj": 4765,
      "Ġmlh": 4766,
      "ĠtÃ¡hnou": 4767,
      "CÃį": 4768,
      "Ã¡tku": 4769,
      "ĠÃļ": 4770,
      "Å¡ko": 4771,
      "ĠmoÅĻem": 4772,
      "ĠtrÃ¡vÄĽ": 4773,
      "ĠnadÄĽj": 4774,
      "asku": 4775,
      "Ġzacho": 4776,
      "ĠvelkÃ½ch": 4777,
      "ĠÅ¾alÃ¡": 4778,
      "enÃ½ch": 4779,
      "vanÃ©": 4780,
      "ĠvÄĽÄįnÃ¡": 4781,
      "ĠÄįarov": 4782,
      "Ġlisty": 4783,
      "ĠpÅĻÃŃval": 4784,
      "Äįno": 4785,
      "ĠÅĪÃ¡": 4786,
      "ĠtuÅ¡ÃŃ": 4787,
      "ĠPÅĺ": 4788,
      "XBB": 4789,
      "Ġmlha": 4790,
      "ĠmladÃŃ": 4791,
      "Ġstal": 4792,
      "ĠsamÃ©": 4793,
      "ĠmyÅ¡lenky": 4794,
      "Ġdobu": 4795,
      "Ġdlouhou": 4796,
      "Ġspokoj": 4797,
      "Ġvzte": 4798,
      "Ġpora": 4799,
      "ĠMI": 4800,
      "lÃ¡ch": 4801,
      "ĠnadÄĽjÃŃ": 4802,
      "Ġkvete": 4803,
      "STI": 4804,
      "ĠkrÃ¡Äįel": 4805,
      "etem": 4806,
      "Ġhledal": 4807,
      "Ġtouze": 4808,
      "NÃĿ": 4809,
      "oce": 4810,
      "Ġvelmi": 4811,
      "ĠdveÅĻÃŃ": 4812,
      "ÄĽn": 4813,
      "Ġplanou": 4814,
      "stavil": 4815,
      "ĠmÅ¾i": 4816,
      "Ġmrou": 4817,
      "ĠÄįasÅ¯": 4818,
      "Ġlaho": 4819,
      "jdu": 4820,
      "ĠÅ¡edÃ©": 4821,
      "ema": 4822,
      "ĠbratÅĻe": 4823,
      "kÅĻÃŃ": 4824,
      "ĠÄįase": 4825,
      "ĠdÃŃval": 4826,
      "Ġstopy": 4827,
      "hlo": 4828,
      "ĠjinÃ¡": 4829,
      "ĠbÃŃda": 4830,
      "ĠPra": 4831,
      "ĠCrha": 4832,
      "skal": 4833,
      "ĠvzÃŃ": 4834,
      "moc": 4835,
      "ĠpÄĽv": 4836,
      "ĠsnÃ¡ch": 4837,
      "hni": 4838,
      "DKA": 4839,
      "ĠFerdinand": 4840,
      "Ġhed": 4841,
      "inam": 4842,
      "ĠkrÃ¡sou": 4843,
      "ĠUden": 4844,
      "lÃŃk": 4845,
      "Ġpomoci": 4846,
      "ĠneznÃ¡": 4847,
      "TO": 4848,
      "Ã¡Å¡": 4849,
      "luv": 4850,
      "ĠdivnÃ½": 4851,
      "Ġhoto": 4852,
      "ĠobÄĽÅ¥": 4853,
      "ĠÅ¾Ã¡dÃ¡": 4854,
      "ĠvÃ¡Å¡ni": 4855,
      "Ġvzru": 4856,
      "ÄĽne": 4857,
      "ĠveÅ¡k": 4858,
      "Ġkola": 4859,
      "Ġsklen": 4860,
      "ĠbÃ½val": 4861,
      "ĠnuÅ¾e": 4862,
      "lky": 4863,
      "Ġstolu": 4864,
      "Ġvelko": 4865,
      "ĠtÄĽchto": 4866,
      "Ġmluv": 4867,
      "ĠvÄĽtrem": 4868,
      "XXXXXXXXXXXXXXXXXXXXXXXXXXXXXXXXXXXXXXXXXXXXXXXXXXXXXXXXXXXXXXXX": 4869,
      "Ġmusil": 4870,
      "Ġoni": 4871,
      "Ġvdo": 4872,
      "Ġpadla": 4873,
      "Ġjesti": 4874,
      "ĠbÃŃdy": 4875,
      "ĠzÃ¡h": 4876,
      "TY": 4877,
      "isty": 4878,
      "tkem": 4879,
      "pÃŃnÃ¡": 4880,
      "stek": 4881,
      "Ġpekla": 4882,
      "ĠusmÃŃvÃ¡": 4883,
      "lnÃŃ": 4884,
      "Ġheb": 4885,
      "yn": 4886,
      "ĠzÃ¡b": 4887,
      "ĠpÅĻiÅ¡li": 4888,
      "ĠvelkÃ½m": 4889,
      "Ġvzbu": 4890,
      "ĠzÃ¡voj": 4891,
      "ĠQ": 4892,
      "Ġztr": 4893,
      "ĠÅĻÃŃÅ¡": 4894,
      "ĠjemnÄĽ": 4895,
      "DÄļ": 4896,
      "ĠsvÃŃrÃ¡": 4897,
      "eky": 4898,
      "Ġpano": 4899,
      "ĠÄĮE": 4900,
      "ĠSTAR": 4901,
      "ĠavÅ¡ak": 4902,
      "Ġzahy": 4903,
      "ĠÄįnÃŃ": 4904,
      "ĠÄįÃŃÅ¡": 4905,
      "ynÄĽ": 4906,
      "adly": 4907,
      "ĠtrÅ¯n": 4908,
      "ĠpÅĻelu": 4909,
      "ĠdÃ©Å¡Å¥": 4910,
      "Äįely": 4911,
      "GGF": 4912,
      "fle": 4913,
      "iho": 4914,
      "Å¾ili": 4915,
      "rÃ½vÃ¡": 4916,
      "atce": 4917,
      "erem": 4918,
      "ĠBabÃ¡nek": 4919,
      "tnÃ¡": 4920,
      "Ġnaho": 4921,
      "ĠÄįemu": 4922,
      "dum": 4923,
      "kvÄĽ": 4924,
      "Ġvyvo": 4925,
      "ĠsprÃ¡": 4926,
      "ĠspÃ¡nku": 4927,
      "covÃ©": 4928,
      "ĠOdvalil": 4929,
      "Ġrosa": 4930,
      "Ġstromu": 4931,
      "Ġsmutno": 4932,
      "ĠvstÃ¡vÃ¡": 4933,
      "ĠkvÃŃlÃŃ": 4934,
      "tÅĻ": 4935,
      "ÄįÃ¡": 4936,
      "vek": 4937,
      "ĠtÄĽlem": 4938,
      "Ġtehdy": 4939,
      "Ġkrajem": 4940,
      "Ġmohla": 4941,
      "kÅ¯v": 4942,
      "Å¡ly": 4943,
      "ouÅ¡ti": 4944,
      "Ġoknem": 4945,
      "dÃ©": 4946,
      "ysi": 4947,
      "tec": 4948,
      "ĠBoÅ¾": 4949,
      "hÃ¡ch": 4950,
      "ĠUhlÃŃÅĻ": 4951,
      "ivot": 4952,
      "ĠjeÅ¥": 4953,
      "ĠpravÃ©": 4954,
      "ĠbrÃ¡ny": 4955,
      "CXC": 4956,
      "ĠsedÃ¡": 4957,
      "NÃįK": 4958,
      "ĠchovÃ¡": 4959,
      "ĠvaÅ¡ich": 4960,
      "Ã¡me": 4961,
      "stoupil": 4962,
      "ĠslavnÄĽ": 4963,
      "ĠzamyÅ¡": 4964,
      "Ġhon": 4965,
      "Ġdneska": 4966,
      "Ġperly": 4967,
      "ĠvÃŃtÄĽ": 4968,
      "Ġner": 4969,
      "kop": 4970,
      "ĠsmÃ¡l": 4971,
      "ĠdrÅ¾ÃŃ": 4972,
      "ĠstaÅĻec": 4973,
      "dle": 4974,
      "yval": 4975,
      "Ġjede": 4976,
      "ĠKÅĻi": 4977,
      "ja": 4978,
      "Ġsnil": 4979,
      "Ġdok": 4980,
      "ĠloÅ¾i": 4981,
      "zÃ¡ch": 4982,
      "ĠmrtvÃ½": 4983,
      "ecko": 4984,
      "ĠvroucnÄĽ": 4985,
      "XXXXXX": 4986,
      "ĠrodnÃ©": 4987,
      "Ġlev": 4988,
      "ĠvÃ¡Å¾nÄĽ": 4989,
      "ĠhÃ¡je": 4990,
      "Ġjes": 4991,
      "vosti": 4992,
      "ĠlidskÃ¡": 4993,
      "Ġbru": 4994,
      "ĠodmÄĽ": 4995,
      "Ġkrista": 4996,
      "Ġvyje": 4997,
      "ĠjednÃŃm": 4998,
      "ĠsvÄĽtel": 4999,
      "ĠvÃ½kÅĻik": 5000,
      "Ġdrahou": 5001,
      "ĠtÄĽÅ¾kÃ¡": 5002,
      "ĠskrÃ½vÃ¡": 5003,
      "ÄįnÃ½m": 5004,
      "ĠtrÅ¯nu": 5005,
      "Ġklade": 5006,
      "ĠtÃŃÅ¾": 5007,
      "nt": 5008,
      "Ġpoesie": 5009,
      "Å¾ela": 5010,
      "ĠtÄĽÅ¡ÃŃ": 5011,
      "ĠvÄĽtve": 5012,
      "rati": 5013,
      "ald": 5014,
      "ĠvÄĽku": 5015,
      "Å¾ek": 5016,
      "bÃ½": 5017,
      "uty": 5018,
      "oudi": 5019,
      "Ġodva": 5020,
      "ĠzvÄĽst": 5021,
      "Ġplou": 5022,
      "ĠÅĻÃŃÅ¡i": 5023,
      "ahne": 5024,
      "ĠchÅ¯": 5025,
      "ĠzbraÅĪ": 5026,
      "JE": 5027,
      "tul": 5028,
      "ĠsÃŃÅĪ": 5029,
      "ĠkÃ½vÃ¡": 5030,
      "Ġulic": 5031,
      "Ã¼n": 5032,
      "ÃīHO": 5033,
      "ĠzÅ¯stal": 5034,
      "pec": 5035,
      "aÅ¡ek": 5036,
      "dlÃ©": 5037,
      "ĠupÅĻÃŃm": 5038,
      "ĠsmutnÃ¡": 5039,
      "rovna": 5040,
      "nÃŃka": 5041,
      "Ġduchem": 5042,
      "ĠzÃ¡kon": 5043,
      "uv": 5044,
      "Ġjal": 5045,
      "ĠvichÅĻi": 5046,
      "Ġrosy": 5047,
      "ĠrÃ½": 5048,
      "ĠmocnÃ½": 5049,
      "cuje": 5050,
      "ĠosamÄĽ": 5051,
      "ĠchvÄĽla": 5052,
      "ĠdÃ½chÃ¡": 5053,
      "ia": 5054,
      "ĠjinÃ½m": 5055,
      "Ã¶": 5056,
      "rav": 5057,
      "enku": 5058,
      "ĠjÃ¡sÃ¡": 5059,
      "Ġmiloval": 5060,
      "hlÃŃÅ¾ÃŃ": 5061,
      "ĠdÃ¡vnÃ½ch": 5062,
      "ĠrÃ¡ji": 5063,
      "ĠhnÃ¡": 5064,
      "ĠsvÅ¯": 5065,
      "ĠdivÃ©": 5066,
      "ĠÅ¾hou": 5067,
      "ĠnÃ©": 5068,
      "Ġplod": 5069,
      "Ġkolik": 5070,
      "Ġpet": 5071,
      "ĠlÃ©pe": 5072,
      "ĠnejvÃŃc": 5073,
      "ÅĻeny": 5074,
      "skla": 5075,
      "Ġgra": 5076,
      "kampa": 5077,
      "Ġdlu": 5078,
      "alky": 5079,
      "ĠbÃŃdu": 5080,
      "ÅĻÃŃÅ¡": 5081,
      "ĠÄįÃŃÅ¡e": 5082,
      "DE": 5083,
      "ĠmÃ¡ti": 5084,
      "ĠprchÃ¡": 5085,
      "ÄĽky": 5086,
      "Ġdotk": 5087,
      "Ġucho": 5088,
      "ĠÅłkampa": 5089,
      "ĠstÅĻedu": 5090,
      "ĠrozechvÄĽ": 5091,
      "ĠpÃ½": 5092,
      "ĠbolestÃŃ": 5093,
      "dovÃ©": 5094,
      "ĠstÃ¡ti": 5095,
      "ĠplÃ¡Å¡Å¥": 5096,
      "ĠvznÃ¡Å¡ÃŃ": 5097,
      "Ġtyto": 5098,
      "XE": 5099,
      "rÃ¡t": 5100,
      "ĠvzrÅ¯": 5101,
      "rva": 5102,
      "nÃ¡c": 5103,
      "eoÄįi": 5104,
      "ĠVO": 5105,
      "ĠmoÅĻ": 5106,
      "ury": 5107,
      "Ġmnich": 5108,
      "ĠÅ¾ivÃ©": 5109,
      "ĠtrÃ½": 5110,
      "ĠkÅ¯ÅĪ": 5111,
      "hostej": 5112,
      "dni": 5113,
      "ĠodvÃ¡": 5114,
      "ĠpÃ¡nu": 5115,
      "ino": 5116,
      "rky": 5117,
      "Ġbolem": 5118,
      "ĠpoupÄĽ": 5119,
      "ĠÅ¡tÄĽd": 5120,
      "ĠhrÅ¯za": 5121,
      "Ġhluk": 5122,
      "ĠbÃ¡je": 5123,
      "ĠkÃ¡Å¾e": 5124,
      "nÅ¯m": 5125,
      "Ġluh": 5126,
      "ÄĽchu": 5127,
      "ĠtuÅ¾": 5128,
      "Ġdcera": 5129,
      "ĠVLA": 5130,
      "Ġmilou": 5131,
      "nÄĽla": 5132,
      "Ġdumy": 5133,
      "iry": 5134,
      "ĠAABBCCDDEE": 5135,
      "ĠstoupÃ¡": 5136,
      "adnou": 5137,
      "Å¡eÅĪ": 5138,
      "Ġvzly": 5139,
      "ĠsvÄĽd": 5140,
      "Ġpurpu": 5141,
      "ĠdvÃ©ÅĻe": 5142,
      "Ġvolal": 5143,
      "ĠpotÅĻe": 5144,
      "Å®V": 5145,
      "vel": 5146,
      "Ġkosti": 5147,
      "Ġusta": 5148,
      "ĠkterÃ½m": 5149,
      "Ġslzou": 5150,
      "ĠdivÃ¡": 5151,
      "Ġzdro": 5152,
      "Ġpanna": 5153,
      "unu": 5154,
      "Ġad": 5155,
      "Ġau": 5156,
      "edal": 5157,
      "ĠpÅĻÃŃrody": 5158,
      "rek": 5159,
      "nej": 5160,
      "ÅĻickÃ½": 5161,
      "jÃŃcÃŃch": 5162,
      "ĠÅĻady": 5163,
      "ĠchladnÃ½": 5164,
      "LÃį": 5165,
      "Ġpob": 5166,
      "ĠVZ": 5167,
      "Ġony": 5168,
      "Ġprsty": 5169,
      "nilo": 5170,
      "Ġjakou": 5171,
      "dÄĽti": 5172,
      "ĠplnÃ¡": 5173,
      "ÅĻenÃ¡": 5174,
      "Ġex": 5175,
      "ĠnazpÄĽt": 5176,
      "Ġdro": 5177,
      "ĠsedÄĽl": 5178,
      "bnÃ½": 5179,
      "ĠkrÃ¡snou": 5180,
      "ĠuÅ¡": 5181,
      "ĠvÄĽrnÄĽ": 5182,
      "ĠdÄĽlÃ¡": 5183,
      "Ġradu": 5184,
      "Ġbisku": 5185,
      "ĠhonÃŃ": 5186,
      "ĠmladÃ½ch": 5187,
      "ĠpracÃŃ": 5188,
      "ĠtatÃŃ": 5189,
      "zenÃŃ": 5190,
      "ĠnechtÄĽ": 5191,
      "ĠvaÅ¡i": 5192,
      "udem": 5193,
      "Ġstruny": 5194,
      "dnÃ½m": 5195,
      "Ġshas": 5196,
      "yka": 5197,
      "dÃ¡nÃŃ": 5198,
      "ĠchudÃ¡": 5199,
      "ĠÅ¡koda": 5200,
      "anÅ¯": 5201,
      "ĠmÃŃstÄĽ": 5202,
      "ĠstÃ¡ÅĻÃŃ": 5203,
      "istÄĽ": 5204,
      "lÃ¡nÃŃ": 5205,
      "ĠhÃ¡zÃŃ": 5206,
      "Ġplyne": 5207,
      "ĠpotÃ¡": 5208,
      "ĠprostÃ©": 5209,
      "ĠplnÃŃ": 5210,
      "ĠmarnÃ©": 5211,
      "ĠhnÃŃzdo": 5212,
      "VNÃį": 5213,
      "loudil": 5214,
      "ĠÄįistÃ¡": 5215,
      "ĠplÃ¡po": 5216,
      "ĠÅ¾enÄĽ": 5217,
      "ĠÅ¾havÃ©": 5218,
      "ÅĻili": 5219,
      "ĠnesmÄĽ": 5220,
      "uis": 5221,
      "Ġzast": 5222,
      "vech": 5223,
      "lenou": 5224,
      "Ġmluvit": 5225,
      "Ġchlap": 5226,
      "ĠtisÃŃ": 5227,
      "ĠÄįekal": 5228,
      "Ġnitro": 5229,
      "Ġztracen": 5230,
      "krÃ¡snÄĽjÅ¡ÃŃ": 5231,
      "Ġ4": 5232,
      "ĠcÃŃle": 5233,
      "Ġlhostej": 5234,
      "ĠpoznÃ¡": 5235,
      "ĠodpovÃŃ": 5236,
      "kaly": 5237,
      "chvÃ¡": 5238,
      "Ġrve": 5239,
      "inach": 5240,
      "Ġrodu": 5241,
      "Ġdavu": 5242,
      "ĠABABCDDC": 5243,
      "ĠjedinÃ¡": 5244,
      "nkem": 5245,
      "ĠsvÄĽtlem": 5246,
      "ĠprÃ¡zdno": 5247,
      "Ã½Å¡": 5248,
      "lat": 5249,
      "Ġuse": 5250,
      "ĠpovÄĽz": 5251,
      "ĠvÄĽÅ¾ÃŃ": 5252,
      "ovÃ½ch": 5253,
      "ĠverÅ¡": 5254,
      "ĠBALLADA": 5255,
      "ĠzÃ¡padu": 5256,
      "ĠutÃŃ": 5257,
      "ĠÄįernou": 5258,
      "ĠletnÃŃ": 5259,
      "ĠtrÃ¡vy": 5260,
      "ĠvlÃ¡dne": 5261,
      "Ġmladi": 5262,
      "ĠstÅĻÃŃbro": 5263,
      "Ġkalich": 5264,
      "kvÄĽt": 5265,
      "Ġpav": 5266,
      "ĠpÅĻines": 5267,
      "ĠzpÄĽvy": 5268,
      "iral": 5269,
      "Ġpeklo": 5270,
      "enzi": 5271,
      "edem": 5272,
      "ĠÄĮen": 5273,
      "iÄį": 5274,
      "ĠveÄįe": 5275,
      "INA": 5276,
      "tnou": 5277,
      "ĠÅ¡ÃŃp": 5278,
      "Ġzmize": 5279,
      "ĠÃºzkost": 5280,
      "ARO": 5281,
      "vici": 5282,
      "ĠÅ¡kle": 5283,
      "ES": 5284,
      "Ġlabu": 5285,
      "ahou": 5286,
      "dec": 5287,
      "itra": 5288,
      "ĠABBACDDC": 5289,
      "ĠskÃ¡le": 5290,
      "ÄĽnce": 5291,
      "ĠÅ¾eni": 5292,
      "ĠzdaÅ¾": 5293,
      "iÅĻe": 5294,
      "ĠAl": 5295,
      "ĠÅ¾itÃŃm": 5296,
      "ĠvelikÃ©": 5297,
      "ĠpÅ¯jde": 5298,
      "Ġrostou": 5299,
      "anky": 5300,
      "ĠradÄĽj": 5301,
      "TÃį": 5302,
      "Ġmalo": 5303,
      "edek": 5304,
      "ÄįÅ¯": 5305,
      "asnÄĽ": 5306,
      "ĠÅ¾havÃ½": 5307,
      "lÃŃch": 5308,
      "Ġletem": 5309,
      "ĠspÄĽch": 5310,
      "usti": 5311,
      "ĠdivnÄĽ": 5312,
      "elu": 5313,
      "tali": 5314,
      "ĠmanÄĽ": 5315,
      "Ġnalez": 5316,
      "ĠdÃŃky": 5317,
      "Ġhous": 5318,
      "osy": 5319,
      "nili": 5320,
      "ĠnejkrÃ¡snÄĽjÅ¡ÃŃ": 5321,
      "Ġpokry": 5322,
      "ĠzvuÄįÃŃ": 5323,
      "jak": 5324,
      "rovÃ©": 5325,
      "cie": 5326,
      "ĠokamÅ¾ik": 5327,
      "rka": 5328,
      "slu": 5329,
      "ĠhÅ¯": 5330,
      "ĠÃºto": 5331,
      "Ġnejsou": 5332,
      "ĠptÃ¡kÅ¯": 5333,
      "Ġskali": 5334,
      "itil": 5335,
      "ĠXXXXXXXXXXXXXXXXXXXXXXXX": 5336,
      "pÃŃrÃ¡": 5337,
      "ĠmnohÃ¡": 5338,
      "Ġmistr": 5339,
      "Ġunaven": 5340,
      "ĠÅ½IVO": 5341,
      "tÃ©ho": 5342,
      "ĠmuÅ¾Å¯": 5343,
      "nily": 5344,
      "cÃŃho": 5345,
      "ĠAABCBCDD": 5346,
      "vak": 5347,
      "Ġrozpu": 5348,
      "ĠpapeÅ¾": 5349,
      "Ġpomalu": 5350,
      "Ġbarvy": 5351,
      "ii": 5352,
      "Ġzba": 5353,
      "avÅĻel": 5354,
      "mon": 5355,
      "ÄĽhu": 5356,
      "ĠXXXXXXXXXXXXX": 5357,
      "ĠJak": 5358,
      "Ġkarel": 5359,
      "ĠBoÅ¾ena": 5360,
      "lady": 5361,
      "ĠdunÃŃ": 5362,
      "ZPÄļV": 5363,
      "ĠsÃ½": 5364,
      "ĠstÃ¡li": 5365,
      "ĠvÃŃtÃ¡": 5366,
      "Ġvyko": 5367,
      "ĠjejÃŃch": 5368,
      "Ġklobou": 5369,
      "ĠÄįinÃŃ": 5370,
      "gra": 5371,
      "ĠskrÃ¡nÄĽ": 5372,
      "ĠÄįelem": 5373,
      "ĠklÃŃnu": 5374,
      "ĠletÄĽ": 5375,
      "hlav": 5376,
      "Ġcha": 5377,
      "ĠdennÃŃ": 5378,
      "Ã¡tko": 5379,
      "ĠpoÅ¾ehnÃ¡nÃŃ": 5380,
      "ÅĻich": 5381,
      "ischer": 5382,
      "ĠÄįtvrt": 5383,
      "ĠbdÃŃ": 5384,
      "ĠÄįeho": 5385,
      "Ġdomov": 5386,
      "Ġsnech": 5387,
      "ÄĽmi": 5388,
      "enym": 5389,
      "Ġsvobody": 5390,
      "Ġnutno": 5391,
      "ĠvdÄĽk": 5392,
      "Ġjablo": 5393,
      "ĠmrakÅ¯": 5394,
      "ĠdnÄĽ": 5395,
      "nÄĽt": 5396,
      "Ġclo": 5397,
      "eci": 5398,
      "ĠvÄĽnce": 5399,
      "ĠFischer": 5400,
      "Ġzasta": 5401,
      "ĠWenzi": 5402,
      "ĠWenzig": 5403,
      "nÄĽnÃ©": 5404,
      "ĠkÅĻiÄįÃŃ": 5405,
      "yska": 5406,
      "ĠÅ¡Å¥asten": 5407,
      "ĠrÃ¡mÄĽ": 5408,
      "eÄįer": 5409,
      "ĠskrÃ¡nÃŃ": 5410,
      "Ġhyne": 5411,
      "ÄįkÃ½": 5412,
      "ĠMoravskÃ½": 5413,
      "Ġzar": 5414,
      "ĠvlnÃ¡ch": 5415,
      "Ġsoumra": 5416,
      "ib": 5417,
      "ĠÄįtyÅĻi": 5418,
      "Ġlesku": 5419,
      "Ġmyslil": 5420,
      "ĠÄįlovÄĽku": 5421,
      "ĠkÅĻiv": 5422,
      "ĠzbranÄĽ": 5423,
      "zÃŃch": 5424,
      "Ġpozved": 5425,
      "ĠstokrÃ¡t": 5426,
      "Ġev": 5427,
      "ĠrozkoÅ¡e": 5428,
      "Ġbe": 5429,
      "Ġnepoz": 5430,
      "ĠhrÃ¡l": 5431,
      "ĠokamÅ¾i": 5432,
      "ĠstÅ¯l": 5433,
      "Ġodtud": 5434,
      "ĠpÅĻÃŃmo": 5435,
      "ĠzvonÅ¯": 5436,
      "ĠdlouhÃ½ch": 5437,
      "ĠchvÄĽjÃŃ": 5438,
      "nÄĽte": 5439,
      "tily": 5440,
      "Ġnemohu": 5441,
      "ÄįkÅ¯": 5442,
      "Ġdruhu": 5443,
      "ĠkrÃ¡tkÃ½": 5444,
      "ĠplÃ¡Äįem": 5445,
      "nut": 5446,
      "ĠÃºz": 5447,
      "Ġnebesa": 5448,
      "ĠmyÅ¡lÃ©nky": 5449,
      "ĠubÃŃ": 5450,
      "ĠslzÃ¡ch": 5451,
      "Ġsvobodu": 5452,
      "ĠodpusÅ¥": 5453,
      "rie": 5454,
      "ĠtichÃ©m": 5455,
      "ĠÅ¡Ã¡": 5456,
      "ĠpÃ¡nem": 5457,
      "ĠnejvÄĽt": 5458,
      "ĠvÃ¡Å¡eÅĪ": 5459,
      "ovskÃ½": 5460,
      "ĠsmÃŃchem": 5461,
      "aven": 5462,
      "ĠvÅ¡udy": 5463,
      "Ġskrom": 5464,
      "ac": 5465,
      "nuli": 5466,
      "nulo": 5467,
      "Äįina": 5468,
      "ĠverÅ¡e": 5469,
      "Ġkristus": 5470,
      "Ġoslav": 5471,
      "ĠzaznÃŃ": 5472,
      "ĠvÄĽrnÃ½": 5473,
      "ÄĽda": 5474,
      "Ġmet": 5475,
      "Ġstanul": 5476,
      "Ġsmrtel": 5477,
      "ĠÅĻada": 5478,
      "ĠpÅĻipra": 5479,
      "ĠÃºc": 5480,
      "Ġvtip": 5481,
      "Ġnek": 5482,
      "ĠleÅ¾": 5483,
      "ĠKva": 5484,
      "Ġstin": 5485,
      "Ġak": 5486,
      "Ġjel": 5487,
      "ĠpÄĽstÃŃ": 5488,
      "lada": 5489,
      "Ġvzlet": 5490,
      "Ġtoto": 5491,
      "Å¾eb": 5492,
      "Ġslast": 5493,
      "ĠspoleÄį": 5494,
      "ivat": 5495,
      "Ġmalou": 5496,
      "ĠvzpomÃŃnÃ¡m": 5497,
      "ĠznÃ¡Å¡": 5498,
      "Ġobzoru": 5499,
      "Ġjat": 5500,
      "Ġnesta": 5501,
      "ĠvÄĽdÄĽl": 5502,
      "rostÅĻed": 5503,
      "ĠÅ¡eptÃ¡": 5504,
      "Ġjinoch": 5505,
      "Ġpusti": 5506,
      "Ġdaleka": 5507,
      "enka": 5508,
      "ĠsvÄĽdomÃŃ": 5509,
      "ĠrÃ¡di": 5510,
      "ĠÅ¾eno": 5511,
      "lala": 5512,
      "ĠcÃŃli": 5513,
      "ĠvÄĽÄįnost": 5514,
      "Ġstrachu": 5515,
      "ĠPOS": 5516,
      "eskem": 5517,
      "ĠlÃŃbez": 5518,
      "hlou": 5519,
      "Ġkruhu": 5520,
      "Ġztratil": 5521,
      "Ġkop": 5522,
      "hala": 5523,
      "ĠkdeÅ¾": 5524,
      "ĠhrozÃŃ": 5525,
      "ĠsÃŃnÄĽ": 5526,
      "ĠQuis": 5527,
      "Ġkor": 5528,
      "ĠtmavÃ½": 5529,
      "ĠhrabÄĽ": 5530,
      "hovÃ©": 5531,
      "ĠvÃ¡bÃŃ": 5532,
      "Ġdivy": 5533,
      "ĠpouÅ¡ti": 5534,
      "ĠzvÃŃÅĻe": 5535,
      "sÃ½": 5536,
      "Ġletech": 5537,
      "Ġtri": 5538,
      "ĠKvapil": 5539,
      "veÄįer": 5540,
      "ĠnoÅĻÃŃ": 5541,
      "ĠpÅĻÃŃteli": 5542,
      "ĠplÃ¡nÃŃ": 5543,
      "Ġnetu": 5544,
      "ĠtÄĽmi": 5545,
      "ĠnÄĽko": 5546,
      "ehu": 5547,
      "ĠznamenÃŃ": 5548,
      "ĠÅ¡edÃ½": 5549,
      "ĠneÅ¡tÄĽ": 5550,
      "ĠRacek": 5551,
      "Ġnach": 5552,
      "Ġpadl": 5553,
      "ĠvelikÃ¡": 5554,
      "Ġhovor": 5555,
      "Ġzuby": 5556,
      "Ġzrcad": 5557,
      "kami": 5558,
      "ĠABC": 5559,
      "ĠbuÅ¡ÃŃ": 5560,
      "ĠÅ¾Ã¡rem": 5561,
      "Ġlek": 5562,
      "ĠblahÃ©": 5563,
      ".*": 5564,
      "rosti": 5565,
      "ĠKON": 5566,
      "ĠvzkÅĻik": 5567,
      "Ġvodo": 5568,
      "Ġviny": 5569,
      "Ġobro": 5570,
      "ĠvraÅ¥": 5571,
      "Ġzbled": 5572,
      "ĠpÃŃt": 5573,
      "ĠLÃģSK": 5574,
      "ĠvnitÅĻ": 5575,
      "ÄįkÃ¡ch": 5576,
      "Ġnero": 5577,
      "Ġbychom": 5578,
      "ĠSE": 5579,
      "ĠvÃŃÅĻÃŃ": 5580,
      "tÅĻÃŃ": 5581,
      "lan": 5582,
      "udce": 5583,
      "ĠlÃŃcÃŃ": 5584,
      "inky": 5585,
      "CCDCD": 5586,
      "otem": 5587,
      "yÅ¡el": 5588,
      "ĠvlnÃŃ": 5589,
      "ĠstojÃŃm": 5590,
      "Ġdobrou": 5591,
      "ĠjiÅĻÃŃ": 5592,
      "ing": 5593,
      "isnÄĽ": 5594,
      "Ġknihy": 5595,
      "ĠzrakÅ¯": 5596,
      "oti": 5597,
      "rÄįi": 5598,
      "dilo": 5599,
      "ĠnovÃ½m": 5600,
      "EDEFF": 5601,
      "ĠzahrÃ¡": 5602,
      "hned": 5603,
      "uchem": 5604,
      "Ġslunko": 5605,
      "ĠzdrÃ¡v": 5606,
      "rÃ¡Å¾ÃŃ": 5607,
      "ĠjemuÅ¾": 5608,
      "Ġjiskry": 5609,
      "zdu": 5610,
      "ĠpÅ¯jdu": 5611,
      "rno": 5612,
      "ĠcelÃ©m": 5613,
      "ĠMedek": 5614,
      "ĠDÄļ": 5615,
      "ĠBÃģ": 5616,
      "ĠposvÄĽ": 5617,
      "ĠzÅĻÃŃÅ¡": 5618,
      "ĠpamÄĽti": 5619,
      "Ġzvyk": 5620,
      "Ġsud": 5621,
      "ĠdÄĽtem": 5622,
      "anuÅ¡": 5623,
      "Ġmechu": 5624,
      "ĠnÃ¡rodu": 5625,
      "Ġsloup": 5626,
      "Ġdub": 5627,
      "ĠpÃ¡s": 5628,
      "ĠkrÅ¯pÄĽj": 5629,
      "oÄį": 5630,
      "rala": 5631,
      "ĠÅ¾ivÃ½": 5632,
      "Ġobou": 5633,
      "ĠkrÄį": 5634,
      "ĠbÄĽd": 5635,
      "ĠpravdÄĽ": 5636,
      "ĠkÅĻÃŃdlem": 5637,
      "Ġvyr": 5638,
      "ĠhledÃŃm": 5639,
      "ĠBeneÅ¡ovÃ¡": 5640,
      "ĠsvatÃ½ch": 5641,
      "Ġsoucit": 5642,
      "ĠzpÃŃvat": 5643,
      "ĠprosÃŃ": 5644,
      "Ġzmat": 5645,
      "ĠÄıÃ¡bel": 5646,
      "EC": 5647,
      "ĠÅ¡ero": 5648,
      "ĠvÄĽÄįnou": 5649,
      "uchaÅĻ": 5650,
      "yku": 5651,
      "tilo": 5652,
      "ĠpoÅ¡": 5653,
      "ĠdomÃ¡": 5654,
      "ĠStaÅ¡ek": 5655,
      "ĠXL": 5656,
      "ĠAntal": 5657,
      "ANA": 5658,
      "Ġmladosti": 5659,
      "ĠzavÃ¡": 5660,
      "Å¡ila": 5661,
      "ĠmÄĽsÃŃce": 5662,
      "Ġohlas": 5663,
      "Ġhvozd": 5664,
      "XF": 5665,
      "umy": 5666,
      "ĠKuchaÅĻ": 5667,
      "yty": 5668,
      "livÃ¡": 5669,
      "ĠsrdcÃŃch": 5670,
      "ĠhvÄĽzdi": 5671,
      "ĠhrÅ¯z": 5672,
      "ĠmanÅ¾el": 5673,
      "fi": 5674,
      "ten": 5675,
      "ĠsamÃ½": 5676,
      "ĠslyÅ¡ÃŃÅ¡": 5677,
      "och": 5678,
      "tej": 5679,
      "ĠhroznÃ½": 5680,
      "atko": 5681,
      "tÃ¡ch": 5682,
      "ĠÅĻÃŃkÃ¡": 5683,
      "ĠcÃŃrk": 5684,
      "OVÃģ": 5685,
      "ĠmÃ½": 5686,
      "ĠvÅ¡ednÃŃ": 5687,
      "Ġspoj": 5688,
      "ÅĻenÃ½ch": 5689,
      "Ġvil": 5690,
      "stoj": 5691,
      "ĠnechtÄĽl": 5692,
      "ĠpustÃ©": 5693,
      "Ġ*": 5694,
      "Ġused": 5695,
      "ĠpastÃ½": 5696,
      "Ġcitu": 5697,
      "tvÃ¡": 5698,
      "Ġblaze": 5699,
      "Ġklesla": 5700,
      "ĠpozdnÃŃ": 5701,
      "jÃŃcÃ½": 5702,
      "ĠspÃŃcÃŃ": 5703,
      "ĠvzneÅ¡en": 5704,
      "ruh": 5705,
      "Ġpropasti": 5706,
      "ĠkorÃ¡": 5707,
      "ĠjedinÃ©": 5708,
      "ĠvÄĽcÃŃ": 5709,
      "ĠsÅĪ": 5710,
      "ĠnaÅĻÃŃ": 5711,
      "vÅ¯r": 5712,
      "Ġticha": 5713,
      "OVÃī": 5714,
      "ĠtÄĽÅ¾kou": 5715,
      "ÅĻena": 5716,
      "ĠmÅ¾ik": 5717,
      "ĠsmrÅ¥": 5718,
      "meni": 5719,
      "Ġpovin": 5720,
      "Ġuko": 5721,
      "Ġevro": 5722,
      "Ġnebu": 5723,
      "ĠkrÃ¡lem": 5724,
      "ĠpÃŃsku": 5725,
      "ĠPRVNÃį": 5726,
      "ĠJAR": 5727,
      "nim": 5728,
      "Äįili": 5729,
      "ĠjakÃ½s": 5730,
      "mrt": 5731,
      "Ġhalu": 5732,
      "ĠÅ¡tÄĽstÃŃm": 5733,
      "ĠplaÅ¡e": 5734,
      "oman": 5735,
      "Ġsat": 5736,
      "ÄĽsta": 5737,
      "ĠdnÃŃ": 5738,
      "ĠstÅ¯j": 5739,
      "Ġvida": 5740,
      "ĠtrhÃ¡": 5741,
      "ĠmodlÃŃ": 5742,
      "slov": 5743,
      "ĠkvÃ©": 5744,
      "ĠmlÃ©": 5745,
      "ĠpoÅ¾": 5746,
      "ĠplÃ¡l": 5747,
      "Ġchcete": 5748,
      "Å¡a": 5749,
      "Ġnechal": 5750,
      "jeme": 5751,
      "ĠvlÃ¡d": 5752,
      "Ġjinou": 5753,
      "ĠmÅĻe": 5754,
      "ĠoÅĻe": 5755,
      "nutÃŃm": 5756,
      "ĠrÃ©": 5757,
      "ĠcelÃ½m": 5758,
      "GGH": 5759,
      "ĠPÅĺED": 5760,
      "Ġchat": 5761,
      "ĠodvÄĽ": 5762,
      "inku": 5763,
      "ĠÅ¾ivotÄĽ": 5764,
      "Ġpanny": 5765,
      "ĠhÅĻÃŃÅ¡": 5766,
      "iska": 5767,
      "ĠpÄĽnÃŃ": 5768,
      "Ġteskno": 5769,
      "ĠDE": 5770,
      "ĠÄįerst": 5771,
      "letu": 5772,
      "asna": 5773,
      "ĠpÅĻis": 5774,
      "Ġleskem": 5775,
      "ĠvzpomÃŃnka": 5776,
      "ĠmÅ¯Å¾eÅ¡": 5777,
      "Ġrozma": 5778,
      "Ġzahrad": 5779,
      "ĠjdeÅ¡": 5780,
      "ĠtajnÄĽ": 5781,
      "Ġpopel": 5782,
      "api": 5783,
      "ĠÄįeskÃ¡": 5784,
      "ĠhÃ¡ji": 5785,
      "ĠvstÃ¡": 5786,
      "Ġvrat": 5787,
      "AM": 5788,
      "dÄĽji": 5789,
      "anek": 5790,
      "ĠhrdÃ©": 5791,
      "MEN": 5792,
      "stro": 5793,
      "Ġhus": 5794,
      "Ġkup": 5795,
      "ĠPOHÃģ": 5796,
      "enky": 5797,
      "lom": 5798,
      "Ġhlavi": 5799,
      "Ġstisk": 5800,
      "Ġproudem": 5801,
      "najÃŃ": 5802,
      "ĠskuteÄį": 5803,
      "Ġvodou": 5804,
      "ĠMÃ¡": 5805,
      "ĠmoÅ¾nÃ¡": 5806,
      "ĠBoro": 5807,
      "ĠdÄĽvy": 5808,
      "Ġluna": 5809,
      "ilÃŃ": 5810,
      "Ġracho": 5811,
      "ĠpouÅ¡tÄĽ": 5812,
      "DU": 5813,
      "ule": 5814,
      "Ġ5": 5815,
      "dÄĽlÃ¡": 5816,
      "ĠbÄĽlost": 5817,
      "ĠhroznÃ©": 5818,
      "lili": 5819,
      "DI": 5820,
      "ĠtanÄįÃŃ": 5821,
      "ĠhrajÃŃ": 5822,
      "Ġchvilku": 5823,
      "vÃ½mi": 5824,
      "Ġvzala": 5825,
      "ĠstÃŃnem": 5826,
      "dlen": 5827,
      "ĠnÄĽme": 5828,
      "ĠpÅĻÃŃroda": 5829,
      "Ġblankyt": 5830,
      "Ġlen": 5831,
      "ĠVÃį": 5832,
      "MU": 5833,
      "ÅĻej": 5834,
      "mÃ¡nÃŃ": 5835,
      "ĠspÄĽchÃ¡": 5836,
      "Ġkorunu": 5837,
      "Ġvry": 5838,
      "lova": 5839,
      "odne": 5840,
      "ĠnejvyÅ¡Å¡ÃŃ": 5841,
      "iÄįko": 5842,
      "jÃŃÅ¾": 5843,
      "ĠzlatÃ½m": 5844,
      "ĠspÃ¡t": 5845,
      "ĠvzdychÃ¡": 5846,
      "ĠjÃŃmÃ¡": 5847,
      "oupa": 5848,
      "ĠvÄĽrnÃ©": 5849,
      "ejde": 5850,
      "ĠodÄĽ": 5851,
      "ĠzaÅ¡e": 5852,
      "ĠmÃ¡Å¥": 5853,
      "ĠpouÅ¡tÃŃ": 5854,
      "ĠNOC": 5855,
      "Ġplen": 5856,
      "ahla": 5857,
      "Ġhrdin": 5858,
      "Ġnitra": 5859,
      "Ġmladou": 5860,
      "ĠlÃ¡sko": 5861,
      "Ġohrom": 5862,
      "ĠzavÃŃ": 5863,
      "Ġtamo": 5864,
      "Ġbratra": 5865,
      "leÅĪ": 5866,
      "ĠkrÃ¡snÄĽ": 5867,
      "Ġses": 5868,
      "Ġpolem": 5869,
      "Ġnadarmo": 5870,
      "CDDCE": 5871,
      "ĠÅ¾Ã¡dnÃ¡": 5872,
      "ĠslavÃŃk": 5873,
      "Ġnaklo": 5874,
      "vaje": 5875,
      "Ġboh": 5876,
      "ĠAABBCDCD": 5877,
      "Ġzlost": 5878,
      "Ġharf": 5879,
      "Ġzrovna": 5880,
      "ĠÄįervÃ¡": 5881,
      "ĠonÃ©": 5882,
      "Ġcity": 5883,
      "Ġtomto": 5884,
      "Ġsmysl": 5885,
      "bar": 5886,
      "ichy": 5887,
      "ÄĽnou": 5888,
      "itim": 5889,
      "ĠchystÃ¡": 5890,
      "Ġkvet": 5891,
      "ĠpoutnÃŃk": 5892,
      "ĠVlasti": 5893,
      "ĠnÃŃmÅ¾": 5894,
      "ĠhnutÃŃ": 5895,
      "Ġusly": 5896,
      "vodu": 5897,
      "ĠOB": 5898,
      "geli": 5899,
      "ÄĽdi": 5900,
      "novi": 5901,
      "ĠMÃģ": 5902,
      "ĠDÃį": 5903,
      "ide": 5904,
      "Å¡tÃŃm": 5905,
      "Ġvze": 5906,
      "Ġorel": 5907,
      "Ġjo": 5908,
      "ĠvÃ¡nek": 5909,
      "ynou": 5910,
      "ycky": 5911,
      "Ġmysti": 5912,
      "ĠsÃŃni": 5913,
      "ĠPfle": 5914,
      "ĠkrÃ¡lÅ¯": 5915,
      "ĠPfleger": 5916,
      "tne": 5917,
      "ĠLEG": 5918,
      "Ġtmu": 5919,
      "ĠhÅĻÃŃchu": 5920,
      "Ġctnosti": 5921,
      "Ġneji": 5922,
      "ĠzaÄįal": 5923,
      "Ġpy": 5924,
      "ĠpospÃŃ": 5925,
      "Ġnesla": 5926,
      "ĠdruhÃ¡": 5927,
      "Ġvzdechy": 5928,
      "ĠÄįar": 5929,
      "ĠkterÃ½ch": 5930,
      "Ġbral": 5931,
      "ĠbojÃŃ": 5932,
      "Ġplameny": 5933,
      "Ġbrzo": 5934,
      "etÄĽ": 5935,
      "ĠrozlÃ©": 5936,
      "Ġspad": 5937,
      "ĠtrÃ¡va": 5938,
      "ĠdrobnÃ©": 5939,
      "ĠlÃŃbal": 5940,
      "ĠÅĻÃ¡d": 5941,
      "Ġsym": 5942,
      "ĠABABCDCDEE": 5943,
      "ĠsnÃ¡": 5944,
      "huje": 5945,
      "ĠotvÃŃrÃ¡": 5946,
      "eÄįas": 5947,
      "tin": 5948,
      "Ġminul": 5949,
      "Ġluk": 5950,
      "ĠpojÃŃ": 5951,
      "ĠXXXXXXXXXXXXXX": 5952,
      "ĠABBACDCD": 5953,
      "ĠEr": 5954,
      "Ġpohledem": 5955,
      "Ġovo": 5956,
      "iba": 5957,
      "oÅĻ": 5958,
      "ĠVil": 5959,
      "Ġzdroj": 5960,
      "UR": 5961,
      "Ġmile": 5962,
      "ĠÄįert": 5963,
      "ĠzdÃ¡l": 5964,
      "NY": 5965,
      "ejich": 5966,
      "opy": 5967,
      "Ġzdob": 5968,
      "Ġjihu": 5969,
      "ĠjasnÃ¡": 5970,
      "ĠlÅ¯nÄĽ": 5971,
      "iste": 5972,
      "oÅĻil": 5973,
      "ĠmnÃŃ": 5974,
      "Ġmni": 5975,
      "ĠTau": 5976,
      "ĠdÃŃtky": 5977,
      "ĠzlatÃ©m": 5978,
      "ĠdÄĽvÄį": 5979,
      "ĠTaufer": 5980,
      "ĠzÃ¡ÅĻÃŃcÃŃ": 5981,
      "Ġazu": 5982,
      "ÅĻiti": 5983,
      "Ġhodiny": 5984,
      "ĠKara": 5985,
      "ĠCEST": 5986,
      "ĠpohÃ¡r": 5987,
      "ĠpalÃ¡": 5988,
      "Ġprahy": 5989,
      "Ġtouhu": 5990,
      "Ġsamot": 5991,
      "Ġukru": 5992,
      "oÅ¾il": 5993,
      "ĠzÃ¡zrak": 5994,
      "ÄĽtlo": 5995,
      "Ġstroj": 5996,
      "ĠneÅ¡tÄĽstÃŃ": 5997,
      "rvi": 5998,
      "ĠleÅ¾el": 5999,
      "skych": 6000,
      "ÄĽtÅ¡i": 6001,
      "Ġvojsko": 6002,
      "Ġpochyb": 6003,
      "Ġkyt": 6004,
      "emne": 6005,
      "menÃ¡": 6006,
      "ĠvÅ¡echen": 6007,
      "Ġzbro": 6008,
      "Ġvysoko": 6009,
      "ĠVÄļ": 6010,
      "Ġtemnou": 6011,
      "ĠsamotÄĽ": 6012,
      "ĠÅ¡est": 6013,
      "ĠbrÃ¡nÃŃ": 6014,
      "stev": 6015,
      "Ġsice": 6016,
      "nam": 6017,
      "Å¯so": 6018,
      "Ġpohy": 6019,
      "Ġkouzlem": 6020,
      "ĠAX": 6021,
      "Ġtopo": 6022,
      "kynÄĽ": 6023,
      "ĠlÃŃba": 6024,
      "oudu": 6025,
      "Ġzachy": 6026,
      "Ġsouse": 6027,
      "Ġhledat": 6028,
      "ĠschÃ½": 6029,
      "Ġspraved": 6030,
      "raje": 6031,
      "Ġdosta": 6032,
      "voj": 6033,
      "ĠVIN": 6034,
      "ĠspÃ¡nek": 6035,
      "Ġhrst": 6036,
      "ĠvlasÅ¥": 6037,
      "ĠpenÃŃ": 6038,
      "ĠtÃ©mÄĽ": 6039,
      "ohem": 6040,
      "Ġjednoho": 6041,
      "ĠÃºro": 6042,
      "ĠzlatÃŃ": 6043,
      "ĠuprostÅĻed": 6044,
      "ĠzapomnÄĽl": 6045,
      "utku": 6046,
      "Ġbed": 6047,
      "Ġprocit": 6048,
      "ĠvlÃŃdnÄĽ": 6049,
      "kvÃ©": 6050,
      "sech": 6051,
      "der": 6052,
      "ĠpÄĽl": 6053,
      "vangeli": 6054,
      "idÄĽl": 6055,
      "nÃŃho": 6056,
      "telem": 6057,
      "Ġplesu": 6058,
      "ĠvojÃ¡": 6059,
      "ĠneÃº": 6060,
      "ĠvelÃŃ": 6061,
      "ĠMat": 6062,
      "GHHG": 6063,
      "Ġjinde": 6064,
      "gie": 6065,
      "chÅ¯": 6066,
      "ĠJe": 6067,
      "ĠpouÅ¡Å¥": 6068,
      "Ġpocti": 6069,
      "ĠdivÄĽ": 6070,
      "usvou": 6071,
      "ĠsmÄĽs": 6072,
      "ĠtÅĻpytÃŃ": 6073,
      "ĠAABCBC": 6074,
      "nicÃŃ": 6075,
      "ÄįnÃŃm": 6076,
      "ĠsÃŃle": 6077,
      "Ġzvolal": 6078,
      "Ġmiluji": 6079,
      "Ġaneb": 6080,
      "IX": 6081,
      "pÃ½": 6082,
      "ĠVY": 6083,
      "ÄĽmy": 6084,
      "ĠnÃ¡ho": 6085,
      "ichard": 6086,
      "ZE": 6087,
      "mot": 6088,
      "item": 6089,
      "ĠcizÃŃch": 6090,
      "ĠchudÃ½": 6091,
      "ĠvonnÃ½": 6092,
      "Ġdnech": 6093,
      "ĠTomek": 6094,
      "Ġzlou": 6095,
      "Ġzasmu": 6096,
      "ÄįenÃ½": 6097,
      "Ġroztou": 6098,
      "hali": 6099,
      "ĠvrhÃ¡": 6100,
      "rma": 6101,
      "vÅ¡e": 6102,
      "ĠMilo": 6103,
      "edou": 6104,
      "ĠznÃ¡mÃ½": 6105,
      "ĠchtÄĽli": 6106,
      "Ġzho": 6107,
      "Ġmuka": 6108,
      "ÄįÃŃk": 6109,
      "ĠmodrÃ½": 6110,
      "ĠpoÄįal": 6111,
      "yna": 6112,
      "ĠKou": 6113,
      "ĠBou": 6114,
      "ĠkeÅĻ": 6115,
      "MÄļ": 6116,
      "yÅĻi": 6117,
      "Ġpozem": 6118,
      "ĠvÄĽÅ¾": 6119,
      "Ġbrachu": 6120,
      "ĠdÃ¡vnÃ©": 6121,
      "razil": 6122,
      "hrob": 6123,
      "qu": 6124,
      "Ġvodu": 6125,
      "ĠÅ¾ivotu": 6126,
      "imu": 6127,
      "ÄĽvem": 6128,
      "ĠdvÅ¯r": 6129,
      "niti": 6130,
      "dovat": 6131,
      "Ġjednom": 6132,
      "ĠpolÃŃch": 6133,
      "ĠKÅĻiÄįka": 6134,
      "hr": 6135,
      "Ġnecha": 6136,
      "ĠÅ¡va": 6137,
      "ĠdÄĽva": 6138,
      "ĠdruÅ¾i": 6139,
      "lko": 6140,
      "Ġneob": 6141,
      "Ġvyt": 6142,
      "ÅĪÅ¯": 6143,
      "Ġosudu": 6144,
      "dro": 6145,
      "adost": 6146,
      "ĠzmÃŃrÃ¡": 6147,
      "go": 6148,
      "Ġztu": 6149,
      "ĠtÃ¡bo": 6150,
      "ĠvÄĽtry": 6151,
      "rnÃ½m": 6152,
      "Ġpsal": 6153,
      "Ġkoli": 6154,
      "skÃ©mu": 6155,
      "neme": 6156,
      "ivem": 6157,
      "Ġw": 6158,
      "Ġbub": 6159,
      "Ġslzu": 6160,
      "ĠzbranÃŃ": 6161,
      "ĠGe": 6162,
      "ĠLIST": 6163,
      "lnou": 6164,
      "rce": 6165,
      "Å¡u": 6166,
      "Ġslovan": 6167,
      "Ġstarost": 6168,
      "ĠsladkÃ½ch": 6169,
      "ĠodpovÄĽÄı": 6170,
      "Å¾enou": 6171,
      "ĠboÅ¾ÃŃm": 6172,
      "bky": 6173,
      "ĠpouhÃ½": 6174,
      "Ġmramo": 6175,
      "Ġbledou": 6176,
      "ĠpolÃŃbenÃŃ": 6177,
      "Ġmrtev": 6178,
      "ĠY": 6179,
      "ĠctÃŃ": 6180,
      "ĠÅ¡erÃ©": 6181,
      "ĠtÅĻesou": 6182,
      "Ġdon": 6183,
      "Ġpotok": 6184,
      "ozi": 6185,
      "Ġvedou": 6186,
      "anci": 6187,
      "ĠvÅ¯d": 6188,
      "Ġposel": 6189,
      "Ġkomo": 6190,
      "ĠkoÅĻen": 6191,
      "Ġrto": 6192,
      "itel": 6193,
      "nÄĽnÃ½": 6194,
      "Ġmor": 6195,
      "Ġvinu": 6196,
      "Ġpohrd": 6197,
      "Ġbratry": 6198,
      "ĠplÃ©mÄĽ": 6199,
      "ÄĽlem": 6200,
      "ledy": 6201,
      "ĠvodÄĽ": 6202,
      "ĠÅ¡ÃŃji": 6203,
      "ĠVladi": 6204,
      "Ġzor": 6205,
      "ĠpalÃ¡c": 6206,
      "ĠsluÅ¡ÃŃ": 6207,
      "ĠÄįerno": 6208,
      "ĠzÃ¡mku": 6209,
      "ĠABABCCDCD": 6210,
      "Ġvypu": 6211,
      "ĠÅĻas": 6212,
      "ĠvzdÃ¡len": 6213,
      "Ġobrov": 6214,
      "Ġmam": 6215,
      "Ġroky": 6216,
      "ĠvÄĽÅĻÃŃm": 6217,
      "ĠÅ¾Ã¡ru": 6218,
      "ĠdomÄĽ": 6219,
      "lym": 6220,
      "Ġkudy": 6221,
      "Ġmoudrost": 6222,
      "stat": 6223,
      "Ġmora": 6224,
      "ĠsvatÃ½m": 6225,
      "ĠBA": 6226,
      "ĠOD": 6227,
      "ĠhoreÄį": 6228,
      "viny": 6229,
      "Ġrmu": 6230,
      "ĠvÅ¯bec": 6231,
      "Ġkout": 6232,
      "CHO": 6233,
      "Ġsf": 6234,
      "iber": 6235,
      "ĠhvÄĽzdÃ¡m": 6236,
      "ĠodpoÄįi": 6237,
      "Ġsestry": 6238,
      "Ġmarno": 6239,
      "ĠÅĻekne": 6240,
      "Ġpetr": 6241,
      "ĠprÅ¯vod": 6242,
      "Ġbabi": 6243,
      "Ġzroz": 6244,
      "akal": 6245,
      "ĠmoÅĻÃŃ": 6246,
      "ĠKdy": 6247,
      "bili": 6248,
      "Ġposlu": 6249,
      "ĠklÃŃnÄĽ": 6250,
      "cova": 6251,
      "ĠkonÃŃ": 6252,
      "ĠKyse": 6253,
      "ĠKyselÃ½": 6254,
      "STA": 6255,
      "lÃŃÅ¡": 6256,
      "esem": 6257,
      "ĠzeleÅĪ": 6258,
      "ojim": 6259,
      "stÅĻe": 6260,
      "ĠÅ¡per": 6261,
      "meÅĪ": 6262,
      "ĠnutÃŃ": 6263,
      "Ġznaven": 6264,
      "ĠrÃ½m": 6265,
      "ĠMAR": 6266,
      "ĠsmÄĽlÃ½": 6267,
      "ovych": 6268,
      "ĠXABAB": 6269,
      "Å¡kou": 6270,
      "vobo": 6271,
      "olc": 6272,
      "ĠjmÃ©na": 6273,
      "Ġseve": 6274,
      "ĠÅłolc": 6275,
      "ĠLEGEND": 6276,
      "Ġvem": 6277,
      "aml": 6278,
      "dati": 6279,
      "Ġkams": 6280,
      "ĠkoÅĻist": 6281,
      "aby": 6282,
      "ĠÄįlu": 6283,
      "ĠpÄĽje": 6284,
      "ĠsilnÃ½": 6285,
      "Ġtlum": 6286,
      "Ġzpup": 6287,
      "ĠtvÃ©mu": 6288,
      "ĠpÅ¯du": 6289,
      "Ġminulosti": 6290,
      "ĠprÃ¡h": 6291,
      "ĠhostÃŃ": 6292,
      "ĠtÅĻpyt": 6293,
      "Ġhlasu": 6294,
      "odni": 6295,
      "Ġklasy": 6296,
      "ĠzÅĻela": 6297,
      "Ġvpad": 6298,
      "Ġtuze": 6299,
      "ĠtrpÃŃ": 6300,
      "ĠryzÃŃ": 6301,
      "ĠtlaÄįÃŃ": 6302,
      "ĠbuÄıte": 6303,
      "ĠhnÄĽvem": 6304,
      "ouhou": 6305,
      "Ġpono": 6306,
      "Ġsled": 6307,
      "ĠRichard": 6308,
      "ĠperuÅ¥": 6309,
      "ĠtrpÄĽ": 6310,
      "ĠperutÃŃ": 6311,
      "Ġdiva": 6312,
      "ĠLuka": 6313,
      "chÃ¡zel": 6314,
      "Ġdese": 6315,
      "ĠBra": 6316,
      "ĠXII": 6317,
      "Ġsedm": 6318,
      "ĠrovnÄĽ": 6319,
      "Ġpovo": 6320,
      "Å¾enÃ¡": 6321,
      "ĠmalÃŃ": 6322,
      "Ġvojska": 6323,
      "ĠoltÃ¡ÅĻ": 6324,
      "dnu": 6325,
      "ilse": 6326,
      "Ġmuk": 6327,
      "ĠspÄĽje": 6328,
      "ĠvÃ½chod": 6329,
      "MI": 6330,
      "razi": 6331,
      "vÃ¡r": 6332,
      "nÃ¡ct": 6333,
      "ĠpÃŃÅ¡e": 6334,
      "Ġhrdlo": 6335,
      "Ġvan": 6336,
      "edl": 6337,
      "Ġpravo": 6338,
      "ĠZavÅĻel": 6339,
      "Ġmatkou": 6340,
      "ĠbÃŃlÃ©m": 6341,
      "anÃ©": 6342,
      "Ġfan": 6343,
      "Ġjasu": 6344,
      "XG": 6345,
      "atÃ©": 6346,
      "ĠvÄĽÅ¡t": 6347,
      "Ġsluje": 6348,
      "ĠABABCCDEED": 6349,
      "ĠobliÄįej": 6350,
      "Ġude": 6351,
      "ĠKo": 6352,
      "Liber": 6353,
      "Ġsladko": 6354,
      "ĠCaj": 6355,
      "ĠÅ¡Å¥astnÃ½": 6356,
      "thaml": 6357,
      "LibertÃ©": 6358,
      "ĠCajthaml": 6359,
      "ĠvyÅ¡la": 6360,
      "Ġrozlou": 6361,
      "ĠbÃ¡snÄĽ": 6362,
      "Ġska": 6363,
      "Ġat": 6364,
      "ĠhrÃ¡t": 6365,
      "Å¤": 6366,
      "Å¡eti": 6367,
      "ĠmraÄįna": 6368,
      "Ġhluboko": 6369,
      "Ġvkro": 6370,
      "ÄįnÃ©m": 6371,
      "Ġpoky": 6372,
      "Ġslib": 6373,
      "Ġroze": 6374,
      "ĠmusÃŃÅ¡": 6375,
      "ETÄļ": 6376,
      "ĠblÃ½skÃ¡": 6377,
      "Ġmohy": 6378,
      "Ġnesl": 6379,
      "ĠplÃ¡ÅĪ": 6380,
      "opu": 6381,
      "ÅĻiv": 6382,
      "Ġlov": 6383,
      "Ġzdar": 6384,
      "ĠkrvavÃ©": 6385,
      "Ġpije": 6386,
      "vanÃ½": 6387,
      "ĠvzkÅĻÃŃ": 6388,
      "ĠvÅ¡eli": 6389,
      "Ġspal": 6390,
      "Ġlsti": 6391,
      "Ġzakle": 6392,
      "ĠPÃįS": 6393,
      "dÃ¡vÃ¡": 6394,
      "Ġslzami": 6395,
      "ĠprvnÃŃm": 6396,
      "ĠpÅ¯vab": 6397,
      "epy": 6398,
      "Ġsten": 6399,
      "Ġpraze": 6400,
      "ĠbÄĽh": 6401,
      "Ġmelo": 6402,
      "ĠdÄĽjin": 6403,
      "ĠLukavskÃ½": 6404,
      "ĠopÃ¡": 6405,
      "ĠpÄĽÅ¡i": 6406,
      "Ġkolena": 6407,
      "Ġokno": 6408,
      "ĠspÃ¡sy": 6409,
      "ĠtratÃŃ": 6410,
      "Ġproudu": 6411,
      "Ġbudoucnost": 6412,
      "ĠÅ¡er": 6413,
      "onal": 6414,
      "Ġsvitu": 6415,
      "tÅ¯m": 6416,
      "Ġchti": 6417,
      "Ġrosou": 6418,
      "Ġbozi": 6419,
      "Ġodho": 6420,
      "ĠÄįÃŃÅ¡i": 6421,
      "Ġapo": 6422,
      "ĠpohÅĻe": 6423,
      "Ġvolnost": 6424,
      "ĠtichÃ½m": 6425,
      "ĠTab": 6426,
      "ĠLEGENDA": 6427,
      "ĠokÃ©": 6428,
      "Ġroztr": 6429,
      "ĠstrÃ¡ni": 6430,
      "ĠveÅ¡ker": 6431,
      "chvÄĽ": 6432,
      "Ġdoj": 6433,
      "ÅĻily": 6434,
      "CCDDEE": 6435,
      "ĠstrojÃŃ": 6436,
      "ĠTablic": 6437,
      "adny": 6438,
      "ĠMatÄĽj": 6439,
      "stoupÃŃ": 6440,
      "KrÃ¡snohorskÃ¡": 6441,
      "snÃ¡": 6442,
      "ĠSig": 6443,
      "ĠPech": 6444,
      "Ġchodil": 6445,
      "ĠPechovÃ¡": 6446,
      "ĠmdlÃ½": 6447,
      "ĠsvÄĽtlu": 6448,
      "Ġneh": 6449,
      "Ġjezd": 6450,
      "ĠstrÃ½": 6451,
      "Ġdejte": 6452,
      "eÅĻ": 6453,
      "uny": 6454,
      "Å¡nÃ½": 6455,
      "ĠdÃ©m": 6456,
      "avym": 6457,
      "Ġsoused": 6458,
      "ĠvÄĽtrÅ¯": 6459,
      "zvuk": 6460,
      "ĠvznÃŃ": 6461,
      "Ġhlahol": 6462,
      "Ġvzpomen": 6463,
      "ĠlÃŃst": 6464,
      "ĠÄįarodÄĽj": 6465,
      "Ġrozs": 6466,
      "ĠzÃ¡Å¡tÃŃ": 6467,
      "ĠpouÅ¥": 6468,
      "nika": 6469,
      "Ġzanech": 6470,
      "ĠvzÅĪ": 6471,
      "Ġrady": 6472,
      "ĠzvÄĽÅĻ": 6473,
      "Ġnaposledy": 6474,
      "ĠROMAN": 6475,
      "ĠkÅĻesÅ¥an": 6476,
      "sili": 6477,
      "idal": 6478,
      "ĠÅ¾lutÃ©": 6479,
      "ĠkrÃ¡snÃ½ch": 6480,
      "ĠtesknÄĽ": 6481,
      "Ġsever": 6482,
      "ĠABABCDCDEFEFGHGH": 6483,
      "DO": 6484,
      "ĠnaÅ¡em": 6485,
      "Ġrozlo": 6486,
      "ĠnedÄĽ": 6487,
      "ecky": 6488,
      "Ġpodi": 6489,
      "deÅĪ": 6490,
      "dÄĽte": 6491,
      "ĠXAXAXBXBX": 6492,
      "ĠnejvÄĽtÅ¡ÃŃ": 6493,
      "Ġpokud": 6494,
      "Ġbytost": 6495,
      "ÄįÃŃch": 6496,
      "RAT": 6497,
      "Ġbalva": 6498,
      "ĠoÄį": 6499,
      "Ġmelodi": 6500,
      "ĠstarÃ©m": 6501,
      "ĠdivnÃ¡": 6502,
      "ĠrozkoÅ¡ÃŃ": 6503,
      "ĠtvrdÃ©": 6504,
      "edÄĽl": 6505,
      "Ġsvate": 6506,
      "ĠdvojÃŃ": 6507,
      "ĠmyÅ¡lenek": 6508,
      "ĠstÅĻel": 6509,
      "Ġlicho": 6510,
      "ĠzpÄĽvem": 6511,
      "obi": 6512,
      "vÃŃvÃ¡": 6513,
      "ĠÃºdy": 6514,
      "tosti": 6515,
      "Ġmost": 6516,
      "Å¡im": 6517,
      "ĠzeÄı": 6518,
      "pomÃŃnÃ¡": 6519,
      "vky": 6520,
      "ĠchoÅ¥": 6521,
      "ĠXAAX": 6522,
      "sat": 6523,
      "vilo": 6524,
      "azal": 6525,
      "ĠPÅĺÃį": 6526,
      "Ġspro": 6527,
      "ĠkÅĻÃŃdlo": 6528,
      "ĠkterÃ©m": 6529,
      "ĠdneÅ¡nÃŃ": 6530,
      "ĠHavlÃŃÄįek": 6531,
      "ĠBorovskÃ½": 6532,
      "BO": 6533,
      "Ġhry": 6534,
      "ĠnÃ¡mÄĽ": 6535,
      "ĠnÃ¡roda": 6536,
      "VO": 6537,
      "bÃ©": 6538,
      "Å¾te": 6539,
      "ĠspatÅĻil": 6540,
      "ĠjÃ¡sot": 6541,
      "tuje": 6542,
      "ĠÄıÃ¡b": 6543,
      "ĠÅ¡era": 6544,
      "uby": 6545,
      "Ġbok": 6546,
      "Å¡ÃŃÅ¡": 6547,
      "ĠlÃ¡kÃ¡": 6548,
      "ĠpÅĻÃŃk": 6549,
      "Ġabys": 6550,
      "ovym": 6551,
      "nÄĽjÅ¡ÃŃm": 6552,
      "uzi": 6553,
      "Ġmnohou": 6554,
      "ĠveÄįernÃŃ": 6555,
      "ĠhlubokÃ©": 6556,
      "ĠkÅĻÃŃÅ¾em": 6557,
      "XXH": 6558,
      "Ġmrz": 6559,
      "ĠhnÃŃzda": 6560,
      "enÃ½m": 6561,
      "tiv": 6562,
      "mila": 6563,
      "buje": 6564,
      "ĠpohlÃŃ": 6565,
      "Ġslasti": 6566,
      "ĠkrutÃ½": 6567,
      "ĠKA": 6568,
      "Ġvlnou": 6569,
      "osled": 6570,
      "ĠROZ": 6571,
      "ĠhospodÃ¡": 6572,
      "elou": 6573,
      "kÃ½mi": 6574,
      "ĠsvÄĽtle": 6575,
      "ebes": 6576,
      "gen": 6577,
      "odou": 6578,
      "Ġlibo": 6579,
      "dÃŃl": 6580,
      "ĠÄįiny": 6581,
      "Ġmrav": 6582,
      "mÃ¡n": 6583,
      "Ġdary": 6584,
      "MON": 6585,
      "Ġkan": 6586,
      "ĠÄįeskÃ½ch": 6587,
      "Ġzdvih": 6588,
      "ĠzvlÃ¡Å¡t": 6589,
      "ZIM": 6590,
      "ĠÅ¡lo": 6591,
      "ĠobÄĽt": 6592,
      "bÄĽh": 6593,
      "yma": 6594,
      "ĠpapÃŃ": 6595,
      "ĠhovoÅĻÃŃ": 6596,
      "ĠROMÃģN": 6597,
      "Ġule": 6598,
      "XXXXXXXXXX": 6599,
      "ĠposvÃ¡t": 6600,
      "ĠpÄĽst": 6601,
      "avem": 6602,
      "ĠtakovÃ©": 6603,
      "Ġpluje": 6604,
      "LOG": 6605,
      "Ġtiskne": 6606,
      "ĠBrabec": 6607,
      "Ġil": 6608,
      "nie": 6609,
      "Ġvzty": 6610,
      "Ġstrachem": 6611,
      "Ġbudoucnosti": 6612,
      "Ġbyste": 6613,
      "ĠprostÃ½": 6614,
      "echy": 6615,
      "ismund": 6616,
      "idem": 6617,
      "ysli": 6618,
      "ĠkrÃ¡lovstvÃŃ": 6619,
      "Ġvrchol": 6620,
      "ĠPOHÃģDKA": 6621,
      "RD": 6622,
      "Ġhlado": 6623,
      "Ġsoudu": 6624,
      "Ġochra": 6625,
      "ĠzÅĻÃŃti": 6626,
      "ĠnevÃ½": 6627,
      "Ġranou": 6628,
      "Ġopusti": 6629,
      "vrÃ¡": 6630,
      "ĠABABCD": 6631,
      "ĠspÅĻÃ¡": 6632,
      "itky": 6633,
      "ĠÅ¡aty": 6634,
      "ĠzÃ¡vra": 6635,
      "ĠdÄĽj": 6636,
      "ĠlÃ©to": 6637,
      "ei": 6638,
      "Ġkme": 6639,
      "esna": 6640,
      "SI": 6641,
      "Ġkot": 6642,
      "ĠpÅĻiÅ¡lo": 6643,
      "ĠvyÅ¡Å¡ÃŃ": 6644,
      "ĠBouÅ¡ka": 6645,
      "ĠSigismund": 6646,
      "Ġzkvet": 6647,
      "Äįiti": 6648,
      "Ġrozmar": 6649,
      "dÃ¡Å¡": 6650,
      "Ġtaje": 6651,
      "ĠplatÃŃ": 6652,
      "ajic": 6653,
      "RAJ": 6654,
      "ĠboÅ¾skÃ©": 6655,
      "tice": 6656,
      "Ġlil": 6657,
      "ĠÄįekÃ¡m": 6658,
      "ĠvÅ¯z": 6659,
      "Ġjiskra": 6660,
      "zli": 6661,
      "ĠzÃ¡vÄĽ": 6662,
      "ĠjÃ¡sa": 6663,
      "Ġlidstvu": 6664,
      "Ġotcem": 6665,
      "Ġgeni": 6666,
      "ĠnavrÃ¡": 6667,
      "bÅ¯h": 6668,
      "dÄĽly": 6669,
      "Ġposlouch": 6670,
      "trem": 6671,
      "ĠzimÄĽ": 6672,
      "ĠjimiÅ¾": 6673,
      "ĠvÄįel": 6674,
      "nouc": 6675,
      "Ġruchu": 6676,
      "ĠsladkÃ½m": 6677,
      "ĠskrÃ¡ni": 6678,
      "Ġroucho": 6679,
      "achem": 6680,
      "zÃ½": 6681,
      "Ġnajednou": 6682,
      "Ġkrbu": 6683,
      "chodu": 6684,
      "ln": 6685,
      "Ġsnadno": 6686,
      "Ġznak": 6687,
      "ĠnechaÅ¥": 6688,
      "ĠvÄĽtÅĻÃŃk": 6689,
      "ĠpÅĻijdou": 6690,
      "dno": 6691,
      "uÄį": 6692,
      "ubi": 6693,
      "stroj": 6694,
      "Ġhnal": 6695,
      "Ġchr": 6696,
      "Ġdoktor": 6697,
      "ĠvÃ½m": 6698,
      "dÃ½ch": 6699,
      "ĠusmÄĽ": 6700,
      "Ġzru": 6701,
      "ĠAN": 6702,
      "ĠnemÅ¯Å¾": 6703,
      "Ġdechu": 6704,
      "Ġknihu": 6705,
      "slovÃ¡": 6706,
      "jev": 6707,
      "Ġondy": 6708,
      "ĠSEN": 6709,
      "ĠpÅĻÃŃtom": 6710,
      "ÅłÃį": 6711,
      "ĠlÅ¾i": 6712,
      "Ġmilovat": 6713,
      "Ġbludi": 6714,
      "rf": 6715,
      "Ġleda": 6716,
      "ĠMiÅĻi": 6717,
      "Ġpravou": 6718,
      "ĠpohÃ¡d": 6719,
      "ĠMiÅĻiovskÃ½": 6720,
      "ĠvÃ¡no": 6721,
      "Ġnaslouch": 6722,
      "nkÃ©": 6723,
      "nkÃ¡ch": 6724,
      "Ġhudby": 6725,
      "ĠVINETÄļ": 6726,
      "ichem": 6727,
      "Ã©ÅĻe": 6728,
      "Ġkoni": 6729,
      "ĠmÄĽlo": 6730,
      "ĠÄįechÃ¡ch": 6731,
      "dÃ½": 6732,
      "ĠuÄįÃŃ": 6733,
      "Ġhel": 6734,
      "adka": 6735,
      "ĠÅ¾ez": 6736,
      "ĠnÄĽhy": 6737,
      "Ġnepla": 6738,
      "lÃ½mi": 6739,
      "isslovÃ¡": 6740,
      "ĠzbÃ½vÃ¡": 6741,
      "Ġzahrady": 6742,
      "ĠzÃ¡hu": 6743,
      "icy": 6744,
      "Ġrakev": 6745,
      "ĠTA": 6746,
      "ovan": 6747,
      "ĠIrma": 6748,
      "Ġpokro": 6749,
      "rovnÃ¡": 6750,
      "ĠhlÃ¡sÃ¡": 6751,
      "ĠsahÃ¡": 6752,
      "ĠGeisslovÃ¡": 6753,
      "ĠskvÃŃ": 6754,
      "ĠprvÃ½": 6755,
      "ĠjejÃŃÅ¾": 6756,
      "ĠÅ¾houcÃŃ": 6757,
      "Å¾ena": 6758,
      "Ġonu": 6759,
      "edli": 6760,
      "Ġdruha": 6761,
      "ĠnadÄĽji": 6762,
      "ĠznÄĽlo": 6763,
      "UN": 6764,
      "fon": 6765,
      "Ġsnou": 6766,
      "ĠkrokÅ¯": 6767,
      "Ġhudbou": 6768,
      "Ġtanci": 6769,
      "ga": 6770,
      "Ġptal": 6771,
      "Ġskla": 6772,
      "ĠAAXX": 6773,
      "Ġhrdi": 6774,
      "ĠzimnÃŃ": 6775,
      "TÃģ": 6776,
      "isku": 6777,
      "ĠSON": 6778,
      "ĠÅĻetÄĽz": 6779,
      "tÄĽjÅ¡ÃŃ": 6780,
      "ĠsmÄĽsi": 6781,
      "ĠnepÅĻÃŃtel": 6782,
      "rdci": 6783,
      "Ġjarem": 6784,
      "ĠhÅĻbe": 6785,
      "Ġporu": 6786,
      "Ġniko": 6787,
      "mÃŃra": 6788,
      "Ġnesu": 6789,
      "ĠotvÃŃ": 6790,
      "ĠproudÃŃ": 6791,
      "ĠletÄĽl": 6792,
      "ÅĪuje": 6793,
      "ĠbezpeÄį": 6794,
      "ĠXXA": 6795,
      "Ġlaska": 6796,
      "ĠtÅĻikrÃ¡t": 6797,
      "ĠzahradÄĽ": 6798,
      "Ġharmo": 6799,
      "Ġnapad": 6800,
      "ĠdÃ¡n": 6801,
      "ĠpuÄįÃŃ": 6802,
      "Ġlety": 6803,
      "EDEF": 6804,
      "Ġhasne": 6805,
      "Ġcud": 6806,
      "asni": 6807,
      "ĠEvangeli": 6808,
      "ĠzmizÃŃ": 6809,
      "OVI": 6810,
      "ĠbÅĻehy": 6811,
      "ĠzdrÃ¡va": 6812,
      "VÃģ": 6813,
      "iÅ¡tÄĽ": 6814,
      "ĠdÃŃla": 6815,
      "ĠstaÅĻÃŃ": 6816,
      "ĠzbÄĽ": 6817,
      "ĠzlÃ½ch": 6818,
      "Ġmsti": 6819,
      "Ġmoz": 6820,
      "Ġslze": 6821,
      "ĠÅ¡ÃŃÅĻÃŃ": 6822,
      "ĠvzpomÃŃnky": 6823,
      "ĠdÅ¯stoj": 6824,
      "Ġkomna": 6825,
      "ĠJARNÃį": 6826,
      "Ġjdem": 6827,
      "ÅĻilo": 6828,
      "ĠNAD": 6829,
      "Ġdes": 6830,
      "ĠnecÃŃ": 6831,
      "Ġvina": 6832,
      "ĠpÅĻÃ¡l": 6833,
      "pÄĽch": 6834,
      "ĠplÃ¡t": 6835,
      "ĠnebesÅ¯m": 6836,
      "Ġhlubiny": 6837,
      "ĠÅ¾ili": 6838,
      "Ġpovy": 6839,
      "Ġjaksi": 6840,
      "ĠlesÃŃch": 6841,
      "mus": 6842,
      "Ġblahem": 6843,
      "ĠtÄĽÅ¾kÃ½ch": 6844,
      "Ġzahal": 6845,
      "ĠmlÃ¡de": 6846,
      "ĠzpÅ¯so": 6847,
      "ĠjeÅ¾ÃŃ": 6848,
      "Ġzavo": 6849,
      "ĠmodrÃ½ch": 6850,
      "Ġpaprsky": 6851,
      "Ġhni": 6852,
      "Ġledo": 6853,
      "Ġrozvi": 6854,
      "ĠkÅĻiÅ¡Å¥": 6855,
      "ĠkvÃŃtek": 6856,
      "Ġvedl": 6857,
      "ĠodÅĻÃŃ": 6858,
      "nati": 6859,
      "ĠvolnÃ½": 6860,
      "ĠdrtÃŃ": 6861,
      "Ġpostav": 6862,
      "asny": 6863,
      "ĠbÃŃlÃ½m": 6864,
      "ĠostatnÃŃ": 6865,
      "cov": 6866,
      "Å¡ce": 6867,
      "ĠslyÅ¡te": 6868,
      "Ġmohlo": 6869,
      "Ġobloze": 6870,
      "ĠzdÃŃ": 6871,
      "ĠveÅ¡el": 6872,
      "Äįeli": 6873,
      "Ġokny": 6874,
      "ĠkypÃŃ": 6875,
      "zuje": 6876,
      "sklo": 6877,
      "Ġvedla": 6878,
      "bitÃŃ": 6879,
      "ĠstraÅ¡li": 6880,
      "asnou": 6881,
      "ĠXXXXXXXXXXXXXXX": 6882,
      "ĠKu": 6883,
      "LAN": 6884,
      "mysl": 6885,
      "ĠzazpÃŃ": 6886,
      "ovÃŃ": 6887,
      "ÄĽmu": 6888,
      "Ġopi": 6889,
      "vostÃŃ": 6890,
      "Ġsoumrak": 6891,
      "ĠslednÃŃ": 6892,
      "Ġbzu": 6893,
      "bech": 6894,
      "stala": 6895,
      "ĠpÅĻÃ¡telÃ©": 6896,
      "ĠpÄĽknÃ©": 6897,
      "mnÄĽl": 6898,
      "ĠkrvÃ¡": 6899,
      "Ġvav": 6900,
      "ĠpÃŃlÃŃ": 6901,
      "Ġarci": 6902,
      "ĠzÃ¡had": 6903,
      "ÄĽÅ¥": 6904,
      "Ġducho": 6905,
      "Ġdeset": 6906,
      "Ġpne": 6907,
      "Ġnet": 6908,
      "ĠvÃŃnem": 6909,
      "ovna": 6910,
      "Ġjasnou": 6911,
      "ĠhrdÃ½": 6912,
      "ĠkÅĻeh": 6913,
      "osta": 6914,
      "ĠvÄĽÅĻit": 6915,
      "ĠdÄĽtstvÃŃ": 6916,
      "ĠnevÃŃÅ¡": 6917,
      "abina": 6918,
      "Ġpoku": 6919,
      "ĠNeÄįas": 6920,
      "Ġdruhou": 6921,
      "ĠaniÅ¾": 6922,
      "ĠstrÃ¡nÃŃ": 6923,
      "ĠkrÃ¡tce": 6924,
      "ĠEvangelista": 6925,
      "LEDNÃį": 6926,
      "Ġdvak": 6927,
      "ĠronÃŃ": 6928,
      "Ġsatan": 6929,
      "ceni": 6930,
      "ĠtmÃŃ": 6931,
      "ĠmÄĽstem": 6932,
      "skutku": 6933,
      "ĠhbitÄĽ": 6934,
      "jÅ¡ÃŃm": 6935,
      "Ġvskutku": 6936,
      "Ġrtu": 6937,
      "ĠÃºna": 6938,
      "ĠsÃŃtÄĽ": 6939,
      "ĠmaÄı": 6940,
      "Ġblesku": 6941,
      "NECH": 6942,
      "umu": 6943,
      "vka": 6944,
      "ĠpenÄĽ": 6945,
      "Ġdna": 6946,
      "esty": 6947,
      "lin": 6948,
      "ĠJU": 6949,
      "diti": 6950,
      "ĠhÅĻÃŃchy": 6951,
      "ĠhÅĻbitov": 6952,
      "ĠkrouÅ¾ÃŃ": 6953,
      "venÃ©": 6954,
      "ĠbliÅ¾": 6955,
      "ĠrÃ¡ko": 6956,
      "POM": 6957,
      "ÄįkÃ©": 6958,
      "rÃ¡nÃŃ": 6959,
      "ĠvodnÃŃ": 6960,
      "ĠÅ¾ivoby": 6961,
      "ĠhroznÃ¡": 6962,
      "ĠzaplÃ¡": 6963,
      "hrad": 6964,
      "teÅĻi": 6965,
      "ĠupÃŃ": 6966,
      "adÃŃ": 6967,
      "ĠÅ¡vi": 6968,
      "ĠcizÃŃm": 6969,
      "Ġdcery": 6970,
      "ĠvonnÃ©": 6971,
      "ĠvÅ¡ed": 6972,
      "ĠpyÅ¡nÄĽ": 6973,
      "ĠSabina": 6974,
      "bol": 6975,
      "Ġfau": 6976,
      "Ġplody": 6977,
      "ĠslÃ¡vou": 6978,
      "ĠÅ¾alost": 6979,
      "ĠdÃ¡lnÃ©": 6980,
      "ĠspÃŃÅ¡e": 6981,
      "ĠznÄĽly": 6982,
      "Å¾stvÃŃ": 6983,
      "Ġmohou": 6984,
      "Ġkdosi": 6985,
      "ĠIN": 6986,
      "ĠvesmÃŃr": 6987,
      "Ġzimy": 6988,
      "ĠPODZIM": 6989,
      "vÃŃÅ¡": 6990,
      "ĠnÃ¡ÅĻek": 6991,
      "ĠplÃ¡ni": 6992,
      "Ġdostal": 6993,
      "Ġspla": 6994,
      "ĠzlatÄĽ": 6995,
      "ĠÄĮTY": 6996,
      "Ġrety": 6997,
      "Ġozdo": 6998,
      "Ġjedinou": 6999,
      "ĠubohÃ©": 7000,
      "Ġsmutnou": 7001,
      "ĠÅ¾alem": 7002,
      "ĠkÃ¡zal": 7003,
      "ĠznÄĽla": 7004,
      "Ġdych": 7005,
      "ĠkolÃ©": 7006,
      "Ġvzali": 7007,
      "tÃŃÅ¡": 7008,
      "umf": 7009,
      "XXA": 7010,
      "Ġosla": 7011,
      "ĠhvÄĽzdami": 7012,
      "ivym": 7013,
      "Ġkouzla": 7014,
      "pila": 7015,
      "Ġhouf": 7016,
      "ĠHanuÅ¡": 7017,
      "ĠXXXXXXXXXXXXXXXXXXXXXXXXXXXX": 7018,
      "svÄĽt": 7019,
      "kalo": 7020,
      "Ġvypla": 7021,
      "ĠkaÅ¾dÃ©ho": 7022,
      "ĠhÅĻmÄĽ": 7023,
      "Ġdvacet": 7024,
      "ĠzachvÄĽl": 7025,
      "ĠzalÃ©": 7026,
      "ĠErben": 7027,
      "sud": 7028,
      "ĠostrÃ½": 7029,
      "Ġkdybys": 7030,
      "zenÃ©": 7031,
      "ÅĻeli": 7032,
      "ĠvÅ¡ecku": 7033,
      "ivam": 7034,
      "ĠnÄĽhoÅ¾": 7035,
      "ĠsnovÃ©": 7036,
      "Ġprince": 7037,
      "ĠsvÄĽtlÃ½": 7038,
      "ajem": 7039,
      "desÃ¡": 7040,
      "Ġodda": 7041,
      "ĠbÃŃdnÃ½": 7042,
      "Ġdlani": 7043,
      "Ġpel": 7044,
      "Ġkostel": 7045,
      "ĠpoÅĻÃ¡d": 7046,
      "voslav": 7047,
      "ĠsnÄĽhem": 7048,
      "Ġsvaty": 7049,
      "ĠÅ¡irÃ©": 7050,
      "ĠrdÃŃ": 7051,
      "Ġnivy": 7052,
      "ĠpÅĻichÃ¡zÃŃ": 7053,
      "ĠchvÃ¡tÃ¡": 7054,
      "Ġrozv": 7055,
      "ĠÅ¾ila": 7056,
      "ĠstÃ¡ly": 7057,
      "ÅĺECH": 7058,
      "ĠkÅĻÃŃdly": 7059,
      "zda": 7060,
      "byt": 7061,
      "Ġmag": 7062,
      "ĠstrÃ¡nÄĽ": 7063,
      "ĠjitÅĻ": 7064,
      "Ġfor": 7065,
      "Ġmraz": 7066,
      "ĠchvÃŃlÃŃ": 7067,
      "ĠchrÃ¡nÃŃ": 7068,
      "naly": 7069,
      "ĠkalÃŃ": 7070,
      "nci": 7071,
      "snu": 7072,
      "enstvÃŃ": 7073,
      "ĠsmÄĽl": 7074,
      "imÄĽ": 7075,
      "Ġmas": 7076,
      "ĠtÄĽl": 7077,
      "ĠplÃ¡la": 7078,
      "Ġhrobem": 7079,
      "mich": 7080,
      "tÃ¡ÅĻ": 7081,
      "Ġramena": 7082,
      "uha": 7083,
      "ĠMrÃ¡z": 7084,
      "ĠchvÄĽnÃŃ": 7085,
      "rÃ¡Å¾": 7086,
      "Ġsiro": 7087,
      "Ġah": 7088,
      "Ġpova": 7089,
      "ĠstÃ½": 7090,
      "Ġmudr": 7091,
      "ĠspÄĽl": 7092,
      "ostem": 7093,
      "ĠznÃ¡mÃ©": 7094,
      "JÃį": 7095,
      "ckÃ¡": 7096,
      "ĠzoÅĻe": 7097,
      "Ġdnu": 7098,
      "ĠTO": 7099,
      "toval": 7100,
      "cenÃ¡": 7101,
      "Ġpomsty": 7102,
      "ĠskÅĻivan": 7103,
      "ĠMOD": 7104,
      "azd": 7105,
      "Ġvnik": 7106,
      "letÄĽl": 7107,
      "amne": 7108,
      "Ġnebyla": 7109,
      "Ġskrz": 7110,
      "ĠutrpenÃŃ": 7111,
      "Ġps": 7112,
      "Ġpojednou": 7113,
      "Ġvinou": 7114,
      "ĠlÃŃtÃ¡": 7115,
      "Ġpokra": 7116,
      "ĠozÃ¡": 7117,
      "ĠÅ¡epce": 7118,
      "gu": 7119,
      "onil": 7120,
      "snou": 7121,
      "ĠAAXBB": 7122,
      "esl": 7123,
      "ĠvzpomÃŃnÃ¡": 7124,
      "ckÃ½ch": 7125,
      "eu": 7126,
      "inek": 7127,
      "Ġuva": 7128,
      "ĠholÃ©": 7129,
      "ĠPr": 7130,
      "ĠÅ¾ivÃ¡": 7131,
      "elky": 7132,
      "ĠHer": 7133,
      "CKÃģ": 7134,
      "bled": 7135,
      "OVÃĿCH": 7136,
      "Ġoblaky": 7137,
      "ĠhÅ¯l": 7138,
      "Ġosi": 7139,
      "vÃŃn": 7140,
      "ĠVina": 7141,
      "ednu": 7142,
      "ĠsvatÃ©ho": 7143,
      "ĠmlÄįenÃŃ": 7144,
      "ĠCo": 7145,
      "Ġpravdou": 7146,
      "ĠtajnÃ©": 7147,
      "ihu": 7148,
      "lyÅ¡": 7149,
      "ĠÅ¡p": 7150,
      "ĠÅĻev": 7151,
      "Ġsedmi": 7152,
      "Ġam": 7153,
      "ĠtuÅ¡ÃŃm": 7154,
      "Ġpokoje": 7155,
      "ĠHOR": 7156,
      "Ġpavu": 7157,
      "ĠÅ¡leh": 7158,
      "ĠzÃ¡ho": 7159,
      "ĠsklÃŃ": 7160,
      "Ġrato": 7161,
      "kly": 7162,
      "Ġpas": 7163,
      "Ġzmu": 7164,
      "AS": 7165,
      "ĠneustÃ¡": 7166,
      "Äįan": 7167,
      "Äįest": 7168,
      "ĠpohÃ¡dka": 7169,
      "Ġpaprs": 7170,
      "Ġzev": 7171,
      "Ġmad": 7172,
      "Ġulo": 7173,
      "Ġlidskou": 7174,
      "ĠXXAA": 7175,
      "Ġsklonil": 7176,
      "uze": 7177,
      "ĠpodÄĽ": 7178,
      "Ġchal": 7179,
      "ĠXIII": 7180,
      "Ġmiluje": 7181,
      "ĠpÅ¯lnoc": 7182,
      "tce": 7183,
      "ĠbÅĻi": 7184,
      "ake": 7185,
      "Ġsply": 7186,
      "Ġknih": 7187,
      "ĠpestrÃ©": 7188,
      "Ġproz": 7189,
      "Ġsyny": 7190,
      "Ġhladi": 7191,
      "ĠABCAB": 7192,
      "vÄĽti": 7193,
      "ĠtakÃ½": 7194,
      "ĠmraÄįen": 7195,
      "Ġsrde": 7196,
      "ĠpodzimnÃŃ": 7197,
      "Ġoj": 7198,
      "teÄįnÃŃ": 7199,
      "ĠuvÄĽ": 7200,
      "Ġholou": 7201,
      "ĠMÄļ": 7202,
      "Ġnejsi": 7203,
      "Ġstan": 7204,
      "ĠÅ¡ÃŃje": 7205,
      "Ġvzor": 7206,
      "ĠLO": 7207,
      "ĠotrÃ¡": 7208,
      "Ġparku": 7209,
      "Ġulici": 7210,
      "LEN": 7211,
      "jela": 7212,
      "Ġudi": 7213,
      "Ġspu": 7214,
      "boÅ¾": 7215,
      "ĠstranÄĽ": 7216,
      "ĠhÅĻÃŃchÅ¯": 7217,
      "ĠstudÃ¡": 7218,
      "jala": 7219,
      "Ġkriti": 7220,
      "ĠstÃ¡r": 7221,
      "prvÃ©": 7222,
      "ĠhrobÅ¯": 7223,
      "ĠlistÅ¯": 7224,
      "ĠsnivÃ©": 7225,
      "Ġsep": 7226,
      "alse": 7227,
      "ĠoblÃ¡": 7228,
      "ĠpÃŃti": 7229,
      "Ġzhu": 7230,
      "ĠumÄĽl": 7231,
      "Ġvece": 7232,
      "Ġrce": 7233,
      "lemi": 7234,
      "ĠknÃŃÅ¾": 7235,
      "ĠSONET": 7236,
      "ouc": 7237,
      "ĠoÄįka": 7238,
      "Ġnejde": 7239,
      "azu": 7240,
      "oze": 7241,
      "Ġren": 7242,
      "ĠpÃ¡dÃŃ": 7243,
      "Ġkul": 7244,
      "Ġcig": 7245,
      "Ġryt": 7246,
      "ĠoltÃ¡ÅĻi": 7247,
      "ĠÅ¾ert": 7248,
      "PI": 7249,
      "kni": 7250,
      "Ġoby": 7251,
      "Ġhromu": 7252,
      "dÃ¡l": 7253,
      "ĠpoÅ¾Ã¡": 7254,
      "Ġzbyl": 7255,
      "Ġzkad": 7256,
      "Ġbezna": 7257,
      "ĠbÃŃt": 7258,
      "Ġnejlep": 7259,
      "Ġpusto": 7260,
      "ĠsvÃŃtil": 7261,
      "Ġozval": 7262,
      "ĠknÄĽÅ¾ÃŃ": 7263,
      "gna": 7264,
      "oÄįil": 7265,
      "Ġchaty": 7266,
      "etou": 7267,
      "icim": 7268,
      "ĠSVÄļ": 7269,
      "Ġpostavy": 7270,
      "Ġhodin": 7271,
      "ĠÅ¡ele": 7272,
      "ĠpÅĻedc": 7273,
      "ĠpustÃ½": 7274,
      "Ġzticha": 7275,
      "zne": 7276,
      "natÃ©": 7277,
      "Ġkov": 7278,
      "ĠkmitÃ¡": 7279,
      "ĠvÃ½chodu": 7280,
      "ĠPOSLEDNÃį": 7281,
      "ĠvavÅĻÃŃ": 7282,
      "ĠskÃ¡Äįe": 7283,
      "ĠmyÅ¡lenka": 7284,
      "ĠkolÃŃ": 7285,
      "EEFFGG": 7286,
      "Ġseveru": 7287,
      "ĠkamenÃŃ": 7288,
      "Ġzmar": 7289,
      "pky": 7290,
      "ĠtkÃ¡": 7291,
      "ĠtemnÃ½ch": 7292,
      "ĠnevÃ½slov": 7293,
      "Ġocho": 7294,
      "Äįinu": 7295,
      "Ġryb": 7296,
      "lice": 7297,
      "ĠKAR": 7298,
      "ÄįÃŃvÃ¡": 7299,
      "Ġkres": 7300,
      "Ġmlze": 7301,
      "ĠhouÅ¡tÃŃ": 7302,
      "ĠnebezpeÄį": 7303,
      "yba": 7304,
      "povÄĽ": 7305,
      "ĠteÄįe": 7306,
      "ĠÅ½EN": 7307,
      "ĠpohÃ¡dky": 7308,
      "ĠchraÅĪ": 7309,
      "ĠVinaÅĻickÃ½": 7310,
      "Äįily": 7311,
      "nÄĽly": 7312,
      "ĠÄįil": 7313,
      "Ġhoru": 7314,
      "ĠÅĻadu": 7315,
      "KÃģ": 7316,
      "Å¾iti": 7317,
      "ĠdivÃ©m": 7318,
      "azel": 7319,
      "Ġobej": 7320,
      "PU": 7321,
      "krat": 7322,
      "Ġuzav": 7323,
      "ĠnÄĽkolik": 7324,
      "ĠnÃ¡v": 7325,
      "Ġpohan": 7326,
      "Ġblahu": 7327,
      "ĠpÅ¯dy": 7328,
      "ĠROMANCE": 7329,
      "ĠÅ¾ivobytÃŃ": 7330,
      "Ġpoledne": 7331,
      "naj": 7332,
      "nÃ©st": 7333,
      "ĠmÃŃst": 7334,
      "onem": 7335,
      "Ġzub": 7336,
      "Ġproh": 7337,
      "mit": 7338,
      "ĠburÃ¡": 7339,
      "ĠDra": 7340,
      "bej": 7341,
      "odli": 7342,
      "cena": 7343,
      "ĠsadÄĽ": 7344,
      "Ġkorou": 7345,
      "Äįeji": 7346,
      "azni": 7347,
      "ĠÅ¡Å¥astnÄĽ": 7348,
      "tÃ¡h": 7349,
      "ĠmÄĽstu": 7350,
      "Ġulice": 7351,
      "ĠpÃ½cha": 7352,
      "gel": 7353,
      "ĠhvÃŃ": 7354,
      "Ġfilo": 7355,
      "Ġstarce": 7356,
      "Ġbalvan": 7357,
      "anÃŃ": 7358,
      "Ġvs": 7359,
      "Ġzvad": 7360,
      "Ġvej": 7361,
      "Ġmuzi": 7362,
      "mÃŃvÃ¡": 7363,
      "Ġposlal": 7364,
      "Ġsvojich": 7365,
      "Ġhubi": 7366,
      "ĠzvukÅ¯": 7367,
      "CXD": 7368,
      "ĠKaras": 7369,
      "xan": 7370,
      "Ġtlou": 7371,
      "jÃŃmÃ¡": 7372,
      "ĠmdlÃ©": 7373,
      "Ġpopra": 7374,
      "Ġjisto": 7375,
      "Ġdojem": 7376,
      "nÃ¡n": 7377,
      "lenÃ¡": 7378,
      "Ġdol": 7379,
      "ĠpÃ¡nÅ¯": 7380,
      "ĠosvÄĽ": 7381,
      "ĠprÃ¡zdnÃ©": 7382,
      "ĠÅ¡tva": 7383,
      "ĠpaÅĻÃŃ": 7384,
      "ysve": 7385,
      "Ġblankytu": 7386,
      "Ġejhle": 7387,
      "BY": 7388,
      "han": 7389,
      "ÄĽdÄĽl": 7390,
      "Ġvous": 7391,
      "volu": 7392,
      "ĠvyÅ¡e": 7393,
      "ĠSla": 7394,
      "CCDEED": 7395,
      "ĠpoÅ¾Ã¡r": 7396,
      "ĠstÃŃhÃ¡": 7397,
      "ĠÅłmilo": 7398,
      "hlÃ©d": 7399,
      "ĠdÃ©le": 7400,
      "ĠÅłmilovskÃ½": 7401,
      "epe": 7402,
      "STVÃį": 7403,
      "Ġvych": 7404,
      "ĠÅ¡edÃ¡": 7405,
      "Ġsmysly": 7406,
      "ĠhedvÃ¡": 7407,
      "uta": 7408,
      "ĠschÃ¡zÃŃ": 7409,
      "ÅĻÃŃch": 7410,
      "Ġdopro": 7411,
      "ĠfarÃ¡": 7412,
      "oudil": 7413,
      "Ġperla": 7414,
      "ĠuÅ¡i": 7415,
      "ÄįekÃ¡": 7416,
      "ĠzdvihÃ¡": 7417,
      "Ġchaloup": 7418,
      "razÃŃ": 7419,
      "ĠpÅĻÃŃsnÄĽ": 7420,
      "ĠhladÃŃ": 7421,
      "ĠzvlÃ¡Å¡Å¥": 7422,
      "ĠzaÅ¡ep": 7423,
      "enni": 7424,
      "voval": 7425,
      "ĠÅ¡pa": 7426,
      "ĠplnÃ½m": 7427,
      "ĠsvatÃ©m": 7428,
      "Ġtrud": 7429,
      "ĠhledÃ¡m": 7430,
      "Ġrukama": 7431,
      "yr": 7432,
      "ĠvtÄĽ": 7433,
      "ĠoÅ¾i": 7434,
      "ĠPÅĻi": 7435,
      "enickÃ½": 7436,
      "ĠnebeskÃ©": 7437,
      "ĠRÅ®": 7438,
      "Ġslavnost": 7439,
      "ĠÅ¡lehÃ¡": 7440,
      "usy": 7441,
      "ÅĻely": 7442,
      "Ġvzdoru": 7443,
      "Ġratole": 7444,
      "jou": 7445,
      "zdÄĽ": 7446,
      "ĠVÄĽnce": 7447,
      "ĠvzpomÃŃnek": 7448,
      "ĠjunÃ¡": 7449,
      "ĠVÄĽnceslav": 7450,
      "ĠzvÃ¡": 7451,
      "ĠstÅĻÃ¡": 7452,
      "Ġpozdvi": 7453,
      "Å¥te": 7454,
      "ĠBal": 7455,
      "Ġsoko": 7456,
      "ĠtouÅ¾il": 7457,
      "eÄįku": 7458,
      "ÅĻenou": 7459,
      "rs": 7460,
      "Ġnehy": 7461,
      "ĠuvÃŃ": 7462,
      "nÃ©sti": 7463,
      "arÃ½t": 7464,
      "Ġnohu": 7465,
      "ĠzÃ¡dum": 7466,
      "icek": 7467,
      "ĠptÃ¡ka": 7468,
      "ĠKamarÃ½t": 7469,
      "ĠÅ¾ebrÃ¡k": 7470,
      "ĠÄįervÃ¡nkÅ¯": 7471,
      "ĠVlastimil": 7472,
      "lily": 7473,
      "ĠdÄĽsÃŃ": 7474,
      "ĠvÃ½kÅĻi": 7475,
      "vedla": 7476,
      "Ġhust": 7477,
      "ĠvichÅĻice": 7478,
      "Ġprova": 7479,
      "ĠhoÅĻi": 7480,
      "ĠDRU": 7481,
      "ĠnapÅĻed": 7482,
      "ĠbÃ©ÅĻe": 7483,
      "ĠdÄĽd": 7484,
      "kouz": 7485,
      "ĠzoufalstvÃŃ": 7486,
      "tan": 7487,
      "ĠneznÃ¡mÃ©": 7488,
      "Ġele": 7489,
      "alou": 7490,
      "ĠstÃ¡lo": 7491,
      "ĠpÄĽsti": 7492,
      "ĠvlastnÄĽ": 7493,
      "Ġvesel": 7494,
      "ĠskalÃ¡ch": 7495,
      "Ġvnad": 7496,
      "tkÅ¯": 7497,
      "ĠkÅ¡ti": 7498,
      "ĠvlastnÃŃm": 7499,
      "ĠdÃŃvku": 7500,
      "Ġjisker": 7501,
      "ĠÄĮenkova": 7502,
      "ĠNej": 7503,
      "ĠpÃ¡ny": 7504,
      "ĠkÅĻiÅ¾": 7505,
      "Ġvezmi": 7506,
      "POMÃįN": 7507,
      "Ġprof": 7508,
      "ĠnemoÅ¾": 7509,
      "oto": 7510,
      "ÅĻuje": 7511,
      "Ġsestra": 7512,
      "ĠproklÃŃ": 7513,
      "ĠlÃ©ka": 7514,
      "ĠNÃ¡": 7515,
      "ĠbleskÅ¯": 7516,
      "ÅĻÃŃti": 7517,
      "Ġvypl": 7518,
      "ĠnÄĽmÃ¡": 7519,
      "ĠXXXXXXXXXXXXXXXXXXXXXXXXXXXXXXXXXXXXXXXXXXXXXXXX": 7520,
      "ĠzÃ¡dumÄįi": 7521,
      "nÄįÃŃ": 7522,
      "ĠmÃŃhÃ¡": 7523,
      "ĠmrtvÃŃ": 7524,
      "Ġovoce": 7525,
      "ĠpÃ¡d": 7526,
      "Ġfra": 7527,
      "ĠpohlÃ©": 7528,
      "Ġluhy": 7529,
      "Ġminulost": 7530,
      "ĠhÅĻÃ¡": 7531,
      "ĠMok": 7532,
      "ĠlÃŃstek": 7533,
      "ĠmocnÃ©": 7534,
      "ĠdÄĽsnÃ½": 7535,
      "ĠpÅĻelud": 7536,
      "atÃ½": 7537,
      "ĠjinÃ©ho": 7538,
      "ĠrtÃŃ": 7539,
      "Ġrysy": 7540,
      "Å¡tÄĽnÃŃ": 7541,
      "ĠchtÄĽlo": 7542,
      "ĠmlÃ½n": 7543,
      "ĠonÄĽch": 7544,
      "Ġchech": 7545,
      "Ġcar": 7546,
      "ĠzmÃŃtÃ¡": 7547,
      "lÃ¡m": 7548,
      "por": 7549,
      "ĠkacÃŃ": 7550,
      "ĠHLA": 7551,
      "ĠstÃ¡do": 7552,
      "Ġplny": 7553,
      "Ġnechte": 7554,
      "Ġmoudrosti": 7555,
      "Ġsmy": 7556,
      "Ġstup": 7557,
      "ĠhoÅ¡i": 7558,
      "mÄĽt": 7559,
      "ital": 7560,
      "jdeÅ¡": 7561,
      "Ġtrag": 7562,
      "ĠzboÅ¾nÄĽ": 7563,
      "ĠpilnÄĽ": 7564,
      "XXXXX": 7565,
      "Ġbyt": 7566,
      "stÃ¡ch": 7567,
      "Ġzmlk": 7568,
      "ĠÄįistou": 7569,
      "STÃį": 7570,
      "Ġbly": 7571,
      "ÄįinÄĽ": 7572,
      "ĠplÃ¡ly": 7573,
      "ĠÄĮela": 7574,
      "ĠvÄĽÄįnÃ½ch": 7575,
      "ĠpevnÃ½": 7576,
      "ĠneznÃ¡mÃ½": 7577,
      "anul": 7578,
      "Ġsel": 7579,
      "Ġoct": 7580,
      "Ġvzbou": 7581,
      "ĠskÃ¡lu": 7582,
      "ĠhlubokÃ½": 7583,
      "pek": 7584,
      "venka": 7585,
      "riÄį": 7586,
      "ĠutÄĽ": 7587,
      "nÃ¡ÅĻ": 7588,
      "ĠboÅĻÃŃ": 7589,
      "buh": 7590,
      "avych": 7591,
      "mÅ¯Å¾e": 7592,
      "ĠchvÄĽlo": 7593,
      "ĠspÃ¡ti": 7594,
      "ĠKamenickÃ½": 7595,
      "ĠMokrÃ½": 7596,
      "Ġpoc": 7597,
      "ĠAABBB": 7598,
      "edna": 7599,
      "ĠÅ¾ÃŃzni": 7600,
      "ĠnohÃ¡m": 7601,
      "ĠnaÅ¡eho": 7602,
      "ĠvÃ©vo": 7603,
      "ĠVladimÃŃr": 7604,
      "lÃŃt": 7605,
      "Ġsvad": 7606,
      "Ġkyp": 7607,
      "Ġprostor": 7608,
      "einer": 7609,
      "ute": 7610,
      "Ġstoup": 7611,
      "Ġjsouc": 7612,
      "ĠtÃ¡bor": 7613,
      "ĠchceÅ¡li": 7614,
      "Å®M": 7615,
      "ĠvojÃŃ": 7616,
      "ĠvrahÅ¯": 7617,
      "ĠvysokÃ©": 7618,
      "Ġmladist": 7619,
      "ĠKoubek": 7620,
      "oudy": 7621,
      "kati": 7622,
      "ĠAJ": 7623,
      "ĠlÃ¡me": 7624,
      "ĠÅ¡erem": 7625,
      "Ġplakal": 7626,
      "ĠbÄĽlo": 7627,
      "peÄįÃŃ": 7628,
      "ivych": 7629,
      "ĠABABACDDC": 7630,
      "GGFH": 7631,
      "ĠKdyÅ¾": 7632,
      "ÅĻelo": 7633,
      "ĠVrati": 7634,
      "ĠRÃ¡": 7635,
      "ĠÄĮER": 7636,
      "ĠÅ¡lechet": 7637,
      "ĠPravoslav": 7638,
      "ĠVratislav": 7639,
      "eÄįek": 7640,
      "ĠSLOV": 7641,
      "ĠWeiner": 7642,
      "ĠmyÅ¡lÃ©nka": 7643,
      "ĠzdobÃŃ": 7644,
      "ĠnevidÄĽl": 7645,
      "ĠmÅ¾ikem": 7646,
      "Ġzad": 7647,
      "ĠkovÃ¡": 7648,
      "Ġoddech": 7649,
      "ĠslÃ½ch": 7650,
      "ĠzjevÃŃ": 7651,
      "EEFGF": 7652,
      "ĠpomÃ¡": 7653,
      "nÃŃkem": 7654,
      "ÅĻeje": 7655,
      "Ġzahu": 7656,
      "ĠÃºkol": 7657,
      "ĠpÅĻesvÄĽd": 7658,
      "ĠretÅ¯": 7659,
      "tisk": 7660,
      "Ġodve": 7661,
      "ĠpÄĽti": 7662,
      "ĠhustÃ©": 7663,
      "ĠchrÃ¡my": 7664,
      "ĠkrÃ¡lovna": 7665,
      "Ġobrazy": 7666,
      "ĠÅĻadou": 7667,
      "ĠslabÃ©": 7668,
      "ĠruÄįky": 7669,
      "esou": 7670,
      "opil": 7671,
      "Ġleto": 7672,
      "Ġpraha": 7673,
      "ĠdruzÃŃ": 7674,
      "Å½E": 7675,
      "atych": 7676,
      "obou": 7677,
      "Ġpopla": 7678,
      "ĠPicek": 7679,
      "ĠpÃ¡ry": 7680,
      "ĠÄįinu": 7681,
      "ĠchtÄĽjÃŃ": 7682,
      "Ġvesna": 7683,
      "ĠsklÃ¡dÃ¡": 7684,
      "ĠpÅĻemÃ½Å¡": 7685,
      "ĠsmÃ¡la": 7686,
      "ĠapoÅ¡to": 7687,
      "ulo": 7688,
      "ĠsnÃ¡Å¡ÃŃ": 7689,
      "Ġzva": 7690,
      "Ġoblou": 7691,
      "Ġpoliti": 7692,
      "ĠkrvavÃ½": 7693,
      "ĠnenadÃ¡": 7694,
      "dÄĽk": 7695,
      "ĠZEM": 7696,
      "ĠÅ¡irÃ½": 7697,
      "ĠÄıas": 7698,
      "mlou": 7699,
      "ĠÅĻem": 7700,
      "Ġjdeme": 7701,
      "ĠkoutÄĽ": 7702,
      "idnÄĽ": 7703,
      "ĠvÃ¡lky": 7704,
      "ĠposmÄĽch": 7705,
      "Ġtriumf": 7706,
      "Ġlibu": 7707,
      "ĠÅĻece": 7708,
      "ĠmrtvÃ¡": 7709,
      "ĠmajestÃ¡": 7710,
      "mÃŃm": 7711,
      "rej": 7712,
      "ĠjeseÅĪ": 7713,
      "ĠÅ¡ly": 7714,
      "rz": 7715,
      "Ġdno": 7716,
      "Ġihned": 7717,
      "ĠzelenÃ½": 7718,
      "Ġnavra": 7719,
      "ĠnÃ¡mÄĽstÃŃ": 7720,
      "ĠÄĮTYÅĺECH": 7721,
      "Ġprobou": 7722,
      "chajÃŃ": 7723,
      "stÃ¡nÃŃ": 7724,
      "ĠlodÃŃ": 7725,
      "ĠÃºÅ¾as": 7726,
      "yj": 7727,
      "Ġzbude": 7728,
      "ÄįnÃŃch": 7729,
      "Ġmladost": 7730,
      "Ġzbylo": 7731,
      "ĠpÃ½Å¡e": 7732,
      "ĠdvakrÃ¡t": 7733,
      "ĠstkvÄĽ": 7734,
      "Ġhudbu": 7735,
      "ĠSYNECH": 7736,
      "ĠÅ½IVOTA": 7737,
      "MONOVÃĿCH": 7738,
      "ĠAJMONOVÃĿCH": 7739,
      "bral": 7740,
      "ĠJaku": 7741,
      "cek": 7742,
      "ĠsrdÃ©": 7743,
      "ĠstoletÃŃ": 7744,
      "ĠklidnÃ½": 7745,
      "ĠvrÃ¡sky": 7746,
      "ĠhlasÅ¯": 7747,
      "idlo": 7748,
      "olna": 7749,
      "ĠsnÄĽÅ¾": 7750,
      "ĠBohumil": 7751,
      "ĠÄĮelakovskÃ½": 7752,
      "leni": 7753,
      "ĠsrÃ¡z": 7754,
      "ĠbodÃ¡": 7755,
      "pouÅ¡tÄĽ": 7756,
      "ĠÄįechy": 7757,
      "ZD": 7758,
      "hej": 7759,
      "Äįilo": 7760,
      "ĠAABXB": 7761,
      "ĠrÅ¯znÃ©": 7762,
      "ĠÄįtvrtÃ½": 7763,
      "ĠnelÃŃ": 7764,
      "Ġzaji": 7765,
      "Ġroku": 7766,
      "ĠVy": 7767,
      "ĠÅ¾ilÃ¡ch": 7768,
      "ĠvÅ¡echna": 7769,
      "Ġmraku": 7770,
      "ĠvlÃ¡dy": 7771,
      "Ġbloudil": 7772,
      "ĠmistÅĻe": 7773,
      "ĠÅ¾ele": 7774,
      "ĠpÅĻip": 7775,
      "Ġceli": 7776,
      "Ġkorouh": 7777,
      "Ġzkla": 7778,
      "titi": 7779,
      "Ġidy": 7780,
      "ĠkrÃ¡lo": 7781,
      "Ġhromo": 7782,
      "ĠÄįlovÄĽkem": 7783,
      "ĠperutÄĽ": 7784,
      "Ġchceme": 7785,
      "ynek": 7786,
      "Ġrozkaz": 7787,
      "ĠnÄĽmÃ©": 7788,
      "ĠbavÃŃ": 7789,
      "ĠkÅĻep": 7790,
      "ĠÅ¡eptal": 7791,
      "ĠÅ¥": 7792,
      "ĠposvÃ¡": 7793,
      "ĠmilÃŃ": 7794,
      "ĠznÃ¡t": 7795,
      "Ġplynou": 7796,
      "mel": 7797,
      "Ġsek": 7798,
      "Ġdomy": 7799,
      "ĠprvÃ©": 7800,
      "ĠmÃŃsÃŃ": 7801,
      "ĠsvÃŃtÃ¡": 7802,
      "voÅĻÃŃ": 7803,
      "Ġkonci": 7804,
      "jatÃ©": 7805,
      "Ġhejno": 7806,
      "Ġsoumraku": 7807,
      "Ġneklid": 7808,
      "Ġvlek": 7809,
      "ÄĽnim": 7810,
      "ĠzÃ¡pal": 7811,
      "ĠÅ¾iva": 7812,
      "ĠpouhÃ©": 7813,
      "Ġpoklady": 7814,
      "ĠrÅ¯znÃ½ch": 7815,
      "ĠmateÅĻ": 7816,
      "Ġpocit": 7817,
      "ĠKVÄļ": 7818,
      "Ġnoh": 7819,
      "ĠlÃ¡n": 7820,
      "Ġnejdra": 7821,
      "Ġslovu": 7822,
      "ĠÅĻÃŃma": 7823,
      "ĠjaÅĻe": 7824,
      "ÅĻte": 7825,
      "ĠzaÄįÃŃ": 7826,
      "Ġshon": 7827,
      "nkÃ¡": 7828,
      "ĠnÄĽÅ¾nÃ©": 7829,
      "utÄĽ": 7830,
      "stÅĻi": 7831,
      "ĠvidÄĽla": 7832,
      "Å½Ãį": 7833,
      "nÄĽjÅ¡ÃŃch": 7834,
      "Ġhrdla": 7835,
      "ĠpoÄįne": 7836,
      "ĠdÃ¡my": 7837,
      "ĠMarie": 7838,
      "Ġkopy": 7839,
      "Ġzbroj": 7840,
      "Ġvnady": 7841,
      "UM": 7842,
      "icho": 7843,
      "Ġhisto": 7844,
      "ĠdÄĽlÃŃ": 7845,
      "ĠsynÅ¯": 7846,
      "ĠmyÅ¡lÃ©nek": 7847,
      "ĠtÅ¯nÄĽ": 7848,
      "eva": 7849,
      "Ġpose": 7850,
      "ĠjmÃ©nem": 7851,
      "Ġ!": 7852,
      "ĠJED": 7853,
      "Ġvyho": 7854,
      "ĠvÃŃÄįka": 7855,
      "ĠpÅĻÃŃklad": 7856,
      "ĠsnÃŃt": 7857,
      "ĠztracenÃ©": 7858,
      "Ġblud": 7859,
      "ĠbujnÃ©": 7860,
      "ĠnovÃ©m": 7861,
      "ĠMAT": 7862,
      "Ġcele": 7863,
      "ĠradosÅ¥": 7864,
      "Ġklesl": 7865,
      "ĠboÅ¾stvÃŃ": 7866,
      "ĠpÅ¯lnoci": 7867,
      "Ġjezera": 7868,
      "ĠBÃģS": 7869,
      "lilo": 7870,
      "Ġdocela": 7871,
      "Ġchou": 7872,
      "adle": 7873,
      "avam": 7874,
      "RY": 7875,
      "ĠshÃ½": 7876,
      "nova": 7877,
      "ĠbÄĽhu": 7878,
      "Ġnedal": 7879,
      "ĠtÄĽÅ¾kÃ½m": 7880,
      "Ġnepoko": 7881,
      "ĠskoÄįÃŃ": 7882,
      "ĠpaprskÅ¯": 7883,
      "ĠDraho": 7884,
      "bÃ¡Å¡": 7885,
      "ĠsvÃŃce": 7886,
      "LÃī": 7887,
      "ZpÄĽv": 7888,
      "jen": 7889,
      "vÄĽjÅ¡ÃŃ": 7890,
      "ĠpÅĻÃŃtele": 7891,
      "ĠvlaÅ¡to": 7892,
      "ĠrekÅ¯": 7893,
      "acel": 7894,
      "BI": 7895,
      "ĠdivokÃ©": 7896,
      "ĠcestÃ¡ch": 7897,
      "Ġkane": 7898,
      "ĠbÅĻehÅ¯": 7899,
      "ĠtajemnÃ©": 7900,
      "ĠvteÅĻi": 7901,
      "ĠToman": 7902,
      "ĠVz": 7903,
      "Ġvzrost": 7904,
      "ĠpÅĻehlu": 7905,
      "ĠFriÄį": 7906,
      "ĠchvÄĽj": 7907,
      "ĠpÃ¡nbÅ¯h": 7908,
      "ĠkÃ¡cÃŃ": 7909,
      "Ġteplo": 7910,
      "ĠkaÅ¾dÃ©mu": 7911,
      "ĠslabÃ½": 7912,
      "ĠsrÃ¡": 7913,
      "ĠdnovÃ©": 7914,
      "Å¡ili": 7915,
      "Ġrevolu": 7916,
      "ĠPrvnÃŃ": 7917,
      "VY": 7918,
      "ram": 7919,
      "Ġkohou": 7920,
      "ĠpÅĻekva": 7921,
      "Ġzloba": 7922,
      "ĠnedoÄįka": 7923,
      "ĠteplÃ½": 7924,
      "Ġout": 7925,
      "ĠnÃ¡dh": 7926,
      "ĠzvlÃ¡Å¡tnÃŃ": 7927,
      "ĠposÃŃ": 7928,
      "ĠzÃ¡vrat": 7929,
      "Ġlidmi": 7930,
      "ĠmarnÃ½": 7931,
      "ĠzvÄĽda": 7932,
      "Ġnasy": 7933,
      "sej": 7934,
      "Ġmok": 7935,
      "ĠslastÃŃ": 7936,
      "pouÅ¡tÃŃ": 7937,
      "ĠzmÄĽnÃŃ": 7938,
      "Ġhorami": 7939,
      "ret": 7940,
      "zat": 7941,
      "ĠABACCB": 7942,
      "Ġzmatku": 7943,
      "ĠzkvÃ©": 7944,
      "ÃŃch": 7945,
      "chne": 7946,
      "tovÃ¡nÃŃ": 7947,
      "Ġhrozi": 7948,
      "ĠplnÃ½ch": 7949,
      "ĠdÄĽcka": 7950,
      "ĠbohatÃ½r": 7951,
      "stupuje": 7952,
      "LY": 7953,
      "evy": 7954,
      "zla": 7955,
      "ĠpoprvÃ©": 7956,
      "skot": 7957,
      "CCA": 7958,
      "ĠZE": 7959,
      "menÄĽ": 7960,
      "Ġlos": 7961,
      "ĠhvÄĽzdou": 7962,
      "ĠposlednÃŃm": 7963,
      "Ġperel": 7964,
      "Ġoblaka": 7965,
      "ĠkrÃ¡tkÃ©": 7966,
      "ÄĽci": 7967,
      "ouÅ¾il": 7968,
      "staly": 7969,
      "ĠVÃĿ": 7970,
      "OVÄļ": 7971,
      "ĠklasÅ¯": 7972,
      "ojem": 7973,
      "Ġ6": 7974,
      "Ġneje": 7975,
      "ĠnabÃŃ": 7976,
      "kovÃ¡": 7977,
      "vinu": 7978,
      "RAN": 7979,
      "Ġmohli": 7980,
      "ĠrozÅ¾": 7981,
      "Ġostro": 7982,
      "ynul": 7983,
      "ÄĽno": 7984,
      "ĠptÃ¡m": 7985,
      "ĠjeÅ¾ÃŃÅ¡": 7986,
      "Ġroman": 7987,
      "Ġlip": 7988,
      "ĠBE": 7989,
      "Ġlampy": 7990,
      "ĠkadeÅĻ": 7991,
      ".*)": 7992,
      "ĠBALADA": 7993,
      "ĠmÄĽly": 7994,
      "ĠnovÃ©ho": 7995,
      "izda": 7996,
      "Ġjmeno": 7997,
      "ĠkÅĻovÃŃ": 7998,
      "ĠsnÃŃm": 7999,
      "rali": 8000,
      "Ġrozbi": 8001,
      "ĠzÃ¡stu": 8002,
      "ĠhradÄĽ": 8003,
      "Ġhluku": 8004,
      "Ġlevo": 8005,
      "Ġnos": 8006,
      "ĠpravÃŃm": 8007,
      "ĠtesknÃ©": 8008,
      "Ġhladem": 8009,
      "Ġnest": 8010,
      "lÃŃp": 8011,
      "ĠvÄĽÅ¾i": 8012,
      "ĠÅĻÃŃdÃŃ": 8013,
      "Ġjasno": 8014,
      "ĠdrÃ¡hy": 8015,
      "ĠprobÃŃ": 8016,
      "ĠÄįernÃ½m": 8017,
      "Ġozdob": 8018,
      "ĠsnivÃ¡": 8019,
      "aÄįku": 8020,
      "ysy": 8021,
      "Ġvstoup": 8022,
      "Ġbor": 8023,
      "ĠPod": 8024,
      "ĠvÃ¡le": 8025,
      "ĠpodveÄįer": 8026,
      "Ġpokoji": 8027,
      "eÄįka": 8028,
      "Äįena": 8029,
      "nan": 8030,
      "ĠvÃ½Äįi": 8031,
      "ĠrÅ¯Å¾ovÃ©": 8032,
      "ĠXAABBCCDD": 8033,
      "skoÄįi": 8034,
      "pÄĽla": 8035,
      "âĢľ.": 8036,
      "ĠstÃ¡da": 8037,
      "ĠtÃ³n": 8038,
      "srd": 8039,
      "Äİ": 8040,
      "Ġhodina": 8041,
      "ĠznÃ¡te": 8042,
      "kvete": 8043,
      "ĠknÄĽÅ¾na": 8044,
      "aÅ¡el": 8045,
      "uÅĻe": 8046,
      "liti": 8047,
      "ĠÅ¾ivÃŃ": 8048,
      "Ġskvr": 8049,
      "Ġvoje": 8050,
      "ĠpÄĽjÃŃ": 8051,
      "ĠblaÅ¾ÃŃ": 8052,
      "ĠkÃ½v": 8053,
      "Ġzjas": 8054,
      "are": 8055,
      "ĠÃºtro": 8056,
      "ÄįkovÃ©": 8057,
      "Ġmuky": 8058,
      "ĠlÃŃpy": 8059,
      "Ġstranu": 8060,
      "ĠbijÃŃ": 8061,
      "ĠoltÃ¡ÅĻe": 8062,
      "Ġca": 8063,
      "isvou": 8064,
      "ĠÃºsmÄĽvu": 8065,
      "Ġkostela": 8066,
      "upy": 8067,
      "ver": 8068,
      "ÄĽzi": 8069,
      "Ġsedla": 8070,
      "Ġprs": 8071,
      "ÄĮÃį": 8072,
      "ĠÅ¾ÃŃzeÅĪ": 8073,
      "ĠXXXXXXXXXXXXXXXXX": 8074,
      "ĠhlÃ¡sÃŃ": 8075,
      "Ġrcete": 8076,
      "bÃ½vÃ¡": 8077,
      "Ġodlesk": 8078,
      "ĠOS": 8079,
      "vnÃŃk": 8080,
      "ĠplÃŃÅ¾ÃŃ": 8081,
      "Ġvzplane": 8082,
      "ĠBÄĽlo": 8083,
      "Ġstole": 8084,
      "vlas": 8085,
      "ĠrodnÃ½": 8086,
      "ĠhoÅĻem": 8087,
      "ohled": 8088,
      "ĠjejichÅ¾": 8089,
      "ĠÄįinÅ¯": 8090,
      "ĠrovnÄĽÅ¾": 8091,
      "rnÃ©m": 8092,
      "ĠzadÃŃ": 8093,
      "ĠchÅĻe": 8094,
      "ĠjÃ¡s": 8095,
      "ĠplÃ¡lo": 8096,
      "ĠkrutÃ©": 8097,
      "Ġumlk": 8098,
      "Ġhezky": 8099,
      "Ġanebo": 8100,
      "ĠVÃģC": 8101,
      "Ġkmo": 8102,
      "ĠzahÅĻ": 8103,
      "ĠchytÃ¡": 8104,
      "ĠÃºstech": 8105,
      "ĠubohÃ½": 8106,
      "Ġspokojen": 8107,
      "ĠzavÄĽ": 8108,
      "jÃŃti": 8109,
      "Ġjedem": 8110,
      "ĠpÅĻedtu": 8111,
      "ĠkleÄįÃŃ": 8112,
      "ĠmalÃ½ch": 8113,
      "PAD": 8114,
      "ĠjdÄĽte": 8115,
      "ĠuÄįen": 8116,
      "ĠbÃ¡l": 8117,
      "Ġsouci": 8118,
      "ĠtÃ³ny": 8119,
      "haly": 8120,
      "roti": 8121,
      "Ġneli": 8122,
      "Ġskok": 8123,
      "pÃ¡n": 8124,
      "askou": 8125,
      "Ġbil": 8126,
      "Ġvzejde": 8127,
      "ĠchvÄĽly": 8128,
      "ĠdÃŃm": 8129,
      "ĠspanÃŃ": 8130,
      "Ġnejen": 8131,
      "ĠonÄĽ": 8132,
      "Ġoprav": 8133,
      "dechu": 8134,
      "Ġpropad": 8135,
      "stÃŃrÃ¡": 8136,
      "ĠlÃŃtost": 8137,
      "ĠplaÅ¡ÃŃ": 8138,
      "Ġslabo": 8139,
      "Ġlilie": 8140,
      "lne": 8141,
      "ĠPos": 8142,
      "ĠvÃŃme": 8143,
      "ĠprÃ¡zdnÃ½": 8144,
      "Ġhospodi": 8145,
      "Ġfranc": 8146,
      "Ġbiskup": 8147,
      "ĠkopÃŃ": 8148,
      "ĠpaÅ¾ÃŃ": 8149,
      "ĠtÃŃsnÃŃ": 8150,
      "ĠtrÃ¡vu": 8151,
      "ĠstÅĻÃŃbrnÃ©": 8152,
      "ahem": 8153,
      "dÅĻÃŃ": 8154,
      "Ġarch": 8155,
      "skÃ½mi": 8156,
      "ĠdÃŃvce": 8157,
      "Ġostrov": 8158,
      "Ġvezme": 8159,
      "knu": 8160,
      "raÅ¾": 8161,
      "ĠvznÄĽ": 8162,
      "Ġpoklid": 8163,
      "ĠslepÃ½": 8164,
      "cÅ¯v": 8165,
      "ĠhleÄıte": 8166,
      "zÅ¯": 8167,
      "ĠzlÃ©ho": 8168,
      "anna": 8169,
      "ĠÅ¡epo": 8170,
      "ĠdÄĽtskÃ©": 8171,
      "ĠXAXABBA": 8172,
      "ĠhouÅ¡ti": 8173,
      "taly": 8174,
      "Ġshle": 8175,
      "ĠnevÃ¡": 8176,
      "vedu": 8177,
      "ĠnÃ¡ÅĻ": 8178,
      "ĠdÃ¡no": 8179,
      "ÅłI": 8180,
      "ĠÅ¡ÃŃÅĻ": 8181,
      "ĠXXXXXXXXXXXXXXXXXX": 8182,
      "ĠnevÄĽdÄĽl": 8183,
      "eska": 8184,
      "sam": 8185,
      "ĠTI": 8186,
      "poj": 8187,
      "Ġzjevil": 8188,
      "Ġchudo": 8189,
      "ĠbiÄį": 8190,
      "ĠbÅĻÃŃmÄĽ": 8191,
      "una": 8192,
      "nickÃ½": 8193,
      "vyk": 8194,
      "Å¡tÄĽm": 8195,
      "inne": 8196,
      "ĠstÅĻela": 8197,
      "ĠotevÅĻel": 8198,
      "ĠzÃ¡mek": 8199,
      "ĠpastÃ½ÅĻ": 8200,
      "pala": 8201,
      "veÅĪ": 8202,
      "ĠNOV": 8203,
      "ĠtisÃŃci": 8204,
      "PA": 8205,
      "astni": 8206,
      "ĠmÄĽkce": 8207,
      "ĠSMRT": 8208,
      "uÄįe": 8209,
      "upu": 8210,
      "ÄĽstu": 8211,
      "ĠÅ¡av": 8212,
      "ĠrozlÃŃ": 8213,
      "bych": 8214,
      "trp": 8215,
      "ĠhÅĻÃŃmÃ¡": 8216,
      "ĠumÅĻel": 8217,
      "ĠdvoÅĻe": 8218,
      "nÃ¡Å¡el": 8219,
      "Å¾eli": 8220,
      "ĠMaÅ¡ek": 8221,
      "ĠZÃ¼n": 8222,
      "ĠsladkÃ©m": 8223,
      "ĠkÅĻÃŃÅ¾i": 8224,
      "venÃ½": 8225,
      "Ġdivoce": 8226,
      "ĠZÃ¼ngel": 8227,
      "tnÃŃ": 8228,
      "Ġzval": 8229,
      "Ġpope": 8230,
      "ĠrudÃ¡": 8231,
      "ĠrubÃŃ": 8232,
      "ĠskvoucÃŃ": 8233,
      "ĠbÄĽla": 8234,
      "Ġmodro": 8235,
      "ĠdÄĽtin": 8236,
      "nickÃ©": 8237,
      "ĠmÄĽkkÃ½": 8238,
      "Å¯nÄĽ": 8239,
      "Ġrozhod": 8240,
      "echa": 8241,
      "ĠdruhÅ¯": 8242,
      "ĠmnoÅ¾stvÃŃ": 8243,
      "ĠchrÃ¡mÄĽ": 8244,
      "Ġpolibek": 8245,
      "ĠlehkÃ½": 8246,
      "ĠNOCI": 8247,
      "ĠoblÃ©": 8248,
      "ĠDEN": 8249,
      "ĠbÃ¡znÃŃ": 8250,
      "ĠvÄĽÅĻte": 8251,
      "broj": 8252,
      "Ġtka": 8253,
      "ĠobÄĽti": 8254,
      "Ġskokem": 8255,
      "ĠumÅĻÃŃt": 8256,
      "ĠpamÄĽt": 8257,
      "avo": 8258,
      "Ġolym": 8259,
      "nÄĽnou": 8260,
      "ĠTÅĺI": 8261,
      "ĠAABAB": 8262,
      "ĠÅ¾iÅ¾ka": 8263,
      "Ġzvuku": 8264,
      "Ġhospody": 8265,
      "ĠstkvÃŃ": 8266,
      "ĠSLO": 8267,
      "ĠplesÃ¡": 8268,
      "ÄĽzdy": 8269,
      "ĠtuhÃ©": 8270,
      "Ġnemlu": 8271,
      "ĠstÅĻÃŃbrem": 8272,
      "ĠpovÄĽst": 8273,
      "ocel": 8274,
      "Ġcvr": 8275,
      "ĠbÃŃdÄĽ": 8276,
      "ĠzdvÃŃ": 8277,
      "ĠvzÃ¡cnÃ©": 8278,
      "Ġbet": 8279,
      "ĠÅ¡eÅĻÃŃ": 8280,
      "ĠzÅĻeli": 8281,
      "ĠuvÃ¡": 8282,
      "Ġpovstal": 8283,
      "ĠpevnÃ©": 8284,
      "Ġstrast": 8285,
      "avim": 8286,
      "ĠsvÃ¡tek": 8287,
      "ĠmoudrÃ½": 8288,
      "Ġpolibky": 8289,
      "fri": 8290,
      "ĠudÄĽ": 8291,
      "Ġiro": 8292,
      "ovim": 8293,
      "ĠnÄĽkte": 8294,
      "ĠvodopÃ¡": 8295,
      "ĠhorÅ¡ÃŃ": 8296,
      "Ġhavran": 8297,
      "ĠVZPOMÃįN": 8298,
      "ĠdÅ¾": 8299,
      "cestÃŃ": 8300,
      "Ġtoli": 8301,
      "ĠvydÃ¡": 8302,
      "ĠdÄĽvu": 8303,
      "ĠsmÃ¡t": 8304,
      "ekl": 8305,
      "Å¾enÃ½ch": 8306,
      "Ġuh": 8307,
      "ĠDÃ¶": 8308,
      "ojen": 8309,
      "EEFFGGHH": 8310,
      "Ġlampa": 8311,
      "ĠpenÄĽz": 8312,
      "ĠDÃ¶rf": 8313,
      "rkve": 8314,
      "Ġpavou": 8315,
      "ĠjmÄĽnÃŃ": 8316,
      "Å¡kem": 8317,
      "Ġdop": 8318,
      "lÃŃcÃŃ": 8319,
      "ovÃ½m": 8320,
      "usil": 8321,
      "ĠtemnÃ¡": 8322,
      "ĠvzÃ¡cnÃ½": 8323,
      "ĠDÃ¶rfl": 8324,
      "ÅĻÃŃvÃ¡": 8325,
      "dova": 8326,
      "ĠrtÅ¯m": 8327,
      "lout": 8328,
      "ĠrozvÃ¡": 8329,
      "Ġhrot": 8330,
      "Ġmrazem": 8331,
      "Ġkroku": 8332,
      "ĠÅ¡ÃŃj": 8333,
      "onet": 8334,
      "ovÄĽk": 8335,
      "ĠideÃ¡": 8336,
      "nÄĽna": 8337,
      "ĠMA": 8338,
      "ĠdivokÃ½": 8339,
      "Ġmukou": 8340,
      "ĠdravÃ½": 8341,
      "Ġstrun": 8342,
      "ĠkvÄĽtiny": 8343,
      "zdÃŃ": 8344,
      "stran": 8345,
      "Ġbere": 8346,
      "Ġsocha": 8347,
      "ĠlhÃ¡": 8348,
      "ĠRA": 8349,
      "Ġtrav": 8350,
      "CXDXD": 8351,
      "Ġdovo": 8352,
      "Ġjist": 8353,
      "Ġnebla": 8354,
      "ĠXAAB": 8355,
      "ĠzÃ¡Å¡Å¥": 8356,
      "Ġpruh": 8357,
      "Ġtrap": 8358,
      "ĠtmavÃ¡": 8359,
      "Ġzbyla": 8360,
      "ĠjizbÄĽ": 8361,
      "ĠandÄĽlÃ©": 8362,
      "ditel": 8363,
      "povÃŃ": 8364,
      "dalo": 8365,
      "vujÃŃ": 8366,
      "ĠvÃ¡Å¾nÃ½": 8367,
      "ĠÄįeskou": 8368,
      "ĠZa": 8369,
      "Ġokra": 8370,
      "MO": 8371,
      "TNÃį": 8372,
      "ĠnaÅ¡ÃŃm": 8373,
      "alne": 8374,
      "Ġhody": 8375,
      "enÃ©ho": 8376,
      "ĠmuÅ¾em": 8377,
      "Ġtrosky": 8378,
      "Ġtmavou": 8379,
      "Ġvstane": 8380,
      "ĠseÅ¡": 8381,
      "ĠprochÃ¡": 8382,
      "ĠdÃŃvÃ¡m": 8383,
      "Ġstrasti": 8384,
      "ĠkouÅĻ": 8385,
      "inul": 8386,
      "CCCB": 8387,
      "estou": 8388,
      "tÃŃme": 8389,
      "ĠsedlÃ¡": 8390,
      "ĠodeÅ¡el": 8391,
      "ĠDostal": 8392,
      "Ġkletba": 8393,
      "lÄįi": 8394,
      "Ġspor": 8395,
      "ĠnÄĽjÅ¾": 8396,
      "ĠsnivÃ½": 8397,
      "ĠssÃ¡": 8398,
      "ĠzalÃŃ": 8399,
      "ĠpravÃ¡": 8400,
      "osty": 8401,
      "ĠblahÃ½": 8402,
      "Ġzakry": 8403,
      "ĠhoupÃ¡": 8404,
      "ĠÅ¡koly": 8405,
      "ĠvysÃŃ": 8406,
      "Ġrus": 8407,
      "dÄĽlenÃŃ": 8408,
      "ĠlaÅĪ": 8409,
      "ĠvÄĽÄįnÃ½m": 8410,
      "ĠÄĮervenka": 8411,
      "rovi": 8412,
      "ĠnaÅ¡li": 8413,
      "ÃŃmÄĽ": 8414,
      "Ġpamat": 8415,
      "ĠdÃ½mu": 8416,
      "ĠÅĪÃ¡dra": 8417,
      "ĠvzÃŃti": 8418,
      "Ġvaz": 8419,
      "Ġnachem": 8420,
      "Ġrozez": 8421,
      "ĠlkÃ¡nÃŃ": 8422,
      "Ġkoruny": 8423,
      "ĠzulÃŃ": 8424,
      "jila": 8425,
      "ĠlÃŃnÄĽ": 8426,
      "ĠjasnÃ½m": 8427,
      "Ġodpor": 8428,
      "ĠznÃ¡ti": 8429,
      "ĠzachrÃ¡": 8430,
      "hnouti": 8431,
      "ĠÄįte": 8432,
      "Ġkober": 8433,
      "idim": 8434,
      "ĠnÄĽmec": 8435,
      "rÅ¾i": 8436,
      "Ġnouze": 8437,
      "nÄĽli": 8438,
      "Ġrozka": 8439,
      "eskne": 8440,
      "ĠpamÄĽÅ¥": 8441,
      "ĠvÄĽrnÃ¡": 8442,
      "uma": 8443,
      "Ġsc": 8444,
      "Ġvdech": 8445,
      "Ġstala": 8446,
      "ĠhorkÃ©": 8447,
      "Ġchladnou": 8448,
      "ĠveselÃ½": 8449,
      "irem": 8450,
      "ĠHvÄĽ": 8451,
      "Å¡enÃ¡": 8452,
      "ĠÅĻekli": 8453,
      "rne": 8454,
      "Ġvzpou": 8455,
      "Ġsig": 8456,
      "rÅ¯v": 8457,
      "INY": 8458,
      "ĠdeÅ¡ti": 8459,
      "ĠmÄĽkkÃ©": 8460,
      "Ġkletby": 8461,
      "ĠvzÃŃt": 8462,
      "Ġdoli": 8463,
      "ĠvzlÃ©t": 8464,
      "ĠviÄı": 8465,
      "Ġvlaje": 8466,
      "ujte": 8467,
      "Ġgro": 8468,
      "ĠÅ¡Å¥astnÃ©": 8469,
      "uhem": 8470,
      "ĠnÅ¯Å¾": 8471,
      "ĠtuÅ¾eb": 8472,
      "Ġresi": 8473,
      "Ġoblohou": 8474,
      "Ġbudeme": 8475,
      "ĠpohleÄı": 8476,
      "ĠÅ¾eÅĪ": 8477,
      "ĠzdÃ¡la": 8478,
      "ĠzelenÃ¡": 8479,
      "ĠdÄĽsnÃ©": 8480,
      "ĠkvÄĽtech": 8481,
      "Ġobloha": 8482,
      "ĠmÄĽsÃŃci": 8483,
      "uvi": 8484,
      "ĠsedÃŃm": 8485,
      "nus": 8486,
      "Ġroje": 8487,
      "tÃŃn": 8488,
      "ĠmarnÃ¡": 8489,
      "ĠsnÄĽho": 8490,
      "Ġkapky": 8491,
      "ĠsvatebnÃŃ": 8492,
      "yte": 8493,
      "ĠvyklÃ¡": 8494,
      "ĠpodlÃ©": 8495,
      "Ġjasem": 8496,
      "Ġmlhou": 8497,
      "Ġobec": 8498,
      "adku": 8499,
      "Ġleta": 8500,
      "Ġmojich": 8501,
      "ĠdusÃŃ": 8502,
      "ĠtÄĽkÃ¡": 8503,
      "Ġodpla": 8504,
      "esny": 8505,
      "ĠplachÃ½": 8506,
      "ĠhledÄĽ": 8507,
      "ĠmnozÃŃ": 8508,
      "ahe": 8509,
      "Ġzoufalo": 8510,
      "CKÃĿ": 8511,
      "Å¡til": 8512,
      "ĠsmÃŃm": 8513,
      "ĠvstaÅĪ": 8514,
      "Ġsje": 8515,
      "Ġzne": 8516,
      "Ġhe": 8517,
      "Ġheslo": 8518,
      "ÄįÃŃÅ¡": 8519,
      "Ġkapi": 8520,
      "ĠstarÃ½m": 8521,
      "ĠbÄĽl": 8522,
      "ĠstÅĻechy": 8523,
      "ĠnevÄĽÅĻÃŃ": 8524,
      "ĠsvobodÄĽ": 8525,
      "Ġzpola": 8526,
      "ĠmatiÄįko": 8527,
      "oupi": 8528,
      "ĠnahÃ¡": 8529,
      "alku": 8530,
      "Ġpranic": 8531,
      "ĠmÃ©nÄĽ": 8532,
      "osu": 8533,
      "ĠABABCCX": 8534,
      "ĠpÅĻijÄı": 8535,
      "Ġvstala": 8536,
      "ĠcÃŃrkev": 8537,
      "olo": 8538,
      "ÄĽlou": 8539,
      "Ġmrazi": 8540,
      "Ġnepokoj": 8541,
      "ĠsedlÃ¡k": 8542,
      "ĠtvrdÃ½": 8543,
      "coval": 8544,
      "olal": 8545,
      "ÄĽma": 8546,
      "Ġsluha": 8547,
      "ĠslÃ¡b": 8548,
      "cenou": 8549,
      "hlÃ½m": 8550,
      "yÄįi": 8551,
      "ÄĽÅ¡i": 8552,
      "Ġmuce": 8553,
      "ĠPÅĺI": 8554,
      "ĠHRO": 8555,
      "sajÃŃ": 8556,
      "ĠtrnÃŃ": 8557,
      "ĠkouÅĻÃŃ": 8558,
      "ĠveselÃŃ": 8559,
      "Ġpevnou": 8560,
      "ĠsÃŃmÄĽ": 8561,
      "novu": 8562,
      "ĠzemÅĻel": 8563,
      "ĠcÃŃrkve": 8564,
      "Ġtemna": 8565,
      "ĠÅ¡irÃ©m": 8566,
      "ĠpamÃ¡tku": 8567,
      "clo": 8568,
      "rny": 8569,
      "ĠniÅ¾": 8570,
      "Ġobry": 8571,
      "Ġdrav": 8572,
      "ĠusmÃ¡l": 8573,
      "ĠbohÅ¯m": 8574,
      "Ġhal": 8575,
      "Ġhaj": 8576,
      "Ġrtem": 8577,
      "ĠzÃ¡slu": 8578,
      "Ġpacho": 8579,
      "ĠmilovÃ¡nÃŃ": 8580,
      "ĠbolesÅ¥": 8581,
      "Ġzaml": 8582,
      "ĠvÃŃnek": 8583,
      "ĠvlastnÃŃch": 8584,
      "ĠpsanÃŃ": 8585,
      "Ã½val": 8586,
      "lÃŃÅ¡ek": 8587,
      "ÅĪu": 8588,
      "ĠrumÄĽ": 8589,
      "ĠÄįernÃ©m": 8590,
      "ĠnÃ¡rody": 8591,
      "ĠsuchÃ©": 8592,
      "Ġvolnosti": 8593,
      "ÄĽkem": 8594,
      "Å¡eni": 8595,
      "Ġzik": 8596,
      "lekÃ¡": 8597,
      "Ġnau": 8598,
      "ĠpÅĻÃŃzrak": 8599,
      "Ġtvojich": 8600,
      "ĠpÅ¯dÄĽ": 8601,
      "ĠklÃ¡Å¡ter": 8602,
      "!!": 8603,
      "IST": 8604,
      "zala": 8605,
      "ĠneÅĻe": 8606,
      "ĠzanÃŃ": 8607,
      "ĠpÅĻemÃŃ": 8608,
      "ĠtmavÃ½ch": 8609,
      "ĠmaÄıar": 8610,
      "aÄįek": 8611,
      "rami": 8612,
      "ĠmÄĽÅĻÃŃ": 8613,
      "ĠpÅĻÃ¡telstvÃŃ": 8614,
      "Ġab": 8615,
      "ĠovÄĽ": 8616,
      "skat": 8617,
      "ĠÅ¾aly": 8618,
      "Ġdoved": 8619,
      "hÃ¡Äį": 8620,
      "pÃŃÅ¡": 8621,
      "Ġtajemnou": 8622,
      "ĠuÅ¡lech": 8623,
      "rh": 8624,
      "wald": 8625,
      "ĠzaÅ¡el": 8626,
      "Ġuhas": 8627,
      "ĠlekÃ¡": 8628,
      "ĠmÃ¡li": 8629,
      "ĠpÅĻedce": 8630,
      "Ġsos": 8631,
      "ĠzrÃ¡d": 8632,
      "ĠpeÅĻÃŃ": 8633,
      "ĠVÃģCLAV": 8634,
      "evu": 8635,
      "ĠhodÃŃ": 8636,
      "ĠvzneÅ¡": 8637,
      "ĠdÃ¡Å¡": 8638,
      "ĠzdÃ¡nÃŃ": 8639,
      "ĠzapomnÄĽnÃŃ": 8640,
      "svit": 8641,
      "Ġvyjde": 8642,
      "Ġvzhled": 8643,
      "ĠvÄĽno": 8644,
      "Ġsrdcy": 8645,
      "esli": 8646,
      "anych": 8647,
      "ĠvolÃ¡m": 8648,
      "Ġprokop": 8649,
      "ĠtakovÃ½": 8650,
      "Ġbur": 8651,
      "Ġpuk": 8652,
      "ĠGr": 8653,
      "ĠmetÃ¡": 8654,
      "ĠradostnÄĽ": 8655,
      "ĠdÃ©man": 8656,
      "ĠSLOKY": 8657,
      "istu": 8658,
      "Ġstarci": 8659,
      "Ġklidem": 8660,
      "ĠnÃ¡rodÅ¯": 8661,
      "Ġroucha": 8662,
      "ĠvleÄįe": 8663,
      "ĠXIX": 8664,
      "ĠmroucÃŃ": 8665,
      "Ġer": 8666,
      "Ġsky": 8667,
      "ouÅĻe": 8668,
      "teÄįnÄĽ": 8669,
      "ĠÅ¡al": 8670,
      "ĠÃºko": 8671,
      "Ġzaslech": 8672,
      "ĠstarÅ¡ÃŃ": 8673,
      "Ġbaj": 8674,
      "ĠdlaÅ¾": 8675,
      "Ġchrab": 8676,
      "ize": 8677,
      "iÅ¡el": 8678,
      "yto": 8679,
      "Äįnost": 8680,
      "tati": 8681,
      "ĠroznÃŃ": 8682,
      "dÃ¡v": 8683,
      "eÄįne": 8684,
      "Ġpustil": 8685,
      "ĠtÅĻti": 8686,
      "ĠpÄĽknÃ½": 8687,
      "ĠpropastÃŃ": 8688,
      "gor": 8689,
      "ĠÅ¾ijÃŃ": 8690,
      "ĠdÃ¡val": 8691,
      "Ġtane": 8692,
      "esly": 8693,
      "ÃģK": 8694,
      "ĠstÅĻÃŃbrnÃ½": 8695,
      "ĠdrobnÃ½ch": 8696,
      "ĠlÅ¯Å¾ko": 8697,
      "fons": 8698,
      "Ġchalu": 8699,
      "vÃ¡na": 8700,
      "bala": 8701,
      "ĠsnÄĽtÃŃ": 8702,
      "Ġjizby": 8703,
      "ĠvÃ½smÄĽ": 8704,
      "rci": 8705,
      "uÅ¡": 8706,
      "Ġpodu": 8707,
      "ĠnahÃ©": 8708,
      "Ġukaz": 8709,
      "Ġcenu": 8710,
      "Ġhodil": 8711,
      "ĠruÄįe": 8712,
      "ĠspÃ¡su": 8713,
      "ĠnenadÃ¡nÃŃ": 8714,
      "Ġpud": 8715,
      "vÄĽla": 8716,
      "ĠmÃŃÅĻÃŃ": 8717,
      "ĠbÄĽlÃ¡": 8718,
      "ĠbÃ¡znÄĽ": 8719,
      "Ġbah": 8720,
      "Ġ7": 8721,
      "Ġpoled": 8722,
      "Ġkovo": 8723,
      "Ġhonem": 8724,
      "Ġdruhy": 8725,
      "Ġkrov": 8726,
      "ĠnevrÃ¡tÃŃ": 8727,
      "ĠzboÅ¾ÃŃ": 8728,
      "ĠnÃ©sti": 8729,
      "hrobskÃ½": 8730,
      "ĠBÄĽlohrobskÃ½": 8731,
      "Ġlehou": 8732,
      "etly": 8733,
      "jemi": 8734,
      "Ġprosil": 8735,
      "ysl": 8736,
      "ĠsluneÄįnÃŃ": 8737,
      "Ġmen": 8738,
      "ĠdlouhÃ½m": 8739,
      "Ġklene": 8740,
      "ĠstÄĽÅ¾ÃŃ": 8741,
      "ĠstraÅ¡nÃ½": 8742,
      "ĠbohynÄĽ": 8743,
      "ĠokamÅ¾iku": 8744,
      "ĠTÅĺE": 8745,
      "ĠmÃ¡je": 8746,
      "azku": 8747,
      "Ġpohledu": 8748,
      "idy": 8749,
      "ĠsvÄĽÅ¾e": 8750,
      "ĠmraÄįno": 8751,
      "nav": 8752,
      "Ġpronik": 8753,
      "Ġpravi": 8754,
      "ĠÃºkry": 8755,
      "ÄĮKA": 8756,
      "ĠosvÄĽt": 8757,
      "ĠsnÄĽti": 8758,
      "vlÃ¡": 8759,
      "Ġjedovat": 8760,
      "ĠjakÃ½m": 8761,
      "ĠSt": 8762,
      "ĠÅ¡erÃ½": 8763,
      "ĠnejdÅĻÃŃ": 8764,
      "ĠtrÄįÃŃ": 8765,
      "ĠchorÃ©": 8766,
      "Ġdrahoka": 8767,
      "epi": 8768,
      "Ġana": 8769,
      "Ġpoha": 8770,
      "ĠuhlÃŃ": 8771,
      "ĠmÃ¡ji": 8772,
      "ĠÄįÃŃst": 8773,
      "ĠbrÃ¡nu": 8774,
      "Ã¼nwald": 8775,
      "SY": 8776,
      "Ġlec": 8777,
      "Ġlest": 8778,
      "daje": 8779,
      "ÄįeÅ¾": 8780,
      "ĠmodrÃ¡": 8781,
      "ĠbujnÃ½": 8782,
      "ĠGrÃ¼nwald": 8783,
      "IA": 8784,
      "Ġter": 8785,
      "ĠÅ¡k": 8786,
      "ĠvÃŃla": 8787,
      "Ġcitem": 8788,
      "ĠbojÅ¯": 8789,
      "ĠÅ¡Å¥astni": 8790,
      "ĠtÃ½Å¾": 8791,
      "ÄĽcko": 8792,
      "ĠmÅ¡i": 8793,
      "nÃ¡vÃ¡": 8794,
      "anni": 8795,
      "ĠÃĵ": 8796,
      "ĠmlÃ¡den": 8797,
      "ĠzaÅ¡lÃ½ch": 8798,
      "ĠzvlÃ¡Å¡tÄĽ": 8799,
      "ĠslÃ©t": 8800,
      "Ġvno": 8801,
      "ĠzapÃ¡": 8802,
      "Ġvyrost": 8803,
      "Ġvzcho": 8804,
      "Äįeho": 8805,
      "idny": 8806,
      "ĠozÃ½vÃ¡": 8807,
      "Ġskryt": 8808,
      "ĠjemnÃ©": 8809,
      "LIK": 8810,
      "ĠpestrÃ½": 8811,
      "Ġsve": 8812,
      "ĠÅ¡kol": 8813,
      "ĠmuÄįÃŃ": 8814,
      "echce": 8815,
      "ĠobÄĽtÃŃ": 8816,
      "ĠhlubinÃ¡ch": 8817,
      "Ġzdroje": 8818,
      "tvi": 8819,
      "Ġceny": 8820,
      "Ġniv": 8821,
      "CXCXDXD": 8822,
      "ĠjakÃ©s": 8823,
      "ĠAABCBCD": 8824,
      "ĠvÄĽÄįna": 8825,
      "ĠkÅĻÃŃdlech": 8826,
      "ÅĻka": 8827,
      "lak": 8828,
      "rag": 8829,
      "vanou": 8830,
      "Ġrozep": 8831,
      "Ġtichem": 8832,
      "Å¾ilo": 8833,
      "Ġtyran": 8834,
      "ĠmnoÅ¾ÃŃ": 8835,
      "ĠobrÃ¡til": 8836,
      "KOVI": 8837,
      "ĠnebezpeÄįÃŃ": 8838,
      "ĠnÃ©st": 8839,
      "Å¾ily": 8840,
      "emstvi": 8841,
      "ĠzÃ¡vod": 8842,
      "ĠDON": 8843,
      "Ġprin": 8844,
      "ĠXIV": 8845,
      "ĠvÃ½h": 8846,
      "Ġvlno": 8847,
      "CHA": 8848,
      "ĠvlÃ¡dce": 8849,
      "âĢĻ": 8850,
      "Ġmine": 8851,
      "ĠHynek": 8852,
      "ĠbÃ¡jÃŃ": 8853,
      "ÅĻenÃ½m": 8854,
      "reska": 8855,
      "ĠdrÃ¡hu": 8856,
      "ĠzrÃ¡dce": 8857,
      "ĠmdlÃ¡": 8858,
      "ĠpÅĻÃŃsnÃ½": 8859,
      "Ġvadne": 8860,
      "ĠÅ¾as": 8861,
      "Ġzadr": 8862,
      "Ġprokla": 8863,
      "Ġhocha": 8864,
      "ĠzÃ¡ro": 8865,
      "odem": 8866,
      "Ġvraha": 8867,
      "ĠdÃŃvko": 8868,
      "Ġplamenem": 8869,
      "ĠmlÃ¡deÅ¾": 8870,
      "talo": 8871,
      "Ġodsou": 8872,
      "ĠpÃŃsek": 8873,
      "Ġzraje": 8874,
      "ĠpustÃ¡": 8875,
      "Ġhladu": 8876,
      "ĠÅ¾ehnÃ¡": 8877,
      "Ġnejslad": 8878,
      "itek": 8879,
      "Ġoli": 8880,
      "ĠKra": 8881,
      "Ġnovo": 8882,
      "Ġkara": 8883,
      "Ġhromy": 8884,
      "ĠsvÄĽto": 8885,
      "epta": 8886,
      "ĠblÃ¡ho": 8887,
      "Ġsnahy": 8888,
      "ĠokolÃŃ": 8889,
      "Ġvyslo": 8890,
      "ĠdrÃ¡Å¾": 8891,
      "hradu": 8892,
      "ĠÅ¾havÃ¡": 8893,
      "onÅ¯": 8894,
      "ÅĻmi": 8895,
      "ĠvÄĽÅĻil": 8896,
      "Ġrudou": 8897,
      "ĠhvÄĽzdnÃ©": 8898,
      "ĠcÃŃtÃŃÅ¡": 8899,
      "Ġkvap": 8900,
      "bliÅ¾": 8901,
      "Ġrozmil": 8902,
      "Äıas": 8903,
      "ĠnÄĽhu": 8904,
      "ĠÃºtra": 8905,
      "ĠzÃŃral": 8906,
      "ĠhÅĻbitovÄĽ": 8907,
      "Ġzatra": 8908,
      "Ġrez": 8909,
      "ĠpukÃ¡": 8910,
      "Ġzlomen": 8911,
      "ĠpokolenÃŃ": 8912,
      "Ġrakvi": 8913,
      "Ġmiliony": 8914,
      "ĠnejlepÅ¡ÃŃ": 8915,
      "ĠkoÅĻeny": 8916,
      "Ġhostem": 8917,
      "ĠbÃŃdnÃ©": 8918,
      "inal": 8919,
      "ĠvyrÅ¯": 8920,
      "ĠMRT": 8921,
      "ĠruÅ¡ÃŃ": 8922,
      "ĠcÃŃtit": 8923,
      "ĠrybnÃŃ": 8924,
      "cenÃ½ch": 8925,
      "eha": 8926,
      "ĠnedÅ¯": 8927,
      "valu": 8928,
      "ĠKOR": 8929,
      "Å¾eno": 8930,
      "ĠÅĻasy": 8931,
      "ĠkvÃŃtÃŃm": 8932,
      "Ġleskne": 8933,
      "ĠjiskÅĻÃŃ": 8934,
      "ĠbystÅĻi": 8935,
      "ĠnejdraÅ¾Å¡ÃŃ": 8936,
      "oupil": 8937,
      "kosti": 8938,
      "Ġlide": 8939,
      "ĠdrahÃ½ch": 8940,
      "ĠzÅĻÃŃdka": 8941,
      "lÅ¯v": 8942,
      "Ġvesny": 8943,
      "Ġblouzni": 8944,
      "ysta": 8945,
      "Ġmha": 8946,
      "Ġobdi": 8947,
      "ezna": 8948,
      "ĠzpÃŃvajÃŃ": 8949,
      "ĠpotkÃ¡": 8950,
      "oÅ¡i": 8951,
      "yz": 8952,
      "Ġprod": 8953,
      "ĠÅ¡ve": 8954,
      "ĠholÃ¡": 8955,
      "ĠvybÃŃ": 8956,
      "Ġrozli": 8957,
      "ĠrozvÃŃ": 8958,
      "ĠlÅ¯no": 8959,
      "ĠstatnÃ½": 8960,
      "ĠpalÃ¡ce": 8961,
      "ubu": 8962,
      "uzy": 8963,
      "Ġzastavil": 8964,
      "ĠdotÃ½": 8965,
      "ĠuchvÃ¡": 8966,
      "Ġvym": 8967,
      "ĠvyÄįÃŃ": 8968,
      "Ġdivem": 8969,
      "ĠsloÅ¾il": 8970,
      "ĠteplÃ©": 8971,
      "Ġmodlitby": 8972,
      "ĠspoleÄįnosti": 8973,
      "Ġsadu": 8974,
      "ÄĽhy": 8975,
      "tiÅ¾": 8976,
      "ĠAle": 8977,
      "kuje": 8978,
      "Ġskles": 8979,
      "itne": 8980,
      "ĠdÃ¡lnÃ½ch": 8981,
      "Ġbledne": 8982,
      "Ġdvoj": 8983,
      "Ġneskonal": 8984,
      "liÄįky": 8985,
      "ĠAAAA": 8986,
      "zdra": 8987,
      "Ġpoklo": 8988,
      "ĠbrÃ¡na": 8989,
      "ĠvzplÃ¡l": 8990,
      "Ġjesky": 8991,
      "rÃ¡n": 8992,
      "ĠpraÅ¾": 8993,
      "ĠvidÄĽnÃŃ": 8994,
      "Ġdivou": 8995,
      "ĠprÃ¡vem": 8996,
      "ĠostÅĻÃŃ": 8997,
      "Ġopustil": 8998,
      "leÅ¥": 8999,
      "Ġdoh": 9000,
      "XAA": 9001,
      "ĠkoÅĻÃŃ": 9002,
      "esve": 9003,
      "itou": 9004,
      "ĠÃºsvi": 9005,
      "Ġhloubky": 9006,
      "Ġholubice": 9007,
      "ĠnahoÅĻe": 9008,
      "ĠstÅ¯nÄĽ": 9009,
      "luj": 9010,
      "ĠÅĻetÄĽ": 9011,
      "Ġkladi": 9012,
      "Ġvrh": 9013,
      "ĠnemÃ¡Å¡": 9014,
      "Ġkvas": 9015,
      "ĠkrÅ¯pÄĽje": 9016,
      "ĠbdÄĽ": 9017,
      "adnÄĽ": 9018,
      "skÃ¡ch": 9019,
      "ĠzloÄįin": 9020,
      "atech": 9021,
      "ĠtÃŃseÅĪ": 9022,
      "Ġvichrem": 9023,
      "ĠkvÄĽte": 9024,
      "ĠzÃ¡stupy": 9025,
      "Ã©l": 9026,
      "Ġhl": 9027,
      "Å¡tÄĽn": 9028,
      "ĠkrutÄĽ": 9029,
      "ĠoblakÅ¯": 9030,
      "EDEFGF": 9031,
      "dly": 9032,
      "rvÃ¡": 9033,
      "ron": 9034,
      "tesk": 9035,
      "Ġmozek": 9036,
      "ĠvÄĽdÄĽt": 9037,
      "ĠvodÃŃ": 9038,
      "ĠÃºÄį": 9039,
      "ĠAAABB": 9040,
      "ejme": 9041,
      "ĠtouÅ¾ÃŃm": 9042,
      "Ġluhu": 9043,
      "Ġmilosrd": 9044,
      "ĠslouÅ¾ÃŃ": 9045,
      "ĠopÃŃ": 9046,
      "Ġopil": 9047,
      "volnÄĽ": 9048,
      "kÃ¡zal": 9049,
      "Ġsamy": 9050,
      "Ġang": 9051,
      "Ġzvedne": 9052,
      "ckÃ©ho": 9053,
      "ĠnenÃ¡vist": 9054,
      "Ġhousle": 9055,
      "Ġpomi": 9056,
      "Ġpropu": 9057,
      "ĠSRD": 9058,
      "Ġmih": 9059,
      "Ġlup": 9060,
      "ĠdÅĻÃŃme": 9061,
      "ĠhospodÃ¡ÅĻ": 9062,
      "svou": 9063,
      "ĠnachÃ½": 9064,
      "ĠtiÅ¡i": 9065,
      "mÄĽla": 9066,
      "ĠpaÅ¾e": 9067,
      "ĠkrÃ¡snÄĽjÅ¡ÃŃ": 9068,
      "ĠXXXXXXXXXXXXXXXXXXX": 9069,
      "ĠpamÃ¡t": 9070,
      "ĠpÅĻÃŃÅ¡tÃŃch": 9071,
      "Ġtrysk": 9072,
      "ĠchtÃŃt": 9073,
      "ĠverÅ¡Å¯": 9074,
      "Ġnebudu": 9075,
      "snÃ½ch": 9076,
      "ĠseÄį": 9077,
      "Ġdopo": 9078,
      "ĠKRAJ": 9079,
      "Ġlije": 9080,
      "ÃģCH": 9081,
      "Ġmrakem": 9082,
      "Ġdobrodru": 9083,
      "IL": 9084,
      "ag": 9085,
      "Ġzavr": 9086,
      "dovi": 9087,
      "Ġmuse": 9088,
      "Äįeno": 9089,
      "avit": 9090,
      "ĠmÃŃjÃŃ": 9091,
      "ĠpÄĽvec": 9092,
      "Ġgene": 9093,
      "ĠzvÃŃtÄĽ": 9094,
      "ĠnedbÃ¡": 9095,
      "ĠkolÃ©bky": 9096,
      "Ġklobouk": 9097,
      "adam": 9098,
      "Ġprose": 9099,
      "ĠvyÅ¡li": 9100,
      "muÅ¾": 9101,
      "ilan": 9102,
      "ĠdobrÃ½ch": 9103,
      "ĠtÃ¡hla": 9104,
      "ĠtichÃ½ch": 9105,
      "Ġdarem": 9106,
      "ĠmatiÄįka": 9107,
      "ĠtkvÃŃ": 9108,
      "Ġkad": 9109,
      "land": 9110,
      "Ġzabo": 9111,
      "ĠzÃ¡po": 9112,
      "isve": 9113,
      "Ġsloupy": 9114,
      "BU": 9115,
      "rvy": 9116,
      "Ġokouz": 9117,
      "Ġvozy": 9118,
      "Ġpase": 9119,
      "ĠplÃ¡nÄĽ": 9120,
      "ĠÅĻekni": 9121,
      "nÃ¡ctÃ½": 9122,
      "bami": 9123,
      "Ġjala": 9124,
      "beÅ¡": 9125,
      "ĠfrÃ¡": 9126,
      "ĠhvÄĽzdo": 9127,
      "Ġnepohnu": 9128,
      "ĠvdÄĽÄįnÄĽ": 9129,
      "Ġshr": 9130,
      "Ġresigna": 9131,
      "bÅ¡ÃŃ": 9132,
      "Ġchab": 9133,
      "ĠoddÄĽlenÃŃ": 9134,
      "ĠnÄĽhou": 9135,
      "Ġneznal": 9136,
      "ĠrybÃ¡": 9137,
      "Ġpadlo": 9138,
      "ĠrÅ¯Å¾emi": 9139,
      "ĠmyslÃŃÅ¡": 9140,
      "ĠhlÃŃdÃ¡": 9141,
      "yji": 9142,
      "Ġsmilo": 9143,
      "Ġkvil": 9144,
      "XAXA": 9145,
      "ĠvztÃ½": 9146,
      "ĠXV": 9147,
      "Ġzvonky": 9148,
      "Ġpluh": 9149,
      "nÄĽnÃ¡": 9150,
      "ĠÅ¾ivou": 9151,
      "ĠdÃŃlu": 9152,
      "ĠÅ¾ÃŃznÃŃ": 9153,
      "ĠtÃŃsni": 9154,
      "Ġskryl": 9155,
      "ĠABABCCDEDE": 9156,
      "ĠsterÃ©": 9157,
      "ÄĽstÄĽ": 9158,
      "Ġzko": 9159,
      "LEG": 9160,
      "Ġdoho": 9161,
      "Ġrada": 9162,
      "Ġsluchu": 9163,
      "eÄįnÄĽ": 9164,
      "bÃ¡n": 9165,
      "ĠslavnÃ½ch": 9166,
      "ĠloupeÅ¾": 9167,
      "ĠspÄĽchu": 9168,
      "ĠsbÃŃrÃ¡": 9169,
      "jÃ¡k": 9170,
      "loval": 9171,
      "lumen": 9172,
      "ĠtulÃŃ": 9173,
      "ĠvÃ¡b": 9174,
      "ĠdÃŃtek": 9175,
      "ĠslunÃ©": 9176,
      "Ġbranou": 9177,
      "ĠhlasnÄĽ": 9178,
      "Ġsuk": 9179,
      "Ġdoubra": 9180,
      "Ġsmo": 9181,
      "ĠzabÃŃ": 9182,
      "ĠVa": 9183,
      "ĠjasnÃ½ch": 9184,
      "ĠdÅĻÃŃma": 9185,
      "osen": 9186,
      "ĠzpÃŃvÃ¡m": 9187,
      "ĠnevÄĽstu": 9188,
      "yzi": 9189,
      "ÄĽho": 9190,
      "ster": 9191,
      "Ġudat": 9192,
      "ĠcÃ¡": 9193,
      "Ġzasy": 9194,
      "pajÃŃ": 9195,
      "Å¡enÄĽ": 9196,
      "ĠveselÃ©": 9197,
      "ĠveÄįeru": 9198,
      "rmu": 9199,
      "Ġsval": 9200,
      "Å¾uje": 9201,
      "ĠJÃ¡": 9202,
      "ÅĻeÅ¾ÃŃ": 9203,
      "ĠzaÅ¡la": 9204,
      "nalo": 9205,
      "ĠXVIII": 9206,
      "pÃ¡ch": 9207,
      "Ġdlouze": 9208,
      "ĠvÅĻelÃ©": 9209,
      "Ġsrp": 9210,
      "ĠABABACCDDEE": 9211,
      "ĠskvÄĽlÃ½": 9212,
      "ĠNÃģV": 9213,
      "ĠABBAB": 9214,
      "Ġnehle": 9215,
      "duje": 9216,
      "anti": 9217,
      "anic": 9218,
      "ĠtÅĻesk": 9219,
      "Ġvysch": 9220,
      "izy": 9221,
      "Ġdoly": 9222,
      "Ġrodnou": 9223,
      "ĠskÅĻe": 9224,
      "ĠdÃŃtko": 9225,
      "ĠBo": 9226,
      "ĠÅ¡epot": 9227,
      "itro": 9228,
      "ĠzuÅĻi": 9229,
      "Ġmodlitba": 9230,
      "ĠdÄĽlat": 9231,
      "Ġrozumu": 9232,
      "Ġsboru": 9233,
      "ĠsnoubÃŃ": 9234,
      "sÅ¡ÃŃ": 9235,
      "ĠmÅ¯": 9236,
      "stvem": 9237,
      "Ġust": 9238,
      "Ġobo": 9239,
      "Ġhrady": 9240,
      "ĠspoÄįi": 9241,
      "ĠmocnÃ¡": 9242,
      "ĠmocnÃ½m": 9243,
      "Ġsul": 9244,
      "LIT": 9245,
      "ÄĽnu": 9246,
      "Ġjedu": 9247,
      "Ġcen": 9248,
      "vuj": 9249,
      "ĠptÃ¡ky": 9250,
      "imou": 9251,
      "ĠklidnÃ©": 9252,
      "ĠhrÃ¡la": 9253,
      "Ġet": 9254,
      "ĠJI": 9255,
      "Ġuho": 9256,
      "Ġchasa": 9257,
      "ĠmodrÃ½m": 9258,
      "ĠptÃ¡Äįek": 9259,
      "Ġdivnou": 9260,
      "ÄįenÃ¡": 9261,
      "Ġzvukem": 9262,
      "ĠskalnÃŃ": 9263,
      "Ġpivo": 9264,
      "ĠpÃ©ro": 9265,
      "ĠjitÅĻnÃŃ": 9266,
      "fÃ¡": 9267,
      "pÃŃm": 9268,
      "rÅ¯m": 9269,
      "ĠzhlÃŃ": 9270,
      "Ġbaro": 9271,
      "naje": 9272,
      "ĠcÃ½": 9273,
      "Ġmozku": 9274,
      "ĠvÄĽjÃŃ": 9275,
      "ĠSonet": 9276,
      "ĠpÅĻeje": 9277,
      "Ġpravila": 9278,
      "ĠFr": 9279,
      "odal": 9280,
      "ĠnÃ¡sil": 9281,
      "ĠhvÄĽzdu": 9282,
      "ĠvzrÅ¯stÃ¡": 9283,
      "umÄĽl": 9284,
      "ĠbÅĻit": 9285,
      "Ġjelen": 9286,
      "Ġnaro": 9287,
      "Ġvezdy": 9288,
      "ĠPÅĺE": 9289,
      "pÄĽje": 9290,
      "ĠkabÃ¡": 9291,
      "Ġprsten": 9292,
      "ĠpeÄį": 9293,
      "ĠKvÄĽt": 9294,
      "ĠdÃŃvat": 9295,
      "bau": 9296,
      "Ġflo": 9297,
      "ÄĽme": 9298,
      "doval": 9299,
      "ĠSO": 9300,
      "ĠPe": 9301,
      "ĠkaÅ¡": 9302,
      "Ġnemluv": 9303,
      "ĠdÃ¡vnÃ½": 9304,
      "ĠnaÅ¡im": 9305,
      "ĠzamyÅ¡len": 9306,
      "ZI": 9307,
      "aho": 9308,
      "Ġznik": 9309,
      "ĠJARO": 9310,
      "oke": 9311,
      "ĠkrajÅ¯": 9312,
      "Ġptact": 9313,
      "graf": 9314,
      "Ġnerozu": 9315,
      "ĠnÃŃtÃŃ": 9316,
      "ĠspÃŃnÃ¡": 9317,
      "Ġrozply": 9318,
      "Ġstatky": 9319,
      "ĠdobrÃ½m": 9320,
      "ĠsilnÃ©": 9321,
      "Ġdomova": 9322,
      "znam": 9323,
      "ĠhedbÃ¡": 9324,
      "ĠkvÃ©st": 9325,
      "iÄįkou": 9326,
      "uchy": 9327,
      "Ġjih": 9328,
      "ĠkomÃŃ": 9329,
      "ezi": 9330,
      "ĠmÄĽÅ¡Å¥": 9331,
      "ekal": 9332,
      "Ġkousek": 9333,
      "ĠspÄĽchal": 9334,
      "ĠulicÃŃch": 9335,
      "ĠpÃ½chou": 9336,
      "Ġillu": 9337,
      "Ġneum": 9338,
      "erne": 9339,
      "Ġmini": 9340,
      "ĠKR": 9341,
      "ĠBreska": 9342,
      "atim": 9343,
      "Ġreka": 9344,
      "Ġkniha": 9345,
      "ĠhoÅĻce": 9346,
      "ĠvlÃŃdnÃ½": 9347,
      "ĠvpÅĻed": 9348,
      "ĠAlfons": 9349,
      "ĠzbabÄĽ": 9350,
      "ĠzasmuÅ¡il": 9351,
      "yle": 9352,
      "ĠvÄįely": 9353,
      "Ġvstoupil": 9354,
      "rovÃ¡": 9355,
      "Ġzava": 9356,
      "Ġjsy": 9357,
      "Ġprok": 9358,
      "ĠpÃ¡du": 9359,
      "ĠpoznÃ¡nÃŃ": 9360,
      "ĠbÃ¡snÃŃka": 9361,
      "pÃ©": 9362,
      "vajÃŃcÃŃ": 9363,
      "ĠjeÅ¾to": 9364,
      "Ġosm": 9365,
      "ĠtluÄįe": 9366,
      "ĠstejnÃ©": 9367,
      "Ġsestro": 9368,
      "Ġshro": 9369,
      "ĠLÃģSKA": 9370,
      "arny": 9371,
      "Ġvznik": 9372,
      "...!": 9373,
      "ĠsÃŃtÃŃ": 9374,
      "ÅĻeno": 9375,
      "ĠuklÃ¡": 9376,
      "Ġschy": 9377,
[...]
