{
  "version": "1.0",
  "truncation": null,
  "padding": null,
  "added_tokens": [
    {
      "id": 0,
      "content": "<|EOS|>",
      "single_word": false,
      "lstrip": false,
      "rstrip": false,
      "normalized": false,
      "special": true
    },
    {
      "id": 1,
      "content": "<|PAD|>",
      "single_word": false,
      "lstrip": false,
      "rstrip": false,
      "normalized": false,
      "special": true
    },
    {
      "id": 2,
      "content": "<|UNK|>",
      "single_word": false,
      "lstrip": false,
      "rstrip": false,
      "normalized": false,
      "special": true
    }
  ],
  "normalizer": null,
  "pre_tokenizer": {
    "type": "ByteLevel",
    "add_prefix_space": false,
    "trim_offsets": true,
    "use_regex": true
  },
  "post_processor": {
    "type": "ByteLevel",
    "add_prefix_space": true,
    "trim_offsets": false,
    "use_regex": true
  },
  "decoder": {
    "type": "ByteLevel",
    "add_prefix_space": true,
    "trim_offsets": true,
    "use_regex": true
  },
  "model": {
    "type": "BPE",
    "dropout": null,
    "unk_token": null,
    "continuing_subword_prefix": null,
    "end_of_word_suffix": null,
    "fuse_unk": false,
    "byte_fallback": false,
    "vocab": {
      "<|EOS|>": 0,
      "<|PAD|>": 1,
      "<|UNK|>": 2,
      "!": 3,
      "#": 4,
      ",": 5,
      ".": 6,
      "0": 7,
      "1": 8,
      "2": 9,
      "3": 10,
      "4": 11,
      "5": 12,
      "6": 13,
      "7": 14,
      "8": 15,
      "9": 16,
      "?": 17,
      "A": 18,
      "B": 19,
      "C": 20,
      "D": 21,
      "E": 22,
      "F": 23,
      "H": 24,
      "J": 25,
      "N": 26,
      "P": 27,
      "T": 28,
      "X": 29,
      "Y": 30,
      "a": 31,
      "b": 32,
      "c": 33,
      "d": 34,
      "e": 35,
      "f": 36,
      "g": 37,
      "h": 38,
      "i": 39,
      "j": 40,
      "k": 41,
      "l": 42,
      "m": 43,
      "n": 44,
      "o": 45,
      "p": 46,
      "q": 47,
      "r": 48,
      "s": 49,
      "t": 50,
      "u": 51,
      "v": 52,
      "w": 53,
      "x": 54,
      "y": 55,
      "z": 56,
      "¡": 57,
      "¤": 58,
      "¥": 59,
      "©": 60,
      "¯": 61,
      "³": 62,
      "¶": 63,
      "º": 64,
      "¼": 65,
      "½": 66,
      "¾": 67,
      "Ã": 68,
      "Ä": 69,
      "Å": 70,
      "Ċ": 71,
      "Ġ": 72,
      "Ī": 73,
      "į": 74,
      "ı": 75,
      "Ļ": 76,
      "Ľ": 77,
      "Ń": 78,
      "Ġn": 79,
      "Ġ#": 80,
      "Ġs": 81,
      "Ġv": 82,
      "ÃŃ": 83,
      "Ġt": 84,
      "Ġk": 85,
      "Ã¡": 86,
      "Ġd": 87,
      "Ġl": 88,
      "Ġj": 89,
      "Ġp": 90,
      "Ġm": 91,
      "ÄĽ": 92,
      "ĠÅ": 93,
      "Ġz": 94,
      "Ġb": 95,
      "Ġc": 96,
      "Ġh": 97,
      "Ã½": 98,
      "Ã©": 99,
      "10": 100,
      "ou": 101,
      "Ġst": 102,
      "Ġr": 103,
      "Ġa": 104,
      "Ġse": 105,
      "Äį": 106,
      "Ġje": 107,
      "11": 108,
      "Ġne": 109,
      "ÅĻ": 110,
      "ĠÅ¾": 111,
      "Ġna": 112,
      "ch": 113,
      "ĠÅ¡": 114,
      "Å¾": 115,
      "ĠÄį": 116,
      "Ġo": 117,
      "Ġpo": 118,
      "Å¯": 119,
      "em": 120,
      "Ġch": 121,
      "ĠnÃŃ": 122,
      "Å¡": 123,
      "la": 124,
      "ra": 125,
      "ak": 126,
      "Ġho": 127,
      "Ġli": 128,
      "Ġle": 129,
      "Ġko": 130,
      "ĠÅĻ": 131,
      "Ġce": 132,
      "Ġla": 133,
      "Ġte": 134,
      "ĠnÄĽ": 135,
      "Ġti": 136,
      "Ġsv": 137,
      "Ġto": 138,
      "ro": 139,
      "Ġza": 140,
      "Ġby": 141,
      "Ġdo": 142,
      "ĠÅ¾e": 143,
      "Ġka": 144,
      "ĠnÃ½": 145,
      "le": 146,
      "ĠnÃ¡": 147,
      "ĠjÃŃ": 148,
      "ĠpÅĻ": 149,
      "Ġ1": 150,
      "rÃ¡": 151,
      "Ġno": 152,
      "ĠnÃ©": 153,
      "Ġmi": 154,
      "Ġva": 155,
      "Ġji": 156,
      "Ġlo": 157,
      "st": 158,
      "Ġta": 159,
      "AB": 160,
      "Ġve": 161,
      "Ġku": 162,
      "Ġu": 163,
      "Ġni": 164,
      "Ġro": 165,
      "Ġsl": 166,
      "ĠvÃ¡": 167,
      "Ġky": 168,
      "ĠvÄĽ": 169,
      "XX": 170,
      "Ġmu": 171,
      "ĠÅ¡e": 172,
      "Ġvy": 173,
      "Ġkd": 174,
      "ĠtÄĽ": 175,
      "ĠvÅ¡": 176,
      "ĠtÃŃ": 177,
      "Ġde": 178,
      "Ġdu": 179,
      "Ġsk": 180,
      "il": 181,
      "ĠvÃŃ": 182,
      "12": 183,
      "ĠÄįe": 184,
      "ĠdÄĽ": 185,
      "Ġvo": 186,
      "Ġjs": 187,
      "Ġjak": 188,
      "Ġmo": 189,
      "Ġnou": 190,
      "ĠdÃŃ": 191,
      "Ġ19": 192,
      "Ġnu": 193,
      "Ġda": 194,
      "Ġpa": 195,
      "Ġze": 196,
      "ĠmÄĽ": 197,
      "Ġbo": 198,
      "Ġtu": 199,
      "Ġme": 200,
      "ĠdÃ¡": 201,
      "Ġja": 202,
      "Ġci": 203,
      "Ġru": 204,
      "Ġpro": 205,
      "Ġma": 206,
      "Ġvi": 207,
      "Ġsta": 208,
      "Ġsti": 209,
      "Ġny": 210,
      "ÅĻe": 211,
      "ĠÅ¡ÃŃ": 212,
      "Ġbe": 213,
      "ĠcÃŃ": 214,
      "Ġtv": 215,
      "ĠÅĻe": 216,
      "Ġly": 217,
      "ĠJ": 218,
      "ĠÄįÃŃ": 219,
      "Ã½ch": 220,
      "Ġdi": 221,
      "Ġco": 222,
      "13": 223,
      "Ġvz": 224,
      "ne": 225,
      "ĠlÃŃ": 226,
      "Ġsp": 227,
      "lo": 228,
      "Å¥": 229,
      "ĠpÅĻe": 230,
      "Ġdy": 231,
      "Ġra": 232,
      "Ġsi": 233,
      "Ġjen": 234,
      "ÅĻÃŃ": 235,
      "ĠmÃ¡": 236,
      "ĠÄįi": 237,
      "ĠkÃ¡": 238,
      "li": 239,
      "Ġjsem": 240,
      "Ġkdy": 241,
      "ĠÅ¾ÃŃ": 242,
      "Ã½m": 243,
      "ĠÅĻÃŃ": 244,
      "ĠÅ¾i": 245,
      "Ġty": 246,
      "Ġbu": 247,
      "lÃ¡": 248,
      "vÄĽ": 249,
      "ru": 250,
      "Ġ18": 251,
      "Ġi": 252,
      "ĠlÃ¡": 253,
      "nÄĽ": 254,
      "ĠrÃ¡": 255,
      "ĠkrÃ¡": 256,
      "ĠvÃ©": 257,
      "Ġtak": 258,
      "Ġzd": 259,
      "ĠT": 260,
      "Ġha": 261,
      "ĠbÄĽ": 262,
      "Ġsm": 263,
      "ĠvÅ¡e": 264,
      "ĠmÃŃ": 265,
      "Ġhla": 266,
      "lu": 267,
      "ĠstÃŃ": 268,
      "ĠvÃ½": 269,
      "00": 270,
      "Ġsa": 271,
      "Ġzv": 272,
      "Ġba": 273,
      "Ġ1900": 274,
      "Ġsn": 275,
      "ĠsvÄĽ": 276,
      "Ġkou": 277,
      "ĠtÃ©": 278,
      "ĠkÃ©": 279,
      "ĠsÃŃ": 280,
      "ĠpÅĻi": 281,
      "ĠtÃ¡": 282,
      "ĠÅ¡i": 283,
      "Ġhu": 284,
      "ĠzÃ¡": 285,
      "XXXX": 286,
      "Ġlu": 287,
      "Ġhle": 288,
      "Ġpe": 289,
      "Ġpra": 290,
      "lÃŃ": 291,
      "Äı": 292,
      "ĠÃ": 293,
      "Ġsy": 294,
      "Ġmy": 295,
      "Ġod": 296,
      "Ġpr": 297,
      "Ġtr": 298,
      "ĠlÃ©": 299,
      "ABAB": 300,
      "Ġvu": 301,
      "ĠkdyÅ¾": 302,
      "ĠjÃ¡": 303,
      "ÅĪ": 304,
      "ĠvÅ¡ak": 305,
      "Ġval": 306,
      "Ġchu": 307,
      "Ġkr": 308,
      "Ġvt": 309,
      "vÃŃ": 310,
      "Ġkem": 311,
      "XA": 312,
      "Ġroz": 313,
      "ĠsvÃ©": 314,
      "80": 315,
      "Ġ1880": 316,
      "ĠnÃ½ch": 317,
      "ĠÅĻi": 318,
      "ĠhÃ¡": 319,
      "Ġsla": 320,
      "Ġcho": 321,
      "ĠbÃŃ": 322,
      "Ġry": 323,
      "ĠkÅ¯": 324,
      "Ġvp": 325,
      "Ġsu": 326,
      "lou": 327,
      "Ġvs": 328,
      "Ġso": 329,
      "Ġf": 330,
      "ABB": 331,
      "20": 332,
      "Å¯j": 333,
      "ĠstÃ¡": 334,
      "Ġsto": 335,
      "Ġzp": 336,
      "ĠpÃŃ": 337,
      "Ġbyl": 338,
      "Ġten": 339,
      "ĠpÃ¡": 340,
      "rd": 341,
      "no": 342,
      "te": 343,
      "al": 344,
      "ĠkÃ½": 345,
      "Ġ1920": 346,
      "ĠzÃŃ": 347,
      "Ġtam": 348,
      "Ġkde": 349,
      "ĠpÅĻÃŃ": 350,
      "Ġhy": 351,
      "Ġre": 352,
      "16": 353,
      "ĠpÄĽ": 354,
      "ĠsÃ¡": 355,
      "Ġbi": 356,
      "ĠnÃ½m": 357,
      "Ġzn": 358,
      "ĠlÃ½": 359,
      "Ġpu": 360,
      "ĠÄįa": 361,
      "Ġtem": 362,
      "Ġste": 363,
      "lÃ©": 364,
      "Ġpak": 365,
      "ĠÃº": 366,
      "15": 367,
      "Ġbra": 368,
      "ĠnÃŃm": 369,
      "Ġlem": 370,
      "Ġtou": 371,
      "Ġvd": 372,
      "Ġsrd": 373,
      "tÄĽ": 374,
      "ÅĻi": 375,
      "Ġdou": 376,
      "Ġslo": 377,
      "Ġe": 378,
      "Ġkla": 379,
      "ĠjiÅ¾": 380,
      "Ġpla": 381,
      "Ġnad": 382,
      "Ġbou": 383,
      "Ġkte": 384,
      "Ġzu": 385,
      "Ġslu": 386,
      "14": 387,
      "ĠdÄĽl": 388,
      "ĠmÃ©": 389,
      "Ġvou": 390,
      "Ġdv": 391,
      "ĠjeÅ¾": 392,
      "ĠÅ¡el": 393,
      "Ġcha": 394,
      "ĠdÃ©": 395,
      "ĠvÅ¾": 396,
      "ĠtÃ½": 397,
      "Ġnn": 398,
      "Ġsem": 399,
      "dy": 400,
      "Ġvla": 401,
      "ĠdÃ½": 402,
      "Ġbez": 403,
      "ĠpÅĻed": 404,
      "Ġsou": 405,
      "Ġg": 406,
      "Ġmne": 407,
      "Ġstra": 408,
      "Ġhr": 409,
      "Ġpl": 410,
      "Ġzra": 411,
      "ĠbÃ¡": 412,
      "Ġvk": 413,
      "Ġzas": 414,
      "Ġzb": 415,
      "ad": 416,
      "Ġhro": 417,
      "Ġbr": 418,
      "Ġchy": 419,
      "Ġstu": 420,
      "AABB": 421,
      "ni": 422,
      "Ġzm": 423,
      "Ġpod": 424,
      "Ġhou": 425,
      "ĠprÃ¡": 426,
      "Ġzi": 427,
      "Ġden": 428,
      "Ġkdo": 429,
      "Å¯m": 430,
      "ĠÄįer": 431,
      "Ġdla": 432,
      "Ġdra": 433,
      "Ġpi": 434,
      "Ġzo": 435,
      "Ġlou": 436,
      "40": 437,
      "Ġspo": 438,
      "Ġjest": 439,
      "Ġkle": 440,
      "Ġzla": 441,
      "Ġpou": 442,
      "ĠtÅĻe": 443,
      "ĠvÅ¾dy": 444,
      "CC": 445,
      "Ġon": 446,
      "Ġjich": 447,
      "ĠskÃ©": 448,
      "ĠjenÅ¾": 449,
      "ĠtÃŃm": 450,
      "me": 451,
      "ĠaÅ¾": 452,
      "ĠchÃ¡": 453,
      "ce": 454,
      "Ġvr": 455,
      "Ġsle": 456,
      "Ġdal": 457,
      "ĠnÃ¡m": 458,
      "ĠbÃ½": 459,
      "ĠlÃ¡s": 460,
      "ĠrÃ©": 461,
      "Ġjed": 462,
      "Ġvil": 463,
      "ĠtvÃ¡": 464,
      "Ġdr": 465,
      "Ġsly": 466,
      "Ġhra": 467,
      "ĠjeÅ¡": 468,
      "Ġvel": 469,
      "Ġnem": 470,
      "Ġsvou": 471,
      "ĠkaÅ¾": 472,
      "Ġdl": 473,
      "ĠmÅ¯": 474,
      "Ġdem": 475,
      "Ġsva": 476,
      "ĠstÄĽ": 477,
      "ĠteÄı": 478,
      "Ġvm": 479,
      "ĠkvÄĽ": 480,
      "XAXA": 481,
      "Ġjej": 482,
      "ĠrÅ¯": 483,
      "nÃŃ": 484,
      "ĠmnÄĽ": 485,
      "Ġkv": 486,
      "ĠÃ³": 487,
      "Ġtil": 488,
      "ĠmÅ¯j": 489,
      "ĠnÃ©m": 490,
      "Ġdru": 491,
      "Ġzk": 492,
      "Ġstr": 493,
      "Ġke": 494,
      "Ġnul": 495,
      "Ġbla": 496,
      "je": 497,
      "Ġzy": 498,
      "Ġsvo": 499,
      "ĠÅ¾Ã¡": 500,
      "Ġsnad": 501,
      "Ġvra": 502,
      "ĠN": 503,
      "Ġdne": 504,
      "ĠvÃ¡m": 505,
      "Ġbych": 506,
      "ĠvÅ¡ech": 507,
      "Ġzt": 508,
      "Ġkra": 509,
      "Ġble": 510,
      "ĠstvÃŃ": 511,
      "Ġvst": 512,
      "Ġhe": 513,
      "Ġmr": 514,
      "ĠvÅ¯": 515,
      "Ġmou": 516,
      "ĠuÅ¾": 517,
      "Ġneb": 518,
      "ĠrÃ½": 519,
      "Ġjsou": 520,
      "Ġvh": 521,
      "Ġlid": 522,
      "ĠsÃ¡m": 523,
      "ĠneÅ¾": 524,
      "Ġdil": 525,
      "Ġrou": 526,
      "Ġvl": 527,
      "Ġnej": 528,
      "Ġvzd": 529,
      "Ġkli": 530,
      "ĠplÃ¡": 531,
      "Ġdle": 532,
      "Ġzh": 533,
      "Ġzem": 534,
      "Ġkro": 535,
      "Ġju": 536,
      "ĠstÅĻe": 537,
      "ĠhÃ½": 538,
      "Ġnost": 539,
      "ĠmÄĽl": 540,
      "Ġmra": 541,
      "60": 542,
      "Ġzde": 543,
      "Ġvb": 544,
      "ly": 545,
      "Ġtel": 546,
      "XXXXXX": 547,
      "Ġstro": 548,
      "Ġstou": 549,
      "ĠaÅ¥": 550,
      "Ġpy": 551,
      "ĠhÃ©": 552,
      "Ġjem": 553,
      "Ġtra": 554,
      "Ġstv": 555,
      "ĠchvÃŃ": 556,
      "ĠsvÄĽt": 557,
      "Ġnech": 558,
      "Ġtom": 559,
      "Ġmlu": 560,
      "ĠzdÃ¡": 561,
      "Ġtvo": 562,
      "Ġob": 563,
      "Ġchem": 564,
      "vÄĽz": 565,
      "Ġtro": 566,
      "Ġhne": 567,
      "Ġmno": 568,
      "ĠtvÃ©": 569,
      "ĠdÅ¯": 570,
      "ĠbÅ¯": 571,
      "ut": 572,
      "ĠvÅ¡ec": 573,
      "Ġvot": 574,
      "Ġtek": 575,
      "Ġsli": 576,
      "Ġdlou": 577,
      "Ġhned": 578,
      "Ġsmr": 579,
      "Ġkol": 580,
      "ĠnÅ¯": 581,
      "Ġhlu": 582,
      "Ġjsi": 583,
      "ĠkrÃ¡s": 584,
      "ĠhvÄĽz": 585,
      "Ġkam": 586,
      "ĠnÄĽj": 587,
      "Ġpt": 588,
      "Ġslun": 589,
      "ĠsnÃŃ": 590,
      "Ġnic": 591,
      "Ġsh": 592,
      "Ġmla": 593,
      "Ġjsme": 594,
      "ĠnÃ¡s": 595,
      "ĠcÃŃch": 596,
      "Ġjd": 597,
      "ĠchtÄĽ": 598,
      "Ġvat": 599,
      "ĠÅ¾il": 600,
      "Ġmoc": 601,
      "Ġrem": 602,
      "Ġml": 603,
      "Ġklo": 604,
      "Ġjim": 605,
      "ĠtÅ¯": 606,
      "Ġsil": 607,
      "Ġ1940": 608,
      "Ġnik": 609,
      "ĠskÃ¡": 610,
      "Ġnes": 611,
      "ĠbÅĻe": 612,
      "ĠkÅĻÃŃ": 613,
      "ĠÄįil": 614,
      "ĠvÅĻe": 615,
      "Ġks": 616,
      "Ġpoz": 617,
      "Ġzvo": 618,
      "Ġcy": 619,
      "vÃ¡": 620,
      "Ġdnes": 621,
      "ĠÅ¡le": 622,
      "ĠvÃŃc": 623,
      "ĠvÃŃm": 624,
      "Ġmat": 625,
      "ĠchvÄĽ": 626,
      "ĠlÅ¯": 627,
      "Ġvem": 628,
      "Ġzlo": 629,
      "ĠvÃ½m": 630,
      "ĠznÃ¡": 631,
      "nou": 632,
      "ĠÅ¡tÄĽ": 633,
      "ĠbrÃ¡": 634,
      "ABC": 635,
      "ĠslÃ¡": 636,
      "ĠÅ¾a": 637,
      "ĠtÅĻÃŃ": 638,
      "ĠtÃ©Å¾": 639,
      "Ġzda": 640,
      "Ġkal": 641,
      "om": 642,
      "Ġsty": 643,
      "Ġkl": 644,
      "ĠkrÃ¡t": 645,
      "ĠblÃŃ": 646,
      "Ġnez": 647,
      "Ġslad": 648,
      "Ġdiv": 649,
      "ĠdÃ¡l": 650,
      "Ġri": 651,
      "Ġmen": 652,
      "Ġjas": 653,
      "ĠsmÄĽ": 654,
      "Ġnil": 655,
      "ĠvÄĽÄį": 656,
      "ste": 657,
      "Ġjste": 658,
      "ĠÅĪ": 659,
      "ĠzpÄĽ": 660,
      "Ġpil": 661,
      "Ġdn": 662,
      "Ġsko": 663,
      "Ġtla": 664,
      "sk": 665,
      "Äįe": 666,
      "Ġspa": 667,
      "ĠkÅĻi": 668,
      "ĠbÅ¯h": 669,
      "ĠvrÃ¡": 670,
      "ĠvÃ¡s": 671,
      "ĠdÅĻÃŃ": 672,
      "Ġdli": 673,
      "Ġsud": 674,
      "ĠkÃ½ch": 675,
      "Ġcem": 676,
      "Ġdost": 677,
      "Ġkru": 678,
      "ĠsvÃŃ": 679,
      "ĠvÃ½ch": 680,
      "Ġtm": 681,
      "ĠpÅ¯": 682,
      "Ġan": 683,
      "ABBA": 684,
      "Ġach": 685,
      "Ġhlas": 686,
      "ĠstÃ©": 687,
      "ĠsvÅ¯j": 688,
      "Ġ1860": 689,
      "ĠvlÃ¡": 690,
      "ĠÅ¡la": 691,
      "Ġchla": 692,
      "Ġzve": 693,
      "ĠÄįek": 694,
      "ĠÅ¡li": 695,
      "ĠskÃ½": 696,
      "tÃŃ": 697,
      "Ġzrak": 698,
      "Ġnek": 699,
      "Ġvpo": 700,
      "Ġ1840": 701,
      "ĠcÃ½": 702,
      "ĠÄįÃŃm": 703,
      "Ġvzp": 704,
      "ĠzÅĻÃŃ": 705,
      "Ġvtom": 706,
      "Ġy": 707,
      "ĠptÃ¡": 708,
      "Ġskr": 709,
      "Ġven": 710,
      "ĠÅ¥": 711,
      "Ġkre": 712,
      "ĠspÄĽ": 713,
      "Ġsmut": 714,
      "lÃ½": 715,
      "ĠÄįas": 716,
      "Ġslou": 717,
      "Ġot": 718,
      "ĠdÃŃm": 719,
      "ĠÅĻil": 720,
      "ĠÅ¡u": 721,
      "Ġzou": 722,
      "Ġdlo": 723,
      "ĠsvÃ½m": 724,
      "Ġlil": 725,
      "Ġmar": 726,
      "ĠleÄį": 727,
      "ĠÅ¡ÃŃm": 728,
      "ĠvnÄĽ": 729,
      "Ġple": 730,
      "sÅ¥": 731,
      "ĠsvÃ½ch": 732,
      "Ġnom": 733,
      "Ã¡t": 734,
      "ĠÄįlo": 735,
      "ĠjÃŃm": 736,
      "Ġvni": 737,
      "Ġnal": 738,
      "Ġsb": 739,
      "ĠkÃ½m": 740,
      "Ġtru": 741,
      "Ġsch": 742,
      "ĠproÄį": 743,
      "Ãº": 744,
      "ĠslÃŃ": 745,
      "Ġprav": 746,
      "Ġvle": 747,
      "or": 748,
      "ich": 749,
      "Ġchce": 750,
      "Ġkry": 751,
      "Ġfa": 752,
      "Ġsen": 753,
      "ĠknÄĽ": 754,
      "XB": 755,
      "Ġbro": 756,
      "ĠnÃŃk": 757,
      "ĠkrÃ¡l": 758,
      "ĠÅ¡a": 759,
      "ĠcÅ¯": 760,
      "ĠzvÄĽ": 761,
      "nÃ¡": 762,
      "ĠsÅ¯": 763,
      "Ġles": 764,
      "ĠsmÃŃ": 765,
      "Ġhem": 766,
      "ĠpÅĻec": 767,
      "Ġnout": 768,
      "ĠtÅĻi": 769,
      "ĠnÄĽm": 770,
      "ĠÅ¡k": 771,
      "Ġlost": 772,
      "ĠtÄĽch": 773,
      "ĠhrÃ¡": 774,
      "Ġzje": 775,
      "Ġtva": 776,
      "Ġdech": 777,
      "ĠhÅĻÃŃ": 778,
      "Ġzvu": 779,
      "Ġkm": 780,
      "ĠtÅĻ": 781,
      "ĠtÄĽÅ¾": 782,
      "ĠvÄĽk": 783,
      "Ġrod": 784,
      "ĠnÄĽk": 785,
      "nu": 786,
      "va": 787,
      "ĠmuÅ¾": 788,
      "ĠnÃ¡Å¡": 789,
      "ĠvÃ¡Å¡": 790,
      "ĠbuÄı": 791,
      "ĠkvÄĽt": 792,
      "ĠsnÄĽ": 793,
      "Ġhl": 794,
      "Ġprv": 795,
      "Ġdro": 796,
      "ĠjuÅ¾": 797,
      "ĠmÃ¡m": 798,
      "ĠpÃŃs": 799,
      "CD": 800,
      "Ġhor": 801,
      "Ġprou": 802,
      "Ġslav": 803,
      "ĠskÃ½ch": 804,
      "ĠpÅĻÃ¡": 805,
      "Ġct": 806,
      "ĠzÅĻe": 807,
      "ĠchrÃ¡": 808,
      "Ġnec": 809,
      "Ġlet": 810,
      "ĠrÃ¡d": 811,
      "ĠdÃ¡v": 812,
      "Ġkne": 813,
      "17": 814,
      "ĠspÃŃ": 815,
      "ĠdÃ¡m": 816,
      "Ġus": 817,
      "Ġklid": 818,
      "Ġkp": 819,
      "ĠÅ¾en": 820,
      "ĠstÅĻÃŃ": 821,
      "Ġkni": 822,
      "Ġdvo": 823,
      "ĠspÃ¡": 824,
      "ĠnÃŃch": 825,
      "Ġsled": 826,
      "ĠhlÃŃ": 827,
      "Ġkrev": 828,
      "ĠklÃ¡": 829,
      "Ġhled": 830,
      "ĠbÃ½t": 831,
      "ĠvnÄĽm": 832,
      "Ġtec": 833,
      "Ġnoc": 834,
      "Ġtal": 835,
      "ĠmÃ½": 836,
      "Ġdva": 837,
      "Ġvlast": 838,
      "Ġkt": 839,
      "ĠhÅ¯": 840,
      "Ġvol": 841,
      "Ġou": 842,
      "ĠseÅĪ": 843,
      "Ġsvi": 844,
      "ĠchtÄĽl": 845,
      "ĠtvÃ¡ÅĻ": 846,
      "Ġvje": 847,
      "as": 848,
      "ĠstÃ½": 849,
      "Ġps": 850,
      "ĠpÅĻes": 851,
      "Ã¡l": 852,
      "ĠvÄĽr": 853,
      "Ġpan": 854,
      "Ġvdu": 855,
      "Ã©m": 856,
      "ĠÅ¾el": 857,
      "Ġpad": 858,
      "ĠpÄĽt": 859,
      "ĠvÄįe": 860,
      "ĠznÄĽ": 861,
      "ĠjÃŃc": 862,
      "Ġbil": 863,
      "ĠdÄĽt": 864,
      "ĠhrÅ¯": 865,
      "ĠtvÅ¯j": 866,
      "ĠaÄį": 867,
      "ĠklÃŃ": 868,
      "Ġblou": 869,
      "Ġfe": 870,
      "Ġvne": 871,
      "ĠchÃ½": 872,
      "ci": 873,
      "ĠtÃ½ch": 874,
      "Ġzna": 875,
      "Ġmnou": 876,
      "Ġkon": 877,
      "AABBCC": 878,
      "Ġstal": 879,
      "ĠtvÃŃ": 880,
      "AA": 881,
      "ABCC": 882,
      "Ġduch": 883,
      "ĠdÃŃv": 884,
      "Ġzal": 885,
      "AABC": 886,
      "ĠkÃ©m": 887,
      "Ġbes": 888,
      "ĠtrÃ¡": 889,
      "ĠstrÃ¡": 890,
      "vo": 891,
      "Ġlen": 892,
      "ĠhnÄĽ": 893,
      "Ġhru": 894,
      "Ġtlo": 895,
      "ast": 896,
      "ĠvÃ©m": 897,
      "ĠmlÃ¡": 898,
      "ĠÅ¡Å¥": 899,
      "ĠzÅ¯": 900,
      "ĠsvÃ¡": 901,
      "Ġlov": 902,
      "ĠcÃŃm": 903,
      "Ġchle": 904,
      "ĠÄįel": 905,
      "ĠÅĻÃ¡": 906,
      "ĠpÃ¡n": 907,
      "ĠÅĻa": 908,
      "ĠnÃ¡ch": 909,
      "ĠÅ¡tÃŃ": 910,
      "ĠÅĻek": 911,
      "ĠcoÅ¾": 912,
      "Ġdar": 913,
      "Ġjde": 914,
      "Ġdej": 915,
      "ĠznÃŃ": 916,
      "ĠchvÃ¡": 917,
      "Ġche": 918,
      "ĠkÃ¡ch": 919,
      "Ġpal": 920,
      "Ġvod": 921,
      "ĠÅ¡ek": 922,
      "ĠknÃŃ": 923,
      "ĠlÃ½ch": 924,
      "ĠdvÄĽ": 925,
      "Ġkve": 926,
      "ĠÅ¾Ã¡d": 927,
      "ĠvzÃ¡": 928,
      "ĠsÃ½": 929,
      "ĠkvÃŃ": 930,
      "ĠchÅ¯": 931,
      "ĠdrÃ¡": 932,
      "Ġoh": 933,
      "Ġstat": 934,
      "ĠÄı": 935,
      "Ġbal": 936,
      "ĠzpÃŃ": 937,
      "Ġvsrd": 938,
      "Ġman": 939,
      "Ġhlou": 940,
      "ĠvÅ¾dyÅ¥": 941,
      "vi": 942,
      "Ġrov": 943,
      "ĠpÃ½": 944,
      "na": 945,
      "Ġchal": 946,
      "ĠÅ¡p": 947,
      "ĠÄįem": 948,
      "Ġleh": 949,
      "ĠhÅĻ": 950,
      "ĠnnÃ©": 951,
      "ĠmÃŃr": 952,
      "ĠprÃ½": 953,
      "Ġhod": 954,
      "Ġplo": 955,
      "Ġzel": 956,
      "Ġstvo": 957,
      "Ġzpo": 958,
      "ĠD": 959,
      "ĠdeÅ¡": 960,
      "ĠpÅĻij": 961,
      "ĠkÅĻe": 962,
      "Ġmem": 963,
      "Ġskou": 964,
      "ĠzÃ½": 965,
      "Ġpom": 966,
      "Ġca": 967,
      "ĠstÃ¡l": 968,
      "ĠneÄį": 969,
      "Ġvno": 970,
      "Ġsed": 971,
      "ĠvÅ¡em": 972,
      "ĠdlÃŃ": 973,
      "Ġsd": 974,
      "ĠstÃŃn": 975,
      "Ġlal": 976,
      "Ġdce": 977,
      "Ã³": 978,
      "Ġsmrt": 979,
      "Ġral": 980,
      "Ġvj": 981,
      "Ġcu": 982,
      "Ġvit": 983,
      "Ġrt": 984,
      "Ġvch": 985,
      "Ġvoj": 986,
      "ĠlÃ©m": 987,
      "Ġkz": 988,
      "Ġzno": 989,
      "ABABCC": 990,
      "ĠsÃŃc": 991,
      "Ġlek": 992,
      "Ġtma": 993,
      "ĠvÅ¡u": 994,
      "Ġjo": 995,
      "Ġtlu": 996,
      "Ġdit": 997,
      "ĠsÃŃm": 998,
      "Ġchlad": 999,
      "ĠnnÃŃ": 1000,
      "Ġhal": 1001,
      "Å¡Å¥": 1002,
      "Ġvzdu": 1003,
      "ĠhlÃ¡": 1004,
      "Ġbles": 1005,
      "ĠÅ¾o": 1006,
      "ĠneÅ¡": 1007,
      "ĠdÃ½m": 1008,
      "Ġlik": 1009,
      "ĠhlÃ©": 1010,
      "ve": 1011,
      "ĠmÃ½ch": 1012,
      "Ġar": 1013,
      "ĠlÃ½m": 1014,
      "ĠvtÃ©": 1015,
      "Ġsni": 1016,
      "Ġhlo": 1017,
      "Ġnit": 1018,
      "ĠsvÃ©m": 1019,
      "ĠvlÃŃ": 1020,
      "Ġhroz": 1021,
      "Ġcit": 1022,
      "ĠÅ¡Å¥ast": 1023,
      "Ġzbo": 1024,
      "ha": 1025,
      "Ġvza": 1026,
      "Ġvsv": 1027,
      "Ġvzpo": 1028,
      "Ġvzh": 1029,
      "ĠÅ¡ep": 1030,
      "ĠzrÃ¡": 1031,
      "Ġvpra": 1032,
      "Ġkto": 1033,
      "Ġaj": 1034,
      "ĠboÅ¾": 1035,
      "Ġdat": 1036,
      "Ġpev": 1037,
      "Ġvro": 1038,
      "Ġjm": 1039,
      "Ġsku": 1040,
      "ĠÅĪa": 1041,
      "Ġbys": 1042,
      "Ġ1960": 1043,
      "Ġply": 1044,
      "Ġvti": 1045,
      "Ġsr": 1046,
      "Ġstem": 1047,
      "ĠtrÅ¯": 1048,
      "ĠslyÅ¡": 1049,
      "Ġtl": 1050,
      "Ġzro": 1051,
      "Ġpru": 1052,
      "ĠvÃŃÅ¡": 1053,
      "Ġga": 1054,
      "ĠÅ¾ÃŃm": 1055,
      "Ġstej": 1056,
      "Ġzle": 1057,
      "ĠÅĻÃŃm": 1058,
      "ĠsnÃŃm": 1059,
      "Ġboj": 1060,
      "ĠvdÄĽ": 1061,
      "Ġzl": 1062,
      "ĠvnÃŃ": 1063,
      "Ġlest": 1064,
      "Ġvbo": 1065,
      "ĠzmÄĽ": 1066,
      "ĠdÄĽj": 1067,
      "Ġdin": 1068,
      "ĠjÃŃt": 1069,
      "Å¾i": 1070,
      "ĠpÄĽk": 1071,
      "ĠzvÃŃ": 1072,
      "Ġsna": 1073,
      "ĠkÅ¯m": 1074,
      "ĠdÅĻÃŃv": 1075,
      "Ġhrad": 1076,
      "at": 1077,
      "Ġzli": 1078,
      "Ġskry": 1079,
      "Ġska": 1080,
      "Ġcen": 1081,
      "Ġkat": 1082,
      "ĠvÃ¡n": 1083,
      "Ġvmo": 1084,
      "Ġpov": 1085,
      "ĠÄįen": 1086,
      "Ġchou": 1087,
      "ĠÄįÃ¡": 1088,
      "Ġfi": 1089,
      "Ġves": 1090,
      "ĠtvÃ½ch": 1091,
      "Ġstli": 1092,
      "Ġge": 1093,
      "ĠtoÅ¥": 1094,
      "ĠÄįt": 1095,
      "ĠtÄĽl": 1096,
      "ĠtÃ¡h": 1097,
      "Ġnich": 1098,
      "ĠvÅ¡ÃŃ": 1099,
      "Ġbli": 1100,
      "ĠnÄĽl": 1101,
      "ĠmÃ½m": 1102,
      "Ġsne": 1103,
      "ĠrÃ½ch": 1104,
      "ABABCD": 1105,
      "ech": 1106,
      "Ġth": 1107,
      "Ġplu": 1108,
      "ĠtÃ½m": 1109,
      "Ġzva": 1110,
      "Ġkud": 1111,
      "ĠÅ¾li": 1112,
      "Ġzr": 1113,
      "Ġdly": 1114,
      "Ġper": 1115,
      "Ġtk": 1116,
      "Ġtaj": 1117,
      "ĠsnÃ¡": 1118,
      "ĠÅ¾eh": 1119,
      "Ġkri": 1120,
      "ĠmoÅ¾": 1121,
      "Ġmoh": 1122,
      "ĠÄįet": 1123,
      "ĠÄįin": 1124,
      "Ġjis": 1125,
      "Ġhli": 1126,
      "Ġkme": 1127,
      "ĠÄįes": 1128,
      "ĠÅ¡lo": 1129,
      "Ġstva": 1130,
      "Ġjin": 1131,
      "ĠchÃ©": 1132,
      "Ġtit": 1133,
      "Ġvnich": 1134,
      "nost": 1135,
      "ĠÅ¡ÃŃch": 1136,
      "Ġkb": 1137,
      "Ġchci": 1138,
      "Ġbar": 1139,
      "ĠdlÃ©": 1140,
      "ĠÃºs": 1141,
      "ĠkÃ¡m": 1142,
      "Ġcos": 1143,
      "ĠvÃº": 1144,
      "ĠzpÄĽv": 1145,
      "Ġvru": 1146,
      "ĠtÃ©m": 1147,
      "Ġchod": 1148,
      "Ġvsta": 1149,
      "Ġtys": 1150,
      "ĠzpÄĽt": 1151,
      "mu": 1152,
      "Ġznich": 1153,
      "ĠskrÃ¡": 1154,
      "ĠbrÃ©": 1155,
      "ĠprÃ¡z": 1156,
      "Ġtes": 1157,
      "Ġzdo": 1158,
      "Ġgo": 1159,
      "Ġtry": 1160,
      "Ġmd": 1161,
      "Ġvdo": 1162,
      "Ġsek": 1163,
      "ĠmÅĻe": 1164,
      "Ġrel": 1165,
      "ĠÅ¡ko": 1166,
      "ĠzÅĻel": 1167,
      "Ġbol": 1168,
      "ĠjmÃ©": 1169,
      "ĠstÃŃm": 1170,
      "ĠvÄĽt": 1171,
      "ĠsmÃŃch": 1172,
      "ĠzlÃ©": 1173,
      "ĠvdÃ¡l": 1174,
      "Ġkdys": 1175,
      "Ġvrou": 1176,
      "ĠteÄį": 1177,
      "ĠstrÃ½": 1178,
      "ĠÅĻem": 1179,
      "Ġzen": 1180,
      "Ġtvr": 1181,
      "ABCCB": 1182,
      "ĠÅĻeÄį": 1183,
      "ĠÅ¡il": 1184,
      "ĠÅ¾al": 1185,
      "ĠvÅ¾dyc": 1186,
      "ĠblÃ¡": 1187,
      "Ġhud": 1188,
      "ar": 1189,
      "Ġsel": 1190,
      "ĠÅ¡em": 1191,
      "Ġsmy": 1192,
      "Ġpoh": 1193,
      "Ġkraj": 1194,
      "ĠmÃ¡Å¡": 1195,
      "Ġ1820": 1196,
      "Ġkmi": 1197,
      "Ġpot": 1198,
      "ĠÅ¡lÃ©": 1199,
      "Ġbraz": 1200,
      "Ġkost": 1201,
      "ĠÅ¾it": 1202,
      "Ġtre": 1203,
      "an": 1204,
      "Ġnen": 1205,
      "Ġjal": 1206,
      "ĠdÅĻe": 1207,
      "ĠdÃŃÅ¡": 1208,
      "ĠtÄĽz": 1209,
      "Ġstar": 1210,
      "ĠÄįit": 1211,
      "ĠzÃ¡ÅĻ": 1212,
      "ĠjejÅ¾": 1213,
      "ĠhoÅ¾": 1214,
      "Ġss": 1215,
      "ĠlÃŃÅ¡": 1216,
      "Ġztra": 1217,
      "Ġtan": 1218,
      "Ġtech": 1219,
      "Ġvko": 1220,
      "Ġtvou": 1221,
      "Ġau": 1222,
      "Ġzne": 1223,
      "ĠÄįest": 1224,
      "ĠtoÅ¾": 1225,
      "Ġblu": 1226,
      "ĠskÃ½m": 1227,
      "ĠÅ¡ich": 1228,
      "Ġbem": 1229,
      "Ġsyn": 1230,
      "Ġslov": 1231,
      "Ġgi": 1232,
      "Ġsten": 1233,
      "ĠstÅ¯": 1234,
      "ĠvÃ¡Å¾": 1235,
      "ĠvtÄĽ": 1236,
      "rou": 1237,
      "ĠdÅ¯m": 1238,
      "Ġsklo": 1239,
      "Ġchra": 1240,
      "Ġvze": 1241,
      "Ġleb": 1242,
      "Ġsvit": 1243,
      "Ġkva": 1244,
      "ĠrÃ©m": 1245,
      "Ġstech": 1246,
      "Ġdel": 1247,
      "ĠbrÃ½": 1248,
      "ĠvÅ¡ich": 1249,
      "ĠdlÃ¡": 1250,
      "Ġvsk": 1251,
      "Ġnev": 1252,
      "Ġzor": 1253,
      "ĠliÅ¡": 1254,
      "ĠvzhÅ¯": 1255,
      "ĠjÃŃÅ¾": 1256,
      "Ġstru": 1257,
      "ĠfÃ¡": 1258,
      "Ġzum": 1259,
      "AABCCB": 1260,
      "Ġjel": 1261,
      "ĠblÃŃÅ¾": 1262,
      "Ġvzne": 1263,
      "Ġpoj": 1264,
      "Ġblo": 1265,
      "Ġdob": 1266,
      "Ġvan": 1267,
      "ĠstraÅ¡": 1268,
      "ĠhÅĻe": 1269,
      "Ġskal": 1270,
      "ĠÅĻit": 1271,
      "ĠbÃ¡s": 1272,
      "Ġvzal": 1273,
      "Ġmal": 1274,
      "Ġvec": 1275,
      "Ġklad": 1276,
      "Ġtost": 1277,
      "Ġsoud": 1278,
      "Ġok": 1279,
      "Ġsbo": 1280,
      "ĠjÅ¯": 1281,
      "Ġdve": 1282,
      "ĠskrÃ½": 1283,
      "ĠÅ¾Ã¡r": 1284,
      "Ġzby": 1285,
      "ĠbÃŃd": 1286,
      "ĠtÅĻÃ¡": 1287,
      "Ġzvuk": 1288,
      "ĠÅĻÃ¡d": 1289,
      "Ġkot": 1290,
      "Ġhlad": 1291,
      "Ġas": 1292,
      "Ġzmi": 1293,
      "Ġpor": 1294,
      "ĠbÅĻÃŃ": 1295,
      "Ġvna": 1296,
      "Ġled": 1297,
      "Ġstup": 1298,
      "ĠzlÃŃ": 1299,
      "ĠprÅ¯": 1300,
      "Ġcel": 1301,
      "Ġlej": 1302,
      "Ġzvy": 1303,
      "Ġhrob": 1304,
      "Ġpat": 1305,
      "Ġsme": 1306,
      "Ġjar": 1307,
      "ĠvlÃ¡d": 1308,
      "ĠÄįÃŃch": 1309,
      "ĠvÄį": 1310,
      "Ġnaj": 1311,
      "Ġklu": 1312,
      "ĠÅ¾ha": 1313,
      "Ġhan": 1314,
      "Ġvka": 1315,
      "Ġzbra": 1316,
      "Ġzdra": 1317,
      "Ġvho": 1318,
      "ĠmÃŃt": 1319,
      "AXB": 1320,
      "Ġtis": 1321,
      "ĠheÅĪ": 1322,
      "ĠtÄĽm": 1323,
      "Ġkoj": 1324,
      "ĠÃ¡": 1325,
      "ĠjÃŃch": 1326,
      "Ġnak": 1327,
      "Ġpar": 1328,
      "ĠpÃ©": 1329,
      "ĠvÅ¡i": 1330,
      "ĠsvÃ½": 1331,
      "Ġpos": 1332,
      "Ġvzte": 1333,
      "ĠnnÃ½": 1334,
      "Ġzjev": 1335,
      "ĠstÅĻed": 1336,
      "Ġproud": 1337,
      "Ġkh": 1338,
      "ĠvnÃ¡": 1339,
      "Ġzvol": 1340,
      "ĠpouÅ¡": 1341,
      "ĠnnÄĽ": 1342,
      "Ġder": 1343,
      "Ġspra": 1344,
      "ĠsklÃ¡": 1345,
      "ĠbÃ©": 1346,
      "Ġchr": 1347,
      "ĠhleÄı": 1348,
      "Ġov": 1349,
      "Ġblesk": 1350,
      "Ġdek": 1351,
      "ja": 1352,
      "Ġor": 1353,
      "Ġur": 1354,
      "Ġzka": 1355,
      "Ġbuj": 1356,
      "Ġvzk": 1357,
      "ĠvÄĽz": 1358,
      "ĠnaÄį": 1359,
      "ĠskÃ©m": 1360,
      "ĠhvÄĽzd": 1361,
      "ĠdÄĽs": 1362,
      "Ġstil": 1363,
      "Ġver": 1364,
      "Ġdruh": 1365,
      "Ġnat": 1366,
      "ĠnÄĽÅ¾": 1367,
      "ĠsnÅ¯": 1368,
      "ĠÅ¡len": 1369,
      "ĠÅ¡t": 1370,
      "Ġum": 1371,
      "Ġvys": 1372,
      "ĠÄįej": 1373,
      "ĠÅ¾iv": 1374,
      "ĠnÅ¯m": 1375,
      "ĠdÃ½ch": 1376,
      "Ġlas": 1377,
      "Ġkly": 1378,
      "Ġrek": 1379,
      "ĠnechÅ¥": 1380,
      "Ġsal": 1381,
      "ĠmÄĽv": 1382,
      "Ġtli": 1383,
      "Ġchv": 1384,
      "ĠmeÄį": 1385,
      "ĠpÅ¯l": 1386,
      "ĠÅ¾u": 1387,
      "Ġtle": 1388,
      "ĠvstÅĻÃŃ": 1389,
      "Ġjdou": 1390,
      "ĠnuÅ¾": 1391,
      "Ġzce": 1392,
      "Ġvej": 1393,
      "ĠÅ¡en": 1394,
      "Ġned": 1395,
      "Ġfra": 1396,
      "Ġhnu": 1397,
      "Ġhly": 1398,
      "Ġzil": 1399,
      "ĠslÃ©": 1400,
      "ĠzvÃ¡": 1401,
      "Ġrak": 1402,
      "ĠvÃ½Å¡": 1403,
      "ĠÅ¾lu": 1404,
      "Ġmor": 1405,
      "Ġbrou": 1406,
      "ABBC": 1407,
      "Ġzma": 1408,
      "ĠvÃ¡l": 1409,
      "ĠpÅ¯j": 1410,
      "Ġvpa": 1411,
      "Ġtin": 1412,
      "ĠbÃŃk": 1413,
      "ĠmÃŃn": 1414,
      "rÃ¡z": 1415,
      "Ġbor": 1416,
      "Ġkrok": 1417,
      "ĠhÃ½ch": 1418,
      "ĠÃŃ": 1419,
      "ĠsvÄĽd": 1420,
      "Ġkze": 1421,
      "ĠchvÄĽl": 1422,
      "ĠzvlÃ¡": 1423,
      "Ġhrom": 1424,
      "ĠvsvÄĽ": 1425,
      "Ġtrou": 1426,
      "Ġol": 1427,
      "ĠdÄĽv": 1428,
      "Ġvlo": 1429,
      "ĠruÄį": 1430,
      "ABCD": 1431,
      "ĠspoÅĪ": 1432,
      "Ġret": 1433,
      "Ġmrou": 1434,
      "Ġzved": 1435,
      "ĠzeÅĪ": 1436,
      "Ġknu": 1437,
      "ĠrÃ½m": 1438,
      "Ġkov": 1439,
      "ĠnÄĽn": 1440,
      "ĠÅ¡et": 1441,
      "Ġscho": 1442,
      "Ġstav": 1443,
      "Ġsho": 1444,
      "Ġvrh": 1445,
      "ĠhoÅĻ": 1446,
      "Ġkdes": 1447,
      "ĠzdÃ¡l": 1448,
      "ĠkÅĻÃŃÅ¾": 1449,
      "Ġkrou": 1450,
      "ĠblÃŃz": 1451,
      "Å¯r": 1452,
      "Ġpout": 1453,
      "Ġtrp": 1454,
      "ĠdÃ©m": 1455,
      "ĠÅĻen": 1456,
      "ĠvÄĽn": 1457,
      "Ġber": 1458,
      "ĠÅ¡um": 1459,
      "ĠkÅĻ": 1460,
      "Ġtic": 1461,
      "ĠvstÅĻÃŃc": 1462,
      "Ġkso": 1463,
      "ĠlÃŃm": 1464,
      "Ġmrak": 1465,
      "Ġvli": 1466,
      "ÅĪa": 1467,
      "ĠsnÃŃh": 1468,
      "vÃ©": 1469,
      "ĠhÅĻm": 1470,
      "ĠdÃŃt": 1471,
      "Ġset": 1472,
      "ĠdvÃ©": 1473,
      "ĠztÄĽ": 1474,
      "ĠvÄĽc": 1475,
      "Ġmst": 1476,
      "ĠhÃ½m": 1477,
      "Ġchva": 1478,
      "Ġtvor": 1479,
      "rÅ¯": 1480,
      "Ġsve": 1481,
      "ĠkÅĻik": 1482,
      "ĠvzdÃ¡": 1483,
      "Ġdouc": 1484,
      "ĠnÃŃz": 1485,
      "ĠknÃ¡": 1486,
      "ĠkoÅ¡": 1487,
      "ĠvlÃŃd": 1488,
      "Ġjsa": 1489,
      "ĠpÄĽl": 1490,
      "en": 1491,
      "Ġspi": 1492,
      "ĠÄįal": 1493,
      "Ġzru": 1494,
      "BC": 1495,
      "ĠzmÃŃ": 1496,
      "Ġvlas": 1497,
      "ĠstÃ¡t": 1498,
      "Ġoz": 1499,
      "ĠpyÅ¡": 1500,
      "Ġal": 1501,
      "ĠplÃ©": 1502,
      "py": 1503,
      "Ġhej": 1504,
      "Ġlep": 1505,
      "Ġlist": 1506,
      "Ġsny": 1507,
      "Ġsmu": 1508,
      "ĠvÅ¾i": 1509,
      "ĠptÃ¡k": 1510,
      "ĠskvÄĽ": 1511,
      "Ġdav": 1512,
      "Ġlin": 1513,
      "Ġkno": 1514,
      "ĠzdÄĽ": 1515,
      "Ġher": 1516,
      "Ġvyz": 1517,
      "Ġjil": 1518,
      "ĠpuÅ¡": 1519,
      "Ġhoj": 1520,
      "bi": 1521,
      "Ġzdvi": 1522,
      "Ġlk": 1523,
      "ĠtÅĻpy": 1524,
      "Ġknou": 1525,
      "Ġcti": 1526,
      "Ġter": 1527,
      "ĠchlÃ©": 1528,
      "Ġprud": 1529,
      "ĠzboÅ¾": 1530,
      "Ġnav": 1531,
      "ĠvÄĽÅĻ": 1532,
      "Ġtrh": 1533,
      "Ġdlit": 1534,
      "Ġtor": 1535,
      "Ġnel": 1536,
      "ĠznÃ¡m": 1537,
      "ABA": 1538,
      "Ġslil": 1539,
      "Ġzto": 1540,
      "Ġnno": 1541,
      "ĠÃºz": 1542,
      "ĠhnÄĽv": 1543,
      "ĠÅ¡Ã¡": 1544,
      "Ġvzdy": 1545,
      "Ġpry": 1546,
      "ĠmÅĻÃŃ": 1547,
      "Ġved": 1548,
      "ĠÅ¾ÃŃt": 1549,
      "Ġchl": 1550,
      "Ġfal": 1551,
      "ĠkrÃ½": 1552,
      "ĠbyÅ¥": 1553,
      "Ġjme": 1554,
      "ĠkdoÅ¾": 1555,
      "ĠmraÄį": 1556,
      "vr": 1557,
      "Ġzni": 1558,
      "Ġbral": 1559,
      "Ġdno": 1560,
      "Ġin": 1561,
      "ĠchrÃ¡m": 1562,
      "ĠX": 1563,
      "Ġpta": 1564,
      "Ġpol": 1565,
      "Ġmil": 1566,
      "Ġzim": 1567,
      "Ġchmu": 1568,
      "Ġnny": 1569,
      "ĠnnÃ¡": 1570,
      "Ġdrob": 1571,
      "ĠhruÄı": 1572,
      "Ġrok": 1573,
      "ĠjichÅ¾": 1574,
      "Ġben": 1575,
      "Ġskle": 1576,
      "Ġnnou": 1577,
      "Ġchvil": 1578,
      "ĠztrÃ¡": 1579,
      "Ġvslu": 1580,
      "Ġstrach": 1581,
      "in": 1582,
      "ĠvÅĻel": 1583,
      "Ġpen": 1584,
      "Ġlit": 1585,
      "ĠmÄĽk": 1586,
      "ĠrÃ¡m": 1587,
      "ĠdrÃ©": 1588,
      "Ġvzduch": 1589,
      "Ġkpo": 1590,
      "Ġzval": 1591,
      "Ġbec": 1592,
      "ĠbouÅĻ": 1593,
      "ĠpÅĻÃŃs": 1594,
      "Ġuz": 1595,
      "ĠvÅĻÃŃ": 1596,
      "Ġvez": 1597,
      "ĠviÄį": 1598,
      "Ġsej": 1599,
      "ĠnaÅĪ": 1600,
      "ĠvkrÃ¡": 1601,
      "ĠdruÅ¾": 1602,
      "ĠmÅ¾i": 1603,
      "ÅĻÃ¡": 1604,
      "Ġnut": 1605,
      "ĠzÅĻÃŃm": 1606,
      "ĠmÃ©m": 1607,
      "Ġrej": 1608,
      "ĠpoÄį": 1609,
      "ĠdiÄį": 1610,
      "Ġsma": 1611,
      "Ġzaz": 1612,
      "ĠÄįÃŃÅ¡": 1613,
      "Ġvzb": 1614,
      "ĠbÄĽh": 1615,
      "ĠhÃ©m": 1616,
      "Ġbd": 1617,
      "ĠÅ¡at": 1618,
      "tÅĻ": 1619,
      "ĠvtvÃ¡": 1620,
      "ĠdrÃ½": 1621,
      "ĠnoÄį": 1622,
      "ĠÅĻÅ¯": 1623,
      "Ġvce": 1624,
      "ĠcÅ¯m": 1625,
      "ĠdnÃŃ": 1626,
      "ĠvnÄĽmÅ¾": 1627,
      "Ġtrem": 1628,
      "ĠsmÃ¡": 1629,
      "Ġctnost": 1630,
      "Ġcet": 1631,
      "Ġnuv": 1632,
      "Ġgu": 1633,
      "ĠliÄį": 1634,
      "ĠÅ¾em": 1635,
      "ĠniÄį": 1636,
      "XAX": 1637,
      "ĠzÃŃch": 1638,
      "Ġhad": 1639,
      "Ġmluv": 1640,
      "Ġran": 1641,
      "ĠvdÃ¡": 1642,
      "ĠÅ¥a": 1643,
      "Ġcla": 1644,
      "Ġsro": 1645,
      "Ġvpro": 1646,
      "ĠnÃŃÅ¾": 1647,
      "er": 1648,
      "ti": 1649,
      "ĠtÃ¡m": 1650,
      "Ġkor": 1651,
      "Ġzmo": 1652,
      "Ġlec": 1653,
      "ĠrÃ¡ch": 1654,
      "Ġhat": 1655,
      "Ġkles": 1656,
      "Ġstrom": 1657,
      "Ġtly": 1658,
      "Ġspro": 1659,
      "ej": 1660,
      "ĠÅ¡lÃ©n": 1661,
      "Ġrad": 1662,
      "Ġzku": 1663,
      "Ġvhro": 1664,
      "Ġsic": 1665,
      "Ġlh": 1666,
      "Ġvln": 1667,
      "Ġvta": 1668,
      "ĠvzÃ¡c": 1669,
      "Ġdlem": 1670,
      "Ġtiv": 1671,
      "Ġlez": 1672,
      "Ġspou": 1673,
      "ĠzrÃ¡d": 1674,
      "ĠboÅ¥": 1675,
      "Ġmek": 1676,
      "ĠvpÅĻe": 1677,
      "ĠdÃ¡t": 1678,
      "ĠknÃ¡m": 1679,
      "Ġsra": 1680,
      "Ġvpr": 1681,
      "Ġchat": 1682,
      "ÅĻa": 1683,
      "Ġpem": 1684,
      "ĠvraÅ¾": 1685,
      "Ġjou": 1686,
      "ĠlÃŃch": 1687,
      "ĠklÃ©": 1688,
      "ĠmÄĽj": 1689,
      "ĠpryÄį": 1690,
      "Ġvad": 1691,
      "Ġkar": 1692,
      "ĠzprÃ¡": 1693,
      "ĠtlÃ©": 1694,
      "Ġmech": 1695,
      "nÃŃz": 1696,
      "Å¾e": 1697,
      "Ġsky": 1698,
      "ĠtvÃ½m": 1699,
      "ĠlÃŃc": 1700,
      "Ġdlu": 1701,
      "ĠchtÃŃ": 1702,
      "ĠdÄĽc": 1703,
      "Ġpit": 1704,
      "Ġvzdech": 1705,
      "Ġnna": 1706,
      "Ġstk": 1707,
      "Ġzbu": 1708,
      "Ġbit": 1709,
      "ĠsÃ¡h": 1710,
      "ĠrÅ¯z": 1711,
      "Ġlla": 1712,
      "ĠÄįu": 1713,
      "Ġvtu": 1714,
      "Ġlle": 1715,
      "Ġples": 1716,
      "Ġrty": 1717,
      "ĠvÅ¯d": 1718,
      "Ġkmo": 1719,
      "Ġvor": 1720,
      "ĠjÃŃmÅ¾": 1721,
      "Ġjez": 1722,
      "ĠhÃ¡m": 1723,
      "vy": 1724,
      "ĠblÃ½": 1725,
      "Ġbod": 1726,
      "Ġzdi": 1727,
      "Ġkus": 1728,
      "ĠÄıÃ¡": 1729,
      "Ġpsa": 1730,
      "ĠlÃŃk": 1731,
      "ĠzdrÃ¡": 1732,
      "Ġvroz": 1733,
      "Ġvzt": 1734,
      "Ġzar": 1735,
      "ĠkÅĻes": 1736,
      "ĠÅ¾er": 1737,
      "Ġmni": 1738,
      "Ġsnu": 1739,
      "Ġhlav": 1740,
      "ĠzlÃ¡": 1741,
      "Ġos": 1742,
      "Ġbyt": 1743,
      "Ġbru": 1744,
      "Ġprach": 1745,
      "ĠnÃ¡d": 1746,
      "ĠhÅĻÃŃch": 1747,
      "Ġctno": 1748,
      "Ġkbo": 1749,
      "Ġzba": 1750,
      "ĠÅ¡lech": 1751,
      "Ġkn": 1752,
      "ĠdnÃ©": 1753,
      "Ġvic": 1754,
      "vost": 1755,
      "ĠvstÃ¡": 1756,
      "Ġvstou": 1757,
      "ĠtÃŃÅ¡": 1758,
      "Ġvost": 1759,
      "Ġkej": 1760,
      "ĠdÃ¡n": 1761,
      "Ġrat": 1762,
      "Ġsit": 1763,
      "Ġklam": 1764,
      "ĠmÃŃm": 1765,
      "Ġchlu": 1766,
      "ĠkÅ¯v": 1767,
      "Ġvsa": 1768,
      "ĠÄįo": 1769,
      "ĠhÃ¡d": 1770,
      "ĠÅ¾dy": 1771,
      "ĠchceÅ¡": 1772,
      "ĠvyÅ¡": 1773,
      "Ġtok": 1774,
      "Ġvmy": 1775,
      "Ġzek": 1776,
      "Ġpros": 1777,
      "ĠsÅ¯m": 1778,
      "Ġdot": 1779,
      "ĠÄįÅ¯": 1780,
      "Ġskro": 1781,
      "Ġpoc": 1782,
      "ĠdlÃ½": 1783,
      "Ġkyt": 1784,
      "ĠpÄĽv": 1785,
      "ĠhÅ¯m": 1786,
      "ji": 1787,
      "ĠsluÅ¡": 1788,
      "Ġchej": 1789,
      "ĠnÃ¡ÅĻ": 1790,
      "Ġprs": 1791,
      "ĠsluÅ¾": 1792,
      "ĠdÃ¡ch": 1793,
      "ĠloÄı": 1794,
      "ĠÅ¡o": 1795,
      "AX": 1796,
      "Ġklet": 1797,
      "ĠztÄĽch": 1798,
      "Ġzlou": 1799,
      "ĠbÃ¡ch": 1800,
      "ĠvÅ¡ÃŃm": 1801,
      "Ġfr": 1802,
      "XAXAXB": 1803,
      "ĠskÅĻÃŃ": 1804,
      "Ġvin": 1805,
      "ĠÅĪo": 1806,
      "ĠbÅĻi": 1807,
      "ĠpÅĻÃŃÅ¡": 1808,
      "Ġvkr": 1809,
      "ĠznÄĽl": 1810,
      "ĠbÄĽd": 1811,
      "Ġstran": 1812,
      "ĠÅ¡ly": 1813,
      "Ġtur": 1814,
      "ĠbiÄį": 1815,
      "ĠvsÃŃ": 1816,
      "Ġluz": 1817,
      "ĠvsvÃ©m": 1818,
      "ĠslÃŃm": 1819,
      "ĠtÅĻil": 1820,
      "ĠdÃŃl": 1821,
      "Ġzkou": 1822,
      "ĠvÄĽÅ¡": 1823,
      "Ġfran": 1824,
      "ĠdÃ¡Å¡": 1825,
      "ĠvsvÃ©": 1826,
      "ze": 1827,
      "ĠvÄĽj": 1828,
      "ĠdvÃ¡": 1829,
      "Å¡e": 1830,
      "ĠÅĻÃŃÅ¡": 1831,
      "Ġzti": 1832,
      "Ġsob": 1833,
      "Ġzev": 1834,
      "Ġvzdor": 1835,
      "Ġcou": 1836,
      "Ġvdi": 1837,
      "Ġdoj": 1838,
      "Ġx": 1839,
      "Ġbled": 1840,
      "ĠnÃ¡c": 1841,
      "Ġpel": 1842,
      "ĠstÃ©m": 1843,
      "ĠÅĻec": 1844,
      "Ġken": 1845,
      "Ġlan": 1846,
      "ĠplÃŃ": 1847,
      "Ġhloub": 1848,
      "ĠzvlÃ¡Å¡": 1849,
      "ĠzÄįe": 1850,
      "Ġhol": 1851,
      "Ġzat": 1852,
      "ĠslÃ½": 1853,
      "Ġpur": 1854,
      "ĠtÄĽj": 1855,
      "Ġhar": 1856,
      "ĠlÃ¡ch": 1857,
      "Ġfo": 1858,
      "Ġvrat": 1859,
      "Ġzpu": 1860,
      "Ġsmi": 1861,
      "ma": 1862,
      "18": 1863,
      "ĠzÃŃm": 1864,
      "ĠstvÃŃm": 1865,
      "Ġtlou": 1866,
      "Ġvhlou": 1867,
      "ĠkrÅ¯": 1868,
      "Ġkaz": 1869,
      "Ġgra": 1870,
      "Ġtri": 1871,
      "Ġblud": 1872,
      "Ġzdu": 1873,
      "ĠhluÄį": 1874,
      "Ġvzde": 1875,
      "ĠvÅ¡a": 1876,
      "ĠpeÄį": 1877,
      "lad": 1878,
      "ĠdnÅ¯": 1879,
      "ĠmlÃ½": 1880,
      "Ġdok": 1881,
      "Ġtov": 1882,
      "Ġsbor": 1883,
      "ĠpÃ¡r": 1884,
      "Ġvstal": 1885,
      "ĠvÃŃr": 1886,
      "Ġmon": 1887,
      "Ġhost": 1888,
      "Ġvji": 1889,
      "Ġhrou": 1890,
      "Ġplod": 1891,
      "ĠdiÅ¾": 1892,
      "Ġbel": 1893,
      "Ġvto": 1894,
      "Ġchlo": 1895,
      "Ġdrav": 1896,
      "Ġlat": 1897,
      "ĠstrÃ¡Å¾": 1898,
      "Ġrost": 1899,
      "ĠvdÄĽÄį": 1900,
      "Ġbre": 1901,
      "Ġlli": 1902,
      "ĠjvÃŃ": 1903,
      "ĠzpÃ¡t": 1904,
      "ĠÅĪu": 1905,
      "Ġvsp": 1906,
      "Ġzch": 1907,
      "Ġvso": 1908,
      "Ġtve": 1909,
      "Ġsje": 1910,
      "Ġbin": 1911,
      "Ġkrut": 1912,
      "ĠvkaÅ¾": 1913,
      "vou": 1914,
      "ĠvÅ¡ic": 1915,
      "Ġkop": 1916,
      "Ġruch": 1917,
      "Ġzko": 1918,
      "Ġslech": 1919,
      "Å¯d": 1920,
      "Ġteh": 1921,
      "ĠsaÅĻ": 1922,
      "ĠvÅĻa": 1923,
      "Ġvjed": 1924,
      "Ġmli": 1925,
      "ĠzÃº": 1926,
      "Ġdni": 1927,
      "Ġzav": 1928,
      "Ġchli": 1929,
      "ĠsvÃ¡t": 1930,
      "Ġdny": 1931,
      "ĠÄįty": 1932,
      "ĠblÃ½s": 1933,
      "Ã¡m": 1934,
      "ĠÅ¡it": 1935,
      "Ġmed": 1936,
      "ĠvmÄĽ": 1937,
      "Ġpln": 1938,
      "Ġlze": 1939,
      "ĠklÃŃn": 1940,
      "AAXB": 1941,
      "ĠÅĻad": 1942,
      "Ġnus": 1943,
      "Ġthe": 1944,
      "Ġren": 1945,
      "Ġplou": 1946,
      "ĠhnÃŃz": 1947,
      "ĠÅ¡er": 1948,
      "Ġvsm": 1949,
      "Ġhoch": 1950,
      "Ġlech": 1951,
      "ĠsÃŃch": 1952,
      "ĠknÄĽz": 1953,
      "Ġpes": 1954,
      "ĠzpÅ¯": 1955,
      "ĠkÃ½s": 1956,
      "Ġtat": 1957,
      "ĠhlÃ½": 1958,
      "Ġsyl": 1959,
      "Ġzhy": 1960,
      "ĠstÅĻi": 1961,
      "Ġnnost": 1962,
      "ĠmrÃ¡z": 1963,
      "ĠslÃ©z": 1964,
      "ĠtvÃ©m": 1965,
      "Ġdum": 1966,
      "Ġvlh": 1967,
      "Ġhez": 1968,
      "Ġzvon": 1969,
      "ĠmÄĽst": 1970,
      "Ġklou": 1971,
      "Ġvsi": 1972,
      "ĠniÅ¾": 1973,
      "Ġrev": 1974,
      "ĠslÅ¯": 1975,
      "qu": 1976,
      "ĠmlÄį": 1977,
      "ĠkÃ¡n": 1978,
      "Ġnaz": 1979,
      "Ġzpra": 1980,
      "ĠvlÃ¡s": 1981,
      "ĠsÃº": 1982,
      "ĠreÄį": 1983,
      "Ġvtem": 1984,
      "ĠÅ¡in": 1985,
      "ĠuÅ¡": 1986,
      "Ġnoch": 1987,
      "Ġvzle": 1988,
      "Ġzhou": 1989,
      "ĠstÅĻel": 1990,
      "Ġqu": 1991,
      "ĠÅ¾as": 1992,
      "Ġhna": 1993,
      "ĠspÃŃÅ¡": 1994,
      "ĠhrÃ¡l": 1995,
      "Ġjan": 1996,
      "Ġzyk": 1997,
      "Ġtmy": 1998,
      "Ġhm": 1999,
      "Ġlam": 2000,
      "Ġvkra": 2001,
      "ĠkÃ©Å¾": 2002,
      "ĠÅ¾ÃŃÅ¡": 2003,
      "Ġslal": 2004,
      "ĠÅĻk": 2005,
      "Ġblan": 2006,
      "ĠsplÃ½": 2007,
      "ĠpÃ¡d": 2008,
      "Ġdom": 2009,
      "ĠpÅĻÃŃm": 2010,
      "Ġodv": 2011,
      "ĠÅ¡pat": 2012,
      "Ġhn": 2013,
      "Ġnot": 2014,
      "Ġzha": 2015,
      "Ġhas": 2016,
      "ĠdeÄį": 2017,
      "Ġspu": 2018,
      "Ġpli": 2019,
      "ĠvznÃ¡": 2020,
      "ĠrÃ¡j": 2021,
      "Ġnos": 2022,
      "ĠÅĻÃŃch": 2023,
      "Ġkan": 2024,
      "ĠstaÅĪ": 2025,
      "ĠchÃ¡m": 2026,
      "ĠplÃ¡Äį": 2027,
      "ĠveÅ¡": 2028,
      "ĠtÃ¡n": 2029,
      "ĠskÅĻi": 2030,
      "ĠzlÃ½": 2031,
      "Ġsad": 2032,
      "Ġstla": 2033,
      "Ġvhla": 2034,
      "Ġksrd": 2035,
      "zd": 2036,
      "ĠschvÃ¡": 2037,
      "ĠkÅĻiv": 2038,
      "Ġmoz": 2039,
      "ĠcÃŃl": 2040,
      "ĠvklÃŃ": 2041,
      "ĠvstÃŃ": 2042,
      "to": 2043,
      "Ġjdu": 2044,
      "Ġzvi": 2045,
      "ĠtiÄį": 2046,
      "Ġvyh": 2047,
      "ĠnosÅ¥": 2048,
      "Ġkup": 2049,
      "Ġ1800": 2050,
      "Ġlesk": 2051,
      "ĠvÄĽst": 2052,
      "vÄĽt": 2053,
      "Ġskut": 2054,
      "Ġdec": 2055,
      "ĠtrÅ¯n": 2056,
      "Ġknim": 2057,
      "Ġnap": 2058,
      "ĠtÃ³": 2059,
      "ĠkvÃŃt": 2060,
      "ĠvbÃŃ": 2061,
      "Ġskvost": 2062,
      "Ġneh": 2063,
      "Ġdnem": 2064,
      "Ġzdro": 2065,
      "Ġviz": 2066,
      "Ġzdr": 2067,
      "ABCB": 2068,
      "ĠmÃ¡t": 2069,
      "Ġer": 2070,
      "Ġvtip": 2071,
      "Ġchi": 2072,
      "Ġhon": 2073,
      "Ġvpou": 2074,
      "ĠtÃŃÅ¾": 2075,
      "Ġtud": 2076,
      "ĠmÄĽt": 2077,
      "ĠnnÃ½ch": 2078,
      "ĠvnÃŃÅ¾": 2079,
      "ĠtÅ¯m": 2080,
      "Ġstry": 2081,
      "Ġchet": 2082,
      "ĠÅ¾to": 2083,
      "ĠdvÅ¯r": 2084,
      "Ġkst": 2085,
      "ĠÄįech": 2086,
      "ĠnÃŃÅ¡": 2087,
      "Ġmus": 2088,
      "ĠÅ¾Å¯": 2089,
      "Ġniv": 2090,
      "ĠvÄĽl": 2091,
      "Ġpec": 2092,
      "Ġzvl": 2093,
      "Ġdvou": 2094,
      "ĠmlÃ¡d": 2095,
      "ĠlÅ¯m": 2096,
      "ĠsprÃ¡": 2097,
      "Ġskon": 2098,
      "Ġdrech": 2099,
      "ĠbÃ¡l": 2100,
      "ĠstrÃ©": 2101,
      "ĠskrÃ¡ÅĪ": 2102,
      "hou": 2103,
      "ĠvnitÅĻ": 2104,
      "Ġlic": 2105,
      "Ġvry": 2106,
      "Ġvet": 2107,
      "Ġlev": 2108,
      "Ġclav": 2109,
      "Ġtev": 2110,
      "Ġzbro": 2111,
      "Ġlis": 2112,
      "ĠÅĻist": 2113,
      "Ġchut": 2114,
      "Ġkev": 2115,
      "ĠtmÄĽ": 2116,
      "led": 2117,
      "ĠstÃ½ch": 2118,
      "Ġplat": 2119,
      "Ġzlem": 2120,
      "ĠÅ¥an": 2121,
      "Ġkruh": 2122,
      "ĠsbÃŃ": 2123,
      "Ġvkou": 2124,
      "Ġvse": 2125,
      "ĠvnichÅ¾": 2126,
      "ĠvpÅĻÃŃ": 2127,
      "Ġznal": 2128,
      "ĠÅ¥ast": 2129,
      "ĠpoÅ¡": 2130,
      "ĠÅ¾eb": 2131,
      "ĠvpÅĻed": 2132,
      "ĠÅ¡ÃŃÅ¡": 2133,
      "ĠdÃŃk": 2134,
      "Ġclo": 2135,
      "Ġzho": 2136,
      "ĠmiÅ¾": 2137,
      "ĠvpÃŃ": 2138,
      "Ġjdi": 2139,
      "ĠÅ¾ek": 2140,
      "Ġjat": 2141,
      "ĠvÄĽÄı": 2142,
      "Ġpast": 2143,
      "Ġstan": 2144,
      "ĠcÃ½m": 2145,
      "Ġkvi": 2146,
      "ĠÅ¡tÃŃt": 2147,
      "ĠnÄĽch": 2148,
      "Ġvzbu": 2149,
      "ĠzkrÃ¡": 2150,
      "Ġmec": 2151,
      "Ġtrys": 2152,
      "ĠcÃ½ch": 2153,
      "Ġprch": 2154,
      "Ġcest": 2155,
      "ĠpojÄı": 2156,
      "ĠcÃŃr": 2157,
      "ĠvtÄĽch": 2158,
      "ĠoÄį": 2159,
      "Ġsnem": 2160,
      "ĠzÅĻÃŃt": 2161,
      "Ġej": 2162,
      "Ġmlou": 2163,
      "ABBACC": 2164,
      "Ġfer": 2165,
      "ĠÅĪÃ¡": 2166,
      "Ġzte": 2167,
      "ĠpÄĽj": 2168,
      "AXAX": 2169,
      "ABBCC": 2170,
      "Ġpas": 2171,
      "Ġstvu": 2172,
      "Ġbl": 2173,
      "ĠpeÅ¾": 2174,
      "ĠmÅĻel": 2175,
      "re": 2176,
      "ĠtÄĽs": 2177,
      "ĠtnÃŃ": 2178,
      "ĠsliÄį": 2179,
      "ĠmÅ¯Å¾": 2180,
      "Ġblak": 2181,
      "Ġhi": 2182,
      "ĠctÃŃ": 2183,
      "Ġvrouc": 2184,
      "ĠA": 2185,
      "ÃŃt": 2186,
      "ĠÅ¡kle": 2187,
      "Ġrus": 2188,
      "ĠÄįte": 2189,
      "Ġnau": 2190,
      "ĠÅ¡vi": 2191,
      "ĠtrÃ½": 2192,
      "Ġhvo": 2193,
      "Ġchot": 2194,
      "Ġouz": 2195,
      "ĠhlÃ©d": 2196,
      "Ġliv": 2197,
      "ĠÅ¾rou": 2198,
      "ĠkÅ¡": 2199,
      "ĠtÃŃch": 2200,
      "Ġsno": 2201,
      "ĠknÄĽÅ¾": 2202,
      "Ġchyt": 2203,
      "Ġvn": 2204,
      "ĠzdaÅ¾": 2205,
      "ĠlkÃ¡": 2206,
      "ĠÄıas": 2207,
      "ĠlÃ¡m": 2208,
      "Ġllo": 2209,
      "ĠtlÃ½": 2210,
      "ĠzaÄį": 2211,
      "Ġkmet": 2212,
      "Ġvkte": 2213,
      "ĠchÃ©m": 2214,
      "ĠtÃ¡ÅĻ": 2215,
      "ĠnÃ¡t": 2216,
      "Ġstoj": 2217,
      "Ġdna": 2218,
      "ĠlÃŃÄį": 2219,
      "Ġvte": 2220,
      "ĠklÃ½": 2221,
      "ĠtvÃ½": 2222,
      "Ġrech": 2223,
      "ĠvzkÅĻi": 2224,
      "Ġvnu": 2225,
      "ĠzÃ¡m": 2226,
      "Ġsot": 2227,
      "ĠÅĻej": 2228,
      "Ġrd": 2229,
      "Ġav": 2230,
      "ĠvplÃ¡": 2231,
      "ĠvlÅ¯": 2232,
      "ĠhÅĻbi": 2233,
      "ĠÅ¾eÅ¡": 2234,
      "Ġkel": 2235,
      "ĠkÄįe": 2236,
      "ĠpsÃ¡": 2237,
      "ĠrtÅ¯": 2238,
      "ĠstÃ½m": 2239,
      "AXBB": 2240,
      "Ġsf": 2241,
      "ĠtÃŃÅĻ": 2242,
      "Ġksm": 2243,
      "AC": 2244,
      "Ġstih": 2245,
      "ABAA": 2246,
      "ĠchÃ½m": 2247,
      "ĠpÃ¡s": 2248,
      "ĠspÄĽÅ¡": 2249,
      "Ġchom": 2250,
      "Ġmdlo": 2251,
      "ĠmÄĽch": 2252,
      "ĠdlaÅĪ": 2253,
      "Ġsnil": 2254,
      "ĠzÃ¡Å¡": 2255,
      "Ġvzdo": 2256,
      "ĠhÅĻÃŃÅ¡": 2257,
      "Ġvbe": 2258,
      "ĠdÃ©l": 2259,
      "ĠtÃ¡ch": 2260,
      "Ġzs": 2261,
      "Ġkdos": 2262,
      "Ġdb": 2263,
      "ĠkdeÅ¾": 2264,
      "Ġslib": 2265,
      "ĠÅ¾rout": 2266,
      "Ġvyr": 2267,
      "Ġdev": 2268,
      "Ġvple": 2269,
      "ĠjvÃŃc": 2270,
      "Ġdic": 2271,
      "et": 2272,
      "Ġrec": 2273,
      "ĠlaÄį": 2274,
      "AABCBC": 2275,
      "Ġfu": 2276,
      "Ġpis": 2277,
      "Ġjvy": 2278,
      "Ġvzch": 2279,
      "ĠbdÄĽ": 2280,
      "ĠÄįar": 2281,
      "ĠplÃ¡Å¡Å¥": 2282,
      "Ġstl": 2283,
      "ĠnÄĽmÅ¾": 2284,
      "Ġbek": 2285,
      "ĠbÃ¡j": 2286,
      "ĠÅ¾ÃŃz": 2287,
      "ĠlÃ¡t": 2288,
      "Ġvyj": 2289,
      "ĠvzplÃ¡": 2290,
      "Ġvmi": 2291,
      "Ġbej": 2292,
      "Ġchmur": 2293,
      "ĠÅĻo": 2294,
      "Ġnli": 2295,
      "Ġklen": 2296,
      "Å¾ÃŃ": 2297,
      "ĠchlÃ©b": 2298,
      "Ġlad": 2299,
      "ĠplÃ¡l": 2300,
      "nÃ©": 2301,
      "Ġlst": 2302,
      "Ġhnal": 2303,
      "Ġhbi": 2304,
      "ĠbÅĻeh": 2305,
      "Ġnov": 2306,
      "Ġpsal": 2307,
      "ĠstÅ¯l": 2308,
      "ĠmÄĽÅ¡": 2309,
      "ĠzvÄĽst": 2310,
      "Ġtrud": 2311,
      "ĠmÃ¡l": 2312,
      "XAXB": 2313,
      "ĠpÃŃm": 2314,
      "Ġgon": 2315,
      "Ġtlem": 2316,
      "Ġvhlu": 2317,
      "Ġsvor": 2318,
      "Ġjov": 2319,
      "ĠzbraÅĪ": 2320,
      "Ġzah": 2321,
      "Ġkmit": 2322,
      "ĠÅ¾ik": 2323,
      "Ġzam": 2324,
      "Ġpras": 2325,
      "Ġzmu": 2326,
      "ĠvÄįer": 2327,
      "ĠjvyÅ¡": 2328,
      "ĠrÃ¡z": 2329,
      "ĠÅ¡ak": 2330,
      "Ġlud": 2331,
      "AXBC": 2332,
      "Ġstrh": 2333,
      "Ġvpu": 2334,
      "ĠvÃ¡ch": 2335,
      "ĠÅ¾ÃŃch": 2336,
      "ĠpusÅ¥": 2337,
      "ĠÅ¡pi": 2338,
      "ĠcÅ¯v": 2339,
      "Ġdan": 2340,
      "Ġblouz": 2341,
      "Ġdrs": 2342,
      "Ġvnad": 2343,
      "Ġspal": 2344,
      "ĠksvÃ©": 2345,
      "Ġtej": 2346,
      "Ġzlost": 2347,
      "Ġfan": 2348,
      "Ġmov": 2349,
      "Ġhluk": 2350,
      "Ġjiz": 2351,
      "Ġvpe": 2352,
      "ĠmrÃ¡": 2353,
      "ĠvÃ½s": 2354,
      "Ġvek": 2355,
      "ĠlÃ©b": 2356,
      "Ġfor": 2357,
      "ĠcÃ¡": 2358,
      "Ġvten": 2359,
      "Ġspla": 2360,
      "Ġrte": 2361,
      "Ġrtech": 2362,
      "ĠtiÅ¾": 2363,
      "ĠjimÅ¾": 2364,
      "ĠtÃ¡z": 2365,
      "ĠbÃ¡m": 2366,
      "ABBCCD": 2367,
      "ĠÅ¥Ã¡": 2368,
      "ĠmnÃŃ": 2369,
      "Ġbrov": 2370,
      "Ġdol": 2371,
      "ĠstÅĻÃ¡": 2372,
      "ĠÄįÃ¡t": 2373,
      "Ġstel": 2374,
      "ĠzkÃ¡": 2375,
      "ĠsÄįe": 2376,
      "Ġstus": 2377,
      "ĠtlÃ¡": 2378,
      "ĠmoÅĻ": 2379,
      "ĠvdÄĽk": 2380,
      "Ġlos": 2381,
      "ĠÅ¾et": 2382,
      "Ġsech": 2383,
      "ĠvmÃ©": 2384,
      "mou": 2385,
      "Ã¡n": 2386,
      "ĠhlÃŃd": 2387,
      "Ġvzru": 2388,
      "Ġvbou": 2389,
      "ĠklÃ¡Å¡": 2390,
      "Ġtich": 2391,
      "Ġvzni": 2392,
      "Ġvrch": 2393,
      "Ġvja": 2394,
      "Ġmih": 2395,
      "ĠvtvÃ¡ÅĻ": 2396,
      "Ġroj": 2397,
      "ĠÅ¥u": 2398,
      "Ġzpa": 2399,
      "ĠvrÃ¡s": 2400,
      "ĠpÅĻej": 2401,
      "Ġhut": 2402,
      "Ġlho": 2403,
      "ĠblÃ¡z": 2404,
      "Ġnam": 2405,
      "ĠtÅĻpyt": 2406,
      "ĠvÅ¡ed": 2407,
      "ĠdnÄĽ": 2408,
      "Ġsmo": 2409,
      "Ġvskut": 2410,
      "ĠÃºst": 2411,
      "Ġchyb": 2412,
      "Ġvar": 2413,
      "Ġjit": 2414,
      "ĠpohÅĻ": 2415,
      "Ġkap": 2416,
      "Ġvech": 2417,
      "ĠzdÃŃ": 2418,
      "ĠtÅĻeÅ¡": 2419,
      "ĠzvlÃ¡Å¡Å¥": 2420,
      "Ġkos": 2421,
      "Ã¡ch": 2422,
      "ĠplÃ½": 2423,
      "Ġvsou": 2424,
      "ĠtuÄį": 2425,
      "Ġstes": 2426,
      "ĠdoÄį": 2427,
      "ĠtÄĽn": 2428,
      "ĠhÅĻb": 2429,
      "ĠÅ¡Å¥a": 2430,
      "ĠvlÃ©": 2431,
      "Ġsan": 2432,
      "ĠraÄį": 2433,
      "Ġchol": 2434,
      "ĠmrÅ¡": 2435,
      "Ġner": 2436,
      "ĠtuÅ¥": 2437,
      "ĠÄįnÃŃ": 2438,
      "ĠsmÃ¡l": 2439,
      "ĠvÃ¡b": 2440,
      "ĠÅ¡va": 2441,
      "Ġzet": 2442,
      "Ġsat": 2443,
      "ĠdnÃ½": 2444,
      "ĠtÃ½l": 2445,
      "ĠjÃ¡k": 2446,
      "Ġzhro": 2447,
      "ĠsrÃ¡": 2448,
      "Ġtmou": 2449,
      "Ġsse": 2450,
      "ĠhÃ¡ch": 2451,
      "ĠzvuÄį": 2452,
      "Ġstesk": 2453,
      "Ġlel": 2454,
      "ĠvrÃ¡z": 2455,
      "ĠkÅ¯ÅĪ": 2456,
      "Ġvc": 2457,
      "ĠvklÃŃn": 2458,
      "ĠvsnÄĽ": 2459,
      "ĠsnÄĽÅ¾": 2460,
      "Ġvist": 2461,
      "Ġvkro": 2462,
      "Ġjle": 2463,
      "Ġkryl": 2464,
      "Ġzhu": 2465,
      "ĠzmÃ¡": 2466,
      "ABCDCD": 2467,
      "Ġvzla": 2468,
      "ĠvraÅ¥": 2469,
      "Ġmot": 2470,
      "Ġtrest": 2471,
      "Ġryb": 2472,
      "ĠvmÃŃ": 2473,
      "Ġzdvih": 2474,
      "ĠÄįiv": 2475,
      "Ġvbu": 2476,
      "Ġzble": 2477,
      "Ġstez": 2478,
      "ĠvÄįas": 2479,
      "ĠsÃ©": 2480,
      "AXX": 2481,
      "ĠzhlÃŃ": 2482,
      "ĠjeÅ¥": 2483,
      "ĠhnÃ¡": 2484,
      "val": 2485,
      "Ġdon": 2486,
      "Ġcek": 2487,
      "Ġstud": 2488,
      "ĠstÅ¯j": 2489,
      "Ġrol": 2490,
      "Ġsym": 2491,
      "ĠprÃ¡h": 2492,
      "Ġzj": 2493,
      "Ġraj": 2494,
      "Ġbrat": 2495,
      "ĠlÃŃp": 2496,
      "Ġsj": 2497,
      "ĠchÃ½ch": 2498,
      "ĠÅ¡eÅĪ": 2499,
      "ĠpÃŃÅ¡": 2500,
      "Ġvztek": 2501,
      "ĠÅĻu": 2502,
      "ĠbÄĽÅ¥": 2503,
      "ĠztÃ©": 2504,
      "Ġjsouc": 2505,
      "ĠnÅ¯v": 2506,
      "Ġvtv": 2507,
      "Ġvab": 2508,
      "Ġlib": 2509,
      "Ġdov": 2510,
      "ĠlÃ¡n": 2511,
      "ĠspÄĽl": 2512,
      "Ġchvat": 2513,
      "ĠbrÃ¡z": 2514,
      "ĠtÅĻÃ¡s": 2515,
      "Ġut": 2516,
      "Ġsvr": 2517,
      "ABABAB": 2518,
      "ĠdneÅ¡": 2519,
      "Ġsha": 2520,
      "ĠpouÅ¥": 2521,
      "ĠdÃ©Å¡Å¥": 2522,
      "Ġmost": 2523,
      "Ġsple": 2524,
      "Ġbis": 2525,
      "Ġsluch": 2526,
      "ĠsdÄĽ": 2527,
      "Ġplach": 2528,
      "Ġstrou": 2529,
      "ĠleÅ¾": 2530,
      "ĠÅ¡lÃŃ": 2531,
      "Ġzpi": 2532,
      "ĠÄıa": 2533,
      "ĠmnoÅ¾": 2534,
      "Ġdvor": 2535,
      "Ġztr": 2536,
      "Ġzkr": 2537,
      "Ġstor": 2538,
      "Ġpiv": 2539,
      "ĠkvÃ©": 2540,
      "ĠhÅĻmÄĽ": 2541,
      "Ġmsti": 2542,
      "ĠtÃŃs": 2543,
      "Ġkous": 2544,
      "Ġel": 2545,
      "Ġkom": 2546,
      "ĠÅ¾es": 2547,
      "Ġdrost": 2548,
      "Ġkul": 2549,
      "ĠdlÃ½ch": 2550,
      "Ġdvi": 2551,
      "ĠkvÃ¡m": 2552,
      "ĠstÃ¡r": 2553,
      "Ġskrom": 2554,
      "ĠmeÅ¡": 2555,
      "19": 2556,
      "Ġhry": 2557,
      "ĠjvÄĽt": 2558,
      "Ġkmen": 2559,
      "Ġvaz": 2560,
      "AAXX": 2561,
      "ABBACD": 2562,
      "Ġvrah": 2563,
      "ĠchraÅĪ": 2564,
      "Ġvles": 2565,
      "ĠÅ¾iÅ¾": 2566,
      "ĠzÃ¡ch": 2567,
      "ĠbÃ¡t": 2568,
      "ĠtÅ¯v": 2569,
      "ĠchÅĻi": 2570,
      "Ġkje": 2571,
      "ĠchaÅ¥": 2572,
      "Ġvprav": 2573,
      "ĠnnÃ½m": 2574,
      "Ġstly": 2575,
      "ĠÅ¡Å¯": 2576,
      "Ġbat": 2577,
      "Ġzpr": 2578,
      "Ġmly": 2579,
      "Ġvzpla": 2580,
      "ĠÄįtvr": 2581,
      "ĠprÃ¡v": 2582,
      "Ġteb": 2583,
      "ĠvÃŃÄį": 2584,
      "ĠznÃ¡Å¡": 2585,
      "ĠtÅĻÃŃs": 2586,
      "ĠspÃ¡n": 2587,
      "ĠsÃŃÅ¡": 2588,
      "ĠmÅĻÃŃt": 2589,
      "Ġslem": 2590,
      "ĠdÃ¡ÅĻ": 2591,
      "ĠmÅ¾ik": 2592,
      "Ġstis": 2593,
      "ĠÅĻÃŃc": 2594,
      "ĠvzrÅ¯": 2595,
      "ĠkeÅĻ": 2596,
      "Ġnas": 2597,
      "ĠbdÃŃ": 2598,
      "ĠtÅĻÃŃÅ¡": 2599,
      "Ġknul": 2600,
      "Ġslz": 2601,
      "Ġvma": 2602,
      "Ġvda": 2603,
      "Ġslel": 2604,
      "Ġshla": 2605,
      "ĠhÅ¯l": 2606,
      "ĠÄįÃ¡st": 2607,
      "Ġmrav": 2608,
      "Ġvme": 2609,
      "ĠhÃ¡j": 2610,
      "Ġrci": 2611,
      "ĠvbÄĽ": 2612,
      "Ġbly": 2613,
      "Ġzej": 2614,
      "ĠtvÅ¯r": 2615,
      "Ġzhlu": 2616,
      "ĠznichÅ¾": 2617,
      "Ġhyb": 2618,
      "Ġvslun": 2619,
      "ĠdÄĽd": 2620,
      "Ġtul": 2621,
      "XABB": 2622,
      "Ġprsk": 2623,
      "Ġzin": 2624,
      "Ġdrou": 2625,
      "AABBCD": 2626,
      "Ġzlu": 2627,
      "Ġspe": 2628,
      "ĠkÃ¡Å¡": 2629,
      "Ġvml": 2630,
      "Ġspl": 2631,
      "ĠÅ¾hou": 2632,
      "ĠÄįist": 2633,
      "Ġbran": 2634,
      "Ġnouc": 2635,
      "ĠspÄĽch": 2636,
      "Ġbur": 2637,
      "ĠschÃ¡": 2638,
      "ĠstvÃ¡": 2639,
      "Ġprin": 2640,
      "Ġki": 2641,
      "ĠtÅĻÃŃm": 2642,
      "Ġkrov": 2643,
      "ĠzvÄĽÅĻ": 2644,
      "Ġvci": 2645,
      "Ġhvoz": 2646,
      "ĠdÃŃc": 2647,
      "ĠvÅĪa": 2648,
      "ĠhrÃ¡t": 2649,
      "ĠhÅĻmÃŃ": 2650,
      "Ġvprach": 2651,
      "ĠtÃŃc": 2652,
      "ABXB": 2653,
      "ĠsÃŃÅĪ": 2654,
      "Ġllu": 2655,
      "ĠsvÅ¯d": 2656,
      "Ġjek": 2657,
      "ĠviÅ¡": 2658,
      "Ġnet": 2659,
      "ĠkÅĻou": 2660,
      "Ġses": 2661,
      "ĠdraÅ¾": 2662,
      "Ġvku": 2663,
      "ĠnÄĽz": 2664,
      "Ġkslu": 2665,
      "ĠdeÅ¾": 2666,
      "ĠsmrÅ¥": 2667,
      "ĠvÃŃs": 2668,
      "Ġchti": 2669,
      "ĠvpÅ¯": 2670,
      "Ġvpla": 2671,
      "Ġkout": 2672,
      "Ġvran": 2673,
      "ĠvÅ¯m": 2674,
      "Ġjev": 2675,
      "ĠdrÃ½ch": 2676,
      "ĠÅĻin": 2677,
      "ĠstÄĽn": 2678,
      "ĠvchrÃ¡": 2679,
      "Ġmnich": 2680,
      "Ġfy": 2681,
      "Ġvkru": 2682,
      "Ġvdla": 2683,
      "ĠvznÄĽ": 2684,
      "ĠzeÄı": 2685,
      "Ġchlap": 2686,
      "Ġskla": 2687,
      "ĠkÃ¡ÅĻ": 2688,
      "Ġw": 2689,
      "ĠvmÃ©m": 2690,
      "ĠveÅĪ": 2691,
      "ĠÄįtve": 2692,
      "Ġram": 2693,
      "ĠnichÅ¾": 2694,
      "ĠchlÃ¡": 2695,
      "Ġtkli": 2696,
      "Ġhmo": 2697,
      "ĠspÃ¡t": 2698,
      "ĠmlÃ½n": 2699,
      "Ġvhru": 2700,
      "Ġmas": 2701,
      "Ġmrz": 2702,
      "ĠsplÃ¡": 2703,
      "Ġvhu": 2704,
      "Ġsar": 2705,
      "Ġzml": 2706,
      "Ġvzlet": 2707,
      "Ġzji": 2708,
      "ĠvzÃ½": 2709,
      "ĠÄįert": 2710,
      "Ġhlub": 2711,
      "Ġtka": 2712,
      "ĠsmÄĽs": 2713,
      "Ġstek": 2714,
      "Ġzpod": 2715,
      "Ġvmra": 2716,
      "ĠmÃ¡Å¥": 2717,
      "ABAC": 2718,
      "Ġvcho": 2719,
      "lÃ½ch": 2720,
      "Ġvhod": 2721,
      "Ġluj": 2722,
      "Ġstroj": 2723,
      "ĠtlÃŃ": 2724,
      "Ġspol": 2725,
      "ĠhouÅ¡": 2726,
      "Ġspor": 2727,
      "Ġvtr": 2728,
      "Ġsce": 2729,
      "ĠzÅĻÃŃÅ¡": 2730,
      "ĠzraÄį": 2731,
      "ĠÅ¡est": 2732,
      "ĠmÄĽr": 2733,
      "Ġkho": 2734,
      "Ġvlu": 2735,
      "ĠdÃ¡k": 2736,
      "Ġlles": 2737,
      "Ġlom": 2738,
      "ĠlÃ¡c": 2739,
      "Ġvsva": 2740,
      "Ġklas": 2741,
      "ĠkÃº": 2742,
      "ĠoÅ¡": 2743,
      "mÄĽ": 2744,
      "ĠvpÃŃs": 2745,
      "Ġmin": 2746,
      "Ġvyp": 2747,
      "ĠmÃ¡ch": 2748,
      "ĠjmÄĽ": 2749,
      "ĠsÃºs": 2750,
      "Ġfou": 2751,
      "Ġvboj": 2752,
      "Ġluh": 2753,
      "ĠblÃ©": 2754,
      "ĠnÃ¡n": 2755,
      "Ġslast": 2756,
      "ĠplÃ¡Å¡": 2757,
      "ĠkvÃ½": 2758,
      "ĠmÃ¡j": 2759,
      "ĠsmÄĽÅ¡": 2760,
      "Ġlsti": 2761,
      "ĠtiÅ¡": 2762,
      "Ġzja": 2763,
      "ĠlÅ¯Å¾": 2764,
      "Ġjlep": 2765,
      "ĠzÄįer": 2766,
      "ĠzdrÃ¡v": 2767,
      "Ġrve": 2768,
      "Ġnach": 2769,
      "Ġdnu": 2770,
      "ĠhlÃ½ch": 2771,
      "ĠdÄĽn": 2772,
      "Ġzit": 2773,
      "ĠÅ¡leh": 2774,
      "nd": 2775,
      "ĠnoÅ¾": 2776,
      "ĠdrÃ¡Å¾": 2777,
      "Ġster": 2778,
      "ĠhrÅ¯z": 2779,
      "Ġpre": 2780,
      "ĠpÅĻiz": 2781,
      "ĠbrÃ¡k": 2782,
      "ĠvÄĽÅ¾": 2783,
      "ĠchoÅ¥": 2784,
      "Ġzmr": 2785,
      "Ġmle": 2786,
      "Ġcas": 2787,
      "Ġryt": 2788,
      "Ġvpl": 2789,
      "Ġstit": 2790,
      "ĠÅ¡im": 2791,
      "ĠÅĻel": 2792,
      "Ġzpro": 2793,
      "ĠvstÅĻe": 2794,
      "Ġlich": 2795,
      "ĠplÃ¡t": 2796,
      "ĠsmÄĽl": 2797,
      "ĠzÃºst": 2798,
      "Ġsc": 2799,
      "ĠkÅĻo": 2800,
      "Ġchro": 2801,
      "Ġptal": 2802,
      "ĠvaÅ¥": 2803,
      "Ġdlel": 2804,
      "Ġbri": 2805,
      "Ġbrem": 2806,
      "Ġzad": 2807,
      "Ġstic": 2808,
      "Ġkryt": 2809,
      "ĠbÄĽl": 2810,
      "Ġlok": 2811,
      "ĠvzpÃŃ": 2812,
      "Ġpek": 2813,
      "ĠzlÃ½ch": 2814,
      "ĠdÅĻi": 2815,
      "ĠpÃŃt": 2816,
      "ĠtuÅ¾": 2817,
      "Ġmlad": 2818,
      "XC": 2819,
      "Ġvprou": 2820,
      "ĠÅ¡ka": 2821,
      "ĠkÅ¾i": 2822,
      "ĠstkvÄĽ": 2823,
      "Ġzkve": 2824,
      "Ġmuk": 2825,
      "ĠÅ¡var": 2826,
      "Ġzrov": 2827,
      "Ġzhlou": 2828,
      "ĠbrÃ½ch": 2829,
      "ĠÄıte": 2830,
      "ĠÅ¾eÅĪ": 2831,
      "Ġschop": 2832,
      "Ġzpou": 2833,
      "ĠvÃŃk": 2834,
      "ĠkzÃ¡": 2835,
      "ĠdnÃ¡": 2836,
      "ĠznÃ¡s": 2837,
      "nÃ½": 2838,
      "Ġstlo": 2839,
      "Ġksou": 2840,
      "Ġzhoub": 2841,
      "ĠchÃ¡ch": 2842,
      "ĠstrÃ½c": 2843,
      "ĠdlÃ¡k": 2844,
      "Ġkvo": 2845,
      "ĠsmÃ½": 2846,
      "Ġtvi": 2847,
      "ĠhvÃŃ": 2848,
      "Ġrin": 2849,
      "ĠschÃ½": 2850,
      "Ġptac": 2851,
      "ĠjÃŃÅ¡": 2852,
      "Ġsvat": 2853,
      "Ġmez": 2854,
      "ur": 2855,
      "ĠstrÃ½Äį": 2856,
      "ĠpÅĻel": 2857,
      "Ġspja": 2858,
      "ĠsÃŃÄį": 2859,
      "Ġkna": 2860,
      "ĠtvÄĽ": 2861,
      "ĠvhÃ¡": 2862,
      "ĠrÅ¯m": 2863,
      "ĠvpÃ¡": 2864,
      "ĠpÅĻÃ¡l": 2865,
      "ĠlÅ¾i": 2866,
      "Ġsloup": 2867,
      "Ġzpe": 2868,
      "ĠzÃŃs": 2869,
      "Ġchlou": 2870,
      "Ġdych": 2871,
      "Ġbry": 2872,
      "Ġsuk": 2873,
      "Ġraz": 2874,
      "ĠdÅ¯v": 2875,
      "ĠsleÄį": 2876,
      "ĠvtrÃ¡": 2877,
      "ĠtÅĻÃŃk": 2878,
      "ĠlÃ¡Äį": 2879,
      "ĠmlÃ©": 2880,
      "Ġsul": 2881,
      "ĠbÃ¡z": 2882,
      "ĠjiÅ¡": 2883,
      "Ġchov": 2884,
      "Ġker": 2885,
      "ĠÅ¡ve": 2886,
      "Ġcech": 2887,
      "Ġzed": 2888,
      "ĠvzÃŃ": 2889,
      "Ġpne": 2890,
      "Ġfri": 2891,
      "Ġdlech": 2892,
      "Ġcar": 2893,
      "Ġsdu": 2894,
      "Ġpnou": 2895,
      "Ġtuj": 2896,
      "ĠvÃŃn": 2897,
      "Ġsyt": 2898,
      "Ġztu": 2899,
      "ĠsnÄĽm": 2900,
      "ĠzbÄĽ": 2901,
      "Ġvzem": 2902,
      "ĠÅĻas": 2903,
      "ĠÄįÃŃst": 2904,
      "ABCCD": 2905,
      "ĠnÃŃÄį": 2906,
      "Ġzaj": 2907,
      "Ġnnu": 2908,
      "ĠzmÃ©": 2909,
      "Ġvob": 2910,
      "Ġzdob": 2911,
      "ĠÅĻku": 2912,
      "ĠdosÅ¥": 2913,
      "ĠzbÃŃ": 2914,
      "ĠshlÃŃ": 2915,
      "Ġkav": 2916,
      "Ġshr": 2917,
      "ĠmdlÃ©": 2918,
      "ĠÅ¡ÃŃp": 2919,
      "AXAB": 2920,
      "Ġkpra": 2921,
      "ĠmÄĽÅ¥": 2922,
      "Ġlka": 2923,
      "ĠtÃ½r": 2924,
      "ĠniÅ¡": 2925,
      "Ġzpla": 2926,
      "ĠÅ¡per": 2927,
      "Ġhni": 2928,
      "Ġchc": 2929,
      "Ġvslad": 2930,
      "Ġjet": 2931,
      "Ġheb": 2932,
      "Ġvv": 2933,
      "ĠbÄĽt": 2934,
      "ĠmÃŃÅ¡": 2935,
      "ĠpÅĻÃŃz": 2936,
      "Ġjsy": 2937,
      "ĠvÅ¯z": 2938,
      "Ġksmr": 2939,
      "ĠmÃ¡n": 2940,
      "Ġkdu": 2941,
      "ĠteÅĻ": 2942,
      "ĠspÅĻÃ¡": 2943,
      "Ġtrap": 2944,
      "ĠchvÄĽj": 2945,
      "ĠÅ¡pa": 2946,
      "ĠÄįÃ¡r": 2947,
      "Ġstrast": 2948,
      "Ġskrz": 2949,
      "Ġztem": 2950,
      "Äįi": 2951,
      "ĠchÅ¯m": 2952,
      "Ġrys": 2953,
      "Ġvbla": 2954,
      "Ġhov": 2955,
      "ĠjdÄĽ": 2956,
      "ĠtvÃ¡r": 2957,
      "Ġzry": 2958,
      "Ġhym": 2959,
      "Ġvstu": 2960,
      "Ġvzly": 2961,
      "Ġvpod": 2962,
      "ĠmÄĽÅĻ": 2963,
      "Ġkpa": 2964,
      "Ġkc": 2965,
      "Ġchen": 2966,
      "ĠÄįlu": 2967,
      "ĠdvÃŃ": 2968,
      "ĠvlaÅ¡": 2969,
      "Ġshro": 2970,
      "Ġzer": 2971,
      "Ġrun": 2972,
      "ĠpÃ¡l": 2973,
      "ĠdeÅĪ": 2974,
      "ĠrÃ¡Å¾": 2975,
      "ĠbÃŃt": 2976,
      "ĠkvÅ¯": 2977,
      "Ġkams": 2978,
      "Ġcvi": 2979,
      "ĠnÃ¡ct": 2980,
      "ĠÄįiÅĪ": 2981,
      "Ġcno": 2982,
      "ĠstÅ¯m": 2983,
      "Ġdoz": 2984,
      "Ġnon": 2985,
      "ĠvÃ¡r": 2986,
      "ĠvprÃ¡": 2987,
      "Ġdry": 2988,
      "Ġhnus": 2989,
      "ĠsprÃ¡v": 2990,
      "ĠnnÃ©m": 2991,
      "ĠzÅĻej": 2992,
      "ĠnitÅĻ": 2993,
      "Ġtos": 2994,
      "ĠlÅ¯v": 2995,
      "ĠsnÃ¡ch": 2996,
      "ĠmeÅĪ": 2997,
      "Ġvsl": 2998,
      "ĠbliÅ¾": 2999,
      "ĠseÄį": 3000,
      "Ġzmra": 3001,
      "ho": 3002,
      "Ġzep": 3003,
      "Ġviv": 3004,
      "ĠdvÄĽd": 3005,
      "Ġvjich": 3006,
      "Ġgic": 3007,
      "Ġnni": 3008,
      "ĠrÃ¡l": 3009,
      "Ġzdroj": 3010,
      "ĠhÅĻeb": 3011,
      "ĠchlÃŃ": 3012,
      "ĠchÅĻe": 3013,
      "Ġak": 3014,
      "ĠnoÅ¡": 3015,
      "lÃŃz": 3016,
      "ĠfÃŃ": 3017,
      "Ġsdru": 3018,
      "ĠvÄįel": 3019,
      "ĠptÃ¡Äį": 3020,
      "ĠruÅ¥": 3021,
      "Ġzdech": 3022,
      "Ġtvy": 3023,
      "ĠruÅ¡": 3024,
      "Ġvlk": 3025,
      "Ġih": 3026,
      "ĠdÃ¡r": 3027,
      "Ġros": 3028,
      "ĠzÅĻÃŃd": 3029,
      "ĠtÅĻit": 3030,
      "Ġchly": 3031,
      "Ġplav": 3032,
      "Ġvlid": 3033,
      "ĠmÃ¡Å¾": 3034,
      "Ġkod": 3035,
      "Ġzhas": 3036,
      "ĠlÃŃt": 3037,
      "Ġzblou": 3038,
      "Ġslit": 3039,
      "ĠdrÃ½m": 3040,
      "Ġgr": 3041,
      "ĠctÄĽ": 3042,
      "ĠvÃŃt": 3043,
      "Ġshle": 3044,
      "Ġvde": 3045,
      "ĠÅĪÃ¡t": 3046,
      "Ġtros": 3047,
      "ĠsdÃŃ": 3048,
      "Ġvid": 3049,
      "ĠvrÅ¯": 3050,
      "Ġrag": 3051,
      "ĠskvÃŃ": 3052,
      "Ġluk": 3053,
      "ĠlÃ¡Å¡": 3054,
      "ĠshÃ¡": 3055,
      "Ġvsla": 3056,
      "ĠdÃ³": 3057,
      "ĠpÃ¡ch": 3058,
      "ĠstrÃ½m": 3059,
      "is": 3060,
      "ĠktÃ©": 3061,
      "ĠÃ¡n": 3062,
      "ĠduÅ¡": 3063,
      "Ġcov": 3064,
      "Ġdcer": 3065,
      "Ġzmat": 3066,
      "Ġvzcho": 3067,
      "ĠvlasÅ¥": 3068,
      "ĠsklÃŃ": 3069,
      "Ġrtu": 3070,
      "Ġsvy": 3071,
      "ĠÃ¡l": 3072,
      "Ġdnech": 3073,
      "ĠkÃ©n": 3074,
      "ĠstÃ¡ch": 3075,
      "Ġkrad": 3076,
      "Ġvzty": 3077,
      "Ġtlum": 3078,
      "ĠnÃ©st": 3079,
      "Ġshlu": 3080,
      "Ġdvod": 3081,
      "ĠzvÃ½": 3082,
      "Ġdus": 3083,
      "ĠvpouÅ¡": 3084,
      "ĠtÃŃk": 3085,
      "ĠkpÅĻe": 3086,
      "XAXABB": 3087,
      "Ġhrot": 3088,
      "Ġtep": 3089,
      "Ġron": 3090,
      "ĠÅĪÅ¯": 3091,
      "ĠzÅĪa": 3092,
      "ĠzliÄį": 3093,
      "Ġmut": 3094,
      "AAXA": 3095,
      "ĠhÃ¡Äį": 3096,
      "Ġsop": 3097,
      "Ġznak": 3098,
      "Ġgy": 3099,
      "ĠsÅ¾e": 3100,
      "Ġtrav": 3101,
      "ĠzrÅ¯": 3102,
      "Ġvzra": 3103,
      "ĠtrÃ½z": 3104,
      "Ġkvas": 3105,
      "Ġoc": 3106,
      "ĠsbÄĽ": 3107,
      "Ġtroc": 3108,
      "Ġvok": 3109,
      "ĠvnÃ¡s": 3110,
      "ĠzaÅ¡": 3111,
      "ĠzbÃ½": 3112,
      "ĠnÃ¡k": 3113,
      "Ġvzro": 3114,
      "CCB": 3115,
      "Ġmit": 3116,
      "Ġkvap": 3117,
      "ĠÄįÃŃc": 3118,
      "Ġsrov": 3119,
      "Ġzvou": 3120,
      "ĠzlÃ½m": 3121,
      "ĠveÄı": 3122,
      "ĠbrÃ½m": 3123,
      "Ġdub": 3124,
      "Ġvty": 3125,
      "ĠsÅ¡": 3126,
      "ĠÄįan": 3127,
      "ĠmdlÃ½": 3128,
      "Ġcle": 3129,
      "Ġklek": 3130,
      "Ġpost": 3131,
      "Ġvhr": 3132,
      "ĠnÃ¡Äį": 3133,
      "Ġvzor": 3134,
      "ĠsnÃŃt": 3135,
      "ĠvÃ©st": 3136,
      "Ġkji": 3137,
      "ĠrÃ¡Å¡": 3138,
      "ĠzpÅĻÃŃ": 3139,
      "Ġstol": 3140,
      "ĠÅ¡ÃŃj": 3141,
      "ĠvzlÃ©": 3142,
      "ĠlesÅ¥": 3143,
      "ĠklÃ½ch": 3144,
      "Ġdnou": 3145,
      "ĠhÅĻmo": 3146,
      "Ġmyl": 3147,
      "ĠfÃ¡m": 3148,
      "ĠvdÃŃ": 3149,
      "Ġvmou": 3150,
      "Ġvstra": 3151,
      "ĠhÃ¡r": 3152,
      "Ġvzi": 3153,
      "ĠÅĻev": 3154,
      "Ġspad": 3155,
      "ĠnnÃŃm": 3156,
      "ĠsuÄı": 3157,
      "Ġstev": 3158,
      "ĠkÅĻiÅ¡": 3159,
      "ĠchuÅ¥": 3160,
      "ĠskÅĻe": 3161,
      "ĠvznÃŃ": 3162,
      "Ġksp": 3163,
      "Ġvjas": 3164,
      "Ġsig": 3165,
      "ĠvzkÅĻik": 3166,
      "Ġvmu": 3167,
      "ĠhÅĻÃ¡": 3168,
      "Ġdlil": 3169,
      "ĠÅ¡lÃ½ch": 3170,
      "ĠkÃ©s": 3171,
      "Ġprost": 3172,
      "ĠvkrÃ¡t": 3173,
      "Ġser": 3174,
      "Ġknout": 3175,
      "ĠkaÅĻ": 3176,
      "Ġpej": 3177,
      "Ġom": 3178,
      "ĠtvÃŃm": 3179,
      "Ġsedm": 3180,
      "Ġjra": 3181,
      "Ġvous": 3182,
      "Ġchm": 3183,
      "ĠstrÅ¯": 3184,
      "ĠleÅĪ": 3185,
      "ĠvslÃ¡": 3186,
      "ĠvkvÄĽ": 3187,
      "ĠÄįeÅ¾": 3188,
      "ĠÅ¾luÄį": 3189,
      "ĠzahÅĻ": 3190,
      "ĠdÅ¾": 3191,
      "Ġvlet": 3192,
      "Ġrozv": 3193,
      "ĠkÅĻeh": 3194,
      "ĠnouÅ¥": 3195,
      "Ġvbi": 3196,
      "Ġsep": 3197,
      "Ġprah": 3198,
      "Ġvhrob": 3199,
      "Ġpych": 3200,
      "ĠknÃ©": 3201,
      "Ġrva": 3202,
      "ĠplÃ¡ÅĪ": 3203,
      "Ġton": 3204,
      "Ġskryt": 3205,
      "ĠÃºc": 3206,
      "Ġsz": 3207,
      "ĠmÄĽn": 3208,
      "ĠkrÄį": 3209,
      "Ġen": 3210,
      "Ġrto": 3211,
      "ĠbÃ¡k": 3212,
      "Ġkch": 3213,
      "ĠÅ¡ej": 3214,
      "Ġstoup": 3215,
      "ĠbrÅ¾": 3216,
      "ĠleÅ¥": 3217,
      "Ġbos": 3218,
      "ĠtlÃ½ch": 3219,
      "Ġknih": 3220,
      "Ġzf": 3221,
      "ĠÅ¡lÃ¡": 3222,
      "ĠvÃ¡z": 3223,
      "Ġboun": 3224,
      "ĠÅ¾ert": 3225,
      "ĠspÅĻe": 3226,
      "Ġston": 3227,
      "ĠstrÃ½ch": 3228,
      "Ġkras": 3229,
      "ĠvzduÅ¡": 3230,
      "ĠstkvÃŃ": 3231,
      "ĠÅ¡al": 3232,
      "ĠtÅĻes": 3233,
      "ĠsÃ¡t": 3234,
      "Ġvkraj": 3235,
      "Ġspas": 3236,
      "ĠvchÃ¡": 3237,
      "ĠnÃŃc": 3238,
      "Ġbech": 3239,
      "ĠleÅ¡": 3240,
      "Ġkur": 3241,
      "Ġcin": 3242,
      "ĠvsvÃ½ch": 3243,
      "ĠhÅĻbe": 3244,
      "Ġvsluch": 3245,
      "ĠctnÃ©": 3246,
      "Ġsvel": 3247,
      "Ġsst": 3248,
      "Ġban": 3249,
      "Ġvzma": 3250,
      "Ġpus": 3251,
      "Ġzkra": 3252,
      "Ġzdar": 3253,
      "Ġkvr": 3254,
      "ĠzvÃ¡s": 3255,
      "Ġkrk": 3256,
      "Ġris": 3257,
      "ĠvÅ¾a": 3258,
      "Ġzhr": 3259,
      "ĠhrÃ¡d": 3260,
      "ĠvzkÅĻÃŃ": 3261,
      "Ã¡z": 3262,
      "ĠdÄĽk": 3263,
      "Ġsvla": 3264,
      "Ġsup": 3265,
      "ĠpÄĽst": 3266,
      "ĠvrÃ¡t": 3267,
      "ĠdiÅ¡": 3268,
      "Ġzur": 3269,
      "Ġzbi": 3270,
      "Ġhoun": 3271,
      "ĠnÃŃmÅ¾": 3272,
      "ĠzlÅ¯": 3273,
      "Ġbyv": 3274,
      "ĠhÃ¡Å¡": 3275,
      "Ġstin": 3276,
      "Ġvhloub": 3277,
      "ĠvztÃ¡": 3278,
      "Ġvzpom": 3279,
      "Ġzvyk": 3280,
      "ĠpÅĻedc": 3281,
      "ĠvzdÄĽ": 3282,
      "Ġzbyt": 3283,
      "Ġschu": 3284,
      "Ġhvi": 3285,
      "ĠvnÄĽj": 3286,
      "ĠvÄįa": 3287,
      "Ġsja": 3288,
      "Ġvnej": 3289,
      "Ġuj": 3290,
      "ĠzvrÃ¡": 3291,
      "Ġput": 3292,
      "ĠrvÃ¡": 3293,
      "ĠlhÃ¡": 3294,
      "Ġsah": 3295,
      "Ġvhou": 3296,
      "ĠÄįnÄĽ": 3297,
      "ĠlÃ³": 3298,
      "Ġbok": 3299,
      "ĠkoÄį": 3300,
      "Ġpuk": 3301,
      "ĠÅ¥o": 3302,
      "ĠkcÃŃ": 3303,
      "ĠtnÄĽ": 3304,
      "ĠstÅĻ": 3305,
      "Ġlon": 3306,
      "ĠjlÃŃ": 3307,
      "Ġrob": 3308,
      "Ġtvar": 3309,
      "ĠvÄįi": 3310,
      "ĠÅ¥al": 3311,
      "ĠvsvÄĽt": 3312,
      "ĠzkrÃ¡t": 3313,
      "ĠnÃ¡v": 3314,
      "ĠnÄĽt": 3315,
      "ABX": 3316,
      "Ġvnik": 3317,
      "ĠpouÅ¡Å¥": 3318,
      "Ġtrs": 3319,
      "ĠmÃ³": 3320,
      "ĠlosÅ¥": 3321,
      "ĠktÄĽ": 3322,
      "Ġzta": 3323,
      "ĠvklÃ¡": 3324,
      "Ġvzbou": 3325,
      "ĠpatÅĻ": 3326,
      "ĠhlÃ¡s": 3327,
      "Ġzpup": 3328,
      "ĠtÃ½Å¾": 3329,
      "Ġvhra": 3330,
      "ĠÅ¾d": 3331,
      "ĠpÃŃr": 3332,
      "ĠnÅ¯Å¾": 3333,
      "Ġtho": 3334,
      "ĠpiÅ¡": 3335,
      "Ġsnou": 3336,
      "Ġmnoh": 3337,
      "ĠhlÃ½m": 3338,
      "ĠdouÅ¡": 3339,
      "Ġzmoc": 3340,
      "Ġdmou": 3341,
      "ĠlÃŃst": 3342,
      "ĠÅ¾ol": 3343,
      "ĠÅ¾lou": 3344,
      "Ġlym": 3345,
      "Ġmlk": 3346,
      "my": 3347,
      "ĠlaÅĪ": 3348,
      "ĠbuÅ¥": 3349,
      "ĠdÄĽÄį": 3350,
      "ĠloÅ¾": 3351,
      "Ġvbez": 3352,
      "ĠvpÄĽ": 3353,
      "ĠrÅ¯Å¾": 3354,
      "Ġstrov": 3355,
      "ĠchlÃ½": 3356,
      "Ġplul": 3357,
      "Ġhrst": 3358,
      "Ġskrov": 3359,
      "Ġbz": 3360,
      "ĠkÃ¡t": 3361,
      "Ġpij": 3362,
      "ĠÅ¡ku": 3363,
      "ĠkmÄĽ": 3364,
      "ĠkÃ¡s": 3365,
      "ĠsvÃ¡r": 3366,
      "Ġsos": 3367,
      "Ġkrot": 3368,
      "Ġvsmut": 3369,
      "ĠvaÄį": 3370,
      "Ġbub": 3371,
      "Ġvzo": 3372,
      "Ġvmla": 3373,
      "Ġzbyl": 3374,
      "Ġspat": 3375,
      "Ġnan": 3376,
      "ĠÄįiÅ¡": 3377,
      "Ġzbroj": 3378,
      "ĠtouÅ¾": 3379,
      "ĠvmlÃ¡": 3380,
      "Ġlob": 3381,
      "ĠlÃ¡ÅĻ": 3382,
      "Ġdral": 3383,
      "ĠÅ¾Ã¡t": 3384,
      "ĠslÃ¡b": 3385,
      "Ġvjiz": 3386,
      "Ġdvoj": 3387,
      "ĠzlÃ¡s": 3388,
      "vÃ½": 3389,
      "ĠrÅ¯v": 3390,
      "Ġpso": 3391,
      "Ġrce": 3392,
      "Ġmrs": 3393,
      "ĠbÃ½m": 3394,
      "Ġztro": 3395,
      "Ġsnech": 3396,
      "ĠviÄı": 3397,
      "ĠvtÃŃ": 3398,
      "ĠhÅ¯ÅĻ": 3399,
      "ĠtÄĽt": 3400,
      "ĠpsÃŃ": 3401,
      "ĠtÃŃn": 3402,
      "Ġshon": 3403,
      "ĠÅ¯": 3404,
      "ĠseÅ¡": 3405,
      "Ġgan": 3406,
      "ĠveÄį": 3407,
      "Ġlly": 3408,
      "Ġdes": 3409,
      "ĠbÃ½ch": 3410,
      "ĠÅ¥te": 3411,
      "ABABAC": 3412,
      "ĠvzchÃ¡": 3413,
      "Ġzkla": 3414,
      "Ġtisk": 3415,
      "Ġvzou": 3416,
      "ĠkouÅĻ": 3417,
      "Ġchcem": 3418,
      "Ġzdvo": 3419,
      "Ġvnoc": 3420,
      "Ġuc": 3421,
      "Ġproz": 3422,
      "Ġslek": 3423,
      "21": 3424,
      "ĠksvÄĽ": 3425,
      "Ġhav": 3426,
      "ĠtÅĻel": 3427,
      "Ġpruh": 3428,
      "Ġdeb": 3429,
      "ĠÄįeÅ¡": 3430,
      "ĠÅĻli": 3431,
      "ĠpiÄį": 3432,
      "ĠÅ¡tva": 3433,
      "Ġskvou": 3434,
      "ĠvtÃ½": 3435,
      "ĠrdÄĽ": 3436,
      "ĠrdÃŃ": 3437,
      "Ġchru": 3438,
      "ĠÅ¡kÅ¯d": 3439,
      "Ġjav": 3440,
      "Ġnep": 3441,
      "Ġlup": 3442,
      "Ġvkle": 3443,
      "Ġsru": 3444,
      "ĠÅ¡ad": 3445,
      "Ġhel": 3446,
      "ĠvstaÅĪ": 3447,
      "Ġdam": 3448,
      "ĠbÄĽs": 3449,
      "ĠvÅ¾Ã¡": 3450,
      "ĠpÅĻil": 3451,
      "Ġslep": 3452,
      "Ġah": 3453,
      "ĠÅĻiv": 3454,
      "Ġrval": 3455,
      "ĠkmÃŃ": 3456,
      "ĠjeÄį": 3457,
      "Ġvtmu": 3458,
      "Ġbot": 3459,
      "ĠhÅĻi": 3460,
      "Ġvplen": 3461,
      "ĠmÅ¡": 3462,
      "ĠhrÃ¡z": 3463,
      "Ġpsy": 3464,
      "ĠvchvÃŃ": 3465,
      "ĠvzÃŃt": 3466,
      "Ġpust": 3467,
      "Ġzyl": 3468,
      "Ġmes": 3469,
      "Ġdri": 3470,
      "Ġsin": 3471,
      "Ġam": 3472,
      "Ġbouk": 3473,
      "ĠjdeÅ¡": 3474,
      "ĠznÃŃÅ¾": 3475,
      "ĠchtÃŃt": 3476,
      "ĠfÃ©": 3477,
      "Ġjih": 3478,
      "ĠÅ¡ev": 3479,
      "ĠvÄĽd": 3480,
      "ĠrÃ¡n": 3481,
      "Ġzleh": 3482,
      "Ġbzu": 3483,
      "Ġlip": 3484,
      "Ġmer": 3485,
      "ĠpÅ¯t": 3486,
      "lÃ©d": 3487,
      "ĠznÃ¡t": 3488,
      "Ġvkli": 3489,
      "ĠrouÅ¡": 3490,
      "ĠrÃ©Å¾": 3491,
      "ĠcÃ©": 3492,
      "Ġspr": 3493,
      "ĠvÃ½z": 3494,
      "Ġflo": 3495,
      "Ġvkni": 3496,
      "ĠvzÅĪa": 3497,
      "Ġvkout": 3498,
      "Ġtar": 3499,
      "ĠdlÃ©m": 3500,
      "Ġkok": 3501,
      "ĠdÅ¾b": 3502,
      "Ġpluh": 3503,
      "iv": 3504,
      "ĠÅ¡lÃ½": 3505,
      "Ġskem": 3506,
      "Ġnin": 3507,
      "Ġhyz": 3508,
      "Ġdas": 3509,
      "Ġchor": 3510,
      "ĠklÃŃÄį": 3511,
      "Ġzjas": 3512,
      "Ġmag": 3513,
      "Ġbas": 3514,
      "ĠvtvÃ©m": 3515,
      "ĠhÅĻbet": 3516,
      "ĠlaÅ¡": 3517,
      "Ġvba": 3518,
      "ĠbÃ¡n": 3519,
      "Ġshni": 3520,
      "ĠkprÃ¡": 3521,
      "Ġvzdych": 3522,
      "ĠzÅ¾ÃŃ": 3523,
      "ĠÅ¡ed": 3524,
      "Ġvzm": 3525,
      "Ġvznes": 3526,
      "ĠÅ¾in": 3527,
      "ĠzdvÃŃ": 3528,
      "ĠstÃ½s": 3529,
      "Ġskvr": 3530,
      "Ġlau": 3531,
      "Ġpri": 3532,
      "Ġznej": 3533,
      "ĠzvÃ¡n": 3534,
      "ĠsÅĪ": 3535,
      "Ġcud": 3536,
      "Ġpach": 3537,
      "Ġvtma": 3538,
      "Ġzbor": 3539,
      "ĠhvÃŃz": 3540,
      "ry": 3541,
      "Ġskryl": 3542,
      "ĠtkÃ¡": 3543,
      "ĠkÃ½Å¾": 3544,
      "Ġhout": 3545,
      "Ġzdlou": 3546,
      "ĠÅĻÃŃk": 3547,
      "Ġvre": 3548,
      "ĠtmÃ¡ch": 3549,
      "ĠtÃ³n": 3550,
      "Ġstrun": 3551,
      "Ġkvla": 3552,
      "Ġhev": 3553,
      "ĠrtÃŃ": 3554,
      "Ġthu": 3555,
      "ĠvaÅ¾": 3556,
      "Ġzmar": 3557,
      "Ġet": 3558,
      "Ġvoz": 3559,
      "ĠchaÅĻ": 3560,
      "Ġvsmr": 3561,
      "Ġmru": 3562,
      "Ġskvo": 3563,
      "ĠsÄį": 3564,
      "ĠkvÄĽl": 3565,
      "Ġshor": 3566,
      "Ġzhla": 3567,
      "Ġrtem": 3568,
      "ĠvÅĻen": 3569,
      "ĠÅ¡lel": 3570,
      "ĠknÃŃÅ¾": 3571,
      "ĠÅ¾ou": 3572,
      "ĠmyÅ¡": 3573,
      "Ġzkad": 3574,
      "Ġtrub": 3575,
      "Ġske": 3576,
      "Ġtrhl": 3577,
      "ĠdÄĽÅ¥": 3578,
      "Ġtrok": 3579,
      "Ġvspo": 3580,
      "Ġvos": 3581,
      "ĠprÃ½Å¡": 3582,
      "ĠÅ¾h": 3583,
      "ĠvztÄĽ": 3584,
      "ĠzÃŃÅ¡": 3585,
      "Ġrot": 3586,
      "Ġsply": 3587,
      "Ġskli": 3588,
      "ĠtrÃ©": 3589,
      "ĠvÃŃd": 3590,
      "Ġab": 3591,
      "Ġbuz": 3592,
      "Ġpic": 3593,
      "Ġfon": 3594,
      "Ġmls": 3595,
      "ĠjÅ¯m": 3596,
      "Ġspod": 3597,
      "Ġgro": 3598,
      "Ġkj": 3599,
      "ĠÅ¡ÃŃc": 3600,
      "Ġbav": 3601,
      "ĠshÅ¯": 3602,
      "Ġzvr": 3603,
      "ÅĻad": 3604,
      "Ġsnes": 3605,
      "ĠÃ©": 3606,
      "Ġoj": 3607,
      "ĠstlÃ¡": 3608,
      "Ġgen": 3609,
      "ĠbrÃ¡t": 3610,
      "Ġchech": 3611,
      "Ġvg": 3612,
      "ĠzÄį": 3613,
      "Ġvble": 3614,
      "ĠssÃ¡": 3615,
      "Ġzbou": 3616,
      "Ġtroj": 3617,
      "ĠnnÃŃch": 3618,
      "ĠvsnÃ¡": 3619,
      "Ġchout": 3620,
      "ĠdlÃŃm": 3621,
      "ĠvsvÅ¯j": 3622,
      "ĠpeÅĪ": 3623,
      "Ġvtm": 3624,
      "jal": 3625,
      "ĠzÃ©": 3626,
      "ĠsrÃ¡z": 3627,
      "Ġvtou": 3628,
      "ĠbÃŃm": 3629,
      "Ġmis": 3630,
      "ĠtmÃŃ": 3631,
      "Ġryk": 3632,
      "ĠslÃ¡s": 3633,
      "ĠchlÃ½m": 3634,
      "Ġknut": 3635,
      "Ġryl": 3636,
      "ĠrÃ¡ÅĻ": 3637,
      "ĠÅ¡tvÃ¡": 3638,
      "ĠvtÄĽÅ¾": 3639,
      "Ġtles": 3640,
      "ĠvtvÃ©": 3641,
      "ĠzkÅĻi": 3642,
      "ĠvtmÃ¡ch": 3643,
      "ĠrtÅ¯m": 3644,
      "ĠlÃŃÅĻ": 3645,
      "ĠkÄįi": 3646,
      "Ġrep": 3647,
      "Ġjun": 3648,
      "ĠpÅ¯m": 3649,
      "ĠtÄĽk": 3650,
      "Ġzez": 3651,
      "Ġroc": 3652,
      "ĠmÅ¡i": 3653,
      "ĠchÅĻÃŃ": 3654,
      "Ġklel": 3655,
      "ĠvsnÃ¡ch": 3656,
      "Ġdaj": 3657,
      "ĠptÃ¡m": 3658,
      "ĠbÅĻit": 3659,
      "mut": 3660,
      "Ġdout": 3661,
      "ĠksmÃŃ": 3662,
      "ĠstlÃ©": 3663,
      "ĠhÃ¡v": 3664,
      "ĠvsÃŃÅĪ": 3665,
      "ĠchÃ¡Å¡": 3666,
      "ĠstÃ½ÅĻ": 3667,
      "ĠÅĻka": 3668,
      "Ġkvy": 3669,
      "ĠtrÃ¡v": 3670,
      "ĠkÅ¾": 3671,
      "ĠdeÅĻ": 3672,
      "Ġzes": 3673,
      "ĠdceÅĻ": 3674,
      "Ġroh": 3675,
      "ĠhraÄį": 3676,
      "Ġjdem": 3677,
      "ĠsÃ¡ch": 3678,
      "Ġboh": 3679,
      "ĠstÃ¡d": 3680,
      "Ġmhou": 3681,
      "Ġvzda": 3682,
      "Ġnald": 3683,
      "Ġbrav": 3684,
      "Ġrab": 3685,
      "ĠpÅĻen": 3686,
      "ĠbÃ¡Å¡": 3687,
      "vÃ½m": 3688,
      "Ġmet": 3689,
      "Ġprst": 3690,
      "ĠÅ¾ra": 3691,
      "ĠnÃ¡l": 3692,
      "Ġchan": 3693,
      "Ġzoub": 3694,
      "Ġrmut": 3695,
      "Ġcva": 3696,
      "ABABC": 3697,
      "Ġmej": 3698,
      "Ġzrn": 3699,
      "Ġeh": 3700,
      "ĠÅ¡ou": 3701,
      "Ġvnez": 3702,
      "ĠÅ¡kol": 3703,
      "Ġem": 3704,
      "Ġcher": 3705,
      "ĠkvÃ¡": 3706,
      "Ġhnou": 3707,
      "ĠsnaÅ¾": 3708,
      "Ġland": 3709,
      "Ġvdlou": 3710,
      "ĠmdlÃ¡": 3711,
      "ĠÄįÅ¯m": 3712,
      "ka": 3713,
      "Ġvden": 3714,
      "ĠbÃ½Å¥": 3715,
      "ĠÅ¾va": 3716,
      "ĠÅĻÃŃd": 3717,
      "ĠflÃŃ": 3718,
      "Ġfau": 3719,
      "ĠkdÃŃ": 3720,
      "ĠsmÃ¡t": 3721,
      "ĠstvÃ©": 3722,
      "Ġtsk": 3723,
      "ĠdrÃ©m": 3724,
      "ĠstÃ¡n": 3725,
      "ĠzvÅ¯": 3726,
      "Ġdrak": 3727,
      "Ġkhro": 3728,
      "ĠlÅ¾e": 3729,
      "ĠkÃ½v": 3730,
      "ĠchvÄĽt": 3731,
      "Ġvlou": 3732,
      "ĠpÅĻev": 3733,
      "ĠplaÄį": 3734,
      "ĠktÄĽm": 3735,
      "ĠlÃ¡k": 3736,
      "Ġsroz": 3737,
      "Ġcer": 3738,
      "ĠpasÅ¥": 3739,
      "Ġzjed": 3740,
      "ĠÅĻÃ¡n": 3741,
      "Ġvzej": 3742,
      "ĠhÅĻmot": 3743,
      "ĠzÃ¡Å¡Å¥": 3744,
      "Ġskok": 3745,
      "ĠvzplÃ¡l": 3746,
      "ĠmstÃŃ": 3747,
      "on": 3748,
      "Ġmha": 3749,
      "Ġloup": 3750,
      "ĠkslÃ¡": 3751,
      "ĠdÃ©Äį": 3752,
      "Ġhoum": 3753,
      "ĠmÃŃÅĪ": 3754,
      "ĠvzpÅĻÃŃ": 3755,
      "Ġkrej": 3756,
      "Ġfat": 3757,
      "Ġzlil": 3758,
      "Ġglo": 3759,
      "XABA": 3760,
      "ĠÅ¾eÅ¥": 3761,
      "ĠshÃ½": 3762,
      "ĠvmÃ½ch": 3763,
      "ĠpÅĻa": 3764,
      "Ġstiv": 3765,
      "mÃŃ": 3766,
      "Ġkluk": 3767,
      "ĠdrÅ¾": 3768,
      "Ġvcha": 3769,
      "Ġvpar": 3770,
      "Ġvnes": 3771,
      "ĠslÃŃÅ¡": 3772,
      "ĠvjÃŃ": 3773,
      "ĠvprÃ¡z": 3774,
      "Ġvrhl": 3775,
      "Ġae": 3776,
      "Ġzpy": 3777,
      "ĠkaÅ¡": 3778,
      "ĠmuÅ¡": 3779,
      "ĠtÅĻiv": 3780,
      "ĠÄįou": 3781,
      "ĠcÃŃÅĻ": 3782,
      "Ġdrem": 3783,
      "Ġment": 3784,
      "ĠlÅ¾ÃŃ": 3785,
      "ĠvztÃ½": 3786,
      "Ġtet": 3787,
      "ĠdnÃ½ch": 3788,
      "ĠtÄĽÅ¡": 3789,
      "ĠzblÃŃz": 3790,
      "ĠskrÃ½Å¡": 3791,
      "Ġkyn": 3792,
      "Ġvzhled": 3793,
      "ĠjitÅĻ": 3794,
      "ĠkÅ¡ti": 3795,
      "Ġbah": 3796,
      "ĠjÃŃz": 3797,
      "nech": 3798,
      "Ġvtis": 3799,
      "Ġhnul": 3800,
      "ĠvhouÅ¡": 3801,
      "ĠniÅ¥": 3802,
      "Ġsod": 3803,
      "Ġchvo": 3804,
      "ĠsÃ¡l": 3805,
      "Ġjist": 3806,
      "ĠsÅ¯v": 3807,
      "ĠtÃ¡l": 3808,
      "Ġtvu": 3809,
      "Ġsai": 3810,
      "ĠvznÄĽt": 3811,
      "Ġuv": 3812,
      "Ġsok": 3813,
      "Ġpsi": 3814,
      "Ġex": 3815,
      "ĠÅ¡kr": 3816,
      "Ġvhor": 3817,
      "ĠtÅĻti": 3818,
      "Ġsji": 3819,
      "Ġrmou": 3820,
      "Ġvoh": 3821,
      "ĠvÅĻÃŃt": 3822,
      "ĠsmyÄį": 3823,
      "ĠspÅĻÃŃ": 3824,
      "Ġvlek": 3825,
      "Ġdlen": 3826,
      "ĠsmÃŃr": 3827,
      "Ġzvla": 3828,
      "Ġtik": 3829,
      "ĠzÃ¡n": 3830,
      "ĠkrÃ©": 3831,
      "Ġeu": 3832,
      "Ġchval": 3833,
      "Ġzkte": 3834,
      "Ġchud": 3835,
      "XAXBXB": 3836,
      "ĠdiÅ¥": 3837,
      "ĠstÅĻem": 3838,
      "ĠvyÅĻ": 3839,
      "ran": 3840,
      "ĠzÅ¡e": 3841,
      "ĠchÃ¡z": 3842,
      "ĠhÅĻÃŃÄį": 3843,
      "ĠpÃ½ch": 3844,
      "Ġhed": 3845,
      "Ġhos": 3846,
      "ĠtkvÃŃ": 3847,
      "Ġzyt": 3848,
      "ĠÅ¡pÃŃ": 3849,
      "Ġjes": 3850,
      "Ġhvozd": 3851,
      "Ġnar": 3852,
      "Ġkob": 3853,
      "Ġpech": 3854,
      "Ġnis": 3855,
      "ĠÄįap": 3856,
      "Ġcour": 3857,
      "ĠstÄĽj": 3858,
      "ĠvmÃ¡": 3859,
      "ĠÅ¾Å¯m": 3860,
      "Ġtol": 3861,
      "Ġhus": 3862,
      "ĠlÃ©t": 3863,
      "Ġvmr": 3864,
      "pÃŃ": 3865,
      "ĠÅ¾iÄį": 3866,
      "Ġztich": 3867,
      "Ġssa": 3868,
      "Ġsmlou": 3869,
      "Ġsvaz": 3870,
      "Ġzroz": 3871,
      "Ġlout": 3872,
      "ĠÅĻiÄį": 3873,
      "ĠbÃŃn": 3874,
      "ĠpÃ½m": 3875,
      "Ġdre": 3876,
      "ĠÅĪou": 3877,
      "ĠÅĻÃŃÅ¾": 3878,
      "ĠvhrÅ¯": 3879,
      "ĠkrÃ¡m": 3880,
      "ĠklÃ©m": 3881,
      "Ġtmu": 3882,
      "Ġzsi": 3883,
      "ri": 3884,
      "ĠÄįerv": 3885,
      "Ġrvou": 3886,
      "Ġvkom": 3887,
      "Ġpop": 3888,
      "ĠvÃ¡ÅĻ": 3889,
      "Ġhaj": 3890,
      "Ġhub": 3891,
      "Ġklep": 3892,
      "ĠÄįlun": 3893,
      "Ġtuch": 3894,
      "ĠvhnÄĽ": 3895,
      "ĠlaÅ¥": 3896,
      "ĠvÅ¡tÄĽ": 3897,
      "Ġkvil": 3898,
      "Ġdc": 3899,
      "Ġmur": 3900,
      "Ġbvy": 3901,
      "ĠpÅĻijÄı": 3902,
      "ĠvlaÅ¾": 3903,
      "Ġztmy": 3904,
      "ĠzÃŃr": 3905,
      "Ġhmy": 3906,
      "Ġsvod": 3907,
      "Ġsliv": 3908,
      "AABA": 3909,
      "Ġsbra": 3910,
      "ĠkosÅ¥": 3911,
      "Ġpyt": 3912,
      "ĠstlÃ½": 3913,
      "Ġzach": 3914,
      "ĠvkrÄį": 3915,
      "ĠlÃ©k": 3916,
      "ĠnuÅ¡": 3917,
      "ĠdlaÅ¾": 3918,
      "ĠvztÃ¡h": 3919,
      "ĠslÅ¯v": 3920,
      "ĠzdÅĻÃŃ": 3921,
      "Ġvslo": 3922,
      "ĠnebÅ¥": 3923,
      "Ġzly": 3924,
      "ĠzÃ¡c": 3925,
      "ABCA": 3926,
      "Ġzc": 3927,
      "Ġdvr": 3928,
      "ĠtroÅ¡": 3929,
      "nul": 3930,
      "ĠvdÅ¯": 3931,
      "ĠspouÅ¡": 3932,
      "Å¡ech": 3933,
      "Ġkpro": 3934,
      "ĠÅ¡piÄį": 3935,
      "Ġvly": 3936,
      "Ġvdru": 3937,
      "Ġsmra": 3938,
      "Ġrra": 3939,
      "ĠsÅĪa": 3940,
      "Ġkrb": 3941,
      "ĠmÃ¡k": 3942,
      "ĠvlÃŃc": 3943,
      "Ġstvem": 3944,
      "ĠtÃ½d": 3945,
      "AAAB": 3946,
      "ĠfÅ¯": 3947,
      "Ġzisk": 3948,
      "Ġzci": 3949,
      "Ġoct": 3950,
      "ĠpÄĽn": 3951,
      "ĠdbÃ¡": 3952,
      "ĠkdÄĽ": 3953,
      "Ġkja": 3954,
      "ABBCD": 3955,
      "Ġvzpou": 3956,
      "ĠtÃŃh": 3957,
      "ĠvdlaÅĪ": 3958,
      "Ġat": 3959,
      "Ġmraz": 3960,
      "Ġzpit": 3961,
      "ĠtÅĻesk": 3962,
      "Ġlha": 3963,
      "Ġvsko": 3964,
      "Ġschy": 3965,
      "Ġpluk": 3966,
      "ĠstvÅ¯": 3967,
      "Ġslid": 3968,
      "ĠtÃ¡Å¡": 3969,
      "ĠdvÃ¡b": 3970,
      "Ġcouz": 3971,
      "AXXA": 3972,
      "ĠzÅ¡": 3973,
      "Ġzmla": 3974,
      "Ġvpoz": 3975,
      "Ġkpr": 3976,
      "ABCCDD": 3977,
      "ĠzdÃ¡r": 3978,
      "Ġsrn": 3979,
      "Ġchop": 3980,
      "ĠÅ¡ar": 3981,
      "Ġtluk": 3982,
      "Ġgli": 3983,
      "ĠdlÃ½m": 3984,
      "Ġvnuk": 3985,
      "Ġkmu": 3986,
      "ĠskaÅ¾": 3987,
      "ĠÄįeÅ¥": 3988,
      "ĠvtÃ¡": 3989,
      "Ġkbra": 3990,
      "Ġtup": 3991,
      "ĠÄįÃŃn": 3992,
      "ĠstÅ¯v": 3993,
      "Ġzvod": 3994,
      "ĠÅ¾ÃŃc": 3995,
      "ĠÄįli": 3996,
      "ĠÅĻÃ¡t": 3997,
      "Ġkuj": 3998,
      "Ġuh": 3999,
      "Ġgal": 4000,
      "ĠkbÅĻe": 4001,
      "ĠzkvÄĽ": 4002,
      "Ġstrop": 4003,
      "Ġdba": 4004,
      "Ġlvo": 4005,
      "ĠliÅ¾": 4006,
      "Ġsol": 4007,
      "Ġmlh": 4008,
      "vÃ½ch": 4009,
      "Ġric": 4010,
      "ĠÅ¾ÃŃn": 4011,
      "Ġtoul": 4012,
      "ĠbÃ¡v": 4013,
      "ĠcvÃ¡": 4014,
      "ĠdrÅ¯": 4015,
      "ĠmrÃ¡Äį": 4016,
      "Ġcvr": 4017,
      "Ġznik": 4018,
      "Ġxi": 4019,
      "ĠkÅ¾e": 4020,
      "ko": 4021,
      "ĠrÃ¡Äį": 4022,
      "Ġmeh": 4023,
      "ĠÄįiÄį": 4024,
      "Ġzdy": 4025,
      "ĠbÄĽÅ¾": 4026,
      "ĠÅĻve": 4027,
      "ĠsÃŃÅ¥": 4028,
      "ĠspÄĽj": 4029,
      "Ġdrah": 4030,
      "Ġzevs": 4031,
      "ĠsnÃ©": 4032,
      "ABBX": 4033,
      "ĠklÃ½m": 4034,
      "ĠfraÅ¡": 4035,
      "Ġrav": 4036,
      "ĠÅĻva": 4037,
      "Ġprac": 4038,
      "ĠpsÃ¡t": 4039,
      "ĠÅ¡ti": 4040,
      "ĠtÅĻen": 4041,
      "ĠzÃ¡r": 4042,
      "Ġmh": 4043,
      "Ġvchu": 4044,
      "ĠteÅ¾": 4045,
      "Ġzbar": 4046,
      "Ġvzdal": 4047,
      "ĠsfÃ©": 4048,
      "Ġson": 4049,
      "ĠfrÃ¡": 4050,
      "ĠkvÃ©st": 4051,
      "Ġfle": 4052,
      "ĠmÅ¯m": 4053,
      "ĠtÄĽr": 4054,
      "dlo": 4055,
      "ĠzvÅ¡ech": 4056,
      "Ġrouc": 4057,
      "Ġzlob": 4058,
      "ABCBCD": 4059,
      "Ġsez": 4060,
      "Ġvzad": 4061,
      "ĠsaÅĪ": 4062,
      "Ġvsy": 4063,
      "Ġtip": 4064,
      "Ġkroz": 4065,
      "Ġous": 4066,
      "ĠsÅ¾": 4067,
      "Ġvsu": 4068,
      "Ġvbuj": 4069,
      "ĠzpÅĻe": 4070,
      "Ġzbled": 4071,
      "Ġbost": 4072,
      "Ġger": 4073,
      "ĠpÅĻim": 4074,
      "Ġnah": 4075,
      "ĠzvÄĽsÅ¥": 4076,
      "Ġtha": 4077,
      "ĠctnÃ½": 4078,
      "Ġsvl": 4079,
      "Ġzkle": 4080,
      "ĠtnÃ½": 4081,
      "ĠÃŃch": 4082,
      "ĠvkrÃ¡s": 4083,
      "ĠvyÄį": 4084,
      "Ġim": 4085,
      "ĠÅĻeh": 4086,
      "ĠhÃ¡n": 4087,
      "ĠbÅĻeÄį": 4088,
      "ĠÅ¾b": 4089,
      "Ġdur": 4090,
      "Ġdrc": 4091,
      "Ġzhra": 4092,
      "ĠÅĻÃ¡s": 4093,
      "ĠztÄĽÅ¾": 4094,
      "ĠdoÅ¡": 4095,
      "ĠpÅ¡e": 4096,
      "ĠpraÅ¾": 4097,
      "ĠtvÃŃch": 4098,
      "ĠsÃ½ch": 4099,
      "Ġnud": 4100,
      "ĠÄįÃŃt": 4101,
      "ĠshrÅ¯": 4102,
      "Ġplot": 4103,
      "ĠnÃ©Äį": 4104,
      "Ġvprv": 4105,
      "Ġstrej": 4106,
      "ĠvadÅ¾": 4107,
      "ĠjvÄĽ": 4108,
      "ĠsmeÄį": 4109,
      "Ġir": 4110,
      "ĠÃ¡Å¡": 4111,
      "Ġup": 4112,
      "ĠsmÃŃm": 4113,
      "ĠÅĻkou": 4114,
      "ĠsteÄį": 4115,
      "ĠvnoÄį": 4116,
      "Ġvhroz": 4117,
      "ĠdÅ¡": 4118,
      "Ġvav": 4119,
      "ĠjvÃ½": 4120,
      "Ġmund": 4121,
      "ĠÄįÃŃk": 4122,
      "ĠvtvÃ½ch": 4123,
      "Ġvtro": 4124,
      "ĠzkvÃ©": 4125,
      "Ġsdo": 4126,
      "ĠvhruÄı": 4127,
      "Ġdep": 4128,
      "ĠÅ¡kod": 4129,
      "ĠÅ¡Ã¡k": 4130,
      "ĠstmÃŃ": 4131,
      "ĠÅ¥uÅ¡": 4132,
      "Ġvsled": 4133,
      "Ġvchlad": 4134,
      "ĠblyÅ¡": 4135,
      "Ġtah": 4136,
      "ĠÅ¡ÃŃk": 4137,
      "ĠzpÃ¡": 4138,
      "ĠgÃ¡": 4139,
      "Ġchrem": 4140,
      "ĠÅ¡vih": 4141,
      "ĠvjÃ¡": 4142,
      "Ġdlesk": 4143,
      "ĠschrÃ¡": 4144,
      "ĠÅ¡Ã¡r": 4145,
      "Ġzan": 4146,
      "Ġhouf": 4147,
      "ĠpruÅ¾": 4148,
      "ĠvkvÄĽt": 4149,
      "Ġvojsk": 4150,
      "ĠvÄĽÅ¥": 4151,
      "ĠtÅĻek": 4152,
      "Ġcez": 4153,
      "Ġzpur": 4154,
      "Ġvlak": 4155,
      "Ġzmno": 4156,
      "Ġlvi": 4157,
      "Ġcim": 4158,
      "ĠslÅ¯m": 4159,
      "ĠÅ¾ij": 4160,
      "Ġpous": 4161,
      "ĠrÅ¯st": 4162,
      "ĠkmÃ©": 4163,
      "ĠvklÃ¡Å¡": 4164,
      "ĠtrÅ¯m": 4165,
      "ĠpÅĻem": 4166,
      "ĠviÅĪ": 4167,
      "ĠdnÃ½m": 4168,
      "Ġbroj": 4169,
      "Ġzkru": 4170,
      "ĠpÅĻÃŃt": 4171,
      "Ġnym": 4172,
      "ĠjakÅ¾": 4173,
      "Ġsklen": 4174,
      "Ġdvih": 4175,
      "ĠlÃ¡v": 4176,
      "tej": 4177,
      "ĠklÃ¡s": 4178,
      "Ġzbe": 4179,
      "Ġchar": 4180,
      "Ġzven": 4181,
      "Ġgol": 4182,
      "Ġvzr": 4183,
      "ĠmÃŃst": 4184,
      "Ġvzka": 4185,
      "ĠradÅ¡": 4186,
      "ĠchvÃŃl": 4187,
      "ĠÄįtver": 4188,
      "Ġmlat": 4189,
      "ĠdveÅĻ": 4190,
      "ĠbdÄĽl": 4191,
      "ĠjÃŃÅ¥": 4192,
      "ĠmÃ¡c": 4193,
      "Ġzkro": 4194,
      "ĠvcÃŃ": 4195,
      "Ġpja": 4196,
      "Ġvstro": 4197,
      "Ġtrat": 4198,
      "ĠtÃ½n": 4199,
      "ĠvrÃ¡j": 4200,
      "ĠhrÃ¡m": 4201,
      "ĠstrÃ¡ÅĪ": 4202,
      "Ġchrt": 4203,
      "ĠsÅĻÃŃ": 4204,
      "ĠÅ¡Å¥Ã¡": 4205,
      "Ġthy": 4206,
      "AXBCBC": 4207,
      "ĠtiÅ¥": 4208,
      "ĠdÅĻej": 4209,
      "Ġvkap": 4210,
      "ĠbylÅ¥": 4211,
      "Ġosm": 4212,
      "Ġkrom": 4213,
      "ĠstmÄĽ": 4214,
      "ĠstiÄį": 4215,
      "Ġzple": 4216,
      "Ġgar": 4217,
      "Ġfre": 4218,
      "ĠceÅ¡": 4219,
      "Ġmoj": 4220,
      "Ġzbla": 4221,
      "Ġksa": 4222,
      "ĠbrÃ¡c": 4223,
      "ĠvnÄĽÅ¾": 4224,
      "Ġkha": 4225,
      "kÃ¡": 4226,
      "Ġsbe": 4227,
      "Ġsrp": 4228,
      "Ġtky": 4229,
      "ĠzÅ¾": 4230,
      "ĠbÅ¯m": 4231,
      "Ġzkrou": 4232,
      "Ġvby": 4233,
      "Ġvzlyk": 4234,
      "ĠvtÃ½l": 4235,
      "ĠsÅ¾i": 4236,
      "ĠÅĻÅ¯m": 4237,
      "ĠsnÅ¯m": 4238,
      "Ġtkal": 4239,
      "Ġdul": 4240,
      "Ġnejv": 4241,
      "Ġsnah": 4242,
      "ĠbÅĻes": 4243,
      "ĠvÃ¡k": 4244,
      "Ġplam": 4245,
      "Ġzvra": 4246,
      "22": 4247,
      "Ġvyl": 4248,
      "Ġvrab": 4249,
      "Ġknit": 4250,
      "Ġkslun": 4251,
      "AABX": 4252,
      "Ġseb": 4253,
      "Ġtum": 4254,
      "Ġbij": 4255,
      "Ġvpy": 4256,
      "Ġdleh": 4257,
      "Ġzok": 4258,
      "ĠlÃŃn": 4259,
      "Ġzhor": 4260,
      "ĠÅ¾at": 4261,
      "ĠdaÅ¥": 4262,
      "ĠdrÅ¯m": 4263,
      "Ġstre": 4264,
      "Ġstri": 4265,
      "ĠÅĻez": 4266,
      "ĠzÃ¡k": 4267,
      "ĠdvÃ¡Å¾": 4268,
      "ĠrÃ¡k": 4269,
      "ĠkhvÄĽz": 4270,
      "ĠvÅ¡er": 4271,
      "ĠvÄįÃŃ": 4272,
      "AXBCCB": 4273,
      "BB": 4274,
      "Ġmos": 4275,
      "Ġmstu": 4276,
      "ĠdaÅĻ": 4277,
      "ĠstaÅ¥": 4278,
      "ĠÅ¡af": 4279,
      "ĠluÄį": 4280,
      "ĠdliÄį": 4281,
      "ĠÅ¡las": 4282,
      "ĠtlÃ©m": 4283,
      "ĠvznÃ©": 4284,
      "ĠH": 4285,
      "ÅĪu": 4286,
      "ĠvbÃ¡": 4287,
      "Ġfej": 4288,
      "Ġvha": 4289,
      "Ġkmat": 4290,
      "ĠpÃ³": 4291,
      "Ġvrt": 4292,
      "Ġklem": 4293,
      "ĠstrÃ¡n": 4294,
      "Ġzap": 4295,
      "ĠÅĻat": 4296,
      "Ġthi": 4297,
      "Ġkai": 4298,
      "ĠschÅ¯": 4299,
      "Ġvzhle": 4300,
      "Ġkrat": 4301,
      "ĠbÅĻin": 4302,
      "Ġloun": 4303,
      "ĠvchrÃ¡m": 4304,
      "Ġcnost": 4305,
      "Ġjab": 4306,
      "Ġkse": 4307,
      "ĠÄįed": 4308,
      "Ġvste": 4309,
      "Ġsejn": 4310,
      "ĠdÅĻich": 4311,
      "ĠÅ¡ik": 4312,
      "Ġvsvou": 4313,
      "Ġllas": 4314,
      "ĠvsmÃŃ": 4315,
      "XAAB": 4316,
      "ĠjÃŃst": 4317,
      "Ġvtaj": 4318,
      "Ġkrm": 4319,
      "Ġmsta": 4320,
      "Ġrum": 4321,
      "ĠvÅ¾e": 4322,
      "Ġpin": 4323,
      "Ġlva": 4324,
      "ĠsmÄĽr": 4325,
      "ĠmiÄį": 4326,
      "ĠvdÅ¯m": 4327,
      "ĠÅ¥ou": 4328,
      "Ġfek": 4329,
      "ĠkÅĻep": 4330,
      "ĠhlÃ©m": 4331,
      "ĠjlÃŃp": 4332,
      "ĠblÅ¯": 4333,
      "ĠtosÅ¥": 4334,
      "Ġslan": 4335,
      "Ġmout": 4336,
      "Ġvkus": 4337,
      "Ġdci": 4338,
      "Ġjho": 4339,
      "ĠÅ¡iÄį": 4340,
      "ĠvÅĻes": 4341,
      "Ġtvol": 4342,
      "Ġjda": 4343,
      "ĠÅ¡tve": 4344,
      "Ġzob": 4345,
      "Ġshas": 4346,
      "Ġprot": 4347,
      "Ġdent": 4348,
      "ĠksvÃ½m": 4349,
      "Ġbul": 4350,
      "Ġvznik": 4351,
      "ĠvvÄĽ": 4352,
      "Ġpsk": 4353,
      "ÅĪou": 4354,
      "ĠzkaÅ¾": 4355,
      "AAAA": 4356,
      "Ġzak": 4357,
      "ĠkÅĻÃ¡": 4358,
      "dÄĽ": 4359,
      "ĠÅ¡ec": 4360,
      "ĠrÃ¡b": 4361,
      "Ġmrt": 4362,
      "ĠÅ¡kra": 4363,
      "Ġzrad": 4364,
      "ĠtlÃ½m": 4365,
      "ĠvpÅ¯l": 4366,
      "Ġtb": 4367,
      "Ġpoch": 4368,
      "ĠstiÅ¥": 4369,
      "ĠpÃ¡m": 4370,
      "ĠsÃ¡n": 4371,
      "Ġsluj": 4372,
      "Ġzvad": 4373,
      "Ġfar": 4374,
      "ĠdrÃ¡ch": 4375,
      "ĠmÅĻÃŃÅ¾": 4376,
      "ĠsnÃŃÅ¾": 4377,
      "ĠspÃŃs": 4378,
      "Ġduj": 4379,
      "Ġxe": 4380,
      "Ġsmat": 4381,
      "ĠzhÅ¯": 4382,
      "ĠprÅ¡": 4383,
      "ĠrÃ½Å¾": 4384,
      "ABCCBD": 4385,
      "ĠstrÃ©m": 4386,
      "Ġztvr": 4387,
      "Ġvska": 4388,
      "Ġvsvo": 4389,
      "Ġkhla": 4390,
      "Ġzmy": 4391,
      "Ġchme": 4392,
      "Ġvdech": 4393,
      "ĠverÅ¡": 4394,
      "Ġstkvost": 4395,
      "pÄĽ": 4396,
      "Ġvtak": 4397,
      "Ġsstou": 4398,
      "Ġksva": 4399,
      "ĠtkvÄĽ": 4400,
      "Ġvdiv": 4401,
      "Ġsval": 4402,
      "Ġnim": 4403,
      "Ġzme": 4404,
      "ĠvrÃ½": 4405,
      "ĠbÅĻeÅ¡": 4406,
      "Ġplen": 4407,
      "ĠzÄįech": 4408,
      "ĠÅ¡Ã¡t": 4409,
      "Ġgre": 4410,
      "Ġsnich": 4411,
      "Ġthos": 4412,
      "Ġhrd": 4413,
      "ĠcÃŃÅ¡": 4414,
      "ĠÄįtu": 4415,
      "mo": 4416,
      "Ġnoh": 4417,
      "ĠstÅĻech": 4418,
      "ĠsÅ¡e": 4419,
      "Ġkbla": 4420,
      "ĠÄįat": 4421,
      "Ġzik": 4422,
      "ĠvblÃ¡": 4423,
      "Ġvzta": 4424,
      "Ġdos": 4425,
      "Ġdis": 4426,
      "Ġvke": 4427,
      "ĠvosÅ¥": 4428,
      "ĠpÅĻeÄį": 4429,
      "rud": 4430,
      "ĠvstÃŃn": 4431,
      "Ġvhe": 4432,
      "ĠÅ¡tÄĽt": 4433,
      "ĠblÃ¡Äį": 4434,
      "Ġplout": 4435,
      "ĠbeÅ¡": 4436,
      "ĠÅ¾id": 4437,
      "ĠvprÅ¯": 4438,
      "ĠstvÃ½": 4439,
      "ABAX": 4440,
      "ĠztvÃ½ch": 4441,
      "Ġsklad": 4442,
      "Ġmsty": 4443,
      "ĠvbÅĻe": 4444,
      "ĠvskrÃ¡": 4445,
      "ĠÄıar": 4446,
      "Ġcr": 4447,
      "Ġrro": 4448,
      "ĠdÃ¡Å¾": 4449,
      "Ġstisk": 4450,
      "DC": 4451,
      "ĠdaÅĪ": 4452,
      "ĠÅ¡aÅ¡": 4453,
      "Ġad": 4454,
      "Ġvtan": 4455,
      "ĠbÃ¡ÅĪ": 4456,
      "Ġsmrou": 4457,
      "Ġsklon": 4458,
      "ĠmÅĪou": 4459,
      "ĠvstrÃ¡": 4460,
      "ĠzhÃ¡": 4461,
      "ĠzÃ½m": 4462,
      "Ġseh": 4463,
      "Ġmyr": 4464,
      "Ġvpi": 4465,
      "ĠrvÃ¡t": 4466,
      "ĠuÄį": 4467,
      "ĠplÃŃs": 4468,
      "BX": 4469,
      "ĠkÃ¡Å¾": 4470,
      "Ġruj": 4471,
      "ĠvsÃ¡": 4472,
      "ĠvspÄĽ": 4473,
      "ĠkpÃ¡": 4474,
      "Ġkut": 4475,
      "ĠÅ¾ÃŃr": 4476,
      "Ġvjar": 4477,
      "Ġzlit": 4478,
      "Ġdluh": 4479,
      "ĠnÃŃn": 4480,
      "Ġvzav": 4481,
      "Ġsvra": 4482,
      "Ġvlok": 4483,
      "Ġmzd": 4484,
      "ĠÅĻvou": 4485,
      "ĠsplÃŃ": 4486,
      "Ġsof": 4487,
      "Ġbloud": 4488,
      "ĠchÅ¯d": 4489,
      "Ġkf": 4490,
      "ĠkoÅ¾": 4491,
      "ĠmÅ¯r": 4492,
      "Ġtliv": 4493,
      "Ġdme": 4494,
      "Ġcyt": 4495,
      "Ġschla": 4496,
      "ĠsjÃŃ": 4497,
      "Ġzpl": 4498,
      "ĠzaÅĪ": 4499,
      "ĠzmlÃ¡": 4500,
      "AXA": 4501,
      "ĠpÅĻÃŃl": 4502,
      "ĠdÅ¯l": 4503,
      "Ġmdle": 4504,
      "ĠscÃ©": 4505,
      "ĠtÅĻu": 4506,
      "ĠdluÅ¾": 4507,
      "Ġvkruh": 4508,
      "Ġtrn": 4509,
      "Ġvpad": 4510,
      "Ġnve": 4511,
      "Ġbet": 4512,
      "ĠÄįla": 4513,
      "ĠmnÃŃm": 4514,
      "AXXB": 4515,
      "Ġvals": 4516,
      "Ġchoun": 4517,
      "ĠmÅĻi": 4518,
      "Ġmam": 4519,
      "ĠflÃ©": 4520,
      "ĠzplÃ¡": 4521,
      "Ġkvou": 4522,
      "vu": 4523,
      "Ġmic": 4524,
      "Ġsor": 4525,
      "ĠvÅ¡ÃŃÅĻ": 4526,
      "ĠdeÅ¡Å¥": 4527,
      "ĠkruÅ¡": 4528,
      "ĠvsluÅ¾": 4529,
      "ĠvzrÅ¯st": 4530,
      "ĠpaÄį": 4531,
      "Ġbyls": 4532,
      "ĠtenÅ¥": 4533,
      "Ġvsen": 4534,
      "ĠptÃ½": 4535,
      "ABCCDE": 4536,
      "Ġpnu": 4537,
      "Ġstop": 4538,
      "Ġkrav": 4539,
      "Ġvdol": 4540,
      "Ġnevr": 4541,
      "ĠjvÄĽr": 4542,
      "ĠÅ¡lÃ©m": 4543,
      "ĠÅ¾ÃŃk": 4544,
      "Ġlkal": 4545,
      "Ġsjed": 4546,
      "ĠsdÄĽt": 4547,
      "ĠplÃ¡n": 4548,
      "ĠÅ¾Ã¡k": 4549,
      "ĠknÃ½": 4550,
      "ĠjvÃ½Å¡": 4551,
      "ĠpÅĻis": 4552,
      "ĠpÃ¡k": 4553,
      "Ġschva": 4554,
      "ĠtoÄį": 4555,
      "Ġzoh": 4556,
      "Ġsci": 4557,
      "ĠmÃŃc": 4558,
      "Ġkce": 4559,
      "Ġsau": 4560,
      "Ġpon": 4561,
      "Ġbab": 4562,
      "ĠÃºÅ¡": 4563,
      "Ġmok": 4564,
      "Ġlub": 4565,
      "Ġvsnech": 4566,
      "ĠbÃ¡ÅĻ": 4567,
      "ĠzblÃ¡": 4568,
      "ĠÅ¾iÅ¥": 4569,
      "ĠztÃ¡": 4570,
      "ĠvbÃ¡z": 4571,
      "AXBBCC": 4572,
      "ĠvmÅ¾i": 4573,
      "Ġsdra": 4574,
      "ÅĻo": 4575,
      "Ġhrn": 4576,
      "Ġhve": 4577,
      "ĠpÅĻÃ¡t": 4578,
      "ĠdÅ¯t": 4579,
      "Ġplet": 4580,
      "ĠtaÅ¥": 4581,
      "ĠtouÅ¡": 4582,
      "ĠjsouÅ¥": 4583,
      "lÃ½m": 4584,
      "ĠkyÅĪ": 4585,
      "Ġcuj": 4586,
      "ĠÅĻÃŃz": 4587,
      "ĠvÃ½h": 4588,
      "ĠsÅĪat": 4589,
      "Ġpun": 4590,
      "ĠbraÅĪ": 4591,
      "ĠtoÅĪ": 4592,
      "lem": 4593,
      "ĠkÃ¡z": 4594,
      "Ġpud": 4595,
      "ĠtÅĻÃŃÄį": 4596,
      "he": 4597,
      "ĠtmÃ¡m": 4598,
      "ĠbÅĻÃŃz": 4599,
      "ĠkÃ¡r": 4600,
      "Ġrych": 4601,
      "ĠsÃ½c": 4602,
      "ĠzbÅ¯j": 4603,
      "ĠmaÅ¡": 4604,
      "ĠvdÄĽs": 4605,
      "Ġchry": 4606,
      "Ġnaiv": 4607,
      "ĠtnÃ©": 4608,
      "ĠtÃ¡Å¾": 4609,
      "ĠkaÅ¥": 4610,
      "Ġvaj": 4611,
      "Ġrud": 4612,
      "Ġvuj": 4613,
      "Ġhrej": 4614,
      "ĠtÅĻeb": 4615,
      "ĠvÃºs": 4616,
      "Ġop": 4617,
      "ĠroÅ¡": 4618,
      "lil": 4619,
      "ĠoÅĻ": 4620,
      "ĠtÃŃl": 4621,
      "Ġrub": 4622,
      "ĠkÅ¡tÄĽ": 4623,
      "ĠjÃ¡Å¥": 4624,
      "ĠÄįast": 4625,
      "ĠzhÅĻÃŃ": 4626,
      "ĠvblÃŃz": 4627,
      "ĠmÃ¡Äį": 4628,
      "Ġvbok": 4629,
      "ĠzÅ¾e": 4630,
      "Ġnuz": 4631,
      "Ġzech": 4632,
      "Ġbuch": 4633,
      "ĠplaÅ¥": 4634,
      "ĠdÃŃch": 4635,
      "Ġstvou": 4636,
      "Ġtrov": 4637,
      "Ġbrod": 4638,
      "Ġvzruch": 4639,
      "ĠÅĻed": 4640,
      "Ġlar": 4641,
      "Ġzub": 4642,
      "Ġzis": 4643,
      "ĠvrÅ¡": 4644,
      "Ġstvy": 4645,
      "tÃ¡": 4646,
      "ĠÅ¾nÃŃ": 4647,
      "Ġsfin": 4648,
      "Ġpst": 4649,
      "Ġket": 4650,
      "ĠdnÃ©m": 4651,
      "ĠpleÅ¥": 4652,
      "ĠstrÅĪ": 4653,
      "ĠgÃ©": 4654,
      "Ġzpoz": 4655,
      "ĠÅ¾ur": 4656,
      "ĠchrÅ¯": 4657,
      "Ġvtes": 4658,
      "ĠÅ¡vec": 4659,
      "Ġlod": 4660,
      "ĠhnÃ¡t": 4661,
      "Ġblys": 4662,
      "Ġvslav": 4663,
      "ĠplÅĪ": 4664,
      "Ġblouk": 4665,
      "ĠÅ¥uk": 4666,
      "Ġptej": 4667,
      "ĠmÃŃch": 4668,
      "ĠzvÃ¡t": 4669,
      "ĠhnÃ¡n": 4670,
      "Ġvklid": 4671,
      "ĠstÃ¡m": 4672,
      "ĠbloÅĪ": 4673,
      "ĠshlÃ©": 4674,
      "Ġkdru": 4675,
      "ĠhrÃ½": 4676,
      "ĠvzkÃ¡": 4677,
      "ĠpÅ¡": 4678,
      "ĠpÅĻip": 4679,
      "ĠpraÅ¡": 4680,
      "Ġfro": 4681,
      "Ġdak": 4682,
      "ĠhÅĻiv": 4683,
      "zt": 4684,
      "ĠviÅ¥": 4685,
      "ĠchtÃŃc": 4686,
      "ĠdÅ¾bÃ¡": 4687,
      "Ġvouz": 4688,
      "Ġvchod": 4689,
      "Ġvky": 4690,
      "ĠsnÄĽt": 4691,
      "ĠzkÅĻÃŃ": 4692,
      "ĠÅ¡tÄĽp": 4693,
      "Ġvnou": 4694,
      "Ġvouk": 4695,
      "Ġkpom": 4696,
      "Ġblem": 4697,
      "ĠchoÄı": 4698,
      "Ġvdra": 4699,
      "ĠslÃ¡v": 4700,
      "Ġksto": 4701,
      "Ġsmej": 4702,
      "Ġgyp": 4703,
      "Ġplem": 4704,
      "Ġdlal": 4705,
      "ĠstÅĻej": 4706,
      "Ġvyk": 4707,
      "ĠvpÅĻi": 4708,
      "ĠpÃ¡Å¾": 4709,
      "ĠvÃºz": 4710,
      "lÃ³": 4711,
      "Ġdals": 4712,
      "ĠÄįtvrt": 4713,
      "ĠjÃŃn": 4714,
      "Ġdrn": 4715,
      "ĠvÄįem": 4716,
      "Ġcon": 4717,
      "ĠbrÅ¯": 4718,
      "Ġskrej": 4719,
      "Ġtrysk": 4720,
      "Ġfla": 4721,
      "Ġres": 4722,
      "Ġkstro": 4723,
      "ĠÅ¾lout": 4724,
      "ĠvÃ¡d": 4725,
      "Ġmod": 4726,
      "Ġkvet": 4727,
      "ĠzprÃ¡v": 4728,
      "ĠkÄįer": 4729,
      "Ġdor": 4730,
      "ĠzvÅ¡e": 4731,
      "ĠkvÄĽÄį": 4732,
      "Ġtus": 4733,
      "Ġspy": 4734,
      "ĠtyÄį": 4735,
      "Ġjeh": 4736,
      "ĠvtÅ¯": 4737,
      "ĠchÅ¯v": 4738,
      "ĠvmÄĽk": 4739,
      "ĠsÃ½m": 4740,
      "Ġvbr": 4741,
      "Ġvrod": 4742,
      "Ġvsku": 4743,
      "ĠzkouÅ¡": 4744,
      "Ġchleb": 4745,
      "ÅĻou": 4746,
      "ĠpÅĻÃ¡h": 4747,
      "Ġcre": 4748,
      "ĠÅ¡eÅ¡": 4749,
      "Ġvyv": 4750,
      "ĠvzpÄĽ": 4751,
      "ĠvspÃ¡n": 4752,
      "ĠvsmÄĽ": 4753,
      "mi": 4754,
      "ĠchÅĻad": 4755,
      "ĠvskÃ¡": 4756,
      "ABABBC": 4757,
      "Ġvmdlo": 4758,
      "ĠÄįtou": 4759,
      "Ġbud": 4760,
      "ĠspÃ¡r": 4761,
      "ĠhÅ¯v": 4762,
      "Ġmuch": 4763,
      "ĠsÃŃd": 4764,
      "Ġzol": 4765,
      "ĠblaÅ¾": 4766,
      "Ġyon": 4767,
      "Ġvon": 4768,
      "ĠÅ¡klu": 4769,
      "ĠvkÅĻe": 4770,
      "ĠskÅĻÃŃÅĪ": 4771,
      "Ġvym": 4772,
      "Ġvis": 4773,
      "Ġsmou": 4774,
      "ĠtÃŃÄį": 4775,
      "ĠlÃ¡z": 4776,
      "Ġvleb": 4777,
      "Ġchlub": 4778,
      "Ġchlum": 4779,
      "ĠleÄı": 4780,
      "ĠpÃŃc": 4781,
      "Ġgil": 4782,
      "Ġzut": 4783,
      "ĠstÄĽÅ¾": 4784,
      "Ġvbles": 4785,
      "ĠznÃŃt": 4786,
      "BD": 4787,
      "Ġjvo": 4788,
      "ĠtaÅ¾": 4789,
      "Ġtram": 4790,
      "Ġssu": 4791,
      "Ġksta": 4792,
      "ĠlouÄį": 4793,
      "Ġchmat": 4794,
      "Ġztros": 4795,
      "ĠkÅĪa": 4796,
      "Ġmun": 4797,
      "Ġvzpja": 4798,
      "Ġvstr": 4799,
      "Ġstyd": 4800,
      "ĠskoÄį": 4801,
      "ĠmiÅĪ": 4802,
      "ĠmÃ¡v": 4803,
      "ĠspÃ¡d": 4804,
      "ĠkrouÅ¾": 4805,
      "Ġvzrak": 4806,
      "Ġnor": 4807,
      "ĠpÅĻiÅ¡": 4808,
      "ĠvmrÃ¡": 4809,
      "Ġtrost": 4810,
      "Ġvchva": 4811,
      "Ġproj": 4812,
      "Ġil": 4813,
      "ĠmÃ¡ÅĻ": 4814,
      "Ġpoun": 4815,
      "ĠsiÄį": 4816,
      "ĠmÃ©n": 4817,
      "ku": 4818,
      "Ġzau": 4819,
      "Ġbron": 4820,
      "ĠbÅĻÃŃÅ¡": 4821,
      "ĠnaÅ¥": 4822,
      "Ġkoz": 4823,
      "Ġjam": 4824,
      "ĠmÃŃÅ¥": 4825,
      "ĠsÄįÃŃ": 4826,
      "ABABXX": 4827,
      "ĠsrÅ¯": 4828,
      "ĠkÄį": 4829,
      "ĠÅ¾ed": 4830,
      "Ġfil": 4831,
      "ĠÅ¡els": 4832,
      "Ġkhra": 4833,
      "Ġfouk": 4834,
      "Ġstoud": 4835,
      "Ġvep": 4836,
      "ĠÄįesÅ¥": 4837,
      "ĠtÅ¯Äį": 4838,
      "ĠpÃ½r": 4839,
      "Ġrac": 4840,
      "Ġklon": 4841,
      "Ġvmoz": 4842,
      "ĠpÅ¯r": 4843,
      "Ġprut": 4844,
      "Ġzhe": 4845,
      "ĠÅĻÅ¯v": 4846,
      "Ġvzlo": 4847,
      "ĠvzhlÃ©d": 4848,
      "Ġkum": 4849,
      "Ġmel": 4850,
      "ĠctÃŃm": 4851,
      "Ġctil": 4852,
      "ĠzmÄĽk": 4853,
      "ĠtmÄĽl": 4854,
      "Ġvkal": 4855,
      "ĠlpÃŃ": 4856,
      "ĠlÃ¡r": 4857,
      "ĠhÃ½Äį": 4858,
      "ĠvÃ½t": 4859,
      "Ġmant": 4860,
      "Ġhot": 4861,
      "Ġtai": 4862,
      "ĠbÃ©m": 4863,
      "Ġcep": 4864,
      "ĠvÄĽsÅ¥": 4865,
      "Ġvplo": 4866,
      "ĠvÅĻÃŃn": 4867,
      "AXABBC": 4868,
      "ĠbrÃ©m": 4869,
      "ĠÅ¡tÄĽr": 4870,
      "Ġtyr": 4871,
      "ĠÄįÃ¡p": 4872,
      "Ġtres": 4873,
      "Ġcouv": 4874,
      "ĠzkrÃ¡s": 4875,
      "ĠvplÃ¡Äį": 4876,
      "Ġvvo": 4877,
      "ĠÃºÄį": 4878,
      "Ġtrum": 4879,
      "Ġalp": 4880,
      "Ġplic": 4881,
      "ĠknimÅ¾": 4882,
      "ĠuÅ¡t": 4883,
      "Ġvtrh": 4884,
      "CB": 4885,
      "ĠstÃŃÅ¡": 4886,
      "Ġloub": 4887,
      "Ġsiv": 4888,
      "Ġplan": 4889,
      "ĠchlÃ©m": 4890,
      "Ġstrhl": 4891,
      "ĠjeÄı": 4892,
      "ĠchÃ¡n": 4893,
      "ĠctnÃ¡": 4894,
      "Ġruk": 4895,
      "ABBB": 4896,
      "Ġzoun": 4897,
      "ĠslÃ½ch": 4898,
      "ĠjaÅĻ": 4899,
      "Ġvul": 4900,
      "ĠzmÄĽn": 4901,
      "ĠvÅ¡p": 4902,
      "ĠvhnÃŃz": 4903,
      "ĠznÄĽj": 4904,
      "ABABCX": 4905,
      "Ġnva": 4906,
      "ĠÅ¡ÃŃÅĻ": 4907,
      "ĠÅ¾dÃ¡": 4908,
      "Ġjor": 4909,
      "Ġstlu": 4910,
      "Ġlyp": 4911,
      "ĠvkÃ¡": 4912,
      "Ġtot": 4913,
      "ĠtuÅ¡": 4914,
      "Ġkouk": 4915,
      "Ġsus": 4916,
      "Ġstvi": 4917,
      "rÃ½": 4918,
      "Ġkma": 4919,
      "ĠlstÃŃ": 4920,
      "ĠhoÄı": 4921,
      "Ġzod": 4922,
      "ĠkleÅ¡": 4923,
      "Ġzyv": 4924,
      "Ġkslo": 4925,
      "bo": 4926,
      "ĠÅĻest": 4927,
      "Ġvbar": 4928,
      "ĠsmÄĽj": 4929,
      "ĠzdÃ¡v": 4930,
      "Ġhold": 4931,
      "Ġpul": 4932,
      "Ġtas": 4933,
      "Ġtknu": 4934,
      "ĠsÅĪal": 4935,
      "ta": 4936,
      "Ġzdej": 4937,
      "ĠsÄįer": 4938,
      "ĠskÅĻou": 4939,
      "ĠÅ¾ich": 4940,
      "ĠhouÅ¡Å¥": 4941,
      "ĠÅ¡ke": 4942,
      "ĠvloÄį": 4943,
      "Ġcli": 4944,
      "Ġhil": 4945,
      "Ġvslou": 4946,
      "ĠchlÃ½ch": 4947,
      "Ġdbej": 4948,
      "ĠchÅĻ": 4949,
      "ĠvÅ¡tÃŃ": 4950,
      "ABABXC": 4951,
      "ĠstÃ¡h": 4952,
      "Ġzplo": 4953,
      "ĠsÃ¡z": 4954,
      "ĠkÅ¡ÃŃ": 4955,
      "ĠstuÅ¾": 4956,
      "ĠteÅ¡": 4957,
      "Ġloz": 4958,
      "Ġbuv": 4959,
      "Ġslab": 4960,
      "ĠtÅ¯ÅĪ": 4961,
      "ĠbÃŃÅ¡": 4962,
      "ĠsvÃŃÄį": 4963,
      "ĠvzÃ¡m": 4964,
      "Ġstvol": 4965,
      "ĠnÃŃt": 4966,
      "Ġvss": 4967,
      "Ġspov": 4968,
      "Ġprus": 4969,
      "Ġvkri": 4970,
      "Ġvzmat": 4971,
      "23": 4972,
      "ĠÅĻisÅ¥": 4973,
      "Ġzust": 4974,
      "ĠmdlÃ½ch": 4975,
      "ĠspuÅ¡": 4976,
      "Ġmn": 4977,
      "ĠmÃº": 4978,
      "Ġzmlk": 4979,
      "ĠvÅ¾ÃŃ": 4980,
      "AAXBBC": 4981,
      "Ġnne": 4982,
      "ĠÅ¥Ã¡t": 4983,
      "Ġvryl": 4984,
      "Ġzfo": 4985,
      "ĠdÅ¾bÃ¡n": 4986,
      "ĠshvÄĽz": 4987,
      "ĠlvÃŃ": 4988,
      "ĠplaÅ¡": 4989,
      "ĠpÃ¡t": 4990,
      "ĠÅ¥Ã¡l": 4991,
      "ĠktvÃ©": 4992,
      "Ġkzu": 4993,
      "Ġtran": 4994,
      "ĠslÃŃÄį": 4995,
      "Ġvmoc": 4996,
      "Ġkvra": 4997,
      "ĠsnÃŃmÅ¾": 4998,
      "ĠstÅĻiÄį": 4999,
      "jat": 5000,
      "Ġtav": 5001,
      "ĠsnÃŃÅ¡": 5002,
      "Ġsmek": 5003,
      "Ġrmu": 5004,
      "Ġvah": 5005,
      "Ġsyc": 5006,
      "ĠskvÄĽl": 5007,
      "nt": 5008,
      "ĠdÅĻev": 5009,
      "AXAXB": 5010,
      "Ġsis": 5011,
      "Ġzre": 5012,
      "ĠtnÃŃm": 5013,
      "ĠlÃ©Äį": 5014,
      "Ġsouc": 5015,
      "ĠzchrÃ¡": 5016,
      "Ġost": 5017,
      "ĠsÃŃt": 5018,
      "ĠrouÅ¾": 5019,
      "ĠskÅĻek": 5020,
      "ĠpÃŃÄı": 5021,
      "Ġstrem": 5022,
      "ĠzvÄĽÄį": 5023,
      "AAXBBX": 5024,
      "ny": 5025,
      "Ã¤": 5026,
      "ĠbeÅĻ": 5027,
      "ĠÅĻÃŃÄį": 5028,
      "Ġvzky": 5029,
      "Ġzchu": 5030,
      "Ġskep": 5031,
      "ĠÅĻval": 5032,
      "ĠzÃŃk": 5033,
      "Ġjmen": 5034,
      "Ġvkla": 5035,
      "ĠnnÃŃk": 5036,
      "ĠÄįtr": 5037,
      "ĠsjÃ¡": 5038,
      "ĠÅ¡tvÃ¡n": 5039,
      "ĠÅ¡ÃŃr": 5040,
      "us": 5041,
      "Ġzz": 5042,
      "Ġsvoj": 5043,
      "Ġther": 5044,
      "Ġknil": 5045,
      "ĠdÃŃr": 5046,
      "ĠsviÅ¡": 5047,
      "ĠzklÃ¡": 5048,
      "ĠÅ¾nÄĽ": 5049,
      "Ġbed": 5050,
      "ĠblaÄį": 5051,
      "Ġllus": 5052,
      "ĠÅ¡ÅĪ": 5053,
      "Ġvsad": 5054,
      "Ġshl": 5055,
      "ĠzdÃ½": 5056,
      "Ġfry": 5057,
      "ĠvÅĻi": 5058,
      "Ġskte": 5059,
      "Ġsmlu": 5060,
      "Ġhum": 5061,
      "ĠkliÄı": 5062,
      "ĠkpÅĻÃŃ": 5063,
      "ĠvspÃ¡": 5064,
      "ĠÄįlÃ¡": 5065,
      "Ġproh": 5066,
      "Ġkaj": 5067,
      "Ġdliv": 5068,
      "Ġvrb": 5069,
      "ĠztmÄĽ": 5070,
      "ĠvhÅĻÃŃ": 5071,
      "ĠÅĪÃ¡k": 5072,
      "Ġhmyz": 5073,
      "Ġtral": 5074,
      "ĠkjÃŃ": 5075,
      "Ġpark": 5076,
      "ĠctÃŃt": 5077,
      "Ġmzdu": 5078,
      "Ġvtru": 5079,
      "Ġspros": 5080,
      "ABCABC": 5081,
      "Ġkta": 5082,
      "ĠssÃ¡l": 5083,
      "ĠmlÃ©Äį": 5084,
      "Ġchcy": 5085,
      "Ġvspol": 5086,
      "Ġhnout": 5087,
      "Ġjaks": 5088,
      "ĠÅĻiÅ¥": 5089,
      "ĠzhnÃŃz": 5090,
      "ĠpnÄĽ": 5091,
      "ĠÅ¾ab": 5092,
      "Ġtrup": 5093,
      "ĠcÃ¡r": 5094,
      "Ġsjas": 5095,
      "ĠvÅĻeÄį": 5096,
      "Ġgram": 5097,
      "Ġzeh": 5098,
      "ĠhruÅ¡": 5099,
      "ĠhÅĻÃ¡l": 5100,
      "ĠchmÅ¯": 5101,
      "ĠdaÄį": 5102,
      "Ġprinc": 5103,
      "ĠdcÅ¯": 5104,
      "Ġzdal": 5105,
      "ÄıÃ¡": 5106,
      "Ġmdlou": 5107,
      "ĠvtÄĽs": 5108,
      "ĠÄįmu": 5109,
      "ĠvÄįes": 5110,
      "Ġvnic": 5111,
      "ĠbÄĽj": 5112,
      "ĠvkÅĻi": 5113,
      "Ġgis": 5114,
      "ĠhrÃ¡ch": 5115,
      "ĠvzhlÃŃ": 5116,
      "ĠdnÃŃm": 5117,
      "Ġlhal": 5118,
      "Ġxan": 5119,
      "ĠsbÄĽh": 5120,
      "ĠpoÄı": 5121,
      "Ġes": 5122,
      "ĠmdlÃ½m": 5123,
      "ĠvvÃ½": 5124,
      "ĠflÃ©t": 5125,
      "Ġtch": 5126,
      "Ġzov": 5127,
      "ĠrÃ½n": 5128,
      "ĠÄıou": 5129,
      "Ġsdi": 5130,
      "Ã³n": 5131,
      "Ġmnil": 5132,
      "Ġmouc": 5133,
      "ĠptÃ¡t": 5134,
      "ĠzhlÃŃd": 5135,
      "Ġvmech": 5136,
      "ĠhÃº": 5137,
      "Ġtim": 5138,
      "Ġdmu": 5139,
      "ĠstÅĻen": 5140,
      "Ġlav": 5141,
      "Ġtlesk": 5142,
      "Ġrras": 5143,
      "ĠkoÅĪ": 5144,
      "ĠtoÅ¡": 5145,
      "ĠpÄĽsÅ¥": 5146,
      "Ġchas": 5147,
      "ĠÅ¡kÃ¡": 5148,
      "ABACCB": 5149,
      "Ġchel": 5150,
      "Ġgend": 5151,
      "ĠprÃ©": 5152,
      "ĠvkÅ¯": 5153,
      "Ġspek": 5154,
      "ĠksluÅ¾": 5155,
      "Ġzdru": 5156,
      "ĠpÄĽÅ¡": 5157,
      "ĠzmÃ½ch": 5158,
      "Ġgur": 5159,
      "Ġshluk": 5160,
      "Ġblah": 5161,
      "ABCDDC": 5162,
      "ĠÅ¡kleb": 5163,
      "ĠzÅ¾i": 5164,
      "ĠkaÄį": 5165,
      "Ġvzbo": 5166,
      "ĠY": 5167,
      "ĠjÃ¡c": 5168,
      "Ġzuj": 5169,
      "ĠpÅ¯st": 5170,
      "Ġvlez": 5171,
      "ĠvtmÄĽ": 5172,
      "ĠsÃ¡k": 5173,
      "ĠpsÅ¯": 5174,
      "ĠÅ¡pe": 5175,
      "ĠvnÄĽjÅ¾": 5176,
      "ĠnÃŃÅ¥": 5177,
      "ĠÅ¾ej": 5178,
      "ĠryÄį": 5179,
      "Ġred": 5180,
      "Ġhlup": 5181,
      "Ġschne": 5182,
      "Ġvskal": 5183,
      "ĠvdÃŃl": 5184,
      "ĠÅ¡vÃ¡": 5185,
      "ĠmaÄį": 5186,
      "Ġis": 5187,
      "XAXX": 5188,
      "Ġvmar": 5189,
      "Ġllen": 5190,
      "ĠvhvÄĽz": 5191,
      "ĠproÅĪ": 5192,
      "ĠÅ¡tÃ¡": 5193,
      "Ġtlit": 5194,
      "ĠÅ¾la": 5195,
      "Ġvzmu": 5196,
      "ĠsnÃŃl": 5197,
      "ĠthÃ©": 5198,
      "Ġwa": 5199,
      "Ġchost": 5200,
      "ĠkÅ¯l": 5201,
      "Ġssy": 5202,
      "ĠÅ¡etÅĻ": 5203,
      "ĠspÅ¯": 5204,
      "ĠtrÃ¡m": 5205,
      "ĠztvÃ©": 5206,
      "Ġtrob": 5207,
      "Ġlamp": 5208,
      "Ġsteh": 5209,
      "ĠÅ¡perk": 5210,
      "Ġdsk": 5211,
      "Ġmlej": 5212,
      "Ġkas": 5213,
      "ĠÄįiÅ¥": 5214,
      "ĠzklÃŃ": 5215,
      "Ġkres": 5216,
      "Ġkluz": 5217,
      "ĠsÅ¥": 5218,
      "ĠdÃ¡Å¥": 5219,
      "ĠhÃ¡l": 5220,
      "Ġsluh": 5221,
      "ĠziÄį": 5222,
      "vÃ¡t": 5223,
      "Ġchlej": 5224,
      "Ġkza": 5225,
      "ĠflÃŃk": 5226,
      "ĠÅĪÅ¯m": 5227,
      "Ġbros": 5228,
      "ĠvpouÅ¡Å¥": 5229,
      "Ġpuch": 5230,
      "ĠschvÃ¡l": 5231,
      "ĠhÅĻmÄĽl": 5232,
      "ĠkmeÅ¥": 5233,
      "Ġvdov": 5234,
      "Ġlog": 5235,
      "Ġzmd": 5236,
      "ĠsdÅ¯": 5237,
      "ĠzrÃ¡l": 5238,
      "Ġtc": 5239,
      "ĠzÄįi": 5240,
      "Ġbuk": 5241,
      "ĠtÃ©r": 5242,
      "Ġsbi": 5243,
      "Ġvskry": 5244,
      "Ġvhud": 5245,
      "Ġhluch": 5246,
      "Ġsved": 5247,
      "ĠloÅĪ": 5248,
      "ĠsÃ¡Å¡": 5249,
      "ĠkÅĻest": 5250,
      "up": 5251,
      "Ġduh": 5252,
      "ĠÅ¡lÃ¡p": 5253,
      "ĠvoÄı": 5254,
      "Ġzkon": 5255,
      "AXXX": 5256,
      "ĠÅ¡lou": 5257,
      "Ġnoz": 5258,
      "ĠvtÅĻe": 5259,
      "Ġllah": 5260,
      "Ġprok": 5261,
      "Ġspjat": 5262,
      "Ġprak": 5263,
      "Ġvjel": 5264,
      "ĠvÅ¡um": 5265,
      "Ġvzkaz": 5266,
      "Ġsam": 5267,
      "ĠpÅĻih": 5268,
      "ĠvkÅĻo": 5269,
      "ĠsnÅ¯v": 5270,
      "Ġrach": 5271,
      "ĠbÄĽn": 5272,
      "ĠpiÅ¥": 5273,
      "ĠdrÃ¡t": 5274,
      "ĠvdÃ¡v": 5275,
      "Ġsvad": 5276,
      "Ġmid": 5277,
      "Ġzkli": 5278,
      "Ġvkon": 5279,
      "Ġfrau": 5280,
      "Ã¶": 5281,
      "Ġmaj": 5282,
      "Ġvstav": 5283,
      "Ġzvln": 5284,
      "ĠsÅ¡ÃŃ": 5285,
      "ĠÅ¾hnou": 5286,
      "ĠroÄį": 5287,
      "ĠprÃ¡s": 5288,
      "Ġzlom": 5289,
      "ĠvbÄĽh": 5290,
      "ĠsoÅ¡": 5291,
      "Ġspos": 5292,
      "ĠvjichÅ¾": 5293,
      "Ġsde": 5294,
      "Ġsev": 5295,
      "ĠdlÃŃt": 5296,
      "AABBXX": 5297,
      "Ġhvizd": 5298,
      "ABBCDC": 5299,
      "ĠvzdÃ¡t": 5300,
      "ĠdejÅ¾": 5301,
      "XAXABC": 5302,
      "Ġtn": 5303,
      "Ġgor": 5304,
      "ĠzbÃ¡": 5305,
      "ĠshlÃ©d": 5306,
      "ĠsÃ½Å¡": 5307,
      "ĠkÅ¾a": 5308,
      "Ġvtros": 5309,
      "ĠspÄĽt": 5310,
      "ĠpÅĻeÅ¡": 5311,
      "Ġbaj": 5312,
      "th": 5313,
      "ĠÅ¡lu": 5314,
      "Ġtuh": 5315,
      "ĠÅ¡lal": 5316,
      "ĠvstraÅ¡": 5317,
      "Ġzkom": 5318,
      "ĠvchÅ¯": 5319,
      "ĠrÃ¡r": 5320,
      "Ġchyl": 5321,
      "Ġklec": 5322,
      "ĠÅĪal": 5323,
      "ĠkspÃ¡": 5324,
      "Ġpjal": 5325,
      "Ġmir": 5326,
      "ĠfrÃ½": 5327,
      "Ġvsto": 5328,
      "ĠvpÃ½": 5329,
      "ĠvzhlÃ©": 5330,
      "Ġzchla": 5331,
      "ĠzsvÃ©": 5332,
      "ĠvvÄĽÄį": 5333,
      "ĠsvÅ¡e": 5334,
      "Ġhran": 5335,
      "Ġvmat": 5336,
      "ĠzhrÅ¯": 5337,
      "ĠvpÅĻÃŃÅ¡": 5338,
      "Ġrdou": 5339,
      "ABXX": 5340,
      "Ġsbu": 5341,
      "ĠtÅĻiÄį": 5342,
      "ĠkplÃ¡": 5343,
      "ĠÄįtyÅĻ": 5344,
      "Ġvproud": 5345,
      "Ġhop": 5346,
      "Ġhma": 5347,
      "Ġvsh": 5348,
      "Ġhouk": 5349,
      "Ġklub": 5350,
      "Ġbard": 5351,
      "Ġzpom": 5352,
      "lech": 5353,
      "ĠpÃŃch": 5354,
      "XAXAXA": 5355,
      "ĠvbouÅĻ": 5356,
      "Ġjve": 5357,
      "Ġhraj": 5358,
      "Ġbert": 5359,
      "Ġgri": 5360,
      "hy": 5361,
      "ĠdÄĽls": 5362,
      "ĠzlÃ©m": 5363,
      "Ġcir": 5364,
      "ĠÄįÃŃl": 5365,
      "ĠhlÅ¯": 5366,
      "ABACBC": 5367,
      "ĠtÄĽc": 5368,
      "ĠzmÄĽÅ¥": 5369,
      "ĠstÃŃh": 5370,
      "Ġsir": 5371,
      "ĠktrÅ¯": 5372,
      "Ġzmlh": 5373,
      "Ġmrd": 5374,
      "ĠvÃ¡t": 5375,
      "ĠzÃ¡j": 5376,
      "Ġsyv": 5377,
      "Ġzeb": 5378,
      "ĠslasÅ¥": 5379,
      "Ġhrb": 5380,
      "ĠjlÃ©": 5381,
      "ĠstÃŃs": 5382,
      "Ġsrb": 5383,
      "ĠstÃ¡v": 5384,
      "ĠpÃ¡Å¡": 5385,
      "Ġsvist": 5386,
      "ĠbrÃ¡n": 5387,
      "Ġjep": 5388,
      "Ġces": 5389,
      "ĠsmÃ½m": 5390,
      "ĠpÃŃk": 5391,
      "Ġvzpjal": 5392,
      "ĠsbÅĻe": 5393,
      "ĠÅ¾uj": 5394,
      "Ġprob": 5395,
      "Ġsvrh": 5396,
      "Ġzhloub": 5397,
      "Ġvak": 5398,
      "Ġktan": 5399,
      "ol": 5400,
      "Ġkord": 5401,
      "ĠvdÃ½m": 5402,
      "Ġhlod": 5403,
      "ĠdlÃ¡m": 5404,
      "XXAA": 5405,
      "Ġcid": 5406,
      "Ġtlej": 5407,
      "Ġck": 5408,
      "ĠsplÃ©": 5409,
      "Ġsyp": 5410,
      "ĠsvlÃ©": 5411,
      "ĠÅ¡ech": 5412,
      "Ġvsni": 5413,
      "Ġstlou": 5414,
      "XAAX": 5415,
      "Ġvsnu": 5416,
      "Ġblek": 5417,
      "Ġsble": 5418,
      "ĠkÅĻt": 5419,
      "ĠvrÅ¯z": 5420,
      "ĠvcÃŃr": 5421,
      "ĠÄįle": 5422,
      "ĠlkÃ¡t": 5423,
      "ĠzlÃ¡t": 5424,
      "ĠvcÃ¡": 5425,
      "ĠkspÃ¡n": 5426,
      "Ġkoch": 5427,
      "ĠvÃŃÅ¾": 5428,
      "Ġslat": 5429,
      "Ġsoum": 5430,
      "ĠzhouÅ¡": 5431,
      "Ġvhrad": 5432,
      "Ġzmdle": 5433,
      "ĠÅ¡Ã¡l": 5434,
      "ĠbaÅ¡": 5435,
      "Ġvpan": 5436,
      "AXABCB": 5437,
      "Ġbvi": 5438,
      "ĠÅĻet": 5439,
      "ÅĪÃ¡": 5440,
      "ĠtÅĻej": 5441,
      "Ġtvrz": 5442,
      "Ġtroud": 5443,
      "ĠmnÃŃÅ¡": 5444,
      "Ġshra": 5445,
      "Ġcus": 5446,
      "ĠvÅ¾Ã¡r": 5447,
      "ĠvÅ¡el": 5448,
      "Ġvrop": 5449,
      "AAABB": 5450,
      "Ġsef": 5451,
      "ĠlÃ¡d": 5452,
      "Ġhles": 5453,
      "Ġdrh": 5454,
      "ĠzdÃ¡t": 5455,
      "ĠÅ¥Äįe": 5456,
      "ĠvneÅ¡": 5457,
      "ĠchtÃŃÄį": 5458,
      "Ġzdum": 5459,
      "ĠÄįac": 5460,
      "ĠvlÃ¡k": 5461,
      "ĠchÃ½Å¡": 5462,
      "ĠzrÃ½": 5463,
      "ĠskrÃ½t": 5464,
      "Ġsplav": 5465,
      "Ġslet": 5466,
      "ĠzvÃ¡Å¾": 5467,
      "Ġvpev": 5468,
      "ĠkyÅ¾": 5469,
      "Ġpet": 5470,
      "ĠvznÃ©st": 5471,
      "Ġag": 5472,
      "Ġztla": 5473,
      "ĠsbÃŃr": 5474,
      "ABBCDD": 5475,
      "Ġras": 5476,
      "ky": 5477,
      "Ġjh": 5478,
      "ĠvÅ¾al": 5479,
      "Ġsdce": 5480,
      "Ġknuv": 5481,
      "ĠhoÅ¡": 5482,
      "ĠhÅĻÃ¡t": 5483,
      "Ġkhru": 5484,
      "Ġvstoup": 5485,
      "Ġvtlu": 5486,
      "Ġec": 5487,
      "Ġztlu": 5488,
      "Ġztre": 5489,
      "Ġzdep": 5490,
      "Ġksy": 5491,
      "Ġprask": 5492,
      "ÅĪal": 5493,
      "Ġvtla": 5494,
      "Ġvzdej": 5495,
      "Ġfin": 5496,
      "ĠÅ¾rÃ¡": 5497,
      "Ġvut": 5498,
      "ĠtouÄį": 5499,
      "ĠklÃ¡st": 5500,
      "Ġhviz": 5501,
      "ĠzÅ¯m": 5502,
      "ĠstrasÅ¥": 5503,
      "ĠtÅĻÃŃc": 5504,
      "Ġsdan": 5505,
      "Ġhloh": 5506,
      "ĠzdÄĽt": 5507,
      "ĠpskÃ½ch": 5508,
      "ĠjÃŃÄį": 5509,
      "Ġklat": 5510,
      "XAXAXX": 5511,
      "ĠvÅĻeÅ¡": 5512,
      "Ġskot": 5513,
      "Ġschou": 5514,
      "ĠhÅĻmÃŃt": 5515,
      "ĠstvÄĽ": 5516,
      "ĠhaÄį": 5517,
      "ĠflÃ³": 5518,
      "ĠbouÄį": 5519,
      "ĠztÅĻe": 5520,
      "Ġvzep": 5521,
      "Ġzcha": 5522,
      "Ġwe": 5523,
      "Ġsg": 5524,
      "Ġvpos": 5525,
      "ĠÅ¥Ã¡k": 5526,
      "Ġdvrh": 5527,
      "Ġbob": 5528,
      "ĠzÄįÃŃ": 5529,
      "ĠpeÅ¡": 5530,
      "ĠkrÃ½ch": 5531,
      "Ġbic": 5532,
      "ĠbraÅ¥": 5533,
      "Ġshu": 5534,
      "ĠvlÃ¡t": 5535,
      "Ġmau": 5536,
      "ĠtrÄį": 5537,
      "Ġsvah": 5538,
      "Ġdles": 5539,
      "ĠmÄĽls": 5540,
      "Ġvtrp": 5541,
      "ĠnÄĽv": 5542,
      "Ġkpe": 5543,
      "ĠchÃ½Å¾": 5544,
      "Ġsklep": 5545,
      "Ġvbah": 5546,
      "Ġzbez": 5547,
      "AXAA": 5548,
      "Ġvsho": 5549,
      "ĠtmÃ¡": 5550,
      "ĠzdÅĻÃŃm": 5551,
      "Ġzast": 5552,
      "lun": 5553,
      "ĠvplÃŃ": 5554,
      "ĠptÃ¡Å¡": 5555,
      "ĠsmÃŃÅ¡": 5556,
      "ĠctÄĽn": 5557,
      "Ġkhar": 5558,
      "XXAX": 5559,
      "Ġsov": 5560,
      "ĠgrÃ¡": 5561,
      "ĠÄıme": 5562,
      "ĠvzbuÄı": 5563,
      "ĠztvÃ¡": 5564,
      "ĠzvÃŃd": 5565,
      "ĠÅ¾ne": 5566,
      "Ġzper": 5567,
      "ĠÅ¡ejd": 5568,
      "ĠonÅ¥": 5569,
      "Ġslout": 5570,
      "ĠvÅĻÃŃs": 5571,
      "AAXXBB": 5572,
      "Ġdlej": 5573,
      "ĠhlÃº": 5574,
      "Ġoud": 5575,
      "ĠvdÄĽt": 5576,
      "ĠvÃºc": 5577,
      "Ġvstup": 5578,
      "ĠÅ¡eÅ¥": 5579,
      "ĠstÃŃch": 5580,
      "Ġsum": 5581,
      "ĠsdÃŃt": 5582,
      "ĠvchÃ½": 5583,
      "Ġtrouch": 5584,
      "Ġbus": 5585,
      "Ġbiz": 5586,
      "Ġvrej": 5587,
      "ĠcÃ½r": 5588,
      "ĠklÃŃÅĻ": 5589,
      "ĠvzlÃ©t": 5590,
      "Ġsza": 5591,
      "Ġvblu": 5592,
      "ĠtevÅĻ": 5593,
      "ĠlpÄĽ": 5594,
      "Ġcej": 5595,
      "ĠsÅ¯l": 5596,
      "Ġmdlob": 5597,
      "ĠtÅĻas": 5598,
      "Ġzkaz": 5599,
      "ĠvloÅ¾": 5600,
      "Ġai": 5601,
      "ĠvisÅ¥": 5602,
      "ĠzbÅĻe": 5603,
      "ĠtÅĻech": 5604,
      "Ġzhan": 5605,
      "ĠsÅĻe": 5606,
      "Ġkrt": 5607,
      "Ġvsbo": 5608,
      "ĠtÅĻev": 5609,
      "Ġcval": 5610,
      "Ġoch": 5611,
      "Ġlim": 5612,
      "Ġvas": 5613,
      "ĠtaÅ¡": 5614,
      "ĠsprÃ¡z": 5615,
      "Ġsun": 5616,
      "ĠmnÄĽl": 5617,
      "Ġdlost": 5618,
      "Ġnals": 5619,
      "Ġvsvor": 5620,
      "Ġjec": 5621,
      "Ġsmla": 5622,
      "Ġdroz": 5623,
      "Ġchav": 5624,
      "Ġhrud": 5625,
      "Ġvsed": 5626,
      "Ġakt": 5627,
      "ÃŃs": 5628,
      "ĠvÃ¡c": 5629,
      "ĠnnÃ¡m": 5630,
      "ĠvdÅ¯l": 5631,
      "ĠzblÃ¡z": 5632,
      "Ġprej": 5633,
      "AXBBCD": 5634,
      "Ġvps": 5635,
      "ĠÅ¡plÃŃ": 5636,
      "Ġvve": 5637,
      "Ġtau": 5638,
      "ĠtÄĽp": 5639,
      "Ġvkar": 5640,
      "ĠzmÃ½": 5641,
      "Ġtman": 5642,
      "ĠÅ¡ov": 5643,
      "lan": 5644,
      "Ġzst": 5645,
      "Ġsman": 5646,
      "ĠvlÃ¡l": 5647,
      "Ġzvlh": 5648,
      "Ġjic": 5649,
      "ĠmuÅ¥": 5650,
      "Ġvklu": 5651,
      "Ġzhl": 5652,
      "ĠÄıu": 5653,
      "Ġgerd": 5654,
      "ĠÄįis": 5655,
      "Ġvper": 5656,
      "ĠzhvÄĽz": 5657,
      "Ġpuj": 5658,
      "ĠskloÅĪ": 5659,
      "Ġsver": 5660,
      "ĠshlÃŃd": 5661,
      "Ġzlid": 5662,
      "Ġumf": 5663,
      "Ġsjel": 5664,
      "jÅ¡": 5665,
      "Ġjlil": 5666,
      "ĠÅ¾ÃŃÄį": 5667,
      "Ġvus": 5668,
      "ĠryÅ¡": 5669,
      "ĠzkÅĻe": 5670,
      "ĠkamÅ¾": 5671,
      "ĠtÅĻa": 5672,
      "ĠvnÃ¡d": 5673,
      "ĠvplÃ¡Å¡Å¥": 5674,
      "ĠÄįpÃŃ": 5675,
      "Ġpam": 5676,
      "Ġtvrd": 5677,
      "ĠjsemÅ¥": 5678,
      "Ġtym": 5679,
      "ĠgÃ¡n": 5680,
      "ĠzÃ¡Å¡t": 5681,
      "ĠsdÃŃl": 5682,
      "Ġie": 5683,
      "Ġham": 5684,
      "ĠkeÅ¡": 5685,
      "Ġnezv": 5686,
      "Ġschnou": 5687,
      "ĠÅĻan": 5688,
      "Ġgraf": 5689,
      "ĠvlÅ¯Å¾": 5690,
      "Ġcleh": 5691,
      "ĠjvejÅ¡": 5692,
      "Ġgou": 5693,
      "ĠkleÄį": 5694,
      "ĠchvÄĽn": 5695,
      "Ġzvel": 5696,
      "ill": 5697,
      "Ġbon": 5698,
      "ĠzhnÄĽ": 5699,
      "ĠbÅ¯Å¾": 5700,
      "ĠmstÃŃt": 5701,
      "Ġzbav": 5702,
      "ĠsÅ¾a": 5703,
      "ĠtakÅĻ": 5704,
      "ĠhuÄį": 5705,
      "ĠpÃ¡Äį": 5706,
      "ĠzchvÃ¡": 5707,
      "ĠvbÃŃd": 5708,
      "Ġzsrd": 5709,
      "ABXC": 5710,
      "ĠjÃ¡ÅĻ": 5711,
      "Ġvleh": 5712,
      "ĠskÅĻÃŃt": 5713,
      "ĠzklÃ¡Å¡": 5714,
      "Ġmol": 5715,
      "ĠbeÄį": 5716,
      "Ġbram": 5717,
      "ĠkliÄį": 5718,
      "ĠblÃ½Å¡": 5719,
      "Ġvzmach": 5720,
      "ĠvsvÃ¡": 5721,
      "Ġbrach": 5722,
      "ĠgÃ¡t": 5723,
      "Ġsba": 5724,
      "ĠsviÅ¾": 5725,
      "ĠÅ¡plech": 5726,
      "ĠrÃ¡t": 5727,
      "Ġkleb": 5728,
      "Ġvbod": 5729,
      "Ġvskle": 5730,
      "ĠÄįnÄĽl": 5731,
      "Ġbiv": 5732,
      "ĠkpÅ¯": 5733,
      "ĠÅ¡Å¯v": 5734,
      "ĠstkvÄĽl": 5735,
      "ĠbÃŃÄį": 5736,
      "ĠzmÅ¯": 5737,
      "ĠstvÃŃch": 5738,
      "ir": 5739,
      "ĠnÃ½ÅĻ": 5740,
      "Ġsoch": 5741,
      "ĠshnÄĽ": 5742,
      "ĠdlÃŃÅ¡": 5743,
      "ĠprÅ¯s": 5744,
      "kou": 5745,
      "Ġzvat": 5746,
      "Ġbac": 5747,
      "Ġzprou": 5748,
      "Ġvsmrt": 5749,
      "ĠtrÃ³": 5750,
      "Ġstuj": 5751,
      "Ġzhru": 5752,
      "ĠnÄĽjÅ¾": 5753,
      "Ġrre": 5754,
      "ĠÄįÃ¡l": 5755,
      "Ġph": 5756,
      "ĠcÅ¾e": 5757,
      "Ġstam": 5758,
      "ĠplÃ½ch": 5759,
      "ĠÄįich": 5760,
      "ĠhlaÄı": 5761,
      "Ã³r": 5762,
      "Ġzjich": 5763,
      "ĠvÃŃch": 5764,
      "Ġdik": 5765,
      "ĠvsÃ¡z": 5766,
      "Ġvdar": 5767,
      "Ġdrozd": 5768,
      "Ġvyn": 5769,
      "Ġktre": 5770,
      "ĠroÅ¾": 5771,
      "XXXA": 5772,
      "ĠvzÅĪal": 5773,
      "Ġstot": 5774,
      "Ġksu": 5775,
      "ĠslÃŃp": 5776,
      "Ġzlet": 5777,
      "Ġxal": 5778,
      "Ġlnou": 5779,
      "Ġsplo": 5780,
      "ĠbÃ½k": 5781,
      "Ġkpou": 5782,
      "ĠstÃ½l": 5783,
      "ĠzpÃŃs": 5784,
      "Ġhust": 5785,
      "ĠvbrÃ¡": 5786,
      "ĠshÅĻÃŃ": 5787,
      "Ġvjes": 5788,
      "Ġcul": 5789,
      "Ġmrk": 5790,
      "ĠÅ¾by": 5791,
      "rob": 5792,
      "Ġkdvo": 5793,
      "Ġsav": 5794,
      "Ġchuj": 5795,
      "ĠchyÅ¥": 5796,
      "Ġznoj": 5797,
      "ĠtrÅ¯v": 5798,
      "Ġzchy": 5799,
      "Ġlv": 5800,
      "ĠÅĻÃŃn": 5801,
      "ĠstÃŃÅ¾": 5802,
      "Ġznou": 5803,
      "Ġzhled": 5804,
      "ĠslÃ¡n": 5805,
      "ĠknÃŃm": 5806,
      "ĠbÅ¯j": 5807,
      "ĠhnÃŃ": 5808,
      "ĠliÅ¥": 5809,
      "Ġzdou": 5810,
      "Ġzdor": 5811,
      "Ġvmno": 5812,
      "ĠslÃŃch": 5813,
      "ĠvÄįlo": 5814,
      "ĠnnÄĽj": 5815,
      "aN": 5816,
      "Ġstep": 5817,
      "ĠNaN": 5818,
      "Ġkzd": 5819,
      "ĠzvÃŃÅ¡": 5820,
      "Ġbrouk": 5821,
      "Ġprys": 5822,
      "Ġsnub": 5823,
      "Ġvzpru": 5824,
      "ĠvniÅ¾": 5825,
      "ĠzÅ¯v": 5826,
      "XABC": 5827,
      "Ġmast": 5828,
      "Ġsre": 5829,
      "ĠrÅ¾": 5830,
      "Ġjiv": 5831,
      "Ġsmol": 5832,
      "ĠsvÃ¡l": 5833,
      "ĠzyÄį": 5834,
      "ĠvpÅ¯t": 5835,
      "lÅ¯": 5836,
      "ĠsÅ¾ÃŃ": 5837,
      "Ġnuj": 5838,
      "ĠÅ¡ept": 5839,
      "Ġvples": 5840,
      "ĠzluÄį": 5841,
      "ĠÅ¾da": 5842,
      "BA": 5843,
      "Ġvpal": 5844,
      "ĠÅĪat": 5845,
      "Ġxu": 5846,
      "Ġkoh": 5847,
      "Ġvstru": 5848,
      "Ġshrou": 5849,
      "Ġskost": 5850,
      "ĠÅ¡tu": 5851,
      "Ġspik": 5852,
      "ĠsfÃ©r": 5853,
      "Ġtnou": 5854,
      "ĠpÅĻer": 5855,
      "Ġvbra": 5856,
      "ĠjÅ¯v": 5857,
      "Ġzcu": 5858,
      "ĠstrÅ¾": 5859,
      "Ġkbe": 5860,
      "ĠstÅĻih": 5861,
      "ĠvpÄĽk": 5862,
      "ĠpsÃŃk": 5863,
      "Ġtron": 5864,
      "ĠkÅĻÃ¡l": 5865,
      "Ġzvrh": 5866,
      "ĠÅ¡ÅĪÅ¯": 5867,
      "Ġjir": 5868,
      "ĠlÃŃh": 5869,
      "Ġdvy": 5870,
      "ĠztÃ½": 5871,
      "mur": 5872,
      "Ġnai": 5873,
      "ĠroÅĪ": 5874,
      "ĠsloÅ¾": 5875,
      "Ġtknou": 5876,
      "ĠsÃºc": 5877,
      "ĠsoÅĪ": 5878,
      "Ġsouz": 5879,
      "ĠkÅĻiÄį": 5880,
      "ĠdÅĻec": 5881,
      "ĠplÃ©m": 5882,
      "ĠspleÅ¥": 5883,
      "Ġkin": 5884,
      "Ġcil": 5885,
      "ĠÄįec": 5886,
      "Ġlus": 5887,
      "Ġfem": 5888,
      "Ġboum": 5889,
      "ĠchÃ¡s": 5890,
      "ĠmlÅ¾": 5891,
      "ĠkÃ½ms": 5892,
      "ĠÅ¡tkÃ¡": 5893,
      "ĠslÃ©t": 5894,
      "ĠkrÃ½t": 5895,
      "Ġskvrn": 5896,
      "ĠtcÅ¯": 5897,
      "ĠsiÅ¥": 5898,
      "ĠlÃ¡l": 5899,
      "ĠfÄĽ": 5900,
      "Ġkvar": 5901,
      "Ġvlep": 5902,
      "ĠspÃŃm": 5903,
      "Ġskyt": 5904,
      "ĠbÅĻich": 5905,
      "Ġvblan": 5906,
      "ĠvÅĪÃ¡": 5907,
      "Ġzty": 5908,
      "Ġznec": 5909,
      "Ġlymp": 5910,
      "Ġthic": 5911,
      "ĠÄįly": 5912,
      "ĠzkvÃŃ": 5913,
      "ĠhÅ¯d": 5914,
      "ĠfÃŃr": 5915,
      "ĠpÃ©m": 5916,
      "Ġchvi": 5917,
      "Ġchvost": 5918,
      "ĠmiÅ¡": 5919,
      "ĠstvÅ¯r": 5920,
      "Ġksla": 5921,
      "ĠzÃ½ch": 5922,
      "Ġzab": 5923,
      "ĠkuÅĪ": 5924,
      "ĠkÃ¡l": 5925,
      "ĠkÅĻeÄį": 5926,
      "Ġvvz": 5927,
      "ĠÅĻkouc": 5928,
      "ĠÄįr": 5929,
      "ĠlÃ©n": 5930,
      "ĠziÅ¡": 5931,
      "ĠÅ¾an": 5932,
      "Ġfes": 5933,
      "ĠvÅĻeÅ¥": 5934,
      "ĠsviÅ¥": 5935,
      "ĠssvÄĽ": 5936,
      "ĠvdeÅ¡": 5937,
      "Ġcis": 5938,
      "ĠstiÅ¾": 5939,
      "ĠgÅ¯": 5940,
      "Ġvstej": 5941,
      "ĠkÅ¡i": 5942,
      "ĠvtvÅ¯j": 5943,
      "ĠÅ¡ma": 5944,
      "ĠdlÃ¡Å¾": 5945,
      "ĠÅĻÃŃct": 5946,
      "ĠlhÃ¡ÅĻ": 5947,
      "Ġzvlast": 5948,
      "Ġzg": 5949,
      "ĠvpÅĻÃ¡": 5950,
      "Ġmoun": 5951,
      "Ġbun": 5952,
      "Ġvlaj": 5953,
      "Ġzblu": 5954,
      "ĠchrÃ¡n": 5955,
      "Ġvkost": 5956,
      "Ġbom": 5957,
      "Ġksi": 5958,
      "ĠÅ¡tka": 5959,
      "ĠchyÅĪ": 5960,
      "ĠvleÄį": 5961,
      "Ġnven": 5962,
      "Ġzbr": 5963,
      "voz": 5964,
      "ĠkbÃŃ": 5965,
      "Ġfrak": 5966,
      "ĠsdÃŃv": 5967,
      "Ġjla": 5968,
      "ĠvdÃ½": 5969,
      "ĠplÃ½m": 5970,
      "Ġkroj": 5971,
      "ĠknÄĽh": 5972,
      "ĠÅ¡an": 5973,
      "Ġgun": 5974,
      "24": 5975,
      "Ġvjem": 5976,
      "Ġpluj": 5977,
      "Ġvrum": 5978,
      "Ġvdav": 5979,
      "ĠdÅ¡ti": 5980,
      "Ġvvoj": 5981,
      "Ġrhy": 5982,
      "Å¡em": 5983,
      "Ġveh": 5984,
      "Ġzke": 5985,
      "ĠzÃ½s": 5986,
      "Ġzboj": 5987,
      "Ġvjis": 5988,
      "ĠmoÅĪ": 5989,
      "Ġvtvo": 5990,
      "Ġeo": 5991,
      "Ġsles": 5992,
      "ĠzhÅĻe": 5993,
      "ĠblÃŃÄį": 5994,
      "Ġspar": 5995,
      "ĠstÅĻÃŃk": 5996,
      "Ġzlen": 5997,
      "Ġbrub": 5998,
      "ĠsplÃ¡ch": 5999,
      "ĠmlÃŃ": 6000,
      "Ġkun": 6001,
      "ĠvÅ¡ad": 6002,
      "ĠboÅ¡": 6003,
      "ĠsbÃ¡z": 6004,
      "ĠvhluÄį": 6005,
      "ĠvtÃŃs": 6006,
      "Ġjhem": 6007,
      "ĠrÃº": 6008,
      "ĠÅĻech": 6009,
      "Ġhouc": 6010,
      "Ġhrub": 6011,
      "ĠÅ¾ov": 6012,
      "ĠchÅĻest": 6013,
      "ĠstÅĻil": 6014,
      "ĠhÃ¡k": 6015,
      "ĠvÅ¯v": 6016,
      "Ġplec": 6017,
      "ĠkneÅ¡": 6018,
      "ĠlÃ©zt": 6019,
      "Ġvrak": 6020,
      "Ġges": 6021,
      "Ġvryt": 6022,
      "Ġprov": 6023,
      "Ġprk": 6024,
      "Ġkuds": 6025,
      "ĠbrouÄį": 6026,
      "ĠstÃ¡Å¡": 6027,
      "Ġlouk": 6028,
      "ĠvzÃ¡ÅĻ": 6029,
      "Ġumr": 6030,
      "ĠsnÃ©st": 6031,
      "ĠschrÃ¡n": 6032,
      "ĠvÅĻÃ¡": 6033,
      "Ġlne": 6034,
      "Ġvsvi": 6035,
      "Ġhoust": 6036,
      "Ġzot": 6037,
      "ĠanÅ¥": 6038,
      "Ġbrys": 6039,
      "Ġvzim": 6040,
      "ĠvtÅ¯ÅĪ": 6041,
      "Ġvbrz": 6042,
      "ber": 6043,
      "Ġvyt": 6044,
      "ĠtakÅ¾": 6045,
      "ĠmÃŃÄį": 6046,
      "ĠkÅ¯r": 6047,
      "Ġgh": 6048,
      "ĠvkÅĻÃŃ": 6049,
      "Ġtlak": 6050,
      "ĠtloÅĪ": 6051,
      "ĠknÃ½ch": 6052,
      "ĠvssÃ¡": 6053,
      "ĠslÃ½m": 6054,
      "ĠpÅĻÃŃj": 6055,
      "ĠschvÄĽ": 6056,
      "ĠÅ¡plou": 6057,
      "Ġnvi": 6058,
      "Ġlaur": 6059,
      "ĠsvÄĽÅ¥": 6060,
      "Ġvdou": 6061,
      "ĠsvÃŃc": 6062,
      "ĠkbrÃ¡": 6063,
      "AXBX": 6064,
      "ĠsvraÅ¡": 6065,
      "ĠdÃŃn": 6066,
      "Ġsmil": 6067,
      "Ġzdat": 6068,
      "ĠvÅ¡im": 6069,
      "Ġspis": 6070,
      "ĠpliÄį": 6071,
      "Ġstec": 6072,
      "Ġmont": 6073,
      "Ġdbal": 6074,
      "ĠvspÃŃ": 6075,
      "ĠhnÃŃzd": 6076,
      "ĠzdÅ¯": 6077,
      "Ġhyn": 6078,
      "Ġzkni": 6079,
      "ĠÄįti": 6080,
      "Ġmul": 6081,
      "ĠvÃ½r": 6082,
      "Ġdran": 6083,
      "ĠchtÄĽj": 6084,
      "Ġkvel": 6085,
      "ĠvlÃŃÄį": 6086,
      "ĠkÅĻti": 6087,
      "Ġrit": 6088,
      "Ġvkry": 6089,
      "Ġcro": 6090,
      "ĠÅĻiÄı": 6091,
      "Ġsprost": 6092,
      "ĠÅ¡ÃŃÄį": 6093,
      "Ġsoh": 6094,
      "Ġdvad": 6095,
      "Ġzky": 6096,
      "ĠÅ¡pl": 6097,
      "Ġcan": 6098,
      "ĠmniÅ¡": 6099,
      "Ġvsr": 6100,
      "Ġhen": 6101,
      "Ġznes": 6102,
      "Ġknouc": 6103,
      "Ġvpur": 6104,
      "ĠhÃºt": 6105,
      "Ġkdi": 6106,
      "ĠdlÅ¯m": 6107,
      "Ġvhmo": 6108,
      "Ġzhnu": 6109,
      "Ġvled": 6110,
      "Ġsfe": 6111,
      "ĠvzmÃ¡": 6112,
      "Ã¡d": 6113,
      "ABXA": 6114,
      "ĠrÃ¡c": 6115,
      "Ġstret": 6116,
      "Ġvdnech": 6117,
      "Ġslez": 6118,
      "Ġzkor": 6119,
      "ĠvÅĻesk": 6120,
      "Ġdlid": 6121,
      "ĠsdrÃ¡": 6122,
      "Ġvbol": 6123,
      "ĠdÅĻel": 6124,
      "Ġovz": 6125,
      "ĠnnosÅ¥": 6126,
      "ĠvspÄĽch": 6127,
      "ĠvoÅ¡": 6128,
      "ĠÅ¾ÃŃÅ¥": 6129,
      "Ġvdne": 6130,
      "Ġslon": 6131,
      "ĠvmÅ¾ik": 6132,
      "Ġkub": 6133,
      "Ġstich": 6134,
      "Ġraf": 6135,
      "Ġpsu": 6136,
      "ĠzÃ½c": 6137,
      "ĠdÃ³m": 6138,
      "ĠmÄĽs": 6139,
      "Ġdls": 6140,
      "Ġsvan": 6141,
      "ĠkpÃŃs": 6142,
      "Ġkzp": 6143,
      "ĠknÃ½m": 6144,
      "ĠdvÃŃÅĻ": 6145,
      "ĠvskrÃ¡ÅĪ": 6146,
      "DD": 6147,
      "ĠkÅ¡e": 6148,
      "ĠÅ¾est": 6149,
      "ĠÅ¡iv": 6150,
      "Ġkvl": 6151,
      "Ġzver": 6152,
      "Ġsry": 6153,
      "ĠzÅ¾en": 6154,
      "ĠrÅ¾e": 6155,
      "ĠdÃ½s": 6156,
      "Ġrouch": 6157,
      "Ġskrou": 6158,
      "ĠÅ¡lÃŃm": 6159,
      "Ġtce": 6160,
      "ĠbÅĻad": 6161,
      "ĠstlÃŃ": 6162,
      "Ġtval": 6163,
      "ĠstÅĻeh": 6164,
      "Ġgot": 6165,
      "AAXBCC": 6166,
      "Ġpliv": 6167,
      "dÄĽÄį": 6168,
      "Ġvvy": 6169,
      "Ġlap": 6170,
      "ĠnÃ¡r": 6171,
      "Ġkvz": 6172,
      "Ġztad": 6173,
      "ĠÅ¾alm": 6174,
      "Ġvhoj": 6175,
      "ĠplÃ©st": 6176,
      "ĠskÅĻip": 6177,
      "ĠzhoÅĻ": 6178,
      "Ġwi": 6179,
      "Ġrhyt": 6180,
      "ACCB": 6181,
      "ĠzÃŃtÅĻ": 6182,
      "Ġzmen": 6183,
      "Ġstvr": 6184,
      "ĠhÅĻej": 6185,
      "im": 6186,
      "krÃ¡": 6187,
      "Ġlab": 6188,
      "ĠvÅ¾ha": 6189,
      "ĠtlÅ¯": 6190,
      "ĠdnÃŃch": 6191,
      "ĠtskÃ©": 6192,
      "ÅĻil": 6193,
      "Ġvbur": 6194,
      "rÃ½m": 6195,
      "liÅ¾": 6196,
      "Ġsmar": 6197,
      "Ġvdrob": 6198,
      "Ġgem": 6199,
      "Ġzvoj": 6200,
      "Ġzhyz": 6201,
      "Ġsvle": 6202,
      "Ġhuj": 6203,
      "ĠhluÅ¡": 6204,
      "Ġktu": 6205,
      "ĠplyÅĪ": 6206,
      "Ġtric": 6207,
      "ĠkdÃ¡": 6208,
      "Ġvtra": 6209,
      "ĠvstÃ¡t": 6210,
      "Ġksl": 6211,
      "ABBAAB": 6212,
      "Ġstlin": 6213,
      "Ġkhu": 6214,
      "ĠclÃ¡": 6215,
      "ABAABC": 6216,
      "Ġzvec": 6217,
      "Ġzbuj": 6218,
      "ĠkstÃ¡": 6219,
      "ĠcÃ¡t": 6220,
      "Ġski": 6221,
      "ĠtvÃ¡ch": 6222,
      "ĠksvÃ¡t": 6223,
      "Ġfis": 6224,
      "ĠvplÃ¡Å¡": 6225,
      "ĠmÃ³d": 6226,
      "Ġdeh": 6227,
      "ĠÄįÃŃs": 6228,
      "ĠlÃŃr": 6229,
      "Ġpodv": 6230,
      "Ġpsot": 6231,
      "nÅ¯": 6232,
      "Ġust": 6233,
      "ĠvÃ¡Äį": 6234,
      "ĠdÃ½n": 6235,
      "Ġvsti": 6236,
      "ĠkzlÃ©": 6237,
      "Ġbrus": 6238,
      "Ġzprv": 6239,
      "ĠzluÅ¡": 6240,
      "ĠsÅ¡u": 6241,
      "Ġvkan": 6242,
      "Ġtruj": 6243,
      "ABCCAB": 6244,
      "Ġbrun": 6245,
      "ĠjiÅ¥": 6246,
      "Ġskor": 6247,
      "ĠsnÄĽÅ¥": 6248,
      "ĠstÅĻÃŃd": 6249,
      "ĠnauÄį": 6250,
      "ld": 6251,
      "ĠsnÃ¡z": 6252,
      "Ġrakt": 6253,
      "Ġsvej": 6254,
      "Ġzrus": 6255,
      "Ġkloud": 6256,
      "ĠkÅ¡p": 6257,
      "ĠzlÅ¯Å¾": 6258,
      "ĠcÃŃp": 6259,
      "ĠlÃŃs": 6260,
      "Ġsper": 6261,
      "ĠreÅ¾": 6262,
      "ĠbÃ¡r": 6263,
      "ĠchrlÃŃ": 6264,
      "Ġchmel": 6265,
      "ĠpÅĻÃŃÄį": 6266,
      "ĠvÅ¾lu": 6267,
      "Ġzran": 6268,
      "ĠzmÄĽst": 6269,
      "ĠÄįtla": 6270,
      "Ġchrap": 6271,
      "ĠÅ¾nÃŃch": 6272,
      "Ġvzno": 6273,
      "Ġvzpur": 6274,
      "ĠvÅ¯l": 6275,
      "ĠvzdÃ½": 6276,
      "ym": 6277,
      "ĠtnÃ¡": 6278,
      "Ġjom": 6279,
      "Ġrry": 6280,
      "Ġryn": 6281,
      "Ġzpru": 6282,
      "Ġstuh": 6283,
      "ĠhouÄį": 6284,
      "Ġvzrost": 6285,
      "Ġfred": 6286,
      "Ġzvni": 6287,
      "ĠtÅĻo": 6288,
      "Ġthen": 6289,
      "ĠvÄįt": 6290,
      "Ġstka": 6291,
      "ĠdnÅ¯v": 6292,
      "ĠsÅ¡i": 6293,
      "ĠÅ¡let": 6294,
      "Ġsfor": 6295,
      "Ġvf": 6296,
      "ĠjÃ¡n": 6297,
      "ĠÄįÃ¡k": 6298,
      "Ġxa": 6299,
      "Ġscvr": 6300,
      "ĠÄįlÃ¡n": 6301,
      "Ġler": 6302,
      "ĠvloÄı": 6303,
      "ĠchÅĻiÅ¡": 6304,
      "Ġkvoj": 6305,
      "ĠfrÃ½d": 6306,
      "ĠÅ¡ÃŃn": 6307,
      "ĠvplÃ©": 6308,
      "Ġzon": 6309,
      "Ġslin": 6310,
      "ĠtÅĻÃŃÅ¡Å¥": 6311,
      "Ġktem": 6312,
      "ĠmlÃ¡Äı": 6313,
      "Ġtret": 6314,
      "ĠprsÅ¥": 6315,
      "ĠÅĻic": 6316,
      "ĠreÅ¡": 6317,
      "Ġzysk": 6318,
      "Ġstruk": 6319,
      "Ġmhy": 6320,
      "ĠsaÄı": 6321,
      "Ġgla": 6322,
      "ĠchmÃ½": 6323,
      "ĠvÅ¾Ã¡d": 6324,
      "Ġlnu": 6325,
      "XCB": 6326,
      "Ġvklen": 6327,
      "tÃ¡n": 6328,
      "ĠraÅ¥": 6329,
      "Ġvprud": 6330,
      "Ġbour": 6331,
      "Ġvlem": 6332,
      "ĠstvÃ½m": 6333,
      "Ġcent": 6334,
      "Ġvsloup": 6335,
      "Ġpnul": 6336,
      "ĠstÅĻet": 6337,
      "Ġzcest": 6338,
      "Ġkstup": 6339,
      "Ġhmot": 6340,
      "ĠkchvÃ¡": 6341,
      "ĠÄįiÅ¾": 6342,
      "ĠsvÃ©st": 6343,
      "Ġbrej": 6344,
      "AXBA": 6345,
      "Ġcom": 6346,
      "AAABBC": 6347,
      "ĠchvÄĽv": 6348,
      "AAAX": 6349,
      "ĠÅ¡tval": 6350,
      "Ġchvy": 6351,
      "Ġstlal": 6352,
      "Ġvcy": 6353,
      "ĠvmraÄį": 6354,
      "ĠcvrÄį": 6355,
      "ĠbÅĻa": 6356,
      "ĠmÃ¡d": 6357,
      "Ġkbou": 6358,
      "Ġkjed": 6359,
      "ĠsjÃŃÅ¾": 6360,
      "AXAXBB": 6361,
      "kal": 6362,
      "Ġaet": 6363,
      "Ġspjal": 6364,
      "ĠsÃŃg": 6365,
      "Ġvdr": 6366,
      "Ġshled": 6367,
      "Ġul": 6368,
      "ĠÅ¡eÅĻ": 6369,
      "ĠlÃŃb": 6370,
      "Ġvsan": 6371,
      "Ġbrad": 6372,
      "Ġvkme": 6373,
      "Ġklin": 6374,
      "Ġkpla": 6375,
      "ĠÅ¡Å¥av": 6376,
      "ĠtkvÄĽl": 6377,
      "ĠzeÅ¡": 6378,
      "Ġlum": 6379,
      "ĠchÃ½n": 6380,
      "ĠznaÄį": 6381,
      "Ġkij": 6382,
      "Ġzdla": 6383,
      "Ġvlil": 6384,
      "ĠÅ¡prÃ½": 6385,
      "ĠvmuÅ¾": 6386,
      "tno": 6387,
      "ĠsÃŃl": 6388,
      "ĠÅ¡iÅ¥": 6389,
      "Ġvlad": 6390,
      "ĠdÃ½l": 6391,
      "Ġcuk": 6392,
      "ĠÄįtyr": 6393,
      "ĠvjÃŃÅ¾": 6394,
      "pa": 6395,
      "ĠnaÅ¡": 6396,
      "ĠstvÃ½ch": 6397,
      "ĠstrÃ¡z": 6398,
      "ACB": 6399,
      "Ġkhan": 6400,
      "Ġkyj": 6401,
      "Ġstoun": 6402,
      "ĠdrÃ¡p": 6403,
      "ĠztiÅ¡": 6404,
      "ĠskvÃŃt": 6405,
      "ĠnÃº": 6406,
      "ÃŃm": 6407,
      "ĠzeÅ¥": 6408,
      "ĠstÅĻÃŃm": 6409,
      "ĠmdlÃŃ": 6410,
      "ĠÅ¡Ã¡n": 6411,
      "um": 6412,
      "Ġkain": 6413,
      "Ġsklem": 6414,
      "ĠÅ¡ÃŃÅ¥": 6415,
      "ĠkrÃ¡ch": 6416,
      "ĠprÃ¡l": 6417,
      "Ġvzdou": 6418,
      "ĠklÅ¯": 6419,
      "Ġvnov": 6420,
      "ĠÅ¡lost": 6421,
      "ĠsdÄĽc": 6422,
      "ĠbÃ³": 6423,
      "Ġchrou": 6424,
      "ĠskÅĻÃŃn": 6425,
      "ĠschÅ¯z": 6426,
      "ĠÅ¥oun": 6427,
      "ĠzÅĻi": 6428,
      "Ġpau": 6429,
      "Ġzdvou": 6430,
      "Ġslul": 6431,
      "ABAXCB": 6432,
      "AABCC": 6433,
      "Ġskni": 6434,
      "Ġchard": 6435,
      "ĠvnÃŃz": 6436,
      "Ġchrop": 6437,
      "ĠtviÄį": 6438,
      "ĠvsmÃŃch": 6439,
      "ĠÅ¡Å¯m": 6440,
      "Ġed": 6441,
      "Ġvzpa": 6442,
      "Ã¼": 6443,
      "ĠsvlÃ¡": 6444,
      "ĠmiÅ¥": 6445,
      "ĠmÅ¯v": 6446,
      "Ġmrl": 6447,
      "Ġschlu": 6448,
      "Ġtno": 6449,
      "ĠtÃ¡k": 6450,
      "ĠvÅ¾er": 6451,
      "ĠstrÅ¯j": 6452,
      "ĠÅ¡prÃ½m": 6453,
      "ĠhÅĪu": 6454,
      "Ġnac": 6455,
      "ĠjÃŃÅĻ": 6456,
      "ĠmoÅ¡": 6457,
      "ĠprÃ¡t": 6458,
      "Ġhls": 6459,
      "Ġmro": 6460,
      "Ġbum": 6461,
      "Ġbleh": 6462,
      "Ġzkum": 6463,
      "Ġmav": 6464,
      "ĠmaÅĻ": 6465,
      "Ġhab": 6466,
      "Ġrez": 6467,
      "ĠvmÅ¯j": 6468,
      "Ġkvran": 6469,
      "Ġvjezd": 6470,
      "Ġgois": 6471,
      "ĠzÅ¡ÃŃ": 6472,
      "ĠchÅĻtÃ¡n": 6473,
      "ĠlÃ½t": 6474,
      "rÃ¡d": 6475,
      "Ġvzu": 6476,
      "Ġstrak": 6477,
      "ĠÅ¡ust": 6478,
      "ĠdrÃ¡b": 6479,
      "Ġspit": 6480,
      "Ġlant": 6481,
      "ĠsdÄĽs": 6482,
      "Ġskru": 6483,
      "ĠdÃŃÄį": 6484,
      "Ġkrz": 6485,
      "Ġvhan": 6486,
      "ĠhrÅ¯Å¾": 6487,
      "ĠkvraÅ¾": 6488,
      "ĠpÅĻez": 6489,
      "Ġpys": 6490,
      "Ġvchat": 6491,
      "Ġkzlo": 6492,
      "Ġhlost": 6493,
      "ĠÅ¾ÃŃÅ¾": 6494,
      "Ġzdna": 6495,
      "Ġsas": 6496,
      "ĠlÃ©z": 6497,
      "Ġbrak": 6498,
      "Ġbrv": 6499,
      "ĠslÃ¡d": 6500,
      "Ġsrst": 6501,
      "ĠcÃ¡s": 6502,
      "ĠstÅĻÃ¡b": 6503,
      "ĠvbÃ¡s": 6504,
      "Ġlvy": 6505,
      "ĠrosÅ¥": 6506,
      "ĠhaÅ¡": 6507,
      "ĠkchrÃ¡": 6508,
      "ĠgroÅ¡": 6509,
      "ĠdÅ¡tÃŃ": 6510,
      "ĠÄįme": 6511,
      "Ġkach": 6512,
      "ĠkÃ¡v": 6513,
      "nÄĽÅ¾": 6514,
      "ĠtrÅ¾": 6515,
      "ĠgrÃ¡n": 6516,
      "Ġsim": 6517,
      "Ġsmno": 6518,
      "ĠÅĻid": 6519,
      "Ġcym": 6520,
      "ĠbrÃ¡Å¥": 6521,
      "Ġvzkve": 6522,
      "Ġtby": 6523,
      "ĠmnÃ¡": 6524,
      "Ġsain": 6525,
      "ĠsÃ¡d": 6526,
      "Ġztma": 6527,
      "Ġvjev": 6528,
      "Ġzlep": 6529,
      "Ġvrus": 6530,
      "Ġvsklo": 6531,
      "ĠÄıoun": 6532,
      "ĠÅ¡vy": 6533,
      "ĠnuÅ¥": 6534,
      "Ġdlec": 6535,
      "ĠmÄĽlÅ¥": 6536,
      "Ġsdiv": 6537,
      "ĠzÄįa": 6538,
      "ĠpaÅĪ": 6539,
      "Ġtrak": 6540,
      "Ġsliz": 6541,
      "ĠzveÅ¡": 6542,
      "ĠstrÃ¡m": 6543,
      "Ġvkre": 6544,
      "Ġskel": 6545,
      "ĠÅ¾hne": 6546,
      "ct": 6547,
      "Ã¡s": 6548,
      "ĠÅ¾ÄıÃ¡": 6549,
      "Ġnum": 6550,
      "Ġvir": 6551,
      "ĠbeÅ¾": 6552,
      "Ġvtre": 6553,
      "ĠkniÅ¾": 6554,
      "Ġvchla": 6555,
      "ĠvhoÅĻ": 6556,
      "Ġshod": 6557,
      "ĠvhÃ¡j": 6558,
      "Ġzpev": 6559,
      "ĠchlÃŃp": 6560,
      "ĠtskÃ½ch": 6561,
      "Ġskra": 6562,
      "ĠhlÃ¡v": 6563,
      "ĠkhnÄĽ": 6564,
      "ĠtnÃŃch": 6565,
      "Ġvmih": 6566,
      "Ġvluz": 6567,
      "Ġglic": 6568,
      "ĠdlÃ¡n": 6569,
      "ĠszÃ¡": 6570,
      "Ġvklou": 6571,
      "Ġctn": 6572,
      "ĠchlÃ©v": 6573,
      "ĠÅ¡paÄį": 6574,
      "ĠtnÃ½m": 6575,
      "ĠvspÃŃÅ¡": 6576,
      "ju": 6577,
      "ĠfÃ½": 6578,
      "ĠkÃ½n": 6579,
      "Ġkprav": 6580,
      "ĠkÅĻtu": 6581,
      "Ġtne": 6582,
      "Ġap": 6583,
      "Ġzvem": 6584,
      "Ġstrah": 6585,
      "ĠtÅĻÃŃt": 6586,
      "ĠsÃ½p": 6587,
      "Ġsjez": 6588,
      "ĠkdÃŃv": 6589,
      "ĠboÅĻ": 6590,
      "Ġdim": 6591,
      "ĠvdÃ©": 6592,
      "Ġbrlo": 6593,
      "ĠprÃ¡ch": 6594,
      "Ġragd": 6595,
      "ĠrvaÄį": 6596,
      "ĠzvnitÅĻ": 6597,
      "ĠsvÅ¯": 6598,
      "Ġsklou": 6599,
      "Ġsps": 6600,
      "Ġprz": 6601,
      "Ġtrech": 6602,
      "AABBAA": 6603,
      "ĠknÃ©m": 6604,
      "ĠblÃ½ch": 6605,
      "ĠhoÅĪ": 6606,
      "Ġkdve": 6607,
      "Ġsij": 6608,
      "Ġhuk": 6609,
      "Ġksvo": 6610,
      "ĠspÃ¡s": 6611,
      "Ġmstou": 6612,
      "ĠstÅĻin": 6613,
      "Ġchvoj": 6614,
      "Ġhno": 6615,
      "ĠsÃŃk": 6616,
      "Ġzpil": 6617,
      "ĠstÅĻev": 6618,
      "ĠzmÃŃn": 6619,
      "ĠstkÃ¡": 6620,
      "Ġclon": 6621,
      "ĠstÅĻÃ¡s": 6622,
      "ĠzdÅĻe": 6623,
      "ĠkmÃ½m": 6624,
      "Ġrri": 6625,
      "Ġdys": 6626,
      "ĠvraÅ¡": 6627,
      "Ġzhrd": 6628,
      "ĠzhlÃ©": 6629,
      "ĠzvÃ¡Å¡": 6630,
      "ÅĻas": 6631,
      "ĠpaÅ¾": 6632,
      "Ġvzvu": 6633,
      "Ġvtvr": 6634,
      "Ġslok": 6635,
      "ĠkvÅ¡e": 6636,
      "ĠbroÅ¡": 6637,
      "ĠhnÄĽt": 6638,
      "ĠlhÅ¯": 6639,
      "ĠstlÃ½ch": 6640,
      "ĠrdÄĽl": 6641,
      "ĠcÃŃt": 6642,
      "ĠsmrÃ¡": 6643,
      "ĠzvÃ©": 6644,
      "Ġhyl": 6645,
      "Ġzmdlo": 6646,
      "ĠzhlÃ©d": 6647,
      "Ġplej": 6648,
      "Ġprout": 6649,
      "Ġknes": 6650,
      "Ġktr": 6651,
      "Ġkslav": 6652,
      "si": 6653,
      "Ġbvo": 6654,
      "ĠÄįku": 6655,
      "ĠprÃ½ch": 6656,
      "ĠpÅĻÃŃst": 6657,
      "Ġhoup": 6658,
      "Ġspoj": 6659,
      "Ġvhnu": 6660,
      "ĠfÃ¡d": 6661,
      "ĠkÅĻivd": 6662,
      "ĠzdÃŃch": 6663,
      "ABABCB": 6664,
      "Ġvstes": 6665,
      "ĠvepÅĻ": 6666,
      "ĠvkvÃŃ": 6667,
      "Ġbrz": 6668,
      "ĠtvÃ¡n": 6669,
      "Ġsrou": 6670,
      "ĠvÄįlu": 6671,
      "ABBCCA": 6672,
      "ĠsÅ¡el": 6673,
      "Ġkko": 6674,
      "lÃ¡d": 6675,
      "ĠbaÅ¥": 6676,
      "Ġzpar": 6677,
      "ĠstrÄį": 6678,
      "ĠdrosÅ¥": 6679,
      "ĠchtÄĽls": 6680,
      "ĠÄıÃ¡l": 6681,
      "ĠlhÃ¡t": 6682,
      "ĠzkrÄį": 6683,
      "Ġvmrak": 6684,
      "Ġfric": 6685,
      "Ġvshni": 6686,
      "Ġchma": 6687,
      "ĠftÃŃ": 6688,
      "Ġvdom": 6689,
      "Ġvhrou": 6690,
      "Ġkple": 6691,
      "ĠÄįul": 6692,
      "Ġvtri": 6693,
      "ĠsÄįlo": 6694,
      "ĠÅ¾blun": 6695,
      "ĠkÄįlo": 6696,
      "Ġieu": 6697,
      "Ġlaj": 6698,
      "ĠtÃ¡t": 6699,
      "ĠbÃ¡Äį": 6700,
      "Ġvret": 6701,
      "Ġkryv": 6702,
      "ĠbÅĻÃŃk": 6703,
      "Ġvplod": 6704,
      "ĠhyÅĪ": 6705,
      "Ġzhrou": 6706,
      "Ġshe": 6707,
      "Ġkbu": 6708,
      "ĠkbliÅ¾": 6709,
      "ĠkoÅĻ": 6710,
      "Ġkdce": 6711,
      "Ġtaks": 6712,
      "ĠtÃ©l": 6713,
      "Ġvdvo": 6714,
      "Ġzmou": 6715,
      "ĠdnÅ¯m": 6716,
      "Ġdvard": 6717,
      "Ġfaust": 6718,
      "ĠkuÄı": 6719,
      "Ġslam": 6720,
      "ĠstÄĽch": 6721,
      "ĠstÅĻez": 6722,
      "Ġklost": 6723,
      "Ġpravd": 6724,
      "ĠtÅĻem": 6725,
      "ĠsmuÅ¾": 6726,
      "AAXBCB": 6727,
      "Ġscu": 6728,
      "Ġtme": 6729,
      "Äıa": 6730,
      "Ġsbur": 6731,
      "Ġkstra": 6732,
      "ĠÅ¯m": 6733,
      "ĠkÅĪu": 6734,
      "Ġsthe": 6735,
      "Ġbam": 6736,
      "ĠfÃ¡l": 6737,
      "Ġstrp": 6738,
      "ĠplÃ¡st": 6739,
      "Ġkrod": 6740,
      "ĠbÅ¯v": 6741,
      "Ġsmet": 6742,
      "Ġnr": 6743,
      "Ġcot": 6744,
      "ĠtkÃ¡t": 6745,
      "Ġzjem": 6746,
      "ĠchÅĻtÃ¡": 6747,
      "ĠbraÄį": 6748,
      "Ġtrut": 6749,
      "Ġzkus": 6750,
      "Ġchlup": 6751,
      "ĠsÅ¥a": 6752,
      "Ġsom": 6753,
      "Ġstoh": 6754,
      "Ġvhvoz": 6755,
      "ĠchvÃŃt": 6756,
      "zv": 6757,
      "ĠÅ¾iÅ¡": 6758,
      "ĠbÅĻez": 6759,
      "ĠÅ¥li": 6760,
      "Ġsbla": 6761,
      "Ġpse": 6762,
      "ĠdlÃ¡Å¡": 6763,
      "ĠzruÄį": 6764,
      "Ġchlost": 6765,
      "Ġjuj": 6766,
      "ĠzouÄį": 6767,
      "Ġpsan": 6768,
      "Ġcam": 6769,
      "ĠvlÃŃt": 6770,
      "ĠssvÃ½m": 6771,
      "Ġchri": 6772,
      "Ġmnul": 6773,
      "Ġjech": 6774,
      "ĠÅ¡te": 6775,
      "Ġnij": 6776,
      "Ġrop": 6777,
      "Ġbeh": 6778,
      "ĠÅ¡iÅ¡": 6779,
      "Ġvlach": 6780,
      "ĠÃŃm": 6781,
      "ĠpskÃ½": 6782,
      "Ġdag": 6783,
      "Ġpral": 6784,
      "ĠlouÅ¡": 6785,
      "Ġvrov": 6786,
      "Ġkba": 6787,
      "ĠstraÅ¾": 6788,
      "ĠhrsÅ¥": 6789,
      "ABBAC": 6790,
      "ĠÅ¡krÃ¡": 6791,
      "Ġllis": 6792,
      "Ġklouz": 6793,
      "ĠzbÃŃd": 6794,
      "Ġpstr": 6795,
      "Ġsoust": 6796,
      "ĠÅĻÃ¡p": 6797,
      "Ġdved": 6798,
      "Ġharf": 6799,
      "ĠÅ¾old": 6800,
      "ĠllÃ¡": 6801,
      "ĠÅ¡rÃ¡": 6802,
      "Ġprop": 6803,
      "Ġsyr": 6804,
      "Ġstur": 6805,
      "Ġvraj": 6806,
      "Ġksn": 6807,
      "ĠÅ¡kor": 6808,
      "Ġvchi": 6809,
      "Ġchlil": 6810,
      "Ġdolf": 6811,
      "ĠpÅ¡en": 6812,
      "Ġtuc": 6813,
      "ĠdrÃ¡n": 6814,
      "ĠvlÃŃp": 6815,
      "Ġvliv": 6816,
      "Ġbve": 6817,
      "ĠseÅ¥": 6818,
      "Ġrup": 6819,
      "ĠÄįaj": 6820,
      "Ġkzou": 6821,
      "ĠvmÃŃr": 6822,
      "ĠbdÃŃm": 6823,
      "Ġnrich": 6824,
      "ĠmÅ¡e": 6825,
      "ĠvoÅĪ": 6826,
      "ĠvzmÄĽ": 6827,
      "ĠÅ¥Å¯": 6828,
      "ĠsvÃ¡Å¾": 6829,
      "Ġrant": 6830,
      "Ġsfa": 6831,
      "Ġvhnus": 6832,
      "ÅĻb": 6833,
      "ĠoÅĪ": 6834,
      "Ġmum": 6835,
      "ĠzÃŃd": 6836,
      "Ġplaz": 6837,
      "Ġzbil": 6838,
      "Ġzost": 6839,
      "Ġzklu": 6840,
      "ĠpsÅ¯m": 6841,
      "Ġvtisk": 6842,
      "Ġssrd": 6843,
      "ĠkÅĻil": 6844,
      "ĠzbuÄı": 6845,
      "ĠvsnÄĽm": 6846,
      "ĠloÅ¥": 6847,
      "ĠlÃŃz": 6848,
      "XAAA": 6849,
      "ĠkÃ½ÅĻ": 6850,
      "ĠsblÃŃ": 6851,
      "Ġschod": 6852,
      "Ġsfou": 6853,
      "ĠstlÃ¡t": 6854,
      "it": 6855,
      "Ġlaz": 6856,
      "AABBBC": 6857,
      "Ġklop": 6858,
      "Ġtant": 6859,
      "ĠÅ¡to": 6860,
      "ĠsvlaÄį": 6861,
      "Ġfaun": 6862,
      "ĠzÅ¡tÄĽ": 6863,
      "ĠzaÅ¥": 6864,
      "Ġvoch": 6865,
      "ĠmÃŃl": 6866,
      "Ġfec": 6867,
      "Ġtkne": 6868,
      "ACBC": 6869,
      "ĠvhÅĻÃŃch": 6870,
      "ĠvaÅĪ": 6871,
      "ĠboÄį": 6872,
      "ĠbuÅ¡": 6873,
      "Ġvsny": 6874,
      "ĠpÄĽÅ¥": 6875,
      "ĠprÃ¡m": 6876,
      "ĠstÅĻep": 6877,
      "Ġnils": 6878,
      "ĠstÅĻÃŃÅ¾": 6879,
      "ĠbdÃŃt": 6880,
      "ĠlstnÃ½": 6881,
      "ĠzjÃŃ": 6882,
      "25": 6883,
      "Ġvrz": 6884,
      "ĠslÃŃk": 6885,
      "Ġstliv": 6886,
      "Ġllan": 6887,
      "Ġvjih": 6888,
      "Ġzcho": 6889,
      "Ġzples": 6890,
      "ĠsvÅ¡": 6891,
      "Ġpik": 6892,
      "Ġstve": 6893,
      "ĠvÅĻev": 6894,
      "Ġsdlou": 6895,
      "Ġfir": 6896,
      "ĠsnÃ¡ÅĻ": 6897,
      "Ġvny": 6898,
      "Ġvpru": 6899,
      "ĠzÃŃc": 6900,
      "Ġgru": 6901,
      "Ġsvol": 6902,
      "Ġvkrev": 6903,
      "Ġcop": 6904,
      "ĠpÅĻeh": 6905,
      "ĠbÃŃch": 6906,
      "Ġstost": 6907,
      "ĠpuÄı": 6908,
      "Ġzlat": 6909,
      "ĠkloÅĪ": 6910,
      "ĠcyÅ¥": 6911,
      "ĠÅ¡tiv": 6912,
      "Ġxem": 6913,
      "Ġnlis": 6914,
      "cy": 6915,
      "Ġjry": 6916,
      "Ġrhe": 6917,
      "ĠÅ¡m": 6918,
      "ĠslÃº": 6919,
      "Ġruf": 6920,
      "ĠraÄı": 6921,
      "Ġznu": 6922,
      "ĠvÅ¾as": 6923,
      "Ġspon": 6924,
      "ĠrÃ½Äį": 6925,
      "Ġshou": 6926,
      "ĠtÅĻÃŃn": 6927,
      "Ġskri": 6928,
      "ĠthÅ¯": 6929,
      "Ġzdych": 6930,
      "ĠrÅ¾Ã¡": 6931,
      "Ġzac": 6932,
      "Ġdop": 6933,
      "Ġtaz": 6934,
      "Ġkoun": 6935,
      "Ġpyl": 6936,
      "ĠkmlÃ½": 6937,
      "Ġkti": 6938,
      "ĠÅ¡pej": 6939,
      "ĠstruÅ¾": 6940,
      "ĠvsnÄĽÅ¾": 6941,
      "ĠvpyÅ¡": 6942,
      "Ġsprou": 6943,
      "ĠvsÃ½": 6944,
      "Ġvzbro": 6945,
      "ĠÅ¡ot": 6946,
      "Ġcert": 6947,
      "Ġtoi": 6948,
      "Ġkouc": 6949,
      "Ġgle": 6950,
      "ĠzmrÃ¡": 6951,
      "ĠÅ¾Ã¡c": 6952,
      "ĠhÃ½l": 6953,
      "ĠschÅ¯d": 6954,
      "ĠÄıo": 6955,
      "ĠÅ¡pet": 6956,
      "Ġsda": 6957,
      "ĠkzpÄĽ": 6958,
      "Ġvga": 6959,
      "ÅĻem": 6960,
      "Ġprol": 6961,
      "ĠsvÄĽÄį": 6962,
      "XXXXAA": 6963,
      "AABBAC": 6964,
      "ĠvhlÃŃ": 6965,
      "Ġvhym": 6966,
      "ĠkÃ©ms": 6967,
      "Ġznez": 6968,
      "Ġdex": 6969,
      "Ġsplu": 6970,
      "XXXXXA": 6971,
      "Ġvpil": 6972,
      "Ġklis": 6973,
      "ĠzdÃ¡n": 6974,
      "Ġktak": 6975,
      "AAABCC": 6976,
      "ABBCAC": 6977,
      "Ġkpod": 6978,
      "Ġlhou": 6979,
      "ĠvzÃ½t": 6980,
      "ĠvdÃŃv": 6981,
      "ĠkÅ¡tic": 6982,
      "Ġvklub": 6983,
      "Ġit": 6984,
      "Ġzps": 6985,
      "ĠÅ¥si": 6986,
      "Ġsprav": 6987,
      "Ġerb": 6988,
      "Ġzluk": 6989,
      "ll": 6990,
      "mÃ½": 6991,
      "Ã¡r": 6992,
      "Ġbut": 6993,
      "Ġklest": 6994,
      "ĠrÃ©v": 6995,
      "Ġztou": 6996,
      "Ġfen": 6997,
      "ĠkrÃ½v": 6998,
      "Ġfres": 6999,
      "ĠvbÅĻeh": 7000,
      "Ġllou": 7001,
      "Ġcal": 7002,
      "ĠseÄı": 7003,
      "ĠzdÅĻi": 7004,
      "Ġvplu": 7005,
      "Ġbim": 7006,
      "ĠvkrÅ¯": 7007,
      "Ġrich": 7008,
      "ĠÄįÃŃmÅ¾": 7009,
      "Ġsrost": 7010,
      "Ġchlit": 7011,
      "ĠchlÃ¡d": 7012,
      "Ġsaint": 7013,
      "ĠbÄĽr": 7014,
      "Ġctus": 7015,
      "Ġvlov": 7016,
      "po": 7017,
      "Ġkci": 7018,
      "ĠÅ¾ec": 7019,
      "Ġlot": 7020,
      "Ġchaj": 7021,
      "ĠÅ¡am": 7022,
      "ĠÅ¡Å¥ou": 7023,
      "ĠvboÅ¾": 7024,
      "ĠdÅĻek": 7025,
      "Ġent": 7026,
      "kÅĻ": 7027,
      "ĠtÃ¡r": 7028,
      "Ġvzdmu": 7029,
      "ĠvÄįest": 7030,
      "Ġvzho": 7031,
      "Ġstkvou": 7032,
      "ĠzÄįlu": 7033,
      "ĠvvÃ¡": 7034,
      "Ġdup": 7035,
      "Ġjse": 7036,
      "Ġstov": 7037,
      "Ġskop": 7038,
      "Ġzprz": 7039,
      "Ġnnes": 7040,
      "Ġsze": 7041,
      "Ġvhar": 7042,
      "Ġobzv": 7043,
      "ĠÅ¡tÄĽj": 7044,
      "ĠzmÄĽt": 7045,
      "Ġtref": 7046,
      "Ġfum": 7047,
      "Ġmlkl": 7048,
      "ĠÅ¡tÃ¡ÅĻ": 7049,
      "cho": 7050,
      "Ġrous": 7051,
      "Ġtlan": 7052,
      "ĠslÃŃt": 7053,
      "ĠÅ¡ach": 7054,
      "ĠsvÃ¡Å¡": 7055,
      "Ġssvou": 7056,
      "ĠkhÅĻÃŃ": 7057,
      "ĠdnÃ©ÅĻ": 7058,
      "Ġlvem": 7059,
      "Ġmlo": 7060,
      "ĠmÄĽÅĪ": 7061,
      "ĠbÄĽc": 7062,
      "ĠstÃ¡k": 7063,
      "ĠÅ¡kÅĻi": 7064,
      "ĠÅ¡pal": 7065,
      "ĠspÅĻeÅ¾": 7066,
      "ĠsnichÅ¾": 7067,
      "ĠjÃŃk": 7068,
      "Ġloj": 7069,
      "Ġvosk": 7070,
      "ĠdÃŃÅ¾": 7071,
      "ĠproÅ¡": 7072,
      "Ġvply": 7073,
      "ĠgÃ³": 7074,
      "ABBAAC": 7075,
      "ĠÅ¾Å¯v": 7076,
      "ĠkvoÄį": 7077,
      "ĠrtÃŃk": 7078,
      "ĠtÃŃt": 7079,
      "ĠmaÅ¥": 7080,
      "Ġtakt": 7081,
      "ĠsvÄĽn": 7082,
      "ĠÃºd": 7083,
      "ĠkzÃ¡m": 7084,
      "ĠzrÃ¡t": 7085,
      "ĠzÄįes": 7086,
      "Ġllin": 7087,
      "ĠsÄįet": 7088,
      "ĠhosÅ¥": 7089,
      "Ġlor": 7090,
      "ĠtÃ¡Äį": 7091,
      "Ġvbal": 7092,
      "ĠvbrÃ¡z": 7093,
      "ĠkskÃ¡": 7094,
      "ĠvÅ¡ik": 7095,
      "Ġnerv": 7096,
      "Ġkk": 7097,
      "Ġjli": 7098,
      "ĠpÅĻiÅĻ": 7099,
      "ĠrÃ½h": 7100,
      "AXABCC": 7101,
      "ĠsÄįa": 7102,
      "hÅĻ": 7103,
      "Ġbva": 7104,
      "ĠcÃ³": 7105,
      "ĠrÃ³": 7106,
      "ĠnaÅ¾": 7107,
      "Ġloh": 7108,
      "ĠÅ¡eÄı": 7109,
      "ĠmÃŃÅĻ": 7110,
      "ĠzhÃ½": 7111,
      "ĠÅ¡liÄį": 7112,
      "Ġvpol": 7113,
      "Ġkpi": 7114,
      "Ġvdus": 7115,
      "ĠtluÄį": 7116,
      "Ġstils": 7117,
      "ĠvpÅĻÃŃz": 7118,
      "AABXB": 7119,
      "ĠchÃ³r": 7120,
      "Ġboz": 7121,
      "ĠÅĻÃŃj": 7122,
      "ĠzbrÃ¡": 7123,
      "Ġzliv": 7124,
      "ĠslÅ¯Å¾": 7125,
      "ĠÅ¡tÄĽrk": 7126,
      "za": 7127,
      "ĠÅ¾s": 7128,
      "Ġsost": 7129,
      "ĠpleÅ¡": 7130,
      "Ġrold": 7131,
      "Ġkcha": 7132,
      "nem": 7133,
      "ĠvÅ¡ep": 7134,
      "Ġlut": 7135,
      "ĠtrÃ½m": 7136,
      "AABBXC": 7137,
      "ĠtraÅ¥": 7138,
      "AABCBD": 7139,
      "ĠchvÃ¡l": 7140,
      "ĠsklÃ¡l": 7141,
      "ĠsvÅ¡ÃŃm": 7142,
      "tro": 7143,
      "ĠmkrÃ¡": 7144,
      "ĠzaÅ¾": 7145,
      "ĠvuÅ¡": 7146,
      "Ġkrs": 7147,
      "Ġvtvou": 7148,
      "ĠchvÃŃÅ¡": 7149,
      "ĠzdÃ¡Å¡": 7150,
      "Ġzvos": 7151,
      "Ġctnou": 7152,
      "ĠtluÅ¡": 7153,
      "ĠvpouÅ¥": 7154,
      "Ġjrad": 7155,
      "Ġsklid": 7156,
      "Ġthyr": 7157,
      "Ġvchvat": 7158,
      "ĠskÅĻoup": 7159,
      "Ġkyl": 7160,
      "Ġkda": 7161,
      "ĠÄįÃŃr": 7162,
      "ABABXB": 7163,
      "Ġmann": 7164,
      "ĠvskÅĻÃŃ": 7165,
      "ĠskÅĻÃŃp": 7166,
      "Ġzchud": 7167,
      "ys": 7168,
      "Ġduk": 7169,
      "Ġodz": 7170,
      "ĠjÃ¡r": 7171,
      "ĠdrÅ¡": 7172,
      "Ġklik": 7173,
      "Ġstrost": 7174,
      "ĠstyÄı": 7175,
      "Ġtvat": 7176,
      "Ġtryz": 7177,
      "Ġtrej": 7178,
      "Ġkant": 7179,
      "ĠkÅ¾Ã¡d": 7180,
      "ĠpÅ¡tro": 7181,
      "Ġlza": 7182,
      "Ġoas": 7183,
      "Ġnix": 7184,
      "ĠmÃ¡r": 7185,
      "Ġmour": 7186,
      "Ġsslo": 7187,
      "Ġzrud": 7188,
      "Ġsjich": 7189,
      "Ġnand": 7190,
      "ĠbeÅĪ": 7191,
      "ĠbuÅ¾": 7192,
      "Ġhur": 7193,
      "Ġech": 7194,
      "ĠhÃ½n": 7195,
      "ĠpÅ¯v": 7196,
      "Ġzles": 7197,
      "ĠvnuÄį": 7198,
      "AABCCD": 7199,
      "Ġlta": 7200,
      "ĠzÅĻa": 7201,
      "Ġnest": 7202,
      "ĠdÄĽr": 7203,
      "Ġich": 7204,
      "Ġdlas": 7205,
      "ĠvmlÃ½": 7206,
      "Ġdlet": 7207,
      "Ġant": 7208,
      "ĠzmÃŃr": 7209,
      "ĠÄįÅ¯v": 7210,
      "ĠzjÃ¡": 7211,
      "Ġltam": 7212,
      "ĠnÃŃÅĻ": 7213,
      "ĠvÅ¡ko": 7214,
      "Ġryv": 7215,
      "Ġvdum": 7216,
      "ĠssvÃ½": 7217,
      "ĠsÅ¥al": 7218,
      "ĠdmÃ½": 7219,
      "ĠÅ¾ils": 7220,
      "ĠmÃ¡mÅ¥": 7221,
      "ĠstÅĻÃŃÅ¡": 7222,
      "ĠtÅĻÃ¡st": 7223,
      "ĠterÄį": 7224,
      "ĠzhyÅĪ": 7225,
      "Ġsml": 7226,
      "ĠvtÅĻ": 7227,
      "ĠÅ¾Ã¡s": 7228,
      "ĠÄįÃŃms": 7229,
      "Ġjezd": 7230,
      "ĠdÃ³l": 7231,
      "Ġvheb": 7232,
      "Ġvam": 7233,
      "ĠmeÅ¾": 7234,
      "ĠvpÃ©": 7235,
      "Ġsur": 7236,
      "ĠzpÅĻÃ¡": 7237,
      "ĠzbrÃ¡z": 7238,
      "Ġvils": 7239,
      "ĠvlÃ¡n": 7240,
      "ĠzÅĻels": 7241,
      "Ġskles": 7242,
      "ĠvsÃŃch": 7243,
      "Ġzkout": 7244,
      "Ġvsoud": 7245,
      "Ġhnis": 7246,
      "ĠÅ¡vÃ©": 7247,
      "ĠceÅ¥": 7248,
      "ĠvzÅĻÃŃ": 7249,
      "ĠdyÅĪ": 7250,
      "Ġrah": 7251,
      "Ġzyn": 7252,
      "Ġhek": 7253,
      "ĠvchlÃŃ": 7254,
      "Ġchvou": 7255,
      "Ġsvez": 7256,
      "ĠvÅĻÃŃÅ¡": 7257,
      "ĠkÅ¡pej": 7258,
      "ĠvÅ¡eÅĻ": 7259,
      "ĠmÃ©r": 7260,
      "ĠglÃ³": 7261,
      "Ġchym": 7262,
      "Ġziv": 7263,
      "Ġskan": 7264,
      "Ġfix": 7265,
      "Ġkhr": 7266,
      "ĠÅĻov": 7267,
      "Ġgry": 7268,
      "ĠsbÄĽÅĻ": 7269,
      "Ġdcem": 7270,
      "ĠvvÃ½Å¡": 7271,
      "ĠkpÅ¯l": 7272,
      "Ġjl": 7273,
      "ĠplaÅĪ": 7274,
      "Ġvkmi": 7275,
      "ĠdrÃ¡Äį": 7276,
      "Ġzkap": 7277,
      "ĠlÃŃmp": 7278,
      "ic": 7279,
      "ĠÅ¡lem": 7280,
      "Ġroch": 7281,
      "Ġboch": 7282,
      "ĠsmÅ¯": 7283,
      "ĠpÅĻiv": 7284,
      "Ġzpta": 7285,
      "Ġzuz": 7286,
      "ĠshÅĻe": 7287,
      "Ġfic": 7288,
      "ĠvsÃŃÅ¥": 7289,
      "ĠÅ¾hÃ¡": 7290,
      "ĠzhvÄĽzd": 7291,
      "zdy": 7292,
      "ĠsÄįi": 7293,
      "Ġcp": 7294,
      "ĠvÅ¡Å¥": 7295,
      "luz": 7296,
      "ĠÅĪuj": 7297,
      "Ġspur": 7298,
      "Ġsfinx": 7299,
      "Ã©st": 7300,
      "Ġlisk": 7301,
      "Ġdad": 7302,
      "ĠÅĻeÅ¾": 7303,
      "ĠjmÃŃ": 7304,
      "ĠscÃŃ": 7305,
      "ĠspÅĻed": 7306,
      "Ġksvat": 7307,
      "Ġdch": 7308,
      "ĠbvÃ¡": 7309,
      "Ġvych": 7310,
      "ĠspÃ½": 7311,
      "ĠtÃ¡c": 7312,
      "ĠtÅĻÃŃd": 7313,
      "Ġschlad": 7314,
      "Ġvzat": 7315,
      "ĠvstÅĻed": 7316,
      "ĠchÅĻa": 7317,
      "Ġklap": 7318,
      "ĠksnÄĽ": 7319,
      "Ġdotk": 7320,
      "Ġvluh": 7321,
      "ĠsÅ¾eh": 7322,
      "ĠblÅ¯v": 7323,
      "Ġfron": 7324,
      "kle": 7325,
      "ĠÄįeÅĪ": 7326,
      "Ġvtmy": 7327,
      "Ġhron": 7328,
      "ĠbrÃ¡zd": 7329,
      "Ġzpol": 7330,
      "Ġgest": 7331,
      "Ġryth": 7332,
      "ĠrtuÅ¥": 7333,
      "Ġvzmar": 7334,
      "ĠÄįtouc": 7335,
      "ĠjvÃ¡": 7336,
      "XAABBC": 7337,
      "ĠslaÅĻ": 7338,
      "Ġzour": 7339,
      "ĠprÃ½s": 7340,
      "Ġblic": 7341,
      "Ġvnach": 7342,
      "ĠzlÃŃk": 7343,
      "ĠÅ¡van": 7344,
      "ĠkmÃŃn": 7345,
      "Ġchne": 7346,
      "ĠvaÅ¡": 7347,
      "Ġkdnu": 7348,
      "Ġzpan": 7349,
      "ĠsÃ¡Äį": 7350,
      "Ġglu": 7351,
      "ĠzmÃ¡t": 7352,
      "Ġvmh": 7353,
      "ĠÅ¥ka": 7354,
      "ĠzvÄĽt": 7355,
      "ĠhlÃŃk": 7356,
      "ĠzvaÅ¾": 7357,
      "ĠzdÄĽl": 7358,
      "ĠÅĻuj": 7359,
      "ĠÅ¯v": 7360,
      "ĠdÃŃÅĻ": 7361,
      "Ġseth": 7362,
      "ĠzprÃ¡ch": 7363,
      "Ġvspou": 7364,
      "Ġvco": 7365,
      "Ġzflan": 7366,
      "Ġdvyk": 7367,
      "Ġghis": 7368,
      "ĠfÃ½r": 7369,
      "Ġksnad": 7370,
      "jt": 7371,
      "ĠcÃº": 7372,
      "Ġvsch": 7373,
      "ĠstÅĻes": 7374,
      "Ġlent": 7375,
      "ĠpÃ½t": 7376,
      "Ġvhold": 7377,
      "ĠvnÃ¡Å¡": 7378,
      "Ġzpout": 7379,
      "ĠctnÃ½ch": 7380,
      "mr": 7381,
      "ĠjÃ³": 7382,
      "ĠÅ¡me": 7383,
      "ĠsptÃ¡": 7384,
      "ĠstÃ¡Å¥": 7385,
      "ĠvdrÃ¡": 7386,
      "ĠkvÅ¡em": 7387,
      "Ġtils": 7388,
      "Ġdils": 7389,
      "Ġzves": 7390,
      "ĠÅ¡viÅ¾": 7391,
      "ĠvÄįÃŃÅ¡": 7392,
      "ĠÅ¡vÃ¡r": 7393,
      "Ġzpso": 7394,
      "ĠmÅ¾": 7395,
      "ĠÄįim": 7396,
      "Ġdouch": 7397,
      "Ġstrof": 7398,
      "ĠÅ¡tÄĽv": 7399,
      "Ġrenc": 7400,
      "ĠzmuÅ¾": 7401,
      "ĠÅ¡nÄĽ": 7402,
      "Ġpror": 7403,
      "ĠprÃ¡Å¡": 7404,
      "ĠstrÅ¯m": 7405,
      "ĠvÅ¾dyÅ¥s": 7406,
      "ĠÄįems": 7407,
      "AAXBXB": 7408,
      "Ġflan": 7409,
      "vil": 7410,
      "Ġjluz": 7411,
      "ÅĻu": 7412,
      "ĠloÄį": 7413,
      "ĠvstÄĽ": 7414,
      "ĠkboÅ¾": 7415,
      "ĠshrÅĪ": 7416,
      "Ġmak": 7417,
      "ĠvaÅĻ": 7418,
      "ĠfÅ¯m": 7419,
      "ĠkraÅ¡": 7420,
      "Ġbils": 7421,
      "Ġvskvost": 7422,
      "Ġfrank": 7423,
      "ĠsdruÅ¾": 7424,
      "Ġkspa": 7425,
      "Ġrcy": 7426,
      "ĠpokÅĻ": 7427,
      "Ġtex": 7428,
      "ĠpÃ¡v": 7429,
      "ĠklÃŃb": 7430,
      "ĠztÅĻeÅ¡": 7431,
      "war": 7432,
      "Ġloch": 7433,
      "ĠloÅ¡": 7434,
      "Ġcij": 7435,
      "Ġprod": 7436,
      "ĠÅ¡ij": 7437,
      "Ġpris": 7438,
      "Ġrik": 7439,
      "Ġzvet": 7440,
      "ĠzÅĻen": 7441,
      "Ġvkos": 7442,
      "ĠzpouÅ¡": 7443,
      "ĠvpÃ¡d": 7444,
      "Ġvhed": 7445,
      "ĠcÅ¾es": 7446,
      "ĠÃ¡t": 7447,
      "Ġtoh": 7448,
      "ĠzatÅĻ": 7449,
      "ĠvÅ¡at": 7450,
      "ĠbÃŃc": 7451,
      "ĠchvÃŃm": 7452,
      "Ġsslu": 7453,
      "rout": 7454,
      "Ġkpoz": 7455,
      "ĠÄįuj": 7456,
      "Ġhnizd": 7457,
      "ĠvdruÅ¾": 7458,
      "Ã½z": 7459,
      "Ġvsil": 7460,
      "Ġstos": 7461,
      "ĠzoÅĪ": 7462,
      "ĠdrÅ¥": 7463,
      "ABCBC": 7464,
      "Ġstyk": 7465,
      "ĠknÃŃr": 7466,
      "ĠzroÅ¾": 7467,
      "Ġgai": 7468,
      "ĠÅ¡tast": 7469,
      "ĠsrÃ¡Å¾": 7470,
      "Ġveb": 7471,
      "ĠvÃŃÅ¥": 7472,
      "Ġztvo": 7473,
      "ĠzniÄį": 7474,
      "ĠsproÅ¡": 7475,
      "ĠkÅ¾rout": 7476,
      "ĠÄįpa": 7477,
      "ĠdÃ©s": 7478,
      "Ġshy": 7479,
      "ĠzÃ½Äį": 7480,
      "Ġdvet": 7481,
      "ĠztrÃ¡t": 7482,
      "Ġzbur": 7483,
      "ĠÅ¥ov": 7484,
      "ĠmÅ¾e": 7485,
      "ĠtÄĽÅ¥": 7486,
      "Ġmoi": 7487,
      "Ġmach": 7488,
      "Ġef": 7489,
      "ĠblÃŃk": 7490,
      "Ġspan": 7491,
      "ĠslÃŃc": 7492,
      "ĠzvÄĽn": 7493,
      "ĠÅĪan": 7494,
      "Ġvplec": 7495,
      "Ġchant": 7496,
      "AABCCC": 7497,
      "ĠÅ¾vÃ½": 7498,
      "Ġtyl": 7499,
      "ĠvsnÃŃ": 7500,
      "ĠzÃŃt": 7501,
      "Ġsloh": 7502,
      "ĠgÅĻÃŃ": 7503,
      "ĠksÃŃ": 7504,
      "Ġfac": 7505,
      "ĠsnÄĽd": 7506,
      "ĠdbÃ¡t": 7507,
      "Ġmhla": 7508,
      "ĠvzboÅ¾": 7509,
      "ĠvÅ¡Å¥ast": 7510,
      "ĠdÃ¡s": 7511,
      "ĠzyÅ¡": 7512,
      "Ãºr": 7513,
      "ĠhlÃŃÅĻ": 7514,
      "ĠhliÄį": 7515,
      "ĠlkÃ¡m": 7516,
      "ĠvmÄĽl": 7517,
      "ĠvzplÃ¡t": 7518,
      "ĠcÃ¡p": 7519,
      "ĠvtrÃ¡v": 7520,
      "Ġgoism": 7521,
      "ĠtrÃ©m": 7522,
      "ĠdÅĻÃŃn": 7523,
      "Ġvlej": 7524,
      "Ġvstan": 7525,
      "ĠfÃ¡ÅĻ": 7526,
      "ĠvÅĻÃŃm": 7527,
      "ĠvplÃ¡ÅĪ": 7528,
      "ĠdcÃ©": 7529,
      "ĠzÅ¾eh": 7530,
      "Ġpni": 7531,
      "Ġmzdy": 7532,
      "Ġpac": 7533,
      "Ġspnou": 7534,
      "Ġsip": 7535,
      "Ġii": 7536,
      "CCD": 7537,
      "ĠÅ¡lit": 7538,
      "ĠpÅĻÃ¡n": 7539,
      "ĠÄįemÅ¾": 7540,
      "Ġssr": 7541,
      "ĠbyÅ¥s": 7542,
      "Ġvspa": 7543,
      "ĠzkÃ¡z": 7544,
      "Ġcvik": 7545,
      "ĠÅ¡kub": 7546,
      "ĠsvdÄĽÄį": 7547,
      "ĠdoÅĪ": 7548,
      "ĠciÅ¥": 7549,
      "ĠtakÅ¥": 7550,
      "Ġcham": 7551,
      "ĠklÃ¡l": 7552,
      "Ġsdr": 7553,
      "ĠskrÃ¡s": 7554,
      "ĠkhÃ¡": 7555,
      "ĠztÄĽs": 7556,
      "ĠdbÃ¡m": 7557,
      "ĠkzpÅ¯r": 7558,
      "ĠssluÅ¾": 7559,
      "Ġpf": 7560,
      "Ġrz": 7561,
      "ĠhaÅ¥": 7562,
      "ĠstÃŃk": 7563,
      "Ġvtrou": 7564,
      "Ġsub": 7565,
      "Ġzbru": 7566,
      "Ġksk": 7567,
      "Ġya": 7568,
      "AABCDD": 7569,
      "Ġjon": 7570,
      "Ġvzed": 7571,
      "Ġmlel": 7572,
      "ĠmÅ¾ÃŃ": 7573,
      "Å¡t": 7574,
      "Ġted": 7575,
      "Ġdun": 7576,
      "Ġlous": 7577,
      "Ġvman": 7578,
      "ĠÅ¡kvr": 7579,
      "ĠvlÃŃk": 7580,
      "Ġchlip": 7581,
      "Ġbep": 7582,
      "Ġztru": 7583,
      "ĠvÄįar": 7584,
      "ĠctnosÅ¥": 7585,
      "ĠsprÃ¡s": 7586,
      "ĠgrÃ©": 7587,
      "Ġkcho": 7588,
      "Ġsprv": 7589,
      "Ġvskok": 7590,
      "Ġpho": 7591,
      "ĠclÃ©": 7592,
      "ĠÅ¡tej": 7593,
      "Ġchnu": 7594,
      "ĠÅĻal": 7595,
      "ĠpaÅ¥": 7596,
      "Ġspil": 7597,
      "Ġig": 7598,
      "Ġflu": 7599,
      "ĠvÅ¯t": 7600,
      "ĠvrÃ¡m": 7601,
      "Ġkryj": 7602,
      "ĠdlÃŃc": 7603,
      "ĠmÅĻeÅ¡": 7604,
      "Ġsmyl": 7605,
      "Ġzdur": 7606,
      "Ġkloub": 7607,
      "Ġvbyt": 7608,
      "ĠhnÃŃt": 7609,
      "Ġstak": 7610,
      "Ġkad": 7611,
      "ĠkruÅ¾": 7612,
      "ĠsrsÅ¥": 7613,
      "Ġtlen": 7614,
      "ĠtskÃ½": 7615,
      "AXAXX": 7616,
      "ck": 7617,
      "Ġvkva": 7618,
      "ĠvbdÄĽ": 7619,
      "ĠkbÄĽ": 7620,
      "ĠbÅĻÃŃm": 7621,
      "ĠÅ¡ta": 7622,
      "ĠctÃŃc": 7623,
      "Ġvcu": 7624,
      "Ġpnout": 7625,
      "ĠvrÅ¯Å¾": 7626,
      "Ġkplat": 7627,
      "Ġjro": 7628,
      "ĠdyÅ¥": 7629,
      "ĠkrÃ¡st": 7630,
      "ĠÅ¡iÅ¾": 7631,
      "ĠstrÃ¡t": 7632,
      "ĠsprÃ¡ch": 7633,
      "Ġdant": 7634,
      "Ġbryn": 7635,
      "Ġkctno": 7636,
      "ĠÅ¡tvÃ¡t": 7637,
      "Ġvtroj": 7638,
      "ĠvdneÅ¡": 7639,
      "ĠprÃ©m": 7640,
      "Ġchun": 7641,
      "Ġkslad": 7642,
      "ABCX": 7643,
      "ĠhrÃ¡Å¡": 7644,
      "Ġtku": 7645,
      "Ġnymf": 7646,
      "ĠsÃ©m": 7647,
      "ĠvÅĻad": 7648,
      "ĠÅ¡rou": 7649,
      "ĠÅĻvÃ¡": 7650,
      "ĠsvlÃŃ": 7651,
      "Ġtvil": 7652,
      "Ġfru": 7653,
      "ĠznÄĽt": 7654,
      "Ġgin": 7655,
      "ĠvskrÃ½": 7656,
      "Ġkmon": 7657,
      "Ġchiv": 7658,
      "Ġblb": 7659,
      "Ġchrup": 7660,
      "ĠlÃ©v": 7661,
      "ĠvtÃ©m": 7662,
      "Ġfli": 7663,
      "Ġvdal": 7664,
      "ĠzkÅ¯": 7665,
      "Ġshan": 7666,
      "Ġyet": 7667,
      "Ġknez": 7668,
      "ĠvmoÅĻ": 7669,
      "ĠthÄĽ": 7670,
      "ĠÅ¡lov": 7671,
      "ĠsmeÅ¥": 7672,
      "ĠÅ¡tkal": 7673,
      "Ġtlel": 7674,
      "Ġzruch": 7675,
      "Ġzpust": 7676,
      "ĠstlÃ½m": 7677,
      "ĠkÅ¾er": 7678,
      "ĠvcÃŃp": 7679,
      "Ġvvel": 7680,
      "Ġstau": 7681,
      "Ġtvem": 7682,
      "Ġvzvo": 7683,
      "ĠsaÅ¥": 7684,
      "Ġzprud": 7685,
      "ĠkÅĻÃŃc": 7686,
      "Ġsdnem": 7687,
      "Ã³p": 7688,
      "ĠzlÃŃÄį": 7689,
      "Ġssto": 7690,
      "Ġvblud": 7691,
      "Ġsvil": 7692,
      "ĠvplÃ½": 7693,
      "ĠzknÄĽÅ¾": 7694,
      "Ġknej": 7695,
      "ĠmÅĻÃŃÅ¥": 7696,
      "Ġdnin": 7697,
      "res": 7698,
      "ĠzÅ¡a": 7699,
      "Ġsmluv": 7700,
      "AD": 7701,
      "Ġkyr": 7702,
      "Ġsaz": 7703,
      "ABABAA": 7704,
      "ĠÅ¡kvÃ¡": 7705,
      "Ġkmy": 7706,
      "Ġneck": 7707,
      "Ġtmav": 7708,
      "Ġzchmur": 7709,
      "Ġvzchop": 7710,
      "ĠvkeÅĻ": 7711,
      "AXAXBC": 7712,
      "ĠkÄıa": 7713,
      "Ġtop": 7714,
      "Ġdez": 7715,
      "ĠskÅ¯": 7716,
      "ĠÅĻÃŃp": 7717,
      "Ġvtrud": 7718,
      "Ġvbor": 7719,
      "ĠzÅĻek": 7720,
      "Ġrinth": 7721,
      "ĠsklÃŃÄį": 7722,
      "Ġsprch": 7723,
      "ĠzmnoÅ¾": 7724,
      "Ġkfo": 7725,
      "ĠÅ¡ra": 7726,
      "Ġchnul": 7727,
      "Ġvzna": 7728,
      "Ġspoz": 7729,
      "Ġbrost": 7730,
      "Ġkmr": 7731,
      "Ġkbi": 7732,
      "Ġvdob": 7733,
      "ĠkÅĻtÃŃ": 7734,
      "ĠdÅ¡t": 7735,
      "ĠmkrÃ¡t": 7736,
      "Ġvva": 7737,
      "Ġcra": 7738,
      "Ġvov": 7739,
      "ĠvoÄį": 7740,
      "ĠspÅĻi": 7741,
      "ĠpraÄı": 7742,
      "ĠstÄĽr": 7743,
      "ĠrÃ½s": 7744,
      "ĠsmÃŃn": 7745,
      "Ġpsem": 7746,
      "Ġvju": 7747,
      "Ġskar": 7748,
      "ĠzlÃŃt": 7749,
      "Ġzniv": 7750,
      "ĠmÄĽjÅ¾": 7751,
      "Ġzbah": 7752,
      "Ġchic": 7753,
      "Ġsrub": 7754,
      "ĠchÅĻÃŃÅ¡": 7755,
      "Ġrron": 7756,
      "ĠP": 7757,
      "ĠhÃ³": 7758,
      "Ġpav": 7759,
      "ĠstÃŃc": 7760,
      "ĠÅ¾Ã¡Äį": 7761,
      "Ġvzpu": 7762,
      "Ġstals": 7763,
      "Ġthur": 7764,
      "ĠstrÅ¯v": 7765,
      "ĠÅ¡mej": 7766,
      "ĠÅ¡ÅĪu": 7767,
      "ĠzkÅĻo": 7768,
      "Ġvlesk": 7769,
      "ĠvvÅ¡em": 7770,
      "ĠzÅ¾a": 7771,
      "ĠÄįlen": 7772,
      "ĠÅ¾nec": 7773,
      "ĠkÃ³": 7774,
      "Ġdmy": 7775,
      "ĠvhrÃ¡": 7776,
      "ĠkroÄį": 7777,
      "Ġmark": 7778,
      "Ġvchmur": 7779,
      "Ġzbran": 7780,
      "ABCBAC": 7781,
      "Ġsjem": 7782,
      "ĠvhÃ¡v": 7783,
      "Ġvmrz": 7784,
      "Ġsbles": 7785,
      "Ġzsk": 7786,
      "ĠÅ¡vÃŃ": 7787,
      "Ġtesk": 7788,
      "ĠÅ¾esÅ¥": 7789,
      "Ġbov": 7790,
      "lum": 7791,
      "ÅĪat": 7792,
      "Ġvdve": 7793,
      "Ġloud": 7794,
      "Ġsbou": 7795,
      "Ġzrod": 7796,
      "ĠÄįÃ¡sÅ¥": 7797,
      "Ġkby": 7798,
      "ĠtoÅ¾Å¥": 7799,
      "ĠÄįoÄį": 7800,
      "ĠÅ¡lÃŃÅ¡": 7801,
      "ĠÄıau": 7802,
      "Ġzjiz": 7803,
      "Ġkjas": 7804,
      "Ġsodv": 7805,
      "XABX": 7806,
      "ĠjÃº": 7807,
      "Ġpte": 7808,
      "ĠpnÃŃ": 7809,
      "Ġbak": 7810,
      "Ġdai": 7811,
      "Ġpap": 7812,
      "ĠÅ¡ip": 7813,
      "ĠvtÅĻÃŃ": 7814,
      "ĠvlÃ¡Äį": 7815,
      "ĠmÃ½Å¾": 7816,
      "ĠsrÅ¡": 7817,
      "ĠspiÅ¡": 7818,
      "ĠkÃºs": 7819,
      "Ġzfran": 7820,
      "ĠhviÄį": 7821,
      "Ġkjich": 7822,
      "Ġtci": 7823,
      "Ġvuz": 7824,
      "Ġvdny": 7825,
      "Ġtlas": 7826,
      "Ġkman": 7827,
      "ĠsneÅ¡": 7828,
      "ĠtkÃ¡m": 7829,
      "Ġssou": 7830,
      "Ġxo": 7831,
      "ĠplÃŃÅ¥": 7832,
      "Ġkstar": 7833,
      "ĠvbÄĽd": 7834,
      "Ġmhu": 7835,
      "ĠliÅĪ": 7836,
      "ĠvzvÄĽ": 7837,
      "ĠrÃ¡s": 7838,
      "ĠsuÅĪ": 7839,
      "Ġslup": 7840,
      "Ġdlan": 7841,
      "Ġsleh": 7842,
      "ĠÅ¥at": 7843,
      "ĠÅ¡Å¥u": 7844,
      "ĠvchvÄĽ": 7845,
      "Ġvzhou": 7846,
      "Ġvklet": 7847,
      "Ġkfi": 7848,
      "XABABC": 7849,
      "Ġnra": 7850,
      "Ġvex": 7851,
      "ĠdÃ¡c": 7852,
      "Ġcor": 7853,
      "Ġvzas": 7854,
      "ĠkdyÅ¾s": 7855,
      "ĠplÃ¡z": 7856,
      "Ġfik": 7857,
      "ĠsnyÅ¥": 7858,
      "ĠzmoÅĻ": 7859,
      "ĠkviÄį": 7860,
      "ĠvzlÃ©m": 7861,
      "Ġrru": 7862,
      "ĠvÃ¡Å¥": 7863,
      "Ġzdem": 7864,
      "ĠvdÃ¡t": 7865,
      "Ġhes": 7866,
      "Ġjul": 7867,
      "Ġpty": 7868,
      "Ġvchmu": 7869,
      "ĠÅĪaÄį": 7870,
      "ĠzrÅ¯d": 7871,
      "Ġvysv": 7872,
      "Ġzkvet": 7873,
      "Ġsvlast": 7874,
      "Ġpstru": 7875,
      "Ġksuk": 7876,
      "ÅĻbe": 7877,
      "Ġnyx": 7878,
      "Ġlys": 7879,
      "ĠsmÃ©": 7880,
      "Ġgno": 7881,
      "CDB": 7882,
      "ĠktvÃ½m": 7883,
      "Ġzchlad": 7884,
      "ĠzrÅ¯z": 7885,
      "ĠÅ¡vÃ¡b": 7886,
      "ĠktrÃ³": 7887,
      "ĠjmÃŃn": 7888,
      "ĠmÅ¾ou": 7889,
      "Ġpkou": 7890,
      "ĠsÃ¡r": 7891,
      "Ġtlach": 7892,
      "Ġsby": 7893,
      "Ġkmrou": 7894,
      "ĠstruÄį": 7895,
      "ĠpsÃ¡n": 7896,
      "Ġkspol": 7897,
      "Ġszim": 7898,
      "ĠtskÃ½m": 7899,
      "ĠvÅ¡pi": 7900,
      "26": 7901,
      "Ġjri": 7902,
      "Ġast": 7903,
      "ÅĻbi": 7904,
      "ĠdeÅ¥": 7905,
      "ĠmasÅ¥": 7906,
      "ĠpÅĻep": 7907,
      "Ġrai": 7908,
      "Ġzmet": 7909,
      "Ġkmar": 7910,
      "ĠkpÄĽ": 7911,
      "Ġkplu": 7912,
      "ĠouÄį": 7913,
      "ĠouÅ¡": 7914,
      "ĠvchlÃ¡d": 7915,
      "Ġkhe": 7916,
      "Ġzmoh": 7917,
      "ĠblÃ©k": 7918,
      "ĠzrÅ¯st": 7919,
      "ĠmnÃŃmÅ¥": 7920,
      "Ġchyll": 7921,
      "ĠhÅĪup": 7922,
      "Ġhin": 7923,
      "Ġlai": 7924,
      "ĠpaÅ¡": 7925,
      "ĠkÃ¡d": 7926,
      "Ġbezv": 7927,
      "ĠdlÃ¡ch": 7928,
      "Ġvkrad": 7929,
      "ACBD": 7930,
      "ĠzbÄĽh": 7931,
      "Ġzcy": 7932,
      "ĠzcÃŃ": 7933,
      "ĠÅ¥ouÄį": 7934,
      "ĠÅ¡mÃ¡": 7935,
      "Ġrzi": 7936,
      "ĠÄįtÄĽ": 7937,
      "ĠÄįmou": 7938,
      "Ġsvrou": 7939,
      "ĠnoÅ¥": 7940,
      "Ġroic": 7941,
      "ĠstÃŃt": 7942,
      "Ġdraz": 7943,
      "ĠvhÅĻe": 7944,
      "ĠstvÃ©m": 7945,
      "ĠklÅĪ": 7946,
      "Ġvpor": 7947,
      "Ġouin": 7948,
      "ĠznÃŃz": 7949,
      "ĠmnÃŃch": 7950,
      "Ġpuls": 7951,
      "Ġouinti": 7952,
      "Ġkyv": 7953,
      "ĠÄįep": 7954,
      "ĠÅ¡ÃŃv": 7955,
      "ĠÄįÃŃÅĻ": 7956,
      "ĠÅ¡ir": 7957,
      "ĠdÅĻÃŃch": 7958,
      "ĠspÃ¡Äį": 7959,
      "ĠdlÃŃk": 7960,
      "Ġkzla": 7961,
      "ĠnÄĽls": 7962,
      "ĠvÃºt": 7963,
      "ĠssÃ¡t": 7964,
      "ĠranÅ¾": 7965,
      "ĠcloÅĪ": 7966,
      "Ġvmet": 7967,
      "Ġgent": 7968,
      "ĠmodÅĻ": 7969,
      "AABXX": 7970,
      "olo": 7971,
      "vÅ¯r": 7972,
      "ĠjrÃ¡": 7973,
      "ĠÄįky": 7974,
      "Ġist": 7975,
      "ĠbÃŃÅĻ": 7976,
      "Ġvsli": 7977,
      "Ġzpli": 7978,
      "ĠÅ¡kÃ½": 7979,
      "Ġtryl": 7980,
      "ĠkstrÃ¡": 7981,
      "Ġllon": 7982,
      "ĠtnÃ½ch": 7983,
      "ĠvÄįty": 7984,
      "Ġaeth": 7985,
      "Ġyette": 7986,
      "ĠvÃ¡ÅĪ": 7987,
      "Ġvzvy": 7988,
      "ĠluÅ¡": 7989,
      "ABABBA": 7990,
      "ĠztÅ¯": 7991,
      "ĠvÃŃmÅ¥": 7992,
      "Ġstyl": 7993,
      "ĠsvÃ½Å¡": 7994,
      "ĠdvÃ©st": 7995,
      "ĠtlÃŃm": 7996,
      "ĠfÃŃn": 7997,
      "ĠpÃ³l": 7998,
      "Ġfekt": 7999,
      "ĠvzpÄĽv": 8000,
      "un": 8001,
      "ĠkdÃ¡l": 8002,
      "ĠmaÅ¾": 8003,
      "Ġstaj": 8004,
      "ĠvdÃ³": 8005,
      "ĠznÃ¡Å¥": 8006,
      "ĠslÃ¡t": 8007,
      "Ġdvar": 8008,
      "ĠvzÃ¡Å¡": 8009,
      "ĠvruÄį": 8010,
      "Ġtroup": 8011,
      "Ġvtrys": 8012,
      "Ġzfa": 8013,
      "ĠrvÃ¡n": 8014,
      "ĠÅ¡oust": 8015,
      "Ġschyl": 8016,
      "ĠÅ¡klub": 8017,
      "ĠlvÅ¯": 8018,
      "Ġsvran": 8019,
      "Ġvoc": 8020,
      "ĠzeÄį": 8021,
      "ĠÃºÅ¾": 8022,
      "Ġtrar": 8023,
      "ĠtÅĻiÅ¥": 8024,
      "ĠpsÃ½": 8025,
      "Ġvdub": 8026,
      "Ġvros": 8027,
      "ĠmÅ¾it": 8028,
      "ĠsÃºz": 8029,
      "Ġscan": 8030,
      "ĠdÅĻin": 8031,
      "ĠzvÃ½h": 8032,
      "ĠhrÃ½zt": 8033,
      "Ġstle": 8034,
      "ĠrÅ¾ÃŃ": 8035,
      "Ġlij": 8036,
      "Ġuil": 8037,
      "Ġbrk": 8038,
      "Ġvems": 8039,
      "ĠzlosÅ¥": 8040,
      "Ġfai": 8041,
      "Ġbrot": 8042,
      "ĠklÃŃch": 8043,
      "AXBXB": 8044,
      "ĠÅ¾ul": 8045,
      "ĠniÅ¾Å¥": 8046,
      "ĠzbÄĽd": 8047,
      "Ġvbit": 8048,
      "AABAAB": 8049,
      "ĠzÃ³": 8050,
      "Ġdow": 8051,
      "Ġsyk": 8052,
      "Ġsut": 8053,
      "ĠvslÃŃ": 8054,
      "Ġzhle": 8055,
      "ĠshnÃ¡": 8056,
      "ĠblÃŃn": 8057,
      "ĠtÅĻid": 8058,
      "ĠstÅĻÃŃs": 8059,
      "ĠtrÃ¡ch": 8060,
      "Ġskryj": 8061,
      "Ġtlouk": 8062,
      "Ġzvrat": 8063,
      "Ġvpych": 8064,
      "Ġzza": 8065,
      "Ġvychr": 8066,
      "Ġtwar": 8067,
      "Ġvau": 8068,
      "Ġmac": 8069,
      "Ġkoum": 8070,
      "Ġvsle": 8071,
      "ĠzprÃ¡z": 8072,
      "ĠdalÅ¥": 8073,
      "Ġvzdi": 8074,
      "ĠzÅĻÃŃc": 8075,
      "ĠÅ¥ce": 8076,
      "Ġhlil": 8077,
      "ĠktÃ¡": 8078,
      "Ġhloup": 8079,
      "Ġtlil": 8080,
      "Ġsnym": 8081,
      "Ġvcel": 8082,
      "Ġvryb": 8083,
      "Ġkspo": 8084,
      "Ġflex": 8085,
      "ĠjvÄĽÅ¡": 8086,
      "ĠmnÃ¡c": 8087,
      "Ġvtrest": 8088,
      "Ġds": 8089,
      "Ġtaur": 8090,
      "Ġtuk": 8091,
      "ĠbuÅĪ": 8092,
      "ĠsteÅ¡": 8093,
      "Ġgju": 8094,
      "Ġye": 8095,
      "Ġplyn": 8096,
      "ĠzleÅ¡": 8097,
      "Ġthle": 8098,
      "Ġsboch": 8099,
      "ĠzsvÃ½ch": 8100,
      "Ġzjis": 8101,
      "Ġknost": 8102,
      "ĠvÄĽs": 8103,
      "Ġnoun": 8104,
      "Ġzef": 8105,
      "ĠvtÃ³": 8106,
      "ĠbiÅ¡": 8107,
      "Ġvlam": 8108,
      "ĠdloÅ¾": 8109,
      "Ġctum": 8110,
      "ĠaÄįs": 8111,
      "Ġzrou": 8112,
      "Ġvnaz": 8113,
      "Ġhryz": 8114,
      "ĠbdÃŃÅ¡": 8115,
      "Ġgall": 8116,
      "ĠvcÃŃl": 8117,
      "Ġzmdlob": 8118,
      "ĠjÅĻil": 8119,
      "ĠchÃ³": 8120,
      "ĠbaÅĪ": 8121,
      "Ġvrem": 8122,
      "ĠrÃ½t": 8123,
      "Ġksko": 8124,
      "ĠcheÅĪ": 8125,
      "Ġhmat": 8126,
      "Ġkvol": 8127,
      "Ġnuc": 8128,
      "Ġvsma": 8129,
      "ĠstrÃ³p": 8130,
      "ĠkloÄı": 8131,
      "Ġktru": 8132,
      "ĠÄįtli": 8133,
      "Ġmsto": 8134,
      "ĠxÅ¯": 8135,
      "Ġllyr": 8136,
      "Ġthus": 8137,
      "ĠstlÃ©m": 8138,
      "ĠvÅ¡pat": 8139,
      "Ġvshro": 8140,
      "Ġllem": 8141,
      "Ġpha": 8142,
      "Ġid": 8143,
      "ĠvptÃ¡": 8144,
      "ĠvsÃ¡l": 8145,
      "Ġblom": 8146,
      "Ġvzbra": 8147,
      "ĠÅ¡lil": 8148,
      "Ġdoh": 8149,
      "Ġrut": 8150,
      "Ġia": 8151,
      "Ġhral": 8152,
      "ĠplÃ¡c": 8153,
      "Ġsmrk": 8154,
      "Ġtmo": 8155,
      "Ġsnej": 8156,
      "Ġtkou": 8157,
      "ĠkhrÅ¯": 8158,
      "ĠÅ¡Ã¡m": 8159,
      "ĠvpÅĻÃŃt": 8160,
      "Ġfun": 8161,
      "Ġstmou": 8162,
      "Ġjap": 8163,
      "ĠÅĻep": 8164,
      "ĠbaÄį": 8165,
      "ĠtamÅ¥": 8166,
      "Ġstouc": 8167,
      "ĠprouÅ¾": 8168,
      "Ġkplo": 8169,
      "Ġtlost": 8170,
      "Ġchals": 8171,
      "Ġstruh": 8172,
      "Ġkpos": 8173,
      "ĠvsaÄı": 8174,
      "Ġtbu": 8175,
      "ĠjvÃ¡b": 8176,
      "CX": 8177,
      "ĠÅ¡lÃ½m": 8178,
      "Ġhet": 8179,
      "ĠvskÅĻi": 8180,
      "ĠÄįov": 8181,
      "Ġfos": 8182,
      "Ġrent": 8183,
      "ĠmÅ¡ÃŃ": 8184,
      "Ġvget": 8185,
      "ĠvjÃŃc": 8186,
      "Ġzpyt": 8187,
      "Ġvstih": 8188,
      "ĠÅĻvÃ¡t": 8189,
      "ĠveÅ¾": 8190,
      "ĠnouÄį": 8191,
      "Ġvsmu": 8192,
      "Ġdland": 8193,
      "Ġblep": 8194,
      "ĠsdÃ¡": 8195,
      "Ġjdouc": 8196,
      "ĠrtÅ¯v": 8197,
      "ĠvstÅĻet": 8198,
      "Ġshud": 8199,
      "ĠpstrÃ©": 8200,
      "ĠdÅĻu": 8201,
      "ĠiÃŃ": 8202,
      "XAABBX": 8203,
      "Ġztrou": 8204,
      "ĠvlÃ½": 8205,
      "ĠzpÄĽn": 8206,
      "Ġvpoc": 8207,
      "Ġvpov": 8208,
      "ĠzÅĻÃŃÅ¥": 8209,
      "Ġstrum": 8210,
      "Ġvpros": 8211,
      "Ġkment": 8212,
      "Ġchloup": 8213,
      "rej": 8214,
      "Ġsex": 8215,
      "ĠvÅ¡ar": 8216,
      "Ġnuch": 8217,
      "ĠvzrÃ¡d": 8218,
      "ĠtyÅ¥": 8219,
      "ĠluÄı": 8220,
      "Ġmlas": 8221,
      "ĠsmÄĽt": 8222,
      "ĠÅ¡aj": 8223,
      "ĠstÃ½n": 8224,
      "Ġzvar": 8225,
      "ĠvzkvÄĽ": 8226,
      "Ġthes": 8227,
      "ĠkstÅĻe": 8228,
      "Ġfuj": 8229,
      "Ġztuh": 8230,
      "ĠshÃ½b": 8231,
      "ĠtchÃ¡n": 8232,
      "Ġsfouk": 8233,
      "ĠvsnÃŃh": 8234,
      "ĠnaÅĻ": 8235,
      "Ġhof": 8236,
      "Ġnok": 8237,
      "ĠslÃ©m": 8238,
      "ĠtÃŃz": 8239,
      "Ġjah": 8240,
      "Ġjaj": 8241,
      "ĠÅĻeÅ¡": 8242,
      "ĠvdÅĻe": 8243,
      "ĠdraÄį": 8244,
      "Ġvhle": 8245,
      "ĠbrÃ¡m": 8246,
      "Ġkmou": 8247,
      "ĠzlÃŃh": 8248,
      "Ġvsluj": 8249,
      "Ġvca": 8250,
      "Ġsbez": 8251,
      "Ġcukr": 8252,
      "kÃ©": 8253,
      "Ġdky": 8254,
      "ĠÅ¡y": 8255,
      "ĠjskÃ©": 8256,
      "ĠdÃ¡Äį": 8257,
      "ĠkrÃ¡p": 8258,
      "ĠhaÅĪ": 8259,
      "Ġhlan": 8260,
      "ĠpÅĻit": 8261,
      "Ġtril": 8262,
      "ĠvsnÅ¯": 8263,
      "AAXAXA": 8264,
      "ĠrÃ©mÅ¾": 8265,
      "ĠkÅĻtÄĽ": 8266,
      "ĠvÅĻÃŃÄį": 8267,
      "Ġllic": 8268,
      "ĠvseÄį": 8269,
      "Ġsju": 8270,
      "Ġshroz": 8271,
      "ĠzkÅĻiÅ¡": 8272,
      "Ġvkyv": 8273,
      "ĠnÃ¡Å¥": 8274,
      "ĠnoÅĻ": 8275,
      "ĠkdÃŃt": 8276,
      "ĠkÃ¡Äį": 8277,
      "Ġmyt": 8278,
      "ĠzÃŃv": 8279,
      "Ġvout": 8280,
      "Ġzman": 8281,
      "Ġlils": 8282,
      "CDD": 8283,
      "Ġcau": 8284,
      "Ġsdvo": 8285,
      "ABCCBA": 8286,
      "ĠvzkÅĻe": 8287,
      "ĠvjitÅĻ": 8288,
      "ĠzbÄĽÅĻ": 8289,
      "Ġkchu": 8290,
      "Ġztaj": 8291,
      "ĠrdÃŃc": 8292,
      "ĠzkÅĻik": 8293,
      "ĠlÅ¾eÅ¡": 8294,
      "ĠkÄįa": 8295,
      "Ġssk": 8296,
      "ĠsÅĻa": 8297,
      "Ġclou": 8298,
      "ĠsvÅĻe": 8299,
      "Ġmai": 8300,
      "ĠspÃ©": 8301,
      "ĠlÃ©r": 8302,
      "Ġvtk": 8303,
      "Ġei": 8304,
      "Ġez": 8305,
      "Ġvklo": 8306,
      "Ġklej": 8307,
      "Ġdnil": 8308,
      "ĠhrÃ¡Äį": 8309,
      "ĠzpoÄį": 8310,
      "Ġvjho": 8311,
      "ĠÅĪav": 8312,
      "Ġvkol": 8313,
      "ĠshoÄı": 8314,
      "ĠtbÃ¡ch": 8315,
      "ĠtchÃ¡": 8316,
      "AABXBX": 8317,
      "Ġphoi": 8318,
      "AABXXB": 8319,
      "ĠvslÃŃÄį": 8320,
      "Ġkuch": 8321,
      "Ġio": 8322,
      "ĠvsvÃŃ": 8323,
      "ĠbiÅ¥": 8324,
      "ĠvlaÄį": 8325,
      "Ġblat": 8326,
      "Ġschle": 8327,
      "Ġkmla": 8328,
      "AAAABB": 8329,
      "Ġvrub": 8330,
      "Ġtlech": 8331,
      "ĠdnÄĽj": 8332,
      "Ġvcir": 8333,
      "ĠÅ¾hnu": 8334,
      "Ġtba": 8335,
      "ĠcrÃ³": 8336,
      "ĠvkÅĻiÅ¡": 8337,
      "Ġtchy": 8338,
      "Ġmiv": 8339,
      "Ġmaur": 8340,
      "Ġtyn": 8341,
      "Ġchab": 8342,
      "Ġziz": 8343,
      "ĠstÅĻeÅ¾": 8344,
      "Ġmraj": 8345,
      "Ġshru": 8346,
      "Ġkls": 8347,
      "Ġkniv": 8348,
      "Ġbald": 8349,
      "Ġaus": 8350,
      "Ġvspro": 8351,
      "AXXABB": 8352,
      "Ġvvla": 8353,
      "Ġkvlast": 8354,
      "Ġaest": 8355,
      "ĠklÅ¯Å¾": 8356,
      "Ġvsklon": 8357,
      "ĠnÄĽh": 8358,
      "ĠmuÄį": 8359,
      "Ġvig": 8360,
      "Ġzdmu": 8361,
      "Ġzram": 8362,
      "Ġvbro": 8363,
      "ĠshrÃ¡": 8364,
      "ĠksÃ½": 8365,
      "ĠvlÃ¡z": 8366,
      "ĠvchlÃ©": 8367,
      "Ġzjar": 8368,
      "ĠvÅĻÃ¡d": 8369,
      "ĠÅ¡Ã©": 8370,
      "ĠtaÅĻ": 8371,
      "Ġdesk": 8372,
      "Ġsuv": 8373,
      "Ġbir": 8374,
      "ĠzmlÃ½": 8375,
      "Ġshlou": 8376,
      "Ġschro": 8377,
      "Ġhlem": 8378,
      "Ġvchvil": 8379,
      "ĠsboÅ¾": 8380,
      "ĠpÄĽls": 8381,
      "ĠÅ¾dyc": 8382,
      "Ġgral": 8383,
      "ĠzdrÅ¾": 8384,
      "ĠÄįteÅ¡": 8385,
      "Ġsvrch": 8386,
      "ĠhmoÅ¾": 8387,
      "ĠsÅ¡a": 8388,
      "Ġfons": 8389,
      "Ġzga": 8390,
      "Ġtest": 8391,
      "ĠnÃ½r": 8392,
      "Ġdud": 8393,
      "ĠmeÅ¥": 8394,
      "Ġzpor": 8395,
      "Ġdlat": 8396,
      "skÃ©": 8397,
      "Ġkret": 8398,
      "AAXXXX": 8399,
      "ĠsdÃ½": 8400,
      "ver": 8401,
      "Ġgel": 8402,
      "Ġblin": 8403,
      "Ġvloh": 8404,
      "ĠznÃ¡mÅ¥": 8405,
      "ĠvmlÅ¾": 8406,
      "Ġfyr": 8407,
      "Ġspekt": 8408,
      "Ġmlejn": 8409,
      "mÅ¯": 8410,
      "Ġrho": 8411,
      "ĠÅ¡vu": 8412,
      "ĠsvrÃ¡": 8413,
      "Ġskly": 8414,
      "ĠsmlÃ¡": 8415,
      "Ġpraz": 8416,
      "ĠpÃ¡st": 8417,
      "ĠchÃ¡b": 8418,
      "ĠchtÄĽt": 8419,
      "Ġvnec": 8420,
      "Ġssla": 8421,
      "Ġgran": 8422,
      "ĠzchÃ½": 8423,
      "ĠÄįnÃŃt": 8424,
      "Ġmlet": 8425,
      "Ġkvost": 8426,
      "Ġvvzd": 8427,
      "ĠÅ¡lÃ¡ÅĻ": 8428,
      "ĠvbÃ¡j": 8429,
      "Ġjvod": 8430,
      "Ġtimp": 8431,
      "Ġksym": 8432,
      "vor": 8433,
      "ĠnÃ³": 8434,
      "Ġrill": 8435,
      "lau": 8436,
      "ĠvaÄı": 8437,
      "Ġjip": 8438,
      "Ġvyc": 8439,
      "ĠchaÄį": 8440,
      "AABBCB": 8441,
      "Ġroun": 8442,
      "ĠzdÃ¡m": 8443,
      "Ġshnu": 8444,
      "ĠÄįils": 8445,
      "Ġhant": 8446,
      "ĠzdÄĽch": 8447,
      "ĠzdÃŃl": 8448,
      "Ġtvic": 8449,
      "Ġvgir": 8450,
      "ĠvtÃ¡h": 8451,
      "Ġvdrs": 8452,
      "XABBA": 8453,
      "mÃ©": 8454,
      "Ġnber": 8455,
      "ĠvvÃŃ": 8456,
      "Ġclum": 8457,
      "Ġkys": 8458,
      "ĠÅĻeÅ¥": 8459,
      "ĠtrÃ³n": 8460,
      "ĠnÃ½chs": 8461,
      "Ġbrah": 8462,
      "ĠgÅĻi": 8463,
      "Ġzkme": 8464,
      "Ġpils": 8465,
      "Ġfoi": 8466,
      "ĠkstÄĽ": 8467,
      "ĠzpÅĻed": 8468,
      "ĠzÅ¾u": 8469,
      "ĠdmÃŃ": 8470,
      "ĠllÅ¯": 8471,
      "Ġaf": 8472,
      "Å¾b": 8473,
      "Ġchnou": 8474,
      "Ġstaf": 8475,
      "Ġvtva": 8476,
      "Ġslost": 8477,
      "Ġkes": 8478,
      "ĠztÃŃ": 8479,
      "ĠbÅĻed": 8480,
      "ĠÅ¡tÄĽk": 8481,
      "ĠvpoÄį": 8482,
      "Ġsblan": 8483,
      "Ġkmra": 8484,
      "ĠkmlÃ¡": 8485,
      "ĠzÅĻev": 8486,
      "ĠklÃ¡n": 8487,
      "Ġthem": 8488,
      "ĠvzklÃŃ": 8489,
      "Ġxy": 8490,
      "Ġploul": 8491,
      "Ġsmoc": 8492,
      "ĠcÃ©ÅĻ": 8493,
      "ĠkjÃ¡": 8494,
      "Ġkpros": 8495,
      "ĠpÅ¡a": 8496,
      "ĠciÄį": 8497,
      "ĠlÃ©p": 8498,
      "Ġchus": 8499,
      "Ġfak": 8500,
      "ĠtÅĻep": 8501,
      "ABCACB": 8502,
      "ĠmÃ½t": 8503,
      "ĠtresÅ¥": 8504,
      "Ġfranz": 8505,
      "ĠblÃ©m": 8506,
      "ĠhÅĻiÄį": 8507,
      "ĠsÅ¾en": 8508,
      "Ġvsrp": 8509,
      "dr": 8510,
      "nut": 8511,
      "ĠneÅ¥": 8512,
      "ĠnÃ¡z": 8513,
      "ĠvÅ¡Ã¡": 8514,
      "ĠmÄĽÄı": 8515,
      "ĠlyÅĪ": 8516,
      "ĠzvdÄĽÄį": 8517,
      "ĠÃºl": 8518,
      "Ġdour": 8519,
      "Ġmand": 8520,
      "ĠÅ¡tvou": 8521,
      "Ġjilm": 8522,
      "Ġbdi": 8523,
      "ĠskroÅ¥": 8524,
      "Ġvhlav": 8525,
      "ĠÅ¡vest": 8526,
      "ĠÅ¾van": 8527,
      "Ġstrel": 8528,
      "ĠvbÅĻes": 8529,
      "ĠsÄįÃŃm": 8530,
      "Ġcult": 8531,
      "ĠhÅĪuh": 8532,
      "Ġvzje": 8533,
      "Ġtrill": 8534,
      "ABBABC": 8535,
      "ĠzhÅĻbe": 8536,
      "Ġmde": 8537,
      "Ġklus": 8538,
      "ĠÅ¾luÅ¥": 8539,
      "XAXABX": 8540,
      "Ġvsmy": 8541,
      "ĠlkÃ¡Å¥": 8542,
      "Ġzhur": 8543,
      "Ġzvrt": 8544,
      "ĠjradÅ¡": 8545,
      "ĠjÅĻi": 8546,
      "ĠÅ¡vÃ½": 8547,
      "Ġlac": 8548,
      "ĠvÃ¡h": 8549,
      "ĠspÅ¯d": 8550,
      "ĠzÃ¡z": 8551,
      "Ġlul": 8552,
      "ĠdÅĻÃŃk": 8553,
      "Ġschlou": 8554,
      "ĠhlouÄį": 8555,
      "Ġzpov": 8556,
      "Ġblon": 8557,
      "Ġzmiz": 8558,
      "ĠzsvÄĽt": 8559,
      "ĠÅ¾dÃ¡t": 8560,
      "ĠÅ¾dÃ¡m": 8561,
      "ĠÅ¾bÃ¡n": 8562,
      "ĠdskÃ©": 8563,
      "Ġspsem": 8564,
      "Ġvgeth": 8565,
      "ĠvÃ³": 8566,
      "Ġlvu": 8567,
      "Ġjha": 8568,
      "ĠÅ¾re": 8569,
      "ĠÄįka": 8570,
      "Ġchmou": 8571,
      "ĠÅ¾ev": 8572,
      "ĠkdÅ¯": 8573,
      "ĠbraÅ¡": 8574,
      "ĠzoÄį": 8575,
      "Ġklim": 8576,
      "ĠsmrÅ¡": 8577,
      "Ġkslou": 8578,
      "Ġtlal": 8579,
      "ĠslÃŃd": 8580,
      "ĠpÅĻÃ¡Å¥": 8581,
      "Ġfel": 8582,
      "ĠtrÃ¡k": 8583,
      "ĠcoÅ¾s": 8584,
      "ĠzpÃŃt": 8585,
      "ĠstÃ¡ls": 8586,
      "Ġznov": 8587,
      "Ġthin": 8588,
      "Ġvkob": 8589,
      "Ġchran": 8590,
      "ĠdlÃ¡ÅĻ": 8591,
      "ĠkhrÃ¡": 8592,
      "ĠchrÅ¯m": 8593,
      "Ġchrlil": 8594,
      "ĠmdlÃ©m": 8595,
      "Ġvpsa": 8596,
      "Ġpten": 8597,
      "Ġmber": 8598,
      "lej": 8599,
      "rÃ¡v": 8600,
      "ĠÄįÃŃÅ¾": 8601,
      "ĠÅ¾ic": 8602,
      "Ġbaf": 8603,
      "Ġdouk": 8604,
      "ĠchyÅ¾": 8605,
      "Ġzhno": 8606,
      "ĠsliÅ¥": 8607,
      "Ġdloud": 8608,
      "Ġvzpi": 8609,
      "Ġznoz": 8610,
      "Ġtlup": 8611,
      "Ġparr": 8612,
      "Ġchlic": 8613,
      "ĠÅĪÃ¡Äį": 8614,
      "ĠvmrÅ¡": 8615,
      "ĠvstrÅ¾": 8616,
      "Ġsvrhl": 8617,
      "ĠvschrÃ¡": 8618,
      "Ġtnu": 8619,
      "Ġbrd": 8620,
      "ĠcÅ¾": 8621,
      "Å¯v": 8622,
      "Ġkau": 8623,
      "Ġzvil": 8624,
      "ĠpÃŃn": 8625,
      "ĠvÅ¾u": 8626,
      "ĠkroÅ¥": 8627,
      "ĠbÅĻeÅ¾": 8628,
      "ĠvÅĻed": 8629,
      "ĠznÃ¡d": 8630,
      "ĠvlÃ¡st": 8631,
      "Ġvlech": 8632,
      "ĠÅ¡ky": 8633,
      "Ġplos": 8634,
      "ĠpÃ©r": 8635,
      "Ġzsa": 8636,
      "ĠmÃ¤": 8637,
      "ĠÅ¾ni": 8638,
      "ĠÅ¡or": 8639,
      "Ġzec": 8640,
      "ĠspoÄį": 8641,
      "ĠsleÅ¥": 8642,
      "ĠvmÃ½": 8643,
      "Ġmens": 8644,
      "ĠsÃ½r": 8645,
      "ĠÄıat": 8646,
      "ĠvzkvÃ©": 8647,
      "ĠvzkvÄĽt": 8648,
      "ĠvpÅĻÃŃs": 8649,
      "Ġzsmr": 8650,
      "Ġkult": 8651,
      "ĠvvÅ¯": 8652,
      "Ġkfran": 8653,
      "ĠvzmuÅ¾": 8654,
      "ĠbaÅ¡t": 8655,
      "Ġjroz": 8656,
      "ĠsprÅ¯": 8657,
      "ĠÅ¡ic": 8658,
      "Ġhup": 8659,
      "Ġpep": 8660,
      "ĠsuÅ¡": 8661,
      "ĠdÄĽlÅ¥": 8662,
      "Ġvmal": 8663,
      "Ġkrup": 8664,
      "Ġgust": 8665,
      "Ġvhrom": 8666,
      "Ġvtur": 8667,
      "Ġfant": 8668,
      "ĠvtvÅ¯r": 8669,
      "Ġsstra": 8670,
      "Ġpsov": 8671,
      "ĠshvÄĽzd": 8672,
      "ĠflÃ³r": 8673,
      "Ġkbez": 8674,
      "AABAB": 8675,
      "DE": 8676,
      "Ġmva": 8677,
      "Ġcri": 8678,
      "Ġtir": 8679,
      "Ġsix": 8680,
      "ĠmÃŃs": 8681,
      "ĠbaÅĻ": 8682,
      "ĠprÃ³": 8683,
      "ĠzoÅ¡": 8684,
      "Ġdrich": 8685,
      "ĠstvÃŃÅ¡": 8686,
      "Ġzhi": 8687,
      "ĠbÅĻev": 8688,
      "ĠkpÅĻi": 8689,
      "ĠstvoÅĻ": 8690,
      "Ġvchra": 8691,
      "Ġvkam": 8692,
      "ĠmstÄĽ": 8693,
      "ĠzlÃ¡z": 8694,
      "Ġsfres": 8695,
      "ĠsklÃŃn": 8696,
      "ĠskÅĻes": 8697,
      "ĠvhouÅ¡Å¥": 8698,
      "ĠÄįmel": 8699,
      "hi": 8700,
      "ĠnrÃ¡d": 8701,
      "ĠrÃŃ": 8702,
      "ĠlyÅ¥": 8703,
      "Ġvzdro": 8704,
      "ĠstÅĻeÅĪ": 8705,
      "ĠsmÄĽst": 8706,
      "Ġkrum": 8707,
      "ABCDE": 8708,
      "Ġfus": 8709,
      "AXBCBD": 8710,
      "Ġshlas": 8711,
      "ĠvskoÄį": 8712,
      "ĠdskÃ½": 8713,
      "Ġvpsal": 8714,
      "Ġbvaz": 8715,
      "ĠvtÅĻpy": 8716,
      "Ġmik": 8717,
      "Ġvest": 8718,
      "ĠprÃ½m": 8719,
      "ĠhÃ¡c": 8720,
      "Ġey": 8721,
      "skÃ½ch": 8722,
      "ABBAXC": 8723,
      "Ġsbr": 8724,
      "ĠklÃ¡t": 8725,
      "ĠzvÃŃs": 8726,
      "Ġknem": 8727,
      "XABBXA": 8728,
      "Ġwer": 8729,
      "ĠsvlÃ©k": 8730,
      "ĠvchÃ½Å¾": 8731,
      "ĠvkÅĻÃŃÅ¾": 8732,
      "Ġskiz": 8733,
      "ĠpfÃŃ": 8734,
      "ĠdÄįe": 8735,
      "Ġlix": 8736,
      "Ġmich": 8737,
      "ĠniÅ¡Å¥": 8738,
      "Ġsken": 8739,
      "Ġpai": 8740,
      "ĠtyÅĪ": 8741,
      "ĠvÅ¾en": 8742,
      "ĠzraÄı": 8743,
      "Ġsvic": 8744,
      "tip": 8745,
      "ĠkrÅ¯Äį": 8746,
      "ĠspÅĻÃŃz": 8747,
      "Ġkblan": 8748,
      "ĠvzlÃŃ": 8749,
      "ĠhlaÅ¥": 8750,
      "Ġbach": 8751,
      "ĠmouÅ¡": 8752,
      "Ġjud": 8753,
      "ĠjuÅ¡": 8754,
      "Ġksli": 8755,
      "Ġschi": 8756,
      "Ġfas": 8757,
      "ĠvÄįet": 8758,
      "ĠtrÃ¡l": 8759,
      "Ġkzbo": 8760,
      "ĠvbeÄį": 8761,
      "Ġwal": 8762,
      "ĠvchvÃŃl": 8763,
      "ĠkdÄĽl": 8764,
      "Ġzblan": 8765,
      "Ġaethru": 8766,
      "Ġnip": 8767,
      "ĠvzÃº": 8768,
      "ĠraÅ¾": 8769,
      "Ġsap": 8770,
      "Ġhun": 8771,
      "Ġvpom": 8772,
      "ĠvÅ¾il": 8773,
      "Ġbrech": 8774,
      "ĠsvaÅ¾": 8775,
      "Ġzys": 8776,
      "Ġmoct": 8777,
      "ĠbÅĻesk": 8778,
      "Ġtrep": 8779,
      "ĠvlÃ©k": 8780,
      "Ġsplet": 8781,
      "ĠvzplaÅĪ": 8782,
      "ĠtlÃŃk": 8783,
      "ĠzÃ©r": 8784,
      "ĠvbÅĻed": 8785,
      "Ġsaul": 8786,
      "XABCBC": 8787,
      "ĠÅ¡rÃ¡m": 8788,
      "DB": 8789,
      "Ġrl": 8790,
      "ĠnÄĽÅ¥": 8791,
      "ĠtiÅ¡Å¥": 8792,
      "Ġdog": 8793,
      "Ġkaf": 8794,
      "Ġmiz": 8795,
      "Ġnoum": 8796,
      "ĠsvÄĽc": 8797,
      "Ġkrem": 8798,
      "ĠvdÅĻÃŃ": 8799,
      "ĠgÅ¯m": 8800,
      "Ġdrt": 8801,
      "Ġblast": 8802,
      "ĠÅ¡uÅ¡": 8803,
      "Ġscha": 8804,
      "ĠpsÃ½m": 8805,
      "Ġkzb": 8806,
      "ĠfrÃ©": 8807,
      "Ġchis": 8808,
      "Ġsfi": 8809,
      "ĠstÅĻÃ¡st": 8810,
      "Ġzhroz": 8811,
      "Ġsjha": 8812,
      "ĠchÅĻic": 8813,
      "Ġvslast": 8814,
      "Ġvklec": 8815,
      "Ġaeolo": 8816,
      "ĠvhnÄĽt": 8817,
      "Ġvsym": 8818,
      "ĠspyÅ¡": 8819,
      "Ġphi": 8820,
      "ĠvmhÃ¡ch": 8821,
      "ĠÅ¡tejn": 8822,
      "AXXXX": 8823,
      "id": 8824,
      "ĠsÄıÃ¡": 8825,
      "ĠzÅĻas": 8826,
      "Ġrr": 8827,
      "ĠnÄĽs": 8828,
      "ĠboÅĪ": 8829,
      "ĠdÃ½k": 8830,
      "ĠpouÄį": 8831,
      "Ġhrav": 8832,
      "Ġmrch": 8833,
      "Ġvzdra": 8834,
      "ĠsmÄĽv": 8835,
      "Ġschra": 8836,
      "ĠschmÅ¯": 8837,
      "ĠbÅĻÃŃch": 8838,
      "ĠvnÃ¡ÅĻ": 8839,
      "Ġzmok": 8840,
      "ĠstÅĻik": 8841,
      "Ġkvit": 8842,
      "Ġgym": 8843,
      "Ġsaic": 8844,
      "AXXBBC": 8845,
      "ĠvÅ¡per": 8846,
      "Ġsgra": 8847,
      "Ġzze": 8848,
      "Ġchni": 8849,
      "XXAB": 8850,
      "ĠhuÅ¡": 8851,
      "ĠÅĻiÅ¡": 8852,
      "Ġvouc": 8853,
      "ĠhraÄı": 8854,
      "Ġzhmo": 8855,
      "ĠklÃŃc": 8856,
      "Ġsnez": 8857,
      "Ġchvu": 8858,
      "Ġfraj": 8859,
      "ĠxÃŃ": 8860,
      "ĠlkÃ¡Å¡": 8861,
      "Ġvplav": 8862,
      "ĠzproÅ¡": 8863,
      "Ġzfi": 8864,
      "ĠnimÅ¾": 8865,
      "ĠvssÃ¡l": 8866,
      "ĠzhrÅ¯z": 8867,
      "ĠÅ¾neÄį": 8868,
      "Ġzknih": 8869,
      "ĠvskÅĻip": 8870,
      "XABAB": 8871,
      "ĠÅ¾eÅ¾": 8872,
      "Ġnop": 8873,
      "ĠfÃ³r": 8874,
      "ĠdÃ½Å¥": 8875,
      "ĠbÃ¡c": 8876,
      "ĠstÅĻeÅ¡": 8877,
      "Ġtrop": 8878,
      "ĠstÅĻÃŃt": 8879,
      "Ġcajt": 8880,
      "Ġzvaz": 8881,
      "ĠvÄįÃ¡": 8882,
      "Ġgrand": 8883,
      "ĠsÄįel": 8884,
      "ABXBXC": 8885,
      "Ġfrid": 8886,
      "ĠcnosÅ¥": 8887,
      "Ġtcho": 8888,
      "Ġsge": 8889,
      "Ġvfo": 8890,
      "ĠclÃ©ÅĻ": 8891,
      "XABBAC": 8892,
      "hn": 8893,
      "Ġkkou": 8894,
      "ĠposÅ¥": 8895,
      "Ġskme": 8896,
      "Ġmad": 8897,
      "ĠfÃ³": 8898,
      "ĠgÃ¶": 8899,
      "ĠzdeÅ¥": 8900,
      "Ġtrait": 8901,
      "Ġskoj": 8902,
      "lÃ½s": 8903,
      "Ġschech": 8904,
      "Ġkryp": 8905,
      "ĠdroÅ¾": 8906,
      "ĠhruÅ¾": 8907,
      "Ġkhlu": 8908,
      "Ġsmag": 8909,
      "Ġkmoc": 8910,
      "ĠtrÃ½s": 8911,
      "Ġpres": 8912,
      "ĠchmÃº": 8913,
      "ĠzpyÅ¡": 8914,
      "Ã¤n": 8915,
      "ĠkÅĻtem": 8916,
      "Ġkak": 8917,
      "ĠjÃ©": 8918,
      "ĠvÅ¡k": 8919,
      "ĠsknÃŃ": 8920,
      "Ġvdy": 8921,
      "Ġdoup": 8922,
      "ĠplÅ¯": 8923,
      "ĠztÅĻÃŃ": 8924,
      "Ġzhar": 8925,
      "Ġkals": 8926,
      "ĠschÅĻa": 8927,
      "Ġktvo": 8928,
      "ĠÅ¾liv": 8929,
      "Ġchrle": 8930,
      "ĠvdÃ¡Å¥": 8931,
      "ĠkvyÅ¡": 8932,
      "Ġvzvon": 8933,
      "Ġnoj": 8934,
      "ĠboÄı": 8935,
      "Ġvzj": 8936,
      "Ġbag": 8937,
      "ĠjÃ¡Äį": 8938,
      "ĠfÃ©m": 8939,
      "Ġzul": 8940,
      "AABBBB": 8941,
      "ĠstÅĻeÄį": 8942,
      "Ġshar": 8943,
      "ĠschvÃŃ": 8944,
      "ĠÅ¡kar": 8945,
      "ĠkprÅ¯": 8946,
      "Ġkbri": 8947,
      "Ġvruch": 8948,
      "ĠpÅ¯jÄį": 8949,
      "ĠkpohÅĻ": 8950,
      "ĠvraÅ¾d": 8951,
      "Ġtloust": 8952,
      "Ġvpark": 8953,
      "ĠÅ¾bÃ¡": 8954,
      "Ġsbuj": 8955,
      "ĠvÅ¥": 8956,
      "Ġdt": 8957,
      "Ġhul": 8958,
      "ĠhuÅ¥": 8959,
      "Ġvur": 8960,
      "ĠpÅĻÃŃÅ¥": 8961,
      "Ġhrk": 8962,
      "Ġzden": 8963,
      "Ġmlem": 8964,
      "ĠzvoÅĪ": 8965,
      "ĠdÅĻÃŃm": 8966,
      "ĠspÄĽk": 8967,
      "ĠhrÃ¡n": 8968,
      "Ġsnim": 8969,
      "Ġrand": 8970,
      "Ġstkal": 8971,
      "ĠznÄĽjÅ¾": 8972,
      "Ġzzku": 8973,
      "Ġkvzne": 8974,
      "ĠkhrÃ¡m": 8975,
      "tin": 8976,
      "ĠkaÅĪ": 8977,
      "Ġmah": 8978,
      "Ġdrat": 8979,
      "Ġtrus": 8980,
      "ĠchvÃ¡ÅĻ": 8981,
      "ĠsvÃ½s": 8982,
      "Ġchrp": 8983,
      "Ġzbron": 8984,
      "Ġhip": 8985,
      "Ġzju": 8986,
      "Ġslits": 8987,
      "Ġvglo": 8988,
      "ĠÅ¡Å¥Ã¡v": 8989,
      "ĠzmlÃ¡d": 8990,
      "ĠvzvuÄį": 8991,
      "ĠvvÃ¡l": 8992,
      "Ġeine": 8993,
      "Ġstcho": 8994,
      "Ġrha": 8995,
      "Ġtyp": 8996,
      "ĠvÃ©zt": 8997,
      "Ġzdmi": 8998,
      "ĠchvÃŃc": 8999,
      "ĠchouÄį": 9000,
      "Ġvhon": 9001,
      "Ġkpol": 9002,
      "Ġzdus": 9003,
      "ĠklouÄį": 9004,
      "Ġvctno": 9005,
      "AXXABC": 9006,
      "ĠztrÃ½z": 9007,
      "Ġkis": 9008,
      "ĠkspÄĽ": 9009,
      "ĠÅ¾ral": 9010,
      "ABCBCA": 9011,
      "by": 9012,
      "Ġvvr": 9013,
      "Ġlbi": 9014,
      "ĠmÅĻem": 9015,
      "Ġpag": 9016,
      "ĠsaÄį": 9017,
      "Ġryz": 9018,
      "ĠbiÅĻ": 9019,
      "Ġslen": 9020,
      "Ġmlal": 9021,
      "ĠÅĪak": 9022,
      "ĠtÅĻtin": 9023,
      "Ġoul": 9024,
      "Ġpert": 9025,
      "Ġhlin": 9026,
      "Ġgov": 9027,
      "ĠvstÃ¡n": 9028,
      "Ġzchat": 9029,
      "Ġsnop": 9030,
      "Ġspev": 9031,
      "ABXBCC": 9032,
      "Ġflek": 9033,
      "ĠvsmÄĽs": 9034,
      "ĠkÄįÃŃ": 9035,
      "Ġssyl": 9036,
      "ĠvÄįtver": 9037,
      "Ġmudr": 9038,
      "Ġzvin": 9039,
      "Ġvsb": 9040,
      "ĠÅ¾av": 9041,
      "Ġmars": 9042,
      "Ġkps": 9043,
      "ĠÅ¡pen": 9044,
      "Ġvchvo": 9045,
      "Ġkzr": 9046,
      "ĠvrouÅ¡": 9047,
      "Ġauf": 9048,
      "ĠÃ¡h": 9049,
      "ĠÄįur": 9050,
      "Ġvplach": 9051,
      "Ġzmrz": 9052,
      "Ġvgo": 9053,
      "ĠÅ¡krt": 9054,
      "Ġksul": 9055,
      "AXAXXX": 9056,
      "ĠsÃ³": 9057,
      "ĠÅ¾ko": 9058,
      "ĠvÃŃl": 9059,
      "Ġvom": 9060,
      "ĠvzÃ¡j": 9061,
      "Ġnevs": 9062,
      "Ġkhor": 9063,
      "Ġchrli": 9064,
      "ĠzmÃŃst": 9065,
      "Ġzdrh": 9066,
      "Ġzse": 9067,
      "Ġvplet": 9068,
      "Ġsplas": 9069,
      "ĠtlÃŃt": 9070,
      "ĠsmraÄį": 9071,
      "ĠsÅĪav": 9072,
      "ĠzkvÃ©st": 9073,
      "Ġmzda": 9074,
      "ĠdÅ¡tÃ½": 9075,
      "AABABC": 9076,
      "ĠstÅĻa": 9077,
      "Ġkyz": 9078,
      "ĠvpÃ³": 9079,
      "Ġvsna": 9080,
      "ĠplÃ¡Å¥": 9081,
      "ĠznÃ¡n": 9082,
      "ĠmÃ½l": 9083,
      "ĠÅĻÃ¡b": 9084,
      "ĠÅ¡tÃŃp": 9085,
      "ĠÅ¡tÃŃr": 9086,
      "Ġsves": 9087,
      "Ġvztr": 9088,
      "ĠzpuÅ¡": 9089,
      "Ġvtep": 9090,
      "Ġmass": 9091,
      "ĠÅ¡kam": 9092,
      "ĠzvraÅ¾": 9093,
      "ĠsplÃ©st": 9094,
      "Ġvdnes": 9095,
      "Ġvkmit": 9096,
      "ĠvhrÃ¡ch": 9097,
      "ABAABB": 9098,
      "Ġuf": 9099,
      "Ġdir": 9100,
      "Ġvuc": 9101,
      "ĠzÃŃn": 9102,
      "ĠznÃ©st": 9103,
      "Ġest": 9104,
      "Ġzbl": 9105,
      "Ġspom": 9106,
      "ĠÅ¡lej": 9107,
      "Ġzlok": 9108,
      "ĠÅ¾aÄį": 9109,
      "Ġans": 9110,
      "Ġnass": 9111,
      "ĠvpÄĽst": 9112,
      "Ġkprv": 9113,
      "ĠzjichÅ¾": 9114,
      "Ġkzdro": 9115,
      "ĠcÃºn": 9116,
      "ĠrÄįe": 9117,
      "ĠÅ¡iÅĻ": 9118,
      "ĠhrÅĪ": 9119,
      "ĠzdaÅĻ": 9120,
      "Ġrim": 9121,
      "ĠstÃ©n": 9122,
      "Ġyal": 9123,
      "ĠzvÄĽr": 9124,
      "Ġktur": 9125,
      "Ġzsy": 9126,
      "ĠsdÄĽl": 9127,
      "Ġvzchod": 9128,
      "Ġthon": 9129,
      "Ġvprus": 9130,
      "Ġkskut": 9131,
      "ĠmÃ½Å¾Äı": 9132,
      "ĠjÃ³n": 9133,
      "Å¾u": 9134,
      "ĠciÄı": 9135,
      "ĠsvÄĽÅĻ": 9136,
      "ĠzpÅ¯r": 9137,
      "AABBCX": 9138,
      "ĠblasÅ¥": 9139,
      "Ġjus": 9140,
      "ĠstouÅ¾": 9141,
      "ĠznoÄį": 9142,
      "ĠskuÄį": 9143,
      "ĠhÅĻmi": 9144,
      "Ġclau": 9145,
      "Ġhir": 9146,
      "ĠÅ¥Ã¡r": 9147,
      "Ġvclo": 9148,
      "Ġwin": 9149,
      "Ġsport": 9150,
      "ĠrÅ¾eÄį": 9151,
      "ĠzjÃŃc": 9152,
      "Ġhoz": 9153,
      "Ġlif": 9154,
      "Ġkdra": 9155,
      "ĠpeÅĻ": 9156,
      "ĠstoÅĪ": 9157,
      "Ġzbal": 9158,
      "ĠzhÅĻ": 9159,
      "ĠvbÅĻi": 9160,
      "skÃ½": 9161,
      "ĠdliÅ¡": 9162,
      "ĠÅĻils": 9163,
      "ĠzÅĻet": 9164,
      "ĠklÃŃt": 9165,
      "ĠÅ¡pu": 9166,
      "Ġvskrej": 9167,
      "ĠpÃ©Äį": 9168,
      "ĠshoÅĻ": 9169,
      "Ġvspor": 9170,
      "ĠnehÅĻ": 9171,
      "ĠfÃŃk": 9172,
      "ĠdÅ¾a": 9173,
      "ĠdÅ¾be": 9174,
      "ĠzÄįÃ¡": 9175,
      "ĠhrÃ½z": 9176,
      "ĠmnÃ¡ct": 9177,
      "Ġflin": 9178,
      "ĠpepÅĻ": 9179,
      "ĠÅ¾vÃ¡": 9180,
      "ĠnÃ©Å¥": 9181,
      "ĠvÅ¡an": 9182,
      "ĠvÅ¡tip": 9183,
      "Ġlun": 9184,
      "ĠzpÅĻi": 9185,
      "Ġhyp": 9186,
      "ĠsÃ¡c": 9187,
      "Ġtouc": 9188,
      "ĠvouÅ¡": 9189,
      "ĠdÃ©n": 9190,
      "Ġvzpup": 9191,
      "ĠtrÃ¡Å¡": 9192,
      "ĠdvÄĽÄį": 9193,
      "ĠdrÃ¡h": 9194,
      "ĠkzkÃ¡": 9195,
      "ĠzvÃŃm": 9196,
      "ĠthÃ¡m": 9197,
      "Ġvbub": 9198,
      "ĠvhÃ¡d": 9199,
      "ĠdvÃŃk": 9200,
      "Ġens": 9201,
      "ĠvpÄĽsÅ¥": 9202,
      "ĠvjÃŃz": 9203,
      "AXAXBX": 9204,
      "ĠtaÄį": 9205,
      "ĠtÃŃÅ¥": 9206,
      "ĠzdÃ½m": 9207,
      "Ġsmas": 9208,
      "ĠvsÅĪa": 9209,
      "Ġgto": 9210,
      "Ġzhlo": 9211,
      "Ġklok": 9212,
      "Ġtlap": 9213,
      "ĠsvÃŃn": 9214,
      "ĠsbÅĻi": 9215,
      "ĠzvÄĽd": 9216,
      "ĠkhnÃŃz": 9217,
      "ĠÅ¡tou": 9218,
      "Ġzryl": 9219,
      "ĠsÅ¾Ã¡": 9220,
      "Ġkstol": 9221,
      "ĠÅ¡ÅĪÅ¯r": 9222,
      "ĠthÃ©n": 9223,
      "ĠspÅ¯l": 9224,
      "Ġjhu": 9225,
      "Ġvtrap": 9226,
      "Ġvklouz": 9227,
      "Ġnow": 9228,
      "Ġniz": 9229,
      "Ġpaf": 9230,
      "Ġprom": 9231,
      "ĠcÃŃn": 9232,
      "Ġhard": 9233,
      "ĠzvÅĻe": 9234,
      "Ġvmas": 9235,
      "ĠvmÅ¾e": 9236,
      "Ġrib": 9237,
      "ĠÅ¡lik": 9238,
      "Ġzjes": 9239,
      "ĠzÃ½Å¡": 9240,
      "Ġvpras": 9241,
      "ĠtliÄį": 9242,
      "ĠrÃ½mÅ¾": 9243,
      "ĠkÅĻÅ¯": 9244,
      "Ġmstil": 9245,
      "ĠspouÅ¡Å¥": 9246,
      "ĠvvdÄĽ": 9247,
      "ĠlÃ³s": 9248,
      "Ġprim": 9249,
      "ĠvstrÃ¡ÅĪ": 9250,
      "ĠpstrÃ¡": 9251,
      "ĠflaÅ¡": 9252,
      "ĠvÅ¡pal": 9253,
      "ĠÅ¾hÃ¡ÅĻ": 9254,
      "ĠsvlÃŃd": 9255,
      "Ġaesthe": 9256,
      "rt": 9257,
      "ĠnÄĽd": 9258,
      "Ġnir": 9259,
      "Ġdet": 9260,
      "ĠvÃŃÅĻ": 9261,
      "ĠmoÄį": 9262,
      "ĠvzÅ¯": 9263,
      "Ġvum": 9264,
      "ĠstÃ¡j": 9265,
      "ĠtouÅĪ": 9266,
      "Ġzber": 9267,
      "ĠhÃ½k": 9268,
      "ĠdliÅ¥": 9269,
      "ĠsbÃ¡": 9270,
      "Ġfex": 9271,
      "Ġzlech": 9272,
      "ĠbÅĻÃŃs": 9273,
      "ĠvzkvÃŃ": 9274,
      "ĠÅ¡tin": 9275,
      "Ġxis": 9276,
      "Ġthel": 9277,
      "Ġhnut": 9278,
      "ĠvtÃŃl": 9279,
      "Ġskliz": 9280,
      "ABBXCC": 9281,
      "Ġzklid": 9282,
      "ĠzkÅĻeh": 9283,
      "ĠphÃŃ": 9284,
      "Ġkpsa": 9285,
      "ĠzÃ³n": 9286,
      "Ġstma": 9287,
      "Ġnew": 9288,
      "Ġnist": 9289,
      "Ġcol": 9290,
      "Ġspru": 9291,
      "ĠkrÃ½m": 9292,
      "Ġzkan": 9293,
      "Ġblas": 9294,
      "ĠbychÅ¥": 9295,
      "ĠsmrÄį": 9296,
      "ĠkveÅ¥": 9297,
      "han": 9298,
      "Ġspras": 9299,
      "ĠÅ¡tÃ½": 9300,
      "ABAABA": 9301,
      "Ġsklet": 9302,
      "ĠfrÃŃ": 9303,
      "zdÃ¡": 9304,
      "Ġrint": 9305,
      "Ġvstud": 9306,
      "ĠvhnÄĽv": 9307,
      "Ġrrot": 9308,
      "Ġvklat": 9309,
      "Ġvkmen": 9310,
      "Ġspsy": 9311,
      "ĠdmÃŃl": 9312,
      "27": 9313,
      "ĠzÅĻad": 9314,
      "Ġsec": 9315,
      "ĠÄįpÄĽ": 9316,
      "Ġmyst": 9317,
      "Ġpyg": 9318,
      "Ġsbar": 9319,
      "ĠktvÃ¡": 9320,
      "Ġzals": 9321,
      "ĠkvÃŃl": 9322,
      "Ġvjin": 9323,
      "ĠvjÃŃt": 9324,
      "Ġtknul": 9325,
      "Ġssl": 9326,
      "ĠssvÃ©": 9327,
      "Ġvkop": 9328,
      "Ġchral": 9329,
      "ĠvÄįin": 9330,
      "Ġtrik": 9331,
      "ĠstÅĻic": 9332,
      "Ġplij": 9333,
      "Ġzslad": 9334,
      "Ġztrp": 9335,
      "ĠsÅ¡tÄĽ": 9336,
      "ĠstkvÃŃÅ¡": 9337,
      "Ġvspod": 9338,
      "Ġcvrk": 9339,
      "Ġnnen": 9340,
      "es": 9341,
      "Ġril": 9342,
      "ĠvÃ¡p": 9343,
      "ĠluÅ¾": 9344,
      "ĠÄįav": 9345,
      "Ġblet": 9346,
      "ĠheÅĻ": 9347,
      "ĠksnÃŃ": 9348,
      "ĠbrÃ¡Äį": 9349,
      "ĠspÄĽv": 9350,
      "ĠdvÄĽt": 9351,
      "ĠchÅ¯z": 9352,
      "Ġart": 9353,
      "ĠblÃ¡n": 9354,
      "Ġkpoc": 9355,
      "Ġxen": 9356,
      "ĠdnÄĽn": 9357,
      "Ġsples": 9358,
      "ĠstkvÄĽj": 9359,
      "ĠpneÅ¡": 9360,
      "ĠÅ¡oup": 9361,
      "Ġcept": 9362,
      "ĠÅ¾rÃ¡t": 9363,
      "Ġkzda": 9364,
      "Ġdp": 9365,
      "ĠÅ¾le": 9366,
      "ĠÅ¡ÃŃt": 9367,
      "ĠkÃ¡p": 9368,
      "ĠbuÅĻ": 9369,
      "Ġiem": 9370,
      "Ġzvrou": 9371,
      "Ġslas": 9372,
      "Ġpim": 9373,
      "ĠvmÅĻÃŃ": 9374,
      "Ġklic": 9375,
      "Ġzhni": 9376,
      "ĠstouÅ¡": 9377,
      "ĠkskrÃ¡": 9378,
      "ĠsvÃŃÅ¾": 9379,
      "ĠsrÃ½": 9380,
      "ĠtÃ©mÅ¾": 9381,
      "ĠplÃŃÅĻ": 9382,
      "ĠplouÄį": 9383,
      "Ġvkrok": 9384,
      "Ġkir": 9385,
      "ĠsmÃ½t": 9386,
      "Ġkfa": 9387,
      "AAABBB": 9388,
      "ĠlpÄĽl": 9389,
      "Ġdsber": 9390,
      "Ġrhap": 9391,
      "XXAXAB": 9392,
      "Ġskd": 9393,
      "ĠgÃŃ": 9394,
      "Ġplz": 9395,
      "Ġskol": 9396,
      "ĠÅ¡pÃ¡d": 9397,
      "ĠkÅĻu": 9398,
      "ĠkÅĻad": 9399,
      "ABAAAB": 9400,
      "ĠsrÃ¡d": 9401,
      "Ġzbles": 9402,
      "Ġsvrz": 9403,
      "ĠvdÃŃk": 9404,
      "Ġzbit": 9405,
      "ĠvÅ¾el": 9406,
      "ABBBCC": 9407,
      "kleb": 9408,
      "ĠsÅĻas": 9409,
      "ĠjrÅ¯": 9410,
      "ĠstÃ¤n": 9411,
      "Ġac": 9412,
      "ĠhoÅ¥": 9413,
      "ÅĪÅ¯": 9414,
      "Ġzus": 9415,
      "Ġzraj": 9416,
      "ĠstuÄį": 9417,
      "ĠsvÃŃt": 9418,
      "ĠsdvÄĽ": 9419,
      "Ġgard": 9420,
      "Ġthra": 9421,
      "ĠthÃº": 9422,
      "Ġkrist": 9423,
      "Ġpath": 9424,
      "Ġllist": 9425,
      "Ġchlin": 9426,
      "Ġvrys": 9427,
      "ĠÄįter": 9428,
      "Ġstrouch": 9429,
      "Ġzbiv": 9430,
      "Ġcvrli": 9431,
      "Ġvsuk": 9432,
      "Ġbourg": 9433,
      "pak": 9434,
      "ĠbÃº": 9435,
      "ĠÅ¾pak": 9436,
      "ĠjiÄį": 9437,
      "Ġrom": 9438,
      "XXAXXA": 9439,
      "ĠsknÄĽÅ¾": 9440,
      "Ġmoch": 9441,
      "ĠtrÃ½ch": 9442,
      "Ġvpta": 9443,
      "ĠsoÄį": 9444,
      "Ġev": 9445,
      "Ġklan": 9446,
      "ĠrÃ©s": 9447,
      "ĠkvÄĽz": 9448,
      "ĠkvÄĽÅ¥": 9449,
      "ĠvlÅ¯m": 9450,
      "ĠzhÅĻÃ¡": 9451,
      "Ġvbri": 9452,
      "Ġkska": 9453,
      "Ġstych": 9454,
      "Ġotr": 9455,
      "ĠvnÄĽk": 9456,
      "ĠkryÅ¡": 9457,
      "ĠkmÃ¡": 9458,
      "ĠtÃ½mÅ¾": 9459,
      "Ġsbol": 9460,
      "ĠzmaÄį": 9461,
      "ĠÄįals": 9462,
      "Ġint": 9463,
      "ĠzbÃ½t": 9464,
      "Ġkfor": 9465,
      "ĠkÅ¡pal": 9466,
      "Ġcpe": 9467,
      "vÅ¯": 9468,
      "ĠtÃº": 9469,
      "ouc": 9470,
      "Ġaz": 9471,
      "lÃ¡Å¡": 9472,
      "Ġslap": 9473,
      "Ġnuls": 9474,
      "Ġkrost": 9475,
      "ĠsblÃ¡": 9476,
      "Ġfez": 9477,
      "Ġzpoc": 9478,
      "ĠsnÃ¡d": 9479,
      "ĠzlÃ©t": 9480,
      "AXBABC": 9481,
      "ĠvÅĻÃŃj": 9482,
      "Ġzprav": 9483,
      "Ġkstu": 9484,
      "Ġksmut": 9485,
      "Ġthar": 9486,
      "Ġmzdou": 9487,
      "Ġvklam": 9488,
      "Ġaetny": 9489,
      "ĠbÃ³v": 9490,
      "Ġcloud": 9491,
      "Ġvvzdor": 9492,
      "ĠcÅ¾ech": 9493,
      "souc": 9494,
      "Ġleg": 9495,
[...]
