{
  "version": "1.0",
  "truncation": null,
  "padding": null,
  "added_tokens": [
    {
      "id": 0,
      "content": "<|EOS|>",
      "single_word": false,
      "lstrip": false,
      "rstrip": false,
      "normalized": false,
      "special": true
    },
    {
      "id": 1,
      "content": "<|PAD|>",
      "single_word": false,
      "lstrip": false,
      "rstrip": false,
      "normalized": false,
      "special": true
    },
    {
      "id": 2,
      "content": "<|UNK|>",
      "single_word": false,
      "lstrip": false,
      "rstrip": false,
      "normalized": false,
      "special": true
    }
  ],
  "normalizer": null,
  "pre_tokenizer": {
    "type": "ByteLevel",
    "add_prefix_space": false,
    "trim_offsets": true,
    "use_regex": true
  },
  "post_processor": {
    "type": "ByteLevel",
    "add_prefix_space": true,
    "trim_offsets": false,
    "use_regex": true
  },
  "decoder": {
    "type": "ByteLevel",
    "add_prefix_space": true,
    "trim_offsets": true,
    "use_regex": true
  },
  "model": {
    "type": "BPE",
    "dropout": null,
    "unk_token": null,
    "continuing_subword_prefix": null,
    "end_of_word_suffix": null,
    "fuse_unk": false,
    "byte_fallback": false,
    "vocab": {
      "<|EOS|>": 0,
      "<|PAD|>": 1,
      "<|UNK|>": 2,
      "!": 3,
      "#": 4,
      ",": 5,
      ".": 6,
      "0": 7,
      "1": 8,
      "2": 9,
      "3": 10,
      "4": 11,
      "5": 12,
      "6": 13,
      "7": 14,
      "8": 15,
      "9": 16,
      "?": 17,
      "A": 18,
      "B": 19,
      "C": 20,
      "D": 21,
      "H": 22,
      "J": 23,
      "N": 24,
      "P": 25,
      "T": 26,
      "X": 27,
      "Y": 28,
      "a": 29,
      "b": 30,
      "c": 31,
      "d": 32,
      "e": 33,
      "f": 34,
      "g": 35,
      "h": 36,
      "i": 37,
      "j": 38,
      "k": 39,
      "l": 40,
      "m": 41,
      "n": 42,
      "o": 43,
      "p": 44,
      "q": 45,
      "r": 46,
      "s": 47,
      "t": 48,
      "u": 49,
      "v": 50,
      "w": 51,
      "x": 52,
      "y": 53,
      "z": 54,
      "¡": 55,
      "¤": 56,
      "¥": 57,
      "©": 58,
      "¯": 59,
      "³": 60,
      "¶": 61,
      "º": 62,
      "¼": 63,
      "½": 64,
      "¾": 65,
      "Ã": 66,
      "Ä": 67,
      "Å": 68,
      "Ċ": 69,
      "Ġ": 70,
      "Ī": 71,
      "į": 72,
      "ı": 73,
      "Ļ": 74,
      "Ľ": 75,
      "Ń": 76,
      "Ġ#": 77,
      "Ġn": 78,
      "Ġs": 79,
      "Ġv": 80,
      "ÃŃ": 81,
      "Ġt": 82,
      "Ġ1": 83,
      "Ġk": 84,
      "Ã¡": 85,
      "Ġd": 86,
      "Ġj": 87,
      "Ġl": 88,
      "Ġp": 89,
      "Ġm": 90,
      "ÄĽ": 91,
      "ĠÅ": 92,
      "Ġz": 93,
      "Ġc": 94,
      "Ġb": 95,
      "Ġh": 96,
      "Ã½": 97,
      "Ã©": 98,
      "ou": 99,
      "Ġr": 100,
      "Ġst": 101,
      "Ġa": 102,
      "Ġje": 103,
      "Äį": 104,
      "Ġ10": 105,
      "Ġ8": 106,
      "Ġse": 107,
      "XX": 108,
      "Ġ11": 109,
      "ÅĻ": 110,
      "Ġne": 111,
      "ch": 112,
      "Å¾": 113,
      "AB": 114,
      "Ġna": 115,
      "ĠÅ¾": 116,
      "ĠÅ¡": 117,
      "ĠÄį": 118,
      "Å¯": 119,
      "Ġo": 120,
      "Ġch": 121,
      "ĠnÃŃ": 122,
      "Å¡": 123,
      "la": 124,
      "Ġpo": 125,
      "em": 126,
      "Ġ19": 127,
      "ra": 128,
      "Ġle": 129,
      "ak": 130,
      "Ġko": 131,
      "ĠÅĻ": 132,
      "Ġce": 133,
      "Ġho": 134,
      "Ġsv": 135,
      "Ġli": 136,
      "ĠnÄĽ": 137,
      "Ġ9": 138,
      "ro": 139,
      "Ġte": 140,
      "Ġti": 141,
      "Ġla": 142,
      "Ġza": 143,
      "Ġto": 144,
      "le": 145,
      "Ġdo": 146,
      "Ġ18": 147,
      "Ġka": 148,
      "ĠnÃ½": 149,
      "ĠnÃ¡": 150,
      "ĠÅ¾e": 151,
      "Ġby": 152,
      "Ġji": 153,
      "ĠjÃŃ": 154,
      "rÃ¡": 155,
      "Ġno": 156,
      "Ġmi": 157,
      "ÅĻe": 158,
      "ĠnÃ©": 159,
      "ĠAB": 160,
      "Ġ7": 161,
      "st": 162,
      "00": 163,
      "Ġva": 164,
      "Ġta": 165,
      "Ġve": 166,
      "Ġ1900": 167,
      "Ġky": 168,
      "Ġni": 169,
      "XXXX": 170,
      "Ġku": 171,
      "XA": 172,
      "Ġro": 173,
      "ĠvÃ¡": 174,
      "Ġsl": 175,
      "Ġu": 176,
      "Ġlo": 177,
      "Ġkd": 178,
      "ĠtÄĽ": 179,
      "ĠvÄĽ": 180,
      "ĠtÃŃ": 181,
      "Ġde": 182,
      "ĠÅ¡e": 183,
      "ĠABAB": 184,
      "ĠvÅ¡": 185,
      "Ġsk": 186,
      "ĠÄįe": 187,
      "Ġvy": 188,
      "Ġmu": 189,
      "Ġdu": 190,
      "Ġvo": 191,
      "ĠA": 192,
      "Ġ6": 193,
      "ÅĻÃŃ": 194,
      "80": 195,
      "Ġ1880": 196,
      "ĠvÃŃ": 197,
      "ĠdÄĽ": 198,
      "Ġ12": 199,
      "Ġnou": 200,
      "Ġjak": 201,
      "Ġmo": 202,
      "20": 203,
      "ĠXXXX": 204,
      "ĠdÃŃ": 205,
      "Ġci": 206,
      "Ġjs": 207,
      "Ġtv": 208,
      "ĠdÃ¡": 209,
      "Ġze": 210,
      "Ġtu": 211,
      "ĠcÃŃ": 212,
      "Ġpa": 213,
      "Ġnu": 214,
      "Ġme": 215,
      "Ġ1920": 216,
      "il": 217,
      "Ġja": 218,
      "Ġda": 219,
      "ĠmÄĽ": 220,
      "Ġru": 221,
      "Ġbo": 222,
      "Ġpro": 223,
      "Ġvz": 224,
      "Ġny": 225,
      "Ġma": 226,
      "ĠÅ¡ÃŃ": 227,
      "Ġbe": 228,
      "Ã½ch": 229,
      "Ġsta": 230,
      "ĠÅĻe": 231,
      "ĠÄįÃŃ": 232,
      "Ġsp": 233,
      "ne": 234,
      "Ġjen": 235,
      "Ġvi": 236,
      "Å¥": 237,
      "ĠlÃŃ": 238,
      "Ġdi": 239,
      "ĠmÃ¡": 240,
      "lo": 241,
      "vÄĽ": 242,
      "Ġly": 243,
      "Ġ13": 244,
      "Ġsti": 245,
      "ĠAAB": 246,
      "Ġra": 247,
      "Ġty": 248,
      "ĠpÅĻe": 249,
      "Ġco": 250,
      "Ġsi": 251,
      "Ġdy": 252,
      "ÅĻi": 253,
      "ĠlÃ¡": 254,
      "ĠkÃ¡": 255,
      "Ġkdy": 256,
      "lÃ¡": 257,
      "ĠÅĻÃŃ": 258,
      "ĠXA": 259,
      "ĠÅ¾i": 260,
      "ĠÅ¾ÃŃ": 261,
      "li": 262,
      "Ġi": 263,
      "Ġbu": 264,
      "ru": 265,
      "Ġsn": 266,
      "ĠÄįi": 267,
      "ĠrÃ¡": 268,
      "ĠvÃ½": 269,
      "Ġzd": 270,
      "ĠvÅ¡e": 271,
      "ĠAABB": 272,
      "ĠmÃŃ": 273,
      "Ġsm": 274,
      "ĠbÄĽ": 275,
      "ĠstÃŃ": 276,
      "Ġha": 277,
      "40": 278,
      "Ġzv": 279,
      "Ġhla": 280,
      "ĠvÃ©": 281,
      "lu": 282,
      "ĠkrÃ¡": 283,
      "nÄĽ": 284,
      "ĠsÃŃ": 285,
      "ĠtÃ¡": 286,
      "ĠsvÄĽ": 287,
      "ĠXAXA": 288,
      "Ã½m": 289,
      "Ġtak": 290,
      "Ġsa": 291,
      "ĠÃ": 292,
      "Ġkou": 293,
      "Äı": 294,
      "ĠzÃ¡": 295,
      "Ġjsem": 296,
      "Ġba": 297,
      "ĠÅ¡i": 298,
      "ĠtÃ©": 299,
      "ĠkÃ©": 300,
      "Ġlu": 301,
      "lÃŃ": 302,
      "ÅĪ": 303,
      "ĠlÃ©": 304,
      "Ġpe": 305,
      "Ġhle": 306,
      "Ġsy": 307,
      "ĠpÅĻi": 308,
      "Ġpr": 309,
      "Ġhu": 310,
      "ĠkdyÅ¾": 311,
      "Ġmy": 312,
      "CC": 313,
      "Ġtr": 314,
      "vÃŃ": 315,
      "Ġkr": 316,
      "Ġvs": 317,
      "ĠjÃ¡": 318,
      "Å¯j": 319,
      "Ġvt": 320,
      "Ġpra": 321,
      "rd": 322,
      "Ġchu": 323,
      "ĠkÅ¯": 324,
      "Ġvu": 325,
      "ĠnÃ½ch": 326,
      "Ġod": 327,
      "Ġ5": 328,
      "Ġvp": 329,
      "ĠpÃŃ": 330,
      "ĠsvÃ©": 331,
      "Ġsla": 332,
      "ĠhÃ¡": 333,
      "ĠÅĻi": 334,
      "Ġsu": 335,
      "Ġzp": 336,
      "Ġzn": 337,
      "Ġcho": 338,
      "Ġry": 339,
      "ĠXXXXXX": 340,
      "ĠvÅ¡ak": 341,
      "ĠzÃŃ": 342,
      "60": 343,
      "Ġkem": 344,
      "ĠbÃŃ": 345,
      "Ġroz": 346,
      "lou": 347,
      "Ġsto": 348,
      "ĠkÃ½": 349,
      "ĠstÃ¡": 350,
      "ĠpÃ¡": 351,
      "Ġten": 352,
      "Ġkde": 353,
      "Ġval": 354,
      "al": 355,
      "ĠlÃ½": 356,
      "te": 357,
      "Ġso": 358,
      "Ġtam": 359,
      "Ġhy": 360,
      "Ġf": 361,
      "ĠpÄĽ": 362,
      "Ġ1940": 363,
      "ĠjiÅ¾": 364,
      "Ġbi": 365,
      "ĠÄįa": 366,
      "Ġsrd": 367,
      "ĠÃº": 368,
      "Ġste": 369,
      "Ġvd": 370,
      "Ġbyl": 371,
      "Ġre": 372,
      "ĠsÃ¡": 373,
      "BA": 374,
      "Ġtou": 375,
      "lÃ©": 376,
      "ĠpÅĻÃŃ": 377,
      "Ġtem": 378,
      "Ġnad": 379,
      "ĠnÃ½m": 380,
      "ĠjeÅ¾": 381,
      "Ġpu": 382,
      "Ġslu": 383,
      "ĠvÅ¾": 384,
      "no": 385,
      "Ġbou": 386,
      "Ġlem": 387,
      "Ġdou": 388,
      "Ġpla": 389,
      "ĠmÃ©": 390,
      "ĠABBA": 391,
      "ĠnÃŃm": 392,
      "tÄĽ": 393,
      "Ġvla": 394,
      "Ġe": 395,
      "Ġvou": 396,
      "dy": 397,
      "Ġ1860": 398,
      "ĠtÃ½": 399,
      "Ġbra": 400,
      "ĠdÃ©": 401,
      "Ġcha": 402,
      "Ġ1840": 403,
      "ĠbÃ¡": 404,
      "ĠdÃ½": 405,
      "Ġkla": 406,
      "nÃŃ": 407,
      "Ġzra": 408,
      "Ġden": 409,
      "Ġslo": 410,
      "Ġvk": 411,
      "Ġzas": 412,
      "Ġkte": 413,
      "ĠkvÄĽ": 414,
      "ĠlÃ¡s": 415,
      "ĠAA": 416,
      "Ġzm": 417,
      "Ġzb": 418,
      "Ġpl": 419,
      "Ġpak": 420,
      "Ġg": 421,
      "Ġdra": 422,
      "ĠÄįer": 423,
      "Ġhou": 424,
      "Ġzla": 425,
      "Ġkle": 426,
      "Ġzi": 427,
      "Ġbez": 428,
      "Ġpod": 429,
      "ad": 430,
      "Ġkdo": 431,
      "ĠvÅ¾dy": 432,
      "Ġdv": 433,
      "Ġsou": 434,
      "ĠjenÅ¾": 435,
      "Ġsem": 436,
      "Ġhro": 437,
      "ĠchÃ¡": 438,
      "ĠnÃ¡m": 439,
      "Ġ15": 440,
      "Ġjich": 441,
      "Ġlou": 442,
      "Ġ14": 443,
      "Ġmne": 444,
      "Ġpou": 445,
      "Å¯m": 446,
      "me": 447,
      "ni": 448,
      "ĠaÅ¾": 449,
      "ĠpÅĻed": 450,
      "ĠtvÃ¡": 451,
      "Ġdla": 452,
      "ĠdÄĽl": 453,
      "ĠÅ¡el": 454,
      "Ġjest": 455,
      "ĠÃ³": 456,
      "Ġhr": 457,
      "Ġstu": 458,
      "Ġdne": 459,
      "ĠrÅ¯": 460,
      "Ġspo": 461,
      "Ġsle": 462,
      "ce": 463,
      "Ġjed": 464,
      "Ġhra": 465,
      "Ġkv": 466,
      "Ġvr": 467,
      "ĠprÃ¡": 468,
      "Ġpi": 469,
      "Ġchy": 470,
      "ĠteÄı": 471,
      "Ġ4": 472,
      "Ġbla": 473,
      "Ġdr": 474,
      "ly": 475,
      "ĠjeÅ¡": 476,
      "Ġzo": 477,
      "Ġnn": 478,
      "Ġzt": 479,
      "Ġke": 480,
      "Ġstra": 481,
      "Ġvm": 482,
      "Ġsly": 483,
      "ĠrÃ©": 484,
      "Ġsvou": 485,
      "Ġsva": 486,
      "ĠXX": 487,
      "Ġ16": 488,
      "ĠplÃ¡": 489,
      "ĠnÃ©m": 490,
      "ĠtÃŃm": 491,
      "ĠbÃ½": 492,
      "ĠskÃ©": 493,
      "Ġvra": 494,
      "je": 495,
      "Ġsvo": 496,
      "Ġzu": 497,
      "Ġjej": 498,
      "ĠkaÅ¾": 499,
      "ĠmÅ¯": 500,
      "Ġvzd": 501,
      "Ġnem": 502,
      "ĠtÅĻe": 503,
      "ĠuÅ¾": 504,
      "Ġbr": 505,
      "Ġdru": 506,
      "Ġkra": 507,
      "ĠAABBCC": 508,
      "Ġdem": 509,
      "Ġvst": 510,
      "Ġjsou": 511,
      "Ġon": 512,
      "Ġlid": 513,
      "ĠAAXX": 514,
      "Ġble": 515,
      "Ġzk": 516,
      "Ġvh": 517,
      "ĠmÅ¯j": 518,
      "Ġhe": 519,
      "Ġdal": 520,
      "ĠvÅ¯": 521,
      "ĠtvÃ©": 522,
      "ĠrÃ½": 523,
      "Ġzem": 524,
      "ĠvÅ¡ech": 525,
      "Ġjsi": 526,
      "Ġkli": 527,
      "ĠstÄĽ": 528,
      "vÄĽz": 529,
      "Ġvel": 530,
      "Ġvl": 531,
      "Ġjd": 532,
      "ĠmnÄĽ": 533,
      "Ġzy": 534,
      "Ġsnad": 535,
      "Ġstr": 536,
      "Ġnech": 537,
      "ĠhÃ½": 538,
      "ĠstvÃŃ": 539,
      "Ġrou": 540,
      "Ġzde": 541,
      "ĠÅ¾Ã¡": 542,
      "Ġvb": 543,
      "ĠhvÄĽz": 544,
      "Ġstro": 545,
      "ĠsvÄĽt": 546,
      "lÃ½": 547,
      "Ġjem": 548,
      "ĠsÃ¡m": 549,
      "Ġzh": 550,
      "Ġpt": 551,
      "Ġtvo": 552,
      "Ġslun": 553,
      "ÅĻÃ¡": 554,
      "ĠnÅ¯": 555,
      "Ġnej": 556,
      "Ġmra": 557,
      "ĠneÅ¾": 558,
      "Ġbych": 559,
      "Ġdnes": 560,
      "ĠvÃ¡m": 561,
      "ĠtÅ¯": 562,
      "Ġkro": 563,
      "Ġmr": 564,
      "ĠsnÃŃ": 565,
      "Ġzvo": 566,
      "ĠstÅĻe": 567,
      "Ġtra": 568,
      "ĠchvÃŃ": 569,
      "ĠdÃ¡l": 570,
      "ĠvÅ¡ec": 571,
      "Ġmou": 572,
      "Ġstv": 573,
      "Ġtil": 574,
      "ĠABABCC": 575,
      "Ġkol": 576,
      "ĠaÅ¥": 577,
      "Ġdle": 578,
      "ĠbÅ¯": 579,
      "Ġnost": 580,
      "ĠcÃŃch": 581,
      "Ġsh": 582,
      "Ġpy": 583,
      "Ġtel": 584,
      "Ġnul": 585,
      "ĠhÃ©": 586,
      "ĠnÃ¡s": 587,
      "ĠkrÃ¡s": 588,
      "Ġmla": 589,
      "Ġdlou": 590,
      "ĠzpÄĽ": 591,
      "ĠkÅĻÃŃ": 592,
      "Ġdn": 593,
      "Ġob": 594,
      "Ġtro": 595,
      "Ġvot": 596,
      "ut": 597,
      "Ġchem": 598,
      "AX": 599,
      "ĠmÄĽl": 600,
      "ĠchvÄĽ": 601,
      "Ġstou": 602,
      "Ġrem": 603,
      "Ġjsme": 604,
      "Ġvzp": 605,
      "AA": 606,
      "Ġhlu": 607,
      "Ġvat": 608,
      "ĠlÅ¯": 609,
      "ĠzÅĻÃŃ": 610,
      "Ġvil": 611,
      "Ġtm": 612,
      "ĠdÅ¯": 613,
      "ĠvÄĽÄį": 614,
      "ĠABABXX": 615,
      "Ġkam": 616,
      "ĠznÃ¡": 617,
      "sk": 618,
      "Ġneb": 619,
      "Ġslad": 620,
      "ĠvÅĻe": 621,
      "Ġ1960": 622,
      "ĠzdÃ¡": 623,
      "Ġmno": 624,
      "Ġsmr": 625,
      "Ġsli": 626,
      "Ġdl": 627,
      "Ġnes": 628,
      "Ġjas": 629,
      "Ġtom": 630,
      "ĠchtÄĽ": 631,
      "Ġsty": 632,
      "Ġdil": 633,
      "Ġvem": 634,
      "ĠptÃ¡": 635,
      "Ġnic": 636,
      "ĠtÅĻÃŃ": 637,
      "Ġjim": 638,
      "Ġmat": 639,
      "ĠÅ¡tÄĽ": 640,
      "Ġhlas": 641,
      "Ġsil": 642,
      "ĠvÃ½ch": 643,
      "Ġnik": 644,
      "Ġju": 645,
      "ĠslÃ¡": 646,
      "ĠsvÃŃ": 647,
      "Ġml": 648,
      "Ġpoz": 649,
      "Ġchv": 650,
      "Ġtek": 651,
      "Ġklo": 652,
      "ĠvrÃ¡": 653,
      "Ġtla": 654,
      "ĠÄįas": 655,
      "ĠskÃ¡": 656,
      "ĠblÃŃ": 657,
      "ĠvÃŃm": 658,
      "ĠkvÄĽt": 659,
      "ĠÅ¡le": 660,
      "Ġmen": 661,
      "nou": 662,
      "Ġmoc": 663,
      "ĠvÃŃc": 664,
      "Äįe": 665,
      "Ġnez": 666,
      "ĠbÅ¯h": 667,
      "Ġzlo": 668,
      "Ġsud": 669,
      "Ġmlu": 670,
      "Ġzrak": 671,
      "ĠbÅĻe": 672,
      "Ġspa": 673,
      "sÅ¥": 674,
      "ĠÅ¾il": 675,
      "Ġdiv": 676,
      "Ġdost": 677,
      "Ġchla": 678,
      "Ġsko": 679,
      "Ġzda": 680,
      "ĠsvÅ¯j": 681,
      "Ġks": 682,
      "ĠdÅĻÃŃ": 683,
      "Ġvpo": 684,
      "Ġzve": 685,
      "ĠleÄį": 686,
      "Ġsen": 687,
      "Ġhne": 688,
      "Ġkre": 689,
      "ĠbrÃ¡": 690,
      "ĠsmÄĽ": 691,
      "Ġsb": 692,
      "ĠnÄĽj": 693,
      "nÃ¡": 694,
      "Ġven": 695,
      "ĠÄįek": 696,
      "Ġvto": 697,
      "ĠXXAA": 698,
      "Ġnek": 699,
      "ĠvlÃ¡": 700,
      "ĠkÃ½ch": 701,
      "Ġple": 702,
      "Ġdli": 703,
      "ĠvÃ½m": 704,
      "ĠpÅ¯": 705,
      "ĠsmÃŃ": 706,
      "ĠÅ¡u": 707,
      "ĠtÃ©Å¾": 708,
      "Ġhned": 709,
      "ĠskÃ½": 710,
      "ĠÅ¾a": 711,
      "ĠkÅĻi": 712,
      "ĠpÃŃs": 713,
      "ĠÄįlo": 714,
      "Ġtru": 715,
      "ĠsvÃ½ch": 716,
      "ĠstÃ©": 717,
      "ĠkrÃ¡t": 718,
      "Ġmar": 719,
      "ĠspÄĽ": 720,
      "CCB": 721,
      "ĠÅĪ": 722,
      "Ã¡t": 723,
      "Ġan": 724,
      "Ġles": 725,
      "ĠtvÅ¯j": 726,
      "ĠvnÄĽ": 727,
      "Ġ1820": 728,
      "Ġkal": 729,
      "ĠsÅ¯": 730,
      "Ġlet": 731,
      "Ġsmut": 732,
      "ĠÅ¡li": 733,
      "Ġdech": 734,
      "ĠseÅĪ": 735,
      "Ãº": 736,
      "or": 737,
      "Ġskr": 738,
      "ĠAXA": 739,
      "Ġzvu": 740,
      "Ġchce": 741,
      "ĠAABCCB": 742,
      "Ġcem": 743,
      "Ġach": 744,
      "tÃŃ": 745,
      "ABB": 746,
      "Ġvle": 747,
      "Ġklid": 748,
      "ĠsnÄĽ": 749,
      "Ġrod": 750,
      "ĠnÃ¡Å¡": 751,
      "Ġnoc": 752,
      "ĠmÃ¡m": 753,
      "ĠtÄĽch": 754,
      "ĠhrÃ¡": 755,
      "Ġnil": 756,
      "ĠnÃŃk": 757,
      "ĠproÄį": 758,
      "ĠsvÃ½m": 759,
      "Ġhem": 760,
      "ich": 761,
      "ĠjÃŃm": 762,
      "ĠÄįÃŃm": 763,
      "Ġnom": 764,
      "Ġkru": 765,
      "ĠvÄĽk": 766,
      "ĠvÃ¡s": 767,
      "ĠdÃŃm": 768,
      "ĠbuÄı": 769,
      "Ġsvi": 770,
      "ĠtÄĽÅ¾": 771,
      "Ġri": 772,
      "ĠÅ¡la": 773,
      "ĠÅ¡ÃŃm": 774,
      "ĠXAAX": 775,
      "Ġsled": 776,
      "ĠcÅ¯": 777,
      "ĠknÄĽ": 778,
      "ĠrÃ¡d": 779,
      "ĠzvÄĽ": 780,
      "ĠpÅĻec": 781,
      "Ġvni": 782,
      "Ġdlo": 783,
      "ĠslÃŃ": 784,
      "Ġkrev": 785,
      "Ġzje": 786,
      "Ġkry": 787,
      "ĠÅ¡a": 788,
      "ĠÅ¥": 789,
      "Ġsch": 790,
      "Ġvtom": 791,
      "ĠpÅĻÃ¡": 792,
      "ĠspÃŃ": 793,
      "Ã¡l": 794,
      "ĠnÃŃch": 795,
      "ĠÄįil": 796,
      "Ġnec": 797,
      "Ġhor": 798,
      "Ġot": 799,
      "ĠvÃ¡Å¡": 800,
      "nu": 801,
      "Ġfa": 802,
      "Ġnout": 803,
      "ĠzÅĻe": 804,
      "Ġkne": 805,
      "ste": 806,
      "Ġjste": 807,
      "ci": 808,
      "ĠkÃ½m": 809,
      "ĠhÅĻÃŃ": 810,
      "Ġtva": 811,
      "Ġprv": 812,
      "Ġdro": 813,
      "Ġbro": 814,
      "ĠpÅĻes": 815,
      "Ġpad": 816,
      "ĠznÃŃ": 817,
      "ĠbÃ½t": 818,
      "ĠÅĻil": 819,
      "ĠÅ¾en": 820,
      "ĠmÃ½": 821,
      "Ġkl": 822,
      "Ġprav": 823,
      "ĠdÃ¡v": 824,
      "Ġslou": 825,
      "Ġpil": 826,
      "ĠvnÄĽm": 827,
      "ĠnÄĽm": 828,
      "ĠzpÃŃ": 829,
      "ĠtÅĻi": 830,
      "Ġnal": 831,
      "ĠmuÅ¾": 832,
      "Ġhled": 833,
      "ĠstÅĻÃŃ": 834,
      "ĠstrÃ¡": 835,
      "Ġprou": 836,
      "Ġslav": 837,
      "Ġzou": 838,
      "Ġjde": 839,
      "ĠchÃ½": 840,
      "Ġkm": 841,
      "Ġvdu": 842,
      "Ġvlast": 843,
      "ĠspÃ¡": 844,
      "Ġus": 845,
      "Ġvol": 846,
      "Ġvje": 847,
      "ĠskÃ½ch": 848,
      "Ġlen": 849,
      "ĠvÄįe": 850,
      "Ġkp": 851,
      "Ġhl": 852,
      "ĠchtÄĽl": 853,
      "Ġbes": 854,
      "Ã©m": 855,
      "as": 856,
      "Ġdva": 857,
      "Ġduch": 858,
      "ĠklÃŃ": 859,
      "ĠtvÃ¡ÅĻ": 860,
      "ĠchrÃ¡": 861,
      "Ġlil": 862,
      "Ġkve": 863,
      "ĠhÅ¯": 864,
      "Ġhru": 865,
      "ĠdÃ¡m": 866,
      "Ġdej": 867,
      "ĠkvÃŃ": 868,
      "ĠmlÃ¡": 869,
      "ĠznÄĽ": 870,
      "Ġvsrd": 871,
      "ĠÅ¡k": 872,
      "Ġkt": 873,
      "ĠpÄĽt": 874,
      "Ġvzpo": 875,
      "ĠdÃŃv": 876,
      "Ġtlo": 877,
      "ĠstÃ½": 878,
      "Ġlost": 879,
      "ĠnÄĽk": 880,
      "ĠdÄĽt": 881,
      "ĠvÄĽr": 882,
      "ĠkrÃ¡l": 883,
      "ĠtÃ½ch": 884,
      "Ġ3": 885,
      "ĠvzÃ¡": 886,
      "ĠnÃ¡ch": 887,
      "ĠvÃ©m": 888,
      "ĠvÅ¾dyÅ¥": 889,
      "Ġvne": 890,
      "ĠpÃ¡n": 891,
      "Ġvod": 892,
      "ĠlÃ½ch": 893,
      "Ġoh": 894,
      "ĠkÃ©m": 895,
      "ar": 896,
      "ĠhnÄĽ": 897,
      "Ġkni": 898,
      "ĠdlÃŃ": 899,
      "ĠchÅ¯": 900,
      "Ġvzdu": 901,
      "ĠtrÃ¡": 902,
      "ĠsvÃ¡": 903,
      "ĠcÃŃm": 904,
      "Ġkon": 905,
      "Ġ17": 906,
      "Ġmnou": 907,
      "ĠdeÅ¡": 908,
      "ĠÅĻa": 909,
      "ĠsÃŃc": 910,
      "vo": 911,
      "ĠtvÃŃ": 912,
      "ĠÅ¾el": 913,
      "ĠmÃŃr": 914,
      "Ġcit": 915,
      "ĠÅĻÃ¡": 916,
      "Ġstal": 917,
      "Ġrt": 918,
      "Ġps": 919,
      "ĠstÃŃn": 920,
      "vi": 921,
      "ĠklÃ¡": 922,
      "Ġtlu": 923,
      "ĠkÃ¡ch": 924,
      "Ġzna": 925,
      "ĠhlÃŃ": 926,
      "Ġchlad": 927,
      "ĠtvÃ½ch": 928,
      "ĠknÃŃ": 929,
      "ĠXAXAXX": 930,
      "Ġblou": 931,
      "ha": 932,
      "Ġtma": 933,
      "ĠjuÅ¾": 934,
      "ĠdrÃ¡": 935,
      "ĠtÅĻ": 936,
      "Ġvj": 937,
      "ĠÅ¡Å¥": 938,
      "ĠAXAX": 939,
      "ech": 940,
      "Ġchle": 941,
      "ĠpÅĻij": 942,
      "ĠÅĻek": 943,
      "ĠzÅ¯": 944,
      "Ġcy": 945,
      "ast": 946,
      "ĠvÅ¡em": 947,
      "Ġzel": 948,
      "ĠneÄį": 949,
      "ĠcoÅ¾": 950,
      "Ġvch": 951,
      "Ġsd": 952,
      "Ġplo": 953,
      "at": 954,
      "Ġpal": 955,
      "ĠÄįes": 956,
      "Ġzno": 957,
      "ĠÅ¡tÃŃ": 958,
      "ĠsvÃ©m": 959,
      "ĠaÄį": 960,
      "Ġhlou": 961,
      "Ġtal": 962,
      "Ġvno": 963,
      "ĠmÃ½ch": 964,
      "Ġct": 965,
      "ĠneÅ¡": 966,
      "ĠstÃ¡l": 967,
      "Ġstvo": 968,
      "Ġrov": 969,
      "Ġzpo": 970,
      "Ġpom": 971,
      "ĠÄı": 972,
      "ĠzpÄĽv": 973,
      "ĠsmÃŃch": 974,
      "ĠnnÃŃ": 975,
      "Ġtec": 976,
      "ĠhÅĻ": 977,
      "Ġsni": 978,
      "Ġsne": 979,
      "ve": 980,
      "ĠhlÃ©": 981,
      "Ġtys": 982,
      "Ġbys": 983,
      "ĠjÃŃc": 984,
      "ĠpÃ½": 985,
      "Ġleh": 986,
      "vÃ¡": 987,
      "XB": 988,
      "ĠzrÃ¡": 989,
      "Ġbal": 990,
      "ĠvlÃŃ": 991,
      "na": 992,
      "Å¡Å¥": 993,
      "Ġjo": 994,
      "ĠvdÄĽ": 995,
      "ĠkÅĻe": 996,
      "Ġpan": 997,
      "ĠvÃ¡n": 998,
      "ĠÅ¡p": 999,
      "ABAB": 1000,
      "Ã³": 1001,
      "ĠdÃ½m": 1002,
      "Ġhod": 1003,
      "Ġkz": 1004,
      "ĠÅ¾eh": 1005,
      "ĠlÃ©m": 1006,
      "ĠvnÃŃ": 1007,
      "ĠhlÃ¡": 1008,
      "ĠnnÃ©": 1009,
      "ĠÃºs": 1010,
      "Ġpru": 1011,
      "Ġstat": 1012,
      "Ġbles": 1013,
      "ĠdvÄĽ": 1014,
      "Ġskou": 1015,
      "Ġchci": 1016,
      "ĠÄįem": 1017,
      "Ġdvo": 1018,
      "Ġzle": 1019,
      "ĠhrÅ¯": 1020,
      "Ġsmrt": 1021,
      "Ġsed": 1022,
      "ĠchvÃ¡": 1023,
      "Ġvro": 1024,
      "Ġhrad": 1025,
      "Ġves": 1026,
      "Ġy": 1027,
      "Ġdce": 1028,
      "ĠskrÃ¡": 1029,
      "ĠÅ¾al": 1030,
      "Ġplu": 1031,
      "Ġbil": 1032,
      "ĠzÃ¡ÅĻ": 1033,
      "ĠlÃ½m": 1034,
      "Ġvbo": 1035,
      "Ġlek": 1036,
      "va": 1037,
      "Ġnit": 1038,
      "Ġzr": 1039,
      "Ġvoj": 1040,
      "Ġstem": 1041,
      "ĠvdÃ¡l": 1042,
      "Ġvti": 1043,
      "ĠÅĪa": 1044,
      "Ġvza": 1045,
      "ĠÄįel": 1046,
      "Ġlov": 1047,
      "Ġboj": 1048,
      "Ġtk": 1049,
      "ĠÅ¡ep": 1050,
      "ĠtÃ¡h": 1051,
      "Ġlik": 1052,
      "Ġchal": 1053,
      "Ġlest": 1054,
      "Ġchou": 1055,
      "Ġzbo": 1056,
      "ĠzmÄĽ": 1057,
      "Ġmem": 1058,
      "ĠvÅ¡u": 1059,
      "Ġtes": 1060,
      "ĠÅĻÃŃm": 1061,
      "Ġvzh": 1062,
      "ĠdÄĽj": 1063,
      "Ġskry": 1064,
      "ĠzpÄĽt": 1065,
      "Ġkdys": 1066,
      "ĠprÃ½": 1067,
      "Ġhlo": 1068,
      "Ġmd": 1069,
      "Ġvrou": 1070,
      "ĠslyÅ¡": 1071,
      "Ġsr": 1072,
      "ĠzÅĻel": 1073,
      "Ġdar": 1074,
      "Ġpev": 1075,
      "Ġsvit": 1076,
      "ĠÅ¾Ã¡d": 1077,
      "Ġfi": 1078,
      "Ġkme": 1079,
      "Ġtech": 1080,
      "ĠdÅĻÃŃv": 1081,
      "Ġcen": 1082,
      "Ġhroz": 1083,
      "Ġzro": 1084,
      "Ġdly": 1085,
      "Ġvmo": 1086,
      "Ġkto": 1087,
      "en": 1088,
      "Ġman": 1089,
      "ĠvÃŃÅ¡": 1090,
      "Ġtvou": 1091,
      "Ġtry": 1092,
      "Ġstej": 1093,
      "ABBX": 1094,
      "Ġkraj": 1095,
      "Ġska": 1096,
      "ĠÅ¾o": 1097,
      "Ġsna": 1098,
      "vÃ©": 1099,
      "Å¾i": 1100,
      "Ġral": 1101,
      "ĠchÃ©": 1102,
      "ĠÅ¾Ã¡r": 1103,
      "ĠsnÃ¡": 1104,
      "ĠhvÄĽzd": 1105,
      "Ġper": 1106,
      "ĠkÅ¯m": 1107,
      "ĠÅ¡Å¥ast": 1108,
      "ĠvtÃ©": 1109,
      "ĠsnÃŃm": 1110,
      "ĠjÃŃt": 1111,
      "ĠÄįen": 1112,
      "ĠmÅĻe": 1113,
      "ĠvÃº": 1114,
      "Ġvru": 1115,
      "ĠnÄĽl": 1116,
      "Ġznich": 1117,
      "ĠtÄĽz": 1118,
      "ĠmÃ¡Å¡": 1119,
      "Ġtit": 1120,
      "ĠtoÅ¥": 1121,
      "ĠtrÅ¯": 1122,
      "Ġvit": 1123,
      "Ġth": 1124,
      "Ġtl": 1125,
      "Ġchod": 1126,
      "ĠsÃŃm": 1127,
      "Ġvnich": 1128,
      "ĠkÃ¡m": 1129,
      "Ġzdo": 1130,
      "Ġdit": 1131,
      "Ġlal": 1132,
      "Ġzl": 1133,
      "Ġtan": 1134,
      "ĠvÅ¡ÃŃ": 1135,
      "Ġjdou": 1136,
      "Ġkat": 1137,
      "ĠdlÃ©": 1138,
      "Ġkri": 1139,
      "Ġcu": 1140,
      "ĠbÃ¡s": 1141,
      "ĠzvÃŃ": 1142,
      "ĠboÅ¾": 1143,
      "Ġpoj": 1144,
      "Ġjm": 1145,
      "Ġdat": 1146,
      "ĠÅ¾ha": 1147,
      "ĠtÃ©m": 1148,
      "ĠÅ¡ÃŃch": 1149,
      "Ġbar": 1150,
      "ĠcÃ½": 1151,
      "Ġply": 1152,
      "ĠrÃ½ch": 1153,
      "Ġhal": 1154,
      "BC": 1155,
      "ĠÄįet": 1156,
      "Ġca": 1157,
      "Ġhrob": 1158,
      "Ġpot": 1159,
      "mu": 1160,
      "ĠÅ¡ich": 1161,
      "Ġstva": 1162,
      "Ġvpra": 1163,
      "ĠÅ¡lÃ©": 1164,
      "ĠteÄį": 1165,
      "Ġok": 1166,
      "Ġzal": 1167,
      "Ġtvr": 1168,
      "ĠsnÅ¯": 1169,
      "Ġvan": 1170,
      "Ġztra": 1171,
      "ĠÅ¾ÃŃm": 1172,
      "ĠprÃ¡z": 1173,
      "Ġmoh": 1174,
      "Ġskal": 1175,
      "Ġzmi": 1176,
      "ĠblÃ¡": 1177,
      "Ġtaj": 1178,
      "Ġvze": 1179,
      "Ġsyn": 1180,
      "ĠblÃŃÅ¾": 1181,
      "ĠdÃŃÅ¡": 1182,
      "Ġnich": 1183,
      "Ġvko": 1184,
      "Ġbem": 1185,
      "ĠÄįt": 1186,
      "Ġzli": 1187,
      "Ġcos": 1188,
      "Ġblo": 1189,
      "ĠtÄĽl": 1190,
      "Ġga": 1191,
      "ĠÅ¡il": 1192,
      "ĠÄįin": 1193,
      "Ġblu": 1194,
      "ĠtÃ½m": 1195,
      "Ġbol": 1196,
      "ĠdÅ¯m": 1197,
      "ĠmoÅ¾": 1198,
      "Ġ1800": 1199,
      "Ġjis": 1200,
      "Ġbli": 1201,
      "ĠnechÅ¥": 1202,
      "CBC": 1203,
      "Ġdin": 1204,
      "Ġkb": 1205,
      "Ġsbo": 1206,
      "Ġnen": 1207,
      "ĠsklÃ¡": 1208,
      "ĠÄįit": 1209,
      "ĠmÃŃn": 1210,
      "Ġzor": 1211,
      "ĠjÃŃÅ¾": 1212,
      "Ġge": 1213,
      "Ġvdo": 1214,
      "ĠmÃ½m": 1215,
      "Ġzby": 1216,
      "Ġjar": 1217,
      "ĠXXABAB": 1218,
      "ĠvnÃ¡": 1219,
      "Ġvsta": 1220,
      "Ġpov": 1221,
      "Ġret": 1222,
      "Ġvej": 1223,
      "ĠÅĻem": 1224,
      "ĠsnÃŃh": 1225,
      "Ġ2": 1226,
      "Ġdruh": 1227,
      "Ġsklo": 1228,
      "Ġsten": 1229,
      "Ġhud": 1230,
      "ĠÅ¾li": 1231,
      "ĠvÅ¾dyc": 1232,
      "ĠdlÃ¡": 1233,
      "ĠvÃ½Å¡": 1234,
      "Ġchr": 1235,
      "Ġkud": 1236,
      "ĠÅ¡em": 1237,
      "ĠvÄĽt": 1238,
      "ĠvstÅĻÃŃ": 1239,
      "Ġstru": 1240,
      "ĠÄįÃ¡": 1241,
      "Ġver": 1242,
      "Ġpoh": 1243,
      "Ġleb": 1244,
      "ĠABBACC": 1245,
      "Ġvsk": 1246,
      "Ġled": 1247,
      "ĠptÃ¡k": 1248,
      "ĠhÅĻe": 1249,
      "ĠjÃŃch": 1250,
      "ĠvtÄĽ": 1251,
      "Ġzne": 1252,
      "Ġzva": 1253,
      "Ġbraz": 1254,
      "ĠmÄĽv": 1255,
      "Ġvka": 1256,
      "Ġsel": 1257,
      "ĠstÅ¯": 1258,
      "ĠdÄĽs": 1259,
      "ĠÅĻit": 1260,
      "ĠnnÃ½": 1261,
      "ĠjejÅ¾": 1262,
      "Ġkmi": 1263,
      "Ġsek": 1264,
      "Ġvzne": 1265,
      "Ġgi": 1266,
      "Ġstech": 1267,
      "Ġzvol": 1268,
      "rÃ¡z": 1269,
      "ĠAXAA": 1270,
      "Ġder": 1271,
      "Ġjal": 1272,
      "ĠXAABBX": 1273,
      "Ġsny": 1274,
      "ĠmÃŃt": 1275,
      "Ġjel": 1276,
      "Ġjin": 1277,
      "ĠvÃ¡Å¾": 1278,
      "ĠnnÄĽ": 1279,
      "ĠÅ¡lo": 1280,
      "Ġkh": 1281,
      "ĠzÅĻÃŃm": 1282,
      "ĠjmÃ©": 1283,
      "ĠÅĻÃ¡d": 1284,
      "Ġzen": 1285,
      "Ġvzk": 1286,
      "ja": 1287,
      "Ġvna": 1288,
      "ĠÅ¾it": 1289,
      "Ġsho": 1290,
      "ĠÄįÃŃch": 1291,
      "Ġou": 1292,
      "Ġche": 1293,
      "Ġhli": 1294,
      "ĠvstÅĻÃŃc": 1295,
      "ĠdÃ½ch": 1296,
      "ĠsÃ½": 1297,
      "ĠruÄį": 1298,
      "Ġvzal": 1299,
      "ĠÅ¡ko": 1300,
      "Ġzvuk": 1301,
      "ĠhoÅ¾": 1302,
      "Ġsku": 1303,
      "Ġzjev": 1304,
      "ĠdÄĽv": 1305,
      "Ġor": 1306,
      "Ġvho": 1307,
      "ĠpÅ¯l": 1308,
      "Ġmrak": 1309,
      "ĠnuÅ¾": 1310,
      "Ġkdes": 1311,
      "ĠvÄį": 1312,
      "Ġzbra": 1313,
      "Ġdve": 1314,
      "Ġlk": 1315,
      "ĠstÃŃm": 1316,
      "ĠpÄĽk": 1317,
      "Ġnev": 1318,
      "Ġslov": 1319,
      "ĠnÄĽÅ¾": 1320,
      "Ġdel": 1321,
      "ĠtÅĻÃ¡": 1322,
      "Ġas": 1323,
      "Ġfe": 1324,
      "ĠjÅ¯": 1325,
      "ĠmeÄį": 1326,
      "Ġtis": 1327,
      "ĠvÅ¾i": 1328,
      "ĠAABCBC": 1329,
      "ĠÅ¡len": 1330,
      "ĠÅ¾ÃŃt": 1331,
      "Ġchra": 1332,
      "Ġzved": 1333,
      "ĠpouÅ¡": 1334,
      "ĠÅĻeÄį": 1335,
      "ĠrÃ©m": 1336,
      "ĠzlÃ©": 1337,
      "ĠsvÃ½": 1338,
      "Ġkrok": 1339,
      "ĠvsvÄĽ": 1340,
      "Ġzdvi": 1341,
      "ĠvlÃ¡d": 1342,
      "Ġstli": 1343,
      "Ġsmy": 1344,
      "Ġrek": 1345,
      "ĠhleÄı": 1346,
      "Ġvpr": 1347,
      "Ġkot": 1348,
      "ĠtÄĽm": 1349,
      "Ġvlo": 1350,
      "ĠpÃ©": 1351,
      "Ġvzte": 1352,
      "ĠknÃ¡": 1353,
      "ĠÅ¡um": 1354,
      "Ġkva": 1355,
      "Ġzvy": 1356,
      "Ġpat": 1357,
      "ĠdÅĻe": 1358,
      "ĠhruÄı": 1359,
      "Ġkost": 1360,
      "Ġvlas": 1361,
      "ĠÅ¥a": 1362,
      "py": 1363,
      "ĠÅ¡t": 1364,
      "Ġhej": 1365,
      "Ġol": 1366,
      "ĠÄįest": 1367,
      "ĠÃŃ": 1368,
      "ĠvzhÅ¯": 1369,
      "Ġdob": 1370,
      "ĠpÅ¯j": 1371,
      "Ġnat": 1372,
      "ĠX": 1373,
      "Ġstup": 1374,
      "ÅĪa": 1375,
      "Ġpor": 1376,
      "ĠhÅĻm": 1377,
      "ĠvÃ¡l": 1378,
      "ĠslÃ©": 1379,
      "Ġaj": 1380,
      "Ġpar": 1381,
      "Ġproud": 1382,
      "ĠtÅĻpy": 1383,
      "Ġzdra": 1384,
      "ĠzÃ½": 1385,
      "ĠzlÃŃ": 1386,
      "ĠrÃ½m": 1387,
      "Ġsal": 1388,
      "ĠtoÅ¾": 1389,
      "ĠskrÃ½": 1390,
      "Ġklad": 1391,
      "ĠliÅ¡": 1392,
      "Ġum": 1393,
      "Ġcel": 1394,
      "ĠdÃ©m": 1395,
      "Ġlist": 1396,
      "Ġkoj": 1397,
      "Ġgo": 1398,
      "Ġtre": 1399,
      "Ġvzduch": 1400,
      "ĠzmÃŃ": 1401,
      "Ġblesk": 1402,
      "Ġzim": 1403,
      "ĠkÅĻik": 1404,
      "ĠkÅĻÃŃÅ¾": 1405,
      "ÅĻa": 1406,
      "ĠvÅ¡ich": 1407,
      "Ġhly": 1408,
      "Ġlej": 1409,
      "bi": 1410,
      "ĠÅ¾lu": 1411,
      "Ġtle": 1412,
      "Ġsme": 1413,
      "ĠztrÃ¡": 1414,
      "Ġrak": 1415,
      "ĠvÄĽz": 1416,
      "ĠbÅĻÃŃ": 1417,
      "ĠbÃŃd": 1418,
      "Ġnel": 1419,
      "ĠprÅ¯": 1420,
      "ĠAABBXX": 1421,
      "ĠstÃ¡t": 1422,
      "Ġmal": 1423,
      "Ġkze": 1424,
      "Ġov": 1425,
      "Ġhoj": 1426,
      "ĠvÄĽn": 1427,
      "ĠskvÄĽ": 1428,
      "ĠzvÃ¡": 1429,
      "ĠÅ¾iv": 1430,
      "Ġkles": 1431,
      "ĠÅ¡ek": 1432,
      "Ġvli": 1433,
      "Ã¡m": 1434,
      "Ġvpa": 1435,
      "Ġpout": 1436,
      "Ġbuj": 1437,
      "Ġss": 1438,
      "ĠkdoÅ¾": 1439,
      "Ġfra": 1440,
      "ĠskÃ½m": 1441,
      "Ġnav": 1442,
      "Ġdlit": 1443,
      "ĠheÅĪ": 1444,
      "Ġhnu": 1445,
      "ĠABBAXX": 1446,
      "Ġstil": 1447,
      "ĠhoÅĻ": 1448,
      "ĠÅĻen": 1449,
      "Ġset": 1450,
      "Ġlas": 1451,
      "Ġvslu": 1452,
      "ĠhÃ½ch": 1453,
      "Ġskle": 1454,
      "Ġnno": 1455,
      "ĠbouÅĻ": 1456,
      "ĠpuÅ¡": 1457,
      "ĠnÄĽn": 1458,
      "Ġdav": 1459,
      "Ġal": 1460,
      "Ġhlad": 1461,
      "ĠstÅĻed": 1462,
      "Ġtli": 1463,
      "ĠAAXA": 1464,
      "ĠbrÃ½": 1465,
      "ĠbÃ©": 1466,
      "Ġhan": 1467,
      "Ġzka": 1468,
      "Ġstrom": 1469,
      "ĠvlÃŃd": 1470,
      "Ġar": 1471,
      "Ġstar": 1472,
      "Ġples": 1473,
      "Ġnaj": 1474,
      "ĠtvÃ½m": 1475,
      "Ġchvil": 1476,
      "ĠmÄĽk": 1477,
      "Ġspi": 1478,
      "ĠÅ¡en": 1479,
      "ABBA": 1480,
      "Ġsmu": 1481,
      "ĠdiÄį": 1482,
      "ĠchlÃ©": 1483,
      "ĠnÃŃÅ¾": 1484,
      "Ġprud": 1485,
      "ĠABABAB": 1486,
      "ĠmÅĻÃŃ": 1487,
      "Ġbd": 1488,
      "Ġhrom": 1489,
      "ĠnaÄį": 1490,
      "ĠhnÄĽv": 1491,
      "ĠknÃ¡m": 1492,
      "ĠÃ¡": 1493,
      "Ġknu": 1494,
      "Ġvln": 1495,
      "Ġkly": 1496,
      "Ġrej": 1497,
      "ĠznÃ¡m": 1498,
      "Ġvec": 1499,
      "Ġrok": 1500,
      "ĠnoÄį": 1501,
      "nÃŃz": 1502,
      "ĠdnÃŃ": 1503,
      "ĠdÃ¡t": 1504,
      "ĠnÅ¯m": 1505,
      "Ġpos": 1506,
      "Ġber": 1507,
      "Ġknou": 1508,
      "Ġpol": 1509,
      "Ġchmu": 1510,
      "ĠvÅ¡i": 1511,
      "ĠchvÄĽl": 1512,
      "ĠzeÅĪ": 1513,
      "Ġpta": 1514,
      "Ġzaz": 1515,
      "Ġrel": 1516,
      "Ġdrob": 1517,
      "ĠztÄĽ": 1518,
      "ĠpyÅ¡": 1519,
      "Ġvzdech": 1520,
      "ĠpÄĽl": 1521,
      "Ġsoud": 1522,
      "in": 1523,
      "Ġher": 1524,
      "Ġprach": 1525,
      "ĠvdÃ¡": 1526,
      "ĠniÄį": 1527,
      "ĠdrÃ©": 1528,
      "Ġkso": 1529,
      "ĠhÃ¡d": 1530,
      "Ġzce": 1531,
      "ĠskÃ©m": 1532,
      "ĠbrÃ©": 1533,
      "ĠzdÃ¡l": 1534,
      "Ġkno": 1535,
      "ĠXXA": 1536,
      "ĠlÃŃm": 1537,
      "ĠÅ¾u": 1538,
      "ĠvÅĻÃŃ": 1539,
      "ĠmÃ©m": 1540,
      "Ġdouc": 1541,
      "Ġzni": 1542,
      "Ġstrach": 1543,
      "Ġbor": 1544,
      "ĠdruÅ¾": 1545,
      "ĠblÃŃz": 1546,
      "ĠkoÅ¡": 1547,
      "Ġvsv": 1548,
      "Ġtly": 1549,
      "Ġctno": 1550,
      "Å¯r": 1551,
      "ĠÅ¡et": 1552,
      "Ġstav": 1553,
      "ĠstrÃ½": 1554,
      "Ġvez": 1555,
      "ĠvzdÃ¡": 1556,
      "ĠvpÅĻe": 1557,
      "ĠdvÃ©": 1558,
      "Ġnak": 1559,
      "ĠÄįÃŃÅ¡": 1560,
      "ĠvÄĽc": 1561,
      "vr": 1562,
      "er": 1563,
      "Ġned": 1564,
      "Ġzru": 1565,
      "Ġzma": 1566,
      "ĠÅ¡at": 1567,
      "ĠlÃŃc": 1568,
      "Ġtost": 1569,
      "ĠstraÅ¡": 1570,
      "BB": 1571,
      "ĠzboÅ¾": 1572,
      "Ġvzb": 1573,
      "ĠchrÃ¡m": 1574,
      "Ġcet": 1575,
      "Ġtic": 1576,
      "ĠbyÅ¥": 1577,
      "Ġdno": 1578,
      "Ġzmo": 1579,
      "Ġved": 1580,
      "Ġprs": 1581,
      "Ġlit": 1582,
      "Ġvys": 1583,
      "Ġdek": 1584,
      "Ġklam": 1585,
      "ĠzdrÃ¡": 1586,
      "Ġnnou": 1587,
      "ĠjichÅ¾": 1588,
      "Ġzvon": 1589,
      "ĠliÄį": 1590,
      "Ġzbu": 1591,
      "Ġkpo": 1592,
      "Ġchat": 1593,
      "ĠbÄĽd": 1594,
      "Ġpen": 1595,
      "Ġran": 1596,
      "ĠspoÅĪ": 1597,
      "Ġvzdy": 1598,
      "Ġben": 1599,
      "ĠrÃ¡m": 1600,
      "Ġspou": 1601,
      "Ġpry": 1602,
      "Ġzum": 1603,
      "Ġtvor": 1604,
      "Ġsma": 1605,
      "Ġjme": 1606,
      "Ġkrou": 1607,
      "ĠdÄĽc": 1608,
      "rÅ¯": 1609,
      "Ġtrp": 1610,
      "ĠÅ¡lÃ©n": 1611,
      "Ġskvo": 1612,
      "Ġter": 1613,
      "ĠkÃ©Å¾": 1614,
      "Ġspra": 1615,
      "ĠvnÄĽmÅ¾": 1616,
      "XXA": 1617,
      "ĠdnÅ¯": 1618,
      "Ġbrou": 1619,
      "Ġvhro": 1620,
      "ĠsvÄĽd": 1621,
      "Ġur": 1622,
      "ĠblÃ½": 1623,
      "Ġvzt": 1624,
      "Ġzil": 1625,
      "Ġtrem": 1626,
      "ĠvstÃ¡": 1627,
      "ĠnnÃ¡": 1628,
      "Ġzj": 1629,
      "ĠnaÅĪ": 1630,
      "Ġkej": 1631,
      "Ġnut": 1632,
      "ĠhÃ½m": 1633,
      "Ġzti": 1634,
      "Ġmech": 1635,
      "ĠchceÅ¡": 1636,
      "Ġtin": 1637,
      "Ġruch": 1638,
      "ĠplÃ©": 1639,
      "BX": 1640,
      "ĠÅĻÃŃÅ¡": 1641,
      "ĠnÃŃz": 1642,
      "ĠzlÃ¡": 1643,
      "Ġrty": 1644,
      "ĠÅ¾em": 1645,
      "ĠstrÃ¡Å¾": 1646,
      "XABB": 1647,
      "Ġsve": 1648,
      "Ġlec": 1649,
      "ĠdlÃ½": 1650,
      "Ġkov": 1651,
      "ĠjÃŃmÅ¾": 1652,
      "ĠvÄĽÅĻ": 1653,
      "Ġvrh": 1654,
      "ĠÄįej": 1655,
      "ĠdÃ¡Å¡": 1656,
      "Ġvzdor": 1657,
      "ti": 1658,
      "ĠtÃŃÅ¡": 1659,
      "Ġtor": 1660,
      "Ġzar": 1661,
      "Ġkar": 1662,
      "ĠzdÄĽ": 1663,
      "ĠmraÄį": 1664,
      "Ġchl": 1665,
      "ĠÃºz": 1666,
      "ĠhÃ©m": 1667,
      "Ġsnu": 1668,
      "ĠÅĻÅ¯": 1669,
      "Ġhat": 1670,
      "ĠloÄı": 1671,
      "Ġhoch": 1672,
      "Ġsit": 1673,
      "Ġcest": 1674,
      "Ġvin": 1675,
      "Ġbit": 1676,
      "Ġdlem": 1677,
      "Ġpit": 1678,
      "Ġsky": 1679,
      "Ġdum": 1680,
      "ĠpojÄı": 1681,
      "Ġhost": 1682,
      "Ġmor": 1683,
      "Ġbec": 1684,
      "Ġhrou": 1685,
      "Ġvad": 1686,
      "Ġvpro": 1687,
      "ĠdÃŃt": 1688,
      "ĠdÃ¡n": 1689,
      "ĠtÃ¡m": 1690,
      "ĠzÃŃch": 1691,
      "Ġvsa": 1692,
      "Ġjdu": 1693,
      "Ġscho": 1694,
      "zd": 1695,
      "ĠpÃ¡r": 1696,
      "Ġkn": 1697,
      "Ġhlav": 1698,
      "ĠhnÃŃz": 1699,
      "ĠbÃ¡ch": 1700,
      "ĠsmÃ¡": 1701,
      "ĠpÅĻÃŃÅ¡": 1702,
      "ĠÅ¡ly": 1703,
      "Ġnna": 1704,
      "ĠpÅĻÃŃs": 1705,
      "ĠpoÄį": 1706,
      "vou": 1707,
      "ĠtlÃ©": 1708,
      "Ġcti": 1709,
      "Ġlez": 1710,
      "Ġvce": 1711,
      "ĠmrÃ¡z": 1712,
      "ĠplÃ¡Äį": 1713,
      "ĠvtvÃ¡": 1714,
      "ĠÅ¡ÃŃÅ¡": 1715,
      "Ġmek": 1716,
      "ĠABA": 1717,
      "Ġlin": 1718,
      "ĠznÄĽl": 1719,
      "ĠpryÄį": 1720,
      "ĠXAXABB": 1721,
      "ĠtvÃ©m": 1722,
      "Ġdny": 1723,
      "ĠrÃ¡ch": 1724,
      "ĠvsÃŃ": 1725,
      "Ġmluv": 1726,
      "Ġpel": 1727,
      "ĠhÅĻÃŃch": 1728,
      "Ġsbor": 1729,
      "Ġvor": 1730,
      "Ġbin": 1731,
      "ĠÅ¡o": 1732,
      "ĠmÄĽj": 1733,
      "ĠzvlÃ¡": 1734,
      "ĠAXXA": 1735,
      "Ġstk": 1736,
      "Ġklet": 1737,
      "Ġklu": 1738,
      "ĠhÃ¡m": 1739,
      "Ġmil": 1740,
      "Ġkyt": 1741,
      "Ġzba": 1742,
      "Ġvta": 1743,
      "ĠvzÃ¡c": 1744,
      "ĠnÃ¡d": 1745,
      "ĠlÃŃch": 1746,
      "Ġvyz": 1747,
      "ĠvÅĻel": 1748,
      "Ġhar": 1749,
      "Ġbral": 1750,
      "Ġhm": 1751,
      "ĠÄįech": 1752,
      "Ġtov": 1753,
      "Ġvtu": 1754,
      "ĠviÄį": 1755,
      "Ġzdi": 1756,
      "Ġpln": 1757,
      "Ġsro": 1758,
      "Ġviz": 1759,
      "ĠÅ¾dy": 1760,
      "ĠsÃ¡h": 1761,
      "Ġvzde": 1762,
      "Ġsra": 1763,
      "ĠskÅĻi": 1764,
      "Ġblud": 1765,
      "ĠvÅ¡a": 1766,
      "tÅĻ": 1767,
      "Ġblan": 1768,
      "ĠzrÃ¡d": 1769,
      "Ġkor": 1770,
      "ĠrÃ¡j": 1771,
      "Ġtrou": 1772,
      "Ġoz": 1773,
      "Ġpem": 1774,
      "ĠvÅĻa": 1775,
      "Ġsnem": 1776,
      "Ġzdro": 1777,
      "ĠvraÅ¾": 1778,
      "Ġvrat": 1779,
      "ĠnosÅ¥": 1780,
      "ĠpÄĽv": 1781,
      "Ġrat": 1782,
      "ĠdrÃ½": 1783,
      "Ġtrh": 1784,
      "ĠvÃŃr": 1785,
      "Ġlh": 1786,
      "ĠÄįal": 1787,
      "ĠsplÃ½": 1788,
      "ĠvÅ¯d": 1789,
      "Ġzval": 1790,
      "ĠÅ¡Ã¡": 1791,
      "ĠhlÃ½": 1792,
      "Ġkus": 1793,
      "ĠstvÃŃm": 1794,
      "ĠÅ¾ÃŃÅ¡": 1795,
      "Ġzto": 1796,
      "Ġvkra": 1797,
      "ĠplÃŃ": 1798,
      "Ġgra": 1799,
      "Ġjez": 1800,
      "Ġhas": 1801,
      "Ġzko": 1802,
      "ĠÄıÃ¡": 1803,
      "ĠdÃ¡ch": 1804,
      "ĠtiÄį": 1805,
      "Ġfran": 1806,
      "ĠcÅ¯m": 1807,
      "ĠrÅ¯z": 1808,
      "Ġzch": 1809,
      "ĠkrÅ¯": 1810,
      "Ġlep": 1811,
      "Ġgu": 1812,
      "Ġmst": 1813,
      "ĠblÃ½s": 1814,
      "Ġmni": 1815,
      "Ġrad": 1816,
      "ĠtÃŃÅ¾": 1817,
      "ĠÅ¾h": 1818,
      "ĠvkrÃ¡": 1819,
      "Ġjil": 1820,
      "Ġstran": 1821,
      "Ġvji": 1822,
      "lad": 1823,
      "Ġken": 1824,
      "ze": 1825,
      "Ġzdu": 1826,
      "ĠsÅ¯m": 1827,
      "Ġvkr": 1828,
      "ĠbiÄį": 1829,
      "Ġtmy": 1830,
      "ĠvÅ¡ÃŃm": 1831,
      "ĠtÃ³": 1832,
      "ĠzÃŃm": 1833,
      "ĠskrÃ¡ÅĪ": 1834,
      "Ġfo": 1835,
      "ĠfÃ¡": 1836,
      "ĠklÃ©": 1837,
      "Ġvsm": 1838,
      "Ġbled": 1839,
      "ĠdvÃ¡": 1840,
      "ĠXXAABB": 1841,
      "Ġskro": 1842,
      "Ġpros": 1843,
      "Ġdlu": 1844,
      "Ġlesk": 1845,
      "Ġbyt": 1846,
      "ĠskÅĻÃŃ": 1847,
      "ĠkrÃ½": 1848,
      "ĠchtÃŃ": 1849,
      "ĠAAXB": 1850,
      "Ġbod": 1851,
      "Ġslil": 1852,
      "ĠbÄĽh": 1853,
      "ĠvlÃ¡s": 1854,
      "ĠdnÃ©": 1855,
      "ĠztÄĽch": 1856,
      "Ġkbo": 1857,
      "Ġlan": 1858,
      "Ġtok": 1859,
      "Ġvzle": 1860,
      "ĠspÃŃÅ¡": 1861,
      "ĠdÃŃk": 1862,
      "Ġvroz": 1863,
      "Ġtat": 1864,
      "ĠvznÃ¡": 1865,
      "Ġdot": 1866,
      "Ġtve": 1867,
      "Ġbru": 1868,
      "ĠcÃŃl": 1869,
      "ĠÅ¡it": 1870,
      "Ġvost": 1871,
      "ĠchÃ¡m": 1872,
      "ĠklÃŃn": 1873,
      "Ġhol": 1874,
      "Ġvsp": 1875,
      "Ġtri": 1876,
      "lav": 1877,
      "ĠvzplÃ¡": 1878,
      "ĠsÃº": 1879,
      "Ġzlou": 1880,
      "ĠsaÅĻ": 1881,
      "Ġhloub": 1882,
      "ĠsvÃ¡t": 1883,
      "Ġhad": 1884,
      "Ġlat": 1885,
      "ĠmÄĽst": 1886,
      "ĠvkaÅ¾": 1887,
      "led": 1888,
      "Å¡e": 1889,
      "Ġsje": 1890,
      "Å¯d": 1891,
      "Ġtev": 1892,
      "Ġos": 1893,
      "ĠmÅ¾i": 1894,
      "Ġvhlou": 1895,
      "ĠlÃ¡ch": 1896,
      "Ġplod": 1897,
      "Ġdni": 1898,
      "Ġchli": 1899,
      "Ġzku": 1900,
      "Ġthe": 1901,
      "Ġvn": 1902,
      "ĠÅ¡er": 1903,
      "ĠslÃŃm": 1904,
      "Ġkruh": 1905,
      "Ġdrech": 1906,
      "Ġluz": 1907,
      "Ġjsa": 1908,
      "Ġdrav": 1909,
      "ĠboÅ¥": 1910,
      "ej": 1911,
      "ĠÄįÅ¯": 1912,
      "ĠÅ¾er": 1913,
      "ĠkvÃ©": 1914,
      "Ġtmou": 1915,
      "Ġpsa": 1916,
      "Ġkmo": 1917,
      "ĠzÃº": 1918,
      "ĠÅĻad": 1919,
      "Ġlam": 1920,
      "ĠstÅĻi": 1921,
      "ĠnÃ¡c": 1922,
      "ĠdlaÅĪ": 1923,
      "Ġjan": 1924,
      "Ġtrys": 1925,
      "Ġzhy": 1926,
      "Ġpes": 1927,
      "Ġlze": 1928,
      "Ġskvost": 1929,
      "ĠXXXA": 1930,
      "Ġvtem": 1931,
      "Ġau": 1932,
      "Ġvsi": 1933,
      "Ġblak": 1934,
      "Ġpur": 1935,
      "ĠhÅ¯m": 1936,
      "Ġbel": 1937,
      "Ġx": 1938,
      "ĠÄįu": 1939,
      "Ġkdos": 1940,
      "ĠvpÅĻed": 1941,
      "Ġstesk": 1942,
      "ĠhÅĻbi": 1943,
      "ĠtÅĻil": 1944,
      "ĠdÃŃl": 1945,
      "Ġknim": 1946,
      "Ġzpu": 1947,
      "Ġin": 1948,
      "ĠÄįo": 1949,
      "Ġmli": 1950,
      "ĠvstÃŃ": 1951,
      "Ġsej": 1952,
      "Ġvdi": 1953,
      "ĠvmÄĽ": 1954,
      "ĠÅĻec": 1955,
      "Ġsic": 1956,
      "Ġtich": 1957,
      "ĠvrÃ¡z": 1958,
      "ĠknÄĽÅ¾": 1959,
      "ĠzprÃ¡": 1960,
      "ĠzÅĻÃŃt": 1961,
      "ĠhrÃ¡l": 1962,
      "ĠsluÅ¾": 1963,
      "Ġvjed": 1964,
      "Ġjat": 1965,
      "Ġvstou": 1966,
      "Ġvnad": 1967,
      "Ġrost": 1968,
      "ĠlkÃ¡": 1969,
      "ĠknÄĽz": 1970,
      "Å¾e": 1971,
      "Ġhez": 1972,
      "Ġvlh": 1973,
      "ĠbÅĻi": 1974,
      "Ġjdi": 1975,
      "ĠmlÄį": 1976,
      "ĠtÃ¡n": 1977,
      "ÃŃt": 1978,
      "Ġvstal": 1979,
      "Ġskon": 1980,
      "ĠkÅ¯v": 1981,
      "vy": 1982,
      "ĠvsvÃ©": 1983,
      "ouÅ¡": 1984,
      "ĠtÄĽj": 1985,
      "Ġteh": 1986,
      "Ġsad": 1987,
      "ĠzvÄĽst": 1988,
      "Ġchmur": 1989,
      "Ġtlou": 1990,
      "Ġrd": 1991,
      "ĠÅ¾as": 1992,
      "ĠvÄĽÅ¡": 1993,
      "ĠvdÄĽÄį": 1994,
      "Ġdnem": 1995,
      "Ġplou": 1996,
      "Ġvte": 1997,
      "ĠslÃ½": 1998,
      "ĠÄįty": 1999,
      "Ġdna": 2000,
      "ĠpÃ¡d": 2001,
      "Ġsno": 2002,
      "ĠzlÃ½": 2003,
      "ĠchÃ©m": 2004,
      "Ġvse": 2005,
      "ĠsbÃŃ": 2006,
      "ĠtÅĻpyt": 2007,
      "Ġvmy": 2008,
      "Ġstla": 2009,
      "ĠpÄĽj": 2010,
      "Ġvkou": 2011,
      "ĠlÃ¡m": 2012,
      "Ġtiv": 2013,
      "Ġhvo": 2014,
      "ĠÅ¡tÃŃt": 2015,
      "Ġuz": 2016,
      "ĠAAAX": 2017,
      "vÄĽt": 2018,
      "ĠhluÄį": 2019,
      "Ġpli": 2020,
      "Ġzha": 2021,
      "Ġpas": 2022,
      "ĠmÅĻel": 2023,
      "Ġnny": 2024,
      "ĠsÃŃch": 2025,
      "Ġmon": 2026,
      "Ġkan": 2027,
      "ĠstÃ©m": 2028,
      "Ġlev": 2029,
      "Ġrte": 2030,
      "ĠoÄį": 2031,
      "Ã¡ch": 2032,
      "ĠAX": 2033,
      "Ġfr": 2034,
      "Ġrtech": 2035,
      "Ġvtm": 2036,
      "Ġtej": 2037,
      "Ġchlu": 2038,
      "Ġhon": 2039,
      "ĠtÅ¯m": 2040,
      "ĠvnÃŃÅ¾": 2041,
      "ĠrtÅ¯": 2042,
      "Ġkmet": 2043,
      "Ġbek": 2044,
      "Ġzvl": 2045,
      "Ġlad": 2046,
      "ĠvÅ¡ed": 2047,
      "Ġren": 2048,
      "Ġzbro": 2049,
      "Ġchva": 2050,
      "ĠABABAX": 2051,
      "ĠvÃ½s": 2052,
      "Ġvso": 2053,
      "ĠkÃ¡n": 2054,
      "ĠtÃ¡ch": 2055,
      "Ġslech": 2056,
      "Ġkup": 2057,
      "Ġlla": 2058,
      "Ġvry": 2059,
      "Ġvzbu": 2060,
      "ĠzÄįe": 2061,
      "ĠmlÃ¡d": 2062,
      "ĠÅĪu": 2063,
      "Ġzek": 2064,
      "Ġdvou": 2065,
      "Ġlic": 2066,
      "Ġlib": 2067,
      "ĠÅ¾eb": 2068,
      "ĠvsvÃ©m": 2069,
      "Ġzdvih": 2070,
      "Ġvrouc": 2071,
      "Ġnuv": 2072,
      "ĠdiÅ¾": 2073,
      "Ġkaz": 2074,
      "ĠvpÅĻÃŃ": 2075,
      "Ġstes": 2076,
      "ĠkÅĻes": 2077,
      "Ġspu": 2078,
      "Ġfal": 2079,
      "ĠlaÄį": 2080,
      "ĠmÃ¡t": 2081,
      "ĠÅ¾Å¯": 2082,
      "ĠÅĻÃŃch": 2083,
      "ĠjvÃŃ": 2084,
      "ĠvpÃŃ": 2085,
      "ĠmÅ¯Å¾": 2086,
      "ĠtÃ¡ÅĻ": 2087,
      "ĠniÅ¾": 2088,
      "ĠvdÄĽk": 2089,
      "Ġrev": 2090,
      "Ã¡n": 2091,
      "Ġksrd": 2092,
      "Ġclo": 2093,
      "Ġtur": 2094,
      "ĠzpÃ¡t": 2095,
      "ĠvÄįer": 2096,
      "ĠhlÃ©d": 2097,
      "Ġbej": 2098,
      "ĠsliÄį": 2099,
      "ĠtÃ½l": 2100,
      "Ġmdlo": 2101,
      "Ġfu": 2102,
      "ĠkvÃŃt": 2103,
      "ĠXXABBA": 2104,
      "Ġstry": 2105,
      "Ġkop": 2106,
      "ĠtvÃ½": 2107,
      "ĠplÃ¡l": 2108,
      "Ġvzdo": 2109,
      "ĠtÃŃch": 2110,
      "ĠklÃ½": 2111,
      "ĠtlÃ½": 2112,
      "ĠplÃ½": 2113,
      "Ġvnu": 2114,
      "ĠXXAAXX": 2115,
      "ĠvyÅ¡": 2116,
      "Ġnaz": 2117,
      "ĠlÃŃÄį": 2118,
      "ĠlÃ¡n": 2119,
      "ĠkÅĻ": 2120,
      "ĠnnÃ½ch": 2121,
      "ĠveÅ¡": 2122,
      "ĠtÃŃÅĻ": 2123,
      "Ġchlo": 2124,
      "ĠvplÃ¡": 2125,
      "Ġkev": 2126,
      "Ġvet": 2127,
      "ĠrÃ¡z": 2128,
      "Ġnos": 2129,
      "Ġspro": 2130,
      "Ġstvu": 2131,
      "ĠbÅĻeh": 2132,
      "Ġksm": 2133,
      "Ġcou": 2134,
      "ĠchlÃ©b": 2135,
      "ĠvtÄĽch": 2136,
      "ĠkÃ½s": 2137,
      "Ġvten": 2138,
      "ĠbdÄĽ": 2139,
      "ĠmÃŃm": 2140,
      "Ġkvi": 2141,
      "ĠbÃ¡m": 2142,
      "ĠÅ¡lech": 2143,
      "Ġchvat": 2144,
      "ĠÅĪÃ¡": 2145,
      "ĠpÅĻej": 2146,
      "ĠÅ¾ik": 2147,
      "ĠpeÄį": 2148,
      "Ġmoz": 2149,
      "Ġbat": 2150,
      "Ġtrud": 2151,
      "ĠvÄĽÄı": 2152,
      "ĠÅ¾ek": 2153,
      "ĠÅ¾eÅ¡": 2154,
      "Ġroj": 2155,
      "ĠvbÃŃ": 2156,
      "Ġztr": 2157,
      "ĠvÃ¡ch": 2158,
      "ĠstÅĻel": 2159,
      "Ġneh": 2160,
      "Ġvyh": 2161,
      "Ġvhlu": 2162,
      "ĠkÄįe": 2163,
      "ĠstÃ½ch": 2164,
      "Ġdol": 2165,
      "Ġzvi": 2166,
      "Ġzyk": 2167,
      "Ġprch": 2168,
      "Ġmov": 2169,
      "ĠÅ¥ast": 2170,
      "ĠXXXAXA": 2171,
      "ĠsÄįe": 2172,
      "ĠstrÃ©": 2173,
      "Ġznal": 2174,
      "Ġej": 2175,
      "Ġvzpla": 2176,
      "Ġzat": 2177,
      "Ġrech": 2178,
      "ĠsmÃ¡l": 2179,
      "Ġluh": 2180,
      "Ġsot": 2181,
      "Ġvhla": 2182,
      "ĠtnÃŃ": 2183,
      "Ġsob": 2184,
      "ĠXABAB": 2185,
      "Ġsmi": 2186,
      "Ġctnost": 2187,
      "ĠnÃ¡ÅĻ": 2188,
      "Ġkel": 2189,
      "ĠsÃŃÅ¡": 2190,
      "Ġdoj": 2191,
      "ĠpÃ¡s": 2192,
      "ĠstaÅĪ": 2193,
      "ĠstÅ¯j": 2194,
      "ĠÅ¾ÃŃch": 2195,
      "Ġpec": 2196,
      "ĠÄįnÃŃ": 2197,
      "Ġkap": 2198,
      "ĠlÃŃp": 2199,
      "Ġvslun": 2200,
      "Ġpoc": 2201,
      "Ġsnil": 2202,
      "ĠzÅĻÃŃÅ¡": 2203,
      "ĠtÄĽs": 2204,
      "Ġvech": 2205,
      "ĠvnichÅ¾": 2206,
      "ĠvmÃ©": 2207,
      "Ġmec": 2208,
      "ĠtmÄĽ": 2209,
      "ĠmrÃ¡": 2210,
      "Ġlech": 2211,
      "Ġnap": 2212,
      "ĠvlÅ¯": 2213,
      "ĠvklÃŃ": 2214,
      "ĠlÃ©b": 2215,
      "ĠjimÅ¾": 2216,
      "ĠpeÅ¾": 2217,
      "ĠcÃŃr": 2218,
      "Ġtud": 2219,
      "Ġklas": 2220,
      "Ġkst": 2221,
      "val": 2222,
      "Ġdom": 2223,
      "ĠzÃ¡m": 2224,
      "Ġnli": 2225,
      "Ġtlem": 2226,
      "ĠzvlÃ¡Å¡": 2227,
      "Ġhluk": 2228,
      "Ġsj": 2229,
      "ĠslÃ©z": 2230,
      "ĠÄįte": 2231,
      "Ġlli": 2232,
      "Ġzpra": 2233,
      "ĠvzkÅĻi": 2234,
      "ĠkvÃ¡m": 2235,
      "Ġkos": 2236,
      "Ġzdr": 2237,
      "ĠleÅ¾": 2238,
      "ĠvraÅ¥": 2239,
      "ĠzbraÅĪ": 2240,
      "Ġvple": 2241,
      "Ġliv": 2242,
      "Ġjov": 2243,
      "ĠpÃŃt": 2244,
      "Ġbl": 2245,
      "ABXB": 2246,
      "ĠhrÃ¡t": 2247,
      "Ġvja": 2248,
      "Ġpast": 2249,
      "Ġstih": 2250,
      "Ġchom": 2251,
      "rou": 2252,
      "ĠvÄĽst": 2253,
      "Ġzhou": 2254,
      "ĠvÅ¡ic": 2255,
      "ĠÅ¾et": 2256,
      "Ġvzm": 2257,
      "Ġdb": 2258,
      "Ġvpe": 2259,
      "ĠzaÄį": 2260,
      "ĠstÃ¡r": 2261,
      "Ġzlem": 2262,
      "Ġklen": 2263,
      "Ġvbou": 2264,
      "ĠhÅĻmÃŃ": 2265,
      "Ġvztek": 2266,
      "Ġkmen": 2267,
      "Ġdec": 2268,
      "Ġvic": 2269,
      "Ġhut": 2270,
      "ĠXABABX": 2271,
      "ĠdnÄĽ": 2272,
      "ĠmiÅ¾": 2273,
      "ĠtrÃ½": 2274,
      "Ġvml": 2275,
      "ĠprÃ¡h": 2276,
      "ĠpohÅĻ": 2277,
      "ĠdnÃ½": 2278,
      "ĠkÅ¡": 2279,
      "Ġjiz": 2280,
      "Ġvzla": 2281,
      "ĠsÃ©": 2282,
      "Ġvek": 2283,
      "ĠbÃ¡j": 2284,
      "Ġzho": 2285,
      "Ġhbi": 2286,
      "ĠpoÅ¡": 2287,
      "Ġpras": 2288,
      "Ġdrs": 2289,
      "ĠztÃ©": 2290,
      "ĠvÅĪa": 2291,
      "ĠhnÃ¡": 2292,
      "ĠÅĻo": 2293,
      "Ġdok": 2294,
      "ĠnÄĽch": 2295,
      "ĠtÃŃs": 2296,
      "Ġsech": 2297,
      "ĠmÄĽch": 2298,
      "ĠhÅĻÃ¡": 2299,
      "Ġvrah": 2300,
      "Ġvar": 2301,
      "Ġzkve": 2302,
      "ĠtlÃ¡": 2303,
      "ĠmÅĻÃŃt": 2304,
      "ĠsluÅ¡": 2305,
      "Ġvrch": 2306,
      "ĠnÃŃÅ¡": 2307,
      "ĠlÃ¡t": 2308,
      "Ġstez": 2309,
      "Ġmrou": 2310,
      "Ġrci": 2311,
      "Ġsvor": 2312,
      "to": 2313,
      "Ġlos": 2314,
      "ĠlÅ¯m": 2315,
      "Ġniv": 2316,
      "ĠspÄĽl": 2317,
      "Ġner": 2318,
      "et": 2319,
      "ĠÅ¾ÃŃz": 2320,
      "Ġzml": 2321,
      "Ġvkte": 2322,
      "ĠchÃ½m": 2323,
      "Ġzah": 2324,
      "Ġsluch": 2325,
      "ĠplÃ¡t": 2326,
      "ĠtÅĻÃŃÅ¡": 2327,
      "ĠvÃŃÄį": 2328,
      "Ġslal": 2329,
      "ĠsmÄĽs": 2330,
      "ĠvÄĽl": 2331,
      "ĠvrÃ¡s": 2332,
      "Ġjvy": 2333,
      "ĠmlÃ½": 2334,
      "ĠsprÃ¡": 2335,
      "Ġraj": 2336,
      "Ġav": 2337,
      "ĠspÄĽch": 2338,
      "ĠzvuÄį": 2339,
      "ĠlÃŃÅ¡": 2340,
      "ĠtÅĻÃ¡s": 2341,
      "ur": 2342,
      "Ġspal": 2343,
      "ĠhÅĻÃŃÅ¡": 2344,
      "Ġsf": 2345,
      "ĠctÃŃ": 2346,
      "Ġvyr": 2347,
      "Ġvzru": 2348,
      "Ġdic": 2349,
      "Ġnach": 2350,
      "Ġstrh": 2351,
      "ĠÅĪo": 2352,
      "ĠstÅĻÃ¡": 2353,
      "ĠzÃ¡Å¡": 2354,
      "ĠspÄĽÅ¡": 2355,
      "ĠmÃ¡j": 2356,
      "Ġfan": 2357,
      "ĠbdÃŃ": 2358,
      "ĠhÃ¡ch": 2359,
      "Ġmih": 2360,
      "ĠÅ¡ak": 2361,
      "Ġbrov": 2362,
      "Ġkom": 2363,
      "ĠmÄĽt": 2364,
      "ĠbÃŃt": 2365,
      "ĠÅ¡pat": 2366,
      "Ġhi": 2367,
      "Ġdev": 2368,
      "Ġzkou": 2369,
      "ĠznÃ¡s": 2370,
      "ĠXABBA": 2371,
      "ĠstÃ½m": 2372,
      "ĠbÄĽÅ¥": 2373,
      "Ġchyt": 2374,
      "Ġvbe": 2375,
      "ĠspÃ¡n": 2376,
      "ĠjeÅ¥": 2377,
      "Ġvtv": 2378,
      "ĠÅ¡Å¥a": 2379,
      "Ġvlu": 2380,
      "ĠblÃ¡z": 2381,
      "ĠÅ¾to": 2382,
      "Ġsmo": 2383,
      "Ġzlu": 2384,
      "ĠtvÅ¯r": 2385,
      "ĠpÅĻÃŃm": 2386,
      "Ġvhru": 2387,
      "ĠhÅĻmÄĽ": 2388,
      "Ġsple": 2389,
      "ĠÄįÃ¡t": 2390,
      "ĠmÄĽÅ¡": 2391,
      "Ġzkr": 2392,
      "ĠreÄį": 2393,
      "ĠslÅ¯": 2394,
      "Ġstan": 2395,
      "ĠpusÅ¥": 2396,
      "ĠdoÄį": 2397,
      "ĠtrÅ¯n": 2398,
      "ĠzmÃ¡": 2399,
      "ĠjvyÅ¡": 2400,
      "ĠcÃ¡": 2401,
      "Ġbran": 2402,
      "Ġhym": 2403,
      "ĠdneÅ¡": 2404,
      "Ġvmra": 2405,
      "Ġklou": 2406,
      "Ġslz": 2407,
      "Ġteb": 2408,
      "ĠvÄĽj": 2409,
      "ĠdÃ©l": 2410,
      "Ġskut": 2411,
      "ĠspÃ¡t": 2412,
      "Ġw": 2413,
      "ĠvznÄĽ": 2414,
      "ĠvlÃ©": 2415,
      "ĠÃºst": 2416,
      "Ġnoch": 2417,
      "ĠstÅ¯l": 2418,
      "Ġvprach": 2419,
      "ĠÅ¥an": 2420,
      "ĠkÅ¯ÅĪ": 2421,
      "Ġvmi": 2422,
      "Ġtkli": 2423,
      "Ġplat": 2424,
      "Ġkmit": 2425,
      "Ġbis": 2426,
      "ĠÅĻin": 2427,
      "Ġplach": 2428,
      "ĠkeÅĻ": 2429,
      "ĠpÅĻÃ¡l": 2430,
      "Ġchot": 2431,
      "Ġ20": 2432,
      "ĠmoÅĻ": 2433,
      "ĠdÃ©Å¡Å¥": 2434,
      "Ġlst": 2435,
      "ĠschvÃ¡": 2436,
      "Ġjit": 2437,
      "Ġvles": 2438,
      "Ġvda": 2439,
      "ĠÅ¾es": 2440,
      "Ġmot": 2441,
      "ĠvzrÅ¯": 2442,
      "ĠÅ¡in": 2443,
      "ĠAAXBBX": 2444,
      "Ġmlou": 2445,
      "Ġchyb": 2446,
      "ĠvpÅ¯": 2447,
      "Ġstud": 2448,
      "ĠzkÃ¡": 2449,
      "Ġki": 2450,
      "Ġstrou": 2451,
      "ĠvÃ¡b": 2452,
      "Ġkout": 2453,
      "nÃ©": 2454,
      "ĠchÃ¡ch": 2455,
      "Ġvyj": 2456,
      "Ġvtip": 2457,
      "Å¾ÃŃ": 2458,
      "ĠznÃ¡Å¡": 2459,
      "Ġvist": 2460,
      "Ġodv": 2461,
      "ĠzÃ¡ch": 2462,
      "Ġzji": 2463,
      "Ġstus": 2464,
      "ABX": 2465,
      "ĠvtvÃ¡ÅĻ": 2466,
      "ĠhÃ¡j": 2467,
      "ĠvsnÄĽ": 2468,
      "Ġzhas": 2469,
      "Ġclav": 2470,
      "Ġluj": 2471,
      "ĠchÅĻi": 2472,
      "Ġmas": 2473,
      "Ġrve": 2474,
      "ĠsvÅ¯d": 2475,
      "ĠdlÃ½ch": 2476,
      "Ġkryl": 2477,
      "ĠÄıas": 2478,
      "Ġvzly": 2479,
      "Ġstic": 2480,
      "Ġrec": 2481,
      "ĠpÃŃm": 2482,
      "an": 2483,
      "Ġspla": 2484,
      "Ġvsou": 2485,
      "ĠplÃ¡Å¡Å¥": 2486,
      "Ġzav": 2487,
      "Ġvci": 2488,
      "ĠtuÅ¾": 2489,
      "ĠXABBAX": 2490,
      "Ġsat": 2491,
      "ĠjvÃŃc": 2492,
      "ĠbÃ¡l": 2493,
      "ĠbrÃ¡z": 2494,
      "Ġstm": 2495,
      "ĠmÃ¡l": 2496,
      "ĠkÃ¡Å¡": 2497,
      "ĠÅ¾hou": 2498,
      "Ġlis": 2499,
      "ĠsnÄĽÅ¾": 2500,
      "ĠÅ¡pi": 2501,
      "Ġryb": 2502,
      "Ġhmo": 2503,
      "Ġkje": 2504,
      "ĠmnÃŃ": 2505,
      "Ġchi": 2506,
      "Ġchet": 2507,
      "ĠchraÅĪ": 2508,
      "Ġlich": 2509,
      "Ġel": 2510,
      "ĠtiÅ¡": 2511,
      "Ġstis": 2512,
      "Ġzte": 2513,
      "ĠzdrÃ¡v": 2514,
      "Ġmed": 2515,
      "Ġvzlet": 2516,
      "Ġlle": 2517,
      "Ġsvr": 2518,
      "ĠÅ¡lÃŃ": 2519,
      "ĠjÃ¡k": 2520,
      "Ġfor": 2521,
      "Ġfy": 2522,
      "Ġzja": 2523,
      "Ġkrov": 2524,
      "ĠdeÄį": 2525,
      "ĠÅ¡eÅĪ": 2526,
      "Ġtul": 2527,
      "ĠzdaÅ¾": 2528,
      "ĠblÃ©": 2529,
      "Ġdan": 2530,
      "Ġvab": 2531,
      "Ġhn": 2532,
      "ĠvÄįas": 2533,
      "ĠschÃ¡": 2534,
      "Ġnov": 2535,
      "ĠstÄĽn": 2536,
      "Ġvkro": 2537,
      "Ġpsal": 2538,
      "Ġsan": 2539,
      "ĠÅ¾iÅ¾": 2540,
      "Ġstek": 2541,
      "Ġhvoz": 2542,
      "lÃ½ch": 2543,
      "ĠzlÃ½ch": 2544,
      "cÃŃ": 2545,
      "ĠÅ¡leh": 2546,
      "Ġvme": 2547,
      "Ġdon": 2548,
      "ĠdosÅ¥": 2549,
      "lun": 2550,
      "Ġspat": 2551,
      "ĠkÅ¾i": 2552,
      "ĠklÃ¡Å¡": 2553,
      "Ġvob": 2554,
      "ĠpÃŃÅ¡": 2555,
      "Ġmost": 2556,
      "ĠdrÃ½ch": 2557,
      "Ġdvi": 2558,
      "ĠzdÃŃ": 2559,
      "Ġtrest": 2560,
      "Ġztu": 2561,
      "Ġvpou": 2562,
      "ĠcÅ¯v": 2563,
      "Ġer": 2564,
      "ĠtlÃŃ": 2565,
      "Ġzlost": 2566,
      "Ġlho": 2567,
      "Ġdoz": 2568,
      "Ġstroj": 2569,
      "ĠÄıa": 2570,
      "ĠsÃŃÄį": 2571,
      "Ġtlum": 2572,
      "ĠvÃŃs": 2573,
      "Ġvpu": 2574,
      "Ġchlap": 2575,
      "ĠsdÄĽ": 2576,
      "ĠvzlÃ©": 2577,
      "Ġbrat": 2578,
      "ĠdraÅ¾": 2579,
      "Ġmus": 2580,
      "Ġlud": 2581,
      "Ġslast": 2582,
      "ĠtÃ¡z": 2583,
      "ĠnÅ¯v": 2584,
      "ĠvzpÃŃ": 2585,
      "ĠsrÃ¡": 2586,
      "Ġhna": 2587,
      "Ġspor": 2588,
      "Ġstoj": 2589,
      "ĠnÃŃÄį": 2590,
      "Ġkul": 2591,
      "Ġnot": 2592,
      "ĠchÃ½ch": 2593,
      "ĠdvÅ¯r": 2594,
      "ĠsnÃŃt": 2595,
      "Ġnau": 2596,
      "Ġlel": 2597,
      "ĠÅĻÃŃc": 2598,
      "ĠtÄĽn": 2599,
      "Ġprin": 2600,
      "mou": 2601,
      "Ġmuk": 2602,
      "Ġzhlu": 2603,
      "Ġzej": 2604,
      "Ġbur": 2605,
      "ĠzpÅ¯": 2606,
      "ĠvhÃ¡": 2607,
      "Ġsha": 2608,
      "Ġvaz": 2609,
      "ĠkÅĻiv": 2610,
      "Ġvok": 2611,
      "ĠvnitÅĻ": 2612,
      "ĠÅ¡kle": 2613,
      "ĠvchrÃ¡": 2614,
      "Ġzpi": 2615,
      "Ġhry": 2616,
      "ĠuÅ¡": 2617,
      "Ġvzro": 2618,
      "Ġvzch": 2619,
      "ĠnnÃ½m": 2620,
      "ĠvmÃŃ": 2621,
      "ĠmÄĽr": 2622,
      "ĠmÃ¡Å¥": 2623,
      "Ġnam": 2624,
      "Ġvzem": 2625,
      "ĠÄįist": 2626,
      "Ġskla": 2627,
      "Ġvskut": 2628,
      "ĠsÃºs": 2629,
      "Ġvpla": 2630,
      "Ġspe": 2631,
      "ĠÅ¡Å¯": 2632,
      "ĠmÃ¡n": 2633,
      "ĠplÃ¡Å¡": 2634,
      "Ġpis": 2635,
      "ĠskvÃŃ": 2636,
      "ĠtÅĻeÅ¡": 2637,
      "ĠnÃ©st": 2638,
      "Ġjou": 2639,
      "Ġvzni": 2640,
      "Ġvkru": 2641,
      "ĠvÄĽÅ¾": 2642,
      "Ġzmr": 2643,
      "Ġdrost": 2644,
      "ĠkvÃ½": 2645,
      "ĠjdeÅ¡": 2646,
      "ĠkdeÅ¾": 2647,
      "Ġkj": 2648,
      "ĠduÅ¡": 2649,
      "Ġskrom": 2650,
      "Ġut": 2651,
      "ĠzraÄį": 2652,
      "Ġnnost": 2653,
      "Ġgr": 2654,
      "Ġrus": 2655,
      "ĠzvÄĽÅĻ": 2656,
      "ĠpsÃ¡": 2657,
      "ĠhvÃŃ": 2658,
      "ĠtÅĻÃŃm": 2659,
      "ĠjvÄĽt": 2660,
      "Ġkous": 2661,
      "Ġheb": 2662,
      "ĠnÃ¡n": 2663,
      "Ġzpr": 2664,
      "Ġvboj": 2665,
      "Ġspja": 2666,
      "Ġsig": 2667,
      "Ġstit": 2668,
      "Ġmnich": 2669,
      "Ġvsl": 2670,
      "Ġchol": 2671,
      "ĠvÃŃk": 2672,
      "ĠÅĻu": 2673,
      "ĠjÃŃÅ¡": 2674,
      "ĠzeÄı": 2675,
      "ĠbÄĽl": 2676,
      "ĠvbÄĽ": 2677,
      "Ġkryt": 2678,
      "Ġcno": 2679,
      "Ġzed": 2680,
      "Ġvdla": 2681,
      "ĠdÄĽd": 2682,
      "Ġvbu": 2683,
      "Ġmh": 2684,
      "Ġprsk": 2685,
      "ĠÅ¥Ã¡": 2686,
      "Ġtka": 2687,
      "ĠnoÅ¾": 2688,
      "ĠbÃ¡t": 2689,
      "ĠsÃŃÅĪ": 2690,
      "ĠvlasÅ¥": 2691,
      "Ġzdroj": 2692,
      "Ġhnal": 2693,
      "ĠÅ¡v": 2694,
      "Ġkho": 2695,
      "ĠvpÃŃs": 2696,
      "Ġsnech": 2697,
      "ĠhrÅ¯z": 2698,
      "Ġmin": 2699,
      "Ġzhlou": 2700,
      "ĠlÅ¯Å¾": 2701,
      "Ġzhro": 2702,
      "ĠksvÃ©": 2703,
      "Ġvbla": 2704,
      "Ġslib": 2705,
      "ĠÅ¡vi": 2706,
      "Ġdov": 2707,
      "Ġshla": 2708,
      "Ġsdu": 2709,
      "Ġmez": 2710,
      "ĠsplÃ¡": 2711,
      "ĠÄįar": 2712,
      "ĠvmÃ©m": 2713,
      "Ġznak": 2714,
      "ĠABC": 2715,
      "Ġsyl": 2716,
      "ĠÅĻist": 2717,
      "Ġvku": 2718,
      "ĠÅĻev": 2719,
      "Ġker": 2720,
      "Ġzet": 2721,
      "ĠÅ¡ÃŃp": 2722,
      "ĠkÃº": 2723,
      "Ġspl": 2724,
      "Ġdnu": 2725,
      "ĠznichÅ¾": 2726,
      "ĠzbÃ½": 2727,
      "Ġdnech": 2728,
      "Ġvhod": 2729,
      "Ġsce": 2730,
      "Ġvzra": 2731,
      "Ġvlet": 2732,
      "ĠmeÅĪ": 2733,
      "ĠnnÃ©m": 2734,
      "Ġkrut": 2735,
      "ĠpÅĻ": 2736,
      "Ġpne": 2737,
      "ĠvtrÃ¡": 2738,
      "ĠpÄĽst": 2739,
      "Ġstel": 2740,
      "ĠnÄĽmÅ¾": 2741,
      "Ġros": 2742,
      "Ġchc": 2743,
      "ĠsmrÅ¥": 2744,
      "Ġvpod": 2745,
      "Ġchej": 2746,
      "Ġchen": 2747,
      "ĠÅ¾eÅĪ": 2748,
      "ĠhÃ¡r": 2749,
      "Ġchly": 2750,
      "Ġdub": 2751,
      "ĠplÃ¡ÅĪ": 2752,
      "ĠbÃ¡z": 2753,
      "Ġptal": 2754,
      "Ġses": 2755,
      "Ġdvor": 2756,
      "Ġstor": 2757,
      "ĠvrÅ¯": 2758,
      "ĠlÃŃk": 2759,
      "ĠnoÅ¡": 2760,
      "ĠÃ¡l": 2761,
      "Ġvcho": 2762,
      "Ġzaj": 2763,
      "Ġkvas": 2764,
      "ĠhÅĻeb": 2765,
      "Ġtuj": 2766,
      "Ġvma": 2767,
      "ĠnÄĽz": 2768,
      "ĠvstÅĻe": 2769,
      "ĠruÅ¥": 2770,
      "ĠchÅĻe": 2771,
      "ĠÅ¡im": 2772,
      "Ġdlech": 2773,
      "Ġsse": 2774,
      "Ġzrov": 2775,
      "ĠzbÄĽ": 2776,
      "ĠviÅ¡": 2777,
      "ĠvlaÅ¡": 2778,
      "ĠleÅĪ": 2779,
      "ĠtvÃ¡r": 2780,
      "Ġslem": 2781,
      "ĠskÅĻe": 2782,
      "Ġvsva": 2783,
      "ĠsdÃŃ": 2784,
      "ĠzvÃ¡s": 2785,
      "ĠmdlÃ½": 2786,
      "ĠvnÃ¡s": 2787,
      "ĠÅĻel": 2788,
      "Ġjle": 2789,
      "Ġjek": 2790,
      "Ġzam": 2791,
      "Ġlka": 2792,
      "ĠvÅ¯z": 2793,
      "Ġknul": 2794,
      "ĠseÄį": 2795,
      "ĠruÅ¡": 2796,
      "ĠÄįÃŃst": 2797,
      "ĠtÅĻÃŃs": 2798,
      "Ġhyb": 2799,
      "ĠmdlÃ©": 2800,
      "Ġzer": 2801,
      "ĠstvÃ¡": 2802,
      "ĠvÃ¡r": 2803,
      "ĠvÄįel": 2804,
      "ĠmÅ¾ik": 2805,
      "ĠmlÃ©": 2806,
      "Ġvpl": 2807,
      "Ġblouz": 2808,
      "ĠmeÅ¡": 2809,
      "ĠzhlÃŃ": 2810,
      "ĠtÅ¯v": 2811,
      "ĠlÃ¡Å¡": 2812,
      "ĠsleÄį": 2813,
      "Ġpre": 2814,
      "Ġzdech": 2815,
      "Ġvjich": 2816,
      "Ġbly": 2817,
      "Ġprost": 2818,
      "Ġzmu": 2819,
      "ĠÅ¡var": 2820,
      "ĠhlÃŃd": 2821,
      "Ġpek": 2822,
      "ĠrÃ¡l": 2823,
      "Ġtros": 2824,
      "Ġhnus": 2825,
      "Ġston": 2826,
      "Ġsar": 2827,
      "Ġtrav": 2828,
      "nd": 2829,
      "ĠvsvÄĽt": 2830,
      "ĠtÅĻÃŃk": 2831,
      "ĠdÅĻi": 2832,
      "Ġzpod": 2833,
      "Ġpnou": 2834,
      "ĠchoÅ¥": 2835,
      "ĠchaÅ¥": 2836,
      "Ġdry": 2837,
      "Ġmrav": 2838,
      "Ġspad": 2839,
      "Ġshr": 2840,
      "ĠÅ¥u": 2841,
      "Ġsloup": 2842,
      "Ġzpa": 2843,
      "ĠtÃ½r": 2844,
      "ĠpouÅ¥": 2845,
      "ĠÄįtvr": 2846,
      "Ġluk": 2847,
      "ĠzkrÃ¡": 2848,
      "ĠÅ¡lÃ¡": 2849,
      "ĠveÄı": 2850,
      "ĠdÃ¡k": 2851,
      "ĠspÅĻÃ¡": 2852,
      "ĠbliÅ¾": 2853,
      "ĠveÅĪ": 2854,
      "Ġsvat": 2855,
      "ĠznÃ¡t": 2856,
      "ĠdÄĽn": 2857,
      "ĠÄįert": 2858,
      "Ġksmr": 2859,
      "Ġton": 2860,
      "Ġllo": 2861,
      "Ġrol": 2862,
      "Ġzin": 2863,
      "Ġzs": 2864,
      "Ġhni": 2865,
      "Ġzhu": 2866,
      "Ġshon": 2867,
      "ĠrÅ¯m": 2868,
      "Ġdus": 2869,
      "ĠdnÃ¡": 2870,
      "Ġjet": 2871,
      "Ġjdem": 2872,
      "ĠschÃ½": 2873,
      "Ġzev": 2874,
      "Ġdych": 2875,
      "Ġztem": 2876,
      "Ġslit": 2877,
      "Äįi": 2878,
      "ĠvkvÄĽ": 2879,
      "ĠvÅ¯m": 2880,
      "Ġtvy": 2881,
      "Ġlsti": 2882,
      "ĠjiÅ¡": 2883,
      "ĠfÃŃ": 2884,
      "Ġknout": 2885,
      "Ġspas": 2886,
      "Ġvtr": 2887,
      "Ġbry": 2888,
      "ĠABB": 2889,
      "ĠvznÃŃ": 2890,
      "ĠsmÄĽÅ¡": 2891,
      "ĠnÃ¡ct": 2892,
      "Ġnet": 2893,
      "Ġrun": 2894,
      "ĠAAAA": 2895,
      "Ġchcem": 2896,
      "lÃŃz": 2897,
      "Ġztm": 2898,
      "Ġsdru": 2899,
      "Ġvhloub": 2900,
      "Ġdrou": 2901,
      "Ġvran": 2902,
      "ĠbÄĽs": 2903,
      "ĠsmÄĽl": 2904,
      "Ġvde": 2905,
      "Ġlok": 2906,
      "ĠÅ¡est": 2907,
      "Ġptac": 2908,
      "ĠAXABBX": 2909,
      "Ġtrap": 2910,
      "ĠÅĻli": 2911,
      "ĠkÃ©n": 2912,
      "ĠvsnÃ¡": 2913,
      "ĠknÃ©": 2914,
      "ĠchlÃŃ": 2915,
      "ĠdeÅĪ": 2916,
      "Ġzdar": 2917,
      "ĠvsnÃ¡ch": 2918,
      "Ġvty": 2919,
      "Ġshle": 2920,
      "Ġtvi": 2921,
      "Ġvslad": 2922,
      "Ġgic": 2923,
      "Ġplav": 2924,
      "ĠhÅ¯l": 2925,
      "ĠpÅĻel": 2926,
      "Ġchti": 2927,
      "ĠlÃ¡Äį": 2928,
      "Ġbrem": 2929,
      "ĠtvÄĽ": 2930,
      "Ġvid": 2931,
      "ĠmÃŃÅ¡": 2932,
      "ĠhouÅ¡": 2933,
      "ĠABABBX": 2934,
      "Ġgy": 2935,
      "ĠlÅ¯v": 2936,
      "ĠÅ¡per": 2937,
      "ĠchlÃ½": 2938,
      "Ġzry": 2939,
      "Ġdcer": 2940,
      "ĠhÅĻb": 2941,
      "Ġhrst": 2942,
      "Ġlom": 2943,
      "ĠzÃŃs": 2944,
      "Ġmrz": 2945,
      "Ġsnou": 2946,
      "Ġrtem": 2947,
      "Ġzvyk": 2948,
      "ĠlÅ¾i": 2949,
      "Ġklek": 2950,
      "Ġzhr": 2951,
      "ĠpÃ¡ch": 2952,
      "Ġvlid": 2953,
      "Ġcla": 2954,
      "Ġzble": 2955,
      "Ġzit": 2956,
      "Ġkras": 2957,
      "ĠzvlÃ¡Å¡Å¥": 2958,
      "ĠkÅĻo": 2959,
      "ĠvbÃ¡": 2960,
      "ĠchÅ¯m": 2961,
      "ĠvzkÅĻik": 2962,
      "Ġcek": 2963,
      "Ġkams": 2964,
      "ĠsbÄĽ": 2965,
      "ĠXAAXBB": 2966,
      "Ġchut": 2967,
      "ĠtrÃ½z": 2968,
      "Ġnouc": 2969,
      "lÃ©d": 2970,
      "ĠstkvÄĽ": 2971,
      "ĠÅ¡ve": 2972,
      "Ġspol": 2973,
      "ĠXAAA": 2974,
      "ĠvÅ¾a": 2975,
      "Ġstl": 2976,
      "Ġrto": 2977,
      "Ġbz": 2978,
      "ĠdÃŃc": 2979,
      "ĠdrÃ½m": 2980,
      "ĠvzduÅ¡": 2981,
      "ĠÅ¡pa": 2982,
      "ĠlesÅ¥": 2983,
      "ĠÅĻas": 2984,
      "Ġsym": 2985,
      "Ġrtu": 2986,
      "ĠvprÃ¡": 2987,
      "Ġkvo": 2988,
      "Ġshlu": 2989,
      "Ġdnou": 2990,
      "Ġster": 2991,
      "Ġkav": 2992,
      "Ġvkraj": 2993,
      "Ġzmra": 2994,
      "Ġdlel": 2995,
      "Ġzbyl": 2996,
      "ĠdvÃŃ": 2997,
      "ĠlÃŃst": 2998,
      "ĠmÃ¡ch": 2999,
      "Ġzta": 3000,
      "Ġchru": 3001,
      "Ġvzty": 3002,
      "ĠvrÃ¡t": 3003,
      "ĠdrÃ¡Å¾": 3004,
      "ĠzÃºst": 3005,
      "Ġllu": 3006,
      "Ġnan": 3007,
      "ĠbÄĽt": 3008,
      "ĠvpÃ¡": 3009,
      "Ġtroc": 3010,
      "Ġzdob": 3011,
      "ĠvÃŃn": 3012,
      "ĠdÃ¡r": 3013,
      "Ġhrot": 3014,
      "ĠtÅĻes": 3015,
      "Ġzmat": 3016,
      "ĠvtmÃ¡ch": 3017,
      "ĠkvÃ©st": 3018,
      "ĠrdÃŃ": 3019,
      "ĠvÃ¡z": 3020,
      "Ġzblou": 3021,
      "Ġvc": 3022,
      "ĠlÃŃt": 3023,
      "Ġvnoc": 3024,
      "ĠvzkÅĻÃŃ": 3025,
      "Ġvzor": 3026,
      "Ġzvou": 3027,
      "Ġchor": 3028,
      "ĠÅ¡lÃ½ch": 3029,
      "ĠstrÅ¯": 3030,
      "Ġchvo": 3031,
      "Ġzep": 3032,
      "ĠtÃ³n": 3033,
      "Ġzpup": 3034,
      "Ġtvar": 3035,
      "ĠtlÃ½ch": 3036,
      "Ġmit": 3037,
      "Ġryt": 3038,
      "ĠzrÅ¯": 3039,
      "ĠstÅ¯m": 3040,
      "ĠteÅĻ": 3041,
      "nech": 3042,
      "ĠÅ¡ad": 3043,
      "ĠvklÃŃn": 3044,
      "Ġvjas": 3045,
      "ĠtkÃ¡": 3046,
      "Ġmlad": 3047,
      "Ġ21": 3048,
      "ĠÅĪÅ¯": 3049,
      "Ġspr": 3050,
      "Ġvhu": 3051,
      "ĠraÄį": 3052,
      "ĠstÃ¡ch": 3053,
      "Ġzmar": 3054,
      "Ġpruh": 3055,
      "Ġtep": 3056,
      "Ġsup": 3057,
      "Ġcov": 3058,
      "Ġztich": 3059,
      "ĠÅ¾d": 3060,
      "ĠleÅ¥": 3061,
      "ĠpouÅ¡Å¥": 3062,
      "Ġchlou": 3063,
      "Ġsvla": 3064,
      "ĠnichÅ¾": 3065,
      "XAX": 3066,
      "Ġskvou": 3067,
      "Ġsc": 3068,
      "ĠvchÃ¡": 3069,
      "ĠAAXXBB": 3070,
      "ĠchvÄĽj": 3071,
      "Ġtos": 3072,
      "Ġvkle": 3073,
      "Ġmsti": 3074,
      "Ġskryt": 3075,
      "ĠzÄįer": 3076,
      "Ġstly": 3077,
      "Ġbzu": 3078,
      "Ġnnu": 3079,
      "ĠtmÃŃ": 3080,
      "ho": 3081,
      "ĠÄįÃ¡r": 3082,
      "Ġvznes": 3083,
      "Ġbech": 3084,
      "Ġvstu": 3085,
      "Ġshro": 3086,
      "Ġvzi": 3087,
      "ĠbrÃ¡k": 3088,
      "Ġhvi": 3089,
      "Ġsep": 3090,
      "ĠsmÃ½": 3091,
      "Ġvkli": 3092,
      "Ġrin": 3093,
      "ĠchlÃ¡": 3094,
      "Ġsply": 3095,
      "ĠsÃ¡t": 3096,
      "Ġbri": 3097,
      "ĠkzÃ¡": 3098,
      "ĠsnÃ¡ch": 3099,
      "Ġvmu": 3100,
      "Ġskrz": 3101,
      "Ġstoup": 3102,
      "ĠbrÃ¡t": 3103,
      "ĠvstaÅĪ": 3104,
      "Ġfri": 3105,
      "Ġvhr": 3106,
      "Ġvprou": 3107,
      "ĠsmÃ¡t": 3108,
      "ĠkÅĻeh": 3109,
      "ĠhvÃŃz": 3110,
      "Ġoc": 3111,
      "Ġsyt": 3112,
      "Ġfau": 3113,
      "ĠvztÃ¡": 3114,
      "ĠpÅĻÃŃz": 3115,
      "Ġksp": 3116,
      "ĠvchvÃŃ": 3117,
      "Ġcar": 3118,
      "Ġstev": 3119,
      "Ġcud": 3120,
      "Ġhlub": 3121,
      "Ġkch": 3122,
      "Ġpej": 3123,
      "qu": 3124,
      "ĠsÄį": 3125,
      "ĠdeÅ¾": 3126,
      "ĠdÃ¡ÅĻ": 3127,
      "Ġknih": 3128,
      "ĠsklÃŃ": 3129,
      "Ġsnes": 3130,
      "Ġvtou": 3131,
      "is": 3132,
      "ĠspÅĻe": 3133,
      "ĠzvÃ½": 3134,
      "Ġjlep": 3135,
      "ĠptÃ¡Äį": 3136,
      "jal": 3137,
      "ĠtmÃ¡ch": 3138,
      "ĠnÄĽt": 3139,
      "ĠmrÅ¡": 3140,
      "ĠÄįtve": 3141,
      "Ġske": 3142,
      "ĠstkvÃŃ": 3143,
      "Ġvhrob": 3144,
      "ĠvdÃŃ": 3145,
      "Ġmut": 3146,
      "ĠhrÃ¡d": 3147,
      "Ġdes": 3148,
      "ĠjlÃŃ": 3149,
      "vÃ¡t": 3150,
      "ĠnnÃŃm": 3151,
      "Ġdlil": 3152,
      "ĠvzplÃ¡l": 3153,
      "ĠlaÅĪ": 3154,
      "Ġqu": 3155,
      "ĠzÃŃÅ¡": 3156,
      "Ġzur": 3157,
      "Ġvzej": 3158,
      "Ġvbi": 3159,
      "Ġom": 3160,
      "ĠkpÅĻe": 3161,
      "ĠdÅ¾": 3162,
      "ĠvÄĽd": 3163,
      "ĠpÅĻedc": 3164,
      "Ġzkla": 3165,
      "Ġtisk": 3166,
      "ĠhlÃ½ch": 3167,
      "ĠÃ¡n": 3168,
      "ĠXAABXB": 3169,
      "ĠvzÃŃt": 3170,
      "ĠniÅ¡": 3171,
      "Ġgro": 3172,
      "ĠmlÃ½n": 3173,
      "Ġrob": 3174,
      "Ġjih": 3175,
      "Ġbok": 3176,
      "Ġsru": 3177,
      "Ġkok": 3178,
      "ĠtÄĽt": 3179,
      "ĠnÅ¯Å¾": 3180,
      "Ġvzpom": 3181,
      "ĠktÃ©": 3182,
      "Ġzjas": 3183,
      "Ġsja": 3184,
      "Ġtrs": 3185,
      "Ġoj": 3186,
      "ĠtÃŃk": 3187,
      "Ġih": 3188,
      "Ġjsouc": 3189,
      "ĠÅ¡tva": 3190,
      "ĠrÃ¡Å¾": 3191,
      "Ġkvil": 3192,
      "ĠstrÃ½ch": 3193,
      "ĠshlÃŃ": 3194,
      "ĠsnÄĽm": 3195,
      "ĠvÄįa": 3196,
      "Ġak": 3197,
      "Ġzpro": 3198,
      "Ġstrun": 3199,
      "ĠtÃ½Å¾": 3200,
      "Ġzbi": 3201,
      "Ġstrast": 3202,
      "ĠnÃ¡k": 3203,
      "ĠÄįeÅ¡": 3204,
      "Ġraz": 3205,
      "ĠtÃ¡Å¡": 3206,
      "Ġvden": 3207,
      "ĠÅ¥al": 3208,
      "Ġrva": 3209,
      "ĠvzÅĪa": 3210,
      "ĠmnoÅ¾": 3211,
      "Ġskryl": 3212,
      "ĠjmÄĽ": 3213,
      "ĠsprÃ¡v": 3214,
      "Ġmle": 3215,
      "Ġzbroj": 3216,
      "Ġcin": 3217,
      "Ġah": 3218,
      "Ġlon": 3219,
      "ĠrÃ¡n": 3220,
      "Ġzkad": 3221,
      "Ġvsluch": 3222,
      "ĠprÃ¡v": 3223,
      "ĠrÃ¡Å¡": 3224,
      "ĠÅ¡ÃŃj": 3225,
      "ĠmÃ¡k": 3226,
      "Ġvzbou": 3227,
      "ĠmÄĽÅ¥": 3228,
      "Ġsos": 3229,
      "ĠÄįan": 3230,
      "Ġlup": 3231,
      "ĠmÄĽn": 3232,
      "ĠnÃ¡t": 3233,
      "mut": 3234,
      "Ġsul": 3235,
      "Ġdmou": 3236,
      "ĠkcÃŃ": 3237,
      "Ġbub": 3238,
      "ĠkÅĻiÅ¡": 3239,
      "ĠzÃ¡Å¡Å¥": 3240,
      "Ġrce": 3241,
      "ĠviÄı": 3242,
      "Ġstol": 3243,
      "ĠvaÅ¥": 3244,
      "Ġkpa": 3245,
      "ĠtouÅ¾": 3246,
      "ĠvnÄĽj": 3247,
      "ka": 3248,
      "ĠkoÄį": 3249,
      "ĠtÅĻit": 3250,
      "ĠrtÃŃ": 3251,
      "ĠpÃŃr": 3252,
      "ĠvpÄĽ": 3253,
      "Ġvstra": 3254,
      "ĠstrÃ½m": 3255,
      "ĠzahÅĻ": 3256,
      "ĠnÃ¡v": 3257,
      "ĠsrÃ¡z": 3258,
      "Ġrmut": 3259,
      "ĠkrÄį": 3260,
      "ĠbÃŃm": 3261,
      "Ġnep": 3262,
      "Ġslep": 3263,
      "ĠbrÃ½ch": 3264,
      "Ġtuch": 3265,
      "Ġryk": 3266,
      "Ġkrad": 3267,
      "Ġjra": 3268,
      "Ġchech": 3269,
      "ĠstvÃ©": 3270,
      "ĠzvrÃ¡": 3271,
      "ĠvpouÅ¡": 3272,
      "ĠÅ¡ed": 3273,
      "ĠlÃ¡c": 3274,
      "ĠtkvÃŃ": 3275,
      "Ġtles": 3276,
      "Ġdam": 3277,
      "Ġkrot": 3278,
      "Ġpluh": 3279,
      "ĠlosÅ¥": 3280,
      "ĠplaÄį": 3281,
      "ĠklÃ½ch": 3282,
      "Ġgan": 3283,
      "Ġhoun": 3284,
      "Ġvba": 3285,
      "ĠdnÃ½ch": 3286,
      "ĠrdÄĽ": 3287,
      "Ġskli": 3288,
      "ĠÅ¾lou": 3289,
      "ĠlaÅ¡": 3290,
      "Ġsuk": 3291,
      "Ġvyp": 3292,
      "Ġmyl": 3293,
      "Ġvhra": 3294,
      "ĠdÅ¯v": 3295,
      "ĠzlÃ½m": 3296,
      "Ġvzdych": 3297,
      "ĠmuÅ¡": 3298,
      "Ġban": 3299,
      "ĠhlÃ½m": 3300,
      "ĠstÃ½s": 3301,
      "Ġvzma": 3302,
      "ĠseÅ¡": 3303,
      "ABC": 3304,
      "Ġmis": 3305,
      "Ġmlk": 3306,
      "ĠABCABC": 3307,
      "ĠjeÄį": 3308,
      "Ġkdu": 3309,
      "ĠvzÃŃ": 3310,
      "Ġron": 3311,
      "Ġskok": 3312,
      "ĠznÃŃÅ¾": 3313,
      "ĠnÃ¡l": 3314,
      "Ġhaj": 3315,
      "ĠslÃ¡b": 3316,
      "ĠslÃŃÅ¡": 3317,
      "XXB": 3318,
      "Ġnas": 3319,
      "ĠÅ¡al": 3320,
      "Ġpuk": 3321,
      "ĠkÅ¡ti": 3322,
      "ĠzÅĪa": 3323,
      "ĠtÅĻel": 3324,
      "Ġvbez": 3325,
      "Ġnus": 3326,
      "ĠkvÅ¯": 3327,
      "XXX": 3328,
      "Ġkna": 3329,
      "Ġzes": 3330,
      "Ġvzo": 3331,
      "ĠvÃ©st": 3332,
      "ĠshÃ½": 3333,
      "ĠnÃŃmÅ¾": 3334,
      "ĠdlÃŃm": 3335,
      "ĠAXABXB": 3336,
      "ĠvtvÃ©": 3337,
      "Ġprah": 3338,
      "ĠhlÃ¡s": 3339,
      "Ġzad": 3340,
      "Ġmru": 3341,
      "ĠdlÃ¡k": 3342,
      "Ġrval": 3343,
      "ĠptÃ¡m": 3344,
      "ĠÄįiv": 3345,
      "ĠksvÄĽ": 3346,
      "ĠABACCB": 3347,
      "Ġstin": 3348,
      "Ġlip": 3349,
      "ros": 3350,
      "ĠloÅ¾": 3351,
      "ĠÄįiÅĪ": 3352,
      "Ġpych": 3353,
      "ĠoÅ¡": 3354,
      "ĠkÃ©s": 3355,
      "ĠsÃ¡l": 3356,
      "ĠvtÄĽÅ¾": 3357,
      "Ġskvr": 3358,
      "ĠktÄĽ": 3359,
      "ĠÄįeÅ¾": 3360,
      "ĠkÃ¡ÅĻ": 3361,
      "ĠtmÃ¡m": 3362,
      "Ġjist": 3363,
      "ĠpÅĻiz": 3364,
      "ĠzbÃŃ": 3365,
      "Ġvzcho": 3366,
      "ĠcÃ½ch": 3367,
      "Ġvnej": 3368,
      "ĠvaÄį": 3369,
      "ĠkouÅĻ": 3370,
      "ĠjdÄĽ": 3371,
      "ĠÅ¥o": 3372,
      "ĠvtvÃ©m": 3373,
      "ĠkÃ¡t": 3374,
      "ĠzdvÃŃ": 3375,
      "ĠchuÅ¥": 3376,
      "ĠzkvÃ©": 3377,
      "ĠvÄįi": 3378,
      "ĠÅ¡lÃ½": 3379,
      "ĠsuÄı": 3380,
      "Ġzpe": 3381,
      "Ġdral": 3382,
      "ĠvmÃ¡": 3383,
      "ĠchvÄĽt": 3384,
      "Ġhvozd": 3385,
      "Ġvous": 3386,
      "ĠhraÄį": 3387,
      "Ġtluk": 3388,
      "Ġvjiz": 3389,
      "Ġnin": 3390,
      "Ġuc": 3391,
      "ĠdouÅ¡": 3392,
      "ĠbÃ¡Å¡": 3393,
      "Ġskrov": 3394,
      "Å¡i": 3395,
      "ĠkÃ½v": 3396,
      "Ġkpra": 3397,
      "ĠveÄį": 3398,
      "Ġloup": 3399,
      "Ġpij": 3400,
      "ĠÃºc": 3401,
      "ĠtÅĻesk": 3402,
      "vÃ½": 3403,
      "Ġnni": 3404,
      "ĠjitÅĻ": 3405,
      "Ġchud": 3406,
      "Ġbouk": 3407,
      "Ġzbyt": 3408,
      "Ġkji": 3409,
      "ry": 3410,
      "Ġjsy": 3411,
      "ĠpiÅ¡": 3412,
      "Ġmha": 3413,
      "ĠvzÃ½": 3414,
      "ĠmÃŃÅĪ": 3415,
      "ĠvtÃŃ": 3416,
      "Ġen": 3417,
      "Ġpluk": 3418,
      "Ġvoh": 3419,
      "ĠmÄĽÅĻ": 3420,
      "ĠshÅ¯": 3421,
      "ĠÄįnÄĽ": 3422,
      "Ġvble": 3423,
      "Ġlym": 3424,
      "ĠvzdÄĽ": 3425,
      "ĠprÃ½Å¡": 3426,
      "ĠchtÃŃt": 3427,
      "ĠleÅ¡": 3428,
      "ĠzpÅĻÃŃ": 3429,
      "Ġvnik": 3430,
      "ĠÅ¡ku": 3431,
      "ĠvznÄĽt": 3432,
      "ĠdiÅ¡": 3433,
      "ĠsmÃŃr": 3434,
      "Ġser": 3435,
      "ĠlÃ¡k": 3436,
      "ĠtÃ¡l": 3437,
      "ĠvslÃ¡": 3438,
      "ĠvÅ¾Ã¡": 3439,
      "ĠÄıte": 3440,
      "ĠÄįÃ¡st": 3441,
      "ĠÅĻÃŃd": 3442,
      "Ġsrov": 3443,
      "ĠzkvÄĽ": 3444,
      "ĠklÃŃÄį": 3445,
      "Ġroh": 3446,
      "Ġmet": 3447,
      "ĠfrÃ¡": 3448,
      "Ġdrem": 3449,
      "ĠzÅĻÃŃd": 3450,
      "Ġrvou": 3451,
      "ÅĻad": 3452,
      "ĠjÃŃz": 3453,
      "ĠvÃŃt": 3454,
      "ĠsvÃ¡r": 3455,
      "Ġvsmut": 3456,
      "ĠpÅĻil": 3457,
      "Ġstlo": 3458,
      "Ġchro": 3459,
      "ĠdÃ©Äį": 3460,
      "Ġcer": 3461,
      "ĠrtÅ¯m": 3462,
      "ĠhÃ¡Å¡": 3463,
      "ĠshÃ¡": 3464,
      "Ġvsmr": 3465,
      "Ġzhoub": 3466,
      "Ġtik": 3467,
      "Ġvlak": 3468,
      "Ġvpar": 3469,
      "Ġtrub": 3470,
      "Ġsvy": 3471,
      "Ġduj": 3472,
      "ĠchÃ¡Å¡": 3473,
      "ĠsÅĪ": 3474,
      "Ġkod": 3475,
      "Ġhnou": 3476,
      "ĠlÃ¡ÅĻ": 3477,
      "ĠknÃŃÅ¾": 3478,
      "ĠrÃ¡ÅĻ": 3479,
      "Ġzpou": 3480,
      "ĠvmlÃ¡": 3481,
      "ĠÅĻÃ¡n": 3482,
      "Ġvzka": 3483,
      "Ġcech": 3484,
      "Ġboun": 3485,
      "Ġvre": 3486,
      "Ġfer": 3487,
      "Ġslek": 3488,
      "ĠvÅĻÃŃt": 3489,
      "Ġhmy": 3490,
      "Ġbav": 3491,
      "ĠvÅĻes": 3492,
      "ĠtiÅ¾": 3493,
      "ĠXAXAXA": 3494,
      "Ġhev": 3495,
      "ĠrouÅ¡": 3496,
      "Ġtmu": 3497,
      "ĠÃ©": 3498,
      "Ġvzpou": 3499,
      "ĠhÅĻmo": 3500,
      "ĠdÄĽÄį": 3501,
      "Ġvkout": 3502,
      "Ġmraz": 3503,
      "Ġvtma": 3504,
      "ĠsnÅ¯m": 3505,
      "Ġbas": 3506,
      "Ġlau": 3507,
      "Ġvos": 3508,
      "ĠvlÃŃc": 3509,
      "Ġcvr": 3510,
      "Ġkvla": 3511,
      "ĠbrÃ½m": 3512,
      "ĠctÄĽ": 3513,
      "ĠnÃ¡Äį": 3514,
      "ĠkdÃŃ": 3515,
      "ĠtÃŃc": 3516,
      "ĠkprÃ¡": 3517,
      "Ġvzhled": 3518,
      "ĠlÅ¾ÃŃ": 3519,
      "Ġpus": 3520,
      "ĠrÅ¯st": 3521,
      "Ġfou": 3522,
      "ĠrÅ¯Å¾": 3523,
      "Ġvmou": 3524,
      "ĠslÃ¡s": 3525,
      "ĠdÃ³": 3526,
      "Ġrot": 3527,
      "ĠhÃ¡v": 3528,
      "ĠtÄĽÅ¡": 3529,
      "Ġvoz": 3530,
      "ĠvÃ½z": 3531,
      "Ġhel": 3532,
      "ĠvhruÄı": 3533,
      "Ġcvi": 3534,
      "ĠpsÃ¡t": 3535,
      "ĠmdlÃ¡": 3536,
      "ĠÅ¡tvÃ¡": 3537,
      "Ġchrem": 3538,
      "ĠABACBC": 3539,
      "ĠAAXBXB": 3540,
      "ĠsÅ¾e": 3541,
      "Ġplam": 3542,
      "ĠvklÃ¡": 3543,
      "Ġkvap": 3544,
      "ĠnÃ©Äį": 3545,
      "Ġfon": 3546,
      "ĠstÅĻ": 3547,
      "Ġnai": 3548,
      "ĠksmÃŃ": 3549,
      "Ġcez": 3550,
      "ĠtuÅ¥": 3551,
      "ĠlÃ©k": 3552,
      "ĠvkvÄĽt": 3553,
      "Ġkslun": 3554,
      "ĠstmÃŃ": 3555,
      "Ġsop": 3556,
      "ĠstÃ½ÅĻ": 3557,
      "Ġvcha": 3558,
      "Ġam": 3559,
      "Ġstiv": 3560,
      "ĠkaÅ¡": 3561,
      "Ġmund": 3562,
      "Ġrys": 3563,
      "ĠbÃ¡n": 3564,
      "ĠpiÄį": 3565,
      "Ġdeb": 3566,
      "Ġkhro": 3567,
      "ĠdÅ¾b": 3568,
      "Ġrab": 3569,
      "ĠÄįiÅ¡": 3570,
      "ĠstÃ¡n": 3571,
      "ĠtvÃŃch": 3572,
      "ĠABABXB": 3573,
      "ĠsÃ¡ch": 3574,
      "ĠstrÃ¡ÅĪ": 3575,
      "ĠspÅĻÃŃ": 3576,
      "ĠkÃ¡s": 3577,
      "ĠchÃ¡z": 3578,
      "Ġdvoj": 3579,
      "Ġzly": 3580,
      "ĠkaÅĻ": 3581,
      "ĠÅ¾ij": 3582,
      "Ġet": 3583,
      "ĠdrÅ¾": 3584,
      "re": 3585,
      "ĠkÄįi": 3586,
      "Ġstrov": 3587,
      "ĠABCC": 3588,
      "Ġpri": 3589,
      "ĠdeÅĻ": 3590,
      "ĠXAA": 3591,
      "Ġzpla": 3592,
      "Ġbre": 3593,
      "ĠÅ¾ert": 3594,
      "Ġchan": 3595,
      "Ġviv": 3596,
      "Ġzbled": 3597,
      "ĠpÅĻijÄı": 3598,
      "ĠnitÅĻ": 3599,
      "ĠÅ¾va": 3600,
      "Ġgen": 3601,
      "Ġmlh": 3602,
      "ĠÅ¡kol": 3603,
      "Ġtsk": 3604,
      "Ġzvr": 3605,
      "Ġdrah": 3606,
      "ĠvhouÅ¡": 3607,
      "Ġschy": 3608,
      "ĠÅ¡ka": 3609,
      "ĠtuÄį": 3610,
      "ĠÄįiÄį": 3611,
      "Ġflo": 3612,
      "Ġlout": 3613,
      "Ġkvr": 3614,
      "Ġsroz": 3615,
      "Ġlly": 3616,
      "Ġmej": 3617,
      "Ġvplen": 3618,
      "ĠlÃŃÅĻ": 3619,
      "ĠvprÃ¡z": 3620,
      "ĠhÃ¡Äį": 3621,
      "Ġvnes": 3622,
      "ĠlhÃ¡": 3623,
      "ĠlÃ©t": 3624,
      "Ġvsnech": 3625,
      "ĠvsvÃ½ch": 3626,
      "ĠvkrÃ¡t": 3627,
      "ĠzÄį": 3628,
      "ĠpÄĽn": 3629,
      "Ġnar": 3630,
      "Ġshor": 3631,
      "ĠÅ¥te": 3632,
      "Ġvprav": 3633,
      "Ġmur": 3634,
      "ĠÄįÃŃc": 3635,
      "Ġvmla": 3636,
      "Ġcle": 3637,
      "ĠmÃ¡Å¾": 3638,
      "ĠzblÃŃz": 3639,
      "Ġtrok": 3640,
      "ĠÅĻiÄį": 3641,
      "ĠvdÅ¯": 3642,
      "ĠvyÅĻ": 3643,
      "Ġsedm": 3644,
      "Ġvzlyk": 3645,
      "ĠÄįap": 3646,
      "Ġvhor": 3647,
      "Ġvspo": 3648,
      "ĠAABXB": 3649,
      "Ġzlob": 3650,
      "ĠskrÃ½Å¡": 3651,
      "Ġtar": 3652,
      "ĠzlÃ¡s": 3653,
      "Ġmhou": 3654,
      "Ġjev": 3655,
      "ĠtÄĽr": 3656,
      "ĠvlaÅ¾": 3657,
      "ĠdrÃ©m": 3658,
      "Ġdluh": 3659,
      "ĠbÃ½m": 3660,
      "Ġmer": 3661,
      "ĠdlÃ½m": 3662,
      "Ġstvem": 3663,
      "ĠsmÃŃm": 3664,
      "Ġvlk": 3665,
      "ĠvaÅ¾": 3666,
      "Ġzdlou": 3667,
      "Ġjun": 3668,
      "ĠÅ¾iÄį": 3669,
      "Ġpiv": 3670,
      "Ġdri": 3671,
      "Ġsbra": 3672,
      "Ġzez": 3673,
      "ĠÅĻÃŃk": 3674,
      "Ġzrn": 3675,
      "Ġzach": 3676,
      "ĠzvÅ¯": 3677,
      "Ġzbou": 3678,
      "Ġnis": 3679,
      "ĠvsmÃŃ": 3680,
      "ĠbÅĻit": 3681,
      "ĠhrÃ¡z": 3682,
      "Ġplul": 3683,
      "ĠvztÃ½": 3684,
      "ĠstlÃ¡": 3685,
      "ĠtÅĻti": 3686,
      "Ġpach": 3687,
      "ĠsÅĪa": 3688,
      "ĠpÅĻa": 3689,
      "ĠvzpÅĻÃŃ": 3690,
      "ĠnouÅ¥": 3691,
      "Ġvnuk": 3692,
      "ĠÅĻej": 3693,
      "Ġzkro": 3694,
      "ĠkmÄĽ": 3695,
      "ĠvÃŃd": 3696,
      "ĠzÃ¡k": 3697,
      "Ġkrej": 3698,
      "ĠcÃ½m": 3699,
      "ĠmÅ¡i": 3700,
      "ĠvznÃ©": 3701,
      "Ġsah": 3702,
      "Ġdep": 3703,
      "ĠvÅ¡tÄĽ": 3704,
      "ĠzmÃ©": 3705,
      "ĠhÅĻÃŃÄį": 3706,
      "ĠspouÅ¡": 3707,
      "Ġnah": 3708,
      "ĠÅĻve": 3709,
      "Ġrag": 3710,
      "ĠpÅĻÃŃt": 3711,
      "Ġvzda": 3712,
      "ĠmÃŃst": 3713,
      "Ġshni": 3714,
      "Ġschu": 3715,
      "ĠvnoÄį": 3716,
      "ĠkhvÄĽz": 3717,
      "ĠsÅĻÃŃ": 3718,
      "Ġpech": 3719,
      "Ġdlesk": 3720,
      "ĠbÃ½ch": 3721,
      "Ġkvy": 3722,
      "ĠspÄĽj": 3723,
      "ĠznÃŃt": 3724,
      "ĠdÄĽk": 3725,
      "Ġbah": 3726,
      "ĠvÃ¡k": 3727,
      "Ġvrab": 3728,
      "vÃ½m": 3729,
      "ĠbÃŃn": 3730,
      "ĠtÅĻen": 3731,
      "Ġhos": 3732,
      "ĠsnÃ©": 3733,
      "ĠtrÃ©": 3734,
      "Ġsok": 3735,
      "ĠdlaÅ¾": 3736,
      "ĠpÅĻen": 3737,
      "Ġvdru": 3738,
      "Ġzkra": 3739,
      "nul": 3740,
      "ĠXXAXAX": 3741,
      "ĠtÄĽk": 3742,
      "ĠÅ¡ev": 3743,
      "Ġsin": 3744,
      "ĠsteÄį": 3745,
      "Ġbyls": 3746,
      "ĠvsÃŃÅĪ": 3747,
      "ĠdvÃ¡b": 3748,
      "ĠstmÄĽ": 3749,
      "Ġlvi": 3750,
      "ĠnÃŃc": 3751,
      "ĠbuÅ¥": 3752,
      "Ġsvaz": 3753,
      "Ġvchlad": 3754,
      "Ġvsu": 3755,
      "Ġplen": 3756,
      "ĠzÅĻej": 3757,
      "ĠÅ¡kÅ¯d": 3758,
      "ĠrvÃ¡t": 3759,
      "ĠsÃŃÅ¥": 3760,
      "ĠfÃ¡m": 3761,
      "ĠÄįat": 3762,
      "Ġvdlou": 3763,
      "Ġzik": 3764,
      "Ġdout": 3765,
      "ĠrÅ¯v": 3766,
      "Ġzhor": 3767,
      "ĠdliÄį": 3768,
      "Ġzmoc": 3769,
      "ĠzÅ¡e": 3770,
      "Ġkyn": 3771,
      "ĠvyÄį": 3772,
      "Ġ22": 3773,
      "ĠpasÅ¥": 3774,
      "ĠbÃ¡k": 3775,
      "Ġgli": 3776,
      "Ġsval": 3777,
      "Ġzvla": 3778,
      "ĠknÃ½": 3779,
      "ĠktÄĽm": 3780,
      "Ġtha": 3781,
      "ĠpeÅĪ": 3782,
      "Ġprst": 3783,
      "Ġtvol": 3784,
      "ĠvnÄĽÅ¾": 3785,
      "ĠvztÃ¡h": 3786,
      "Ġvlou": 3787,
      "Ġryl": 3788,
      "ĠvÅĻen": 3789,
      "Ġvtis": 3790,
      "Ġland": 3791,
      "Ġsz": 3792,
      "Ġmic": 3793,
      "Ġzdy": 3794,
      "ĠÄįÃŃk": 3795,
      "Ġspod": 3796,
      "Ġchoun": 3797,
      "Ġtho": 3798,
      "Ġvprv": 3799,
      "Ġmam": 3800,
      "Ġvsko": 3801,
      "vÃ½ch": 3802,
      "ĠÄįou": 3803,
      "ĠteÅ¾": 3804,
      "Ġuj": 3805,
      "ĠzÃ¡c": 3806,
      "Ġvsled": 3807,
      "ĠvmÃ½ch": 3808,
      "ĠstvÅ¯": 3809,
      "ĠvspÄĽ": 3810,
      "Ġem": 3811,
      "ĠÅ¾in": 3812,
      "ĠsmÄĽr": 3813,
      "Ġstop": 3814,
      "Ġpic": 3815,
      "Ġger": 3816,
      "ĠradÅ¡": 3817,
      "ĠÅ¡ou": 3818,
      "ĠÅ¡ik": 3819,
      "ĠzvÃ¡n": 3820,
      "ĠmrÃ¡Äį": 3821,
      "ĠvpÅ¯l": 3822,
      "nÃ½": 3823,
      "ĠpÃ¡m": 3824,
      "Ġpso": 3825,
      "ĠvjÃŃ": 3826,
      "ĠÄıar": 3827,
      "ĠÅ¡Ã¡r": 3828,
      "ĠtrÅ¯m": 3829,
      "Ġnald": 3830,
      "ĠsÅ¡": 3831,
      "Ġmoj": 3832,
      "Ġbot": 3833,
      "Ġhus": 3834,
      "ĠÄįlun": 3835,
      "ĠstÅĻech": 3836,
      "ĠspÃŃs": 3837,
      "ĠÅ¡iÄį": 3838,
      "ĠvÅ¾e": 3839,
      "Ġrep": 3840,
      "Ġzlil": 3841,
      "ĠAABXBX": 3842,
      "Ġvly": 3843,
      "ĠjÅ¯m": 3844,
      "Ġab": 3845,
      "Ġvlok": 3846,
      "Ġdul": 3847,
      "Ġbij": 3848,
      "Ġex": 3849,
      "Ġvstro": 3850,
      "Ġsdo": 3851,
      "ĠsmeÄį": 3852,
      "Ġmly": 3853,
      "Ġpust": 3854,
      "ĠtvÃŃm": 3855,
      "Ġkob": 3856,
      "ĠÄįerv": 3857,
      "Ġznej": 3858,
      "Ġram": 3859,
      "ĠrÃ¡b": 3860,
      "ĠspÃ¡r": 3861,
      "Ġkpr": 3862,
      "Ġzleh": 3863,
      "Ġvzruch": 3864,
      "ĠtÃŃh": 3865,
      "Ġhoum": 3866,
      "ĠschrÃ¡": 3867,
      "ĠfÅ¯": 3868,
      "Ġpyt": 3869,
      "Ġpsi": 3870,
      "ĠhÅĻi": 3871,
      "Ġstisk": 3872,
      "ĠkÅĻep": 3873,
      "Ġlkal": 3874,
      "ĠABAABX": 3875,
      "Ġsvod": 3876,
      "ĠzvÄĽsÅ¥": 3877,
      "ĠzÅ¾": 3878,
      "ĠÄįed": 3879,
      "ĠXXXXAA": 3880,
      "ĠpsÃŃ": 3881,
      "Ġplout": 3882,
      "ĠAXB": 3883,
      "ĠzkÅĻi": 3884,
      "Ġvha": 3885,
      "Ġim": 3886,
      "Ġglo": 3887,
      "ĠÅ¡Å¥Ã¡": 3888,
      "ĠÅ¾ol": 3889,
      "Ġat": 3890,
      "Ġvkni": 3891,
      "Ġhov": 3892,
      "Ġvsen": 3893,
      "Ġzhra": 3894,
      "Ġpsy": 3895,
      "Ġvv": 3896,
      "ĠvÅĻi": 3897,
      "ĠvsÃ¡": 3898,
      "Ġvmr": 3899,
      "Ġmdle": 3900,
      "Ġcher": 3901,
      "ĠceÅ¡": 3902,
      "ĠvhnÄĽ": 3903,
      "Ġmos": 3904,
      "ĠvtÃ¡": 3905,
      "Ġzvod": 3906,
      "Ġssa": 3907,
      "ĠdrÅ¯": 3908,
      "ĠslÅ¯v": 3909,
      "ĠcÃ©": 3910,
      "ĠÄįli": 3911,
      "Ġtvu": 3912,
      "ĠÅ¡ti": 3913,
      "ĠdvÃ¡Å¾": 3914,
      "Ġvnez": 3915,
      "ĠstiÄį": 3916,
      "Ġthu": 3917,
      "Ġpost": 3918,
      "ĠvzchÃ¡": 3919,
      "ĠÅ¡ÃŃk": 3920,
      "Ġdlen": 3921,
      "ĠzlÅ¯": 3922,
      "ĠbdÄĽl": 3923,
      "Ġbyv": 3924,
      "Ġksk": 3925,
      "Ġvtmu": 3926,
      "Ġeh": 3927,
      "Ġzmd": 3928,
      "ĠgÃ¡": 3929,
      "Ġsliv": 3930,
      "ĠAXAXBB": 3931,
      "Ġcouz": 3932,
      "ĠhÅĻbet": 3933,
      "Na": 3934,
      "ĠNa": 3935,
      "Ġrouc": 3936,
      "ĠjlÃŃp": 3937,
      "ĠNaN": 3938,
      "Ġvslo": 3939,
      "ĠstlÃ©": 3940,
      "ĠpruÅ¾": 3941,
      "Ġprot": 3942,
      "Ġhed": 3943,
      "Ġric": 3944,
      "Ġsrp": 3945,
      "ĠsÅ¾": 3946,
      "ĠÅ¡pÃŃ": 3947,
      "Ġvzad": 3948,
      "Ġvtru": 3949,
      "ĠÄįÅ¯m": 3950,
      "Ġschop": 3951,
      "ĠjÃŃst": 3952,
      "Ġvdech": 3953,
      "ĠzaÅ¡": 3954,
      "ĠÅ¾eÅ¥": 3955,
      "Ġzob": 3956,
      "ĠspÃ¡d": 3957,
      "Ġsji": 3958,
      "Ġvznik": 3959,
      "Ġzci": 3960,
      "ĠÅ¡va": 3961,
      "ĠctnÃ©": 3962,
      "ĠhlÃ©m": 3963,
      "Ġdrak": 3964,
      "ĠvÄįÃŃ": 3965,
      "Ġvg": 3966,
      "ĠlÃŃn": 3967,
      "Ġzvad": 3968,
      "ĠzmlÃ¡": 3969,
      "AC": 3970,
      "Ġvpoz": 3971,
      "ĠhrÃ¡m": 3972,
      "ĠÃ¡Å¡": 3973,
      "Ġsnah": 3974,
      "ĠlkÃ¡t": 3975,
      "pÃŃ": 3976,
      "Ġnud": 3977,
      "Ġpous": 3978,
      "yt": 3979,
      "ĠdaÅĻ": 3980,
      "Ġzbor": 3981,
      "ĠpÅ¯t": 3982,
      "ĠtlÃ©m": 3983,
      "Ġksou": 3984,
      "Ġsluj": 3985,
      "Ġklec": 3986,
      "ĠdÅ¯l": 3987,
      "Ġouz": 3988,
      "ĠtoÄį": 3989,
      "ĠdaÅĪ": 3990,
      "Ġbab": 3991,
      "ĠsÅ¯v": 3992,
      "Ġbloud": 3993,
      "ĠverÅ¡": 3994,
      "ĠABAXXB": 3995,
      "ĠÅ¾hnou": 3996,
      "cÅ¯": 3997,
      "ĠtosÅ¥": 3998,
      "Ġmok": 3999,
      "ĠnuÅ¡": 4000,
      "Ġtrn": 4001,
      "ĠÅ¾Ã¡k": 4002,
      "ĠkmÃ©": 4003,
      "Ġchry": 4004,
      "ĠhÅĻbe": 4005,
      "Ġchm": 4006,
      "Ġpoch": 4007,
      "Ġloun": 4008,
      "Ġshas": 4009,
      "ĠbÅĻeÄį": 4010,
      "Ġgar": 4011,
      "Ġstrop": 4012,
      "Ġzhla": 4013,
      "Ġhnul": 4014,
      "ĠlvÃŃ": 4015,
      "Ġsvra": 4016,
      "ĠvkÅĻe": 4017,
      "ĠvrÃ½": 4018,
      "ĠptÃ¡t": 4019,
      "Ġoct": 4020,
      "ĠÅ¾ra": 4021,
      "ĠcÃŃÅĻ": 4022,
      "ĠhÃ¡n": 4023,
      "ĠflÃ©": 4024,
      "ĠmÅ¯r": 4025,
      "ĠÅ¡lel": 4026,
      "Ġvlek": 4027,
      "ĠdlÃ©m": 4028,
      "ĠbÅĻÃŃz": 4029,
      "Ġvzrak": 4030,
      "ĠsÅ¾i": 4031,
      "ĠÅ¯": 4032,
      "ĠliÅ¾": 4033,
      "Ġup": 4034,
      "Ġskem": 4035,
      "Ġzdvo": 4036,
      "ĠzpÅĻe": 4037,
      "Ġbrav": 4038,
      "ĠvmÅ¾i": 4039,
      "Ġzkte": 4040,
      "Ġzjed": 4041,
      "ĠhnÃ¡t": 4042,
      "Ġlha": 4043,
      "ĠsnÄĽt": 4044,
      "Ġvzta": 4045,
      "Ġcnost": 4046,
      "ĠkosÅ¥": 4047,
      "Ġmag": 4048,
      "Ġzpl": 4049,
      "Ġmlat": 4050,
      "Ġmout": 4051,
      "ĠsfÃ©": 4052,
      "ri": 4053,
      "ĠÅ¾id": 4054,
      "Ġzmy": 4055,
      "Ġvchu": 4056,
      "Ġrub": 4057,
      "Ġvpad": 4058,
      "Ġson": 4059,
      "ĠÃŃch": 4060,
      "ĠstÅĻem": 4061,
      "ĠzdÅĻÃŃ": 4062,
      "Ġfej": 4063,
      "Ġvrhl": 4064,
      "ĠÅ¡ÅĪ": 4065,
      "Ġbost": 4066,
      "ĠÅ¾ÃŃn": 4067,
      "Ġvsla": 4068,
      "ĠstÃ¡h": 4069,
      "Ġzbar": 4070,
      "ĠchlÃ½m": 4071,
      "ĠhÅ¯ÅĻ": 4072,
      "ĠvtvÃ½ch": 4073,
      "ĠvdlaÅĪ": 4074,
      "Ġtol": 4075,
      "ĠpÅĻeÄį": 4076,
      "ĠÅ¡els": 4077,
      "ĠztvÃ½ch": 4078,
      "ĠÅ¡Ã¡t": 4079,
      "ĠtÃŃÄį": 4080,
      "ĠtrÃ¡v": 4081,
      "Ġvjar": 4082,
      "Ġvska": 4083,
      "ĠsÄįÃŃ": 4084,
      "Ġtet": 4085,
      "Ġfle": 4086,
      "ĠkbÅĻe": 4087,
      "Ġsklen": 4088,
      "Ġzmlk": 4089,
      "ĠpÃ½ch": 4090,
      "Ġjes": 4091,
      "ĠvtÃ½": 4092,
      "ĠdbÃ¡": 4093,
      "Ġpja": 4094,
      "ĠkrÃ©": 4095,
      "Ġ23": 4096,
      "ĠÅ¡piÄį": 4097,
      "Ġtb": 4098,
      "ĠuÄį": 4099,
      "Ġvzou": 4100,
      "Ġstvol": 4101,
      "Ġsvel": 4102,
      "Ġeu": 4103,
      "ĠzdÃ¡r": 4104,
      "ĠÅ¾Å¯m": 4105,
      "Ġchov": 4106,
      "ĠpleÅ¥": 4107,
      "ĠdÅ¡": 4108,
      "ĠoÅĻ": 4109,
      "ĠÄįÃŃt": 4110,
      "Ġfat": 4111,
      "Ġznik": 4112,
      "Ġboh": 4113,
      "Ġchval": 4114,
      "Ġseh": 4115,
      "ĠÅĻvou": 4116,
      "Ġhrej": 4117,
      "ĠtkvÄĽ": 4118,
      "Ġzf": 4119,
      "Ġzisk": 4120,
      "Ġztmy": 4121,
      "ĠABCCAB": 4122,
      "ĠvÃ¡ÅĻ": 4123,
      "Ġrud": 4124,
      "Ġzven": 4125,
      "ĠvÃ¡t": 4126,
      "ĠbÃ¡v": 4127,
      "Ġhout": 4128,
      "ĠdrÅ¯m": 4129,
      "ĠstÄĽj": 4130,
      "Ġkbla": 4131,
      "Ġgon": 4132,
      "ny": 4133,
      "Ġjho": 4134,
      "ĠkdÄĽ": 4135,
      "Ġbuz": 4136,
      "ĠbylÅ¥": 4137,
      "Ġtram": 4138,
      "ĠnÃŃt": 4139,
      "Ġcim": 4140,
      "Ġhouf": 4141,
      "Ġsor": 4142,
      "Ġkslu": 4143,
      "Ġtrhl": 4144,
      "ĠXXXAAX": 4145,
      "Ġdvih": 4146,
      "ĠmÃ³": 4147,
      "ĠÅ¾nÃŃ": 4148,
      "Ġdaj": 4149,
      "Ġruj": 4150,
      "Ġkrk": 4151,
      "Ġchop": 4152,
      "ĠztvÃ©": 4153,
      "ĠhoÄı": 4154,
      "ĠstaÅ¥": 4155,
      "Ġkrb": 4156,
      "ĠskÅĻek": 4157,
      "ĠhÅĻmot": 4158,
      "Ġnaiv": 4159,
      "kÃ¡": 4160,
      "ĠzÃ©": 4161,
      "ĠvtÅ¯": 4162,
      "Ġket": 4163,
      "Ġmnoh": 4164,
      "Ġment": 4165,
      "ĠrÃ¡Äį": 4166,
      "ĠblÃ¡Äį": 4167,
      "ĠstrÃ½c": 4168,
      "Ġzc": 4169,
      "ĠtÃ½d": 4170,
      "ĠstvÃ½": 4171,
      "ĠniÅ¥": 4172,
      "ĠkrÃ¡m": 4173,
      "Ġvsy": 4174,
      "ĠAAABBX": 4175,
      "Ġklel": 4176,
      "ĠshlÃ©d": 4177,
      "ĠdnÃ½m": 4178,
      "Ġmes": 4179,
      "Ġstvou": 4180,
      "Ġhrd": 4181,
      "ĠbÄĽÅ¾": 4182,
      "ĠzÃ¡r": 4183,
      "ĠvÃ½h": 4184,
      "Ġchar": 4185,
      "ĠhÃ½Äį": 4186,
      "ĠklÃ¡s": 4187,
      "Ġsklon": 4188,
      "Ġzrad": 4189,
      "ĠblaÄį": 4190,
      "Ġstyd": 4191,
      "Ġkhla": 4192,
      "es": 4193,
      "Ġmyr": 4194,
      "ĠktvÃ©": 4195,
      "Ġthy": 4196,
      "ĠbloÅĪ": 4197,
      "Ġosm": 4198,
      "Ġproz": 4199,
      "ĠpÃ¡Å¾": 4200,
      "ĠkmÃŃ": 4201,
      "Ġsfin": 4202,
      "ĠpÅĻim": 4203,
      "Ġvdol": 4204,
      "Ġsci": 4205,
      "ĠkÅĻÃ¡": 4206,
      "ĠzÅ¾e": 4207,
      "ĠÅ¡ÃŃc": 4208,
      "ĠbrÅ¯": 4209,
      "Ġtkal": 4210,
      "ĠvkrÃ¡s": 4211,
      "Ġwa": 4212,
      "ĠstlÃ½": 4213,
      "ĠstÃ¡d": 4214,
      "ĠABBAAB": 4215,
      "Ġzkru": 4216,
      "Ġzroz": 4217,
      "ĠÄįtu": 4218,
      "ĠpÃ½m": 4219,
      "Ġrum": 4220,
      "ĠshvÄĽz": 4221,
      "ĠvrÃ¡j": 4222,
      "ĠpatÅĻ": 4223,
      "Ġkur": 4224,
      "Ġsol": 4225,
      "ĠbÃ¡ÅĪ": 4226,
      "ĠschÅ¯": 4227,
      "Ġther": 4228,
      "Ġmuch": 4229,
      "ĠÅĻez": 4230,
      "ĠstrÃ©m": 4231,
      "Ġnejv": 4232,
      "ĠcÃ¡r": 4233,
      "ĠmÅ¯m": 4234,
      "ĠsplÃŃ": 4235,
      "Ġdis": 4236,
      "ĠlÃ¡v": 4237,
      "ĠpÃ½r": 4238,
      "ĠdÅĻich": 4239,
      "ĠlouÄį": 4240,
      "ĠÅ¡tvÃ¡n": 4241,
      "Ġuh": 4242,
      "ĠkvÄĽl": 4243,
      "ĠÅ¡ar": 4244,
      "ĠtnÄĽ": 4245,
      "ĠjvÃ½": 4246,
      "ĠrvÃ¡": 4247,
      "Ġvzdal": 4248,
      "ĠshrÅ¯": 4249,
      "ĠvzlÃ©t": 4250,
      "Ġhvizd": 4251,
      "ĠzÅ¾i": 4252,
      "ĠchrÅ¯": 4253,
      "Ġxi": 4254,
      "Ġsez": 4255,
      "Ġnoh": 4256,
      "Ġroc": 4257,
      "Ġnym": 4258,
      "ĠpÅĻip": 4259,
      "ĠvÅ¡ÃŃÅĻ": 4260,
      "Ġvzkaz": 4261,
      "ĠbÅ¯m": 4262,
      "ABA": 4263,
      "Ġuv": 4264,
      "ĠÅĻeh": 4265,
      "Ġmrt": 4266,
      "Ġvklid": 4267,
      "Ġdme": 4268,
      "Ġpon": 4269,
      "ĠtÃŃn": 4270,
      "ĠpÅĻev": 4271,
      "Ġzok": 4272,
      "ĠÅĻk": 4273,
      "Ġvouk": 4274,
      "ĠskloÅĪ": 4275,
      "ĠÅ¾ÃŃc": 4276,
      "ĠnnÃŃch": 4277,
      "Ġvrod": 4278,
      "ĠhnÃ¡n": 4279,
      "ĠhÅĻÃ¡t": 4280,
      "ÅĻo": 4281,
      "ĠÅ¡ej": 4282,
      "Ġvyl": 4283,
      "Ġbud": 4284,
      "Ġcuj": 4285,
      "Ġvchod": 4286,
      "ĠvbÃ¡z": 4287,
      "ĠÅĻval": 4288,
      "Ġkrat": 4289,
      "ĠvÅĻÃŃn": 4290,
      "ĠklÃ½m": 4291,
      "Ġvbuj": 4292,
      "ĠmÅĻi": 4293,
      "Ġhve": 4294,
      "Ġseb": 4295,
      "ĠjaÅĻ": 4296,
      "Ġkvet": 4297,
      "Ġblys": 4298,
      "lÃ½m": 4299,
      "Ġkdru": 4300,
      "ĠÅĻÃŃÄį": 4301,
      "Ġbul": 4302,
      "ĠkslÃ¡": 4303,
      "Ġsbe": 4304,
      "ĠvskrÃ¡": 4305,
      "ĠdveÅĻ": 4306,
      "ĠÅĻva": 4307,
      "ĠÅĻÃŃÅ¾": 4308,
      "ĠzÃ¡n": 4309,
      "ĠÅĪÃ¡t": 4310,
      "ĠkpÃ¡": 4311,
      "ĠdvÄĽd": 4312,
      "ĠvkrÄį": 4313,
      "Ġtah": 4314,
      "ĠpÃ¡t": 4315,
      "Ġzmla": 4316,
      "Ġkroz": 4317,
      "ĠXABB": 4318,
      "Ġdos": 4319,
      "Ġzvra": 4320,
      "ĠzvÃ¡t": 4321,
      "Ġprac": 4322,
      "Ġvdra": 4323,
      "ĠvÃºz": 4324,
      "ĠcvÃ¡": 4325,
      "Ġpop": 4326,
      "Ġruk": 4327,
      "ĠtyÄį": 4328,
      "ĠmyÅ¡": 4329,
      "Ġvsvo": 4330,
      "Ġkvou": 4331,
      "Ġmant": 4332,
      "Ġvhe": 4333,
      "ĠÅ¾ur": 4334,
      "ĠmstÃŃ": 4335,
      "ĠmÃ¡Äį": 4336,
      "ĠvrÅ¡": 4337,
      "ĠÅ¥Ã¡t": 4338,
      "Ġmod": 4339,
      "Ġhav": 4340,
      "ĠluÄį": 4341,
      "Ġhub": 4342,
      "ĠpraÅ¾": 4343,
      "ĠXAAXXX": 4344,
      "ĠpÃ³": 4345,
      "ĠprÅ¡": 4346,
      "ĠvhnÃŃz": 4347,
      "ĠvÄįes": 4348,
      "Ġsrn": 4349,
      "Ġpte": 4350,
      "Ġstlu": 4351,
      "ĠÅĻÅ¯m": 4352,
      "Ġtuh": 4353,
      "ĠkÃ¡r": 4354,
      "Ġvkla": 4355,
      "ĠziÄį": 4356,
      "Ġdrc": 4357,
      "ĠplÃ¡n": 4358,
      "Ġsdi": 4359,
      "ĠzÅ¡": 4360,
      "ĠcÃŃÅ¡": 4361,
      "Ġsai": 4362,
      "Ġvtan": 4363,
      "Ġvzpja": 4364,
      "Ġgol": 4365,
      "Ġjmen": 4366,
      "Ġvuj": 4367,
      "ĠÅĻiv": 4368,
      "ĠchoÄı": 4369,
      "Ġzol": 4370,
      "Ġzdej": 4371,
      "ĠslÃ¡v": 4372,
      "Ġvkap": 4373,
      "ĠmÅĻÃŃÅ¾": 4374,
      "ĠmÃ¡ÅĻ": 4375,
      "ĠlÃ¡z": 4376,
      "Ġhles": 4377,
      "Ġzme": 4378,
      "ĠtÅ¯ÅĪ": 4379,
      "ĠvstÃŃn": 4380,
      "ĠdoÅ¡": 4381,
      "Ġhyz": 4382,
      "ĠpÅ¡e": 4383,
      "ĠlaÅ¥": 4384,
      "Ġlob": 4385,
      "Ġblah": 4386,
      "ĠvjÃ¡": 4387,
      "Ġchout": 4388,
      "Ġtrysk": 4389,
      "ĠtmÄĽl": 4390,
      "Ġhnout": 4391,
      "ĠABBAAX": 4392,
      "ĠdeÅ¡Å¥": 4393,
      "ĠdÅĻev": 4394,
      "ĠjÃŃn": 4395,
      "ĠÄįesÅ¥": 4396,
      "ĠproÅĪ": 4397,
      "Ġvleb": 4398,
      "Ġgyp": 4399,
      "pÄĽ": 4400,
      "Ġvpi": 4401,
      "ĠzbÃ¡": 4402,
      "ĠvblÃ¡": 4403,
      "ĠvzpÄĽ": 4404,
      "ĠzkrÃ¡t": 4405,
      "ĠABX": 4406,
      "Ġpin": 4407,
      "ĠvstrÃ¡": 4408,
      "Ġstre": 4409,
      "Ġdba": 4410,
      "ĠflÃ©t": 4411,
      "Ġbuch": 4412,
      "ĠvÃºs": 4413,
      "ĠsnÅ¯v": 4414,
      "ĠplÃŃs": 4415,
      "ĠÅ¾ed": 4416,
      "Ġsvist": 4417,
      "Ġzoun": 4418,
      "Ġkmat": 4419,
      "Ġkhra": 4420,
      "ĠzkaÅ¾": 4421,
      "ĠjakÅ¾": 4422,
      "ĠbÃŃÅ¡": 4423,
      "ĠpsÅ¯": 4424,
      "Ġchme": 4425,
      "ĠstrÃ¡n": 4426,
      "ĠÅ¡kr": 4427,
      "Ġhmyz": 4428,
      "ĠpÃŃÄı": 4429,
      "Ġpud": 4430,
      "Ġzub": 4431,
      "Ġvbr": 4432,
      "ĠptÃ½": 4433,
      "Ġmrs": 4434,
      "ĠvchrÃ¡m": 4435,
      "Å¡ech": 4436,
      "Ġproj": 4437,
      "Ġvzr": 4438,
      "ĠflÃŃ": 4439,
      "Ġklep": 4440,
      "ĠchÃ¡n": 4441,
      "Ġtroj": 4442,
      "Ġkbra": 4443,
      "ĠÅ¡kleb": 4444,
      "ĠblyÅ¡": 4445,
      "Ġdals": 4446,
      "ĠÅĻat": 4447,
      "Ġvzhle": 4448,
      "lem": 4449,
      "Ġbet": 4450,
      "ĠÅ¡tÄĽp": 4451,
      "ĠpÅĻÃ¡t": 4452,
      "ĠztmÄĽ": 4453,
      "Ġdor": 4454,
      "Ġdur": 4455,
      "Ġrav": 4456,
      "ĠkÅĪa": 4457,
      "Ġnuz": 4458,
      "ĠplÅĪ": 4459,
      "ĠÅ¾at": 4460,
      "Ġplot": 4461,
      "dÄĽ": 4462,
      "Ġnim": 4463,
      "ĠslasÅ¥": 4464,
      "ĠvhrÅ¯": 4465,
      "ĠchÅ¯v": 4466,
      "Ġhloh": 4467,
      "ĠÅ¡lÃ¡p": 4468,
      "Ġnva": 4469,
      "Ġjav": 4470,
      "ĠsÃŃt": 4471,
      "Ġzis": 4472,
      "Ġzoh": 4473,
      "ĠÅ¡pr": 4474,
      "Ġpark": 4475,
      "ĠchlÃ½ch": 4476,
      "Ġhot": 4477,
      "Ġcid": 4478,
      "Ġrozv": 4479,
      "ĠbÃ½Å¥": 4480,
      "ĠskoÄį": 4481,
      "ĠzlÃ©m": 4482,
      "ĠssÃ¡l": 4483,
      "ĠkaÄį": 4484,
      "ĠslÃ½ch": 4485,
      "Ġris": 4486,
      "Ġfek": 4487,
      "ĠztÄĽÅ¾": 4488,
      "Ġchlum": 4489,
      "ĠpÅ¯m": 4490,
      "Ġcep": 4491,
      "ĠtÃŃl": 4492,
      "ĠzdÃ¡v": 4493,
      "Ġschla": 4494,
      "ĠvprÅ¯": 4495,
      "ĠAAAXBB": 4496,
      "Ġdak": 4497,
      "ĠnÃŃn": 4498,
      "ĠÅ¾ÃŃr": 4499,
      "Ġad": 4500,
      "Ġkrm": 4501,
      "Ġzplo": 4502,
      "ĠrÃ©Å¾": 4503,
      "ĠstÄĽÅ¾": 4504,
      "Ġvbar": 4505,
      "ĠptÃ¡Å¡": 4506,
      "Ġkse": 4507,
      "Ġkja": 4508,
      "Ġsis": 4509,
      "ĠAABBBX": 4510,
      "ĠsaÅĪ": 4511,
      "Ġdci": 4512,
      "ĠzvÅ¡e": 4513,
      "ĠlÃ©Äį": 4514,
      "ĠvblÃŃz": 4515,
      "ĠsdÄĽt": 4516,
      "Ġlva": 4517,
      "ĠteÅ¡": 4518,
      "ĠchvÃŃl": 4519,
      "Ġvjel": 4520,
      "Ġvkus": 4521,
      "CCA": 4522,
      "ĠdlÃŃÅ¡": 4523,
      "Ġsjed": 4524,
      "ĠABBCCA": 4525,
      "Ġtup": 4526,
      "ĠÅ¡ÃŃÅĻ": 4527,
      "ĠAABBAA": 4528,
      "ĠpraÅ¡": 4529,
      "Ġslet": 4530,
      "Ġvdiv": 4531,
      "ĠbÃ©m": 4532,
      "Ġmun": 4533,
      "ĠkvÄĽÄį": 4534,
      "AXB": 4535,
      "Ġchleb": 4536,
      "Ġvkom": 4537,
      "ĠdluÅ¾": 4538,
      "Ã¶": 4539,
      "ĠfÃ©": 4540,
      "Ġplet": 4541,
      "ĠÅ¥Ã¡l": 4542,
      "ĠskaÅ¾": 4543,
      "ĠsÄįer": 4544,
      "nt": 4545,
      "ĠkÅ¾": 4546,
      "ĠpÄĽsÅ¥": 4547,
      "Ġzpoz": 4548,
      "ĠskvÄĽl": 4549,
      "ĠblÅ¯": 4550,
      "Ġkuj": 4551,
      "BAX": 4552,
      "ĠdÅ¯t": 4553,
      "ĠÄįlu": 4554,
      "Ġtum": 4555,
      "ĠzÃŃr": 4556,
      "Ġvke": 4557,
      "Ġhluch": 4558,
      "ĠvzhlÃ©d": 4559,
      "ĠtÃ¡Å¾": 4560,
      "Ġtrob": 4561,
      "Ġvbok": 4562,
      "ĠvskÃ¡": 4563,
      "ĠpÅĻem": 4564,
      "ĠdÅ¾bÃ¡n": 4565,
      "ĠÄįla": 4566,
      "Ġkaj": 4567,
      "Ġlod": 4568,
      "ĠÄįac": 4569,
      "Ġzbla": 4570,
      "Ġvmoc": 4571,
      "Ġskep": 4572,
      "Ġfro": 4573,
      "Ġzdep": 4574,
      "Ġdleh": 4575,
      "Ġzre": 4576,
      "ĠsnÃŃmÅ¾": 4577,
      "ĠhÅĻmÄĽl": 4578,
      "ĠvznÃ©st": 4579,
      "mo": 4580,
      "ĠmÃ¡c": 4581,
      "ĠÅĻÃŃz": 4582,
      "Ġsmat": 4583,
      "ĠdceÅĻ": 4584,
      "Ġplem": 4585,
      "Ġvmd": 4586,
      "Ġvnic": 4587,
      "Ġsus": 4588,
      "ĠbraÅĪ": 4589,
      "ĠchÅ¯d": 4590,
      "ĠvbouÅĻ": 4591,
      "he": 4592,
      "Ġmzd": 4593,
      "Ġsmra": 4594,
      "ĠlÃ©z": 4595,
      "Ġvtak": 4596,
      "Ġzpy": 4597,
      "Ġzbe": 4598,
      "ĠÅ¡aÅ¡": 4599,
      "ĠvtÄĽs": 4600,
      "Ġgri": 4601,
      "tÃ¡": 4602,
      "Ġvzlo": 4603,
      "ĠvhvÄĽz": 4604,
      "ĠsviÅ¥": 4605,
      "ĠzmÄĽÅ¥": 4606,
      "ĠÅ¾dÃ¡": 4607,
      "ĠjvÃ½Å¡": 4608,
      "Ġvnou": 4609,
      "ĠkÄį": 4610,
      "Ġhop": 4611,
      "ĠpeÅ¡": 4612,
      "ĠztÃ¡": 4613,
      "Ġhlup": 4614,
      "ĠvosÅ¥": 4615,
      "ĠrÃ¡k": 4616,
      "Ġsmlou": 4617,
      "Ġslan": 4618,
      "ĠksvÃ½m": 4619,
      "ĠkplÃ¡": 4620,
      "Ġzpit": 4621,
      "Ġhil": 4622,
      "Ġkum": 4623,
      "Ġvrak": 4624,
      "Ġklem": 4625,
      "Ġkpro": 4626,
      "Ġksto": 4627,
      "Ġsvad": 4628,
      "Ġzech": 4629,
      "Ġdent": 4630,
      "ĠgÃ¡n": 4631,
      "ĠvzdÃ¡t": 4632,
      "Ġjda": 4633,
      "ĠzhÅ¯": 4634,
      "Ġkza": 4635,
      "ĠvsmÄĽ": 4636,
      "ĠlÅ¾e": 4637,
      "Ġrmu": 4638,
      "ĠklÃ¡st": 4639,
      "ĠslÃ©t": 4640,
      "ĠbeÅ¡": 4641,
      "Ġtrup": 4642,
      "ĠtrÃ¡m": 4643,
      "Ġzkle": 4644,
      "Ġdrozd": 4645,
      "ĠsrÅ¯": 4646,
      "ĠzvÅ¡ech": 4647,
      "Ġvslav": 4648,
      "ĠmÃ©n": 4649,
      "Ġkrav": 4650,
      "ĠsviÅ¡": 4651,
      "ĠznÄĽj": 4652,
      "ĠzrÃ¡l": 4653,
      "ĠtlÃ½m": 4654,
      "ĠstÅ¯v": 4655,
      "ĠdÅĻej": 4656,
      "ĠmlÃ©Äį": 4657,
      "Ġvyv": 4658,
      "Ġjaks": 4659,
      "Ġproh": 4660,
      "rud": 4661,
      "ĠhouÅ¡Å¥": 4662,
      "ĠvdÄĽs": 4663,
      "ĠÅ¾ne": 4664,
      "ĠAABBAX": 4665,
      "ĠsnÃŃÅ¾": 4666,
      "ĠvpÅĻÃŃÅ¡": 4667,
      "ĠdiÅ¥": 4668,
      "Ġpun": 4669,
      "Ġplec": 4670,
      "ĠÅ¡vÃ¡": 4671,
      "ĠchÅĻad": 4672,
      "ĠtaÅ¾": 4673,
      "Ġbos": 4674,
      "ĠkvÃ¡": 4675,
      "ĠzkouÅ¡": 4676,
      "Ġctil": 4677,
      "Ġvhroz": 4678,
      "Ġplic": 4679,
      "ĠsÃ½m": 4680,
      "ĠhÅĻmÃŃt": 4681,
      "Ġsst": 4682,
      "ĠsÅ¥": 4683,
      "ĠkoÅ¾": 4684,
      "ĠmÃ¡v": 4685,
      "Ġput": 4686,
      "ĠtÃ½n": 4687,
      "Ġslid": 4688,
      "ĠsmÄĽj": 4689,
      "ĠsbÃ¡": 4690,
      "Ġmdlou": 4691,
      "Ġcval": 4692,
      "Ġstrem": 4693,
      "ĠÅ¡tÄĽr": 4694,
      "ĠAXAXXX": 4695,
      "Ġvojsk": 4696,
      "Ġcva": 4697,
      "Ġop": 4698,
      "ĠstiÅ¥": 4699,
      "ĠdrÃ¡ch": 4700,
      "Ġzak": 4701,
      "ĠzÅ¾ÃŃ": 4702,
      "ĠvsvÅ¯j": 4703,
      "Ġvzdej": 4704,
      "ĠhÅĻÃ¡l": 4705,
      "ĠÅ¡perk": 4706,
      "Ġvbles": 4707,
      "Ġost": 4708,
      "ĠvdÅ¯m": 4709,
      "Ġsouc": 4710,
      "Ġbros": 4711,
      "Ġdvod": 4712,
      "Ġzboj": 4713,
      "ĠvÄįem": 4714,
      "Ġtlesk": 4715,
      "ĠklÃ©m": 4716,
      "Ġsvl": 4717,
      "ĠsÃ¡n": 4718,
      "ĠzkÅĻÃŃ": 4719,
      "ĠvÅĻeÅ¡": 4720,
      "Ġprut": 4721,
      "Ġvtaj": 4722,
      "ĠvspÃ¡n": 4723,
      "ĠscÃ©": 4724,
      "ĠsvÃ¡l": 4725,
      "ĠzpÃ¡": 4726,
      "Ġztlu": 4727,
      "ĠzrÃ½": 4728,
      "ĠsÅĪat": 4729,
      "Ġvym": 4730,
      "Ġvis": 4731,
      "ĠzkvÃŃ": 4732,
      "Ġschou": 4733,
      "ĠvzhlÃŃ": 4734,
      "ĠbrÅ¾": 4735,
      "Ġvzpjal": 4736,
      "Ġsre": 4737,
      "ĠchtÃŃÄį": 4738,
      "ĠsÅĪal": 4739,
      "ĠhÃº": 4740,
      "Ġrac": 4741,
      "Ġvals": 4742,
      "Ġkrom": 4743,
      "ĠdlÃŃt": 4744,
      "ĠstÅĻiÄį": 4745,
      "Ġvtes": 4746,
      "Ġzsi": 4747,
      "vat": 4748,
      "ĠABBC": 4749,
      "Ġsklad": 4750,
      "ĠstÃŃÅ¡": 4751,
      "ĠkÃ½Å¾": 4752,
      "Ġsof": 4753,
      "ĠvkÃ¡": 4754,
      "ĠtÅĻeb": 4755,
      "ĠÅ¾luÄį": 4756,
      "ĠssÃ¡": 4757,
      "Ġtliv": 4758,
      "Ġzkaz": 4759,
      "Ġknut": 4760,
      "ĠABBCAC": 4761,
      "ĠsÅ¡e": 4762,
      "ĠdaÄį": 4763,
      "ĠkÃ¡z": 4764,
      "ĠjsouÅ¥": 4765,
      "ĠvdÄĽt": 4766,
      "Ġshluk": 4767,
      "ĠÅ¾lout": 4768,
      "Ġoch": 4769,
      "Ġbaj": 4770,
      "Ġlub": 4771,
      "ĠdÄĽls": 4772,
      "Ġvsvou": 4773,
      "Ġchlub": 4774,
      "Ġvryl": 4775,
      "Ġspek": 4776,
      "Ġsyp": 4777,
      "Ġvpy": 4778,
      "Ġvby": 4779,
      "ĠzdÃ¡t": 4780,
      "Ġvkon": 4781,
      "Ġkluk": 4782,
      "Ġzcha": 4783,
      "Ġfre": 4784,
      "Ġlvo": 4785,
      "Å¯l": 4786,
      "Ġzan": 4787,
      "ĠzplÃ¡": 4788,
      "ĠhrÃ¡ch": 4789,
      "vost": 4790,
      "Ġthi": 4791,
      "Ġdbej": 4792,
      "vu": 4793,
      "ĠvÄĽsÅ¥": 4794,
      "ĠdÄĽÅ¥": 4795,
      "ĠvÃ½t": 4796,
      "ĠvÅ¾ÃŃ": 4797,
      "ĠzvÄĽÄį": 4798,
      "ĠvloÅ¾": 4799,
      "ĠÅĻÅ¯v": 4800,
      "ĠzchrÃ¡": 4801,
      "Ġkstro": 4802,
      "Ġvsnu": 4803,
      "Ġkma": 4804,
      "ĠpÅĻÃŃl": 4805,
      "Ġvky": 4806,
      "Ġdrn": 4807,
      "ĠchÃ½Å¾": 4808,
      "ĠmnÃŃÅ¡": 4809,
      "ĠkÅ¾e": 4810,
      "ĠlÃ³": 4811,
      "ĠbÃ¡ÅĻ": 4812,
      "ĠvkÅĻi": 4813,
      "ĠÅ¡tÄĽt": 4814,
      "Ġkmu": 4815,
      "ĠÅ¾hne": 4816,
      "nÅ¯": 4817,
      "Ġvyk": 4818,
      "Ġvtros": 4819,
      "Ġzple": 4820,
      "ĠtÅ¯Äį": 4821,
      "ĠdejÅ¾": 4822,
      "ĠvdÃ¡v": 4823,
      "ĠknimÅ¾": 4824,
      "ĠvklÃ¡Å¡": 4825,
      "ĠtaÅ¥": 4826,
      "ĠpÅĻis": 4827,
      "ĠdnÃ©m": 4828,
      "ĠtÅĻu": 4829,
      "ĠprÃ©": 4830,
      "ĠÅ¡ke": 4831,
      "ĠchlÃ©m": 4832,
      "ĠvzrÅ¯st": 4833,
      "ĠjÃŃÅ¥": 4834,
      "ĠmiÄį": 4835,
      "Ġslab": 4836,
      "ĠzmÃ½ch": 4837,
      "Ġgram": 4838,
      "ĠjeÄı": 4839,
      "ĠzaÅĪ": 4840,
      "ĠhruÅ¡": 4841,
      "Ġskyt": 4842,
      "Ġxe": 4843,
      "Ġcour": 4844,
      "Ġvzmat": 4845,
      "ĠkÅ¡tÄĽ": 4846,
      "Ġvstup": 4847,
      "Ġjvo": 4848,
      "Ġvav": 4849,
      "Ġloub": 4850,
      "ĠtÅĻek": 4851,
      "ĠtÅĻÃŃÄį": 4852,
      "ĠkpÅĻÃŃ": 4853,
      "ĠsnaÅ¾": 4854,
      "ĠÅ¾la": 4855,
      "Ġlar": 4856,
      "ĠroÄį": 4857,
      "ĠstuÅ¾": 4858,
      "ĠsfÃ©r": 4859,
      "Ġvlaj": 4860,
      "Ġdroz": 4861,
      "ĠtÅĻiv": 4862,
      "ĠÅ¾ou": 4863,
      "Ġspy": 4864,
      "Ġsam": 4865,
      "ĠvpÃ½": 4866,
      "ĠbraÅ¥": 4867,
      "Ġrdou": 4868,
      "ĠvcÃŃ": 4869,
      "ĠviÅĪ": 4870,
      "Ġhraj": 4871,
      "ĠbrÃ¡c": 4872,
      "ĠvlÃ¡l": 4873,
      "ĠctÃŃt": 4874,
      "Ġfaust": 4875,
      "ĠsvlÃ©": 4876,
      "Ġtus": 4877,
      "Ġbed": 4878,
      "ĠÄįÃŃl": 4879,
      "Ġktan": 4880,
      "Ã³r": 4881,
      "ĠvsluÅ¾": 4882,
      "ĠXXAXXA": 4883,
      "ĠzÅ¯m": 4884,
      "Ġprob": 4885,
      "ĠmÃŃch": 4886,
      "Ġrych": 4887,
      "Ġvrb": 4888,
      "Ġztros": 4889,
      "Ġsvah": 4890,
      "ĠvbÅĻe": 4891,
      "ĠmdlÃ½m": 4892,
      "Ġvskal": 4893,
      "Ġvryt": 4894,
      "ĠtuÅ¡": 4895,
      "ĠsplÃ©": 4896,
      "ĠsÃŃd": 4897,
      "Ġvslou": 4898,
      "Ġfla": 4899,
      "ĠchyÅ¥": 4900,
      "ĠsmÃŃÅ¡": 4901,
      "ĠzliÄį": 4902,
      "Ġzvln": 4903,
      "ma": 4904,
      "Ġpnu": 4905,
      "ĠXAXX": 4906,
      "ĠbÄĽj": 4907,
      "ÅĪÃ¡": 4908,
      "Ġsble": 4909,
      "Ġvstoup": 4910,
      "ĠvbÄĽh": 4911,
      "ĠvnÄĽjÅ¾": 4912,
      "ĠmaÅ¡": 4913,
      "ĠchÃ¡s": 4914,
      "ĠvlÃ¡t": 4915,
      "ĠÅ¡tkÃ¡": 4916,
      "Ġsved": 4917,
      "ĠÄįast": 4918,
      "Ġvsto": 4919,
      "Ġchvi": 4920,
      "Ġsbi": 4921,
      "ĠkÅĻest": 4922,
      "Ġvzmach": 4923,
      "Ġtch": 4924,
      "ĠlpÃŃ": 4925,
      "oun": 4926,
      "ĠÅĻka": 4927,
      "ĠÅ¡eÅĻ": 4928,
      "ĠÄįÃŃn": 4929,
      "ĠsnÃŃl": 4930,
      "ĠmlÅ¾": 4931,
      "ĠÅ¡af": 4932,
      "ĠhÅ¯v": 4933,
      "Ġpluj": 4934,
      "ĠvspÃ¡": 4935,
      "Ġzpur": 4936,
      "ĠkÄįer": 4937,
      "Ġpam": 4938,
      "Ġpuch": 4939,
      "ĠvloÄį": 4940,
      "ĠÅ¡tÃ¡": 4941,
      "ĠÄįtyÅĻ": 4942,
      "Ġzmdle": 4943,
      "ĠkoÅĪ": 4944,
      "ĠABAX": 4945,
      "ĠÅĻet": 4946,
      "ĠsÃ¡z": 4947,
      "ĠzvÃŃÅ¡": 4948,
      "Ġvzep": 4949,
      "Ġvzky": 4950,
      "ĠÅ¾uj": 4951,
      "ud": 4952,
      "Ġpst": 4953,
      "ĠÄįlÃ¡": 4954,
      "ĠsiÄį": 4955,
      "Ġis": 4956,
      "Ġzmno": 4957,
      "ĠÅ¡vih": 4958,
      "Ġtip": 4959,
      "ĠkyÅĪ": 4960,
      "Ġzdou": 4961,
      "Ġfil": 4962,
      "Ġzod": 4963,
      "Ġvstru": 4964,
      "Ġ24": 4965,
      "Ġcr": 4966,
      "Ġrra": 4967,
      "ĠÅ¾ej": 4968,
      "ĠrÃ½Å¾": 4969,
      "Ġzhru": 4970,
      "ĠspÄĽt": 4971,
      "Ġchlej": 4972,
      "ĠÅ¡tve": 4973,
      "ĠspuÅ¡": 4974,
      "ĠsnÃ©st": 4975,
      "Ġsg": 4976,
      "Ġprok": 4977,
      "Ġsba": 4978,
      "Ġgraf": 4979,
      "ĠvzbuÄı": 4980,
      "Ġvmdlo": 4981,
      "ko": 4982,
      "Ġbvy": 4983,
      "ĠjÃ¡c": 4984,
      "ĠbÃŃk": 4985,
      "ĠÅĪal": 4986,
      "ĠctnÃ½": 4987,
      "ĠÄıme": 4988,
      "Ġsklep": 4989,
      "ĠAAXBBB": 4990,
      "Ġvkruh": 4991,
      "Ġvhrad": 4992,
      "Ġil": 4993,
      "Ġduh": 4994,
      "Ġsiv": 4995,
      "ĠkÃ¡Å¾": 4996,
      "ÅĪal": 4997,
      "ĠbouÄį": 4998,
      "Ġes": 4999,
      "ĠzmÄĽn": 5000,
      "Ġprys": 5001,
      "ĠsjÃŃ": 5002,
      "Ġae": 5003,
      "ĠvÃŃch": 5004,
      "ĠrÃ¡r": 5005,
      "ĠvkÅĻo": 5006,
      "ĠzmÅ¯": 5007,
      "ĠprÃ¡s": 5008,
      "ĠvÅ¡um": 5009,
      "ĠXAB": 5010,
      "Ġvzrost": 5011,
      "ĠsÅĻe": 5012,
      "ĠsÃ½ch": 5013,
      "Ġsev": 5014,
      "ĠpaÄį": 5015,
      "ĠpÃ¡Å¡": 5016,
      "ĠzhÅĻÃŃ": 5017,
      "ĠsvÃŃÄį": 5018,
      "ĠÅĻÃ¡s": 5019,
      "Ġzpom": 5020,
      "ĠskrÃ½t": 5021,
      "Ġssu": 5022,
      "Ġsvrh": 5023,
      "Ġvblan": 5024,
      "Ġnve": 5025,
      "Ġzab": 5026,
      "ĠzhvÄĽz": 5027,
      "ĠdrÃ¡t": 5028,
      "ĠvzkÃ¡": 5029,
      "Ġumf": 5030,
      "Ġtroud": 5031,
      "Ġdbal": 5032,
      "ĠpnÄĽ": 5033,
      "ĠtoÅĪ": 5034,
      "Ġir": 5035,
      "Ġvtvo": 5036,
      "Ġgil": 5037,
      "Ġztvr": 5038,
      "ĠzklÃŃ": 5039,
      "Ġvpos": 5040,
      "Ġbrod": 5041,
      "ĠsdÅ¯": 5042,
      "Ġvskry": 5043,
      "ĠzvÃ¡Å¾": 5044,
      "Ġvpev": 5045,
      "ĠvisÅ¥": 5046,
      "Ġstep": 5047,
      "Ġvmar": 5048,
      "ĠmÄĽls": 5049,
      "ĠnÄĽjÅ¾": 5050,
      "Ġblouk": 5051,
      "Ġvmech": 5052,
      "ĠdÅ¾bÃ¡": 5053,
      "mi": 5054,
      "ĠdcÅ¯": 5055,
      "Ġjeh": 5056,
      "Ġvas": 5057,
      "ĠvtÅĻe": 5058,
      "ĠsÃ¡k": 5059,
      "Ġdliv": 5060,
      "Ġzoub": 5061,
      "Ġzlid": 5062,
      "ÃŃs": 5063,
      "Ġpjal": 5064,
      "ĠÅ¡lu": 5065,
      "ĠvÄĽÅ¥": 5066,
      "ĠvÅ¡tÃŃ": 5067,
      "Ġmel": 5068,
      "Ġsplav": 5069,
      "ĠviÅ¥": 5070,
      "ĠpÅĻeÅ¡": 5071,
      "Ġvrej": 5072,
      "ĠchtÄĽj": 5073,
      "Ġptej": 5074,
      "Ġzg": 5075,
      "ran": 5076,
      "ĠmiÅĪ": 5077,
      "ĠrÃ¡t": 5078,
      "Ġzdru": 5079,
      "ĠsnÃŃÅ¡": 5080,
      "Ġfar": 5081,
      "ĠkspÃ¡n": 5082,
      "ĠstÃŃs": 5083,
      "Ġprak": 5084,
      "Ġvblu": 5085,
      "ĠvlÃ¡k": 5086,
      "ĠstvÄĽ": 5087,
      "ĠÄįle": 5088,
      "Ġtav": 5089,
      "ĠÄįeÅ¥": 5090,
      "Ġvrt": 5091,
      "ĠstÅĻen": 5092,
      "Ġsmek": 5093,
      "ĠzlÃ¡t": 5094,
      "ĠlstÃŃ": 5095,
      "ĠvpouÅ¡Å¥": 5096,
      "ĠjlÃ©": 5097,
      "Ġck": 5098,
      "Ġkas": 5099,
      "Ġrez": 5100,
      "Ġgor": 5101,
      "ĠztÃ½": 5102,
      "Ġvmno": 5103,
      "Ġvled": 5104,
      "Ġkta": 5105,
      "Ġklub": 5106,
      "ĠtiÅ¥": 5107,
      "ĠÅ¡ec": 5108,
      "Ġsnich": 5109,
      "ĠzhnÄĽ": 5110,
      "Ġlhal": 5111,
      "Ġfry": 5112,
      "Ġnon": 5113,
      "ĠroÅ¡": 5114,
      "ĠÅĻed": 5115,
      "Ġtrat": 5116,
      "ĠchvÄĽn": 5117,
      "ĠpÅ¯r": 5118,
      "ĠsdÃŃl": 5119,
      "Ġkin": 5120,
      "ĠleÄı": 5121,
      "Ġvtlu": 5122,
      "ĠvÅ¾al": 5123,
      "ĠAAXXXX": 5124,
      "ĠgÃ©": 5125,
      "ĠkleÅ¡": 5126,
      "Ġhrud": 5127,
      "Ġznoj": 5128,
      "ĠsnÃ¡z": 5129,
      "Ġvbah": 5130,
      "Ġkce": 5131,
      "Ġlnou": 5132,
      "Ġces": 5133,
      "ĠzÃ¡j": 5134,
      "Ġklat": 5135,
      "Ġsoum": 5136,
      "Ġzyl": 5137,
      "Ġstri": 5138,
      "ĠvspÄĽch": 5139,
      "ĠzdÅĻÃŃm": 5140,
      "ĠÅ¾b": 5141,
      "Ġnor": 5142,
      "Ġnuj": 5143,
      "ĠmaÄį": 5144,
      "Ġspjal": 5145,
      "ĠÅĻisÅ¥": 5146,
      "Ġdre": 5147,
      "ĠzhÃ¡": 5148,
      "ĠsnÄĽÅ¥": 5149,
      "ĠschvÄĽ": 5150,
      "Ġcyt": 5151,
      "Ġvmoz": 5152,
      "Ġtvrz": 5153,
      "Ġsjel": 5154,
      "ĠzÄįÃŃ": 5155,
      "ĠXABBXA": 5156,
      "Ġsmou": 5157,
      "ĠchaÅĻ": 5158,
      "Ġvste": 5159,
      "Ġshra": 5160,
      "Ġtron": 5161,
      "Ġskot": 5162,
      "ĠkruÅ¡": 5163,
      "ĠuÅ¡t": 5164,
      "ĠjsemÅ¥": 5165,
      "ĠplaÅ¥": 5166,
      "Ġksva": 5167,
      "ABBB": 5168,
      "Ġvjezd": 5169,
      "ĠvnÃ¡d": 5170,
      "Ġkhru": 5171,
      "nil": 5172,
      "ÅĻas": 5173,
      "Ġloz": 5174,
      "Ġsir": 5175,
      "Ġsdra": 5176,
      "ĠÅ¡ept": 5177,
      "ĠÄįnÄĽl": 5178,
      "ĠzÄįi": 5179,
      "Ġkut": 5180,
      "ĠknÃ½ch": 5181,
      "Ġlamp": 5182,
      "Ġksta": 5183,
      "ĠtÃ©r": 5184,
      "ĠgÅ¯": 5185,
      "ĠbrÃ¡n": 5186,
      "ĠkÃ¡l": 5187,
      "Ġbuk": 5188,
      "ĠtrÃ³": 5189,
      "Ġvplo": 5190,
      "ĠpÃŃk": 5191,
      "Ġzran": 5192,
      "Ġvmat": 5193,
      "Ġvhou": 5194,
      "Ġmsty": 5195,
      "ĠkrÃ½t": 5196,
      "Ġzvlh": 5197,
      "Ġzap": 5198,
      "ĠtoÅ¡": 5199,
      "ĠbrÃ©m": 5200,
      "ĠvzÃ¡m": 5201,
      "Ġvbod": 5202,
      "ĠvmÄĽk": 5203,
      "Ġsef": 5204,
      "Ġkord": 5205,
      "Ġstich": 5206,
      "Ġzlom": 5207,
      "ĠfraÅ¡": 5208,
      "Ġrmou": 5209,
      "ĠtÅĻa": 5210,
      "ĠÅ¾est": 5211,
      "ĠÄįec": 5212,
      "ĠlÃ¡d": 5213,
      "ĠprsÅ¥": 5214,
      "ĠpÃŃc": 5215,
      "ĠryÄį": 5216,
      "Ġvdou": 5217,
      "Ġtoul": 5218,
      "ĠplaÅ¡": 5219,
      "ĠvkÅĻÃŃ": 5220,
      "Ġkleb": 5221,
      "Ġzhled": 5222,
      "ĠbÅĻes": 5223,
      "ĠnaÅ¥": 5224,
      "ĠtÄĽp": 5225,
      "Ġjab": 5226,
      "neÅ¡": 5227,
      "ĠstÃ¡m": 5228,
      "Ġbram": 5229,
      "Ġstvi": 5230,
      "ĠstrÃ½Äį": 5231,
      "Ġsmol": 5232,
      "Ġvproud": 5233,
      "Ġnne": 5234,
      "ĠÅ¾nÄĽ": 5235,
      "ĠÅĻÃ¡t": 5236,
      "Ġztro": 5237,
      "Ġdles": 5238,
      "Ġsbu": 5239,
      "Ġfin": 5240,
      "ĠvplÃ¡Äį": 5241,
      "ĠsbÄĽh": 5242,
      "ĠtnÃ©": 5243,
      "Ġlv": 5244,
      "ĠpÅ¡": 5245,
      "ĠchÅĻ": 5246,
      "Ġjam": 5247,
      "ĠÅĻech": 5248,
      "ĠzÃŃk": 5249,
      "ĠvmÅ¯j": 5250,
      "Ġtral": 5251,
      "Ġbron": 5252,
      "ĠzpÃŃs": 5253,
      "ĠstÃ½l": 5254,
      "ĠskÅĻÃŃt": 5255,
      "ĠÅĪÃ¡k": 5256,
      "ĠÅ¾da": 5257,
      "ĠÅ¡ÅĪÅ¯": 5258,
      "ĠvtÅ¯ÅĪ": 5259,
      "ĠvhÅĻÃŃ": 5260,
      "ĠzhouÅ¡": 5261,
      "Ġsbla": 5262,
      "Ġvkri": 5263,
      "Ġtot": 5264,
      "ĠpÃ¡l": 5265,
      "Ġbiz": 5266,
      "Ġzhl": 5267,
      "ĠkneÅ¡": 5268,
      "Ġkluz": 5269,
      "Ġllah": 5270,
      "Ġskte": 5271,
      "Ġprov": 5272,
      "ĠzÃŃtÅĻ": 5273,
      "ĠtouÄį": 5274,
      "ĠonÅ¥": 5275,
      "Ġstoud": 5276,
      "Ġskost": 5277,
      "Ġskrej": 5278,
      "ĠsviÅ¾": 5279,
      "ĠslÃŃÄį": 5280,
      "ĠdlÃ¡m": 5281,
      "Ġblem": 5282,
      "Ġstrhl": 5283,
      "ĠvdÅ¯l": 5284,
      "Ġvak": 5285,
      "ĠliÅ¥": 5286,
      "Ġtvrd": 5287,
      "ĠvplÃŃ": 5288,
      "ĠstvÃŃch": 5289,
      "ĠzhnÃŃz": 5290,
      "ĠtÅĻÃŃÅ¡Å¥": 5291,
      "ĠÅ¡kÃ¡": 5292,
      "ĠÅĻan": 5293,
      "ĠvchÃ½": 5294,
      "ĠÅ¡Ã¡k": 5295,
      "ĠctÃŃm": 5296,
      "ĠlhÃ¡ÅĻ": 5297,
      "ĠjÃŃÄį": 5298,
      "ĠslÅ¯m": 5299,
      "ĠbeÄį": 5300,
      "Ġvsny": 5301,
      "Ġvdnech": 5302,
      "Ġsluh": 5303,
      "Ġkres": 5304,
      "Ġtknu": 5305,
      "ĠvtmÄĽ": 5306,
      "Ġmdlob": 5307,
      "ĠzhoÅĻ": 5308,
      "Ġlog": 5309,
      "ĠvoÄı": 5310,
      "Ġsod": 5311,
      "ĠslÃ¡n": 5312,
      "Ġvsku": 5313,
      "ĠmstÃŃt": 5314,
      "ĠzhlÃŃd": 5315,
      "Ġdmu": 5316,
      "ĠmÃº": 5317,
      "Ġmnil": 5318,
      "Ġzau": 5319,
      "ĠvÃŃÅ¾": 5320,
      "Ġzeb": 5321,
      "Ġdas": 5322,
      "ĠkÅ¯l": 5323,
      "ĠÅĻiÅ¥": 5324,
      "ĠprÃ¡l": 5325,
      "ĠvstÃ¡t": 5326,
      "Ġmls": 5327,
      "ĠknÃ½m": 5328,
      "ĠzÄįech": 5329,
      "ĠmnÃŃm": 5330,
      "Ġhviz": 5331,
      "jat": 5332,
      "Ġtyr": 5333,
      "Ġstret": 5334,
      "Ġmsta": 5335,
      "ĠskÅĻÃŃÅĪ": 5336,
      "ĠbÅĻin": 5337,
      "ĠchÅĻest": 5338,
      "Ġvzim": 5339,
      "Ġrre": 5340,
      "ĠsvÄĽÅ¥": 5341,
      "ĠtenÅ¥": 5342,
      "Ġbic": 5343,
      "ĠAAA": 5344,
      "ĠblaÅ¾": 5345,
      "ĠzkÅĻe": 5346,
      "ĠstvÃ½m": 5347,
      "ĠÅ¾an": 5348,
      "Ġznes": 5349,
      "Ġzjich": 5350,
      "ĠhnÃŃzd": 5351,
      "Ġstkvost": 5352,
      "Ġsjas": 5353,
      "Ġgre": 5354,
      "Ġvspol": 5355,
      "ĠsÅ¾ÃŃ": 5356,
      "ĠÅ¡lou": 5357,
      "ĠroÅ¾": 5358,
      "Ġzdal": 5359,
      "Ġhran": 5360,
      "Ġvbra": 5361,
      "ĠpÅĻÃ¡h": 5362,
      "Ġkzd": 5363,
      "ĠÄįtr": 5364,
      "Ġzbav": 5365,
      "Ġxan": 5366,
      "Ġkai": 5367,
      "ĠvÃ¡d": 5368,
      "Ġmau": 5369,
      "Ġvus": 5370,
      "ĠzblÃ¡": 5371,
      "Ġvstr": 5372,
      "ĠchÃ½Å¡": 5373,
      "ĠvzÃ¡ÅĻ": 5374,
      "ĠztiÅ¡": 5375,
      "Ġbon": 5376,
      "ĠlÃŃh": 5377,
      "ĠtÃ©l": 5378,
      "Ġvsad": 5379,
      "Ġvtra": 5380,
      "ĠbÃ¡r": 5381,
      "Ġzky": 5382,
      "ĠchvÃŃt": 5383,
      "ĠshlÃ©": 5384,
      "Ġlim": 5385,
      "Ġfl": 5386,
      "Ġvkal": 5387,
      "ĠziÅ¡": 5388,
      "Ġzhe": 5389,
      "Ġvzpru": 5390,
      "Ġtman": 5391,
      "ĠthÃ©": 5392,
      "ĠÄįtou": 5393,
      "Ġvskle": 5394,
      "Ġvzkve": 5395,
      "ĠkspÃ¡": 5396,
      "Ġtim": 5397,
      "ĠABABAA": 5398,
      "Ġras": 5399,
      "Ġzdat": 5400,
      "Ġzlen": 5401,
      "Ġzmlh": 5402,
      "ĠsÅ¾a": 5403,
      "Ã¼": 5404,
      "Ġkoh": 5405,
      "ĠlÃ¡r": 5406,
      "ĠvÅ¡er": 5407,
      "ĠvdÃ½": 5408,
      "ĠprÃ¡t": 5409,
      "Ġhen": 5410,
      "Ġkroj": 5411,
      "ĠÅ¡an": 5412,
      "Ġzlet": 5413,
      "Ġtky": 5414,
      "ĠdlÃ¡Å¾": 5415,
      "Ġchrt": 5416,
      "ĠvmraÄį": 5417,
      "ĠvtÃŃs": 5418,
      "ol": 5419,
      "Ġcej": 5420,
      "rob": 5421,
      "Ġvon": 5422,
      "ĠdÃ¡Å¾": 5423,
      "ĠÅ¡ÃŃn": 5424,
      "ĠjÃ¡Å¥": 5425,
      "ĠXABX": 5426,
      "ĠdnÅ¯v": 5427,
      "ĠgroÅ¡": 5428,
      "ĠnÃ½ÅĻ": 5429,
      "ĠÅ¡eÄı": 5430,
      "Ġsklou": 5431,
      "ĠAXX": 5432,
      "Ġcis": 5433,
      "Ġvleh": 5434,
      "Ġsry": 5435,
      "ĠvÃºc": 5436,
      "ĠvadÅ¾": 5437,
      "Ġzhloub": 5438,
      "ĠÄįtvrt": 5439,
      "ĠvdÃŃl": 5440,
      "ĠvmÅ¾ik": 5441,
      "Ġjh": 5442,
      "Ġcas": 5443,
      "Ġrh": 5444,
      "ĠdaÅ¥": 5445,
      "Ġvper": 5446,
      "Ġsvoj": 5447,
      "ĠvniÅ¾": 5448,
      "ĠtevÅĻ": 5449,
      "ĠvÅ¾Ã¡r": 5450,
      "ĠvÅĪÃ¡": 5451,
      "Ġdm": 5452,
      "ĠpÃ©m": 5453,
      "Ġdik": 5454,
      "Ġbum": 5455,
      "ĠsmrÃ¡": 5456,
      "Ġsmlu": 5457,
      "ĠtÃ¡t": 5458,
      "BAC": 5459,
      "ĠvÅ¾ha": 5460,
      "Ġhrn": 5461,
      "ĠsÅ¯l": 5462,
      "Ġschnou": 5463,
      "Ġsdce": 5464,
      "ĠplÃ©m": 5465,
      "Ġhma": 5466,
      "Ġztre": 5467,
      "Ġwe": 5468,
      "ĠABCBAC": 5469,
      "Ġmaj": 5470,
      "Ġvtvr": 5471,
      "ĠpÃ¡k": 5472,
      "ĠrÃ©v": 5473,
      "ĠÅ¡las": 5474,
      "ĠztrÃ¡t": 5475,
      "Ġspit": 5476,
      "up": 5477,
      "Ġdsk": 5478,
      "ĠslÃ½m": 5479,
      "ĠAABBXB": 5480,
      "ĠÅĻiÄı": 5481,
      "Ġgal": 5482,
      "Ġslez": 5483,
      "ĠÅ¡let": 5484,
      "ĠsbÅĻe": 5485,
      "Ġtret": 5486,
      "Ġgur": 5487,
      "Ġhmot": 5488,
      "ĠlÃ©zt": 5489,
      "Ã¡r": 5490,
      "Ġcli": 5491,
      "ĠkÅ¯r": 5492,
      "Ġfem": 5493,
      "Ġchav": 5494,
      "ĠÅ¡tka": 5495,
      "ĠÅ¡ov": 5496,
      "ĠvdeÅ¡": 5497,
      "Ġai": 5498,
      "Ġsmla": 5499,
      "ĠÃºÄį": 5500,
      "Ġvstej": 5501,
      "ĠklÃŃÅĻ": 5502,
      "mur": 5503,
      "ĠvhoÅĻ": 5504,
      "Ġtric": 5505,
      "ĠcvrÄį": 5506,
      "Ġmzdu": 5507,
      "Ġzz": 5508,
      "ĠÄįme": 5509,
      "ĠpoÄı": 5510,
      "Ġlap": 5511,
      "Ġlaur": 5512,
      "ĠvzÅĪal": 5513,
      "Ġrach": 5514,
      "Ġcon": 5515,
      "Ġhyn": 5516,
      "Ġspov": 5517,
      "Ġzuj": 5518,
      "Ġshrou": 5519,
      "voz": 5520,
      "ĠspÅĻeÅ¾": 5521,
      "ĠÅĻkou": 5522,
      "Ġbob": 5523,
      "ĠÅĻic": 5524,
      "Ġsun": 5525,
      "Ġslok": 5526,
      "Ġhoust": 5527,
      "Ġkslo": 5528,
      "ĠktrÅ¯": 5529,
      "ĠvlÃŃÄį": 5530,
      "Ġfrak": 5531,
      "Ġbrouk": 5532,
      "ĠzchvÃ¡": 5533,
      "ĠsÃºc": 5534,
      "ĠstÅĻÃ¡s": 5535,
      "Ġchvost": 5536,
      "Ġski": 5537,
      "ĠmÃŃÄį": 5538,
      "Ġvsho": 5539,
      "ĠmlÃ¡Äı": 5540,
      "Ġtres": 5541,
      "ĠkÅĻti": 5542,
      "Ġvbrz": 5543,
      "ct": 5544,
      "Ġtas": 5545,
      "ĠvÅ¡p": 5546,
      "ĠmoÅĪ": 5547,
      "ĠspÅ¯": 5548,
      "ĠÄįiÅ¾": 5549,
      "ĠpÅĻih": 5550,
      "Ġvsr": 5551,
      "Ġbrach": 5552,
      "Ġdvr": 5553,
      "Ġslel": 5554,
      "ĠÅ¾Ã¡t": 5555,
      "Ġvdov": 5556,
      "ĠchtÃŃc": 5557,
      "ĠkÅĻt": 5558,
      "ĠvlÅ¯Å¾": 5559,
      "ĠvrÅ¯z": 5560,
      "ĠvjichÅ¾": 5561,
      "ĠchmÃ½": 5562,
      "bo": 5563,
      "Ġlne": 5564,
      "ĠÅ¾iÅ¥": 5565,
      "Ġhum": 5566,
      "Ġvss": 5567,
      "ĠryÅ¡": 5568,
      "Ġstot": 5569,
      "ĠvleÄį": 5570,
      "ĠkpÃŃs": 5571,
      "ĠbrouÄį": 5572,
      "Ġzchla": 5573,
      "Ġvsed": 5574,
      "Ġbrys": 5575,
      "ĠÅ¾ÃŃk": 5576,
      "Ġsmil": 5577,
      "ĠvplÃ©": 5578,
      "Ġpul": 5579,
      "Ġblek": 5580,
      "ĠstvÃ½ch": 5581,
      "Ġnezv": 5582,
      "ĠdrÃ¡p": 5583,
      "ĠzrÃ¡t": 5584,
      "ĠÅ¡plou": 5585,
      "ĠÅ¡kod": 5586,
      "ĠblÃ½Å¡": 5587,
      "ĠbeÅĻ": 5588,
      "Ġtran": 5589,
      "ĠshnÄĽ": 5590,
      "Ġprus": 5591,
      "Ġvrum": 5592,
      "Ġzlit": 5593,
      "Ġrhyt": 5594,
      "Ġvzmu": 5595,
      "Ġbus": 5596,
      "ĠbaÅ¡": 5597,
      "ĠstÅĻeh": 5598,
      "Ġvchva": 5599,
      "ĠhÅĻiv": 5600,
      "Ġzcu": 5601,
      "Ã¤": 5602,
      "Ġnvi": 5603,
      "ĠtcÅ¯": 5604,
      "ĠsvÅ¡e": 5605,
      "Ġmeh": 5606,
      "ĠvÃ½r": 5607,
      "Ġbam": 5608,
      "Ġlum": 5609,
      "Ġhuj": 5610,
      "ĠvdÃ½m": 5611,
      "ĠkleÄį": 5612,
      "Ġchyl": 5613,
      "Ġvlep": 5614,
      "ĠvÅĻÃŃs": 5615,
      "Ġllen": 5616,
      "Ġcleh": 5617,
      "ĠschrÃ¡n": 5618,
      "Ġkf": 5619,
      "Ġlav": 5620,
      "ĠjÃŃÅĻ": 5621,
      "ĠtaÅ¡": 5622,
      "ĠmuÅ¥": 5623,
      "ĠpÅĻer": 5624,
      "ĠXAXB": 5625,
      "ĠÅ¾ich": 5626,
      "Ġtruj": 5627,
      "ĠtÅĻas": 5628,
      "ĠzhyÅĪ": 5629,
      "ĠÃ¡t": 5630,
      "Ġlus": 5631,
      "Ġshled": 5632,
      "ĠtroÅ¡": 5633,
      "ĠklÅ¯": 5634,
      "ĠchÃ½n": 5635,
      "Ġsde": 5636,
      "ĠsÃ½c": 5637,
      "ĠdnÃŃm": 5638,
      "Ġvples": 5639,
      "ĠtnÃ½": 5640,
      "ĠÄįÃ¡l": 5641,
      "ĠsvÅ¯": 5642,
      "ĠtrÄį": 5643,
      "ĠbÃ¡Äį": 5644,
      "ĠplÃ½ch": 5645,
      "ĠstrasÅ¥": 5646,
      "Ġdlid": 5647,
      "ĠÅ¾ab": 5648,
      "ĠvzhlÃ©": 5649,
      "ĠvÄįlo": 5650,
      "Ġzchu": 5651,
      "Ġpliv": 5652,
      "nÃ½ch": 5653,
      "ĠrÅ¾": 5654,
      "Ġvkar": 5655,
      "ĠzmÄĽk": 5656,
      "ĠÅ¡Å¯v": 5657,
      "ĠksluÅ¾": 5658,
      "ĠÅ¡te": 5659,
      "ĠABABBA": 5660,
      "Ġprk": 5661,
      "Ġzhnu": 5662,
      "Ġksa": 5663,
      "ĠÅ¡lÃŃm": 5664,
      "ĠÅ¥uk": 5665,
      "ĠsvraÅ¡": 5666,
      "ĠsÅ¥a": 5667,
      "AAB": 5668,
      "Å¡ÃŃ": 5669,
      "ĠAABAAB": 5670,
      "ĠÄįiÅ¥": 5671,
      "ĠstÃŃch": 5672,
      "Ġkrt": 5673,
      "Ġspoj": 5674,
      "Ġshl": 5675,
      "ĠnnÃŃk": 5676,
      "ĠhÅĻej": 5677,
      "Ġgis": 5678,
      "ĠtÅĻÃ¡st": 5679,
      "Ġskel": 5680,
      "ĠzÃ½m": 5681,
      "Ġtai": 5682,
      "ĠtouÅ¡": 5683,
      "ĠÄįÃ¡p": 5684,
      "Ġzchy": 5685,
      "ĠvplÃ¡Å¡Å¥": 5686,
      "Ġprinc": 5687,
      "Ġmul": 5688,
      "Ġsau": 5689,
      "Ġhouk": 5690,
      "ĠtÅĻej": 5691,
      "Ġzluk": 5692,
      "ĠdÃ³m": 5693,
      "Ġchmel": 5694,
      "ĠsbÃ¡z": 5695,
      "Ġpau": 5696,
      "ĠpÄĽÅ¡": 5697,
      "Ġres": 5698,
      "Ġzbr": 5699,
      "Ġstuj": 5700,
      "ĠdnÅ¯m": 5701,
      "ĠzluÄį": 5702,
      "Ġvmrak": 5703,
      "ĠvbÃ¡s": 5704,
      "Ġzast": 5705,
      "XAA": 5706,
      "Ġzkni": 5707,
      "Ġstvy": 5708,
      "Ġhlod": 5709,
      "Ġspros": 5710,
      "ĠvhÃ¡j": 5711,
      "ĠtkvÄĽl": 5712,
      "ĠhoÅ¡": 5713,
      "Ġjic": 5714,
      "ĠvÅ¡ad": 5715,
      "ĠfÄĽ": 5716,
      "Ġvzdou": 5717,
      "ĠrÃ½n": 5718,
      "ĠmnÄĽl": 5719,
      "ĠrouÅ¾": 5720,
      "Ġtlak": 5721,
      "Ġzcest": 5722,
      "Ġvklen": 5723,
      "Ġvpur": 5724,
      "Ġsov": 5725,
      "ĠkÅĻiÄį": 5726,
      "ĠkÅĻeÄį": 5727,
      "Ġvpan": 5728,
      "ĠstÅĻin": 5729,
      "ĠnÃŃÅ¥": 5730,
      "Ġmol": 5731,
      "Ġspar": 5732,
      "Ġkvel": 5733,
      "Ġvzav": 5734,
      "ĠdÅĻec": 5735,
      "Ġbert": 5736,
      "ĠÅ¡etÅĻ": 5737,
      "ĠknÃ©m": 5738,
      "ĠvhluÄį": 5739,
      "ĠvtvÅ¯j": 5740,
      "ĠfÃŃr": 5741,
      "ĠvvÄĽ": 5742,
      "Ġjec": 5743,
      "ĠpÃŃch": 5744,
      "ĠstÃ¡v": 5745,
      "Ġvdr": 5746,
      "ĠmdlÃŃ": 5747,
      "Ġfes": 5748,
      "ĠbdÃŃm": 5749,
      "Ġvluz": 5750,
      "ĠzluÅ¡": 5751,
      "ĠABAXBX": 5752,
      "ĠvÃ¡Äį": 5753,
      "Ġsklem": 5754,
      "Ġvtla": 5755,
      "Ġstoh": 5756,
      "Ġvlad": 5757,
      "Ġvlil": 5758,
      "ĠstÅĻej": 5759,
      "Ġdlej": 5760,
      "ĠanÅ¥": 5761,
      "Ġslout": 5762,
      "ĠhnÄĽt": 5763,
      "Ġcym": 5764,
      "ĠchrlÃŃ": 5765,
      "Ġhold": 5766,
      "tÃ¡n": 5767,
      "ym": 5768,
      "ĠcÃ¡t": 5769,
      "ouÄį": 5770,
      "ĠdÃŃch": 5771,
      "Ġtval": 5772,
      "ÄıÃ¡": 5773,
      "Ġvdar": 5774,
      "Ġzlat": 5775,
      "ĠchvÃŃÅ¡": 5776,
      "Ġjuj": 5777,
      "Ġprout": 5778,
      "Ġvchla": 5779,
      "Ġbrun": 5780,
      "Ġxu": 5781,
      "ĠzprÃ¡v": 5782,
      "Ġkprav": 5783,
      "ĠtskÃ©": 5784,
      "Ġdc": 5785,
      "ĠstlÃŃ": 5786,
      "Ġsvle": 5787,
      "Ġdag": 5788,
      "ĠÄįÃŃs": 5789,
      "Ġvsvi": 5790,
      "Ġvtvou": 5791,
      "ĠdÃ½l": 5792,
      "ĠtvÃ¡ch": 5793,
      "Ġztad": 5794,
      "ĠÅ¡kra": 5795,
      "Ġjom": 5796,
      "ĠmdlÃ½ch": 5797,
      "ĠXABAXB": 5798,
      "lÅ¯": 5799,
      "ĠstiÅ¾": 5800,
      "Ġbun": 5801,
      "Ġsoch": 5802,
      "ĠvkÅ¯": 5803,
      "Ġvraj": 5804,
      "Ġpyl": 5805,
      "Ġspis": 5806,
      "Ġlymp": 5807,
      "ĠÅĻku": 5808,
      "ĠÅ¡prÃ½m": 5809,
      "ĠcÅ¾e": 5810,
      "Ġlot": 5811,
      "ĠchvÄĽv": 5812,
      "Ġchvy": 5813,
      "ĠnnosÅ¥": 5814,
      "ĠbdÃŃt": 5815,
      "ĠlhÃ¡t": 5816,
      "ĠvjÃŃÅ¾": 5817,
      "ev": 5818,
      "ĠkyÅ¾": 5819,
      "Ġspjat": 5820,
      "ĠlÃ¡l": 5821,
      "Ġplaz": 5822,
      "ĠzmÃ½": 5823,
      "Ġhrb": 5824,
      "Ġshu": 5825,
      "Ġschva": 5826,
      "Ġsrb": 5827,
      "Ġzbuj": 5828,
      "ĠzhvÄĽzd": 5829,
      "Ġjor": 5830,
      "Ġlab": 5831,
      "Ġskra": 5832,
      "ĠAABXXB": 5833,
      "ĠvsvÃ¡": 5834,
      "Ġvprud": 5835,
      "Ġslat": 5836,
      "Ġvklu": 5837,
      "Ġzmou": 5838,
      "ĠsdÃŃv": 5839,
      "ĠbÅĻad": 5840,
      "Ġbim": 5841,
      "Ġvklou": 5842,
      "Ġgou": 5843,
      "ĠhÃ½n": 5844,
      "ĠstvÅ¯r": 5845,
      "ĠblÃŃÄį": 5846,
      "Ġpravd": 5847,
      "Ġges": 5848,
      "Ġvsklo": 5849,
      "ĠzdÄĽt": 5850,
      "Ġvzmar": 5851,
      "Ġztma": 5852,
      "ĠABCCBA": 5853,
      "ĠvsmÃŃch": 5854,
      "ĠÅ¡van": 5855,
      "ĠhÃºt": 5856,
      "ĠnÄĽv": 5857,
      "ĠrosÅ¥": 5858,
      "Ġvul": 5859,
      "Ġryn": 5860,
      "ĠvÅ¾lu": 5861,
      "ĠslÃŃp": 5862,
      "ĠslÃŃch": 5863,
      "ĠchtÄĽls": 5864,
      "ĠvchÅ¯": 5865,
      "ĠÄıoun": 5866,
      "ĠzvÃŃd": 5867,
      "ĠpliÄį": 5868,
      "Ġvtrh": 5869,
      "ĠÄįtver": 5870,
      "Ġkha": 5871,
      "ĠboÅ¡": 5872,
      "Ġgh": 5873,
      "ĠbÅ¯Å¾": 5874,
      "Ġshe": 5875,
      "ĠsmyÄį": 5876,
      "ĠzvÃ¡Å¡": 5877,
      "ĠvpÅ¯t": 5878,
      "ĠÅ¡vec": 5879,
      "Ġcir": 5880,
      "ĠpaÅĪ": 5881,
      "ĠbÄĽn": 5882,
      "Ġklest": 5883,
      "ĠbÅĻez": 5884,
      "ĠÄįÃ¡k": 5885,
      "Ġcouv": 5886,
      "ĠÅ¡prÃ½": 5887,
      "ĠAAAABB": 5888,
      "Ġrro": 5889,
      "Ġkub": 5890,
      "Ġcot": 5891,
      "ÅĪu": 5892,
      "ĠvpÅĻÃ¡": 5893,
      "Ġred": 5894,
      "ĠzhlÃ©d": 5895,
      "ĠstrÃ¡z": 5896,
      "ĠAAXAXA": 5897,
      "Ġpsan": 5898,
      "Ġjiv": 5899,
      "ĠvÅ¡el": 5900,
      "ĠreÅ¾": 5901,
      "Ġhoup": 5902,
      "Ġvret": 5903,
      "ĠprÃ¡ch": 5904,
      "Ġklon": 5905,
      "Ġtrum": 5906,
      "ĠsjÃ¡": 5907,
      "vÃ¡l": 5908,
      "Ġlaj": 5909,
      "ĠdÃŃÄį": 5910,
      "Ġmav": 5911,
      "ĠÅĻest": 5912,
      "Ġzpar": 5913,
      "ĠbÃŃÄį": 5914,
      "ĠkÃ½n": 5915,
      "ĠztvÃ¡": 5916,
      "ĠpÅ¯st": 5917,
      "Ġfir": 5918,
      "ĠjÅ¯v": 5919,
      "Ġknouc": 5920,
      "Ġstlal": 5921,
      "Ġzkvet": 5922,
      "ĠABBABX": 5923,
      "Ġryth": 5924,
      "ĠrdÄĽl": 5925,
      "Ġzvrh": 5926,
      "ĠAXBBAX": 5927,
      "on": 5928,
      "Ġbvi": 5929,
      "ĠÄįly": 5930,
      "Ġoas": 5931,
      "Ġdlal": 5932,
      "Ġzut": 5933,
      "Ġzhrou": 5934,
      "Ġvchvat": 5935,
      "ĠctnÃ¡": 5936,
      "ĠvlÃŃt": 5937,
      "Ġgot": 5938,
      "ĠzjÃŃ": 5939,
      "ĠABCAC": 5940,
      "ĠÅ¡paÄį": 5941,
      "ĠkdÃŃv": 5942,
      "ĠABCACB": 5943,
      "Ġul": 5944,
      "ĠlÃŃb": 5945,
      "Ġznu": 5946,
      "Ġchost": 5947,
      "Ġech": 5948,
      "Ġbrad": 5949,
      "ĠplÃ½m": 5950,
      "Ġsles": 5951,
      "ĠvzdÃ½": 5952,
      "ĠznaÄį": 5953,
      "ĠplyÅĪ": 5954,
      "ĠfÃ¡d": 5955,
      "Ġmhy": 5956,
      "ĠABXABX": 5957,
      "ta": 5958,
      "ĠjvÄĽ": 5959,
      "Ġpsk": 5960,
      "Ġsver": 5961,
      "ĠsÃ¡Å¡": 5962,
      "ĠtÅĻÃŃt": 5963,
      "Ġ25": 5964,
      "Ġovz": 5965,
      "ĠAXXAXX": 5966,
      "ĠvzplÃ¡t": 5967,
      "ĠtviÄį": 5968,
      "ĠzÄįa": 5969,
      "Ġtce": 5970,
      "Ġvep": 5971,
      "ĠdÄĽr": 5972,
      "ĠsmÃ½m": 5973,
      "Ġslul": 5974,
      "ĠdÃ½n": 5975,
      "ĠvmrÃ¡": 5976,
      "ĠÅĪÅ¯m": 5977,
      "Ġbroj": 5978,
      "ĠÅ¡pe": 5979,
      "ĠÅ¡pl": 5980,
      "Ġkbe": 5981,
      "ĠdnÃŃch": 5982,
      "ĠzbuÄı": 5983,
      "ĠspleÅ¥": 5984,
      "ĠÅ¥Ã¡k": 5985,
      "Ġcert": 5986,
      "ĠjÃ³": 5987,
      "ĠcÃº": 5988,
      "ĠÄįich": 5989,
      "Ġvkme": 5990,
      "Ġzon": 5991,
      "ĠstrÅ¾": 5992,
      "Ġrit": 5993,
      "ĠÅ¥Å¯": 5994,
      "Ġchel": 5995,
      "Ġtby": 5996,
      "ky": 5997,
      "ĠzÅĻi": 5998,
      "ĠcÃŃp": 5999,
      "ĠraÅ¥": 6000,
      "ĠpÅĻez": 6001,
      "Ġzvem": 6002,
      "ĠhrsÅ¥": 6003,
      "ĠzhÅĻe": 6004,
      "ĠslÃŃt": 6005,
      "Ġsda": 6006,
      "ĠsbÄĽÅĻ": 6007,
      "Ġchvoj": 6008,
      "ĠÄįlÃ¡n": 6009,
      "Ġlnu": 6010,
      "Ġjep": 6011,
      "ĠmaÅĻ": 6012,
      "ĠlÃŃr": 6013,
      "Ġzdor": 6014,
      "ĠpÅĻiÅ¡": 6015,
      "Ġpuj": 6016,
      "Ġslon": 6017,
      "ĠrÃ½Äį": 6018,
      "Ġmrl": 6019,
      "Ġsbur": 6020,
      "Ġskrou": 6021,
      "ĠlkÃ¡m": 6022,
      "Ġmstu": 6023,
      "Ġzmdlo": 6024,
      "Ġvsloup": 6025,
      "Ġveh": 6026,
      "ĠsptÃ¡": 6027,
      "ĠmÃ¡r": 6028,
      "ĠvÅ¾er": 6029,
      "Ġspos": 6030,
      "Ġzvoj": 6031,
      "ĠspÃŃm": 6032,
      "ĠzÄįes": 6033,
      "ĠtskÃ½ch": 6034,
      "ĠlpÄĽ": 6035,
      "Ġrop": 6036,
      "ĠsvÃ©st": 6037,
      "Ġsoh": 6038,
      "ĠrÃ½h": 6039,
      "ĠslÃ¡d": 6040,
      "ĠkloÅĪ": 6041,
      "Ġlent": 6042,
      "Ġvjem": 6043,
      "Ġvbol": 6044,
      "ĠvboÅ¾": 6045,
      "Ġvjis": 6046,
      "Ġvkrev": 6047,
      "Ġwi": 6048,
      "ĠctÄĽn": 6049,
      "ĠvsÃ¡z": 6050,
      "Ġnij": 6051,
      "Ġzdla": 6052,
      "Ġvplu": 6053,
      "ĠÃºÅ¡": 6054,
      "Ġvdrob": 6055,
      "ĠtvÃ¡n": 6056,
      "Ġspon": 6057,
      "Ġksy": 6058,
      "ĠkÃ½ms": 6059,
      "ĠdrÃ¡b": 6060,
      "ĠsklÃ¡l": 6061,
      "Ġalp": 6062,
      "Ġstkvou": 6063,
      "Ġzkon": 6064,
      "ĠAXBABX": 6065,
      "hÅĻ": 6066,
      "ĠkÅ¡e": 6067,
      "ĠÄįr": 6068,
      "ĠÄįpÃŃ": 6069,
      "Ġmir": 6070,
      "Ġduk": 6071,
      "ĠmÄĽÅĪ": 6072,
      "Ġvzno": 6073,
      "Ġvdvo": 6074,
      "ĠsloÅ¾": 6075,
      "ĠtÅĻech": 6076,
      "ĠchvÃŃm": 6077,
      "Ġvzbo": 6078,
      "Ġkpom": 6079,
      "Ġsprav": 6080,
      "Ġmlej": 6081,
      "ĠkaÅ¥": 6082,
      "Ġlor": 6083,
      "ĠtÃŃt": 6084,
      "Ġvyn": 6085,
      "Ġvyt": 6086,
      "Ġmac": 6087,
      "Ġtrech": 6088,
      "Ġklap": 6089,
      "ĠgrÃ¡": 6090,
      "Ġsvol": 6091,
      "Ġklin": 6092,
      "Ġkpi": 6093,
      "ĠÅ¡tu": 6094,
      "ĠABBXAX": 6095,
      "ĠzÅ¾en": 6096,
      "ĠchÅĻtÃ¡n": 6097,
      "ĠbÃ³": 6098,
      "Ġtoi": 6099,
      "Ġvah": 6100,
      "ĠzÃŃd": 6101,
      "ĠvÅ¯v": 6102,
      "ĠknÄĽh": 6103,
      "Ġkpe": 6104,
      "Ġvtisk": 6105,
      "ĠstÅĻÃ¡b": 6106,
      "Ġrri": 6107,
      "Ġstlou": 6108,
      "ĠpaÅ¾": 6109,
      "ĠsvÄĽÄį": 6110,
      "ĠhouÄį": 6111,
      "ĠtÅĻÃŃc": 6112,
      "ĠÅ¡am": 6113,
      "ĠÅ¡ach": 6114,
      "ĠmÅĻeÅ¡": 6115,
      "Ġthen": 6116,
      "ĠvÅ¡im": 6117,
      "Ġmstou": 6118,
      "Ġclon": 6119,
      "ĠsdÄĽc": 6120,
      "Ġscvr": 6121,
      "Ġzvlast": 6122,
      "ĠdÅ¡tÃŃ": 6123,
      "Ġkdi": 6124,
      "ĠboÄį": 6125,
      "ĠÅĻeÅ¾": 6126,
      "Ġkvl": 6127,
      "Ġvmh": 6128,
      "Ġsliz": 6129,
      "Ġxem": 6130,
      "ĠvzmÃ¡": 6131,
      "Ġkjed": 6132,
      "ĠvmÃŃr": 6133,
      "ĠkÅ¡tic": 6134,
      "Ġjhem": 6135,
      "ĠÅ¡Ã¡l": 6136,
      "Ġjse": 6137,
      "ĠÅĻÃŃj": 6138,
      "ĠsoÅ¡": 6139,
      "ĠÄįaj": 6140,
      "Ġvzpur": 6141,
      "ĠvnÃŃz": 6142,
      "Ġvzho": 6143,
      "ĠkbÃŃ": 6144,
      "Ġvhoj": 6145,
      "Ġchrap": 6146,
      "ĠkrouÅ¾": 6147,
      "Ġvtmy": 6148,
      "ĠhnÃŃ": 6149,
      "Ġvir": 6150,
      "ĠzdÅ¯": 6151,
      "ĠmÅ¯v": 6152,
      "Ġvpol": 6153,
      "Ġnals": 6154,
      "ĠhÅ¯d": 6155,
      "Ġchrou": 6156,
      "ĠÃŃm": 6157,
      "ber": 6158,
      "Ġbva": 6159,
      "ĠchÅĻÃŃ": 6160,
      "ĠzeÅ¡": 6161,
      "Ġzkli": 6162,
      "Ġvhrou": 6163,
      "ĠvbrÃ¡": 6164,
      "ĠdlÅ¯m": 6165,
      "ĠblÃŃn": 6166,
      "ĠschvÃ¡l": 6167,
      "Ġumr": 6168,
      "ĠkÅ¡ÃŃ": 6169,
      "ĠsvlaÄį": 6170,
      "ĠvpÄĽk": 6171,
      "ĠvcÃŃr": 6172,
      "ĠXABXAB": 6173,
      "Ġpnul": 6174,
      "ĠstlÃ½ch": 6175,
      "ĠdÃŃn": 6176,
      "Ġvsni": 6177,
      "ĠpÅĻÃŃÄį": 6178,
      "Ġvrz": 6179,
      "Ġbrz": 6180,
      "ĠvÅ¯l": 6181,
      "Ġfis": 6182,
      "Ġous": 6183,
      "ĠvcÃ¡": 6184,
      "ĠvdÃŃv": 6185,
      "ĠÅ¾nec": 6186,
      "ĠsjÃŃÅ¾": 6187,
      "Ġtno": 6188,
      "Ġjli": 6189,
      "ĠmlÃŃ": 6190,
      "Ġpet": 6191,
      "ĠtrÅ¾": 6192,
      "ĠjÃ¡ÅĻ": 6193,
      "ĠhyÅĪ": 6194,
      "ĠplaÅĪ": 6195,
      "Ġkvra": 6196,
      "Ġksvo": 6197,
      "ĠchrÃ¡n": 6198,
      "ĠÅ¾hÃ¡": 6199,
      "ĠblÃ½ch": 6200,
      "ĠchÅĻa": 6201,
      "ĠsaÄı": 6202,
      "ĠkrÃ½ch": 6203,
      "Ġvsti": 6204,
      "Ġstvr": 6205,
      "Ġzvel": 6206,
      "ĠAXAABB": 6207,
      "Ġvlez": 6208,
      "ĠÅ¡pet": 6209,
      "Ġvkost": 6210,
      "Ġkci": 6211,
      "Ġmlo": 6212,
      "Ã½z": 6213,
      "Ġsper": 6214,
      "ĠhlaÄı": 6215,
      "Ġkrz": 6216,
      "Ġvsle": 6217,
      "Ġbiv": 6218,
      "ĠstÅĻez": 6219,
      "Ġslin": 6220,
      "ĠÅ¡ust": 6221,
      "ĠstÅĻÃŃm": 6222,
      "ĠtrÅ¯v": 6223,
      "ĠtlÅ¯": 6224,
      "Ġgest": 6225,
      "ĠzkrÃ¡s": 6226,
      "Ġjrad": 6227,
      "ĠAXXABB": 6228,
      "ĠÅ¡Å¯m": 6229,
      "ĠÅ¡ma": 6230,
      "ĠkoÅĻ": 6231,
      "ĠmÃŃÅ¥": 6232,
      "ĠvdrÃ¡": 6233,
      "ĠvkvÃŃ": 6234,
      "Ġstuh": 6235,
      "Ġdlec": 6236,
      "Ġvzpu": 6237,
      "ĠtmÃ¡": 6238,
      "Ġtrut": 6239,
      "Ġschne": 6240,
      "Ġkple": 6241,
      "Ġvrop": 6242,
      "Ġshod": 6243,
      "Ġstlin": 6244,
      "ĠzmÃŃr": 6245,
      "Ġzmoh": 6246,
      "Ġhnizd": 6247,
      "Ġvhud": 6248,
      "ĠkchrÃ¡": 6249,
      "Ġvvz": 6250,
      "ju": 6251,
      "ku": 6252,
      "Ġtnou": 6253,
      "Ġcre": 6254,
      "Ġkoch": 6255,
      "Ġkdve": 6256,
      "ĠzeÅ¥": 6257,
      "Ġjaj": 6258,
      "Ġbom": 6259,
      "ĠzdÃ½": 6260,
      "ĠsÃŃk": 6261,
      "ĠkvÅ¡e": 6262,
      "Ġklop": 6263,
      "Ġskor": 6264,
      "Ġkryj": 6265,
      "Ġvjev": 6266,
      "Ġgerd": 6267,
      "ĠstkÃ¡": 6268,
      "Ġzkus": 6269,
      "ĠbÅĻich": 6270,
      "Ġzprv": 6271,
      "Ġkcha": 6272,
      "ĠsÄįa": 6273,
      "ĠvtÃ½l": 6274,
      "ĠrÅ¾Ã¡": 6275,
      "Ã¡s": 6276,
      "ĠllÃ¡": 6277,
      "ĠmÅ¡e": 6278,
      "ĠseÄı": 6279,
      "ĠhoÅĪ": 6280,
      "Ġnix": 6281,
      "ĠvÅ¡at": 6282,
      "ĠlÃŃs": 6283,
      "ĠAABABX": 6284,
      "Ġzdna": 6285,
      "ĠtakÅĻ": 6286,
      "Ġprej": 6287,
      "ĠpuÄı": 6288,
      "Ġplan": 6289,
      "Ġztvo": 6290,
      "Ġschlad": 6291,
      "Ġvdus": 6292,
      "ĠÅ¾alm": 6293,
      "Ġspur": 6294,
      "ĠzkÃ¡z": 6295,
      "ĠflÃŃk": 6296,
      "ĠXAXXXA": 6297,
      "Ġcp": 6298,
      "ĠvÃ¡c": 6299,
      "ĠbuÅ¡": 6300,
      "ĠAABBBB": 6301,
      "ĠsÃ¡d": 6302,
      "Ġbrak": 6303,
      "ĠzmrÃ¡": 6304,
      "Ġgru": 6305,
      "ĠnebÅ¥": 6306,
      "Ġkpou": 6307,
      "Ġkti": 6308,
      "Ġmann": 6309,
      "Ġvkan": 6310,
      "ĠzniÄį": 6311,
      "Ġbrus": 6312,
      "ĠsbÃŃr": 6313,
      "ĠschÅ¯z": 6314,
      "th": 6315,
      "ĠscÃŃ": 6316,
      "ĠÅ¾rÃ¡": 6317,
      "ĠÅ¡eÅ¥": 6318,
      "Ġraf": 6319,
      "Ġbrlo": 6320,
      "Ġzkor": 6321,
      "Ġvlem": 6322,
      "Ġvrov": 6323,
      "ĠplÃ©st": 6324,
      "Ġvluh": 6325,
      "ĠzÃ½ch": 6326,
      "ĠbÅĻa": 6327,
      "Ã©st": 6328,
      "Ġsvil": 6329,
      "Ġmid": 6330,
      "Ġprol": 6331,
      "Ġcop": 6332,
      "Ġgem": 6333,
      "ĠprÃ¡m": 6334,
      "ĠvÅĻesk": 6335,
      "Ġtlan": 6336,
      "ĠzouÄį": 6337,
      "ĠkmÃ½m": 6338,
      "ĠÄıu": 6339,
      "ĠvÄįt": 6340,
      "Ġstka": 6341,
      "nÃ½m": 6342,
      "ĠtnÃ¡": 6343,
      "Ġpok": 6344,
      "ĠmÃ¡d": 6345,
      "Ġvps": 6346,
      "Ġvpal": 6347,
      "Ġfen": 6348,
      "Ġkvz": 6349,
      "ĠkraÅ¡": 6350,
      "ĠÅ¾ils": 6351,
      "ĠsblÃŃ": 6352,
      "ĠÅ¡lÃ©m": 6353,
      "ĠnnÄĽj": 6354,
      "ĠdÅĻek": 6355,
      "ĠstkvÄĽl": 6356,
      "Ġglic": 6357,
      "ĠzlÅ¯Å¾": 6358,
      "ĠzÅ¡ÃŃ": 6359,
      "Ġtne": 6360,
      "ÅĻem": 6361,
      "Ġnum": 6362,
      "ĠztÅĻe": 6363,
      "Ġvhvoz": 6364,
      "Ġmour": 6365,
      "Ġdlet": 6366,
      "Ġvils": 6367,
      "Ġdlost": 6368,
      "Ġkbu": 6369,
      "Ġznec": 6370,
      "Ġstliv": 6371,
      "ĠvstraÅ¡": 6372,
      "rÃ½": 6373,
      "Ġrry": 6374,
      "Ġsthe": 6375,
      "Ġchas": 6376,
      "ĠstraÅ¾": 6377,
      "ĠstrÅ¯j": 6378,
      "ĠtÅĻÃŃd": 6379,
      "ĠprÃ½s": 6380,
      "Ġknuv": 6381,
      "ĠÅ¡ot": 6382,
      "Ġvjih": 6383,
      "ĠvplÃ¡Å¡": 6384,
      "Ġkspa": 6385,
      "ĠXAAABB": 6386,
      "ĠvskrÃ¡ÅĪ": 6387,
      "ĠnÄĽh": 6388,
      "Ġtau": 6389,
      "ĠvÅ¡Å¥": 6390,
      "ĠÅ¡iv": 6391,
      "ĠvtÃ³": 6392,
      "Ġzper": 6393,
      "ĠkliÄį": 6394,
      "ĠtÅĻÃŃn": 6395,
      "ĠvneÅ¡": 6396,
      "ĠtluÅ¡": 6397,
      "ĠÄįti": 6398,
      "ĠvnÃ¡Å¡": 6399,
      "ĠABAABB": 6400,
      "Ġvsmrt": 6401,
      "ĠvÅĻÃ¡": 6402,
      "Ġvve": 6403,
      "Ġkun": 6404,
      "Ġkda": 6405,
      "Ġskru": 6406,
      "ĠÄįÃŃr": 6407,
      "Ġsas": 6408,
      "ĠfÃ¡l": 6409,
      "Ġgla": 6410,
      "Ġdvy": 6411,
      "ĠlouÅ¡": 6412,
      "Ġbrej": 6413,
      "Ġrik": 6414,
      "ĠsdÃŃt": 6415,
      "ĠvloÄı": 6416,
      "ĠterÄį": 6417,
      "ĠkstÃ¡": 6418,
      "ĠrtuÅ¥": 6419,
      "ĠdvÃŃÅĻ": 6420,
      "Ġvco": 6421,
      "Ġler": 6422,
      "ĠnÃ¡r": 6423,
      "ĠvoÅĪ": 6424,
      "Ġdys": 6425,
      "Ġsml": 6426,
      "ĠpiÅ¥": 6427,
      "ĠzhÃ½": 6428,
      "Ġpse": 6429,
      "Ġtmav": 6430,
      "Ġvstav": 6431,
      "ĠvÅĻÃŃÅ¡": 6432,
      "Ġzniv": 6433,
      "Ġzrud": 6434,
      "ĠXABBAA": 6435,
      "kal": 6436,
      "Ġkc": 6437,
      "Ġmnul": 6438,
      "Ġust": 6439,
      "Ġskni": 6440,
      "Ġpror": 6441,
      "ĠXAABBB": 6442,
      "Ġham": 6443,
      "ĠkÃ½ÅĻ": 6444,
      "ĠpÃ¡v": 6445,
      "Ġrouch": 6446,
      "ĠhluÅ¡": 6447,
      "Ġvnach": 6448,
      "ĠÄįuj": 6449,
      "ĠvmuÅ¾": 6450,
      "Ġzdych": 6451,
      "ĠchmÅ¯": 6452,
      "ĠflÃ³": 6453,
      "Ġhno": 6454,
      "ĠABCBC": 6455,
      "ĠciÅ¥": 6456,
      "ĠbeÅ¾": 6457,
      "ĠmÃŃc": 6458,
      "Ġvut": 6459,
      "Ġksl": 6460,
      "Ġnils": 6461,
      "ĠknÃŃm": 6462,
      "Ġzles": 6463,
      "Ġvzed": 6464,
      "ĠzlÃŃh": 6465,
      "Ġsmej": 6466,
      "Ġskles": 6467,
      "Ġslits": 6468,
      "ĠÅ¥ov": 6469,
      "ĠzÅ¾eh": 6470,
      "ĠABCBCA": 6471,
      "ic": 6472,
      "ĠrÃ³": 6473,
      "ĠÅ¾s": 6474,
      "Ġdup": 6475,
      "Ġcil": 6476,
      "Ġvzat": 6477,
      "ĠtÃ¡r": 6478,
      "ĠtakÅ¾": 6479,
      "ĠprÃ½ch": 6480,
      "Ġtril": 6481,
      "ĠhÃ¡k": 6482,
      "ĠvbrÃ¡z": 6483,
      "Ġknez": 6484,
      "Ġcent": 6485,
      "Ġtlej": 6486,
      "Ġvliv": 6487,
      "ĠvsÃŃÅ¥": 6488,
      "ĠsÅ¾eh": 6489,
      "ĠjvÄĽr": 6490,
      "Ġtoh": 6491,
      "ĠABXX": 6492,
      "Ġkyj": 6493,
      "ĠABABXA": 6494,
      "Ġsum": 6495,
      "Ġstov": 6496,
      "Ġdlas": 6497,
      "ĠdrÅ¥": 6498,
      "Ġztou": 6499,
      "ĠbÃ½k": 6500,
      "ĠkamÅ¾": 6501,
      "ĠktvÃ½m": 6502,
      "ĠsvÃ¡Å¡": 6503,
      "Ġvdom": 6504,
      "Ġsmet": 6505,
      "Ġvtrud": 6506,
      "Ġsfinx": 6507,
      "ĠÅ¡vÃ¡r": 6508,
      "ĠvzboÅ¾": 6509,
      "Ġtci": 6510,
      "ĠmnÃ¡": 6511,
      "Ġchnu": 6512,
      "Ġdop": 6513,
      "ĠboÅĻ": 6514,
      "Ġvzu": 6515,
      "ĠbeÅĪ": 6516,
      "ĠraÄı": 6517,
      "ĠpÅĻeh": 6518,
      "lÃ¡d": 6519,
      "ĠzdÅĻe": 6520,
      "ĠvpÅĻi": 6521,
      "Ġziv": 6522,
      "Ġzot": 6523,
      "Ġsvan": 6524,
      "ĠvhlÃŃ": 6525,
      "Ġzhrd": 6526,
      "Ġshou": 6527,
      "Ġvzpa": 6528,
      "ĠvÅĻeÄį": 6529,
      "ĠbrÃ¡zd": 6530,
      "ĠsvÃ¡Å¾": 6531,
      "Ġzcho": 6532,
      "Ġzpout": 6533,
      "ĠdmÃ½": 6534,
      "Ġkoz": 6535,
      "Ġkad": 6536,
      "Ġsplo": 6537,
      "Ġtakt": 6538,
      "Ġbac": 6539,
      "ĠbaÅ¥": 6540,
      "Ġodz": 6541,
      "ĠreÅ¡": 6542,
      "Ġlouk": 6543,
      "ĠzvÄĽn": 6544,
      "Ġoud": 6545,
      "Ġnevr": 6546,
      "ĠssÃ¡t": 6547,
      "ĠkÅ¾a": 6548,
      "Ġzac": 6549,
      "ĠloÅĪ": 6550,
      "Ġstam": 6551,
      "ĠÅ¾iÅ¡": 6552,
      "Ġstec": 6553,
      "ĠvdÃ©": 6554,
      "ĠrÃ½t": 6555,
      "ĠzveÅ¡": 6556,
      "ĠzvÄĽt": 6557,
      "ĠstÅĻÃŃÅ¡": 6558,
      "ĠkpÅ¯l": 6559,
      "ĠzÅĻels": 6560,
      "ĠÅ¡tval": 6561,
      "ĠvÅ¡ik": 6562,
      "ĠdÅ¡t": 6563,
      "po": 6564,
      "ĠchÃ³r": 6565,
      "ĠABAA": 6566,
      "ĠroÅĪ": 6567,
      "Ġmum": 6568,
      "Ġvsh": 6569,
      "Ġbour": 6570,
      "Ġzbil": 6571,
      "Ġzkrou": 6572,
      "Ġsbou": 6573,
      "ĠstÅĻÃŃk": 6574,
      "ĠkzpÄĽ": 6575,
      "Ġfrau": 6576,
      "ĠstÅĻih": 6577,
      "ĠtnÃŃm": 6578,
      "ĠdbÃ¡t": 6579,
      "ĠABAAAB": 6580,
      "lil": 6581,
      "ĠsÄįi": 6582,
      "ĠclÃ¡": 6583,
      "ĠhosÅ¥": 6584,
      "ĠsvlÃŃ": 6585,
      "Ġkach": 6586,
      "ĠloÅ¥": 6587,
      "ĠmÄĽs": 6588,
      "ĠÅ¡ÃŃÄį": 6589,
      "Ġsim": 6590,
      "ĠsteÅ¡": 6591,
      "Ġdran": 6592,
      "ĠchyÅĪ": 6593,
      "Ġmoun": 6594,
      "ĠbÅ¯v": 6595,
      "ĠÄįÃŃms": 6596,
      "Ġzlep": 6597,
      "Ġsrst": 6598,
      "ĠÅ¡Ã¡n": 6599,
      "ĠAXBA": 6600,
      "ĠkÅĻil": 6601,
      "ĠkviÄį": 6602,
      "ĠvzmÄĽ": 6603,
      "Ġvtri": 6604,
      "ĠvpyÅ¡": 6605,
      "nem": 6606,
      "ĠdÃŃÅ¾": 6607,
      "ĠdÃ¡Å¥": 6608,
      "Ġzvat": 6609,
      "ĠÅ¡ij": 6610,
      "ĠluÅ¡": 6611,
      "ĠlÃ©n": 6612,
      "Ġsub": 6613,
      "ĠvÅ¯t": 6614,
      "Ġtils": 6615,
      "Ġzves": 6616,
      "ĠznÄĽt": 6617,
      "Ġsdlou": 6618,
      "Ġtkne": 6619,
      "Ġ26": 6620,
      "ĠÅ¡to": 6621,
      "ĠzmÃŃn": 6622,
      "Ġsnub": 6623,
      "ĠÅĪuj": 6624,
      "ĠÅ¾Å¯v": 6625,
      "ĠvnuÄį": 6626,
      "ĠÅ¡Å¥av": 6627,
      "ĠsplÃ¡ch": 6628,
      "Ġzsrd": 6629,
      "Ġvtrp": 6630,
      "Ġsrub": 6631,
      "ĠÅ¾nÃŃch": 6632,
      "ĠvÅ¡Å¥ast": 6633,
      "ll": 6634,
      "war": 6635,
      "ĠmÅ¾ÃŃ": 6636,
      "ĠÅ¾rou": 6637,
      "Ġvzvu": 6638,
      "Ġbep": 6639,
      "ĠÅ¡iÅ¡": 6640,
      "Ġvsbo": 6641,
      "Ġpral": 6642,
      "Ġvlach": 6643,
      "ĠzbÅĻe": 6644,
      "ĠstyÄı": 6645,
      "ĠksnÄĽ": 6646,
      "ĠpÅ¯v": 6647,
      "ĠÅ¥at": 6648,
      "ĠdrosÅ¥": 6649,
      "Ġvjes": 6650,
      "ĠknÃŃr": 6651,
      "Ġzrod": 6652,
      "ĠvzkÅĻe": 6653,
      "Ġchlil": 6654,
      "ĠABAABA": 6655,
      "Ġzdum": 6656,
      "Ġerb": 6657,
      "ĠskvÃŃt": 6658,
      "ĠvÅ¾Ã¡d": 6659,
      "ĠXAXXAX": 6660,
      "ÅĻil": 6661,
      "ĠvÅ¡k": 6662,
      "ĠvsnÃŃ": 6663,
      "Ġfli": 6664,
      "Ġvouz": 6665,
      "ĠAAXABB": 6666,
      "Ġpik": 6667,
      "ĠvbdÄĽ": 6668,
      "ĠzdÃ¡Å¡": 6669,
      "ĠksvÃ¡t": 6670,
      "ĠmÃ½Å¾": 6671,
      "ĠhlÅ¯": 6672,
      "Ġskan": 6673,
      "ĠzlÃŃk": 6674,
      "ĠctnosÅ¥": 6675,
      "ĠÄįtyr": 6676,
      "Ġvdav": 6677,
      "Ġschyl": 6678,
      "ĠABXBAX": 6679,
      "tno": 6680,
      "Å¡em": 6681,
      "Ġtop": 6682,
      "ĠjÃŃk": 6683,
      "Ġdesk": 6684,
      "ĠvzÅĻÃŃ": 6685,
      "Ġmach": 6686,
      "ĠspÃ½": 6687,
      "ĠÅĻÃŃn": 6688,
      "Ġprz": 6689,
      "Ġsur": 6690,
      "ĠzÃŃv": 6691,
      "Ġchab": 6692,
      "ĠgÃ¡t": 6693,
      "ĠztÅ¯": 6694,
      "ĠkliÄı": 6695,
      "Ġrous": 6696,
      "Ġstve": 6697,
      "ĠÅ¡kvÃ¡": 6698,
      "Ġznez": 6699,
      "ĠskÅĻip": 6700,
      "Ġkant": 6701,
      "Ġsplet": 6702,
      "Ġvzchop": 6703,
      "us": 6704,
      "Ġzst": 6705,
      "ĠbÅ¯j": 6706,
      "Ġstau": 6707,
      "ĠhaÄį": 6708,
      "ĠsoÅĪ": 6709,
      "Ġsloh": 6710,
      "ĠksÃŃ": 6711,
      "ĠÅ¡lal": 6712,
      "Ġpsem": 6713,
      "ĠvmoÅĻ": 6714,
      "Ġkpod": 6715,
      "ĠsdruÅ¾": 6716,
      "Ġsprch": 6717,
      "ĠsÄįlo": 6718,
      "ĠstÅĻil": 6719,
      "Ġragd": 6720,
      "Ġthic": 6721,
      "Ġbvo": 6722,
      "ĠkrÃ¡st": 6723,
      "Ġvdny": 6724,
      "Ġzblu": 6725,
      "ĠstÅĻet": 6726,
      "Ġknej": 6727,
      "ĠstÅĻÃŃs": 6728,
      "Ġchri": 6729,
      "Ġdvet": 6730,
      "ĠchlÃ©v": 6731,
      "Ġfos": 6732,
      "Ġnerv": 6733,
      "Ġzjiz": 6734,
      "ĠsÅ¡ÃŃ": 6735,
      "ĠmodÅĻ": 6736,
      "Ġzbez": 6737,
      "pa": 6738,
      "Ġnest": 6739,
      "ĠÅ¡rou": 6740,
      "ĠvoÅ¡": 6741,
      "Ġmast": 6742,
      "ĠsiÅ¥": 6743,
      "ĠÅ¾ÃŃÅ¥": 6744,
      "ĠrÃ¡c": 6745,
      "Ġkouk": 6746,
      "Ġsyc": 6747,
      "Ġvsil": 6748,
      "Ġvklo": 6749,
      "ĠAAABBB": 6750,
      "Ġgno": 6751,
      "Ġstoun": 6752,
      "ĠschvÃŃ": 6753,
      "Ġvdum": 6754,
      "Ġharf": 6755,
      "Ġchlip": 6756,
      "ĠkÄįlo": 6757,
      "ck": 6758,
      "ld": 6759,
      "Ġbak": 6760,
      "Å¡t": 6761,
      "ĠkuÄı": 6762,
      "ĠkÃ¡d": 6763,
      "ĠvsnÅ¯": 6764,
      "Ġvtro": 6765,
      "Ġpodv": 6766,
      "Ġvhym": 6767,
      "Ġkrod": 6768,
      "ĠstrÃ¡m": 6769,
      "ĠsmeÅ¥": 6770,
      "Ġrant": 6771,
      "Ġsejn": 6772,
      "Ġdolf": 6773,
      "ĠÅĻuj": 6774,
      "Ġkcho": 6775,
      "ĠÅ¡tÄĽrk": 6776,
      "Ġsbles": 6777,
      "ĠkdÃ¡": 6778,
      "ĠvÃŃÅ¥": 6779,
      "ĠkÃ¡v": 6780,
      "ĠkÃ¡Äį": 6781,
      "ĠzÃŃc": 6782,
      "ĠbÃŃch": 6783,
      "ĠlÃ½t": 6784,
      "Ġbrv": 6785,
      "ĠstÄĽr": 6786,
      "Ġtknou": 6787,
      "Ġskryj": 6788,
      "ĠÄįÃ¡sÅ¥": 6789,
      "ĠÅ¾luÅ¥": 6790,
      "ĠzruÄį": 6791,
      "ĠABAAXB": 6792,
      "Ġzkom": 6793,
      "Ġtlouk": 6794,
      "Ġchcy": 6795,
      "ĠABBABA": 6796,
      "ĠvdruÅ¾": 6797,
      "Ġvskok": 6798,
      "ĠkÅĻÃ¡l": 6799,
      "Ġvex": 6800,
      "Ġhuk": 6801,
      "ĠvmlÃ½": 6802,
      "ĠtraÅ¥": 6803,
      "ĠtÅĻiÄį": 6804,
      "Ġkmy": 6805,
      "ĠhlÃ¡v": 6806,
      "ĠdlÃ¡n": 6807,
      "ĠlhÅ¯": 6808,
      "Ġvkrad": 6809,
      "Ġvspa": 6810,
      "ĠtnÃŃch": 6811,
      "ĠchlÃŃp": 6812,
      "ĠvpÄĽst": 6813,
      "Ġdvrh": 6814,
      "ĠpokÅĻ": 6815,
      "ĠsvÅ¡ÃŃ": 6816,
      "Ġtaz": 6817,
      "ĠÅ¡eÅ¡": 6818,
      "ĠmeÅ¾": 6819,
      "ĠsprÃ¡z": 6820,
      "ĠsvÄĽn": 6821,
      "ĠÅ¡ip": 6822,
      "ĠvtÅĻ": 6823,
      "ĠhÃ¡l": 6824,
      "Ġvdal": 6825,
      "Ġstrah": 6826,
      "Ġvhan": 6827,
      "ĠstÄĽch": 6828,
      "ĠstÅĻes": 6829,
      "ĠsvÃŃc": 6830,
      "ĠsdrÃ¡": 6831,
      "Ġzliv": 6832,
      "Ġkuds": 6833,
      "Ġvloh": 6834,
      "Ġtrouch": 6835,
      "Ġfrank": 6836,
      "Ġxo": 6837,
      "Ġfum": 6838,
      "ĠXABABA": 6839,
      "ĠbdÃŃÅ¡": 6840,
      "Ġlles": 6841,
      "ĠkvoÄį": 6842,
      "ĠkskÃ¡": 6843,
      "ĠÄįlen": 6844,
      "Ġpni": 6845,
      "Ġjezd": 6846,
      "Ġnac": 6847,
      "ĠÅ¾ec": 6848,
      "Ġjir": 6849,
      "Ġlyp": 6850,
      "Ġhust": 6851,
      "Ġvtrou": 6852,
      "Ġvpru": 6853,
      "ĠzkÅ¯": 6854,
      "Ġzvos": 6855,
      "Ġtrak": 6856,
      "ĠzdÃ¡m": 6857,
      "Ġzvet": 6858,
      "ĠpÅĻÃ¡n": 6859,
      "Ġkzou": 6860,
      "Ġya": 6861,
      "ĠzmÄĽst": 6862,
      "Ġtryl": 6863,
      "Ġplyn": 6864,
      "Ġzbran": 6865,
      "Ġztuh": 6866,
      "ĠvpÃ¡d": 6867,
      "Ġpsot": 6868,
      "ĠzblÃ¡z": 6869,
      "ĠvvÃ½": 6870,
      "Ġrut": 6871,
      "Ġhup": 6872,
      "ĠbÃŃc": 6873,
      "ĠbiÅ¥": 6874,
      "Ġzty": 6875,
      "Ġzust": 6876,
      "ĠtÅĻev": 6877,
      "Ġvhar": 6878,
      "ĠhÃ½l": 6879,
      "Ġvbal": 6880,
      "ĠzvoÅĪ": 6881,
      "ĠsnÄĽd": 6882,
      "Ġktu": 6883,
      "Ġcus": 6884,
      "Ġkba": 6885,
      "Ġknem": 6886,
      "ĠÄįÅ¯v": 6887,
      "Ġxa": 6888,
      "Ġllas": 6889,
      "ĠchlÃ¡d": 6890,
      "Ġfouk": 6891,
      "Ġvheb": 6892,
      "ĠvzpÄĽv": 6893,
      "zi": 6894,
      "Ġph": 6895,
      "Ġnand": 6896,
      "Ġlai": 6897,
      "Ġnoz": 6898,
      "Ġdud": 6899,
      "Ġzeh": 6900,
      "ĠÅ¾ÃŃÅ¾": 6901,
      "Ġsav": 6902,
      "ĠpÅĻiv": 6903,
      "ĠpÄĽÅ¥": 6904,
      "Ġhouc": 6905,
      "Ġtlas": 6906,
      "Ġksvat": 6907,
      "ĠkÃ©ms": 6908,
      "ĠÅ¾ov": 6909,
      "ĠkbrÃ¡": 6910,
      "Ġvzbro": 6911,
      "Ġkpoz": 6912,
      "Ġllan": 6913,
      "Ġsjich": 6914,
      "ĠkÅĻivd": 6915,
      "ĠkjÃŃ": 6916,
      "ĠÅ¥uÅ¡": 6917,
      "ĠfÃŃn": 6918,
      "Ġmlkl": 6919,
      "ĠszÃ¡": 6920,
      "ĠÅ¡tÃ¡ÅĻ": 6921,
      "ĠlvÅ¯": 6922,
      "ĠpÅ¡en": 6923,
      "ĠXAXBAB": 6924,
      "vil": 6925,
      "ĠkÅĪu": 6926,
      "ĠÄįmou": 6927,
      "ĠvaÅ¡": 6928,
      "Ġroch": 6929,
      "ĠABBAXA": 6930,
      "Ġsleh": 6931,
      "ĠvraÅ¡": 6932,
      "Ġkslav": 6933,
      "ĠtÅĻem": 6934,
      "Ġkzlo": 6935,
      "Ġye": 6936,
      "Ġzjem": 6937,
      "Ġpnout": 6938,
      "nut": 6939,
      "vor": 6940,
      "ĠhÃ³": 6941,
      "Ġstle": 6942,
      "ĠÅ¡vÃ©": 6943,
      "Ġloj": 6944,
      "ĠcÃŃt": 6945,
      "Ġdim": 6946,
      "Ġsmar": 6947,
      "Ġkvar": 6948,
      "ĠzklÃ¡": 6949,
      "Ġdils": 6950,
      "ĠkpÅ¯": 6951,
      "ĠthÅ¯": 6952,
      "Ġcan": 6953,
      "ĠstruÅ¾": 6954,
      "ĠbÅĻÃŃk": 6955,
      "ĠvsÃŃch": 6956,
      "Ġlhou": 6957,
      "Ġvkry": 6958,
      "ĠvbÃŃd": 6959,
      "ĠstrÅ¯v": 6960,
      "ĠkchvÃ¡": 6961,
      "Ġskvrn": 6962,
      "dÄĽÄį": 6963,
      "Ġlvem": 6964,
      "Ġloh": 6965,
      "ĠvÅ¡ko": 6966,
      "Ġtyl": 6967,
      "Ġzvin": 6968,
      "ĠpÃ¡st": 6969,
      "Ġbrk": 6970,
      "Ġzhle": 6971,
      "ĠvÅĻev": 6972,
      "Ġskop": 6973,
      "Ġkret": 6974,
      "ĠspÃ¡Äį": 6975,
      "ĠkveÅ¥": 6976,
      "Ġsdr": 6977,
      "ĠvzkvÃ©": 6978,
      "Ġfres": 6979,
      "ĠÅ¡lÃ¡ÅĻ": 6980,
      "ĠÅ¡kub": 6981,
      "ir": 6982,
      "ys": 6983,
      "ĠsÅĻas": 6984,
      "ĠzÅĻa": 6985,
      "ĠrÃŃ": 6986,
      "ĠzatÅĻ": 6987,
      "ĠnÃ¡Å¥": 6988,
      "Ġprod": 6989,
      "Ġii": 6990,
      "Ġsyk": 6991,
      "ĠvuÅ¡": 6992,
      "ĠvdneÅ¡": 6993,
      "Ġslup": 6994,
      "Ġhron": 6995,
      "ĠzkÅĻo": 6996,
      "ĠÅĪat": 6997,
      "ĠslÃŃk": 6998,
      "ĠspÃ¡s": 6999,
      "ĠzÅ¯v": 7000,
      "ĠvlÃŃk": 7001,
      "ĠtkÃ¡m": 7002,
      "Ġcaj": 7003,
      "ĠouÅ¡": 7004,
      "Ġzchlad": 7005,
      "ĠvseÄį": 7006,
      "ĠÅĻÃŃct": 7007,
      "Ġsprv": 7008,
      "Ġvblud": 7009,
      "Ġjl": 7010,
      "Ġjry": 7011,
      "Ġril": 7012,
      "Ġrhe": 7013,
      "Ġjech": 7014,
      "Å¾ou": 7015,
      "Ġkain": 7016,
      "ĠmaÅ¥": 7017,
      "ĠsmÃ©": 7018,
      "ĠprÃ©m": 7019,
      "Ġvsli": 7020,
      "ĠzbrÃ¡z": 7021,
      "Ġhral": 7022,
      "ĠvstÄĽ": 7023,
      "ĠzÅĻÃŃc": 7024,
      "ĠvjitÅĻ": 7025,
      "ĠblÃ©m": 7026,
      "ĠhviÄį": 7027,
      "ĠtskÃ½": 7028,
      "zdy": 7029,
      "Ġkk": 7030,
      "Ġmak": 7031,
      "ĠclÃ©": 7032,
      "rÃ¡m": 7033,
      "Ġkyv": 7034,
      "ĠskÅ¯": 7035,
      "Ġvoch": 7036,
      "Ġcom": 7037,
      "ĠÄįis": 7038,
      "ĠtÃ¡Äį": 7039,
      "ĠvtÃ©m": 7040,
      "Ġchuj": 7041,
      "ĠstÃ¡Å¡": 7042,
      "ĠAAABAB": 7043,
      "ĠspoÄį": 7044,
      "Ġztla": 7045,
      "Ġvman": 7046,
      "Ġstrej": 7047,
      "ĠmÄĽlÅ¥": 7048,
      "Ġkmr": 7049,
      "ĠÅ¡kor": 7050,
      "Ġvchmur": 7051,
      "Ġbils": 7052,
      "Ġchrp": 7053,
      "ĠvskÅĻÃŃ": 7054,
      "Ġschod": 7055,
      "Ġsjez": 7056,
      "Ġllon": 7057,
      "Ġfaun": 7058,
      "ĠÅ¯v": 7059,
      "Ġzvrat": 7060,
      "ĠvzmuÅ¾": 7061,
      "tin": 7062,
      "Ġhin": 7063,
      "ĠÅ¾ni": 7064,
      "ĠmaÅ¾": 7065,
      "ĠXAABBA": 7066,
      "ĠkrÃ¡ch": 7067,
      "Ġsteh": 7068,
      "ĠvdÃ¡t": 7069,
      "ĠzhrÅ¯": 7070,
      "Ġdnil": 7071,
      "Ġsmrk": 7072,
      "ĠvlÃ¡z": 7073,
      "Ġant": 7074,
      "ĠsnÃ¡ÅĻ": 7075,
      "Ġjdouc": 7076,
      "Ġvkos": 7077,
      "ĠdÅĻel": 7078,
      "ĠmniÅ¡": 7079,
      "Ġdotk": 7080,
      "ĠÄįteÅ¡": 7081,
      "ĠvstÅĻed": 7082,
      "Ġvcy": 7083,
      "ĠÅ¡ra": 7084,
      "ĠvztÄĽ": 7085,
      "Ġspil": 7086,
      "Ġsij": 7087,
      "ĠdyÅĪ": 7088,
      "liÅ¾": 7089,
      "ĠAABBAB": 7090,
      "ĠÅ¡iÅ¥": 7091,
      "ĠsuÅ¡": 7092,
      "Ġskri": 7093,
      "ĠschÅ¯d": 7094,
      "ĠÅĻÃ¡p": 7095,
      "Ġzpov": 7096,
      "ĠskrÃ¡s": 7097,
      "ĠzmÄĽt": 7098,
      "ĠshoÄı": 7099,
      "Ġtlech": 7100,
      "Ġlant": 7101,
      "ĠvspÃŃ": 7102,
      "Ġvspou": 7103,
      "ĠsprÃ¡s": 7104,
      "Ġsfer": 7105,
      "ĠzdÃŃch": 7106,
      "Ġthyr": 7107,
      "ĠshvÄĽzd": 7108,
      "Ġfred": 7109,
      "ĠABXXAB": 7110,
      "mÃŃ": 7111,
      "ĠllÅ¯": 7112,
      "Ġchnou": 7113,
      "Ġlif": 7114,
      "Ġuil": 7115,
      "Ġcor": 7116,
      "ĠbÄĽr": 7117,
      "Ġzvil": 7118,
      "ĠÅ¡ir": 7119,
      "Ġprask": 7120,
      "Ġgle": 7121,
      "Ġdrh": 7122,
      "ĠstÅĻeÅĪ": 7123,
      "Ġplev": 7124,
      "ĠklÃŃt": 7125,
      "ĠtÅĻtin": 7126,
      "ĠvchlÃ©": 7127,
      "ĠsÃ½p": 7128,
      "Ġfec": 7129,
      "ĠvpÅĻÃŃt": 7130,
      "ĠÅĻov": 7131,
      "ĠvlÃ©k": 7132,
      "Ġvmih": 7133,
      "Ġsklid": 7134,
      "ĠzÅ¾a": 7135,
      "ĠvtÃ¡h": 7136,
      "ĠdÅ¡ti": 7137,
      "hou": 7138,
      "zv": 7139,
      "Ġkdnu": 7140,
      "Ġskar": 7141,
      "Ġboch": 7142,
      "Ġvzvo": 7143,
      "Ġig": 7144,
      "ĠstÃŃt": 7145,
      "ĠsvÄĽÅĻ": 7146,
      "BAA": 7147,
      "Ġshan": 7148,
      "Ġvzpi": 7149,
      "ĠblÃŃk": 7150,
      "ĠhrÃ¡Äį": 7151,
      "ĠhrÃ¡Å¡": 7152,
      "ĠstÅĻÃŃÅ¾": 7153,
      "ĠvchvÄĽ": 7154,
      "ĠvruÄį": 7155,
      "Ġthle": 7156,
      "Ġklouz": 7157,
      "ĠvÄįÃŃÅ¡": 7158,
      "Ġnr": 7159,
      "Ġsze": 7160,
      "Ġmzdy": 7161,
      "ĠoÅĪ": 7162,
      "Ġdeh": 7163,
      "Ġdez": 7164,
      "Ġskly": 7165,
      "Ġvych": 7166,
      "Ġtuc": 7167,
      "ĠÅ¡ÃŃt": 7168,
      "Ġrah": 7169,
      "ĠvdÅĻÃŃ": 7170,
      "Ġvlam": 7171,
      "Ġeo": 7172,
      "ĠkvÅ¡em": 7173,
      "ĠstÅĻeÅ¾": 7174,
      "ĠstvÃ©m": 7175,
      "Ġkryv": 7176,
      "ĠÅ¡plÃŃ": 7177,
      "ĠstruÄį": 7178,
      "ĠvskrÃ½": 7179,
      "ĠÅ¾hnu": 7180,
      "ĠÄįnÃŃt": 7181,
      "Ġsstou": 7182,
      "Ġjha": 7183,
      "ouch": 7184,
      "ÅĻbi": 7185,
      "ĠnaÅ¡": 7186,
      "ĠchÃ³": 7187,
      "ĠjiÅ¥": 7188,
      "Ġkuch": 7189,
      "Ġstaf": 7190,
      "Ġsmno": 7191,
      "ĠvtÅĻÃŃ": 7192,
      "Ġstur": 7193,
      "Ġvstes": 7194,
      "Ġmlas": 7195,
      "Ġstyk": 7196,
      "Ġvlej": 7197,
      "ĠdloÅ¾": 7198,
      "ĠÅĻils": 7199,
      "Ġssrd": 7200,
      "ĠvraÅ¾d": 7201,
      "ĠÄįov": 7202,
      "Ġhnis": 7203,
      "Ġksko": 7204,
      "ĠznÄĽjÅ¾": 7205,
      "ĠpnÃŃ": 7206,
      "ĠÅ¾vÃ½": 7207,
      "Ġchne": 7208,
      "Ġlij": 7209,
      "ĠmoÅ¡": 7210,
      "ĠXAXAAX": 7211,
      "ĠpÃŃn": 7212,
      "ĠbÃŃÅĻ": 7213,
      "ĠÃºl": 7214,
      "ĠmÃ©r": 7215,
      "Ġef": 7216,
      "Ġspoz": 7217,
      "ĠstÅĻep": 7218,
      "ĠznÃ¡Å¥": 7219,
      "Ġspan": 7220,
      "ĠmÃ½t": 7221,
      "Ġvchmu": 7222,
      "Ġfel": 7223,
      "ĠssvÃ½m": 7224,
      "Ġvsvor": 7225,
      "ĠzdÄĽl": 7226,
      "Ġvklet": 7227,
      "ĠmÃ³d": 7228,
      "ĠblÅ¯v": 7229,
      "ĠjÃº": 7230,
      "ĠzÅĻas": 7231,
      "Ġsvrou": 7232,
      "Ġvest": 7233,
      "ĠslÃº": 7234,
      "ĠdeÅ¥": 7235,
      "ĠÄįep": 7236,
      "ĠpÅĻÃŃj": 7237,
      "Ġzraj": 7238,
      "Ġvkva": 7239,
      "Ġzbru": 7240,
      "Ġzyv": 7241,
      "Ġmrk": 7242,
      "Ġshud": 7243,
      "Ġtrost": 7244,
      "ĠvzÃ¡Å¡": 7245,
      "ĠkzÃ¡m": 7246,
      "Ġchals": 7247,
      "Ġdved": 7248,
      "Ġvlov": 7249,
      "ĠÅ¡ta": 7250,
      "ĠvÅĻÃŃm": 7251,
      "Ġgun": 7252,
      "Ġxy": 7253,
      "ĠkÃºs": 7254,
      "Ġcvik": 7255,
      "ĠzmlÃ¡d": 7256,
      "ĠXABBBA": 7257,
      "ĠÅ¡vÃ¡b": 7258,
      "Ġnven": 7259,
      "ĠvmhÃ¡ch": 7260,
      "ĠÅ¾hÃ¡ÅĻ": 7261,
      "ĠAXBAXB": 7262,
      "ĠdÃ¡c": 7263,
      "Ġvzas": 7264,
      "Ġrai": 7265,
      "ĠÅ¾ÃŃÄį": 7266,
      "ĠiÃŃ": 7267,
      "ĠmÃŃl": 7268,
      "ĠzvÃ©": 7269,
      "ÅĪat": 7270,
      "ĠÅĻid": 7271,
      "ĠvkrÅ¯": 7272,
      "Ġztru": 7273,
      "Ġklis": 7274,
      "Ġstrp": 7275,
      "Ġpys": 7276,
      "Ġklost": 7277,
      "Ġvros": 7278,
      "Ġvkam": 7279,
      "ĠÅ¡tvou": 7280,
      "ĠzÃ½s": 7281,
      "ĠzlÃŃÄį": 7282,
      "ĠzjÃ¡": 7283,
      "Ġhryz": 7284,
      "Ġmhla": 7285,
      "ĠzbÄĽÅĻ": 7286,
      "ĠXAXBBA": 7287,
      "Ġbvaz": 7288,
      "ĠdÅ¡tÃ½": 7289,
      "rt": 7290,
      "ĠmÅ¾ou": 7291,
      "Ġaet": 7292,
      "Ġdow": 7293,
      "Ġvau": 7294,
      "Ġdai": 7295,
      "ĠtyÅ¥": 7296,
      "Ġhab": 7297,
      "ĠhaÅ¡": 7298,
      "Äıa": 7299,
      "Ġbrah": 7300,
      "ĠgÃ¶": 7301,
      "Ġdraz": 7302,
      "ĠprÃ¡Å¡": 7303,
      "Ġbrech": 7304,
      "Ġvbro": 7305,
      "ĠpsÃ¡n": 7306,
      "ĠdrÃ¡n": 7307,
      "ĠÄįemÅ¾": 7308,
      "ĠÅ¾ul": 7309,
      "Ġvzbra": 7310,
      "Ġzbur": 7311,
      "Ġvpros": 7312,
      "ĠkrÃ½v": 7313,
      "Ġkstra": 7314,
      "ĠkstrÃ¡": 7315,
      "ĠvrÅ¯Å¾": 7316,
      "ĠzmuÅ¾": 7317,
      "Ġshroz": 7318,
      "Ġfric": 7319,
      "ĠrtÃŃk": 7320,
      "Ġvga": 7321,
      "ĠvkÅĻÃŃÅ¾": 7322,
      "ĠÅĻkouc": 7323,
      "ĠkÅĻtu": 7324,
      "ĠjradÅ¡": 7325,
      "Ġnrich": 7326,
      "Ġtwar": 7327,
      "Ġllou": 7328,
      "ĠmÅ¾e": 7329,
      "ĠÅ¾eÅ¾": 7330,
      "Ġloch": 7331,
      "ĠmÄĽÄı": 7332,
      "Ġlys": 7333,
      "Ġie": 7334,
      "ĠmÃŃz": 7335,
      "ĠbaÅĻ": 7336,
      "Ġbard": 7337,
      "Ġsyr": 7338,
      "Ġzpan": 7339,
      "Ġsost": 7340,
      "ĠzbrÃ¡": 7341,
      "Ġvzdmu": 7342,
      "ĠbÅĻev": 7343,
      "ĠpleÅ¡": 7344,
      "Ġkzla": 7345,
      "Ġsrou": 7346,
      "ĠÄįtla": 7347,
      "Ġkhr": 7348,
      "ĠÅ¡tkal": 7349,
      "Ġzchat": 7350,
      "ĠvzplaÅĪ": 7351,
      "Ġvsoud": 7352,
      "Ġkjich": 7353,
      "Ġmhu": 7354,
      "Ġkvoj": 7355,
      "Ġvbit": 7356,
      "ĠshlÃŃd": 7357,
      "ĠrvaÄį": 7358,
      "Ġflex": 7359,
      "Ġpten": 7360,
      "Ġsblan": 7361,
      "Ġvdrs": 7362,
      "Ġzmdlob": 7363,
      "im": 7364,
      "un": 7365,
      "Ġchmou": 7366,
      "ĠÅĻvÃ¡t": 7367,
      "Ġlisk": 7368,
      "rÃ¡t": 7369,
      "Ġkdvo": 7370,
      "Ġnoun": 7371,
      "Ġtvem": 7372,
      "Ġbuv": 7373,
      "ĠsvÄĽc": 7374,
      "Ġhul": 7375,
      "ĠkdyÅ¾s": 7376,
      "Ġvsmu": 7377,
      "ĠjÃ¡r": 7378,
      "Ġvply": 7379,
      "Ġzprou": 7380,
      "ĠpÃ¡Äį": 7381,
      "Ġed": 7382,
      "Ġzmet": 7383,
      "ĠgÃ³": 7384,
      "Ġvbor": 7385,
      "ĠvlÃ¡n": 7386,
      "ĠvlÃ¡st": 7387,
      "ĠstÅĻÃŃd": 7388,
      "ĠstÅĻÃŃt": 7389,
      "ĠÄıo": 7390,
      "ĠchouÄį": 7391,
      "Ġvkob": 7392,
      "Ġvstan": 7393,
      "ĠvÄįin": 7394,
      "Ġknil": 7395,
      "Ġklus": 7396,
      "Ġsrost": 7397,
      "Ġzbit": 7398,
      "Ġtba": 7399,
      "Ġpstru": 7400,
      "vÅ¯r": 7401,
      "Ġstak": 7402,
      "Ġmich": 7403,
      "ĠslÃ©m": 7404,
      "ĠmuÄį": 7405,
      "Ġtuk": 7406,
      "Ġruf": 7407,
      "ĠAABBBA": 7408,
      "ĠjÃ¡n": 7409,
      "Ġdoup": 7410,
      "Ġzke": 7411,
      "Ġdls": 7412,
      "ĠzlosÅ¥": 7413,
      "Ġpils": 7414,
      "Ġkpros": 7415,
      "Ġhrub": 7416,
      "ĠtrÃ¡k": 7417,
      "ĠklÃ¡t": 7418,
      "Ġvnov": 7419,
      "Ġjon": 7420,
      "ĠsrsÅ¥": 7421,
      "Ġcam": 7422,
      "Ġkbi": 7423,
      "Ġzruch": 7424,
      "ĠvsnÄĽÅ¾": 7425,
      "Ġstmou": 7426,
      "Ġag": 7427,
      "Ġap": 7428,
      "ĠÅ¡lÃ½m": 7429,
      "ĠABXA": 7430,
      "Ġvzna": 7431,
      "Ġslam": 7432,
      "ĠfÃ½": 7433,
      "Ġec": 7434,
      "Ġvpom": 7435,
      "Ġscha": 7436,
      "Ġschle": 7437,
      "Ġkplu": 7438,
      "ĠÅ¡pal": 7439,
      "Ġfic": 7440,
      "ĠvÃºt": 7441,
      "Ġkhe": 7442,
      "ĠkhÅĻÃŃ": 7443,
      "ĠbÅĻÃŃm": 7444,
      "Ġssy": 7445,
      "Ġtroup": 7446,
      "Ġfyr": 7447,
      "Ġvtre": 7448,
      "ĠzÅ¾u": 7449,
      "Ġsdiv": 7450,
      "ĠvÅ¡pi": 7451,
      "ĠvvÄĽÄį": 7452,
      "mÃ©": 7453,
      "ĠcÅ¾": 7454,
      "ÅĻu": 7455,
      "ĠÄįtÄĽ": 7456,
      "ĠÅĻal": 7457,
      "Ġted": 7458,
      "rÃ¡d": 7459,
      "ĠniÅ¡Å¥": 7460,
      "Ġdun": 7461,
      "Ġvoc": 7462,
      "ĠvoÄį": 7463,
      "Ġpai": 7464,
      "ĠboÄı": 7465,
      "ĠsmlÃ¡": 7466,
      "ĠvsÃ¡l": 7467,
      "Ġznou": 7468,
      "ĠzÃŃn": 7469,
      "ĠtamÅ¥": 7470,
      "ĠsÃ¡r": 7471,
      "Ġvkyt": 7472,
      "ĠgÅĻÃŃ": 7473,
      "ĠzhlÃ©": 7474,
      "ĠbÅĻeÅ¾": 7475,
      "ĠÄįÃŃmÅ¾": 7476,
      "ĠtÅĻo": 7477,
      "Ġkzb": 7478,
      "Ġmde": 7479,
      "ĠnÄĽls": 7480,
      "ĠbÅĻÃŃÅ¡": 7481,
      "ĠvplÃ¡ÅĪ": 7482,
      "Ġsprost": 7483,
      "Ġsfa": 7484,
      "ĠchÅĻic": 7485,
      "ĠzrÅ¯z": 7486,
      "ĠzkÅĻik": 7487,
      "ĠÅ¡tej": 7488,
      "ĠsvÅ¡ÃŃm": 7489,
      "ĠtÃº": 7490,
      "Ġdch": 7491,
      "Ġroic": 7492,
      "ĠkdÃ¡l": 7493,
      "ĠAXXB": 7494,
      "ĠÅ¡ÃŃr": 7495,
      "ĠspÅ¯d": 7496,
      "ĠÅĻÃŃp": 7497,
      "ĠzkvÄĽt": 7498,
      "Ġstrost": 7499,
      "ĠkroÅ¥": 7500,
      "ĠsnÃŃc": 7501,
      "ĠvÃŃmÅ¥": 7502,
      "Ġknes": 7503,
      "Ġzpol": 7504,
      "ĠpÃ½t": 7505,
      "ĠzvÃŃm": 7506,
      "ĠvzklÃŃ": 7507,
      "ĠsÃ½Å¡": 7508,
      "Ġhmat": 7509,
      "ĠsÄįel": 7510,
      "Ġzjis": 7511,
      "Ġvcir": 7512,
      "Ġtvic": 7513,
      "Ġchrup": 7514,
      "ĠzkvÃ©st": 7515,
      "Ġzfran": 7516,
      "Ġnymf": 7517,
      "ĠXABABB": 7518,
      "Ġvklub": 7519,
      "Ġnra": 7520,
      "ĠvÅĻad": 7521,
      "ĠneÅ¥": 7522,
      "ĠnoÅ¥": 7523,
      "ĠdÃŃr": 7524,
      "ĠdÃ¡s": 7525,
      "Ġstaj": 7526,
      "ĠstÃŃk": 7527,
      "Ġzvar": 7528,
      "Ġvsna": 7529,
      "ĠpraÄı": 7530,
      "ĠpÅĻÃŃst": 7531,
      "Ġgju": 7532,
      "Ġzkme": 7533,
      "ĠrÃ½s": 7534,
      "skÃ©": 7535,
      "Ġtrus": 7536,
      "ĠÅ¥ou": 7537,
      "ĠklÃŃb": 7538,
      "ĠhlÃŃÅĻ": 7539,
      "Ġvchat": 7540,
      "Ġyo": 7541,
      "Ġzmok": 7542,
      "Ġgran": 7543,
      "ĠskÅĻÃŃn": 7544,
      "Ġzhyz": 7545,
      "Ġchlup": 7546,
      "ĠkÅĻtÃŃ": 7547,
      "Ġkis": 7548,
      "Ġskliz": 7549,
      "ĠzkÅĻiÅ¡": 7550,
      "ĠchmÃº": 7551,
      "Ġtbu": 7552,
      "Ġvhed": 7553,
      "Ġzknih": 7554,
      "Ġvf": 7555,
      "ĠstÅĻa": 7556,
      "ĠÅ¾le": 7557,
      "ĠÅĻvÃ¡": 7558,
      "Ġtvil": 7559,
      "ĠspÃ©": 7560,
      "ĠÅ¾ic": 7561,
      "ĠvÅ¡ep": 7562,
      "Ġsyv": 7563,
      "ĠzpouÅ¡": 7564,
      "Ġhyl": 7565,
      "ĠÃºd": 7566,
      "Ġtrar": 7567,
      "ĠshÅĻÃŃ": 7568,
      "Ġdloud": 7569,
      "Ġtrov": 7570,
      "ĠÅ¡tÄĽk": 7571,
      "ĠbÅĻed": 7572,
      "ĠsmÄĽt": 7573,
      "Ġplej": 7574,
      "ĠÄįils": 7575,
      "ĠhrÅ¯Å¾": 7576,
      "Ġfix": 7577,
      "ĠvÄįar": 7578,
      "Ġsmyl": 7579,
      "ĠsÃºz": 7580,
      "ĠxÃŃ": 7581,
      "ĠsrÃ¡Å¾": 7582,
      "Ġvctno": 7583,
      "Ġakt": 7584,
      "Ġchrop": 7585,
      "ĠvsnÃŃh": 7586,
      "Ġdky": 7587,
      "Ġllem": 7588,
      "ĠmÅĪ": 7589,
      "ĠÅ¾re": 7590,
      "Ġdoh": 7591,
      "Ġdet": 7592,
      "ĠvÃŃl": 7593,
      "Ġich": 7594,
      "Ġist": 7595,
      "ĠhaÅĪ": 7596,
      "ĠtÃ¡k": 7597,
      "Ġvur": 7598,
      "Ġvdne": 7599,
      "Ġvdve": 7600,
      "ĠABBAXB": 7601,
      "ĠAAABXB": 7602,
      "ĠsleÅ¥": 7603,
      "Ġstrof": 7604,
      "ĠbÅĻesk": 7605,
      "ĠXXAAAX": 7606,
      "Ġsvic": 7607,
      "ĠkpÄĽ": 7608,
      "ĠÅĻÃ¡b": 7609,
      "Ġpsu": 7610,
      "Ġvju": 7611,
      "Ġznoz": 7612,
      "ĠctnÃ½ch": 7613,
      "ĠÄįems": 7614,
      "Ġzjar": 7615,
      "ĠdbÃ¡m": 7616,
      "Ġvmet": 7617,
      "ĠfÃŃk": 7618,
      "ĠtkÃ¡Å¡": 7619,
      "ĠstlÃ¡t": 7620,
      "ĠcÃ©v": 7621,
      "Ġkhan": 7622,
      "Ġtme": 7623,
      "ĠtnÃ½ch": 7624,
      "Ġdz": 7625,
      "Ġjro": 7626,
      "ĠrÅ¾e": 7627,
      "ĠnÃŃÅĻ": 7628,
      "Ġtest": 7629,
      "ĠnoÅĻ": 7630,
      "ĠAABABB": 7631,
      "Ġzdmu": 7632,
      "Ġzdvou": 7633,
      "luz": 7634,
      "Ġbezv": 7635,
      "Ġdven": 7636,
      "Ġblas": 7637,
      "Ġblat": 7638,
      "ĠÅ¾Ã¡c": 7639,
      "Ġslic": 7640,
      "Ġrim": 7641,
      "Ġhls": 7642,
      "ĠstÃ½n": 7643,
      "Ġfik": 7644,
      "Ġtryz": 7645,
      "Ġthem": 7646,
      "Ġvkol": 7647,
      "Ġblom": 7648,
      "Ġtlit": 7649,
      "Ġbdi": 7650,
      "ĠzchÃ½": 7651,
      "ĠfÃ¡ÅĻ": 7652,
      "Ġchlit": 7653,
      "ĠzprÃ¡ch": 7654,
      "Ġtloust": 7655,
      "ĠsdÄĽs": 7656,
      "ĠvbÃ¡j": 7657,
      "Ġthos": 7658,
      "ĠsÄįÃŃm": 7659,
      "ĠrvÃ¡n": 7660,
      "ĠlÅ¾eÅ¡": 7661,
      "ĠÅ¾neÄį": 7662,
      "yn": 7663,
      "Ġvvo": 7664,
      "Ġvvy": 7665,
      "Ġtc": 7666,
      "Ġtnu": 7667,
      "Ġlvy": 7668,
      "Ġmber": 7669,
      "Ġcra": 7670,
      "ĠÄįpa": 7671,
      "lech": 7672,
      "Ġnok": 7673,
      "Ġrup": 7674,
      "Ġvik": 7675,
      "ĠvÅ¡eÅĻ": 7676,
      "ĠstÃŃh": 7677,
      "ĠpÅĻit": 7678,
      "ĠvÅ¾u": 7679,
      "ĠvrÃ¡m": 7680,
      "Ġvpoh": 7681,
      "Ġfac": 7682,
      "Ġbrost": 7683,
      "Ġsdnem": 7684,
      "ĠhlouÄį": 7685,
      "ĠÅĪan": 7686,
      "ĠtkÃ¡t": 7687,
      "Ġvrub": 7688,
      "Ġkbou": 7689,
      "ĠskÅĻÃŃp": 7690,
      "Ġvryb": 7691,
      "Ġllis": 7692,
      "ĠtlÃŃt": 7693,
      "Ġgry": 7694,
      "ĠAAAAAA": 7695,
      "Ġkblan": 7696,
      "Ġsbez": 7697,
      "ĠztÅĻeÅ¡": 7698,
      "ĠsÃ©m": 7699,
      "Ġjla": 7700,
      "Ġcal": 7701,
      "Ġvaj": 7702,
      "Ġun": 7703,
      "Ġsplu": 7704,
      "Ġvig": 7705,
      "ĠstiÅ¡": 7706,
      "ĠtyÅĪ": 7707,
      "ĠAABBXA": 7708,
      "ĠvsÃ½": 7709,
      "ĠjÃ¡Äį": 7710,
      "Ġfak": 7711,
      "ĠklaÄı": 7712,
      "ĠkeÅ¡": 7713,
      "Ġzuz": 7714,
      "Ġvbur": 7715,
      "ĠvÅĻed": 7716,
      "ĠdÅĻÃŃk": 7717,
      "ĠdlÃŃk": 7718,
      "ĠpÃ½ÅĻ": 7719,
      "ĠkbÄĽ": 7720,
      "ĠzvaÅ¾": 7721,
      "Ġzkap": 7722,
      "ĠlkÃ¡Å¡": 7723,
      "Ġkvit": 7724,
      "ĠsdÄĽl": 7725,
      "ĠmdlÃ©m": 7726,
      "Ġzfa": 7727,
      "ĠvbÅĻeh": 7728,
      "Ġtchy": 7729,
      "ĠtchÃ¡n": 7730,
      "ĠÅ¾by": 7731,
      "Ġghis": 7732,
      "Ġvkmen": 7733,
      "ĠÅ¾rout": 7734,
      "Ġvychr": 7735,
      "ĠrÃº": 7736,
      "ĠnÄĽÅ¥": 7737,
      "Ġmik": 7738,
      "Ġveb": 7739,
      "ĠvÃ¡Å¥": 7740,
      "Ġvov": 7741,
      "ĠrÃ¡s": 7742,
      "ĠzdÅĻi": 7743,
      "Ġlun": 7744,
      "Ġvpil": 7745,
      "ĠsuÅĪ": 7746,
      "ĠsvaÅ¾": 7747,
      "Ġobzv": 7748,
      "ĠzÅĻÃŃÅ¥": 7749,
      "Ġtlach": 7750,
      "ĠXXAAXA": 7751,
      "ĠtrÃ¡ch": 7752,
      "Ġthur": 7753,
      "Ġblin": 7754,
      "ĠhliÄį": 7755,
      "ĠsÃ½Äį": 7756,
      "Ġtlel": 7757,
      "ĠÅ¾dyc": 7758,
      "Ġvsma": 7759,
      "Ġmont": 7760,
      "Ġfun": 7761,
      "Ġsjem": 7762,
      "Ġkment": 7763,
      "ĠvtvÅ¯r": 7764,
      "ĠzkrÄį": 7765,
      "Ġzevs": 7766,
      "Ġmlet": 7767,
      "ĠshÃ½b": 7768,
      "Ġvvla": 7769,
      "ĠzpÅĻed": 7770,
      "ĠvhouÅ¡Å¥": 7771,
      "Ġdmy": 7772,
      "ĠÅ¾ev": 7773,
      "ĠloÅ¡": 7774,
      "Ġsps": 7775,
      "Ġdyk": 7776,
      "Ġit": 7777,
      "ĠmÃŃs": 7778,
      "Ġvsch": 7779,
      "ĠzraÄı": 7780,
      "ĠdÅĻÃŃn": 7781,
      "ĠslÃŃc": 7782,
      "Ġusch": 7783,
      "ĠklÃŃc": 7784,
      "Ġknit": 7785,
      "Ġctnou": 7786,
      "Ġchrli": 7787,
      "Ġstruh": 7788,
      "ĠAXABAB": 7789,
      "ĠrtÅ¯v": 7790,
      "ĠnauÄį": 7791,
      "ĠgrÃ©": 7792,
      "ĠÅ¡vest": 7793,
      "Ġsvlast": 7794,
      "ĠspÅĻÃŃz": 7795,
      "ĠkskrÃ¡": 7796,
      "ĠvtÅĻpy": 7797,
      "ĠzklÃ¡Å¡": 7798,
      "mr": 7799,
      "ĠtnÃ½m": 7800,
      "Ġcro": 7801,
      "Ġrich": 7802,
      "ĠÅ¡nÄĽ": 7803,
      "ĠÅ¡lil": 7804,
      "Ġnir": 7805,
      "ĠÄįeÅĪ": 7806,
      "Ġboz": 7807,
      "ĠzÃ¡z": 7808,
      "Ġchun": 7809,
      "ĠvpÃ©": 7810,
      "Ġvpta": 7811,
      "Ġslap": 7812,
      "Ġzpor": 7813,
      "Ġstos": 7814,
      "Ġdour": 7815,
      "ĠbraÄį": 7816,
      "ĠbÃ¡c": 7817,
      "ĠdraÄį": 7818,
      "Ġkes": 7819,
      "Ġvpov": 7820,
      "Ġsby": 7821,
      "ĠzÅĻek": 7822,
      "ĠznÃŃz": 7823,
      "ĠprouÅ¾": 7824,
      "Ġkmla": 7825,
      "ĠvÄįest": 7826,
      "ĠklÃ¡l": 7827,
      "ĠhlÃŃk": 7828,
      "ĠsdÃ¡": 7829,
      "Ġsdvo": 7830,
      "ĠsrÅ¡": 7831,
      "Ġvruch": 7832,
      "Ġalt": 7833,
      "Ġkpoc": 7834,
      "Ġsvez": 7835,
      "Ġzchmur": 7836,
      "Ġfoi": 7837,
      "ĠfrÃ©": 7838,
      "ĠkÅĻtÄĽ": 7839,
      "ĠkÅ¡i": 7840,
      "ĠÅ¡viÅ¾": 7841,
      "Ġscu": 7842,
      "Ġsvras": 7843,
      "ĠÅ¡ÅĪu": 7844,
      "ĠÅ¡ÅĪÅ¯r": 7845,
      "ĠkÄįa": 7846,
      "ĠcÅ¾es": 7847,
      "ĠvÅĻÃ¡d": 7848,
      "ĠsÅ¡i": 7849,
      "ĠvÃ³": 7850,
      "Ġrzi": 7851,
      "ĠsvlÃ¡": 7852,
      "ĠnÃ¡z": 7853,
      "Ġlyr": 7854,
      "ĠbiÅ¡": 7855,
      "Ġzlad": 7856,
      "Ġzost": 7857,
      "Ġstrak": 7858,
      "Ġvher": 7859,
      "Ġhek": 7860,
      "Ġhet": 7861,
      "Ġzhlo": 7862,
      "Ġtmo": 7863,
      "ĠmÃ¡mÅ¥": 7864,
      "Ġbrot": 7865,
      "ĠklÅĪ": 7866,
      "ĠdvÄĽt": 7867,
      "ĠdvÄĽÄį": 7868,
      "ĠzmÄĽÅĪ": 7869,
      "ĠvÄįÃ¡": 7870,
      "Ġknost": 7871,
      "ĠkboÅ¾": 7872,
      "ĠvzleÅ¥": 7873,
      "ĠstÅĻik": 7874,
      "ĠvmlÅ¾": 7875,
      "Ġhip": 7876,
      "Ġkvol": 7877,
      "ĠÅ¾dÃ¡m": 7878,
      "Ġent": 7879,
      "Ġsaic": 7880,
      "Ġsaul": 7881,
      "ĠhnÃŃt": 7882,
      "ĠmÃ½Å¾Äı": 7883,
      "ĠkÃ³": 7884,
      "Ġjluz": 7885,
      "ĠÅ¡vÃŃ": 7886,
      "Å¡ti": 7887,
      "ĠABXB": 7888,
      "Ġid": 7889,
      "ĠÄįim": 7890,
      "ĠzvÃ¡l": 7891,
      "ĠbaÄį": 7892,
      "ĠlÃ©v": 7893,
      "ĠhuÅ¡": 7894,
      "ĠvÅ¾as": 7895,
      "Ġvbyt": 7896,
      "Ġtlap": 7897,
      "ĠstÃ©n": 7898,
      "Ġkals": 7899,
      "Ġschro": 7900,
      "ĠblÃ¡h": 7901,
      "ĠkhÃ¡": 7902,
      "ĠkhrÃ¡m": 7903,
      "Ġkpos": 7904,
      "Ġmstil": 7905,
      "ĠfÃ¡Å¡": 7906,
      "Ġfus": 7907,
      "Ġzprz": 7908,
      "Ġztaj": 7909,
      "ĠÅ¾dÃ¡l": 7910,
      "ĠAABXBB": 7911,
      "Ġzga": 7912,
      "ĠflÃ³r": 7913,
      "ĠÄįmel": 7914,
      "ĠklÅ¯Å¾": 7915,
      "si": 7916,
      "Ġssk": 7917,
      "Ġkct": 7918,
      "ĠmÅĻem": 7919,
      "Ġvam": 7920,
      "ĠveÅ¾": 7921,
      "ĠABABBB": 7922,
      "Ġskme": 7923,
      "Ġbov": 7924,
      "Ġmaur": 7925,
      "ĠspÅ¯l": 7926,
      "ĠÄįic": 7927,
      "ĠsaÅ¥": 7928,
      "ĠhuÄį": 7929,
      "Ġpraz": 7930,
      "ĠfÃ³": 7931,
      "ĠgÅĻi": 7932,
      "ĠvhÅĻe": 7933,
      "Ġvhnu": 7934,
      "Ġzhur": 7935,
      "ĠÄıat": 7936,
      "Ġtant": 7937,
      "Ġkrist": 7938,
      "Ġblic": 7939,
      "Ġgel": 7940,
      "ĠshoÅĻ": 7941,
      "ĠAAXAXX": 7942,
      "ĠXXAXAA": 7943,
      "ĠbruÄį": 7944,
      "ĠvpÅĻÃŃs": 7945,
      "ĠzdÃŃl": 7946,
      "ĠÅ¡vÃ½": 7947,
      "Ġvpark": 7948,
      "Ġkvlast": 7949,
      "ĠsvlÃ©k": 7950,
      "XAB": 7951,
      "ĠnÃ³": 7952,
      "Ġkak": 7953,
      "ĠlÃº": 7954,
      "Ġrl": 7955,
      "Å¯v": 7956,
      "ĠvÃ¡h": 7957,
      "Ġpav": 7958,
      "Ġstig": 7959,
      "ĠpÅĻep": 7960,
      "ĠhaÅ¥": 7961,
      "ĠpeÅĻ": 7962,
      "ĠpÅĻiÅĻ": 7963,
      "ĠÃºÅ¾": 7964,
      "ĠztÅĻÃŃ": 7965,
      "Ġpty": 7966,
      "ĠshrÃ¡": 7967,
      "ĠÅ¡tÄĽv": 7968,
      "ĠdÅĻÃŃm": 7969,
      "Ġmars": 7970,
      "Ġkrup": 7971,
      "Ġsnej": 7972,
      "ĠvzkvÄĽ": 7973,
      "ĠzlÃŃt": 7974,
      "Ġvysv": 7975,
      "Ġstkal": 7976,
      "Ġwal": 7977,
      "Ġsvrch": 7978,
      "ĠblÃ©k": 7979,
      "ĠzrÅ¯st": 7980,
      "Ġzpev": 7981,
      "ĠÅ¡Å¥Ã¡v": 7982,
      "Ġzblan": 7983,
      "Ġmzda": 7984,
      "ĠvkÅĻiÅ¡": 7985,
      "ĠclÃ©ÅĻ": 7986,
      "zt": 7987,
      "ĠsÃ³": 7988,
      "ĠsÅĻa": 7989,
      "Ġrr": 7990,
      "Ġlac": 7991,
      "ĠvaÅĻ": 7992,
      "ĠproÅ¡": 7993,
      "Ġbach": 7994,
      "Ġvum": 7995,
      "Ġsut": 7996,
      "ĠbiÅĻ": 7997,
      "ĠABBAAA": 7998,
      "Ġvkmi": 7999,
      "Ġgl": 8000,
      "Ġhrk": 8001,
      "ĠzoÄį": 8002,
      "Ġzont": 8003,
      "ĠnnÃ¡m": 8004,
      "ĠheÅĻ": 8005,
      "ĠtvoÅĻ": 8006,
      "ĠsmrÅ¡": 8007,
      "Ġksi": 8008,
      "Ġkslad": 8009,
      "ĠvlÃ¡Äį": 8010,
      "ĠhrÃ¡n": 8011,
      "ĠhrÃ¡Å¥": 8012,
      "Ġstals": 8013,
      "Ġzrou": 8014,
      "Ġvzhou": 8015,
      "ĠjmÃŃ": 8016,
      "Ġzmiz": 8017,
      "ĠssvÃ½": 8018,
      "ĠvzdÃ¡n": 8019,
      "ĠdvÃ©st": 8020,
      "ĠmstÄĽ": 8021,
      "ĠdnÃ©ÅĻ": 8022,
      "Ġztrp": 8023,
      "Ġkir": 8024,
      "ĠvzlÃ©m": 8025,
      "Ġzhroz": 8026,
      "ĠzbÄĽd": 8027,
      "ĠsklÃŃÄį": 8028,
      "ĠvssÃ¡": 8029,
      "ĠcÃºn": 8030,
      "mÄĽ": 8031,
      "ĠbÃº": 8032,
      "Ġcev": 8033,
      "ĠkdÅ¯": 8034,
      "ĠÅ¡ÃŃÅ¥": 8035,
      "ĠsprÅ¯": 8036,
      "ĠbuÅĪ": 8037,
      "ĠzÃŃt": 8038,
      "ĠstÃ¡j": 8039,
      "Ġdouch": 8040,
      "Ġdrich": 8041,
      "ĠzyÄį": 8042,
      "ĠstÅĻeÅ¡": 8043,
      "ĠÅ¡lek": 8044,
      "Ġfas": 8045,
      "ĠÅ¡krÃ¡": 8046,
      "ĠktÃ¡": 8047,
      "Ġtknul": 8048,
      "Ġblon": 8049,
      "ĠkhrÅ¯": 8050,
      "ĠztÄĽs": 8051,
      "ĠblÃ½sk": 8052,
      "ĠkrÅ¯Äį": 8053,
      "ĠvlÃ©Äį": 8054,
      "Ġvslz": 8055,
      "Ġvtrys": 8056,
      "Ġgym": 8057,
      "ĠvdÃŃk": 8058,
      "ĠvhnÄĽv": 8059,
      "ĠvcÃŃl": 8060,
      "Ġvplod": 8061,
      "ĠXABXBA": 8062,
      "ĠvzkÅĻek": 8063,
      "ĠmÅ¡ÃŃ": 8064,
      "ĠÅ¡lem": 8065,
      "ĠmiÅ¡": 8066,
      "Ġkdce": 8067,
      "ĠÅ¡ech": 8068,
      "Ġvosk": 8069,
      "ĠmeÅ¥": 8070,
      "ill": 8071,
      "ĠlÃ¡j": 8072,
      "ĠbuÅ¾": 8073,
      "Ġlul": 8074,
      "Ġhun": 8075,
      "ĠzpÅĻÃ¡": 8076,
      "Ġchym": 8077,
      "Ġvzdar": 8078,
      "ĠzdeÅ¥": 8079,
      "ĠÅ¡tÄĽj": 8080,
      "Ġsils": 8081,
      "Ġtlam": 8082,
      "Ġmens": 8083,
      "Ġksu": 8084,
      "ĠzÅĻev": 8085,
      "Ġkmra": 8086,
      "Ġhlem": 8087,
      "Ġktvo": 8088,
      "ĠstvoÅĻ": 8089,
      "ĠzroÅ¾": 8090,
      "Ġstruk": 8091,
      "Ġgin": 8092,
      "ĠkhnÄĽ": 8093,
      "Ġkhor": 8094,
      "Ġssvou": 8095,
      "Ġchlic": 8096,
      "ĠkÅĻÅ¯": 8097,
      "Ġchis": 8098,
      "ĠXAAAXX": 8099,
      "Ġvca": 8100,
      "Ġscy": 8101,
      "Ġkchu": 8102,
      "ĠdÅ¾a": 8103,
      "ĠzÄįÃ¡": 8104,
      "Ġsza": 8105,
      "ĠsÅ¡u": 8106,
      "Ġsbuj": 8107,
      "Ġcri": 8108,
      "Ġvyc": 8109,
      "Ġzec": 8110,
      "ĠcÃŃn": 8111,
      "ĠpaÅ¡": 8112,
      "Ġiem": 8113,
      "ĠtÃ¡c": 8114,
      "ĠluÅ¾": 8115,
      "ĠhuÅ¾": 8116,
      "ĠzmlÃ½": 8117,
      "Ġplz": 8118,
      "Ġklej": 8119,
      "Ġlous": 8120,
      "ĠstraÅĪ": 8121,
      "ĠvmÃ½": 8122,
      "Ġvstat": 8123,
      "ĠstrÅ¯m": 8124,
      "ĠÅ¾Ã¡Äį": 8125,
      "ĠvbÅĻi": 8126,
      "ĠkroÄį": 8127,
      "ĠzvÄĽd": 8128,
      "ĠÅ¥me": 8129,
      "ĠschÅĻa": 8130,
      "ĠÅ¡ky": 8131,
      "Ġktem": 8132,
      "ĠdrÃ¡h": 8133,
      "ĠzrÅ¯d": 8134,
      "Ġvrus": 8135,
      "ĠÄįtem": 8136,
      "ĠranÅ¾": 8137,
      "Ġtrik": 8138,
      "Ġploul": 8139,
      "Ġsnop": 8140,
      "Ġchlost": 8141,
      "ĠsproÅ¡": 8142,
      "Ġblb": 8143,
      "Ġsmoc": 8144,
      "ĠÅ¡lÃŃÅ¡": 8145,
      "ĠvpouÅ¥": 8146,
      "Ġrold": 8147,
      "it": 8148,
      "ĠzÅĻad": 8149,
      "Å¾b": 8150,
      "Ġnard": 8151,
      "ĠnÄĽd": 8152,
      "Ġprom": 8153,
      "ĠprÃ³": 8154,
      "Ġkrs": 8155,
      "Ġryv": 8156,
      "ĠvdnÅ¯": 8157,
      "Ġzmlad": 8158,
      "Ġgat": 8159,
      "ĠrÃ©s": 8160,
      "Ġvzdra": 8161,
      "Ġnuls": 8162,
      "ĠÅ¡lej": 8163,
      "Ġdlin": 8164,
      "ĠÅ¥ouÄį": 8165,
      "ĠznÃŃÅ¡": 8166,
      "ĠzpÃŃt": 8167,
      "ĠklÃŃch": 8168,
      "ĠvchlÃ¡d": 8169,
      "ĠÅĪav": 8170,
      "Ġhlost": 8171,
      "ĠtÃ½mÅ¾": 8172,
      "ĠdlÃ¡ÅĻ": 8173,
      "ĠskvÄĽt": 8174,
      "ĠssvÄĽ": 8175,
      "Ġsklet": 8176,
      "ĠznÃ¡mÅ¥": 8177,
      "ĠAXABBA": 8178,
      "ĠtrÃ½s": 8179,
      "ĠhmoÅ¾": 8180,
      "Ġkjas": 8181,
      "Ġpres": 8182,
      "ĠsmÃ½t": 8183,
      "ĠspÅĻed": 8184,
      "Ġcvrli": 8185,
      "ĠsÅ¾Ã¡": 8186,
      "ĠÅ¾ral": 8187,
      "Ġaeo": 8188,
      "ĠnÃº": 8189,
      "ĠhvÃ©": 8190,
      "ÅĻou": 8191,
      "ĠÄįk": 8192,
      "ĠvÅ¡ar": 8193,
      "ĠvÃŃÅĻ": 8194,
      "Ġcij": 8195,
      "ĠboÅĪ": 8196,
      "Ġzdmi": 8197,
      "ĠsaÄį": 8198,
      "Ġkoun": 8199,
      "Ġvtk": 8200,
      "Ġsom": 8201,
      "Ġflu": 8202,
      "ĠvdÅĻe": 8203,
      "ĠsÃ¡c": 8204,
      "ĠsÃ¡Äį": 8205,
      "ĠzbÅ¯j": 8206,
      "Ġdrat": 8207,
      "Ġvzdro": 8208,
      "Ġshru": 8209,
      "Ġzlok": 8210,
      "ĠschlÃŃ": 8211,
      "Ġtvat": 8212,
      "Ġkmar": 8213,
      "ĠtluÄį": 8214,
      "ĠÅ¡pu": 8215,
      "ĠÄįtli": 8216,
      "ĠzlÃ©t": 8217,
      "Ġsmyk": 8218,
      "Ġtrep": 8219,
      "Ġzprav": 8220,
      "Ġwin": 8221,
      "Ġzse": 8222,
      "ĠtkÃ¡ÅĪ": 8223,
      "ĠsÅ¡a": 8224,
      "ĠdbÃ¡Å¡": 8225,
      "ĠkmÃŃn": 8226,
      "Ġspekt": 8227,
      "ĠmnÃ¡c": 8228,
      "ĠzÃ³": 8229,
      "Ġzze": 8230,
      "ĠbvÃ¡": 8231,
      "ĠrrÃ¡": 8232,
      "ĠnaÅĻ": 8233,
      "ĠÅ¾vÃ¡": 8234,
      "ĠÅ¡m": 8235,
      "ĠÅ¡Ã©": 8236,
      "Ġhof": 8237,
      "ĠsvÅĻe": 8238,
      "Ġlix": 8239,
      "Ġkau": 8240,
      "ĠsknÄĽ": 8241,
      "ĠsknÃŃ": 8242,
      "Ġpaf": 8243,
      "Ġjah": 8244,
      "Ġmad": 8245,
      "ĠÅĻep": 8246,
      "ĠspÅĻi": 8247,
      "Ġsprou": 8248,
      "ĠlyÅĪ": 8249,
      "ĠkÃ¡ÅĪ": 8250,
      "ĠbÄĽc": 8251,
      "ĠstÃŃc": 8252,
      "ĠkrÃ¡p": 8253,
      "Ġpris": 8254,
      "Ġzpli": 8255,
      "Ġfru": 8256,
      "Ġfech": 8257,
      "Ġdland": 8258,
      "ĠdÄĽlÅ¥": 8259,
      "Ġvhmo": 8260,
      "ĠvpoÄį": 8261,
      "ĠhneÅ¡": 8262,
      "Ġkrum": 8263,
      "ĠmÃ½l": 8264,
      "ĠdrÃ¡Äį": 8265,
      "Ġplos": 8266,
      "ĠÄıouÄį": 8267,
      "Ġsnez": 8268,
      "ĠÅ¡pen": 8269,
      "ĠchvÃ¡ÅĻ": 8270,
      "ĠdlÃ¡Å¡": 8271,
      "Ġvskvost": 8272,
      "ĠtresÅ¥": 8273,
      "ĠvÅĻÃŃj": 8274,
      "ĠvtuÅ¾": 8275,
      "Ġvspor": 8276,
      "Ġztrouch": 8277,
      "Ġkloub": 8278,
      "ĠhnÅ¯j": 8279,
      "ĠkjÃ¡": 8280,
      "ĠzsvÃ©": 8281,
      "ĠdvÃŃk": 8282,
      "Ġkspo": 8283,
      "ĠÅ¾old": 8284,
      "ĠstlÃ©m": 8285,
      "Ġvslast": 8286,
      "ĠsÅ¥al": 8287,
      "ĠtrÃ³n": 8288,
      "ĠpÅ¡t": 8289,
      "Ġdmul": 8290,
      "Ġkzdro": 8291,
      "ĠkÄıa": 8292,
      "Ġjve": 8293,
      "Ġlvu": 8294,
      "Ġdog": 8295,
      "Ġrom": 8296,
      "ĠkdÃŃt": 8297,
      "Ġmoi": 8298,
      "Ġzvrou": 8299,
      "Ġzprud": 8300,
      "ĠstÃ¡k": 8301,
      "ĠvlaÄį": 8302,
      "Ġez": 8303,
      "Ġziz": 8304,
      "ĠvhrÃ¡": 8305,
      "ĠstrÅĪ": 8306,
      "Ġvzpup": 8307,
      "Ġjud": 8308,
      "Ġjus": 8309,
      "Ġjuch": 8310,
      "Ġvpoc": 8311,
      "ĠdliÅ¡": 8312,
      "ĠÅ¡uj": 8313,
      "ĠzvÄĽr": 8314,
      "ĠktvÃ¡": 8315,
      "Ġvkov": 8316,
      "Ġ27": 8317,
      "ĠpÅ¯jÄį": 8318,
      "ĠXABA": 8319,
      "ĠptaÄį": 8320,
      "Ġbrouz": 8321,
      "Ġfant": 8322,
      "Ġstma": 8323,
      "Ġchic": 8324,
      "ĠvhÃ¡d": 8325,
      "ĠcnosÅ¥": 8326,
      "Ġblysk": 8327,
      "Ġvdes": 8328,
      "ĠsÅ¡tÄĽ": 8329,
      "ĠABXBAA": 8330,
      "ĠvkeÅĻ": 8331,
      "Ġfron": 8332,
      "ĠzjichÅ¾": 8333,
      "Ġjhu": 8334,
      "Ġvsrp": 8335,
      "ĠkÅĻtem": 8336,
      "ĠpskÃ½ch": 8337,
      "Ġchroust": 8338,
      "ĠXABAAB": 8339,
      "Ġds": 8340,
      "Ġmk": 8341,
      "Ġchnul": 8342,
      "Ġleg": 8343,
      "ĠhoÅ¥": 8344,
      "Ġtih": 8345,
      "ĠvzlÃŃ": 8346,
      "Ġchaj": 8347,
      "ĠgrÅ¯": 8348,
      "ĠhrÅĪ": 8349,
      "ĠzoÅ¡": 8350,
      "ĠvlÃ½": 8351,
      "ĠzpÄĽn": 8352,
      "Ġjul": 8353,
      "ĠvlÃ¡h": 8354,
      "Ġplech": 8355,
      "ĠAXAXAX": 8356,
      "Ġschlou": 8357,
      "Ġvdub": 8358,
      "Ġlils": 8359,
      "Ġtku": 8360,
      "Ġvzals": 8361,
      "ĠpÃ©r": 8362,
      "ĠÅ¡tvÃ¡t": 8363,
      "Ġsjezd": 8364,
      "Ġllic": 8365,
      "Ġvmlh": 8366,
      "Ġsfe": 8367,
      "Ġsfi": 8368,
      "ĠsdÄĽv": 8369,
      "ĠzpÅ¯l": 8370,
      "ĠvbÄĽd": 8371,
      "ĠvstÅĻet": 8372,
      "Ġfons": 8373,
      "Ġvklam": 8374,
      "Ġfekt": 8375,
      "Ġsge": 8376,
      "ĠchÅĻtÃ¡": 8377,
      "Ġvsklon": 8378,
      "ĠzjÃŃc": 8379,
      "ĠseÅ¾": 8380,
      "ĠpoÅ¾": 8381,
      "ĠzaÅ¾": 8382,
      "Ġtaur": 8383,
      "Ġmah": 8384,
      "ĠstÃŃÅ¾": 8385,
      "Ġchus": 8386,
      "ĠvzdÃ¡m": 8387,
      "Ġkliv": 8388,
      "ĠvlÅ¯m": 8389,
      "Ġzhmo": 8390,
      "ĠÅ¡uÅ¡": 8391,
      "ĠÅ¡lik": 8392,
      "ĠvzÃ¡r": 8393,
      "ĠpsÅ¯m": 8394,
      "ĠÅ¡tÃŃp": 8395,
      "ĠÅ¡tÃŃr": 8396,
      "ĠÅ¡pÃ¡s": 8397,
      "Ġyal": 8398,
      "Ġthor": 8399,
      "Ġtlil": 8400,
      "Ġplyt": 8401,
      "Ġzmij": 8402,
      "ĠzÃ½c": 8403,
      "Ġvcel": 8404,
      "ĠAAXBBA": 8405,
      "ĠÄįoÅ¡": 8406,
      "Ġkstar": 8407,
      "Ġvplet": 8408,
      "Ġdant": 8409,
      "ĠsklÃŃn": 8410,
      "ĠrvÃ¡Äį": 8411,
      "ĠkÅ¾Ã¡": 8412,
      "ĠvsmÄĽs": 8413,
      "Ġvklouz": 8414,
      "ĠgrÃ¡n": 8415,
      "Ġzklid": 8416,
      "ĠvÄįty": 8417,
      "ĠzcÃŃ": 8418,
      "ĠzÅĪal": 8419,
      "ĠposÅ¥": 8420,
      "Ġdod": 8421,
      "Ġkdra": 8422,
      "Ġkdal": 8423,
      "ĠtÃŃz": 8424,
      "ĠdÃ¡Äį": 8425,
      "ĠAABABA": 8426,
      "Ġtyk": 8427,
      "ĠkrÃ¡d": 8428,
      "ĠsvÄĽr": 8429,
      "Ġtaks": 8430,
      "Ġkouc": 8431,
      "Ġbau": 8432,
      "ĠkrÃ½m": 8433,
      "ĠvsvÃŃ": 8434,
      "Ġslas": 8435,
      "Ġryh": 8436,
      "Ġnadv": 8437,
      "ĠchaÄį": 8438,
      "ĠdÃ½k": 8439,
      "ĠvkÅ¡ti": 8440,
      "ĠplÅ¯": 8441,
      "Ġdlan": 8442,
      "Ġkrop": 8443,
      "ĠchvÃ¡l": 8444,
      "ĠÅ¡leÅ¡": 8445,
      "ĠksÅĪat": 8446,
      "Ġsbal": 8447,
      "ĠspÄĽv": 8448,
      "ĠspÄĽÅ¾": 8449,
      "Ġschlu": 8450,
      "Ġdvar": 8451,
      "ĠhruÅ¾": 8452,
      "ĠblÃ¡n": 8453,
      "ĠvnÃ¡ÅĻ": 8454,
      "Ġvskro": 8455,
      "ĠtliÄį": 8456,
      "ĠzmoÅĻ": 8457,
      "Ġsman": 8458,
      "Ġzdiv": 8459,
      "Ġzbron": 8460,
      "ĠvjaÅĻ": 8461,
      "ĠkÅ¡u": 8462,
      "ĠtlÃ¡k": 8463,
      "ĠstÅĻÃ¡st": 8464,
      "ĠvhÃ¡v": 8465,
      "ĠzbÄĽh": 8466,
      "ĠchlÃŃm": 8467,
      "Ġvsuk": 8468,
      "Ġthyst": 8469,
      "ĠkÄįÃŃ": 8470,
      "ĠsnichÅ¾": 8471,
      "Ġnnen": 8472,
      "Ġdcem": 8473,
      "Ġdzin": 8474,
      "hi": 8475,
      "ĠsÄıÃ¡": 8476,
      "Ġvva": 8477,
      "ĠjvÃ¡": 8478,
      "Ġaz": 8479,
      "Ġsec": 8480,
      "ĠkaÅĪ": 8481,
      "Ġnop": 8482,
      "Ġsklu": 8483,
      "Ġtyp": 8484,
      "ĠzdÃ½m": 8485,
      "ĠÅ¡ic": 8486,
      "ĠkÃ©t": 8487,
      "Ġzpil": 8488,
      "ĠzprÃ¡z": 8489,
      "louz": 8490,
      "Ġvdy": 8491,
      "Ġei": 8492,
      "Ġsouz": 8493,
      "Ġvmas": 8494,
      "Ġksla": 8495,
      "Ġschi": 8496,
      "Ġkves": 8497,
      "ĠmlÃ¡z": 8498,
      "Ġvchvil": 8499,
      "ĠstÃ¡ls": 8500,
      "Ġkzu": 8501,
      "Ġtknut": 8502,
      "ĠcÃ½r": 8503,
      "Ġkby": 8504,
      "ĠkbliÅ¾": 8505,
      "ĠsboÅ¾": 8506,
      "ĠsklÃ¡n": 8507,
      "Ġkhlu": 8508,
      "Ġhlin": 8509,
      "Ġtref": 8510,
      "Ġtlen": 8511,
      "ĠbÅĻÃŃch": 8512,
      "ĠprÅ¯s": 8513,
      "Ġssl": 8514,
      "Ġfrain": 8515,
      "Ġvsluj": 8516,
      "Ġspik": 8517,
      "Ġberk": 8518,
      "Ġzbah": 8519,
      "ĠmÅ¾it": 8520,
      "ĠrdÃŃt": 8521,
      "ĠvpÅĻÃŃz": 8522,
      "ĠspusÅ¥": 8523,
      "ĠtnÃŃk": 8524,
      "ĠkÅ¡p": 8525,
      "Ġller": 8526,
      "Ġmhly": 8527,
      "ĠskÅĻes": 8528,
      "ĠrdÃŃc": 8529,
      "Ġfrid": 8530,
      "ĠzvÃ½h": 8531,
      "ĠÅ¯m": 8532,
      "ĠvbÅĻez": 8533,
      "ĠdskÃ©": 8534,
      "Ġvssu": 8535,
      "ĠkvraÅ¾": 8536,
      "ĠsvlÃŃd": 8537,
      "ĠdÃº": 8538,
      "Ġlb": 8539,
      "Ġbve": 8540,
      "ĠÄįka": 8541,
      "ĠdoÅĪ": 8542,
      "ĠÅ¾esÅ¥": 8543,
      "ĠAXABB": 8544,
      "Ġjap": 8545,
      "Ġmai": 8546,
      "Ġdir": 8547,
      "Ġbut": 8548,
      "Ġzdve": 8549,
      "ĠzdnÅ¯": 8550,
      "ĠsmÅ¯": 8551,
      "Ġsuv": 8552,
      "ĠznÃ©": 8553,
      "ĠfÅ¯m": 8554,
      "ĠdÃ©n": 8555,
      "Ġcham": 8556,
      "ĠgÅ¯m": 8557,
      "ĠpouÄį": 8558,
      "Ġspom": 8559,
      "Ġhrab": 8560,
      "Ġzov": 8561,
      "ĠztÃŃ": 8562,
      "Ġvhle": 8563,
      "ĠÅĪou": 8564,
      "ĠÅ¡lap": 8565,
      "Ġkml": 8566,
      "ĠkmlÃ½": 8567,
      "Ġvner": 8568,
      "Ġznov": 8569,
      "Ġthar": 8570,
      "ĠdlÃ©t": 8571,
      "ĠkhnÃŃz": 8572,
      "ĠmÅĻÃŃÅ¥": 8573,
      "ĠsÄįet": 8574,
      "ĠkstÅĻe": 8575,
      "Ġsju": 8576,
      "Ġsfou": 8577,
      "ĠsvrÅ¡": 8578,
      "ĠÄıau": 8579,
      "ĠstlÃ½m": 8580,
      "ĠvztyÄį": 8581,
      "Ġcvrk": 8582,
      "ĠspÅĻÃŃs": 8583,
      "ĠkvyÅ¡": 8584,
      "ĠAXBB": 8585,
      "Ġzcy": 8586,
      "ĠzÅ¡u": 8587,
      "ĠrmuÅ¥": 8588,
      "ĠspyÅ¡": 8589,
      "ĠvtÅĻes": 8590,
      "ĠÅ¾bÃ¡n": 8591,
      "ĠvchÃ½Å¾": 8592,
      "Ġsklouz": 8593,
      "ĠAXXXAX": 8594,
      "Ġshlt": 8595,
      "Ġtnost": 8596,
      "Ġbrloh": 8597,
      "ĠÅ¡roub": 8598,
      "ĠAXABBB": 8599,
      "nÅ¯m": 8600,
      "ĠvÅ¥": 8601,
      "Ġtni": 8602,
      "Ġlbi": 8603,
      "Ġac": 8604,
      "ĠÅ¾nou": 8605,
      "ĠÅ¡mo": 8606,
      "ĠÄįpÄĽ": 8607,
      "ĠvÄĽs": 8608,
      "Ġsket": 8609,
      "Ġtut": 8610,
      "Ġnys": 8611,
      "ĠlyÅ¥": 8612,
      "ĠpÅĻet": 8613,
      "ĠvÃ½sk": 8614,
      "ĠsÃŃr": 8615,
      "Ġvsak": 8616,
      "ĠstÃ¡Å¥": 8617,
      "ĠvÅ¾en": 8618,
      "ĠkvÄĽÅ¥": 8619,
      "ĠchÃ¡b": 8620,
      "ĠkvÅ¯d": 8621,
      "Ġvhi": 8622,
      "Ġvhej": 8623,
      "Ġshlou": 8624,
      "ĠsmÄĽv": 8625,
      "ĠzÅĻen": 8626,
      "ĠstÅĻÃŃl": 8627,
      "Ġktru": 8628,
      "ĠtrÃ¡l": 8629,
      "ĠdrÃ¡l": 8630,
      "ĠsdvÄĽ": 8631,
      "ĠvskvÄĽ": 8632,
      "Ġvhon": 8633,
      "ĠÅ¡tÃ½": 8634,
      "ĠhÅĻmi": 8635,
      "ĠplÃŃÅĻ": 8636,
      "Ġjilm": 8637,
      "ĠvmÄĽst": 8638,
      "Ġfuj": 8639,
      "Ġwer": 8640,
      "Ġspev": 8641,
      "ĠABBABB": 8642,
      "ĠchlÃŃk": 8643,
      "Ġzryl": 8644,
      "Ġclau": 8645,
      "Ġnnin": 8646,
      "Ġlvic": 8647,
      "Ġzfi": 8648,
      "ĠzvraÅ¾": 8649,
      "Ġtcho": 8650,
      "ĠckÃ½": 8651,
      "ĠdcÃ©": 8652,
      "ĠABXAXB": 8653,
      "Ġkctno": 8654,
      "Ġpho": 8655,
      "Ġrvu": 8656,
      "Ġsth": 8657,
      "ĠÅ¾lÃ¡": 8658,
      "ĠchÅĪa": 8659,
      "Ġkys": 8660,
      "Ġloi": 8661,
      "ĠÄįÃŃÅ¾": 8662,
      "ĠzdÅ¯l": 8663,
      "ĠzÃ¡t": 8664,
      "Ġmyk": 8665,
      "Ġvtva": 8666,
      "ĠzmÃ¡t": 8667,
      "Ġplil": 8668,
      "Ġpouz": 8669,
      "Ġblech": 8670,
      "Ġvhlav": 8671,
      "Ġstros": 8672,
      "Ġzhni": 8673,
      "ĠzdÃ¡n": 8674,
      "Ġksli": 8675,
      "Ġschech": 8676,
      "Ġkpla": 8677,
      "ĠtloÅ¡": 8678,
      "ĠvtiÅ¡": 8679,
      "ĠzlÅ¯m": 8680,
      "ĠzvÃŃs": 8681,
      "Ġmohs": 8682,
      "Ġkhu": 8683,
      "Ġparr": 8684,
      "Ġvztr": 8685,
      "Ġthes": 8686,
      "Ġvmraz": 8687,
      "Ġwar": 8688,
      "ĠzbÃ½t": 8689,
      "ĠvtrÃ½z": 8690,
      "Ġzvous": 8691,
      "ĠvtouÅ¾": 8692,
      "ĠÅ¡kam": 8693,
      "ĠpsÃŃk": 8694,
      "Ġvsym": 8695,
      "ĠpÃ³l": 8696,
      "ĠzbÃ¡s": 8697,
      "ĠvÅ¾ÃŃz": 8698,
      "Ġvtrap": 8699,
      "Ġkfa": 8700,
      "ĠkpÅ¯t": 8701,
      "ĠgÃ¶r": 8702,
      "ĠmÅĪou": 8703,
      "hn": 8704,
      "ĠvvÃ¡": 8705,
      "Ġtna": 8706,
      "ĠcÃ³": 8707,
      "ĠÅ¡me": 8708,
      "ĠtaÄį": 8709,
      "ĠtuÄı": 8710,
      "ĠvzÃº": 8711,
      "Ġsip": 8712,
      "ĠtakÅ¥": 8713,
      "ĠvtrÅ¯": 8714,
      "ĠÅĻip": 8715,
      "ĠzpÅĻi": 8716,
      "Ġsoj": 8717,
      "ĠvdÃ³": 8718,
      "Ġvdvou": 8719,
      "Ġboum": 8720,
      "ĠvknÃŃ": 8721,
      "Ġgas": 8722,
      "ĠziÅ¾": 8723,
      "Ġdvad": 8724,
      "Ġzos": 8725,
      "Ġvraz": 8726,
      "Ġvhlo": 8727,
      "Ġmraj": 8728,
      "Ġmlal": 8729,
      "ĠjsmeÅ¥": 8730,
      "ĠtmÃŃt": 8731,
      "Ġstyl": 8732,
      "Ġstych": 8733,
      "ĠskosÅ¥": 8734,
      "Ġvpor": 8735,
      "Ġsbar": 8736,
      "ĠÅ¥li": 8737,
      "Ġbrok": 8738,
      "ĠkpÅĻi": 8739,
      "ĠsdÃ½": 8740,
      "Ġvpras": 8741,
      "Ġgai": 8742,
      "ĠsvÃ½s": 8743,
      "Ġgois": 8744,
      "Ġvlip": 8745,
      "ĠzlÃ¡z": 8746,
      "Ġvtur": 8747,
      "Ġzkost": 8748,
      "Ġzdus": 8749,
      "Ġvsmy": 8750,
      "Ġxal": 8751,
      "Ġbzuk": 8752,
      "ĠzvÃ½z": 8753,
      "ĠzkraÅ¥": 8754,
      "ĠvjÃŃz": 8755,
      "Ġzhrad": 8756,
      "Ġvmrz": 8757,
      "ĠvstrÃ¡ÅĪ": 8758,
      "ĠvhrÅ¯z": 8759,
      "Ġvtlum": 8760,
      "ĠzhnÃŃzd": 8761,
      "ĠvtÃ©mÅ¾": 8762,
      "Ġvhnus": 8763,
      "lt": 8764,
      "nÃ©m": 8765,
      "ĠvvÃŃ": 8766,
      "Ġtst": 8767,
      "Ġdt": 8768,
      "ĠjÅĻÃŃ": 8769,
      "ĠjrÅ¯": 8770,
      "Ġpf": 8771,
      "ĠÅ¡rÃ¡": 8772,
      "ĠÅ¡ut": 8773,
      "ĠkoÅ¥": 8774,
      "ĠnÃ½Å¥": 8775,
      "ĠjÃŃl": 8776,
      "ĠzeÄį": 8777,
      "Ġdad": 8778,
      "ĠXAABAB": 8779,
      "ĠrÃ¡h": 8780,
      "Ġkoust": 8781,
      "Ġlut": 8782,
      "Ġkrem": 8783,
      "ĠslaÅĻ": 8784,
      "ĠÅĻim": 8785,
      "ĠvdvÅ¯r": 8786,
      "Ġest": 8787,
      "ĠbraÅ¡": 8788,
      "ĠAAABBA": 8789,
      "nitÅĻ": 8790,
      "Ġzul": 8791,
      "Ġvzdi": 8792,
      "Ġvsty": 8793,
      "Ġzyn": 8794,
      "Ġzyz": 8795,
      "Ġshy": 8796,
      "skÃ½": 8797,
      "ĠsvÃŃt": 8798,
      "ĠdÅĻÃŃt": 8799,
      "ĠproÄįs": 8800,
      "ĠknÄĽn": 8801,
      "Ġfai": 8802,
      "ĠvÄįet": 8803,
      "Ġkpu": 8804,
      "Ġkplo": 8805,
      "Ġkver": 8806,
      "ĠkvÃŃch": 8807,
      "Ġzdom": 8808,
      "Ġkudr": 8809,
      "ĠvzkvÃŃ": 8810,
      "ĠrÃ©mÅ¾": 8811,
      "ĠpÃ©Äį": 8812,
      "Ġsraz": 8813,
      "ĠvÅ¡an": 8814,
      "Ġtloun": 8815,
      "ĠkÅĻou": 8816,
      "ĠkstÄĽ": 8817,
      "ĠÄıaur": 8818,
      "Ġvplach": 8819,
      "Ġvbub": 8820,
      "ĠzhuÅ¡": 8821,
      "Ġojc": 8822,
      "Ġgend": 8823,
      "Ġflet": 8824,
      "Ġmyrr": 8825,
      "ĠzÅ¡a": 8826,
      "ĠÅ¾lab": 8827,
      "Ġcpe": 8828,
      "Ġvshro": 8829,
      "Ġflin": 8830,
      "Ġvkvap": 8831,
      "ĠjmÃŃn": 8832,
      "hu": 8833,
      "Ġtg": 8834,
      "Ġdp": 8835,
      "ĠjÃ©": 8836,
      "Ġmro": 8837,
      "Ġrme": 8838,
      "ĠÄįku": 8839,
      "ĠsvrÃ¡": 8840,
      "ĠsvdÄĽÄį": 8841,
      "ĠjiÅ¡Å¥": 8842,
      "ĠvoÅĻ": 8843,
      "Ġpag": 8844,
      "Ġvij": 8845,
      "ĠmÃ¡st": 8846,
      "ĠzdÃ©": 8847,
      "lout": 8848,
      "Ġgha": 8849,
      "ĠkvlÃ¡": 8850,
      "Ġvhlad": 8851,
      "ĠchvÃŃc": 8852,
      "ĠkÅĻÃŃÅ¡": 8853,
      "ĠdroÅ¾": 8854,
      "Ġkpl": 8855,
      "Ġvjho": 8856,
      "Ġyet": 8857,
      "ĠvrouÅ¡": 8858,
      "Ġvlist": 8859,
      "Ġsrol": 8860,
      "ĠvÅ¡ach": 8861,
      "Ġkmoc": 8862,
      "ĠksmÄĽ": 8863,
      "ĠsmiÅĻ": 8864,
      "Ġllin": 8865,
      "ĠslÅ¯Å¾": 8866,
      "Ġzmrz": 8867,
      "ĠvtrÃ¡v": 8868,
      "ĠstkvÃŃt": 8869,
      "Ġmlel": 8870,
      "ĠvpÄĽsÅ¥": 8871,
      "Ġchecht": 8872,
      "ĠtrÃ©t": 8873,
      "ĠÅ¾hnout": 8874,
      "ĠsÅ¥at": 8875,
      "Ġsvlh": 8876,
      "Ġsvrhl": 8877,
      "Ġnnes": 8878,
      "Ġsmluv": 8879,
      "ĠvssÃ¡l": 8880,
      "Ġsvlek": 8881,
      "ĠjÃ³n": 8882,
      "ĠvÄįtve": 8883,
      "ĠmnÃ¡ct": 8884,
      "Ġdvent": 8885,
      "ĠvÅĻem": 8886,
      "Ġmva": 8887,
      "Ġrho": 8888,
      "Ġnuc": 8889,
      "ĠnuÅ¥": 8890,
      "Ġvzje": 8891,
      "Ġspnou": 8892,
      "ĠtÃ©v": 8893,
      "Ġmys": 8894,
      "Ġvsb": 8895,
      "ĠhÃ¡ÅĪ": 8896,
      "Ġryz": 8897,
      "Ġhyp": 8898,
      "Ġdlat": 8899,
      "Ġkvin": 8900,
      "Ġblast": 8901,
      "ĠrÃ©n": 8902,
      "ĠslÃ¡t": 8903,
      "Ġchvu": 8904,
      "ĠzdaÅĻ": 8905,
      "Ġvlesk": 8906,
      "ĠkruÅ¾": 8907,
      "Ġsche": 8908,
      "Ġotr": 8909,
      "ĠkmÃ¡": 8910,
      "ĠÅ¡kar": 8911,
      "ĠdlÃŃc": 8912,
      "ĠvjÃŃt": 8913,
      "Ã³p": 8914,
      "Ġtkou": 8915,
      "ĠdveÄı": 8916,
      "Ġtrej": 8917,
      "Ġspin": 8918,
      "ĠzdÄĽr": 8919,
      "ĠvsaÄı": 8920,
      "Ġvkrou": 8921,
      "ĠvnÃ©st": 8922,
      "Ġxis": 8923,
      "Ġind": 8924,
      "Ġvset": 8925,
      "ĠvpÅĻÃŃÄį": 8926,
      "ĠsprÃ¡ch": 8927,
      "Ġsfor": 8928,
      "Ġzten": 8929,
      "ĠskvÃŃÅ¡": 8930,
      "ĠABBBAX": 8931,
      "ĠABBXAA": 8932,
      "ĠchlÃŃÅ¡": 8933,
      "Ġsco": 8934,
      "Ġrint": 8935,
      "Ġgent": 8936,
      "Ġzkrot": 8937,
      "ĠcÃ©ÅĻ": 8938,
      "Ġvge": 8939,
      "ĠzbÃ¡z": 8940,
      "ĠnimÅ¾": 8941,
      "ĠABAXBA": 8942,
      "ĠschvÄĽl": 8943,
      "Ġvpsa": 8944,
      "ĠdÅ¡tÃ½n": 8945,
      "ĠcÅ¾ech": 8946,
      "Ġjroz": 8947,
      "Ġzplic": 8948,
      "ĠpÅ¡tro": 8949,
      "Ġnry": 8950,
      "Ġkko": 8951,
      "cho": 8952,
      "ĠceÅ¥": 8953,
      "ĠnÄĽs": 8954,
      "Ġmud": 8955,
      "ĠvÃŃz": 8956,
      "Ġtun": 8957,
      "Ġnuch": 8958,
      "ĠkÅ¯st": 8959,
      "Ġslar": 8960,
      "ĠslaÄı": 8961,
      "Ġzpru": 8962,
      "Ġchon": 8963,
      "ĠvdÅ¾b": 8964,
      "ĠchÃ¡Äį": 8965,
      "ĠhrÃ½z": 8966,
      "ĠztÃŃs": 8967,
      "Ġzhar": 8968,
      "ĠÅĪouÄį": 8969,
      "Ġrid": 8970,
      "Ġkryp": 8971,
      "ĠkprÅ¯": 8972,
      "ĠhnÄĽd": 8973,
      "ĠtrÃ¡c": 8974,
      "Ġvchlu": 8975,
      "Ġsdla": 8976,
      "Ġzleb": 8977,
      "ĠthÄĽ": 8978,
      "Ġcag": 8979,
      "ĠÄįta": 8980,
      "ĠsvÃ½Å¡": 8981,
      "ĠzlÃŃch": 8982,
      "ĠsmuÅ¾": 8983,
      "ĠpÄĽls": 8984,
      "Ġsves": 8985,
      "Ġzdrob": 8986,
      "ĠtÃ³m": 8987,
      "Ġdnin": 8988,
      "Ġzpust": 8989,
      "Ġspus": 8990,
      "Ġvhlas": 8991,
      "ĠzmÃ¡st": 8992,
      "Ġgrem": 8993,
      "Ġscest": 8994,
      "Ġvklec": 8995,
      "ĠvzÃ½t": 8996,
      "Ġzvrt": 8997,
      "ĠsÅ¡k": 8998,
      "Ġkurs": 8999,
      "ĠvmdlÃ©": 9000,
      "ĠscÃ©n": 9001,
      "Ġoasy": 9002,
      "Ġdvyk": 9003,
      "ĠÅ¡uth": 9004,
      "cy": 9005,
      "ĠzÅ¡i": 9006,
      "Ġrru": 9007,
      "ĠjesÅ¥": 9008,
      "ĠkuÅ¡": 9009,
      "ĠroÄı": 9010,
      "ĠvÃ¡p": 9011,
      "ĠdÃŃÅ¥": 9012,
      "Ġbeg": 9013,
      "ĠÄįÃŃÅĻ": 9014,
      "Ġvisk": 9015,
      "ĠAABAXB": 9016,
      "Ġio": 9017,
      "Ġsaz": 9018,
      "Ġkdek": 9019,
      "ĠvÅ¾hou": 9020,
      "ĠkvÃ¡l": 9021,
      "ĠvhÅĻ": 9022,
      "Ġzver": 9023,
      "ĠÅ¡lit": 9024,
      "Ġtluc": 9025,
      "Ġtals": 9026,
      "Ġjmou": 9027,
      "Ġztrav": 9028,
      "Ġsbol": 9029,
      "ĠsklÃ¡t": 9030,
      "ĠÅ¾lic": 9031,
      "Ġpart": 9032,
      "ĠzlÃŃm": 9033,
      "ĠzlÃŃÅ¡": 9034,
      "ĠvliÄį": 9035,
      "Ġzju": 9036,
      "ĠstkÃ¡n": 9037,
      "ĠkÅ¡a": 9038,
      "ĠhÅĻmÄĽt": 9039,
      "ĠpneÅ¡": 9040,
      "ĠXAAXAX": 9041,
      "Ġkskut": 9042,
      "ĠkdÄĽc": 9043,
      "Ġzca": 9044,
      "ĠÅ¡krt": 9045,
      "ĠvhvÄĽzd": 9046,
      "ĠvÅ¾ÃŃr": 9047,
      "ĠÅ¾rÃ¡t": 9048,
      "Ġvtroud": 9049,
      "ĠzhrÅ¯z": 9050,
      "Ġuille": 9051,
      "ĠAXXBAB": 9052,
      "ĠglÃ³": 9053,
      "Ġjlo": 9054,
      "Ġpje": 9055,
      "Ġclou": 9056,
      "Ġcka": 9057,
      "ĠcmÃŃ": 9058,
      "Ġnais": 9059,
      "Ġoi": 9060,
      "lan": 9061,
      "Ġnoj": 9062,
      "ĠnÃ©Å¥": 9063,
      "ĠtaÅĻ": 9064,
      "ĠkyÅĻ": 9065,
      "ĠÄįeb": 9066,
      "Ġdut": 9067,
      "Ġcip": 9068,
      "Ġnyx": 9069,
      "ĠviÅ¾": 9070,
      "ĠlÃŃz": 9071,
      "ĠmÃŃk": 9072,
      "ĠstÃŃÄį": 9073,
      "Ġsab": 9074,
      "ĠprÃ½m": 9075,
      "Ġsuc": 9076,
      "Ġsug": 9077,
      "ĠpÄĽr": 9078,
      "ĠvÅ¾ur": 9079,
      "ĠklaÅĪ": 9080,
      "Ġslost": 9081,
      "Ġglu": 9082,
      "Ġhous": 9083,
      "Ġkdom": 9084,
      "Ġslen": 9085,
      "ĠplÃ¡ch": 9086,
      "Ġzkal": 9087,
      "Ġzhvoz": 9088,
      "Ġstvin": 9089,
      "Ġskre": 9090,
      "Ġzjes": 9091,
      "Ġtlup": 9092,
      "ĠznoÄį": 9093,
      "ĠÅ¡pÃ¡": 9094,
      "Ġkzbo": 9095,
      "Ġfij": 9096,
      "ĠtÃ©mÅ¾": 9097,
      "Ġcau": 9098,
      "Ġzals": 9099,
      "ĠchrÅ¯m": 9100,
      "Ġgos": 9101,
      "Ġstils": 9102,
      "ĠkpohÅĻ": 9103,
      "Ġzarr": 9104,
      "Ġzchlu": 9105,
      "ĠÅ¾erÄı": 9106,
      "ĠvmÄĽl": 9107,
      "ĠlstnÃ©": 9108,
      "Ġmass": 9109,
      "Ġztes": 9110,
      "Ġvpout": 9111,
      "ĠvdlaÅ¾": 9112,
      "ĠsplÅĪ": 9113,
      "Ġbryn": 9114,
      "Ġbrit": 9115,
      "Ġzvrb": 9116,
      "Ġkprv": 9117,
      "ĠzmeÅ¡": 9118,
      "Ġgypt": 9119,
      "ĠÅ¾bÃ¡": 9120,
      "ĠthÃ©n": 9121,
      "ĠfÄĽr": 9122,
      "ĠÅ¡vÃ©d": 9123,
      "Ġpstruh": 9124,
      "ĠfÃ½r": 9125,
      "ÄĽn": 9126,
      "ĠÅ¡Ã¡m": 9127,
      "Ġsvz": 9128,
      "ĠpaÅ¥": 9129,
      "Ġvzvy": 9130,
      "ĠÅĻeÅ¡": 9131,
      "ĠkÃ¡p": 9132,
      "Ġzdem": 9133,
      "ĠtrÃ½ch": 9134,
      "ĠvalÅ¥": 9135,
      "Ġdoub": 9136,
      "ĠvouÅ¡": 9137,
      "ĠdvÃ¡l": 9138,
      "Ġstul": 9139,
      "Ġspoc": 9140,
      "Ġkvzd": 9141,
      "Ġshlav": 9142,
      "Ġtrop": 9143,
      "Ġskol": 9144,
      "ĠsmÄĽst": 9145,
      "Ġmark": 9146,
      "Ġdvard": 9147,
      "Ġkven": 9148,
      "ĠÅĻÃ¡k": 9149,
      "han": 9150,
      "ĠctnÃ½m": 9151,
      "Ġsnim": 9152,
      "ĠvlÃŃp": 9153,
      "Ġjob": 9154,
      "ĠkÅĻen": 9155,
      "Ġkzr": 9156,
      "ĠkzÃŃ": 9157,
      "Ġmand": 9158,
      "ĠsÃ½r": 9159,
      "ĠrÃ½mÅ¾": 9160,
      "ĠzmÃŃst": 9161,
      "Ġssr": 9162,
      "Ġspras": 9163,
      "ĠzdÄĽv": 9164,
      "ĠÅ¡os": 9165,
      "ĠzÃºz": 9166,
      "ĠplouÄį": 9167,
      "Ġclow": 9168,
      "Ġksmut": 9169,
      "Ġhnut": 9170,
      "ĠtlÃŃk": 9171,
      "ĠtlÃŃm": 9172,
      "ĠtlÃŃch": 9173,
      "ĠvbÄĽl": 9174,
      "Ġszim": 9175,
      "Ġscim": 9176,
      "ĠXABBAB": 9177,
      "Ġkstol": 9178,
      "Ġnvent": 9179,
      "ĠvchÃ½Å¡": 9180,
      "Ġkzda": 9181,
      "Ġwell": 9182,
      "Ġvmhu": 9183,
      "ĠjseÅ¡": 9184,
      "Ġstaff": 9185,
      "ĠstÅĻap": 9186,
      "ĠvhrÃ¡ch": 9187,
      "hy": 9188,
      "rÃ©": 9189,
      "Ġvvr": 9190,
      "ĠsvÄįe": 9191,
      "Ġtex": 9192,
      "ĠjiÄį": 9193,
      "Ġuo": 9194,
      "ĠvyÅ¥": 9195,
      "Ġvzj": 9196,
      "Ġspru": 9197,
      "ĠÅ¡iÅĻ": 9198,
      "Ġznad": 9199,
      "Ġtouc": 9200,
      "Ġpum": 9201,
      "ĠstÄĽs": 9202,
      "lÃ½s": 9203,
      "Ġstouc": 9204,
      "Ġschmi": 9205,
      "Ġkls": 9206,
      "ĠstrÃ¡t": 9207,
      "ĠdrÃ¡m": 9208,
      "ĠÄıÃ¡l": 9209,
      "ĠvdÄĽc": 9210,
      "ĠhlÃ¡Å¡": 9211,
      "Ġzlej": 9212,
      "ĠzleÅ¥": 9213,
      "Ġthou": 9214,
      "ĠthÅ¯m": 9215,
      "Ġkhar": 9216,
      "Ġshoj": 9217,
      "Ġgog": 9218,
      "ĠknouÅ¥": 9219,
      "Ġzruk": 9220,
      "ĠzdÄĽs": 9221,
      "ĠzchÃ¡": 9222,
      "Ġzchmu": 9223,
      "Ġgup": 9224,
      "ĠÅĪÃ¡Äį": 9225,
      "ĠkÄįes": 9226,
      "Ġzhoj": 9227,
      "ĠzsvÃ½ch": 9228,
      "ĠÅ¡vej": 9229,
      "Ġvstrach": 9230,
      "Ġtskou": 9231,
      "Ġthan": 9232,
      "ĠzÅ¾Ã¡": 9233,
      "ĠvtÃ½Å¾": 9234,
      "Ġvsyp": 9235,
      "ĠkdruÅ¾": 9236,
      "Ġvklas": 9237,
      "ĠzpyÅ¡": 9238,
      "Ġshrad": 9239,
      "ĠlpÄĽl": 9240,
      "Ġvvel": 9241,
      "Ġbrecht": 9242,
      "Ġdpran": 9243,
      "Ġnber": 9244,
      "ĠvÅĻas": 9245,
      "ĠdÅ¾i": 9246,
      "Ġmnu": 9247,
      "Ġaf": 9248,
      "Ġast": 9249,
      "ĠÅ¾mo": 9250,
      "ĠlaÅĻ": 9251,
      "Ġlast": 9252,
      "leb": 9253,
      "Ġdoch": 9254,
      "Ġnold": 9255,
      "Ġmiv": 9256,
      "ĠtÄĽv": 9257,
      "ĠnouÄį": 9258,
      "Ġtven": 9259,
      "Ġjaz": 9260,
      "Ġmaz": 9261,
      "Ġbesk": 9262,
      "Ġies": 9263,
      "ĠÄįisÅ¥": 9264,
      "Ġhaf": 9265,
      "ĠhlaÅ¥": 9266,
      "Ġsap": 9267,
      "Ġvuc": 9268,
      "ĠpÃŃÅ¥": 9269,
      "ĠzprÅ¯": 9270,
      "ĠflÃ¡": 9271,
      "Ġvdva": 9272,
      "ĠvÅ¾il": 9273,
      "ĠdÃ©r": 9274,
      "Ġchard": 9275,
      "Ġvkve": 9276,
      "Ġzmen": 9277,
      "ĠvmÅĻÃŃ": 9278,
      "ĠbrÅ¯m": 9279,
      "Ġvstrou": 9280,
      "ĠstÄĽl": 9281,
      "ĠvzpÅĻÃ¡": 9282,
      "ĠsliÅ¥": 9283,
      "Ġnesv": 9284,
      "ĠsvÃŃÅ¾": 9285,
      "Ġkslou": 9286,
      "ĠksnÅ¯m": 9287,
      "ĠÅ¾aÄį": 9288,
      "ĠÅ¥oun": 9289,
      "ĠkpÃ³": 9290,
      "ĠvlÃŃst": 9291,
      "Ġkbal": 9292,
      "ĠdlÃ¡Äį": 9293,
      "ĠdlÃ¡ch": 9294,
      "Ġgir": 9295,
      "Ġskul": 9296,
      "Ġchran": 9297,
      "Ġssou": 9298,
      "Ġzkan": 9299,
      "ĠÃ¡h": 9300,
      "Ġpoll": 9301,
      "ĠmÄĽjÅ¾": 9302,
      "Ġzhan": 9303,
      "ĠzdrÅ¥": 9304,
      "ĠzjaÅĻ": 9305,
      "Ġvkrok": 9306,
      "Ġkult": 9307,
      "ĠvbÄĽs": 9308,
      "ĠÅ¾dÃ¡t": 9309,
      "ĠkspÄĽ": 9310,
      "Ġkpras": 9311,
      "ĠvjÃŃc": 9312,
      "ĠvÅ¾eÅĪ": 9313,
      "Ġvvl": 9314,
      "ĠvrÃ½t": 9315,
      "Ġvztah": 9316,
      "Ġzmlkl": 9317,
      "ĠvtÃ½d": 9318,
      "ĠmÃ³n": 9319,
      "Ġmyrt": 9320,
      "ĠkÅ¾er": 9321,
      "ĠsmraÄį": 9322,
      "Ġskiz": 9323,
      "ĠbÃ³v": 9324,
      "Ġvvzpo": 9325,
      "Ġtknout": 9326,
      "Ġvzvon": 9327,
      "Ġtmel": 9328,
      "ĠABXBXA": 9329,
      "ĠmkrÃ¡t": 9330,
      "ĠjrÅ¯z": 9331,
      "rr": 9332,
      "vem": 9333,
      "Ġnri": 9334,
      "Ġts": 9335,
      "Ġlve": 9336,
      "Ġbrd": 9337,
      "ĠnaÅ¾": 9338,
      "ĠÅ¾ÄıÃ¡": 9339,
      "ĠchÅĻÃ¡": 9340,
      "Ġtir": 9341,
      "Ġtoc": 9342,
      "Ġtoch": 9343,
      "ĠnÃ½r": 9344,
      "ĠtÄĽd": 9345,
      "ĠvÄĽch": 9346,
      "ĠvÅ¡o": 9347,
      "ĠmoÄį": 9348,
      "Ġjad": 9349,
      "Ġrur": 9350,
      "Ġbeh": 9351,
      "ĠpÅĻeÅ¾": 9352,
      "Ġpep": 9353,
      "ĠvsrÃ¡z": 9354,
      "Ġfj": 9355,
      "ĠfÃ³r": 9356,
      "Ġhrat": 9357,
      "Ġkval": 9358,
      "Ġvrad": 9359,
      "Ġvpoch": 9360,
      "ĠÅ¡up": 9361,
      "ĠspÄĽk": 9362,
      "ĠslÃŃd": 9363,
      "Ġkryb": 9364,
      "Ġschmu": 9365,
      "ĠtÅĻiÅ¥": 9366,
      "Ġzour": 9367,
      "Ġvjez": 9368,
      "ĠdlÃŃÄį": 9369,
      "ĠchÅ¯z": 9370,
      "ĠjoÅ¡t": 9371,
      "ĠsnÃ¡d": 9372,
      "ĠvskÅĻe": 9373,
      "ĠvkaÅ¡": 9374,
      "Ġoul": 9375,
      "Ġrakt": 9376,
      "ĠplÃŃÅ¡": 9377,
      "Ġgrand": 9378,
      "Ġfranc": 9379,
      "Ġvspi": 9380,
      "Ġploun": 9381,
      "ĠnehÅĻ": 9382,
      "Ġvhluk": 9383,
      "ĠcÃ¡b": 9384,
      "Ġkim": 9385,
      "Ġzmuk": 9386,
      "Ġvcud": 9387,
      "ĠdÅ¾Ã¡r": 9388,
      "ĠvnouÄį": 9389,
      "ĠpnÄĽl": 9390,
      "ĠpnÄĽm": 9391,
      "ĠkÅĻtil": 9392,
      "ĠmlÃŃÄį": 9393,
      "ĠtmÃ¡ÅĻ": 9394,
      "ĠÅ¡kvÃ¡r": 9395,
      "ĠÄįmoud": 9396,
      "ĠvtÅĻpyt": 9397,
      "ĠsÅĻi": 9398,
      "Ġtnul": 9399,
      "Ġlak": 9400,
      "ĠÅ¾Äı": 9401,
      "Ġchich": 9402,
      "Ġnol": 9403,
      "ĠvÃ¡ÅĪ": 9404,
      "Ġlois": 9405,
      "ĠtÃ¡v": 9406,
      "Ġbaf": 9407,
      "ÅĪk": 9408,
      "Ġhlej": 9409,
      "ĠzpÃ½": 9410,
      "Ġvdvor": 9411,
      "Ġklac": 9412,
      "ĠsloÄı": 9413,
      "ĠchyÅ¾": 9414,
      "Ġztle": 9415,
      "ĠvhÅĻbi": 9416,
      "Ġstrech": 9417,
      "Ġmram": 9418,
      "Ġshnu": 9419,
      "Ġklok": 9420,
      "ĠtlaÄį": 9421,
      "Ġksle": 9422,
      "Ġsber": 9423,
      "ĠknÄĽj": 9424,
      "ĠktÅ¯": 9425,
      "ĠkzÅĻÃŃ": 9426,
      "Ġvrok": 9427,
      "Ġyer": 9428,
      "ĠtkÃ¡n": 9429,
      "ĠÅ¡ils": 9430,
      "ĠAXAAXX": 9431,
      "ĠcheÅĪ": 9432,
      "ĠvÄįlun": 9433,
      "Ġberg": 9434,
      "ĠÅ¾uÅ¾": 9435,
      "ĠvjiÅ¾": 9436,
      "Ġxer": 9437,
      "Ġvtep": 9438,
      "Ġkstu": 9439,
      "Ġsjis": 9440,
      "Ġkloud": 9441,
      "ĠklouÄį": 9442,
      "ĠztuÄį": 9443,
      "ĠmhÃ¡ch": 9444,
      "Ġshlas": 9445,
      "ĠrdÃŃÅ¡": 9446,
      "Ġvcval": 9447,
      "ĠzpÅĻÃŃz": 9448,
      "ĠzÄįlo": 9449,
      "ĠstlÃ¡n": 9450,
      "Ġvstrom": 9451,
      "Ġvgo": 9452,
      "ĠzvÅ¡ed": 9453,
      "ĠdskÃ½": 9454,
      "Ġzza": 9455,
      "Ġvklus": 9456,
      "ĠvepÅĻ": 9457,
      "ĠllÃ¡r": 9458,
      "ĠzhÃ½Äį": 9459,
      "ĠvÅ¡ke": 9460,
      "ĠvsliÄį": 9461,
      "ĠvskrÃ½Å¡": 9462,
      "Ġdchnu": 9463,
      "ĠzdÅĻim": 9464,
      "ĠcmÃŃr": 9465,
      "kou": 9466,
      "ĠjÅĻi": 9467,
      "Ġzsk": 9468,
      "ĠrÄįe": 9469,
      "ĠaÅ¡": 9470,
      "ĠÄįkÃ¡": 9471,
      "Ġchnut": 9472,
      "ĠnÃŃl": 9473,
      "ĠdohÅĻ": 9474,
      "Ġmiz": 9475,
      "Ġnip": 9476,
      "ĠlÃŃv": 9477,
      "ĠhaÅĻ": 9478,
      "Ġhlan": 9479,
      "ĠvÃ©zt": 9480,
      "Ġev": 9481,
      "ĠgÃ¡l": 9482,
      "Ġgto": 9483,
[...]
