{
  "version": "1.0",
  "truncation": null,
  "padding": null,
  "added_tokens": [
    {
      "id": 0,
      "content": "<|EOS|>",
      "single_word": false,
      "lstrip": false,
      "rstrip": false,
      "normalized": false,
      "special": true
    },
    {
      "id": 1,
      "content": "<|PAD|>",
      "single_word": false,
      "lstrip": false,
      "rstrip": false,
      "normalized": false,
      "special": true
    },
    {
      "id": 2,
      "content": "<|UNK|>",
      "single_word": false,
      "lstrip": false,
      "rstrip": false,
      "normalized": false,
      "special": true
    }
  ],
  "normalizer": null,
  "pre_tokenizer": {
    "type": "ByteLevel",
    "add_prefix_space": false,
    "trim_offsets": true,
    "use_regex": true
  },
  "post_processor": {
    "type": "ByteLevel",
    "add_prefix_space": true,
    "trim_offsets": false,
    "use_regex": true
  },
  "decoder": {
    "type": "ByteLevel",
    "add_prefix_space": true,
    "trim_offsets": true,
    "use_regex": true
  },
  "model": {
    "type": "BPE",
    "dropout": null,
    "unk_token": null,
    "continuing_subword_prefix": null,
    "end_of_word_suffix": null,
    "fuse_unk": false,
    "byte_fallback": false,
    "vocab": {
      "<|EOS|>": 0,
      "<|PAD|>": 1,
      "<|UNK|>": 2,
      "!": 3,
      "#": 4,
      "+": 5,
      ",": 6,
      ".": 7,
      "/": 8,
      "0": 9,
      "1": 10,
      "2": 11,
      "3": 12,
      "4": 13,
      "5": 14,
      "6": 15,
      "7": 16,
      "8": 17,
      "9": 18,
      "=": 19,
      "?": 20,
      "A": 21,
      "B": 22,
      "C": 23,
      "D": 24,
      "H": 25,
      "J": 26,
      "N": 27,
      "P": 28,
      "T": 29,
      "X": 30,
      "Y": 31,
      "`": 32,
      "a": 33,
      "b": 34,
      "c": 35,
      "d": 36,
      "e": 37,
      "f": 38,
      "g": 39,
      "h": 40,
      "i": 41,
      "j": 42,
      "k": 43,
      "l": 44,
      "m": 45,
      "n": 46,
      "o": 47,
      "p": 48,
      "q": 49,
      "r": 50,
      "s": 51,
      "t": 52,
      "u": 53,
      "v": 54,
      "w": 55,
      "x": 56,
      "y": 57,
      "z": 58,
      "¡": 59,
      "¢": 60,
      "¤": 61,
      "¥": 62,
      "¦": 63,
      "§": 64,
      "¨": 65,
      "©": 66,
      "ª": 67,
      "«": 68,
      "®": 69,
      "¯": 70,
      "²": 71,
      "³": 72,
      "´": 73,
      "¶": 74,
      "¹": 75,
      "º": 76,
      "»": 77,
      "¼": 78,
      "½": 79,
      "¾": 80,
      "Â": 81,
      "Ã": 82,
      "Ä": 83,
      "Å": 84,
      "Ï": 85,
      "â": 86,
      "Ċ": 87,
      "Ġ": 88,
      "Ģ": 89,
      "Ĥ": 90,
      "Ħ": 91,
      "ħ": 92,
      "ĩ": 93,
      "Ī": 94,
      "Ĭ": 95,
      "į": 96,
      "ı": 97,
      "Ĵ": 98,
      "ĵ": 99,
      "Ļ": 100,
      "ļ": 101,
      "Ľ": 102,
      "Ł": 103,
      "ł": 104,
      "Ń": 105,
      "Ġ#": 106,
      "ÃŃ": 107,
      "Ã¡": 108,
      "Ġs": 109,
      "Ġ1": 110,
      "Ġv": 111,
      "ÄĽ": 112,
      "Ġp": 113,
      "Ġj": 114,
      "Ġn": 115,
      "Ġt": 116,
      "Ġa": 117,
      "Å¾": 118,
      "ch": 119,
      "Ġz": 120,
      "Å¡": 121,
      "Ġk": 122,
      "Ã½": 123,
      "ÅĻ": 124,
      "Ġm": 125,
      "Ġo": 126,
      "Ã©": 127,
      "ou": 128,
      "Ġd": 129,
      "Äį": 130,
      "la": 131,
      "st": 132,
      "en": 133,
      "Ġb": 134,
      "Ġ10": 135,
      "Ġ8": 136,
      "Ġ11": 137,
      "em": 138,
      "Ġh": 139,
      "le": 140,
      "Ġse": 141,
      "Å¯": 142,
      "ro": 143,
      "ak": 144,
      "ra": 145,
      "li": 146,
      "Ġpo": 147,
      "Ġje": 148,
      "Ġne": 149,
      "nÃŃ": 150,
      "Ġna": 151,
      "XX": 152,
      "Ġu": 153,
      "Ġi": 154,
      "lo": 155,
      "rÃ¡": 156,
      "ce": 157,
      "ÅĻe": 158,
      "Ġe": 159,
      "nÄĽ": 160,
      "AB": 161,
      "Ġsv": 162,
      "Ġ9": 163,
      "Ġst": 164,
      "ĠÅ¾": 165,
      "ĠÃ¡": 166,
      "al": 167,
      "ÅĻÃŃ": 168,
      "Å¡e": 169,
      "sk": 170,
      "dy": 171,
      "ne": 172,
      "Ġza": 173,
      "Ġ19": 174,
      "Ġ7": 175,
      "ru": 176,
      "nÃ½": 177,
      "ti": 178,
      "Ġjak": 179,
      "ĠÃŃ": 180,
      "ho": 181,
      "lÃ¡": 182,
      "te": 183,
      "de": 184,
      "nÃ©": 185,
      "vÄĽ": 186,
      "ĠÄį": 187,
      "je": 188,
      "Ġdo": 189,
      "vÃ¡": 190,
      "Ġch": 191,
      "il": 192,
      "jÃŃ": 193,
      "Ġto": 194,
      "ĠÄĽ": 195,
      "na": 196,
      "lÃŃ": 197,
      "tÃŃ": 198,
      "no": 199,
      "lu": 200,
      "va": 201,
      "Ġc": 202,
      "Ġby": 203,
      "Ġ6": 204,
      "ky": 205,
      "nÃ¡": 206,
      "ku": 207,
      "ko": 208,
      "ÅĻi": 209,
      "Ġji": 210,
      "nou": 211,
      "vo": 212,
      "ka": 213,
      "vÃŃ": 214,
      "tÄĽ": 215,
      "Ġ12": 216,
      "ni": 217,
      "Ġjs": 218,
      "Ġve": 219,
      "Ġ18": 220,
      "ly": 221,
      "Ã½ch": 222,
      "Ġro": 223,
      "Ã¡m": 224,
      "..": 225,
      "ci": 226,
      "Å¡ÃŃ": 227,
      "nu": 228,
      "at": 229,
      "Ġpro": 230,
      "Ġr": 231,
      "Å¥": 232,
      "Ġjen": 233,
      "ĠAB": 234,
      "00": 235,
      "cÃŃ": 236,
      "Ã½m": 237,
      "Ġ1900": 238,
      "Ġle": 239,
      "ĠÅ¾e": 240,
      "vÃ©": 241,
      "do": 242,
      "XXXX": 243,
      "Ġko": 244,
      "XA": 245,
      "Ġho": 246,
      "dÄĽ": 247,
      "Ġ13": 248,
      "am": 249,
      "Ġvy": 250,
      "Ġvz": 251,
      "ny": 252,
      "dÃŃ": 253,
      "ĠÅ¡": 254,
      "Ġmo": 255,
      "du": 256,
      "lÃ©": 257,
      "sti": 258,
      "ÄįÃŃ": 259,
      "Ġkdy": 260,
      "po": 261,
      "ĠvÄĽ": 262,
      "Ġob": 263,
      "ĠABAB": 264,
      "ĠpÅĻe": 265,
      "Ġbo": 266,
      "Ġen": 267,
      "Ġtak": 268,
      "Ġco": 269,
      "mu": 270,
      "ar": 271,
      "to": 272,
      "Ġmi": 273,
      "dÃ¡": 274,
      "Å¾ÃŃ": 275,
      "ĠÃ": 276,
      "Ġdu": 277,
      "se": 278,
      "ĠA": 279,
      "kÃ¡": 280,
      "lou": 281,
      "80": 282,
      "Ġ1880": 283,
      "Äįe": 284,
      "di": 285,
      "ÅĪ": 286,
      "Å¾e": 287,
      "Ġmu": 288,
      "da": 289,
      "Ġtu": 290,
      "20": 291,
      "as": 292,
      "ĠvÃŃ": 293,
      "ĠvÅ¡": 294,
      "ĠvÅ¡e": 295,
      "Ġroz": 296,
      "ÄĽt": 297,
      "ĠXXXX": 298,
      "ji": 299,
      "Ġod": 300,
      "vi": 301,
      "Ġni": 302,
      "ĠnÃ¡": 303,
      "ĠtÄĽ": 304,
      "ve": 305,
      "Ġti": 306,
      "Äı": 307,
      "ĠÄįe": 308,
      "tÃ¡": 309,
      "Ġ1920": 310,
      "Ġjsem": 311,
      "Ġno": 312,
      "Ġte": 313,
      "Ġli": 314,
      "Ġsp": 315,
      "by": 316,
      "mÄĽ": 317,
      "rd": 318,
      "ry": 319,
      "mÃŃ": 320,
      "vu": 321,
      "me": 322,
      "ĠzÃ¡": 323,
      "ĠdÃ¡": 324,
      "be": 325,
      "Ġhla": 326,
      "ta": 327,
      "ĠÅ¾i": 328,
      "Ġpa": 329,
      "ĠnÄĽ": 330,
      "ze": 331,
      "Ġy": 332,
      "vy": 333,
      "Äįi": 334,
      "...": 335,
      "ĠkrÃ¡": 336,
      "mi": 337,
      "ĠkdyÅ¾": 338,
      "Ġbu": 339,
      "stÃŃ": 340,
      "ĠmÄĽ": 341,
      "ĠsvÃ©": 342,
      "Ġsk": 343,
      "ĠpÅĻi": 344,
      "Ġsi": 345,
      "enÃŃ": 346,
      "Å¡i": 347,
      "ĠmÃ¡": 348,
      "Å¯j": 349,
      "Ġru": 350,
      "Ġty": 351,
      "lÃ½": 352,
      "Ġ5": 353,
      "ĠAAB": 354,
      "ĠÃº": 355,
      "Ġsrd": 356,
      "sÃŃ": 357,
      "val": 358,
      "bo": 359,
      "Ġpra": 360,
      "ĠsvÄĽt": 361,
      "ĠjÃ¡": 362,
      "Ġjako": 363,
      "Ġta": 364,
      "Ġvo": 365,
      "Ġpr": 366,
      "ĠvÅ¡ak": 367,
      "tu": 368,
      "ĠXA": 369,
      "Ġou": 370,
      "ĠdÄĽ": 371,
      "ha": 372,
      "sta": 373,
      "nÃ½ch": 374,
      "Ġkde": 375,
      "vÃ½": 376,
      "Ġten": 377,
      "Ġce": 378,
      "kou": 379,
      "ĠnÃŃ": 380,
      "Ġka": 381,
      "bÄĽ": 382,
      "ez": 383,
      "ma": 384,
      "lad": 385,
      "kÅ¯": 386,
      "ĠAABB": 387,
      "vou": 388,
      "Ġtam": 389,
      "hu": 390,
      "lem": 391,
      "ĠlÃ¡": 392,
      "ĠvÃ¡": 393,
      "Ġvi": 394,
      "ty": 395,
      "zÃŃ": 396,
      "chu": 397,
      "ĠrÃ¡": 398,
      "ĠdÃŃ": 399,
      "ĠjiÅ¾": 400,
      "40": 401,
      "hÃ¡": 402,
      "kÃ©": 403,
      "hy": 404,
      "Ġkr": 405,
      "rak": 406,
      "led": 407,
      "Ġnad": 408,
      "Ġpod": 409,
      "ĠjÃŃ": 410,
      "Ġzem": 411,
      "kem": 412,
      "Ġjeho": 413,
      "ĠXAXA": 414,
      "mo": 415,
      "Å¡tÄĽ": 416,
      "ĠjeÅ¾": 417,
      "pÃŃ": 418,
      "ĠpÅĻÃŃ": 419,
      "Ġslu": 420,
      "sy": 421,
      "len": 422,
      "Ġbyl": 423,
      "su": 424,
      "Å¾i": 425,
      "Ġjed": 426,
      "Ġra": 427,
      "Ġzas": 428,
      "si": 429,
      "bu": 430,
      "Ġmy": 431,
      "bi": 432,
      "cho": 433,
      "Ġsrdce": 434,
      "ad": 435,
      "ĠtÃ©": 436,
      "nÃ½m": 437,
      "Ġvla": 438,
      "ĠÅ¡e": 439,
      "sa": 440,
      "ĠpÃ¡": 441,
      "Ġpe": 442,
      "rou": 443,
      "Å¾dy": 444,
      "dou": 445,
      "Ã©m": 446,
      "Ġsta": 447,
      "Ġkte": 448,
      "ĠstÃ¡": 449,
      "ĠlÃŃ": 450,
      "ĠmÃŃ": 451,
      "CC": 452,
      "kÃ½": 453,
      "ĠnÃ¡m": 454,
      "ĠlÃ¡sk": 455,
      "ĠpÃŃ": 456,
      "ĠkvÄĽ": 457,
      "ba": 458,
      "mÃ¡": 459,
      "men": 460,
      "Ġpak": 461,
      "Ġhro": 462,
      "ste": 463,
      "ĠaÅ¾": 464,
      "Ã©ho": 465,
      "Ġjest": 466,
      "ĠvÅ¾dy": 467,
      "Ġbez": 468,
      "pÄĽ": 469,
      "ĠjenÅ¾": 470,
      "zd": 471,
      "Ġlid": 472,
      "ĠÅĻe": 473,
      "ĠbÃŃ": 474,
      "Ġkdo": 475,
      "Ġ15": 476,
      "Ġtv": 477,
      "ĠpÅĻed": 478,
      "Ġze": 479,
      "my": 480,
      "rÃ½": 481,
      "Ġon": 482,
      "Ġdi": 483,
      "Ġ14": 484,
      "Ġmne": 485,
      "Ġpla": 486,
      "ĠtvÃ¡": 487,
      "Ġzla": 488,
      "Å¯m": 489,
      "ĠÃ³": 490,
      "Ġl": 491,
      "ĠXXXXXX": 492,
      "hou": 493,
      "Ġso": 494,
      "60": 495,
      "Ġhle": 496,
      "ÅĻÃ¡": 497,
      "ĠvÃ½": 498,
      "Ġdne": 499,
      "ĠÃ½": 500,
      "ĠÄįi": 501,
      "ej": 502,
      "ĠuÅ¾": 503,
      "ĠÅ¾ivo": 504,
      "tem": 505,
      "Ġnej": 506,
      "nce": 507,
      "Ġ4": 508,
      "ĠkaÅ¾": 509,
      "Ġslo": 510,
      "ĠmÃ©": 511,
      "Ġsna": 512,
      "ĠteÄı": 513,
      "ĠdÃ¡l": 514,
      "tr": 515,
      "ĠprÃ¡": 516,
      "Ġsvou": 517,
      "Ġnez": 518,
      "Ġpou": 519,
      "nem": 520,
      "ĠplÃ¡": 521,
      "sto": 522,
      "ĠÃ¡nÃŃ": 523,
      "Ġ16": 524,
      "Ġku": 525,
      "chÃ¡": 526,
      "ĠenÃŃ": 527,
      "ĠÄįer": 528,
      "tÃ½": 529,
      "ĠneÅ¾": 530,
      "pu": 531,
      "ĠÄįas": 532,
      "Ġtr": 533,
      "Ġsto": 534,
      "Ġnes": 535,
      "nÅ¯": 536,
      "Ġden": 537,
      "Ġma": 538,
      "Ġ1940": 539,
      "Ġtou": 540,
      "bÃŃ": 541,
      "Ġnem": 542,
      "Ġjej": 543,
      "Ġpos": 544,
      "Ġci": 545,
      "bou": 546,
      "ĠÅ¾en": 547,
      "Ġjsou": 548,
      "ĠvÅ¡ech": 549,
      "Ġot": 550,
      "tÃ©": 551,
      "Ġnebe": 552,
      "ĠmÅ¯j": 553,
      "Ġale": 554,
      "BA": 555,
      "dÄĽl": 556,
      "Ġsvo": 557,
      "ĠtvÃ©": 558,
      "Ġjsi": 559,
      "Ġoh": 560,
      "nÃ©m": 561,
      "Ġdob": 562,
      "rt": 563,
      "Ġf": 564,
      "skÃ©": 565,
      "Ġzrak": 566,
      "cha": 567,
      "pe": 568,
      "ĠnÃ¡s": 569,
      "nÃŃm": 570,
      "Ġsla": 571,
      "pa": 572,
      "Ġme": 573,
      "ĠhvÄĽ": 574,
      "ĠjejÃŃ": 575,
      "Ġdru": 576,
      "Ġem": 577,
      "ĠmnÄĽ": 578,
      "rÃ©": 579,
      "ĠstÃŃ": 580,
      "Ġbra": 581,
      "ĠjeÅ¡tÄĽ": 582,
      "Ġsnad": 583,
      "ĠpÄĽ": 584,
      "Ġed": 585,
      "ĠduÅ¡e": 586,
      "ĠÅĻÃŃ": 587,
      "stvÃŃ": 588,
      "Ġsy": 589,
      "vil": 590,
      "zy": 591,
      "Ġkra": 592,
      "ĠsÃŃ": 593,
      "jÅ¡ÃŃ": 594,
      "Ġvel": 595,
      "Å¡el": 596,
      "ĠtÃŃ": 597,
      "nost": 598,
      "Ġda": 599,
      "Ġad": 600,
      "Ġpl": 601,
      "ĠABBA": 602,
      "ĠcÃŃ": 603,
      "stu": 604,
      "re": 605,
      "ĠkaÅ¾d": 606,
      "Ġkle": 607,
      "Ġstra": 608,
      "ĠnÄĽm": 609,
      "ĠbÃ½": 610,
      "nul": 611,
      "pi": 612,
      "rÅ¯": 613,
      "vat": 614,
      "ĠkvÄĽt": 615,
      "Ġsm": 616,
      "Ġ1860": 617,
      "Ġtom": 618,
      "Ġmil": 619,
      "Ġsvat": 620,
      "Ġzde": 621,
      "Ġde": 622,
      "ĠsÃ¡m": 623,
      "ĠÃ©": 624,
      "Ġja": 625,
      "Ġvl": 626,
      "Ġbla": 627,
      "Ġlo": 628,
      "ĠbÄĽ": 629,
      "Ġ1840": 630,
      "ĠÅ¯": 631,
      "Ġan": 632,
      "Ġhra": 633,
      "ĠvÅ¯": 634,
      "til": 635,
      "ĠrÅ¯": 636,
      "ĠvÅ¡ec": 637,
      "Ġlu": 638,
      "ĠaÅ¥": 639,
      "Ġla": 640,
      "Ġstar": 641,
      "Ġnech": 642,
      "tel": 643,
      "Ġhu": 644,
      "Ġdra": 645,
      "Ġdnes": 646,
      "hÃ½": 647,
      "Ġpoh": 648,
      "ĠchvÃŃ": 649,
      "jem": 650,
      "Ġzd": 651,
      "Ġneb": 652,
      "ÅĻen": 653,
      "Ġpu": 654,
      "Ġcho": 655,
      "ĠoÄįi": 656,
      "tek": 657,
      "Ġva": 658,
      "Ġbude": 659,
      "Ġre": 660,
      "cÃŃch": 661,
      "Å¾en": 662,
      "Ġkam": 663,
      "tra": 664,
      "ĠAA": 665,
      "sÃ¡": 666,
      "Ġhlu": 667,
      "Ġsou": 668,
      "Ġry": 669,
      "ĠvÄĽÄį": 670,
      "pÃ¡": 671,
      "ĠÅ¾Ã¡": 672,
      "stÃ¡": 673,
      "ĠbÃ¡": 674,
      "ĠsvÄĽ": 675,
      "rem": 676,
      "Ġhlas": 677,
      "ĠduÅ¡i": 678,
      "Ġas": 679,
      "Ġsam": 680,
      "dem": 681,
      "py": 682,
      "chem": 683,
      "ĠkrÃ¡s": 684,
      "Ġjsme": 685,
      "Ġzvo": 686,
      "Ġmod": 687,
      "Ġjas": 688,
      "Ġsly": 689,
      "Ġjich": 690,
      "vÃ½ch": 691,
      "chy": 692,
      "Ġsl": 693,
      "Ġba": 694,
      "Ġpoz": 695,
      "ĠĊ": 696,
      "Ġslad": 697,
      "zi": 698,
      "sky": 699,
      "Ġsmu": 700,
      "bÃ¡": 701,
      "Äįka": 702,
      "ĠnenÃŃ": 703,
      "Ġvra": 704,
      "Ġkou": 705,
      "sÅ¥": 706,
      "ĠkÅĻÃŃ": 707,
      "tou": 708,
      "ĠÅ¾ivot": 709,
      "Ġstro": 710,
      "Ġbych": 711,
      "Ġdlou": 712,
      "cen": 713,
      "ĠvÃ¡m": 714,
      "Ġosti": 715,
      "vÃ½m": 716,
      "Ġmno": 717,
      "hle": 718,
      "Å¡tÃŃ": 719,
      "stÄĽ": 720,
      "vem": 721,
      "ven": 722,
      "ev": 723,
      "skÃ¡": 724,
      "ĠtÄĽch": 725,
      "ĠchtÄĽ": 726,
      "Ġspo": 727,
      "skÃ½": 728,
      "Å¯h": 729,
      "ĠÄįÃŃ": 730,
      "ĠobÄĽ": 731,
      "ĠÅ¡tÄĽ": 732,
      "Ġmat": 733,
      "nosti": 734,
      "Ġnich": 735,
      "Ġtvo": 736,
      "nil": 737,
      "Ġbou": 738,
      "Ġslunce": 739,
      "nÃ¡m": 740,
      "Ġkli": 741,
      "ĠptÃ¡": 742,
      "dla": 743,
      "snÃŃ": 744,
      "Ġjim": 745,
      "cem": 746,
      "ÅĻel": 747,
      "Ġbylo": 748,
      "ĠzÅĻÃŃ": 749,
      "Ġnep": 750,
      "Ġos": 751,
      "ÅĻil": 752,
      "stou": 753,
      "ĠsvÃ½m": 754,
      "Ġkro": 755,
      "ĠslÃ¡": 756,
      "Ġok": 757,
      "ĠsmÃŃ": 758,
      "Ġmou": 759,
      "Ġala": 760,
      "Ġml": 761,
      "ĠvÃŃc": 762,
      "ĠsvÅ¯j": 763,
      "ĠtÅĻe": 764,
      "tÃŃm": 765,
      "ĠoÄįÃŃ": 766,
      "Ġani": 767,
      "zu": 768,
      "ned": 769,
      "sku": 770,
      "rÃ¡t": 771,
      "vnÃŃ": 772,
      "lÅ¯": 773,
      "jich": 774,
      "mÅ¯": 775,
      "Ġmar": 776,
      "Ġop": 777,
      "ĠbÅ¯h": 778,
      "ri": 779,
      "Å¡en": 780,
      "Ġnik": 781,
      "lovÄĽ": 782,
      "ĠmÃ¡m": 783,
      "sud": 784,
      "Äįky": 785,
      "Äįek": 786,
      "sty": 787,
      "so": 788,
      "Ġsmut": 789,
      "ĠXX": 790,
      "ĠnÃŃm": 791,
      "hÃ©": 792,
      "ĠsmÄĽ": 793,
      "ĠlÃ¡sky": 794,
      "nal": 795,
      "Ġsen": 796,
      "Ġat": 797,
      "ĠsvÃ½ch": 798,
      "Ġbyla": 799,
      "snÄĽ": 800,
      "Ġmilo": 801,
      "Ġnu": 802,
      "Ġmys": 803,
      "nky": 804,
      "ĠtvÅ¯j": 805,
      "Ġkol": 806,
      "Ġila": 807,
      "Ġach": 808,
      "ĠblÃŃ": 809,
      "hla": 810,
      "Ġhned": 811,
      "ĠÄįlovÄĽ": 812,
      "Ġkla": 813,
      "Äįku": 814,
      "Ġtem": 815,
      "an": 816,
      "ĠAABBCC": 817,
      "ĠsvÃŃ": 818,
      "nÃ©ho": 819,
      "Ġg": 820,
      "dil": 821,
      "Ġost": 822,
      "ĠvÃ¡s": 823,
      "ĠsnÄĽ": 824,
      "Äįen": 825,
      "Ġvr": 826,
      "Ġnoc": 827,
      "tÅ¯": 828,
      "seÅĪ": 829,
      "lÃ½ch": 830,
      "ĠtÃ©Å¾": 831,
      "kla": 832,
      "ĠAAXX": 833,
      "ĠĠ": 834,
      "ĠajÃŃ": 835,
      "ĠtÃ¡": 836,
      "ĠsobÄĽ": 837,
      "za": 838,
      "kal": 839,
      "Ġkolem": 840,
      "ĠvÅ¡em": 841,
      "ĠÅ¡ÃŃ": 842,
      "Ġus": 843,
      "ĠtobÄĽ": 844,
      "ĠmÄĽl": 845,
      "ĠÄįa": 846,
      "Ġke": 847,
      "hne": 848,
      "ĠkaÅ¾dÃ½": 849,
      "ĠproÄį": 850,
      "Ġlet": 851,
      "Ġble": 852,
      "Å¡ÃŃm": 853,
      "Ġchu": 854,
      "ĠpÅ¯": 855,
      "Ġbe": 856,
      "Å¡Å¥": 857,
      "ĠzpÄĽ": 858,
      "lil": 859,
      "Ġzp": 860,
      "Ġaby": 861,
      "ĠzdÃ¡": 862,
      "ĠÅĻ": 863,
      "nek": 864,
      "ĠchvÄĽ": 865,
      "Ġrado": 866,
      "ĠtÄĽÅ¾": 867,
      "nout": 868,
      "Ġsem": 869,
      "ĠdÅĻÃŃ": 870,
      "ĠzemÄĽ": 871,
      "ĠÅ¾itÃŃ": 872,
      "Ġchce": 873,
      "dnÃ©": 874,
      "Äįil": 875,
      "ĠpÅĻes": 876,
      "Ġzda": 877,
      "cÅ¯": 878,
      "Ġtich": 879,
      "ĠÅ¡tÄĽstÃŃ": 880,
      "Ġpan": 881,
      "ĠpÅĻec": 882,
      "Ã½mi": 883,
      "ĠbuÄı": 884,
      "hÅ¯": 885,
      "Ġoko": 886,
      "ĠhvÄĽz": 887,
      "ĠÅ¾al": 888,
      "ĠspÃ¡": 889,
      "Ġmal": 890,
      "dce": 891,
      "ĠtÃŃm": 892,
      "ĠÄĽnÃŃ": 893,
      "Ġkrev": 894,
      "Ġjejich": 895,
      "Ġsrdci": 896,
      "dÃŃm": 897,
      "tky": 898,
      "skÃ½ch": 899,
      "ĠleÄį": 900,
      "ĠrÃ¡d": 901,
      "Ġmrt": 902,
      "Ġple": 903,
      "Ġruce": 904,
      "ÅĻem": 905,
      "ĠÃ©ho": 906,
      "Å¾il": 907,
      "Ġoz": 908,
      "ĠhÃ¡": 909,
      "ĠÅ¡u": 910,
      "Ġvlast": 911,
      "ĠvÅ¡ecko": 912,
      "hem": 913,
      "ĠsnÃŃ": 914,
      "Ġmoje": 915,
      "ska": 916,
      "Ġju": 917,
      "Ġzemi": 918,
      "ved": 919,
      "Ġsmr": 920,
      "Ġuje": 921,
      "om": 922,
      "ĠvÄĽt": 923,
      "co": 924,
      "Ġbi": 925,
      "ĠveÄįe": 926,
      "jde": 927,
      "Ġklid": 928,
      "pr": 929,
      "Ġhru": 930,
      "Ġnepo": 931,
      "Ġmra": 932,
      "Ġduch": 933,
      "ĠojÃŃ": 934,
      "kÃ½ch": 935,
      "Ġjste": 936,
      "ĠmuÅ¾": 937,
      "pomÃŃ": 938,
      "Ġdiv": 939,
      "Ġhor": 940,
      "Ġsko": 941,
      "ĠhvÄĽzd": 942,
      "ĠnaÅ¡e": 943,
      "sla": 944,
      "Ġdal": 945,
      "dech": 946,
      "pad": 947,
      "Ġha": 948,
      "Ġzlo": 949,
      "Ġzb": 950,
      "sou": 951,
      "Ġjenom": 952,
      "ĠvlÃ¡": 953,
      "Ġtebe": 954,
      "ĠABABCC": 955,
      "ĠtvÃ¡ÅĻ": 956,
      "Ġprou": 957,
      "Ġmoc": 958,
      "Ġote": 959,
      "pla": 960,
      "ĠnÃ¡Å¡": 961,
      "Ġkru": 962,
      "ĠÅ¾ÃŃ": 963,
      "Ġnoci": 964,
      "ĠnÃ¡ro": 965,
      "jÃŃcÃŃ": 966,
      "zo": 967,
      "Ġhr": 968,
      "ĠhÅĻÃŃ": 969,
      "Ġjem": 970,
      "ĠbÃ½t": 971,
      "ĠzpÃŃ": 972,
      "nÃ¡ch": 973,
      "Å¡li": 974,
      "dal": 975,
      "Ġali": 976,
      "Ġhlavu": 977,
      "Ġsu": 978,
      "ĠstÅĻe": 979,
      "Ġprav": 980,
      "nÃŃch": 981,
      "ĠÃŃvÃ¡": 982,
      "ĠspÄĽ": 983,
      "dnÃ½": 984,
      "Ġmez": 985,
      "Ġzah": 986,
      "nku": 987,
      "ĠÄĽla": 988,
      "Ġzvu": 989,
      "er": 990,
      "Ġles": 991,
      "ĠlÃ©": 992,
      "Ġny": 993,
      "Ġmlad": 994,
      "Ġsil": 995,
      "ĠmlÃ¡": 996,
      "ĠdÃ¡v": 997,
      "ĠÃºs": 998,
      "AX": 999,
      "ĠchtÄĽl": 1000,
      "sko": 1001,
      "ast": 1002,
      "nka": 1003,
      "Ġjde": 1004,
      "ĠcelÃ½": 1005,
      "ĠchrÃ¡": 1006,
      "tku": 1007,
      "Ġmlu": 1008,
      "AA": 1009,
      "zen": 1010,
      "Ġnic": 1011,
      "ĠÅĻek": 1012,
      "Ġchy": 1013,
      "vÃŃm": 1014,
      "ĠÅ¡i": 1015,
      "vnÄĽ": 1016,
      "ĠaÄį": 1017,
      "ĠÃŃcÃŃ": 1018,
      "Ġobra": 1019,
      "ĠstrÃ¡": 1020,
      "ĠkÅĻi": 1021,
      "Ġ3": 1022,
      "ĠpÃŃseÅĪ": 1023,
      "uje": 1024,
      "ĠtakÃ©": 1025,
      "Ġzje": 1026,
      "Ġpad": 1027,
      "ĠABABXX": 1028,
      "Ġky": 1029,
      "Ġhlou": 1030,
      "ĠdÃŃv": 1031,
      "ĠdÃŃtÄĽ": 1032,
      "tal": 1033,
      "zem": 1034,
      "Ġneu": 1035,
      "Ġsvi": 1036,
      "ĠspÃŃ": 1037,
      "ĠsvÃ©m": 1038,
      "Ġslova": 1039,
      "ĠmoÅĻe": 1040,
      "Ġ1960": 1041,
      "Ġbole": 1042,
      "stal": 1043,
      "ĠstojÃŃ": 1044,
      "nÃŃk": 1045,
      "cky": 1046,
      "Ġnebo": 1047,
      "Ġchlad": 1048,
      "ĠÅĪ": 1049,
      "ĠchvÃŃli": 1050,
      "Ġboj": 1051,
      "hl": 1052,
      "ĠhnÄĽ": 1053,
      "dÃ©": 1054,
      "tva": 1055,
      "vÃ©m": 1056,
      "Ġtoho": 1057,
      "rnÄĽ": 1058,
      "ĠkrÃ¡l": 1059,
      "Ġov": 1060,
      "ĠmyÅ¡": 1061,
      "Ġven": 1062,
      "krÃ¡t": 1063,
      "ĠnÃ¡hle": 1064,
      "ĠvÅ¾dyÅ¥": 1065,
      "skou": 1066,
      "ĠmusÃŃ": 1067,
      "Ġtro": 1068,
      "Ġpok": 1069,
      "ĠnÄĽk": 1070,
      "ĠstÃŃn": 1071,
      "rnÃ©": 1072,
      "ĠlÃ¡ska": 1073,
      "Ġpi": 1074,
      "Ġum": 1075,
      "Ġ17": 1076,
      "sÃŃc": 1077,
      "ĠsvÃ©ho": 1078,
      "ĠÄįlovÄĽk": 1079,
      "ĠznÃ¡": 1080,
      "nci": 1081,
      "ĠvÃ¡Å¡": 1082,
      "Ġvzdu": 1083,
      "ĠskÃ¡": 1084,
      "ĠboÅ¾ÃŃ": 1085,
      "Ġtru": 1086,
      "Å¡la": 1087,
      "nec": 1088,
      "ÅĻÃŃm": 1089,
      "kÃ½m": 1090,
      "Ġmnou": 1091,
      "Äįko": 1092,
      "ĠnynÃŃ": 1093,
      "lÃ©m": 1094,
      "nÄĽl": 1095,
      "Ġmezi": 1096,
      "Ġjeden": 1097,
      "ĠzvÄĽ": 1098,
      "Å¡ti": 1099,
      "Ġmla": 1100,
      "ĠpÃ¡n": 1101,
      "ĠzÃŃ": 1102,
      "stÃ©": 1103,
      "Ġmrak": 1104,
      "ĠznÃŃ": 1105,
      "ĠÃŃtÃŃ": 1106,
      "tla": 1107,
      "lit": 1108,
      "Ġzase": 1109,
      "ĠklÃŃ": 1110,
      "ĠstÅĻÃŃ": 1111,
      "Ġbrat": 1112,
      "Ġebe": 1113,
      "ĠÃºsmÄĽ": 1114,
      "ĠkterÃ©": 1115,
      "ĠvrÃ¡": 1116,
      "jte": 1117,
      "Ġtma": 1118,
      "Å¯Å¾e": 1119,
      "ĠtiÅ¡e": 1120,
      "dnÃŃ": 1121,
      "Ġvol": 1122,
      "Ġol": 1123,
      "Ġela": 1124,
      "Ġane": 1125,
      "Ġstu": 1126,
      "ĠhrÃ¡": 1127,
      "ĠpÅĻÃ¡": 1128,
      "lek": 1129,
      "Ġoje": 1130,
      "ĠbÅĻe": 1131,
      "ĠkterÃ½": 1132,
      "Ġjednou": 1133,
      "ĠstÃ¡le": 1134,
      "ĠsvÄĽta": 1135,
      "Ġpoto": 1136,
      "rnÃ½": 1137,
      "Ġdech": 1138,
      "dnou": 1139,
      "Ġzo": 1140,
      "Ġdr": 1141,
      "ÄįnÄĽ": 1142,
      "ĠkvÃŃ": 1143,
      "tech": 1144,
      "Ġice": 1145,
      "Ġoku": 1146,
      "Ġhe": 1147,
      "ĠsvÃ¡": 1148,
      "ĠvÃŃce": 1149,
      "Ġona": 1150,
      "rost": 1151,
      "dlo": 1152,
      "lech": 1153,
      "ĠoÅĻe": 1154,
      "Ġili": 1155,
      "ouf": 1156,
      "Ġes": 1157,
      "ĠÅ¡Å¥": 1158,
      "Ġnemo": 1159,
      "Ġbled": 1160,
      "rov": 1161,
      "mou": 1162,
      "ĠXXAA": 1163,
      "ĠÃŃce": 1164,
      "ĠÅ¡el": 1165,
      "ÄįnÃŃ": 1166,
      "Ġhrob": 1167,
      "Ġjar": 1168,
      "dnÄĽ": 1169,
      "vit": 1170,
      "ĠzpÄĽv": 1171,
      "Ġposled": 1172,
      "Ġodpo": 1173,
      "ĠjuÅ¾": 1174,
      "ĠcoÅ¾": 1175,
      "ĠÃ¡vÃ¡": 1176,
      "lÃ½m": 1177,
      "pra": 1178,
      "Ġpoko": 1179,
      "Ġsebe": 1180,
      "Ġveli": 1181,
      "ĠÃŃti": 1182,
      "Ġved": 1183,
      "zel": 1184,
      "ĠsmÃŃch": 1185,
      "kÃ¡ch": 1186,
      "Ġosud": 1187,
      "Ġnebi": 1188,
      "Ġnen": 1189,
      "Ġste": 1190,
      "nes": 1191,
      "Ġar": 1192,
      "vala": 1193,
      "Ġnikdy": 1194,
      "ral": 1195,
      "Ġrukou": 1196,
      "dÅ¯": 1197,
      "CCB": 1198,
      "Ġzm": 1199,
      "stÃ½": 1200,
      "vra": 1201,
      "ĠtrÃ¡": 1202,
      "ĠhÅĻ": 1203,
      "ĠveÄįer": 1204,
      "vr": 1205,
      "Ġbudou": 1206,
      "ĠtvÃ½ch": 1207,
      "jÃŃc": 1208,
      "Ġjedno": 1209,
      "Ġjedi": 1210,
      "Ġ1820": 1211,
      "kÃ©m": 1212,
      "ĠnadÄĽ": 1213,
      "tka": 1214,
      "Ġkraj": 1215,
      "Ġdla": 1216,
      "Ġtomu": 1217,
      "mÃ©": 1218,
      "Ġplamen": 1219,
      "Ġnedo": 1220,
      "pal": 1221,
      "ĠvzpomÃŃ": 1222,
      "Ġtys": 1223,
      "Ġsle": 1224,
      "znÄĽ": 1225,
      "ĠumÃŃ": 1226,
      "Ġvoj": 1227,
      "ĠÃŃrÃ¡": 1228,
      "ĠhrÅ¯": 1229,
      "pil": 1230,
      "ĠnaÅ¡i": 1231,
      "Ã³": 1232,
      "Ġiny": 1233,
      "Ġvese": 1234,
      "Ġor": 1235,
      "Ġzi": 1236,
      "Ġsa": 1237,
      "ĠÄĽje": 1238,
      "Ġaly": 1239,
      "Ġova": 1240,
      "ĠÅ¡Å¥ast": 1241,
      "Ġves": 1242,
      "alÃŃ": 1243,
      "ĠAXA": 1244,
      "skem": 1245,
      "Ġdar": 1246,
      "ĠrÅ¯Å¾e": 1247,
      "ĠvÃŃtÄĽ": 1248,
      "Ġzno": 1249,
      "ĠovÃ©": 1250,
      "ĠAABCCB": 1251,
      "Ġkdyby": 1252,
      "Ġpom": 1253,
      "Ġpoli": 1254,
      "Ġzak": 1255,
      "ABB": 1256,
      "Ġin": 1257,
      "Ġlou": 1258,
      "Ġsmrt": 1259,
      "Ġemi": 1260,
      "Ġslav": 1261,
      "ĠnevÄĽ": 1262,
      "Ġup": 1263,
      "vz": 1264,
      "Ġpat": 1265,
      "ĠoÅĻÃŃ": 1266,
      "Ġena": 1267,
      "Ġchci": 1268,
      "ami": 1269,
      "ĠdÄĽti": 1270,
      "Äįel": 1271,
      "ĠdÄĽl": 1272,
      "ĠetÃŃ": 1273,
      "ÄįnÃ©": 1274,
      "ben": 1275,
      "ĠmÃ½ch": 1276,
      "ĠbÃŃlÃ©": 1277,
      "lik": 1278,
      "Ġdva": 1279,
      "ĠsÃ¡": 1280,
      "ĠnÃŃÅ¾": 1281,
      "ĠstÃ¡l": 1282,
      "ĠprvnÃŃ": 1283,
      "Ġoka": 1284,
      "ĠdÅ¯": 1285,
      "ĠbrÃ¡": 1286,
      "Ġhou": 1287,
      "nit": 1288,
      "Ġsmrti": 1289,
      "Ġpru": 1290,
      "Ġklo": 1291,
      "Ġnebes": 1292,
      "Ġzna": 1293,
      "Ġbar": 1294,
      "Ġhled": 1295,
      "ĠXAAX": 1296,
      "ĠzÃ¡ÅĻ": 1297,
      "Ġnevi": 1298,
      "ĠkÃ¡": 1299,
      "sil": 1300,
      "ĠenÃ©": 1301,
      "Ġhlavy": 1302,
      "ĠvÃŃm": 1303,
      "Ġsed": 1304,
      "Ġstr": 1305,
      "Ġsotva": 1306,
      "Ġady": 1307,
      "Ġokem": 1308,
      "Ġobla": 1309,
      "ĠdÃ¡le": 1310,
      "ĠcizÃŃ": 1311,
      "cÃŃm": 1312,
      "ĠskrÃ¡": 1313,
      "lal": 1314,
      "hal": 1315,
      "Ġskal": 1316,
      "den": 1317,
      "Ġdce": 1318,
      "Ġtlu": 1319,
      "Ġsh": 1320,
      "ct": 1321,
      "Ġel": 1322,
      "vali": 1323,
      "Ġleh": 1324,
      "Ġskry": 1325,
      "ĠknÄĽ": 1326,
      "ĠÄįÃŃm": 1327,
      "ĠavÃŃ": 1328,
      "ĠkterÃ¡": 1329,
      "ĠnovÃ©": 1330,
      "Ġode": 1331,
      "vÅ¯": 1332,
      "jen": 1333,
      "ĠpÅĻece": 1334,
      "ĠzpÄĽt": 1335,
      "nÄĽjÅ¡ÃŃ": 1336,
      "Ġproti": 1337,
      "ĠleÅ¾ÃŃ": 1338,
      "Ġoji": 1339,
      "let": 1340,
      "Ġsli": 1341,
      "Ġplo": 1342,
      "Ġruka": 1343,
      "Ġneo": 1344,
      "hat": 1345,
      "Ġele": 1346,
      "nice": 1347,
      "Ġticho": 1348,
      "Ġjemu": 1349,
      "vÃ¡nÃŃ": 1350,
      "Ġradost": 1351,
      "Ġhrd": 1352,
      "ĠutÃŃ": 1353,
      "ĠvolÃ¡": 1354,
      "lost": 1355,
      "vÃ¡m": 1356,
      "ĠletÃŃ": 1357,
      "Ġneby": 1358,
      "Ġpot": 1359,
      "Ġproto": 1360,
      "ĠÃ¡ti": 1361,
      "Ġruku": 1362,
      "lÃŃm": 1363,
      "Ġdvo": 1364,
      "Ġdruh": 1365,
      "ĠznÃ¡m": 1366,
      "ÅĻit": 1367,
      "Ġavy": 1368,
      "Ġpal": 1369,
      "kÃ¡m": 1370,
      "Ġzk": 1371,
      "Ġdost": 1372,
      "dÃ½": 1373,
      "Ġtaj": 1374,
      "Ġzh": 1375,
      "ĠÄĽti": 1376,
      "Ġtvoje": 1377,
      "ĠenÃ½": 1378,
      "nech": 1379,
      "Ġkdys": 1380,
      "ĠstarÃ½": 1381,
      "Ġbr": 1382,
      "Ġdlouho": 1383,
      "Ġtra": 1384,
      "Ġhroz": 1385,
      "lov": 1386,
      "Ġvlas": 1387,
      "pat": 1388,
      "Ġrozko": 1389,
      "Å¡enÃŃ": 1390,
      "Ġal": 1391,
      "Ġvlasti": 1392,
      "vÃ¡n": 1393,
      "ĠuÅ¡ÃŃ": 1394,
      "ĠmeÄį": 1395,
      "dnÃ¡": 1396,
      "ĠonÃŃ": 1397,
      "Ġuk": 1398,
      "ĠkÅĻe": 1399,
      "pl": 1400,
      "zÃ¡": 1401,
      "Ġaje": 1402,
      "ĠvÅ¡i": 1403,
      "tro": 1404,
      "Ġom": 1405,
      "Ġhlavou": 1406,
      "Ġzra": 1407,
      "ĠvidÃŃ": 1408,
      "ĠÅ¡tÃŃ": 1409,
      "ĠduÅ¡ÃŃ": 1410,
      "Ġplu": 1411,
      "Ġhy": 1412,
      "Ġzbo": 1413,
      "stÅĻÃŃ": 1414,
      "Å¡il": 1415,
      "pou": 1416,
      "nic": 1417,
      "Ġrych": 1418,
      "Ġeny": 1419,
      "znÃŃ": 1420,
      "Ġoval": 1421,
      "bil": 1422,
      "dÄĽt": 1423,
      "ĠdÃ¡vno": 1424,
      "Ġpozd": 1425,
      "Ġese": 1426,
      "chÅ¯": 1427,
      "Ġsamo": 1428,
      "ĠhvÄĽzdy": 1429,
      "Ġjin": 1430,
      "Ġpy": 1431,
      "Ġlesk": 1432,
      "Ġtesk": 1433,
      "ĠtoÅ¥": 1434,
      "ĠanÃŃ": 1435,
      "mys": 1436,
      "ĠprÃ½": 1437,
      "Ġati": 1438,
      "Ġami": 1439,
      "ĠdobÅĻe": 1440,
      "pen": 1441,
      "ĠboÅ¾e": 1442,
      "Ġpohled": 1443,
      "ĠÃ½vÃ¡": 1444,
      "Ġnimi": 1445,
      "stÅĻe": 1446,
      "ĠvÅĻe": 1447,
      "Ġjdou": 1448,
      "Ġmoh": 1449,
      "ĠostÃŃ": 1450,
      "Ġslou": 1451,
      "Ġroze": 1452,
      "ĠvÅ¡u": 1453,
      "Ġtajem": 1454,
      "ĠvdÄĽ": 1455,
      "ĠjÃŃm": 1456,
      "ĠzÃ¡ÅĻÃŃ": 1457,
      "Ġper": 1458,
      "Ġhlubo": 1459,
      "Ġkles": 1460,
      "ĠmÅ¯Å¾e": 1461,
      "Ġpane": 1462,
      "ĠÃ¡le": 1463,
      "ĠnÄĽj": 1464,
      "vÄĽt": 1465,
      "dit": 1466,
      "ĠÄĽstÃŃ": 1467,
      "ĠvÅ¡ecky": 1468,
      "Ġkri": 1469,
      "ĠdÅĻÃŃv": 1470,
      "ĠÄĽt": 1471,
      "Ġzelen": 1472,
      "ĠhledÃŃ": 1473,
      "ĠÄįasto": 1474,
      "Ġdej": 1475,
      "ĠzlatÃ©": 1476,
      "kli": 1477,
      "ĠsvÄĽtÄĽ": 1478,
      "Ġtvou": 1479,
      "ÄįnÃ½": 1480,
      "ĠposlednÃŃ": 1481,
      "Ġotec": 1482,
      "Ġer": 1483,
      "Ġsvoje": 1484,
      "Å¡em": 1485,
      "dne": 1486,
      "Ġtebou": 1487,
      "ĠvidÄĽl": 1488,
      "ĠÅ¾ivota": 1489,
      "ĠstÅĻÃŃb": 1490,
      "sem": 1491,
      "ĠÅ¡ep": 1492,
      "ĠstÄĽ": 1493,
      "chvÄĽ": 1494,
      "ĠsnÅ¯": 1495,
      "hlÃ©": 1496,
      "Ġcit": 1497,
      "Ġzapo": 1498,
      "Ġblou": 1499,
      "ĠcelÃ©": 1500,
      "ÄįÃŃm": 1501,
      "Ġilo": 1502,
      "Ġsti": 1503,
      "tnÃ©": 1504,
      "ĠÅ¾ena": 1505,
      "ĠkvÄĽty": 1506,
      "ĠolÃŃ": 1507,
      "Ġuli": 1508,
      "vost": 1509,
      "tÃ½ch": 1510,
      "ĠnÃ¡rod": 1511,
      "ĠprÃ¡zd": 1512,
      "Ġpam": 1513,
      "Ġadu": 1514,
      "Ġude": 1515,
      "ĠpohÃ¡": 1516,
      "ĠÅ¾ha": 1517,
      "Ġdale": 1518,
      "ĠtÅĻ": 1519,
      "ĠÃ¡na": 1520,
      "Ġaj": 1521,
      "nutÃŃ": 1522,
      "ĠÄįelo": 1523,
      "ĠpanÃŃ": 1524,
      "ĠkÅĻÃŃÅ¾": 1525,
      "kol": 1526,
      "ĠzmÄĽ": 1527,
      "el": 1528,
      "ĠÅ¡at": 1529,
      "Ġlidst": 1530,
      "ĠsvÃŃtÃŃ": 1531,
      "tko": 1532,
      "ĠsmÃ¡": 1533,
      "Ġvrou": 1534,
      "Ġztra": 1535,
      "um": 1536,
      "ĠtÅĻi": 1537,
      "Ġslun": 1538,
      "ĠtÄĽlo": 1539,
      "Ġoba": 1540,
      "chÃ¡zÃŃ": 1541,
      "Ġpole": 1542,
      "Ġbys": 1543,
      "ĠzÅ¯": 1544,
      "ĠdÄĽt": 1545,
      "ĠitÃŃ": 1546,
      "Ġ2": 1547,
      "ĠedÃ¡": 1548,
      "Å¾el": 1549,
      "Ġpoj": 1550,
      "Ġhud": 1551,
      "ĠpoÄį": 1552,
      "ĠuÅ¡i": 1553,
      "ĠslyÅ¡": 1554,
      "ĠÄĽlo": 1555,
      "Ġoci": 1556,
      "ĠnechÅ¥": 1557,
      "ĠÅĪad": 1558,
      "kne": 1559,
      "sal": 1560,
      "dÄĽla": 1561,
      "ĠlÃ¡sku": 1562,
      "lenÃŃ": 1563,
      "Ġlist": 1564,
      "Ġej": 1565,
      "Ġkry": 1566,
      "Å¯Å¾": 1567,
      "Ġzu": 1568,
      "ĠsvojÃŃ": 1569,
      "ĠlÃ¡skou": 1570,
      "stra": 1571,
      "ĠtÅĻeba": 1572,
      "ĠzÅĻel": 1573,
      "krÃ¡": 1574,
      "Ġavu": 1575,
      "ĠavÃ½": 1576,
      "kÅ¯m": 1577,
      "Ġpouze": 1578,
      "Ġsku": 1579,
      "ĠjakÃ½": 1580,
      "Ġzve": 1581,
      "kle": 1582,
      "ĠpÅ¯l": 1583,
      "Ġsvobo": 1584,
      "ĠsnÃŃh": 1585,
      "ĠchvÃŃle": 1586,
      "hnou": 1587,
      "Ġzt": 1588,
      "Ġkraji": 1589,
      "ÄįenÃŃ": 1590,
      "Ġsklo": 1591,
      "Ġpomo": 1592,
      "Ġlidu": 1593,
      "rÃ½ch": 1594,
      "Ġmnoho": 1595,
      "ĠÃŃli": 1596,
      "ĠchvÃ¡": 1597,
      "ĠnÄĽho": 1598,
      "cy": 1599,
      "chni": 1600,
      "Ġtady": 1601,
      "zko": 1602,
      "ĠsklÃ¡": 1603,
      "Ġzouf": 1604,
      "ĠbÃ½ti": 1605,
      "Ġzby": 1606,
      "Ġpotom": 1607,
      "ĠvelkÃ©": 1608,
      "Ġolu": 1609,
      "ĠsvÄĽtlo": 1610,
      "Ġsvit": 1611,
      "Ġdro": 1612,
      "ĠpÃŃsnÄĽ": 1613,
      "ĠpolÃŃ": 1614,
      "Ġsch": 1615,
      "Ġkni": 1616,
      "ĠbÃŃlÃ½": 1617,
      "Ġmoud": 1618,
      "Ġblu": 1619,
      "ĠÃ¡li": 1620,
      "Ġjisk": 1621,
      "ĠvÅ¾dycky": 1622,
      "ĠvÃ½Å¡": 1623,
      "ĠnovÃ½": 1624,
      "Ġije": 1625,
      "kÅĻi": 1626,
      "ĠkÃ½": 1627,
      "sni": 1628,
      "zou": 1629,
      "Ġhlava": 1630,
      "Ġsny": 1631,
      "ĠnÃ¡ru": 1632,
      "Ġoru": 1633,
      "pas": 1634,
      "sce": 1635,
      "Ġobraz": 1636,
      "tit": 1637,
      "ĠvelkÃ½": 1638,
      "Ġtedy": 1639,
      "ckÃ©": 1640,
      "ĠdrÃ¡": 1641,
      "ĠenÃ¡": 1642,
      "ĠhruÄı": 1643,
      "Ġhory": 1644,
      "Ġtep": 1645,
      "ĠÅ¾eny": 1646,
      "ĠblÃŃÅ¾": 1647,
      "Ġrou": 1648,
      "Ġici": 1649,
      "Ġvich": 1650,
      "Ġalo": 1651,
      "ĠbouÅĻ": 1652,
      "ĠdÃ¡li": 1653,
      "Ġprach": 1654,
      "Ġnevy": 1655,
      "Ġnese": 1656,
      "Ġsyn": 1657,
      "Ġkve": 1658,
      "ĠvlastnÃŃ": 1659,
      "Å¾nÄĽ": 1660,
      "Ġneza": 1661,
      "Ġslzy": 1662,
      "ĠÃŃci": 1663,
      "vajÃŃ": 1664,
      "Ġblesk": 1665,
      "ata": 1666,
      "bal": 1667,
      "ĠÅ¾Ã¡r": 1668,
      "ĠuÄįÃŃ": 1669,
      "ĠptÃ¡k": 1670,
      "Ġpar": 1671,
      "Ġzved": 1672,
      "ĠnÃ¡mi": 1673,
      "kud": 1674,
      "Ġav": 1675,
      "ala": 1676,
      "Ġet": 1677,
      "Ġnikdo": 1678,
      "div": 1679,
      "Ġavou": 1680,
      "ĠvÃŃtr": 1681,
      "Ġasy": 1682,
      "ĠvÃŃtÄĽz": 1683,
      "Ġzlato": 1684,
      "Ġsni": 1685,
      "din": 1686,
      "ĠÅ¡um": 1687,
      "Ġzjev": 1688,
      "Ġret": 1689,
      "ĠvÅ¡eho": 1690,
      "ĠblÃ¡": 1691,
      "Ġvzdo": 1692,
      "ĠsvatÃ½": 1693,
      "Ġuz": 1694,
      "Ġkrve": 1695,
      "ĠjejÅ¾": 1696,
      "Ġpapr": 1697,
      "Ġstej": 1698,
      "ĠopÄĽt": 1699,
      "ĠmarnÄĽ": 1700,
      "ĠvÄĽru": 1701,
      "Ġzmi": 1702,
      "ĠÃºsmÄĽv": 1703,
      "ĠjmÃ©": 1704,
      "rÃ½m": 1705,
      "Ġbolest": 1706,
      "Ġvys": 1707,
      "Ġvzal": 1708,
      "Ġmr": 1709,
      "Ġbol": 1710,
      "ĠmÃ¡Å¡": 1711,
      "dÃ¡m": 1712,
      "Ġdivo": 1713,
      "ĠvaÅ¡e": 1714,
      "ĠmyÅ¡len": 1715,
      "ĠstarÃ©": 1716,
      "Ġpocho": 1717,
      "Ġase": 1718,
      "or": 1719,
      "nostÃŃ": 1720,
      "Ġposta": 1721,
      "Ġzahra": 1722,
      "Ġcos": 1723,
      "Ġanou": 1724,
      "ĠhoÅĻÃŃ": 1725,
      "Äįit": 1726,
      "ĠdvÄĽ": 1727,
      "ĠvstÅĻÃŃ": 1728,
      "Ġboji": 1729,
      "lna": 1730,
      "ĠpadÃ¡": 1731,
      "Ġpolo": 1732,
      "spo": 1733,
      "Ġcestu": 1734,
      "ĠÅĻa": 1735,
      "bor": 1736,
      "ĠdÃ½m": 1737,
      "ĠvstÅĻÃŃc": 1738,
      "ĠbÃ¡snÃŃ": 1739,
      "Ġeli": 1740,
      "Ġmd": 1741,
      "Å¾o": 1742,
      "Å¾nÃ©": 1743,
      "Ġboha": 1744,
      "klo": 1745,
      "ĠkaÅ¾dÃ©": 1746,
      "ĠvÅ¡ude": 1747,
      "Ġily": 1748,
      "Ġut": 1749,
      "ĠnÄĽkdy": 1750,
      "Ġopu": 1751,
      "ĠmÃ¡lo": 1752,
      "ĠpÃŃsnÃŃ": 1753,
      "ĠdÃ©": 1754,
      "ĠÅĻÃ¡": 1755,
      "ĠdÄĽs": 1756,
      "ĠmÃ©ho": 1757,
      "stech": 1758,
      "ĠplÃ¡Äį": 1759,
      "ĠdÃ¡m": 1760,
      "ĠmrÃ¡": 1761,
      "Ġmatka": 1762,
      "ĠumÄĽ": 1763,
      "Ġodu": 1764,
      "sek": 1765,
      "ĠjistÄĽ": 1766,
      "ĠnuÅ¾": 1767,
      "ĠmilÃ½": 1768,
      "vrÃ¡": 1769,
      "ĠXAXAXX": 1770,
      "ĠnÄĽmu": 1771,
      "Ġiti": 1772,
      "ĠpÄĽk": 1773,
      "hÅ¯ru": 1774,
      "Ġhrad": 1775,
      "Ġkdes": 1776,
      "ĠrÃ¡na": 1777,
      "ĠoÅ¾ÃŃ": 1778,
      "ĠpÅĻem": 1779,
      "Ġbohu": 1780,
      "Ġotev": 1781,
      "alo": 1782,
      "ĠsvatÃ©": 1783,
      "ĠlidÃ©": 1784,
      "zal": 1785,
      "ĠmÃŃr": 1786,
      "ĠmÃŃt": 1787,
      "ĠdomÅ¯": 1788,
      "Å¡ka": 1789,
      "Ġinu": 1790,
      "ĠnemÃ¡": 1791,
      "Ġkouz": 1792,
      "Ġct": 1793,
      "stem": 1794,
      "ĠboÅ¾": 1795,
      "ĠÃ¡ly": 1796,
      "ĠzlatÃ½": 1797,
      "ĠmlÃ¡dÃŃ": 1798,
      "ĠÄĽÅ¾ÃŃ": 1799,
      "ĠÃŃÅ¾ÃŃ": 1800,
      "ĠvidÃŃm": 1801,
      "ĠpÅĻiÅ¡el": 1802,
      "ĠsÃŃly": 1803,
      "ĠzÅĻÃŃm": 1804,
      "ĠprÃ¡vÄĽ": 1805,
      "ĠzpÃŃvÃ¡": 1806,
      "ĠsvÄĽtla": 1807,
      "Ġkar": 1808,
      "ĠmÃŃsto": 1809,
      "ĠAXAX": 1810,
      "ckÃ½": 1811,
      "Ġjaro": 1812,
      "ĠkrÃ¡lov": 1813,
      "Ġvele": 1814,
      "Ġmilen": 1815,
      "ĠÃ¡la": 1816,
      "ĠpÅĻijde": 1817,
      "der": 1818,
      "bra": 1819,
      "ĠnÄĽmÅ¾": 1820,
      "Ġene": 1821,
      "tnÃŃ": 1822,
      "Ġkon": 1823,
      "Ġsama": 1824,
      "ĠpÅĻij": 1825,
      "ĠslÃ¡vy": 1826,
      "Ġsvoji": 1827,
      "ĠvÅ¡echno": 1828,
      "ĠandÄĽl": 1829,
      "Ġeho": 1830,
      "ĠmilÃ¡": 1831,
      "ĠhoÅĻe": 1832,
      "gi": 1833,
      "ĠnevÃŃ": 1834,
      "Ġran": 1835,
      "ĠprÃ¡ci": 1836,
      "ĠavÄĽ": 1837,
      "chal": 1838,
      "ĠneÅ¾li": 1839,
      "he": 1840,
      "nÃ½mi": 1841,
      "ĠtrÅ¯": 1842,
      "dÄĽj": 1843,
      "Ġbohat": 1844,
      "hra": 1845,
      "ĠkrÃ¡sy": 1846,
      "stil": 1847,
      "alu": 1848,
      "Ġbuj": 1849,
      "mem": 1850,
      "ĠstÃŃny": 1851,
      "Ġrychle": 1852,
      "Ġproud": 1853,
      "Ġzdvi": 1854,
      "Ġzr": 1855,
      "ĠuÅ¡e": 1856,
      "Ġspat": 1857,
      "ĠprÃ¡ce": 1858,
      "!...": 1859,
      "ĠtisÃŃ": 1860,
      "Ġsva": 1861,
      "plÃ¡": 1862,
      "Ġzbra": 1863,
      "ĠbouÅĻe": 1864,
      "Ġtrochu": 1865,
      "nat": 1866,
      "Ġfi": 1867,
      "skÃ½m": 1868,
      "ĠzÃ¡ÅĻi": 1869,
      "Ġody": 1870,
      "ĠnaÅ¡ÃŃ": 1871,
      "Ġolem": 1872,
      "Å¾eh": 1873,
      "Å¡nÄĽ": 1874,
      "ĠpovÄĽ": 1875,
      "Å¡ku": 1876,
      "ĠvÄĽÄįnÄĽ": 1877,
      "zni": 1878,
      "Å¾it": 1879,
      "Ġvzdech": 1880,
      "Ġenou": 1881,
      "ĠtÅĻpy": 1882,
      "dky": 1883,
      "ĠvzhÅ¯ru": 1884,
      "ĠodÃŃ": 1885,
      "Ġspolu": 1886,
      "ĠskrÃ½": 1887,
      "Ġina": 1888,
      "ĠvÄĽr": 1889,
      "ĠejÃŃ": 1890,
      "Ġhovo": 1891,
      "Ãº": 1892,
      "ĠmÃ½m": 1893,
      "Ġsr": 1894,
      "ĠdÄĽv": 1895,
      "ĠÄĽjÃŃ": 1896,
      "ĠkvÄĽtÅ¯": 1897,
      "ĠÅ¡ko": 1898,
      "skÃ©m": 1899,
      "Ġtolik": 1900,
      "stup": 1901,
      "Ġslovo": 1902,
      "Ġnapo": 1903,
      "ĠÄı": 1904,
      "Å¾Ã¡": 1905,
      "ĠznÄĽ": 1906,
      "Ġvod": 1907,
      "Ġbudu": 1908,
      "Ġoby": 1909,
      "Ġkrok": 1910,
      "Ġkoru": 1911,
      "Ġhospo": 1912,
      "Ġbyli": 1913,
      "Ġole": 1914,
      "ĠlidÃŃ": 1915,
      "ĠnesmÃŃ": 1916,
      "Ġnena": 1917,
      "ÅĻa": 1918,
      "Ġzvolna": 1919,
      "ĠÅ¾ÃŃt": 1920,
      "rech": 1921,
      "ĠknÃŃ": 1922,
      "Ġvzduch": 1923,
      "rÃ©m": 1924,
      "ĠzaÄį": 1925,
      "hlÃŃ": 1926,
      "ĠkrÃ¡t": 1927,
      "Ġzdra": 1928,
      "kl": 1929,
      "ĠtvÃ¡ÅĻe": 1930,
      "ĠÃºsta": 1931,
      "vlÃ¡": 1932,
      "ĠÃ¡zÃŃ": 1933,
      "ĠhlÃ¡": 1934,
      "skÃ©ho": 1935,
      "ĠjakÃ©": 1936,
      "ĠÃ¡me": 1937,
      "Ġblaho": 1938,
      "ĠÅĻeÄį": 1939,
      "chÃ½": 1940,
      "Ġomu": 1941,
      "Ġbyly": 1942,
      "ĠÅ¾lu": 1943,
      "ĠdolÅ¯": 1944,
      "Å¾nÃ½": 1945,
      "ĠtvÃ¡ÅĻÃŃ": 1946,
      "ĠohnÄĽ": 1947,
      "Ġval": 1948,
      "bky": 1949,
      "lku": 1950,
      "Ġvyp": 1951,
      "cko": 1952,
      "Ġasi": 1953,
      "Ġducha": 1954,
      "valy": 1955,
      "lky": 1956,
      "Ġmysli": 1957,
      "ĠzrÃ¡": 1958,
      "del": 1959,
      "ĠÅ¯Å¾e": 1960,
      "Ġopo": 1961,
      "vila": 1962,
      "ĠÄįekÃ¡": 1963,
      "Ġzraky": 1964,
      "XB": 1965,
      "ĠtvÃ¡ÅĻi": 1966,
      "Ġbeze": 1967,
      "Ġrozp": 1968,
      "ĠujÃŃ": 1969,
      "Å¡ky": 1970,
      "ĠvÅ¡ichni": 1971,
      "ĠvÄįe": 1972,
      "Ġnel": 1973,
      "ĠivÃ¡": 1974,
      "Ġaky": 1975,
      "Ġkrva": 1976,
      "ĠÃ¡ÅĻe": 1977,
      "Ġpros": 1978,
      "hod": 1979,
      "nula": 1980,
      "ĠoucÃŃ": 1981,
      "tila": 1982,
      "Ã¡c": 1983,
      "ĠmoÅ¾": 1984,
      "Ġtouhy": 1985,
      "ĠnichÅ¾": 1986,
      "ĠÅ¾il": 1987,
      "Ġstrom": 1988,
      "ĠÃ¡ÅĻÃŃ": 1989,
      "ĠÅ¾iv": 1990,
      "Ġuku": 1991,
      "Å¯v": 1992,
      "ĠzvÃŃ": 1993,
      "Ġdoby": 1994,
      "jat": 1995,
      "Ġbohem": 1996,
      "Ġez": 1997,
      "ĠpojÄı": 1998,
      "ĠlÃ¡sce": 1999,
      "Ġvon": 2000,
      "ĠtisÃŃc": 2001,
      "letÃŃ": 2002,
      "Ã¡men": 2003,
      "ABAB": 2004,
      "Ġples": 2005,
      "vÃ©ho": 2006,
      "Ġhoj": 2007,
      "ĠÃ½mi": 2008,
      "Ġsebou": 2009,
      "Ġelo": 2010,
      "Ġprsou": 2011,
      "Ġvlny": 2012,
      "ĠpÅ¯j": 2013,
      "ĠÃŃle": 2014,
      "ĠÄįernÃ©": 2015,
      "sÃŃm": 2016,
      "ĠidÃŃ": 2017,
      "ĠÄįest": 2018,
      "ĠmyÅ¡lÃ©": 2019,
      "ran": 2020,
      "ĠmÄĽsta": 2021,
      "ĠÄĽli": 2022,
      "Ġvyso": 2023,
      "ĠivÃ½": 2024,
      "bnÃ©": 2025,
      "Ġasu": 2026,
      "Ġzdo": 2027,
      "Ġhlubi": 2028,
      "Ġbratr": 2029,
      "Ġlesy": 2030,
      "Å¾ÃŃm": 2031,
      "Ġyla": 2032,
      "Ġoli": 2033,
      "Ġpodo": 2034,
      "ĠnocÃŃ": 2035,
      "ĠkdoÅ¾": 2036,
      "ĠvÅ¯nÄĽ": 2037,
      "ĠjinÃ©": 2038,
      "Ġobzo": 2039,
      "ĠnaÅ¡ich": 2040,
      "ĠanÃ©": 2041,
      "ĠslyÅ¡ÃŃ": 2042,
      "ĠmÄĽk": 2043,
      "ĠvlÃŃ": 2044,
      "ĠsladkÃ©": 2045,
      "tÅĻe": 2046,
      "jel": 2047,
      "ĠtÃ½": 2048,
      "ĠmÄĽsÃŃc": 2049,
      "Ġkamen": 2050,
      "Ġory": 2051,
      "ĠdÅ¯m": 2052,
      "ĠatÃ©": 2053,
      "Ġpil": 2054,
      "ĠtÅĻÃŃ": 2055,
      "ĠzmÃŃ": 2056,
      "Ġpev": 2057,
      "nÃ¡nÃŃ": 2058,
      "Ġdosud": 2059,
      "Ġznova": 2060,
      "Ġnebu": 2061,
      "Ġchmu": 2062,
      "Ġrov": 2063,
      "dila": 2064,
      "Ġmilost": 2065,
      "ĠkrÃ¡snÃ©": 2066,
      "Ġoce": 2067,
      "ĠpÅĻÃŃro": 2068,
      "tÄĽl": 2069,
      "ĠÃ¡lo": 2070,
      "Ġoj": 2071,
      "nici": 2072,
      "ĠatÃ½": 2073,
      "Ġchla": 2074,
      "teli": 2075,
      "Ġply": 2076,
      "ĠeÅ¾ÃŃ": 2077,
      "ĠtÄĽla": 2078,
      "Ġete": 2079,
      "Ġtakto": 2080,
      "Å¡ek": 2081,
      "ĠsvÄĽtem": 2082,
      "Å¾enÃŃ": 2083,
      "ĠvÄĽky": 2084,
      "ĠemÄĽ": 2085,
      "ĠÃŃval": 2086,
      "Ġstru": 2087,
      "ĠztrÃ¡": 2088,
      "bÃ½": 2089,
      "snÃ©": 2090,
      "Ġkmi": 2091,
      "ĠhoÅĻ": 2092,
      "ĠvzdÃ¡": 2093,
      "pÃ½": 2094,
      "Ġvyz": 2095,
      "dr": 2096,
      "Ġslov": 2097,
      "Ġchvil": 2098,
      "ĠhnÃŃ": 2099,
      "ĠklÃ¡": 2100,
      "Ġperu": 2101,
      "ĠcÃŃtÃŃ": 2102,
      "roj": 2103,
      "ĠchÃ½": 2104,
      "ĠprÅ¯": 2105,
      "ĠÃ¡ÅĻi": 2106,
      "ÅĻela": 2107,
      "ĠkÅĻÃŃdla": 2108,
      "vad": 2109,
      "rk": 2110,
      "Ġvna": 2111,
      "Ġnap": 2112,
      "Ġklen": 2113,
      "ĠusmÃŃ": 2114,
      "Ġpozdra": 2115,
      "ÅĻenÃŃ": 2116,
      "Ġsho": 2117,
      "Ġpropa": 2118,
      "ĠsedÃŃ": 2119,
      "ĠlÃŃc": 2120,
      "ĠÅ¡la": 2121,
      "ĠvÃ½Å¡e": 2122,
      "Ġinou": 2123,
      "Ġvody": 2124,
      "cela": 2125,
      "ĠadÃ¡": 2126,
      "zrak": 2127,
      "ĠÄįasem": 2128,
      "Å¡lo": 2129,
      "kat": 2130,
      "dat": 2131,
      "ĠchrÃ¡m": 2132,
      "ĠslyÅ¡e": 2133,
      "ĠÃ©mu": 2134,
      "ĠmojÃŃ": 2135,
      "Ġmodlit": 2136,
      "ĠlÃŃce": 2137,
      "ĠnaÄį": 2138,
      "nÃ¡Å¡ÃŃ": 2139,
      "ĠkrvÃŃ": 2140,
      "ĠmÃ©m": 2141,
      "hled": 2142,
      "tÃ¡m": 2143,
      "kÃ¡nÃŃ": 2144,
      "vec": 2145,
      "ĠÃ¡no": 2146,
      "Ġtre": 2147,
      "ĠneznÃ¡m": 2148,
      "ĠrÃ¡z": 2149,
      "ato": 2150,
      "ĠcelÃ¡": 2151,
      "Ġstat": 2152,
      "ĠsnÄĽnÃŃ": 2153,
      "Ġzti": 2154,
      "mÃ½": 2155,
      "ĠtoÅ¾": 2156,
      "Ġbal": 2157,
      "Å¡Å¡ÃŃ": 2158,
      "Ġeno": 2159,
      "ĠmÄĽsÃŃ": 2160,
      "ĠÃºst": 2161,
      "ĠÃŃme": 2162,
      "ĠtvÃ½m": 2163,
      "ĠkÅ¯": 2164,
      "Ġzvy": 2165,
      "Ġnero": 2166,
      "ĠmluvÃŃ": 2167,
      "dra": 2168,
      "Ġubo": 2169,
      "Ġzvuk": 2170,
      "ĠanÄĽ": 2171,
      "Ġdomo": 2172,
      "ĠvÃŃÅ¡": 2173,
      "Ġpta": 2174,
      "Ġotro": 2175,
      "ĠdÃ½ch": 2176,
      "nik": 2177,
      "ĠslavÃŃ": 2178,
      "Ġsoud": 2179,
      "aly": 2180,
      "ĠtÃ¡h": 2181,
      "zku": 2182,
      "nko": 2183,
      "novÃ©": 2184,
      "ĠhnÄĽv": 2185,
      "Ġobje": 2186,
      "zeÅĪ": 2187,
      "leh": 2188,
      "ĠÃ¡ni": 2189,
      "ĠmyslÃŃ": 2190,
      "Ġzav": 2191,
      "ĠstarÃ¡": 2192,
      "ĠÄĽly": 2193,
      "Ġtisk": 2194,
      "ĠslÃ¡va": 2195,
      "Ġjedna": 2196,
      "ĠalÃŃ": 2197,
      "ĠÅ¡a": 2198,
      "valo": 2199,
      "ĠjakÃ¡": 2200,
      "ĠatÃŃ": 2201,
      "Ġovi": 2202,
      "ĠÄįech": 2203,
      "lnÄĽ": 2204,
      "Ġhlad": 2205,
      "Ġohe": 2206,
      "vej": 2207,
      "Ġcesty": 2208,
      "lez": 2209,
      "vod": 2210,
      "Ġver": 2211,
      "ĠÅ¾ije": 2212,
      "Ġkva": 2213,
      "Ġnelze": 2214,
      "ĠblaÅ¾en": 2215,
      "ĠuÄįi": 2216,
      "Ġhej": 2217,
      "cit": 2218,
      "Äįkou": 2219,
      "Ġeje": 2220,
      "Ġotce": 2221,
      "Ġkterak": 2222,
      "ĠdÃŃvÃ¡": 2223,
      "ĠpravÃŃ": 2224,
      "ĠjinÃ½": 2225,
      "kone": 2226,
      "ĠmÄĽla": 2227,
      "Ġur": 2228,
      "ĠÄįele": 2229,
      "ĠÃ¡ny": 2230,
      "ĠbÃŃlÃ¡": 2231,
      "Ġprch": 2232,
      "ĠrÃ¡j": 2233,
      "Ġklam": 2234,
      "ÄįnÃ¡": 2235,
      "Ġmohu": 2236,
      "Ġcestou": 2237,
      "bnÃŃ": 2238,
      "lnÃŃ": 2239,
      "ĠhleÄı": 2240,
      "ĠoheÅĪ": 2241,
      "ĠtÄĽm": 2242,
      "on": 2243,
      "ĠÃ¡ci": 2244,
      "ĠovÃ¡": 2245,
      "nila": 2246,
      "ĠnÄĽco": 2247,
      "Ġslunci": 2248,
      "Ġjara": 2249,
      "Äįet": 2250,
      "ĠskvÄĽ": 2251,
      "rÃ¡ch": 2252,
      "ĠzÃ¡ÅĻe": 2253,
      "lila": 2254,
      "ABBX": 2255,
      "Ġzro": 2256,
      "Ġvsta": 2257,
      "Ġfa": 2258,
      "Ġkterou": 2259,
      "ĠÃŃnÃ¡": 2260,
      "ĠdÃ¡t": 2261,
      "Ġohni": 2262,
      "uj": 2263,
      "ĠovÃŃ": 2264,
      "Ġoblo": 2265,
      "ĠjÃŃÅ¾": 2266,
      "Ġmatky": 2267,
      "vati": 2268,
      "ĠmoÅĻi": 2269,
      "ĠhÅĻe": 2270,
      "Ġvez": 2271,
      "Ġhrobu": 2272,
      "kro": 2273,
      "Ġkdysi": 2274,
      "ĠÅ¾el": 2275,
      "ĠtvÃ©m": 2276,
      "Ġtouha": 2277,
      "Ġokam": 2278,
      "Ġovat": 2279,
      "Ġdole": 2280,
      "Ġdosti": 2281,
      "Ġvln": 2282,
      "str": 2283,
      "ĠklÃŃn": 2284,
      "et": 2285,
      "Ġvedle": 2286,
      "ĠÃ½Å¡e": 2287,
      "ĠplnÃ½": 2288,
      "ĠbÄĽda": 2289,
      "ĠjÃŃt": 2290,
      "ÅĻÃŃt": 2291,
      "Ġhodi": 2292,
      "ĠsvÃ©mu": 2293,
      "ĠaÄįÃŃ": 2294,
      "ĠvÅ¡echny": 2295,
      "ĠdÃ½": 2296,
      "sen": 2297,
      "ĠbouÅĻÃŃ": 2298,
      "Ġano": 2299,
      "dej": 2300,
      "ĠtvÃ©ho": 2301,
      "ĠedÃŃ": 2302,
      "hÃ½ch": 2303,
      "ĠnevÃŃm": 2304,
      "Ġdoma": 2305,
      "ÅĻed": 2306,
      "Ġkmen": 2307,
      "Ġnev": 2308,
      "Ġuce": 2309,
      "tajÃŃ": 2310,
      "ĠzÃ¡m": 2311,
      "Å¡nÃ©": 2312,
      "ĠbyÅ¥": 2313,
      "snÃ½": 2314,
      "ĠsladkÃ½": 2315,
      "Ġkap": 2316,
      "Ġspi": 2317,
      "Ġcelou": 2318,
      "ĠÄįela": 2319,
      "Ġnaz": 2320,
      "ĠzdrÃ¡": 2321,
      "ĠonÄĽ": 2322,
      "ujÃŃ": 2323,
      "mnÄĽ": 2324,
      "liÅ¡": 2325,
      "Ġstou": 2326,
      "ĠskÃ¡ly": 2327,
      "ĠnÃ¡d": 2328,
      "ĠmladÃ½": 2329,
      "Ġhlasem": 2330,
      "Ġ,": 2331,
      "ĠovÄĽ": 2332,
      "Ġminu": 2333,
      "ĠkÃ©": 2334,
      "Ġvzdy": 2335,
      "hnu": 2336,
      "ĠdnÅ¯": 2337,
      "ĠvÄĽc": 2338,
      "Äįem": 2339,
      "man": 2340,
      "Ġstrach": 2341,
      "neÅ¡": 2342,
      "sÅ¯": 2343,
      "ĠhlavÄĽ": 2344,
      "Ġdav": 2345,
      "ĠkaÅ¾dÃ¡": 2346,
      "Ġev": 2347,
      "ĠchceÅ¡": 2348,
      "met": 2349,
      "Ġely": 2350,
      "ĠcÃŃsa": 2351,
      "Ġrod": 2352,
      "Ġkonec": 2353,
      "ĠsvÄĽÅ¾ÃŃ": 2354,
      "ĠmnohÃ½": 2355,
      "ĠÃ¡tÃŃ": 2356,
      "ĠdvÃ©": 2357,
      "ĠodÄĽ": 2358,
      "Ġcest": 2359,
      "ĠÃ¡sky": 2360,
      "Ġsnu": 2361,
      "ĠstromÅ¯": 2362,
      "Ġnohou": 2363,
      "ec": 2364,
      "Ġpest": 2365,
      "ĠÃŃÅ¾e": 2366,
      "pÅ¡ÃŃ": 2367,
      "ĠoltÃ¡": 2368,
      "rnÃ¡": 2369,
      "Ġtmy": 2370,
      "ĠivÃ©": 2371,
      "koli": 2372,
      "ĠÃ¡te": 2373,
      "Ġzpo": 2374,
      "Ġera": 2375,
      "ĠstÃŃnu": 2376,
      "ĠlistÃŃ": 2377,
      "ĠklidnÄĽ": 2378,
      "Ġrty": 2379,
      "Ġvzne": 2380,
      "ĠkÃ©Å¾": 2381,
      "dÄĽli": 2382,
      "ĠdÃ¡lky": 2383,
      "Ġspa": 2384,
      "Ġkraje": 2385,
      "ĠÄĽjÅ¡ÃŃ": 2386,
      "ĠÃŃlÃŃ": 2387,
      "ĠzaÅ¡": 2388,
      "ĠÅĻÃŃci": 2389,
      "ĠloÄı": 2390,
      "ĠÃ¡cÃŃ": 2391,
      "Ġata": 2392,
      "ĠvÄĽÄįnÃ©": 2393,
      "Ġrak": 2394,
      "tru": 2395,
      "Ġylo": 2396,
      "ĠdÃ¡vÃ¡": 2397,
      "ĠhledÃ¡": 2398,
      "ĠoÅĻi": 2399,
      "poÅĪ": 2400,
      "lÃ©b": 2401,
      "ĠkrÃ¡ÄįÃŃ": 2402,
      "ĠnadÄĽje": 2403,
      "Ġruky": 2404,
      "ĠjehoÅ¾": 2405,
      "ĠÃŃtÄĽ": 2406,
      "van": 2407,
      "ĠkrÃ¡snÃ¡": 2408,
      "ĠmuÅ¾i": 2409,
      "Ġvyh": 2410,
      "mlu": 2411,
      "dajÃŃ": 2412,
      "cel": 2413,
      "Ġobu": 2414,
      "ĠvÄĽk": 2415,
      "Å¾ik": 2416,
      "ĠaspoÅĪ": 2417,
      "ĠhnÃŃz": 2418,
      "ĠÃ¡nÄĽ": 2419,
      "ĠlidskÃ©": 2420,
      "ĠjarnÃŃ": 2421,
      "dka": 2422,
      "ĠhlÃŃ": 2423,
      "ĠpÅĻÃŃÅ¡tÃŃ": 2424,
      "Ġramen": 2425,
      "Ġtako": 2426,
      "Ġohu": 2427,
      "ĠdobrÃ½": 2428,
      "dost": 2429,
      "kala": 2430,
      "ĠstÃ¡t": 2431,
      "Ġtvrd": 2432,
      "Ġchat": 2433,
      "Ġpravil": 2434,
      "ĠzÃ¡pas": 2435,
      "ĠplnÃ©": 2436,
      "Äįnou": 2437,
      "Ġpry": 2438,
      "ĠÃ¡dÃ¡": 2439,
      "dek": 2440,
      "ĠÄįÃ¡": 2441,
      "ĠsÃŃla": 2442,
      "Ġhloub": 2443,
      "ĠkÃ¡men": 2444,
      "ĠzatÃŃm": 2445,
      "BC": 2446,
      "ĠrÃ¡no": 2447,
      "Ġtrp": 2448,
      "ĠÃŃtÃ¡": 2449,
      "ĠotÃ¡": 2450,
      "Ġvlasy": 2451,
      "ÅĻo": 2452,
      "Ġuchu": 2453,
      "Ġvti": 2454,
      "Ġpout": 2455,
      "ĠtÃ©to": 2456,
      "Ġsmys": 2457,
      "ĠmladÃ©": 2458,
      "Ġruch": 2459,
      "Ġdobro": 2460,
      "Ġprosto": 2461,
      "ke": 2462,
      "Ġony": 2463,
      "Ġoni": 2464,
      "klÃ¡": 2465,
      "ĠinÄĽ": 2466,
      "pit": 2467,
      "Ġstvo": 2468,
      "Ġrok": 2469,
      "ĠnaÅĪ": 2470,
      "in": 2471,
      "prv": 2472,
      "ĠÃŃmÃ¡": 2473,
      "ĠmÃ¡me": 2474,
      "znÃ©": 2475,
      "ĠdrahÃ¡": 2476,
      "ja": 2477,
      "Å¡te": 2478,
      "Ġdle": 2479,
      "ĠzÃŃtra": 2480,
      "jÃŃm": 2481,
      "tost": 2482,
      "ĠÅĻad": 2483,
      "Ġasem": 2484,
      "ĠvÄĽtr": 2485,
      "Ġjakby": 2486,
      "ĠvÄĽtÅ¡ÃŃ": 2487,
      "ĠlÃ©ta": 2488,
      "cÃ½": 2489,
      "Ġrozum": 2490,
      "ĠÄįem": 2491,
      "ĠrÃ¡ny": 2492,
      "Ġnekone": 2493,
      "ĠnemÄĽ": 2494,
      "Äįin": 2495,
      "ĠtichÃ©": 2496,
      "Ġpravda": 2497,
      "Ġpodzi": 2498,
      "ĠslyÅ¡el": 2499,
      "Ġnav": 2500,
      "Ġhoch": 2501,
      "dala": 2502,
      "ĠrÅ¯Å¾ÃŃ": 2503,
      "ĠobrÃ¡": 2504,
      "mÄĽl": 2505,
      "ĠÄįt": 2506,
      "Ġjdu": 2507,
      "ĠÅ¾eh": 2508,
      "ĠomÅ¯": 2509,
      "Ġnade": 2510,
      "Ġnebyl": 2511,
      "Ġota": 2512,
      "ck": 2513,
      "kaz": 2514,
      "ĠoÄįÃŃch": 2515,
      "ĠÃŃru": 2516,
      "ĠavÃ©": 2517,
      "ĠzÅ¯sta": 2518,
      "ĠÄĽtem": 2519,
      "ĠpoÅ¾eh": 2520,
      "ĠpovÃŃ": 2521,
      "ĠjÃŃmÅ¾": 2522,
      "hli": 2523,
      "tnÃ½": 2524,
      "Ġany": 2525,
      "ĠtisÃŃce": 2526,
      "sel": 2527,
      "Ġzam": 2528,
      "Ġyne": 2529,
      "dku": 2530,
      "hÃ¡m": 2531,
      "ĠmuÅ¾e": 2532,
      "ĠpÅĻÃŃliÅ¡": 2533,
      "ĠusÃŃ": 2534,
      "ĠtichÃ½": 2535,
      "ĠjichÅ¾": 2536,
      "Ġjinak": 2537,
      "Ġkal": 2538,
      "ĠmotÃ½": 2539,
      "Ġznovu": 2540,
      "tele": 2541,
      "ĠhÅĻÃŃch": 2542,
      "Ġtan": 2543,
      "rnÃŃ": 2544,
      "Ġbrzy": 2545,
      "chou": 2546,
      "rÃ¡m": 2547,
      "Ġvztek": 2548,
      "Ġradosti": 2549,
      "Ġokna": 2550,
      "lka": 2551,
      "Ġ1800": 2552,
      "Ġman": 2553,
      "ĠÄĽtÃŃ": 2554,
      "tom": 2555,
      "ĠÄįernÃ½": 2556,
      "CBC": 2557,
      "stva": 2558,
      "Ġsrdcem": 2559,
      "Ġcha": 2560,
      "bit": 2561,
      "ĠzÃ¡vo": 2562,
      "ĠmilÃ©": 2563,
      "lÃ©t": 2564,
      "Ġned": 2565,
      "ĠmalÃ½": 2566,
      "ĠtÅĻÃ¡": 2567,
      "Ġspou": 2568,
      "ĠilÃ½": 2569,
      "ĠmrÃ¡z": 2570,
      "Ġzach": 2571,
      "Ġslz": 2572,
      "Å¾ky": 2573,
      "Ġtento": 2574,
      "ĠmÃŃru": 2575,
      "penÃŃ": 2576,
      "Ġzhas": 2577,
      "ĠdruhÃ½": 2578,
      "ĠvÄĽkÅ¯": 2579,
      "Ġdoko": 2580,
      "ĠpÄĽt": 2581,
      "Ġjazy": 2582,
      "Ġroste": 2583,
      "ĠkÅĻÃŃd": 2584,
      "Ġhar": 2585,
      "ÄįÃ¡": 2586,
      "Å¾ka": 2587,
      "ĠrytÃŃ": 2588,
      "Ġzlat": 2589,
      "ĠlÅ¯": 2590,
      "Ġprapo": 2591,
      "ĠchodÃŃ": 2592,
      "ĠÅĻeÄįi": 2593,
      "Ġpovz": 2594,
      "ĠkvÃŃtÃŃ": 2595,
      "kvÄĽ": 2596,
      "Ġeru": 2597,
      "ĠneznÃ¡": 2598,
      "Ġblanky": 2599,
      "ĠXXABAB": 2600,
      "Ġonu": 2601,
      "Ġmoji": 2602,
      "Ġep": 2603,
      "ĠelÃ½": 2604,
      "ĠolÃ¡": 2605,
      "rnou": 2606,
      "Ġeni": 2607,
      "Ġnapos": 2608,
      "ĠkrÃ¡snÃ½": 2609,
      "tnÄĽ": 2610,
      "Ġdny": 2611,
      "brÃ¡": 2612,
      "ĠbudeÅ¡": 2613,
      "Ġstromy": 2614,
      "Ġeh": 2615,
      "Äįej": 2616,
      "stvo": 2617,
      "nosÅ¥": 2618,
      "ĠpryÄį": 2619,
      "Ġboje": 2620,
      "Ġovu": 2621,
      "ĠpÃŃsni": 2622,
      "kali": 2623,
      "ĠÅĻekl": 2624,
      "Ġedu": 2625,
      "ĠdlaÅĪ": 2626,
      "Ġdarmo": 2627,
      "ctvÃŃ": 2628,
      "es": 2629,
      "Ġprachu": 2630,
      "Ġhloubi": 2631,
      "Ġjmen": 2632,
      "ĠkrÃ¡li": 2633,
      "Ġovo": 2634,
      "ju": 2635,
      "Ġovy": 2636,
      "ĠekÃ¡": 2637,
      "Ġvede": 2638,
      "Ġhas": 2639,
      "Ġouti": 2640,
      "ĠdlouhÃ©": 2641,
      "Ġuh": 2642,
      "ĠlesÅ¯": 2643,
      "Ġrost": 2644,
      "ĠchÃ¡": 2645,
      "dl": 2646,
      "ĠvÃŃru": 2647,
      "Ġrodi": 2648,
      "dli": 2649,
      "ĠhvÄĽzda": 2650,
      "Ġdou": 2651,
      "ĠkonÄĽ": 2652,
      "ĠÃ¡va": 2653,
      "ĠcÃŃtÃŃm": 2654,
      "ĠpÅĻede": 2655,
      "ĠÃŃte": 2656,
      "cet": 2657,
      "ĠzÃ¡ko": 2658,
      "Ã½vÃ¡": 2659,
      "Ġosu": 2660,
      "Ġrve": 2661,
      "ĠudÃŃ": 2662,
      "nami": 2663,
      "ĠchvÄĽje": 2664,
      "bnÃ½": 2665,
      "ĠdobÄĽ": 2666,
      "Ġtouhou": 2667,
      "Ġine": 2668,
      "losti": 2669,
      "ĠacÃŃ": 2670,
      "Å¯l": 2671,
      "ĠbratÅĻÃŃ": 2672,
      "ĠÄĽta": 2673,
      "ĠzdÃ¡lo": 2674,
      "ĠvaÅ¡i": 2675,
      "Ġonen": 2676,
      "ĠmajÃŃ": 2677,
      "rat": 2678,
      "ĠpÃ¡r": 2679,
      "Ġlze": 2680,
      "Ġsbor": 2681,
      "Ġcti": 2682,
      "Å¡nÃ½": 2683,
      "Ġau": 2684,
      "Ġjiz": 2685,
      "ĠdrahÃ©": 2686,
      "jal": 2687,
      "ĠÃŃly": 2688,
      "Ġoly": 2689,
      "ĠnedÃ¡": 2690,
      "Ġmilosti": 2691,
      "chÃ©": 2692,
      "Ġrej": 2693,
      "Ġit": 2694,
      "Ġklet": 2695,
      "Ġsnem": 2696,
      "ĠdÄĽdi": 2697,
      "mr": 2698,
      "ĠanÃ½": 2699,
      "ĠÅ¡umÃŃ": 2700,
      "ÅĻila": 2701,
      "ĠABBACC": 2702,
      "ĠÄįasu": 2703,
      "lÃ©ho": 2704,
      "ĠmÄĽsto": 2705,
      "Ġhrudi": 2706,
      "Ġcesta": 2707,
      "ĠvÅ¡ÃŃm": 2708,
      "Ġstaro": 2709,
      "dlÃŃ": 2710,
      "Ġtruch": 2711,
      "Ġzrakem": 2712,
      "ech": 2713,
      "ĠskrÃ¡ÅĪ": 2714,
      "ĠnÃ¡ruÄį": 2715,
      "esi": 2716,
      "Ġspas": 2717,
      "ĠsÃŃlu": 2718,
      "zil": 2719,
      "ĠilÃ¡": 2720,
      "ĠdÃŃvka": 2721,
      "Ġuka": 2722,
      "Ġdum": 2723,
      "ĠcÃŃtil": 2724,
      "Ġudu": 2725,
      "kÅĻik": 2726,
      "ĠknÃŃÅ¾e": 2727,
      "Ġsad": 2728,
      "Ġsme": 2729,
      "Ġsest": 2730,
      "Ġlesa": 2731,
      "ĠvÄĽÄįnÃ½": 2732,
      "lesk": 2733,
      "mÃ¡ch": 2734,
      "Ġpov": 2735,
      "ĠkteÅĻÃŃ": 2736,
      "Ġzbu": 2737,
      "Ġtla": 2738,
      "Ġposud": 2739,
      "Ġzapla": 2740,
      "Ġpln": 2741,
      "Ġnim": 2742,
      "Ġset": 2743,
      "ĠsplÃ½": 2744,
      "ĠopÃŃ": 2745,
      "Ġjestli": 2746,
      "klad": 2747,
      "ĠtenkrÃ¡t": 2748,
      "Ġnesly": 2749,
      "Ġil": 2750,
      "ĠÄıÃ¡": 2751,
      "noucÃŃ": 2752,
      "ĠÅ¡li": 2753,
      "Å¾Å¡ÃŃ": 2754,
      "Ġhost": 2755,
      "stÃ¡vÃ¡": 2756,
      "ĠcÃŃl": 2757,
      "Ġuse": 2758,
      "ĠbÅĻehu": 2759,
      "ĠdobrÃ©": 2760,
      "ĠÄįin": 2761,
      "ĠblÃ½": 2762,
      "ĠsvÄĽtu": 2763,
      "ĠvÅ¯le": 2764,
      "ĠatÃ¡": 2765,
      "Ġstesk": 2766,
      "ĠÃ¡Äįe": 2767,
      "ĠpÃ¡ni": 2768,
      "ĠrÃ¡zem": 2769,
      "stvÃŃm": 2770,
      "Ġchle": 2771,
      "ĠmalÃ©": 2772,
      "ĠzvlÃ¡": 2773,
      "Ġzap": 2774,
      "ĠÅĪa": 2775,
      "ĠkrÃ¡se": 2776,
      "ĠplÃ¡Äįe": 2777,
      "ĠvzÃ¡c": 2778,
      "ĠÅĪader": 2779,
      "ĠznÄĽl": 2780,
      "Ġmysl": 2781,
      "Ġdve": 2782,
      "Ġmrtvo": 2783,
      "vce": 2784,
      "zenÃŃ": 2785,
      "Ġlidstva": 2786,
      "ĠAXAA": 2787,
      "Ġskvost": 2788,
      "mnÃŃ": 2789,
      "ĠavÃ¡": 2790,
      "ĠovÃ½": 2791,
      "Ġscho": 2792,
      "Ġoho": 2793,
      "ĠXAABBX": 2794,
      "ĠrÅ¯Å¾o": 2795,
      "kve": 2796,
      "ĠÃ¡ÄįÃŃ": 2797,
      "Ġztracen": 2798,
      "ĠvÄĽÅĻ": 2799,
      "Ġduchu": 2800,
      "Ġcen": 2801,
      "Ġpravdu": 2802,
      "Ġnechce": 2803,
      "ÅĻÅ¯": 2804,
      "ĠizÃŃ": 2805,
      "ĠvÅ¯kol": 2806,
      "ĠjmÃ©no": 2807,
      "Ġprobu": 2808,
      "Ġzoufal": 2809,
      "Ġviz": 2810,
      "Å¾nÃ¡": 2811,
      "pÄĽl": 2812,
      "ĠvÅ¡emi": 2813,
      "Å¡t": 2814,
      "slo": 2815,
      "cnÄĽ": 2816,
      "ĠsvatÃ¡": 2817,
      "ĠzachvÄĽ": 2818,
      "Ġide": 2819,
      "Äįer": 2820,
      "Ġlese": 2821,
      "ĠslyÅ¡ÃŃm": 2822,
      "Ġlidem": 2823,
      "Ġvenku": 2824,
      "Ġmni": 2825,
      "ĠkrÅ¯": 2826,
      "Ġkoste": 2827,
      "ĠkrÃ¡le": 2828,
      "Ġsma": 2829,
      "ĠovÅ¡em": 2830,
      "ĠpÃ½ch": 2831,
      "ĠstrÃ¡Å¾": 2832,
      "las": 2833,
      "Ġzasta": 2834,
      "Ġporo": 2835,
      "vin": 2836,
      "ĠjasnÃ©": 2837,
      "dÃ½ch": 2838,
      "Ġhlo": 2839,
      "ĠÃŃÅ¡e": 2840,
      "ĠÃ¡vÄĽ": 2841,
      "Ġnevin": 2842,
      "Ġnak": 2843,
      "ĠklonÃŃ": 2844,
      "ĠvalÃŃ": 2845,
      "Ġuky": 2846,
      "pÅ¯": 2847,
      "deme": 2848,
      "Ġednou": 2849,
      "Ġzadu": 2850,
      "kot": 2851,
      "zvu": 2852,
      "Ġklad": 2853,
      "ĠvÃ½Å¡i": 2854,
      "ĠchtÃŃ": 2855,
      "Ġsladce": 2856,
      "cÅ¯m": 2857,
      "ĠÄĽle": 2858,
      "ĠslÃŃ": 2859,
      "ĠdÄĽtÃŃ": 2860,
      "ÅĻenÃ©": 2861,
      "jÃŃch": 2862,
      "ĠÃŃkÅ¯": 2863,
      "nouti": 2864,
      "ĠtÄĽÅ¾kÃ©": 2865,
      "ĠÃŃnu": 2866,
      "nala": 2867,
      "Å¡nÃŃ": 2868,
      "Ġbudouc": 2869,
      "ĠtÃ³": 2870,
      "ĠmizÃŃ": 2871,
      "rom": 2872,
      "jÃŃt": 2873,
      "Ġodpu": 2874,
      "ĠpÃ©": 2875,
      "ĠadÃŃ": 2876,
      "ĠhrobÄĽ": 2877,
      "ĠpÅĻiÅ¡la": 2878,
      "ĠouÅ¾ÃŃ": 2879,
      "knu": 2880,
      "Ġava": 2881,
      "enÃ¡": 2882,
      "Ġzvon": 2883,
      "Ġpokoj": 2884,
      "Ġnas": 2885,
      "ĠdÅ¯vÄĽ": 2886,
      "mÄĽnÃŃ": 2887,
      "ĠrÃ¡da": 2888,
      "us": 2889,
      "ĠzvonÃŃ": 2890,
      "Ġspra": 2891,
      "Ġslza": 2892,
      "ĠÃºtÄĽ": 2893,
      "ĠzÃ¡hy": 2894,
      "Äįila": 2895,
      "ĠsmutnÄĽ": 2896,
      "ĠenÄĽ": 2897,
      "klÃŃ": 2898,
      "Ġech": 2899,
      "ĠskÅĻi": 2900,
      "bem": 2901,
      "ĠvzplÃ¡": 2902,
      "ĠÄĽtu": 2903,
      "bnÄĽ": 2904,
      "zky": 2905,
      "ek": 2906,
      "Ġmohl": 2907,
      "Ġzdi": 2908,
      "Ġuna": 2909,
      "Ġhrou": 2910,
      "go": 2911,
      "ĠzÃ¡pa": 2912,
      "Ġnohy": 2913,
      "ĠÄĽlÃ½": 2914,
      "Ġchra": 2915,
      "ĠahÃ¡": 2916,
      "vÃŃrÃ¡": 2917,
      "dÃ¡nÃŃ": 2918,
      "chÃ¡ze": 2919,
      "ĠÄĽlÃ¡": 2920,
      "hly": 2921,
      "Ġdala": 2922,
      "ĠAABCBC": 2923,
      "ĠelÃ©": 2924,
      "ali": 2925,
      "ĠsrdcÃŃ": 2926,
      "bito": 2927,
      "ĠrozkoÅ¡": 2928,
      "ĠdrahÃ½": 2929,
      "kajÃŃ": 2930,
      "ĠsvÃ½mi": 2931,
      "ĠmoÅ¾no": 2932,
      "Ġtmou": 2933,
      "teÄį": 2934,
      "ĠÄįeskÃ©": 2935,
      "sit": 2936,
      "Ġzba": 2937,
      "Ã¡ch": 2938,
      "Ġouze": 2939,
      "ĠmÃ¡j": 2940,
      "hÃ½m": 2941,
      "livÄĽ": 2942,
      "ĠstarÃ½ch": 2943,
      "ĠnadÅ¡enÃŃ": 2944,
      "Ġled": 2945,
      "ĠeÅĻÃŃ": 2946,
      "Ġtry": 2947,
      "Ġchyt": 2948,
      "tor": 2949,
      "Ġpramen": 2950,
      "Ġboku": 2951,
      "ĠdÄĽla": 2952,
      "Ġoch": 2953,
      "bÅ¯": 2954,
      "Ġmdlo": 2955,
      "ĠÃ¡t": 2956,
      "Ġsmutek": 2957,
      "Ġsluch": 2958,
      "dÃ¡ch": 2959,
      "ĠdÅĻÃŃve": 2960,
      "ĠmladÃ¡": 2961,
      "Ġzhy": 2962,
      "hlÃ¡": 2963,
      "ĠchtÄĽla": 2964,
      "ĠÅ¡le": 2965,
      "Ġbojo": 2966,
      "Ġkone": 2967,
      "Ġetu": 2968,
      "ĠÅ¡ÃŃlen": 2969,
      "vuje": 2970,
      "Ġdomu": 2971,
      "Ġaty": 2972,
      "ĠbouÅĻi": 2973,
      "Ġpohle": 2974,
      "ĠtouÅ¾ÃŃ": 2975,
      "ĠÅ¾enu": 2976,
      "Ġprsa": 2977,
      "Ġhrom": 2978,
      "Ġkat": 2979,
      "Ġcy": 2980,
      "Ġrozho": 2981,
      "ĠodpovÄĽ": 2982,
      "ĠvÃ¡mi": 2983,
      "ĠkrÅ¯pÄĽ": 2984,
      "ĠzlatÃ¡": 2985,
      "ĠkrÃ¡sa": 2986,
      "Ġzcela": 2987,
      "Ġpravdy": 2988,
      "ĠzÃ¡zrak": 2989,
      "Ġrek": 2990,
      "Ġkruh": 2991,
      "Ġhlaho": 2992,
      "ĠnepÅĻÃ¡": 2993,
      "Ġasti": 2994,
      "Ġlam": 2995,
      "Ġtvr": 2996,
      "ĠÃ½ch": 2997,
      "ĠÅ¾Ã¡dnÃ½": 2998,
      "ĠÃ¡vy": 2999,
      "ĠnepÅĻÃŃ": 3000,
      "Ġono": 3001,
      "ĠjedinÃ½": 3002,
      "kej": 3003,
      "Ġbije": 3004,
      "ĠÃ¡lÃŃ": 3005,
      "ĠvelkÃ¡": 3006,
      "Ġvrcho": 3007,
      "ĠmÄĽnÃŃ": 3008,
      "Ġrozm": 3009,
      "ĠstejnÄĽ": 3010,
      "ĠX": 3011,
      "rku": 3012,
      "ĠpevnÄĽ": 3013,
      "ĠmodrÃ©": 3014,
      "ĠnepÅĻi": 3015,
      "Ġaku": 3016,
      "Ġys": 3017,
      "rky": 3018,
      "Ġhan": 3019,
      "ĠkaÅ¾dou": 3020,
      "ĠdennÄĽ": 3021,
      "Ġzni": 3022,
      "ÄįkÃ¡": 3023,
      "jÃ¡": 3024,
      "ĠspÃŃÅ¡": 3025,
      "ĠbÅĻeh": 3026,
      "?!": 3027,
      "ĠÅĻÃŃm": 3028,
      "ĠslÃ¡vÄĽ": 3029,
      "ĠzÅĻe": 3030,
      "lÃŃÅ¾ÃŃ": 3031,
      "bat": 3032,
      "lav": 3033,
      "Ġjeze": 3034,
      "ĠslÃ¡vu": 3035,
      "bÃ©": 3036,
      "Ġvlo": 3037,
      "Ġklu": 3038,
      "Ġpodiv": 3039,
      "Ġjednu": 3040,
      "Ġkali": 3041,
      "ĠjednÃ©": 3042,
      "ĠvracÃŃ": 3043,
      "Ġotu": 3044,
      "nÃ¡Å¡e": 3045,
      "Ġam": 3046,
      "Ġteprv": 3047,
      "Ġplane": 3048,
      "ĠhÅĻbito": 3049,
      "ĠÃºdo": 3050,
      "Ġesk": 3051,
      "Ġvstal": 3052,
      "tev": 3053,
      "znÃ¡": 3054,
      "ĠbÅĻÃŃ": 3055,
      "Ġoha": 3056,
      "ĠtÅĻetÃŃ": 3057,
      "ĠmraÄį": 3058,
      "lan": 3059,
      "Ġkdos": 3060,
      "vÃ¡t": 3061,
      "Ġnepro": 3062,
      "Ġpodle": 3063,
      "ĠpÅĻÃ¡tel": 3064,
      "Ġjino": 3065,
      "ĠzemÃŃ": 3066,
      "dÃŃÅ¡": 3067,
      "ĠmlÄįÃŃ": 3068,
      "Ġtemno": 3069,
      "Ġkrou": 3070,
      "ĠÅ¾ÃŃti": 3071,
      "ĠvÃ½ch": 3072,
      "ĠlepÅ¡ÃŃ": 3073,
      "ĠstÃ¡la": 3074,
      "snÃ¡": 3075,
      "dnÃ½ch": 3076,
      "Ġhad": 3077,
      "Ġhez": 3078,
      "Ġzapad": 3079,
      "ĠkvÄĽti": 3080,
      "ĠukÃ¡": 3081,
      "ĠtÃŃÅ¾": 3082,
      "ĠÃ¡val": 3083,
      "dci": 3084,
      "Ġudi": 3085,
      "ĠbÄĽÅ¾ÃŃ": 3086,
      "Ġjsa": 3087,
      "rce": 3088,
      "ĠÄįerven": 3089,
      "her": 3090,
      "ÅĻek": 3091,
      "bli": 3092,
      "ĠchvÄĽl": 3093,
      "ĠvÃ½cho": 3094,
      "ĠmÃŃti": 3095,
      "Ġoblak": 3096,
      "domÃŃ": 3097,
      "Ġmati": 3098,
      "ĠytÃŃ": 3099,
      "Ġpoho": 3100,
      "ĠÄĽji": 3101,
      "ĠptÃ¡ci": 3102,
      "Ġamen": 3103,
      "Ġidu": 3104,
      "pem": 3105,
      "zna": 3106,
      "ĠÅĻas": 3107,
      "ĠÄįaro": 3108,
      "ĠÅĻeÄįÃŃ": 3109,
      "Ġpsa": 3110,
      "Ġjdi": 3111,
      "eni": 3112,
      "Ġpotu": 3113,
      "ĠdlouhÃ½": 3114,
      "Ġhvo": 3115,
      "nÄĽn": 3116,
      "ĠÃ½ti": 3117,
      "Ġsami": 3118,
      "ĠstavÃŃ": 3119,
      "Ġspad": 3120,
      "Ġrdce": 3121,
      "ĠdruhÃ©": 3122,
      "ĠÄįlovÄĽka": 3123,
      "Ġast": 3124,
      "Ġola": 3125,
      "Å¡it": 3126,
      "ĠÃºzko": 3127,
      "ĠnoÄįnÃŃ": 3128,
      "ĠtÅ¯": 3129,
      "ĠÃ¡je": 3130,
      "Ġmraky": 3131,
      "Ġtrou": 3132,
      "ĠrudÃ©": 3133,
      "boj": 3134,
      "kvÃŃ": 3135,
      "ĠÅĻi": 3136,
      "Ġstran": 3137,
      "Ġjo": 3138,
      "ĠotÄįe": 3139,
      "ĠjejÃŃm": 3140,
      "Ġid": 3141,
      "Ġnebylo": 3142,
      "Ġsilou": 3143,
      "ĠadÄĽ": 3144,
      "ĠrtÅ¯": 3145,
      "ĠtÄĽle": 3146,
      "ĠnenÃ¡": 3147,
      "Ġzka": 3148,
      "Ġskr": 3149,
      "ĠzÃ¡vi": 3150,
      "ĠÅ¯nÄĽ": 3151,
      "ĠneboÅ¥": 3152,
      "Ġnechci": 3153,
      "lenÃ©": 3154,
      "ĠvzneÅ¡en": 3155,
      "ĠlÃŃbÃ¡": 3156,
      "Ġsled": 3157,
      "Ġvzpo": 3158,
      "ĠiÅ¡e": 3159,
      "Ġzlata": 3160,
      "Ġzrc": 3161,
      "Ġjimi": 3162,
      "ĠivÄĽ": 3163,
      "ĠÃ¡dÃŃ": 3164,
      "ĠkvÄĽtu": 3165,
      "Ġholu": 3166,
      "vÃ½mi": 3167,
      "ĠolÅ¯": 3168,
      "Å¾ila": 3169,
      "ĠsklÃ¡nÃŃ": 3170,
      "Ġbro": 3171,
      "ĠlkÃ¡": 3172,
      "ĠzpÃ¡": 3173,
      "ĠmalÃ¡": 3174,
      "Ġhnu": 3175,
      "ĠbÃŃlÃ½ch": 3176,
      "Ġmoci": 3177,
      "ĠAABBXX": 3178,
      "Ġrozu": 3179,
      "Ġspole": 3180,
      "Ġada": 3181,
      "Ġesy": 3182,
      "Ġhudba": 3183,
      "ĠvÅ¯li": 3184,
      "Ġukou": 3185,
      "ĠpÅ¯lno": 3186,
      "ĠvÄįera": 3187,
      "Ġvesele": 3188,
      "Ġkus": 3189,
      "ĠnÃŃz": 3190,
      "Ġdvou": 3191,
      "ĠbudÃŃ": 3192,
      "ĠhÃ¡j": 3193,
      "Ġrtech": 3194,
      "nak": 3195,
      "sÃŃch": 3196,
      "Ġvzdor": 3197,
      "tno": 3198,
      "Ġohou": 3199,
      "ĠalÃ½": 3200,
      "ĠtÃ¡hne": 3201,
      "ĠrÃ¡je": 3202,
      "ĠÅĻeky": 3203,
      "Ġprud": 3204,
      "ĠÅ¡Ã¡": 3205,
      "ĠeÄįÃŃ": 3206,
      "Ġskon": 3207,
      "ĠÅĪadra": 3208,
      "Ġsty": 3209,
      "fi": 3210,
      "ĠhÃ½": 3211,
      "tÃ¡n": 3212,
      "Ġpes": 3213,
      "ĠknÄĽz": 3214,
      "Ġhod": 3215,
      "ĠÄįty": 3216,
      "ĠblÃŃz": 3217,
      "Äįkem": 3218,
      "ĠÄįet": 3219,
      "rel": 3220,
      "Ġzmat": 3221,
      "ĠsmutnÃ©": 3222,
      "ĠdlÃŃ": 3223,
      "Ġsouse": 3224,
      "Ġvstou": 3225,
      "Ġlili": 3226,
      "ĠÄįist": 3227,
      "ĠbÃ½vÃ¡": 3228,
      "kra": 3229,
      "ĠvÃŃr": 3230,
      "Ġaji": 3231,
      "Ġleb": 3232,
      "Å¡ÃŃch": 3233,
      "cenÃŃ": 3234,
      "ĠÅ¡edi": 3235,
      "tat": 3236,
      "kovÃ©": 3237,
      "ĠuÅ¡": 3238,
      "ĠÃŃka": 3239,
      "ĠrtÃŃ": 3240,
      "Ġkrokem": 3241,
      "ĠkrÃ¡su": 3242,
      "jeÅ¡": 3243,
      "ĠABBAXX": 3244,
      "ĠÃŃny": 3245,
      "Ġsoum": 3246,
      "jas": 3247,
      "vili": 3248,
      "Ġhochu": 3249,
      "ĠmusÃŃm": 3250,
      "Ġzrcad": 3251,
      "Ġnesou": 3252,
      "Ġanu": 3253,
      "ĠbledÃ¡": 3254,
      "ĠbohatÃ½": 3255,
      "ĠnÄĽjak": 3256,
      "Ġnovou": 3257,
      "Ġvar": 3258,
      "Ġvle": 3259,
      "hnul": 3260,
      "Ġkyne": 3261,
      "hÃ¡nÃŃ": 3262,
      "Ġzaz": 3263,
      "Ġnejs": 3264,
      "ĠvÅ¯nÃŃ": 3265,
      "ĠnÄĽkdo": 3266,
      "ĠÄĽty": 3267,
      "Ġak": 3268,
      "ĠoÅ¾i": 3269,
      "lena": 3270,
      "Ġzku": 3271,
      "ĠzvedÃ¡": 3272,
      "ĠÃŃz": 3273,
      "Ġdnem": 3274,
      "ĠÅ¡tÃŃt": 3275,
      "Å¾nou": 3276,
      "dÄĽnÃŃ": 3277,
      "Ġteh": 3278,
      "Ġnebude": 3279,
      "Ġblaha": 3280,
      "hÃ©m": 3281,
      "ĠÃ¡mi": 3282,
      "rie": 3283,
      "bÃ¡ch": 3284,
      "Ġklidu": 3285,
      "ĠohnÄĽm": 3286,
      "ĠchrÃ¡mu": 3287,
      "ĠdÅĻe": 3288,
      "ĠmÄĽst": 3289,
      "lÃ©z": 3290,
      "Ġnaslou": 3291,
      "Ġsyna": 3292,
      "ĠÄįeskÃ½": 3293,
      "Ġlem": 3294,
      "Ġzlatem": 3295,
      "Ġsic": 3296,
      "Ġslovem": 3297,
      "ĠvonÃŃ": 3298,
      "ĠÄĽny": 3299,
      "ĠprostÅĻe": 3300,
      "Äįo": 3301,
      "ĠzlatÃ½ch": 3302,
      "jednou": 3303,
      "Ġkomu": 3304,
      "ĠblÃŃÅ¾ÃŃ": 3305,
      "ĠÅĻÃŃÅ¡e": 3306,
      "ĠdÃ¡lku": 3307,
      "dili": 3308,
      "Ġprost": 3309,
      "Ġvlh": 3310,
      "Ġuti": 3311,
      "Ġabych": 3312,
      "ĠzdÄĽ": 3313,
      "ĠhÅĻmÃŃ": 3314,
      "Ġpope": 3315,
      "rek": 3316,
      "ĠmrtvÃ©": 3317,
      "Ġblesky": 3318,
      "vice": 3319,
      "Ġdni": 3320,
      "Ġhlasy": 3321,
      "Ġedy": 3322,
      "ĠAAXA": 3323,
      "ĠÄĽlÃ©": 3324,
      "Ġstrany": 3325,
      "Ġzmo": 3326,
      "ĠsrÃ¡": 3327,
      "bÃ¡m": 3328,
      "ĠvÃ¡c": 3329,
      "Ġachu": 3330,
      "ĠbÃŃlou": 3331,
      "Ġoty": 3332,
      "ĠÃºsmÄĽvem": 3333,
      "Ġuhu": 3334,
      "Ġuvi": 3335,
      "ĠotcÅ¯": 3336,
      "ÅĪte": 3337,
      "ĠzÃ¡stup": 3338,
      "ĠvyÅ¡el": 3339,
      "ĠpÃ¡nÄĽ": 3340,
      "ĠvroucÃŃ": 3341,
      "ĠelÃŃ": 3342,
      "ĠÃŃku": 3343,
      "Ġposlou": 3344,
      "Å¡Å¥ast": 3345,
      "Ġhosti": 3346,
      "ĠzÅĻÃŃt": 3347,
      "dali": 3348,
      "Ġjab": 3349,
      "ĠpodÃ¡": 3350,
      "lel": 3351,
      "ĠpÅĻÃŃÅ¡e": 3352,
      "nÅ¯m": 3353,
      "ĠÃ¡nu": 3354,
      "ĠsluÅ¾": 3355,
      "ĠtvojÃŃ": 3356,
      "ĠpamÄĽ": 3357,
      "ABBA": 3358,
      "ĠobjetÃŃ": 3359,
      "ĠlesnÃŃ": 3360,
      "ĠÄĽz": 3361,
      "Ġzab": 3362,
      "Ġzle": 3363,
      "ĠvÃ¡l": 3364,
      "Ġana": 3365,
      "Å¾enÃ©": 3366,
      "vÄĽd": 3367,
      "Ġkroky": 3368,
      "ĠpotÄĽ": 3369,
      "ĠABABAB": 3370,
      "ĠmÄĽli": 3371,
      "ĠsmÃŃchu": 3372,
      "jme": 3373,
      "ĠaÅ¡e": 3374,
      "Ġohy": 3375,
      "tala": 3376,
      "Ġmali": 3377,
      "Ġhradu": 3378,
      "Ġvzbu": 3379,
      "benÃŃ": 3380,
      "ĠpsÃ¡": 3381,
      "Ġotci": 3382,
      "Ġtato": 3383,
      "ĠdÃ¡lce": 3384,
      "Ġdali": 3385,
      "hnout": 3386,
      "Ġede": 3387,
      "ĠÄįasy": 3388,
      "ĠopuÅ¡tÄĽ": 3389,
      "kÃ©ho": 3390,
      "ĠotÄĽ": 3391,
      "jÃŃce": 3392,
      "Äıte": 3393,
      "ĠvÃ©": 3394,
      "mnÄĽl": 3395,
      "Ġseve": 3396,
      "ĠslyÅ¡et": 3397,
      "ĠcestÄĽ": 3398,
      "ĠandÄĽ": 3399,
      "ĠsladkÃ¡": 3400,
      "ĠÃ½lÃŃ": 3401,
      "Ġoky": 3402,
      "ĠÅĻÃŃÅ¡": 3403,
      "Ġoken": 3404,
      "ten": 3405,
      "ĠklesÃ¡": 3406,
      "Ġvytr": 3407,
      "Ġbolesti": 3408,
      "Ġechu": 3409,
      "Ġvze": 3410,
      "ĠpÃŃs": 3411,
      "ckÃ½ch": 3412,
      "Ġpaprsk": 3413,
      "Ġkmet": 3414,
      "Ġobli": 3415,
      "Ġvola": 3416,
      "bel": 3417,
      "ĠtoÄįÃŃ": 3418,
      "Ġplno": 3419,
      "Ġmilu": 3420,
      "Ġvypra": 3421,
      "ĠnenÃ¡vi": 3422,
      "Ġvp": 3423,
      "Ġtva": 3424,
      "ĠvisÃŃ": 3425,
      "dosti": 3426,
      "ĠmyslÃŃm": 3427,
      "ĠvrÃ¡tÃŃ": 3428,
      "diÅ¾": 3429,
      "Ġpoc": 3430,
      "ĠeÅ¡tÄĽ": 3431,
      "ĠvÃŃry": 3432,
      "vanÃ©": 3433,
      "bek": 3434,
      "ĠmÃŃsta": 3435,
      "ĠzprÃ¡": 3436,
      "ĠvÃ¡Å¡nÃŃ": 3437,
      "ĠzpÃ¡tky": 3438,
      "Ġsten": 3439,
      "ĠzvÄĽst": 3440,
      "rka": 3441,
      "Ġobou": 3442,
      "ĠlÃŃto": 3443,
      "hlÃ½": 3444,
      "Ġpol": 3445,
      "Ġutr": 3446,
      "Ġtuto": 3447,
      "zek": 3448,
      "ĠnavÅ¾dy": 3449,
      "ĠvidÄĽt": 3450,
      "Ġcu": 3451,
      "ĠvdÄĽk": 3452,
      "rnÃ½ch": 3453,
      "ĠskÅĻÃŃ": 3454,
      "Ġiku": 3455,
      "nkou": 3456,
      "ĠnovÃ¡": 3457,
      "ĠnemÃ¡m": 3458,
      "ĠblÃŃÅ¾e": 3459,
      "Ġsynu": 3460,
      "Ġkonce": 3461,
      "ĠtÄĽÅ¾kÃ½": 3462,
      "Ġmlhy": 3463,
      "ĠjinÃ½ch": 3464,
      "Ġenu": 3465,
      "Ġcizi": 3466,
      "ĠcÃŃsaÅĻ": 3467,
      "Ġavil": 3468,
      "ĠvÅ¡emu": 3469,
      "Ġpode": 3470,
      "ĠevÃŃ": 3471,
      "Ġtichou": 3472,
      "Ġpek": 3473,
      "Å¾ÃŃÅ¡": 3474,
      "ĠiÄįky": 3475,
      "ĠvÅ¡a": 3476,
      "ĠÅ¾alo": 3477,
      "Ġluh": 3478,
      "Ġama": 3479,
      "zra": 3480,
      "ÄįnÃ½ch": 3481,
      "Ġznal": 3482,
      "ĠÃ¡da": 3483,
      "Ġchlu": 3484,
      "ĠchlÃ©b": 3485,
      "pÄĽt": 3486,
      "ĠvÅĻa": 3487,
      "Ġsoumrak": 3488,
      "ĠjasnÃ½": 3489,
      "ĠestÃŃ": 3490,
      "Ġtvor": 3491,
      "Ġadne": 3492,
      "ĠpÃ¡na": 3493,
      "Ġmed": 3494,
      "ĠnejvÃŃ": 3495,
      "ĠÄįernÃ½ch": 3496,
      "nitÅĻ": 3497,
      "Äįa": 3498,
      "ĠasÅ¯": 3499,
      "Ġkolo": 3500,
      "Ġvelkou": 3501,
      "Ġmatko": 3502,
      "jÃŃmÃ¡": 3503,
      "ĠkÅĻesÅ¥": 3504,
      "ĠsnÃ¡ch": 3505,
      "Ġchcem": 3506,
      "pro": 3507,
      "hlo": 3508,
      "ĠÄįernÃ¡": 3509,
      "ĠpatÅĻÃŃ": 3510,
      "Ġdokud": 3511,
      "ĠÃŃnÄĽ": 3512,
      "ĠlÃŃci": 3513,
      "Ġlehce": 3514,
      "Ġlad": 3515,
      "Ġjakoby": 3516,
      "Ġplach": 3517,
      "ĠÄĽte": 3518,
      "ĠÅ¾ene": 3519,
      "ĠÃŃlÃ½": 3520,
      "ĠvÃŃte": 3521,
      "ĠkoÅĻi": 3522,
      "ĠÅ¡lech": 3523,
      "ĠbledÃ©": 3524,
      "Ġroj": 3525,
      "Å¡ly": 3526,
      "ĠdÃŃk": 3527,
      "ĠXXA": 3528,
      "Ġivo": 3529,
      "tnou": 3530,
      "ĠlÃŃp": 3531,
      "ĠrÅ¯Å¾i": 3532,
      "ĠtmÃ¡ch": 3533,
      "Ġbohy": 3534,
      "Ġato": 3535,
      "hlu": 3536,
      "tne": 3537,
      "Ġeme": 3538,
      "Ġeti": 3539,
      "Ġvsi": 3540,
      "Ġosla": 3541,
      "ĠzlÃ¡": 3542,
      "ĠjevÃŃ": 3543,
      "Ġztich": 3544,
      "ĠcÃŃrk": 3545,
      "Å¾em": 3546,
      "ĠtichÃ¡": 3547,
      "ĠvraÅ¾": 3548,
      "Ġdoba": 3549,
      "ĠhuÄįÃŃ": 3550,
      "Ġproro": 3551,
      "ĠkoÅĻen": 3552,
      "ĠenÃ½ch": 3553,
      "ĠÃŃla": 3554,
      "ĠdÄĽvÄįe": 3555,
      "Ġdouf": 3556,
      "Ġsvato": 3557,
      "slu": 3558,
      "ĠÅ¾alu": 3559,
      "ĠmrtvÃ½ch": 3560,
      "Ġdaleko": 3561,
      "Ġsbo": 3562,
      "Ġsnech": 3563,
      "Ġvzduchu": 3564,
      "Ġhora": 3565,
      "Ġvrah": 3566,
      "ĠzdravÃŃ": 3567,
      "tkem": 3568,
      "Ġzlatou": 3569,
      "Ġbyst": 3570,
      "ĠvÃŃno": 3571,
      "Ġkost": 3572,
      "ĠokÅ¯": 3573,
      "Ġpoch": 3574,
      "Ġahy": 3575,
      "ĠÃºÅ¾": 3576,
      "ĠÃ¡nÃŃm": 3577,
      "Ġpoled": 3578,
      "Ġstalo": 3579,
      "esie": 3580,
      "liv": 3581,
      "Ġsnil": 3582,
      "Å¡to": 3583,
      "Ġety": 3584,
      "ĠÃ¡Å¾e": 3585,
      "Ġsklen": 3586,
      "ĠhrÅ¯zou": 3587,
      "Ġvet": 3588,
      "Ġkole": 3589,
      "kojen": 3590,
      "ĠednÃŃ": 3591,
      "ĠÃ¡tky": 3592,
      "ĠkvÄĽtem": 3593,
      "ĠdobrÃ¡": 3594,
      "ĠzlÃ½": 3595,
      "Ġzma": 3596,
      "ĠloÅ¾e": 3597,
      "Ġzpu": 3598,
      "ĠÄįÃŃÅ¡": 3599,
      "vÃ¡Å¡": 3600,
      "ĠsmÄĽle": 3601,
      "ĠÄįistÃ©": 3602,
      "vky": 3603,
      "livÃ½": 3604,
      "Ġkdesi": 3605,
      "Ġsmutku": 3606,
      "ĠstÃ©": 3607,
      "ĠvÅ¡ÃŃ": 3608,
      "ĠtemnÃ©": 3609,
      "ĠzÃŃrÃ¡": 3610,
      "Ġtichu": 3611,
      "ĠsmÃ¡l": 3612,
      "tÅĻÃŃ": 3613,
      "ĠpoÄįÃŃ": 3614,
      "ĠÃŃky": 3615,
      "kost": 3616,
      "Ġctnost": 3617,
      "ĠrannÃŃ": 3618,
      "ĠpÅĻÃŃtel": 3619,
      "ĠaÅ¡ÃŃ": 3620,
      "ĠzlÃ©": 3621,
      "Ġatky": 3622,
      "ĠÄĽna": 3623,
      "Ġobzor": 3624,
      "Ġoda": 3625,
      "ĠvÄĽci": 3626,
      "Ġbleskem": 3627,
      "padÃ¡": 3628,
      "ĠsmutnÃ½": 3629,
      "tnÃ¡": 3630,
      "ĠpÅĻedu": 3631,
      "ĠÄĽÅĻÃŃ": 3632,
      "ĠrÃ¡nu": 3633,
      "Ġmlha": 3634,
      "nikÃ¡": 3635,
      "Ġlidstvo": 3636,
      "ĠpromÄĽ": 3637,
      "Ġbolu": 3638,
      "Ġraj": 3639,
      "Ġsluncem": 3640,
      "Ġesa": 3641,
      "ĠÄĽtÅ¯": 3642,
      "Ġdechem": 3643,
      "ĠbÃ¡j": 3644,
      "ĠmÄĽj": 3645,
      "Ġslune": 3646,
      "ĠbloudÃŃ": 3647,
      "han": 3648,
      "Ġstal": 3649,
      "Ġvoda": 3650,
      "ĠjasnÄĽ": 3651,
      "Ġvzp": 3652,
      "ĠzÃ¡pad": 3653,
      "ĠÃ¡sy": 3654,
      "Ġpomoc": 3655,
      "Ġletu": 3656,
      "Ġstav": 3657,
      "Ġcosi": 3658,
      "Ġnaposled": 3659,
      "skne": 3660,
      "ĠvÅ¡ecka": 3661,
      "BB": 3662,
      "mal": 3663,
      "amÄĽ": 3664,
      "Ġvzde": 3665,
      "Ġmech": 3666,
      "ĠstaÅĻe": 3667,
      "Ġorem": 3668,
      "ĠtÄĽÅ¾ce": 3669,
      "Ġnevz": 3670,
      "Ġnikde": 3671,
      "ĠÅĻekla": 3672,
      "ĠoÅ¾e": 3673,
      "vÃ¡ch": 3674,
      "ĠdÄĽje": 3675,
      "ĠkÅĻik": 3676,
      "Ġstuden": 3677,
      "tvo": 3678,
      "ĠzlÃŃ": 3679,
      "ĠÃŃhÃ¡": 3680,
      "mek": 3681,
      "Ġhrdi": 3682,
      "Ġzdali": 3683,
      "ĠvÄĽÅĻÃŃ": 3684,
      "Ġesla": 3685,
      "Ġvnu": 3686,
      "ĠmÃ¡te": 3687,
      "hnÄĽ": 3688,
      "Ġsvad": 3689,
      "Ġvin": 3690,
      "ĠtÅĻese": 3691,
      "ĠbÄĽd": 3692,
      "Å¾enÃ½": 3693,
      "ĠvÅ¯ni": 3694,
      "Ġdrob": 3695,
      "Ġpochy": 3696,
      "ĠumÃŃrÃ¡": 3697,
      "Ġrci": 3698,
      "myÅ¡": 3699,
      "hajÃŃ": 3700,
      "ĠvolnÄĽ": 3701,
      "ĠdÃŃlo": 3702,
      "ĠosÃŃ": 3703,
      "Ġfra": 3704,
      "Ġvzpla": 3705,
      "Ġedne": 3706,
      "ĠjimÅ¾": 3707,
      "ÄįnÃ½m": 3708,
      "ĠpoznÃ¡": 3709,
      "vel": 3710,
      "menÃŃ": 3711,
      "lenÃ½": 3712,
      "Äįiny": 3713,
      "nÃ©mu": 3714,
      "ĠplÃ©": 3715,
      "Ġlev": 3716,
      "ckÃ¡": 3717,
      "Ġprahu": 3718,
      "Ġjal": 3719,
      "ĠbratÅĻi": 3720,
      "Ġkvetou": 3721,
      "lovÃ©": 3722,
      "stupu": 3723,
      "cenÃ©": 3724,
      "Ġneroz": 3725,
      "ĠpÅ¯va": 3726,
      "tili": 3727,
      "Ġpanen": 3728,
      "ĠpamÃ¡": 3729,
      "Ġskle": 3730,
      "tÃ¡nÃŃ": 3731,
      "lejÅ¡ÃŃ": 3732,
      "Ġjeli": 3733,
      "ĠÅ¡iro": 3734,
      "Ġvlna": 3735,
      "ĠdÅĻÃŃmÃ¡": 3736,
      "Ġitu": 3737,
      "ĠÅ¾ebrÃ¡": 3738,
      "ĠhalÃŃ": 3739,
      "ter": 3740,
      "ĠenÃŃm": 3741,
      "Äįce": 3742,
      "Ġmluvil": 3743,
      "ĠlidskÃ½": 3744,
      "ĠnemÅ¯Å¾e": 3745,
      "ĠvyprÃ¡": 3746,
      "ĠmnohÃ©": 3747,
      "dru": 3748,
      "ĠleÅ¾": 3749,
      "Ġznak": 3750,
      "ĠmlÃ½": 3751,
      "Ġatu": 3752,
      "Ġkom": 3753,
      "ĠdÃŃvky": 3754,
      "Ġebou": 3755,
      "Å¡ko": 3756,
      "ĠmÅĻÃŃ": 3757,
      "nali": 3758,
      "ĠbÃ¡snÃŃk": 3759,
      "Ġsvatou": 3760,
      "ĠzbraÅĪ": 3761,
      "mat": 3762,
      "ĠprosÃŃm": 3763,
      "Ġzat": 3764,
      "Ġjakou": 3765,
      "ĠocÃŃ": 3766,
      "Ġstane": 3767,
      "ĠbÃ½val": 3768,
      "ĠumÄĽnÃŃ": 3769,
      "ĠemnÄĽ": 3770,
      "ĠprovÃ¡": 3771,
      "Ġnajde": 3772,
      "Ġzraku": 3773,
      "ĠalÃ¡": 3774,
      "kÃ¡n": 3775,
      "kry": 3776,
      "sl": 3777,
      "ĠÅĪadrech": 3778,
      "ĠnepÅĻe": 3779,
      "vci": 3780,
      "ÅĻÃŃk": 3781,
      "Ġmatce": 3782,
      "Ġnitru": 3783,
      "Ġyje": 3784,
      "ĠvÄĽz": 3785,
      "Ġrad": 3786,
      "bec": 3787,
      "Ġkouzel": 3788,
      "Ġud": 3789,
      "Ġvyvo": 3790,
      "ĠhrdÄĽ": 3791,
      "ĠelÃ¡": 3792,
      "Ġjitra": 3793,
      "ĠvÃŃra": 3794,
      "ĠrytÃŃÅĻ": 3795,
      "Ġula": 3796,
      "ĠknÄĽÅ¾": 3797,
      "ĠÃ¡vu": 3798,
      "gu": 3799,
      "ĠdÄĽcko": 3800,
      "ĠnemÄĽl": 3801,
      "Ġdot": 3802,
      "ĠveÅ¡": 3803,
      "ĠztrÃ¡cÃŃ": 3804,
      "rÃ¡l": 3805,
      "Ġudy": 3806,
      "ĠplÃ¡po": 3807,
      "Ġunaven": 3808,
      "Ġomy": 3809,
      "ĠitÄĽ": 3810,
      "XXA": 3811,
      "Ġkoho": 3812,
      "ĠpÅĻÃŃsa": 3813,
      "Ġplna": 3814,
      "ĠnÃ¡dher": 3815,
      "vech": 3816,
      "znÃ½": 3817,
      "ĠÄĽvu": 3818,
      "Ġmodra": 3819,
      "ĠradostÃŃ": 3820,
      "ĠdÃ½Å¡e": 3821,
      "ĠkolÃ©": 3822,
      "Ġpouta": 3823,
      "Ġvad": 3824,
      "ĠmÅ¯Å¾": 3825,
      "Ġzhou": 3826,
      "ĠdruÅ¾": 3827,
      "zuje": 3828,
      "ĠÅ¾a": 3829,
      "stat": 3830,
      "Ġvzduchem": 3831,
      "ĠvaÅ¡ÃŃ": 3832,
      "kÅ¯v": 3833,
      "ĠbledÃ½": 3834,
      "ĠhledÄĽl": 3835,
      "ĠÅ¾enou": 3836,
      "Ġneod": 3837,
      "ĠÅ¡t": 3838,
      "ĠpozdÄĽ": 3839,
      "ĠtÄĽÅ¾ko": 3840,
      "vrÃ¡tÃŃ": 3841,
      "Ġnach": 3842,
      "ĠsvÄĽty": 3843,
      "chom": 3844,
      "ĠÅ¾Ã¡dnÃ©": 3845,
      "ĠmlÄįky": 3846,
      "Ġusta": 3847,
      "Ġsladkou": 3848,
      "ĠÃ©sti": 3849,
      "Ġpodzim": 3850,
      "ckni": 3851,
      "ĠbudiÅ¾": 3852,
      "telÃ©": 3853,
      "ĠvÄĽÄįnosti": 3854,
      "ĠsmÄĽje": 3855,
      "Ġklas": 3856,
      "asu": 3857,
      "ovÃ©": 3858,
      "pot": 3859,
      "ĠkaÅ¾dÃ©m": 3860,
      "Ġluny": 3861,
      "Å¡enÃ©": 3862,
      "ĠÄĽtÄĽ": 3863,
      "Ġmimo": 3864,
      "Ġodkud": 3865,
      "ĠupomÃŃ": 3866,
      "ĠrokÅ¯": 3867,
      "Ġmaje": 3868,
      "Ġchvat": 3869,
      "Ġeden": 3870,
      "tlo": 3871,
      "ĠlÃŃbe": 3872,
      "Ġly": 3873,
      "Ġprst": 3874,
      "Äįnost": 3875,
      "voucÃŃ": 3876,
      "ÅĻÃ¡d": 3877,
      "Ġzvuky": 3878,
      "Ġdraho": 3879,
      "Ġnebem": 3880,
      "Ġpozdrav": 3881,
      "Ġchleba": 3882,
      "kly": 3883,
      "Ġstarou": 3884,
      "Ġhluk": 3885,
      "Ġostat": 3886,
      "ĠstÄĽny": 3887,
      "ĠvÃ¡Å¡nÄĽ": 3888,
      "Ġplod": 3889,
      "Ã¡l": 3890,
      "ĠnovÃ½ch": 3891,
      "ĠpohÅĻ": 3892,
      "Ġbudem": 3893,
      "Ġnesmr": 3894,
      "Ġmari": 3895,
      "ene": 3896,
      "stro": 3897,
      "ĠptÃ¡Äįe": 3898,
      "ĠnaÅ¡el": 3899,
      "ĠklÃ¡Å¡te": 3900,
      "ĠdÃŃvÄįÃŃ": 3901,
      "ĠpÄĽknÄĽ": 3902,
      "Ġahu": 3903,
      "Ġstez": 3904,
      "Ġhraje": 3905,
      "BX": 3906,
      "Ġatou": 3907,
      "Ġslovy": 3908,
      "Ġzvony": 3909,
      "ĠsnÄĽhu": 3910,
      "ĠĠĠ": 3911,
      "ĠhrÃ¡l": 3912,
      "ĠÄĽku": 3913,
      "Ġadla": 3914,
      "Ġdosta": 3915,
      "peÅ¾": 3916,
      "Ġjindy": 3917,
      "rav": 3918,
      "ĠtemnÄĽ": 3919,
      "ĠÅ¾ivotem": 3920,
      "tly": 3921,
      "vek": 3922,
      "Ġaha": 3923,
      "Ġzdr": 3924,
      "ĠsbÃŃ": 3925,
      "Ġzar": 3926,
      "Ġlidi": 3927,
      "ĠpoÅ¾Ã¡": 3928,
      "Ġopat": 3929,
      "ĠtmavÃ©": 3930,
      "ĠjÃŃti": 3931,
      "ĠplÃ¡Äįi": 3932,
      "Ġdobu": 3933,
      "Ġhorou": 3934,
      "Ġhroby": 3935,
      "Ġemu": 3936,
      "ĠmocnÄĽ": 3937,
      "XABB": 3938,
      "ĠbohÅ¯": 3939,
      "Ġivou": 3940,
      "ĠdÃ¡ti": 3941,
      "ĠbolÃŃ": 3942,
      "ĠvÃŃna": 3943,
      "Ġece": 3944,
      "ĠtajemstvÃŃ": 3945,
      "Ġesu": 3946,
      "nkem": 3947,
      "Ġbod": 3948,
      "ĠmocÃŃ": 3949,
      "bila": 3950,
      "Ġozdo": 3951,
      "Ġber": 3952,
      "ĠnÃ©": 3953,
      "ĠhnÃ¡": 3954,
      "ĠjinÃŃ": 3955,
      "?...": 3956,
      "Ġjan": 3957,
      "ĠzÃ¡vra": 3958,
      "Ġlodi": 3959,
      "Ġzkve": 3960,
      "ĠcitÅ¯": 3961,
      "ĠneÅ¡Å¥ast": 3962,
      "Ġjazyk": 3963,
      "ĠÃ½m": 3964,
      "ĠubÃŃ": 3965,
      "ĠposmÄĽ": 3966,
      "ĠlÅ¯Å¾": 3967,
      "ĠnÄĽkde": 3968,
      "ĠchÃ½lÃŃ": 3969,
      "mÃŃr": 3970,
      "ĠspÃ¡t": 3971,
      "Ġhym": 3972,
      "ĠvzÃŃ": 3973,
      "Ġjat": 3974,
      "blÃŃ": 3975,
      "Ġmatku": 3976,
      "ĠprÃ¡vo": 3977,
      "Ġpoznal": 3978,
      "Ġpromlu": 3979,
      "ĠsÃŃÅĪ": 3980,
      "ot": 3981,
      "Ġspraved": 3982,
      "ĠkoneÄįnÄĽ": 3983,
      "ĠveÄįera": 3984,
      "ĠeÄįe": 3985,
      "Ġkos": 3986,
      "ĠsmrtÃŃ": 3987,
      "dnÃ½m": 3988,
      "stej": 3989,
      "Ġfran": 3990,
      "livÃ©": 3991,
      "ĠzpÃŃval": 3992,
      "ĠvelikÃ½": 3993,
      "Ġkade": 3994,
      "Ġbarev": 3995,
      "Å¡a": 3996,
      "ĠÃ¡se": 3997,
      "Ġeta": 3998,
      "ĠplÃ¡Å¡Å¥": 3999,
      "Ġzal": 4000,
      "ĠsvÄĽtÅ¯": 4001,
      "ĠdÄĽji": 4002,
      "nuly": 4003,
      "Ġholubi": 4004,
      "ĠpÃŃt": 4005,
      "Ġvelmi": 4006,
      "ĠpravÃ½": 4007,
      "ĠrÃ½": 4008,
      "ĠnÄĽÅ¾": 4009,
      "ĠkÅĻÃŃÅ¾e": 4010,
      "Ġvznes": 4011,
      "nese": 4012,
      "ĠpÅĻÃ¡nÃŃ": 4013,
      "tud": 4014,
      "ĠvÄĽtru": 4015,
      "ilÃŃ": 4016,
      "Ġskoro": 4017,
      "Ġkristu": 4018,
      "ĠhorÃ¡ch": 4019,
      "Ġunce": 4020,
      "Ġukry": 4021,
      "Ġnemoc": 4022,
      "Ġmate": 4023,
      "ĠsplÃ½vÃ¡": 4024,
      "bla": 4025,
      "Ġneho": 4026,
      "ĠÄįnÃŃ": 4027,
      "Ġpri": 4028,
      "ĠynÃŃ": 4029,
      "ÄįkÃ½": 4030,
      "ĠnechÃ¡": 4031,
      "ĠzapomnÄĽ": 4032,
      "ĠtvÅ¯": 4033,
      "ĠÃ¡Å¾ÃŃ": 4034,
      "ĠpÅĻipra": 4035,
      "pila": 4036,
      "Ġelem": 4037,
      "ÅĻenÃ½": 4038,
      "Ġnoha": 4039,
      "Ġmili": 4040,
      "Ġvichr": 4041,
      "Ġvzru": 4042,
      "Ġzapomen": 4043,
      "ĠmeÄįem": 4044,
      "lec": 4045,
      "ĠicÃŃ": 4046,
      "Ġmrou": 4047,
      "ĠdivÃ½": 4048,
      "Ġuhy": 4049,
      "ĠplÃ¡l": 4050,
      "sle": 4051,
      "Ġdlu": 4052,
      "nÄĽnÃŃ": 4053,
      "ĠstaÄįÃŃ": 4054,
      "Ġnecha": 4055,
      "Ġebi": 4056,
      "ĠvÄĽÅ¾e": 4057,
      "ĠilÃ©": 4058,
      "slav": 4059,
      "ĠpÅĻÃŃval": 4060,
      "ĠÅ¡pat": 4061,
      "ĠsmÄĽs": 4062,
      "ĠdivnÃ©": 4063,
      "ĠnÃ¡ruÄįÃŃ": 4064,
      "Ġnejvy": 4065,
      "ĠrudÃ½": 4066,
      "ĠmÃ©mu": 4067,
      "Ġchod": 4068,
      "Ġoc": 4069,
      "Ġhlav": 4070,
      "ĠslavnÃ½": 4071,
      "Äįte": 4072,
      "Ġzima": 4073,
      "ĠusmÃ¡": 4074,
      "ĠkaÅ¾dÃ½m": 4075,
      "kva": 4076,
      "kaly": 4077,
      "ĠhrÅ¯zy": 4078,
      "Ġbrou": 4079,
      "Ġazu": 4080,
      "Ġpovo": 4081,
      "viti": 4082,
      "Ġpust": 4083,
      "ĠvÅ¡ickni": 4084,
      "ĠpÃ¡lÃŃ": 4085,
      "hÃ¡ch": 4086,
      "kovi": 4087,
      "Ġkdybych": 4088,
      "ĠptaÄįÃŃ": 4089,
      "jdu": 4090,
      "ĠvÅ¡ady": 4091,
      "pÃ©": 4092,
      "ĠanÃ¡": 4093,
      "Ġvykou": 4094,
      "Ġpano": 4095,
      "Ġplnou": 4096,
      "Ġara": 4097,
      "ĠvidÃŃÅ¡": 4098,
      "Ġnesmrtel": 4099,
      "ÄįkÅ¯": 4100,
      "ÄįÅ¯": 4101,
      "Ġplen": 4102,
      "ĠvojÃ¡": 4103,
      "ĠstÃŃnÅ¯": 4104,
      "ĠvÄĽn": 4105,
      "cenÃ½": 4106,
      "Ġzkou": 4107,
      "koj": 4108,
      "ĠnosÃŃ": 4109,
      "Ġpadne": 4110,
      "ĠtmÄĽ": 4111,
      "zÃ½": 4112,
      "pce": 4113,
      "ĠmeÄįe": 4114,
      "Ġlesem": 4115,
      "ĠÅ¡pi": 4116,
      "Ġstranou": 4117,
      "ga": 4118,
      "ĠvÄĽtvÃŃ": 4119,
      "ĠhrÃ¡t": 4120,
      "ĠslzÃŃ": 4121,
      "ĠslavnÄĽ": 4122,
      "Ġdavy": 4123,
      "ĠschvÃ¡": 4124,
      "ĠtÃŃÅ¾ÃŃ": 4125,
      "ĠnÄĽmÃ½": 4126,
      "ĠÃ¡ji": 4127,
      "ĠÄĽvy": 4128,
      "ĠupÃŃ": 4129,
      "ĠÃŃseÅĪ": 4130,
      "ĠdÄĽc": 4131,
      "ĠrodÃŃ": 4132,
      "tÅĻ": 4133,
      "Ġjitro": 4134,
      "Ġdceru": 4135,
      "snÄĽjÅ¡ÃŃ": 4136,
      "ĠzÅ¯stal": 4137,
      "ĠtrÅ¯n": 4138,
      "ĠmladÃŃ": 4139,
      "ĠÅĻeka": 4140,
      "ĠosamÄĽ": 4141,
      "Ġpropast": 4142,
      "ĠobÄĽÅ¥": 4143,
      "Ġhmo": 4144,
      "Ġkrvi": 4145,
      "bro": 4146,
      "Ġdok": 4147,
      "ĠozvÄĽ": 4148,
      "Ġpoklad": 4149,
      "chod": 4150,
      "ĠzkÃ¡": 4151,
      "ĠABA": 4152,
      "zpe": 4153,
      "Ġplou": 4154,
      "ĠejÅ¡ÃŃ": 4155,
      "covÃ©": 4156,
      "ena": 4157,
      "ĠstÅ¯j": 4158,
      "Ġmusil": 4159,
      "ĠazÃŃ": 4160,
      "ĠdnÃŃ": 4161,
      "ĠlidskÃ½ch": 4162,
      "Ġuji": 4163,
      "ĠXAXABB": 4164,
      "Ġprudce": 4165,
      "Å¾et": 4166,
      "Ġnejsem": 4167,
      "ĠvÄĽnec": 4168,
      "ĠÅĪÃ¡": 4169,
      "Ġdruhdy": 4170,
      "ĠÃŃÅĻÃŃ": 4171,
      "lÃ©tÃ¡": 4172,
      "ĠspÄĽch": 4173,
      "osti": 4174,
      "Ġucho": 4175,
      "Ġosi": 4176,
      "Ġtvoji": 4177,
      "ĠÄĽk": 4178,
      "Ġbit": 4179,
      "ĠdlanÃŃ": 4180,
      "Ġmramo": 4181,
      "Ġkryje": 4182,
      "ĠnepÅĻÃ¡tel": 4183,
      "Ġspu": 4184,
      "ĠÅĻetÄĽ": 4185,
      "ĠposlÃ©z": 4186,
      "Ġochu": 4187,
      "rajÃŃ": 4188,
      "ĠÃŃsnÃŃ": 4189,
      "Ġvine": 4190,
      "nilo": 4191,
      "ĠtajÃŃ": 4192,
      "Ġulo": 4193,
      "snou": 4194,
      "ĠudÃ©": 4195,
      "lÃ¡ch": 4196,
      "ge": 4197,
      "vÅ¡e": 4198,
      "Ġproudy": 4199,
      "Ġca": 4200,
      "ĠtvoÅĻÃŃ": 4201,
      "ĠpodÃŃ": 4202,
      "Ġhlubin": 4203,
      "ĠeÄįi": 4204,
      "Ġzacho": 4205,
      "ÅĻad": 4206,
      "ĠmÄĽstÄĽ": 4207,
      "ĠslavnÃ©": 4208,
      "Ġkouzlo": 4209,
      "Å¡ak": 4210,
      "ĠvÅ¯dce": 4211,
      "ĠrÅ¯z": 4212,
      "Ġvzdych": 4213,
      "Ġnapl": 4214,
      "Ġlisty": 4215,
      "Ġprapor": 4216,
      "ĠitÃ¡": 4217,
      "ĠAXXA": 4218,
      "ĠblÃŃzko": 4219,
      "ĠÄįase": 4220,
      "ĠjÃ¡so": 4221,
      "Ġlaho": 4222,
      "ĠoÄįima": 4223,
      "ĠÃºdolÃŃ": 4224,
      "Ġdlouhou": 4225,
      "ĠduchÅ¯": 4226,
      "ĠkvÃ©": 4227,
      "dro": 4228,
      "Ġvane": 4229,
      "Ġpora": 4230,
      "Ġlok": 4231,
      "ĠvrÃ¡til": 4232,
      "cu": 4233,
      "Ġlen": 4234,
      "ĠvlasÅ¯": 4235,
      "Ġoknem": 4236,
      "Å¡enÃ½": 4237,
      "ĠdlouhÃ¡": 4238,
      "Ġzmizel": 4239,
      "skal": 4240,
      "sÃ½": 4241,
      "ĠtuÅ¡ÃŃ": 4242,
      "Ġatem": 4243,
      "ĠinÃ½": 4244,
      "asa": 4245,
      "ĠÄįervÃ¡n": 4246,
      "ĠÅĻÃŃtÃŃ": 4247,
      "ĠskÃ¡la": 4248,
      "vosti": 4249,
      "Ġpouti": 4250,
      "Ġ20": 4251,
      "ĠvznÄĽ": 4252,
      "ĠchladnÃ©": 4253,
      "ĠdlanÄĽ": 4254,
      "Ġtkli": 4255,
      "Ġeba": 4256,
      "Å¡o": 4257,
      "ĠÅ¾es": 4258,
      "ĠokÃ©": 4259,
      "ĠprÃ¡va": 4260,
      "ĠtemnÃ½": 4261,
      "die": 4262,
      "ĠzpÄĽvu": 4263,
      "ĠdÃ©Å¡Å¥": 4264,
      "ĠprostÅĻed": 4265,
      "Ġprokle": 4266,
      "Ġodil": 4267,
      "Ġyly": 4268,
      "ĠmÅ¾i": 4269,
      "cuje": 4270,
      "vede": 4271,
      "sila": 4272,
      "ĠatÅĻÃŃ": 4273,
      "Ġakem": 4274,
      "Ġvzlet": 4275,
      "ĠvÃŃtÄĽzstvÃŃ": 4276,
      "Ġhon": 4277,
      "ĠkrÃ¡Äįel": 4278,
      "ĠhnÄĽvu": 4279,
      "ĠÄįemu": 4280,
      "ĠsamÃ©": 4281,
      "skla": 4282,
      "vanÃ½": 4283,
      "ĠÄįistÃ½": 4284,
      "ĠvelkÃ½ch": 4285,
      "ĠmotÃ½l": 4286,
      "ĠatÄĽ": 4287,
      "enÄĽ": 4288,
      "Ġvtip": 4289,
      "Ġesti": 4290,
      "ĠjÃ¡sa": 4291,
      "ĠsprÃ¡": 4292,
      "letÄĽ": 4293,
      "ost": 4294,
      "Ġadou": 4295,
      "Ġovem": 4296,
      "zÃŃch": 4297,
      "Ġvou": 4298,
      "dni": 4299,
      "ĠavÅ¡ak": 4300,
      "Ġstolu": 4301,
      "Ã¡n": 4302,
      "ĠdÃŃval": 4303,
      "Ġnebezpe": 4304,
      "Å¡le": 4305,
      "ĠÃ¡hy": 4306,
      "ĠnadÄĽj": 4307,
      "ĠtrÃ¡vÄĽ": 4308,
      "zÃ¡ch": 4309,
      "pky": 4310,
      "ĠchudÃ©": 4311,
      "Ġtehdy": 4312,
      "ĠikÃ¡": 4313,
      "Ġbral": 4314,
      "Ġzbled": 4315,
      "Ġvzly": 4316,
      "Ġvzte": 4317,
      "rÃ©ho": 4318,
      "ÅĪat": 4319,
      "ĠmyÅ¡lenky": 4320,
      "dovÃ©": 4321,
      "ĠutÄĽ": 4322,
      "Ġkolik": 4323,
      "ĠÄįasÅ¯": 4324,
      "ĠdrÅ¾ÃŃ": 4325,
      "ĠpalÃ¡": 4326,
      "ĠjinÃ¡": 4327,
      "Ġkout": 4328,
      "ĠkÅĻÃŃdel": 4329,
      "ĠiÄįka": 4330,
      "Ġest": 4331,
      "Ġfan": 4332,
      "Ġzdvih": 4333,
      "Ġsnes": 4334,
      "ĠnadÄĽjÃŃ": 4335,
      "ĠdeÅ¡tÄĽ": 4336,
      "vÅ¯r": 4337,
      "ĠbdÃŃ": 4338,
      "ĠÃŃna": 4339,
      "ĠstraÅ¡": 4340,
      "Ġora": 4341,
      "ĠstÅ¯l": 4342,
      "ĠÃŃcÃŃch": 4343,
      "Ġtri": 4344,
      "ĠznÃ¡Å¡": 4345,
      "ony": 4346,
      "lÃ¡k": 4347,
      "ĠvelkÃ½m": 4348,
      "Å¾ili": 4349,
      "ĠaÅĻÃŃ": 4350,
      "Ġsve": 4351,
      "Ġzaho": 4352,
      "ĠÅ¡edÃ©": 4353,
      "ĠkÅ¯ÅĪ": 4354,
      "chÃ¡ch": 4355,
      "ĠzdrÃ¡v": 4356,
      "Ġstopy": 4357,
      "ĠbratÅĻe": 4358,
      "Ġvyr": 4359,
      "Ġtaky": 4360,
      "Ġnaho": 4361,
      "ĠvzrÅ¯": 4362,
      "ĠÅ¡eru": 4363,
      "Ġhed": 4364,
      "ĠznamenÃŃ": 4365,
      "ĠchovÃ¡": 4366,
      "ĠtÃ¡hnou": 4367,
      "ĠpÄĽl": 4368,
      "Ġtrest": 4369,
      "ĠspÃ¡nku": 4370,
      "nnÃ©": 4371,
      "dova": 4372,
      "Ġlho": 4373,
      "rnÃ½m": 4374,
      "Ġejte": 4375,
      "Ġhbi": 4376,
      "ĠÄĽtla": 4377,
      "ĠpravÃ©": 4378,
      "ĠjemnÄĽ": 4379,
      "ĠdveÅĻÃŃ": 4380,
      "Ġalu": 4381,
      "Ġhledal": 4382,
      "ĠvroucnÄĽ": 4383,
      "ĠtÄĽchto": 4384,
      "fa": 4385,
      "Ġoma": 4386,
      "Ġhoto": 4387,
      "Ġmohla": 4388,
      "Ġkvete": 4389,
      "Ġrti": 4390,
      "ĠvÄĽÄįnÃ¡": 4391,
      "Ġechem": 4392,
      "Ġprv": 4393,
      "ĠbÃŃdy": 4394,
      "ĠdÃ½chÃ¡": 4395,
      "ÄįkÃ¡ch": 4396,
      "mech": 4397,
      "Ġznaven": 4398,
      "kÅĻÃŃ": 4399,
      "Ġtouze": 4400,
      "ĠdivnÃ½": 4401,
      "Ġpekel": 4402,
      "Ġlaska": 4403,
      "ĠÅ¾hou": 4404,
      "nily": 4405,
      "ĠvÃ¡Å¡ni": 4406,
      "Ġbru": 4407,
      "Ġztr": 4408,
      "tli": 4409,
      "ĠhÅ¯": 4410,
      "ĠjeÅ¥": 4411,
      "Ġvyje": 4412,
      "ĠusmÃŃvÃ¡": 4413,
      "ĠpÅĻelu": 4414,
      "ĠÅ¾Ã¡dÃ¡": 4415,
      "Ġpomoci": 4416,
      "Ġzahy": 4417,
      "pÃŃnÃ¡": 4418,
      "ĠupÅĻÃŃm": 4419,
      "ĠzÃ¡voj": 4420,
      "ĠpÃ½": 4421,
      "Ġnesta": 4422,
      "ĠÅ¾as": 4423,
      "lÃŃk": 4424,
      "Ġytu": 4425,
      "rÃ½vÃ¡": 4426,
      "ĠnuÅ¾e": 4427,
      "ĠkrÃ¡sou": 4428,
      "nej": 4429,
      "ĠrozechvÄĽ": 4430,
      "ĠzÃ¡ha": 4431,
      "ĠtÄĽlem": 4432,
      "ĠÃ¡sÃ¡": 4433,
      "ĠtÄĽÅ¾kÃ¡": 4434,
      "tÅ¯m": 4435,
      "ĠÅĻÃ¡d": 4436,
      "ĠĠĊ": 4437,
      "ĠÃŃra": 4438,
      "ĠÃ½val": 4439,
      "Ġvelko": 4440,
      "jak": 4441,
      "Ġpadla": 4442,
      "Ġkrajem": 4443,
      "ĠstÃ¡ti": 4444,
      "Ġedla": 4445,
      "ĠsedÄĽl": 4446,
      "ĠmocnÃ½": 4447,
      "ĠvaÅ¡ich": 4448,
      "ĠvÄĽku": 4449,
      "ĠvÄĽtrem": 4450,
      "ĠvÄĽrnÄĽ": 4451,
      "Ġkola": 4452,
      "ĠtÄĽÅ¡ÃŃ": 4453,
      "ĠsvÃŃrÃ¡": 4454,
      "ĠvÃ¡Å¾nÄĽ": 4455,
      "ĠÃŃlÃ©": 4456,
      "ĠÃŃdÃ¡": 4457,
      "rpu": 4458,
      "ĠbÃŃda": 4459,
      "Ġplanou": 4460,
      "ĠplÃŃ": 4461,
      "Ġzdroj": 4462,
      "ĠsvÄĽtel": 4463,
      "dÃ½m": 4464,
      "set": 4465,
      "Ġjesti": 4466,
      "ĠnejkrÃ¡": 4467,
      "ĠbÄĽh": 4468,
      "lej": 4469,
      "ĠiÄįku": 4470,
      "ĠpÅĻiÅ¡li": 4471,
      "Ġkrista": 4472,
      "ĠÃ©tÃ¡": 4473,
      "Ġheb": 4474,
      "ĠjednÃŃm": 4475,
      "ĠvÄĽtve": 4476,
      "Ġduchem": 4477,
      "rovna": 4478,
      "Ġah": 4479,
      "ĠsvÄĽdomÃŃ": 4480,
      "ĠstaÅĻec": 4481,
      "lk": 4482,
      "Ġshas": 4483,
      "Ġuch": 4484,
      "Ġdrahou": 4485,
      "lÃ¡nÃŃ": 4486,
      "Ġobrov": 4487,
      "Ġslast": 4488,
      "Ġumu": 4489,
      "ĠhÃ¡je": 4490,
      "ĠtrÅ¯nu": 4491,
      "Ġklade": 4492,
      "Ġodva": 4493,
      "ĠtÅĻpyt": 4494,
      "ĠjinÃ½m": 4495,
      "ĠÃ¡ru": 4496,
      "Å¾ela": 4497,
      "Ġbran": 4498,
      "ĠdnÄĽ": 4499,
      "Ġecko": 4500,
      "ĠvznÃ¡Å¡ÃŃ": 4501,
      "ĠchÅ¯": 4502,
      "Ġvil": 4503,
      "Ġaze": 4504,
      "Ġdnech": 4505,
      "ĠstÅĻedu": 4506,
      "ĠXXAABB": 4507,
      "vici": 4508,
      "ĠlidskÃ¡": 4509,
      "ĠpotÅĻe": 4510,
      "ĠrodnÃ©": 4511,
      "vcÅ¯": 4512,
      "ĠÃŃdla": 4513,
      "ĠvÃ½kÅĻik": 4514,
      "Ġeji": 4515,
      "vnÃ©": 4516,
      "Ġista": 4517,
      "ÅĪo": 4518,
      "ĠtrÃ½": 4519,
      "ĠÃŃjÃŃ": 4520,
      "ĠskrÃ½vÃ¡": 4521,
      "ĠahÃ½": 4522,
      "Ġstromu": 4523,
      "rej": 4524,
      "Ġmilou": 4525,
      "ĠbrÃ¡ny": 4526,
      "Ġpsal": 4527,
      "ĠzamyÅ¡": 4528,
      "ĠÅ¾alÃ¡": 4529,
      "Ġvyko": 4530,
      "pek": 4531,
      "ĠvstÃ¡vÃ¡": 4532,
      "Å¡eÅĪ": 4533,
      "ĠodpovÃŃ": 4534,
      "nd": 4535,
      "ĠtÅĻÃ¡s": 4536,
      "ĠmoÅĻem": 4537,
      "ĠAAXB": 4538,
      "Äįili": 4539,
      "ĠÃ¡ska": 4540,
      "Ġrosa": 4541,
      "ĠstÅĻÃŃbro": 4542,
      "ĠprÃ¡h": 4543,
      "ĠzdaÅ¾": 4544,
      "lce": 4545,
      "Ã¡me": 4546,
      "ĠloÅ¾i": 4547,
      "ĠmrtvÃ½": 4548,
      "Ġosy": 4549,
      "ĠsvÅ¯": 4550,
      "ĠdivÃ©": 4551,
      "Ġlabu": 4552,
      "Ġsmutno": 4553,
      "ĠkvÃŃlÃŃ": 4554,
      "Ġbolem": 4555,
      "ĠÅĻÃŃÅ¡i": 4556,
      "Ġzdro": 4557,
      "Ġilou": 4558,
      "ĠodmÄĽ": 4559,
      "Ġtlum": 4560,
      "ĠnejvÃŃc": 4561,
      "Ġner": 4562,
      "Ġmuk": 4563,
      "Ġdneska": 4564,
      "ĠdÃ¡vnÃ½ch": 4565,
      "jdou": 4566,
      "Ġhnal": 4567,
      "nÃŃkÅ¯": 4568,
      "ĠesÃ¡": 4569,
      "Ġluk": 4570,
      "ĠmlÃ¡d": 4571,
      "ckou": 4572,
      "Ġeb": 4573,
      "Ġspokojen": 4574,
      "lÃŃch": 4575,
      "ĠdivÃ¡": 4576,
      "ĠenstvÃŃ": 4577,
      "ĠzÅĻÃŃÅ¡": 4578,
      "ĠkÃ½vÃ¡": 4579,
      "ĠzÃ¡kon": 4580,
      "Ġtyto": 4581,
      "Å¡u": 4582,
      "ĠodvÃ¡": 4583,
      "ĠÃºz": 4584,
      "lenou": 4585,
      "ĠvichÅĻi": 4586,
      "ĠÄįar": 4587,
      "ĠÅ¯ru": 4588,
      "Ġhi": 4589,
      "krÃ¡te": 4590,
      "Ġjel": 4591,
      "ĠmÅ¾ik": 4592,
      "ÅĻili": 4593,
      "dÄĽti": 4594,
      "vic": 4595,
      "Ġuchem": 4596,
      "ĠhÃ¡zÃŃ": 4597,
      "Ġapo": 4598,
      "ĠnejkrÃ¡snÄĽjÅ¡ÃŃ": 4599,
      "ĠkÅĻo": 4600,
      "Ġobe": 4601,
      "ĠtuÅ¾": 4602,
      "Ġovou": 4603,
      "Ġher": 4604,
      "ĠiÄįÃŃ": 4605,
      "vÄĽl": 4606,
      "ĠctÃŃ": 4607,
      "Ġvolal": 4608,
      "ĠsmutnÃ¡": 4609,
      "ĠnejvyÅ¡Å¡ÃŃ": 4610,
      "ĠakÅ¯": 4611,
      "Ġivy": 4612,
      "ĠmÃ¡ti": 4613,
      "ĠpÃ¡nu": 4614,
      "Ġucha": 4615,
      "Ġradu": 4616,
      "ĠÅ¾ivÃ©": 4617,
      "pÃŃm": 4618,
      "ĠkrÃ¡snou": 4619,
      "Ġzor": 4620,
      "Ġule": 4621,
      "ĠpracÃŃ": 4622,
      "ĠsvÄĽtlem": 4623,
      "Ġpolib": 4624,
      "Ġvrch": 4625,
      "ĠdvÃ©ÅĻe": 4626,
      "tan": 4627,
      "ĠkterÃ½m": 4628,
      "ĠbolestÃŃ": 4629,
      "ĠonÃ©": 4630,
      "ĠbÃŃdu": 4631,
      "ĠhrÅ¯za": 4632,
      "Ġperly": 4633,
      "ĠynÄĽ": 4634,
      "bar": 4635,
      "ĠÃ¡ry": 4636,
      "Ġpurpu": 4637,
      "ĠbÃ¡je": 4638,
      "ĠlÃ©pe": 4639,
      "Ġesku": 4640,
      "ĠjÃ¡sÃ¡": 4641,
      "moc": 4642,
      "ĠzdÃ¡l": 4643,
      "ĠchvÄĽla": 4644,
      "ĠÅĻady": 4645,
      "ĠÄįernou": 4646,
      "Äįela": 4647,
      "ĠpÃ¡s": 4648,
      "jit": 4649,
      "Ġhvozd": 4650,
      "ĠÅ¡pe": 4651,
      "Ġzlost": 4652,
      "Ġdom": 4653,
      "ĠÄĽnÃ©": 4654,
      "loudil": 4655,
      "ĠvelikÃ©": 4656,
      "Ġplyne": 4657,
      "Ġestu": 4658,
      "Ġrosy": 4659,
      "ĠkÃ¡Å¾e": 4660,
      "Å¾nÃ½ch": 4661,
      "ĠobÄĽt": 4662,
      "Ġdavu": 4663,
      "ĠchladnÃ½": 4664,
      "ĠokamÅ¾ik": 4665,
      "ĠsedÃ¡": 4666,
      "ĠÄĽru": 4667,
      "ĠdÄĽlÃ¡": 4668,
      "ĠstÃ¡ÅĻÃŃ": 4669,
      "ĠnechtÄĽ": 4670,
      "ĠÃºto": 4671,
      "ĠaÅ¾ÃŃ": 4672,
      "ĠoÄį": 4673,
      "ĠcÃŃle": 4674,
      "ĠÄįarov": 4675,
      "Ġaru": 4676,
      "rozen": 4677,
      "ĠyÅ¡ÃŃ": 4678,
      "ĠmladÃ½ch": 4679,
      "ĠpÄĽst": 4680,
      "ĠÅ¾elez": 4681,
      "ĠplnÃ¡": 4682,
      "ĠstoupÃ¡": 4683,
      "ÄįenÃ©": 4684,
      "ĠijÃŃ": 4685,
      "ĠÃŃlÃ¡": 4686,
      "ĠÅ¡kle": 4687,
      "Ġvrat": 4688,
      "Ġopil": 4689,
      "nuv": 4690,
      "Ġmladi": 4691,
      "Ġjede": 4692,
      "ĠÃŃkem": 4693,
      "ĠtatÃŃ": 4694,
      "ĠskÃ¡le": 4695,
      "rad": 4696,
      "ĠpÅĻÃŃrody": 4697,
      "ĠnazpÄĽt": 4698,
      "ĠetÃ¡": 4699,
      "ĠvÄĽÅ¾ÃŃ": 4700,
      "Ġvry": 4701,
      "ĠoÅ¾il": 4702,
      "Ġpekla": 4703,
      "ĠmÃŃstÄĽ": 4704,
      "ĠchudÃ¡": 4705,
      "ĠmanÄĽ": 4706,
      "Ġjez": 4707,
      "vak": 4708,
      "tily": 4709,
      "stek": 4710,
      "pec": 4711,
      "ĠjdeÅ¡": 4712,
      "Ġkarel": 4713,
      "vla": 4714,
      "ĠdÃŃky": 4715,
      "ol": 4716,
      "ĠuvÃŃ": 4717,
      "Ġslzou": 4718,
      "Ġumy": 4719,
      "ĠchvÄĽjÃŃ": 4720,
      "ĠdvÅ¯r": 4721,
      "ĠÅ¾itÃŃm": 4722,
      "Ġprsty": 4723,
      "ĠvlÃ¡dne": 4724,
      "Ġmluvit": 4725,
      "Ġnitro": 4726,
      "ĠradÄĽj": 4727,
      "vnÃŃk": 4728,
      "ĠplnÃŃ": 4729,
      "Ġdy": 4730,
      "Ġpusti": 4731,
      "Ġpoesie": 4732,
      "Ġzmize": 4733,
      "tali": 4734,
      "Ġpanna": 4735,
      "tÃ©m": 4736,
      "ĠÃŃral": 4737,
      "Å¾eb": 4738,
      "ĠrÃ¡ji": 4739,
      "ĠÄįÃŃÅ¡e": 4740,
      "Ġkosti": 4741,
      "ĠpotÃ¡": 4742,
      "Ġrodu": 4743,
      "ĠÃ¡til": 4744,
      "Ġdumy": 4745,
      "ĠplÃ¡t": 4746,
      "ĠzpÄĽvy": 4747,
      "ĠÃºc": 4748,
      "ĠdennÃŃ": 4749,
      "Ġklobou": 4750,
      "ĠstÃ¡li": 4751,
      "ĠmarnÃ©": 4752,
      "ĠprÃ¡zdno": 4753,
      "ĠzlÃ½ch": 4754,
      "ĠÄĽky": 4755,
      "Ġtur": 4756,
      "ĠjedinÃ¡": 4757,
      "Ġdcera": 4758,
      "ĠenÃ½m": 4759,
      "ĠÃ¡Å¡ÃŃ": 4760,
      "ĠÄįeho": 4761,
      "ĠjejÃŃch": 4762,
      "ĠopÃ¡": 4763,
      "ĠivÃŃ": 4764,
      "ĠÃŃtil": 4765,
      "ĠmoÅĻ": 4766,
      "Ġzlou": 4767,
      "ĠletÄĽ": 4768,
      "ĠÄįekal": 4769,
      "Ġopoj": 4770,
      "ĠÄįinÃŃ": 4771,
      "ÅĻenÃ¡": 4772,
      "ĠinÃ¡ch": 4773,
      "Ġmiloval": 4774,
      "Ġmistr": 4775,
      "Ġpokry": 4776,
      "ĠvnitÅĻ": 4777,
      "ĠhnÃŃzdo": 4778,
      "ĠklÃŃnu": 4779,
      "ĠtrÃ¡vy": 4780,
      "ĠpÅ¯jde": 4781,
      "Ġodtud": 4782,
      "Ġnejsou": 4783,
      "Ġpozor": 4784,
      "ĠmnohÃ¡": 4785,
      "ĠÅ¾havÃ©": 4786,
      "Ġex": 4787,
      "ĠÃºdy": 4788,
      "Ġpomalu": 4789,
      "ĠÃºÅ¾as": 4790,
      "ĠpoÅ¾ehnÃ¡nÃŃ": 4791,
      "dilo": 4792,
      "ĠÄĽchu": 4793,
      "ĠhonÃŃ": 4794,
      "vol": 4795,
      "Ġopi": 4796,
      "Ġgra": 4797,
      "Ġnemoh": 4798,
      "kami": 4799,
      "Ġrostou": 4800,
      "Ġnemlu": 4801,
      "tce": 4802,
      "ĠprchÃ¡": 4803,
      "Ġmluv": 4804,
      "ÅĻÃŃÅ¡": 4805,
      "ĠÄįistÃ¡": 4806,
      "ĠsÃ½": 4807,
      "ĠdÃ¡n": 4808,
      "Ġskali": 4809,
      "Ġuza": 4810,
      "ĠoÅ¾": 4811,
      "Ġpop": 4812,
      "nili": 4813,
      "ĠvÄĽnce": 4814,
      "Ġclo": 4815,
      "ĠÅ¡Å¥asten": 4816,
      "vor": 4817,
      "ĠÅ¾enÄĽ": 4818,
      "Ġrozpu": 4819,
      "Ġiky": 4820,
      "Ġzdar": 4821,
      "nkÃ©": 4822,
      "ĠÃ¡Äįi": 4823,
      "hala": 4824,
      "ĠÃŃÅĻe": 4825,
      "Ġletem": 4826,
      "ĠÅ¾er": 4827,
      "ĠÅ¡koda": 4828,
      "hro": 4829,
      "ĠvÅ¡udy": 4830,
      "ĠÅ¾havÃ½": 4831,
      "Ġstruny": 4832,
      "ĠpÅĻÃŃmo": 4833,
      "ĠpÃ¡nem": 4834,
      "Ġnutno": 4835,
      "Äįnosti": 4836,
      "ĠmuÅ¾Å¯": 4837,
      "ĠnesmÄĽ": 4838,
      "ĠptÃ¡kÅ¯": 4839,
      "ĠzÃ¡padu": 4840,
      "Ġpeklo": 4841,
      "ĠskrÃ¡nÃŃ": 4842,
      "ĠskrÃ¡nÄĽ": 4843,
      "Ġmnich": 4844,
      "ĠinÃ©": 4845,
      "Ġobo": 4846,
      "ĠzeÄı": 4847,
      "ĠmrakÅ¯": 4848,
      "ĠÃ¡sku": 4849,
      "ĠÅĻada": 4850,
      "Ġtopo": 4851,
      "tlÃ©": 4852,
      "rovÃ©": 4853,
      "ĠistÃŃ": 4854,
      "ĠkrÃ¡tkÃ½": 4855,
      "Ġzavo": 4856,
      "ĠvÃŃtÃ¡": 4857,
      "ĠrÃ¡mÄĽ": 4858,
      "Ġyli": 4859,
      "Ġvem": 4860,
      "ĠnÄĽko": 4861,
      "ĠrozkoÅ¡e": 4862,
      "cÃŃho": 4863,
      "Ġlhostej": 4864,
      "dec": 4865,
      "Ġmyslil": 4866,
      "ĠkonÃŃ": 4867,
      "ÄįnÃ©m": 4868,
      "Ġstanul": 4869,
      "Ġdomov": 4870,
      "ĠprosÃŃ": 4871,
      "ĠpamÄĽti": 4872,
      "Ġtoto": 4873,
      "armo": 4874,
      "ĠhrozÃŃ": 4875,
      "ĠXXXA": 4876,
      "Ġzmar": 4877,
      "jÃŃcÃŃm": 4878,
      "tvÃ¡": 4879,
      "kov": 4880,
      "ĠrÃ½m": 4881,
      "Ġkruhu": 4882,
      "kr": 4883,
      "ĠprostÃ©": 4884,
      "Ġsvobody": 4885,
      "ĠokamÅ¾i": 4886,
      "gra": 4887,
      "ĠÄįelem": 4888,
      "Ġzvyk": 4889,
      "ĠsvÄĽd": 4890,
      "ĠdlouhÃ½ch": 4891,
      "ĠplÃ¡Äįem": 4892,
      "ĠpÅĻÃŃteli": 4893,
      "ĠzvonÅ¯": 4894,
      "ĠvÄĽÅ¾": 4895,
      "ĠoudÃŃ": 4896,
      "ĠplÃ¡ÅĪ": 4897,
      "hlou": 4898,
      "Ġsf": 4899,
      "ĠnejvÄĽt": 4900,
      "Ġspal": 4901,
      "ĠodpusÅ¥": 4902,
      "Äįna": 4903,
      "ĠzbranÄĽ": 4904,
      "Ġlesku": 4905,
      "tilo": 4906,
      "Ġpadl": 4907,
      "Ġbarvy": 4908,
      "Ġnetu": 4909,
      "ĠpyÅ¡": 4910,
      "Ġdruhu": 4911,
      "ĠsÃŃnÄĽ": 4912,
      "ĠvÄĽdÄĽl": 4913,
      "ĠÄįlovÄĽku": 4914,
      "Ġivot": 4915,
      "Äįas": 4916,
      "ĠdivnÄĽ": 4917,
      "ĠneÅ¡tÄĽ": 4918,
      "ĠvÄĽrnÃ½": 4919,
      "Ġhyne": 4920,
      "nulo": 4921,
      "ĠkÅĻiv": 4922,
      "ĠzvÄĽÅĻ": 4923,
      "ĠvÃ¡clav": 4924,
      "alen": 4925,
      "ĠdomÃ¡": 4926,
      "Ġdobrou": 4927,
      "ĠpÄĽstÃŃ": 4928,
      "luje": 4929,
      "Ġvan": 4930,
      "ĠtmavÃ½": 4931,
      "ĠudÄĽ": 4932,
      "Ġbychom": 4933,
      "ĠvraÅ¥": 4934,
      "ĠzvÃŃÅĻe": 4935,
      "ĠÄįtyÅĻi": 4936,
      "ĠmÅĻe": 4937,
      "Ġdivy": 4938,
      "neme": 4939,
      "ĠÄĽhu": 4940,
      "ĠkdeÅ¾": 4941,
      "Ġstrachu": 4942,
      "ĠkÅĻiÄįÃŃ": 4943,
      "ĠmÃ½": 4944,
      "Ġstisk": 4945,
      "ĠvÃ¡Å¡eÅĪ": 4946,
      "lili": 4947,
      "lÃŃÅ¡": 4948,
      "ĠvlasÅ¥": 4949,
      "ĠumÄĽl": 4950,
      "Ġblaze": 4951,
      "jÃŃcÃ½": 4952,
      "ĠpolÃŃbenÃŃ": 4953,
      "ĠnovÃ½m": 4954,
      "ĠvÃ¡bÃŃ": 4955,
      "Å¡ila": 4956,
      "viny": 4957,
      "ĠÃ¡z": 4958,
      "asi": 4959,
      "ĠmlÃ¡den": 4960,
      "ĠjemuÅ¾": 4961,
      "Ġevro": 4962,
      "Ġtmu": 4963,
      "ĠnaÅ¡em": 4964,
      "ÅĪÅ¯": 4965,
      "Ġnemohu": 4966,
      "ĠtichÃ©m": 4967,
      "Ġence": 4968,
      "bÅ¯h": 4969,
      "ÅĻena": 4970,
      "Ġobzoru": 4971,
      "Ġzuby": 4972,
      "mon": 4973,
      "klady": 4974,
      "ĠkeÅĻ": 4975,
      "ĠalÃ©": 4976,
      "Ġmalou": 4977,
      "ĠmyÅ¡lÃ©nky": 4978,
      "vaje": 4979,
      "dle": 4980,
      "Ġrmu": 4981,
      "ĠmÃ¡Å¥": 4982,
      "Ġvida": 4983,
      "ĠletnÃŃ": 4984,
      "ĠzvuÄįÃŃ": 4985,
      "ĠslzÃ¡ch": 4986,
      "Ġsmrtel": 4987,
      "sat": 4988,
      "nie": 4989,
      "ĠyÅ¡el": 4990,
      "Ġik": 4991,
      "ĠzaznÃŃ": 4992,
      "trem": 4993,
      "ĠÅ¡ÃŃp": 4994,
      "ĠpovÄĽz": 4995,
      "Ġeku": 4996,
      "ĠjiÅĻÃŃ": 4997,
      "Ġmost": 4998,
      "ĠneÅ¡tÄĽstÃŃ": 4999,
      "ĠvyÅ¡Å¡ÃŃ": 5000,
      "ĠoubÃŃ": 5001,
      "Ġhrdin": 5002,
      "Ġorel": 5003,
      "ĠstÅĻÃ¡": 5004,
      "ĠbuÅ¡ÃŃ": 5005,
      "ĠpÅĻil": 5006,
      "hovÃ©": 5007,
      "Ġnebesa": 5008,
      "Ġulic": 5009,
      "Ġjinoch": 5010,
      "ĠuÅ¾i": 5011,
      "taly": 5012,
      "vl": 5013,
      "ĠÃŃsnÄĽ": 5014,
      "Ġhore": 5015,
      "Ġdub": 5016,
      "ĠposvÄĽ": 5017,
      "ĠvÃŃÅĻÃŃ": 5018,
      "ĠcelÃ©m": 5019,
      "Ġjiskry": 5020,
      "Ġvnad": 5021,
      "Ġkristus": 5022,
      "Ġsev": 5023,
      "ĠsmÃŃchem": 5024,
      "ĠcÃŃli": 5025,
      "ĠomÃŃ": 5026,
      "ĠlÃŃcÃŃ": 5027,
      "ĠzrakÅ¯": 5028,
      "Ġpozo": 5029,
      "Ġhovor": 5030,
      "ĠeÅĻe": 5031,
      "ĠÅ¾ivÃ½": 5032,
      "ĠpoupÄĽ": 5033,
      "ĠvÄĽÄįnost": 5034,
      "Ġsvobodu": 5035,
      "ĠÅĻÃŃkÃ¡": 5036,
      "Ġtamo": 5037,
      "ĠvÄĽÄįnou": 5038,
      "ĠdÄĽtem": 5039,
      "Ġove": 5040,
      "Ġbok": 5041,
      "ĠÅ¡ero": 5042,
      "ĠzahrÃ¡": 5043,
      "pnÄĽ": 5044,
      "Å¾ek": 5045,
      "ĠpouÅ¡tÃŃ": 5046,
      "ĠoltÃ¡ÅĻ": 5047,
      "Ġichu": 5048,
      "ĠpouÅ¡Å¥": 5049,
      "ĠdunÃŃ": 5050,
      "ĠkÅĻÃŃdlem": 5051,
      "dÃ¡l": 5052,
      "ĠaÅ¡i": 5053,
      "Ġesky": 5054,
      "ĠvlnÃŃ": 5055,
      "ĠvstÃ¡": 5056,
      "ĠplÃ¡nÃŃ": 5057,
      "dlen": 5058,
      "rostÅĻed": 5059,
      "rala": 5060,
      "ĠrÃ¡di": 5061,
      "ĠjakÃ½s": 5062,
      "Ġuny": 5063,
      "Ġhlavi": 5064,
      "Ġklesla": 5065,
      "cou": 5066,
      "ĠÃŃho": 5067,
      "ĠkolÃ©b": 5068,
      "hni": 5069,
      "ĠobÃŃ": 5070,
      "ĠÅ¡edÃ½": 5071,
      "ĠvlnÃ¡ch": 5072,
      "ĠvelikÃ¡": 5073,
      "ĠsmrÅ¥": 5074,
      "Ġbrzo": 5075,
      "Ġpodi": 5076,
      "Ġkmit": 5077,
      "Ġletech": 5078,
      "ĠkorÃ¡": 5079,
      "ĠnadÅ¡en": 5080,
      "Ġcitu": 5081,
      "ĠpÅĻÃ¡l": 5082,
      "Ġjablo": 5083,
      "lko": 5084,
      "ĠÃ¡tku": 5085,
      "ĠtÄĽmi": 5086,
      "Ġbisku": 5087,
      "Ġarci": 5088,
      "nuli": 5089,
      "ĠstokrÃ¡t": 5090,
      "Ġatku": 5091,
      "letu": 5092,
      "ĠÅ¾Ã¡rem": 5093,
      "ĠverÅ¡": 5094,
      "Ġznamen": 5095,
      "Ġslunko": 5096,
      "Å¾nÃŃ": 5097,
      "ĠÃŃÄįek": 5098,
      "ĠpojÃŃ": 5099,
      "telem": 5100,
      "ĠspÃŃcÃŃ": 5101,
      "Ġstud": 5102,
      "Ġsloup": 5103,
      "ĠtajnÄĽ": 5104,
      "ĠÃŃchu": 5105,
      "ĠjÃŃmÃ¡": 5106,
      "ĠÅ¡eptÃ¡": 5107,
      "ĠpÅ¯jdu": 5108,
      "fe": 5109,
      "ĠdÄĽj": 5110,
      "ĠkrÃ¡snÄĽ": 5111,
      "Ġslovan": 5112,
      "Ġpovin": 5113,
      "ĠnaÅĻÃŃ": 5114,
      "Ġhladi": 5115,
      "Ġpoza": 5116,
      "ĠpÅĻÃŃroda": 5117,
      "Ġchlap": 5118,
      "ĠpÃŃsku": 5119,
      "Ġztratil": 5120,
      "Ġmlh": 5121,
      "Ġvzala": 5122,
      "Ġmile": 5123,
      "ĠnoÅĻÃŃ": 5124,
      "Ġmladosti": 5125,
      "ĠÃŃvat": 5126,
      "ĠtÄĽl": 5127,
      "najÃŃ": 5128,
      "ĠtÄĽÅ¾kou": 5129,
      "Ġuko": 5130,
      "ĠÅ¾eno": 5131,
      "ĠÄıÃ¡bel": 5132,
      "ĠÃºzkost": 5133,
      "fy": 5134,
      "ĠrÃ©": 5135,
      "ĠÅ¾ert": 5136,
      "ĠhroznÃ½": 5137,
      "ĠnÃ¡dhe": 5138,
      "tej": 5139,
      "Ġrozma": 5140,
      "ÅĻily": 5141,
      "jeme": 5142,
      "Ġsra": 5143,
      "ĠodvÄĽ": 5144,
      "ĠcelÃ½m": 5145,
      "Ġmechu": 5146,
      "tin": 5147,
      "lÃ¡m": 5148,
      "ĠpravdÄĽ": 5149,
      "Ġimi": 5150,
      "ĠuÅ¾ÃŃ": 5151,
      "ĠnechtÄĽl": 5152,
      "ĠÄįerno": 5153,
      "Ġproudem": 5154,
      "Ġdaleka": 5155,
      "bnÃ¡": 5156,
      "Ġudou": 5157,
      "nÅ¯v": 5158,
      "Ġedem": 5159,
      "ĠtÃ¡bo": 5160,
      "ĠnÃ¡rodu": 5161,
      "Å¾ku": 5162,
      "ĠverÅ¡e": 5163,
      "Äįina": 5164,
      "ĠkrÅ¯pÄĽj": 5165,
      "ĠsvatÃ½ch": 5166,
      "ĠplaÅ¡e": 5167,
      "ĠvÃ½s": 5168,
      "tÃ¡ch": 5169,
      "ĠhrabÄĽ": 5170,
      "Ġleskem": 5171,
      "dÄĽji": 5172,
      "Ġysi": 5173,
      "ĠskvÃŃ": 5174,
      "Ġhavra": 5175,
      "ĠjedinÃ©": 5176,
      "ĠbÃŃt": 5177,
      "bnou": 5178,
      "ĠslyÅ¡ÃŃÅ¡": 5179,
      "ĠvÄĽcÃŃ": 5180,
      "ĠlÃŃbal": 5181,
      "Ġcity": 5182,
      "Ġynou": 5183,
      "Ġicha": 5184,
      "Ġchva": 5185,
      "Ġviny": 5186,
      "ĠÅ¡tÄĽstÃŃm": 5187,
      "Ġkalich": 5188,
      "Ġerou": 5189,
      "Ġetem": 5190,
      "ĠvzpomÃŃnÃ¡m": 5191,
      "lnÃ©": 5192,
      "mÃ¡m": 5193,
      "nt": 5194,
      "Ġuly": 5195,
      "enÃŃm": 5196,
      "ĠlÃ¡n": 5197,
      "mÃ¡n": 5198,
      "Ġteskno": 5199,
      "ĠvÅ¡eli": 5200,
      "Ġnaklo": 5201,
      "zÅ¯": 5202,
      "ĠvÅ¡ednÃŃ": 5203,
      "Ġticha": 5204,
      "kam": 5205,
      "ÅĻenÃ½ch": 5206,
      "ĠmoÅ¾nÃ¡": 5207,
      "ĠzavÃ¡": 5208,
      "Ġvodo": 5209,
      "ĠhledÃŃm": 5210,
      "ĠÄįerst": 5211,
      "Ġeka": 5212,
      "lnÃ½": 5213,
      "ĠinÃŃ": 5214,
      "Ġade": 5215,
      "Ġdoz": 5216,
      "ĠdÄĽvy": 5217,
      "Ġuto": 5218,
      "Ġnechal": 5219,
      "Ġist": 5220,
      "Ġjinou": 5221,
      "ĠrozlÃ©": 5222,
      "ĠpastÃ½": 5223,
      "ĠkrÄį": 5224,
      "Ġspla": 5225,
      "ĠpozdnÃŃ": 5226,
      "Ġmor": 5227,
      "mÃ¡nÃŃ": 5228,
      "ĠÅĻev": 5229,
      "ĠpÄĽnÃŃ": 5230,
      "Ġpozved": 5231,
      "ĠzÃ¡ÅĻÃŃcÃŃ": 5232,
      "Ġbyt": 5233,
      "Ġluna": 5234,
      "ĠAAAX": 5235,
      "ĠmnÃŃ": 5236,
      "Ġpob": 5237,
      "ĠÄĽsta": 5238,
      "ĠbÄĽlost": 5239,
      "ĠrdÃŃ": 5240,
      "Ġotem": 5241,
      "Ġnesko": 5242,
      "Ġekla": 5243,
      "ĠmodlÃŃ": 5244,
      "Ġusly": 5245,
      "ĠspÄĽl": 5246,
      "sech": 5247,
      "Ġchudo": 5248,
      "ĠvzpomÃŃnÃ¡": 5249,
      "Ġnitra": 5250,
      "Ġohrom": 5251,
      "ĠpouÅ¥": 5252,
      "ĠzpÃŃvat": 5253,
      "ĠcÃ¡": 5254,
      "ĠmanÅ¾el": 5255,
      "Ġskla": 5256,
      "Å¾dÃŃ": 5257,
      "Ġptal": 5258,
      "lala": 5259,
      "ĠstrÃ½": 5260,
      "ĠÅ¾Ã¡dnÃ¡": 5261,
      "ĠsamÃ½": 5262,
      "ĠvlÃ¡d": 5263,
      "ĠÄįeskÃ¡": 5264,
      "Ġracho": 5265,
      "ĠtrhÃ¡": 5266,
      "ĠmlÃ©": 5267,
      "ĠvÄĽrnÃ©": 5268,
      "Ġpropasti": 5269,
      "mil": 5270,
      "ĠÅ¾u": 5271,
      "huje": 5272,
      "ĠtanÄįÃŃ": 5273,
      "Ġsat": 5274,
      "chne": 5275,
      "ĠhrajÃŃ": 5276,
      "Ġctnosti": 5277,
      "ĠhnutÃŃ": 5278,
      "Ġycky": 5279,
      "Ġstan": 5280,
      "Ġnalez": 5281,
      "Ġeu": 5282,
      "ĠpÅĻis": 5283,
      "ĠnÃŃmÅ¾": 5284,
      "Ġchvilku": 5285,
      "ĠAX": 5286,
      "Ġpanny": 5287,
      "Ġzbro": 5288,
      "ĠmÅ¯Å¾eÅ¡": 5289,
      "Ġkor": 5290,
      "ĠhrdÃ©": 5291,
      "ĠvÃ¡nek": 5292,
      "ĠzavÃŃ": 5293,
      "ĠstÃŃnem": 5294,
      "ĠzaÄįal": 5295,
      "Ġnau": 5296,
      "ĠÃ¡my": 5297,
      "Ġoudy": 5298,
      "Ġmoudro": 5299,
      "Ġchcete": 5300,
      "Ġnesla": 5301,
      "Ġab": 5302,
      "Ġblankyt": 5303,
      "ren": 5304,
      "ĠpouÅ¡ti": 5305,
      "Ġvysoko": 5306,
      "ĠspÃ¡nek": 5307,
      "Ġsice": 5308,
      "ĠlnÃŃ": 5309,
      "Ġmalo": 5310,
      "Ġztu": 5311,
      "tÄĽjÅ¡ÃŃ": 5312,
      "Ġnadarmo": 5313,
      "rÄįÃŃ": 5314,
      "vka": 5315,
      "Å¯so": 5316,
      "fo": 5317,
      "chÃ¡m": 5318,
      "Ġdna": 5319,
      "Ġneji": 5320,
      "ĠpouÅ¡tÄĽ": 5321,
      "Ġis": 5322,
      "nÄĽte": 5323,
      "ĠÄıas": 5324,
      "nÃ¡ct": 5325,
      "ĠnÄĽme": 5326,
      "Ġadem": 5327,
      "ÄįnÃŃm": 5328,
      "Ġnou": 5329,
      "Ġhalu": 5330,
      "ĠvzpomÃŃnka": 5331,
      "ĠÄĽnou": 5332,
      "ĠdÃŃtky": 5333,
      "Ġukru": 5334,
      "ĠvlÃŃdnÄĽ": 5335,
      "Ġzrovna": 5336,
      "livÃ¡": 5337,
      "Ġkorunu": 5338,
      "ĠoupÃ¡": 5339,
      "Ġadlo": 5340,
      "nÄĽnÃ©": 5341,
      "mot": 5342,
      "ĠeÅĻi": 5343,
      "ĠÃ¡ce": 5344,
      "ĠABABAX": 5345,
      "Ġpel": 5346,
      "ĠhroznÃ©": 5347,
      "Ġenem": 5348,
      "Ġmladou": 5349,
      "ĠleÅ¾el": 5350,
      "dalo": 5351,
      "ĠzelenÃ©": 5352,
      "is": 5353,
      "ĠvÄįel": 5354,
      "ĠÃŃd": 5355,
      "ĠchystÃ¡": 5356,
      "Ġvypu": 5357,
      "ĠstÅĻel": 5358,
      "ĠkterÃ½ch": 5359,
      "ĠpÅĻichÃ¡zÃŃ": 5360,
      "ĠsrdcÃŃch": 5361,
      "Ġmiluje": 5362,
      "Ġge": 5363,
      "ĠhÃ¡ji": 5364,
      "ĠnÃ¡ho": 5365,
      "Ġhrst": 5366,
      "ĠpenÃŃ": 5367,
      "ĠÄĽlÃŃ": 5368,
      "ĠÅ¾eni": 5369,
      "Ġjinde": 5370,
      "Ġstroj": 5371,
      "ĠzvÄĽda": 5372,
      "Ġvodou": 5373,
      "Ġbratra": 5374,
      "ÄįenÃ½": 5375,
      "ĠhvÄĽzdi": 5376,
      "ĠlÃŃba": 5377,
      "Ġlil": 5378,
      "ĠÄĽtlo": 5379,
      "ĠlÅ¯nÄĽ": 5380,
      "Ġdol": 5381,
      "Ġlek": 5382,
      "hali": 5383,
      "ĠbrÃ¡nÃŃ": 5384,
      "ĠdrobnÃ©": 5385,
      "ĠmdlÃ½": 5386,
      "ĠmÄĽsÃŃce": 5387,
      "nkÃ¡ch": 5388,
      "pomÃŃnÃ¡": 5389,
      "ĠzlatÃ½m": 5390,
      "Ġjdem": 5391,
      "nicÃŃ": 5392,
      "Ġkomo": 5393,
      "ĠkrÃ¡lem": 5394,
      "ĠsÃŃni": 5395,
      "ĠspÄĽchÃ¡": 5396,
      "ĠbojÃŃ": 5397,
      "ĠzÃ¡Å¡tÃŃ": 5398,
      "ĠotvÃŃrÃ¡": 5399,
      "ĠpustÃ©": 5400,
      "ĠuprostÅĻed": 5401,
      "tice": 5402,
      "Ġsoucit": 5403,
      "Ġzoufa": 5404,
      "Ġrozmar": 5405,
      "Ġoste": 5406,
      "ĠÃ¡dy": 5407,
      "niti": 5408,
      "ĠdÄĽva": 5409,
      "ĠjasnÃ¡": 5410,
      "ĠsÃŃle": 5411,
      "ĠpoutnÃŃk": 5412,
      "Ġvzdechy": 5413,
      "Ġpochyb": 5414,
      "Ġprocit": 5415,
      "Ġminul": 5416,
      "ĠÅ¾ivotÄĽ": 5417,
      "Ġplameny": 5418,
      "ĠvzdychÃ¡": 5419,
      "dno": 5420,
      "ĠustÃ¡": 5421,
      "Ġeskem": 5422,
      "ĠÃ¡hne": 5423,
      "Ġprahy": 5424,
      "sklo": 5425,
      "Ġpetr": 5426,
      "Ġtomto": 5427,
      "ĠslavÃŃk": 5428,
      "ĠpÃ¡d": 5429,
      "Ġnasta": 5430,
      "ĠvÅ¯z": 5431,
      "Ġjednoho": 5432,
      "Ġpohy": 5433,
      "ĠskuteÄį": 5434,
      "ĠÄįervÃ¡": 5435,
      "Ġpopel": 5436,
      "ĠoÅĻil": 5437,
      "ĠÄįert": 5438,
      "Ġzho": 5439,
      "Ġhledat": 5440,
      "Ġpocti": 5441,
      "dÃ¡vÃ¡": 5442,
      "Ġynu": 5443,
      "ĠvÅ¡echen": 5444,
      "ĠchoÅ¥": 5445,
      "Ġosudu": 5446,
      "venÃ©": 5447,
      "Ġtemnou": 5448,
      "Ġbli": 5449,
      "ÅĻiti": 5450,
      "ĠtrÃ¡va": 5451,
      "ĠpospÃŃ": 5452,
      "Ġpolem": 5453,
      "tovÃ©": 5454,
      "ĠryzÃŃ": 5455,
      "ĠzaÅ¡e": 5456,
      "ĠÃºro": 5457,
      "ĠpoÄįal": 5458,
      "ĠÃŃÄįka": 5459,
      "ber": 5460,
      "ĠvzdÃ¡len": 5461,
      "ĠzdÃŃ": 5462,
      "ĠÅ¡va": 5463,
      "Ġokno": 5464,
      "ĠÅ¡tÄĽd": 5465,
      "ĠoÄįka": 5466,
      "Ġknihy": 5467,
      "ĠdruhÃ¡": 5468,
      "hrad": 5469,
      "lid": 5470,
      "dati": 5471,
      "nkÅ¯": 5472,
      "tkÅ¯": 5473,
      "Ġpohledem": 5474,
      "Ġap": 5475,
      "leÅĪ": 5476,
      "Ġvojsko": 5477,
      "ĠpohÃ¡r": 5478,
      "Ġahou": 5479,
      "Ġmysti": 5480,
      "Ġdrak": 5481,
      "ĠzÅĻela": 5482,
      "Ġdnu": 5483,
      "ĠbuÄıte": 5484,
      "ĠcizÃŃch": 5485,
      "ĠÅ¡est": 5486,
      "Ġbezpe": 5487,
      "jÃŃcÃŃch": 5488,
      "Ġslzu": 5489,
      "ble": 5490,
      "ĠvodÄĽ": 5491,
      "snÃ½ch": 5492,
      "Ġzasmu": 5493,
      "ĠneÃº": 5494,
      "ĠutÃ½": 5495,
      "ĠchudÃ½": 5496,
      "Ġek": 5497,
      "Ġspasi": 5498,
      "ĠÄĽnÃ½": 5499,
      "novi": 5500,
      "ĠÃºtro": 5501,
      "ĠzlatÃŃ": 5502,
      "Ġpozem": 5503,
      "ĠstojÃŃm": 5504,
      "ĠvÄĽÅĻÃŃm": 5505,
      "ĠznÃ¡mÃ½": 5506,
      "raje": 5507,
      "Ġzachy": 5508,
      "ĠschÃ½": 5509,
      "tÃ½m": 5510,
      "Ġkouzlem": 5511,
      "ĠÄĽsÃŃ": 5512,
      "ĠkrÃ¡lÅ¯": 5513,
      "ĠchtÄĽli": 5514,
      "ĠznÃ¡t": 5515,
      "Ġzahrad": 5516,
      "Ġvpad": 5517,
      "ĠbÅĻi": 5518,
      "Ġspor": 5519,
      "Ġsym": 5520,
      "vodu": 5521,
      "Ġvodu": 5522,
      "nÃ©st": 5523,
      "ĠzapomnÄĽl": 5524,
      "ĠtÅĻpytÃŃ": 5525,
      "Ġtouhu": 5526,
      "Ġbratry": 5527,
      "ĠdivÄĽ": 5528,
      "ĠpouhÃ½": 5529,
      "ĠÅĻekne": 5530,
      "ĠhÅĻÃŃchu": 5531,
      "Å¾nÃ½m": 5532,
      "Ġhry": 5533,
      "ÅĪuje": 5534,
      "Ġeky": 5535,
      "ĠosvÄĽ": 5536,
      "rovi": 5537,
      "byl": 5538,
      "Å¾ena": 5539,
      "dÃ¡Å¡": 5540,
      "ĠXXABBA": 5541,
      "vnÃ½": 5542,
      "Ġzvolal": 5543,
      "Ġnerozu": 5544,
      "ÅĻej": 5545,
      "Ġw": 5546,
      "ĠÄĽda": 5547,
      "Ġslib": 5548,
      "ĠÄĽvem": 5549,
      "Ġotcem": 5550,
      "ĠsluÅ¡ÃŃ": 5551,
      "Ġmiluji": 5552,
      "ledy": 5553,
      "Ġvinu": 5554,
      "Ġchr": 5555,
      "ĠlÃ¡sko": 5556,
      "ĠperutÃŃ": 5557,
      "Ġere": 5558,
      "ĠhostÃŃ": 5559,
      "ĠouÅ¡tÃŃ": 5560,
      "Ġshon": 5561,
      "ĠpoutnÃŃ": 5562,
      "ĠsladkÃ½ch": 5563,
      "ĠXXAAXX": 5564,
      "Ġhodiny": 5565,
      "Ġtuze": 5566,
      "ĠdomÄĽ": 5567,
      "ĠvÅ¯bec": 5568,
      "ĠplÃ©mÄĽ": 5569,
      "Ġroky": 5570,
      "ĠÅ¾ivotu": 5571,
      "ĠtvÃ©mu": 5572,
      "Ġknih": 5573,
      "nati": 5574,
      "Ġroztou": 5575,
      "Ġryt": 5576,
      "Ġga": 5577,
      "Ġsud": 5578,
      "ĠdÃ¡vnÃ©": 5579,
      "Å¡lÃŃ": 5580,
      "ĠasnÃ©": 5581,
      "ĠvelÃŃ": 5582,
      "Ġodho": 5583,
      "ĠpÃŃÅ¡e": 5584,
      "dlÃ©": 5585,
      "Ġpne": 5586,
      "ĠorÅ¯": 5587,
      "milo": 5588,
      "ĠtÃ©mÄĽ": 5589,
      "ĠvonnÃ½": 5590,
      "Ġspanil": 5591,
      "Ġdon": 5592,
      "pili": 5593,
      "Ġvedou": 5594,
      "Ġkov": 5595,
      "Ġrozlo": 5596,
      "ĠÃ¡nek": 5597,
      "Ġmoudrost": 5598,
      "ĠedÄĽl": 5599,
      "hej": 5600,
      "ĠsamotÄĽ": 5601,
      "lily": 5602,
      "stoj": 5603,
      "Ġposlu": 5604,
      "Ġstarost": 5605,
      "Ġetla": 5606,
      "Ġnesl": 5607,
      "Ġbrachu": 5608,
      "ĠtrpÃŃ": 5609,
      "ĠÅ¡ÃŃji": 5610,
      "ĠzbranÃŃ": 5611,
      "Ġchodil": 5612,
      "Ġbledou": 5613,
      "zdu": 5614,
      "ĠzmÃŃrÃ¡": 5615,
      "ĠvznÃŃ": 5616,
      "ĠbojovnÃŃ": 5617,
      "ĠÄįlu": 5618,
      "Ġouhy": 5619,
      "ĠperuÅ¥": 5620,
      "Ġlsti": 5621,
      "Ġplesu": 5622,
      "zdy": 5623,
      "Ġboh": 5624,
      "ĠzÃ¡pal": 5625,
      "ĠsvatÃ½m": 5626,
      "ĠhÅĻbe": 5627,
      "Ġjmeno": 5628,
      "Ġska": 5629,
      "Å¡kou": 5630,
      "Ġmora": 5631,
      "ĠdruÅ¾i": 5632,
      "venÃ½": 5633,
      "Äįiti": 5634,
      "ĠsilnÃ½": 5635,
      "chla": 5636,
      "ĠrovnÄĽ": 5637,
      "Ġsluje": 5638,
      "ĠmalÃŃ": 5639,
      "Ġbil": 5640,
      "Ġpotok": 5641,
      "ĠtÅĻesou": 5642,
      "Ġmrtev": 5643,
      "Ġpas": 5644,
      "Ġpoky": 5645,
      "Ġjednom": 5646,
      "Ġmuka": 5647,
      "Ġary": 5648,
      "ĠÃŃlu": 5649,
      "ĠstÃ¡r": 5650,
      "ĠÅ¾Ã¡ru": 5651,
      "ĠmodrÃ½": 5652,
      "ĠsmÄĽlÃ½": 5653,
      "ĠpÅ¯du": 5654,
      "ĠvyÅ¡la": 5655,
      "ĠÃºkol": 5656,
      "Ġsmysl": 5657,
      "ĠnedÄĽ": 5658,
      "Å¡et": 5659,
      "Ġdiva": 5660,
      "try": 5661,
      "pis": 5662,
      "jou": 5663,
      "zla": 5664,
      "Ġsvr": 5665,
      "Ġhospodi": 5666,
      "Ġvkro": 5667,
      "ĠvÅ¡echnÄĽ": 5668,
      "ĠchraÅĪ": 5669,
      "hr": 5670,
      "Ġhlasu": 5671,
      "Ġondy": 5672,
      "ĠvÄĽtry": 5673,
      "ĠÃŃÄįku": 5674,
      "Ġemnou": 5675,
      "ĠidÄĽl": 5676,
      "Ġouhou": 5677,
      "Ġslasti": 5678,
      "ĠÅ¡Å¥astnÃ½": 5679,
      "vÅ¡i": 5680,
      "ĠÃ¡ze": 5681,
      "Ġpravo": 5682,
      "Ġpraze": 5683,
      "ĠklÃŃnÄĽ": 5684,
      "Ġchti": 5685,
      "Ġbabi": 5686,
      "ĠsnÃ¡": 5687,
      "Ġses": 5688,
      "ĠpapeÅ¾": 5689,
      "ĠhvÄĽzdÃ¡m": 5690,
      "Ġnajednou": 5691,
      "ĠÃ¡dce": 5692,
      "bili": 5693,
      "ĠnutÃŃ": 5694,
      "ÄįkÃ©": 5695,
      "ĠvrhÃ¡": 5696,
      "ĠkoÅĻist": 5697,
      "ĠlÅ¾i": 5698,
      "Ġpono": 5699,
      "chÃ¡zel": 5700,
      "Ġvlta": 5701,
      "ckÃ½m": 5702,
      "ĠzlatÃ©m": 5703,
      "ĠobliÄįej": 5704,
      "ĠnejvÄĽtÅ¡ÃŃ": 5705,
      "zit": 5706,
      "ĠodpoÄįi": 5707,
      "ĠprvnÃŃm": 5708,
      "Äįno": 5709,
      "ĠtrpÄĽ": 5710,
      "ĠarÃ½": 5711,
      "ĠÅ¡lo": 5712,
      "ĠzeleÅĪ": 5713,
      "tosti": 5714,
      "ĠodpovÄĽÄı": 5715,
      "kvÃ©": 5716,
      "ĠadnÃ©": 5717,
      "ĠÄĽtÅ¡ÃŃ": 5718,
      "Ġrtem": 5719,
      "meÅĪ": 5720,
      "ĠbÃ¡l": 5721,
      "Ġabys": 5722,
      "nkÃ¡": 5723,
      "ĠÃ½skÃ¡": 5724,
      "Ġproudu": 5725,
      "Ġpokud": 5726,
      "Ġrozkve": 5727,
      "pala": 5728,
      "Ġopy": 5729,
      "ĠpÄĽje": 5730,
      "ĠsnÃŃt": 5731,
      "daly": 5732,
      "Ġzbyl": 5733,
      "qu": 5734,
      "ĠpolÃŃch": 5735,
      "Ġnaposledy": 5736,
      "nika": 5737,
      "ĠÄįerv": 5738,
      "Ġkams": 5739,
      "ĠhnÄĽvem": 5740,
      "ĠdvojÃŃ": 5741,
      "Å¾te": 5742,
      "Ġrady": 5743,
      "Ġslzami": 5744,
      "Ġobej": 5745,
      "Ġsladko": 5746,
      "ĠhospodÃ¡": 5747,
      "ĠÅ¡er": 5748,
      "ĠdneÅ¡nÃŃ": 5749,
      "ĠtlaÄįÃŃ": 5750,
      "Ġjihu": 5751,
      "Ġvojska": 5752,
      "Ġvzpomen": 5753,
      "Ġzakle": 5754,
      "ĠpÅĻemo": 5755,
      "ĠvÄĽtrÅ¯": 5756,
      "Ġenku": 5757,
      "Ġuzav": 5758,
      "Ġiva": 5759,
      "vilo": 5760,
      "ĠnÃ¡mÄĽ": 5761,
      "ĠzpÄĽvem": 5762,
      "ÅĻilo": 5763,
      "ĠbÃŃlÃ©m": 5764,
      "Ġkudy": 5765,
      "Ġminulosti": 5766,
      "ĠÄįÃŃst": 5767,
      "Ġroztr": 5768,
      "Ġklasy": 5769,
      "kop": 5770,
      "Ġlicho": 5771,
      "ĠtichÃ½m": 5772,
      "Ġhluboko": 5773,
      "Ġdejte": 5774,
      "ĠavÃ½m": 5775,
      "Ġzvad": 5776,
      "Ġrozlou": 5777,
      "buje": 5778,
      "tl": 5779,
      "ĠzbÄĽ": 5780,
      "ĠpapÃŃ": 5781,
      "Ġlny": 5782,
      "ĠovÃ½ch": 5783,
      "ĠmusÃŃÅ¡": 5784,
      "rovnÃ¡": 5785,
      "ĠinÃ¡": 5786,
      "ilÃ½": 5787,
      "Ġhrdlo": 5788,
      "stit": 5789,
      "Ġpohr": 5790,
      "Ġhlahol": 5791,
      "ĠsvÄĽtlu": 5792,
      "ĠkÅĻÃŃdlo": 5793,
      "Ġmarno": 5794,
      "stky": 5795,
      "Ġmnohou": 5796,
      "Ġtrud": 5797,
      "zlo": 5798,
      "ĠdÃŃl": 5799,
      "ĠtratÃŃ": 5800,
      "ĠXXXAXA": 5801,
      "Ġnesu": 5802,
      "Å¾enou": 5803,
      "ĠdÄĽjin": 5804,
      "Å¾u": 5805,
      "Ġrtu": 5806,
      "ĠmoÅĻÃŃ": 5807,
      "Ġjasu": 5808,
      "tÃ¡h": 5809,
      "ĠkrvavÃ©": 5810,
      "chat": 5811,
      "alou": 5812,
      "ĠÄĽÅ¾": 5813,
      "ĠvzkÅĻÃŃ": 5814,
      "Ġmohy": 5815,
      "ĠÃ¡men": 5816,
      "tec": 5817,
      "ĠpÅĻÃŃk": 5818,
      "ĠÃ©mÄĽ": 5819,
      "ĠtesknÄĽ": 5820,
      "Ġposel": 5821,
      "Ġbozi": 5822,
      "ĠkrÃ¡snÃ½ch": 5823,
      "Ġochra": 5824,
      "ĠoutÃŃ": 5825,
      "ĠÄįÃŃÅ¡i": 5826,
      "ĠspÃ¡sy": 5827,
      "ĠmraÄįna": 5828,
      "Ġlibo": 5829,
      "Ġbub": 5830,
      "ĠtkÃ¡": 5831,
      "Å¡tnÃŃ": 5832,
      "Ġpovy": 5833,
      "Ġmist": 5834,
      "ĠÄįiny": 5835,
      "ĠzmizÃŃ": 5836,
      "Ġvdo": 5837,
      "ĠtmÃŃ": 5838,
      "Ġodou": 5839,
      "ĠjmÃ©na": 5840,
      "rny": 5841,
      "Ġpohro": 5842,
      "Ġkolena": 5843,
      "ĠÅ¾houcÃŃ": 5844,
      "ĠvyÅ¡": 5845,
      "Ġhlado": 5846,
      "ĠzÃ¡mku": 5847,
      "Ġsestry": 5848,
      "Ġio": 5849,
      "Ġlau": 5850,
      "ĠzvÃŃtÄĽ": 5851,
      "Ġub": 5852,
      "Ã¡Å¡": 5853,
      "ĠXABAB": 5854,
      "ĠÄĽmi": 5855,
      "Ġbudoucnost": 5856,
      "ĠnevÃ½": 5857,
      "ĠrozkoÅ¡ÃŃ": 5858,
      "ĠmyÅ¡lenek": 5859,
      "Ġbalva": 5860,
      "rnÃ©m": 5861,
      "Ġsvitu": 5862,
      "Ġvolnost": 5863,
      "ĠÄĽkÅ¯": 5864,
      "Ġrosou": 5865,
      "Ġmas": 5866,
      "Ġhni": 5867,
      "ĠpÅĻines": 5868,
      "ĠveÄįernÃŃ": 5869,
      "ĠspatÅĻil": 5870,
      "ĠdÃ©man": 5871,
      "ĠtvrdÃ©": 5872,
      "ĠkÅĻesÅ¥a": 5873,
      "Ġedou": 5874,
      "ĠnechaÅ¥": 5875,
      "ĠsmÄĽl": 5876,
      "Ġskryt": 5877,
      "ĠblÃ½skÃ¡": 5878,
      "ĠdÄĽd": 5879,
      "chala": 5880,
      "Å¾enÃ¡": 5881,
      "ĠsmÃ¡t": 5882,
      "ĠitÃ©": 5883,
      "ĠÃ¡nku": 5884,
      "voj": 5885,
      "ĠojÃŃm": 5886,
      "Ġima": 5887,
      "ĠÅ¡erÃ©": 5888,
      "ĠtÃ³n": 5889,
      "ĠkterÃ©m": 5890,
      "nÃŃci": 5891,
      "vedla": 5892,
      "ĠpÅĻÃŃzrak": 5893,
      "Ġsnadno": 5894,
      "Ġjiskra": 5895,
      "ĠzÃ¡zra": 5896,
      "ĠmÄĽlo": 5897,
      "sili": 5898,
      "Ġosled": 5899,
      "ĠjÃ¡sot": 5900,
      "Ġjezd": 5901,
      "ĠozÃ¡": 5902,
      "Ġpokro": 5903,
      "Ġdos": 5904,
      "Ġbytost": 5905,
      "ĠedÃ©": 5906,
      "Ġstrachem": 5907,
      "Ġmatkou": 5908,
      "ĠpenÄĽ": 5909,
      "ĠmlÄįenÃŃ": 5910,
      "menÄĽ": 5911,
      "ĠzvlÃ¡Å¡Å¥": 5912,
      "ĠprostÃ½": 5913,
      "ĠvÄĽtÅĻÃŃk": 5914,
      "ĠarÃ¡": 5915,
      "Ġvzty": 5916,
      "Ġdechu": 5917,
      "Å¾dÄĽ": 5918,
      "Ã©mu": 5919,
      "ĠpoÅ¡": 5920,
      "Ġbyste": 5921,
      "Ġleda": 5922,
      "ĠspÄĽje": 5923,
      "ĠhouÅ¡tÃŃ": 5924,
      "ĠprÅ¯vod": 5925,
      "ĠouÅĻÃŃ": 5926,
      "Ġaneb": 5927,
      "tÃŃÅ¡": 5928,
      "ĠzÃ¡ba": 5929,
      "ĠÅ¡era": 5930,
      "ĠotvÃŃ": 5931,
      "ĠostrÃ½": 5932,
      "ĠesÅ¯": 5933,
      "ĠstkvÄĽ": 5934,
      "Ġspjat": 5935,
      "rec": 5936,
      "Ġlidstvu": 5937,
      "Ġ21": 5938,
      "ĠpÄĽÅ¡i": 5939,
      "ĠÅ¡aty": 5940,
      "ĠhÅĻÃ¡": 5941,
      "ĠÃ¡zal": 5942,
      "Ġgeni": 5943,
      "Ġjist": 5944,
      "ĠvÄĽÅ¡t": 5945,
      "Ġvlnou": 5946,
      "chovÃ©": 5947,
      "ĠjejÃŃÅ¾": 5948,
      "ĠhnÃŃzda": 5949,
      "Ġedal": 5950,
      "Ġokny": 5951,
      "Ġgi": 5952,
      "Ġokou": 5953,
      "Ġruchu": 5954,
      "ĠaniÅ¾": 5955,
      "ĠusmÄĽ": 5956,
      "ĠhlubokÃ©": 5957,
      "ĠjimiÅ¾": 5958,
      "cie": 5959,
      "ĠkrutÃ½": 5960,
      "Ġero": 5961,
      "ĠÄįechÃ¡ch": 5962,
      "ĠzÃ¡hu": 5963,
      "ĠstrojÃŃ": 5964,
      "ĠkÅĻesÅ¥an": 5965,
      "Ġkoni": 5966,
      "ĠspÅĻÃ¡": 5967,
      "ĠzpÅ¯so": 5968,
      "ĠstrÃ¡ni": 5969,
      "Å¾uje": 5970,
      "ĠÃŃÅ¡tÃŃ": 5971,
      "ĠÅ¡vi": 5972,
      "ĠkvÃ©st": 5973,
      "ĠhovoÅĻÃŃ": 5974,
      "os": 5975,
      "Å¡ad": 5976,
      "ĠpÅĻiÅ¡lo": 5977,
      "Ġtiskne": 5978,
      "zdÄĽ": 5979,
      "ĠhÅ¯l": 5980,
      "nÄĽnÃ½": 5981,
      "ĠÃŃnÃŃ": 5982,
      "Ġvedla": 5983,
      "ĠskrÃ¡ni": 5984,
      "Ã¡k": 5985,
      "ĠsvÄĽtle": 5986,
      "stoupil": 5987,
      "diti": 5988,
      "Ġmrz": 5989,
      "Å¡ÃŃÅ¡": 5990,
      "Ġkrbu": 5991,
      "Ġbor": 5992,
      "Ġmelo": 5993,
      "Ġknihu": 5994,
      "zvuk": 5995,
      "ĠÃ½chÃ¡": 5996,
      "ĠutrpenÃŃ": 5997,
      "ĠÅ¡leh": 5998,
      "ĠboÅ¾skÃ©": 5999,
      "nouc": 6000,
      "ĠkaÅ¾dÃ©ho": 6001,
      "ĠzaplÃ¡": 6002,
      "ĠsladkÃ½m": 6003,
      "jÃŃma": 6004,
      "Ġranou": 6005,
      "Ġniv": 6006,
      "Äįilo": 6007,
      "Ġvedl": 6008,
      "ĠstÄĽn": 6009,
      "ĠÃ¡hle": 6010,
      "Ġvidi": 6011,
      "cemi": 6012,
      "ĠdivnÃ¡": 6013,
      "dÄĽte": 6014,
      "ĠpÅĻedsta": 6015,
      "ĠzÅĻÃŃti": 6016,
      "lat": 6017,
      "rii": 6018,
      "ĠveÅ¡el": 6019,
      "Ġhrot": 6020,
      "ĠstraÅ¡li": 6021,
      "ĠovÃ½m": 6022,
      "Ġust": 6023,
      "Ġoso": 6024,
      "Ġtaje": 6025,
      "ĠlÃ¡kÃ¡": 6026,
      "Ġelou": 6027,
      "vÃŃÅ¡": 6028,
      "Ġpravou": 6029,
      "ĠtÅĻikrÃ¡t": 6030,
      "Ġidem": 6031,
      "ĠÅ¾ele": 6032,
      "Ġsoudu": 6033,
      "ĠajÃŃc": 6034,
      "Ġozval": 6035,
      "Ġskrom": 6036,
      "ĠzbÃ½vÃ¡": 6037,
      "Ġodda": 6038,
      "Ġkdosi": 6039,
      "ĠÅ¡ÃŃÅĻÃŃ": 6040,
      "ĠÄĽka": 6041,
      "ĠnemÅ¯Å¾": 6042,
      "ĠposvÃ¡t": 6043,
      "Ġsnou": 6044,
      "Ġpluje": 6045,
      "Ġzru": 6046,
      "nesla": 6047,
      "bÄĽh": 6048,
      "Ġneob": 6049,
      "Ġharmo": 6050,
      "Ġzval": 6051,
      "ĠplatÃŃ": 6052,
      "ĠkrokÅ¯": 6053,
      "kova": 6054,
      "ĠnepÅĻÃŃtel": 6055,
      "Ġbzu": 6056,
      "ĠuÄįe": 6057,
      "ĠistÃ¡": 6058,
      "Ġjaksi": 6059,
      "ĠdÃŃla": 6060,
      "Ġkoli": 6061,
      "ĠemÃŃ": 6062,
      "ABXB": 6063,
      "ĠsmÄĽsi": 6064,
      "Ġebes": 6065,
      "Ġroucho": 6066,
      "Ġsvate": 6067,
      "ĠproudÃŃ": 6068,
      "nÄįÃŃ": 6069,
      "ĠÄįekÃ¡m": 6070,
      "ĠÄįarodÄĽj": 6071,
      "ĠnÃ©st": 6072,
      "Ġkme": 6073,
      "vobo": 6074,
      "Ġniko": 6075,
      "ĠnadÄĽji": 6076,
      "lÃ©d": 6077,
      "ĠkÅĻiÅ¡Å¥": 6078,
      "Ġdeset": 6079,
      "ĠbÄĽla": 6080,
      "ĠodÅĻÃŃ": 6081,
      "ĠnebesÅ¯m": 6082,
      "Ġesem": 6083,
      "ĠkÃ¡zal": 6084,
      "Ġmohlo": 6085,
      "ĠuÅ¾e": 6086,
      "Ġspro": 6087,
      "Ġdruha": 6088,
      "ĠsahÃ¡": 6089,
      "ĠkrÃ¡lovstvÃŃ": 6090,
      "vostÃŃ": 6091,
      "Ġeslo": 6092,
      "ĠpÄĽknÃ©": 6093,
      "ĠhlÃ¡sÃ¡": 6094,
      "Ġblud": 6095,
      "lilo": 6096,
      "vÄĽjÅ¡ÃŃ": 6097,
      "ĠjunÃ¡": 6098,
      "Ġmsti": 6099,
      "ĠnavrÃ¡": 6100,
      "ĠmodrÃ½ch": 6101,
      "ĠkÅĻÃŃÅ¾em": 6102,
      "fu": 6103,
      "Ġvece": 6104,
      "dÃ©m": 6105,
      "Ġechy": 6106,
      "Ġdostal": 6107,
      "ĠpÅ¯vab": 6108,
      "ĠÄĽmu": 6109,
      "Ġren": 6110,
      "Ġpraco": 6111,
      "ĠnÃ¡roda": 6112,
      "Ġdno": 6113,
      "ĠpÅĻÃŃtom": 6114,
      "Ġuchy": 6115,
      "ĠslyÅ¡te": 6116,
      "ĠvÃ©vo": 6117,
      "Ġdoktor": 6118,
      "knul": 6119,
      "ĠpodÄĽ": 6120,
      "Ġnepla": 6121,
      "Ġoto": 6122,
      "ĠkovÃ¡": 6123,
      "Ġkvas": 6124,
      "hor": 6125,
      "ĠbÃŃlÃ½m": 6126,
      "stÃ¡ch": 6127,
      "Ġslze": 6128,
      "ĠveÅ¡ke": 6129,
      "ĠostatnÃŃ": 6130,
      "Ġhlubiny": 6131,
      "ĠÃ¡tko": 6132,
      "ĠpohÅĻe": 6133,
      "Ġbudoucnosti": 6134,
      "Ġdvak": 6135,
      "Ġdary": 6136,
      "gy": 6137,
      "ron": 6138,
      "ĠrtÅ¯m": 6139,
      "ĠznÄĽlo": 6140,
      "Ġpovr": 6141,
      "ĠneÅĻe": 6142,
      "Ġery": 6143,
      "ĠletÄĽl": 6144,
      "Ġrozvi": 6145,
      "ĠstaÅĻÃŃ": 6146,
      "ĠpÅĻÃ¡telÃ©": 6147,
      "Ġpruh": 6148,
      "Ġfau": 6149,
      "ĠXABABX": 6150,
      "ĠivÃ½m": 6151,
      "Ġlest": 6152,
      "ĠpÃŃlÃŃ": 6153,
      "Ġblesku": 6154,
      "Ġdoj": 6155,
      "ĠronÃŃ": 6156,
      "Ġotco": 6157,
      "vku": 6158,
      "ĠnecÃŃ": 6159,
      "ĠpÅĻijdou": 6160,
      "Ġehu": 6161,
      "Ġpodve": 6162,
      "ĠpyÅ¡nÄĽ": 6163,
      "Ġity": 6164,
      "chodu": 6165,
      "ĠlhÃ¡": 6166,
      "Ġhudby": 6167,
      "ĠhrdÃ½": 6168,
      "ĠhroznÃ¡": 6169,
      "haly": 6170,
      "ĠickÃ½": 6171,
      "Ġedl": 6172,
      "ĠtÄĽÅ¾kÃ½ch": 6173,
      "ĠstrÃ¡nÃŃ": 6174,
      "Ã©ÅĻe": 6175,
      "teÅĻi": 6176,
      "Ġledo": 6177,
      "ĠplÃ¡ni": 6178,
      "Ġblahem": 6179,
      "ĠchvÃŃlÃŃ": 6180,
      "ĠlesÃŃch": 6181,
      "ĠÄįeskÃ½ch": 6182,
      "Ġsply": 6183,
      "ĠÅ¾ili": 6184,
      "ĠnÄĽhy": 6185,
      "Ġkomna": 6186,
      "ĠisÃŃ": 6187,
      "bitÃŃ": 6188,
      "ĠÅ¾ivoby": 6189,
      "Ġjasnou": 6190,
      "sli": 6191,
      "skutku": 6192,
      "Ġslep": 6193,
      "ĠboÅ¾ÃŃm": 6194,
      "Ġbludi": 6195,
      "Å¡ce": 6196,
      "jil": 6197,
      "Ġvskutku": 6198,
      "Ġzast": 6199,
      "ĠÅ¾alem": 6200,
      "nÃ¡n": 6201,
      "ĠvonnÃ©": 6202,
      "Ġdruhou": 6203,
      "ĠkypÃŃ": 6204,
      "Ġpije": 6205,
      "Ġsedm": 6206,
      "znou": 6207,
      "ĠpuÄįÃŃ": 6208,
      "Ġneh": 6209,
      "ama": 6210,
      "ĠadkÃ½": 6211,
      "ÄįÃŃch": 6212,
      "Ġmih": 6213,
      "ÅĪa": 6214,
      "ĠytÃ¡": 6215,
      "ĠdrtÃŃ": 6216,
      "ĠÅ¾alost": 6217,
      "Ġuby": 6218,
      "ĠvÅ¡ed": 6219,
      "Ġvinou": 6220,
      "ĠmlÃ¡de": 6221,
      "Ġporu": 6222,
      "Ġhudbou": 6223,
      "Ġejhle": 6224,
      "ĠvzkÅĻik": 6225,
      "zenÃ©": 6226,
      "Ġalem": 6227,
      "stÃŃm": 6228,
      "Ġtanci": 6229,
      "Ġpaprsky": 6230,
      "Å¾stvÃŃ": 6231,
      "ĠbrÃ¡t": 6232,
      "kÃ½mi": 6233,
      "ĠÃŃkÃ¡": 6234,
      "Ġlety": 6235,
      "ĠÃ©ÅĻe": 6236,
      "ĠlÃ©to": 6237,
      "ĠpohÃ¡d": 6238,
      "bej": 6239,
      "Ġmilovat": 6240,
      "Ġzkr": 6241,
      "Ġzahrady": 6242,
      "Äįat": 6243,
      "Ġnos": 6244,
      "ĠzÃ¡vÄĽ": 6245,
      "ĠvzpomÃŃnky": 6246,
      "ĠkrouÅ¾ÃŃ": 6247,
      "Ġkul": 6248,
      "ĠÄįtve": 6249,
      "ĠnÄĽhoÅ¾": 6250,
      "Ġkouzla": 6251,
      "ĠÃŃry": 6252,
      "Ġnivy": 6253,
      "Ġdcery": 6254,
      "ĠÄĽmÃ½": 6255,
      "Ġmohou": 6256,
      "ĠsÃŃtÄĽ": 6257,
      "ĠkÅĻeh": 6258,
      "Ġobloze": 6259,
      "Ġvzali": 6260,
      "Ġrakev": 6261,
      "Ġhasne": 6262,
      "ĠvzÃŃt": 6263,
      "Ġih": 6264,
      "Ġzad": 6265,
      "nut": 6266,
      "ĠÃºstech": 6267,
      "Ġsvaty": 6268,
      "ĠzachvÄĽl": 6269,
      "ĠkalÃŃ": 6270,
      "ĠdÃ¡lnÃ©": 6271,
      "ĠvolnÃ½": 6272,
      "ĠÅ¾lutÃ©": 6273,
      "ĠjeÅ¾ÃŃ": 6274,
      "ĠkrvÃ¡": 6275,
      "dum": 6276,
      "ĠslÃ¡vou": 6277,
      "it": 6278,
      "ĠÃŃÅ¡i": 6279,
      "Ġproh": 6280,
      "ĠvÃŃnem": 6281,
      "ster": 6282,
      "ĠkrÃ¡tce": 6283,
      "Ġutek": 6284,
      "ĠistÃ©": 6285,
      "ĠvÄĽÅĻit": 6286,
      "ĠoÄįÃŃm": 6287,
      "ĠspÃŃÅ¡e": 6288,
      "ĠkvÃŃtek": 6289,
      "mus": 6290,
      "Ġohem": 6291,
      "hlas": 6292,
      "Ġkdybys": 6293,
      "ĠslednÃŃ": 6294,
      "ĠodÃ¡": 6295,
      "ĠuÄįen": 6296,
      "ĠÃ¡du": 6297,
      "Ġvzej": 6298,
      "lenÃ¡": 6299,
      "ĠvÅ¡ecku": 6300,
      "Ġfranci": 6301,
      "ĠmÄĽstem": 6302,
      "Ġfor": 6303,
      "ĠznÄĽla": 6304,
      "Ġerem": 6305,
      "ĠzlatÄĽ": 6306,
      "Ġkrov": 6307,
      "Ġdvacet": 6308,
      "ĠmdlÃ©": 6309,
      "Ġskro": 6310,
      "Ġvina": 6311,
      "Ġsyny": 6312,
      "Ġpoliti": 6313,
      "ĠneustÃ¡": 6314,
      "Ġulici": 6315,
      "Ġpojednou": 6316,
      "Ġplody": 6317,
      "stvu": 6318,
      "Ġoudu": 6319,
      "ĠÃ©ta": 6320,
      "lin": 6321,
      "ĠtakÃ½": 6322,
      "ĠzoÅĻe": 6323,
      "Ġskrz": 6324,
      "ĠoÄįil": 6325,
      "jdeÅ¡": 6326,
      "ĠhbitÄĽ": 6327,
      "ĠsvÄĽtlÃ½": 6328,
      "ĠnÄĽkolik": 6329,
      "Ġzmu": 6330,
      "ĠvyÅ¡e": 6331,
      "ĠkÅĻÃŃdly": 6332,
      "Ġjih": 6333,
      "toval": 6334,
      "skÃ©mu": 6335,
      "ĠpÅĻedc": 6336,
      "prvÃ©": 6337,
      "Ġpoku": 6338,
      "vÅĻÃŃ": 6339,
      "ĠuvÄĽ": 6340,
      "ĠÃºna": 6341,
      "tuje": 6342,
      "Ġjarem": 6343,
      "dcem": 6344,
      "ĠÃŃnem": 6345,
      "ĠouhÃ¡": 6346,
      "ĠplÃ¡la": 6347,
      "ĠnÃ¡ÅĻek": 6348,
      "Ġsoudru": 6349,
      "ĠsnovÃ©": 6350,
      "Äįan": 6351,
      "Ġzbroj": 6352,
      "pne": 6353,
      "Ġnejle": 6354,
      "ĠbÄĽl": 6355,
      "ĠzalÃ©": 6356,
      "eny": 6357,
      "ĠÃ¡tek": 6358,
      "Ġmudr": 6359,
      "asy": 6360,
      "Ġlos": 6361,
      "Ġnepoz": 6362,
      "Ġjedinou": 6363,
      "Ġkan": 6364,
      "ĠstÃ¡ly": 6365,
      "ĠchrÃ¡nÃŃ": 6366,
      "Ġkriti": 6367,
      "ÅĪal": 6368,
      "Ġcar": 6369,
      "Ġblahu": 6370,
      "ĠodpoÄįÃŃ": 6371,
      "ĠznÄĽly": 6372,
      "ĠÅ¡pa": 6373,
      "ĠrÃ¡ko": 6374,
      "Ġhust": 6375,
      "Ġzimy": 6376,
      "ĠstkvÃŃ": 6377,
      "Ġdlani": 6378,
      "ĠnevÃŃÅ¡": 6379,
      "ĠpaÅĻÃŃ": 6380,
      "ĠstrÃ¡nÄĽ": 6381,
      "ĠdÄĽtstvÃŃ": 6382,
      "ĠnÅ¯Å¾": 6383,
      "ĠÃ¡tka": 6384,
      "ĠbÅĻehy": 6385,
      "Ġpostavy": 6386,
      "Ġsrde": 6387,
      "kru": 6388,
      "Ġspani": 6389,
      "ĠorÃ¡": 6390,
      "Ġkup": 6391,
      "ĠadÃ½": 6392,
      "ĠvzplÃ¡l": 6393,
      "Ġhouf": 6394,
      "ĠilÃŃ": 6395,
      "Ġhrobem": 6396,
      "ĠzazpÃŃ": 6397,
      "ĠblahÃ©": 6398,
      "Ġocho": 6399,
      "cek": 6400,
      "Ġholou": 6401,
      "ĠvodnÃŃ": 6402,
      "ĠstranÄĽ": 6403,
      "Ġsmutnou": 6404,
      "ĠzÃ¡pla": 6405,
      "ĠzdrÃ¡va": 6406,
      "ĠzvukÅ¯": 6407,
      "voval": 6408,
      "Ġpravdou": 6409,
      "Ġchou": 6410,
      "Ġpoha": 6411,
      "pÃ¡n": 6412,
      "ĠnenadÃ¡": 6413,
      "Ġazy": 6414,
      "Ġzhu": 6415,
      "ĠlaÅĪ": 6416,
      "ĠhvÄĽzdami": 6417,
      "Ġfilo": 6418,
      "Ġrce": 6419,
      "ĠtouÅ¾il": 6420,
      "ĠtemnÃ½ch": 6421,
      "ĠhÅĻÃŃchy": 6422,
      "jala": 6423,
      "Ġnebyla": 6424,
      "Ġkvil": 6425,
      "ĠÄĽdÄĽl": 6426,
      "ĠlÃŃtÃ¡": 6427,
      "fÃ¡": 6428,
      "ĠbÃŃdnÃ½": 6429,
      "Å¾emi": 6430,
      "Ġuva": 6431,
      "Ġpusto": 6432,
      "ĠkolÃŃ": 6433,
      "asÃŃ": 6434,
      "pÃŃÅ¡": 6435,
      "ĠÃ¡dal": 6436,
      "vujÃŃ": 6437,
      "ĠÅĻadu": 6438,
      "ĠÄĽd": 6439,
      "Ġlidskou": 6440,
      "ĠmaÄı": 6441,
      "ĠÅ¡ÃŃje": 6442,
      "Äįily": 6443,
      "Ġzlomen": 6444,
      "Ġsklonil": 6445,
      "nnÃ½": 6446,
      "Ġuta": 6447,
      "ĠistÄĽ": 6448,
      "Ġhromu": 6449,
      "ĠzimÄĽ": 6450,
      "ĠÅ¾ivobytÃŃ": 6451,
      "ĠdÃŃm": 6452,
      "zka": 6453,
      "ĠitÃ½": 6454,
      "tiv": 6455,
      "jela": 6456,
      "Ġvypla": 6457,
      "ĠÃ½Å¡i": 6458,
      "Ġpokoje": 6459,
      "ĠmyÅ¡lenka": 6460,
      "ĠpoÅĻÃ¡d": 6461,
      "rÅ¯m": 6462,
      "Ġzara": 6463,
      "ĠdivÃ©m": 6464,
      "ĠXABBA": 6465,
      "ĠtajnÃ©": 6466,
      "ĠÃ¡sa": 6467,
      "ĠchvÄĽnÃŃ": 6468,
      "ĠprospÄĽ": 6469,
      "Ġrozs": 6470,
      "Ġrety": 6471,
      "ĠskÃ¡Äįe": 6472,
      "ĠzimnÃŃ": 6473,
      "Ã½t": 6474,
      "ÅĻiv": 6475,
      "ÅĻenou": 6476,
      "Ġsedmi": 6477,
      "Ġvlasten": 6478,
      "ĠmlÃ½n": 6479,
      "liti": 6480,
      "Ġnekli": 6481,
      "Ġzato": 6482,
      "ĠouhÃ½": 6483,
      "Ġsuk": 6484,
      "Ġvzrost": 6485,
      "ary": 6486,
      "Ġonil": 6487,
      "ĠmraÄįen": 6488,
      "ĠhÅĻÃŃÅ¡": 6489,
      "ĠzahradÄĽ": 6490,
      "Ġramena": 6491,
      "Ġile": 6492,
      "deÅĪ": 6493,
      "ĠdÃŃvku": 6494,
      "ĠÅ¾ivÃ¡": 6495,
      "ĠuhlÃŃ": 6496,
      "ĠsnivÃ©": 6497,
      "ĠschÃ¡zÃŃ": 6498,
      "Ġvzhled": 6499,
      "Ġvesel": 6500,
      "ĠkÅ¡ti": 6501,
      "nÃŃku": 6502,
      "natÃ©": 6503,
      "Ġoddech": 6504,
      "Äįeji": 6505,
      "ĠÅ¾ila": 6506,
      "Äįinu": 6507,
      "Ġprcha": 6508,
      "ĠonÅ¯": 6509,
      "Ġstarce": 6510,
      "lÃŃcÃŃ": 6511,
      "ĠÅ¡Å¥astnÄĽ": 6512,
      "ĠpilnÄĽ": 6513,
      "bral": 6514,
      "Ġnapad": 6515,
      "ĠpÅĻÃŃsta": 6516,
      "ĠvÃ½m": 6517,
      "Ġatil": 6518,
      "Ġskryl": 6519,
      "ÅĻuje": 6520,
      "Ġoze": 6521,
      "Ġnejsi": 6522,
      "Ġhus": 6523,
      "ĠdÅ¯stoj": 6524,
      "Ġarem": 6525,
      "Ġprale": 6526,
      "Ġrato": 6527,
      "ĠÅ¾eÅĪ": 6528,
      "ĠotrÃ¡": 6529,
      "Ġchoro": 6530,
      "ĠhÅĻÃŃchÅ¯": 6531,
      "desÃ¡": 6532,
      "ĠptÃ¡m": 6533,
      "nÃŃky": 6534,
      "ĠhrobÅ¯": 6535,
      "Ġbloudil": 6536,
      "ĠzdvihÃ¡": 6537,
      "Ġsmy": 6538,
      "Ġpova": 6539,
      "ĠÃŃnÅ¯": 6540,
      "Ġjisto": 6541,
      "dÄĽly": 6542,
      "mÄĽla": 6543,
      "Ġsvojich": 6544,
      "vedl": 6545,
      "ĠfarÃ¡": 6546,
      "ĠvÃ½chodu": 6547,
      "ĠhvÃŃ": 6548,
      "Ġpopra": 6549,
      "skÅ¯": 6550,
      "Ġvych": 6551,
      "ĠsklÃŃ": 6552,
      "ĠedÃ½": 6553,
      "Ġpomsty": 6554,
      "Ġdych": 6555,
      "venÃŃ": 6556,
      "ĠholÃ©": 6557,
      "Ġkres": 6558,
      "ĠchvÃ¡tÃ¡": 6559,
      "Ġnevo": 6560,
      "vÃŃvÃ¡": 6561,
      "Ġskok": 6562,
      "ĠdÃ¡Å¡": 6563,
      "stane": 6564,
      "ĠpÅ¯dy": 6565,
      "ĠÃ¡hla": 6566,
      "ĠkoÄįÃ¡": 6567,
      "Ġohla": 6568,
      "Ġplny": 6569,
      "Ġchaty": 6570,
      "ĠzÃ¡ho": 6571,
      "ĠsnÄĽhem": 6572,
      "slov": 6573,
      "Ġjesen": 6574,
      "rÃ¡Å¾ÃŃ": 6575,
      "Å¾iti": 6576,
      "ĠpÃ¡dÃŃ": 6577,
      "ĠastÃŃ": 6578,
      "ĠstÃ½": 6579,
      "ĠjitÅĻ": 6580,
      "ĠstÃ¡lo": 6581,
      "ĠpustÃ½": 6582,
      "Ġvaz": 6583,
      "ĠknÄĽÅ¾ÃŃ": 6584,
      "eno": 6585,
      "Ġmok": 6586,
      "lemi": 6587,
      "Ġjsouc": 6588,
      "Ġtrav": 6589,
      "ĠÃ¡kÅ¯": 6590,
      "ĠÄĽnÃ¡": 6591,
      "Ġvej": 6592,
      "nutÃŃm": 6593,
      "Ġhodin": 6594,
      "Ġpokra": 6595,
      "ĠonÄĽch": 6596,
      "vÄĽti": 6597,
      "ĠoblÃ¡": 6598,
      "ĠzÃ¡stu": 6599,
      "Ġohlas": 6600,
      "Ġzim": 6601,
      "Ġihned": 6602,
      "ptÃ¡": 6603,
      "Ġamy": 6604,
      "Å¡til": 6605,
      "ĠzÃ¡Å¡Å¥": 6606,
      "Ġpavu": 6607,
      "Ġzkad": 6608,
      "ĠvzkÅĻi": 6609,
      "Ġblankytu": 6610,
      "bÃ¡n": 6611,
      "ĠssÃ¡": 6612,
      "lon": 6613,
      "ilÃ©": 6614,
      "sej": 6615,
      "ĠÅ¡ele": 6616,
      "Ġbezna": 6617,
      "ĠmocnÃ©": 6618,
      "ĠznÃ¡mÃ©": 6619,
      "ĠÃ¡ky": 6620,
      "kalo": 6621,
      "ĠkmitÃ¡": 6622,
      "ĠskÅĻivan": 6623,
      "rci": 6624,
      "Ġtlou": 6625,
      "ĠebÃŃ": 6626,
      "ĠpÃŃti": 6627,
      "Ġoblaky": 6628,
      "ul": 6629,
      "Ġanul": 6630,
      "Ġitra": 6631,
      "volu": 6632,
      "Ġyku": 6633,
      "Ġsiro": 6634,
      "Ġpozdvi": 6635,
      "ĠlistÅ¯": 6636,
      "ĠpestrÃ©": 6637,
      "ĠutÃ©": 6638,
      "ĠvlastnÄĽ": 6639,
      "ĠÃŃcÃŃm": 6640,
      "ĠstudÃ¡": 6641,
      "ĠdÃ©le": 6642,
      "ĠiÅ¡tÄĽ": 6643,
      "Ġdopro": 6644,
      "Ġposlal": 6645,
      "ĠÅ¯li": 6646,
      "cenÃ¡": 6647,
      "ĠhoÅ¡i": 6648,
      "bin": 6649,
      "ĠÅ¡epce": 6650,
      "ĠprÃ¡zdnÃ©": 6651,
      "ĠpodzimnÃŃ": 6652,
      "ĠzvÃ¡": 6653,
      "Ġnehy": 6654,
      "ĠvlastnÃŃm": 6655,
      "ĠsadÄĽ": 6656,
      "ie": 6657,
      "vno": 6658,
      "ĠrozlÃŃ": 6659,
      "Ġlnou": 6660,
      "ĠzoufalstvÃŃ": 6661,
      "ĠÃ¡lky": 6662,
      "Ġsmysly": 6663,
      "jo": 6664,
      "ĠseÄį": 6665,
      "ĠptÃ¡ka": 6666,
      "ĠsvÃŃtil": 6667,
      "ĠvtÄĽ": 6668,
      "Ġvni": 6669,
      "ĠÃ¡su": 6670,
      "Ġleto": 6671,
      "ĠmÄĽstu": 6672,
      "ĠplnÃ½m": 6673,
      "ĠpÅĻÃŃsnÄĽ": 6674,
      "ĠnapÅĻed": 6675,
      "ĠoltÃ¡ÅĻi": 6676,
      "Ġim": 6677,
      "ÅĻeli": 6678,
      "ÅĻeje": 6679,
      "ĠkamenÃŃ": 6680,
      "Ġstrun": 6681,
      "ĠtakovÃ©": 6682,
      "ĠnÃ¡bo": 6683,
      "dÅĻÃŃ": 6684,
      "Ġrukama": 6685,
      "Ġpluh": 6686,
      "ĠvysokÃ©": 6687,
      "nÄĽla": 6688,
      "ĠÄĽsti": 6689,
      "Ġhoru": 6690,
      "ĠstÃŃhÃ¡": 6691,
      "vily": 6692,
      "ĠstarÃ©m": 6693,
      "ĠÅ¡lehÃ¡": 6694,
      "vanÃ¡": 6695,
      "ĠteÄįe": 6696,
      "ĠednÃ©": 6697,
      "ĠvÄĽÄįnÃ½ch": 6698,
      "ker": 6699,
      "ĠÃŃvÃ¡m": 6700,
      "ĠhlubokÃ½": 6701,
      "ÄįnÃŃch": 6702,
      "Ġtok": 6703,
      "ĠennÃŃ": 6704,
      "ĠmilÃŃ": 6705,
      "Ġluhy": 6706,
      "ĠzvlÃ¡Å¡tnÃŃ": 6707,
      "ĠpÅ¯lnoc": 6708,
      "ĠvichÅĻice": 6709,
      "Ġdojem": 6710,
      "ĠÃºt": 6711,
      "Ġjedem": 6712,
      "ĠÅ¡edÃ¡": 6713,
      "ĠskÃ¡lu": 6714,
      "Ġpoledne": 6715,
      "Ġohled": 6716,
      "ĠzboÅ¾": 6717,
      "Ġprince": 6718,
      "ĠvavÅĻÃŃ": 6719,
      "ĠhedvÃ¡": 6720,
      "cti": 6721,
      "vanou": 6722,
      "Ġnejde": 6723,
      "ĠslÃ½ch": 6724,
      "Ġovoce": 6725,
      "Ġsatan": 6726,
      "ĠoÅĻ": 6727,
      "ĠvidÄĽla": 6728,
      "ĠbÄĽlo": 6729,
      "ĠlÃ©ka": 6730,
      "ĠvesmÃŃr": 6731,
      "ĠdÄĽsnÃ½": 6732,
      "Ġzpup": 6733,
      "letÄĽl": 6734,
      "ĠivÃ½ch": 6735,
      "Å¥u": 6736,
      "hlÃŃÅ¾ÃŃ": 6737,
      "ĠmyÅ¡lÃ©nka": 6738,
      "roval": 6739,
      "Ġvypl": 6740,
      "ĠÄįervÃ¡nkÅ¯": 6741,
      "nÃŃka": 6742,
      "ĠpÅĻekva": 6743,
      "ĠbleskÅ¯": 6744,
      "ĠAAXBBX": 6745,
      "stila": 6746,
      "ĠprvÃ½": 6747,
      "Ġsoko": 6748,
      "vracÃŃ": 6749,
      "Ġseveru": 6750,
      "tÃ¡ÅĻ": 6751,
      "ĠdÄĽsÃŃ": 6752,
      "pÃŃrÃ¡": 6753,
      "ĠchceÅ¡li": 6754,
      "Ġbalvan": 6755,
      "ca": 6756,
      "ĠnelÃŃ": 6757,
      "titi": 6758,
      "ĠplÃ¡ly": 6759,
      "ĠslabÃ©": 6760,
      "tnÃ½ch": 6761,
      "ĠobjÃŃmÃ¡": 6762,
      "ĠnÃ¡v": 6763,
      "ĠpÃ¡ny": 6764,
      "ĠzdobÃŃ": 6765,
      "ĠideÃ¡": 6766,
      "Ġhubi": 6767,
      "ĠbavÃŃ": 6768,
      "Ġmlze": 6769,
      "ĠnaÅ¡eho": 6770,
      "ĠzmÃŃtÃ¡": 6771,
      "ako": 6772,
      "Ġgro": 6773,
      "ĠÄıÃ¡b": 6774,
      "Ġmladist": 6775,
      "Ġpose": 6776,
      "Ġvzbou": 6777,
      "ĠakÃ©": 6778,
      "ĠpoÅĻÃ¡": 6779,
      "ĠchtÄĽjÃŃ": 6780,
      "ĠpÅĻemÃ½": 6781,
      "Ġchceme": 6782,
      "nÃ©sti": 6783,
      "ĠÅ¡tva": 6784,
      "ĠÅĻÃŃma": 6785,
      "Ġrysy": 6786,
      "ĠneznÃ¡mÃ½": 6787,
      "Ġoblou": 6788,
      "Ġnoh": 6789,
      "Ġpoupat": 6790,
      "ĠtmÃ¡m": 6791,
      "Ġbly": 6792,
      "Ġpoe": 6793,
      "ĠiÅ¡ti": 6794,
      "Ġlibu": 6795,
      "Å¡tÄĽnÃŃ": 6796,
      "Ġvzdoru": 6797,
      "ĠmyÅ¡lÃ©nek": 6798,
      "ĠdvakrÃ¡t": 6799,
      "Ġazem": 6800,
      "ĠburÃ¡": 6801,
      "ĠslastÃŃ": 6802,
      "Ġsoused": 6803,
      "Ġratole": 6804,
      "Ġmam": 6805,
      "ĠpÃ¡ry": 6806,
      "ĠzboÅ¾nÄĽ": 6807,
      "Ġzticha": 6808,
      "zli": 6809,
      "ĠavÃ½ch": 6810,
      "ĠbÃ©ÅĻe": 6811,
      "ĠhoÅĻi": 6812,
      "ĠchrÃ¡my": 6813,
      "ĠtkvÃŃ": 6814,
      "Ġich": 6815,
      "ĠÅ¡erem": 6816,
      "Ġjisker": 6817,
      "Å¡kem": 6818,
      "ĠhladÃŃ": 6819,
      "ĠdruzÃŃ": 6820,
      "ĠsvatÃ©m": 6821,
      "Ġpaprs": 6822,
      "ÄįekÃ¡": 6823,
      "Ġshlu": 6824,
      "ĠpomÃ¡": 6825,
      "ĠpÅĻÃŃklad": 6826,
      "ĠretÅ¯": 6827,
      "Ġulice": 6828,
      "ĠdÃ¡my": 6829,
      "adil": 6830,
      "ĠvzpomÃŃnek": 6831,
      "Ġnohu": 6832,
      "Ġnechte": 6833,
      "Ġmoudrosti": 6834,
      "Ġadost": 6835,
      "Ġsestra": 6836,
      "ABX": 6837,
      "teÄįnÃŃ": 6838,
      "Ġdomy": 6839,
      "ĠhÅĻbitov": 6840,
      "ĠsnÃ¡Å¡ÃŃ": 6841,
      "Ġrol": 6842,
      "Ġvza": 6843,
      "Ġston": 6844,
      "ĠpÅĻesvÄĽd": 6845,
      "Ġnet": 6846,
      "nov": 6847,
      "ĠlodÃŃ": 6848,
      "Ġklesl": 6849,
      "raz": 6850,
      "lie": 6851,
      "Ġchech": 6852,
      "ĠboÅĻÃŃ": 6853,
      "ĠpohÃ¡dky": 6854,
      "ĠnÄĽmÃ¡": 6855,
      "Ġokra": 6856,
      "ĠhledÃ¡m": 6857,
      "ĠsklÃ¡dÃ¡": 6858,
      "ĠmÅ¾ikem": 6859,
      "ĠÅ¡ly": 6860,
      "pÄĽv": 6861,
      "ĠperutÄĽ": 6862,
      "gna": 6863,
      "Ġster": 6864,
      "ĠvÃ½kÅĻi": 6865,
      "Ġmrav": 6866,
      "Ġejich": 6867,
      "ĠrhÃ¡": 6868,
      "Ġlidmi": 6869,
      "ĠzjevÃŃ": 6870,
      "ĠbujnÃ©": 6871,
      "ĠvpÅĻed": 6872,
      "ĠpÅĻelud": 6873,
      "Ġutku": 6874,
      "Ġkorou": 6875,
      "Ġasne": 6876,
      "Ġpraha": 6877,
      "ĠsnÄĽm": 6878,
      "ĠÅĻadou": 6879,
      "zne": 6880,
      "ĠnohÃ¡m": 6881,
      "ĠujeÅ¡": 6882,
      "ĠznÃ¡te": 6883,
      "Ġvezmi": 6884,
      "ĠpÃ½cha": 6885,
      "ĠuÄįil": 6886,
      "ĠchÅĻe": 6887,
      "ĠÅĻÃŃc": 6888,
      "bÃ¡Å¡": 6889,
      "Ġprostor": 6890,
      "cka": 6891,
      "Ġudem": 6892,
      "Ġkop": 6893,
      "Ġdmou": 6894,
      "lÃ¡n": 6895,
      "ĠtÅĻesk": 6896,
      "Ġobrazy": 6897,
      "bce": 6898,
      "Ġoct": 6899,
      "ĠlÃ¡me": 6900,
      "Ġtat": 6901,
      "ÅĪu": 6902,
      "mÃŃvÃ¡": 6903,
      "ĠÅ¾ilÃ¡ch": 6904,
      "ĠlÃŃstek": 6905,
      "ĠmÃŃhÃ¡": 6906,
      "ĠchtÄĽlo": 6907,
      "ĠjinÃ©ho": 6908,
      "Ġrval": 6909,
      "Ġcig": 6910,
      "Ġuml": 6911,
      "ĠnevidÄĽl": 6912,
      "ĠcizÃŃm": 6913,
      "ĠbohatÃ½r": 6914,
      "Ġachem": 6915,
      "don": 6916,
      "ĠÄįechy": 6917,
      "ĠokÃ¡": 6918,
      "Ġprova": 6919,
      "ĠzÃ¡dum": 6920,
      "ĠspÃ¡ti": 6921,
      "ĠÅ¡irÃ½": 6922,
      "zdÃŃ": 6923,
      "ĠÃ¡hÃ¡": 6924,
      "ĠÅ¯nÃŃ": 6925,
      "Ġtvar": 6926,
      "Ġtrium": 6927,
      "ĠovÃ¡n": 6928,
      "ĠÅ¡o": 6929,
      "Ġadil": 6930,
      "ĠpoÄįne": 6931,
      "ĠetÄĽ": 6932,
      "bech": 6933,
      "ĠvÃ¡lky": 6934,
      "ĠstÃ¡do": 6935,
      "ĠzelenÃ½": 6936,
      "ĠpoÅ¾Ã¡r": 6937,
      "bÅ¡ÃŃ": 6938,
      "Äįuje": 6939,
      "ĠtÄĽÅ¾kÃ½m": 6940,
      "ĠtuÅ¡ÃŃm": 6941,
      "ĠkaÅ¾dÃ©mu": 6942,
      "Ġodve": 6943,
      "ĠÅ¡ÃŃj": 6944,
      "ĠzachrÃ¡": 6945,
      "ĠbodÃ¡": 6946,
      "ĠrÅ¯znÃ©": 6947,
      "ĠXABBAX": 6948,
      "ĠÃ¡dnÃ©": 6949,
      "ĠvrÃ¡sky": 6950,
      "Ġminulost": 6951,
      "Ġsep": 6952,
      "ĠiÅ¡ÃŃ": 6953,
      "ĠÅ¾iva": 6954,
      "Ġyna": 6955,
      "Ġplakal": 6956,
      "mÄĽly": 6957,
      "ĠsrdÃ©": 6958,
      "ĠÅ¡epo": 6959,
      "Ġopou": 6960,
      "ĠÄĽnÃŃm": 6961,
      "Ġvysko": 6962,
      "ĠrvÃŃ": 6963,
      "ĠruÄįky": 6964,
      "ĠÄįinu": 6965,
      "Ġlov": 6966,
      "Ġperla": 6967,
      "ĠzÃ¡dumÄįi": 6968,
      "Ġprs": 6969,
      "ĠÅĻece": 6970,
      "ĠkoutÄĽ": 6971,
      "ÄįÃŃÅ¡": 6972,
      "ĠpravÃŃm": 6973,
      "ĠnebeskÃ©": 6974,
      "ĠvrahÅ¯": 6975,
      "ĠchvÄĽlo": 6976,
      "ĠtajemnÃ©": 6977,
      "Ġvnady": 6978,
      "lÃ½mi": 6979,
      "ĠvteÅĻi": 6980,
      "Ġanem": 6981,
      "ĠouÅ¾il": 6982,
      "Å¾at": 6983,
      "ĠnÄĽÅ¾nÃ©": 6984,
      "dily": 6985,
      "skot": 6986,
      "ĠposvÃ¡": 6987,
      "Ġplynou": 6988,
      "ĠrozumÃŃ": 6989,
      "Ġzkla": 6990,
      "Ġzavz": 6991,
      "Ġouha": 6992,
      "Ġnejdra": 6993,
      "ĠmateÅĻ": 6994,
      "ĠrÅ¯znÃ½ch": 6995,
      "Ġpocit": 6996,
      "ĠzaÄįÃŃ": 6997,
      "Ġgu": 6998,
      "sly": 6999,
      "ĠzlÃ½m": 7000,
      "Ġhromo": 7001,
      "ĠvlÃ¡dy": 7002,
      "ĠskalÃ¡ch": 7003,
      "Ġzbylo": 7004,
      "ĠÅ¾ebrÃ¡k": 7005,
      "Ġvlek": 7006,
      "Ġpoklady": 7007,
      "ĠhlasÅ¯": 7008,
      "ĠkouÅĻ": 7009,
      "ĠÅ¾ÃŃzni": 7010,
      "Ġodem": 7011,
      "ĠzkvÃ©": 7012,
      "Ġdovo": 7013,
      "Ġvyho": 7014,
      "ĠodnÃŃ": 7015,
      "ĠnÄĽmÃ©": 7016,
      "ĠÅ¡ÃŃÅĻ": 7017,
      "ĠradosÅ¥": 7018,
      "Ġneje": 7019,
      "ĠpÃ¡nÅ¯": 7020,
      "Ġanti": 7021,
      "ĠchvÄĽj": 7022,
      "ĠÅ¡irÃ©": 7023,
      "mÃŃra": 7024,
      "ĠÄįlovÄĽkem": 7025,
      "Ġmraku": 7026,
      "ĠpevnÃ½": 7027,
      "ĠchtÃŃt": 7028,
      "ĠproklÃŃ": 7029,
      "ĠvÃŃÄįka": 7030,
      "ĠbÄĽhu": 7031,
      "Ġmladost": 7032,
      "ĠmajestÃ¡": 7033,
      "ĠpÄĽti": 7034,
      "Ġnepoko": 7035,
      "Ġvesna": 7036,
      "Ġmen": 7037,
      "Äįeli": 7038,
      "ĠvÅ¡echna": 7039,
      "ĠblaÅ¾ÃŃ": 7040,
      "ĠmrtvÃŃ": 7041,
      "ĠvylÃŃ": 7042,
      "Ġrozka": 7043,
      "Ġceli": 7044,
      "ĠkacÃŃ": 7045,
      "ĠsvatÃ©ho": 7046,
      "Ġhrdla": 7047,
      "ĠpÃ½Å¡e": 7048,
      "ĠvrÃ¡t": 7049,
      "ĠdnovÃ©": 7050,
      "ĠpoprvÃ©": 7051,
      "Ġnaro": 7052,
      "ĠuhÃ½": 7053,
      "Ġesty": 7054,
      "ĠmistÅĻe": 7055,
      "Äįely": 7056,
      "ÅĻeny": 7057,
      "ĠumÅĻel": 7058,
      "Ġvysta": 7059,
      "Ġsouci": 7060,
      "ĠposmÄĽch": 7061,
      "ĠshÃ½": 7062,
      "ĠsnÅ¯m": 7063,
      "ĠstoletÃŃ": 7064,
      "ÅĻely": 7065,
      "Ġzaji": 7066,
      "dÃ¡n": 7067,
      "Ġslavnost": 7068,
      "ĠkÃ¡cÃŃ": 7069,
      "ÅĻÃŃti": 7070,
      "ĠprobÃŃ": 7071,
      "stala": 7072,
      "ĠslabÃ½": 7073,
      "gie": 7074,
      "ĠdÃ¡no": 7075,
      "ĠprvÃ©": 7076,
      "Ġcele": 7077,
      "ĠohÃ½": 7078,
      "ĠkrvavÃ½": 7079,
      "ĠapoÅ¡to": 7080,
      "ÅĻte": 7081,
      "Ġpobo": 7082,
      "ĠÃ¡zel": 7083,
      "ĠÄįistou": 7084,
      "Ġrevolu": 7085,
      "ĠjejichÅ¾": 7086,
      "ĠdrÃ¡hy": 7087,
      "Ġpovstal": 7088,
      "ĠzahÅĻ": 7089,
      "Ġzanech": 7090,
      "Å¡ili": 7091,
      "ĠsÃ¡h": 7092,
      "ĠzmÄĽnÃŃ": 7093,
      "ÄįinÄĽ": 7094,
      "ĠvojÃŃ": 7095,
      "Ġmodro": 7096,
      "snÃ½m": 7097,
      "ĠnevÃ¡": 7098,
      "ĠvÃ¡no": 7099,
      "Ġfial": 7100,
      "ĠpenÄĽz": 7101,
      "zat": 7102,
      "ĠanÅ¯": 7103,
      "Ġkl": 7104,
      "ĠdÅ¾": 7105,
      "ĠbÃ¡snÄĽ": 7106,
      "ĠdivokÃ©": 7107,
      "Ġdopo": 7108,
      "mÅ¯Å¾e": 7109,
      "Ġleta": 7110,
      "ĠspoÄįÃŃ": 7111,
      "ĠÅ¡eptal": 7112,
      "Ġparku": 7113,
      "Ġnasy": 7114,
      "ĠdÄĽlÃŃ": 7115,
      "Ġhluku": 7116,
      "ĠklidnÃ½": 7117,
      "hlÃ½m": 7118,
      "Ġmohli": 7119,
      "emi": 7120,
      "Ġlevo": 7121,
      "piti": 7122,
      "ĠhvÄĽzdou": 7123,
      "Ġpopla": 7124,
      "ĠÃ¡lu": 7125,
      "Ġynul": 7126,
      "ĠskoÄįÃŃ": 7127,
      "ĠposÃŃ": 7128,
      "Ġesou": 7129,
      "ĠÃŃbÃ¡": 7130,
      "Ġslovu": 7131,
      "ĠatÃ½ch": 7132,
      "ĠkrutÃ©": 7133,
      "ĠkrÃ¡tkÃ©": 7134,
      "Ġjdeme": 7135,
      "Ġnedal": 7136,
      "Ġchalou": 7137,
      "Ġvystou": 7138,
      "Ġlip": 7139,
      "lÅ¯v": 7140,
      "ria": 7141,
      "Äįena": 7142,
      "Ġzbude": 7143,
      "ĠÃ¡dky": 7144,
      "Ġzahu": 7145,
      "Ġdocela": 7146,
      "kati": 7147,
      "veÅĪ": 7148,
      "ĠÅ¾ivÃŃ": 7149,
      "ĠtÃŃsnÃŃ": 7150,
      "ĠumÅĻÃŃt": 7151,
      "ĠaÅĻe": 7152,
      "ĠnabÃŃ": 7153,
      "ĠÃ¡nky": 7154,
      "Ġskvr": 7155,
      "Ġsos": 7156,
      "bÃ½vÃ¡": 7157,
      "ĠvÄĽÅĻte": 7158,
      "Ġneli": 7159,
      "Ġnemu": 7160,
      "Ġstranu": 7161,
      "ĠsvÃŃtÃ¡": 7162,
      "Ġsymbo": 7163,
      "ĠmÃŃsÃŃ": 7164,
      "ĠmoudrÃ½": 7165,
      "Ġrolan": 7166,
      "ĠpouhÃ©": 7167,
      "Ġesl": 7168,
      "Ġostro": 7169,
      "ĠnovÃ©ho": 7170,
      "ĠhlÃ¡sÃŃ": 7171,
      "zar": 7172,
      "ĠplnÃ½ch": 7173,
      "ĠnedoÄįka": 7174,
      "Ġlampy": 7175,
      "Ġnejen": 7176,
      "ĠhrÅ¯z": 7177,
      "ĠdÄĽcka": 7178,
      "kynÄĽ": 7179,
      "Ġryk": 7180,
      "Ġgo": 7181,
      "ĠpÃ¡nbÅ¯h": 7182,
      "ĠjmÃ©nem": 7183,
      "ĠnÃ¡mÄĽstÃŃ": 7184,
      "Ġolo": 7185,
      "ĠeÄįer": 7186,
      "ĠrodnÃ½": 7187,
      "Ġposly": 7188,
      "ĠÅĻÃŃdÃŃ": 7189,
      "ĠrekÅ¯": 7190,
      "slÃŃ": 7191,
      "ĠlÃŃtost": 7192,
      "ĠmrtvÃ¡": 7193,
      "ĠposlednÃŃm": 7194,
      "Ġzmatku": 7195,
      "ĠvznÄĽt": 7196,
      "Ġprobou": 7197,
      "Ġvzor": 7198,
      "ĠÃ¡ty": 7199,
      "ĠmocnÃ¡": 7200,
      "ĠvÃŃme": 7201,
      "ĠnovÃ©m": 7202,
      "ĠsmÃŃm": 7203,
      "Ġhisto": 7204,
      "Ġzloba": 7205,
      "ĠnevÄĽdÄĽl": 7206,
      "ĠhleÄıte": 7207,
      "ĠÄįinÅ¯": 7208,
      "ĠkrÃ¡lovna": 7209,
      "ĠvstaÅĪ": 7210,
      "Ġposu": 7211,
      "ĠÃºsmÄĽvu": 7212,
      "ĠbÅĻehÅ¯": 7213,
      "!!": 7214,
      "lice": 7215,
      "Ġperel": 7216,
      "Ġodpor": 7217,
      "Ġzaml": 7218,
      "ĠrovnÄĽÅ¾": 7219,
      "Ġace": 7220,
      "Ġzjas": 7221,
      "ĠsmÃ¡la": 7222,
      "Ġpor": 7223,
      "Ġhladem": 7224,
      "ĠvÅ¡emo": 7225,
      "dly": 7226,
      "Ġesta": 7227,
      "ĠpÅĻehlu": 7228,
      "daje": 7229,
      "ĠteplÃ½": 7230,
      "Ġhospody": 7231,
      "ÃŃch": 7232,
      "ĠÃ¡ka": 7233,
      "skat": 7234,
      "ĠÃŃnÃ¡m": 7235,
      "Ġkopy": 7236,
      "Ġmuzi": 7237,
      "Ġjasno": 7238,
      "Ġkmo": 7239,
      "rod": 7240,
      "ĠskvoucÃŃ": 7241,
      "Ġryb": 7242,
      "ĠubohÃ©": 7243,
      "Ġhejno": 7244,
      "ĠzadÃŃ": 7245,
      "Å¾iv": 7246,
      "Ġhudbu": 7247,
      "Ġvzejde": 7248,
      "ĠkopÃŃ": 7249,
      "Ġmine": 7250,
      "ĠvÃ¡le": 7251,
      "ĠÄįernÃ½m": 7252,
      "Ġpohan": 7253,
      "Ġecky": 7254,
      "ĠnejlepÅ¡ÃŃ": 7255,
      "Ã¡t": 7256,
      "ĠzavÄĽ": 7257,
      "Ġpokoji": 7258,
      "ĠslepÃ½": 7259,
      "Ġkorouh": 7260,
      "Å¥te": 7261,
      "Ġodpla": 7262,
      "ĠcestÃ¡ch": 7263,
      "ĠkrÃ¡snÄĽjÅ¡ÃŃ": 7264,
      "Ġteplo": 7265,
      "stupuje": 7266,
      "Ġvdech": 7267,
      "ĠzlÃ©ho": 7268,
      "ĠÃ¡zem": 7269,
      "ĠostÃ©": 7270,
      "zenÃ½": 7271,
      "Ġoblaka": 7272,
      "ĠkÅĻovÃŃ": 7273,
      "Ġshle": 7274,
      "Ġopa": 7275,
      "Ġekl": 7276,
      "nÄĽly": 7277,
      "ĠvÃ½Äįi": 7278,
      "Ġzjevil": 7279,
      "Ġenci": 7280,
      "ĠhustÃ©": 7281,
      "ĠÅĻem": 7282,
      "ĠÃŃtal": 7283,
      "ĠviÄı": 7284,
      "ĠstÃ¡da": 7285,
      "ĠsladkÃ©m": 7286,
      "Ġzasy": 7287,
      "ĠlÃŃpy": 7288,
      "Ġtluk": 7289,
      "Ġtragi": 7290,
      "ĠmdlÃ¡": 7291,
      "ĠvÃ¡cla": 7292,
      "pka": 7293,
      "Ġmha": 7294,
      "rali": 7295,
      "ĠjeÅ¾ÃŃÅ¡": 7296,
      "Å¾eli": 7297,
      "Ġodsou": 7298,
      "Ġrenal": 7299,
      "ÄįeÅ¾": 7300,
      "Ġkane": 7301,
      "ĠpÄĽjÃŃ": 7302,
      "ĠmarnÃ½": 7303,
      "ĠchvÄĽly": 7304,
      "ĠprÃ¡zdnÃ½": 7305,
      "ĠubohÃ½": 7306,
      "Ġprsten": 7307,
      "ĠozÃŃ": 7308,
      "ĠÃ¡lem": 7309,
      "Ġobec": 7310,
      "stÃŃrÃ¡": 7311,
      "Ġhezky": 7312,
      "ent": 7313,
      "ĠpamÄĽt": 7314,
      "ĠplÃŃÅ¾ÃŃ": 7315,
      "ĠÄĽno": 7316,
      "novu": 7317,
      "mila": 7318,
      "ĠmÄĽly": 7319,
      "ĠhouÅ¡ti": 7320,
      "Ġsel": 7321,
      "vÃ¡na": 7322,
      "Ġrvou": 7323,
      "zala": 7324,
      "ĠstÅĻela": 7325,
      "ĠtÅ¯nÄĽ": 7326,
      "Ġvzplane": 7327,
      "knout": 7328,
      "ari": 7329,
      "ĠmÃ¡k": 7330,
      "ĠplÃ¡lo": 7331,
      "ĠÄįtvr": 7332,
      "ĠpaprskÅ¯": 7333,
      "Ġpnou": 7334,
      "Å¾ily": 7335,
      "ĠnÃ¡rodÅ¯": 7336,
      "Ġhorami": 7337,
      "drÃ¡": 7338,
      "fÃŃ": 7339,
      "Ġika": 7340,
      "tovÃ¡nÃŃ": 7341,
      "ĠzÃ¡po": 7342,
      "Ġojem": 7343,
      "ĠerÃ©": 7344,
      "ĠdruhÅ¯": 7345,
      "Ġstrast": 7346,
      "ĠblahÃ½": 7347,
      "Å¾enÃ½ch": 7348,
      "ĠmarnÃ¡": 7349,
      "Ġoprav": 7350,
      "ĠsnivÃ¡": 7351,
      "Ġvhod": 7352,
      "Ġmozo": 7353,
      "ĠvlaÅ¡to": 7354,
      "ĠkleÄįÃŃ": 7355,
      "ĠspanÃŃ": 7356,
      "Ġsoumraku": 7357,
      "Ġkohou": 7358,
      "pÄĽla": 7359,
      "ĠzdvÃŃ": 7360,
      "Ġvrh": 7361,
      "ĠhÃ¡v": 7362,
      "ĠtisÃŃci": 7363,
      "ĠpÅ¯lnoci": 7364,
      "Ġfo": 7365,
      "ĠpotÄĽÅ¡enÃŃ": 7366,
      "ĠjmÄĽnÃŃ": 7367,
      "pali": 7368,
      "Ġadnou": 7369,
      "Ġzdech": 7370,
      "ĠpaÅ¾ÃŃ": 7371,
      "ĠklasÅ¯": 7372,
      "ĠbijÃŃ": 7373,
      "ĠinnÃ©": 7374,
      "cku": 7375,
      "trÃ¡": 7376,
      "ĠmÅĻÃŃt": 7377,
      "ĠpoÅ¡e": 7378,
      "Ġpre": 7379,
      "prch": 7380,
      "Ġaven": 7381,
      "ĠtuÅ¾eb": 7382,
      "ĠkaÅ¡": 7383,
      "ĠpohÃ¡dka": 7384,
      "ĠboÅ¾stvÃŃ": 7385,
      "ĠjeseÅĪ": 7386,
      "loval": 7387,
      "ÅĻelo": 7388,
      "ĠÃºtu": 7389,
      "Ġolym": 7390,
      "Ġsata": 7391,
      "ĠpÅĻipo": 7392,
      "ĠdÃŃvce": 7393,
      "ĠjdÄĽte": 7394,
      "chi": 7395,
      "Ġisk": 7396,
      "ĠrubÃŃ": 7397,
      "ĠdÄĽvu": 7398,
      "Ġhroma": 7399,
      "Ġnemy": 7400,
      "Ġstrasti": 7401,
      "Ġskokem": 7402,
      "ĠdÃ½mu": 7403,
      "ĠÄĽzdy": 7404,
      "svit": 7405,
      "nova": 7406,
      "ĠcÃŃrkev": 7407,
      "ÅĻÃŃch": 7408,
      "Ġvoje": 7409,
      "ĠhradÄĽ": 7410,
      "ĠchytÃ¡": 7411,
      "Ġtrosky": 7412,
      "ĠpovÄĽst": 7413,
      "ĠoltÃ¡ÅĻe": 7414,
      "Ġtka": 7415,
      "Ġslabo": 7416,
      "ĠtesknÃ©": 7417,
      "ĠvÃ½chod": 7418,
      "Ġ!": 7419,
      "Ġmuky": 7420,
      "ĠnÃ¡vra": 7421,
      "ĠzÃ¡slu": 7422,
      "ĠmnoÅ¾stvÃŃ": 7423,
      "ĠotevÅĻel": 7424,
      "ĠblÃ½ska": 7425,
      "ĠuhÅ¯": 7426,
      "benÃ©": 7427,
      "ĠjizbÄĽ": 7428,
      "pku": 7429,
      "Ġitem": 7430,
      "ĠoblÃ©": 7431,
      "Å¡tÄĽm": 7432,
      "ĠpÅĻedtu": 7433,
      "ĠstÅĻÃŃbrnÃ©": 7434,
      "jila": 7435,
      "ĠÄįte": 7436,
      "ĠhledÄĽ": 7437,
      "ĠpÄĽsti": 7438,
      "ĠdÄĽtskÃ©": 7439,
      "Ġdrahoka": 7440,
      "ĠsnÃ¡Å¡e": 7441,
      "Ġame": 7442,
      "jÃŃti": 7443,
      "Ġcvr": 7444,
      "ĠhorÅ¡ÃŃ": 7445,
      "ĠlehkÃ½": 7446,
      "Ġposte": 7447,
      "ĠnaÅ¡ÃŃm": 7448,
      "teÄįnÄĽ": 7449,
      "Ġprokop": 7450,
      "ĠslÃ¡b": 7451,
      "ĠhÅĻÃŃmÃ¡": 7452,
      "nan": 7453,
      "nÃ¡Å¡el": 7454,
      "Ġobry": 7455,
      "Ġrozbi": 7456,
      "Ġsple": 7457,
      "Ġpravi": 7458,
      "ĠplaÅ¡ÃŃ": 7459,
      "ĠpevnÃ©": 7460,
      "Ġjsy": 7461,
      "ĠvÄĽdomÃŃ": 7462,
      "Ġsocha": 7463,
      "ĠsvÃŃce": 7464,
      "ĠmalÃ½ch": 7465,
      "Ġvezme": 7466,
      "lkÅ¯": 7467,
      "tiny": 7468,
      "dii": 7469,
      "ÅĻÃ¡n": 7470,
      "ĠemnÃ©": 7471,
      "ĠstarÅ¡ÃŃ": 7472,
      "ĠpoÄįÃ¡": 7473,
      "ĠnejdraÅ¾Å¡ÃŃ": 7474,
      "Ġiv": 7475,
      "nuje": 7476,
      "ĠhoÅĻem": 7477,
      "ĠmÃ¡li": 7478,
      "ĠpodlÃ©": 7479,
      "Ġzvuku": 7480,
      "ĠstrÃ¡ÅĪ": 7481,
      "Ġovce": 7482,
      "ĠstÅĻÃŃbrem": 7483,
      "ĠpÅĻijÄı": 7484,
      "ĠdÄĽvÄįÃ¡": 7485,
      "ĠneznÃ¡mÃ©": 7486,
      "ĠbÅĻÃŃmÄĽ": 7487,
      "duje": 7488,
      "Ġplam": 7489,
      "Ġmiluj": 7490,
      "ĠpamÄĽÅ¥": 7491,
      "ĠukÅ¯": 7492,
      "tisk": 7493,
      "ĠÄįeskou": 7494,
      "ĠvÃ¡Å¾nÃ½": 7495,
      "ĠmÃ©nÄĽ": 7496,
      "Ġbere": 7497,
      "Ġanebo": 7498,
      "ĠmÄĽkce": 7499,
      "ĠusmÃ¡l": 7500,
      "skÃ½mi": 7501,
      "Ġatka": 7502,
      "ĠdÄĽsnÃ©": 7503,
      "hi": 7504,
      "Ġsval": 7505,
      "bnÃ½ch": 7506,
      "ĠÄĽlem": 7507,
      "ĠrozvÃ¡": 7508,
      "ĠÃºko": 7509,
      "Ġedli": 7510,
      "ĠtrÃ¡vu": 7511,
      "vÅ¡ad": 7512,
      "ĠplachÃ½": 7513,
      "ĠsdÃŃ": 7514,
      "ĠnaÅ¡li": 7515,
      "Ġihu": 7516,
      "dechu": 7517,
      "Ġprob": 7518,
      "Ġkonci": 7519,
      "Ġzakry": 7520,
      "Ġdivoce": 7521,
      "ĠzÅĻeli": 7522,
      "ÅĪÃ¡": 7523,
      "ĠodÅ¯": 7524,
      "ĠodlÃŃ": 7525,
      "ĠÅ¡av": 7526,
      "ĠkÅĻ": 7527,
      "ĠÃ¡mÃ½": 7528,
      "ĠspÄĽÅ¡": 7529,
      "ÄįkovÃ©": 7530,
      "nickÃ©": 7531,
      "Ġbiskup": 7532,
      "ĠeÄįek": 7533,
      "ĠÃŃnek": 7534,
      "lÃŃp": 7535,
      "ĠlÃ©k": 7536,
      "nickÃ½": 7537,
      "hnouti": 7538,
      "ĠbdÄĽ": 7539,
      "ĠmÃŃst": 7540,
      "ĠobÄĽti": 7541,
      "ĠsvÃ¡tek": 7542,
      "ĠhoupÃ¡": 7543,
      "bami": 7544,
      "Ġzta": 7545,
      "ily": 7546,
      "ditel": 7547,
      "Ġrozpo": 7548,
      "ĠzÃ¡mek": 7549,
      "ĠmÅ¯": 7550,
      "Ġhmy": 7551,
      "ĠhodÃŃ": 7552,
      "ĠrybnÃŃ": 7553,
      "Ġhanu": 7554,
      "Ġhodina": 7555,
      "ajÃŃ": 7556,
      "ĠÃŃtÃŃm": 7557,
      "Ġroku": 7558,
      "ĠrudÃ¡": 7559,
      "Å¾ilo": 7560,
      "ĠodeÅ¡el": 7561,
      "ceni": 7562,
      "ĠnÃ¡rody": 7563,
      "ĠÃ¡vÃ¡m": 7564,
      "Ġlehko": 7565,
      "Ã¡nÃŃ": 7566,
      "Ġsky": 7567,
      "Ġjasem": 7568,
      "ĠmnozÃŃ": 7569,
      "ĠdvoÅĻe": 7570,
      "nkÃ½": 7571,
      "Ġaf": 7572,
      "ĠÃ¡vÃŃ": 7573,
      "ĠvysÃŃ": 7574,
      "ĠnÃ¡ÅĻ": 7575,
      "Ġsrdcy": 7576,
      "ĠsÃŃÅ¥": 7577,
      "Ġenec": 7578,
      "Ġdlel": 7579,
      "ĠknÄĽÅ¾na": 7580,
      "Ġnouze": 7581,
      "ĠÃŃlo": 7582,
      "Ġstala": 7583,
      "ĠostÅĻÃŃ": 7584,
      "cÅ¯v": 7585,
      "ĠnÄĽjÅ¾": 7586,
      "ĠvzÃ¡cnÃ©": 7587,
      "Å¡kÃ¡": 7588,
      "Ġsedla": 7589,
      "Ġinky": 7590,
      "nÄĽt": 7591,
      "ĠpÅĻÃŃtele": 7592,
      "ĠsynÅ¯": 7593,
      "Ġkoruny": 7594,
      "Ġvypro": 7595,
      "dlem": 7596,
      "ĠanÃ½ch": 7597,
      "Ã½val": 7598,
      "Ġodo": 7599,
      "Ġrozhod": 7600,
      "Ġkroku": 7601,
      "Ġchud": 7602,
      "Ġopustil": 7603,
      "ĠtakovÃ½": 7604,
      "ĠpsÃ¡t": 7605,
      "chvÃ¡": 7606,
      "ĠvyklÃ¡": 7607,
      "ĠplesÃ¡": 7608,
      "Ġmrazem": 7609,
      "Ġshr": 7610,
      "tna": 7611,
      "Ġatek": 7612,
      "Ġnachem": 7613,
      "ĠerÃ¡": 7614,
      "ĠdravÃ½": 7615,
      "ĠvÄĽÄįnÃ½m": 7616,
      "ĠtÃ½Å¾": 7617,
      "tkou": 7618,
      "ĠÃŃcÃ½": 7619,
      "Ġtmavou": 7620,
      "ĠÃºtra": 7621,
      "ĠsvobodÄĽ": 7622,
      "ncem": 7623,
      "Ġevy": 7624,
      "ĠÃ¡zd": 7625,
      "ĠÅ¡uma": 7626,
      "ĠdivokÃ½": 7627,
      "ĠvzÃ¡cnÃ½": 7628,
      "ĠtÃ³ny": 7629,
      "ĠÃ¡skou": 7630,
      "ĠjasnÃ½m": 7631,
      "ĠzelenÃ¡": 7632,
      "Ġklene": 7633,
      "Ġroje": 7634,
      "ĠÃºkry": 7635,
      "naly": 7636,
      "ĠveselÃ½": 7637,
      "ĠandÄĽlÃ©": 7638,
      "Ġhrozi": 7639,
      "bÃŃm": 7640,
      "ĠzdÃ¡nÃŃ": 7641,
      "ĠpÅĻemÃŃ": 7642,
      "ĠmÄĽkkÃ½": 7643,
      "rami": 7644,
      "Ġvzpou": 7645,
      "ĠÅ¾iÅ¾ka": 7646,
      "Ġnebla": 7647,
      "ĠnevÄĽÅĻÃŃ": 7648,
      "nskÃ©": 7649,
      "ĠzaÅ¡el": 7650,
      "ĠkÅĻÃŃÅ¾i": 7651,
      "ĠtemnÃ¡": 7652,
      "Ġkyp": 7653,
      "ĠÅ¾ehnÃ¡": 7654,
      "Ġose": 7655,
      "ÅĻÃŃvÃ¡": 7656,
      "Ġrdci": 7657,
      "ĠnÃ¡po": 7658,
      "Ġzne": 7659,
      "Ġtuch": 7660,
      "ĠstaletÃŃ": 7661,
      "ĠlÃŃnÄĽ": 7662,
      "ĠznÃ¡ti": 7663,
      "ĠzboÅ¾ÃŃ": 7664,
      "ĠvodopÃ¡": 7665,
      "ĠdusÃŃ": 7666,
      "Ġhel": 7667,
      "Ġetou": 7668,
      "ĠenÃ©m": 7669,
      "ĠÅ¾ijÃŃ": 7670,
      "nÄĽjÅ¡ÃŃm": 7671,
      "Ġvstane": 7672,
      "Ġrcete": 7673,
      "ĠtÄĽkÃ¡": 7674,
      "ĠpravÃ¡": 7675,
      "Ġpranic": 7676,
      "ĠÃ¡mu": 7677,
      "ĠÃ¡snÃ©": 7678,
      "ĠstÅĻechy": 7679,
      "ĠnevdÄĽ": 7680,
      "ĠzvlÃ¡Å¡tÄĽ": 7681,
      "ĠideÃ¡l": 7682,
      "ĠbohynÄĽ": 7683,
      "nÄĽnou": 7684,
      "ĠÄĽdÃŃ": 7685,
      "ĠÄĽlou": 7686,
      "sajÃŃ": 7687,
      "Ġtemna": 7688,
      "ĠradostnÄĽ": 7689,
      "ĠveÅ¡ker": 7690,
      "ĠÅĪÃ¡dra": 7691,
      "gan": 7692,
      "ĠudÃ½": 7693,
      "ĠdÃ¡val": 7694,
      "ĠbÃŃdÄĽ": 7695,
      "Ġpuk": 7696,
      "ĠbÃ¡znÃŃ": 7697,
      "ĠpokolenÃŃ": 7698,
      "Ġnetr": 7699,
      "Ġuru": 7700,
      "ĠroznÃŃ": 7701,
      "Ġrozez": 7702,
      "ĠlkÃ¡nÃŃ": 7703,
      "Ġstole": 7704,
      "jÅ¡ÃŃm": 7705,
      "ladÅ¡ÃŃ": 7706,
      "ĠÅ¾ÃŃzeÅĪ": 7707,
      "ĠtmavÃ¡": 7708,
      "jeli": 7709,
      "Ġmukou": 7710,
      "ĠrumÄĽ": 7711,
      "Ġref": 7712,
      "Ġvyslo": 7713,
      "ĠÅ¡koly": 7714,
      "ĠtvrdÃ½": 7715,
      "Ġcenu": 7716,
      "ĠsnÃŃm": 7717,
      "Ġproz": 7718,
      "Å¥at": 7719,
      "Ġvyjde": 7720,
      "Å¡enÃ¡": 7721,
      "ĠpÅĻÃ¡telstvÃŃ": 7722,
      "mÄĽlo": 7723,
      "ĠvlastnÃŃch": 7724,
      "ĠmroucÃŃ": 7725,
      "bÅĻe": 7726,
      "ĠlnÃ½": 7727,
      "Ġkapky": 7728,
      "ĠpohleÄı": 7729,
      "plo": 7730,
      "pej": 7731,
      "Ġnehle": 7732,
      "Ġuho": 7733,
      "ĠzanÃŃ": 7734,
      "ĠdÃŃvÃ¡m": 7735,
      "ĠmuÅ¾em": 7736,
      "ĠbohÅ¯m": 7737,
      "Ġikem": 7738,
      "bala": 7739,
      "ĠveselÃŃ": 7740,
      "ĠdrÃ¡hu": 7741,
      "ĠnenadÃ¡nÃŃ": 7742,
      "Ġjizby": 7743,
      "Ġzaslech": 7744,
      "ĠsvÃ¡r": 7745,
      "Ġpevnou": 7746,
      "ĠspoleÄįnosti": 7747,
      "Ġolal": 7748,
      "out": 7749,
      "ĠpÅĻivi": 7750,
      "Ġklidem": 7751,
      "Ġpolibek": 7752,
      "ckÃ©ho": 7753,
      "ĠÃ¡snÄĽ": 7754,
      "ĠÃŃsÃŃ": 7755,
      "Ġhonem": 7756,
      "ĠodnÃ©": 7757,
      "Ġrus": 7758,
      "sala": 7759,
      "ĠzdÃ¡la": 7760,
      "ĠneumÃŃ": 7761,
      "Ġzpola": 7762,
      "ĠuÅ¡lech": 7763,
      "ĠvleÄįe": 7764,
      "ĠokamÅ¾iku": 7765,
      "ĠahÃ©": 7766,
      "ĠÃ¡nem": 7767,
      "ĠniÅ¾": 7768,
      "ĠÅ¡Å¥astnÃ©": 7769,
      "ĠpalÃ¡c": 7770,
      "Ġmiliony": 7771,
      "ĠnevÃ½slov": 7772,
      "Ġvzcho": 7773,
      "ĠÅĻekli": 7774,
      "ĠkÃ½v": 7775,
      "ĠovÄĽk": 7776,
      "Ġave": 7777,
      "Ġmuce": 7778,
      "Ġpustil": 7779,
      "Ġpolibky": 7780,
      "ĠvÄĽrnÃ¡": 7781,
      "Ġoblohou": 7782,
      "pak": 7783,
      "vÃ¡nÃŃm": 7784,
      "Äįeho": 7785,
      "ĠmÄĽÅĻÃŃ": 7786,
      "ĠsnivÃ½": 7787,
      "ĠjakÃ©s": 7788,
      "ĠcÃŃrkve": 7789,
      "Ġprosil": 7790,
      "mund": 7791,
      "ĠÅ¡eÅĻÃŃ": 7792,
      "bku": 7793,
      "Ġoudil": 7794,
      "Ġobloha": 7795,
      "Ġlampa": 7796,
      "Ġuvad": 7797,
      "zÃŃm": 7798,
      "Ġvlaje": 7799,
      "ĠvolÃ¡m": 7800,
      "ĠzalÃŃ": 7801,
      "ĠzapÃ¡": 7802,
      "Ġdrah": 7803,
      "ĠÄįechÅ¯": 7804,
      "ĠhorkÃ©": 7805,
      "ĠÅ¡ik": 7806,
      "Ġjezera": 7807,
      "ĠuchvÃ¡": 7808,
      "Ġvym": 7809,
      "Ġdoli": 7810,
      "ĠÅ¡ve": 7811,
      "Ġbudeme": 7812,
      "ĠmÄĽÅ¡Å¥": 7813,
      "ĠpropastÃŃ": 7814,
      "ĠvzlÃ©t": 7815,
      "Ġchladnou": 7816,
      "Ġheslo": 7817,
      "ĠdlaÅ¾": 7818,
      "ĠvÅĻel": 7819,
      "cestÃŃ": 7820,
      "ĠctÄĽ": 7821,
      "Ġlide": 7822,
      "ĠÃºpÃŃ": 7823,
      "Ġstarci": 7824,
      "kladu": 7825,
      "ĠchrÃ¡mÄĽ": 7826,
      "Ġzrozen": 7827,
      "ĠoÅ¡": 7828,
      "Ġbur": 7829,
      "ĠpeÅĻÃŃ": 7830,
      "Ġdruhy": 7831,
      "ĠÄĽÅ¡ÃŃ": 7832,
      "Ġlehou": 7833,
      "ĠlÅ¾ÃŃ": 7834,
      "ĠstraÅ¡nÃ½": 7835,
      "ĠjaÅĻe": 7836,
      "hlÃ©d": 7837,
      "ÅĻka": 7838,
      "ĠÅ¯ry": 7839,
      "jÃ¡k": 7840,
      "ĠpamÃ¡tku": 7841,
      "ĠzapomnÄĽnÃŃ": 7842,
      "Ġroh": 7843,
      "Ġkovo": 7844,
      "Ġlilie": 7845,
      "ĠzaÅ¡ep": 7846,
      "ĠuvÃ¡": 7847,
      "ĠichÃ¡": 7848,
      "Ġesi": 7849,
      "tati": 7850,
      "ĠbÃŃdnÃ©": 7851,
      "jemi": 7852,
      "Ġvstala": 7853,
      "Ġiro": 7854,
      "ĠÃ¡m": 7855,
      "Ġhody": 7856,
      "ĠnÄĽkte": 7857,
      "Ġkostela": 7858,
      "ckÃ©m": 7859,
      "Ġidy": 7860,
      "ĠmnoÅ¾ÃŃ": 7861,
      "Ġnepokoj": 7862,
      "ĠbolesÅ¥": 7863,
      "pouÅ¡tÃŃ": 7864,
      "ĠmÄĽkkÃ©": 7865,
      "Ġtrysk": 7866,
      "Ġura": 7867,
      "Ġita": 7868,
      "Ġduma": 7869,
      "cena": 7870,
      "cenou": 7871,
      "ĠpÅ¯dÄĽ": 7872,
      "ĠÅĻetÄĽz": 7873,
      "ĠsvatebnÃŃ": 7874,
      "ĠÅ¡kol": 7875,
      "Ġmilos": 7876,
      "ĠjemnÃ©": 7877,
      "ĠtvÅ¯rÄįÃŃ": 7878,
      "ice": 7879,
      "ĠnevrÃ¡tÃŃ": 7880,
      "Ġudce": 7881,
      "Ġinul": 7882,
      "ĠtÃ¡bor": 7883,
      "ĠÅ¾aly": 7884,
      "ĠzaÅ¡lÃ½ch": 7885,
      "ĠvzÃŃti": 7886,
      "ĠudÃ¡": 7887,
      "Ġeci": 7888,
      "ĠÃŃsni": 7889,
      "ĠmilovÃ¡nÃŃ": 7890,
      "Ġtajemnou": 7891,
      "ĠobrÃ¡til": 7892,
      "ĠmaÄıar": 7893,
      "chej": 7894,
      "ĠruÄįe": 7895,
      "Ġtane": 7896,
      "ĠkvÄĽtech": 7897,
      "ĠkrutÄĽ": 7898,
      "ĠÃ¡di": 7899,
      "ĠtovÃ¡": 7900,
      "lumen": 7901,
      "nus": 7902,
      "ĠsmÃ½": 7903,
      "Ġpamat": 7904,
      "stroj": 7905,
      "ĠvÄĽÅ¾i": 7906,
      "ĠnejdÅĻÃŃ": 7907,
      "Ġkletba": 7908,
      "ĠlÅ¯Å¾ko": 7909,
      "dnÃ©ho": 7910,
      "Ġprovo": 7911,
      "ĠlekÃ¡": 7912,
      "ĠkouÅĻÃŃ": 7913,
      "ĠslavnÃ½ch": 7914,
      "ĠpsanÃŃ": 7915,
      "Ġpropad": 7916,
      "Ġsnahy": 7917,
      "ĠstarÃ½m": 7918,
      "ĠhlasnÄĽ": 7919,
      "ĠobÄĽtÃŃ": 7920,
      "Ġstin": 7921,
      "ĠmraÄįno": 7922,
      "snÃ©m": 7923,
      "tiÅ¾": 7924,
      "Ġvzo": 7925,
      "Ġsluha": 7926,
      "ĠzmÃ¡men": 7927,
      "ĠskalnÃŃ": 7928,
      "sÃ¡m": 7929,
      "Å¾no": 7930,
      "ĠmodrÃ¡": 7931,
      "ĠtmavÃ½ch": 7932,
      "Ġvolnosti": 7933,
      "ĠslÃ©t": 7934,
      "ĠiÅ¡el": 7935,
      "ĠvÄĽno": 7936,
      "ĠÃ©no": 7937,
      "Ġanna": 7938,
      "Ġtrap": 7939,
      "ĠkvÄĽtiny": 7940,
      "ĠÅ¡al": 7941,
      "Ġpavou": 7942,
      "ĠruÅ¡ÃŃ": 7943,
      "ĠvodÃŃ": 7944,
      "ĠprÃ¡vem": 7945,
      "ĠdobrÃ½ch": 7946,
      "ĠsÃŃmÄĽ": 7947,
      "ÅĻeno": 7948,
      "ÅĻenÃ½m": 7949,
      "ĠstÅĻÃŃbrnÃ½": 7950,
      "Ġosty": 7951,
      "ĠÄĽcko": 7952,
      "volnÄĽ": 7953,
      "Ġtvojich": 7954,
      "cos": 7955,
      "Ġmrazi": 7956,
      "ĠhospodÃ¡ÅĻ": 7957,
      "blesk": 7958,
      "Ġhladu": 7959,
      "ĠÅ¡irÃ©m": 7960,
      "Ġzbyla": 7961,
      "Ġroucha": 7962,
      "Ġche": 7963,
      "ĠABC": 7964,
      "ĠvÃŃnek": 7965,
      "ĠzemÅĻel": 7966,
      "ĠpÅĻedce": 7967,
      "ĠskrÃ½Å¡": 7968,
      "ĠstatnÃ½": 7969,
      "Ġaci": 7970,
      "Ġmojich": 7971,
      "ĠmuÄįÃŃ": 7972,
      "ĠtrnÃŃ": 7973,
      "ĠzÃŃral": 7974,
      "Ġnebudu": 7975,
      "ĠÄĽstu": 7976,
      "ĠouÅĻe": 7977,
      "Ġvlno": 7978,
      "ĠsuchÃ©": 7979,
      "ĠÃºsvi": 7980,
      "ĠtÅ¯ÅĪ": 7981,
      "Ġrez": 7982,
      "ĠvlÃ¡dce": 7983,
      "ĠpestrÃ½": 7984,
      "ĠklÃ¡Å¡ter": 7985,
      "Å¥al": 7986,
      "Ġvyrost": 7987,
      "Ġcitem": 7988,
      "ĠdÅĻÃŃma": 7989,
      "ĠozÃ½vÃ¡": 7990,
      "ĠiÄįek": 7991,
      "ĠjakÃ½m": 7992,
      "ĠÃŃsta": 7993,
      "vaÅ¥": 7994,
      "ĠtrÄįÃŃ": 7995,
      "ĠhvÄĽzdnÃ©": 7996,
      "ĠstÅĻech": 7997,
      "ĠasÃŃ": 7998,
      "ĠunÃŃ": 7999,
      "kuje": 8000,
      "Ġlep": 8001,
      "ĠvybÃŃ": 8002,
      "ĠystÃ¡": 8003,
      "ĠspÃ¡su": 8004,
      "Ġsadu": 8005,
      "Ġvesny": 8006,
      "Ġzdroje": 8007,
      "ĠnahÃ¡": 8008,
      "Ġhodil": 8009,
      "vedu": 8010,
      "ĠdrahÃ½ch": 8011,
      "ĠpoÅ¾ehnÃ¡": 8012,
      "ĠdotÃ½": 8013,
      "Ġtoli": 8014,
      "Ġsul": 8015,
      "ĠzulÃŃ": 8016,
      "ĠÅ¡lechet": 8017,
      "enÃ©": 8018,
      "roti": 8019,
      "Ġpohla": 8020,
      "Ġmlhou": 8021,
      "ĠzhlÃŃ": 8022,
      "koliv": 8023,
      "Ġai": 8024,
      "Ġobdi": 8025,
      "ĠbujnÃ½": 8026,
      "Ġzastavil": 8027,
      "Ġklobouk": 8028,
      "ĠhvÃŃz": 8029,
      "ĠsbÄĽ": 8030,
      "talo": 8031,
      "ĠbÃ¡znÄĽ": 8032,
      "ĠsnÄĽho": 8033,
      "ĠzuÅĻi": 8034,
      "ĠblÃ¡ho": 8035,
      "Ġokouz": 8036,
      "ĠmlÃ¡deÅ¾": 8037,
      "Ġusy": 8038,
      "Ġisty": 8039,
      "Ġinku": 8040,
      "ĠmetÃ¡": 8041,
      "Ġbah": 8042,
      "Ġrozumu": 8043,
      "Ġvous": 8044,
      "ĠdÃŃtko": 8045,
      "Ġnemi": 8046,
      "Ġcizo": 8047,
      "ĠdlouhÃ½m": 8048,
      "Ġdarem": 8049,
      "ĠhlubinÃ¡ch": 8050,
      "Ġvstoupil": 8051,
      "ĠvÃ½smÄĽ": 8052,
      "lÅ¯m": 8053,
      "jet": 8054,
      "Ġchalu": 8055,
      "ĠÃºdÄĽl": 8056,
      "Ġresi": 8057,
      "vena": 8058,
      "ĠzÅĻÃŃdka": 8059,
      "ĠslouÅ¾ÃŃ": 8060,
      "ĠÄįÃ¡st": 8061,
      "Ġceny": 8062,
      "ĠnÃ©sti": 8063,
      "ĠcÃŃtit": 8064,
      "ĠbÄĽlÃ¡": 8065,
      "ĠÅ¡Å¥astni": 8066,
      "Ġusil": 8067,
      "ĠmocnÃ½m": 8068,
      "ĠlÅ¯no": 8069,
      "ĠulÃŃ": 8070,
      "ĠÅ¡erÃ½": 8071,
      "Ġshro": 8072,
      "ĠstÅ¯": 8073,
      "ĠbÃ¡jÃŃ": 8074,
      "ĠchuÄı": 8075,
      "nÄĽna": 8076,
      "ruje": 8077,
      "doval": 8078,
      "ĠpÅĻej": 8079,
      "leno": 8080,
      "Ġvlak": 8081,
      "ĠtÃŃseÅĪ": 8082,
      "Ġostem": 8083,
      "Ġvnik": 8084,
      "ĠÃ¡jÃŃ": 8085,
      "ĠÃŃmi": 8086,
      "Ġhocha": 8087,
      "Ġtichem": 8088,
      "Ġkletby": 8089,
      "Ġpohledu": 8090,
      "ĠmstÃŃ": 8091,
      "Ġhvi": 8092,
      "Ġitel": 8093,
      "ĠrozvÃŃ": 8094,
      "ĠkvÄĽte": 8095,
      "chajÃŃ": 8096,
      "ctvo": 8097,
      "ĠpotkÃ¡": 8098,
      "Ġvezdy": 8099,
      "Ġneskonal": 8100,
      "lÃ¡Å¡": 8101,
      "ĠbrÃ¡na": 8102,
      "Ġvzma": 8103,
      "ĠstÃ¡vÃ¡": 8104,
      "Ġkladi": 8105,
      "ĠsedlÃ¡k": 8106,
      "Ġdluh": 8107,
      "Ġthe": 8108,
      "Ġnastal": 8109,
      "Ġlna": 8110,
      "ĠsnÄĽti": 8111,
      "Ġzml": 8112,
      "Ġzamra": 8113,
      "pÅĻi": 8114,
      "Ġpodu": 8115,
      "ĠmÃ¡je": 8116,
      "ĠÄįernÃ©m": 8117,
      "ĠpohlÃŃ": 8118,
      "Å¾eno": 8119,
      "ĠsedlÃ¡": 8120,
      "Ġrozply": 8121,
      "ĠohÃ¡": 8122,
      "Ġzane": 8123,
      "Ġsup": 8124,
      "vnitÅĻ": 8125,
      "ĠbÅĻit": 8126,
      "ĠkabÃ¡": 8127,
      "Ġonem": 8128,
      "ĠstraÅ¡nÃ©": 8129,
      "Ġfrancou": 8130,
      "ĠnahoÅĻe": 8131,
      "Ġamo": 8132,
      "Ġmhou": 8133,
      "Ġrovi": 8134,
      "ĠvÄĽzenÃŃ": 8135,
      "ĠpÃŃsek": 8136,
      "ĠvÃ½so": 8137,
      "ĠmÄĽsÃŃci": 8138,
      "ĠhoroucÃŃ": 8139,
      "Ġevu": 8140,
      "ĠsloÅ¾il": 8141,
      "ĠdÃŃvko": 8142,
      "ĠkvÃŃtÃŃm": 8143,
      "Ġsever": 8144,
      "pÅĻe": 8145,
      "Ġposa": 8146,
      "ĠnÄĽhu": 8147,
      "ĠatÃ©m": 8148,
      "ĠjiskÅĻÃŃ": 8149,
      "Ġdobrodru": 8150,
      "ĠbystÅĻi": 8151,
      "Ġvelkole": 8152,
      "dÅĻi": 8153,
      "hlÃ½ch": 8154,
      "Ġdoho": 8155,
      "Ġenky": 8156,
      "ĠdeÅ¡ti": 8157,
      "ĠsvÄĽÅ¾e": 8158,
      "Ġpluk": 8159,
      "ĠpalÃ¡ce": 8160,
      "Ġvno": 8161,
      "Ġvysla": 8162,
      "ĠvyÅ¡li": 8163,
      "Ġrozva": 8164,
      "ĠkrÃ¡lo": 8165,
      "Ġske": 8166,
      "Å¡tÄĽn": 8167,
      "ĠjeÅ¾to": 8168,
      "ĠmÃŃÅĻÃŃ": 8169,
      "Äįeno": 8170,
      "ĠvdÄĽÄįnÄĽ": 8171,
      "dÃ¡me": 8172,
      "ĠdokonÃ¡": 8173,
      "Ġzabo": 8174,
      "ĠvyrÅ¯": 8175,
      "cenÃ½ch": 8176,
      "Ġveleb": 8177,
      "ĠjitÅĻnÃŃ": 8178,
      "ĠsnÄĽtÃŃ": 8179,
      "ĠokolÃŃ": 8180,
      "ĠspÄĽchal": 8181,
      "Ġsloupy": 8182,
      "ĠteplÃ©": 8183,
      "znÃ½ch": 8184,
      "voÅĻÃŃ": 8185,
      "Ġprokla": 8186,
      "ĠadÃ©": 8187,
      "Ġchudi": 8188,
      "clo": 8189,
      "ĠzabÃŃ": 8190,
      "Ġhromy": 8191,
      "ĠbezdÄĽ": 8192,
      "Ġhluch": 8193,
      "Ġmnoh": 8194,
      "ĠstÄĽÅ¾ÃŃ": 8195,
      "ĠpÄĽknÃ½": 8196,
      "ĠzaÅ¡u": 8197,
      "ĠniÄįem": 8198,
      "ĠplÃ¡nÄĽ": 8199,
      "Ġflo": 8200,
      "ĠfrÃ¡": 8201,
      "ĠvÄĽÄįna": 8202,
      "Ġoknech": 8203,
      "ĠspÄĽchu": 8204,
      "Ġpivo": 8205,
      "ĠznaÄįÃŃ": 8206,
      "ĠÅ¾havÃ¡": 8207,
      "ĠmrÃ¡ko": 8208,
      "ĠdrobnÃ½ch": 8209,
      "Ġvozy": 8210,
      "chali": 8211,
      "ĠdÃ¡vnÃ½": 8212,
      "Ġpych": 8213,
      "Ġpodob": 8214,
      "ĠsluneÄįnÃŃ": 8215,
      "jnÃ¡": 8216,
      "Ġpli": 8217,
      "ĠÃ¡d": 8218,
      "jezd": 8219,
      "ĠpÅĻeje": 8220,
      "ĠtulÃŃ": 8221,
      "Ġpravila": 8222,
      "zdra": 8223,
      "ĠotÅĻÃ¡": 8224,
      "ĠjasnÃ½ch": 8225,
      "Ġhrdli": 8226,
      "hradu": 8227,
      "ĠzÃ¡stupy": 8228,
      "Ġkapi": 8229,
      "ĠdÃŃlu": 8230,
      "Ġpokle": 8231,
      "Ġplamenem": 8232,
      "Ġleskne": 8233,
      "ĠmoudÅĻe": 8234,
      "ĠsbÃŃrÃ¡": 8235,
      "ĠpastÃ½ÅĻ": 8236,
      "ĠeÄįnÄĽ": 8237,
      "ĠtuÅ¥": 8238,
      "ĠmÃŃjÃŃ": 8239,
      "Å¡ena": 8240,
      "ĠzrÃ¡dce": 8241,
      "ĠnedbÃ¡": 8242,
      "ĠÅĻasy": 8243,
      "ĠzamyÅ¡len": 8244,
      "ĠdobrÃ½m": 8245,
      "ĠchvÄĽt": 8246,
      "ĠslavnÃ¡": 8247,
      "ĠmÃ¡ji": 8248,
      "ĠpustÃ¡": 8249,
      "Ġgene": 8250,
      "ÄįenÃ¡": 8251,
      "ĠchuÅ¥": 8252,
      "ĠzpÃŃvajÃŃ": 8253,
      "brat": 8254,
      "ĠvchÃ¡zÃŃ": 8255,
      "Ġhl": 8256,
      "ĠÃ¡sti": 8257,
      "ĠÄĽkem": 8258,
      "Ġrozli": 8259,
      "Ġysy": 8260,
      "vyk": 8261,
      "Ġnepohnu": 8262,
      "ĠÅĻekni": 8263,
      "Ġzavr": 8264,
      "ĠvÄĽdÄĽt": 8265,
      "ĠdÃŃvat": 8266,
      "ĠjÃŃz": 8267,
      "Ġneznal": 8268,
      "Ġjala": 8269,
      "Ġotrok": 8270,
      "ĠverÅ¡Å¯": 8271,
      "Ġudat": 8272,
      "ĠÃ¡ku": 8273,
      "ĠvyÄįÃŃ": 8274,
      "ver": 8275,
      "ĠjenÅ¾to": 8276,
      "Ġluhu": 8277,
      "ĠsilnÃ©": 8278,
      "Ġvichrem": 8279,
      "Ġrakvi": 8280,
      "ĠnebezpeÄįÃŃ": 8281,
      "cnost": 8282,
      "onÅ¯": 8283,
      "Ġdoly": 8284,
      "Ġmozek": 8285,
      "Ġkousek": 8286,
      "ĠkÅĻÃŃdlech": 8287,
      "Ġzadr": 8288,
      "ĠrÄįÃŃ": 8289,
      "Ġstop": 8290,
      "ĠcÃŃtÃŃÅ¡": 8291,
      "skvÄĽ": 8292,
      "ĠÃŃm": 8293,
      "ĠÃŃÄįko": 8294,
      "Ġprok": 8295,
      "ĠpaÅ¾e": 8296,
      "Ġslab": 8297,
      "ĠpukÃ¡": 8298,
      "Ġmrakem": 8299,
      "ĠprochÃ¡": 8300,
      "Ġfu": 8301,
      "ĠklidnÃ©": 8302,
      "ĠbrÃ¡nu": 8303,
      "Ġzko": 8304,
      "Å¡nÃ¡": 8305,
      "ĠveÄı": 8306,
      "dovi": 8307,
      "ĠkoÅĻÃŃ": 8308,
      "Å¡enÄĽ": 8309,
      "ĠnemÃ¡Å¡": 8310,
      "ĠpÅĻÃŃÅ¡tÃŃch": 8311,
      "Ġschy": 8312,
      "Ġpomys": 8313,
      "Ġpropu": 8314,
      "ĠannÃŃ": 8315,
      "Ġvraha": 8316,
      "ĠznÃŃt": 8317,
      "ĠuklÃ¡": 8318,
      "ĠkoÅĻeny": 8319,
      "ĠmÅ¡i": 8320,
      "ĠseÅ¡": 8321,
      "ĠeÄįnÃ©": 8322,
      "Ġsluchu": 8323,
      "Ġkniha": 8324,
      "ĠzbabÄĽ": 8325,
      "ĠsnoubÃŃ": 8326,
      "ĠnachÃ½": 8327,
      "Ġepi": 8328,
      "ĠdÃ¡lnÃ½ch": 8329,
      "Ġzraje": 8330,
      "Ġmozku": 8331,
      "Ġrozkaz": 8332,
      "Ġskou": 8333,
      "ĠpÅĻÃŃsnÃ½": 8334,
      "ĠvesmÃŃ": 8335,
      "ĠulicÃŃch": 8336,
      "ĠernÃ©": 8337,
      "ĠbojÅ¯": 8338,
      "Ġzvou": 8339,
      "ĠnedÅ¯": 8340,
      "ĠvÃŃla": 8341,
      "ĠpohnutÃŃ": 8342,
      "Ġdcero": 8343,
      "ĠzaÄįne": 8344,
      "hrÃ¡": 8345,
      "Ġsig": 8346,
      "Ġlup": 8347,
      "ĠznÃ¡mo": 8348,
      "Ġzvedne": 8349,
      "ĠhojnÄĽ": 8350,
      "ĠpÃ½chou": 8351,
      "ĠÃŃdal": 8352,
      "vÃ¡no": 8353,
      "Ġodlesk": 8354,
      "Ġoupil": 8355,
      "Ġblouzni": 8356,
      "ĠskvÄĽlÃ½": 8357,
      "ĠstvoÅĻil": 8358,
      "Ġelu": 8359,
      "ĠzaÅ¡la": 8360,
      "Ġsamy": 8361,
      "Ġstatky": 8362,
      "ĠokamÅ¾enÃŃ": 8363,
      "arÃ¡": 8364,
      "Ġinka": 8365,
      "ĠÄĽho": 8366,
      "Ġtakou": 8367,
      "kÃ¡zal": 8368,
      "ĠpraÅ¾": 8369,
      "ĠtÃ¡hla": 8370,
      "vÃ¡me": 8371,
      "naje": 8372,
      "kolem": 8373,
      "toma": 8374,
      "Ġdivem": 8375,
      "Ġreka": 8376,
      "ĠdÄĽlat": 8377,
      "ĠnajdeÅ¡": 8378,
      "Ġsmilo": 8379,
      "lali": 8380,
      "Ġuha": 8381,
      "Ġicho": 8382,
      "ĠidÃŃm": 8383,
      "Ġjina": 8384,
      "ĠpÅĻim": 8385,
      "Ġpodal": 8386,
      "Ġbledne": 8387,
      "ĠveselÃ©": 8388,
      "ĠzasmuÅ¡il": 8389,
      "ĠcÃ½": 8390,
      "Ġprod": 8391,
      "ĠholÃ¡": 8392,
      "ĠdÃŃtek": 8393,
      "Ġdivou": 8394,
      "ĠptÃ¡Äįek": 8395,
      "ĠspÃŃnÃ¡": 8396,
      "ĠÄįtenÃ¡": 8397,
      "ĠistÃ½": 8398,
      "Ġkot": 8399,
      "ĠnÄĽhou": 8400,
      "mÃ¡l": 8401,
      "pajÃŃ": 8402,
      "Ġvlk": 8403,
      "Ġsady": 8404,
      "ĠneÄįi": 8405,
      "ĠvztÃ½": 8406,
      "Ġanci": 8407,
      "ĠmyslÃŃÅ¡": 8408,
      "rz": 8409,
      "Ġjedu": 8410,
      "Ġzava": 8411,
      "ĠobilÃŃ": 8412,
      "Ġpospo": 8413,
      "Ġadce": 8414,
      "ĠrÅ¯st": 8415,
      "ĠstÅĻed": 8416,
      "Ġhloubky": 8417,
      "ĠmatiÄįko": 8418,
      "ĠzÃ¡vist": 8419,
      "Ġope": 8420,
      "Ġjesky": 8421,
      "ĠeÃ¡": 8422,
      "ĠÃŃtky": 8423,
      "ĠÄĽhy": 8424,
      "Ġprose": 8425,
      "pÃ¡ch": 8426,
      "Ġzloby": 8427,
      "Ġkriste": 8428,
      "ĠvlÃŃdnÃ½": 8429,
      "Ġnedba": 8430,
      "ĠzkamenÄĽ": 8431,
      "Ġsboru": 8432,
      "ĠvzrÅ¯stÃ¡": 8433,
      "Ġmami": 8434,
      "Ġjek": 8435,
      "ĠemÃ¡": 8436,
      "ĠchvÃ¡lÃŃ": 8437,
      "ĠpoÅ¾ehna": 8438,
      "ĠhedbÃ¡": 8439,
      "lnost": 8440,
      "ĠrvÃ¡t": 8441,
      "ĠvÄĽÅĻil": 8442,
      "danÃ©": 8443,
      "Ġoubi": 8444,
      "ĠkrutÃ¡": 8445,
      "ĠrÅ¯Å¾ovÃ©": 8446,
      "ĠtiÅ¡i": 8447,
      "ĠzÃ¡vod": 8448,
      "ĠychÃ¡": 8449,
      "ĠtichÃ½ch": 8450,
      "ĠvÅĻelÃ©": 8451,
      "Ġ22": 8452,
      "Ġholubice": 8453,
      "Å¾kou": 8454,
      "tina": 8455,
      "ĠslunÃ©": 8456,
      "ĠcizÃ¡": 8457,
      "ĠrÅ¯Å¾emi": 8458,
      "ĠdÅĻÃŃme": 8459,
      "Ġzvukem": 8460,
      "Ġneur": 8461,
      "Ġvypo": 8462,
      "ĠpÅĻeko": 8463,
      "Ġmrtvou": 8464,
      "ĠnenÃ¡vist": 8465,
      "ĠspanilÃ¡": 8466,
      "Ġzatra": 8467,
      "ĠvÃ¡hÃ¡": 8468,
      "ĠÅ¯stÃ¡": 8469,
      "Ġokovy": 8470,
      "Ġpaty": 8471,
      "Ġkameny": 8472,
      "Ġvizte": 8473,
      "Ġdem": 8474,
      "Ġia": 8475,
      "ĠÃŃzy": 8476,
      "dovat": 8477,
      "Ġlije": 8478,
      "Ġzik": 8479,
      "ĠstejnÃ©": 8480,
      "Ġzapomenu": 8481,
      "vami": 8482,
      "Ġtahy": 8483,
      "ĠdobÃ¡ch": 8484,
      "Ġpadlo": 8485,
      "ĠhlÃŃdÃ¡": 8486,
      "Ġnovo": 8487,
      "ĠskÅĻe": 8488,
      "ĠpoÄįkej": 8489,
      "Ġsmo": 8490,
      "bych": 8491,
      "Ġdlouze": 8492,
      "ĠjedenkrÃ¡t": 8493,
      "ĠkolÃ©bky": 8494,
      "cÃ©": 8495,
      "ĠÃ¡lÃ¡": 8496,
      "ĠkrajÅ¯": 8497,
      "ĠvÄįely": 8498,
      "Ġsestro": 8499,
      "ovi": 8500,
      "Ã¡jem": 8501,
      "Ġjedova": 8502,
      "ĠutÃ¡": 8503,
      "vejte": 8504,
      "Äįinou": 8505,
      "Ġhrady": 8506,
      "ĠoblakÅ¯": 8507,
      "ĠfarÃ¡ÅĻ": 8508,
      "ĠnÃŃtÃŃ": 8509,
      "Å¡enÃ½ch": 8510,
      "ĠhrÃ¡z": 8511,
      "sÅ¡ÃŃ": 8512,
      "ĠsterÃ©": 8513,
      "ĠdÅ¯kaz": 8514,
      "ĠdomÃ¡cÃŃ": 8515,
      "Ġaka": 8516,
      "ĠkomÃŃ": 8517,
      "Ġobro": 8518,
      "ĠzasvÄĽ": 8519,
      "tri": 8520,
      "Ġsynem": 8521,
      "ĠtÃŃsni": 8522,
      "Ġostrov": 8523,
      "ĠkaÅ¾di": 8524,
      "Ġang": 8525,
      "ĠptÃ¡ky": 8526,
      "Ġvadne": 8527,
      "Ã©l": 8528,
      "ĠÃ¡kÃ¡": 8529,
      "Ġrodnou": 8530,
      "ĠvznÃ¡Å¡e": 8531,
      "ĠpÅĻedkÅ¯": 8532,
      "Ġadly": 8533,
      "Ġnemohou": 8534,
      "ĠjednotvÃ¡": 8535,
      "prÃ¡": 8536,
      "ĠplachÃ©": 8537,
      "ĠÄįisto": 8538,
      "Ġjun": 8539,
      "ĠhrÃ¡la": 8540,
      "Ġocel": 8541,
      "Ġchasa": 8542,
      "Ġtohle": 8543,
      "Ġroman": 8544,
      "ĠrozÅ¾": 8545,
      "ĠÅ¾ivou": 8546,
      "ĠmodrÃ½m": 8547,
      "prve": 8548,
      "ĠidÃ©": 8549,
      "ĠÄĽstÄĽ": 8550,
      "Ġvyra": 8551,
      "ĠvÄĽjÃŃ": 8552,
      "Ġnit": 8553,
      "Ġdivnou": 8554,
      "ĠzmÃ¡": 8555,
      "ĠopÄĽ": 8556,
      "Ġnecho": 8557,
      "Ġobsa": 8558,
      "Ġyta": 8559,
      "Ġout": 8560,
      "ĠnÃ¡rodnÃŃ": 8561,
      "Ġuply": 8562,
      "Ġused": 8563,
      "lom": 8564,
      "Ġstanu": 8565,
      "ĠbÄĽlou": 8566,
      "skÃ¡ch": 8567,
      "ĠÄįlovÄĽÄįen": 8568,
      "Ġchvatem": 8569,
      "Ġito": 8570,
      "ĠÄįel": 8571,
      "ĠvÃ½ho": 8572,
      "zila": 8573,
      "ĠjarÃ½": 8574,
      "Ġvzdal": 8575,
      "Ġboky": 8576,
      "ĠdÄĽlo": 8577,
      "Ġkara": 8578,
      "ĠsÃŃtÃŃ": 8579,
      "Ġatce": 8580,
      "ĠhoÅĻce": 8581,
      "Ġchrab": 8582,
      "Ġpsi": 8583,
      "ĠvojÃ¡k": 8584,
      "ĠchorÃ©": 8585,
      "Ġpso": 8586,
      "Ġposlech": 8587,
      "Ġbranou": 8588,
      "Ġsno": 8589,
      "star": 8590,
      "Å¡ilo": 8591,
      "ĠhroznÄĽ": 8592,
      "ĠprÃ¡vu": 8593,
      "ĠvÅ¯lÃŃ": 8594,
      "ĠnevidÃŃ": 8595,
      "ĠdÃ¡me": 8596,
      "ĠradÅ¡": 8597,
      "mar": 8598,
      "enÃ½": 8599,
      "nÃŃÅ¡": 8600,
      "ĠÃ¡nÅ¯": 8601,
      "Ġrudou": 8602,
      "ĠkeÅĻi": 8603,
      "Ġillu": 8604,
      "Å¡nou": 8605,
      "Ġojen": 8606,
      "Ġupu": 8607,
      "ĠpÅĻip": 8608,
      "rÅ¯v": 8609,
      "ĠchutÄĽ": 8610,
      "ĠvÃŃtÄĽznÄĽ": 8611,
      "ĠeÄįku": 8612,
      "ĠÃ¡dku": 8613,
      "Å¥Ã¡": 8614,
      "Ġkyti": 8615,
      "Ġklesne": 8616,
      "Ġvzadu": 8617,
      "ĠetÅ¯": 8618,
      "Ġrada": 8619,
      "ĠplnÃ©m": 8620,
      "Ġnevinnosti": 8621,
      "ĠdlÃ¡": 8622,
      "Ġleck": 8623,
      "ĠrudÃ½m": 8624,
      "ĠtÅĻÃŃÅ¡tÃŃ": 8625,
      "ĠrvÃ¡": 8626,
      "ĠpÄĽvec": 8627,
      "ĠdeÅ¡Å¥": 8628,
      "Ġsoudce": 8629,
      "ĠzloÄįin": 8630,
      "Ġknize": 8631,
      "Ġmodlitby": 8632,
      "Ġvzlyk": 8633,
      "Ġjelen": 8634,
      "vavÄĽ": 8635,
      "Ġpacho": 8636,
      "ĠprÃ¡v": 8637,
      "ĠyzÃŃ": 8638,
      "Ġslunka": 8639,
      "ĠsuchÃ½": 8640,
      "ĠstÅĻely": 8641,
      "ĠvÅĻele": 8642,
      "ĠÅ¡kÅ¯": 8643,
      "Ġprachem": 8644,
      "Ġstavu": 8645,
      "Ġhranice": 8646,
      "Ġvzruch": 8647,
      "Ġzpi": 8648,
      "Ġhem": 8649,
      "ĠÃ¡Äįek": 8650,
      "ĠmilÃ©ho": 8651,
      "ĠhrÅ¯zu": 8652,
      "ĠnaÅ¡im": 8653,
      "penÃ©": 8654,
      "ĠznamenÃ¡": 8655,
      "Ġrtoma": 8656,
      "Ġpape": 8657,
      "Ġrab": 8658,
      "ĠÅĻeku": 8659,
      "ĠÅĻÃŃd": 8660,
      "Ġhloupo": 8661,
      "Ġdoubra": 8662,
      "ĠpÃ½chu": 8663,
      "Ġresigna": 8664,
      "lnou": 8665,
      "Ġzva": 8666,
      "ĠÃ¡mÄĽ": 8667,
      "Ġnico": 8668,
      "ĠpouhÃ¡": 8669,
      "ĠÅ¾ÃŃznÃŃ": 8670,
      "ĠinÃ¡m": 8671,
      "ĠÅ¡ka": 8672,
      "Ġmini": 8673,
      "Ġdivu": 8674,
      "Ġmrzu": 8675,
      "Ġskrze": 8676,
      "Ġzry": 8677,
      "Ġponu": 8678,
      "ĠbÄĽs": 8679,
      "ĠkvapÃŃ": 8680,
      "Ġloktech": 8681,
      "ĠvÃŃÅĻe": 8682,
      "bilo": 8683,
      "Ġrmut": 8684,
      "ĠstÅ¯nÄĽ": 8685,
      "ĠÃ¡dne": 8686,
      "dÄĽje": 8687,
      "ĠsÃŃnÃŃ": 8688,
      "ĠrybÃ¡": 8689,
      "Ġzpra": 8690,
      "ĠhvÄĽzdo": 8691,
      "ĠpyÅ¡nÃ½": 8692,
      "ĠpÃ©ro": 8693,
      "Ġpotr": 8694,
      "Ġpronika": 8695,
      "Ġduje": 8696,
      "ĠohÅ¯": 8697,
      "ĠpÅĻen": 8698,
      "Ġalil": 8699,
      "Ġekne": 8700,
      "ĠstraÅ¡nÄĽ": 8701,
      "ĠhvÄĽzdu": 8702,
      "Ġodevz": 8703,
      "ĠÅ¡tÃŃty": 8704,
      "ĠÅĻadÄĽ": 8705,
      "Ġzmatek": 8706,
      "lkem": 8707,
      "Ġuni": 8708,
      "Ġmuse": 8709,
      "ĠchladnÃ¡": 8710,
      "Ġzmije": 8711,
      "ĠzaÅ¡lÃ©": 8712,
      "ĠzkuÅ¡en": 8713,
      "vajÃŃcÃŃ": 8714,
      "ĠprostÄĽ": 8715,
      "ĠadÅ¯": 8716,
      "Ġstup": 8717,
      "ĠboÅ¾skÃ½": 8718,
      "Ġsrp": 8719,
      "ĠzÅ¯stane": 8720,
      "ĠkrÅ¯pÄĽje": 8721,
      "vlnÄĽ": 8722,
      "Ġneve": 8723,
      "Ġlebky": 8724,
      "ĠjakÃ¡s": 8725,
      "ĠABB": 8726,
      "ĠhodnÄĽ": 8727,
      "ĠsnÄĽhy": 8728,
      "ĠmatiÄįka": 8729,
      "ĠiÄįkou": 8730,
      "Ġhol": 8731,
      "Ġdalo": 8732,
      "ĠÅ¯le": 8733,
      "ĠbÃ¡zeÅĪ": 8734,
      "ĠlouÄįÃŃ": 8735,
      "Ġzdu": 8736,
      "ĠbdÄĽl": 8737,
      "ĠÄĽkÃ¡": 8738,
      "kosti": 8739,
      "ĠrojÃŃ": 8740,
      "ĠpÃ¡du": 8741,
      "ĠmilÃ½m": 8742,
      "ĠkamarÃ¡": 8743,
      "ĠAAAA": 8744,
      "vÄįe": 8745,
      "ĠickÃ©": 8746,
      "ĠveÅ¡la": 8747,
      "mit": 8748,
      "ĠÃºbÄĽ": 8749,
      "ĠsvÄĽto": 8750,
      "Ġkruhy": 8751,
      "Ġtrub": 8752,
      "vÄĽtÅĻÃŃ": 8753,
      "ĠÅ¾lutÃ½": 8754,
      "ĠÄįervÃ¡nky": 8755,
      "Ġuleh": 8756,
      "ĠÃ¡tu": 8757,
      "ret": 8758,
      "Ġtemnu": 8759,
      "ĠhvÄĽzdnÃ½": 8760,
      "ĠhÅĻÃŃchem": 8761,
      "Ġbarbar": 8762,
      "ĠzaznÄĽl": 8763,
      "ĠzvrÃ¡": 8764,
      "ĠsedÃŃm": 8765,
      "Ġskrov": 8766,
      "ĠmÃŃÅĪ": 8767,
      "Ġlada": 8768,
      "Ġsmutkem": 8769,
      "ĠÃ½ma": 8770,
      "ĠvÅ¡echnÄĽch": 8771,
      "ĠdivÃ½m": 8772,
      "Ġednu": 8773,
      "ĠpoznÃ¡nÃŃ": 8774,
      "ĠtÃ¡Å¾e": 8775,
      "br": 8776,
      "Ġobr": 8777,
      "ledne": 8778,
      "douc": 8779,
      "ĠpÅĻemy": 8780,
      "ĠleknÃŃ": 8781,
      "ĠlÃ½": 8782,
      "Ġenka": 8783,
      "Ġpase": 8784,
      "ĠdeÅ¡tÄĽm": 8785,
      "Ġpsy": 8786,
      "ĠurÃ¡": 8787,
      "ĠÃŃdÃŃ": 8788,
      "Ġmoder": 8789,
      "ĠpodÃ©l": 8790,
      "Ġanto": 8791,
      "Ġsamoty": 8792,
      "ĠpojÄıte": 8793,
      "Ġdokola": 8794,
      "Ġosudem": 8795,
      "ĠAXABBX": 8796,
      "ĠÄĽnu": 8797,
      "Ġcval": 8798,
      "Ġvydal": 8799,
      "ĠvztÃ¡": 8800,
      "Ġouho": 8801,
      "ĠÅ¡edou": 8802,
      "ĠostrÃ©": 8803,
      "Ġusnul": 8804,
      "ĠkÅĻiku": 8805,
      "Ġhousle": 8806,
      "ĠtajemnÃ½": 8807,
      "ĠpsÃ¡no": 8808,
      "ĠkÅĻiÅ¡Å¥Ã¡": 8809,
      "ĠdÃ³": 8810,
      "Ġunu": 8811,
      "lostÃŃ": 8812,
      "Ġsyt": 8813,
      "Ġrys": 8814,
      "ĠpalÄįi": 8815,
      "Ġsnila": 8816,
      "kvÄĽt": 8817,
      "Ġneda": 8818,
      "ĠnahÃ©": 8819,
      "Ġdop": 8820,
      "Ġtone": 8821,
      "Ġtanec": 8822,
      "Ġkynul": 8823,
      "ĠnekoneÄįnÃ©": 8824,
      "Ġkalu": 8825,
      "Ġoesie": 8826,
      "rati": 8827,
      "ĠÅ¾ivÃ½ch": 8828,
      "pÄĽtÃŃ": 8829,
      "ĠobracÃŃ": 8830,
      "ĠpÅ¯jdem": 8831,
      "ĠuÄįinil": 8832,
      "ur": 8833,
      "ĠnetÅĻe": 8834,
      "ĠÃŃdu": 8835,
      "Ġobna": 8836,
      "zet": 8837,
      "ĠvidÄĽli": 8838,
      "ĠrÅ¯Å¾en": 8839,
      "hneÅ¡": 8840,
      "ĠjemnÃ½": 8841,
      "ĠbudoucÃŃ": 8842,
      "Ġzkro": 8843,
      "ĠuÅ¡lechti": 8844,
      "rnost": 8845,
      "ĠÅ¾ol": 8846,
      "Ġrozdr": 8847,
      "ĠpÅĻivÃ¡": 8848,
      "ĠÅ¯Å¾ÃŃ": 8849,
      "Ġchoti": 8850,
      "ĠbÃ¡seÅĪ": 8851,
      "ĠtluÄįe": 8852,
      "Ġrostla": 8853,
      "ĠnejvÃŃce": 8854,
      "klen": 8855,
      "nskÃ½": 8856,
      "ĠpÅĻiÅ¡ly": 8857,
      "ĠoupÃŃ": 8858,
      "pÄĽnÃŃ": 8859,
      "ĠblÃŃzku": 8860,
      "ĠalnÃ©": 8861,
      "ĠvÅĻava": 8862,
      "ĠpoÄįÃŃnÃ¡": 8863,
      "ĠrÅ¾ÃŃ": 8864,
      "ĠÅ¡ku": 8865,
      "Ġnesli": 8866,
      "ĠostÅĻe": 8867,
      "ĠberÃ¡": 8868,
      "ĠveÄįeru": 8869,
      "Ġsvoboda": 8870,
      "ĠmÃ¡jo": 8871,
      "Ġsan": 8872,
      "Ġneto": 8873,
      "ĠustÃŃ": 8874,
      "ĠvyvÃ¡": 8875,
      "Ġobil": 8876,
      "Ġlupen": 8877,
      "Ġoblohy": 8878,
      "ĠkvÃ©sti": 8879,
      "ÄįkÃ¡m": 8880,
      "ĠÃ¡ta": 8881,
      "ĠÃºsty": 8882,
      "ĠtouÅ¾ÃŃm": 8883,
      "Ġsouzvuk": 8884,
      "Ġmodli": 8885,
      "Ġvedli": 8886,
      "Ġplout": 8887,
      "ĠchudÃ¡k": 8888,
      "vna": 8889,
      "Ġahem": 8890,
      "ĠspÃ¡r": 8891,
      "ĠbludnÃ©": 8892,
      "Ġvysch": 8893,
      "Ġpostava": 8894,
      "ĠodpovÃŃdÃ¡": 8895,
      "Ġakal": 8896,
      "livou": 8897,
      "ĠpÃŃÅ¡Å¥": 8898,
      "ĠÃ½ÅĻÃŃ": 8899,
      "Ġpoklo": 8900,
      "ĠbohatstvÃŃ": 8901,
      "chÃ¡zejÃŃ": 8902,
      "ĠnÃ¡hodou": 8903,
      "ĠzpomÃŃ": 8904,
      "ĠiÄįko": 8905,
      "ĠÃŃÅ¾i": 8906,
      "Ġtrudu": 8907,
      "ĠkvetoucÃŃ": 8908,
      "par": 8909,
      "ĠivÃ©m": 8910,
      "ĠÃ¡dnÃ½": 8911,
      "Ġcou": 8912,
      "ĠABABBX": 8913,
      "ĠtuÅ¡il": 8914,
      "plnÃ©": 8915,
      "ĠchvÃ¡la": 8916,
      "ĠÃ¡tkÃ½": 8917,
      "ĠÃºÄį": 8918,
      "ĠhledÄĽt": 8919,
      "Ġmet": 8920,
      "Ġtravou": 8921,
      "Ġzvyku": 8922,
      "ĠepÃ½": 8923,
      "ĠÃ¡rem": 8924,
      "Ġledu": 8925,
      "Ġvycho": 8926,
      "Ġpous": 8927,
      "ĠveÄįerem": 8928,
      "ĠdÄĽtskÃ½ch": 8929,
      "Ġzvedl": 8930,
      "ĠvÄĽrnou": 8931,
      "ĠzvÃŃÅĻ": 8932,
      "ĠuÄįitel": 8933,
      "Ġpovzdech": 8934,
      "rmu": 8935,
      "Ġpola": 8936,
      "Ġchar": 8937,
      "Ġroztom": 8938,
      "Ġmocnou": 8939,
      "Ġhynou": 8940,
      "ĠstÅĻÃŃbra": 8941,
      "ĠovÄĽÄı": 8942,
      "ĠpoÄįe": 8943,
      "Ġdojat": 8944,
      "Ġveta": 8945,
      "ĠrozdÃŃ": 8946,
      "ĠrozpÃ¡": 8947,
      "ĠrudÃ½ch": 8948,
      "ĠhravÄĽ": 8949,
      "ĠpohlÃ©": 8950,
      "Ġnejsme": 8951,
      "Å¡uje": 8952,
      "ĠvidÄĽti": 8953,
      "ĠpÅĻÃŃko": 8954,
      "Ġmeze": 8955,
      "ĠoznÃ¡": 8956,
      "ĠhrÃ¡m": 8957,
      "Ġarmo": 8958,
      "ĠkonÄįÃŃ": 8959,
      "ĠmÄĽkkÃ¡": 8960,
      "Ġmodlitbou": 8961,
      "ĠblaÅ¾enosti": 8962,
      "ĠovÃ©m": 8963,
      "ÄįnÃ©ho": 8964,
      "Ġsej": 8965,
      "ĠÃŃchem": 8966,
      "Ġleje": 8967,
      "ĠslunÃŃ": 8968,
      "Ġmag": 8969,
      "ĠtÃŃÅ¾e": 8970,
      "ĠÅ¡klebÃŃ": 8971,
      "ĠponÃŃ": 8972,
      "ĠpolnÃŃ": 8973,
      "ĠzÃ¡ro": 8974,
      "ĠluznÃ©": 8975,
      "ĠspoÄįi": 8976,
      "Ġchmury": 8977,
      "ĠotcÅ¯v": 8978,
      "mbu": 8979,
      "vnÃ½ch": 8980,
      "ĠutÃŃm": 8981,
      "Ġhostem": 8982,
      "Ġpadal": 8983,
      "Ġpodro": 8984,
      "ĠosvÃŃ": 8985,
      "ĠsÃ¡l": 8986,
      "Ġtriumf": 8987,
      "Ġmistra": 8988,
      "ĠvÃŃsky": 8989,
      "ĠÃºle": 8990,
      "Ġmrtva": 8991,
      "paly": 8992,
      "ĠzÅ¯staÅĪ": 8993,
      "ĠhÅ¯ry": 8994,
      "ĠtÃ©mÄĽÅĻ": 8995,
      "Ġsvla": 8996,
      "ĠsilnÄĽ": 8997,
      "ĠdÄĽtskÃ½": 8998,
      "ĠblÃ¡z": 8999,
      "Ġhospodin": 9000,
      "Ġkmeny": 9001,
      "ĠvÃ½stra": 9002,
      "ĠdobÅĻÃŃ": 9003,
      "Ġnepra": 9004,
      "Ġkolkolem": 9005,
      "Ġpochod": 9006,
      "ĠhÅĻeje": 9007,
      "ĠsmyslÅ¯": 9008,
      "blou": 9009,
      "ĠpsÃŃ": 9010,
      "ĠotÃŃ": 9011,
      "Äįata": 9012,
      "ĠleÅ¥": 9013,
      "Ġskvo": 9014,
      "ĠdÃŃvek": 9015,
      "Ġmedu": 9016,
      "ĠchladnÄĽ": 9017,
      "ĠzvÄĽsti": 9018,
      "Ġzelena": 9019,
      "vnou": 9020,
      "Ġposk": 9021,
      "tickÃ©": 9022,
      "Ġmoj": 9023,
      "Äįeje": 9024,
      "lenÃ½ch": 9025,
      "ĠÄįasnÄĽ": 9026,
      "ĠÅ¯dce": 9027,
      "Ġmraven": 9028,
      "ĠzpÃŃvÃ¡m": 9029,
      "ĠubohÃ¡": 9030,
      "ĠumÃŃrÃ¡nÃŃ": 9031,
      "Å¾ce": 9032,
      "nalo": 9033,
      "Ġych": 9034,
      "ĠjedinÄĽ": 9035,
      "Ġpomoz": 9036,
      "ĠvÃŃtÄĽznÃ½": 9037,
      "ĠÃ¡tce": 9038,
      "ĠvnitÅĻnÃŃ": 9039,
      "gen": 9040,
      "mrt": 9041,
      "ĠihÃ¡": 9042,
      "ĠÄįekajÃŃ": 9043,
      "Ġlkal": 9044,
      "Ġstesku": 9045,
      "ĠdÄĽsnÃ¡": 9046,
      "ĠpovÅ¾dy": 9047,
      "Ġaz": 9048,
      "Ġzahle": 9049,
      "ĠvÅ¡ecek": 9050,
      "ĠÄįekat": 9051,
      "ĠÅ¾id": 9052,
      "ĠlÃŃbat": 9053,
      "ĠpospÄĽ": 9054,
      "Ġlom": 9055,
      "ĠÄįÃŃhÃ¡": 9056,
      "ĠznÃ¡me": 9057,
      "ĠvÃŃtÄĽzÃŃ": 9058,
      "ĠspatÅĻÃŃ": 9059,
      "ĠuboÅ¾Ã¡": 9060,
      "ĠvlhkÃ©": 9061,
      "ĠÃ¡sce": 9062,
      "Ġjene": 9063,
      "ĠtiÅ¡": 9064,
      "Ġtaji": 9065,
      "Ġkapra": 9066,
      "Ġvrak": 9067,
      "ĠpovÃŃm": 9068,
      "nÄĽnÃ¡": 9069,
      "ĠÃŃni": 9070,
      "ĠvzÅĪat": 9071,
      "ĠandÄĽla": 9072,
      "Ġnedot": 9073,
      "Ġvztekem": 9074,
      "ĠdoÅ¡el": 9075,
      "Ġstatek": 9076,
      "Ġlucy": 9077,
      "ĠoknÄĽ": 9078,
      "Ġozve": 9079,
      "Ġnaproti": 9080,
      "ĠzachvÄĽla": 9081,
      "ĠvzpomnÄĽl": 9082,
      "ĠkolikrÃ¡t": 9083,
      "ĠaÅĻi": 9084,
      "ÄįnÃŃk": 9085,
      "ruÅ¡ÃŃ": 9086,
      "ĠdajÃŃ": 9087,
      "ĠhluÄįnÄĽ": 9088,
      "ĠshromÃ¡": 9089,
      "rÃ½mi": 9090,
      "ĠkÃ½m": 9091,
      "ĠtÄĽsnÄĽ": 9092,
      "ĠykÃ¡": 9093,
      "ĠchutÃŃ": 9094,
      "ĠstÅĻechu": 9095,
      "ĠtÃ½den": 9096,
      "ĠnavÅ¡tÃŃ": 9097,
      "ĠnÃŃzkÃ©": 9098,
      "ĠÅ¡pÃŃ": 9099,
      "dan": 9100,
      "ĠnocÃŃch": 9101,
      "Äįiv": 9102,
      "trp": 9103,
      "ĠvolnÃ©": 9104,
      "ĠXAAXBB": 9105,
      "lnÃ¡": 9106,
      "rÃ¡nÃŃ": 9107,
      "Ġeo": 9108,
      "Ġekou": 9109,
      "Ġdosa": 9110,
      "ĠnÄĽha": 9111,
      "ĠtrpÄĽl": 9112,
      "chan": 9113,
      "pech": 9114,
      "Ġoknu": 9115,
      "Ġzbloudil": 9116,
      "Ġmilence": 9117,
      "Ġfiloso": 9118,
      "nÄĽjÃŃ": 9119,
      "ĠhostÃ©": 9120,
      "Ġdere": 9121,
      "Ġstudu": 9122,
      "Ġsteskem": 9123,
      "Ġhovoru": 9124,
      "ĠkvÄĽtin": 9125,
      "ĠustÃ¡nÃŃ": 9126,
      "ĠniÄįeho": 9127,
      "Ġfe": 9128,
      "ĠsamÃ¡": 9129,
      "ĠskoÄįil": 9130,
      "ĠzlobÄĽ": 9131,
      "vrh": 9132,
      "tnÃ½m": 9133,
      "ĠavÃŃm": 9134,
      "Ġduhu": 9135,
      "Ġbet": 9136,
      "ĠhrÅ¯ze": 9137,
      "Ġkryl": 9138,
      "ĠvalnÃ©": 9139,
      "ĠpÃ½chy": 9140,
      "ĠÅ¡ÃŃlenstvÃŃ": 9141,
      "ĠnedÄĽli": 9142,
      "ĠvydÃ¡": 9143,
      "ĠvÄĽtev": 9144,
      "tavÃ½": 9145,
      "ĠXAAA": 9146,
      "Ġsluj": 9147,
      "ĠzavÅĻel": 9148,
      "ĠpromÄĽnÃŃ": 9149,
      "ĠdaÅĪ": 9150,
      "Ġklec": 9151,
      "Ġglo": 9152,
      "Ġzahalen": 9153,
      "Ġplachty": 9154,
      "Ġnesa": 9155,
      "Ġrosu": 9156,
      "Ġyto": 9157,
      "Ġhude": 9158,
      "Äįenou": 9159,
      "ĠkÅĻikem": 9160,
      "ĠlÅ¯na": 9161,
      "Ġkladou": 9162,
      "Ġuvil": 9163,
      "Ġeze": 9164,
      "ĠÃŃc": 9165,
      "ĠÃŃda": 9166,
      "Ġdoved": 9167,
      "Ġkrej": 9168,
      "ĠsmÄĽlÃ©": 9169,
      "Ġdomova": 9170,
      "ĠnadÅ¡enÃŃm": 9171,
      "ĠrozkvÃ©": 9172,
      "ĠtrvÃ¡": 9173,
      "hnej": 9174,
      "ĠlehkÃ©": 9175,
      "ĠchuÄıas": 9176,
      "ĠpÅĻÃŃrodÄĽ": 9177,
      "Ġavit": 9178,
      "Ġzvl": 9179,
      "cejÃŃ": 9180,
      "Ġekal": 9181,
      "ĠniÄįÃŃ": 9182,
      "ĠstÃ¡lÃ½": 9183,
      "Ġmodrou": 9184,
      "Ġudiven": 9185,
      "Ġonde": 9186,
      "ĠtouÅ¾e": 9187,
      "Äįkami": 9188,
      "tÅ¯v": 9189,
      "ĠpÅ¯da": 9190,
      "Ġdvora": 9191,
      "ĠÅ¾alÃ¡ÅĻ": 9192,
      "Ġodi": 9193,
      "Ġrozle": 9194,
      "ĠvÃ¡Å¾nÃ©": 9195,
      "ĠchorÃ½": 9196,
      "Ġzvonek": 9197,
      "ĠÅ¡Å¥Ã¡": 9198,
      "uji": 9199,
      "ĠvÄĽje": 9200,
      "Ġobce": 9201,
      "ĠvÃŃly": 9202,
      "Ġkadi": 9203,
      "ĠdlouhÃ©m": 9204,
      "Ġhvizd": 9205,
      "ĠvlÃ©": 9206,
      "ĠoÅĻem": 9207,
      "nÃŃkem": 9208,
      "Ġsype": 9209,
      "ĠknÄĽze": 9210,
      "ĠtajnÃ½": 9211,
      "Ġskutky": 9212,
      "ĠpestrÃ½ch": 9213,
      "ĠlabuÅ¥": 9214,
      "Ġmilosrd": 9215,
      "ĠÃŃrat": 9216,
      "dÄĽlÃ¡": 9217,
      "Ġrodiny": 9218,
      "ĠhÅĻbet": 9219,
      "Ġnedej": 9220,
      "Ġeva": 9221,
      "Ġodnes": 9222,
      "hÃ¡Äį": 9223,
      "Ġklek": 9224,
      "zujÃŃ": 9225,
      "ĠspÃ¡sa": 9226,
      "ĠvÅĻes": 9227,
      "ĠandÄĽlÅ¯": 9228,
      "rnÃ©ho": 9229,
      "nÃ¡ÅĻ": 9230,
      "ĠmÃ¡lem": 9231,
      "Ġkusy": 9232,
      "ĠstrÃ¡Å¾e": 9233,
      "ĠpomnÄĽ": 9234,
      "ĠsvojÃŃm": 9235,
      "ĠnamÃ¡": 9236,
      "Ġcnost": 9237,
      "Ġmyslit": 9238,
      "ĠprÃ½Å¡tÃŃ": 9239,
      "Ġklenu": 9240,
      "Ġhotov": 9241,
      "Ġsne": 9242,
      "ĠÃ¡ÅĻ": 9243,
      "ĠbÃŃdnÄĽ": 9244,
      "ĠÄįili": 9245,
      "tÃ©Å¾": 9246,
      "ĠvelkÃ©m": 9247,
      "Ġpustou": 9248,
      "Ġokolo": 9249,
      "ĠkvÃŃtko": 9250,
      "ĠchÃ¡pe": 9251,
      "ĠÃ¡cel": 9252,
      "Å¾eti": 9253,
      "Ġpodla": 9254,
      "Ġmnohem": 9255,
      "benÃ½": 9256,
      "Ġopojen": 9257,
      "ĠicÃŃch": 9258,
      "ĠplazÃŃ": 9259,
      "ĠsmÄĽr": 9260,
      "!?": 9261,
      "ÅĻmi": 9262,
      "Ġpoo": 9263,
      "Ġzapu": 9264,
      "Ġrd": 9265,
      "ĠdÃ¡lek": 9266,
      "ĠÅĻekou": 9267,
      "ÅĻemen": 9268,
      "Ġvnuk": 9269,
      "ĠosamÄĽlÃ½": 9270,
      "Ġvho": 9271,
      "ĠarÅ¯": 9272,
      "Ġpoti": 9273,
      "Ġnai": 9274,
      "atÃ©": 9275,
[...]
