{
  "version": "1.0",
  "truncation": null,
  "padding": null,
  "added_tokens": [
    {
      "id": 0,
      "content": "<|EOS|>",
      "single_word": false,
      "lstrip": false,
      "rstrip": false,
      "normalized": false,
      "special": true
    },
    {
      "id": 1,
      "content": "<|PAD|>",
      "single_word": false,
      "lstrip": false,
      "rstrip": false,
      "normalized": false,
      "special": true
    },
    {
      "id": 2,
      "content": "<|UNK|>",
      "single_word": false,
      "lstrip": false,
      "rstrip": false,
      "normalized": false,
      "special": true
    },
    {
      "id": 3,
      "content": "<|CLS|>",
      "single_word": false,
      "lstrip": false,
      "rstrip": false,
      "normalized": false,
      "special": true
    }
  ],
  "normalizer": null,
  "pre_tokenizer": {
    "type": "ByteLevel",
    "add_prefix_space": false,
    "trim_offsets": true,
    "use_regex": true
  },
  "post_processor": {
    "type": "RobertaProcessing",
    "sep": [
      "<|EOS|>",
      0
    ],
    "cls": [
      "<|CLS|>",
      3
    ],
    "trim_offsets": false,
    "add_prefix_space": false
  },
  "decoder": {
    "type": "ByteLevel",
    "add_prefix_space": true,
    "trim_offsets": true,
    "use_regex": true
  },
  "model": {
    "type": "BPE",
    "dropout": null,
    "unk_token": null,
    "continuing_subword_prefix": null,
    "end_of_word_suffix": null,
    "fuse_unk": false,
    "byte_fallback": false,
    "vocab": {
      "<|EOS|>": 0,
      "<|PAD|>": 1,
      "<|UNK|>": 2,
      "<|CLS|>": 3,
      "!": 4,
      "#": 5,
      "+": 6,
      ",": 7,
      ".": 8,
      "/": 9,
      "0": 10,
      "1": 11,
      "2": 12,
      "3": 13,
      "4": 14,
      "5": 15,
      "6": 16,
      "7": 17,
      "8": 18,
      "9": 19,
      "=": 20,
      "?": 21,
      "A": 22,
      "B": 23,
      "C": 24,
      "D": 25,
      "H": 26,
      "J": 27,
      "N": 28,
      "P": 29,
      "T": 30,
      "X": 31,
      "Y": 32,
      "`": 33,
      "a": 34,
      "b": 35,
      "c": 36,
      "d": 37,
      "e": 38,
      "f": 39,
      "g": 40,
      "h": 41,
      "i": 42,
      "j": 43,
      "k": 44,
      "l": 45,
      "m": 46,
      "n": 47,
      "o": 48,
      "p": 49,
      "q": 50,
      "r": 51,
      "s": 52,
      "t": 53,
      "u": 54,
      "v": 55,
      "w": 56,
      "x": 57,
      "y": 58,
      "z": 59,
      "¡": 60,
      "¢": 61,
      "¤": 62,
      "¥": 63,
      "¦": 64,
      "§": 65,
      "¨": 66,
      "©": 67,
      "ª": 68,
      "«": 69,
      "®": 70,
      "¯": 71,
      "²": 72,
      "³": 73,
      "´": 74,
      "¶": 75,
      "¹": 76,
      "º": 77,
      "»": 78,
      "¼": 79,
      "½": 80,
      "¾": 81,
      "Â": 82,
      "Ã": 83,
      "Ä": 84,
      "Å": 85,
      "Ï": 86,
      "â": 87,
      "Ċ": 88,
      "Ġ": 89,
      "Ģ": 90,
      "Ĥ": 91,
      "Ħ": 92,
      "ħ": 93,
      "ĩ": 94,
      "Ī": 95,
      "Ĭ": 96,
      "į": 97,
      "ı": 98,
      "Ĵ": 99,
      "ĵ": 100,
      "Ļ": 101,
      "ļ": 102,
      "Ľ": 103,
      "Ł": 104,
      "ł": 105,
      "Ń": 106,
      "Ġ#": 107,
      "ÃŃ": 108,
      "Ġs": 109,
      "Ã¡": 110,
      "Ġ1": 111,
      "Ġv": 112,
      "Ġn": 113,
      "ÄĽ": 114,
      "Ġt": 115,
      "Ġp": 116,
      "Ġj": 117,
      "Ġk": 118,
      "Å¾": 119,
      "Ġz": 120,
      "ch": 121,
      "Ġm": 122,
      "Ġd": 123,
      "Å¡": 124,
      "Ã½": 125,
      "ÅĻ": 126,
      "Ã©": 127,
      "ou": 128,
      "Ġa": 129,
      "Ġb": 130,
      "la": 131,
      "Äį": 132,
      "Ġ10": 133,
      "Ġ8": 134,
      "le": 135,
      "Ġh": 136,
      "st": 137,
      "Ġ11": 138,
      "Ġje": 139,
      "Ġse": 140,
      "em": 141,
      "ro": 142,
      "ak": 143,
      "Å¯": 144,
      "Ġo": 145,
      "Ġne": 146,
      "ra": 147,
      "li": 148,
      "Ġna": 149,
      "Ġpo": 150,
      "en": 151,
      "Ġst": 152,
      "XX": 153,
      "lo": 154,
      "rÃ¡": 155,
      "ĠÅ¾": 156,
      "Ġc": 157,
      "nÃŃ": 158,
      "ÅĻe": 159,
      "AB": 160,
      "Ġsv": 161,
      "Ġ9": 162,
      "nÄĽ": 163,
      "ÅĻÃŃ": 164,
      "al": 165,
      "Ġl": 166,
      "Å¡e": 167,
      "ĠÄį": 168,
      "Ġza": 169,
      "ce": 170,
      "Ġ19": 171,
      "Ġ7": 172,
      "Ġch": 173,
      "ru": 174,
      "dy": 175,
      "Ġjak": 176,
      "il": 177,
      "ne": 178,
      "sk": 179,
      "nÃ½": 180,
      "ho": 181,
      "Ġdo": 182,
      "Ġto": 183,
      "at": 184,
      "de": 185,
      "vÄĽ": 186,
      "Ġu": 187,
      "ÃŃm": 188,
      "nÃ©": 189,
      "no": 190,
      "te": 191,
      "Ġby": 192,
      "Ġji": 193,
      "Ã¡m": 194,
      "Ġ6": 195,
      "ÅĻi": 196,
      "na": 197,
      "ĠÅ¡": 198,
      "Ġle": 199,
      "Ġ12": 200,
      "vo": 201,
      "vÃ¡": 202,
      "Ġve": 203,
      "je": 204,
      "ko": 205,
      "lu": 206,
      "Ġjs": 207,
      "ti": 208,
      "Ã½ch": 209,
      "Ġ18": 210,
      "lÃ¡": 211,
      "Ġro": 212,
      "jÃŃ": 213,
      "tÄĽ": 214,
      "va": 215,
      "..": 216,
      "ni": 217,
      "nou": 218,
      "Ġho": 219,
      "ĠÅ¾e": 220,
      "ĠnÃŃ": 221,
      "ka": 222,
      "Ġpro": 223,
      "vÃŃ": 224,
      "nÃ¡": 225,
      "Å¥": 226,
      "ky": 227,
      "Ġr": 228,
      "ĠAB": 229,
      "Ġvy": 230,
      "ku": 231,
      "Ġko": 232,
      "00": 233,
      "Ġti": 234,
      "Ġta": 235,
      "lÃŃ": 236,
      "Ġ1900": 237,
      "Ġli": 238,
      "tÃŃ": 239,
      "Ã½m": 240,
      "Ġmi": 241,
      "Ġjen": 242,
      "XXXX": 243,
      "ĠvÄĽ": 244,
      "do": 245,
      "XA": 246,
      "Ġdu": 247,
      "nu": 248,
      "ly": 249,
      "Ġvz": 250,
      "Ġ13": 251,
      "Ġmo": 252,
      "ci": 253,
      "ĠnÃ¡": 254,
      "ĠnÄĽ": 255,
      "Ġkdy": 256,
      "po": 257,
      "ĠABAB": 258,
      "vÃ©": 259,
      "Ġka": 260,
      "dÄĽ": 261,
      "Ġmu": 262,
      "Ġtu": 263,
      "Ġbo": 264,
      "ĠpÅĻe": 265,
      "Ġte": 266,
      "Ġni": 267,
      "ĠtÄĽ": 268,
      "Ġce": 269,
      "Ġtak": 270,
      "Ġco": 271,
      "Ġi": 272,
      "Ġno": 273,
      "ĠvÃŃ": 274,
      "ĠA": 275,
      "ĠÄįe": 276,
      "ar": 277,
      "mu": 278,
      "ĠvÅ¡": 279,
      "80": 280,
      "Ġ1880": 281,
      "to": 282,
      "as": 283,
      "ĠdÃ¡": 284,
      "ĠÃ": 285,
      "Ġla": 286,
      "du": 287,
      "20": 288,
      "ÄĽt": 289,
      "ÅĪ": 290,
      "ny": 291,
      "ĠvÅ¡e": 292,
      "Ġroz": 293,
      "lÃ©": 294,
      "cÃŃ": 295,
      "ĠXXXX": 296,
      "ĠvÃ¡": 297,
      "di": 298,
      "Å¡ÃŃ": 299,
      "Ġsk": 300,
      "sti": 301,
      "Ġru": 302,
      "ĠjÃŃ": 303,
      "Äı": 304,
      "lou": 305,
      "dÃ¡": 306,
      "da": 307,
      "vi": 308,
      "Äįe": 309,
      "Ġ1920": 310,
      "Ġjsem": 311,
      "Ġpa": 312,
      "ÄįÃŃ": 313,
      "rd": 314,
      "ĠÅ¾i": 315,
      "Ġob": 316,
      "ve": 317,
      "Ġhla": 318,
      "Ġsp": 319,
      "Ġty": 320,
      "Ġneb": 321,
      "ĠmÄĽ": 322,
      "ĠzÃ¡": 323,
      "dÃŃ": 324,
      "mÄĽ": 325,
      "Å¾e": 326,
      "Ġod": 327,
      "se": 328,
      "Ġbu": 329,
      "Ġku": 330,
      "ĠkrÃ¡": 331,
      "Ġsi": 332,
      "ĠdÃŃ": 333,
      "ĠmÃ¡": 334,
      "...": 335,
      "ji": 336,
      "ĠkdyÅ¾": 337,
      "kÃ¡": 338,
      "mÃŃ": 339,
      "ĠdÄĽ": 340,
      "ĠsvÃ©": 341,
      "mi": 342,
      "ĠpÅĻi": 343,
      "ry": 344,
      "Ġvo": 345,
      "Å¾ÃŃ": 346,
      "tÃ¡": 347,
      "by": 348,
      "Å¯j": 349,
      "Ġ5": 350,
      "ĠlÃ¡": 351,
      "ĠAAB": 352,
      "Ġsrd": 353,
      "Äįi": 354,
      "vu": 355,
      "ez": 356,
      "Ġpra": 357,
      "ĠrÃ¡": 358,
      "ĠjÃ¡": 359,
      "ĠsvÄĽt": 360,
      "Ġjako": 361,
      "ĠÅ¡e": 362,
      "ĠlÃŃ": 363,
      "Ġpr": 364,
      "ĠvÅ¡ak": 365,
      "ta": 366,
      "ĠXA": 367,
      "ĠÃº": 368,
      "ĠtÃŃ": 369,
      "Å¡i": 370,
      "Ġvi": 371,
      "Ġky": 372,
      "ze": 373,
      "Ġten": 374,
      "Ġkde": 375,
      "vy": 376,
      "Ġci": 377,
      "Ã©m": 378,
      "Ġra": 379,
      "me": 380,
      "Ġlo": 381,
      "ĠÅĻe": 382,
      "ĠAABB": 383,
      "Ġtam": 384,
      "bÄĽ": 385,
      "ĠcÃŃ": 386,
      "bo": 387,
      "lad": 388,
      "nÃ½ch": 389,
      "ha": 390,
      "lÃ½": 391,
      "ĠjiÅ¾": 392,
      "40": 393,
      "ma": 394,
      "mo": 395,
      "sta": 396,
      "led": 397,
      "Ġzem": 398,
      "stÃŃ": 399,
      "Ġkr": 400,
      "Ġmy": 401,
      "ĠtÃ©": 402,
      "rak": 403,
      "Ġpod": 404,
      "Ġnad": 405,
      "val": 406,
      "Ġjeho": 407,
      "kou": 408,
      "ĠÅĻÃŃ": 409,
      "sÃŃ": 410,
      "ĠXAXA": 411,
      "Ġze": 412,
      "ĠjeÅ¾": 413,
      "Ġzp": 414,
      "ĠvÃ½": 415,
      "ĠpÅĻÃŃ": 416,
      "Ġbyl": 417,
      "ĠmÃŃ": 418,
      "Ġslu": 419,
      "tu": 420,
      "Ġny": 421,
      "vou": 422,
      "Ġzas": 423,
      "Ġsta": 424,
      "Ġjed": 425,
      "lem": 426,
      "vÃ½": 427,
      "ĠstÃ¡": 428,
      "ĠpÃ¡": 429,
      "Ġde": 430,
      "Å¡tÄĽ": 431,
      "ĠpÃŃ": 432,
      "hu": 433,
      "Ġpe": 434,
      "Ġsrdce": 435,
      "ĠstÃŃ": 436,
      "Ġnu": 437,
      "cho": 438,
      "ad": 439,
      "men": 440,
      "Ġvla": 441,
      "hÃ¡": 442,
      "Ġdi": 443,
      "Ġbez": 444,
      "ĠÄįi": 445,
      "ĠbÃŃ": 446,
      "vÄĽt": 447,
      "Å¯m": 448,
      "hy": 449,
      "ĠnÃ¡m": 450,
      "Ġkte": 451,
      "Å¾dy": 452,
      "ud": 453,
      "CC": 454,
      "Å¾i": 455,
      "ĠlÃ¡sk": 456,
      "chu": 457,
      "ĠnÃ©": 458,
      "ĠÅ¡ÃŃ": 459,
      "sa": 460,
      "rou": 461,
      "nÃ½m": 462,
      "Ġme": 463,
      "kÃ©": 464,
      "ĠÅ¾ÃŃ": 465,
      "si": 466,
      "be": 467,
      "Ġva": 468,
      "Ġsy": 469,
      "Ġpak": 470,
      "Ġjest": 471,
      "Ġhro": 472,
      "ĠmÃ©": 473,
      "ĠvÅ¾dy": 474,
      "ĠÄįÃŃ": 475,
      "zÃŃ": 476,
      "ĠjenÅ¾": 477,
      "Ġlid": 478,
      "ĠbÄĽ": 479,
      "Ġtv": 480,
      "Ġkdo": 481,
      "Ġ15": 482,
      "kem": 483,
      "kÅ¯": 484,
      "enÃŃ": 485,
      "ĠpÅĻed": 486,
      "Ġnou": 487,
      "Ġly": 488,
      "bu": 489,
      "Ġda": 490,
      "ba": 491,
      "Ġpla": 492,
      "Ġzla": 493,
      "Ġ14": 494,
      "Ġmne": 495,
      "ĠtvÃ¡": 496,
      "Ġso": 497,
      "Ġnem": 498,
      "Ġsm": 499,
      "dou": 500,
      "ĠaÅ¾": 501,
      "ĠXXXXXX": 502,
      "ste": 503,
      "60": 504,
      "ĠsÃŃ": 505,
      "Ġsti": 506,
      "Ġhle": 507,
      "Ġsa": 508,
      "zd": 509,
      "rÃ½": 510,
      "ĠÃ³": 511,
      "ÅĻÃ¡": 512,
      "Ġtou": 513,
      "nes": 514,
      "Ġlu": 515,
      "ty": 516,
      "Ġma": 517,
      "sy": 518,
      "Ġslo": 519,
      "kÃ½": 520,
      "ĠÅ¾ivo": 521,
      "Ġnej": 522,
      "Ġpos": 523,
      "ĠkvÄĽt": 524,
      "bi": 525,
      "Ġ4": 526,
      "Ġry": 527,
      "ĠkaÅ¾": 528,
      "Ġsna": 529,
      "ĠteÄı": 530,
      "Ġjej": 531,
      "Ġpou": 532,
      "ĠdÃ¡l": 533,
      "ĠprÃ¡": 534,
      "Ġden": 535,
      "ĠÄįas": 536,
      "Ġsto": 537,
      "re": 538,
      "Ġnez": 539,
      "Ġsvou": 540,
      "ĠtÃ¡": 541,
      "Ġnes": 542,
      "ĠplÃ¡": 543,
      "ĠÄįer": 544,
      "Ġ16": 545,
      "ĠuÅ¾": 546,
      "nce": 547,
      "ĠneÅ¾": 548,
      "ĠÅ¾en": 549,
      "Ġon": 550,
      "hou": 551,
      "Ġsla": 552,
      "Ġkou": 553,
      "Ġ1940": 554,
      "Ġkle": 555,
      "pÃŃ": 556,
      "sto": 557,
      "skÃ©": 558,
      "tr": 559,
      "ĠnÃ½": 560,
      "rt": 561,
      "Ġf": 562,
      "Ġjsou": 563,
      "ĠvÅ¡ech": 564,
      "Ġdob": 565,
      "ĠmÅ¯j": 566,
      "Ġhu": 567,
      "BA": 568,
      "ĠtvÃ©": 569,
      "Ġsvo": 570,
      "Ġre": 571,
      "Ġjsi": 572,
      "Ġnech": 573,
      "ĠkÃ¡": 574,
      "Ġzrak": 575,
      "Ġbra": 576,
      "rÃ©": 577,
      "Ġdru": 578,
      "ĠpÄĽ": 579,
      "Ġnebe": 580,
      "Ġale": 581,
      "Ġtr": 582,
      "nem": 583,
      "ĠhvÄĽ": 584,
      "ĠnÃ¡s": 585,
      "my": 586,
      "ĠmnÄĽ": 587,
      "ĠrÅ¯": 588,
      "mÃ¡": 589,
      "ĠjeÅ¡tÄĽ": 590,
      "Ġsvat": 591,
      "vat": 592,
      "Ġsnad": 593,
      "pu": 594,
      "nÃ©m": 595,
      "nÅ¯": 596,
      "Ġba": 597,
      "ĠduÅ¡e": 598,
      "pe": 599,
      "Ġtem": 600,
      "nÃŃm": 601,
      "Ġkra": 602,
      "bou": 603,
      "Ġvel": 604,
      "pa": 605,
      "ĠbÃ½": 606,
      "chÃ¡": 607,
      "Ġpl": 608,
      "Ġstra": 609,
      "ĠABBA": 610,
      "ĠkaÅ¾d": 611,
      "ĠvÅ¯": 612,
      "Ġdy": 613,
      "Ġbla": 614,
      "dÄĽl": 615,
      "Ġtom": 616,
      "Ġmil": 617,
      "Ġmat": 618,
      "Ġ1860": 619,
      "ĠbÃ¡": 620,
      "ĠsÃ¡m": 621,
      "Ġzde": 622,
      "bÃŃ": 623,
      "ĠjejÃŃ": 624,
      "Ġhra": 625,
      "ĠnÄĽm": 626,
      "Ġja": 627,
      "Ġvl": 628,
      "Ġsou": 629,
      "Ġdra": 630,
      "Ġcho": 631,
      "Ġ1840": 632,
      "Ġot": 633,
      "ĠhÃ¡": 634,
      "ĠkrÃ¡s": 635,
      "ĠvÅ¡ec": 636,
      "Ġchu": 637,
      "Ġstar": 638,
      "Ġpu": 639,
      "ĠaÅ¥": 640,
      "ĠnÃŃm": 641,
      "Ġdnes": 642,
      "Ġhlas": 643,
      "Ġsl": 644,
      "ÅĻen": 645,
      "Ġpoh": 646,
      "Ġzd": 647,
      "Ġbou": 648,
      "ĠchvÃŃ": 649,
      "Ġval": 650,
      "ĠlÃ©": 651,
      "ej": 652,
      "ĠzÃŃ": 653,
      "Ġbude": 654,
      "Ġha": 655,
      "pÄĽ": 656,
      "Ġsly": 657,
      "ĠAA": 658,
      "Ġjich": 659,
      "nost": 660,
      "ĠÅ¾ivot": 661,
      "Å¾en": 662,
      "vil": 663,
      "Ġhlu": 664,
      "ĠÅ¾Ã¡": 665,
      "ĠvÃ¡m": 666,
      "cha": 667,
      "Å¡el": 668,
      "nÃ¡m": 669,
      "ĠÅ¡i": 670,
      "pi": 671,
      "stu": 672,
      "ĠvÄĽÄį": 673,
      "Ġzlat": 674,
      "rÅ¯": 675,
      "Ġoh": 676,
      "Ġbe": 677,
      "ĠsvÄĽ": 678,
      "ĠduÅ¡i": 679,
      "Ġjas": 680,
      "zy": 681,
      "Ġos": 682,
      "Ġzvo": 683,
      "Ġjsme": 684,
      "Ġmod": 685,
      "ev": 686,
      "rÃ¡t": 687,
      "Ġpoz": 688,
      "Ġvra": 689,
      "nul": 690,
      "ĠĊ": 691,
      "Ġslad": 692,
      "Ġsmu": 693,
      "Ġstro": 694,
      "ĠkÅĻÃŃ": 695,
      "ĠnenÃŃ": 696,
      "jem": 697,
      "Ġdlou": 698,
      "sÅ¥": 699,
      "Ġbych": 700,
      "tel": 701,
      "ĠtÄĽch": 702,
      "hÃ½": 703,
      "tra": 704,
      "Ġmno": 705,
      "Ġkli": 706,
      "ĠÅĻ": 707,
      "Ġspo": 708,
      "ĠchtÄĽ": 709,
      "Ġsu": 710,
      "Å¯h": 711,
      "nosti": 712,
      "ĠÅ¡tÄĽ": 713,
      "Ġtvo": 714,
      "Ġsem": 715,
      "cen": 716,
      "Ġslunce": 717,
      "ĠkÅ¯": 718,
      "ven": 719,
      "ĠptÃ¡": 720,
      "Ġjim": 721,
      "ĠoÄįi": 722,
      "Ġe": 723,
      "Ġmou": 724,
      "ĠtÅĻe": 725,
      "Ġkla": 726,
      "ĠzÅĻÃŃ": 727,
      "Ġbylo": 728,
      "hle": 729,
      "Ġnep": 730,
      "stÃ¡": 731,
      "sÃ¡": 732,
      "nil": 733,
      "ÅĻel": 734,
      "Ġkro": 735,
      "jÅ¡ÃŃ": 736,
      "ĠsvÃ½m": 737,
      "ĠvÃ©": 738,
      "cÃŃch": 739,
      "len": 740,
      "vÃ½ch": 741,
      "ĠvÃŃc": 742,
      "Ġnich": 743,
      "bÃ¡": 744,
      "Ġml": 745,
      "zi": 746,
      "ĠsvÅ¯j": 747,
      "stvÃŃ": 748,
      "py": 749,
      "ĠslÃ¡": 750,
      "Å¡en": 751,
      "ned": 752,
      "ĠmÃ¡m": 753,
      "Ġmar": 754,
      "ĠbÅ¯h": 755,
      "Ġnik": 756,
      "chy": 757,
      "Ġg": 758,
      "Ġbi": 759,
      "lovÄĽ": 760,
      "dem": 761,
      "Ġhy": 762,
      "Ġkol": 763,
      "ĠtÃŃm": 764,
      "Ġsmut": 765,
      "ĠXX": 766,
      "Ġlet": 767,
      "ĠlÃ¡sky": 768,
      "ĠsmÄĽ": 769,
      "hÃ©": 770,
      "ĠsmÃŃ": 771,
      "stou": 772,
      "cem": 773,
      "so": 774,
      "ĠsvÃ½ch": 775,
      "skÃ½": 776,
      "chem": 777,
      "tÃ½": 778,
      "pÃ¡": 779,
      "Ġbyla": 780,
      "stÄĽ": 781,
      "Ġsen": 782,
      "ĠpÃŃs": 783,
      "nÃ©ho": 784,
      "Ġdal": 785,
      "Ġmilo": 786,
      "Ġmys": 787,
      "tek": 788,
      "vÃ½m": 789,
      "ĠtvÅ¯j": 790,
      "ĠblÃŃ": 791,
      "vnÃŃ": 792,
      "rem": 793,
      "jich": 794,
      "Ġhned": 795,
      "ĠÄįlovÄĽ": 796,
      "dla": 797,
      "til": 798,
      "ĠAABBCC": 799,
      "ĠmÄĽl": 800,
      "ĠsvÃŃ": 801,
      "Ġkam": 802,
      "Ġvr": 803,
      "ĠsnÄĽ": 804,
      "lesk": 805,
      "Ġnoc": 806,
      "Äįka": 807,
      "ĠvÃ¡s": 808,
      "zu": 809,
      "ĠtÃ©Å¾": 810,
      "nal": 811,
      "Äįen": 812,
      "Ġach": 813,
      "ĠAAXX": 814,
      "ĠpÅ¯": 815,
      "tÃŃm": 816,
      "ĠĠ": 817,
      "za": 818,
      "ĠsobÄĽ": 819,
      "ÅĻil": 820,
      "Ġke": 821,
      "Ġan": 822,
      "ĠlÃ½": 823,
      "skÃ¡": 824,
      "vem": 825,
      "Ġkolem": 826,
      "ĠvÅ¡em": 827,
      "ĠtobÄĽ": 828,
      "ĠhvÄĽz": 829,
      "ĠkaÅ¾dÃ½": 830,
      "ĠproÄį": 831,
      "Ġchy": 832,
      "ĠzpÄĽ": 833,
      "ri": 834,
      "Ġmal": 835,
      "ĠzdÃ¡": 836,
      "ĠpÅĻes": 837,
      "ĠdÅĻÃŃ": 838,
      "Ġvu": 839,
      "ĠtÄĽÅ¾": 840,
      "Å¡Å¥": 841,
      "tem": 842,
      "Ġok": 843,
      "Ġrado": 844,
      "ĠzemÄĽ": 845,
      "ĠÅ¾itÃŃ": 846,
      "Ġdla": 847,
      "ĠÅĻi": 848,
      "Ġchce": 849,
      "Ġles": 850,
      "Ġani": 851,
      "Ġop": 852,
      "Ġtich": 853,
      "Ġzda": 854,
      "Å¡ÃŃm": 855,
      "Ġaby": 856,
      "nom": 857,
      "Ġhou": 858,
      "Ġpan": 859,
      "Å¡tÃŃ": 860,
      "Ġkem": 861,
      "Ġple": 862,
      "ĠpÅĻec": 863,
      "ĠchvÄĽ": 864,
      "ĠbuÄı": 865,
      "ĠvÄĽt": 866,
      "hla": 867,
      "Ġklid": 868,
      "ĠrÃ¡d": 869,
      "lÃ½ch": 870,
      "ĠspÃ¡": 871,
      "Ġju": 872,
      "sty": 873,
      "ĠsnÃŃ": 874,
      "Ġjejich": 875,
      "Ġkrev": 876,
      "Ġsrdci": 877,
      "vÃŃm": 878,
      "ĠleÄį": 879,
      "nky": 880,
      "Ġmrt": 881,
      "seÅĪ": 882,
      "Ġruce": 883,
      "ĠÅ¡u": 884,
      "kla": 885,
      "tÃ©": 886,
      "Ġvlast": 887,
      "ĠvÅ¡ecko": 888,
      "Ġmoje": 889,
      "Ġus": 890,
      "ĠÄįa": 891,
      "Ġsil": 892,
      "Ġzemi": 893,
      "ĠkÃ½": 894,
      "Ġsmr": 895,
      "mÅ¯": 896,
      "tou": 897,
      "Äįky": 898,
      "ĠmÅ¯": 899,
      "ĠveÄįe": 900,
      "Ġnepo": 901,
      "Ġmra": 902,
      "Ġdiv": 903,
      "Äįek": 904,
      "Ġhru": 905,
      "ved": 906,
      "lÅ¯": 907,
      "Ġduch": 908,
      "Ġzb": 909,
      "Ġsko": 910,
      "pr": 911,
      "co": 912,
      "Ġmoc": 913,
      "nek": 914,
      "Ġjste": 915,
      "ĠmuÅ¾": 916,
      "ĠÅ¾al": 917,
      "pomÃŃ": 918,
      "ĠÅ¡tÄĽstÃŃ": 919,
      "Ġzlo": 920,
      "Ġlou": 921,
      "ĠnÃ¡Å¡": 922,
      "ĠnaÅ¡e": 923,
      "Ġpad": 924,
      "Ġhor": 925,
      "ĠÅ¡el": 926,
      "ÅĻem": 927,
      "an": 928,
      "Ġmez": 929,
      "hÅ¯": 930,
      "ĠvlÃ¡": 931,
      "skÃ½ch": 932,
      "cÅ¯": 933,
      "Ġjenom": 934,
      "Ġtebe": 935,
      "ĠABABCC": 936,
      "ĠstÅĻe": 937,
      "Ġprou": 938,
      "Ġste": 939,
      "Ġkru": 940,
      "lil": 941,
      "dil": 942,
      "Ġnoci": 943,
      "nÃŃk": 944,
      "ĠnÃ¡ro": 945,
      "ĠhÅĻÃŃ": 946,
      "ĠbÃ½t": 947,
      "ĠtvÃ¡ÅĻ": 948,
      "Ġnic": 949,
      "ĠzpÃŃ": 950,
      "ĠdÃ¡v": 951,
      "pla": 952,
      "pad": 953,
      "Ġhlavu": 954,
      "nout": 955,
      "kÃ½ch": 956,
      "aly": 957,
      "Ġprav": 958,
      "ĠspÄĽ": 959,
      "Ġzvu": 960,
      "su": 961,
      "zo": 962,
      "ĠdÄĽl": 963,
      "hem": 964,
      "jde": 965,
      "dnÃ©": 966,
      "Ġote": 967,
      "nÃŃch": 968,
      "ĠdÃŃv": 969,
      "Ġhr": 970,
      "ĠhvÄĽzd": 971,
      "hne": 972,
      "Ġmlad": 973,
      "ĠsÃ¡": 974,
      "ĠmlÃ¡": 975,
      "Äįku": 976,
      "ĠtÃ½": 977,
      "Ġoko": 978,
      "AX": 979,
      "Ġven": 980,
      "sku": 981,
      "dech": 982,
      "ĠchtÄĽl": 983,
      "Ġjde": 984,
      "ĠÅĻek": 985,
      "ast": 986,
      "Äįil": 987,
      "sky": 988,
      "Ġpi": 989,
      "Ġmlu": 990,
      "ĠcelÃ½": 991,
      "AA": 992,
      "ĠÃºs": 993,
      "ĠchrÃ¡": 994,
      "ĠstrÃ¡": 995,
      "tÅ¯": 996,
      "Ġblesk": 997,
      "Ġdou": 998,
      "ĠkÅĻi": 999,
      "Ġhe": 1000,
      "Ġlem": 1001,
      "Å¡li": 1002,
      "Ġvou": 1003,
      "ĠtakÃ©": 1004,
      "Ġzah": 1005,
      "Ġ3": 1006,
      "ĠpÃŃseÅĪ": 1007,
      "uje": 1008,
      "Ġhlou": 1009,
      "Ġzje": 1010,
      "Ġboj": 1011,
      "ĠskÃ¡": 1012,
      "ĠABABXX": 1013,
      "Ġdne": 1014,
      "dÃŃm": 1015,
      "Ġsvi": 1016,
      "ĠdÃŃtÄĽ": 1017,
      "ĠvÃ¡Å¡": 1018,
      "Ġtro": 1019,
      "ĠÅĪ": 1020,
      "ĠsvÃ©m": 1021,
      "Ġneu": 1022,
      "Ġslova": 1023,
      "Ġbole": 1024,
      "ĠmoÅĻe": 1025,
      "Ġtru": 1026,
      "Ġ1960": 1027,
      "Å¾il": 1028,
      "ĠspÃŃ": 1029,
      "zen": 1030,
      "ĠdÅ¯": 1031,
      "Ġnebo": 1032,
      "Ġchlad": 1033,
      "Ġzi": 1034,
      "jÃŃcÃŃ": 1035,
      "ĠchvÃŃli": 1036,
      "Ġslun": 1037,
      "Ġdech": 1038,
      "Ġobra": 1039,
      "ĠhnÄĽ": 1040,
      "ska": 1041,
      "ati": 1042,
      "Ġtoho": 1043,
      "kÃ½m": 1044,
      "Ġvol": 1045,
      "ĠkrÃ¡l": 1046,
      "sou": 1047,
      "nÄĽjÅ¡ÃŃ": 1048,
      "ĠmyÅ¡": 1049,
      "tva": 1050,
      "ĠnÃ¡hle": 1051,
      "ĠvÅ¾dyÅ¥": 1052,
      "sko": 1053,
      "dnÃ½": 1054,
      "kal": 1055,
      "ĠvÃŃm": 1056,
      "Ġpok": 1057,
      "ĠoÄįÃŃ": 1058,
      "ĠlÃ¡ska": 1059,
      "ĠnÄĽk": 1060,
      "ĠstÃŃn": 1061,
      "dle": 1062,
      "Ġ17": 1063,
      "ĠpÃ¡n": 1064,
      "ĠsvÃ©ho": 1065,
      "ĠÄįlovÄĽk": 1066,
      "Ã©ho": 1067,
      "nÃ¡ch": 1068,
      "Ġslav": 1069,
      "ĠkterÃ©": 1070,
      "ĠznÃŃ": 1071,
      "Ġvzdu": 1072,
      "lÃ½m": 1073,
      "tky": 1074,
      "Ġmnou": 1075,
      "ĠnynÃŃ": 1076,
      "Ġpy": 1077,
      "Ġzo": 1078,
      "Ġmezi": 1079,
      "Ġjeden": 1080,
      "Ġmla": 1081,
      "Ġhled": 1082,
      "jÃŃc": 1083,
      "Ġmrak": 1084,
      "ĠbÅĻe": 1085,
      "Ġbrat": 1086,
      "ĠstÅĻÃŃ": 1087,
      "Ġzase": 1088,
      "Ġost": 1089,
      "Ġtma": 1090,
      "Ġdr": 1091,
      "ĠklÃŃ": 1092,
      "ĠjÃŃm": 1093,
      "ĠhrÃ¡": 1094,
      "ĠtiÅ¡e": 1095,
      "er": 1096,
      "ĠpÅĻÃ¡": 1097,
      "ĠkterÃ½": 1098,
      "Ġjednou": 1099,
      "ĠsvÄĽta": 1100,
      "ĠstÃ¡le": 1101,
      "ĠkvÃŃ": 1102,
      "Ġpoto": 1103,
      "Ġmoh": 1104,
      "Ġzm": 1105,
      "ĠlÅ¯": 1106,
      "ĠznÃ¡m": 1107,
      "krÃ¡t": 1108,
      "Ġdost": 1109,
      "ĠÃºsmÄĽ": 1110,
      "ĠzvÄĽ": 1111,
      "ĠstÄĽ": 1112,
      "rov": 1113,
      "ĠsvÃ¡": 1114,
      "Ġpat": 1115,
      "rost": 1116,
      "ĠvÃŃce": 1117,
      "ĠstojÃŃ": 1118,
      "Ġsle": 1119,
      "Å¡la": 1120,
      "mÃ©": 1121,
      "sÃŃc": 1122,
      "pra": 1123,
      "dnÃŃ": 1124,
      "nec": 1125,
      "Ġoz": 1126,
      "ĠÅ¡Å¥": 1127,
      "Ġnemo": 1128,
      "Ġbled": 1129,
      "ĠXXAA": 1130,
      "Ġtra": 1131,
      "Ġjar": 1132,
      "mnÄĽ": 1133,
      "lit": 1134,
      "ĠzpÄĽv": 1135,
      "nku": 1136,
      "nka": 1137,
      "spo": 1138,
      "Ġposled": 1139,
      "ĠbÃŃlÃ©": 1140,
      "ĠjuÅ¾": 1141,
      "sla": 1142,
      "ĠcoÅ¾": 1143,
      "Ġhrob": 1144,
      "ĠvÄĽr": 1145,
      "Ġodpo": 1146,
      "Ġpoko": 1147,
      "ĠboÅ¾ÃŃ": 1148,
      "Ġveli": 1149,
      "zem": 1150,
      "Ġklo": 1151,
      "jte": 1152,
      "ĠÄįÃŃm": 1153,
      "ĠtrÃ¡": 1154,
      "Ġsebe": 1155,
      "Ġum": 1156,
      "vÃ©m": 1157,
      "Ġnebi": 1158,
      "ĠsmÃŃch": 1159,
      "ĠkÃ©": 1160,
      "vala": 1161,
      "Ġnikdy": 1162,
      "Ġrukou": 1163,
      "CCB": 1164,
      "ĠaÄį": 1165,
      "ĠtvÃ½ch": 1166,
      "lek": 1167,
      "dce": 1168,
      "dnou": 1169,
      "ĠhÅĻ": 1170,
      "ĠveÄįer": 1171,
      "Ġbudou": 1172,
      "Ġjedi": 1173,
      "Ġ1820": 1174,
      "ĠnadÄĽ": 1175,
      "ĠÅ¾il": 1176,
      "nat": 1177,
      "Ġvoj": 1178,
      "jÃŃm": 1179,
      "mou": 1180,
      "Ġplamen": 1181,
      "Ġkraj": 1182,
      "vra": 1183,
      "skou": 1184,
      "Ġstu": 1185,
      "Ġtomu": 1186,
      "Ġnedo": 1187,
      "Ġpot": 1188,
      "ÅĻÃŃm": 1189,
      "ĠvzpomÃŃ": 1190,
      "Ġtys": 1191,
      "ĠhrÅ¯": 1192,
      "ĠnaÅ¡i": 1193,
      "Ġvese": 1194,
      "stÃ©": 1195,
      "vz": 1196,
      "dal": 1197,
      "ĠÅ¡Å¥ast": 1198,
      "Ã³": 1199,
      "Ã¡me": 1200,
      "Ġrou": 1201,
      "Äįko": 1202,
      "ĠAXA": 1203,
      "ĠrÅ¯Å¾e": 1204,
      "ĠvÃŃtÄĽ": 1205,
      "Ġzno": 1206,
      "ĠAABCCB": 1207,
      "Ġkdyby": 1208,
      "Ġdar": 1209,
      "Ġpoli": 1210,
      "Ġzak": 1211,
      "Ġsli": 1212,
      "ABB": 1213,
      "dlo": 1214,
      "ĠvrÃ¡": 1215,
      "Ġsmrt": 1216,
      "ĠnÃ½ch": 1217,
      "ÄįnÃŃ": 1218,
      "vr": 1219,
      "tku": 1220,
      "Ġves": 1221,
      "ĠnevÄĽ": 1222,
      "Ġchci": 1223,
      "Ġvst": 1224,
      "ĠznÃ¡": 1225,
      "ĠmÃ½ch": 1226,
      "cky": 1227,
      "Ġona": 1228,
      "ĠbrÃ¡": 1229,
      "ude": 1230,
      "Ġpal": 1231,
      "ĠdÄĽti": 1232,
      "Ġlesk": 1233,
      "ben": 1234,
      "Å¡ti": 1235,
      "ĠstÃ¡l": 1236,
      "Ġzele": 1237,
      "Ġdva": 1238,
      "cÃŃm": 1239,
      "tal": 1240,
      "Ġzu": 1241,
      "ĠnÃŃÅ¾": 1242,
      "ĠdÃ©": 1243,
      "ĠprvnÃŃ": 1244,
      "Ġpru": 1245,
      "vit": 1246,
      "Ġbar": 1247,
      "Ġsmrti": 1248,
      "Ġnebes": 1249,
      "Ġsh": 1250,
      "ĠzÃ¡ÅĻ": 1251,
      "ĠchÃ¡": 1252,
      "ĠXAAX": 1253,
      "Ġnevi": 1254,
      "Ġhroz": 1255,
      "lech": 1256,
      "Ġleh": 1257,
      "Ġsed": 1258,
      "Ġskal": 1259,
      "Ġhlavy": 1260,
      "Ġstr": 1261,
      "Ġzna": 1262,
      "ĠcelÃ©": 1263,
      "Ġtlu": 1264,
      "Ġsotva": 1265,
      "ĠmusÃŃ": 1266,
      "ÄįnÄĽ": 1267,
      "lik": 1268,
      "ĠdÃ¡le": 1269,
      "stÃ½": 1270,
      "ĠznÄĽ": 1271,
      "Ġzh": 1272,
      "vnÄĽ": 1273,
      "ĠknÄĽ": 1274,
      "Ġdce": 1275,
      "Ġpom": 1276,
      "ĠskrÃ¡": 1277,
      "vali": 1278,
      "ĠÅ¡at": 1279,
      "Ġskry": 1280,
      "ĠkterÃ¡": 1281,
      "Ġneo": 1282,
      "ĠnovÃ©": 1283,
      "ĠdÄĽt": 1284,
      "tech": 1285,
      "nice": 1286,
      "Ġjedno": 1287,
      "pil": 1288,
      "sil": 1289,
      "let": 1290,
      "Ġtaj": 1291,
      "Ġosud": 1292,
      "Ġplo": 1293,
      "Ġhrd": 1294,
      "ĠpÅĻece": 1295,
      "Ġbr": 1296,
      "ĠzpÄĽt": 1297,
      "kÃ¡ch": 1298,
      "Ġproti": 1299,
      "ĠtÅ¯": 1300,
      "Ġruka": 1301,
      "Ġticho": 1302,
      "Ġjemu": 1303,
      "vÃ¡nÃŃ": 1304,
      "Ġkal": 1305,
      "zel": 1306,
      "Ġradost": 1307,
      "dÅ¯": 1308,
      "Ġneby": 1309,
      "hat": 1310,
      "Ġproto": 1311,
      "Ġdvo": 1312,
      "Ġruku": 1313,
      "Ġvlas": 1314,
      "ĠletÃŃ": 1315,
      "ĠdÃ½": 1316,
      "Ġzk": 1317,
      "Ġobla": 1318,
      "znÄĽ": 1319,
      "Ġtvoje": 1320,
      "ĠÅ¡tÃŃ": 1321,
      "Ġkdys": 1322,
      "ĠstarÃ½": 1323,
      "Ġdlouho": 1324,
      "ĠleÅ¾ÃŃ": 1325,
      "dnÄĽ": 1326,
      "lov": 1327,
      "kÃ©m": 1328,
      "Ġrozko": 1329,
      "Ġvlasti": 1330,
      "ĠmeÄį": 1331,
      "Äįel": 1332,
      "ĠkÅĻe": 1333,
      "Ġzra": 1334,
      "ĠkvÄĽ": 1335,
      "Ġode": 1336,
      "ĠvÅ¡i": 1337,
      "Ġplu": 1338,
      "nic": 1339,
      "Ġjin": 1340,
      "Ġhlavou": 1341,
      "ĠduÅ¡ÃŃ": 1342,
      "pl": 1343,
      "Ġzbo": 1344,
      "pou": 1345,
      "ĠvÅĻe": 1346,
      "nit": 1347,
      "nech": 1348,
      "Ġrych": 1349,
      "Ã½mi": 1350,
      "ÄįÃŃm": 1351,
      "Ġdem": 1352,
      "pen": 1353,
      "ĠtÅĻi": 1354,
      "ĠdÃ¡vno": 1355,
      "ĠbÃ¡s": 1356,
      "Ġdruh": 1357,
      "Ġpozd": 1358,
      "Ġper": 1359,
      "Ġsamo": 1360,
      "ĠhvÄĽzdy": 1361,
      "ĠnÅ¯": 1362,
      "Ġcit": 1363,
      "Ġtesk": 1364,
      "ĠtoÅ¥": 1365,
      "Ġkles": 1366,
      "ĠnÄĽj": 1367,
      "Ġzou": 1368,
      "ĠprÃ½": 1369,
      "ĠkrÃ¡t": 1370,
      "ĠcizÃŃ": 1371,
      "pat": 1372,
      "ĠdobÅĻe": 1373,
      "Ġpohled": 1374,
      "ĠobÄĽ": 1375,
      "ral": 1376,
      "ĠboÅ¾e": 1377,
      "Ġnimi": 1378,
      "Ġzt": 1379,
      "Ġjdou": 1380,
      "ĠvdÄĽ": 1381,
      "lÃŃm": 1382,
      "Ġroze": 1383,
      "ĠvidÃŃ": 1384,
      "Ġtajem": 1385,
      "rnÄĽ": 1386,
      "lal": 1387,
      "Ġpros": 1388,
      "Ġslou": 1389,
      "ĠzÃ¡ÅĻÃŃ": 1390,
      "Ġhlubo": 1391,
      "Ġsch": 1392,
      "ĠmÅ¯Å¾e": 1393,
      "Ġpane": 1394,
      "zÃ¡": 1395,
      "Ġkri": 1396,
      "Ġcha": 1397,
      "nutÃŃ": 1398,
      "ĠzÅ¯": 1399,
      "ĠdÅĻÃŃv": 1400,
      "ĠvÅ¡ecky": 1401,
      "Ġlist": 1402,
      "Ġtvou": 1403,
      "rnÃ©": 1404,
      "alo": 1405,
      "Ġrud": 1406,
      "ĠÅ¾ena": 1407,
      "ĠtÃ¡h": 1408,
      "ĠÄįasto": 1409,
      "ĠzlatÃ©": 1410,
      "vÅ¯": 1411,
      "pal": 1412,
      "ĠsvÄĽtÄĽ": 1413,
      "ĠposlednÃŃ": 1414,
      "ĠvolÃ¡": 1415,
      "ĠchvÃŃle": 1416,
      "jen": 1417,
      "Ġsvoje": 1418,
      "ĠtÅĻÃŃ": 1419,
      "Ġtebou": 1420,
      "ĠvidÄĽl": 1421,
      "ĠÅ¾ivota": 1422,
      "ĠstÅĻÃŃb": 1423,
      "Ġtla": 1424,
      "Ġblou": 1425,
      "ĠÅ¡ep": 1426,
      "ĠdÃ¡m": 1427,
      "ĠsnÅ¯": 1428,
      "den": 1429,
      "Ġzapo": 1430,
      "ĠhledÃŃ": 1431,
      "ĠkvÄĽty": 1432,
      "ĠnÃ½m": 1433,
      "ÄįnÃ©": 1434,
      "Ġvat": 1435,
      "rob": 1436,
      "ĠnÃ¡rod": 1437,
      "stÅĻe": 1438,
      "Ġpole": 1439,
      "ran": 1440,
      "ĠprÃ¡zd": 1441,
      "tka": 1442,
      "kle": 1443,
      "ĠpohÃ¡": 1444,
      "ĠÅ¾ha": 1445,
      "ĠhÃ½": 1446,
      "Ġhud": 1447,
      "Ġvrou": 1448,
      "Ġuk": 1449,
      "ĠtÅĻ": 1450,
      "Ġpil": 1451,
      "Ġkry": 1452,
      "ĠÄįelo": 1453,
      "ĠpanÃŃ": 1454,
      "ĠzmÄĽ": 1455,
      "rÃ½ch": 1456,
      "ĠboÅ¾": 1457,
      "Ġlidst": 1458,
      "Ġsku": 1459,
      "ĠkÅĻÃŃÅ¾": 1460,
      "ct": 1461,
      "rnÃ½": 1462,
      "Ġztra": 1463,
      "ĠsmÃ¡": 1464,
      "dnÃ¡": 1465,
      "ĠsvÃŃtÃŃ": 1466,
      "ĠslyÅ¡": 1467,
      "ĠtÄĽlo": 1468,
      "Ġbys": 1469,
      "Ġpoj": 1470,
      "Ġzach": 1471,
      "vÃ¡n": 1472,
      "ĠzÅĻel": 1473,
      "ĠdÄĽs": 1474,
      "Ġ2": 1475,
      "Ġkni": 1476,
      "ĠpoÄį": 1477,
      "Å¡em": 1478,
      "ĠnechÅ¥": 1479,
      "ĠÅĪad": 1480,
      "Ġoka": 1481,
      "Ġdale": 1482,
      "dÄĽla": 1483,
      "ĠlÃ¡sku": 1484,
      "Ġy": 1485,
      "ĠlÃ¡skou": 1486,
      "Ġotec": 1487,
      "ĠtÅĻeba": 1488,
      "Ġzve": 1489,
      "ala": 1490,
      "ÅĻÃŃc": 1491,
      "Ġpouze": 1492,
      "Ġkon": 1493,
      "ĠjakÃ½": 1494,
      "um": 1495,
      "Ġsvit": 1496,
      "nik": 1497,
      "Ġsvobo": 1498,
      "krÃ¡": 1499,
      "ĠÄįek": 1500,
      "Ġkraji": 1501,
      "ĠpÅ¯l": 1502,
      "ĠsnÃŃh": 1503,
      "Ġsklo": 1504,
      "Å¡il": 1505,
      "Ġjem": 1506,
      "ÅĻit": 1507,
      "pas": 1508,
      "Ġpomo": 1509,
      "Ġlidu": 1510,
      "Ġkve": 1511,
      "ĠÅĻÃ¡": 1512,
      "lÃ©m": 1513,
      "Ġup": 1514,
      "ĠchvÃ¡": 1515,
      "Ġmnoho": 1516,
      "ĠnÄĽho": 1517,
      "vÃ¡m": 1518,
      "Ġtady": 1519,
      "ĠdrÃ¡": 1520,
      "Ġzouf": 1521,
      "ĠsklÃ¡": 1522,
      "Å¡enÃŃ": 1523,
      "ĠbÃ½ti": 1524,
      "ĠsvÄĽtlo": 1525,
      "Ġzby": 1526,
      "Ġpotom": 1527,
      "ĠvelkÃ©": 1528,
      "Ġvys": 1529,
      "Ġdej": 1530,
      "ĠpÃŃsnÄĽ": 1531,
      "Ġou": 1532,
      "ĠpolÃŃ": 1533,
      "ĠbÃŃlÃ½": 1534,
      "Ġmoud": 1535,
      "Ġblu": 1536,
      "Ġjisk": 1537,
      "ĠvÅ¾dycky": 1538,
      "ĠblÃŃÅ¾": 1539,
      "Ġneza": 1540,
      "ĠptÃ¡k": 1541,
      "ĠnovÃ½": 1542,
      "ĠvÃ½Å¡": 1543,
      "kli": 1544,
      "vost": 1545,
      "Ġtep": 1546,
      "Ġhlava": 1547,
      "ĠnÃ¡ru": 1548,
      "ĠÅ¾Ã¡r": 1549,
      "tla": 1550,
      "Ġsny": 1551,
      "stal": 1552,
      "ĠvelkÃ½": 1553,
      "Ġtedy": 1554,
      "Ġhory": 1555,
      "Ġsyn": 1556,
      "ĠÅ¾eny": 1557,
      "Ġvich": 1558,
      "ĠdÃ¡li": 1559,
      "ĠbouÅĻ": 1560,
      "kÅĻi": 1561,
      "Ġhrad": 1562,
      "Ġvem": 1563,
      "Ġnevy": 1564,
      "Ġnese": 1565,
      "ĠvlastnÃŃ": 1566,
      "Ġstat": 1567,
      "Ġslzy": 1568,
      "ĠumÃŃ": 1569,
      "znÃŃ": 1570,
      "vajÃŃ": 1571,
      "Ġzved": 1572,
      "Ġtat": 1573,
      "ĠhruÄı": 1574,
      "Ġpar": 1575,
      "kol": 1576,
      "nÃ½mi": 1577,
      "Ġret": 1578,
      "ĠmÃ¡Å¡": 1579,
      "sem": 1580,
      "ĠnÃ¡mi": 1581,
      "ke": 1582,
      "Ġsni": 1583,
      "Ġnikdo": 1584,
      "ĠblÃ¡": 1585,
      "ĠvÃŃtÄĽz": 1586,
      "ĠvÃŃtr": 1587,
      "Ġzlato": 1588,
      "Ġrem": 1589,
      "zko": 1590,
      "ĠvÅ¡eho": 1591,
      "Ġvzdo": 1592,
      "tro": 1593,
      "ĠsvatÃ½": 1594,
      "Ġdos": 1595,
      "Ġstej": 1596,
      "Ġkrve": 1597,
      "ĠjejÅ¾": 1598,
      "Ġzmi": 1599,
      "bil": 1600,
      "Ġsty": 1601,
      "dÄĽt": 1602,
      "Ġpapr": 1603,
      "kud": 1604,
      "ĠmarnÄĽ": 1605,
      "ĠvÃ½ch": 1606,
      "Ġbol": 1607,
      "ĠvÄĽru": 1608,
      "ĠjmÃ©": 1609,
      "chni": 1610,
      "Ġzjev": 1611,
      "ĠsvojÃŃ": 1612,
      "Ġcos": 1613,
      "nostÃŃ": 1614,
      "Ġbolest": 1615,
      "leh": 1616,
      "Ġmr": 1617,
      "rÃ½m": 1618,
      "ĠdÃ½m": 1619,
      "chÃ¡zÃŃ": 1620,
      "Ġdivo": 1621,
      "ĠvaÅ¡e": 1622,
      "ĠstarÃ©": 1623,
      "Ġpocho": 1624,
      "Ġct": 1625,
      "Ġkamen": 1626,
      "ĠdvÄĽ": 1627,
      "ata": 1628,
      "ÄįenÃŃ": 1629,
      "Ġobraz": 1630,
      "Ġprach": 1631,
      "Ġzahra": 1632,
      "zou": 1633,
      "ĠvidÃŃm": 1634,
      "Ġposta": 1635,
      "ĠÅ¡um": 1636,
      "Å¾nÄĽ": 1637,
      "Ġboji": 1638,
      "ĠopÄĽt": 1639,
      "Ġpolo": 1640,
      "ĠpadÃ¡": 1641,
      "Ġcestu": 1642,
      "Å¾el": 1643,
      "ĠvstÅĻÃŃc": 1644,
      "ĠhoÅĻÃŃ": 1645,
      "Ġor": 1646,
      "Ġchud": 1647,
      "he": 1648,
      "Ġol": 1649,
      "tit": 1650,
      "Å¾o": 1651,
      "ĠmÃŃr": 1652,
      "ĠneznÃ¡m": 1653,
      "ĠvÅ¡ude": 1654,
      "ĠkaÅ¾dÃ©": 1655,
      "Ġuli": 1656,
      "ĠnÄĽkdy": 1657,
      "ys": 1658,
      "Ġnena": 1659,
      "lna": 1660,
      "ĠmÃ¡lo": 1661,
      "tk": 1662,
      "Ġvzal": 1663,
      "stra": 1664,
      "ĠmrÃ¡": 1665,
      "ĠmÃ©ho": 1666,
      "Ġsbo": 1667,
      "Ġmatka": 1668,
      "Ġvyh": 1669,
      "ĠÃºsmÄĽv": 1670,
      "ĠjistÄĽ": 1671,
      "Ġbohat": 1672,
      "dit": 1673,
      "ĠmilÃ½": 1674,
      "ĠnuÅ¾": 1675,
      "ĠplÃ¡Äį": 1676,
      "ĠXAXAXX": 1677,
      "ĠnÄĽmu": 1678,
      "ĠÅĻa": 1679,
      "ĠtrÅ¯": 1680,
      "ĠpÄĽk": 1681,
      "hÅ¯ru": 1682,
      "Ġkdes": 1683,
      "ĠrÃ¡na": 1684,
      "Ġvil": 1685,
      "ĠpÅĻem": 1686,
      "Ġbohu": 1687,
      "Ġotev": 1688,
      "ĠsvatÃ©": 1689,
      "div": 1690,
      "ĠmÃŃt": 1691,
      "ĠknÃŃ": 1692,
      "Ġvod": 1693,
      "ĠlidÃ©": 1694,
      "ĠdomÅ¯": 1695,
      "ĠzÅĻÃŃm": 1696,
      "ĠnemÃ¡": 1697,
      "Ġvele": 1698,
      "ĠhlÃ¡": 1699,
      "Ġkouz": 1700,
      "or": 1701,
      "sce": 1702,
      "Ġzv": 1703,
      "Ġstou": 1704,
      "Ġran": 1705,
      "ĠzlatÃ½": 1706,
      "ĠmlÃ¡dÃŃ": 1707,
      "ĠpÅĻiÅ¡el": 1708,
      "ĠsÃŃly": 1709,
      "Ġtil": 1710,
      "ĠprÃ¡vÄĽ": 1711,
      "ĠsvÄĽtla": 1712,
      "ÄįnÃ½": 1713,
      "ĠmÃŃsto": 1714,
      "ĠAXAX": 1715,
      "Ġjaro": 1716,
      "ĠkrÃ¡lov": 1717,
      "ĠpÅĻijde": 1718,
      "ĠnÄĽmÅ¾": 1719,
      "Ġbal": 1720,
      "ĠchÃ½": 1721,
      "ĠstvÃŃ": 1722,
      "Ġsama": 1723,
      "ĠpÅĻij": 1724,
      "ĠslÃ¡vy": 1725,
      "sal": 1726,
      "Ġsvoji": 1727,
      "Ġboha": 1728,
      "ĠzpÃŃvÃ¡": 1729,
      "ĠvÅ¡echno": 1730,
      "ĠmilÃ¡": 1731,
      "ĠhoÅĻe": 1732,
      "Å¾eh": 1733,
      "Ġas": 1734,
      "Ġnev": 1735,
      "din": 1736,
      "snÄĽ": 1737,
      "ĠprÃ¡ci": 1738,
      "Ġved": 1739,
      "ĠneÅ¾li": 1740,
      "Ġbuj": 1741,
      "Ġhal": 1742,
      "dne": 1743,
      "ĠkrÃ¡sy": 1744,
      "ĠpÃŃsnÃŃ": 1745,
      "lenÃŃ": 1746,
      "ĠstÃŃny": 1747,
      "Ġzdvi": 1748,
      "Ġrychle": 1749,
      "Ġspat": 1750,
      "ĠmÃ½m": 1751,
      "tnÃ©": 1752,
      "mÄĽnÃŃ": 1753,
      "ĠprÃ¡ce": 1754,
      "Ġzr": 1755,
      "!...": 1756,
      "Ġstrom": 1757,
      "Ġproud": 1758,
      "Ġfi": 1759,
      "ĠtisÃŃ": 1760,
      "hal": 1761,
      "ĠbouÅĻe": 1762,
      "Ġzbra": 1763,
      "Ġtrochu": 1764,
      "ĠÄı": 1765,
      "ĠÅ¡la": 1766,
      "ĠzÃ¡ÅĻi": 1767,
      "ĠandÄĽl": 1768,
      "Å¯v": 1769,
      "ĠnaÅ¡ÃŃ": 1770,
      "plÃ¡": 1771,
      "ĠvÄĽÄįnÄĽ": 1772,
      "ĠÅ¾ÃŃt": 1773,
      "Ġvzdech": 1774,
      "ĠdÄĽv": 1775,
      "Ġkat": 1776,
      "Ġchem": 1777,
      "ĠtÅĻpy": 1778,
      "ĠvzhÅ¯ru": 1779,
      "ckÃ©": 1780,
      "lost": 1781,
      "ĠmoÅ¾": 1782,
      "Ġspolu": 1783,
      "Ġov": 1784,
      "hlÃ©": 1785,
      "Ġnav": 1786,
      "Ġhovo": 1787,
      "ĠskrÃ½": 1788,
      "hl": 1789,
      "Ġkrok": 1790,
      "Ġtolik": 1791,
      "ĠdÅ¯m": 1792,
      "ĠhÅ¯": 1793,
      "der": 1794,
      "ĠÅ¡ko": 1795,
      "Ġslovo": 1796,
      "Ãº": 1797,
      "Ġnapo": 1798,
      "ĠnevÃŃ": 1799,
      "ĠpovÄĽ": 1800,
      "Ġbudu": 1801,
      "Ġkoru": 1802,
      "Ġhospo": 1803,
      "Ġbyli": 1804,
      "Ġaj": 1805,
      "ĠlidÃŃ": 1806,
      "Ġopu": 1807,
      "Ġmd": 1808,
      "Ġzvolna": 1809,
      "Ġvzduch": 1810,
      "Ġvyp": 1811,
      "ĠkvÄĽtÅ¯": 1812,
      "ĠzaÄį": 1813,
      "Ġmen": 1814,
      "ĠtvÃ¡ÅĻe": 1815,
      "Ġzdra": 1816,
      "ĠÄįech": 1817,
      "Å¾ÃŃm": 1818,
      "ĠkÃ¡m": 1819,
      "Ġpout": 1820,
      "ĠjakÃ©": 1821,
      "Ġducha": 1822,
      "skÃ©ho": 1823,
      "ÅĻa": 1824,
      "Ġnul": 1825,
      "Äįit": 1826,
      "Ġblaho": 1827,
      "ĠÅ¾lu": 1828,
      "ĠÅ¾el": 1829,
      "Ġbyly": 1830,
      "ĠÅĻeÄį": 1831,
      "nÄĽm": 1832,
      "ĠdolÅ¯": 1833,
      "ĠzrÃ¡": 1834,
      "nula": 1835,
      "Ġsr": 1836,
      "Ġnel": 1837,
      "ĠtvÃ¡ÅĻÃŃ": 1838,
      "stup": 1839,
      "Ã¡c": 1840,
      "Ġchla": 1841,
      "ĠÅ¾iv": 1842,
      "ĠvlÃŃ": 1843,
      "Ġples": 1844,
      "valy": 1845,
      "Ġmysli": 1846,
      "jat": 1847,
      "Ġrozp": 1848,
      "ĠÄįekÃ¡": 1849,
      "vila": 1850,
      "Ġzraky": 1851,
      "XB": 1852,
      "ĠtvÃ¡ÅĻi": 1853,
      "Ġnek": 1854,
      "ĠvÅ¡ichni": 1855,
      "ĠvÄĽk": 1856,
      "Ġkrva": 1857,
      "Ġuz": 1858,
      "hod": 1859,
      "Å¾Ã¡": 1860,
      "ĠvÄįe": 1861,
      "Ġtouhy": 1862,
      "ĠnichÅ¾": 1863,
      "ĠklÃ¡": 1864,
      "ĠvÃŃÅ¡": 1865,
      "dÄĽj": 1866,
      "lÃ©b": 1867,
      "bra": 1868,
      "Ġchat": 1869,
      "Ġdoby": 1870,
      "cy": 1871,
      "Ġbohem": 1872,
      "Ġprch": 1873,
      "ĠÄįest": 1874,
      "Å¾nÃ©": 1875,
      "tila": 1876,
      "ĠpojÄı": 1877,
      "ĠlÃ¡sce": 1878,
      "ĠtisÃŃc": 1879,
      "Ġvon": 1880,
      "nici": 1881,
      "Ġhoj": 1882,
      "rÃ©m": 1883,
      "Ġopo": 1884,
      "ABAB": 1885,
      "vÃ©ho": 1886,
      "Ġdle": 1887,
      "ĠzvÃŃ": 1888,
      "Ġtan": 1889,
      "ĠmÄĽk": 1890,
      "Ġsebou": 1891,
      "Ġzy": 1892,
      "Ġprsou": 1893,
      "ĠpÅ¯j": 1894,
      "ĠchrÃ¡m": 1895,
      "Ġvlny": 1896,
      "sek": 1897,
      "ĠÄįernÃ©": 1898,
      "gi": 1899,
      "Ġzdo": 1900,
      "ĠmyÅ¡lÃ©": 1901,
      "ĠmÄĽsta": 1902,
      "Ġvyso": 1903,
      "rech": 1904,
      "stil": 1905,
      "Ġhlubi": 1906,
      "Ġlesy": 1907,
      "Ġdil": 1908,
      "Ġpodo": 1909,
      "ĠnocÃŃ": 1910,
      "ĠkdoÅ¾": 1911,
      "Ġbratr": 1912,
      "ĠvÅ¯nÄĽ": 1913,
      "ĠjinÃ©": 1914,
      "ĠnaÅ¡ich": 1915,
      "Ġcen": 1916,
      "ĠsladkÃ©": 1917,
      "sÃŃm": 1918,
      "Ġpev": 1919,
      "Ġstru": 1920,
      "Ġoba": 1921,
      "stem": 1922,
      "Ġtek": 1923,
      "tko": 1924,
      "ĠÄįem": 1925,
      "ĠmÄĽsÃŃc": 1926,
      "ĠcÃŃch": 1927,
      "ĠlÃŃb": 1928,
      "Ġstud": 1929,
      "tÅĻe": 1930,
      "Ġsho": 1931,
      "ĠzmÃŃ": 1932,
      "Ġbeze": 1933,
      "skÃ½m": 1934,
      "nÃ¡nÃŃ": 1935,
      "Ġply": 1936,
      "Ġznova": 1937,
      "Ġdosud": 1938,
      "Ġrov": 1939,
      "dila": 1940,
      "Ġmilost": 1941,
      "ĠkrÃ¡snÃ©": 1942,
      "Ġchmu": 1943,
      "ĠpÅĻÃŃro": 1944,
      "Ġzvuk": 1945,
      "roz": 1946,
      "letÃŃ": 1947,
      "zni": 1948,
      "ĠdÃ½ch": 1949,
      "skÃ©m": 1950,
      "ĠtÄĽla": 1951,
      "ĠstÃ©": 1952,
      "Ġtakto": 1953,
      "Ġoku": 1954,
      "ĠsvÄĽtem": 1955,
      "ĠvÃ½Å¡e": 1956,
      "ĠvÄĽky": 1957,
      "ĠmÃ©m": 1958,
      "Å¡ka": 1959,
      "ĠhoÅĻ": 1960,
      "Ġnap": 1961,
      "ĠhÅĻÃŃch": 1962,
      "Ġvna": 1963,
      "ĠvzdÃ¡": 1964,
      "Ġslov": 1965,
      "Ġkmi": 1966,
      "ĠslyÅ¡ÃŃ": 1967,
      "Ġokem": 1968,
      "Ġperu": 1969,
      "ĠvÃ½m": 1970,
      "ĠkÅĻÃŃdla": 1971,
      "Ġklam": 1972,
      "ĠhnÃŃ": 1973,
      "Ġzav": 1974,
      "ĠusmÃŃ": 1975,
      "Ġpozdra": 1976,
      "stech": 1977,
      "Ġhej": 1978,
      "ĠÅ¡ed": 1979,
      "ĠnesmÃŃ": 1980,
      "ĠjÃŃt": 1981,
      "Ġpropa": 1982,
      "Ġvyz": 1983,
      "kÃ¡m": 1984,
      "Ġchvil": 1985,
      "ÅĻela": 1986,
      "ĠmyÅ¡len": 1987,
      "Ġhloub": 1988,
      "ĠÄįil": 1989,
      "Ġvody": 1990,
      "Ġned": 1991,
      "cela": 1992,
      "roj": 1993,
      "ĠÄįasem": 1994,
      "teli": 1995,
      "cit": 1996,
      "Å¡nÄĽ": 1997,
      "ĠhvÄĽzda": 1998,
      "ĠslyÅ¡e": 1999,
      "Ġmodlit": 2000,
      "ĠnaÄį": 2001,
      "mÄĽl": 2002,
      "ĠlÃŃce": 2003,
      "rk": 2004,
      "Ġkva": 2005,
      "ĠkrvÃŃ": 2006,
      "ĠztrÃ¡": 2007,
      "ĠrÃ½": 2008,
      "kÃ¡nÃŃ": 2009,
      "Ġtre": 2010,
      "Ġrod": 2011,
      "Ġobzo": 2012,
      "Ġcy": 2013,
      "ĠcelÃ¡": 2014,
      "ĠtvÃ½m": 2015,
      "Ġtisk": 2016,
      "ĠsnÄĽnÃŃ": 2017,
      "ĠtoÅ¾": 2018,
      "Ġzvy": 2019,
      "Ġzti": 2020,
      "ĠtÄĽm": 2021,
      "ĠprÅ¯": 2022,
      "ĠmÄĽsÃŃ": 2023,
      "Å¾nÃ½": 2024,
      "ĠsedÃŃ": 2025,
      "ĠvÃ¡l": 2026,
      "nila": 2027,
      "Ġsoud": 2028,
      "Ġdrob": 2029,
      "ĠnÃ¡d": 2030,
      "Ġubo": 2031,
      "Ġdomo": 2032,
      "Ġver": 2033,
      "Ġpta": 2034,
      "novÃ©": 2035,
      "ĠÅ¡li": 2036,
      "ĠlÃŃc": 2037,
      "vol": 2038,
      "ĠzaÅ¡": 2039,
      "nÃ¡Å¡ÃŃ": 2040,
      "Ġobje": 2041,
      "ĠnevÃŃm": 2042,
      "ĠhnÄĽv": 2043,
      "ĠmluvÃŃ": 2044,
      "klo": 2045,
      "ĠsÅ¯": 2046,
      "ĠstarÃ¡": 2047,
      "ĠslÃ¡va": 2048,
      "lez": 2049,
      "valo": 2050,
      "ĠjakÃ¡": 2051,
      "Ġotro": 2052,
      "jel": 2053,
      "ĠslavÃŃ": 2054,
      "ÅĻed": 2055,
      "Ã½vÃ¡": 2056,
      "Ġhlad": 2057,
      "Ġcesty": 2058,
      "chÃ½": 2059,
      "ĠÅ¾ije": 2060,
      "Ġnelze": 2061,
      "Ġslza": 2062,
      "Ġnit": 2063,
      "ĠzÃ¡pas": 2064,
      "ĠblaÅ¾en": 2065,
      "ĠstÃ¡t": 2066,
      "ĠmyslÃŃ": 2067,
      "ĠÃºst": 2068,
      "del": 2069,
      "ĠzÃ¡vo": 2070,
      "Ġnost": 2071,
      "Ġfa": 2072,
      "ali": 2073,
      "ĠcÃŃtÃŃ": 2074,
      "sen": 2075,
      "Ġkterak": 2076,
      "ĠÄįele": 2077,
      "Ġkole": 2078,
      "Ġtouha": 2079,
      "ĠdlÃŃ": 2080,
      "Ġjedna": 2081,
      "ĠjinÃ½": 2082,
      "ĠhleÄı": 2083,
      "ĠpravÃŃ": 2084,
      "kone": 2085,
      "Ġar": 2086,
      "ĠmÄĽla": 2087,
      "ĠdÃ¡t": 2088,
      "ĠbÃŃlÃ¡": 2089,
      "Ġpest": 2090,
      "ĠhÅĻe": 2091,
      "vÄĽl": 2092,
      "Ġmohu": 2093,
      "Ġcestou": 2094,
      "zrak": 2095,
      "ĠnÄĽco": 2096,
      "Ġslunci": 2097,
      "Ġvsta": 2098,
      "Ġjara": 2099,
      "Å¡ku": 2100,
      "ĠzÃ¡ÅĻe": 2101,
      "ABBX": 2102,
      "ĠdÃŃvÃ¡": 2103,
      "Ġkterou": 2104,
      "vati": 2105,
      "uj": 2106,
      "Å¾it": 2107,
      "liÅ¡": 2108,
      "Ġtvrd": 2109,
      "ĠrÃ¡j": 2110,
      "Ġvez": 2111,
      "ĠjÃŃÅ¾": 2112,
      "Ġoblo": 2113,
      "Ġmatky": 2114,
      "ĠmoÅĻi": 2115,
      "ĠtvÃ©m": 2116,
      "Ġhrobu": 2117,
      "hra": 2118,
      "Ġkdysi": 2119,
      "lila": 2120,
      "ÅĻenÃŃ": 2121,
      "hlÃŃ": 2122,
      "Ġdosti": 2123,
      "ĠbÄĽda": 2124,
      "met": 2125,
      "on": 2126,
      "Å¾enÃŃ": 2127,
      "in": 2128,
      "Ġvedle": 2129,
      "Å¡t": 2130,
      "ujÃŃ": 2131,
      "Ġdole": 2132,
      "ĠplnÃ½": 2133,
      "Ġzal": 2134,
      "Ġvln": 2135,
      "Ġhodi": 2136,
      "hled": 2137,
      "ĠsvÃ©mu": 2138,
      "Ġkap": 2139,
      "ĠvÅ¡echny": 2140,
      "ĠÅĻÃŃm": 2141,
      "Ġlep": 2142,
      "ĠtvÃ©ho": 2143,
      "Ġdoma": 2144,
      "ĠdÄĽc": 2145,
      "ĠÃºsta": 2146,
      "rel": 2147,
      "Ġkmen": 2148,
      "ĠmojÃŃ": 2149,
      "Ġble": 2150,
      "ĠslÃŃ": 2151,
      "zal": 2152,
      "ÅĻÃŃt": 2153,
      "ĠbouÅĻÃŃ": 2154,
      "ĠbyÅ¥": 2155,
      "Ġohni": 2156,
      "ĠsladkÃ½": 2157,
      "tajÃŃ": 2158,
      "tÄĽl": 2159,
      "kÅĻik": 2160,
      "Ġstrach": 2161,
      "ĠhlÃŃ": 2162,
      "mlu": 2163,
      "Ġcelou": 2164,
      "ĠÄįela": 2165,
      "Ġnaz": 2166,
      "ĠzdrÃ¡": 2167,
      "nouti": 2168,
      "ĠskÃ¡ly": 2169,
      "kro": 2170,
      "ĠmladÃ½": 2171,
      "Ġhlasem": 2172,
      "Ġ,": 2173,
      "dr": 2174,
      "Ġdav": 2175,
      "Ġhoch": 2176,
      "Ġminu": 2177,
      "Ġtrp": 2178,
      "Ġrak": 2179,
      "Ġvzdy": 2180,
      "ĠvÄĽc": 2181,
      "ĠdnÅ¯": 2182,
      "Ġohe": 2183,
      "spoÅĪ": 2184,
      "Ġrozum": 2185,
      "rÃ¡til": 2186,
      "ĠhlavÄĽ": 2187,
      "ĠkaÅ¾dÃ¡": 2188,
      "ĠchceÅ¡": 2189,
      "ĠdvÃ©": 2190,
      "ĠcÃŃsa": 2191,
      "ech": 2192,
      "ckÃ½": 2193,
      "Ġkonec": 2194,
      "ĠmnohÃ½": 2195,
      "nko": 2196,
      "ĠstromÅ¯": 2197,
      "Ġnohou": 2198,
      "ĠuÄįi": 2199,
      "dra": 2200,
      "Ã¡ch": 2201,
      "koli": 2202,
      "kala": 2203,
      "dÄĽli": 2204,
      "ĠklidnÄĽ": 2205,
      "ĠpÄĽt": 2206,
      "Ġzpo": 2207,
      "ĠsvÄĽÅ¾ÃŃ": 2208,
      "neÅ¡": 2209,
      "ĠstÃŃnu": 2210,
      "vad": 2211,
      "Ġstesk": 2212,
      "Ġlil": 2213,
      "ĠÄįÃ¡": 2214,
      "Ġsnu": 2215,
      "Ġokam": 2216,
      "ĠkÃ©Å¾": 2217,
      "ĠnÃ©m": 2218,
      "Ġmile": 2219,
      "ĠdÃ¡lky": 2220,
      "Ġspi": 2221,
      "ĠoheÅĪ": 2222,
      "Ġal": 2223,
      "Ġkraje": 2224,
      "ĠdobrÃ©": 2225,
      "ĠÅĻÃŃci": 2226,
      "Ġrty": 2227,
      "ĠvÄĽÄįnÃ©": 2228,
      "hÃ½ch": 2229,
      "ĠloÄı": 2230,
      "ĠklÃŃn": 2231,
      "Å¡ek": 2232,
      "ĠhledÃ¡": 2233,
      "Ġtmy": 2234,
      "dky": 2235,
      "ĠmÃ½": 2236,
      "str": 2237,
      "ĠnadÄĽje": 2238,
      "Ġruky": 2239,
      "ĠjehoÅ¾": 2240,
      "ĠkrÃ¡snÃ¡": 2241,
      "ĠmuÅ¾i": 2242,
      "dajÃŃ": 2243,
      "Ġman": 2244,
      "ĠlidskÃ©": 2245,
      "Ġramen": 2246,
      "ĠhnÃŃz": 2247,
      "ĠjarnÃŃ": 2248,
      "Ġtako": 2249,
      "ĠkrÃ¡ÄįÃŃ": 2250,
      "ĠdobrÃ½": 2251,
      "Ġzam": 2252,
      "vec": 2253,
      "Ġpravil": 2254,
      "Ġpry": 2255,
      "ĠplnÃ©": 2256,
      "lÃ©t": 2257,
      "Ġrok": 2258,
      "ÅĻÃ¡s": 2259,
      "ĠdÃ¡vÃ¡": 2260,
      "ĠskvÄĽ": 2261,
      "ĠsÃŃla": 2262,
      "lnÃŃ": 2263,
      "ĠchÅ¯": 2264,
      "dej": 2265,
      "ĠkÃ¡men": 2266,
      "Ġvti": 2267,
      "Ġsled": 2268,
      "ĠzatÃŃm": 2269,
      "BC": 2270,
      "ĠrÃ¡no": 2271,
      "Ġruch": 2272,
      "Ġvlasy": 2273,
      "ÅĻo": 2274,
      "ĠaspoÅĪ": 2275,
      "ĠtÃ©to": 2276,
      "Ġsmys": 2277,
      "ĠmladÃ©": 2278,
      "Ġhlo": 2279,
      "Ġprosto": 2280,
      "dat": 2281,
      "Ġskle": 2282,
      "Ġdobro": 2283,
      "ĠnaÅĪ": 2284,
      "Äįet": 2285,
      "Ġzro": 2286,
      "ĠmÃ¡me": 2287,
      "Ġsud": 2288,
      "ĠdrahÃ¡": 2289,
      "ĠzÃŃtra": 2290,
      "prv": 2291,
      "ĠcÃŃtÃŃm": 2292,
      "Ġcest": 2293,
      "ĠvyÅ¡": 2294,
      "ĠÅ¾eh": 2295,
      "Ġjakby": 2296,
      "sÅ¯": 2297,
      "Å¡ky": 2298,
      "ĠÅĻad": 2299,
      "ĠrÃ¡ny": 2300,
      "Ġpravda": 2301,
      "Å¡nÃ©": 2302,
      "Ġnekone": 2303,
      "ĠoltÃ¡": 2304,
      "ĠnemÄĽ": 2305,
      "ĠlÃ©ta": 2306,
      "ek": 2307,
      "ĠrÃ¡z": 2308,
      "ĠtichÃ©": 2309,
      "Ġpodzi": 2310,
      "ĠslyÅ¡el": 2311,
      "dala": 2312,
      "tom": 2313,
      "ĠrÅ¯Å¾ÃŃ": 2314,
      "ĠÄįt": 2315,
      "Ġjdu": 2316,
      "ĠvÄĽtÅ¡ÃŃ": 2317,
      "Ġstvo": 2318,
      "zeÅĪ": 2319,
      "ĠvÄĽtr": 2320,
      "Ġnade": 2321,
      "Ġnebyl": 2322,
      "kali": 2323,
      "Ġspa": 2324,
      "ĠpoÅ¾eh": 2325,
      "ĠjÃŃmÅ¾": 2326,
      "ĠtisÃŃce": 2327,
      "ĠpÅĻÃŃliÅ¡": 2328,
      "mr": 2329,
      "sed": 2330,
      "van": 2331,
      "Ġvztek": 2332,
      "Ġrost": 2333,
      "ĠmuÅ¾e": 2334,
      "ĠtichÃ½": 2335,
      "Ġjinak": 2336,
      "ĠjichÅ¾": 2337,
      "Ġotce": 2338,
      "ĠmotÃ½": 2339,
      "hnu": 2340,
      "Ġznovu": 2341,
      "Ġhem": 2342,
      "mÃ½": 2343,
      "Äįin": 2344,
      "Ġchle": 2345,
      "ĠÄįin": 2346,
      "Å¾ka": 2347,
      "Ġbrzy": 2348,
      "ĠpovÃŃ": 2349,
      "Ġradosti": 2350,
      "ĠpÃ©": 2351,
      "Ġ1800": 2352,
      "ĠdrahÃ©": 2353,
      "ĠÄįernÃ½": 2354,
      "Ġhrom": 2355,
      "Ġasi": 2356,
      "CBC": 2357,
      "Ġsrdcem": 2358,
      "kat": 2359,
      "ĠmilÃ©": 2360,
      "ĠmalÃ½": 2361,
      "Ġtry": 2362,
      "noucÃŃ": 2363,
      "Ġspou": 2364,
      "Ġhar": 2365,
      "Ġano": 2366,
      "Ġtento": 2367,
      "ĠmÃŃru": 2368,
      "ĠmrÃ¡z": 2369,
      "Ġzhas": 2370,
      "ĠdruhÃ½": 2371,
      "ĠvÄĽkÅ¯": 2372,
      "Ġdoko": 2373,
      "Ġzka": 2374,
      "Ġjazy": 2375,
      "Ġroste": 2376,
      "Ġcesta": 2377,
      "ĠrytÃŃ": 2378,
      "ĠdlouhÃ©": 2379,
      "Ġprapo": 2380,
      "cel": 2381,
      "Ġpovz": 2382,
      "ĠÅĻeÄįi": 2383,
      "ĠkvÃŃtÃŃ": 2384,
      "ĠÄįet": 2385,
      "Ġblanky": 2386,
      "ĠXXABAB": 2387,
      "Ġdny": 2388,
      "klÃ¡": 2389,
      "Ġmoji": 2390,
      "Ġkar": 2391,
      "Ġhas": 2392,
      "rÃ¡ch": 2393,
      "pÃ½": 2394,
      "Å¡te": 2395,
      "Ġnapos": 2396,
      "ĠpÅĻede": 2397,
      "ĠkrÃ¡snÃ½": 2398,
      "Ġnil": 2399,
      "Å¡ÃŃch": 2400,
      "ĠzÅ¯sta": 2401,
      "ĠbudeÅ¡": 2402,
      "Ġstromy": 2403,
      "ĠpÃ¡r": 2404,
      "ĠÅ¾alo": 2405,
      "vej": 2406,
      "ĠpryÄį": 2407,
      "Ġboje": 2408,
      "sel": 2409,
      "losti": 2410,
      "ĠchodÃŃ": 2411,
      "ĠpÃŃsni": 2412,
      "ĠÅĻekl": 2413,
      "tele": 2414,
      "Ġspas": 2415,
      "Ġhloubi": 2416,
      "Ġdarmo": 2417,
      "el": 2418,
      "rnÃ¡": 2419,
      "Ġprachu": 2420,
      "Ġjmen": 2421,
      "ĠkrÃ¡li": 2422,
      "Ġrek": 2423,
      "Ġvede": 2424,
      "Ġklet": 2425,
      "ĠbÃ¡snÃŃ": 2426,
      "Ġnak": 2427,
      "ĠpÅĻÃŃÅ¡tÃŃ": 2428,
      "ĠlesÅ¯": 2429,
      "snÃ©": 2430,
      "ĠvÃŃru": 2431,
      "Ġklad": 2432,
      "Äįkou": 2433,
      "Ġrodi": 2434,
      "ĠmÅ¾i": 2435,
      "bnÃŃ": 2436,
      "ĠvÅ¡ÃŃm": 2437,
      "Ġzmat": 2438,
      "brÃ¡": 2439,
      "nami": 2440,
      "ĠzÃ¡ko": 2441,
      "Ġmilen": 2442,
      "ĠchvÄĽje": 2443,
      "ĠdobÄĽ": 2444,
      "vÃŃrÃ¡": 2445,
      "Ġtouhou": 2446,
      "ĠbratÅĻÃŃ": 2447,
      "ĠzdÃ¡lo": 2448,
      "ĠvaÅ¡i": 2449,
      "ĠlistÃŃ": 2450,
      "ĠmajÃŃ": 2451,
      "ÄįÃ¡": 2452,
      "Ġjiz": 2453,
      "Ġrej": 2454,
      "Ġsbor": 2455,
      "dÃ¡m": 2456,
      "ĠnedÃ¡": 2457,
      "Ġmilosti": 2458,
      "Ġplach": 2459,
      "tnÄĽ": 2460,
      "ĠdruhÃ©": 2461,
      "ec": 2462,
      "Ġstal": 2463,
      "Ġcti": 2464,
      "Ġchvat": 2465,
      "lÃ©ho": 2466,
      "Ġsnem": 2467,
      "ĠdÄĽdi": 2468,
      "ĠslyÅ¡ÃŃm": 2469,
      "tÃ¡m": 2470,
      "ĠdlaÅĪ": 2471,
      "ÅĻila": 2472,
      "ĠABBACC": 2473,
      "rnÃŃ": 2474,
      "ĠÄįasu": 2475,
      "ĠmÄĽsto": 2476,
      "ĠÅ¡umÃŃ": 2477,
      "Ġhrudi": 2478,
      "zku": 2479,
      "ĠcÃŃtil": 2480,
      "Ġsme": 2481,
      "Ġzap": 2482,
      "Ġpov": 2483,
      "Ġtruch": 2484,
      "mat": 2485,
      "Ġsad": 2486,
      "Ġzrakem": 2487,
      "ĠnÃ¡ruÄį": 2488,
      "es": 2489,
      "Ġzni": 2490,
      "ĠsÃŃlu": 2491,
      "mys": 2492,
      "tnÃ½": 2493,
      "ĠdÃŃvka": 2494,
      "Ġhost": 2495,
      "Ġvzne": 2496,
      "Ġsest": 2497,
      "ÄįnÃ¡": 2498,
      "Ġleb": 2499,
      "ĠknÃŃÅ¾e": 2500,
      "Ġlesa": 2501,
      "Ġpln": 2502,
      "ĠvÄĽÄįnÃ½": 2503,
      "Ġset": 2504,
      "ĠkteÅĻÃŃ": 2505,
      "ĠnemÅ¯": 2506,
      "ÅĻek": 2507,
      "ĠÅĻil": 2508,
      "ĠlÃŃto": 2509,
      "ĠskrÃ¡ÅĪ": 2510,
      "bal": 2511,
      "Ġposud": 2512,
      "Ġzapla": 2513,
      "ĠsplÃ½": 2514,
      "Ġjestli": 2515,
      "Ġokna": 2516,
      "ĠtenkrÃ¡t": 2517,
      "bit": 2518,
      "ĠÄıÃ¡": 2519,
      "Ġnesly": 2520,
      "ĠblÃ½": 2521,
      "Ġsten": 2522,
      "kÅ¯m": 2523,
      "Ġstaro": 2524,
      "Ġdum": 2525,
      "ĠzapomnÄĽ": 2526,
      "ĠbÅĻehu": 2527,
      "Ġonen": 2528,
      "mÃ¡ch": 2529,
      "ĠÅĪa": 2530,
      "ĠvÅ¯le": 2531,
      "Ġdve": 2532,
      "ĠsvÄĽtu": 2533,
      "lku": 2534,
      "ĠcÃŃl": 2535,
      "ĠpÃ¡ni": 2536,
      "ĠrozkoÅ¡": 2537,
      "ĠrÃ¡zem": 2538,
      "ĠmalÃ©": 2539,
      "ĠzvlÃ¡": 2540,
      "stÃ¡vÃ¡": 2541,
      "ĠkrÃ¡se": 2542,
      "ĠplÃ¡Äįe": 2543,
      "ĠvzÃ¡c": 2544,
      "chal": 2545,
      "ĠÅĪader": 2546,
      "Ġmysl": 2547,
      "Ġvp": 2548,
      "Ġzoufal": 2549,
      "ĠznÄĽl": 2550,
      "chvÄĽ": 2551,
      "ĠvÄĽÅĻ": 2552,
      "Ġlidstva": 2553,
      "ĠAXAA": 2554,
      "Ġskvost": 2555,
      "Ġscho": 2556,
      "ĠrÅ¯Å¾o": 2557,
      "ĠXAABBX": 2558,
      "Ġpoe": 2559,
      "Ġztracen": 2560,
      "snÃ½": 2561,
      "Ġznamen": 2562,
      "ĠpÃ½ch": 2563,
      "Ġduchu": 2564,
      "Ġbudouc": 2565,
      "Ġpravdu": 2566,
      "her": 2567,
      "Ġnechce": 2568,
      "livÄĽ": 2569,
      "ĠoÄįÃŃch": 2570,
      "ĠvÅ¯kol": 2571,
      "ĠstrÃ¡Å¾": 2572,
      "ĠjmÃ©no": 2573,
      "ĠÅ¡a": 2574,
      "Ġviz": 2575,
      "man": 2576,
      "ĠvÅ¡emi": 2577,
      "ĠkrÅ¯": 2578,
      "ĠsvatÃ¡": 2579,
      "Ġnas": 2580,
      "Å¡lo": 2581,
      "Ġlese": 2582,
      "nala": 2583,
      "Ġlidem": 2584,
      "Ġvenku": 2585,
      "Ġmni": 2586,
      "Ġsva": 2587,
      "ĠkrÃ¡le": 2588,
      "Ġpodzim": 2589,
      "ck": 2590,
      "Ġkoste": 2591,
      "Ġsma": 2592,
      "ĠkonÄĽ": 2593,
      "ĠokamÅ¾i": 2594,
      "Å¾ky": 2595,
      "Ġchal": 2596,
      "ĠdÃŃm": 2597,
      "Ġrozm": 2598,
      "ĠjasnÃ©": 2599,
      "Ġpramen": 2600,
      "Ġnevin": 2601,
      "ĠklonÃŃ": 2602,
      "jÃŃt": 2603,
      "Ġzadu": 2604,
      "Ġzasta": 2605,
      "kajÃŃ": 2606,
      "ĠvalÃŃ": 2607,
      "Ġzvon": 2608,
      "Ġdala": 2609,
      "ĠvÃ½Å¡i": 2610,
      "ĠchtÃŃ": 2611,
      "ĠrÅ¯z": 2612,
      "penÃŃ": 2613,
      "Ġsladce": 2614,
      "ĠdÄĽtÃŃ": 2615,
      "ĠtÃ³": 2616,
      "ÅĻenÃ©": 2617,
      "zÃŃm": 2618,
      "ĠtÄĽÅ¾kÃ©": 2619,
      "Äįila": 2620,
      "rom": 2621,
      "jal": 2622,
      "klÃŃ": 2623,
      "bÃ½": 2624,
      "klad": 2625,
      "Ġnim": 2626,
      "vin": 2627,
      "ĠhrobÄĽ": 2628,
      "ĠpÅĻiÅ¡la": 2629,
      "Ġpokoj": 2630,
      "ĠrÃ©": 2631,
      "ĠdÅ¯vÄĽ": 2632,
      "Ġchyt": 2633,
      "Ġspra": 2634,
      "ĠrÃ¡da": 2635,
      "ĠmizÃŃ": 2636,
      "ĠzvonÃŃ": 2637,
      "ĠzÃ¡hy": 2638,
      "pÅ¯": 2639,
      "Ġfran": 2640,
      "ĠsmutnÄĽ": 2641,
      "ĠskÅĻi": 2642,
      "Ġhrou": 2643,
      "ĠvzplÃ¡": 2644,
      "ĠstÅ¯": 2645,
      "Ġodpu": 2646,
      "Äįnou": 2647,
      "Ġnout": 2648,
      "Ġzdi": 2649,
      "Ġchra": 2650,
      "Ġmohl": 2651,
      "ĠkrÃ¡sa": 2652,
      "Ġnohy": 2653,
      "nosÅ¥": 2654,
      "jÃŃch": 2655,
      "bito": 2656,
      "nd": 2657,
      "ĠmodrÃ©": 2658,
      "ĠovÅ¡em": 2659,
      "dÃ¡nÃŃ": 2660,
      "chÃ¡ze": 2661,
      "ju": 2662,
      "ĠAABCBC": 2663,
      "cet": 2664,
      "hli": 2665,
      "ĠsrdcÃŃ": 2666,
      "Ġur": 2667,
      "vet": 2668,
      "ĠmusÃŃm": 2669,
      "Äįem": 2670,
      "ĠdrahÃ½": 2671,
      "ĠsvÃ½mi": 2672,
      "ĠmoÅ¾no": 2673,
      "Ġzba": 2674,
      "ĠÄįeskÃ©": 2675,
      "ĠmÃ¡j": 2676,
      "ĠvÄĽz": 2677,
      "ĠnÄĽÅ¾": 2678,
      "ĠchtÄĽla": 2679,
      "ĠdÄĽla": 2680,
      "Ġtmou": 2681,
      "ĠstarÃ½ch": 2682,
      "dka": 2683,
      "ĠÃºtÄĽ": 2684,
      "ĠbÅĻÃŃ": 2685,
      "deme": 2686,
      "ĠjejÃŃm": 2687,
      "Ġboku": 2688,
      "rnou": 2689,
      "Ġpas": 2690,
      "rÃ¡m": 2691,
      "lÃŃÅ¾ÃŃ": 2692,
      "ĠzÃ¡m": 2693,
      "Ġsmutek": 2694,
      "kaz": 2695,
      "ĠdÅĻÃŃve": 2696,
      "ĠmladÃ¡": 2697,
      "Ġzhy": 2698,
      "Ġbojo": 2699,
      "stvo": 2700,
      "Ġkone": 2701,
      "vuje": 2702,
      "Ġdomu": 2703,
      "lnÄĽ": 2704,
      "Ġlek": 2705,
      "Ġhad": 2706,
      "Ġmdlo": 2707,
      "ĠbouÅĻi": 2708,
      "ĠÅ¾enu": 2709,
      "bnÃ©": 2710,
      "Ġprsa": 2711,
      "ĠodpovÄĽ": 2712,
      "ĠvÃ¡mi": 2713,
      "Å¡nÃ½": 2714,
      "Ġled": 2715,
      "ĠkrÅ¯pÄĽ": 2716,
      "ĠzlatÃ¡": 2717,
      "lenÃ©": 2718,
      "Ġpohle": 2719,
      "Ġrozho": 2720,
      "et": 2721,
      "vÃ¡t": 2722,
      "Ġzcela": 2723,
      "Ġlam": 2724,
      "Ġpravdy": 2725,
      "ĠzÃ¡zrak": 2726,
      "Ġhlaho": 2727,
      "Ġkruh": 2728,
      "ĠnepÅĻÃ¡": 2729,
      "Ġdlo": 2730,
      "ĠnepÅĻÃŃ": 2731,
      "ĠchvÄĽl": 2732,
      "ĠÅ¾Ã¡dnÃ½": 2733,
      "Ġbil": 2734,
      "Ġnec": 2735,
      "dl": 2736,
      "ĠjedinÃ½": 2737,
      "cnÄĽ": 2738,
      "Ġbije": 2739,
      "ĠvelkÃ¡": 2740,
      "Ġvrcho": 2741,
      "ĠmÄĽnÃŃ": 2742,
      "ĠstejnÄĽ": 2743,
      "ĠX": 2744,
      "Ġvlo": 2745,
      "ĠÅĻas": 2746,
      "ĠkaÅ¾dou": 2747,
      "ĠdennÄĽ": 2748,
      "vce": 2749,
      "ĠnepÅĻi": 2750,
      "ĠtouÅ¾ÃŃ": 2751,
      "go": 2752,
      "?!": 2753,
      "ĠslÃ¡vÄĽ": 2754,
      "ĠspÃŃÅ¡": 2755,
      "dek": 2756,
      "Ġlze": 2757,
      "vod": 2758,
      "zvu": 2759,
      "Ġjeze": 2760,
      "ĠslÃ¡vu": 2761,
      "Ġklu": 2762,
      "ĠtÃŃÅ¾": 2763,
      "ĠbÅĻeh": 2764,
      "Ġpaprsk": 2765,
      "Ġjednu": 2766,
      "Ġkali": 2767,
      "ĠjednÃ©": 2768,
      "Äįej": 2769,
      "nÃ¡Å¡e": 2770,
      "Ġteprv": 2771,
      "Ġplane": 2772,
      "ĠhÅĻbito": 2773,
      "ĠmraÄį": 2774,
      "stva": 2775,
      "Ġkrou": 2776,
      "Ġom": 2777,
      "Ġkdos": 2778,
      "ĠstÃ¡la": 2779,
      "Ġhan": 2780,
      "Ġjo": 2781,
      "ĠpevnÄĽ": 2782,
      "jÃ¡": 2783,
      "Ġprost": 2784,
      "Ġbro": 2785,
      "ĠpÅĻÃ¡tel": 2786,
      "ĠskÃ½": 2787,
      "ĠpÃ½": 2788,
      "Ġrozk": 2789,
      "hÃ¡m": 2790,
      "Ġjino": 2791,
      "kot": 2792,
      "Ġzapad": 2793,
      "ĠÅ¾ÃŃti": 2794,
      "boj": 2795,
      "pÄĽl": 2796,
      "hÃ½m": 2797,
      "Ġmlado": 2798,
      "Ġstk": 2799,
      "Ġvle": 2800,
      "Ġhez": 2801,
      "Ġtemno": 2802,
      "ja": 2803,
      "ĠtÅĻetÃŃ": 2804,
      "ĠkvÄĽti": 2805,
      "Ġzbu": 2806,
      "Ġkus": 2807,
      "Ġjsa": 2808,
      "ĠÃºdo": 2809,
      "ĠzÅĻe": 2810,
      "ĠbÄĽÅ¾ÃŃ": 2811,
      "Ġpsa": 2812,
      "ĠÄįerven": 2813,
      "ĠvÃ½cho": 2814,
      "ĠmÃŃti": 2815,
      "mem": 2816,
      "kra": 2817,
      "ĠptÃ¡ci": 2818,
      "Å¡le": 2819,
      "ĠdÃ©m": 2820,
      "Ġpoho": 2821,
      "ĠzemÃŃ": 2822,
      "ĠmlÄįÃŃ": 2823,
      "ĠnÃŃz": 2824,
      "ĠvracÃŃ": 2825,
      "Ġsami": 2826,
      "ĠÅĻeÄįÃŃ": 2827,
      "Ġjdi": 2828,
      "Ġpotu": 2829,
      "ĠbudÃŃ": 2830,
      "ĠdlouhÃ½": 2831,
      "dlÃŃ": 2832,
      "Ġpol": 2833,
      "Ġhvo": 2834,
      "Ġspad": 2835,
      "Ġin": 2836,
      "Ã¡tky": 2837,
      "las": 2838,
      "Ġsluch": 2839,
      "snÃŃ": 2840,
      "Ġporo": 2841,
      "ĠÄįlovÄĽka": 2842,
      "rce": 2843,
      "Ġstran": 2844,
      "ĠnoÄįnÃŃ": 2845,
      "vÅ¡": 2846,
      "Ġmraky": 2847,
      "nak": 2848,
      "Ġtrou": 2849,
      "ĠrudÃ©": 2850,
      "rku": 2851,
      "ĠÅĻÃŃÅ¡": 2852,
      "Ġnebylo": 2853,
      "Ġsilou": 2854,
      "ĠnenÃ¡": 2855,
      "ĠtÄĽle": 2856,
      "stÃŃm": 2857,
      "Ġpodle": 2858,
      "ĠzÃ¡vi": 2859,
      "ĠneboÅ¥": 2860,
      "Ġnechci": 2861,
      "Ġvzpo": 2862,
      "ĠvzneÅ¡en": 2863,
      "ĠlÃŃbÃ¡": 2864,
      "Å¾em": 2865,
      "bnÄĽ": 2866,
      "Ġzlata": 2867,
      "ĠrtÅ¯": 2868,
      "Ġzrc": 2869,
      "Ġjimi": 2870,
      "stvÃŃm": 2871,
      "ĠzÃ¡pa": 2872,
      "ĠkvÄĽtu": 2873,
      "Ġholu": 2874,
      "vÃ½mi": 2875,
      "Å¾ila": 2876,
      "ĠsklÃ¡nÃŃ": 2877,
      "Ġvlh": 2878,
      "ĠmalÃ¡": 2879,
      "ĠbÃŃlÃ½ch": 2880,
      "Ġpodiv": 2881,
      "Ġmoci": 2882,
      "ĠAABBXX": 2883,
      "jÅ¡ÃŃm": 2884,
      "ĠstavÃŃ": 2885,
      "Ġhudba": 2886,
      "nÃ©mu": 2887,
      "jas": 2888,
      "Ġhnu": 2889,
      "Ġtva": 2890,
      "Ġkost": 2891,
      "ĠvÅ¯li": 2892,
      "Ġvesele": 2893,
      "bli": 2894,
      "ĠpÅ¯lno": 2895,
      "ĠvÄįera": 2896,
      "cÅ¯m": 2897,
      "kne": 2898,
      "Ġnepro": 2899,
      "ĠdÅĻe": 2900,
      "Ġdvou": 2901,
      "chou": 2902,
      "ĠÃºzko": 2903,
      "Ġspole": 2904,
      "Ġhod": 2905,
      "nÄĽl": 2906,
      "Ġoch": 2907,
      "kovÃ©": 2908,
      "Ġvzdor": 2909,
      "Ġpes": 2910,
      "tev": 2911,
      "Ġau": 2912,
      "ĠtÃ¡hne": 2913,
      "lav": 2914,
      "dÃ¡ch": 2915,
      "ĠrÃ¡je": 2916,
      "ĠÅĻeky": 2917,
      "Ġprud": 2918,
      "teÄį": 2919,
      "ĠvÃŃr": 2920,
      "Ġmati": 2921,
      "tno": 2922,
      "rky": 2923,
      "Ġrtech": 2924,
      "ĠkÅĻÃŃd": 2925,
      "eni": 2926,
      "Ġvstal": 2927,
      "ĠblÃŃz": 2928,
      "ĠÅĪadra": 2929,
      "liÄį": 2930,
      "ĠhÃ¡j": 2931,
      "Ġskon": 2932,
      "ĠknÄĽz": 2933,
      "ĠÄįty": 2934,
      "ÅĻÅ¯": 2935,
      "ĠlkÃ¡": 2936,
      "tor": 2937,
      "ĠÄįist": 2938,
      "Ġvstou": 2939,
      "Ġlili": 2940,
      "dÄĽnÃŃ": 2941,
      "Ġvoda": 2942,
      "Ġvar": 2943,
      "ĠbÃ½vÃ¡": 2944,
      "ĠÅ¡edi": 2945,
      "Ġide": 2946,
      "Ġsoum": 2947,
      "Ġkrokem": 2948,
      "ĠÄįÃŃÅ¡": 2949,
      "ĠkrÃ¡su": 2950,
      "ĠABBAXX": 2951,
      "vili": 2952,
      "slo": 2953,
      "liv": 2954,
      "pit": 2955,
      "Ġnejs": 2956,
      "rÃ¡tÃŃ": 2957,
      "ĠnadÅ¡en": 2958,
      "Ġhochu": 2959,
      "Ġzrcad": 2960,
      "Ġnesou": 2961,
      "Ġzab": 2962,
      "ĠbledÃ¡": 2963,
      "ĠbohatÃ½": 2964,
      "Ġjal": 2965,
      "ĠskÃ©": 2966,
      "ĠnÄĽjak": 2967,
      "Ġnovou": 2968,
      "ĠsmutnÃ©": 2969,
      "Å¾Å¡ÃŃ": 2970,
      "us": 2971,
      "Ġkyne": 2972,
      "hÃ¡nÃŃ": 2973,
      "ĠvÅ¯nÃŃ": 2974,
      "ĠnÄĽkdo": 2975,
      "ĠzvedÃ¡": 2976,
      "Ġzku": 2977,
      "ĠÅ¡le": 2978,
      "Ġvznes": 2979,
      "dÃŃÅ¡": 2980,
      "Ġteh": 2981,
      "Ġblaha": 2982,
      "Ġtal": 2983,
      "Ġnebude": 2984,
      "Ġdni": 2985,
      "Ġuna": 2986,
      "ĠmÄĽst": 2987,
      "Ġklidu": 2988,
      "Ġbit": 2989,
      "zil": 2990,
      "jeÅ¡": 2991,
      "ĠchrÃ¡mu": 2992,
      "ĠÅ¡tÃŃt": 2993,
      "Ġdnem": 2994,
      "Ġmrtvo": 2995,
      "Ġnaslou": 2996,
      "Ġsyna": 2997,
      "ĠÄįeskÃ½": 2998,
      "Ġsic": 2999,
      "Ġzlatem": 3000,
      "Ġslovem": 3001,
      "dnÃ½ch": 3002,
      "ĠprostÅĻe": 3003,
      "ĠvonÃŃ": 3004,
      "lÃ©z": 3005,
      "ĠzlatÃ½ch": 3006,
      "Ġtvr": 3007,
      "Ġzle": 3008,
      "jednou": 3009,
      "Ġkomu": 3010,
      "ÅĻÃŃk": 3011,
      "ĠÅĻÃŃÅ¡e": 3012,
      "ĠdÃ¡lku": 3013,
      "dili": 3014,
      "ĠzdÄĽ": 3015,
      "ĠÅ¡Ã¡": 3016,
      "bÃ©": 3017,
      "Ġpope": 3018,
      "ĠmrtvÃ©": 3019,
      "Ġblesky": 3020,
      "ĠzÅĻÃŃt": 3021,
      "vice": 3022,
      "sit": 3023,
      "Ġhlasy": 3024,
      "Ġpolib": 3025,
      "Ġmech": 3026,
      "Ġabych": 3027,
      "ĠAAXA": 3028,
      "ĠsluÅ¾": 3029,
      "ĠÄįaro": 3030,
      "Ġstrany": 3031,
      "Ġzmo": 3032,
      "ĠvÃ¡c": 3033,
      "ĠbÃŃlou": 3034,
      "Ġmlha": 3035,
      "ĠÃºsmÄĽvem": 3036,
      "ĠtÅĻÃ¡s": 3037,
      "Å¡nÃŃ": 3038,
      "ĠblÃŃÅ¾ÃŃ": 3039,
      "ĠzÃ¡stup": 3040,
      "ĠsrÃ¡": 3041,
      "ĠvyÅ¡el": 3042,
      "ĠpÃ¡nÄĽ": 3043,
      "ĠnÃ¡ch": 3044,
      "Ġjab": 3045,
      "hlÃ¡": 3046,
      "tÃ½ch": 3047,
      "Ġvin": 3048,
      "Ġposlou": 3049,
      "slu": 3050,
      "Å¡Å¥ast": 3051,
      "Ġhosti": 3052,
      "dali": 3053,
      "ĠsÃ½": 3054,
      "ĠpodÃ¡": 3055,
      "ĠpÅĻÃŃÅ¡e": 3056,
      "ĠpamÄĽ": 3057,
      "ĠtvojÃŃ": 3058,
      "ĠhÅĻmÃŃ": 3059,
      "ABBA": 3060,
      "ĠobjetÃŃ": 3061,
      "hly": 3062,
      "pem": 3063,
      "ĠvroucÃŃ": 3064,
      "bÅ¯": 3065,
      "Å¾enÃ©": 3066,
      "dku": 3067,
      "Ġchod": 3068,
      "Ġkroky": 3069,
      "ĠvÄĽn": 3070,
      "domÃŃ": 3071,
      "ĠotÄįe": 3072,
      "tala": 3073,
      "ĠpotÄĽ": 3074,
      "ĠABABAB": 3075,
      "ĠmÄĽli": 3076,
      "ĠsmÃŃchu": 3077,
      "ĠmyslÃŃm": 3078,
      "bnÃ½": 3079,
      "Ġuvi": 3080,
      "Ġnoha": 3081,
      "Ġhradu": 3082,
      "lka": 3083,
      "ĠpsÃ¡": 3084,
      "Äįo": 3085,
      "Ġtato": 3086,
      "Ġprobu": 3087,
      "Ġdali": 3088,
      "ĠdÃ¡lce": 3089,
      "rej": 3090,
      "ĠÄįasy": 3091,
      "ĠopuÅ¡tÄĽ": 3092,
      "kÃ©ho": 3093,
      "Ġjit": 3094,
      "tvo": 3095,
      "Ġpoc": 3096,
      "ten": 3097,
      "Ġseve": 3098,
      "jÃŃce": 3099,
      "Ġtvor": 3100,
      "ĠslyÅ¡et": 3101,
      "ĠcestÄĽ": 3102,
      "ĠsladkÃ¡": 3103,
      "ĠmÄĽj": 3104,
      "hnou": 3105,
      "ĠkÅĻik": 3106,
      "Ġvze": 3107,
      "ĠzvÄĽst": 3108,
      "zna": 3109,
      "ĠklesÃ¡": 3110,
      "Ġbolesti": 3111,
      "Ġvola": 3112,
      "ĠandÄĽ": 3113,
      "Ġkmet": 3114,
      "Ġobli": 3115,
      "Ġvytr": 3116,
      "fi": 3117,
      "Ġplno": 3118,
      "Ġmilu": 3119,
      "Ġvypra": 3120,
      "ĠnenÃ¡vi": 3121,
      "lky": 3122,
      "vÄĽd": 3123,
      "Å¡it": 3124,
      "ĠvÃŃry": 3125,
      "ĠotÃ¡": 3126,
      "ĠtoÄįÃŃ": 3127,
      "ĠzprÃ¡": 3128,
      "ĠzpÃ¡tky": 3129,
      "ĠmÃŃsta": 3130,
      "ĠvÃ¡Å¡nÃŃ": 3131,
      "ĠlepÅ¡ÃŃ": 3132,
      "Ġpen": 3133,
      "ĠskÅĻÃŃ": 3134,
      "Ġtuto": 3135,
      "Ġbyst": 3136,
      "tÃ¡n": 3137,
      "ĠnavÅ¾dy": 3138,
      "ĠvidÄĽt": 3139,
      "lenÃ½": 3140,
      "ĠvdÄĽk": 3141,
      "diÅ¾": 3142,
      "nÄĽn": 3143,
      "ĠvisÃŃ": 3144,
      "ĠnovÃ¡": 3145,
      "Ġskr": 3146,
      "ĠblÃŃÅ¾e": 3147,
      "Ġsynu": 3148,
      "Ġkonce": 3149,
      "ĠtÄĽÅ¾kÃ½": 3150,
      "Ġmlhy": 3151,
      "ctvÃŃ": 3152,
      "ĠjinÃ½ch": 3153,
      "Ġrozu": 3154,
      "ĠkolÃ©b": 3155,
      "Ġcizi": 3156,
      "ĠcÃŃsaÅĻ": 3157,
      "ĠvÅ¡emu": 3158,
      "Ġutr": 3159,
      "Ġslz": 3160,
      "Ġpode": 3161,
      "ĠdÃŃk": 3162,
      "Ġtichou": 3163,
      "Ġsnes": 3164,
      "Ġjat": 3165,
      "Ġbyto": 3166,
      "ĠstÃ½": 3167,
      "Ġzat": 3168,
      "Ġluz": 3169,
      "zky": 3170,
      "ĠzlÃŃ": 3171,
      "ĠvÅ¡a": 3172,
      "Ġznal": 3173,
      "ĠchlÃ©b": 3174,
      "Ġsoumrak": 3175,
      "Ġchlu": 3176,
      "ĠohnÄĽm": 3177,
      "ĠjasnÃ½": 3178,
      "ĠvÅĻa": 3179,
      "vanÃ©": 3180,
      "Ġtk": 3181,
      "ĠpÃ¡na": 3182,
      "ĠnejvÃŃ": 3183,
      "ĠÄįernÃ½ch": 3184,
      "hÃ©m": 3185,
      "Ġkolo": 3186,
      "Ġvelkou": 3187,
      "Ġmatko": 3188,
      "ĠkÅĻesÅ¥": 3189,
      "Ġchcem": 3190,
      "Ġvad": 3191,
      "ĠÄįernÃ¡": 3192,
      "Ġdokud": 3193,
      "ĠlÃŃci": 3194,
      "Ġlehce": 3195,
      "Ġjakoby": 3196,
      "ĠÅ¾ene": 3197,
      "ĠvÃŃte": 3198,
      "pro": 3199,
      "ĠnadÅ¡enÃŃ": 3200,
      "ĠÅ¡lech": 3201,
      "ĠkoÅĻi": 3202,
      "ĠbledÃ©": 3203,
      "Ġluh": 3204,
      "ĠkoÅĻen": 3205,
      "Ġvrah": 3206,
      "ĠXXA": 3207,
      "ĠrÅ¯Å¾i": 3208,
      "livÃ½": 3209,
      "Ġbohy": 3210,
      "Ġroj": 3211,
      "nitÅĻ": 3212,
      "ĠvraÅ¾": 3213,
      "Ġpoch": 3214,
      "Ġdoba": 3215,
      "Äįer": 3216,
      "hlu": 3217,
      "Ġztich": 3218,
      "Ġvsi": 3219,
      "ĠcÃŃrk": 3220,
      "Ġstav": 3221,
      "ĠtichÃ¡": 3222,
      "ĠvrÃ¡tÃŃ": 3223,
      "nÄĽnÃŃ": 3224,
      "ĠjevÃŃ": 3225,
      "ĠhuÄįÃŃ": 3226,
      "Ġproro": 3227,
      "Ġkl": 3228,
      "ĠmnohÃ©": 3229,
      "ĠdÄĽvÄįe": 3230,
      "Ġsvato": 3231,
      "Ġdouf": 3232,
      "Ġkmit": 3233,
      "ĠmrtvÃ½ch": 3234,
      "Ġdaleko": 3235,
      "enÃ¡": 3236,
      "ĠotcÅ¯": 3237,
      "Ġvzduchu": 3238,
      "Ġhora": 3239,
      "ĠzlÃ½": 3240,
      "Ġzlatou": 3241,
      "kojen": 3242,
      "ĠvÃŃno": 3243,
      "ĠlÃŃp": 3244,
      "Ġpoled": 3245,
      "Ġneroz": 3246,
      "Ġstalo": 3247,
      "ĠzdravÃŃ": 3248,
      "Ġsnil": 3249,
      "Ġtel": 3250,
      "ĠhrÅ¯zou": 3251,
      "rka": 3252,
      "cenÃŃ": 3253,
      "ĠkvÄĽtem": 3254,
      "tvÃ¡": 3255,
      "ĠdobrÃ¡": 3256,
      "Ġzpu": 3257,
      "ĠloÅ¾e": 3258,
      "ĠsmÄĽle": 3259,
      "ĠÄįistÃ©": 3260,
      "Å¾ÃŃÅ¡": 3261,
      "bem": 3262,
      "Ġkdesi": 3263,
      "Ġsmutku": 3264,
      "ĠdruÅ¾": 3265,
      "ĠknÄĽÅ¾": 3266,
      "ĠzlÃ©": 3267,
      "ĠjasnÄĽ": 3268,
      "ĠzÃŃrÃ¡": 3269,
      "Ġtichu": 3270,
      "ĠsmÃ¡l": 3271,
      "ĠpoÄįÃŃ": 3272,
      "ĠrannÃŃ": 3273,
      "hnÄĽ": 3274,
      "ĠpÅĻÃŃtel": 3275,
      "Ġej": 3276,
      "Ġosla": 3277,
      "Ġctnost": 3278,
      "jÃŃmÃ¡": 3279,
      "ĠvÄĽci": 3280,
      "Ġbleskem": 3281,
      "padÃ¡": 3282,
      "ĠsmutnÃ½": 3283,
      "ĠbÃ¡snÃŃk": 3284,
      "ĠpÅĻedu": 3285,
      "Ġtlo": 3286,
      "ĠrÃ¡nu": 3287,
      "Ġraj": 3288,
      "ĠtemnÃ©": 3289,
      "zra": 3290,
      "ÅĪte": 3291,
      "nikÃ¡": 3292,
      "Ġlidstvo": 3293,
      "Ġpomoc": 3294,
      "ĠpromÄĽ": 3295,
      "Ġbolu": 3296,
      "Ġsluncem": 3297,
      "han": 3298,
      "Ġdechem": 3299,
      "bÃ¡ch": 3300,
      "ĠvolnÄĽ": 3301,
      "Ġslune": 3302,
      "rat": 3303,
      "ĠzÃ¡pad": 3304,
      "chÅ¯": 3305,
      "Ġletu": 3306,
      "ĠÅĻÃ¡d": 3307,
      "Ġvs": 3308,
      "ĠveÅ¡": 3309,
      "Ġcosi": 3310,
      "ĠbÃ¡j": 3311,
      "ĠpatÅĻÃŃ": 3312,
      "Ġnaposled": 3313,
      "Ġrad": 3314,
      "ĠvÅ¡ecka": 3315,
      "BB": 3316,
      "Ġnevz": 3317,
      "Ġvzde": 3318,
      "Ġosa": 3319,
      "ĠstaÅĻe": 3320,
      "Ġmed": 3321,
      "ĠtÄĽÅ¾ce": 3322,
      "Ġnikde": 3323,
      "ĠohnÄĽ": 3324,
      "ĠÅĻekla": 3325,
      "Ġoblak": 3326,
      "ĠprosÃŃm": 3327,
      "ĠtÃ¡bo": 3328,
      "stat": 3329,
      "ĠdÄĽje": 3330,
      "bel": 3331,
      "Ġlev": 3332,
      "Ġhrdi": 3333,
      "krÃ¡s": 3334,
      "Ġjel": 3335,
      "Ġzdali": 3336,
      "Ġzim": 3337,
      "ĠplÃ©": 3338,
      "Ġvnu": 3339,
      "ĠbÄĽd": 3340,
      "Å¡to": 3341,
      "ĠmÃ¡te": 3342,
      "lovÃ©": 3343,
      "Ġsvad": 3344,
      "ĠtÅĻese": 3345,
      "Å¾enÃ½": 3346,
      "lk": 3347,
      "Ġpochy": 3348,
      "ĠumÃŃrÃ¡": 3349,
      "ĠvÅ¯ni": 3350,
      "tkem": 3351,
      "hajÃŃ": 3352,
      "ĠdÃŃlo": 3353,
      "Ġvzpla": 3354,
      "ĠneznÃ¡": 3355,
      "ĠÃºÅ¾": 3356,
      "ĠjimÅ¾": 3357,
      "ĠvÅ¡ÃŃ": 3358,
      "ĠÅ¾ebrÃ¡": 3359,
      "Äįiny": 3360,
      "rnÃ½ch": 3361,
      "Ġprahu": 3362,
      "ĠbratÅĻi": 3363,
      "Ġkvetou": 3364,
      "ĠvÃ¡Å¾": 3365,
      "stupu": 3366,
      "cenÃ©": 3367,
      "ĠpÅ¯va": 3368,
      "ĠpamÃ¡": 3369,
      "Ġpanen": 3370,
      "ga": 3371,
      "tÃ¡nÃŃ": 3372,
      "Ġjeli": 3373,
      "ĠÅ¡iro": 3374,
      "ĠdÅĻÃŃmÃ¡": 3375,
      "chÃ©": 3376,
      "Ġkom": 3377,
      "ĠvÄĽÅĻÃŃ": 3378,
      "ĠbloudÃŃ": 3379,
      "Ġvlna": 3380,
      "Äįa": 3381,
      "ĠÅ¡ÃŃm": 3382,
      "ĠnÃŃk": 3383,
      "Ġmluvil": 3384,
      "ĠlidskÃ½": 3385,
      "ĠnemÅ¯Å¾e": 3386,
      "Ġunaven": 3387,
      "ĠcÃ½": 3388,
      "ĠhÃ©": 3389,
      "ĠvyprÃ¡": 3390,
      "ĠmlÃ½": 3391,
      "alu": 3392,
      "nt": 3393,
      "ĠdÃŃvky": 3394,
      "nali": 3395,
      "pÄĽt": 3396,
      "nÃŃkÅ¯": 3397,
      "Ġznak": 3398,
      "ĠleÅ¾": 3399,
      "nÅ¯m": 3400,
      "Ġsvatou": 3401,
      "udu": 3402,
      "Ġjakou": 3403,
      "ĠmÅĻÃŃ": 3404,
      "ĠumÄĽnÃŃ": 3405,
      "Ġstane": 3406,
      "ĠbÃ½val": 3407,
      "Å¡ko": 3408,
      "ĠprovÃ¡": 3409,
      "Ġnajde": 3410,
      "ĠhalÃŃ": 3411,
      "Ġono": 3412,
      "Ġzraku": 3413,
      "ĠzbraÅĪ": 3414,
      "nkou": 3415,
      "ĠÅ¾as": 3416,
      "ĠÅĪadrech": 3417,
      "vÃ¡Å¡": 3418,
      "Ġmatce": 3419,
      "Ġnitru": 3420,
      "ĠnepÅĻe": 3421,
      "Ġkouzel": 3422,
      "ĠzboÅ¾": 3423,
      "tat": 3424,
      "Ġjitra": 3425,
      "ĠvÃŃra": 3426,
      "dli": 3427,
      "ĠrytÃŃÅĻ": 3428,
      "ĠobrÃ¡": 3429,
      "ĠhrdÄĽ": 3430,
      "Ġoce": 3431,
      "ĠtÄĽl": 3432,
      "ĠdÄĽcko": 3433,
      "ĠnemÄĽl": 3434,
      "Ġostat": 3435,
      "Ġca": 3436,
      "Ġane": 3437,
      "Äįkem": 3438,
      "Ġnal": 3439,
      "ĠplÃ¡po": 3440,
      "Ġnero": 3441,
      "Ġstez": 3442,
      "XXA": 3443,
      "Ġkoho": 3444,
      "ĠpÅĻÃŃsa": 3445,
      "Ġplna": 3446,
      "ĠnÃ¡dher": 3447,
      "Ġvet": 3448,
      "Ġmodra": 3449,
      "ĠtÄĽÅ¾ko": 3450,
      "ĠdÃ½Å¡e": 3451,
      "ĠradostÃŃ": 3452,
      "rek": 3453,
      "Ġzhou": 3454,
      "ĠhrÃ¡l": 3455,
      "ĠseÅĪ": 3456,
      "Ġneod": 3457,
      "tnÃ¡": 3458,
      "Ġhlav": 3459,
      "ĠcÃŃm": 3460,
      "Ġvzduchem": 3461,
      "ĠvaÅ¡ÃŃ": 3462,
      "ĠbledÃ½": 3463,
      "ĠhledÄĽl": 3464,
      "ĠÅ¾enou": 3465,
      "ĠzachvÄĽ": 3466,
      "Ġrci": 3467,
      "zuje": 3468,
      "ĠztrÃ¡cÃŃ": 3469,
      "ĠpoznÃ¡": 3470,
      "vÃ¡ch": 3471,
      "ĠsvÄĽty": 3472,
      "Ġpouta": 3473,
      "ĠrokÅ¯": 3474,
      "skem": 3475,
      "ĠÅ¾Ã¡dnÃ©": 3476,
      "ĠmlÄįky": 3477,
      "Ġsladkou": 3478,
      "ĠmocnÄĽ": 3479,
      "Ġvelko": 3480,
      "ĠbudiÅ¾": 3481,
      "ĠvÄĽÄįnosti": 3482,
      "ĠsmÄĽje": 3483,
      "nuly": 3484,
      "Ġluny": 3485,
      "ĠkaÅ¾dÃ©m": 3486,
      "tili": 3487,
      "Ġmimo": 3488,
      "ĠpÄĽl": 3489,
      "Ġsnech": 3490,
      "Äıte": 3491,
      "ĠupomÃŃ": 3492,
      "Ġvzp": 3493,
      "Ġmaje": 3494,
      "ĠpozdÄĽ": 3495,
      "Ġklas": 3496,
      "Ġpoesi": 3497,
      "Ġber": 3498,
      "Ġzor": 3499,
      "Ġzdvih": 3500,
      "Ġvej": 3501,
      "Ġdlu": 3502,
      "Ġzvuky": 3503,
      "Ġnebem": 3504,
      "Ġdraho": 3505,
      "Ġchleba": 3506,
      "chom": 3507,
      "Ġstarou": 3508,
      "Ġhluk": 3509,
      "Ġdl": 3510,
      "Ġbod": 3511,
      "sÃŃch": 3512,
      "ĠstÄĽny": 3513,
      "Ġprst": 3514,
      "Ġvyvo": 3515,
      "ĠÅĻem": 3516,
      "Ġplod": 3517,
      "Ġnach": 3518,
      "stro": 3519,
      "ĠnovÃ½ch": 3520,
      "ĠpohÅĻ": 3521,
      "ÅĪat": 3522,
      "Ġbudem": 3523,
      "Ġmari": 3524,
      "Ġnesmr": 3525,
      "ĠptÃ¡Äįe": 3526,
      "ĠvÃ¡Å¡nÄĽ": 3527,
      "ĠnaÅ¡el": 3528,
      "Ġodkud": 3529,
      "ĠpÄĽknÄĽ": 3530,
      "ĠklÃ¡Å¡te": 3531,
      "Ġprob": 3532,
      "ĠdnÃŃ": 3533,
      "ĠÅ¾a": 3534,
      "Ġhraje": 3535,
      "BX": 3536,
      "Ġslovy": 3537,
      "ĠtemnÄĽ": 3538,
      "Ġzvony": 3539,
      "ĠsnÄĽhu": 3540,
      "ĠĠĠ": 3541,
      "Ġjindy": 3542,
      "cÃ½": 3543,
      "ovÃ©": 3544,
      "nese": 3545,
      "ĠÅ¾ivotem": 3546,
      "ÃŃme": 3547,
      "ĠdÃŃvÄįÃŃ": 3548,
      "ĠsbÃŃ": 3549,
      "ÄįnÃ½ch": 3550,
      "Ġlidi": 3551,
      "ĠpoÅ¾Ã¡": 3552,
      "voucÃŃ": 3553,
      "bec": 3554,
      "ĠtmavÃ©": 3555,
      "jme": 3556,
      "ĠjÃŃti": 3557,
      "ĠplÃ¡Äįi": 3558,
      "Ġhorou": 3559,
      "Ġhroby": 3560,
      "Ġpozdrav": 3561,
      "XABB": 3562,
      "ĠbohÅ¯": 3563,
      "Ġral": 3564,
      "bila": 3565,
      "ĠzlÃ¡": 3566,
      "ĠdÃ¡ti": 3567,
      "ĠbolÃŃ": 3568,
      "ĠvÃŃna": 3569,
      "vyÅ¡": 3570,
      "Ġbral": 3571,
      "Ġopat": 3572,
      "ĠmocÃŃ": 3573,
      "tnou": 3574,
      "ĠhnÃ¡": 3575,
      "ĠjinÃŃ": 3576,
      "?...": 3577,
      "ĠzÃ¡vra": 3578,
      "Ġlodi": 3579,
      "ĠcitÅ¯": 3580,
      "vci": 3581,
      "ĠneÅ¡Å¥ast": 3582,
      "ĠpoÅĻÃ¡": 3583,
      "Ġjazyk": 3584,
      "Ġkos": 3585,
      "ĠpÃŃt": 3586,
      "ĠjÃŃc": 3587,
      "ĠposmÄĽ": 3588,
      "udil": 3589,
      "Ġhym": 3590,
      "Ġspanil": 3591,
      "Ġneho": 3592,
      "ĠspÃ¡t": 3593,
      "ĠvzÃŃ": 3594,
      "Ã¡l": 3595,
      "ĠnemÃ¡m": 3596,
      "Ġmatku": 3597,
      "ĠprÃ¡vo": 3598,
      "Ġpoznal": 3599,
      "Ġspraved": 3600,
      "Ġpromlu": 3601,
      "ĠuÅ¡": 3602,
      "Ġstuden": 3603,
      "ĠkoneÄįnÄĽ": 3604,
      "ĠveÄįera": 3605,
      "ĠnÄĽkde": 3606,
      "ĠchÃ½lÃŃ": 3607,
      "ĠsmrtÃŃ": 3608,
      "bek": 3609,
      "ĠtajemstvÃŃ": 3610,
      "vel": 3611,
      "livÃ©": 3612,
      "ĠzpÃŃval": 3613,
      "ĠvelikÃ½": 3614,
      "Ġkade": 3615,
      "Ġbarev": 3616,
      "ĠÄįel": 3617,
      "kÃ¡n": 3618,
      "ĠdÄĽji": 3619,
      "ĠsvÄĽtÅ¯": 3620,
      "slav": 3621,
      "Ġklen": 3622,
      "kry": 3623,
      "Ġholubi": 3624,
      "Ġvelmi": 3625,
      "benÃŃ": 3626,
      "ckÃ½ch": 3627,
      "ĠpravÃ½": 3628,
      "Ġpust": 3629,
      "ĠkÅĻÃŃÅ¾e": 3630,
      "ĠtmÃ¡ch": 3631,
      "zek": 3632,
      "Ġoken": 3633,
      "ĠpÅĻÃ¡nÃŃ": 3634,
      "Ġcem": 3635,
      "ĠvÄĽtru": 3636,
      "ĠÄįnÃŃ": 3637,
      "Ġskoro": 3638,
      "Ġkristu": 3639,
      "Ġchas": 3640,
      "ĠhorÃ¡ch": 3641,
      "ĠplÃ¡l": 3642,
      "Ġdro": 3643,
      "Ġjan": 3644,
      "Ġnemoc": 3645,
      "Ġmrou": 3646,
      "ĠlesnÃŃ": 3647,
      "hlÃ½": 3648,
      "Ġbrou": 3649,
      "ĠplÃ¡Å¡Å¥": 3650,
      "kej": 3651,
      "ĠnechÃ¡": 3652,
      "ĠtvÅ¯": 3653,
      "ĠpÅĻipra": 3654,
      "ĠsplÃ½vÃ¡": 3655,
      "stej": 3656,
      "ÅĻenÃ½": 3657,
      "ĠhrÃ¡t": 3658,
      "nilo": 3659,
      "Ġvichr": 3660,
      "blÃŃ": 3661,
      "Ġdok": 3662,
      "Ġzapomen": 3663,
      "ĠsÃŃm": 3664,
      "ĠvÃ©m": 3665,
      "ĠmeÄįem": 3666,
      "ĠdivÃ½": 3667,
      "ĠdÄĽj": 3668,
      "Ġozdo": 3669,
      "ĠnnÃ©": 3670,
      "ĠvrÃ¡til": 3671,
      "Ġvzru": 3672,
      "pila": 3673,
      "ĠÅ¡pat": 3674,
      "Ġmate": 3675,
      "ĠvÄĽÅ¾e": 3676,
      "kovi": 3677,
      "Ġstem": 3678,
      "Ġpape": 3679,
      "hnul": 3680,
      "ĠdivnÃ©": 3681,
      "ĠmÃ©mu": 3682,
      "ĠrudÃ½": 3683,
      "Ġzima": 3684,
      "Ġvzk": 3685,
      "ĠslavnÃ½": 3686,
      "tÅĻÃŃ": 3687,
      "ĠkaÅ¾dÃ½m": 3688,
      "ĠsmÄĽs": 3689,
      "ĠnÃ¡ruÄįÃŃ": 3690,
      "ckni": 3691,
      "ĠstaÄįÃŃ": 3692,
      "ĠhrÅ¯zy": 3693,
      "Ġobzor": 3694,
      "ĠcÅ¯": 3695,
      "viti": 3696,
      "ĠvÅ¡ickni": 3697,
      "Ġdobu": 3698,
      "Ġkdybych": 3699,
      "has": 3700,
      "Ġukry": 3701,
      "ĠvÅ¡ady": 3702,
      "gu": 3703,
      "Ġvykou": 3704,
      "Ġmili": 3705,
      "Ġpano": 3706,
      "Ġplnou": 3707,
      "ĠvidÃŃÅ¡": 3708,
      "Ġnesmrtel": 3709,
      "sle": 3710,
      "ĠÅĪÃ¡": 3711,
      "Ġhon": 3712,
      "ĠpÃ¡lÃŃ": 3713,
      "ĠstÃŃnÅ¯": 3714,
      "ĠsÃŃÅĪ": 3715,
      "cenÃ½": 3716,
      "Ġzkou": 3717,
      "Ġpadne": 3718,
      "ĠÃºÅ¾as": 3719,
      "ĠvojÃ¡": 3720,
      "lej": 3721,
      "Ġprv": 3722,
      "ĠmeÄįe": 3723,
      "Ġlesem": 3724,
      "hlo": 3725,
      "Ġstranou": 3726,
      "ĠvÄĽtvÃŃ": 3727,
      "Ġfan": 3728,
      "Ġdavy": 3729,
      "ĠschvÃ¡": 3730,
      "ĠtÃŃÅ¾ÃŃ": 3731,
      "ĠnÄĽmÃ½": 3732,
      "ĠsnÃ¡ch": 3733,
      "ĠstÅ¯j": 3734,
      "ĠÅ¡pi": 3735,
      "Ġplou": 3736,
      "ĠtmÄĽ": 3737,
      "dÃ¡l": 3738,
      "stane": 3739,
      "Ġvzdych": 3740,
      "ÅĻad": 3741,
      "Ġjitro": 3742,
      "Ġdceru": 3743,
      "rajÃŃ": 3744,
      "ĠmladÃŃ": 3745,
      "Ġotci": 3746,
      "ĠtrÅ¯n": 3747,
      "ĠmlÃ¡d": 3748,
      "bat": 3749,
      "mek": 3750,
      "ĠÅĻeka": 3751,
      "Ġpropast": 3752,
      "Å¡enÃ©": 3753,
      "ĠvelkÃ½m": 3754,
      "nÄĽch": 3755,
      "ĠspÄĽch": 3756,
      "Ġkrvi": 3757,
      "Ġhmo": 3758,
      "Ġdom": 3759,
      "Ġpoklad": 3760,
      "dÃ©": 3761,
      "udy": 3762,
      "ĠzkÃ¡": 3763,
      "ĠABA": 3764,
      "ezpe": 3765,
      "covÃ©": 3766,
      "ĠrodÃŃ": 3767,
      "Ġmusil": 3768,
      "Ġzdr": 3769,
      "rpu": 3770,
      "ĠlidskÃ½ch": 3771,
      "ĠXAXABB": 3772,
      "ĠusmÃ¡": 3773,
      "Ġprudce": 3774,
      "ĠnnÃŃ": 3775,
      "Ġnejsem": 3776,
      "telÃ©": 3777,
      "ĠvÄĽnec": 3778,
      "Ġdruhdy": 3779,
      "lÃ©tÃ¡": 3780,
      "Ġspu": 3781,
      "ĠukÃ¡": 3782,
      "Ġtvoji": 3783,
      "ĠptaÄįÃŃ": 3784,
      "ĠdlanÃŃ": 3785,
      "Ġmramo": 3786,
      "ĠÃºt": 3787,
      "Ġkryje": 3788,
      "ĠnepÅĻÃ¡tel": 3789,
      "ĠÅĻetÄĽ": 3790,
      "Ġvzlet": 3791,
      "ĠposlÃ©z": 3792,
      "Ġvine": 3793,
      "hnout": 3794,
      "koj": 3795,
      "ĠslzÃŃ": 3796,
      "Ġchou": 3797,
      "ĠnosÃŃ": 3798,
      "mÃŃr": 3799,
      "Ġproudy": 3800,
      "ĠpodÃŃ": 3801,
      "Ġhlubin": 3802,
      "Ġzacho": 3803,
      "ĠtajÃŃ": 3804,
      "ĠmÄĽstÄĽ": 3805,
      "ĠslavnÃ©": 3806,
      "Ġkouzlo": 3807,
      "Ġzaz": 3808,
      "ĠkvÃ©": 3809,
      "ĠvÅ¯dce": 3810,
      "dru": 3811,
      "Ġnapl": 3812,
      "Ġlisty": 3813,
      "Ġprapor": 3814,
      "kva": 3815,
      "ĠAXXA": 3816,
      "ĠblÃŃzko": 3817,
      "Ġprokle": 3818,
      "ĠjÃ¡so": 3819,
      "ĠozvÄĽ": 3820,
      "ĠoÄįima": 3821,
      "Ġdlouhou": 3822,
      "ĠduchÅ¯": 3823,
      "Ġvane": 3824,
      "Ġpora": 3825,
      "rÃ¡l": 3826,
      "ÄįnÃ½m": 3827,
      "nuv": 3828,
      "ĠvlasÅ¯": 3829,
      "rav": 3830,
      "ĠnejvyÅ¡": 3831,
      "ĠdlouhÃ¡": 3832,
      "Ġzmizel": 3833,
      "ene": 3834,
      "ĠÃºdolÃŃ": 3835,
      "ĠÄįervÃ¡n": 3836,
      "sila": 3837,
      "ĠtÃ©m": 3838,
      "Ġvzbu": 3839,
      "ĠskÃ¡la": 3840,
      "tud": 3841,
      "vÅ¡ak": 3842,
      "vosti": 3843,
      "Ġpouti": 3844,
      "Ġ20": 3845,
      "ĠÅ¾es": 3846,
      "ĠdlanÄĽ": 3847,
      "ĠÅ¾alu": 3848,
      "ĠchladnÃ©": 3849,
      "Ġtkli": 3850,
      "Ġoni": 3851,
      "ĠvznÄĽ": 3852,
      "Ġlaho": 3853,
      "bro": 3854,
      "ĠprÃ¡va": 3855,
      "ĠtemnÃ½": 3856,
      "ĠdÃ©Å¡Å¥": 3857,
      "Ġuti": 3858,
      "ĠlÃ©m": 3859,
      "ĠzpÄĽvu": 3860,
      "ĠprostÅĻed": 3861,
      "ge": 3862,
      "jÃŃcÃŃm": 3863,
      "cuje": 3864,
      "vede": 3865,
      "pÃŃnÃ¡": 3866,
      "Ġvdo": 3867,
      "ĠtvoÅĻÃŃ": 3868,
      "Ġbru": 3869,
      "Ã¡n": 3870,
      "ĠkrÃ¡Äįel": 3871,
      "ĠhnÄĽvu": 3872,
      "ĠÄįemu": 3873,
      "ĠsamÃ©": 3874,
      "Ġhl": 3875,
      "Ġvan": 3876,
      "vanÃ½": 3877,
      "ĠÅĻÃŃtÃŃ": 3878,
      "ĠÄįistÃ½": 3879,
      "ĠvelkÃ½ch": 3880,
      "bla": 3881,
      "ĠmotÃ½l": 3882,
      "Ġvtip": 3883,
      "ĠsprÃ¡": 3884,
      "Ġdly": 3885,
      "letÄĽ": 3886,
      "Ġstolu": 3887,
      "ĠdÃŃval": 3888,
      "Ġnebezpe": 3889,
      "ĠnadÄĽj": 3890,
      "pot": 3891,
      "ĠtrÃ¡vÄĽ": 3892,
      "Ġzamy": 3893,
      "Ġstisk": 3894,
      "ĠchudÃ©": 3895,
      "Ġzel": 3896,
      "Äįte": 3897,
      "ĠslavnÄĽ": 3898,
      "ĠavÅ¡ak": 3899,
      "ĠÄįarov": 3900,
      "ĠvÃŃtÄĽzstvÃŃ": 3901,
      "Ġtehdy": 3902,
      "Å¡a": 3903,
      "ĠjÃ¡sa": 3904,
      "Ġzbled": 3905,
      "Ġvzly": 3906,
      "Ġkolik": 3907,
      "ĠmyÅ¡lenky": 3908,
      "dovÃ©": 3909,
      "ĠÄįasÅ¯": 3910,
      "ĠÅ¡t": 3911,
      "ĠkÅĻÃŃdel": 3912,
      "ĠlÃŃbez": 3913,
      "ĠjinÃ¡": 3914,
      "Å¾ili": 3915,
      "Ġvrat": 3916,
      "Ġmas": 3917,
      "ĠnadÄĽjÃŃ": 3918,
      "ĠdeÅ¡tÄĽ": 3919,
      "vÅ¯r": 3920,
      "kel": 3921,
      "osti": 3922,
      "Ġtri": 3923,
      "ĠbÄĽh": 3924,
      "ĠstÅ¯l": 3925,
      "ĠstraÅ¡": 3926,
      "Ġtrest": 3927,
      "ĠumÄĽ": 3928,
      "ĠÅ¡leh": 3929,
      "Ġplanou": 3930,
      "ĠznÃ¡Å¡": 3931,
      "ĠkÅ¯ÅĪ": 3932,
      "ĠpalÃ¡": 3933,
      "Ġgo": 3934,
      "Ġzaho": 3935,
      "Ġslep": 3936,
      "ĠÅ¡edÃ©": 3937,
      "lan": 3938,
      "Ġlok": 3939,
      "ĠzdrÃ¡v": 3940,
      "Ġstopy": 3941,
      "ĠbratÅĻe": 3942,
      "ost": 3943,
      "ĠnÃŃch": 3944,
      "Ġrve": 3945,
      "ĠtuÅ¡ÃŃ": 3946,
      "vky": 3947,
      "ĠjeÅ¥": 3948,
      "Ġtaky": 3949,
      "ĠvzrÅ¯": 3950,
      "Ġnaho": 3951,
      "Ġvyr": 3952,
      "Ġvzte": 3953,
      "ĠÅ¡eru": 3954,
      "Ġhed": 3955,
      "ĠjemnÄĽ": 3956,
      "ĠvroucnÄĽ": 3957,
      "ĠspÃ¡nku": 3958,
      "ĠdrÅ¾ÃŃ": 3959,
      "Ġlho": 3960,
      "Å¡o": 3961,
      "ĠpravÃ©": 3962,
      "Ġznaven": 3963,
      "Ġzvyk": 3964,
      "ĠdveÅĻÃŃ": 3965,
      "Ġhledal": 3966,
      "ĠplÃŃ": 3967,
      "ĠrÃ½m": 3968,
      "kÅ¯v": 3969,
      "ĠtÄĽchto": 3970,
      "nily": 3971,
      "Ġhoto": 3972,
      "Ġmohla": 3973,
      "Ġkvete": 3974,
      "ÄįkÃ¡": 3975,
      "Ġkop": 3976,
      "ĠvÄĽÄįnÃ¡": 3977,
      "Ġuza": 3978,
      "ĠbÃŃdy": 3979,
      "ĠdÃ½chÃ¡": 3980,
      "ĠbdÃŃ": 3981,
      "hÃ¡ch": 3982,
      "Ġtouze": 3983,
      "vek": 3984,
      "ĠdivnÃ½": 3985,
      "dnÃ½m": 3986,
      "ĠÅ¾hou": 3987,
      "Ġcel": 3988,
      "ĠvÃ¡Å¡ni": 3989,
      "ĠhrÅ¯za": 3990,
      "rie": 3991,
      "Ġvyje": 3992,
      "ĠpÅĻelu": 3993,
      "ĠobÄĽÅ¥": 3994,
      "Ġpomoci": 3995,
      "Ġzahy": 3996,
      "Ġlaska": 3997,
      "ĠÅ¾Ã¡dÃ¡": 3998,
      "Ġgra": 3999,
      "ĠzÃ¡voj": 4000,
      "ĠnuÅ¾e": 4001,
      "ĠkrÃ¡sou": 4002,
      "ĠzÃ¡ha": 4003,
      "ĠtÄĽlem": 4004,
      "Ġlen": 4005,
      "ĠtÄĽÅ¾kÃ¡": 4006,
      "ĠstaÅĻec": 4007,
      "vech": 4008,
      "ĠpÅĻÃŃval": 4009,
      "ĠĠĊ": 4010,
      "rÃ½vÃ¡": 4011,
      "Ġpadla": 4012,
      "ĠbÃŃda": 4013,
      "Ġkrajem": 4014,
      "ĠstÃ¡ti": 4015,
      "Ġkout": 4016,
      "cu": 4017,
      "ĠsedÄĽl": 4018,
      "ĠmocnÃ½": 4019,
      "ĠusmÃŃvÃ¡": 4020,
      "ĠvaÅ¡ich": 4021,
      "ĠvÄĽku": 4022,
      "ĠvÄĽtrem": 4023,
      "dost": 4024,
      "ĠvÃ¡Å¾nÄĽ": 4025,
      "Ġkola": 4026,
      "ĠsvÃŃrÃ¡": 4027,
      "Ġharf": 4028,
      "Ġpovo": 4029,
      "Ġucho": 4030,
      "jdu": 4031,
      "ĠchovÃ¡": 4032,
      "lÃ¡k": 4033,
      "ĠtÅĻpyt": 4034,
      "ĠdnÄĽ": 4035,
      "ĠdÃ¡n": 4036,
      "ĠsvÄĽtel": 4037,
      "Ġsat": 4038,
      "Å¡ly": 4039,
      "ĠzÅ¯stal": 4040,
      "Ġzdroj": 4041,
      "lÃ¡nÃŃ": 4042,
      "Ġjesti": 4043,
      "lep": 4044,
      "ĠpÅĻiÅ¡li": 4045,
      "Ġkrista": 4046,
      "Ġodva": 4047,
      "ĠzÅĻÃŃÅ¡": 4048,
      "Ġheb": 4049,
      "Ġbran": 4050,
      "ĠkÃ½m": 4051,
      "Ġsam": 4052,
      "ĠjednÃŃm": 4053,
      "ĠvÄĽtve": 4054,
      "ĠleÅ¾e": 4055,
      "Ġduchem": 4056,
      "ĠtÃ½ch": 4057,
      "Ġshas": 4058,
      "Ġdrahou": 4059,
      "ĠpÃ¡s": 4060,
      "Ġobrov": 4061,
      "ĠvÃ½kÅĻik": 4062,
      "ĠtrÃ½": 4063,
      "ĠhÃ¡je": 4064,
      "Ġusta": 4065,
      "Ġrosa": 4066,
      "ĠtrÅ¯nu": 4067,
      "Ġklade": 4068,
      "Äįce": 4069,
      "ĠjinÃ½m": 4070,
      "ĠosamÄĽ": 4071,
      "kost": 4072,
      "Ġvrch": 4073,
      "loudil": 4074,
      "Ġslast": 4075,
      "Ġhbi": 4076,
      "ĠprÃ¡h": 4077,
      "Ġtlum": 4078,
      "ĠstÅĻedu": 4079,
      "ĠXXAABB": 4080,
      "skal": 4081,
      "vici": 4082,
      "ĠlidskÃ¡": 4083,
      "ĠpotÅĻe": 4084,
      "ĠrodnÃ©": 4085,
      "Ġhi": 4086,
      "Å¾ku": 4087,
      "chvÃ¡": 4088,
      "Ġdnech": 4089,
      "ĠlÃ½ch": 4090,
      "ĠÅ¡lo": 4091,
      "Ġstromu": 4092,
      "Äįas": 4093,
      "Ġmilou": 4094,
      "ĠbrÃ¡ny": 4095,
      "ĠstrÃ½": 4096,
      "nili": 4097,
      "ĠÅ¾alÃ¡": 4098,
      "ĠtÃ¡hnou": 4099,
      "lec": 4100,
      "Ġvyko": 4101,
      "Ġchlap": 4102,
      "lÃŃk": 4103,
      "ĠmoÅĻem": 4104,
      "ĠAAXB": 4105,
      "ĠÄıas": 4106,
      "Äįili": 4107,
      "ĠzÃ¡kon": 4108,
      "Ġpri": 4109,
      "ĠskrÃ½vÃ¡": 4110,
      "ĠvstÃ¡vÃ¡": 4111,
      "ĠzdaÅ¾": 4112,
      "ĠvÄĽrnÄĽ": 4113,
      "sÃ½": 4114,
      "tnÃŃ": 4115,
      "ĠloÅ¾i": 4116,
      "ĠsvÄĽd": 4117,
      "ĠtÄĽÅ¡ÃŃ": 4118,
      "ĠmrtvÃ½": 4119,
      "ĠsvÅ¯": 4120,
      "Ġskou": 4121,
      "Ġdotk": 4122,
      "ĠdivÃ©": 4123,
      "zÃ¡ch": 4124,
      "Ġlabu": 4125,
      "chod": 4126,
      "Ġsmutno": 4127,
      "ĠodpovÃŃ": 4128,
      "Ġner": 4129,
      "Ġsve": 4130,
      "ĠÅ¾ert": 4131,
      "ĠÅĻÃŃÅ¡i": 4132,
      "ĠkvÃŃlÃŃ": 4133,
      "Ġmali": 4134,
      "ĠkÃ¡ch": 4135,
      "nej": 4136,
      "ĠnejvÃŃc": 4137,
      "Ġspokojen": 4138,
      "ĠdÃ¡vnÃ½ch": 4139,
      "Ġdneska": 4140,
      "Ġhnal": 4141,
      "ĠvznÃ¡Å¡ÃŃ": 4142,
      "Ġmuk": 4143,
      "ĠÄįar": 4144,
      "ĠodmÄĽ": 4145,
      "ĠdivÃ¡": 4146,
      "ĠÅ¡pe": 4147,
      "ĠtuÅ¾": 4148,
      "Ġtyto": 4149,
      "ĠrozechvÄĽ": 4150,
      "ĠvichÅĻi": 4151,
      "Ġmem": 4152,
      "ĠoÅ¾i": 4153,
      "dÄĽti": 4154,
      "ÅĪo": 4155,
      "ĠvÃ¡n": 4156,
      "jit": 4157,
      "ĠÃŃ": 4158,
      "ÅĻili": 4159,
      "ĠodvÃ¡": 4160,
      "krÃ¡te": 4161,
      "Äįnosti": 4162,
      "ĠkÅĻo": 4163,
      "Ġvolal": 4164,
      "ĠsmutnÃ¡": 4165,
      "ĠkÃ½vÃ¡": 4166,
      "set": 4167,
      "rozen": 4168,
      "ĠmÃ¡ti": 4169,
      "ĠpÃ¡nu": 4170,
      "Ġoknem": 4171,
      "Ġradu": 4172,
      "Ġpsal": 4173,
      "rad": 4174,
      "ĠÅ¾ivÃ©": 4175,
      "Ġony": 4176,
      "ĠkrÃ¡snou": 4177,
      "ĠpracÃŃ": 4178,
      "ĠsvÄĽtlem": 4179,
      "Ġdat": 4180,
      "ĠdvÃ©ÅĻe": 4181,
      "ĠkterÃ½m": 4182,
      "ĠbolestÃŃ": 4183,
      "Ġbolem": 4184,
      "ĠbÃŃdu": 4185,
      "Ġperly": 4186,
      "Ġpekel": 4187,
      "Ġpurpu": 4188,
      "ĠbÃ¡je": 4189,
      "it": 4190,
      "ĠlÃ©pe": 4191,
      "ĠjÃ¡sÃ¡": 4192,
      "ĠzdÃ¡l": 4193,
      "ĠchvÄĽla": 4194,
      "ĠÅĻady": 4195,
      "ĠÄįernou": 4196,
      "ĠpÅĻÃŃs": 4197,
      "Äįela": 4198,
      "ĠvlÃ¡d": 4199,
      "Ġpop": 4200,
      "Ġzdro": 4201,
      "Ġnepoz": 4202,
      "ĠvelikÃ©": 4203,
      "Ġplyne": 4204,
      "Ġrosy": 4205,
      "ĠÅ¾elez": 4206,
      "ĠkÃ¡Å¾e": 4207,
      "Ġzlost": 4208,
      "Ġdavu": 4209,
      "ĠchladnÃ½": 4210,
      "ĠokamÅ¾ik": 4211,
      "ĠsedÃ¡": 4212,
      "ĠstÃ¡ÅĻÃŃ": 4213,
      "ĠnechtÄĽ": 4214,
      "Ġhvozd": 4215,
      "Ġluk": 4216,
      "Ġvry": 4217,
      "ĠcÃŃle": 4218,
      "ĠstÅĻÃŃbro": 4219,
      "Ġdit": 4220,
      "Ġpodi": 4221,
      "ĠmladÃ½ch": 4222,
      "ĠplnÃ¡": 4223,
      "ĠstoupÃ¡": 4224,
      "ÄįenÃ©": 4225,
      "ĠpÅĻil": 4226,
      "ĠskÃ¡le": 4227,
      "vcÅ¯": 4228,
      "Ġmladi": 4229,
      "ckÃ¡": 4230,
      "Ġjede": 4231,
      "ĠtatÃŃ": 4232,
      "ĠÅ¡kle": 4233,
      "ĠpÅĻÃŃrody": 4234,
      "ĠnazpÄĽt": 4235,
      "ĠvÄĽÅ¾ÃŃ": 4236,
      "ĠÅĻada": 4237,
      "ĠmÃŃstÄĽ": 4238,
      "Ġpekla": 4239,
      "ĠchudÃ¡": 4240,
      "ĠmanÄĽ": 4241,
      "vak": 4242,
      "Ġkarel": 4243,
      "ĠjdeÅ¡": 4244,
      "ĠdÃŃky": 4245,
      "Ġslzou": 4246,
      "ĠmÅ¯Å¾": 4247,
      "mech": 4248,
      "ĠchvÄĽjÃŃ": 4249,
      "ĠmÅ¾ik": 4250,
      "ĠÅ¾itÃŃm": 4251,
      "Ġprsty": 4252,
      "ĠvlÃ¡dne": 4253,
      "nut": 4254,
      "Ġmluvit": 4255,
      "Ġnitro": 4256,
      "bÃ¡m": 4257,
      "ĠradÄĽj": 4258,
      "Ġlest": 4259,
      "ĠplnÃŃ": 4260,
      "ĠzlÃ½ch": 4261,
      "ĠpÅĻines": 4262,
      "Ġpusti": 4263,
      "Å¡eÅĪ": 4264,
      "tali": 4265,
      "Ġzmize": 4266,
      "Ġpoesie": 4267,
      "ĠvzkÅĻik": 4268,
      "Ġmluv": 4269,
      "lejÅ¡ÃŃ": 4270,
      "Ġpanna": 4271,
      "ĠrÃ¡ji": 4272,
      "ĠÄįÃŃÅ¡e": 4273,
      "ĠplÃ¡t": 4274,
      "pÃŃrÃ¡": 4275,
      "Ġkosti": 4276,
      "ĠpotÃ¡": 4277,
      "Ġrodu": 4278,
      "Ġdumy": 4279,
      "ĠzpÄĽvy": 4280,
      "jak": 4281,
      "Ġklobou": 4282,
      "ĠstÃ¡li": 4283,
      "ĠdvÅ¯r": 4284,
      "ĠmarnÃ©": 4285,
      "ĠprÃ¡zdno": 4286,
      "nulo": 4287,
      "ĠdennÃŃ": 4288,
      "ĠjedinÃ¡": 4289,
      "Ġdiva": 4290,
      "Ġdcera": 4291,
      "Ġska": 4292,
      "kov": 4293,
      "ĠutÃŃ": 4294,
      "ĠÄįeho": 4295,
      "Ġstin": 4296,
      "ĠjejÃŃch": 4297,
      "rovna": 4298,
      "Ġzlou": 4299,
      "ĠkÃ½ch": 4300,
      "Ġjez": 4301,
      "ĠmoÅĻ": 4302,
      "Ġspal": 4303,
      "ĠletÄĽ": 4304,
      "dovat": 4305,
      "ĠÄįekal": 4306,
      "ĠobÄĽt": 4307,
      "ĠÄįinÃŃ": 4308,
      "ÅĻenÃ¡": 4309,
      "Ġdli": 4310,
      "Ġmiloval": 4311,
      "ĠkÃ©m": 4312,
      "Ġmistr": 4313,
      "Ġpokry": 4314,
      "ĠvnitÅĻ": 4315,
      "Ġpozor": 4316,
      "ĠhnÃŃzdo": 4317,
      "nÃŃci": 4318,
      "ĠklÃŃnu": 4319,
      "ĠtrÃ¡vy": 4320,
      "ĠpÅ¯jde": 4321,
      "Ġnejsou": 4322,
      "ĠpÄĽst": 4323,
      "ĠÃºto": 4324,
      "ĠmnohÃ¡": 4325,
      "ĠÅ¾havÃ©": 4326,
      "mÄĽt": 4327,
      "Ġclo": 4328,
      "lÃŃch": 4329,
      "Ġpomalu": 4330,
      "rnÃ½m": 4331,
      "ĠpoÅ¾ehnÃ¡nÃŃ": 4332,
      "rovÃ©": 4333,
      "nÄĽnÃ©": 4334,
      "dilo": 4335,
      "ĠmÅĻe": 4336,
      "ĠhonÃŃ": 4337,
      "ĠÄįase": 4338,
      "chÃ¡ch": 4339,
      "Ġnemoh": 4340,
      "ÄįÅ¯": 4341,
      "Ġrostou": 4342,
      "ĠlÃ¡n": 4343,
      "Ġnemlu": 4344,
      "ĠprchÃ¡": 4345,
      "ĠÄįistÃ¡": 4346,
      "Ġuse": 4347,
      "kami": 4348,
      "ĠvraÅ¥": 4349,
      "Ġskali": 4350,
      "Ġsev": 4351,
      "ĠvÄĽnce": 4352,
      "ĠÅ¡Å¥asten": 4353,
      "ĠÅ¾enÄĽ": 4354,
      "Ġbyt": 4355,
      "Ġrozpu": 4356,
      "Ġmnich": 4357,
      "hala": 4358,
      "ĠnesmÄĽ": 4359,
      "Ġletem": 4360,
      "ĠÅ¡koda": 4361,
      "ĠvÅ¡udy": 4362,
      "ĠÅ¾havÃ½": 4363,
      "Ġstruny": 4364,
      "ĠpÅĻÃŃmo": 4365,
      "ĠpÃ¡nem": 4366,
      "Ġnutno": 4367,
      "Å¡enÃ½": 4368,
      "ĠhÃ¡zÃŃ": 4369,
      "ĠmuÅ¾Å¯": 4370,
      "ĠdÃ¡Å¡": 4371,
      "ĠptÃ¡kÅ¯": 4372,
      "ĠzÃ¡padu": 4373,
      "krÃ¡snÄĽjÅ¡ÃŃ": 4374,
      "Ġev": 4375,
      "Ġpeklo": 4376,
      "ĠÅ¡ÃŃp": 4377,
      "lenÃ¡": 4378,
      "ĠskrÃ¡nÃŃ": 4379,
      "ĠÃºz": 4380,
      "ĠskrÃ¡nÄĽ": 4381,
      "ĠstÅĻel": 4382,
      "ĠubÃŃ": 4383,
      "ĠmrakÅ¯": 4384,
      "Ġopoj": 4385,
      "Ġtopo": 4386,
      "Ġzdar": 4387,
      "ĠnejkrÃ¡snÄĽjÅ¡ÃŃ": 4388,
      "ĠkrÃ¡tkÃ½": 4389,
      "ÅĻÃŃÅ¡": 4390,
      "ĠvÃŃtÃ¡": 4391,
      "ĠrÃ¡mÄĽ": 4392,
      "nuli": 4393,
      "ĠzeÄı": 4394,
      "ĠrozkoÅ¡e": 4395,
      "ĠsvÄĽdomÃŃ": 4396,
      "Ġlhostej": 4397,
      "ĠnÄĽko": 4398,
      "Ġmyslil": 4399,
      "Ġstanul": 4400,
      "Ġdomov": 4401,
      "ĠpamÄĽti": 4402,
      "Ġtoto": 4403,
      "armo": 4404,
      "ĠXXXA": 4405,
      "ÄįkÅ¯": 4406,
      "zenÃŃ": 4407,
      "Ġztratil": 4408,
      "Ġkruhu": 4409,
      "Ġsf": 4410,
      "ĠctÃŃ": 4411,
      "ĠprostÃ©": 4412,
      "Ġsvobody": 4413,
      "rci": 4414,
      "lel": 4415,
      "ĠÄįelem": 4416,
      "ĠdlouhÃ½ch": 4417,
      "ĠplÃ¡Äįem": 4418,
      "ĠpÃ¡d": 4419,
      "lÃ½mi": 4420,
      "ĠpÅĻÃŃteli": 4421,
      "ĠzvonÅ¯": 4422,
      "Ġztr": 4423,
      "Ġnesta": 4424,
      "ĠnejvÄĽt": 4425,
      "tÅ¯m": 4426,
      "ĠvÄĽÅ¾": 4427,
      "ĠdÃŃÅ¡": 4428,
      "Ġlesku": 4429,
      "Ġvot": 4430,
      "rovi": 4431,
      "Ġbarvy": 4432,
      "ĠzbranÄĽ": 4433,
      "Ġnetu": 4434,
      "Ġex": 4435,
      "ĠsÃŃnÄĽ": 4436,
      "Ġdruhu": 4437,
      "ĠvÄĽdÄĽl": 4438,
      "ĠkrÃ¡snÄĽ": 4439,
      "ĠÄįlovÄĽku": 4440,
      "Ġdosta": 4441,
      "Ġmor": 4442,
      "ĠdivnÄĽ": 4443,
      "ĠkÅĻiv": 4444,
      "ĠneÅ¡tÄĽ": 4445,
      "Ġzar": 4446,
      "Å¾eb": 4447,
      "ĠstojÃŃm": 4448,
      "Ġhyne": 4449,
      "cÃŃho": 4450,
      "bar": 4451,
      "Å¡ila": 4452,
      "ĠzvÄĽÅĻ": 4453,
      "ĠvÃ¡clav": 4454,
      "ĠdomÃ¡": 4455,
      "Ġdobrou": 4456,
      "luje": 4457,
      "Å¡u": 4458,
      "ĠpyÅ¡": 4459,
      "ĠtmavÃ½": 4460,
      "Ġobo": 4461,
      "Ġbychom": 4462,
      "neme": 4463,
      "ĠvzpomÃŃnÃ¡m": 4464,
      "hlou": 4465,
      "nutÃŃm": 4466,
      "Ġmost": 4467,
      "tan": 4468,
      "ĠzvÃŃÅĻe": 4469,
      "ĠÄįtyÅĻi": 4470,
      "tli": 4471,
      "ĠÃºc": 4472,
      "Ġdivy": 4473,
      "ĠplÃ¡ÅĪ": 4474,
      "kl": 4475,
      "tilo": 4476,
      "ĠkdeÅ¾": 4477,
      "Ġstrachu": 4478,
      "jÃŃcÃ½": 4479,
      "ĠvÃ¡Å¡eÅĪ": 4480,
      "ĠvlasÅ¥": 4481,
      "Ġblaze": 4482,
      "ĠkÅĻiÄįÃŃ": 4483,
      "Ġtit": 4484,
      "ĠnovÃ½m": 4485,
      "Ġjinoch": 4486,
      "Ġpadl": 4487,
      "Ġdna": 4488,
      "najÃŃ": 4489,
      "ĠmlÃ¡den": 4490,
      "ĠjemuÅ¾": 4491,
      "Ġevro": 4492,
      "ĠnaÅ¡em": 4493,
      "Å¾ek": 4494,
      "Ġnemohu": 4495,
      "ĠbÃŃt": 4496,
      "zÃŃch": 4497,
      "ĠtichÃ©m": 4498,
      "ĠodpusÅ¥": 4499,
      "Ġapo": 4500,
      "ÅĻena": 4501,
      "Ġobzoru": 4502,
      "Ġzuby": 4503,
      "ĠhrozÃŃ": 4504,
      "klady": 4505,
      "ĠsnÃŃm": 4506,
      "Ġzaha": 4507,
      "ĠmÃ¡Å¥": 4508,
      "Ġmalou": 4509,
      "ĠmyÅ¡lÃ©nky": 4510,
      "lili": 4511,
      "vaje": 4512,
      "ĠÅ¡tÄĽd": 4513,
      "ĠvÄĽrnÃ½": 4514,
      "ĠpÄĽstÃŃ": 4515,
      "ĠletnÃŃ": 4516,
      "ĠvÃ¡bÃŃ": 4517,
      "Ġpel": 4518,
      "ĠslzÃ¡ch": 4519,
      "Ġsmrtel": 4520,
      "ĠzvuÄįÃŃ": 4521,
      "Ġvida": 4522,
      "rala": 4523,
      "ĠotvÃŃrÃ¡": 4524,
      "Ġzma": 4525,
      "ĠzaznÃŃ": 4526,
      "ĠjeÅ¡": 4527,
      "ĠpovÄĽz": 4528,
      "ĠjiÅĻÃŃ": 4529,
      "Ġodtud": 4530,
      "Ġnebesa": 4531,
      "Ġhrdin": 4532,
      "ĠpÅĻÃ¡l": 4533,
      "hovÃ©": 4534,
      "Ġut": 4535,
      "lÃ©d": 4536,
      "ĠkonÃŃ": 4537,
      "Ġdub": 4538,
      "viny": 4539,
      "dec": 4540,
      "Ġhore": 4541,
      "ĠbuÅ¡ÃŃ": 4542,
      "ĠcelÃ©m": 4543,
      "Ġhovor": 4544,
      "Ġkomo": 4545,
      "Ġobou": 4546,
      "Ġhlavi": 4547,
      "Ġjiskry": 4548,
      "Ġkristus": 4549,
      "ĠsmÃŃchem": 4550,
      "ĠkeÅĻ": 4551,
      "ĠcÃŃli": 4552,
      "Ġvyk": 4553,
      "ĠdÃŃl": 4554,
      "ĠlÃŃcÃŃ": 4555,
      "ĠzrakÅ¯": 4556,
      "ĠvrÃ¡t": 4557,
      "ĠvstÃ¡": 4558,
      "ĠÅ¾ivÃ½": 4559,
      "ĠpoupÄĽ": 4560,
      "ĠvÄĽÄįnost": 4561,
      "Ġpozo": 4562,
      "Ġsvobodu": 4563,
      "ĠÅĻÃŃkÃ¡": 4564,
      "Ġrmu": 4565,
      "Ġtamo": 4566,
      "ĠvÄĽÄįnou": 4567,
      "ĠdÄĽtem": 4568,
      "ĠznamenÃŃ": 4569,
      "ĠzahrÃ¡": 4570,
      "Ġga": 4571,
      "ĠdunÃŃ": 4572,
      "ĠkÅĻÃŃdlem": 4573,
      "ĠvlnÃŃ": 4574,
      "vla": 4575,
      "ĠÅ¡ero": 4576,
      "ĠplÃ¡nÃŃ": 4577,
      "Ġsloup": 4578,
      "jdou": 4579,
      "ĠvÃŃÅĻÃŃ": 4580,
      "rostÅĻed": 4581,
      "letu": 4582,
      "ĠrÃ¡di": 4583,
      "ĠspÄĽl": 4584,
      "ĠjakÃ½s": 4585,
      "Ġtech": 4586,
      "Ġklesla": 4587,
      "ĠvlnÃ¡ch": 4588,
      "ĠvelikÃ¡": 4589,
      "ĠÅ¡edÃ½": 4590,
      "ĠonÃ©": 4591,
      "Ġbrzo": 4592,
      "skne": 4593,
      "Ġletech": 4594,
      "ĠkorÃ¡": 4595,
      "Ġvit": 4596,
      "Ġcitu": 4597,
      "ĠsmrÅ¥": 4598,
      "Ġjablo": 4599,
      "ĠtÄĽmi": 4600,
      "Ġbisku": 4601,
      "ĠstokrÃ¡t": 4602,
      "ĠÅ¾Ã¡rem": 4603,
      "ĠverÅ¡": 4604,
      "ĠÅ¾u": 4605,
      "Ġslunko": 4606,
      "Ġak": 4607,
      "Ġkvet": 4608,
      "Ġzho": 4609,
      "Ġzmar": 4610,
      "ĠbojovnÃŃ": 4611,
      "ĠdÄĽlÃ¡": 4612,
      "ĠmyÅ¡le": 4613,
      "Ġtmu": 4614,
      "ĠjÃŃmÃ¡": 4615,
      "ĠÅ¡eptÃ¡": 4616,
      "ĠpÅ¯jdu": 4617,
      "vÅ¡e": 4618,
      "Ġobe": 4619,
      "ĠpouÅ¡Å¥": 4620,
      "Ġslovan": 4621,
      "Ġpovin": 4622,
      "ĠtajnÄĽ": 4623,
      "ĠpÅĻÃŃroda": 4624,
      "Ġhladi": 4625,
      "ĠdlÃ¡": 4626,
      "ilÃŃ": 4627,
      "ĠpÃŃsku": 4628,
      "ĠprosÃŃ": 4629,
      "Ġvzala": 4630,
      "Ġkor": 4631,
      "Ġmladosti": 4632,
      "rÄįÃŃ": 4633,
      "ĠtÄĽÅ¾kou": 4634,
      "Ġsra": 4635,
      "ĠÅ¾eno": 4636,
      "pek": 4637,
      "ĠÄıÃ¡bel": 4638,
      "Ġzavo": 4639,
      "jeme": 4640,
      "ĠhroznÃ½": 4641,
      "ĠnÃ¡dhe": 4642,
      "Ġrozma": 4643,
      "ÅĻily": 4644,
      "ĠcelÃ½m": 4645,
      "Ġmechu": 4646,
      "ĠpravdÄĽ": 4647,
      "mil": 4648,
      "Ġbli": 4649,
      "Ġuka": 4650,
      "Ġpoza": 4651,
      "vor": 4652,
      "Ġkup": 4653,
      "ĠnechtÄĽl": 4654,
      "Ġuko": 4655,
      "Ġproudem": 4656,
      "Ġdaleka": 4657,
      "dÄĽji": 4658,
      "ĠnÃ¡rodu": 4659,
      "Ġpob": 4660,
      "ĠverÅ¡e": 4661,
      "Ġmilio": 4662,
      "Ġused": 4663,
      "ĠkrÅ¯pÄĽj": 4664,
      "ĠÅ¡il": 4665,
      "ĠsvatÃ½ch": 4666,
      "ĠtvÃŃ": 4667,
      "ĠplaÅ¡e": 4668,
      "Ġkalich": 4669,
      "ĠhrabÄĽ": 4670,
      "ĠskvÃŃ": 4671,
      "Äįina": 4672,
      "Ġhavra": 4673,
      "Ġstroj": 4674,
      "ĠjedinÃ©": 4675,
      "Ġleskem": 4676,
      "ĠpoutnÃŃk": 4677,
      "ĠslyÅ¡ÃŃÅ¡": 4678,
      "ĠvÄĽcÃŃ": 4679,
      "Ġcity": 4680,
      "ĠvÃ½s": 4681,
      "stek": 4682,
      "ĠÄįerno": 4683,
      "Ġren": 4684,
      "dum": 4685,
      "Ġviny": 4686,
      "pec": 4687,
      "ĠÅ¡tÄĽstÃŃm": 4688,
      "tin": 4689,
      "ĠvÅ¡eli": 4690,
      "ĠpojÃŃ": 4691,
      "Ġteskno": 4692,
      "Ġobej": 4693,
      "rosti": 4694,
      "ter": 4695,
      "ĠhrÅ¯z": 4696,
      "Ġnaklo": 4697,
      "Ġticha": 4698,
      "ĠvÅ¡ednÃŃ": 4699,
      "Ġnecha": 4700,
      "Ġstan": 4701,
      "ÅĻenÃ½ch": 4702,
      "ĠmoÅ¾nÃ¡": 4703,
      "Ġnalez": 4704,
      "Ġvodo": 4705,
      "ĠÄįerst": 4706,
      "ĠhledÃŃm": 4707,
      "zat": 4708,
      "Ġnau": 4709,
      "Ġkomnat": 4710,
      "ĠdÄĽvy": 4711,
      "ĠbÃ©": 4712,
      "Ġil": 4713,
      "Ġnechal": 4714,
      "ĠvÄįel": 4715,
      "Ġdol": 4716,
      "Ġjinou": 4717,
      "ĠpastÃ½": 4718,
      "ĠkrÄį": 4719,
      "Ġpozved": 4720,
      "Å¡tÃŃm": 4721,
      "Ġspla": 4722,
      "ĠÅĻev": 4723,
      "ĠpozdnÃŃ": 4724,
      "nicÃŃ": 4725,
      "ĠpÄĽnÃŃ": 4726,
      "sat": 4727,
      "ĠmnÃŃ": 4728,
      "Ġorel": 4729,
      "ĠAAAX": 4730,
      "ĠodÄĽ": 4731,
      "ĠbÄĽlost": 4732,
      "Ġchudo": 4733,
      "Ġnesko": 4734,
      "ĠcÃ¡": 4735,
      "Ġluna": 4736,
      "Ġusly": 4737,
      "ĠpÅĻis": 4738,
      "ĠzpÃŃvat": 4739,
      "Ġnitra": 4740,
      "ĠrozlÃ©": 4741,
      "lala": 4742,
      "cou": 4743,
      "zÃ½": 4744,
      "ĠmanÅ¾el": 4745,
      "ĠpouÅ¥": 4746,
      "niti": 4747,
      "ĠÅ¥": 4748,
      "Ġptal": 4749,
      "ĠsamÃ½": 4750,
      "ĠÅ¾Ã¡dnÃ¡": 4751,
      "ĠÄįeskÃ¡": 4752,
      "Ġracho": 4753,
      "ĠtrhÃ¡": 4754,
      "Ġveleb": 4755,
      "ĠmlÃ©": 4756,
      "ÅĪÅ¯": 4757,
      "Ġpropasti": 4758,
      "huje": 4759,
      "Ġvnad": 4760,
      "ĠhrajÃŃ": 4761,
      "ĠspÃŃcÃŃ": 4762,
      "Ġctnosti": 4763,
      "ĠhnutÃŃ": 4764,
      "fe": 4765,
      "ĠnÃŃmÅ¾": 4766,
      "Ġchvilku": 4767,
      "ĠAX": 4768,
      "ĠmodlÃŃ": 4769,
      "Ġpanny": 4770,
      "ĠnejvyÅ¡Å¡ÃŃ": 4771,
      "Ġpetr": 4772,
      "Ġzbro": 4773,
      "ĠmÅ¯Å¾eÅ¡": 4774,
      "Ġztu": 4775,
      "Ġsek": 4776,
      "ĠhrdÃ©": 4777,
      "ĠvÃ¡nek": 4778,
      "ĠstÃŃnem": 4779,
      "ĠzaÄįal": 4780,
      "Ġchcete": 4781,
      "Ġnesla": 4782,
      "Ġblankyt": 4783,
      "raje": 4784,
      "ĠpouÅ¡ti": 4785,
      "Ġvysoko": 4786,
      "ĠspÃ¡nek": 4787,
      "Ġsice": 4788,
      "Ġmalo": 4789,
      "Ġge": 4790,
      "ĠÃºzkost": 4791,
      "ĠzavÃ¡": 4792,
      "Ġnadarmo": 4793,
      "Å¯so": 4794,
      "ĠnoÅĻÃŃ": 4795,
      "mbo": 4796,
      "ĠpouÅ¡tÃŃ": 4797,
      "Ġohrom": 4798,
      "Ġpopel": 4799,
      "kaly": 4800,
      "livÃ¡": 4801,
      "ĠpouÅ¡tÄĽ": 4802,
      "ÄįnÃ©m": 4803,
      "Ġneji": 4804,
      "nÄĽte": 4805,
      "ĠnÄĽme": 4806,
      "nati": 4807,
      "Ġbok": 4808,
      "jÃŃÅ¾": 4809,
      "ĠvzpomÃŃnka": 4810,
      "Ġhalu": 4811,
      "ĠdÃŃtky": 4812,
      "is": 4813,
      "Ġzrovna": 4814,
      "mÃ¡nÃŃ": 4815,
      "Ġkorunu": 4816,
      "cie": 4817,
      "ĠABABAX": 4818,
      "dalo": 4819,
      "ĠhroznÃ©": 4820,
      "Ġpochyb": 4821,
      "nÃŃku": 4822,
      "ĠneÅ¡tÄĽstÃŃ": 4823,
      "Ġprocit": 4824,
      "Ġmladou": 4825,
      "Ġsmysl": 4826,
      "Ġw": 4827,
      "tej": 4828,
      "ĠleÅ¾el": 4829,
      "nie": 4830,
      "ĠchystÃ¡": 4831,
      "ĠkterÃ½ch": 4832,
      "ckou": 4833,
      "Ġskla": 4834,
      "Ġchr": 4835,
      "ĠsrdcÃŃch": 4836,
      "Ġmiluje": 4837,
      "ĠhÃ¡ji": 4838,
      "ĠÅ¡va": 4839,
      "ĠnÃ¡ho": 4840,
      "Ġsoucit": 4841,
      "Ġhrst": 4842,
      "Ġukru": 4843,
      "ĠpenÃŃ": 4844,
      "Ġjinde": 4845,
      "telem": 4846,
      "ĠsÃŃle": 4847,
      "Ġtrud": 4848,
      "ĠzvÄĽda": 4849,
      "ĠzÃ¡ÅĻÃŃcÃŃ": 4850,
      "Ġvodou": 4851,
      "Ġbratra": 4852,
      "ÄįenÃ½": 4853,
      "ĠhvÄĽzdi": 4854,
      "tily": 4855,
      "ĠlÅ¯nÄĽ": 4856,
      "ĠmdlÃ½": 4857,
      "ĠmÄĽsÃŃce": 4858,
      "ĠbrÃ¡nÃŃ": 4859,
      "ĠzlatÃ½m": 4860,
      "Ġjdem": 4861,
      "ĠkrÃ¡lem": 4862,
      "ĠsÃŃni": 4863,
      "ĠspÄĽchÃ¡": 4864,
      "ena": 4865,
      "mot": 4866,
      "ĠpustÃ©": 4867,
      "ĠuprostÅĻed": 4868,
      "ĠtanÄįÃŃ": 4869,
      "Ġrozmar": 4870,
      "gra": 4871,
      "ĠdÄĽva": 4872,
      "ĠjasnÃ¡": 4873,
      "ĠnaÅĻÃŃ": 4874,
      "Ġvzdechy": 4875,
      "Ġminul": 4876,
      "ĠÅ¾ivotÄĽ": 4877,
      "Ġplameny": 4878,
      "Ġslib": 4879,
      "ĠdrobnÃ©": 4880,
      "ĠÅ¾it": 4881,
      "ĠvzdychÃ¡": 4882,
      "Ġprahy": 4883,
      "ĠvlÃŃdnÄĽ": 4884,
      "ĠvÅ¯z": 4885,
      "Ġtomto": 4886,
      "ĠslavÃŃk": 4887,
      "tÃ¡h": 4888,
      "ĠskuteÄį": 4889,
      "Ġjednoho": 4890,
      "Ġazu": 4891,
      "Ġpohy": 4892,
      "Ġbor": 4893,
      "Ġdnu": 4894,
      "ĠbÅĻi": 4895,
      "ĠneÅ¡": 4896,
      "Ġdon": 4897,
      "novi": 4898,
      "tne": 4899,
      "Ġcu": 4900,
      "ĠÄįert": 4901,
      "vlÃ¡": 4902,
      "Ġkne": 4903,
      "Ġovo": 4904,
      "ĠÄįervÃ¡": 4905,
      "Ġhledat": 4906,
      "ÄįkÃ¡ch": 4907,
      "Äįnost": 4908,
      "Ġpocti": 4909,
      "ĠvÅ¡echen": 4910,
      "ĠchoÅ¥": 4911,
      "Ġosudu": 4912,
      "Ġtemnou": 4913,
      "venÃ©": 4914,
      "ÅĻiti": 4915,
      "ĠposvÄĽ": 4916,
      "ĠtrÃ¡va": 4917,
      "Ġhry": 4918,
      "ĠpospÃŃ": 4919,
      "ĠstÃ¡r": 4920,
      "ĠzaÅ¡e": 4921,
      "ĠpoÄįal": 4922,
      "ĠvÄĽrnÃ©": 4923,
      "Ġsouse": 4924,
      "pky": 4925,
      "Ġknihy": 4926,
      "ĠzdÃŃ": 4927,
      "tovÃ©": 4928,
      "Ġlost": 4929,
      "ĠdruhÃ¡": 4930,
      "ledy": 4931,
      "Ġpohledem": 4932,
      "ĠvelÃŃ": 4933,
      "Ġvojsko": 4934,
      "ĠpohÃ¡r": 4935,
      "ĠvpÅĻed": 4936,
      "Ġmysti": 4937,
      "ĠzelenÃ©": 4938,
      "ĠoÅĻe": 4939,
      "Ġdel": 4940,
      "pomÃŃnÃ¡": 4941,
      "Ġdrak": 4942,
      "ĠÅ¡est": 4943,
      "ĠzÅĻela": 4944,
      "ĠbuÄıte": 4945,
      "ĠcizÃŃch": 4946,
      "Ġbezpe": 4947,
      "lily": 4948,
      "Ġslzu": 4949,
      "ĠÅĻit": 4950,
      "nÃŃky": 4951,
      "ĠvodÄĽ": 4952,
      "Ġzval": 4953,
      "Ġzasmu": 4954,
      "ĠneÃº": 4955,
      "ĠÃºro": 4956,
      "ĠchudÃ½": 4957,
      "skla": 4958,
      "jÃŃcÃŃch": 4959,
      "ĠzlatÃŃ": 4960,
      "Ġpozem": 4961,
      "lena": 4962,
      "Ġkov": 4963,
      "ĠvÄĽÅĻÃŃm": 4964,
      "ĠznÃ¡mÃ½": 4965,
      "nÄĽnÃ½": 4966,
      "Ġzachy": 4967,
      "ĠbrÃ¡z": 4968,
      "ĠschÃ½": 4969,
      "Ġkouzlem": 4970,
      "ĠkrÃ¡lÅ¯": 4971,
      "ĠchtÄĽli": 4972,
      "ĠvzpomÃŃnÃ¡": 4973,
      "ĠznÃ¡t": 4974,
      "nci": 4975,
      "Ġvpad": 4976,
      "lid": 4977,
      "ĠbojÃŃ": 4978,
      "ĠlÃŃbal": 4979,
      "Ġvodu": 4980,
      "tÃ©ho": 4981,
      "vodu": 4982,
      "ĠtÅĻpytÃŃ": 4983,
      "ĠzapomnÄĽl": 4984,
      "vic": 4985,
      "Ġtouhu": 4986,
      "Ġbratry": 4987,
      "ĠrÃ¡m": 4988,
      "ĠdivÄĽ": 4989,
      "tce": 4990,
      "ĠpouhÃ½": 4991,
      "ĠÅĻekne": 4992,
      "th": 4993,
      "ĠhÅĻÃŃchu": 4994,
      "Ġsoused": 4995,
      "ÅĪuje": 4996,
      "fo": 4997,
      "dÃ¡vÃ¡": 4998,
      "ĠÅ¾er": 4999,
      "Å¾ena": 5000,
      "ĠXXABBA": 5001,
      "nÃ©st": 5002,
      "nÃŃka": 5003,
      "vÃŃvÃ¡": 5004,
      "Ġzvolal": 5005,
      "Ġnerozu": 5006,
      "ĠnnÃ½": 5007,
      "fa": 5008,
      "ĠsluÅ¡ÃŃ": 5009,
      "ĠlÃ¡sko": 5010,
      "Ġstech": 5011,
      "Ġmiluji": 5012,
      "Ġodho": 5013,
      "ĠvÅĻel": 5014,
      "ĠperutÃŃ": 5015,
      "Ġvypu": 5016,
      "pili": 5017,
      "Ġshon": 5018,
      "Ġboh": 5019,
      "ĠsladkÃ½ch": 5020,
      "ĠXXAAXX": 5021,
      "Ġhodiny": 5022,
      "Ġtuze": 5023,
      "ĠÅ¾eni": 5024,
      "Ġspor": 5025,
      "ĠdomÄĽ": 5026,
      "ĠvÅ¯bec": 5027,
      "Ġskryt": 5028,
      "ĠplÃ©mÄĽ": 5029,
      "ĠlÃ½m": 5030,
      "Ġroky": 5031,
      "Ġvinu": 5032,
      "ĠÅ¾ivotu": 5033,
      "ĠtvÃ©mu": 5034,
      "hr": 5035,
      "Ġsel": 5036,
      "Ġroztou": 5037,
      "ĠdÃ¡vnÃ©": 5038,
      "ĠpÃŃÅ¡e": 5039,
      "Ġpne": 5040,
      "ĠtÃ©mÄĽ": 5041,
      "ĠvonnÃ½": 5042,
      "mal": 5043,
      "ĠtÃ½m": 5044,
      "Ġvedou": 5045,
      "ĠbÃ¡l": 5046,
      "ÄįnÃŃm": 5047,
      "ĠÅ¡ly": 5048,
      "Ġrozlo": 5049,
      "Ġposel": 5050,
      "milo": 5051,
      "ĠvÅ¯d": 5052,
      "ĠboÅ¾ÃŃm": 5053,
      "Ġmoudrost": 5054,
      "ĠsamotÄĽ": 5055,
      "Ġposlu": 5056,
      "Ġstarost": 5057,
      "pnÄĽ": 5058,
      "ĠsnÃ¡": 5059,
      "Ġses": 5060,
      "ĠhostÃŃ": 5061,
      "Ġnesl": 5062,
      "Ġbrachu": 5063,
      "ren": 5064,
      "ĠÅ¡ÃŃji": 5065,
      "ĠsmÄĽl": 5066,
      "ĠzbranÃŃ": 5067,
      "stoj": 5068,
      "Ġchodil": 5069,
      "Ġbledou": 5070,
      "Ġvkro": 5071,
      "lÃŃÅ¡": 5072,
      "ĠzmÃŃrÃ¡": 5073,
      "nÃ¡ct": 5074,
      "ĠvznÃŃ": 5075,
      "lko": 5076,
      "ĠperuÅ¥": 5077,
      "mÃ¡m": 5078,
      "Ġplesu": 5079,
      "bÄĽh": 5080,
      "nÅ¯v": 5081,
      "ĠchraÅĪ": 5082,
      "kam": 5083,
      "ĠsvatÃ½m": 5084,
      "Ġjmeno": 5085,
      "Ġlsti": 5086,
      "ĠdruÅ¾i": 5087,
      "venÃ½": 5088,
      "Ġude": 5089,
      "Äįiti": 5090,
      "ĠsilnÃ½": 5091,
      "Ġvnik": 5092,
      "Ġsluje": 5093,
      "ĠmalÃŃ": 5094,
      "Ġarci": 5095,
      "Å¡et": 5096,
      "ĠÄįlu": 5097,
      "ĠsladkÃ½m": 5098,
      "les": 5099,
      "Ġpotok": 5100,
      "ĠhÅĻbe": 5101,
      "ĠtÅĻesou": 5102,
      "Ġmrtev": 5103,
      "Ġkvas": 5104,
      "nkÃ©": 5105,
      "Ġpoky": 5106,
      "ĠÅ¾ÃŃm": 5107,
      "Ġmora": 5108,
      "ĠÅ¡erÃ©": 5109,
      "Ġjednom": 5110,
      "dÃ½": 5111,
      "ĠrovnÄĽ": 5112,
      "Ġmuka": 5113,
      "ĠpÅ¯vab": 5114,
      "Ã©mu": 5115,
      "ĠÅ¾Ã¡ru": 5116,
      "ĠmodrÃ½": 5117,
      "ĠsmÄĽlÃ½": 5118,
      "ĠpÅ¯du": 5119,
      "Ġdno": 5120,
      "ĠvyÅ¡la": 5121,
      "mÃŃm": 5122,
      "Ġhospodi": 5123,
      "hali": 5124,
      "ĠvÄĽtry": 5125,
      "ÅĻej": 5126,
      "tÃ¡ch": 5127,
      "Ġslasti": 5128,
      "ĠÅ¡Å¥astnÃ½": 5129,
      "Ġpravo": 5130,
      "Ġpraze": 5131,
      "ĠklÃŃnÄĽ": 5132,
      "Ġzen": 5133,
      "Ġchti": 5134,
      "Ġbabi": 5135,
      "ĠhvÄĽzdÃ¡m": 5136,
      "ĠpapeÅ¾": 5137,
      "Ġnajednou": 5138,
      "Ġhlasu": 5139,
      "ĠbÅ¯": 5140,
      "ĠvrhÃ¡": 5141,
      "ĠveÅ¡ke": 5142,
      "ĠkoÅĻist": 5143,
      "ĠkÅ¯m": 5144,
      "ĠpolÃŃbenÃŃ": 5145,
      "ĠdÄĽjin": 5146,
      "Ġpono": 5147,
      "bili": 5148,
      "chÃ¡zel": 5149,
      "Ġvlta": 5150,
      "Ġpoliti": 5151,
      "ĠzlatÃ©m": 5152,
      "ĠobliÄįej": 5153,
      "ĠÄįÃŃst": 5154,
      "ĠodpoÄįi": 5155,
      "ĠprvnÃŃm": 5156,
      "Ġjezd": 5157,
      "ĠzeleÅĪ": 5158,
      "ĠlÅ¾i": 5159,
      "ĠnutÃŃ": 5160,
      "ĠodpovÄĽÄı": 5161,
      "ĠtrpÄĽ": 5162,
      "Ġproudu": 5163,
      "Ġpokud": 5164,
      "pala": 5165,
      "Ġrtem": 5166,
      "ĠpÄĽje": 5167,
      "ĠsnÃŃt": 5168,
      "Ġzbyl": 5169,
      "ĠlÃ¡m": 5170,
      "ĠryzÃŃ": 5171,
      "ĠpolÃŃch": 5172,
      "Ġnaposledy": 5173,
      "nkem": 5174,
      "Ġbub": 5175,
      "ĠÄįerv": 5176,
      "Ġkams": 5177,
      "ĠhnÄĽvem": 5178,
      "Å¾ela": 5179,
      "Ġhlahol": 5180,
      "vilo": 5181,
      "Ġabys": 5182,
      "Ġrady": 5183,
      "Ġslzami": 5184,
      "tkÅ¯": 5185,
      "Ġsladko": 5186,
      "Ġzakle": 5187,
      "ĠhospodÃ¡": 5188,
      "ĠhÅĻÃ¡": 5189,
      "Ġzad": 5190,
      "ĠdÄĽd": 5191,
      "ĠdneÅ¡nÃŃ": 5192,
      "ĠdvojÃŃ": 5193,
      "ily": 5194,
      "Ġjihu": 5195,
      "Ġvojska": 5196,
      "Ġvzpomen": 5197,
      "Ġsvr": 5198,
      "ĠtlaÄįÃŃ": 5199,
      "sili": 5200,
      "ĠpÅĻemo": 5201,
      "ĠvÄĽtrÅ¯": 5202,
      "ĠlÃŃba": 5203,
      "Ġuzav": 5204,
      "Ġmist": 5205,
      "ĠnÃ¡mÄĽ": 5206,
      "ĠzpÄĽvem": 5207,
      "ÅĻilo": 5208,
      "ĠskÃ½ch": 5209,
      "Ġkudy": 5210,
      "ĠtrpÃŃ": 5211,
      "ĠbÃŃlÃ©m": 5212,
      "Ġminulosti": 5213,
      "Ġzvad": 5214,
      "ĠnedÄĽ": 5215,
      "Ġroztr": 5216,
      "Ġklasy": 5217,
      "dro": 5218,
      "Ġlicho": 5219,
      "Ġdejte": 5220,
      "ĠtichÃ½m": 5221,
      "Ġzkvet": 5222,
      "Ġhluboko": 5223,
      "Ġzahrad": 5224,
      "Ġulic": 5225,
      "Ġrozlou": 5226,
      "buje": 5227,
      "try": 5228,
      "ĠpapÃŃ": 5229,
      "Å¾ko": 5230,
      "ĠpÅĻÃŃk": 5231,
      "ĠmusÃŃÅ¡": 5232,
      "Ġhrdlo": 5233,
      "Ġkot": 5234,
      "ĠsvÄĽtlu": 5235,
      "ĠkÅĻÃŃdlo": 5236,
      "sklo": 5237,
      "snÃ¡": 5238,
      "ĠÅ¡er": 5239,
      "Ġmnohou": 5240,
      "Ġmarno": 5241,
      "ĠupÅĻÃŃm": 5242,
      "ĠXXXAXA": 5243,
      "Å¾enou": 5244,
      "Ġnat": 5245,
      "Ġudi": 5246,
      "Ġjasu": 5247,
      "Ġzast": 5248,
      "Ġokno": 5249,
      "ĠkrvavÃ©": 5250,
      "ĠzvlÃ¡Å¡t": 5251,
      "ĠnejvÄĽtÅ¡ÃŃ": 5252,
      "Ġmohy": 5253,
      "Ġhlado": 5254,
      "ĠvzkÅĻÃŃ": 5255,
      "ĠtesknÄĽ": 5256,
      "ĠtkÃ¡": 5257,
      "Ġlibo": 5258,
      "Ġbozi": 5259,
      "Ġnesu": 5260,
      "ĠkrÃ¡snÃ½ch": 5261,
      "ĠÄįÃŃÅ¡i": 5262,
      "ĠspÃ¡sy": 5263,
      "ĠtratÃŃ": 5264,
      "ĠmraÄįna": 5265,
      "Ġrtu": 5266,
      "ĠÄįiny": 5267,
      "Ġkolena": 5268,
      "ĠtmÃŃ": 5269,
      "ĠzvÃ¡": 5270,
      "ĠjmÃ©na": 5271,
      "die": 5272,
      "jo": 5273,
      "Ġsal": 5274,
      "Ġochra": 5275,
      "Ġsestry": 5276,
      "ĠzÃ¡mku": 5277,
      "ĠzvÃŃtÄĽ": 5278,
      "ĠvÄĽÅ¡t": 5279,
      "ĠXABAB": 5280,
      "sech": 5281,
      "Ġbudoucnost": 5282,
      "ĠnevÃ½": 5283,
      "ĠÅ¡o": 5284,
      "ĠrozkoÅ¡ÃŃ": 5285,
      "Ġbalva": 5286,
      "ĠoltÃ¡ÅĻ": 5287,
      "ĠmyÅ¡lenek": 5288,
      "ĠmoÅĻÃŃ": 5289,
      "ĠlÃŃst": 5290,
      "Ġsvitu": 5291,
      "Ġvolnost": 5292,
      "Ġrosou": 5293,
      "Ġproko": 5294,
      "ĠspatÅĻil": 5295,
      "lenou": 5296,
      "ĠdÃ©man": 5297,
      "ĠkÅĻesÅ¥a": 5298,
      "dÃ¡Å¡": 5299,
      "chala": 5300,
      "ĠnechaÅ¥": 5301,
      "menÄĽ": 5302,
      "ĠblÃ½skÃ¡": 5303,
      "ĠzÃ¡me": 5304,
      "Å¾enÃ¡": 5305,
      "ĠsmÃ¡t": 5306,
      "ĠkolÃ©": 5307,
      "ĠstÄĽn": 5308,
      "ĠtÃ³n": 5309,
      "Ġplen": 5310,
      "Ġlal": 5311,
      "Ġher": 5312,
      "ĠopÃ¡": 5313,
      "ĠtvrdÃ©": 5314,
      "ĠkterÃ©m": 5315,
      "ckÃ½m": 5316,
      "ĠzaznÄĽ": 5317,
      "vedla": 5318,
      "ĠpÅĻÃŃzrak": 5319,
      "bej": 5320,
      "pis": 5321,
      "ĠveÄįernÃŃ": 5322,
      "Ġsnadno": 5323,
      "Ġgi": 5324,
      "Ġjiskra": 5325,
      "ĠzÃ¡zra": 5326,
      "ĠÃºdy": 5327,
      "Ġpohr": 5328,
      "Ġknih": 5329,
      "ĠnnÃ¡": 5330,
      "ĠmÄĽlo": 5331,
      "Ġvrh": 5332,
      "ĠsleÄį": 5333,
      "ĠjÃ¡sot": 5334,
      "Ġhni": 5335,
      "Ġniv": 5336,
      "Ġpokro": 5337,
      "lat": 5338,
      "Ġspjat": 5339,
      "Ġstrachem": 5340,
      "Ġmatkou": 5341,
      "Ġbytost": 5342,
      "bky": 5343,
      "ĠpenÄĽ": 5344,
      "ĠokÃ©": 5345,
      "ĠzvlÃ¡Å¡Å¥": 5346,
      "Å¾te": 5347,
      "ĠprostÃ½": 5348,
      "ĠvÄĽtÅĻÃŃk": 5349,
      "Ġvzty": 5350,
      "Ġdechu": 5351,
      "rovnÃ¡": 5352,
      "Ġbyste": 5353,
      "ĠspÄĽje": 5354,
      "ĠprÅ¯vod": 5355,
      "ĠnÃ©st": 5356,
      "Ġpova": 5357,
      "ĠrdÃŃ": 5358,
      "Ġdoz": 5359,
      "ĠnÄĽl": 5360,
      "ĠzÃ¡ba": 5361,
      "ĠÅ¡era": 5362,
      "Ġmrz": 5363,
      "ĠjÃŃch": 5364,
      "Ġbes": 5365,
      "Ġlidstvu": 5366,
      "Ġ21": 5367,
      "Ġneh": 5368,
      "tost": 5369,
      "ĠpÄĽÅ¡i": 5370,
      "mnÄĽl": 5371,
      "ĠÅ¡aty": 5372,
      "Ġaneb": 5373,
      "nika": 5374,
      "Ġgeni": 5375,
      "Ġjist": 5376,
      "Ġlau": 5377,
      "ĠkvÃ©st": 5378,
      "vinu": 5379,
      "ĠzavÃŃ": 5380,
      "ĠÅ¡en": 5381,
      "Ġvlnou": 5382,
      "dÄĽte": 5383,
      "Ġtur": 5384,
      "Ġskrom": 5385,
      "chovÃ©": 5386,
      "ĠjejÃŃÅ¾": 5387,
      "Ġopusti": 5388,
      "ĠhnÃŃzda": 5389,
      "ĠÅ¡vi": 5390,
      "Ġruchu": 5391,
      "ĠhlubokÃ©": 5392,
      "ĠjimiÅ¾": 5393,
      "ĠsvÄĽtle": 5394,
      "ĠkrutÃ½": 5395,
      "ĠÅ¾houcÃŃ": 5396,
      "ĠpoÅ¡": 5397,
      "ĠÄįechÃ¡ch": 5398,
      "ĠzÃ¡hu": 5399,
      "ĠusmÄĽ": 5400,
      "ĠkÅĻesÅ¥an": 5401,
      "Ġkoni": 5402,
      "ĠspÅĻÃ¡": 5403,
      "ĠzpÅ¯so": 5404,
      "Ġmlh": 5405,
      "ĠsÃ¡h": 5406,
      "ĠstrÃ¡ni": 5407,
      "Ġneob": 5408,
      "Å¾uje": 5409,
      "vÃŃÅ¡": 5410,
      "dlÃ©": 5411,
      "ĠzbÄĽ": 5412,
      "mÃ¡n": 5413,
      "stala": 5414,
      "ĠstrojÃŃ": 5415,
      "Ġtiskne": 5416,
      "Ġleda": 5417,
      "Ġvedla": 5418,
      "ĠzÃ¡Å¡tÃŃ": 5419,
      "ĠskrÃ¡ni": 5420,
      "stoupil": 5421,
      "lilo": 5422,
      "nouc": 5423,
      "diti": 5424,
      "ĠjÃŃz": 5425,
      "ĠhÅ¯l": 5426,
      "Ġdoj": 5427,
      "Ġkrbu": 5428,
      "Ġmelo": 5429,
      "Ġknihu": 5430,
      "Ġtok": 5431,
      "ĠboÅ¾skÃ©": 5432,
      "ĠpÅĻiÅ¡lo": 5433,
      "ĠkaÅ¾dÃ©ho": 5434,
      "ĠvyÅ¡Å¡ÃŃ": 5435,
      "ĠzaplÃ¡": 5436,
      "Ġranou": 5437,
      "Ġsouzvu": 5438,
      "Äįilo": 5439,
      "Ġvedl": 5440,
      "Ġzru": 5441,
      "Ġvidi": 5442,
      "ĠposvÃ¡t": 5443,
      "cemi": 5444,
      "ĠdivnÃ¡": 5445,
      "Ġpolem": 5446,
      "ĠpÅĻedsta": 5447,
      "ĠzÅĻÃŃti": 5448,
      "ĠaniÅ¾": 5449,
      "Ġpor": 5450,
      "ie": 5451,
      "zÅ¯": 5452,
      "ĠveÅ¡el": 5453,
      "Ġondy": 5454,
      "ĠstraÅ¡li": 5455,
      "ĠzmizÃŃ": 5456,
      "ĠplatÃŃ": 5457,
      "Ġtaje": 5458,
      "ĠlÃ¡kÃ¡": 5459,
      "Ġhrot": 5460,
      "moc": 5461,
      "dno": 5462,
      "ĠudÄĽ": 5463,
      "Ġpravou": 5464,
      "ĠtÅĻikrÃ¡t": 5465,
      "stÅĻÃŃ": 5466,
      "Ġpovy": 5467,
      "Ġsoudu": 5468,
      "Ġotcem": 5469,
      "lnÃ©": 5470,
      "Ġkdosi": 5471,
      "ĠzbÃ½vÃ¡": 5472,
      "ĠhovoÅĻÃŃ": 5473,
      "Ġsnou": 5474,
      "Ġharmo": 5475,
      "Ġpluje": 5476,
      "Ġsky": 5477,
      "ĠÅ¾ele": 5478,
      "vete": 5479,
      "ĠkrokÅ¯": 5480,
      "Å¾u": 5481,
      "Ġnos": 5482,
      "Ġodda": 5483,
      "Ġspasi": 5484,
      "ĠnepÅĻÃŃtel": 5485,
      "Ġbzu": 5486,
      "Ġjaksi": 5487,
      "ĠdÃŃla": 5488,
      "ABXB": 5489,
      "Ġsvate": 5490,
      "Ġkrov": 5491,
      "ĠsmÄĽsi": 5492,
      "Ġroucho": 5493,
      "Ġkme": 5494,
      "vobo": 5495,
      "Ġmih": 5496,
      "Ġdeset": 5497,
      "Å¾et": 5498,
      "ĠÄįarodÄĽj": 5499,
      "ĠnnÄĽ": 5500,
      "Ġtlou": 5501,
      "Ġkoli": 5502,
      "Ġniko": 5503,
      "ĠnadÄĽji": 5504,
      "ĠproudÃŃ": 5505,
      "ĠkÅĻiÅ¡Å¥": 5506,
      "ĠbÄĽla": 5507,
      "ĠuÄįÃŃ": 5508,
      "ĠnebesÅ¯m": 5509,
      "Ġdruha": 5510,
      "Ġhvoz": 5511,
      "Ġsmy": 5512,
      "Ġmohlo": 5513,
      "Ġmsti": 5514,
      "Ġoby": 5515,
      "ĠsahÃ¡": 5516,
      "vostÃŃ": 5517,
      "tÄĽjÅ¡ÃŃ": 5518,
      "ĠÅ¡ÃŃÅĻÃŃ": 5519,
      "ĠpÄĽknÃ©": 5520,
      "ĠhlÃ¡sÃ¡": 5521,
      "ĠjunÃ¡": 5522,
      "ĠmodrÃ½ch": 5523,
      "ĠkÅĻÃŃÅ¾em": 5524,
      "ĠÄıÃ¡b": 5525,
      "Ġvece": 5526,
      "Ã¡Å¡": 5527,
      "Ġpraco": 5528,
      "ĠnÃ¡roda": 5529,
      "ĠpÅĻÃŃtom": 5530,
      "vÅ¡i": 5531,
      "ĠvÃ©vo": 5532,
      "ĠpyÅ¡nÄĽ": 5533,
      "ĠslyÅ¡te": 5534,
      "Ġonu": 5535,
      "Ġnepla": 5536,
      "bÅ¯h": 5537,
      "nkÃ¡ch": 5538,
      "Ġblud": 5539,
      "rvÃ¡": 5540,
      "Ġvni": 5541,
      "ĠkovÃ¡": 5542,
      "ĠbÃŃlÃ½m": 5543,
      "Ġslze": 5544,
      "Ġdoktor": 5545,
      "Ġkan": 5546,
      "ĠostatnÃŃ": 5547,
      "lenÃ½ch": 5548,
      "dÄĽly": 5549,
      "Ġhlubiny": 5550,
      "qu": 5551,
      "Ġproh": 5552,
      "ĠodvÄĽ": 5553,
      "ĠpohÅĻe": 5554,
      "Ġbudoucnosti": 5555,
      "Ġdvak": 5556,
      "Ġkul": 5557,
      "Ġdary": 5558,
      "ĠdrtÃŃ": 5559,
      "Ġpruh": 5560,
      "ĠznÄĽlo": 5561,
      "Ġpovr": 5562,
      "ĠletÄĽl": 5563,
      "bor": 5564,
      "ĠstaÅĻÃŃ": 5565,
      "ĠpÅĻÃ¡telÃ©": 5566,
      "Ġfau": 5567,
      "ĠXABABX": 5568,
      "ĠkÃ¡zal": 5569,
      "Ġblesku": 5570,
      "snou": 5571,
      "ĠronÃŃ": 5572,
      "Ġotco": 5573,
      "ĠnecÃŃ": 5574,
      "ĠpÃŃlÃŃ": 5575,
      "ĠblahÃ©": 5576,
      "ĠpÅĻijdou": 5577,
      "ĠÅ¾ez": 5578,
      "Ġpodve": 5579,
      "ĠlÃŃm": 5580,
      "chodu": 5581,
      "Ġhudby": 5582,
      "ĠtÅĻÃ¡": 5583,
      "Å¡kou": 5584,
      "ron": 5585,
      "Ġopi": 5586,
      "ĠhroznÃ¡": 5587,
      "ĠhrdÃ½": 5588,
      "tÃ©m": 5589,
      "Ġnnou": 5590,
      "ĠtÄĽÅ¾kÃ½ch": 5591,
      "ĠstrÃ¡nÃŃ": 5592,
      "ĠplÃ¡ni": 5593,
      "Ġblahem": 5594,
      "ĠchvÃŃlÃŃ": 5595,
      "Ġgu": 5596,
      "Ġtrav": 5597,
      "Ġkriti": 5598,
      "ĠlesÃŃch": 5599,
      "ĠnÄĽhy": 5600,
      "ĠÄįeskÃ½ch": 5601,
      "Å¡ÃŃÅ¡": 5602,
      "ĠÅ¾ili": 5603,
      "Ġsply": 5604,
      "ĠÅ¾ivoby": 5605,
      "bitÃŃ": 5606,
      "kouz": 5607,
      "Ġjasnou": 5608,
      "Ġzavz": 5609,
      "lÃ¡m": 5610,
      "skutku": 5611,
      "ĠupÃŃ": 5612,
      "Ġfra": 5613,
      "ĠkÅĻeh": 5614,
      "Ġbludi": 5615,
      "ber": 5616,
      "ĠbÄĽl": 5617,
      "Ġfor": 5618,
      "Ġdvacet": 5619,
      "Ġvskutku": 5620,
      "ĠÅ¾alem": 5621,
      "ĠvÅ¡ed": 5622,
      "Ġrozs": 5623,
      "ĠvonnÃ©": 5624,
      "ĠkypÃŃ": 5625,
      "Ġdruhou": 5626,
      "Ġpije": 5627,
      "Ġsedm": 5628,
      "chne": 5629,
      "Ġule": 5630,
      "ĠpuÄįÃŃ": 5631,
      "Ġulo": 5632,
      "Ġcud": 5633,
      "meÅĪ": 5634,
      "Ġvaz": 5635,
      "Ġcar": 5636,
      "Ġvinou": 5637,
      "ĠmlÃ¡de": 5638,
      "ĠbrÃ¡t": 5639,
      "Ġporu": 5640,
      "Ġhudbou": 5641,
      "ĠÅ¡irÃ©": 5642,
      "ĠkrÃ¡lovstvÃŃ": 5643,
      "Ġpaprsky": 5644,
      "Ġtanci": 5645,
      "rnÃ©m": 5646,
      "Å¾stvÃŃ": 5647,
      "Ġmilovat": 5648,
      "Ġlety": 5649,
      "ĠlÃ©to": 5650,
      "ĠpohÃ¡d": 5651,
      "ako": 5652,
      "ĠÅ¡Å¥astnÄĽ": 5653,
      "Ġzahrady": 5654,
      "ĠÅ¾alost": 5655,
      "vÃ©tÃ¡": 5656,
      "ĠozÃ¡": 5657,
      "ĠvzpomÃŃnky": 5658,
      "Ġvav": 5659,
      "ĠÄįtve": 5660,
      "ĠhlÃ©": 5661,
      "ĠnÄĽhoÅ¾": 5662,
      "Ġkouzla": 5663,
      "Ġnivy": 5664,
      "ĠzÃ¡vÄĽ": 5665,
      "Ġdcery": 5666,
      "Ġbem": 5667,
      "Ġlit": 5668,
      "Ġmohou": 5669,
      "ĠsÃŃtÄĽ": 5670,
      "Ġobloze": 5671,
      "Ġvzali": 5672,
      "Ġrakev": 5673,
      "Ġhasne": 5674,
      "ĠvzÃŃt": 5675,
      "Ġsvaty": 5676,
      "ĠzachvÄĽl": 5677,
      "ĠdÃ¡lnÃ©": 5678,
      "ĠvolnÃ½": 5679,
      "Ġdostal": 5680,
      "ĠÅ¾lutÃ©": 5681,
      "ĠjeÅ¾ÃŃ": 5682,
      "Ġlos": 5683,
      "ĠkrvÃ¡": 5684,
      "ĠslÃ¡vou": 5685,
      "ĠvÃŃnem": 5686,
      "ĠkrÃ¡tce": 5687,
      "ĠvÄĽÅĻit": 5688,
      "ĠspÃŃÅ¡e": 5689,
      "ĠkvÃŃtek": 5690,
      "ĠkrouÅ¾ÃŃ": 5691,
      "Ġejhle": 5692,
      "Å¾nÃ¡": 5693,
      "ĠÄįit": 5694,
      "ĠzlatÄĽ": 5695,
      "lin": 5696,
      "Ġkdybys": 5697,
      "ĠslednÃŃ": 5698,
      "Ġvzej": 5699,
      "ĠvÅ¡ecku": 5700,
      "ĠkalÃŃ": 5701,
      "Ġzoufa": 5702,
      "hor": 5703,
      "ĠmÄĽstem": 5704,
      "ĠznÄĽla": 5705,
      "ĠhbitÄĽ": 5706,
      "Ġzmu": 5707,
      "ĠuÄįen": 5708,
      "Ġledo": 5709,
      "ĠmdlÃ©": 5710,
      "Ġvina": 5711,
      "Ġsyny": 5712,
      "hej": 5713,
      "ĠodÅĻÃŃ": 5714,
      "ĠcizÃŃm": 5715,
      "vnÃŃk": 5716,
      "ĠneustÃ¡": 5717,
      "Ġulici": 5718,
      "chÃ¡m": 5719,
      "Ġpojednou": 5720,
      "Ġplody": 5721,
      "ĠtakÃ½": 5722,
      "ĠzoÅĻe": 5723,
      "Ġskrz": 5724,
      "ĠsvÄĽtlÃ½": 5725,
      "kova": 5726,
      "ĠkÅĻÃŃdly": 5727,
      "ĠhvÃŃ": 5728,
      "skÃ©mu": 5729,
      "ĠnÄĽkolik": 5730,
      "Ġbas": 5731,
      "ĠstÅĻÃ¡": 5732,
      "Ġuto": 5733,
      "ĠpÅĻedc": 5734,
      "prvÃ©": 5735,
      "ÅĻuje": 5736,
      "Ġpoku": 5737,
      "vÄĽti": 5738,
      "ĠnÃ¡ÅĻek": 5739,
      "Ġjarem": 5740,
      "ot": 5741,
      "ĠplÃ¡la": 5742,
      "ĠzÃ¡pal": 5743,
      "zenÃ©": 5744,
      "Ġsoudru": 5745,
      "vnÃ©": 5746,
      "ĠsnovÃ©": 5747,
      "Ġzbroj": 5748,
      "Ġpodob": 5749,
      "ĠostrÃ½": 5750,
      "ĠzalÃ©": 5751,
      "kalo": 5752,
      "Ġmudr": 5753,
      "Ġdych": 5754,
      "Ġjedinou": 5755,
      "ĠstÃ¡ly": 5756,
      "ĠchrÃ¡nÃŃ": 5757,
      "toval": 5758,
      "ĠpÅĻichÃ¡zÃŃ": 5759,
      "tuje": 5760,
      "Ġblahu": 5761,
      "ĠodpoÄįÃŃ": 5762,
      "ĠznÄĽly": 5763,
      "ĠrÃ¡ko": 5764,
      "ĠÃºna": 5765,
      "Ġhus": 5766,
      "Ġhust": 5767,
      "Ġzimy": 5768,
      "vÄĽla": 5769,
      "Ġpoupat": 5770,
      "stoup": 5771,
      "Ġdlani": 5772,
      "ĠnevÃŃÅ¡": 5773,
      "ÅĪÃ¡": 5774,
      "ĠpaÅĻÃŃ": 5775,
      "Ġokny": 5776,
      "ĠstrÃ¡nÄĽ": 5777,
      "ĠdÄĽtstvÃŃ": 5778,
      "zka": 5779,
      "rec": 5780,
      "ĠbÅĻehy": 5781,
      "Ġpostavy": 5782,
      "Ġsrde": 5783,
      "ajÃŃ": 5784,
      "Äįat": 5785,
      "ĠÅ¡pa": 5786,
      "ĠtÄĽÅ¾kÃ½m": 5787,
      "ĠvzplÃ¡l": 5788,
      "Ġlad": 5789,
      "Ġhouf": 5790,
      "Ġhrobem": 5791,
      "ĠzazpÃŃ": 5792,
      "Ġosi": 5793,
      "Ġnejlep": 5794,
      "Ġzlomen": 5795,
      "liti": 5796,
      "ĠÅ¾o": 5797,
      "Ġholou": 5798,
      "ĠvodnÃŃ": 5799,
      "ĠstranÄĽ": 5800,
      "Ġsmutnou": 5801,
      "ĠzÃ¡pla": 5802,
      "ĠzdrÃ¡va": 5803,
      "ĠzvukÅ¯": 5804,
      "ĠpoÅĻÃ¡d": 5805,
      "voval": 5806,
      "Ġpravdou": 5807,
      "ĠosvÄĽ": 5808,
      "Ġfilo": 5809,
      "Ġsep": 5810,
      "ĠnenadÃ¡": 5811,
      "Ġzhu": 5812,
      "Ġben": 5813,
      "Ġlec": 5814,
      "ĠlaÅĪ": 5815,
      "ĠhÅĻÃŃÅ¡": 5816,
      "ĠhvÄĽzdami": 5817,
      "ĠpodÄĽ": 5818,
      "nÄĽla": 5819,
      "ĠtouÅ¾il": 5820,
      "ĠtemnÃ½ch": 5821,
      "ĠhÅĻÃŃchy": 5822,
      "jala": 5823,
      "Ġnebyla": 5824,
      "lnÃ½": 5825,
      "vÃ¡me": 5826,
      "lice": 5827,
      "ĠvyÅ¡e": 5828,
      "ĠlÃŃtÃ¡": 5829,
      "ÄįÃŃch": 5830,
      "ĠbÃŃdnÃ½": 5831,
      "Å¾emi": 5832,
      "Ġmok": 5833,
      "Ġpusto": 5834,
      "ĠzmÃ¡m": 5835,
      "ĠkolÃŃ": 5836,
      "Ġozval": 5837,
      "Ġsklonil": 5838,
      "ĠrtÅ¯m": 5839,
      "vujÃŃ": 5840,
      "ster": 5841,
      "ĠÅĻadu": 5842,
      "ĠÅ¡ÃŃje": 5843,
      "Ġlidskou": 5844,
      "ĠmaÄı": 5845,
      "Äįily": 5846,
      "ĠÅ¾eÅĪ": 5847,
      "Ġhromu": 5848,
      "ĠzimÄĽ": 5849,
      "Ġramena": 5850,
      "ĠÅ¾ivobytÃŃ": 5851,
      "ĠoÄįka": 5852,
      "jela": 5853,
      "voj": 5854,
      "Ġvypla": 5855,
      "Ġpokoje": 5856,
      "ĠmyÅ¡lenka": 5857,
      "Ġzara": 5858,
      "ĠuvÄĽ": 5859,
      "Ġvzrost": 5860,
      "ĠdivÃ©m": 5861,
      "ĠslÃ½ch": 5862,
      "ĠXABBA": 5863,
      "Å¾iti": 5864,
      "ĠtajnÃ©": 5865,
      "ĠchvÄĽnÃŃ": 5866,
      "ĠprospÄĽ": 5867,
      "ĠmlÃ½n": 5868,
      "Ġrety": 5869,
      "Ġpohro": 5870,
      "Ġvlasten": 5871,
      "ĠskÃ¡Äįe": 5872,
      "Ġbly": 5873,
      "ĠÄįen": 5874,
      "Ġfo": 5875,
      "ÅĻenou": 5876,
      "Ġsedmi": 5877,
      "Ġsuk": 5878,
      "Ġnekli": 5879,
      "Ġzato": 5880,
      "ĠpestrÃ©": 5881,
      "ĠmraÄįen": 5882,
      "ĠzahradÄĽ": 5883,
      "kru": 5884,
      "Ġrozv": 5885,
      "ĠdÃŃvku": 5886,
      "ĠpilnÄĽ": 5887,
      "Ġvte": 5888,
      "Ġat": 5889,
      "Ġnapad": 5890,
      "ÅĪal": 5891,
      "ĠÅ¾ivÃ¡": 5892,
      "ĠutrpenÃŃ": 5893,
      "ĠsnivÃ©": 5894,
      "Ġvzhled": 5895,
      "Ġkvil": 5896,
      "ĠkÅ¡ti": 5897,
      "ĠÅ¡ÃŃlen": 5898,
      "nkÃ¡": 5899,
      "Ġocho": 5900,
      "Äįeji": 5901,
      "ĠÅ¾ila": 5902,
      "Ġstarce": 5903,
      "ĠumÄĽl": 5904,
      "Äįinu": 5905,
      "Ġoj": 5906,
      "Ġkres": 5907,
      "ĠpÅĻÃŃsta": 5908,
      "ĠzimnÃŃ": 5909,
      "Ġprsten": 5910,
      "Ġskryl": 5911,
      "Ġnejsi": 5912,
      "ĠdÅ¯stoj": 5913,
      "natÃ©": 5914,
      "nÃ¡ÅĻ": 5915,
      "Ġrato": 5916,
      "ĠlhÃ¡": 5917,
      "ĠotrÃ¡": 5918,
      "venÃŃ": 5919,
      "ĠubohÃ©": 5920,
      "gy": 5921,
      "desÃ¡": 5922,
      "ĠtuÅ¡ÃŃm": 5923,
      "kr": 5924,
      "tÃŃÅ¡": 5925,
      "ĠhrobÅ¯": 5926,
      "Ġbloudil": 5927,
      "ĠzdvihÃ¡": 5928,
      "Ġjisto": 5929,
      "mÄĽla": 5930,
      "Ġsvojich": 5931,
      "vedl": 5932,
      "ĠfarÃ¡": 5933,
      "ĠvÃ½chodu": 5934,
      "Å¾nou": 5935,
      "Ġpopra": 5936,
      "ĠsklÃŃ": 5937,
      "trem": 5938,
      "ĠsÃŃc": 5939,
      "Ġpomsty": 5940,
      "ĠholÃ©": 5941,
      "ĠchvÃ¡tÃ¡": 5942,
      "ĠvnÄĽm": 5943,
      "Ġpre": 5944,
      "ĠstkvÃŃ": 5945,
      "ĠpÅ¯dy": 5946,
      "ĠkoÄįÃ¡": 5947,
      "Ġplny": 5948,
      "Ġchaty": 5949,
      "cek": 5950,
      "ĠzÃ¡ho": 5951,
      "ĠsnÄĽhem": 5952,
      "Ġtly": 5953,
      "Ġjesen": 5954,
      "Ġkyti": 5955,
      "Ġryt": 5956,
      "Ġrozmil": 5957,
      "Ġjih": 5958,
      "ĠstÃ¡lo": 5959,
      "ĠpustÃ½": 5960,
      "ĠjitÅĻ": 5961,
      "rÃ¡Å¾ÃŃ": 5962,
      "ĠuÅ¡i": 5963,
      "Ġjsouc": 5964,
      "ĠotvÃŃ": 5965,
      "blesk": 5966,
      "sud": 5967,
      "ĠoÄį": 5968,
      "Ġhodin": 5969,
      "Ġpokra": 5970,
      "ĠoblÃ¡": 5971,
      "ĠzÃ¡stu": 5972,
      "Ġpavu": 5973,
      "Ġzkad": 5974,
      "ĠschÃ¡zÃŃ": 5975,
      "Ġblankytu": 5976,
      "Å¡lÃŃ": 5977,
      "ĠzÃ¡Å¡Å¥": 5978,
      "ĠpÃ¡dÃŃ": 5979,
      "prch": 5980,
      "Ġstrun": 5981,
      "vanou": 5982,
      "Ġvych": 5983,
      "ĠskÅĻivan": 5984,
      "ĠssÃ¡": 5985,
      "ĠÅ¡ele": 5986,
      "Ġbezna": 5987,
      "vÃŃme": 5988,
      "ĠmocnÃ©": 5989,
      "ĠznÃ¡mÃ©": 5990,
      "Ġah": 5991,
      "Ġrce": 5992,
      "ĠkmitÃ¡": 5993,
      "ĠzamyÅ¡": 5994,
      "Ġad": 5995,
      "vanÃ¡": 5996,
      "tajen": 5997,
      "ĠpÃŃti": 5998,
      "ĠmlÄįenÃŃ": 5999,
      "Ġoblaky": 6000,
      "volu": 6001,
      "Ġpozdvi": 6002,
      "ĠlistÅ¯": 6003,
      "ĠvlastnÄĽ": 6004,
      "ĠstudÃ¡": 6005,
      "ĠdÃ©le": 6006,
      "Ġdopro": 6007,
      "ĠpÅĻÃŃsnÄĽ": 6008,
      "Ġston": 6009,
      "stÃ¡nÃŃ": 6010,
      "lÃŃcÃŃ": 6011,
      "Ġsiro": 6012,
      "ĠÅĻÃŃc": 6013,
      "Ġposlal": 6014,
      "cenÃ¡": 6015,
      "ĠhouÅ¡tÃŃ": 6016,
      "ĠmÅĻÃŃt": 6017,
      "roval": 6018,
      "Ġpud": 6019,
      "ĠutÄĽ": 6020,
      "ĠhoÅ¡i": 6021,
      "ĠÅ¡epce": 6022,
      "ĠprÃ¡zdnÃ©": 6023,
      "ĠpodzimnÃŃ": 6024,
      "Ġnehy": 6025,
      "ĠsadÄĽ": 6026,
      "ĠvlastnÃŃm": 6027,
      "ĠrozlÃŃ": 6028,
      "ĠknÄĽÅ¾ÃŃ": 6029,
      "ĠzoufalstvÃŃ": 6030,
      "ĠvtÄĽ": 6031,
      "Ġoso": 6032,
      "dÃ½ch": 6033,
      "Ġuva": 6034,
      "Ġprcha": 6035,
      "Ġsmysly": 6036,
      "Ġhly": 6037,
      "ĠptÃ¡ka": 6038,
      "ĠsvÃŃtil": 6039,
      "Ġleto": 6040,
      "ĠmÄĽstu": 6041,
      "ĠplnÃ½m": 6042,
      "ÅĻeli": 6043,
      "kynÄĽ": 6044,
      "ĠnapÅĻed": 6045,
      "ĠoltÃ¡ÅĻi": 6046,
      "ĠÃºkol": 6047,
      "Ġmrav": 6048,
      "vÄĽjÅ¡ÃŃ": 6049,
      "nÃ¡n": 6050,
      "hlas": 6051,
      "ĠkamenÃŃ": 6052,
      "Ġskro": 6053,
      "byl": 6054,
      "ĠtakovÃ©": 6055,
      "Ġprok": 6056,
      "ĠnÃ¡bo": 6057,
      "ĠobjÃŃm": 6058,
      "Ġhli": 6059,
      "Ġrukama": 6060,
      "ĠvysokÃ©": 6061,
      "deÅĪ": 6062,
      "Ġhoru": 6063,
      "Ġih": 6064,
      "ĠstÃŃhÃ¡": 6065,
      "ĠstarÃ©m": 6066,
      "vily": 6067,
      "nÄĽjÅ¡ÃŃch": 6068,
      "Ġvesel": 6069,
      "ĠÅ¡lehÃ¡": 6070,
      "ĠteÄįe": 6071,
      "ĠvÄĽÄįnÃ½ch": 6072,
      "taly": 6073,
      "ĠonÄĽch": 6074,
      "ĠrtÃŃ": 6075,
      "ĠhlubokÃ½": 6076,
      "ary": 6077,
      "Ġluhy": 6078,
      "ĠmilÃŃ": 6079,
      "ĠpÅ¯lnoc": 6080,
      "ĠvichÅĻice": 6081,
      "ĠzvlÃ¡Å¡tnÃŃ": 6082,
      "Ġdojem": 6083,
      "ĠÅ¡edÃ¡": 6084,
      "Ġjedem": 6085,
      "ĠskÃ¡lu": 6086,
      "Ġpoledne": 6087,
      "bled": 6088,
      "chat": 6089,
      "hlÃ©d": 6090,
      "ĠhÅĻÃŃchÅ¯": 6091,
      "Ġprince": 6092,
      "ĠhedvÃ¡": 6093,
      "ĠvavÅĻÃŃ": 6094,
      "Å¾nÃ½ch": 6095,
      "sej": 6096,
      "Ġnejde": 6097,
      "Ġpluh": 6098,
      "ĠsrÃ¡z": 6099,
      "Ġsatan": 6100,
      "Ġovoce": 6101,
      "letÄĽl": 6102,
      "ĠvidÄĽla": 6103,
      "ĠbÄĽlo": 6104,
      "ĠlÃ©ka": 6105,
      "ĠvesmÃŃr": 6106,
      "ĠdÄĽsnÃ½": 6107,
      "Ġzpup": 6108,
      "vka": 6109,
      "titi": 6110,
      "Ġrol": 6111,
      "Ġodlesk": 6112,
      "ĠmyÅ¡lÃ©nka": 6113,
      "ĠÄįervÃ¡nkÅ¯": 6114,
      "ĠpÅĻekva": 6115,
      "ĠbleskÅ¯": 6116,
      "ĠAAXBBX": 6117,
      "ĠprvÃ½": 6118,
      "Ġsoko": 6119,
      "ĠbohatÃ½r": 6120,
      "Ġseveru": 6121,
      "Ġjedovat": 6122,
      "Ġhubi": 6123,
      "ĠchceÅ¡li": 6124,
      "Ġbalvan": 6125,
      "Ġihned": 6126,
      "ĠnelÃŃ": 6127,
      "ĠplÃ¡ly": 6128,
      "ĠslabÃ©": 6129,
      "Ġloupe": 6130,
      "ĠnÃ¡v": 6131,
      "ĠobjÃŃmÃ¡": 6132,
      "ĠpÃ¡ny": 6133,
      "ĠideÃ¡": 6134,
      "Ġpoha": 6135,
      "dosti": 6136,
      "Ġmlze": 6137,
      "ĠnaÅ¡eho": 6138,
      "ĠzmÃŃtÃ¡": 6139,
      "Ġtvar": 6140,
      "ĠnÅ¯Å¾": 6141,
      "Ġmladist": 6142,
      "ÅĻeje": 6143,
      "Ġvzbou": 6144,
      "pÃŃÅ¡": 6145,
      "Ġskok": 6146,
      "ĠchtÄĽjÃŃ": 6147,
      "ĠpÅĻemÃ½": 6148,
      "Ġchceme": 6149,
      "ĠptÃ¡m": 6150,
      "nÃ©sti": 6151,
      "ĠÅ¡tva": 6152,
      "ĠÅĻÃŃma": 6153,
      "Ġrysy": 6154,
      "ĠneznÃ¡mÃ½": 6155,
      "ĠÅĻen": 6156,
      "Ġslab": 6157,
      "Ġlibu": 6158,
      "Å¡tÄĽnÃŃ": 6159,
      "ĠzboÅ¾nÄĽ": 6160,
      "Ġvzdoru": 6161,
      "ĠmyÅ¡lÃ©nek": 6162,
      "ĠdvakrÃ¡t": 6163,
      "ĠburÃ¡": 6164,
      "ĠslastÃŃ": 6165,
      "Ġratole": 6166,
      "ptÃ¡": 6167,
      "ĠpÃ¡ry": 6168,
      "Ġzticha": 6169,
      "ĠhoÅĻi": 6170,
      "nÃ¡c": 6171,
      "ĠdÄĽsÃŃ": 6172,
      "ĠchrÃ¡my": 6173,
      "Ġpaprs": 6174,
      "ĠuvÃŃ": 6175,
      "ĠÅ¡erem": 6176,
      "Ġjisker": 6177,
      "ĠhladÃŃ": 6178,
      "ĠÅ¡et": 6179,
      "ĠdruzÃŃ": 6180,
      "ĠsvatÃ©m": 6181,
      "ĠbÃ©ÅĻe": 6182,
      "Ġoct": 6183,
      "Ġdomy": 6184,
      "ÄįekÃ¡": 6185,
      "ĠpomÃ¡": 6186,
      "ĠpÅĻÃŃklad": 6187,
      "ĠretÅ¯": 6188,
      "vracÃŃ": 6189,
      "ĠdÃ¡my": 6190,
      "Ġulice": 6191,
      "ĠvzpomÃŃnek": 6192,
      "Ġshlu": 6193,
      "Ġnohu": 6194,
      "Ġnechte": 6195,
      "Ġmoudrosti": 6196,
      "Ġjil": 6197,
      "Ġkej": 6198,
      "Ġsestra": 6199,
      "ABX": 6200,
      "ĠhÅĻbitov": 6201,
      "Ġsval": 6202,
      "ĠpÅĻesvÄĽd": 6203,
      "Ġvypl": 6204,
      "Ġchech": 6205,
      "ĠtÅĻesk": 6206,
      "ĠpohÃ¡dky": 6207,
      "ĠnÄĽmÃ¡": 6208,
      "rouh": 6209,
      "ĠhledÃ¡m": 6210,
      "ĠsklÃ¡dÃ¡": 6211,
      "ĠmÅ¾ikem": 6212,
      "jou": 6213,
      "ĠseÄį": 6214,
      "ĠzelenÃ½": 6215,
      "ĠperutÄĽ": 6216,
      "tiv": 6217,
      "Ġpraha": 6218,
      "Ġlidmi": 6219,
      "ĠbujnÃ©": 6220,
      "tÃ½m": 6221,
      "ĠtmÃ¡m": 6222,
      "Ġlov": 6223,
      "ĠlodÃŃ": 6224,
      "rÃ¡nÃŃ": 6225,
      "ĠÅĻadou": 6226,
      "Ġprova": 6227,
      "ĠnohÃ¡m": 6228,
      "Ġoblou": 6229,
      "ĠbavÃŃ": 6230,
      "Ġumdle": 6231,
      "ÅĻiv": 6232,
      "ĠznÃ¡te": 6233,
      "Ġvezmi": 6234,
      "ĠpÅĻelud": 6235,
      "ĠchÅĻe": 6236,
      "Ġpuk": 6237,
      "Ġprostor": 6238,
      "Ġvno": 6239,
      "Ġpohan": 6240,
      "nÄĽly": 6241,
      "ĠzjevÃŃ": 6242,
      "Ġdmou": 6243,
      "Ġobrazy": 6244,
      "ĠpÃ½cha": 6245,
      "ĠzÃ¡dum": 6246,
      "ĠlÃŃstek": 6247,
      "ĠmÃŃhÃ¡": 6248,
      "ĠchtÄĽlo": 6249,
      "ĠÅ¾ilÃ¡ch": 6250,
      "ĠpoÅ¾Ã¡r": 6251,
      "nÄįÃŃ": 6252,
      "ĠjinÃ©ho": 6253,
      "Ġcig": 6254,
      "ĠnevidÄĽl": 6255,
      "ĠzdobÃŃ": 6256,
      "Ġzanech": 6257,
      "ĠÄįechy": 6258,
      "ĠÅ¡irÃ½": 6259,
      "ĠspÃ¡ti": 6260,
      "Ġklesl": 6261,
      "ĠpoÄįne": 6262,
      "raz": 6263,
      "Ġvza": 6264,
      "mÃŃvÃ¡": 6265,
      "ĠstÃ¡do": 6266,
      "stÃ¡ch": 6267,
      "ĠkaÅ¾dÃ©mu": 6268,
      "ĠvÃ¡lky": 6269,
      "Ã½t": 6270,
      "Ġoddech": 6271,
      "dlech": 6272,
      "ĠsnÃ¡Å¡ÃŃ": 6273,
      "ÅĻÃŃti": 6274,
      "ĠbodÃ¡": 6275,
      "ĠÄįekÃ¡m": 6276,
      "ĠrÅ¯znÃ©": 6277,
      "ĠXABBAX": 6278,
      "Å¾nÃŃ": 6279,
      "ĠsnÄĽm": 6280,
      "ĠvrÃ¡sky": 6281,
      "Ġminulost": 6282,
      "ĠtkvÃŃ": 6283,
      "ĠÅ¾iva": 6284,
      "ĠvÃ½kÅĻi": 6285,
      "Ġplakal": 6286,
      "gna": 6287,
      "mÄĽly": 6288,
      "tÃ¡ÅĻ": 6289,
      "ĠsrdÃ©": 6290,
      "ĠpÄĽsti": 6291,
      "vrt": 6292,
      "Ġvysko": 6293,
      "Ġohlas": 6294,
      "ĠlÃ¡me": 6295,
      "mus": 6296,
      "ĠruÄįky": 6297,
      "ĠÄįinu": 6298,
      "ĠÅ¡ÃŃj": 6299,
      "Ġplynou": 6300,
      "ĠzÃ¡dumÄįi": 6301,
      "Ġvlek": 6302,
      "ĠÅĻece": 6303,
      "ĠkoutÄĽ": 6304,
      "dÅĻÃŃ": 6305,
      "ÅĪu": 6306,
      "ĠpravÃŃm": 6307,
      "ĠnebeskÃ©": 6308,
      "ĠvrahÅ¯": 6309,
      "ĠchvÄĽlo": 6310,
      "Ġperla": 6311,
      "ĠtajemnÃ©": 6312,
      "Ġvnady": 6313,
      "Ġter": 6314,
      "Ġpamat": 6315,
      "ĠvteÅĻi": 6316,
      "zne": 6317,
      "ĠnÄĽÅ¾nÃ©": 6318,
      "Ġprs": 6319,
      "Ġzkla": 6320,
      "ĠzlÃ½m": 6321,
      "Ġnejdra": 6322,
      "ĠrÅ¯znÃ½ch": 6323,
      "ĠmateÅĻ": 6324,
      "hni": 6325,
      "Ġpocit": 6326,
      "ĠzaÄįÃŃ": 6327,
      "ĠchvÄĽj": 6328,
      "mÃŃra": 6329,
      "Ġhromo": 6330,
      "ĠvlÃ¡dy": 6331,
      "ĠskalÃ¡ch": 6332,
      "Ġzbylo": 6333,
      "ĠÅ¾ebrÃ¡k": 6334,
      "Ġpoklady": 6335,
      "ĠÅ¾ÃŃzni": 6336,
      "ĠkouÅĻ": 6337,
      "ĠhlasÅ¯": 6338,
      "slov": 6339,
      "Ġvyho": 6340,
      "ĠnÄĽmÃ©": 6341,
      "ĠradosÅ¥": 6342,
      "Ġneje": 6343,
      "Äįeli": 6344,
      "ĠpÃ¡nÅ¯": 6345,
      "sni": 6346,
      "ÄįkÃ½": 6347,
      "zit": 6348,
      "ĠuhlÃŃ": 6349,
      "ĠÄįlovÄĽkem": 6350,
      "Ġnepoko": 6351,
      "Ġmraku": 6352,
      "ĠpevnÃ½": 6353,
      "ĠchtÃŃt": 6354,
      "ĠproklÃŃ": 6355,
      "ĠboÅĻÃŃ": 6356,
      "ĠvÃŃÄįka": 6357,
      "ĠbÄĽhu": 6358,
      "pÄĽv": 6359,
      "Ġmladost": 6360,
      "ĠmajestÃ¡": 6361,
      "Å¾at": 6362,
      "ĠdÄĽtin": 6363,
      "Ġtrium": 6364,
      "ĠposvÃ¡": 6365,
      "ĠvÅ¡echna": 6366,
      "ĠblaÅ¾ÃŃ": 6367,
      "ĠmrtvÃŃ": 6368,
      "Ġdovo": 6369,
      "ĠvylÃŃ": 6370,
      "ĠkacÃŃ": 6371,
      "ĠsvatÃ©ho": 6372,
      "Ġstup": 6373,
      "Ġhrdla": 6374,
      "ĠpÃ½Å¡e": 6375,
      "ĠdnovÃ©": 6376,
      "Äįuje": 6377,
      "ĠpoprvÃ©": 6378,
      "ĠmistÅĻe": 6379,
      "Äįely": 6380,
      "ÅĻeny": 6381,
      "Ġvesna": 6382,
      "Å¡til": 6383,
      "Ġvysta": 6384,
      "ĠpouhÃ©": 6385,
      "ĠposmÄĽch": 6386,
      "rali": 6387,
      "ĠshÃ½": 6388,
      "Ġzaji": 6389,
      "Ġslavnost": 6390,
      "ĠprobÃŃ": 6391,
      "ĠslabÃ½": 6392,
      "ĠnemÅ¯Å¾": 6393,
      "tec": 6394,
      "Ġskvr": 6395,
      "Å¾ily": 6396,
      "Å¡ce": 6397,
      "Ġcele": 6398,
      "ĠdÃ¡no": 6399,
      "ĠprvÃ©": 6400,
      "ĠÅ¡ÃŃch": 6401,
      "ĠpÄĽti": 6402,
      "ĠslÃ¡b": 6403,
      "ĠkrvavÃ½": 6404,
      "ĠapoÅ¡to": 6405,
      "Ġpobo": 6406,
      "ÅĻely": 6407,
      "ÄįinÄĽ": 6408,
      "ĠÄįistou": 6409,
      "Ġrevolu": 6410,
      "ĠjejichÅ¾": 6411,
      "ĠdrÃ¡hy": 6412,
      "Ã¡nÃŃ": 6413,
      "ÄįnÃŃch": 6414,
      "Ġri": 6415,
      "Ġryk": 6416,
      "ĠkÃ¡cÃŃ": 6417,
      "ĠzahÅĻ": 6418,
      "Ġrozvi": 6419,
      "ĠzmÄĽnÃŃ": 6420,
      "ĠdÅ¾": 6421,
      "ĠvojÃŃ": 6422,
      "Ġkly": 6423,
      "ĠnevÃ¡": 6424,
      "ĠvÃ¡no": 6425,
      "Ġsos": 6426,
      "Ġsouci": 6427,
      "Ġzmaten": 6428,
      "ĠpenÄĽz": 6429,
      "tas": 6430,
      "ĠskoÄįÃŃ": 6431,
      "ĠdivokÃ©": 6432,
      "Ġdopo": 6433,
      "mÅ¯Å¾e": 6434,
      "Å¡ili": 6435,
      "ĠspoÄįÃŃ": 6436,
      "ĠÅ¡eptal": 6437,
      "Ġparku": 6438,
      "lie": 6439,
      "Ġnasy": 6440,
      "ĠdÄĽlÃŃ": 6441,
      "Ġhluku": 6442,
      "ĠklidnÃ½": 6443,
      "Ġmohli": 6444,
      "bral": 6445,
      "ĠsnÅ¯m": 6446,
      "Ġlevo": 6447,
      "Ġleta": 6448,
      "ĠhvÄĽzdou": 6449,
      "Ġout": 6450,
      "Ġpopla": 6451,
      "ĠposÃŃ": 6452,
      "ĠÅ¡ÃŃÅĻ": 6453,
      "Ġslovu": 6454,
      "ĠkrutÃ©": 6455,
      "ĠkrÃ¡tkÃ©": 6456,
      "Ġjdeme": 6457,
      "ÅĻte": 6458,
      "Ġnedal": 6459,
      "taj": 6460,
      "Ġchalou": 6461,
      "teÄįnÃŃ": 6462,
      "Ġrval": 6463,
      "Äįena": 6464,
      "Ġzbude": 6465,
      "Ġzahu": 6466,
      "Ġdocela": 6467,
      "Ġvyjde": 6468,
      "ĠnabÃŃ": 6469,
      "nÄĽnou": 6470,
      "ĠvÄĽÅĻte": 6471,
      "bÃ½vÃ¡": 6472,
      "Ġvhod": 6473,
      "Å¾dÄĽ": 6474,
      "ĠÅ¡ÃŃle": 6475,
      "Ġsymbo": 6476,
      "Ġstranu": 6477,
      "ĠsvÃŃtÃ¡": 6478,
      "Ġmha": 6479,
      "ĠmoudrÃ½": 6480,
      "Ġvzor": 6481,
      "ĠnÃ¡ÅĻ": 6482,
      "Ġzrozen": 6483,
      "ĠÄįtvrt": 6484,
      "Ġneli": 6485,
      "ÅĻÃŃch": 6486,
      "Ġokra": 6487,
      "ĠkÃ½v": 6488,
      "ĠnovÃ©ho": 6489,
      "Ġrozka": 6490,
      "ĠplnÃ½ch": 6491,
      "Ġlampy": 6492,
      "rny": 6493,
      "ĠmÃŃsÃŃ": 6494,
      "Ġnejen": 6495,
      "ĠdÄĽcka": 6496,
      "ĠseÅ¡": 6497,
      "Ġzloba": 6498,
      "ĠpÃ¡nbÅ¯h": 6499,
      "ĠjmÃ©nem": 6500,
      "ĠrodnÃ½": 6501,
      "Ġposly": 6502,
      "ĠrekÅ¯": 6503,
      "Ġvznik": 6504,
      "ĠniÅ¾": 6505,
      "ĠsmÃŃm": 6506,
      "ĠmrtvÃ¡": 6507,
      "ĠposlednÃŃm": 6508,
      "ĠvrÃ¡z": 6509,
      "Ġzmatku": 6510,
      "ĠlÃŃtost": 6511,
      "ĠvznÄĽt": 6512,
      "Ġprobou": 6513,
      "ĠvÃ¡le": 6514,
      "ĠÃºtro": 6515,
      "ĠtÃŃsnÃŃ": 6516,
      "ĠnovÃ©m": 6517,
      "ĠvÃŃme": 6518,
      "Ġhisto": 6519,
      "Ġtriumf": 6520,
      "Ġnet": 6521,
      "ĠnevÄĽdÄĽl": 6522,
      "ĠhleÄıte": 6523,
      "pce": 6524,
      "jÃŃti": 6525,
      "mon": 6526,
      "ĠÄįinÅ¯": 6527,
      "ĠkrÃ¡lovna": 6528,
      "ĠvstaÅĪ": 6529,
      "adil": 6530,
      "naly": 6531,
      "ĠbÅĻehÅ¯": 6532,
      "ĠÃºsmÄĽvu": 6533,
      "!!": 6534,
      "ĠmÃ¡k": 6535,
      "Ġperel": 6536,
      "ĠhlÃ¡sÃŃ": 6537,
      "ĠrovnÄĽÅ¾": 6538,
      "mbu": 6539,
      "Ġzjas": 6540,
      "lon": 6541,
      "ĠÅ¡epo": 6542,
      "ĠstoletÃŃ": 6543,
      "ĠsmÃ¡la": 6544,
      "ĠnÃ¡mÄĽstÃŃ": 6545,
      "pÃŃm": 6546,
      "Ġvdech": 6547,
      "Ġhladem": 6548,
      "ĠvÅ¡emo": 6549,
      "vnÃ½": 6550,
      "don": 6551,
      "ĠpÅĻehlu": 6552,
      "daje": 6553,
      "ĠÅĻÃŃdÃŃ": 6554,
      "Ġryb": 6555,
      "ĠnedoÄįka": 6556,
      "ĠteplÃ½": 6557,
      "Ġhospody": 6558,
      "Ġtka": 6559,
      "Ġkopy": 6560,
      "Ġmuzi": 6561,
      "Ġjasno": 6562,
      "ÅĻemen": 6563,
      "cÃ¡": 6564,
      "Ġnemu": 6565,
      "Ġhejno": 6566,
      "ĠpomnÄĽ": 6567,
      "ĠzadÃŃ": 6568,
      "ĠÅ¾ivÃŃ": 6569,
      "Ġhudbu": 6570,
      "Ġvzejde": 6571,
      "Ġmine": 6572,
      "Ġzdech": 6573,
      "Ġmodro": 6574,
      "Ġostro": 6575,
      "ĠÄįernÃ½m": 6576,
      "Ġthe": 6577,
      "Ġvyv": 6578,
      "ĠzavÄĽ": 6579,
      "Ġkorouh": 6580,
      "ĠviÄı": 6581,
      "ĠvÃ½Äįi": 6582,
      "ĠslepÃ½": 6583,
      "Ġpokoji": 6584,
      "roti": 6585,
      "ĠcestÃ¡ch": 6586,
      "Ġteplo": 6587,
      "stupuje": 6588,
      "Ġodv": 6589,
      "bami": 6590,
      "Ġhel": 6591,
      "ĠzlÃ©ho": 6592,
      "Ġoblaka": 6593,
      "Ġodpla": 6594,
      "Ġposu": 6595,
      "Ġzjevil": 6596,
      "ĠkÅĻovÃŃ": 6597,
      "lÃ¡n": 6598,
      "rva": 6599,
      "ĠhustÃ©": 6600,
      "Ġdlel": 6601,
      "ĠstÃ¡da": 6602,
      "Ġshle": 6603,
      "ĠsladkÃ©m": 6604,
      "ĠbÃ¡snÄĽ": 6605,
      "Ġpnou": 6606,
      "Äįan": 6607,
      "ĠskvoucÃŃ": 6608,
      "ĠlÃŃpy": 6609,
      "Ġzasy": 6610,
      "ĠkleÄįÃŃ": 6611,
      "Ġtragi": 6612,
      "ĠmdlÃ¡": 6613,
      "ĠvÃ¡cla": 6614,
      "ĠjeÅ¾ÃŃÅ¡": 6615,
      "Ġodsou": 6616,
      "Ġtluk": 6617,
      "Ġrenal": 6618,
      "ĠjÅ¯": 6619,
      "loval": 6620,
      "Ġkane": 6621,
      "Ġroztom": 6622,
      "veÅĪ": 6623,
      "ĠpÄĽjÃŃ": 6624,
      "ĠmarnÃ½": 6625,
      "ĠchvÄĽly": 6626,
      "ĠprÃ¡zdnÃ½": 6627,
      "ĠubohÃ½": 6628,
      "novu": 6629,
      "Ġfial": 6630,
      "Ġzaml": 6631,
      "Ġhezky": 6632,
      "nutÃ©": 6633,
      "ĠpamÄĽt": 6634,
      "pali": 6635,
      "Ġstrast": 6636,
      "ĠnekoneÄį": 6637,
      "ĠmÄĽly": 6638,
      "ĠhouÅ¡ti": 6639,
      "zala": 6640,
      "ĠstÅĻela": 6641,
      "ĠtÅ¯nÄĽ": 6642,
      "Ġvzplane": 6643,
      "Ġsocha": 6644,
      "ĠplÃ¡lo": 6645,
      "ĠhÃ¡v": 6646,
      "ĠpaprskÅ¯": 6647,
      "tisk": 6648,
      "stÃŃrÃ¡": 6649,
      "bÃ¡n": 6650,
      "ĠnÃ¡rodÅ¯": 6651,
      "Ġhorami": 6652,
      "tnÃ½ch": 6653,
      "ĠzÃ¡po": 6654,
      "ĠkopÃŃ": 6655,
      "ĠdruhÅ¯": 6656,
      "ĠblahÃ½": 6657,
      "Å¾enÃ½ch": 6658,
      "ĠmarnÃ¡": 6659,
      "dÃŃme": 6660,
      "ĠsnivÃ¡": 6661,
      "rÅ¯m": 6662,
      "Ġmozo": 6663,
      "ari": 6664,
      "tovÃ¡nÃŃ": 6665,
      "ĠvlaÅ¡to": 6666,
      "Ġstole": 6667,
      "Ġmraz": 6668,
      "ĠspanÃŃ": 6669,
      "ĠstkvÄĽ": 6670,
      "Ġsoumraku": 6671,
      "Ġkohou": 6672,
      "ĠzdvÃŃ": 6673,
      "pÄĽla": 6674,
      "ĠtisÃŃci": 6675,
      "ĠpÅ¯lnoci": 6676,
      "Ġpovstal": 6677,
      "ĠjmÄĽnÃŃ": 6678,
      "ĠdlÃ©": 6679,
      "ÄįeÅ¾": 6680,
      "ĠpaÅ¾ÃŃ": 6681,
      "ĠklasÅ¯": 6682,
      "ĠbijÃŃ": 6683,
      "Ġoprav": 6684,
      "ĠpoÅ¡e": 6685,
      "ĠkaÅ¡": 6686,
      "ĠtuÅ¾eb": 6687,
      "Ġspro": 6688,
      "Ġmet": 6689,
      "Ġhroma": 6690,
      "ĠpohÃ¡dka": 6691,
      "ĠboÅ¾stvÃŃ": 6692,
      "snÃ½ch": 6693,
      "ĠtÃ¡m": 6694,
      "stvu": 6695,
      "ĠjeseÅĪ": 6696,
      "ÅĻelo": 6697,
      "ĠÃºtu": 6698,
      "Ġsata": 6699,
      "ĠplÃŃÅ¾ÃŃ": 6700,
      "Ġznik": 6701,
      "Ġnevo": 6702,
      "ĠvydÃ¡": 6703,
      "ĠpÅĻipo": 6704,
      "ĠdÃŃvce": 6705,
      "ĠpovÄĽst": 6706,
      "ĠjdÄĽte": 6707,
      "ĠonÄĽ": 6708,
      "ĠrubÃŃ": 6709,
      "ĠdÄĽvu": 6710,
      "Ġstrasti": 6711,
      "Ġskokem": 6712,
      "ĠdÃ½mu": 6713,
      "ĠvyÅ¡ehra": 6714,
      "duje": 6715,
      "ÅĪa": 6716,
      "bech": 6717,
      "ĠcÃŃrkev": 6718,
      "drÃ¡": 6719,
      "Ġvoje": 6720,
      "ĠhradÄĽ": 6721,
      "ĠchytÃ¡": 6722,
      "Ġtrosky": 6723,
      "ĠoltÃ¡ÅĻe": 6724,
      "ca": 6725,
      "Ġslabo": 6726,
      "ĠspÄĽÅ¡": 6727,
      "ĠtesknÃ©": 6728,
      "ĠvÃ½chod": 6729,
      "Ġ!": 6730,
      "ÄįkÃ©": 6731,
      "ĠÄįte": 6732,
      "ĠnÃ¡vra": 6733,
      "Ġmuky": 6734,
      "ĠzÃ¡slu": 6735,
      "ĠmnoÅ¾stvÃŃ": 6736,
      "ĠotevÅĻel": 6737,
      "benÃ©": 6738,
      "ĠjizbÄĽ": 6739,
      "ĠleÅ¥": 6740,
      "ĠpÅĻedtu": 6741,
      "Ġspoj": 6742,
      "ĠstÅĻÃŃbrnÃ©": 6743,
      "jila": 6744,
      "os": 6745,
      "ĠmÅĻel": 6746,
      "ĠnaÅ¡ÃŃm": 6747,
      "ĠhledÄĽ": 6748,
      "ĠstÅĻed": 6749,
      "ĠdÄĽtskÃ©": 6750,
      "Ġdrahoka": 6751,
      "Ġroztomil": 6752,
      "ĠsnÃ¡Å¡e": 6753,
      "Ġcvr": 6754,
      "ÅĻÃŃvÃ¡": 6755,
      "Ġel": 6756,
      "bÃ¡Å¡": 6757,
      "ĠlehkÃ½": 6758,
      "zli": 6759,
      "Ġposte": 6760,
      "nova": 6761,
      "ĠhÅĻÃŃmÃ¡": 6762,
      "fÃ¡": 6763,
      "nÃ¡Å¡el": 6764,
      "Ġpravi": 6765,
      "ĠpevnÃ©": 6766,
      "vku": 6767,
      "nov": 6768,
      "Ġjsy": 6769,
      "lym": 6770,
      "Ġkyp": 6771,
      "ĠsvÃŃce": 6772,
      "ĠmalÃ½ch": 6773,
      "Ġvezme": 6774,
      "zar": 6775,
      "ĠhoÅĻem": 6776,
      "kuje": 6777,
      "ĠnÃ¡h": 6778,
      "ĠmÃ¡li": 6779,
      "ĠpodlÃ©": 6780,
      "Ġzvuku": 6781,
      "ĠstÅĻÃŃbrem": 6782,
      "ĠpoÄįÃ¡": 6783,
      "ĠneznÃ¡mÃ©": 6784,
      "ĠpÅĻijÄı": 6785,
      "ĠdÄĽvÄįÃ¡": 6786,
      "ĠbÅĻÃŃmÄĽ": 6787,
      "Ġkmo": 6788,
      "ĠlÃŃch": 6789,
      "Ġmiluj": 6790,
      "ĠpamÄĽÅ¥": 6791,
      "ĠÄįeskou": 6792,
      "ĠvÃ¡Å¾nÃ½": 6793,
      "ĠmÃ©nÄĽ": 6794,
      "ĠplaÅ¡ÃŃ": 6795,
      "Ġbere": 6796,
      "ĠmÄĽkce": 6797,
      "ĠblÃ½ska": 6798,
      "Ġanebo": 6799,
      "Ġprokop": 6800,
      "chla": 6801,
      "skÃ½mi": 6802,
      "nan": 6803,
      "ĠobrÃ¡til": 6804,
      "ĠdÄĽsnÃ©": 6805,
      "Ġrozva": 6806,
      "Ġolym": 6807,
      "lÃŃp": 6808,
      "ĠvzlÃ©t": 6809,
      "pÃ¡n": 6810,
      "ĠtrÃ¡vu": 6811,
      "vÅ¡ad": 6812,
      "Ġrozhod": 6813,
      "ĠplachÃ½": 6814,
      "piti": 6815,
      "ĠobÄĽti": 6816,
      "Ġzapomenu": 6817,
      "ĠsdÃŃ": 6818,
      "ĠnaÅ¡li": 6819,
      "dechu": 6820,
      "Ġzakry": 6821,
      "Ġkonci": 6822,
      "Ġdivoce": 6823,
      "ĠzÅĻeli": 6824,
      "Ġlehko": 6825,
      "ĠÅ¡av": 6826,
      "ÄįkovÃ©": 6827,
      "nickÃ©": 6828,
      "Ġbiskup": 6829,
      "ĠkÅĻ": 6830,
      "Ġuhas": 6831,
      "Ġplam": 6832,
      "ĠnÄĽkte": 6833,
      "nickÃ½": 6834,
      "ĠbdÄĽ": 6835,
      "ĠhoupÃ¡": 6836,
      "ĠhorÅ¡ÃŃ": 6837,
      "ĠsvÃ¡tek": 6838,
      "Ġrozpo": 6839,
      "ditel": 6840,
      "Å¾ilo": 6841,
      "ĠzÃ¡mek": 6842,
      "srd": 6843,
      "Ġhmy": 6844,
      "Ġproz": 6845,
      "ĠrozvÃ¡": 6846,
      "Ġhanu": 6847,
      "Ġhodina": 6848,
      "Ġtrysk": 6849,
      "ĠrudÃ¡": 6850,
      "Ġpek": 6851,
      "ĠodeÅ¡el": 6852,
      "Å¡kem": 6853,
      "rami": 6854,
      "ĠprochÃ¡": 6855,
      "Ġrus": 6856,
      "ĠlÃ©k": 6857,
      "ceni": 6858,
      "ĠnÃ¡rody": 6859,
      "ĠneÅĻe": 6860,
      "ĠÃºstech": 6861,
      "vyk": 6862,
      "Ġjasem": 6863,
      "ĠmnozÃŃ": 6864,
      "ĠtÃ½Å¾": 6865,
      "ĠdvoÅĻe": 6866,
      "ĠvysÃŃ": 6867,
      "Ġtuch": 6868,
      "Ġsrdcy": 6869,
      "Ġnouze": 6870,
      "ĠknÄĽÅ¾na": 6871,
      "ĠmÃŃst": 6872,
      "Ġstala": 6873,
      "ĠnÄĽjÅ¾": 6874,
      "ĠvzÃ¡cnÃ©": 6875,
      "Ġada": 6876,
      "Ġsedla": 6877,
      "ĠpÅĻÃŃtele": 6878,
      "ĠsynÅ¯": 6879,
      "Ġgro": 6880,
      "ĠzelenÃ¡": 6881,
      "Ġkoruny": 6882,
      "Ġklek": 6883,
      "Ġkroku": 6884,
      "Ġopustil": 6885,
      "ĠtakovÃ½": 6886,
      "ĠpsÃ¡t": 6887,
      "Ġpronik": 6888,
      "ĠvyklÃ¡": 6889,
      "sajÃŃ": 6890,
      "ĠplesÃ¡": 6891,
      "Ġmrazem": 6892,
      "Ġnachem": 6893,
      "ĠdravÃ½": 6894,
      "ĠvÄĽÄįnÃ½m": 6895,
      "ĠÄįÃ¡st": 6896,
      "Ġtmavou": 6897,
      "leÅ¥": 6898,
      "ĠsvobodÄĽ": 6899,
      "Å¾iv": 6900,
      "ĠÅ¡uma": 6901,
      "ĠdivokÃ½": 6902,
      "ĠvzÃ¡cnÃ½": 6903,
      "ĠtÃ³ny": 6904,
      "ĠrybnÃŃ": 6905,
      "Ġfu": 6906,
      "ĠjasnÃ½m": 6907,
      "Ġpit": 6908,
      "fÃŃ": 6909,
      "Ġzne": 6910,
      "Ġroje": 6911,
      "ĠstrÃ¡ÅĪ": 6912,
      "ĠveselÃ½": 6913,
      "ĠandÄĽlÃ©": 6914,
      "Ġvym": 6915,
      "Ġhrozi": 6916,
      "ĠstarÅ¡ÃŃ": 6917,
      "ĠzdÃ¡nÃŃ": 6918,
      "ĠpÅĻemÃŃ": 6919,
      "ĠmÄĽkkÃ½": 6920,
      "haly": 6921,
      "Ġvzpou": 6922,
      "ĠÅ¾iÅ¾ka": 6923,
      "Ġnebla": 6924,
      "ĠradostnÄĽ": 6925,
      "Ġzil": 6926,
      "ĠzaÅ¡el": 6927,
      "Ġche": 6928,
      "mila": 6929,
      "ĠtemnÃ¡": 6930,
      "ĠkÅĻÃŃÅ¾i": 6931,
      "lom": 6932,
      "ĠnÃ¡po": 6933,
      "ĠlÃŃnÄĽ": 6934,
      "Ġrat": 6935,
      "ĠumÅĻel": 6936,
      "ĠznÃ¡ti": 6937,
      "ĠpalÃ¡c": 6938,
      "ĠzboÅ¾ÃŃ": 6939,
      "ĠvodopÃ¡": 6940,
      "tiny": 6941,
      "ĠsÃŃÅ¥": 6942,
      "lÅ¯v": 6943,
      "Ġlampa": 6944,
      "ĠÅ¾ijÃŃ": 6945,
      "Ġvstane": 6946,
      "Ġrcete": 6947,
      "ĠtÄĽkÃ¡": 6948,
      "ĠpravÃ¡": 6949,
      "Ġpranic": 6950,
      "Ġpli": 6951,
      "jeli": 6952,
      "ĠsmÃ½": 6953,
      "ĠstÅĻechy": 6954,
      "Ġstate": 6955,
      "ĠnevdÄĽ": 6956,
      "ĠzvlÃ¡Å¡tÄĽ": 6957,
      "ĠbohynÄĽ": 6958,
      "bÅĻe": 6959,
      "Ġtemna": 6960,
      "Ġtrap": 6961,
      "ĠÅĪÃ¡dra": 6962,
      "ĠnÄĽn": 6963,
      "ĠdÃ¡val": 6964,
      "Ġdek": 6965,
      "ĠbÃŃdÄĽ": 6966,
      "Ġref": 6967,
      "ĠbÃ¡znÃŃ": 6968,
      "Ġkniha": 6969,
      "Ġvyslo": 6970,
      "ĠlkÃ¡nÃŃ": 6971,
      "ĠroznÃŃ": 6972,
      "Ġrozez": 6973,
      "Ġshr": 6974,
      "Ġstil": 6975,
      "Ġroku": 6976,
      "ĠÅ¾ÃŃzeÅĪ": 6977,
      "kÃ½mi": 6978,
      "ĠtmavÃ¡": 6979,
      "pÃ©": 6980,
      "Ġmukou": 6981,
      "ĠÅ¡koly": 6982,
      "Ġcenu": 6983,
      "ĠtvrdÃ½": 6984,
      "Å¡enÃ¡": 6985,
      "bnou": 6986,
      "chi": 6987,
      "Ġuleh": 6988,
      "mÄĽlo": 6989,
      "Å¡tÄĽm": 6990,
      "ĠvlastnÃŃch": 6991,
      "ĠpÅĻÃ¡telstvÃŃ": 6992,
      "ĠslÃ©t": 6993,
      "ĠhodÃŃ": 6994,
      "sala": 6995,
      "ĠumÅĻÃŃt": 6996,
      "Ġkapky": 6997,
      "ĠpohleÄı": 6998,
      "ĠzanÃŃ": 6999,
      "ĠdusÃŃ": 7000,
      "ĠmuÅ¾em": 7001,
      "ĠdÃŃvÃ¡m": 7002,
      "ĠsvÃ¡r": 7003,
      "ĠnevÄĽÅĻÃŃ": 7004,
      "ĠbohÅ¯m": 7005,
      "ĠrumÄĽ": 7006,
      "bala": 7007,
      "ĠdrÃ¡hu": 7008,
      "ĠnenadÃ¡nÃŃ": 7009,
      "Ġjizby": 7010,
      "rÃ½mi": 7011,
      "Ġzaslech": 7012,
      "Ġpevnou": 7013,
      "ĠspoleÄįnosti": 7014,
      "ÃŃch": 7015,
      "Ġklidem": 7016,
      "Ġpolibek": 7017,
      "ckÃ©ho": 7018,
      "Ġhonem": 7019,
      "ĠzdÃ¡la": 7020,
      "Ġzpola": 7021,
      "ĠokamÅ¾iku": 7022,
      "ĠvleÄįe": 7023,
      "ĠuÅ¡lech": 7024,
      "Å¡Ã¡": 7025,
      "ĠÅ¡al": 7026,
      "ĠveselÃŃ": 7027,
      "ĠÅ¡Å¥astnÃ©": 7028,
      "ĠveÅ¡k": 7029,
      "Ġmiliony": 7030,
      "ĠnevÃ½slov": 7031,
      "Ġvzcho": 7032,
      "ĠÅĻekli": 7033,
      "Ġodpor": 7034,
      "Ġrvou": 7035,
      "Ġmuce": 7036,
      "Ġklene": 7037,
      "Ġpustil": 7038,
      "ĠvÄĽrnÃ¡": 7039,
      "Ġoblohou": 7040,
      "Ġpolibky": 7041,
      "lumen": 7042,
      "Äįeho": 7043,
      "ĠoblÃ©": 7044,
      "ĠsnivÃ½": 7045,
      "ĠjakÃ©s": 7046,
      "ĠcÃŃrkve": 7047,
      "ĠchvÄĽt": 7048,
      "ĠÅ¡ve": 7049,
      "Ġroh": 7050,
      "Ġprosil": 7051,
      "Ġlip": 7052,
      "Ġer": 7053,
      "Ġhodil": 7054,
      "ĠtiÅ¡": 7055,
      "Ġobloha": 7056,
      "ĠdlÃ½": 7057,
      "ĠovÄĽ": 7058,
      "Ġvlaje": 7059,
      "ĠvolÃ¡m": 7060,
      "ĠusmÃ¡l": 7061,
      "Ġjek": 7062,
      "ĠzapÃ¡": 7063,
      "vÃ¡nÃŃm": 7064,
      "Ġrez": 7065,
      "Ġobec": 7066,
      "Ġbur": 7067,
      "Ġzoufalo": 7068,
      "ĠzalÃŃ": 7069,
      "gan": 7070,
      "Ġokouz": 7071,
      "Ġuvad": 7072,
      "ĠuchvÃ¡": 7073,
      "ĠpÅĻiz": 7074,
      "ĠÃºtra": 7075,
      "ĠhorkÃ©": 7076,
      "ĠÅ¾ehnÃ¡": 7077,
      "Ġjezera": 7078,
      "ĠzasmuÅ¡il": 7079,
      "nÄĽt": 7080,
      "ĠÃºkry": 7081,
      "Ġchladnou": 7082,
      "dati": 7083,
      "pne": 7084,
      "ĠpÅĻen": 7085,
      "ĠmÄĽÅ¡Å¥": 7086,
      "Ġbudeme": 7087,
      "ĠzrÃ¡d": 7088,
      "ĠpropastÃŃ": 7089,
      "ĠÅ¡kol": 7090,
      "Å¥at": 7091,
      "ĠmuÄįÃŃ": 7092,
      "ĠÅ¡eÅĻÃŃ": 7093,
      "ĠdlaÅ¾": 7094,
      "Ġheslo": 7095,
      "ĠctÄĽ": 7096,
      "nÄĽna": 7097,
      "Ġlide": 7098,
      "Ġstarci": 7099,
      "kladu": 7100,
      "ĠchrÃ¡mÄĽ": 7101,
      "ĠpeÅĻÃŃ": 7102,
      "Ġdruhy": 7103,
      "Ġlehou": 7104,
      "ĠstraÅ¡nÃ½": 7105,
      "ĠjaÅĻe": 7106,
      "ĠmroucÃŃ": 7107,
      "ĠzachrÃ¡": 7108,
      "ĠzapomnÄĽnÃŃ": 7109,
      "ĠpamÃ¡tku": 7110,
      "Ġkovo": 7111,
      "Ġduma": 7112,
      "vedu": 7113,
      "ĠmÄĽÅĻÃŃ": 7114,
      "Ġopou": 7115,
      "Ġlilie": 7116,
      "ĠzaÅ¡ep": 7117,
      "ĠbÃŃdnÃ©": 7118,
      "jemi": 7119,
      "Ġvstala": 7120,
      "ĠlÅ¾ÃŃ": 7121,
      "cestÃŃ": 7122,
      "Ġdoli": 7123,
      "Ġhol": 7124,
      "Ġhody": 7125,
      "ĠkrutÄĽ": 7126,
      "zenÃ½": 7127,
      "Ġkostela": 7128,
      "ĠrÃ©m": 7129,
      "Ġobry": 7130,
      "Ġnepokoj": 7131,
      "ĠbolesÅ¥": 7132,
      "ĠmÄĽkkÃ©": 7133,
      "cena": 7134,
      "cenou": 7135,
      "ĠpÅ¯dÄĽ": 7136,
      "ĠÅĻetÄĽz": 7137,
      "ĠtlÃŃ": 7138,
      "Ġzpi": 7139,
      "ĠmnoÅ¾ÃŃ": 7140,
      "Ġsul": 7141,
      "ĠjemnÃ©": 7142,
      "Å¾eli": 7143,
      "Ġsluha": 7144,
      "ĠÅ¾aly": 7145,
      "ĠzaÅ¡lÃ½ch": 7146,
      "ĠvzÃŃti": 7147,
      "Ġsej": 7148,
      "ĠmilovÃ¡nÃŃ": 7149,
      "ĠmocnÃ¡": 7150,
      "Ġtajemnou": 7151,
      "ĠmaÄıar": 7152,
      "Ġtane": 7153,
      "ĠruÄįe": 7154,
      "ĠhlasnÄĽ": 7155,
      "ĠkvÄĽtech": 7156,
      "ĠtovÃ¡": 7157,
      "Ġrozbi": 7158,
      "ĠzÃ¡ro": 7159,
      "kolem": 7160,
      "Ġpropad": 7161,
      "ĠnejdÅĻÃŃ": 7162,
      "ĠlÅ¯Å¾ko": 7163,
      "Ġkletba": 7164,
      "stroj": 7165,
      "ĠlekÃ¡": 7166,
      "Ġiro": 7167,
      "ĠmaliÄį": 7168,
      "ĠkouÅĻÃŃ": 7169,
      "ĠtrÄįÃŃ": 7170,
      "ĠslavnÃ½ch": 7171,
      "ĠpsanÃŃ": 7172,
      "ĠvÄĽÅ¾i": 7173,
      "ĠpÅĻej": 7174,
      "Ġsnahy": 7175,
      "ĠstarÃ½m": 7176,
      "Ġbet": 7177,
      "ĠmraÄįno": 7178,
      "ĠtvÅ¯rÄįÃŃ": 7179,
      "Ġcou": 7180,
      "Ġvzo": 7181,
      "Ġnemys": 7182,
      "ĠskalnÃŃ": 7183,
      "Ġuho": 7184,
      "Ġobdi": 7185,
      "ĠmodrÃ¡": 7186,
      "Ġvolnosti": 7187,
      "ĠtmavÃ½ch": 7188,
      "ĠobÄĽtÃŃ": 7189,
      "Ġam": 7190,
      "ĠvÄĽno": 7191,
      "Å¡eni": 7192,
      "ĠostÅĻÃŃ": 7193,
      "ĠkvÄĽtiny": 7194,
      "Ã½val": 7195,
      "Ġvyrost": 7196,
      "Ġpavou": 7197,
      "ĠprÃ¡vem": 7198,
      "ĠdobrÃ½ch": 7199,
      "ÅĻenÃ½m": 7200,
      "ĠstÅĻÃŃbrnÃ½": 7201,
      "ĠsÃŃmÄĽ": 7202,
      "liÄįky": 7203,
      "Ġtvojich": 7204,
      "Ġmrazi": 7205,
      "ĠhospodÃ¡ÅĻ": 7206,
      "Ġprovo": 7207,
      "Ġhladu": 7208,
      "kÃ¡zal": 7209,
      "ĠÅ¡irÃ©m": 7210,
      "Ġpych": 7211,
      "Ġroucha": 7212,
      "Ġzbyla": 7213,
      "ĠABC": 7214,
      "ĠvÃŃnek": 7215,
      "ĠzemÅĻel": 7216,
      "ĠpÅĻedce": 7217,
      "ĠstatnÃ½": 7218,
      "ĠsvatebnÃŃ": 7219,
      "ĠnejlepÅ¡ÃŃ": 7220,
      "Ġmojich": 7221,
      "Ġnebudu": 7222,
      "ĠtrnÃŃ": 7223,
      "ĠzÃŃral": 7224,
      "ĠÅ¡ik": 7225,
      "Ġvlno": 7226,
      "ĠsuchÃ©": 7227,
      "ĠÃºsvi": 7228,
      "ĠvlÃ¡dce": 7229,
      "ĠpestrÃ½": 7230,
      "ĠklÃ¡Å¡ter": 7231,
      "bnÃ¡": 7232,
      "Ġcitem": 7233,
      "ĠozÃ½vÃ¡": 7234,
      "ĠjakÃ½m": 7235,
      "Ġroman": 7236,
      "ĠhvÄĽzdnÃ©": 7237,
      "ĠtÃ¡bor": 7238,
      "Ġoli": 7239,
      "ĠvybÃŃ": 7240,
      "ĠruÅ¡ÃŃ": 7241,
      "ĠvodÃŃ": 7242,
      "Ġsadu": 7243,
      "ĠspÃ¡su": 7244,
      "Ġvesny": 7245,
      "ĠzhlÃŃ": 7246,
      "Ġzdroje": 7247,
      "ĠnahÃ¡": 7248,
      "Ġuc": 7249,
      "Ġvlak": 7250,
      "ĠdrahÃ½ch": 7251,
      "ĠpoÅ¾ehnÃ¡": 7252,
      "Ġzvou": 7253,
      "ĠdotÃ½": 7254,
      "talo": 7255,
      "Ġcizo": 7256,
      "Ġbah": 7257,
      "ĠzulÃŃ": 7258,
      "Ġpluk": 7259,
      "Å¾no": 7260,
      "mund": 7261,
      "Ġmlhou": 7262,
      "ĠnevrÃ¡tÃŃ": 7263,
      "koliv": 7264,
      "ĠhvÃŃz": 7265,
      "ruje": 7266,
      "ĠuvÃ¡": 7267,
      "cii": 7268,
      "Ġvous": 7269,
      "ĠbujnÃ½": 7270,
      "ĠskrÃ½Å¡": 7271,
      "Ġzastavil": 7272,
      "Ġklobouk": 7273,
      "ĠbÃ¡znÄĽ": 7274,
      "ĠsnÄĽho": 7275,
      "ĠzuÅĻi": 7276,
      "ĠblÃ¡ho": 7277,
      "ĠmlÃ¡deÅ¾": 7278,
      "Ġhvi": 7279,
      "Ġutk": 7280,
      "ĠmetÃ¡": 7281,
      "Ġrozumu": 7282,
      "tna": 7283,
      "Ġtoli": 7284,
      "ĠdÃŃtko": 7285,
      "ĠdlouhÃ½m": 7286,
      "Ġdarem": 7287,
      "ĠhlubinÃ¡ch": 7288,
      "Ġvstoupil": 7289,
      "ĠvÃ½smÄĽ": 7290,
      "ĠnÃ©sti": 7291,
      "Ġresi": 7292,
      "vena": 7293,
      "ĠzÅĻÃŃdka": 7294,
      "Ġceny": 7295,
      "Ġchalu": 7296,
      "Ġem": 7297,
      "Ġnasta": 7298,
      "ĠcÃŃtit": 7299,
      "ĠbÄĽlÃ¡": 7300,
      "ĠÅ¡Å¥astni": 7301,
      "ĠmocnÃ½m": 7302,
      "ĠlÅ¯no": 7303,
      "ĠpokolenÃŃ": 7304,
      "hlÃŃÅ¾ÃŃ": 7305,
      "stin": 7306,
      "ĠÅ¡erÃ½": 7307,
      "ĠbÃ¡jÃŃ": 7308,
      "ĠchuÄı": 7309,
      "Ġjun": 7310,
      "ĠnÄĽmec": 7311,
      "Ġpose": 7312,
      "doval": 7313,
      "ĠtÃŃseÅĪ": 7314,
      "ladÅ¡ÃŃ": 7315,
      "ĠpohlÃŃ": 7316,
      "Ġshro": 7317,
      "ĠmrÃ¡ko": 7318,
      "Ġhocha": 7319,
      "Ġtichem": 7320,
      "Ġkletby": 7321,
      "Ġpohledu": 7322,
      "Ġsup": 7323,
      "ĠsbÄĽ": 7324,
      "chajÃŃ": 7325,
      "ĠpotkÃ¡": 7326,
      "ĠkvÄĽte": 7327,
      "Ġvezdy": 7328,
      "Ġsever": 7329,
      "Ġneskonal": 7330,
      "ĠnejdraÅ¾Å¡ÃŃ": 7331,
      "Ġana": 7332,
      "Ġvzma": 7333,
      "ĠbrÃ¡na": 7334,
      "ĠtÅ¯ÅĪ": 7335,
      "Ġkladi": 7336,
      "ĠsedlÃ¡k": 7337,
      "gen": 7338,
      "ĠopÃŃ": 7339,
      "Ġske": 7340,
      "Ġmilosrd": 7341,
      "ĠsnÄĽti": 7342,
      "cÅ¯v": 7343,
      "Ġdvoj": 7344,
      "Ġzamra": 7345,
      "dale": 7346,
      "ĠmÃ¡je": 7347,
      "ĠÄįernÃ©m": 7348,
      "Å¾eno": 7349,
      "Ġrozply": 7350,
      "jÃ¡k": 7351,
      "ĠbÅĻit": 7352,
      "ĠpÅĻeje": 7353,
      "ĠchorÃ©": 7354,
      "ĠchuÅ¥": 7355,
      "ĠsedlÃ¡": 7356,
      "ÅĻka": 7357,
      "Ġnehle": 7358,
      "ĠveÄı": 7359,
      "ĠkabÃ¡": 7360,
      "ÄįÃŃÅ¡": 7361,
      "ĠstraÅ¡nÃ©": 7362,
      "Ġfrancou": 7363,
      "ĠnahoÅĻe": 7364,
      "Ġmhou": 7365,
      "mit": 7366,
      "ĠvÃ½so": 7367,
      "ĠpÃŃsek": 7368,
      "ĠmÄĽsÃŃci": 7369,
      "Ġdluh": 7370,
      "kati": 7371,
      "Ġodve": 7372,
      "ĠpÅĻÃŃko": 7373,
      "ĠsloÅ¾il": 7374,
      "ĠdÃŃvko": 7375,
      "ĠkvÃŃtÃŃm": 7376,
      "ĠnÄĽhu": 7377,
      "ĠstÃ¡vÃ¡": 7378,
      "ĠdÅĻÃŃma": 7379,
      "Ġdobrodru": 7380,
      "ĠbystÅĻi": 7381,
      "Ġdoho": 7382,
      "ĠsvÄĽÅ¾e": 7383,
      "ĠpalÃ¡ce": 7384,
      "ĠvyÅ¡li": 7385,
      "Ġvysla": 7386,
      "ĠkrÃ¡lo": 7387,
      "ĠjeÅ¾to": 7388,
      "ĠbÄĽs": 7389,
      "ĠfrÃ¡": 7390,
      "Äįeno": 7391,
      "ĠmstÃŃ": 7392,
      "Ġzabo": 7393,
      "Å¥Ã¡": 7394,
      "ĠvyrÅ¯": 7395,
      "ĠÅ¡ek": 7396,
      "cenÃ½ch": 7397,
      "Ġgene": 7398,
      "ĠjitÅĻnÃŃ": 7399,
      "Ġpodu": 7400,
      "ĠdeÅ¡ti": 7401,
      "Ġhluch": 7402,
      "ĠsnÄĽtÃŃ": 7403,
      "ĠokolÃŃ": 7404,
      "Ġsloupy": 7405,
      "ĠteplÃ©": 7406,
      "ĠzaÅ¡u": 7407,
      "Ġprokla": 7408,
      "mpe": 7409,
      "Ġhat": 7410,
      "ĠzabÃŃ": 7411,
      "Ġdop": 7412,
      "vÃ¡na": 7413,
      "Ġprin": 7414,
      "ĠbezdÄĽ": 7415,
      "Ġhromy": 7416,
      "zdra": 7417,
      "Ġflo": 7418,
      "jdeÅ¡": 7419,
      "ĠstÄĽÅ¾ÃŃ": 7420,
      "ĠpÄĽknÃ½": 7421,
      "zla": 7422,
      "ĠniÄįem": 7423,
      "Ġchudi": 7424,
      "ĠvÄĽÄįna": 7425,
      "ĠzloÄįin": 7426,
      "ĠspÄĽchu": 7427,
      "Ġpivo": 7428,
      "ĠslouÅ¾ÃŃ": 7429,
      "ĠÅ¾havÃ¡": 7430,
      "ĠdrobnÃ½ch": 7431,
      "Ġvozy": 7432,
      "chali": 7433,
      "ĠdÃ¡vnÃ½": 7434,
      "ĠsluneÄįnÃŃ": 7435,
      "ĠnÅ¯m": 7436,
      "Ġpravila": 7437,
      "ĠplÃ¡nÄĽ": 7438,
      "ĠnÃ¡sil": 7439,
      "ĠjasnÃ½ch": 7440,
      "ĠzÃ¡stupy": 7441,
      "nÄĽnÃ¡": 7442,
      "Ġkapi": 7443,
      "ĠdÃŃlu": 7444,
      "Ġplamenem": 7445,
      "Ġleskne": 7446,
      "ĠznaÄįÃŃ": 7447,
      "ĠmoudÅĻe": 7448,
      "ĠpastÃ½ÅĻ": 7449,
      "ĠsÅ¯m": 7450,
      "lÃ¡ch": 7451,
      "ĠtuÅ¥": 7452,
      "Å¡ena": 7453,
      "Ġanti": 7454,
      "ĠzrÃ¡dce": 7455,
      "ĠnedbÃ¡": 7456,
      "ĠÅĻasy": 7457,
      "kosti": 7458,
      "Ġskrov": 7459,
      "ĠdÃŃvat": 7460,
      "ĠdobrÃ½m": 7461,
      "ĠslavnÃ¡": 7462,
      "clo": 7463,
      "ĠmÃ¡ji": 7464,
      "ĠpustÃ¡": 7465,
      "ÄįenÃ¡": 7466,
      "ĠzpÃŃvajÃŃ": 7467,
      "Ġumlk": 7468,
      "ĠtÃŃÅ¡": 7469,
      "Ġnepohnu": 7470,
      "ĠÅĻekni": 7471,
      "nÃŃkem": 7472,
      "ĠvÄĽdÄĽt": 7473,
      "Ġneznal": 7474,
      "Ġjala": 7475,
      "ĠvdÄĽÄįnÄĽ": 7476,
      "ĠverÅ¡Å¯": 7477,
      "ĠvyÄįÃŃ": 7478,
      "ĠjenÅ¾to": 7479,
      "Ġluhu": 7480,
      "ĠsilnÃ©": 7481,
      "ĠznÃŃt": 7482,
      "Ġvichrem": 7483,
      "Ġrakvi": 7484,
      "ĠnebezpeÄįÃŃ": 7485,
      "pÅĻi": 7486,
      "out": 7487,
      "Ġdoly": 7488,
      "Ġmozek": 7489,
      "Ġkousek": 7490,
      "ĠkÅĻÃŃdlech": 7491,
      "dlem": 7492,
      "pka": 7493,
      "Ġzadr": 7494,
      "ĠrozvÃŃ": 7495,
      "Ġrozkaz": 7496,
      "ĠcÃŃtÃŃÅ¡": 7497,
      "Ġzko": 7498,
      "Ġsklen": 7499,
      "ĠpaÅ¾e": 7500,
      "Ġodk": 7501,
      "ĠpukÃ¡": 7502,
      "Ġmrakem": 7503,
      "Ġzavr": 7504,
      "ĠbrÃ¡nu": 7505,
      "Å¡enÄĽ": 7506,
      "ĠnemÃ¡Å¡": 7507,
      "ĠpÅĻÃŃÅ¡tÃŃch": 7508,
      "ĠsbÃŃrÃ¡": 7509,
      "Ġhymnu": 7510,
      "mar": 7511,
      "Ġschy": 7512,
      "Ġpomys": 7513,
      "Ġzava": 7514,
      "Ġvraha": 7515,
      "ĠkoÅĻeny": 7516,
      "vnitÅĻ": 7517,
      "ĠmÅ¡i": 7518,
      "Ġsluchu": 7519,
      "Ġnemi": 7520,
      "ret": 7521,
      "Ġhousle": 7522,
      "ĠdokonÃ¡": 7523,
      "ĠzbabÄĽ": 7524,
      "ĠnachÃ½": 7525,
      "Ġpropu": 7526,
      "Ġlup": 7527,
      "Ġlupen": 7528,
      "ĠdÃ¡lnÃ½ch": 7529,
      "ĠpÄĽv": 7530,
      "ĠklidnÃ©": 7531,
      "beni": 7532,
      "Ġzraje": 7533,
      "ĠsnoubÃŃ": 7534,
      "lali": 7535,
      "star": 7536,
      "Ġmozku": 7537,
      "Ġpast": 7538,
      "ĠpÅĻÃŃsnÃ½": 7539,
      "ĠtouÅ¾ÃŃm": 7540,
      "ĠrÅ¯st": 7541,
      "ĠspÄĽchal": 7542,
      "ĠvesmÃŃ": 7543,
      "ĠulicÃŃch": 7544,
      "naje": 7545,
      "ĠkrÃ¡snÄĽjÅ¡ÃŃ": 7546,
      "ĠsilnÄĽ": 7547,
      "ĠbojÅ¯": 7548,
      "Ġzmlk": 7549,
      "ĠhojnÄĽ": 7550,
      "bÅ¡ÃŃ": 7551,
      "Ġzva": 7552,
      "ĠnedÅ¯": 7553,
      "ĠvÃŃla": 7554,
      "Ġsig": 7555,
      "ĠmÃŃjÃŃ": 7556,
      "ĠpohnutÃŃ": 7557,
      "Ġdcero": 7558,
      "ĠzaÄįne": 7559,
      "Ġvnuk": 7560,
      "mrt": 7561,
      "ĠvÄĽÄı": 7562,
      "Ġopil": 7563,
      "Ġzvedne": 7564,
      "ĠhlÃŃdÃ¡": 7565,
      "ĠpÃ½chou": 7566,
      "ĠpÅĻip": 7567,
      "Ġblouzni": 7568,
      "ĠskvÄĽlÃ½": 7569,
      "ĠstvoÅĻil": 7570,
      "ĠzaÅ¡la": 7571,
      "Ġsamy": 7572,
      "Ġstatky": 7573,
      "ĠchuÄıas": 7574,
      "Ġtakou": 7575,
      "ĠpraÅ¾": 7576,
      "ĠmÃŃÅĻÃŃ": 7577,
      "ĠtÃ¡hla": 7578,
      "ovi": 7579,
      "Ġposa": 7580,
      "vaÅ¥": 7581,
      "ĠtulÃŃ": 7582,
      "Ġdivem": 7583,
      "Ġreka": 7584,
      "skot": 7585,
      "ĠdÄĽlat": 7586,
      "ĠnajdeÅ¡": 7587,
      "Ġsmilo": 7588,
      "Ġjina": 7589,
      "Ġpodal": 7590,
      "ĠdeÅ¡": 7591,
      "ĠfÃ¡": 7592,
      "Ġbledne": 7593,
      "ĠveselÃ©": 7594,
      "tiÅ¾": 7595,
      "ĠholÃ¡": 7596,
      "toma": 7597,
      "ĠdÃŃtek": 7598,
      "Ġdivou": 7599,
      "ĠosvÄĽt": 7600,
      "ĠptÃ¡Äįek": 7601,
      "ĠnÄĽhou": 7602,
      "danÃ©": 7603,
      "ĠÅ¾ivou": 7604,
      "Ġsady": 7605,
      "pajÃŃ": 7606,
      "Ġvlk": 7607,
      "ĠneÄįi": 7608,
      "ĠvztÃ½": 7609,
      "ĠmyslÃŃÅ¡": 7610,
      "Ġjedu": 7611,
      "Ġpospo": 7612,
      "chÃ¡zÃŃm": 7613,
      "Ġhloubky": 7614,
      "ĠÄįtenÃ¡": 7615,
      "Ġznich": 7616,
      "ĠzÃ¡vist": 7617,
      "ĠmatiÄįko": 7618,
      "Ġjesky": 7619,
      "Ġudat": 7620,
      "Ġzloby": 7621,
      "Ġtrub": 7622,
      "Ġkriste": 7623,
      "Ġsboru": 7624,
      "ĠvlÃŃdnÃ½": 7625,
      "ĠzkamenÄĽ": 7626,
      "rz": 7627,
      "Ġmami": 7628,
      "ĠuklÃ¡": 7629,
      "ĠpoÅ¾ehna": 7630,
      "ĠhedbÃ¡": 7631,
      "jezd": 7632,
      "ĠrvÃ¡t": 7633,
      "ĠvÄĽÅĻil": 7634,
      "ĠkrutÃ¡": 7635,
      "ĠrÅ¯Å¾ovÃ©": 7636,
      "ĠsÅĪat": 7637,
      "ĠtiÅ¡i": 7638,
      "Ġpohla": 7639,
      "ĠtichÃ½ch": 7640,
      "ĠvÅĻelÃ©": 7641,
      "Ġ22": 7642,
      "ĠzÃ¡vod": 7643,
      "Ġholubice": 7644,
      "ĠvzrÅ¯stÃ¡": 7645,
      "Ġtec": 7646,
      "ĠdÄĽlo": 7647,
      "ĠpÅĻim": 7648,
      "ĠcizÃ¡": 7649,
      "ĠslunÃ©": 7650,
      "ĠrÅ¯Å¾emi": 7651,
      "ĠdÅĻÃŃme": 7652,
      "Ġzvukem": 7653,
      "Ġvypo": 7654,
      "ĠpÅĻeko": 7655,
      "ĠÅĻÃŃd": 7656,
      "ÅĻeno": 7657,
      "Ġmrtvou": 7658,
      "ĠnenÃ¡vist": 7659,
      "ĠspanilÃ¡": 7660,
      "chvat": 7661,
      "Ġstva": 7662,
      "Ġzatra": 7663,
      "ĠvÃ¡hÃ¡": 7664,
      "Ġokovy": 7665,
      "Ġpaty": 7666,
      "Ġkameny": 7667,
      "Ġvizte": 7668,
      "Ġlije": 7669,
      "lout": 7670,
      "rdÃŃ": 7671,
      "Ġzik": 7672,
      "ĠstejnÃ©": 7673,
      "Ã©l": 7674,
      "Ġdoh": 7675,
      "Ġtahy": 7676,
      "Ġrada": 7677,
      "ĠdobÃ¡ch": 7678,
      "Ġpadlo": 7679,
      "Ġptact": 7680,
      "cÃ©": 7681,
      "nkÃ½": 7682,
      "Ġnovo": 7683,
      "ĠspÃŃnÃ¡": 7684,
      "ĠpoÄįkej": 7685,
      "Ġvzlyk": 7686,
      "pku": 7687,
      "Ġsmo": 7688,
      "vami": 7689,
      "ĠvÄĽdomÃŃ": 7690,
      "ĠstaletÃŃ": 7691,
      "Ġdlouze": 7692,
      "ĠjedenkrÃ¡t": 7693,
      "ĠkolÃ©bky": 7694,
      "voÅĻÃŃ": 7695,
      "Ġkleno": 7696,
      "ĠkrajÅ¯": 7697,
      "ĠvÄįely": 7698,
      "Ġsestro": 7699,
      "Ã¡jem": 7700,
      "ĠnahÃ©": 7701,
      "ĠkoÅĻÃŃ": 7702,
      "ĠskÅĻe": 7703,
      "vejte": 7704,
      "Äįinou": 7705,
      "ĠÃºko": 7706,
      "Ġhrady": 7707,
      "ĠsterÃ©": 7708,
      "ĠoblakÅ¯": 7709,
      "Ġvrchol": 7710,
      "ĠfarÃ¡ÅĻ": 7711,
      "dnÃ©ho": 7712,
      "slÃŃ": 7713,
      "ĠnÃŃtÃŃ": 7714,
      "Å¡enÃ½ch": 7715,
      "Ġbed": 7716,
      "ĠdÅ¯kaz": 7717,
      "ĠkomÃŃ": 7718,
      "Ġsynem": 7719,
      "trÃ¡": 7720,
      "dÄĽje": 7721,
      "ĠkaÅ¾di": 7722,
      "ĠptÃ¡ky": 7723,
      "Ġvadne": 7724,
      "Ġrodnou": 7725,
      "ĠvznÃ¡Å¡e": 7726,
      "ĠpÅĻedkÅ¯": 7727,
      "Ġnemohou": 7728,
      "ĠjednotvÃ¡": 7729,
      "ĠdrÃ¡Å¾": 7730,
      "prÃ¡": 7731,
      "ĠkoÅ¡": 7732,
      "ĠÄįisto": 7733,
      "Ġneur": 7734,
      "ĠhrÃ¡la": 7735,
      "Ġtohle": 7736,
      "Ġumu": 7737,
      "Ġprose": 7738,
      "ĠmodrÃ½m": 7739,
      "prve": 7740,
      "ĠhrÃ¡z": 7741,
      "Ġchasa": 7742,
      "ato": 7743,
      "ĠvÄĽjÃŃ": 7744,
      "trp": 7745,
      "Ġdivnou": 7746,
      "Ġnecho": 7747,
      "ĠnÃ¡rodnÃŃ": 7748,
      "Ġnedba": 7749,
      "ĠhoroucÃŃ": 7750,
      "Ġvyra": 7751,
      "Ġkama": 7752,
      "Ġstanu": 7753,
      "ĠbÄĽlou": 7754,
      "ĠÄįlovÄĽÄįen": 7755,
      "Ġchvatem": 7756,
      "Ġchrab": 7757,
      "dovi": 7758,
      "Ġprale": 7759,
      "ĠjarÃ½": 7760,
      "ĠvdÃ¡l": 7761,
      "ĠzmÃ¡": 7762,
      "ĠoÄįÃŃm": 7763,
      "Ġvzdal": 7764,
      "Ġkara": 7765,
      "Ġboky": 7766,
      "ĠsÃŃtÃŃ": 7767,
      "rii": 7768,
      "ĠvÅĻele": 7769,
      "rozenÃŃ": 7770,
      "ĠhoÅĻce": 7771,
      "staly": 7772,
      "zila": 7773,
      "ĠvojÃ¡k": 7774,
      "svit": 7775,
      "vÄĽtÅĻÃŃ": 7776,
      "Ġohla": 7777,
      "Ġpochod": 7778,
      "Ġpsi": 7779,
      "Ġposlech": 7780,
      "Ġbranou": 7781,
      "Ġkryl": 7782,
      "Ġuply": 7783,
      "ĠplachÃ©": 7784,
      "ĠknÃ¡m": 7785,
      "ĠdÃ¡me": 7786,
      "ĠrozÅ¾": 7787,
      "Å¡ilo": 7788,
      "ĠprÃ¡vu": 7789,
      "ĠvÅ¯lÃŃ": 7790,
      "Ġuml": 7791,
      "ĠradÅ¡": 7792,
      "Ġpso": 7793,
      "Ġrudou": 7794,
      "Ġrab": 7795,
      "ĠvÃ½ho": 7796,
      "ĠkeÅĻi": 7797,
      "tkou": 7798,
      "ĠchutÄĽ": 7799,
      "ĠklÃŃÄį": 7800,
      "ĠchvÃ¡lÃŃ": 7801,
      "ĠÄįechÅ¯": 7802,
      "stoupÃŃ": 7803,
      "Ġklesne": 7804,
      "Ġvzadu": 7805,
      "Ġneve": 7806,
      "ĠplnÃ©m": 7807,
      "Ġnevinnosti": 7808,
      "Ġleck": 7809,
      "ĠÄįej": 7810,
      "ĠprÃ¡v": 7811,
      "ĠrudÃ½m": 7812,
      "Ġsno": 7813,
      "land": 7814,
      "ĠdeÅ¡Å¥": 7815,
      "ĠpÄĽvec": 7816,
      "Ġsoudce": 7817,
      "Ġknize": 7818,
      "Ġmodlitby": 7819,
      "pak": 7820,
      "ĠvnÃŃ": 7821,
      "ĠÅ¡kÅ¯": 7822,
      "Ġpacho": 7823,
      "ĠzeÅĪ": 7824,
      "Ġfe": 7825,
      "rati": 7826,
      "ĠsuchÃ½": 7827,
      "ĠstÅĻely": 7828,
      "Ġslunka": 7829,
      "Ġprachem": 7830,
      "Ġstavu": 7831,
      "Ġhranice": 7832,
      "ĠsÃ¡l": 7833,
      "Ġudiven": 7834,
      "Ġzry": 7835,
      "ĠmÃŃÅĪ": 7836,
      "ĠstraÅ¡nÄĽ": 7837,
      "ĠmilÃ©ho": 7838,
      "ĠhrÅ¯zu": 7839,
      "ĠnaÅ¡im": 7840,
      "penÃ©": 7841,
      "ĠznamenÃ¡": 7842,
      "ĠdÃ³": 7843,
      "Ġrtoma": 7844,
      "ĠvzÅĪat": 7845,
      "bych": 7846,
      "ĠÅĻeku": 7847,
      "Ġzbloudil": 7848,
      "Ġdoubra": 7849,
      "Ġhloupo": 7850,
      "ĠvÃŃtÄĽznÄĽ": 7851,
      "ĠpÃ½chu": 7852,
      "Ġresigna": 7853,
      "lostÃŃ": 7854,
      "ĠchÃ¡m": 7855,
      "skat": 7856,
      "tina": 7857,
      "Ġnico": 7858,
      "ĠÅ¾ÃŃznÃŃ": 7859,
      "ĠpouhÃ¡": 7860,
      "Ġstop": 7861,
      "Ġzdu": 7862,
      "Ġnastal": 7863,
      "Ġmini": 7864,
      "vetla": 7865,
      "Ġdivu": 7866,
      "ĠtÅĻÃŃÅ¡tÃŃ": 7867,
      "Ġmrzu": 7868,
      "Ġskrze": 7869,
      "Ġponu": 7870,
      "ĠokamÅ¾enÃŃ": 7871,
      "Ġloktech": 7872,
      "ĠveÅ¡ker": 7873,
      "sÅ¡ÃŃ": 7874,
      "Ġchar": 7875,
      "ĠvÃŃÅĻe": 7876,
      "ĠpÅĻivi": 7877,
      "bilo": 7878,
      "ĠsvÄĽti": 7879,
      "ĠÃºdÄĽl": 7880,
      "Ġzpra": 7881,
      "ĠsÃŃnÃŃ": 7882,
      "ĠrybÃ¡": 7883,
      "ĠhvÄĽzdo": 7884,
      "ĠpyÅ¡nÃ½": 7885,
      "Ġvypro": 7886,
      "ĠkvapÃŃ": 7887,
      "ĠpÃ©ro": 7888,
      "ĠzkuÅ¡en": 7889,
      "Ġduje": 7890,
      "Ġvzruch": 7891,
      "livou": 7892,
      "Ġsyt": 7893,
      "ĠhvÄĽzdu": 7894,
      "ĠÅ¡tÃŃty": 7895,
      "ĠÅĻadÄĽ": 7896,
      "Ġsrp": 7897,
      "Ġzmatek": 7898,
      "vÃ¡no": 7899,
      "Ġmuse": 7900,
      "ĠrÃ¡ch": 7901,
      "Ġdin": 7902,
      "ĠchladnÃ¡": 7903,
      "ĠjiskÅĻÃŃ": 7904,
      "Ġzmije": 7905,
      "ĠzaÅ¡lÃ©": 7906,
      "ĠprostÄĽ": 7907,
      "ĠboÅ¾skÃ½": 7908,
      "brat": 7909,
      "Ġotrok": 7910,
      "ĠzÅ¯stane": 7911,
      "ĠkrÅ¯pÄĽje": 7912,
      "ĠuÅ¡lechtil": 7913,
      "the": 7914,
      "Ġzane": 7915,
      "Ġvrab": 7916,
      "ĠjakÃ¡s": 7917,
      "Ġlebky": 7918,
      "ĠstÅ¯nÄĽ": 7919,
      "ur": 7920,
      "Ġuh": 7921,
      "ĠusÃŃ": 7922,
      "ĠABB": 7923,
      "ĠsnÄĽhy": 7924,
      "ĠvÄĽzenÃŃ": 7925,
      "ĠmatiÄįka": 7926,
      "ĠzÃ½": 7927,
      "Ġust": 7928,
      "lÃ¡Å¡": 7929,
      "Ġdalo": 7930,
      "ĠbÃ¡zeÅĪ": 7931,
      "dily": 7932,
      "Ġvrouc": 7933,
      "Ġrmut": 7934,
      "ĠbdÄĽl": 7935,
      "ĠrojÃŃ": 7936,
      "ĠpÃ¡du": 7937,
      "ĠmilÃ½m": 7938,
      "ĠAAAA": 7939,
      "ĠkamarÃ¡": 7940,
      "tlo": 7941,
      "ĠveÅ¡la": 7942,
      "Ġkruhy": 7943,
      "ĠÅ¾lutÃ½": 7944,
      "ĠÄįervÃ¡nky": 7945,
      "Ġdojat": 7946,
      "Ġpronika": 7947,
      "Ġtemnu": 7948,
      "ĠhÅĻÃŃchem": 7949,
      "ĠhvÄĽzdnÃ½": 7950,
      "Ġbarbar": 7951,
      "ĠzaznÄĽl": 7952,
      "ĠsedÃŃm": 7953,
      "Ġnaro": 7954,
      "ĠuÅ¾ÃŃ": 7955,
      "nuje": 7956,
      "Ġlada": 7957,
      "Ġobsa": 7958,
      "dÃŃte": 7959,
      "ĠvÅ¡echnÄĽch": 7960,
      "Ġsmutkem": 7961,
      "ĠkÃ½s": 7962,
      "cos": 7963,
      "bas": 7964,
      "smÃ¡": 7965,
      "Ġvec": 7966,
      "vÃŃtÃ¡": 7967,
      "ĠdivÃ½m": 7968,
      "ĠtÃ¡Å¾e": 7969,
      "ĠsvÄĽto": 7970,
      "ĠpoznÃ¡nÃŃ": 7971,
      "ĠostrÃ©": 7972,
      "Ġplout": 7973,
      "Ġmoder": 7974,
      "Ġrozleh": 7975,
      "volnÄĽ": 7976,
      "ĠleknÃŃ": 7977,
      "fy": 7978,
      "ĠÅ¡ku": 7979,
      "Ġpase": 7980,
      "ĠdeÅ¡tÄĽm": 7981,
      "Ġpsy": 7982,
      "ĠpodÃ©l": 7983,
      "Ġosudem": 7984,
      "Ġsamoty": 7985,
      "ĠpojÄıte": 7986,
      "Ġdokola": 7987,
      "ĠAXABBX": 7988,
      "ĠzpomÃŃ": 7989,
      "Ġvydal": 7990,
      "ĠÅ¡edou": 7991,
      "ĠkÅĻiku": 7992,
      "ĠtajemnÃ½": 7993,
      "ĠpsÃ¡no": 7994,
      "ĠkÅĻiÅ¡Å¥Ã¡": 7995,
      "Ġvt": 7996,
      "pÄĽtÃŃ": 7997,
      "ĠpalÄįi": 7998,
      "Ġsnila": 7999,
      "Ġtone": 8000,
      "Ġrovi": 8001,
      "Ġtanec": 8002,
      "Ġkynul": 8003,
      "Ġsvoboda": 8004,
      "ĠnekoneÄįnÃ©": 8005,
      "ĠÅ¾ivÃ½ch": 8006,
      "Ġostrov": 8007,
      "ĠpÅ¯jdem": 8008,
      "ĠuÄįinil": 8009,
      "ĠnetÅĻe": 8010,
      "ĠvidÄĽli": 8011,
      "ĠrÅ¯Å¾en": 8012,
      "Ġzkro": 8013,
      "ĠjemnÃ½": 8014,
      "Ġsit": 8015,
      "ledne": 8016,
      "Ġtrh": 8017,
      "ĠbÃ¡seÅĪ": 8018,
      "Ġchoti": 8019,
      "ĠtluÄįe": 8020,
      "Ġkalu": 8021,
      "Ġrostla": 8022,
      "ĠmÃ¡jo": 8023,
      "ĠnejvÃŃce": 8024,
      "ĠdomÃ¡cÃŃ": 8025,
      "ĠÅ¾ol": 8026,
      "Ġsprost": 8027,
      "ĠpÅĻiÅ¡ly": 8028,
      "pÄĽnÃŃ": 8029,
      "Ġhynou": 8030,
      "ĠblÃŃzku": 8031,
      "ĠvÅĻava": 8032,
      "Ġvpra": 8033,
      "ĠberÃ¡": 8034,
      "ĠveÄįeru": 8035,
      "Ġklou": 8036,
      "Ġneto": 8037,
      "ĠvyvÃ¡": 8038,
      "ĠstÅĻech": 8039,
      "Ġzvl": 8040,
      "Ġoblohy": 8041,
      "ĠkvÃ©sti": 8042,
      "ĠhÃ©m": 8043,
      "dami": 8044,
      "Ġvost": 8045,
      "Ġlom": 8046,
      "Ġrys": 8047,
      "plnÃ©": 8048,
      "Ġvedli": 8049,
      "ĠchudÃ¡k": 8050,
      "Ġsouzvuk": 8051,
      "Ġpola": 8052,
      "ĠpÅĻivÃ¡": 8053,
      "Ġvysch": 8054,
      "ĠbludnÃ©": 8055,
      "Ġpostava": 8056,
      "ĠodpovÃŃdÃ¡": 8057,
      "ĠpÃŃÅ¡Å¥": 8058,
      "ĠchladnÄĽ": 8059,
      "Ġpoklo": 8060,
      "ĠbohatstvÃŃ": 8061,
      "chÃ¡zejÃŃ": 8062,
      "ĠzamyÅ¡le": 8063,
      "ĠnÃ¡hodou": 8064,
      "budil": 8065,
      "Ġtrudu": 8066,
      "ĠobracÃŃ": 8067,
      "Ġaf": 8068,
      "ĠABABBX": 8069,
      "ĠtuÅ¡il": 8070,
      "Ġnejkra": 8071,
      "Ġnesli": 8072,
      "ĠchvÃ¡la": 8073,
      "ĠzmÃ¡men": 8074,
      "ble": 8075,
      "Ġmus": 8076,
      "ĠhledÄĽt": 8077,
      "Ġtravou": 8078,
      "ĠzvÃŃÅĻ": 8079,
      "Ġzvyku": 8080,
      "Ġstrou": 8081,
      "Ġledu": 8082,
      "vajÃŃcÃŃ": 8083,
      "Ġvycho": 8084,
      "ver": 8085,
      "ĠhravÄĽ": 8086,
      "Ġanto": 8087,
      "ĠveÄįerem": 8088,
      "ĠvÄĽrnou": 8089,
      "ĠdÄĽtskÃ½ch": 8090,
      "Ġzvedl": 8091,
      "ĠuÄįitel": 8092,
      "Ġpovzdech": 8093,
      "Ġrozkvet": 8094,
      "lce": 8095,
      "rmu": 8096,
      "Ġkoj": 8097,
      "ĠÅ¡epot": 8098,
      "Ġmocnou": 8099,
      "cÃŃmi": 8100,
      "ĠstÅĻÃŃbra": 8101,
      "Ġillu": 8102,
      "nalo": 8103,
      "Ġveta": 8104,
      "ĠhodnÄĽ": 8105,
      "ĠrozdÃŃ": 8106,
      "ĠrozpÃ¡": 8107,
      "Ġmodli": 8108,
      "ĠrudÃ½ch": 8109,
      "ĠÄįekat": 8110,
      "Ġnejsme": 8111,
      "ĠvchÃ¡zÃŃ": 8112,
      "ĠvidÄĽti": 8113,
      "tri": 8114,
      "ĠspÃ¡r": 8115,
      "Ġodevz": 8116,
      "ĠmÄĽkkÃ¡": 8117,
      "Ġmodlitbou": 8118,
      "ĠblaÅ¾enosti": 8119,
      "ĠkvÄĽtin": 8120,
      "Äįata": 8121,
      "Ġleje": 8122,
      "ĠkrÃ¡ÄįÃŃm": 8123,
      "ĠtÃŃÅ¾e": 8124,
      "Ġsype": 8125,
      "ĠspoÄįi": 8126,
      "gie": 8127,
      "ĠÅ¡klebÃŃ": 8128,
      "ĠponÃŃ": 8129,
      "ĠpolnÃŃ": 8130,
      "ĠslunÃŃ": 8131,
      "Ġplav": 8132,
      "Ġmag": 8133,
      "ĠkonÄįÃŃ": 8134,
      "Ġopojen": 8135,
      "Ġchmury": 8136,
      "Ġprobudil": 8137,
      "ĠpoÄįe": 8138,
      "Ġhostem": 8139,
      "ĠosvÃŃ": 8140,
      "Ġpadal": 8141,
      "Ġnaj": 8142,
      "Ġposk": 8143,
      "Ġmistra": 8144,
      "dol": 8145,
      "ĠvÃŃsky": 8146,
      "pÃ¡ch": 8147,
      "Ġmrtva": 8148,
      "ĠzvÄĽsti": 8149,
      "ĠhÅ¯ry": 8150,
      "ĠzÅ¯staÅĪ": 8151,
      "ĠtÃ©mÄĽÅĻ": 8152,
      "Ġsvla": 8153,
      "ĠchlÃ¡": 8154,
      "Ġodpou": 8155,
      "mor": 8156,
      "ĠdÄĽtskÃ½": 8157,
      "ĠblÃ¡z": 8158,
      "Ġhospodin": 8159,
      "ĠslÃ©": 8160,
      "Ġnna": 8161,
      "ruÅ¡ÃŃ": 8162,
      "ĠvÃ½stra": 8163,
      "ĠdobÅĻÃŃ": 8164,
      "Ġnepra": 8165,
      "Ġkolkolem": 8166,
      "ĠhÅĻeje": 8167,
      "ĠsmyslÅ¯": 8168,
      "Ġskvo": 8169,
      "ĠdÃŃvek": 8170,
      "Ġmedu": 8171,
      "ĠpoÄįÃŃnÃ¡": 8172,
      "ckÃ©m": 8173,
      "zdÃŃ": 8174,
      "Ġmoj": 8175,
      "Äįeje": 8176,
      "ĠÄįasnÄĽ": 8177,
      "Ġmraven": 8178,
      "ĠzpÃŃvÃ¡m": 8179,
      "ĠubohÃ¡": 8180,
      "Ġkmeny": 8181,
      "ĠumÃŃrÃ¡nÃŃ": 8182,
      "Ġnai": 8183,
      "Ġdoved": 8184,
      "ĠjedinÄĽ": 8185,
      "Ġpomoz": 8186,
      "ĠvÃŃtÄĽznÃ½": 8187,
      "ĠluznÃ©": 8188,
      "ĠÅ¡lechet": 8189,
      "ĠvnitÅĻnÃŃ": 8190,
      "ĠÄįekajÃŃ": 8191,
      "Ġstesku": 8192,
      "ĠdÄĽsnÃ¡": 8193,
      "ĠpovÅ¾dy": 8194,
      "plo": 8195,
      "par": 8196,
      "Ġtlesk": 8197,
      "Å¾nÃ½m": 8198,
      "Ġab": 8199,
      "ĠvÅ¡ecek": 8200,
      "ĠÄįÃŃhÃ¡": 8201,
      "ĠpospÄĽ": 8202,
      "ĠznÃ¡me": 8203,
      "ĠlÃŃbat": 8204,
      "ĠvlhkÃ©": 8205,
      "Ġhnus": 8206,
      "lekÃ¡": 8207,
      "Ġjene": 8208,
      "Ġtaji": 8209,
      "Ġkapra": 8210,
      "Ġmrtvol": 8211,
      "Ġvrak": 8212,
      "ĠpovÃŃm": 8213,
      "dÄĽlo": 8214,
      "ĠandÄĽla": 8215,
      "Ġvztekem": 8216,
      "Ġmdle": 8217,
      "ĠdoÅ¡el": 8218,
      "Ġuchy": 8219,
      "ĠtÄĽsnÄĽ": 8220,
      "Ġlucy": 8221,
      "Ġstatek": 8222,
      "Ġnaproti": 8223,
      "ĠuboÅ¾Ã¡": 8224,
      "ĠvzpomnÄĽl": 8225,
      "ĠzachvÄĽla": 8226,
      "ĠkolikrÃ¡t": 8227,
      "tati": 8228,
      "ÅĻk": 8229,
      "ĠdajÃŃ": 8230,
      "ĠtrpÄĽl": 8231,
      "Ġmeze": 8232,
      "ĠshromÃ¡": 8233,
      "lnost": 8234,
      "ĠchutÃŃ": 8235,
      "ĠstÅĻechu": 8236,
      "ĠtÃ½den": 8237,
      "ĠsklonÃŃ": 8238,
      "ĠnavÅ¡tÃŃ": 8239,
      "ĠnÃŃzkÃ©": 8240,
      "ĠÅ¥u": 8241,
      "ĠvlÃ©": 8242,
      "ĠÅ¡pÃŃ": 8243,
      "ĠnocÃŃch": 8244,
      "ĠlouÄįÃŃ": 8245,
      "ĠvolnÃ©": 8246,
      "ĠXAAXBB": 8247,
      "chej": 8248,
      "lis": 8249,
      "ĠnÄĽha": 8250,
      "ĠÃºbÄĽ": 8251,
      "Ġshnil": 8252,
      "ĠchÃ¡pe": 8253,
      "Ġrozep": 8254,
      "Ġmilence": 8255,
      "Ġfiloso": 8256,
      "nÄĽjÃŃ": 8257,
      "ĠustÃ¡nÃŃ": 8258,
      "ĠhostÃ©": 8259,
      "ĠtÄĽs": 8260,
      "Ġkrej": 8261,
      "Ġdere": 8262,
      "Ġstudu": 8263,
      "Ġhovoru": 8264,
      "Ġsteskem": 8265,
      "Ġlkal": 8266,
      "ĠdoznÄĽ": 8267,
      "ĠniÄįeho": 8268,
      "Ġnebu": 8269,
      "ĠsamÃ¡": 8270,
      "chan": 8271,
      "ĠskoÄįil": 8272,
      "ĠzlobÄĽ": 8273,
      "vrh": 8274,
      "Ġduhu": 8275,
      "Ġmon": 8276,
      "ĠsvojÃŃm": 8277,
      "ĠvalnÃ©": 8278,
      "ĠhrÅ¯ze": 8279,
      "ĠpÃ½chy": 8280,
      "Ġnesa": 8281,
      "ĠnedÄĽli": 8282,
      "ĠvÄĽtev": 8283,
      "ĠÅ¾id": 8284,
      "tavÃ½": 8285,
      "ĠXAAA": 8286,
      "ĠvÃŃtÄĽzÃŃ": 8287,
      "ĠzavÅĻel": 8288,
      "ĠpromÄĽnÃŃ": 8289,
      "Ġglo": 8290,
      "Ġplachty": 8291,
      "ĠÅ¡ÃŃlenstvÃŃ": 8292,
      "blou": 8293,
      "rag": 8294,
      "Ġdosa": 8295,
      "Ġrosu": 8296,
      "ĠÃºpÃŃ": 8297,
      "Ġhude": 8298,
      "Äįenou": 8299,
      "ĠkÅĻikem": 8300,
      "ĠlÅ¯na": 8301,
      "Ġkladou": 8302,
      "ĠsmÄĽlÃ©": 8303,
      "Ġdomova": 8304,
      "ĠnadÅ¡enÃŃm": 8305,
      "lkÅ¯": 8306,
      "nskÃ©": 8307,
      "ĠorÃ¡": 8308,
      "ĠÅ¡ka": 8309,
      "vÃ©st": 8310,
      "Ġnebud": 8311,
      "ĠtrvÃ¡": 8312,
      "rÅ¯v": 8313,
      "ĠbudoucÃŃ": 8314,
      "Ġzelena": 8315,
      "ĠlehkÃ©": 8316,
      "ĠpÅĻÃŃrodÄĽ": 8317,
      "br": 8318,
      "ĠpsÃŃ": 8319,
      "Ġpoo": 8320,
      "ĠstvÃŃm": 8321,
      "Ġzask": 8322,
      "cejÃŃ": 8323,
      "ĠstÃ¡lÃ½": 8324,
      "Ġmodrou": 8325,
      "Ġoknech": 8326,
      "ĠhrÃ¡m": 8327,
      "uji": 8328,
      "ĠtouÅ¾e": 8329,
      "Äįkami": 8330,
      "ĠpÅ¯da": 8331,
      "Ġdvora": 8332,
      "ĠÅ¾alÃ¡ÅĻ": 8333,
      "ĠvÃ¡Å¾nÃ©": 8334,
      "ĠchorÃ½": 8335,
      "Ġzvonek": 8336,
      "ĠÅ¡Å¥Ã¡": 8337,
      "bnÃ½ch": 8338,
      "Ã©r": 8339,
      "ĠvÄĽje": 8340,
      "Ġkadi": 8341,
      "ĠvÃŃly": 8342,
      "Ġchoro": 8343,
      "ĠdlouhÃ©m": 8344,
      "ĠvÅĻes": 8345,
      "Ġhvizd": 8346,
      "ĠzvÄĽt": 8347,
      "ÄįnÃ©ho": 8348,
      "ĠceliÄį": 8349,
      "ĠknÄĽze": 8350,
      "ĠtajnÃ½": 8351,
      "Ġskutky": 8352,
      "ĠpestrÃ½ch": 8353,
      "ĠlabuÅ¥": 8354,
      "Ġhes": 8355,
      "Ġrodiny": 8356,
      "Å¡kÃ¡": 8357,
      "Ġnedej": 8358,
      "Ġchlou": 8359,
      "Ġbudo": 8360,
      "hÃ¡Äį": 8361,
      "ĠspÃ¡sa": 8362,
      "ĠandÄĽlÅ¯": 8363,
      "Ġkusy": 8364,
      "ĠmÃ¡lem": 8365,
      "Ġeh": 8366,
      "ĠstrÃ¡Å¾e": 8367,
      "Ġodo": 8368,
      "ĠnamÃ¡": 8369,
      "Ġcnost": 8370,
      "Ġuprch": 8371,
      "teÄįnÄĽ": 8372,
      "ĠniÄįÃŃ": 8373,
      "ĠobilÃŃ": 8374,
      "taje": 8375,
      "Ġmyslit": 8376,
      "Ġhotov": 8377,
      "ĠvelkÃ©m": 8378,
      "Ġpustou": 8379,
      "Ġokolo": 8380,
      "ĠkvÃŃtko": 8381,
      "ĠprÃ½Å¡tÃŃ": 8382,
      "Ġpodla": 8383,
      "Ġsluj": 8384,
      "ĠdaÅĪ": 8385,
      "Ġmnohem": 8386,
      "benÃ½": 8387,
      "ĠhÅĻbet": 8388,
      "paly": 8389,
      "Ġjedle": 8390,
      "ĠsmÄĽr": 8391,
      "ĠbujnÄĽ": 8392,
      "!?": 8393,
      "ĠnÃ¡la": 8394,
      "ĠdÃ¡lek": 8395,
      "ĠÅĻekou": 8396,
      "zujÃŃ": 8397,
      "ĠÅ¾alosti": 8398,
      "ĠosamÄĽlÃ½": 8399,
      "Ġpoti": 8400,
      "Ġcvi": 8401,
      "Ġduhy": 8402,
      "ĠvrÃ¡tit": 8403,
      "ĠdÄĽtmi": 8404,
      "Ġhodo": 8405,
      "ĠnÄĽÅ¾nÄĽ": 8406,
      "Ġodnes": 8407,
      "Å¡enÃŃm": 8408,
      "ĠtvÅ¯rce": 8409,
      "ĠnÃ¡vÅ¡tÄĽ": 8410,
      "ĠvsÃŃ": 8411,
      "Ġdomek": 8412,
      "dÃ¡n": 8413,
      "ĠpÅĻÃŃbu": 8414,
      "Ġzvonky": 8415,
      "stÃ¡r": 8416,
      "Ġgar": 8417,
      "ĠblÃ¡zen": 8418,
      "ĠpÅĻijmi": 8419,
      "Ġvho": 8420,
      "Ġvyjas": 8421,
      "ĠdrazÃŃ": 8422,
      "Ġbel": 8423,
      "Ġang": 8424,
      "skÃ¡ch": 8425,
      "zoval": 8426,
      "ĠschÅ¯": 8427,
      "Ġsje": 8428,
      "Å¡nou": 8429,
      "ĠpotÅ¯": 8430,
      "ĠÅ¾ivÄĽ": 8431,
      "ĠÄįili": 8432,
      "douc": 8433,
      "ĠhluÄįnÄĽ": 8434,
      "Ġvrata": 8435,
      "ĠstÃ½skÃ¡": 8436,
      "Å¾ejÃŃ": 8437,
      "zela": 8438,
      "Ġzemdle": 8439,
      "ĠÅ¡ÃŃpy": 8440,
      "Ġklec": 8441,
      "Ġstarosti": 8442,
      "Ġsoucitu": 8443,
      "ĠvztÃ¡": 8444,
      "Ġobna": 8445,
      "Ġtyra": 8446,
      "ĠhromÅ¯": 8447,
      "ĠhustÃ½": 8448,
      "Ġhrdina": 8449,
      "Ġotcov": 8450,
      "daly": 8451,
      "Ġvku": 8452,
      "ĠpravÄĽ": 8453,
      "zali": 8454,
      "ĠhrdÃ¡": 8455,
      "Ġchladu": 8456,
      "ĠzajÃ¡": 8457,
      "voru": 8458,
      "Ġjedou": 8459,
      "tÃ©Å¾": 8460,
      "Ġnemohl": 8461,
      "ĠvÄĽdo": 8462,
      "ĠvÄĽsÃŃ": 8463,
      "ĠmlÄįel": 8464,
      "Ġhero": 8465,
      "ĠdceÅĻi": 8466,
      "ĠhoÅĻkÃ½": 8467,
      "ĠkadeÅĻ": 8468,
      "ĠtÃŃsni": 8469,
      "Ġkoutku": 8470,
      "ĠpusÅ¥": 8471,
      "Å¾eny": 8472,
      "ĠmrtvÃ½m": 8473,
      "ĠhloÅ¾ÃŃ": 8474,
      "jetÃŃ": 8475,
      "Ġidy": 8476,
      "ĠvÃŃrou": 8477,
      "Ġstromech": 8478,
      "ĠptÃ¡t": 8479,
      "Ġneuz": 8480,
      "ĠtÃ¡hly": 8481,
      "ĠblÃ¡to": 8482,
      "ĠzdravÃ½": 8483,
      "Ġkostel": 8484,
      "ĠpolibkÅ¯": 8485,
      "Ġhavran": 8486,
      "vajÃŃc": 8487,
      "Ġinu": 8488,
      "ĠhlavnÃŃ": 8489,
      "ĠsyÄįÃŃ": 8490,
      "Ġsvor": 8491,
      "ĠkeÅĻe": 8492,
      "ĠtuÅ¾by": 8493,
      "ĠneustÃ¡le": 8494,
      "Ġptactvo": 8495,
      "ĠhoÅĻel": 8496,
      "ĠplazÃŃ": 8497,
      "ĠlukÃ¡ch": 8498,
      "ĠnejlÃŃp": 8499,
      "Ġchoval": 8500,
      "Ġprosby": 8501,
      "Ġzvedla": 8502,
      "ĠtisÃŃckrÃ¡t": 8503,
      "ĠdobrÃ©ho": 8504,
      "ĠzajistÃ©": 8505,
      "ĠvÄĽzÃŃ": 8506,
      "ĠsvornÄĽ": 8507,
      "Ġzjevy": 8508,
      "ĠnimiÅ¾": 8509,
      "ĠhlÃŃny": 8510,
      "ĠvÃŃtej": 8511,
      "ĠnetopÃ½": 8512,
      "ĠnÃ¡pad": 8513,
      "ĠdÃ¡na": 8514,
      "ÄįÃŃs": 8515,
      "ĠneumÃŃ": 8516,
      "Ġmodlitba": 8517,
      "ĠzoufalÃ½": 8518,
      "ĠnevinnÃ©": 8519,
      "ĠskÅĻivÃ¡n": 8520,
      "ĠlkÃ¡t": 8521,
      "ĠkvetoucÃŃ": 8522,
      "dni": 8523,
      "ĠnÄĽkam": 8524,
      "Ġobr": 8525,
      "ĠÄįÃŃch": 8526,
      "ÄįenÃ½ch": 8527,
      "ĠvÄĽrnÃ½ch": 8528,
      "plnÃ½": 8529,
      "Ġkrajiny": 8530,
      "ĠvzdechÅ¯": 8531,
      "ĠhoÅĻkÃ©": 8532,
      "Å¾kou": 8533,
      "Ġoc": 8534,
      "ĠchlÃ©": 8535,
      "Ġpropas": 8536,
      "Äįelo": 8537,
      "Ġdomovu": 8538,
      "ĠdbÃ¡": 8539,
      "Ġpohod": 8540,
      "Ġpara": 8541,
      "zeno": 8542,
      "Ġobrazem": 8543,
      "Ġzora": 8544,
      "ĠnejdÅĻÃŃv": 8545,
      "Ġposko": 8546,
      "ĠtotiÅ¾": 8547,
      "dÄĽlÃ¡": 8548,
      "dan": 8549,
      "ĠÃºÄį": 8550,
      "silo": 8551,
      "Ġvrahy": 8552,
      "Ġusnul": 8553,
      "Ġzlosti": 8554,
      "Ġjinam": 8555,
      "rnÃ©ho": 8556,
      "ÃŃnÃ¡": 8557,
      "Ġura": 8558,
      "Ġhlase": 8559,
      "ĠdivÃŃ": 8560,
      "ĠbÃ¡zni": 8561,
      "ĠkvÃŃtky": 8562,
      "Ġzml": 8563,
      "ĠdruhÃ½m": 8564,
      "ĠsnivÄĽ": 8565,
      "Ġvyno": 8566,
      "ĠlÃ¡ny": 8567,
      "zena": 8568,
      "ĠveselÃ¡": 8569,
      "ĠspatÅĻÃŃ": 8570,
      "ĠÄįinÅ¯m": 8571,
      "Ġcet": 8572,
      "Ġsplet": 8573,
      "ĠzÃ¡da": 8574,
      "ĠpÅĻijÃŃt": 8575,
      "ĠrozkoÅ¡i": 8576,
      "ĠpustÃ½ch": 8577,
      "ĠÄįlun": 8578,
      "ĠodpoÄįÃŃvÃ¡": 8579,
      "tru": 8580,
      "ĠbujÃŃ": 8581,
      "ĠranÃŃ": 8582,
      "ĠbiÄį": 8583,
      "ĠpÃŃsmo": 8584,
      "ria": 8585,
      "jatÃ©": 8586,
      "ĠskvÄĽlÃ©": 8587,
      "ĠdruhÃ©ho": 8588,
      "Ġzoufale": 8589,
      "leno": 8590,
      "leni": 8591,
      "ĠpÅĻÃŃjem": 8592,
      "ĠplnÄĽ": 8593,
      "Ġtlukou": 8594,
      "ĠstrÃ¡Å¾ce": 8595,
      "ĠÃºtÄĽchu": 8596,
      "Ġken": 8597,
      "rovat": 8598,
      "ĠvykÅĻik": 8599,
      "Ġkobe": 8600,
      "Ġpana": 8601,
      "ĠprvnÄĽ": 8602,
      "zet": 8603,
      "Ġkamsi": 8604,
      "ĠmodlitbÄĽ": 8605,
      "Ġsmarag": 8606,
      "ĠseÅ¡li": 8607,
      "tivÄĽ": 8608,
      "ĠÅ¾ezlo": 8609,
      "Ġpoce": 8610,
      "ĠzuÅĻÃŃ": 8611,
      "klÃ¡dÃ¡": 8612,
      "bÃŃm": 8613,
      "eÅ¡": 8614,
      "Ġnny": 8615,
      "ĠcenÃŃ": 8616,
      "ĠvÄĽdÃŃ": 8617,
      "ĠnÃ¡do": 8618,
      "ĠbolÅ¯": 8619,
      "biti": 8620,
      "ĠvÄĽÄįnÃ©ho": 8621,
      "ĠnahÃ½": 8622,
      "Ġton": 8623,
      "ĠnezmÄĽ": 8624,
      "ĠmilÃ½ch": 8625,
      "tnÃ½m": 8626,
      "Ġzahle": 8627,
      "Ġlite": 8628,
      "Ġbyls": 8629,
      "pÄĽje": 8630,
      "raly": 8631,
      "Ġnavra": 8632,
      "nÄĽnÃ½ch": 8633,
      "ĠrobÄĽ": 8634,
      "Ġrozpla": 8635,
      "ĠprÅ¡ÃŃ": 8636,
      "ĠÅĻve": 8637,
      "ĠpyÅ¡nÃ©": 8638,
      "ĠlÅ¯Å¾ku": 8639,
      "ĠÅ¡Å¥astna": 8640,
      "ĠneslyÅ¡ÃŃ": 8641,
      "Ġsar": 8642,
      "ĠoÄįekÃ¡": 8643,
      "Ġzajde": 8644,
      "pej": 8645,
      "Ġsmuten": 8646,
      "coval": 8647,
      "Ġcheru": 8648,
      "Ġnetr": 8649,
      "Ġpost": 8650,
      "ĠnebeskÃ½": 8651,
      "ĠstraÅ¡ÃŃ": 8652,
      "Ġpoklid": 8653,
      "ĠzvÄĽsÅ¥": 8654,
      "Ġpasu": 8655,
      "hlÃ½ch": 8656,
      "Ġrozpa": 8657,
      "ĠÅ¾ivÃ½m": 8658,
      "ĠpÃ³": 8659,
      "leti": 8660,
      "Ġlako": 8661,
      "Äįiv": 8662,
      "ĠsvÄĽtlÃ©": 8663,
      "Ġsmil": 8664,
      "Ġberou": 8665,
      "ĠjasmÃŃ": 8666,
      "Ġpozve": 8667,
      "ĠostÅĻe": 8668,
      "ĠzÃ¡pasu": 8669,
      "Ġrakve": 8670,
      "....": 8671,
      "XAX": 8672,
      "stit": 8673,
      "ĠzÃ¡klad": 8674,
      "Ġvladi": 8675,
      "ĠbÅĻeÄį": 8676,
      "ĠkalnÃ©": 8677,
      "Ġzbytky": 8678,
      "Ġprostoru": 8679,
      "Ġhromem": 8680,
      "ĠzastavÃŃ": 8681,
      "ĠotcÅ¯v": 8682,
      "Ġmaria": 8683,
      "ĠpenÃŃz": 8684,
      "Ġnesk": 8685,
      "ĠholÃŃ": 8686,
      "ĠtuhÃ½": 8687,
      "ĠpÅĻetr": 8688,
      "Ġrozev": 8689,
      "Ġnejmi": 8690,
      "ĠspÃ¡d": 8691,
      "Ġzvykem": 8692,
      "Ġzrcadlo": 8693,
      "hdy": 8694,
      "Ġtor": 8695,
      "Ġkotou": 8696,
      "res": 8697,
      "ĠklekÃ¡nÃŃ": 8698,
      "ĠÅ¡atÄĽ": 8699,
      "ĠtÅĻicet": 8700,
      "ĠÅ¾havou": 8701,
      "Ġskutku": 8702,
      "ĠÅ¾ilo": 8703,
      "ĠlÃŃpa": 8704,
      "Ġluka": 8705,
      "ĠÅ¾Ã¡dosti": 8706,
      "ĠzpÄĽvÃ¡": 8707,
      "ĠokÅĻÃŃ": 8708,
      "Ġoknu": 8709,
      "ĠspÄĽjÃŃ": 8710,
      "ĠhlubokÃ¡": 8711,
      "ĠÅ¾havÃ½ch": 8712,
      "ĠdvÄĽma": 8713,
      "lete": 8714,
      "ĠpronikÃ¡": 8715,
      "Å¾enÃ½m": 8716,
      "ĠAAXXBB": 8717,
      "padne": 8718,
      "Ġhroznou": 8719,
      "ĠodÅĻÃŃkÃ¡nÃŃ": 8720,
      "Ġtudy": 8721,
      "Ġkre": 8722,
      "ĠsnÄĽt": 8723,
      "Ġrozli": 8724,
      "ÄįÃŃk": 8725,
      "ĠÃºle": 8726,
      "Ġnespo": 8727,
      "Ġdruzi": 8728,
      "ĠbÃ¡z": 8729,
      "Ġspojen": 8730,
      "Ġvysly": 8731,
      "ĠvÃ½mlu": 8732,
      "ĠnÃ¡hlÃ½": 8733,
      "ĠniÄįÃŃm": 8734,
      "Ġjedni": 8735,
      "Ġsvitem": 8736,
      "Ġtroj": 8737,
      "ĠvolnÃ½m": 8738,
      "ĠznÄĽnÃŃ": 8739,
      "ĠmoudrÃ©": 8740,
      "ĠÅ¾ivlÅ¯": 8741,
      "ĠbÅĻÃŃzy": 8742,
      "ĠblÃŃzka": 8743,
      "Ġbalvany": 8744,
      "ĠlÃŃstky": 8745,
      "ĠnenadÃ¡le": 8746,
      "ĠoÅĻ": 8747,
      "ĠzamÄĽ": 8748,
      "ĠnoÄįnÃŃm": 8749,
      "Ġvozu": 8750,
      "ĠpÄĽn": 8751,
      "ĠslunnÃ½": 8752,
      "ĠhrÃ¡ly": 8753,
      "ĠvÄĽrnost": 8754,
      "ĠdalekÃ©": 8755,
      "ĠchmurnÃ½": 8756,
      "Ġzhyne": 8757,
      "Ġrenald": 8758,
      "Ġdlem": 8759,
      "ĠpoÅ¾ÃŃ": 8760,
      "Ġozve": 8761,
      "ĠÃºtÄĽchy": 8762,
      "Ġki": 8763,
      "ĠnaÅ¡la": 8764,
      "ĠvzpÃŃnÃ¡": 8765,
      "hneÅ¡": 8766,
      "Ġpostav": 8767,
      "ĠneznÃ¡mÃ½ch": 8768,
      "ĠpropasÅ¥": 8769,
      "hi": 8770,
      "Ġvbo": 8771,
      "Ġducho": 8772,
      "Ġlouky": 8773,
      "ĠotevÃŃrÃ¡": 8774,
      "ĠÅ¡edÃ½ch": 8775,
      "ĠpotÄĽÅ¡enÃŃ": 8776,
      "Ġpovinnost": 8777,
      "Ġlech": 8778,
      "syl": 8779,
      "ĠpÄĽny": 8780,
      "ĠÅ¡irÃ¡": 8781,
      "Ġostru": 8782,
      "Ġchvo": 8783,
      "ÅĻik": 8784,
      "Ġdrav": 8785,
      "Ġchor": 8786,
      "Ġtvrdou": 8787,
      "Ġdokonal": 8788,
      "Ġjho": 8789,
      "Ġzabu": 8790,
      "ĠzapadÃ¡": 8791,
      "ĠvÄĽstÃŃ": 8792,
      "Ġzej": 8793,
      "Ġstopu": 8794,
      "ĠchorÃ¡": 8795,
      "ĠvlÃ¡da": 8796,
      "ĠznÄĽjÃŃ": 8797,
      "ĠzboÅ¾nÃ©": 8798,
      "ĠbratrÅ¯": 8799,
      "ĠozvÄĽna": 8800,
      "ĠsvÄĽdÄįÃŃ": 8801,
      "ĠvlnobitÃŃ": 8802,
      "ĠpobÃŃ": 8803,
      "Ġprop": 8804,
      "Ġsnah": 8805,
      "Ġzrady": 8806,
      "are": 8807,
      "ĠvlastÃŃ": 8808,
      "ĠoknÄĽ": 8809,
      "Ġzove": 8810,
      "ĠzmÄĽna": 8811,
      "ĠchvÃ¡ly": 8812,
      "Ġstatku": 8813,
      "Ġmelodi": 8814,
      "desÃ¡t": 8815,
      "ĠneÅĻek": 8816,
      "ĠuÄįil": 8817,
      "Ġjaru": 8818,
      "veno": 8819,
      "ĠtÃŃmto": 8820,
      "Ġfrancie": 8821,
      "ĠsÃ©": 8822,
      "ĠoÅĻi": 8823,
      "Ġstvol": 8824,
      "ĠbytÃŃ": 8825,
      "ĠbohovÃ©": 8826,
      "Ġzmoc": 8827,
      "ĠvkrÃ¡": 8828,
      "ĠnÄĽmÄĽ": 8829,
      "ĠsplÃ¡": 8830,
      "ĠbÃŃdnÄĽ": 8831,
      "Ġdrah": 8832,
      "ĠstejnÃ½": 8833,
      "Ġvzta": 8834,
      "vÃ©mu": 8835,
      "Ġprstem": 8836,
      "ĠvÃ½slu": 8837,
      "ĠstrastÃŃ": 8838,
      "ĠÅ¡ibeni": 8839,
      "Ġplesem": 8840,
      "ĠpokornÄĽ": 8841,
      "Ġpochmu": 8842,
      "rova": 8843,
      "Ġpomi": 8844,
      "ĠuÅ¾i": 8845,
      "ĠÅ¡ar": 8846,
      "ĠtuhÃ©": 8847,
      "ĠÅ¡ÃŃÅ¡": 8848,
      "ĠchtÄĽly": 8849,
      "ĠsmutnÃ½ch": 8850,
      "ĠdivnÃ½ch": 8851,
      "Ġzisk": 8852,
      "ĠnevlÃŃ": 8853,
      "ĠmladÃŃk": 8854,
      "ctva": 8855,
      "livÃ½m": 8856,
      "ÅĻelÃ©": 8857,
      "Å¥te": 8858,
      "Ġis": 8859,
      "Ġnejra": 8860,
      "Ġonde": 8861,
      "Ġspolku": 8862,
      "ĠmlhÃ¡ch": 8863,
      "Ġpia": 8864,
      "ĠdÅĻevÄĽ": 8865,
      "Ġzmizela": 8866,
      "Å¡nÃ¡": 8867,
      "Ġnosil": 8868,
      "Ġplakat": 8869,
      "Ġvracel": 8870,
      "Ġvrchu": 8871,
      "ÄįÃŃme": 8872,
      "ĠvyhlÃŃ": 8873,
      "ĠhnÃ¡t": 8874,
      "Ġvzteku": 8875,
      "Ġoddechu": 8876,
      "vÄĽtil": 8877,
      "Ġplatno": 8878,
      "Ġstromo": 8879,
      "ĠstÅĻevÃŃ": 8880,
      "stila": 8881,
      "ĠjÃŃst": 8882,
      "anÃ©": 8883,
      "zdÄĽ": 8884,
      "roste": 8885,
      "jet": 8886,
      "hujÃŃ": 8887,
      "ĠÄįÃŃsti": 8888,
      "ĠkÅ¯Å¾e": 8889,
      "tly": 8890,
      "Å¡uje": 8891,
      "ĠurÃ¡": 8892,
      "vovat": 8893,
      "danou": 8894,
      "ĠradÄĽji": 8895,
      "ĠmlÄįen": 8896,
      "ĠsvÃŃjÃŃ": 8897,
      "nÃŃkÅ¯m": 8898,
      "Ġvyhas": 8899,
      "Ġmdloby": 8900,
      "ĠkorÃ¡b": 8901,
      "ĠnedÅ¯vÄĽ": 8902,
      "eny": 8903,
      "Ġdojde": 8904,
      "ĠvÃŃrem": 8905,
      "ĠdÄĽku": 8906,
      "ĠsÃŃch": 8907,
      "ĠsvÄĽtÃŃ": 8908,
      "ĠhrÃ¡ti": 8909,
      "Ġvelikou": 8910,
      "Ġzpod": 8911,
      "ĠrajskÃ©": 8912,
      "Ġutich": 8913,
      "ĠpÅĻÃŃzeÅĪ": 8914,
      "ĠbÃ¡snÃŃka": 8915,
      "tvÃŃ": 8916,
      "tesk": 8917,
      "Ġmek": 8918,
      "ĠtÃ¡ch": 8919,
      "Ġdruhem": 8920,
      "Ġvran": 8921,
      "venÃ¡": 8922,
      "ĠmuÅ¾nÄĽ": 8923,
      "ĠÅ¾havÃ½m": 8924,
      "Ġfrancouz": 8925,
      "Ġveden": 8926,
      "nutÃ½": 8927,
      "ĠzÃ¡blesk": 8928,
      "Ġsochy": 8929,
      "ĠhroznÄĽ": 8930,
      "ĠslouÅ¾it": 8931,
      "ĠprÅ¯vodu": 8932,
      "Ġpromluvil": 8933,
      "ĠbystÅĻe": 8934,
      "tickÃ©": 8935,
      "Ġslovech": 8936,
      "Ġosm": 8937,
      "cujÃŃ": 8938,
      "Ġnachu": 8939,
      "ĠdosÃ¡": 8940,
      "ĠraÄį": 8941,
      "Ġvlada": 8942,
      "Ġstrh": 8943,
      "Ġouzko": 8944,
      "Ġkultu": 8945,
      "dnÃ©m": 8946,
      "pati": 8947,
      "Ġpem": 8948,
      "ĠzasvÄĽ": 8949,
      "ĠmeÄįi": 8950,
      "ĠklÃŃna": 8951,
      "ĠtrÃ¡vÃŃ": 8952,
      "ĠzmÄĽnil": 8953,
      "Ġvichru": 8954,
      "ĠvzpÃŃ": 8955,
      "Ġzaslou": 8956,
      "ĠvaÅ¡em": 8957,
      "Ġfri": 8958,
      "Ġnechat": 8959,
      "ĠpudÃŃ": 8960,
      "dly": 8961,
      "nicky": 8962,
      "Ġtakhle": 8963,
      "Ġsnaha": 8964,
      "ĠdruÅ¾ky": 8965,
      "ĠÅĻÅ¯": 8966,
      "ĠhoÅĻÃŃcÃŃ": 8967,
      "ĠstenÃ¡": 8968,
      "mnÃŃ": 8969,
      "ĠholÃ½": 8970,
      "ĠdumÃ¡ch": 8971,
      "ĠtÄĽÅ¡il": 8972,
      "cÃŃtil": 8973,
      "ÅĻÃ¡n": 8974,
      "Ġtouto": 8975,
      "Ġstrop": 8976,
      "ĠlÃŃtosti": 8977,
      "Ġbytosti": 8978,
      "emi": 8979,
      "ĠpadajÃŃ": 8980,
      "ĠvÃ½bo": 8981,
      "ĠplujÃŃ": 8982,
      "ĠzÅĻej": 8983,
      "ĠprovÃ¡zÃŃ": 8984,
      "dÅĻi": 8985,
      "ĠrodnÃ¡": 8986,
      "ĠvÃŃÅ¾e": 8987,
      "ĠpÅĻiv": 8988,
      "Ġvor": 8989,
      "Ġpodpo": 8990,
      "Ġsokol": 8991,
      "ĠpÄĽvce": 8992,
      "Ġtrne": 8993,
      "Ġokla": 8994,
      "ĠzmÄĽny": 8995,
      "Ġnezapo": 8996,
      "Ġschop": 8997,
      "Ġsfin": 8998,
      "aku": 8999,
      "ĠnÃŃÅ¾e": 9000,
      "ĠvÃŃdal": 9001,
      "tosti": 9002,
      "ĠzÅĻÃŃtel": 9003,
      "ĠhÃ½ÅĻÃŃ": 9004,
      "ĠdveÅĻe": 9005,
      "ĠvÄĽtvÃŃch": 9006,
      "ĠpenÃŃze": 9007,
      "ĠhvÃŃzdÃ¡": 9008,
      "Ġmly": 9009,
      "Ġroland": 9010,
      "ĠhoÅ¡ÃŃ": 9011,
      "ĠstarÃ©ho": 9012,
      "ĠsluncÃŃ": 9013,
      "Ġkristo": 9014,
      "ĠotevÅĻe": 9015,
      "Ġmilenci": 9016,
      "ĠkozÃ¡": 9017,
      "Ġdan": 9018,
      "Ġnezna": 9019,
      "Ġvlnami": 9020,
      "ĠhrudÃŃ": 9021,
      "ĠjarnÃŃch": 9022,
      "ĠsrÅ¡ÃŃ": 9023,
      "Ġzabloudil": 9024,
      "ĠspÅĻÃ¡dÃ¡": 9025,
      "lovi": 9026,
      "Ġzanik": 9027,
      "Å¡enou": 9028,
      "ĠznajÃŃ": 9029,
      "ĠpÅĻemys": 9030,
      "Ġchvilkou": 9031,
      "bce": 9032,
      "Ġhnul": 9033,
      "Ġocel": 9034,
      "Ġrohu": 9035,
      "ĠsvatÃŃ": 9036,
      "Ġbitvy": 9037,
      "pÅĻe": 9038,
      "nii": 9039,
      "dajÃŃcÃŃ": 9040,
      "panÃ©": 9041,
      "ĠpohlÃ©": 9042,
      "ĠjarnÃŃm": 9043,
      "ĠvÄĽrnÃ½m": 9044,
      "ĠbrÃ¡nÄĽ": 9045,
      "cÃŃmu": 9046,
      "ĠstrmÃŃ": 9047,
      "Ġprchla": 9048,
      "Ġrevoluce": 9049,
      "Ġnajdu": 9050,
      "ĠzapomÃŃnÃ¡": 9051,
      "niku": 9052,
      "Ġprostou": 9053,
      "ĠtiÅ¡ÃŃ": 9054,
      "Ġlila": 9055,
      "ĠpÅĻeÅ¡el": 9056,
      "ĠdÄĽdÅ¯": 9057,
      "ĠcÃŃlem": 9058,
      "Ġfer": 9059,
      "Ġchytil": 9060,
      "ĠprotoÅ¾": 9061,
      "ĠupÅĻÃŃ": 9062,
      "lÅ¯m": 9063,
      "Ġzalo": 9064,
      "ĠzatÃŃ": 9065,
      "ĠspÅĻe": 9066,
      "ĠkvÄĽtnÃ©": 9067,
      "Ġtaju": 9068,
      "Ġzaduma": 9069,
      "Ġjezdec": 9070,
      "ĠskuteÄįnost": 9071,
      "ĠdoprovÃ¡": 9072,
      "ĠneÅ¾i": 9073,
      "ĠstÅĻem": 9074,
      "Ġlich": 9075,
      "Ġobro": 9076,
      "ĠpraskÃ¡": 9077,
      "ĠvÃ½zna": 9078,
      "Ġdobou": 9079,
      "ĠspÄĽla": 9080,
      "ĠslitovÃ¡nÃŃ": 9081,
      "ĠlesklÃ©": 9082,
      "Ġhanby": 9083,
      "Ġodhodla": 9084,
      "ĠovÄĽn": 9085,
      "rko": 9086,
      "Ġvesla": 9087,
      "ĠpÅĻekÃ¡": 9088,
      "ĠÄįeka": 9089,
      "ĠskÃ½m": 9090,
      "Ġobjal": 9091,
      "Ġkrk": 9092,
      "ĠpÃ¡tra": 9093,
      "Ġchuti": 9094,
      "Ġpohrd": 9095,
      "ĠÅ¡umu": 9096,
      "Ġ23": 9097,
      "ĠÅ¡patnÄĽ": 9098,
      "Ġstrak": 9099,
      "nÃŃÅ¡": 9100,
      "ĠlvÃŃ": 9101,
      "ĠvodÃ¡ch": 9102,
      "lÃ½vÃ¡": 9103,
      "ĠpÅ¯li": 9104,
      "ĠvloÅ¾il": 9105,
      "ĠpoÄįÃ¡tku": 9106,
      "Ġzch": 9107,
      "tovat": 9108,
      "ĠflÃ©t": 9109,
      "Ġbrali": 9110,
      "ĠvracÃŃm": 9111,
      "ĠznÃ¡mo": 9112,
      "ĠnevÄĽstu": 9113,
      "ĠschrÃ¡": 9114,
      "ĠulicÃŃ": 9115,
      "ĠrytÃŃÅĻi": 9116,
      "ĠdÄĽdictvÃŃ": 9117,
      "Ġdokto": 9118,
      "ĠÅ¾enich": 9119,
      "nenÃ¡": 9120,
      "ĠroztÅĻÃŃ": 9121,
      "ĠmÃ¡to": 9122,
      "Ġpaprsek": 9123,
      "Ġpovznes": 9124,
      "hrÃ¡": 9125,
      "leny": 9126,
      "Ġope": 9127,
      "Ġchi": 9128,
      "ĠlÃŃÄįka": 9129,
      "Ġhukot": 9130,
      "Ġzaku": 9131,
      "Ġhluboce": 9132,
      "kly": 9133,
      "ĠjakÃ½ch": 9134,
      "ĠÅ¡lÃ¡": 9135,
      "Ġkloko": 9136,
      "Ġrouha": 9137,
      "ĠpÅĻijal": 9138,
      "ĠnaslouchÃ¡": 9139,
      "ĠÅ¡veho": 9140,
      "Ġpospolu": 9141,
      "fu": 9142,
      "Ġkomi": 9143,
      "Ġtance": 9144,
      "mel": 9145,
      "ĠsÃŃdlo": 9146,
      "ĠslÅ¯v": 9147,
      "ĠlÃ©tÄĽ": 9148,
      "ĠpozdÄĽj": 9149,
      "ĠsilnÃ¡": 9150,
      "ĠloubÃŃ": 9151,
      "hnej": 9152,
      "ĠmlÃ¡zÃŃ": 9153,
      "Ġskles": 9154,
      "Ġjose": 9155,
      "Ġnest": 9156,
      "Ġcnosti": 9157,
      "novÃ½": 9158,
      "Ġrohy": 9159,
      "mÄĽlÃ©": 9160,
      "Ġauto": 9161,
      "ĠluznÃ½": 9162,
      "ĠÅ¡pina": 9163,
      "ĠlÃ©kaÅĻ": 9164,
      "Ġkata": 9165,
      "ĠnestÃ¡": 9166,
      "ĠvÄĽdy": 9167,
      "ĠXAABXB": 9168,
      "ĠzemskÃ©": 9169,
      "Ġstolem": 9170,
      "Ġpohl": 9171,
      "ĠzÅĻÃŃme": 9172,
      "Ġjezero": 9173,
      "Ġztrnu": 9174,
      "Ġunik": 9175,
      "ĠnÄĽÅ¾nÃ½": 9176,
      "ĠplanoucÃŃ": 9177,
      "ĠjedinÃ½m": 9178,
      "ĠnavrÃ¡": 9179,
      "ĠchÅ¯zi": 9180,
      "Ġmramoru": 9181,
      "ĠsmilovÃ¡nÃŃ": 9182,
      "sÃ¡m": 9183,
      "Ġoha": 9184,
      "Ġkanou": 9185,
      "ĠÅ¡it": 9186,
      "Ġtram": 9187,
      "Ġjizbu": 9188,
      "ĠnÃŃÅ¾ÃŃ": 9189,
      "ĠkonÃ¡": 9190,
      "lÃŃÄįek": 9191,
      "ĠpÄĽna": 9192,
      "ĠspojÃŃ": 9193,
      "Ġnapsal": 9194,
      "ĠneslyÅ¡el": 9195,
      "ĠsluÅ¾bÄĽ": 9196,
      "ÅĻmi": 9197,
      "Ġtoku": 9198,
      "ĠmuÄįe": 9199,
      "ĠÄįekala": 9200,
      "valu": 9201,
      "menu": 9202,
      "ceno": 9203,
      "ĠvÄĽda": 9204,
      "ĠpeÅĻe": 9205,
      "ÅĻÃ¡d": 9206,
      "ĠshlÃŃ": 9207,
[...]
