{
  "version": "1.0",
  "truncation": null,
  "padding": null,
  "added_tokens": [
    {
      "id": 0,
      "content": "<|EOS|>",
      "single_word": false,
      "lstrip": false,
      "rstrip": false,
      "normalized": false,
      "special": true
    },
    {
      "id": 1,
      "content": "<|PAD|>",
      "single_word": false,
      "lstrip": false,
      "rstrip": false,
      "normalized": false,
      "special": true
    },
    {
      "id": 2,
      "content": "<|UNK|>",
      "single_word": false,
      "lstrip": false,
      "rstrip": false,
      "normalized": false,
      "special": true
    }
  ],
  "normalizer": null,
  "pre_tokenizer": {
    "type": "ByteLevel",
    "add_prefix_space": false,
    "trim_offsets": true,
    "use_regex": true
  },
  "post_processor": {
    "type": "ByteLevel",
    "add_prefix_space": true,
    "trim_offsets": false,
    "use_regex": true
  },
  "decoder": {
    "type": "ByteLevel",
    "add_prefix_space": true,
    "trim_offsets": true,
    "use_regex": true
  },
  "model": {
    "type": "BPE",
    "dropout": null,
    "unk_token": null,
    "continuing_subword_prefix": null,
    "end_of_word_suffix": null,
    "fuse_unk": false,
    "byte_fallback": false,
    "vocab": {
      "<|EOS|>": 0,
      "<|PAD|>": 1,
      "<|UNK|>": 2,
      "!": 3,
      "#": 4,
      ",": 5,
      ".": 6,
      "0": 7,
      "1": 8,
      "2": 9,
      "3": 10,
      "4": 11,
      "5": 12,
      "6": 13,
      "7": 14,
      "8": 15,
      "9": 16,
      "?": 17,
      "A": 18,
      "B": 19,
      "C": 20,
      "D": 21,
      "H": 22,
      "J": 23,
      "N": 24,
      "P": 25,
      "T": 26,
      "X": 27,
      "Y": 28,
      "a": 29,
      "b": 30,
      "c": 31,
      "d": 32,
      "e": 33,
      "f": 34,
      "g": 35,
      "h": 36,
      "i": 37,
      "j": 38,
      "k": 39,
      "l": 40,
      "m": 41,
      "n": 42,
      "o": 43,
      "p": 44,
      "q": 45,
      "r": 46,
      "s": 47,
      "t": 48,
      "u": 49,
      "v": 50,
      "w": 51,
      "x": 52,
      "y": 53,
      "z": 54,
      "¡": 55,
      "¤": 56,
      "¥": 57,
      "©": 58,
      "¯": 59,
      "³": 60,
      "¶": 61,
      "º": 62,
      "¼": 63,
      "½": 64,
      "¾": 65,
      "Ã": 66,
      "Ä": 67,
      "Å": 68,
      "Ċ": 69,
      "Ġ": 70,
      "Ī": 71,
      "į": 72,
      "ı": 73,
      "Ļ": 74,
      "Ľ": 75,
      "Ń": 76,
      "Ġn": 77,
      "Ġ#": 78,
      "Ġs": 79,
      "Ġv": 80,
      "ÃŃ": 81,
      "Ġt": 82,
      "Ġk": 83,
      "Ã¡": 84,
      "Ġd": 85,
      "Ġl": 86,
      "Ġj": 87,
      "Ġp": 88,
      "Ġm": 89,
      "ÄĽ": 90,
      "ĠÅ": 91,
      "Ġz": 92,
      "Ġb": 93,
      "Ġc": 94,
      "Ġh": 95,
      "Ã½": 96,
      "Ã©": 97,
      "10": 98,
      "ou": 99,
      "Ġst": 100,
      "Ġr": 101,
      "Ġa": 102,
      "Ġse": 103,
      "Äį": 104,
      "Ġje": 105,
      "11": 106,
      "Ġne": 107,
      "ÅĻ": 108,
      "ĠÅ¾": 109,
      "Ġna": 110,
      "ch": 111,
      "ĠÅ¡": 112,
      "Å¾": 113,
      "ĠÄį": 114,
      "Ġo": 115,
      "Ġpo": 116,
      "Å¯": 117,
      "em": 118,
      "Ġch": 119,
      "ĠnÃŃ": 120,
      "Å¡": 121,
      "la": 122,
      "ra": 123,
      "ak": 124,
      "Ġho": 125,
      "Ġli": 126,
      "Ġle": 127,
      "Ġko": 128,
      "ĠÅĻ": 129,
      "Ġce": 130,
      "Ġla": 131,
      "Ġte": 132,
      "ĠnÄĽ": 133,
      "Ġti": 134,
      "Ġsv": 135,
      "Ġto": 136,
      "ro": 137,
      "Ġza": 138,
      "Ġby": 139,
      "Ġdo": 140,
      "ĠÅ¾e": 141,
      "Ġka": 142,
      "ĠnÃ½": 143,
      "le": 144,
      "ĠnÃ¡": 145,
      "ĠjÃŃ": 146,
      "ĠpÅĻ": 147,
      "Ġ1": 148,
      "rÃ¡": 149,
      "XX": 150,
      "Ġno": 151,
      "ĠnÃ©": 152,
      "Ġmi": 153,
      "Ġva": 154,
      "Ġji": 155,
      "Ġlo": 156,
      "st": 157,
      "Ġta": 158,
      "Ġve": 159,
      "Ġku": 160,
      "Ġu": 161,
      "Ġni": 162,
      "Ġro": 163,
      "Ġsl": 164,
      "ĠvÃ¡": 165,
      "Ġky": 166,
      "AB": 167,
      "ĠvÄĽ": 168,
      "Ġmu": 169,
      "ĠÅ¡e": 170,
      "Ġvy": 171,
      "Ġkd": 172,
      "ĠtÄĽ": 173,
      "ĠvÅ¡": 174,
      "ĠtÃŃ": 175,
      "Ġde": 176,
      "Ġdu": 177,
      "Ġsk": 178,
      "il": 179,
      "ĠvÃŃ": 180,
      "12": 181,
      "ĠÄįe": 182,
      "ĠdÄĽ": 183,
      "Ġvo": 184,
      "Ġjs": 185,
      "Ġjak": 186,
      "Ġmo": 187,
      "Ġnou": 188,
      "ĠdÃŃ": 189,
      "Ġ19": 190,
      "Ġnu": 191,
      "Ġda": 192,
      "Ġpa": 193,
      "Ġze": 194,
      "ĠmÄĽ": 195,
      "Ġbo": 196,
      "Ġtu": 197,
      "Ġme": 198,
      "ĠdÃ¡": 199,
      "Ġja": 200,
      "Ġci": 201,
      "Ġru": 202,
      "Ġpro": 203,
      "Ġma": 204,
      "Ġvi": 205,
      "Ġsta": 206,
      "Ġsti": 207,
      "Ġny": 208,
      "ÅĻe": 209,
      "ĠÅ¡ÃŃ": 210,
      "Ġbe": 211,
      "ĠcÃŃ": 212,
      "Ġtv": 213,
      "ĠÅĻe": 214,
      "Ġly": 215,
      "ĠJ": 216,
      "ĠÄįÃŃ": 217,
      "Ã½ch": 218,
      "Ġdi": 219,
      "Ġco": 220,
      "13": 221,
      "Ġvz": 222,
      "ne": 223,
      "ĠlÃŃ": 224,
      "Ġsp": 225,
      "lo": 226,
      "Å¥": 227,
      "ĠpÅĻe": 228,
      "Ġdy": 229,
      "Ġra": 230,
      "Ġsi": 231,
      "Ġjen": 232,
      "ÅĻÃŃ": 233,
      "ĠmÃ¡": 234,
      "ĠÄįi": 235,
      "ĠkÃ¡": 236,
      "li": 237,
      "Ġjsem": 238,
      "Ġkdy": 239,
      "ĠÅ¾ÃŃ": 240,
      "Ã½m": 241,
      "ĠÅĻÃŃ": 242,
      "ĠÅ¾i": 243,
      "Ġty": 244,
      "Ġbu": 245,
      "lÃ¡": 246,
      "vÄĽ": 247,
      "ru": 248,
      "Ġ18": 249,
      "Ġi": 250,
      "ĠlÃ¡": 251,
      "nÄĽ": 252,
      "ĠrÃ¡": 253,
      "ĠkrÃ¡": 254,
      "ĠvÃ©": 255,
      "Ġtak": 256,
      "Ġzd": 257,
      "ĠT": 258,
      "Ġha": 259,
      "ĠbÄĽ": 260,
      "Ġsm": 261,
      "ĠvÅ¡e": 262,
      "ĠmÃŃ": 263,
      "Ġhla": 264,
      "lu": 265,
      "ĠstÃŃ": 266,
      "ĠvÃ½": 267,
      "00": 268,
      "Ġsa": 269,
      "Ġzv": 270,
      "Ġba": 271,
      "Ġ1900": 272,
      "Ġsn": 273,
      "ĠsvÄĽ": 274,
      "XXXX": 275,
      "XA": 276,
      "Ġkou": 277,
      "ĠtÃ©": 278,
      "ĠkÃ©": 279,
      "ĠsÃŃ": 280,
      "ĠpÅĻi": 281,
      "ĠtÃ¡": 282,
      "ĠÅ¡i": 283,
      "Ġhu": 284,
      "ĠzÃ¡": 285,
      "Ġlu": 286,
      "Ġhle": 287,
      "Ġpe": 288,
      "Ġpra": 289,
      "lÃŃ": 290,
      "ABAB": 291,
      "Äı": 292,
      "ĠÃ": 293,
      "Ġsy": 294,
      "Ġmy": 295,
      "Ġod": 296,
      "Ġpr": 297,
      "Ġtr": 298,
      "ĠlÃ©": 299,
      "Ġvu": 300,
      "ĠkdyÅ¾": 301,
      "ĠjÃ¡": 302,
      "ÅĪ": 303,
      "ĠvÅ¡ak": 304,
      "Ġval": 305,
      "Ġchu": 306,
      "Ġkr": 307,
      "Ġvt": 308,
      "vÃŃ": 309,
      "Ġkem": 310,
      "Ġroz": 311,
      "ĠsvÃ©": 312,
      "80": 313,
      "Ġ1880": 314,
      "ĠnÃ½ch": 315,
      "ĠÅĻi": 316,
      "ĠhÃ¡": 317,
      "Ġsla": 318,
      "Ġcho": 319,
      "ĠbÃŃ": 320,
      "Ġry": 321,
      "ĠkÅ¯": 322,
      "Ġvp": 323,
      "Ġsu": 324,
      "lou": 325,
      "Ġvs": 326,
      "Ġso": 327,
      "Ġf": 328,
      "20": 329,
      "Å¯j": 330,
      "ĠstÃ¡": 331,
      "Ġsto": 332,
      "Ġzp": 333,
      "ĠpÃŃ": 334,
      "Ġbyl": 335,
      "Ġten": 336,
      "ĠpÃ¡": 337,
      "rd": 338,
      "no": 339,
      "te": 340,
      "ABB": 341,
      "al": 342,
      "ĠkÃ½": 343,
      "Ġ1920": 344,
      "ĠzÃŃ": 345,
      "Ġtam": 346,
      "Ġkde": 347,
      "ĠpÅĻÃŃ": 348,
      "Ġhy": 349,
      "Ġre": 350,
      "16": 351,
      "ĠpÄĽ": 352,
      "ĠsÃ¡": 353,
      "Ġbi": 354,
      "ĠnÃ½m": 355,
      "Ġzn": 356,
      "ĠlÃ½": 357,
      "Ġpu": 358,
      "ĠÄįa": 359,
      "Ġtem": 360,
      "Ġste": 361,
      "lÃ©": 362,
      "Ġpak": 363,
      "ĠÃº": 364,
      "15": 365,
      "Ġbra": 366,
      "ĠnÃŃm": 367,
      "Ġlem": 368,
      "Ġtou": 369,
      "Ġvd": 370,
      "Ġsrd": 371,
      "tÄĽ": 372,
      "ÅĻi": 373,
      "Ġdou": 374,
      "Ġslo": 375,
      "Ġe": 376,
      "Ġkla": 377,
      "ĠjiÅ¾": 378,
      "Ġpla": 379,
      "Ġnad": 380,
      "Ġbou": 381,
      "Ġkte": 382,
      "Ġzu": 383,
      "Ġslu": 384,
      "14": 385,
      "ĠdÄĽl": 386,
      "ĠmÃ©": 387,
      "Ġvou": 388,
      "Ġdv": 389,
      "ĠjeÅ¾": 390,
      "ĠÅ¡el": 391,
      "Ġcha": 392,
      "ĠdÃ©": 393,
      "ĠvÅ¾": 394,
      "ĠtÃ½": 395,
      "Ġnn": 396,
      "Ġsem": 397,
      "dy": 398,
      "Ġvla": 399,
      "ĠdÃ½": 400,
      "Ġbez": 401,
      "ĠpÅĻed": 402,
      "Ġsou": 403,
      "Ġg": 404,
      "Ġmne": 405,
      "Ġstra": 406,
      "Ġhr": 407,
      "Ġpl": 408,
      "Ġzra": 409,
      "ĠbÃ¡": 410,
      "Ġvk": 411,
      "Ġzas": 412,
      "Ġzb": 413,
      "AABB": 414,
      "ad": 415,
      "Ġhro": 416,
      "Ġbr": 417,
      "Ġchy": 418,
      "Ġstu": 419,
      "ni": 420,
      "Ġzm": 421,
      "Ġpod": 422,
      "Ġhou": 423,
      "ĠprÃ¡": 424,
      "Ġzi": 425,
      "Ġden": 426,
      "Ġkdo": 427,
      "Å¯m": 428,
      "ĠÄįer": 429,
      "Ġdla": 430,
      "Ġdra": 431,
      "Ġpi": 432,
      "Ġzo": 433,
      "Ġlou": 434,
      "40": 435,
      "Ġspo": 436,
      "Ġjest": 437,
      "Ġkle": 438,
      "Ġzla": 439,
      "Ġpou": 440,
      "ĠtÅĻe": 441,
      "ĠvÅ¾dy": 442,
      "Ġon": 443,
      "Ġjich": 444,
      "ĠskÃ©": 445,
      "ĠjenÅ¾": 446,
      "ĠtÃŃm": 447,
      "XAXA": 448,
      "me": 449,
      "ĠaÅ¾": 450,
      "ĠchÃ¡": 451,
      "ce": 452,
      "Ġvr": 453,
      "Ġsle": 454,
      "Ġdal": 455,
      "ĠnÃ¡m": 456,
      "ĠbÃ½": 457,
      "ĠlÃ¡s": 458,
      "ĠrÃ©": 459,
      "Ġjed": 460,
      "Ġvil": 461,
      "ĠtvÃ¡": 462,
      "Ġdr": 463,
      "Ġsly": 464,
      "Ġhra": 465,
      "ĠjeÅ¡": 466,
      "Ġvel": 467,
      "Ġnem": 468,
      "Ġsvou": 469,
      "ĠkaÅ¾": 470,
      "Ġdl": 471,
      "ĠmÅ¯": 472,
      "Ġdem": 473,
      "Ġsva": 474,
      "ĠstÄĽ": 475,
      "ĠteÄı": 476,
      "Ġvm": 477,
      "ĠkvÄĽ": 478,
      "Ġjej": 479,
      "ĠrÅ¯": 480,
      "nÃŃ": 481,
      "ĠmnÄĽ": 482,
      "Ġkv": 483,
      "ĠÃ³": 484,
      "Ġtil": 485,
      "ĠmÅ¯j": 486,
      "ĠnÃ©m": 487,
      "Ġdru": 488,
      "Ġzk": 489,
      "Ġstr": 490,
      "Ġke": 491,
      "Ġnul": 492,
      "Ġbla": 493,
      "je": 494,
      "Ġzy": 495,
      "Ġsvo": 496,
      "ĠÅ¾Ã¡": 497,
      "Ġsnad": 498,
      "Ġvra": 499,
      "ĠN": 500,
      "Ġdne": 501,
      "ĠvÃ¡m": 502,
      "Ġbych": 503,
      "ĠvÅ¡ech": 504,
      "Ġzt": 505,
      "Ġkra": 506,
      "Ġble": 507,
      "ĠstvÃŃ": 508,
      "Ġvst": 509,
      "Ġhe": 510,
      "Ġmr": 511,
      "ĠvÅ¯": 512,
      "Ġmou": 513,
      "ĠuÅ¾": 514,
      "CC": 515,
      "Ġneb": 516,
      "ĠrÃ½": 517,
      "Ġjsou": 518,
      "Ġvh": 519,
      "Ġlid": 520,
      "ĠsÃ¡m": 521,
      "ĠneÅ¾": 522,
      "Ġdil": 523,
      "Ġrou": 524,
      "Ġvl": 525,
      "Ġnej": 526,
      "Ġvzd": 527,
      "Ġkli": 528,
      "ĠplÃ¡": 529,
      "Ġdle": 530,
      "AA": 531,
      "Ġzh": 532,
      "Ġzem": 533,
      "Ġkro": 534,
      "Ġju": 535,
      "ĠstÅĻe": 536,
      "XXXXXX": 537,
      "ĠhÃ½": 538,
      "Ġnost": 539,
      "ĠmÄĽl": 540,
      "Ġmra": 541,
      "60": 542,
      "Ġzde": 543,
      "Ġvb": 544,
      "ly": 545,
      "Ġtel": 546,
      "Ġstro": 547,
      "Ġstou": 548,
      "ĠaÅ¥": 549,
      "Ġpy": 550,
      "ĠhÃ©": 551,
      "Ġjem": 552,
      "Ġtra": 553,
      "Ġstv": 554,
      "ĠchvÃŃ": 555,
      "ĠsvÄĽt": 556,
      "Ġnech": 557,
      "Ġtom": 558,
      "Ġmlu": 559,
      "ĠzdÃ¡": 560,
      "Ġtvo": 561,
      "Ġob": 562,
      "Ġchem": 563,
      "vÄĽz": 564,
      "Ġtro": 565,
      "Ġhne": 566,
      "Ġmno": 567,
      "ĠtvÃ©": 568,
      "ĠdÅ¯": 569,
      "ĠbÅ¯": 570,
      "ut": 571,
      "ĠvÅ¡ec": 572,
      "Ġvot": 573,
      "Ġtek": 574,
      "Ġsli": 575,
      "Ġdlou": 576,
      "Ġhned": 577,
      "Ġsmr": 578,
      "Ġkol": 579,
      "ĠnÅ¯": 580,
      "Ġhlu": 581,
      "Ġjsi": 582,
      "ĠkrÃ¡s": 583,
      "ĠhvÄĽz": 584,
      "Ġkam": 585,
      "ĠnÄĽj": 586,
      "Ġpt": 587,
      "Ġslun": 588,
      "ĠsnÃŃ": 589,
      "Ġnic": 590,
      "Ġsh": 591,
      "Ġmla": 592,
      "Ġjsme": 593,
      "ĠnÃ¡s": 594,
      "ĠcÃŃch": 595,
      "Ġjd": 596,
      "ĠchtÄĽ": 597,
      "Ġvat": 598,
      "ĠÅ¾il": 599,
      "Ġmoc": 600,
      "Ġrem": 601,
      "Ġml": 602,
      "Ġklo": 603,
      "Ġjim": 604,
      "ĠtÅ¯": 605,
      "Ġsil": 606,
      "Ġ1940": 607,
      "Ġnik": 608,
      "ĠskÃ¡": 609,
      "Ġnes": 610,
      "ĠbÅĻe": 611,
      "ĠkÅĻÃŃ": 612,
      "ĠÄįil": 613,
      "ĠvÅĻe": 614,
      "Ġks": 615,
      "Ġpoz": 616,
      "Ġzvo": 617,
      "Ġcy": 618,
      "vÃ¡": 619,
      "Ġdnes": 620,
      "ĠÅ¡le": 621,
      "ĠvÃŃc": 622,
      "ĠvÃŃm": 623,
      "Ġmat": 624,
      "ĠchvÄĽ": 625,
      "ĠlÅ¯": 626,
      "Ġvem": 627,
      "Ġzlo": 628,
      "ĠvÃ½m": 629,
      "ĠznÃ¡": 630,
      "nou": 631,
      "ĠÅ¡tÄĽ": 632,
      "ĠbrÃ¡": 633,
      "ĠslÃ¡": 634,
      "ĠÅ¾a": 635,
      "ĠtÅĻÃŃ": 636,
      "ĠtÃ©Å¾": 637,
      "Ġzda": 638,
      "Ġkal": 639,
      "om": 640,
      "Ġsty": 641,
      "Ġkl": 642,
      "ĠkrÃ¡t": 643,
      "ĠblÃŃ": 644,
      "Ġnez": 645,
      "Ġslad": 646,
      "Ġdiv": 647,
      "ĠdÃ¡l": 648,
      "Ġri": 649,
      "Ġmen": 650,
      "Ġjas": 651,
      "ĠsmÄĽ": 652,
      "Ġnil": 653,
      "ĠvÄĽÄį": 654,
      "ste": 655,
      "Ġjste": 656,
      "ĠÅĪ": 657,
      "ABBA": 658,
      "ĠzpÄĽ": 659,
      "Ġpil": 660,
      "Ġdn": 661,
      "Ġsko": 662,
      "Ġtla": 663,
      "sk": 664,
      "Äįe": 665,
      "Ġspa": 666,
      "ĠkÅĻi": 667,
      "ĠbÅ¯h": 668,
      "ĠvrÃ¡": 669,
      "ĠvÃ¡s": 670,
      "ĠdÅĻÃŃ": 671,
      "Ġdli": 672,
      "Ġsud": 673,
      "ĠkÃ½ch": 674,
      "Ġcem": 675,
      "Ġdost": 676,
      "Ġkru": 677,
      "ĠsvÃŃ": 678,
      "ĠvÃ½ch": 679,
      "Ġtm": 680,
      "ĠpÅ¯": 681,
      "Ġan": 682,
      "Ġach": 683,
      "Ġhlas": 684,
      "ĠstÃ©": 685,
      "ĠsvÅ¯j": 686,
      "Ġ1860": 687,
      "ĠvlÃ¡": 688,
      "ĠÅ¡la": 689,
      "Ġchla": 690,
      "Ġzve": 691,
      "ĠÄįek": 692,
      "ĠÅ¡li": 693,
      "ĠskÃ½": 694,
      "tÃŃ": 695,
      "Ġzrak": 696,
      "Ġnek": 697,
      "Ġvpo": 698,
      "Ġ1840": 699,
      "ĠcÃ½": 700,
      "ĠÄįÃŃm": 701,
      "Ġvzp": 702,
      "ĠzÅĻÃŃ": 703,
      "Ġvtom": 704,
      "Ġy": 705,
      "ĠptÃ¡": 706,
      "Ġskr": 707,
      "Ġven": 708,
      "ĠÅ¥": 709,
      "Ġkre": 710,
      "ĠspÄĽ": 711,
      "Ġsmut": 712,
      "lÃ½": 713,
      "ĠÄįas": 714,
      "Ġslou": 715,
      "Ġot": 716,
      "ĠdÃŃm": 717,
      "ĠÅĻil": 718,
      "ĠÅ¡u": 719,
      "Ġzou": 720,
      "Ġdlo": 721,
      "ĠsvÃ½m": 722,
      "Ġlil": 723,
      "Ġmar": 724,
      "ĠleÄį": 725,
      "ĠÅ¡ÃŃm": 726,
      "ĠvnÄĽ": 727,
      "Ġple": 728,
      "sÅ¥": 729,
      "ĠsvÃ½ch": 730,
      "Ġnom": 731,
      "Ã¡t": 732,
      "ĠÄįlo": 733,
      "ĠjÃŃm": 734,
      "Ġvni": 735,
      "Ġnal": 736,
      "Ġsb": 737,
      "ĠkÃ½m": 738,
      "Ġtru": 739,
      "Ġsch": 740,
      "ĠproÄį": 741,
      "Ãº": 742,
      "ĠslÃŃ": 743,
      "Ġprav": 744,
      "Ġvle": 745,
      "or": 746,
      "ich": 747,
      "Ġchce": 748,
      "Ġkry": 749,
      "Ġfa": 750,
      "Ġsen": 751,
      "ĠknÄĽ": 752,
      "Ġbro": 753,
      "ĠnÃŃk": 754,
      "ĠkrÃ¡l": 755,
      "ĠÅ¡a": 756,
      "ĠcÅ¯": 757,
      "ĠzvÄĽ": 758,
      "nÃ¡": 759,
      "ĠsÅ¯": 760,
      "Ġles": 761,
      "ĠsmÃŃ": 762,
      "Ġhem": 763,
      "ĠpÅĻec": 764,
      "Ġnout": 765,
      "ĠtÅĻi": 766,
      "ĠnÄĽm": 767,
      "ĠÅ¡k": 768,
      "Ġlost": 769,
      "ĠtÄĽch": 770,
      "ĠhrÃ¡": 771,
      "Ġzje": 772,
      "Ġtva": 773,
      "Ġdech": 774,
      "ĠhÅĻÃŃ": 775,
      "Ġzvu": 776,
      "Ġkm": 777,
      "ĠtÅĻ": 778,
      "ĠtÄĽÅ¾": 779,
      "ĠvÄĽk": 780,
      "Ġrod": 781,
      "ĠnÄĽk": 782,
      "nu": 783,
      "va": 784,
      "ĠmuÅ¾": 785,
      "ĠnÃ¡Å¡": 786,
      "ĠvÃ¡Å¡": 787,
      "ĠbuÄı": 788,
      "ĠkvÄĽt": 789,
      "ĠsnÄĽ": 790,
      "Ġhl": 791,
      "Ġprv": 792,
      "Ġdro": 793,
      "ĠjuÅ¾": 794,
      "ĠmÃ¡m": 795,
      "ĠpÃŃs": 796,
      "Ġhor": 797,
      "Ġprou": 798,
      "Ġslav": 799,
      "ĠskÃ½ch": 800,
      "ĠpÅĻÃ¡": 801,
      "Ġct": 802,
      "ĠzÅĻe": 803,
      "ĠchrÃ¡": 804,
      "Ġnec": 805,
      "Ġlet": 806,
      "ĠrÃ¡d": 807,
      "ĠdÃ¡v": 808,
      "Ġkne": 809,
      "17": 810,
      "ĠspÃŃ": 811,
      "ĠdÃ¡m": 812,
      "AAXX": 813,
      "Ġus": 814,
      "Ġklid": 815,
      "Ġkp": 816,
      "ĠÅ¾en": 817,
      "ĠstÅĻÃŃ": 818,
      "Ġkni": 819,
      "Ġdvo": 820,
      "ĠspÃ¡": 821,
      "ĠnÃŃch": 822,
      "Ġsled": 823,
      "ĠhlÃŃ": 824,
      "Ġkrev": 825,
      "ĠklÃ¡": 826,
      "Ġhled": 827,
      "ĠbÃ½t": 828,
      "ĠvnÄĽm": 829,
      "Ġtec": 830,
      "Ġnoc": 831,
      "Ġtal": 832,
      "ĠmÃ½": 833,
      "Ġdva": 834,
      "Ġvlast": 835,
      "Ġkt": 836,
      "ĠhÅ¯": 837,
      "Ġvol": 838,
      "Ġou": 839,
      "ĠseÅĪ": 840,
      "Ġsvi": 841,
      "ĠchtÄĽl": 842,
      "ĠtvÃ¡ÅĻ": 843,
      "Ġvje": 844,
      "as": 845,
      "ĠstÃ½": 846,
      "Ġps": 847,
      "ĠpÅĻes": 848,
      "Ã¡l": 849,
      "ĠvÄĽr": 850,
      "Ġpan": 851,
      "Ġvdu": 852,
      "Ã©m": 853,
      "ĠÅ¾el": 854,
      "Ġpad": 855,
      "ĠpÄĽt": 856,
      "ĠvÄįe": 857,
      "ĠznÄĽ": 858,
      "ĠjÃŃc": 859,
      "Ġbil": 860,
      "ĠdÄĽt": 861,
      "ĠhrÅ¯": 862,
      "ĠtvÅ¯j": 863,
      "ĠaÄį": 864,
      "ĠklÃŃ": 865,
      "Ġblou": 866,
      "Ġfe": 867,
      "Ġvne": 868,
      "ĠchÃ½": 869,
      "ci": 870,
      "ĠtÃ½ch": 871,
      "Ġzna": 872,
      "Ġmnou": 873,
      "Ġkon": 874,
      "AABBCC": 875,
      "Ġstal": 876,
      "ĠtvÃŃ": 877,
      "Ġduch": 878,
      "ĠdÃŃv": 879,
      "Ġzal": 880,
      "ĠkÃ©m": 881,
      "Ġbes": 882,
      "ĠtrÃ¡": 883,
      "ĠstrÃ¡": 884,
      "vo": 885,
      "Ġlen": 886,
      "ĠhnÄĽ": 887,
      "Ġhru": 888,
      "Ġtlo": 889,
      "ast": 890,
      "ĠvÃ©m": 891,
      "ĠmlÃ¡": 892,
      "ĠÅ¡Å¥": 893,
      "ĠzÅ¯": 894,
      "ĠsvÃ¡": 895,
      "Ġlov": 896,
      "ĠcÃŃm": 897,
      "Ġchle": 898,
      "ĠÄįel": 899,
      "ĠÅĻÃ¡": 900,
      "ĠpÃ¡n": 901,
      "ĠÅĻa": 902,
      "ĠnÃ¡ch": 903,
      "ĠÅ¡tÃŃ": 904,
      "ĠÅĻek": 905,
      "ĠcoÅ¾": 906,
      "Ġdar": 907,
      "Ġjde": 908,
      "Ġdej": 909,
      "ĠznÃŃ": 910,
      "ĠchvÃ¡": 911,
      "Ġche": 912,
      "ĠkÃ¡ch": 913,
      "Ġpal": 914,
      "Ġvod": 915,
      "ĠÅ¡ek": 916,
      "ĠknÃŃ": 917,
      "ĠlÃ½ch": 918,
      "ĠdvÄĽ": 919,
      "Ġkve": 920,
      "ĠÅ¾Ã¡d": 921,
      "ĠvzÃ¡": 922,
      "ĠsÃ½": 923,
      "ĠkvÃŃ": 924,
      "ĠchÅ¯": 925,
      "ĠdrÃ¡": 926,
      "Ġoh": 927,
      "Ġstat": 928,
      "ĠÄı": 929,
      "Ġbal": 930,
      "ĠzpÃŃ": 931,
      "Ġvsrd": 932,
      "Ġman": 933,
      "Ġhlou": 934,
      "ĠvÅ¾dyÅ¥": 935,
      "vi": 936,
      "Ġrov": 937,
      "ĠpÃ½": 938,
      "na": 939,
      "Ġchal": 940,
      "ĠÅ¡p": 941,
      "ĠÄįem": 942,
      "Ġleh": 943,
      "ĠhÅĻ": 944,
      "ĠnnÃ©": 945,
      "ĠmÃŃr": 946,
      "ĠprÃ½": 947,
      "Ġhod": 948,
      "Ġplo": 949,
      "Ġzel": 950,
      "Ġstvo": 951,
      "Ġzpo": 952,
      "AX": 953,
      "ĠD": 954,
      "ĠdeÅ¡": 955,
      "ĠpÅĻij": 956,
      "ĠkÅĻe": 957,
      "Ġmem": 958,
      "Ġskou": 959,
      "ĠzÃ½": 960,
      "Ġpom": 961,
      "Ġca": 962,
      "ĠstÃ¡l": 963,
      "ĠneÄį": 964,
      "Ġvno": 965,
      "Ġsed": 966,
      "ĠvÅ¡em": 967,
      "ĠdlÃŃ": 968,
      "Ġsd": 969,
      "ĠstÃŃn": 970,
      "Ġlal": 971,
      "Ġdce": 972,
      "Ã³": 973,
      "Ġsmrt": 974,
      "Ġral": 975,
      "Ġvj": 976,
      "Ġcu": 977,
      "Ġvit": 978,
      "Ġrt": 979,
      "Ġvch": 980,
      "Ġvoj": 981,
      "ĠlÃ©m": 982,
      "Ġkz": 983,
      "Ġzno": 984,
      "ABABCC": 985,
      "ĠsÃŃc": 986,
      "Ġlek": 987,
      "Ġtma": 988,
      "ĠvÅ¡u": 989,
      "Ġjo": 990,
      "Ġtlu": 991,
      "Ġdit": 992,
      "ĠsÃŃm": 993,
      "Ġchlad": 994,
      "ĠnnÃŃ": 995,
      "AAB": 996,
      "Ġhal": 997,
      "Å¡Å¥": 998,
      "Ġvzdu": 999,
      "ĠhlÃ¡": 1000,
      "Ġbles": 1001,
      "ĠÅ¾o": 1002,
      "ĠneÅ¡": 1003,
      "ĠdÃ½m": 1004,
      "Ġlik": 1005,
      "ĠhlÃ©": 1006,
      "ve": 1007,
      "ĠmÃ½ch": 1008,
      "Ġar": 1009,
      "ĠlÃ½m": 1010,
      "ĠvtÃ©": 1011,
      "Ġsni": 1012,
      "Ġhlo": 1013,
      "Ġnit": 1014,
      "ĠsvÃ©m": 1015,
      "ĠvlÃŃ": 1016,
      "Ġhroz": 1017,
      "Ġcit": 1018,
      "ĠÅ¡Å¥ast": 1019,
      "Ġzbo": 1020,
      "ha": 1021,
      "Ġvza": 1022,
      "Ġvsv": 1023,
      "ABABXX": 1024,
      "Ġvzpo": 1025,
      "Ġvzh": 1026,
      "ĠÅ¡ep": 1027,
      "ĠzrÃ¡": 1028,
      "Ġvpra": 1029,
      "Ġkto": 1030,
      "Ġaj": 1031,
      "ĠboÅ¾": 1032,
      "Ġdat": 1033,
      "Ġpev": 1034,
      "Ġvro": 1035,
      "Ġjm": 1036,
      "Ġsku": 1037,
      "ĠÅĪa": 1038,
      "Ġbys": 1039,
      "Ġ1960": 1040,
      "Ġply": 1041,
      "Ġvti": 1042,
      "Ġsr": 1043,
      "AXA": 1044,
      "Ġstem": 1045,
      "ĠtrÅ¯": 1046,
      "ĠslyÅ¡": 1047,
      "Ġtl": 1048,
      "Ġzro": 1049,
      "Ġpru": 1050,
      "ĠvÃŃÅ¡": 1051,
      "Ġga": 1052,
      "ĠÅ¾ÃŃm": 1053,
      "Ġstej": 1054,
      "Ġzle": 1055,
      "ĠÅĻÃŃm": 1056,
      "ĠsnÃŃm": 1057,
      "Ġboj": 1058,
      "ĠvdÄĽ": 1059,
      "Ġzl": 1060,
      "ĠvnÃŃ": 1061,
      "Ġlest": 1062,
      "Ġvbo": 1063,
      "ĠzmÄĽ": 1064,
      "ĠdÄĽj": 1065,
      "Ġdin": 1066,
      "ĠjÃŃt": 1067,
      "Å¾i": 1068,
      "ĠpÄĽk": 1069,
      "ĠzvÃŃ": 1070,
      "Ġsna": 1071,
      "ĠkÅ¯m": 1072,
      "ĠdÅĻÃŃv": 1073,
      "Ġhrad": 1074,
      "at": 1075,
      "Ġzli": 1076,
      "Ġskry": 1077,
      "Ġska": 1078,
      "Ġcen": 1079,
      "Ġkat": 1080,
      "ĠvÃ¡n": 1081,
      "Ġvmo": 1082,
      "Ġpov": 1083,
      "ĠÄįen": 1084,
      "Ġchou": 1085,
      "ĠÄįÃ¡": 1086,
      "Ġfi": 1087,
      "Ġves": 1088,
      "ĠtvÃ½ch": 1089,
      "Ġstli": 1090,
      "Ġge": 1091,
      "ĠtoÅ¥": 1092,
      "ĠÄįt": 1093,
      "ĠtÄĽl": 1094,
      "ĠtÃ¡h": 1095,
      "Ġnich": 1096,
      "ĠvÅ¡ÃŃ": 1097,
      "Ġbli": 1098,
      "ĠnÄĽl": 1099,
      "ĠmÃ½m": 1100,
      "Ġsne": 1101,
      "ĠrÃ½ch": 1102,
      "ech": 1103,
      "Ġth": 1104,
      "Ġplu": 1105,
      "ĠtÃ½m": 1106,
      "Ġzva": 1107,
      "Ġkud": 1108,
      "ĠÅ¾li": 1109,
      "Ġzr": 1110,
      "Ġdly": 1111,
      "Ġper": 1112,
      "Ġtk": 1113,
      "Ġtaj": 1114,
      "ĠsnÃ¡": 1115,
      "ĠÅ¾eh": 1116,
      "Ġkri": 1117,
      "ĠmoÅ¾": 1118,
      "Ġmoh": 1119,
      "ĠÄįet": 1120,
      "ĠÄįin": 1121,
      "Ġjis": 1122,
      "Ġhli": 1123,
      "Ġkme": 1124,
      "ĠÄįes": 1125,
      "ĠÅ¡lo": 1126,
      "Ġstva": 1127,
      "Ġjin": 1128,
      "ĠchÃ©": 1129,
      "Ġtit": 1130,
      "Ġvnich": 1131,
      "nost": 1132,
      "ĠÅ¡ÃŃch": 1133,
      "Ġkb": 1134,
      "Ġchci": 1135,
      "Ġbar": 1136,
      "ĠdlÃ©": 1137,
      "ĠÃºs": 1138,
      "ĠkÃ¡m": 1139,
      "Ġcos": 1140,
      "ĠvÃº": 1141,
      "ĠzpÄĽv": 1142,
      "Ġvru": 1143,
      "ĠtÃ©m": 1144,
      "Ġchod": 1145,
      "Ġvsta": 1146,
      "Ġtys": 1147,
      "ĠzpÄĽt": 1148,
      "mu": 1149,
      "Ġznich": 1150,
      "ĠskrÃ¡": 1151,
      "ĠbrÃ©": 1152,
      "ĠprÃ¡z": 1153,
      "Ġtes": 1154,
      "Ġzdo": 1155,
      "Ġgo": 1156,
      "Ġtry": 1157,
      "Ġmd": 1158,
      "Ġvdo": 1159,
      "Ġsek": 1160,
      "ĠmÅĻe": 1161,
      "Ġrel": 1162,
      "ĠÅ¡ko": 1163,
      "ĠzÅĻel": 1164,
      "Ġbol": 1165,
      "ĠjmÃ©": 1166,
      "ĠstÃŃm": 1167,
      "ĠvÄĽt": 1168,
      "ĠsmÃŃch": 1169,
      "ĠzlÃ©": 1170,
      "ĠvdÃ¡l": 1171,
      "Ġkdys": 1172,
      "Ġvrou": 1173,
      "ĠteÄį": 1174,
      "ĠstrÃ½": 1175,
      "ĠÅĻem": 1176,
      "Ġzen": 1177,
      "Ġtvr": 1178,
      "ĠÅĻeÄį": 1179,
      "ĠÅ¡il": 1180,
      "ĠÅ¾al": 1181,
      "ĠvÅ¾dyc": 1182,
      "ĠblÃ¡": 1183,
      "Ġhud": 1184,
      "ar": 1185,
      "Ġsel": 1186,
      "ĠÅ¡em": 1187,
      "Ġsmy": 1188,
      "Ġpoh": 1189,
      "Ġkraj": 1190,
      "ĠmÃ¡Å¡": 1191,
      "Ġ1820": 1192,
      "Ġkmi": 1193,
      "Ġpot": 1194,
      "ĠÅ¡lÃ©": 1195,
      "Ġbraz": 1196,
      "Ġkost": 1197,
      "ĠÅ¾it": 1198,
      "Ġtre": 1199,
      "an": 1200,
      "Ġnen": 1201,
      "Ġjal": 1202,
      "ĠdÅĻe": 1203,
      "ĠdÃŃÅ¡": 1204,
      "CCB": 1205,
      "ĠtÄĽz": 1206,
      "Ġstar": 1207,
      "ĠÄįit": 1208,
      "ĠzÃ¡ÅĻ": 1209,
      "ĠjejÅ¾": 1210,
      "ĠhoÅ¾": 1211,
      "Ġss": 1212,
      "ĠlÃŃÅ¡": 1213,
      "Ġztra": 1214,
      "Ġtan": 1215,
      "Ġtech": 1216,
      "Ġvko": 1217,
      "Ġtvou": 1218,
      "Ġau": 1219,
      "Ġzne": 1220,
      "ĠÄįest": 1221,
      "ĠtoÅ¾": 1222,
      "Ġblu": 1223,
      "ĠskÃ½m": 1224,
      "ĠÅ¡ich": 1225,
      "Ġbem": 1226,
      "Ġsyn": 1227,
      "Ġslov": 1228,
      "Ġgi": 1229,
      "Ġsten": 1230,
      "ĠstÅ¯": 1231,
      "ĠvÃ¡Å¾": 1232,
      "ĠvtÄĽ": 1233,
      "rou": 1234,
      "ĠdÅ¯m": 1235,
      "Ġsklo": 1236,
      "Ġchra": 1237,
      "Ġvze": 1238,
      "Ġleb": 1239,
      "Ġsvit": 1240,
      "Ġkva": 1241,
      "ĠrÃ©m": 1242,
      "Ġstech": 1243,
      "Ġdel": 1244,
      "ĠbrÃ½": 1245,
      "ĠvÅ¡ich": 1246,
      "ĠdlÃ¡": 1247,
      "Ġvsk": 1248,
      "Ġnev": 1249,
      "Ġzor": 1250,
      "ĠliÅ¡": 1251,
      "ĠvzhÅ¯": 1252,
      "ĠjÃŃÅ¾": 1253,
      "Ġstru": 1254,
      "XAAX": 1255,
      "ĠfÃ¡": 1256,
      "Ġzum": 1257,
      "XXAA": 1258,
      "AABCCB": 1259,
      "Ġjel": 1260,
      "ĠblÃŃÅ¾": 1261,
      "Ġvzne": 1262,
      "Ġpoj": 1263,
      "Ġblo": 1264,
      "Ġdob": 1265,
      "Ġvan": 1266,
      "ĠstraÅ¡": 1267,
      "ĠhÅĻe": 1268,
      "Ġskal": 1269,
      "ĠÅĻit": 1270,
      "ĠbÃ¡s": 1271,
      "Ġvzal": 1272,
      "Ġmal": 1273,
      "Ġvec": 1274,
      "Ġklad": 1275,
      "Ġtost": 1276,
      "Ġsoud": 1277,
      "Ġok": 1278,
      "Ġsbo": 1279,
      "ĠjÅ¯": 1280,
      "Ġdve": 1281,
      "ĠskrÃ½": 1282,
      "ĠÅ¾Ã¡r": 1283,
      "Ġzby": 1284,
      "ĠbÃŃd": 1285,
      "ĠtÅĻÃ¡": 1286,
      "Ġzvuk": 1287,
      "ĠÅĻÃ¡d": 1288,
      "Ġkot": 1289,
      "Ġhlad": 1290,
      "Ġas": 1291,
      "Ġzmi": 1292,
      "Ġpor": 1293,
      "ĠbÅĻÃŃ": 1294,
      "Ġvna": 1295,
      "Ġled": 1296,
      "Ġstup": 1297,
      "ĠzlÃŃ": 1298,
      "ĠprÅ¯": 1299,
      "Ġcel": 1300,
      "Ġlej": 1301,
      "Ġzvy": 1302,
      "Ġhrob": 1303,
      "Ġpat": 1304,
      "Ġsme": 1305,
      "Ġjar": 1306,
      "ĠvlÃ¡d": 1307,
      "ĠÄįÃŃch": 1308,
      "ĠvÄį": 1309,
      "Ġnaj": 1310,
      "Ġklu": 1311,
      "ĠÅ¾ha": 1312,
      "Ġhan": 1313,
      "AXAX": 1314,
      "Ġvka": 1315,
      "Ġzbra": 1316,
      "Ġzdra": 1317,
      "Ġvho": 1318,
      "ĠmÃŃt": 1319,
      "Ġtis": 1320,
      "ĠheÅĪ": 1321,
      "ĠtÄĽm": 1322,
      "Ġkoj": 1323,
      "ĠÃ¡": 1324,
      "ĠjÃŃch": 1325,
      "Ġnak": 1326,
      "Ġpar": 1327,
      "ĠpÃ©": 1328,
      "ĠvÅ¡i": 1329,
      "ĠsvÃ½": 1330,
      "Ġpos": 1331,
      "Ġvzte": 1332,
      "ĠnnÃ½": 1333,
      "Ġzjev": 1334,
      "ĠstÅĻed": 1335,
      "Ġproud": 1336,
      "Ġkh": 1337,
      "ĠvnÃ¡": 1338,
      "Ġzvol": 1339,
      "ĠpouÅ¡": 1340,
      "ĠnnÄĽ": 1341,
      "Ġder": 1342,
      "Ġspra": 1343,
      "ĠsklÃ¡": 1344,
      "ĠbÃ©": 1345,
      "Ġchr": 1346,
      "ĠhleÄı": 1347,
      "Ġov": 1348,
      "Ġblesk": 1349,
      "Ġdek": 1350,
      "ja": 1351,
      "Ġor": 1352,
      "Ġur": 1353,
      "Ġzka": 1354,
      "Ġbuj": 1355,
      "Ġvzk": 1356,
      "ĠvÄĽz": 1357,
      "ĠnaÄį": 1358,
      "ĠskÃ©m": 1359,
      "ĠhvÄĽzd": 1360,
      "ĠdÄĽs": 1361,
      "Ġstil": 1362,
      "Ġver": 1363,
      "Ġdruh": 1364,
      "Ġnat": 1365,
      "ĠnÄĽÅ¾": 1366,
      "ĠsnÅ¯": 1367,
      "ĠÅ¡len": 1368,
      "ĠÅ¡t": 1369,
      "Ġum": 1370,
      "Ġvys": 1371,
      "ĠÄįej": 1372,
      "ĠÅ¾iv": 1373,
      "ĠnÅ¯m": 1374,
      "ĠdÃ½ch": 1375,
      "Ġlas": 1376,
      "Ġkly": 1377,
      "Ġrek": 1378,
      "ĠnechÅ¥": 1379,
      "Ġsal": 1380,
      "ĠmÄĽv": 1381,
      "Ġtli": 1382,
      "Ġchv": 1383,
      "ĠmeÄį": 1384,
      "ĠpÅ¯l": 1385,
      "ĠÅ¾u": 1386,
      "Ġtle": 1387,
      "ĠvstÅĻÃŃ": 1388,
      "Ġjdou": 1389,
      "ĠnuÅ¾": 1390,
      "Ġzce": 1391,
      "Ġvej": 1392,
      "ĠÅ¡en": 1393,
      "Ġned": 1394,
      "Ġfra": 1395,
      "Ġhnu": 1396,
      "Ġhly": 1397,
      "Ġzil": 1398,
      "ĠslÃ©": 1399,
      "ĠzvÃ¡": 1400,
      "Ġrak": 1401,
      "ĠvÃ½Å¡": 1402,
      "ĠÅ¾lu": 1403,
      "Ġmor": 1404,
      "Ġbrou": 1405,
      "Ġzma": 1406,
      "ĠvÃ¡l": 1407,
      "ĠpÅ¯j": 1408,
      "Ġvpa": 1409,
      "Ġtin": 1410,
      "ĠbÃŃk": 1411,
      "ĠmÃŃn": 1412,
      "rÃ¡z": 1413,
      "Ġbor": 1414,
      "Ġkrok": 1415,
      "ĠhÃ½ch": 1416,
      "ĠÃŃ": 1417,
      "ĠsvÄĽd": 1418,
      "Ġkze": 1419,
      "ĠchvÄĽl": 1420,
      "ĠzvlÃ¡": 1421,
      "Ġhrom": 1422,
      "ĠvsvÄĽ": 1423,
      "Ġtrou": 1424,
      "Ġol": 1425,
      "ĠdÄĽv": 1426,
      "Ġvlo": 1427,
      "ĠruÄį": 1428,
      "ĠspoÅĪ": 1429,
      "Ġret": 1430,
      "Ġmrou": 1431,
      "Ġzved": 1432,
      "ĠzeÅĪ": 1433,
      "Ġknu": 1434,
      "ĠrÃ½m": 1435,
      "Ġkov": 1436,
      "ĠnÄĽn": 1437,
      "ĠÅ¡et": 1438,
      "Ġscho": 1439,
      "Ġstav": 1440,
      "Ġsho": 1441,
      "Ġvrh": 1442,
      "ĠhoÅĻ": 1443,
      "Ġkdes": 1444,
      "ĠzdÃ¡l": 1445,
      "ĠkÅĻÃŃÅ¾": 1446,
      "Ġkrou": 1447,
      "ĠblÃŃz": 1448,
      "Å¯r": 1449,
      "Ġpout": 1450,
      "Ġtrp": 1451,
      "ĠdÃ©m": 1452,
      "ĠÅĻen": 1453,
      "ĠvÄĽn": 1454,
      "Ġber": 1455,
      "ĠÅ¡um": 1456,
      "ĠkÅĻ": 1457,
      "Ġtic": 1458,
      "ĠvstÅĻÃŃc": 1459,
      "Ġkso": 1460,
      "ĠlÃŃm": 1461,
      "Ġmrak": 1462,
      "Ġvli": 1463,
      "ÅĪa": 1464,
      "ĠsnÃŃh": 1465,
      "vÃ©": 1466,
      "ĠhÅĻm": 1467,
      "ĠdÃŃt": 1468,
      "Ġset": 1469,
      "ĠdvÃ©": 1470,
      "ĠztÄĽ": 1471,
      "ĠvÄĽc": 1472,
      "Ġmst": 1473,
      "ĠhÃ½m": 1474,
      "Ġchva": 1475,
      "Ġtvor": 1476,
      "rÅ¯": 1477,
      "Ġsve": 1478,
      "ĠkÅĻik": 1479,
      "ĠvzdÃ¡": 1480,
      "Ġdouc": 1481,
      "ĠnÃŃz": 1482,
      "ĠknÃ¡": 1483,
      "ĠkoÅ¡": 1484,
      "ĠvlÃŃd": 1485,
      "Ġjsa": 1486,
      "ĠpÄĽl": 1487,
      "en": 1488,
      "Ġspi": 1489,
      "ĠÄįal": 1490,
      "Ġzru": 1491,
      "ĠzmÃŃ": 1492,
      "Ġvlas": 1493,
      "ĠstÃ¡t": 1494,
      "Ġoz": 1495,
      "ĠpyÅ¡": 1496,
      "Ġal": 1497,
      "ĠplÃ©": 1498,
      "py": 1499,
      "Ġhej": 1500,
      "Ġlep": 1501,
      "Ġlist": 1502,
      "Ġsny": 1503,
      "Ġsmu": 1504,
      "ĠvÅ¾i": 1505,
      "ĠptÃ¡k": 1506,
      "ĠskvÄĽ": 1507,
      "Ġdav": 1508,
      "Ġlin": 1509,
      "Ġkno": 1510,
      "ĠzdÄĽ": 1511,
      "Ġher": 1512,
      "Ġvyz": 1513,
      "Ġjil": 1514,
      "ĠpuÅ¡": 1515,
      "Ġhoj": 1516,
      "bi": 1517,
      "Ġzdvi": 1518,
      "Ġlk": 1519,
      "ĠtÅĻpy": 1520,
      "Ġknou": 1521,
      "Ġcti": 1522,
      "Ġter": 1523,
      "ĠchlÃ©": 1524,
      "Ġprud": 1525,
      "ĠzboÅ¾": 1526,
      "Ġnav": 1527,
      "ĠvÄĽÅĻ": 1528,
      "Ġtrh": 1529,
      "Ġdlit": 1530,
      "Ġtor": 1531,
      "Ġnel": 1532,
      "ĠznÃ¡m": 1533,
      "Ġslil": 1534,
      "Ġzto": 1535,
      "Ġnno": 1536,
      "ĠÃºz": 1537,
      "ĠhnÄĽv": 1538,
      "ĠÅ¡Ã¡": 1539,
      "Ġvzdy": 1540,
      "Ġpry": 1541,
      "ĠmÅĻÃŃ": 1542,
      "Ġved": 1543,
      "ĠÅ¾ÃŃt": 1544,
      "Ġchl": 1545,
      "Ġfal": 1546,
      "ĠkrÃ½": 1547,
      "ĠbyÅ¥": 1548,
      "Ġjme": 1549,
      "ĠkdoÅ¾": 1550,
      "ĠmraÄį": 1551,
      "vr": 1552,
      "Ġzni": 1553,
      "Ġbral": 1554,
      "Ġdno": 1555,
      "Ġin": 1556,
      "ĠchrÃ¡m": 1557,
      "ĠX": 1558,
      "Ġpta": 1559,
      "Ġpol": 1560,
      "Ġmil": 1561,
      "Ġzim": 1562,
      "Ġchmu": 1563,
      "Ġnny": 1564,
      "ĠnnÃ¡": 1565,
      "Ġdrob": 1566,
      "ĠhruÄı": 1567,
      "Ġrok": 1568,
      "ĠjichÅ¾": 1569,
      "Ġben": 1570,
      "Ġskle": 1571,
      "Ġnnou": 1572,
      "Ġchvil": 1573,
      "ĠztrÃ¡": 1574,
      "Ġvslu": 1575,
      "Ġstrach": 1576,
      "in": 1577,
      "XAXAXX": 1578,
      "ĠvÅĻel": 1579,
      "Ġpen": 1580,
      "Ġlit": 1581,
      "ĠmÄĽk": 1582,
      "ĠrÃ¡m": 1583,
      "ĠdrÃ©": 1584,
      "Ġvzduch": 1585,
      "Ġkpo": 1586,
      "Ġzval": 1587,
      "Ġbec": 1588,
      "ĠbouÅĻ": 1589,
      "ĠpÅĻÃŃs": 1590,
      "Ġuz": 1591,
      "ĠvÅĻÃŃ": 1592,
      "Ġvez": 1593,
      "ĠviÄį": 1594,
      "Ġsej": 1595,
      "ĠnaÅĪ": 1596,
      "ĠvkrÃ¡": 1597,
      "ĠdruÅ¾": 1598,
      "ĠmÅ¾i": 1599,
      "ÅĻÃ¡": 1600,
      "Ġnut": 1601,
      "ĠzÅĻÃŃm": 1602,
      "ĠmÃ©m": 1603,
      "Ġrej": 1604,
      "ĠpoÄį": 1605,
      "ĠdiÄį": 1606,
      "Ġsma": 1607,
      "Ġzaz": 1608,
      "ĠÄįÃŃÅ¡": 1609,
      "Ġvzb": 1610,
      "ĠbÄĽh": 1611,
      "ĠhÃ©m": 1612,
      "Ġbd": 1613,
      "ĠÅ¡at": 1614,
      "tÅĻ": 1615,
      "ĠvtvÃ¡": 1616,
      "ĠdrÃ½": 1617,
      "ĠnoÄį": 1618,
      "ĠÅĻÅ¯": 1619,
      "Ġvce": 1620,
      "ĠcÅ¯m": 1621,
      "ĠdnÃŃ": 1622,
      "ĠvnÄĽmÅ¾": 1623,
      "Ġtrem": 1624,
      "ĠsmÃ¡": 1625,
      "Ġctnost": 1626,
      "Ġcet": 1627,
      "Ġnuv": 1628,
      "Ġgu": 1629,
      "ĠliÄį": 1630,
      "ĠÅ¾em": 1631,
      "ĠniÄį": 1632,
      "ĠzÃŃch": 1633,
      "Ġhad": 1634,
      "Ġmluv": 1635,
      "Ġran": 1636,
      "ĠvdÃ¡": 1637,
      "ĠÅ¥a": 1638,
      "Ġcla": 1639,
      "Ġsro": 1640,
      "Ġvpro": 1641,
      "ĠnÃŃÅ¾": 1642,
      "er": 1643,
      "ti": 1644,
      "ĠtÃ¡m": 1645,
      "Ġkor": 1646,
      "Ġzmo": 1647,
      "Ġlec": 1648,
      "ĠrÃ¡ch": 1649,
      "Ġhat": 1650,
      "Ġkles": 1651,
      "Ġstrom": 1652,
      "Ġtly": 1653,
      "Ġspro": 1654,
      "ej": 1655,
      "ĠÅ¡lÃ©n": 1656,
      "Ġrad": 1657,
      "Ġzku": 1658,
      "Ġvhro": 1659,
      "Ġsic": 1660,
      "Ġlh": 1661,
      "Ġvln": 1662,
      "Ġvta": 1663,
      "ĠvzÃ¡c": 1664,
      "Ġdlem": 1665,
      "Ġtiv": 1666,
      "Ġlez": 1667,
      "Ġspou": 1668,
      "ĠzrÃ¡d": 1669,
      "ĠboÅ¥": 1670,
      "Ġmek": 1671,
      "ĠvpÅĻe": 1672,
      "ĠdÃ¡t": 1673,
      "ĠknÃ¡m": 1674,
      "Ġsra": 1675,
      "Ġvpr": 1676,
      "Ġchat": 1677,
      "ÅĻa": 1678,
      "Ġpem": 1679,
      "ĠvraÅ¾": 1680,
      "Ġjou": 1681,
      "ĠlÃŃch": 1682,
      "ĠklÃ©": 1683,
      "ĠmÄĽj": 1684,
      "ĠpryÄį": 1685,
      "XB": 1686,
      "Ġvad": 1687,
      "Ġkar": 1688,
      "ĠzprÃ¡": 1689,
      "ĠtlÃ©": 1690,
      "Ġmech": 1691,
      "nÃŃz": 1692,
      "Å¾e": 1693,
      "Ġsky": 1694,
      "ĠtvÃ½m": 1695,
      "ĠlÃŃc": 1696,
      "Ġdlu": 1697,
      "ĠchtÃŃ": 1698,
      "ĠdÄĽc": 1699,
      "Ġpit": 1700,
      "Ġvzdech": 1701,
      "Ġnna": 1702,
      "Ġstk": 1703,
      "Ġzbu": 1704,
      "Ġbit": 1705,
      "ĠsÃ¡h": 1706,
      "ĠrÅ¯z": 1707,
      "Ġlla": 1708,
      "ĠÄįu": 1709,
      "Ġvtu": 1710,
      "Ġlle": 1711,
      "Ġples": 1712,
      "Ġrty": 1713,
      "ĠvÅ¯d": 1714,
      "Ġkmo": 1715,
      "Ġvor": 1716,
      "ĠjÃŃmÅ¾": 1717,
      "Ġjez": 1718,
      "ĠhÃ¡m": 1719,
      "vy": 1720,
      "ĠblÃ½": 1721,
      "Ġbod": 1722,
      "Ġzdi": 1723,
      "Ġkus": 1724,
      "ĠÄıÃ¡": 1725,
      "Ġpsa": 1726,
      "ĠlÃŃk": 1727,
      "ĠzdrÃ¡": 1728,
      "Ġvroz": 1729,
      "Ġvzt": 1730,
      "Ġzar": 1731,
      "ĠkÅĻes": 1732,
      "ĠÅ¾er": 1733,
      "Ġmni": 1734,
      "Ġsnu": 1735,
      "Ġhlav": 1736,
      "ĠzlÃ¡": 1737,
      "Ġos": 1738,
      "Ġbyt": 1739,
      "Ġbru": 1740,
      "Ġprach": 1741,
      "ĠnÃ¡d": 1742,
      "ĠhÅĻÃŃch": 1743,
      "Ġctno": 1744,
      "Ġkbo": 1745,
      "Ġzba": 1746,
      "ĠÅ¡lech": 1747,
      "Ġkn": 1748,
      "ĠdnÃ©": 1749,
      "Ġvic": 1750,
      "vost": 1751,
      "ĠvstÃ¡": 1752,
      "Ġvstou": 1753,
      "ĠtÃŃÅ¡": 1754,
      "Ġvost": 1755,
      "Ġkej": 1756,
      "ĠdÃ¡n": 1757,
      "Ġrat": 1758,
      "Ġsit": 1759,
      "Ġklam": 1760,
      "ĠmÃŃm": 1761,
      "Ġchlu": 1762,
      "ĠkÅ¯v": 1763,
      "Ġvsa": 1764,
      "ĠÄįo": 1765,
      "ĠhÃ¡d": 1766,
      "ĠÅ¾dy": 1767,
      "ĠchceÅ¡": 1768,
      "ĠvyÅ¡": 1769,
      "Ġtok": 1770,
      "Ġvmy": 1771,
      "Ġzek": 1772,
      "Ġpros": 1773,
      "ĠsÅ¯m": 1774,
      "Ġdot": 1775,
      "ĠÄįÅ¯": 1776,
      "Ġskro": 1777,
      "Ġpoc": 1778,
      "ĠdlÃ½": 1779,
      "Ġkyt": 1780,
      "ĠpÄĽv": 1781,
      "ĠhÅ¯m": 1782,
      "ji": 1783,
      "ĠsluÅ¡": 1784,
      "Ġchej": 1785,
      "ĠnÃ¡ÅĻ": 1786,
      "Ġprs": 1787,
      "ĠsluÅ¾": 1788,
      "ĠdÃ¡ch": 1789,
      "ĠloÄı": 1790,
      "ĠÅ¡o": 1791,
      "Ġklet": 1792,
      "ĠztÄĽch": 1793,
      "Ġzlou": 1794,
      "ĠbÃ¡ch": 1795,
      "ĠvÅ¡ÃŃm": 1796,
      "Ġfr": 1797,
      "ĠskÅĻÃŃ": 1798,
      "Ġvin": 1799,
      "ĠÅĪo": 1800,
      "ĠbÅĻi": 1801,
      "ĠpÅĻÃŃÅ¡": 1802,
      "Ġvkr": 1803,
      "ĠznÄĽl": 1804,
      "ĠbÄĽd": 1805,
      "Ġstran": 1806,
      "ĠÅ¡ly": 1807,
      "Ġtur": 1808,
      "ĠbiÄį": 1809,
      "ĠvsÃŃ": 1810,
      "Ġluz": 1811,
      "ĠvsvÃ©m": 1812,
      "ĠslÃŃm": 1813,
      "ĠtÅĻil": 1814,
      "ĠdÃŃl": 1815,
      "Ġzkou": 1816,
      "ĠvÄĽÅ¡": 1817,
      "Ġfran": 1818,
      "ĠdÃ¡Å¡": 1819,
      "ĠvsvÃ©": 1820,
      "ze": 1821,
      "ĠvÄĽj": 1822,
      "ĠdvÃ¡": 1823,
      "Å¡e": 1824,
      "ĠÅĻÃŃÅ¡": 1825,
      "Ġzti": 1826,
      "Ġsob": 1827,
      "Ġzev": 1828,
      "Ġvzdor": 1829,
      "Ġcou": 1830,
      "Ġvdi": 1831,
      "Ġdoj": 1832,
      "Ġx": 1833,
      "Ġbled": 1834,
      "ĠnÃ¡c": 1835,
      "Ġpel": 1836,
      "ĠstÃ©m": 1837,
      "ĠÅĻec": 1838,
      "Ġken": 1839,
      "Ġlan": 1840,
      "ĠplÃŃ": 1841,
      "Ġhloub": 1842,
      "ĠzvlÃ¡Å¡": 1843,
      "ĠzÄįe": 1844,
      "Ġhol": 1845,
      "Ġzat": 1846,
      "ĠslÃ½": 1847,
      "Ġpur": 1848,
      "ĠtÄĽj": 1849,
      "Ġhar": 1850,
      "ĠlÃ¡ch": 1851,
      "Ġfo": 1852,
      "Ġvrat": 1853,
      "Ġzpu": 1854,
      "Ġsmi": 1855,
      "ma": 1856,
      "18": 1857,
      "ĠzÃŃm": 1858,
      "ĠstvÃŃm": 1859,
      "Ġtlou": 1860,
      "Ġvhlou": 1861,
      "ĠkrÅ¯": 1862,
      "Ġkaz": 1863,
      "Ġgra": 1864,
      "Ġtri": 1865,
      "Ġblud": 1866,
      "Ġzdu": 1867,
      "ĠhluÄį": 1868,
      "Ġvzde": 1869,
      "ĠvÅ¡a": 1870,
      "ĠpeÄį": 1871,
      "lad": 1872,
      "ĠdnÅ¯": 1873,
      "ĠmlÃ½": 1874,
      "Ġdok": 1875,
      "Ġtov": 1876,
      "Ġsbor": 1877,
      "ĠpÃ¡r": 1878,
      "Ġvstal": 1879,
      "ĠvÃŃr": 1880,
      "Ġmon": 1881,
      "Ġhost": 1882,
      "Ġvji": 1883,
      "Ġhrou": 1884,
      "Ġplod": 1885,
      "ĠdiÅ¾": 1886,
      "Ġbel": 1887,
      "Ġvto": 1888,
      "Ġchlo": 1889,
      "Ġdrav": 1890,
      "Ġlat": 1891,
      "ĠstrÃ¡Å¾": 1892,
      "Ġrost": 1893,
      "ĠvdÄĽÄį": 1894,
      "Ġbre": 1895,
      "Ġlli": 1896,
      "ĠjvÃŃ": 1897,
      "ĠzpÃ¡t": 1898,
      "ĠÅĪu": 1899,
      "Ġvsp": 1900,
      "Ġzch": 1901,
      "Ġvso": 1902,
      "Ġtve": 1903,
      "Ġsje": 1904,
      "Ġbin": 1905,
      "Ġkrut": 1906,
      "ĠvkaÅ¾": 1907,
      "vou": 1908,
      "ĠvÅ¡ic": 1909,
      "Ġkop": 1910,
      "Ġruch": 1911,
      "Ġzko": 1912,
      "Ġslech": 1913,
      "Å¯d": 1914,
      "Ġteh": 1915,
      "ĠsaÅĻ": 1916,
      "ĠvÅĻa": 1917,
      "Ġvjed": 1918,
      "Ġmli": 1919,
      "ĠzÃº": 1920,
      "Ġdni": 1921,
      "Ġzav": 1922,
      "Ġchli": 1923,
      "ĠsvÃ¡t": 1924,
      "Ġdny": 1925,
      "ĠÄįty": 1926,
      "ĠblÃ½s": 1927,
      "Ã¡m": 1928,
      "ĠÅ¡it": 1929,
      "Ġmed": 1930,
      "ĠvmÄĽ": 1931,
      "Ġpln": 1932,
      "Ġlze": 1933,
      "ĠklÃŃn": 1934,
      "ĠÅĻad": 1935,
      "Ġnus": 1936,
      "Ġthe": 1937,
      "Ġren": 1938,
      "Ġplou": 1939,
      "ĠhnÃŃz": 1940,
      "ĠÅ¡er": 1941,
      "Ġvsm": 1942,
      "Ġhoch": 1943,
      "Ġlech": 1944,
      "ĠsÃŃch": 1945,
      "ĠknÄĽz": 1946,
      "Ġpes": 1947,
      "ĠzpÅ¯": 1948,
      "ĠkÃ½s": 1949,
      "Ġtat": 1950,
      "ĠhlÃ½": 1951,
      "Ġsyl": 1952,
      "Ġzhy": 1953,
      "ĠstÅĻi": 1954,
      "Ġnnost": 1955,
      "ĠmrÃ¡z": 1956,
      "ĠslÃ©z": 1957,
      "ĠtvÃ©m": 1958,
      "Ġdum": 1959,
      "Ġvlh": 1960,
      "Ġhez": 1961,
      "Ġzvon": 1962,
      "ĠmÄĽst": 1963,
      "Ġklou": 1964,
      "Ġvsi": 1965,
      "ABBX": 1966,
      "ĠniÅ¾": 1967,
      "Ġrev": 1968,
      "ĠslÅ¯": 1969,
      "qu": 1970,
      "ĠmlÄį": 1971,
      "ĠkÃ¡n": 1972,
      "Ġnaz": 1973,
      "Ġzpra": 1974,
      "AXX": 1975,
      "ĠvlÃ¡s": 1976,
      "ĠsÃº": 1977,
      "ĠreÄį": 1978,
      "Ġvtem": 1979,
      "ĠÅ¡in": 1980,
      "ĠuÅ¡": 1981,
      "Ġnoch": 1982,
      "Ġvzle": 1983,
      "Ġzhou": 1984,
      "ĠstÅĻel": 1985,
      "Ġqu": 1986,
      "ĠÅ¾as": 1987,
      "Ġhna": 1988,
      "ĠspÃŃÅ¡": 1989,
      "ĠhrÃ¡l": 1990,
      "Ġjan": 1991,
      "Ġzyk": 1992,
      "Ġtmy": 1993,
      "Ġhm": 1994,
      "Ġlam": 1995,
      "Ġvkra": 1996,
      "ĠkÃ©Å¾": 1997,
      "CB": 1998,
      "ĠÅ¾ÃŃÅ¡": 1999,
      "Ġslal": 2000,
      "ĠÅĻk": 2001,
      "Ġblan": 2002,
      "ĠsplÃ½": 2003,
      "ĠpÃ¡d": 2004,
      "Ġdom": 2005,
      "ĠpÅĻÃŃm": 2006,
      "Ġodv": 2007,
      "ĠÅ¡pat": 2008,
      "Ġhn": 2009,
      "Ġnot": 2010,
      "Ġzha": 2011,
      "Ġhas": 2012,
      "ĠdeÄį": 2013,
      "Ġspu": 2014,
      "Ġpli": 2015,
      "ĠvznÃ¡": 2016,
      "ĠrÃ¡j": 2017,
      "Ġnos": 2018,
      "ĠÅĻÃŃch": 2019,
      "Ġkan": 2020,
      "ĠstaÅĪ": 2021,
      "ĠchÃ¡m": 2022,
      "ĠplÃ¡Äį": 2023,
      "ĠveÅ¡": 2024,
      "ĠtÃ¡n": 2025,
      "ĠskÅĻi": 2026,
      "ĠzlÃ½": 2027,
      "Ġsad": 2028,
      "Ġstla": 2029,
      "Ġvhla": 2030,
      "Ġksrd": 2031,
      "zd": 2032,
      "ĠschvÃ¡": 2033,
      "ĠkÅĻiv": 2034,
      "Ġmoz": 2035,
      "ĠcÃŃl": 2036,
      "ĠvklÃŃ": 2037,
      "ĠvstÃŃ": 2038,
      "to": 2039,
      "Ġjdu": 2040,
      "Ġzvi": 2041,
      "ĠtiÄį": 2042,
      "Ġvyh": 2043,
      "ĠnosÅ¥": 2044,
      "Ġkup": 2045,
      "Ġ1800": 2046,
      "Ġlesk": 2047,
      "ĠvÄĽst": 2048,
      "vÄĽt": 2049,
      "Ġskut": 2050,
      "Ġdec": 2051,
      "ĠtrÅ¯n": 2052,
      "Ġknim": 2053,
      "Ġnap": 2054,
      "ĠtÃ³": 2055,
      "ĠkvÃŃt": 2056,
      "ĠvbÃŃ": 2057,
      "Ġskvost": 2058,
      "Ġneh": 2059,
      "Ġdnem": 2060,
      "Ġzdro": 2061,
      "Ġviz": 2062,
      "Ġzdr": 2063,
      "ĠmÃ¡t": 2064,
      "Ġer": 2065,
      "Ġvtip": 2066,
      "Ġchi": 2067,
      "Ġhon": 2068,
      "Ġvpou": 2069,
      "ĠtÃŃÅ¾": 2070,
      "Ġtud": 2071,
      "ĠmÄĽt": 2072,
      "ĠnnÃ½ch": 2073,
      "ĠvnÃŃÅ¾": 2074,
      "ĠtÅ¯m": 2075,
      "CBC": 2076,
      "Ġstry": 2077,
      "Ġchet": 2078,
      "ĠÅ¾to": 2079,
      "ĠdvÅ¯r": 2080,
      "Ġkst": 2081,
      "ĠÄįech": 2082,
      "ĠnÃŃÅ¡": 2083,
      "Ġmus": 2084,
      "ĠÅ¾Å¯": 2085,
      "Ġniv": 2086,
      "ĠvÄĽl": 2087,
      "Ġpec": 2088,
      "Ġzvl": 2089,
      "Ġdvou": 2090,
      "ĠmlÃ¡d": 2091,
      "ĠlÅ¯m": 2092,
      "ĠsprÃ¡": 2093,
      "Ġskon": 2094,
      "Ġdrech": 2095,
      "ĠbÃ¡l": 2096,
      "XXABAB": 2097,
      "ĠstrÃ©": 2098,
      "ĠskrÃ¡ÅĪ": 2099,
      "hou": 2100,
      "ĠvnitÅĻ": 2101,
      "Ġlic": 2102,
      "Ġvry": 2103,
      "Ġvet": 2104,
      "Ġlev": 2105,
      "Ġclav": 2106,
      "Ġtev": 2107,
      "Ġzbro": 2108,
      "Ġlis": 2109,
      "ĠÅĻist": 2110,
      "Ġchut": 2111,
      "Ġkev": 2112,
      "ĠtmÄĽ": 2113,
      "led": 2114,
      "ĠstÃ½ch": 2115,
      "Ġplat": 2116,
      "Ġzlem": 2117,
      "ĠÅ¥an": 2118,
      "Ġkruh": 2119,
      "ĠsbÃŃ": 2120,
      "Ġvkou": 2121,
      "Ġvse": 2122,
      "ĠvnichÅ¾": 2123,
      "ĠvpÅĻÃŃ": 2124,
      "Ġznal": 2125,
      "ĠÅ¥ast": 2126,
      "ĠpoÅ¡": 2127,
      "ĠÅ¾eb": 2128,
      "ĠvpÅĻed": 2129,
      "ĠÅ¡ÃŃÅ¡": 2130,
      "ĠdÃŃk": 2131,
      "Ġclo": 2132,
      "Ġzho": 2133,
      "ĠmiÅ¾": 2134,
      "ĠvpÃŃ": 2135,
      "Ġjdi": 2136,
      "ĠÅ¾ek": 2137,
      "Ġjat": 2138,
      "ĠvÄĽÄı": 2139,
      "Ġpast": 2140,
      "Ġstan": 2141,
      "ĠcÃ½m": 2142,
      "Ġkvi": 2143,
      "ĠÅ¡tÃŃt": 2144,
      "ĠnÄĽch": 2145,
      "Ġvzbu": 2146,
      "ĠzkrÃ¡": 2147,
      "Ġmec": 2148,
      "Ġtrys": 2149,
      "ĠcÃ½ch": 2150,
      "Ġprch": 2151,
      "Ġcest": 2152,
      "ĠpojÄı": 2153,
      "ĠcÃŃr": 2154,
      "ĠvtÄĽch": 2155,
      "ĠoÄį": 2156,
      "Ġsnem": 2157,
      "AXAA": 2158,
      "ĠzÅĻÃŃt": 2159,
      "Ġej": 2160,
      "ABBACC": 2161,
      "Ġmlou": 2162,
      "Ġfer": 2163,
      "ĠÅĪÃ¡": 2164,
      "Ġzte": 2165,
      "ĠpÄĽj": 2166,
      "Ġpas": 2167,
      "Ġstvu": 2168,
      "Ġbl": 2169,
      "ĠpeÅ¾": 2170,
      "ĠmÅĻel": 2171,
      "re": 2172,
      "ĠtÄĽs": 2173,
      "ĠtnÃŃ": 2174,
      "ĠsliÄį": 2175,
      "ĠmÅ¯Å¾": 2176,
      "Ġblak": 2177,
      "Ġhi": 2178,
      "ĠctÃŃ": 2179,
      "Ġvrouc": 2180,
      "ĠA": 2181,
      "ÃŃt": 2182,
      "ĠÅ¡kle": 2183,
      "Ġrus": 2184,
      "ĠÄįte": 2185,
      "Ġnau": 2186,
      "ĠÅ¡vi": 2187,
      "ĠtrÃ½": 2188,
      "Ġhvo": 2189,
      "Ġchot": 2190,
      "Ġouz": 2191,
      "ĠhlÃ©d": 2192,
      "Ġliv": 2193,
      "ĠÅ¾rou": 2194,
      "ĠkÅ¡": 2195,
      "ĠtÃŃch": 2196,
      "Ġsno": 2197,
      "ĠknÄĽÅ¾": 2198,
      "Ġchyt": 2199,
      "Ġvn": 2200,
      "ĠzdaÅ¾": 2201,
      "ĠlkÃ¡": 2202,
      "ĠÄıas": 2203,
      "ĠlÃ¡m": 2204,
      "Ġllo": 2205,
      "ĠtlÃ½": 2206,
      "ĠzaÄį": 2207,
      "Ġkmet": 2208,
      "XAABBX": 2209,
      "Ġvkte": 2210,
      "ĠchÃ©m": 2211,
      "ĠtÃ¡ÅĻ": 2212,
      "ĠnÃ¡t": 2213,
      "Ġstoj": 2214,
      "Ġdna": 2215,
      "ĠlÃŃÄį": 2216,
      "Ġvte": 2217,
      "ĠklÃ½": 2218,
      "ĠtvÃ½": 2219,
      "Ġrech": 2220,
      "ĠvzkÅĻi": 2221,
      "Ġvnu": 2222,
      "ĠzÃ¡m": 2223,
      "Ġsot": 2224,
      "ĠÅĻej": 2225,
      "Ġrd": 2226,
      "Ġav": 2227,
      "ĠvplÃ¡": 2228,
      "ĠvlÅ¯": 2229,
      "ĠhÅĻbi": 2230,
      "ĠÅ¾eÅ¡": 2231,
      "Ġkel": 2232,
      "ĠkÄįe": 2233,
      "ĠpsÃ¡": 2234,
      "ĠrtÅ¯": 2235,
      "ĠstÃ½m": 2236,
      "Ġsf": 2237,
      "ĠtÃŃÅĻ": 2238,
      "Ġksm": 2239,
      "Ġstih": 2240,
      "ĠchÃ½m": 2241,
      "ĠpÃ¡s": 2242,
      "ĠspÄĽÅ¡": 2243,
      "Ġchom": 2244,
      "Ġmdlo": 2245,
      "ĠmÄĽch": 2246,
      "ĠdlaÅĪ": 2247,
      "Ġsnil": 2248,
      "ĠzÃ¡Å¡": 2249,
      "Ġvzdo": 2250,
      "ĠhÅĻÃŃÅ¡": 2251,
      "Ġvbe": 2252,
      "ĠdÃ©l": 2253,
      "ĠtÃ¡ch": 2254,
      "Ġzs": 2255,
      "Ġkdos": 2256,
      "Ġdb": 2257,
      "ĠkdeÅ¾": 2258,
      "Ġslib": 2259,
      "ĠÅ¾rout": 2260,
      "Ġvyr": 2261,
      "Ġdev": 2262,
      "Ġvple": 2263,
      "ĠjvÃŃc": 2264,
      "Ġdic": 2265,
      "et": 2266,
      "Ġrec": 2267,
      "ĠlaÄį": 2268,
      "AABCBC": 2269,
      "Ġfu": 2270,
      "Ġpis": 2271,
      "Ġjvy": 2272,
      "AABBXX": 2273,
      "Ġvzch": 2274,
      "ĠbdÄĽ": 2275,
      "ĠÄįar": 2276,
      "ĠplÃ¡Å¡Å¥": 2277,
      "Ġstl": 2278,
      "ĠnÄĽmÅ¾": 2279,
      "Ġbek": 2280,
      "ĠbÃ¡j": 2281,
      "ĠÅ¾ÃŃz": 2282,
      "ĠlÃ¡t": 2283,
      "Ġvyj": 2284,
      "ĠvzplÃ¡": 2285,
      "Ġvmi": 2286,
      "Ġbej": 2287,
      "Ġchmur": 2288,
      "ĠÅĻo": 2289,
      "Ġnli": 2290,
      "Ġklen": 2291,
      "Å¾ÃŃ": 2292,
      "ĠchlÃ©b": 2293,
      "Ġlad": 2294,
      "ĠplÃ¡l": 2295,
      "nÃ©": 2296,
      "Ġlst": 2297,
      "Ġhnal": 2298,
      "Ġhbi": 2299,
      "ĠbÅĻeh": 2300,
      "Ġnov": 2301,
      "Ġpsal": 2302,
      "ĠstÅ¯l": 2303,
      "ĠmÄĽÅ¡": 2304,
      "ĠzvÄĽst": 2305,
      "Ġtrud": 2306,
      "ĠmÃ¡l": 2307,
      "ĠpÃŃm": 2308,
      "Ġgon": 2309,
      "Ġtlem": 2310,
      "Ġvhlu": 2311,
      "Ġsvor": 2312,
      "Ġjov": 2313,
      "ĠzbraÅĪ": 2314,
      "Ġzah": 2315,
      "Ġkmit": 2316,
      "ĠÅ¾ik": 2317,
      "Ġzam": 2318,
      "Ġpras": 2319,
      "Ġzmu": 2320,
      "ĠvÄįer": 2321,
      "ĠjvyÅ¡": 2322,
      "ĠrÃ¡z": 2323,
      "ĠÅ¡ak": 2324,
      "Ġlud": 2325,
      "Ġstrh": 2326,
      "Ġvpu": 2327,
      "ĠvÃ¡ch": 2328,
      "ĠÅ¾ÃŃch": 2329,
      "ĠpusÅ¥": 2330,
      "ĠÅ¡pi": 2331,
      "ĠcÅ¯v": 2332,
      "Ġdan": 2333,
      "BB": 2334,
      "Ġblouz": 2335,
      "Ġdrs": 2336,
      "Ġvnad": 2337,
      "Ġspal": 2338,
      "ĠksvÃ©": 2339,
      "Ġtej": 2340,
      "Ġzlost": 2341,
      "Ġfan": 2342,
      "Ġmov": 2343,
      "Ġhluk": 2344,
      "Ġjiz": 2345,
      "Ġvpe": 2346,
      "ĠmrÃ¡": 2347,
      "ĠvÃ½s": 2348,
      "Ġvek": 2349,
      "ĠlÃ©b": 2350,
      "Ġfor": 2351,
      "ĠcÃ¡": 2352,
      "Ġvten": 2353,
      "Ġspla": 2354,
      "Ġrte": 2355,
      "Ġrtech": 2356,
      "ĠtiÅ¾": 2357,
      "ĠjimÅ¾": 2358,
      "ĠtÃ¡z": 2359,
      "ĠbÃ¡m": 2360,
      "ĠÅ¥Ã¡": 2361,
      "ĠmnÃŃ": 2362,
      "Ġbrov": 2363,
      "Ġdol": 2364,
      "ĠstÅĻÃ¡": 2365,
      "ĠÄįÃ¡t": 2366,
      "Ġstel": 2367,
      "ĠzkÃ¡": 2368,
      "ĠsÄįe": 2369,
      "Ġstus": 2370,
      "ĠtlÃ¡": 2371,
      "ĠmoÅĻ": 2372,
      "ĠvdÄĽk": 2373,
      "Ġlos": 2374,
      "ĠÅ¾et": 2375,
      "Ġsech": 2376,
      "ĠvmÃ©": 2377,
      "mou": 2378,
      "Ã¡n": 2379,
      "ĠhlÃŃd": 2380,
      "Ġvzru": 2381,
      "Ġvbou": 2382,
      "ĠklÃ¡Å¡": 2383,
      "Ġtich": 2384,
      "Ġvzni": 2385,
      "Ġvrch": 2386,
      "Ġvja": 2387,
      "Ġmih": 2388,
      "ĠvtvÃ¡ÅĻ": 2389,
      "Ġroj": 2390,
      "ĠÅ¥u": 2391,
      "Ġzpa": 2392,
      "ĠvrÃ¡s": 2393,
      "ĠpÅĻej": 2394,
      "Ġhut": 2395,
      "Ġlho": 2396,
      "ĠblÃ¡z": 2397,
      "Ġnam": 2398,
      "ĠtÅĻpyt": 2399,
      "ĠvÅ¡ed": 2400,
      "ĠdnÄĽ": 2401,
      "Ġsmo": 2402,
      "Ġvskut": 2403,
      "ĠÃºst": 2404,
      "Ġchyb": 2405,
      "Ġvar": 2406,
      "Ġjit": 2407,
      "ĠpohÅĻ": 2408,
      "Ġkap": 2409,
      "Ġvech": 2410,
      "ĠzdÃŃ": 2411,
      "ĠtÅĻeÅ¡": 2412,
      "ĠzvlÃ¡Å¡Å¥": 2413,
      "Ġkos": 2414,
      "Ã¡ch": 2415,
      "ĠplÃ½": 2416,
      "Ġvsou": 2417,
      "ĠtuÄį": 2418,
      "Ġstes": 2419,
      "ĠdoÄį": 2420,
      "ĠtÄĽn": 2421,
      "ĠhÅĻb": 2422,
      "ĠÅ¡Å¥a": 2423,
      "ĠvlÃ©": 2424,
      "Ġsan": 2425,
      "ĠraÄį": 2426,
      "Ġchol": 2427,
      "ĠmrÅ¡": 2428,
      "Ġner": 2429,
      "ĠtuÅ¥": 2430,
      "ĠÄįnÃŃ": 2431,
      "ĠsmÃ¡l": 2432,
      "ABBAXX": 2433,
      "ĠvÃ¡b": 2434,
      "ĠÅ¡va": 2435,
      "Ġzet": 2436,
      "Ġsat": 2437,
      "ĠdnÃ½": 2438,
      "ĠtÃ½l": 2439,
      "ĠjÃ¡k": 2440,
      "Ġzhro": 2441,
      "ĠsrÃ¡": 2442,
      "Ġtmou": 2443,
      "Ġsse": 2444,
      "ĠhÃ¡ch": 2445,
      "ĠzvuÄį": 2446,
      "Ġstesk": 2447,
      "Ġlel": 2448,
      "ĠvrÃ¡z": 2449,
      "ĠkÅ¯ÅĪ": 2450,
      "Ġvc": 2451,
      "ĠvklÃŃn": 2452,
      "ĠvsnÄĽ": 2453,
      "ĠsnÄĽÅ¾": 2454,
      "Ġvist": 2455,
      "Ġvkro": 2456,
      "Ġjle": 2457,
      "Ġkryl": 2458,
      "Ġzhu": 2459,
      "ĠzmÃ¡": 2460,
      "Ġvzla": 2461,
      "ĠvraÅ¥": 2462,
      "Ġmot": 2463,
      "Ġtrest": 2464,
      "Ġryb": 2465,
      "ĠvmÃŃ": 2466,
      "Ġzdvih": 2467,
      "ĠÄįiv": 2468,
      "Ġvbu": 2469,
      "Ġzble": 2470,
      "Ġstez": 2471,
      "ĠvÄįas": 2472,
      "ĠsÃ©": 2473,
      "ĠzhlÃŃ": 2474,
      "ĠjeÅ¥": 2475,
      "ĠhnÃ¡": 2476,
      "val": 2477,
      "Ġdon": 2478,
      "Ġcek": 2479,
      "Ġstud": 2480,
      "ĠstÅ¯j": 2481,
      "Ġrol": 2482,
      "Ġsym": 2483,
      "ĠprÃ¡h": 2484,
      "Ġzj": 2485,
      "Ġraj": 2486,
      "Ġbrat": 2487,
      "ĠlÃŃp": 2488,
      "Ġsj": 2489,
      "ĠchÃ½ch": 2490,
      "ĠÅ¡eÅĪ": 2491,
      "ĠpÃŃÅ¡": 2492,
      "Ġvztek": 2493,
      "ĠÅĻu": 2494,
      "ĠbÄĽÅ¥": 2495,
      "ĠztÃ©": 2496,
      "Ġjsouc": 2497,
      "ĠnÅ¯v": 2498,
      "Ġvtv": 2499,
      "Ġvab": 2500,
      "Ġlib": 2501,
      "Ġdov": 2502,
      "ĠlÃ¡n": 2503,
      "ĠspÄĽl": 2504,
      "Ġchvat": 2505,
      "ĠbrÃ¡z": 2506,
      "ĠtÅĻÃ¡s": 2507,
      "Ġut": 2508,
      "Ġsvr": 2509,
      "ABABAB": 2510,
      "ĠdneÅ¡": 2511,
      "Ġsha": 2512,
      "ĠpouÅ¥": 2513,
      "ĠdÃ©Å¡Å¥": 2514,
      "Ġmost": 2515,
      "Ġsple": 2516,
      "Ġbis": 2517,
      "Ġsluch": 2518,
      "ĠsdÄĽ": 2519,
      "Ġplach": 2520,
      "Ġstrou": 2521,
      "ĠleÅ¾": 2522,
      "ĠÅ¡lÃŃ": 2523,
      "Ġzpi": 2524,
      "ĠÄıa": 2525,
      "ĠmnoÅ¾": 2526,
      "Ġdvor": 2527,
      "Ġztr": 2528,
      "Ġzkr": 2529,
      "Ġstor": 2530,
      "AAXA": 2531,
      "Ġpiv": 2532,
      "ĠkvÃ©": 2533,
      "ĠhÅĻmÄĽ": 2534,
      "Ġmsti": 2535,
      "ĠtÃŃs": 2536,
      "Ġkous": 2537,
      "Ġel": 2538,
      "Ġkom": 2539,
      "ĠÅ¾es": 2540,
      "Ġdrost": 2541,
      "Ġkul": 2542,
      "AXXA": 2543,
      "ĠdlÃ½ch": 2544,
      "Ġdvi": 2545,
      "ĠkvÃ¡m": 2546,
      "ĠstÃ¡r": 2547,
      "Ġskrom": 2548,
      "ĠmeÅ¡": 2549,
      "19": 2550,
      "Ġhry": 2551,
      "ĠjvÄĽt": 2552,
      "Ġkmen": 2553,
      "Ġvaz": 2554,
      "Ġvrah": 2555,
      "ĠchraÅĪ": 2556,
      "Ġvles": 2557,
      "ĠÅ¾iÅ¾": 2558,
      "ĠzÃ¡ch": 2559,
      "ĠbÃ¡t": 2560,
      "ĠtÅ¯v": 2561,
      "ĠchÅĻi": 2562,
      "Ġkje": 2563,
      "ĠchaÅ¥": 2564,
      "Ġvprav": 2565,
      "ĠnnÃ½m": 2566,
      "Ġstly": 2567,
      "ĠÅ¡Å¯": 2568,
      "Ġbat": 2569,
      "Ġzpr": 2570,
      "Ġmly": 2571,
      "Ġvzpla": 2572,
      "ĠÄįtvr": 2573,
      "ĠprÃ¡v": 2574,
      "Ġteb": 2575,
      "ĠvÃŃÄį": 2576,
      "ĠznÃ¡Å¡": 2577,
      "ĠtÅĻÃŃs": 2578,
      "ĠspÃ¡n": 2579,
      "BX": 2580,
      "ĠsÃŃÅ¡": 2581,
      "ĠmÅĻÃŃt": 2582,
      "Ġslem": 2583,
      "ĠdÃ¡ÅĻ": 2584,
      "ĠmÅ¾ik": 2585,
      "Ġstis": 2586,
      "ĠÅĻÃŃc": 2587,
      "ĠvzrÅ¯": 2588,
      "ĠkeÅĻ": 2589,
      "Ġnas": 2590,
      "ĠbdÃŃ": 2591,
      "ĠtÅĻÃŃÅ¡": 2592,
      "Ġknul": 2593,
      "Ġslz": 2594,
      "Ġvma": 2595,
      "Ġvda": 2596,
      "Ġslel": 2597,
      "Ġshla": 2598,
      "ĠhÅ¯l": 2599,
      "ĠÄįÃ¡st": 2600,
      "Ġmrav": 2601,
      "Ġvme": 2602,
      "ĠhÃ¡j": 2603,
      "Ġrci": 2604,
      "ĠvbÄĽ": 2605,
      "Ġbly": 2606,
      "Ġzej": 2607,
      "ĠtvÅ¯r": 2608,
      "Ġzhlu": 2609,
      "ĠznichÅ¾": 2610,
      "Ġhyb": 2611,
      "Ġvslun": 2612,
      "ĠdÄĽd": 2613,
      "Ġtul": 2614,
      "Ġprsk": 2615,
      "Ġzin": 2616,
      "Ġdrou": 2617,
      "Ġzlu": 2618,
      "XABB": 2619,
      "Ġspe": 2620,
      "ĠkÃ¡Å¡": 2621,
      "Ġvml": 2622,
      "Ġspl": 2623,
      "ĠÅ¾hou": 2624,
      "ĠÄįist": 2625,
      "Ġbran": 2626,
      "Ġnouc": 2627,
      "ĠspÄĽch": 2628,
      "Ġbur": 2629,
      "ĠschÃ¡": 2630,
      "ĠstvÃ¡": 2631,
      "Ġprin": 2632,
      "Ġki": 2633,
      "ĠtÅĻÃŃm": 2634,
      "Ġkrov": 2635,
      "ĠzvÄĽÅĻ": 2636,
      "Ġvci": 2637,
      "Ġhvoz": 2638,
      "ĠdÃŃc": 2639,
      "ĠvÅĪa": 2640,
      "ĠhrÃ¡t": 2641,
      "ĠhÅĻmÃŃ": 2642,
      "Ġvprach": 2643,
      "ĠtÃŃc": 2644,
      "ĠsÃŃÅĪ": 2645,
      "Ġllu": 2646,
      "ĠsvÅ¯d": 2647,
      "Ġjek": 2648,
      "ĠviÅ¡": 2649,
      "Ġnet": 2650,
      "ĠkÅĻou": 2651,
      "Ġses": 2652,
      "ĠdraÅ¾": 2653,
      "Ġvku": 2654,
      "ĠnÄĽz": 2655,
      "Ġkslu": 2656,
      "ĠdeÅ¾": 2657,
      "ĠsmrÅ¥": 2658,
      "ĠvÃŃs": 2659,
      "Ġchti": 2660,
      "ĠvpÅ¯": 2661,
      "Ġvpla": 2662,
      "Ġkout": 2663,
      "Ġvran": 2664,
      "ĠvÅ¯m": 2665,
      "Ġjev": 2666,
      "ĠdrÃ½ch": 2667,
      "ĠÅĻin": 2668,
      "ĠstÄĽn": 2669,
      "ĠvchrÃ¡": 2670,
      "Ġmnich": 2671,
      "Ġfy": 2672,
      "Ġvkru": 2673,
      "Ġvdla": 2674,
      "ĠvznÄĽ": 2675,
      "ĠzeÄı": 2676,
      "Ġchlap": 2677,
      "Ġskla": 2678,
      "ĠkÃ¡ÅĻ": 2679,
      "Ġw": 2680,
      "ĠvmÃ©m": 2681,
      "ĠveÅĪ": 2682,
      "ĠÄįtve": 2683,
      "Ġram": 2684,
      "ĠnichÅ¾": 2685,
      "ĠchlÃ¡": 2686,
      "Ġtkli": 2687,
      "Ġhmo": 2688,
      "ĠspÃ¡t": 2689,
      "ĠmlÃ½n": 2690,
      "Ġvhru": 2691,
      "Ġmas": 2692,
      "Ġmrz": 2693,
      "ĠsplÃ¡": 2694,
      "Ġvhu": 2695,
      "Ġsar": 2696,
      "Ġzml": 2697,
      "Ġvzlet": 2698,
      "Ġzji": 2699,
      "ĠvzÃ½": 2700,
      "ĠÄįert": 2701,
      "Ġhlub": 2702,
      "Ġtka": 2703,
      "ĠsmÄĽs": 2704,
      "Ġstek": 2705,
      "Ġzpod": 2706,
      "Ġvmra": 2707,
      "ĠmÃ¡Å¥": 2708,
      "AAXB": 2709,
      "Ġvcho": 2710,
      "lÃ½ch": 2711,
      "Ġvhod": 2712,
      "Ġluj": 2713,
      "Ġstroj": 2714,
      "ĠtlÃŃ": 2715,
      "Ġspol": 2716,
      "ĠhouÅ¡": 2717,
      "Ġspor": 2718,
      "Ġvtr": 2719,
      "Ġsce": 2720,
      "ĠzÅĻÃŃÅ¡": 2721,
      "ĠzraÄį": 2722,
      "ĠÅ¡est": 2723,
      "ĠmÄĽr": 2724,
      "Ġkho": 2725,
      "Ġvlu": 2726,
      "ĠdÃ¡k": 2727,
      "Ġlles": 2728,
      "Ġlom": 2729,
      "ĠlÃ¡c": 2730,
      "Ġvsva": 2731,
      "Ġklas": 2732,
      "ĠkÃº": 2733,
      "ĠoÅ¡": 2734,
      "mÄĽ": 2735,
      "ĠvpÃŃs": 2736,
      "Ġmin": 2737,
      "Ġvyp": 2738,
      "ĠmÃ¡ch": 2739,
      "ĠjmÄĽ": 2740,
      "ĠsÃºs": 2741,
      "Ġfou": 2742,
      "Ġvboj": 2743,
      "Ġluh": 2744,
      "ĠblÃ©": 2745,
      "ĠnÃ¡n": 2746,
      "Ġslast": 2747,
      "ĠplÃ¡Å¡": 2748,
      "ĠkvÃ½": 2749,
      "ĠmÃ¡j": 2750,
      "ĠsmÄĽÅ¡": 2751,
      "Ġlsti": 2752,
      "ĠtiÅ¡": 2753,
      "Ġzja": 2754,
      "ĠlÅ¯Å¾": 2755,
      "Ġjlep": 2756,
      "ĠzÄįer": 2757,
      "ĠzdrÃ¡v": 2758,
      "Ġrve": 2759,
      "Ġnach": 2760,
      "Ġdnu": 2761,
      "ĠhlÃ½ch": 2762,
      "ĠdÄĽn": 2763,
      "Ġzit": 2764,
      "ĠÅ¡leh": 2765,
      "nd": 2766,
      "ĠnoÅ¾": 2767,
      "ĠdrÃ¡Å¾": 2768,
      "Ġster": 2769,
      "ĠhrÅ¯z": 2770,
      "Ġpre": 2771,
      "ĠpÅĻiz": 2772,
      "ĠbrÃ¡k": 2773,
      "ĠvÄĽÅ¾": 2774,
      "ĠchoÅ¥": 2775,
      "Ġzmr": 2776,
      "Ġmle": 2777,
      "Ġcas": 2778,
      "Ġryt": 2779,
      "Ġvpl": 2780,
      "Ġstit": 2781,
      "ĠÅ¡im": 2782,
      "ĠÅĻel": 2783,
      "Ġzpro": 2784,
      "ĠvstÅĻe": 2785,
      "Ġlich": 2786,
      "ĠplÃ¡t": 2787,
      "ĠsmÄĽl": 2788,
      "ĠzÃºst": 2789,
      "Ġsc": 2790,
      "ĠkÅĻo": 2791,
      "Ġchro": 2792,
      "Ġptal": 2793,
      "ĠvaÅ¥": 2794,
      "Ġdlel": 2795,
      "Ġbri": 2796,
      "Ġbrem": 2797,
      "Ġzad": 2798,
      "Ġstic": 2799,
      "Ġkryt": 2800,
      "ĠbÄĽl": 2801,
      "Ġlok": 2802,
      "ĠvzpÃŃ": 2803,
      "Ġpek": 2804,
      "ĠzlÃ½ch": 2805,
      "ĠdÅĻi": 2806,
      "ĠpÃŃt": 2807,
      "ĠtuÅ¾": 2808,
      "Ġmlad": 2809,
      "Ġvprou": 2810,
      "ĠÅ¡ka": 2811,
      "ĠkÅ¾i": 2812,
      "ĠstkvÄĽ": 2813,
      "Ġzkve": 2814,
      "Ġmuk": 2815,
      "ĠÅ¡var": 2816,
      "Ġzrov": 2817,
      "Ġzhlou": 2818,
      "ĠbrÃ½ch": 2819,
      "ĠÄıte": 2820,
      "ĠÅ¾eÅĪ": 2821,
      "Ġschop": 2822,
      "Ġzpou": 2823,
      "ĠvÃŃk": 2824,
      "ĠkzÃ¡": 2825,
      "ĠdnÃ¡": 2826,
      "ĠznÃ¡s": 2827,
      "nÃ½": 2828,
      "Ġstlo": 2829,
      "Ġksou": 2830,
      "Ġzhoub": 2831,
      "ĠchÃ¡ch": 2832,
      "ĠstrÃ½c": 2833,
      "ĠdlÃ¡k": 2834,
      "Ġkvo": 2835,
      "ĠsmÃ½": 2836,
      "Ġtvi": 2837,
      "ĠhvÃŃ": 2838,
      "Ġrin": 2839,
      "ĠschÃ½": 2840,
      "Ġptac": 2841,
      "ĠjÃŃÅ¡": 2842,
      "Ġsvat": 2843,
      "Ġmez": 2844,
      "ur": 2845,
      "ĠstrÃ½Äį": 2846,
      "ĠpÅĻel": 2847,
      "Ġspja": 2848,
      "ĠsÃŃÄį": 2849,
      "Ġkna": 2850,
      "ĠtvÄĽ": 2851,
      "ĠvhÃ¡": 2852,
      "ĠrÅ¯m": 2853,
      "ĠvpÃ¡": 2854,
      "ĠpÅĻÃ¡l": 2855,
      "ĠlÅ¾i": 2856,
      "Ġsloup": 2857,
      "Ġzpe": 2858,
      "ĠzÃŃs": 2859,
      "Ġchlou": 2860,
      "Ġdych": 2861,
      "Ġbry": 2862,
      "Ġsuk": 2863,
      "Ġraz": 2864,
      "ĠdÅ¯v": 2865,
      "ĠsleÄį": 2866,
      "ĠvtrÃ¡": 2867,
      "ĠtÅĻÃŃk": 2868,
      "ĠlÃ¡Äį": 2869,
      "ĠmlÃ©": 2870,
      "Ġsul": 2871,
      "ĠbÃ¡z": 2872,
      "ĠjiÅ¡": 2873,
      "Ġchov": 2874,
      "Ġker": 2875,
      "ĠÅ¡ve": 2876,
      "Ġcech": 2877,
      "Ġzed": 2878,
      "ĠvzÃŃ": 2879,
      "Ġpne": 2880,
      "Ġfri": 2881,
      "Ġdlech": 2882,
      "Ġcar": 2883,
      "Ġsdu": 2884,
      "Ġpnou": 2885,
      "Ġtuj": 2886,
      "ĠvÃŃn": 2887,
      "Ġsyt": 2888,
      "Ġztu": 2889,
      "ĠsnÄĽm": 2890,
      "ĠzbÄĽ": 2891,
      "Ġvzem": 2892,
      "ĠÅĻas": 2893,
      "ĠÄįÃŃst": 2894,
      "ĠnÃŃÄį": 2895,
      "Ġzaj": 2896,
      "Ġnnu": 2897,
      "XAXABB": 2898,
      "ĠzmÃ©": 2899,
      "Ġvob": 2900,
      "Ġzdob": 2901,
      "ĠÅĻku": 2902,
      "ĠdosÅ¥": 2903,
      "ĠzbÃŃ": 2904,
      "ĠshlÃŃ": 2905,
      "Ġkav": 2906,
      "Ġshr": 2907,
      "ĠmdlÃ©": 2908,
      "ĠÅ¡ÃŃp": 2909,
      "Ġkpra": 2910,
      "ĠmÄĽÅ¥": 2911,
      "Ġlka": 2912,
      "ĠtÃ½r": 2913,
      "ĠniÅ¡": 2914,
      "Ġzpla": 2915,
      "ĠÅ¡per": 2916,
      "Ġhni": 2917,
      "Ġchc": 2918,
      "Ġvslad": 2919,
      "Ġjet": 2920,
      "Ġheb": 2921,
      "Ġvv": 2922,
      "ĠbÄĽt": 2923,
      "ĠmÃŃÅ¡": 2924,
      "ĠpÅĻÃŃz": 2925,
      "Ġjsy": 2926,
      "ĠvÅ¯z": 2927,
      "Ġksmr": 2928,
      "ĠmÃ¡n": 2929,
      "Ġkdu": 2930,
      "ĠteÅĻ": 2931,
      "ĠspÅĻÃ¡": 2932,
      "Ġtrap": 2933,
      "ĠchvÄĽj": 2934,
      "ĠÅ¡pa": 2935,
      "ĠÄįÃ¡r": 2936,
      "Ġstrast": 2937,
      "Ġskrz": 2938,
      "Ġztem": 2939,
      "Äįi": 2940,
      "ĠchÅ¯m": 2941,
      "Ġrys": 2942,
      "Ġvbla": 2943,
      "Ġhov": 2944,
      "ĠjdÄĽ": 2945,
      "ĠtvÃ¡r": 2946,
      "Ġzry": 2947,
      "Ġhym": 2948,
      "Ġvstu": 2949,
      "Ġvzly": 2950,
      "Ġvpod": 2951,
      "ĠmÄĽÅĻ": 2952,
      "Ġkpa": 2953,
      "Ġkc": 2954,
      "Ġchen": 2955,
      "ĠÄįlu": 2956,
      "ĠdvÃŃ": 2957,
      "ĠvlaÅ¡": 2958,
      "Ġshro": 2959,
      "Ġzer": 2960,
      "Ġrun": 2961,
      "ĠpÃ¡l": 2962,
      "ĠdeÅĪ": 2963,
      "ĠrÃ¡Å¾": 2964,
      "ĠbÃŃt": 2965,
      "ĠkvÅ¯": 2966,
      "Ġkams": 2967,
      "Ġcvi": 2968,
      "ĠnÃ¡ct": 2969,
      "ĠÄįiÅĪ": 2970,
      "Ġcno": 2971,
      "ĠstÅ¯m": 2972,
      "Ġdoz": 2973,
      "Ġnon": 2974,
      "ĠvÃ¡r": 2975,
      "ĠvprÃ¡": 2976,
      "Ġdry": 2977,
      "Ġhnus": 2978,
      "ĠsprÃ¡v": 2979,
      "ĠnnÃ©m": 2980,
      "ĠzÅĻej": 2981,
      "ĠnitÅĻ": 2982,
      "Ġtos": 2983,
      "ĠlÅ¯v": 2984,
      "ĠsnÃ¡ch": 2985,
      "ĠmeÅĪ": 2986,
      "Ġvsl": 2987,
      "ĠbliÅ¾": 2988,
      "ĠseÄį": 2989,
      "Ġzmra": 2990,
      "ho": 2991,
      "Ġzep": 2992,
      "Ġviv": 2993,
      "ĠdvÄĽd": 2994,
      "Ġvjich": 2995,
      "Ġgic": 2996,
      "Ġnni": 2997,
      "ĠrÃ¡l": 2998,
      "Ġzdroj": 2999,
      "ĠhÅĻeb": 3000,
      "ĠchlÃŃ": 3001,
      "ĠchÅĻe": 3002,
      "Ġak": 3003,
      "ĠnoÅ¡": 3004,
      "lÃŃz": 3005,
      "ĠfÃŃ": 3006,
      "Ġsdru": 3007,
      "ĠvÄįel": 3008,
      "ĠptÃ¡Äį": 3009,
      "ĠruÅ¥": 3010,
      "Ġzdech": 3011,
      "Ġtvy": 3012,
      "ĠruÅ¡": 3013,
      "Ġvlk": 3014,
      "Ġih": 3015,
      "ĠdÃ¡r": 3016,
      "Ġros": 3017,
      "ĠzÅĻÃŃd": 3018,
      "ĠtÅĻit": 3019,
      "Ġchly": 3020,
      "Ġplav": 3021,
      "Ġvlid": 3022,
      "ĠmÃ¡Å¾": 3023,
      "XXAABB": 3024,
      "Ġkod": 3025,
      "Ġzhas": 3026,
      "ĠlÃŃt": 3027,
      "Ġzblou": 3028,
      "Ġslit": 3029,
      "ĠdrÃ½m": 3030,
      "Ġgr": 3031,
      "ĠctÄĽ": 3032,
      "ĠvÃŃt": 3033,
      "Ġshle": 3034,
      "Ġvde": 3035,
      "ĠÅĪÃ¡t": 3036,
      "Ġtros": 3037,
      "ĠsdÃŃ": 3038,
      "Ġvid": 3039,
      "ĠvrÅ¯": 3040,
      "Ġrag": 3041,
      "ĠskvÃŃ": 3042,
      "Ġluk": 3043,
      "ĠlÃ¡Å¡": 3044,
      "ĠshÃ¡": 3045,
      "Ġvsla": 3046,
      "ĠdÃ³": 3047,
      "ĠpÃ¡ch": 3048,
      "ĠstrÃ½m": 3049,
      "is": 3050,
      "ĠktÃ©": 3051,
      "ĠÃ¡n": 3052,
      "ĠduÅ¡": 3053,
      "Ġcov": 3054,
      "Ġdcer": 3055,
      "Ġzmat": 3056,
      "Ġvzcho": 3057,
      "ĠvlasÅ¥": 3058,
      "ĠsklÃŃ": 3059,
      "Ġrtu": 3060,
      "Ġsvy": 3061,
      "ĠÃ¡l": 3062,
      "Ġdnech": 3063,
      "ĠkÃ©n": 3064,
      "ĠstÃ¡ch": 3065,
      "Ġkrad": 3066,
      "Ġvzty": 3067,
      "Ġtlum": 3068,
      "ĠnÃ©st": 3069,
      "Ġshlu": 3070,
      "Ġdvod": 3071,
      "ĠzvÃ½": 3072,
      "Ġdus": 3073,
      "ĠvpouÅ¡": 3074,
      "ĠtÃŃk": 3075,
      "ĠkpÅĻe": 3076,
      "Ġhrot": 3077,
      "Ġtep": 3078,
      "Ġron": 3079,
      "ĠÅĪÅ¯": 3080,
      "ĠzÅĪa": 3081,
      "ĠzliÄį": 3082,
      "Ġmut": 3083,
      "ĠhÃ¡Äį": 3084,
      "Ġsop": 3085,
      "Ġznak": 3086,
      "Ġgy": 3087,
      "ĠsÅ¾e": 3088,
      "Ġtrav": 3089,
      "ĠzrÅ¯": 3090,
      "Ġvzra": 3091,
      "ĠtrÃ½z": 3092,
      "Ġkvas": 3093,
      "Ġoc": 3094,
      "ĠsbÄĽ": 3095,
      "Ġtroc": 3096,
      "Ġvok": 3097,
      "ĠvnÃ¡s": 3098,
      "ĠzaÅ¡": 3099,
      "ĠzbÃ½": 3100,
      "ĠnÃ¡k": 3101,
      "Ġvzro": 3102,
      "Ġmit": 3103,
      "Ġkvap": 3104,
      "ĠÄįÃŃc": 3105,
      "Ġsrov": 3106,
      "Ġzvou": 3107,
      "ĠzlÃ½m": 3108,
      "ĠveÄı": 3109,
      "ĠbrÃ½m": 3110,
      "Ġdub": 3111,
      "Ġvty": 3112,
      "ĠsÅ¡": 3113,
      "ĠÄįan": 3114,
      "ĠmdlÃ½": 3115,
      "Ġcle": 3116,
      "Ġklek": 3117,
      "Ġpost": 3118,
      "Ġvhr": 3119,
      "ĠnÃ¡Äį": 3120,
      "Ġvzor": 3121,
      "ĠsnÃŃt": 3122,
      "ĠvÃ©st": 3123,
      "Ġkji": 3124,
      "ĠrÃ¡Å¡": 3125,
      "ĠzpÅĻÃŃ": 3126,
      "Ġstol": 3127,
      "ĠÅ¡ÃŃj": 3128,
      "ĠvzlÃ©": 3129,
      "ĠlesÅ¥": 3130,
      "ĠklÃ½ch": 3131,
      "Ġdnou": 3132,
      "ĠhÅĻmo": 3133,
      "Ġmyl": 3134,
      "ĠfÃ¡m": 3135,
      "ĠvdÃŃ": 3136,
      "Ġvmou": 3137,
      "Ġvstra": 3138,
      "ĠhÃ¡r": 3139,
      "Ġvzi": 3140,
      "ĠÅĻev": 3141,
      "Ġspad": 3142,
      "ĠnnÃŃm": 3143,
      "ĠsuÄı": 3144,
      "Ġstev": 3145,
      "ĠkÅĻiÅ¡": 3146,
      "ĠchuÅ¥": 3147,
      "ĠskÅĻe": 3148,
      "ĠvznÃŃ": 3149,
      "Ġksp": 3150,
      "Ġvjas": 3151,
      "Ġsig": 3152,
      "ĠvzkÅĻik": 3153,
      "Ġvmu": 3154,
      "ĠhÅĻÃ¡": 3155,
      "Ġdlil": 3156,
      "ĠÅ¡lÃ½ch": 3157,
      "ĠkÃ©s": 3158,
      "Ġprost": 3159,
      "ĠvkrÃ¡t": 3160,
      "Ġser": 3161,
      "Ġknout": 3162,
      "ĠkaÅĻ": 3163,
      "Ġpej": 3164,
      "Ġom": 3165,
      "ĠtvÃŃm": 3166,
      "Ġsedm": 3167,
      "Ġjra": 3168,
      "Ġvous": 3169,
      "Ġchm": 3170,
      "ĠstrÅ¯": 3171,
      "ĠleÅĪ": 3172,
      "ĠvslÃ¡": 3173,
      "ĠvkvÄĽ": 3174,
      "ĠÄįeÅ¾": 3175,
      "ĠÅ¾luÄį": 3176,
      "ĠzahÅĻ": 3177,
      "ĠdÅ¾": 3178,
      "Ġvlet": 3179,
      "Ġrozv": 3180,
      "ĠkÅĻeh": 3181,
      "ĠnouÅ¥": 3182,
      "Ġvbi": 3183,
      "Ġsep": 3184,
      "Ġprah": 3185,
      "Ġvhrob": 3186,
      "Ġpych": 3187,
      "ĠknÃ©": 3188,
      "Ġrva": 3189,
      "ĠplÃ¡ÅĪ": 3190,
      "Ġton": 3191,
      "Ġskryt": 3192,
      "ĠÃºc": 3193,
      "Ġsz": 3194,
      "ĠmÄĽn": 3195,
      "ĠkrÄį": 3196,
      "Ġen": 3197,
      "Ġrto": 3198,
      "ĠbÃ¡k": 3199,
      "Ġkch": 3200,
      "ĠÅ¡ej": 3201,
      "Ġstoup": 3202,
      "ĠbrÅ¾": 3203,
      "ĠleÅ¥": 3204,
      "Ġbos": 3205,
      "ĠtlÃ½ch": 3206,
      "AAAX": 3207,
      "Ġknih": 3208,
      "Ġzf": 3209,
      "ĠÅ¡lÃ¡": 3210,
      "ĠvÃ¡z": 3211,
      "Ġboun": 3212,
      "ĠÅ¾ert": 3213,
      "ĠspÅĻe": 3214,
      "Ġston": 3215,
      "ĠstrÃ½ch": 3216,
      "Ġkras": 3217,
      "ĠvzduÅ¡": 3218,
      "ĠstkvÃŃ": 3219,
      "ĠÅ¡al": 3220,
      "ĠtÅĻes": 3221,
      "ĠsÃ¡t": 3222,
      "Ġvkraj": 3223,
      "Ġspas": 3224,
      "ĠvchÃ¡": 3225,
      "ĠnÃŃc": 3226,
      "Ġbech": 3227,
      "ĠleÅ¡": 3228,
      "Ġkur": 3229,
      "Ġcin": 3230,
      "ĠvsvÃ½ch": 3231,
      "ĠhÅĻbe": 3232,
      "Ġvsluch": 3233,
      "ĠctnÃ©": 3234,
      "Ġsvel": 3235,
      "Ġsst": 3236,
      "Ġban": 3237,
      "Ġvzma": 3238,
      "Ġpus": 3239,
      "Ġzkra": 3240,
      "Ġzdar": 3241,
      "Ġkvr": 3242,
      "ĠzvÃ¡s": 3243,
      "Ġkrk": 3244,
      "Ġris": 3245,
      "ĠvÅ¾a": 3246,
      "Ġzhr": 3247,
      "ĠhrÃ¡d": 3248,
      "ĠvzkÅĻÃŃ": 3249,
      "Ã¡z": 3250,
      "ĠdÄĽk": 3251,
      "Ġsvla": 3252,
      "Ġsup": 3253,
      "ĠpÄĽst": 3254,
      "ĠvrÃ¡t": 3255,
      "ĠdiÅ¡": 3256,
      "Ġzur": 3257,
      "Ġzbi": 3258,
      "Ġhoun": 3259,
      "ĠnÃŃmÅ¾": 3260,
      "ĠzlÅ¯": 3261,
      "Ġbyv": 3262,
      "ĠhÃ¡Å¡": 3263,
      "Ġstin": 3264,
      "Ġvhloub": 3265,
      "ĠvztÃ¡": 3266,
      "Ġvzpom": 3267,
      "Ġzvyk": 3268,
      "ĠpÅĻedc": 3269,
      "ĠvzdÄĽ": 3270,
      "Ġzbyt": 3271,
      "Ġschu": 3272,
      "Ġhvi": 3273,
      "ĠvnÄĽj": 3274,
      "ĠvÄįa": 3275,
      "Ġsja": 3276,
      "Ġvnej": 3277,
      "Ġuj": 3278,
      "ĠzvrÃ¡": 3279,
      "Ġput": 3280,
      "ĠrvÃ¡": 3281,
      "ĠlhÃ¡": 3282,
      "Ġsah": 3283,
      "Ġvhou": 3284,
      "ĠÄįnÄĽ": 3285,
      "ĠlÃ³": 3286,
      "Ġbok": 3287,
      "ĠkoÄį": 3288,
      "Ġpuk": 3289,
      "ĠÅ¥o": 3290,
      "ĠkcÃŃ": 3291,
      "ĠtnÄĽ": 3292,
      "ĠstÅĻ": 3293,
      "Ġlon": 3294,
      "ĠjlÃŃ": 3295,
      "Ġrob": 3296,
      "Ġtvar": 3297,
      "ĠvÄįi": 3298,
      "ĠÅ¥al": 3299,
      "ĠvsvÄĽt": 3300,
      "ĠzkrÃ¡t": 3301,
      "ĠnÃ¡v": 3302,
      "ĠnÄĽt": 3303,
      "Ġvnik": 3304,
      "ĠpouÅ¡Å¥": 3305,
      "Ġtrs": 3306,
      "ĠmÃ³": 3307,
      "ĠlosÅ¥": 3308,
      "ĠktÄĽ": 3309,
      "Ġzta": 3310,
      "ĠvklÃ¡": 3311,
      "Ġvzbou": 3312,
      "ĠpatÅĻ": 3313,
      "ĠhlÃ¡s": 3314,
      "Ġzpup": 3315,
      "ĠtÃ½Å¾": 3316,
      "Ġvhra": 3317,
      "ĠÅ¾d": 3318,
      "ĠpÃŃr": 3319,
      "ĠnÅ¯Å¾": 3320,
      "Ġtho": 3321,
      "ABXB": 3322,
      "ĠpiÅ¡": 3323,
      "Ġsnou": 3324,
      "Ġmnoh": 3325,
      "ĠhlÃ½m": 3326,
      "ĠdouÅ¡": 3327,
      "Ġzmoc": 3328,
      "XXAAXX": 3329,
      "Ġdmou": 3330,
      "ĠlÃŃst": 3331,
      "ĠÅ¾ol": 3332,
      "ĠÅ¾lou": 3333,
      "Ġlym": 3334,
      "ABABAX": 3335,
      "Ġmlk": 3336,
      "my": 3337,
      "ĠlaÅĪ": 3338,
      "ĠbuÅ¥": 3339,
      "ĠdÄĽÄį": 3340,
      "ĠloÅ¾": 3341,
      "Ġvbez": 3342,
      "ĠvpÄĽ": 3343,
      "ĠrÅ¯Å¾": 3344,
      "Ġstrov": 3345,
      "ĠchlÃ½": 3346,
      "Ġplul": 3347,
      "Ġhrst": 3348,
      "Ġskrov": 3349,
      "Ġbz": 3350,
      "ĠkÃ¡t": 3351,
      "Ġpij": 3352,
      "ĠÅ¡ku": 3353,
      "ĠkmÄĽ": 3354,
      "ĠkÃ¡s": 3355,
      "ĠsvÃ¡r": 3356,
      "Ġsos": 3357,
      "Ġkrot": 3358,
      "Ġvsmut": 3359,
      "ĠvaÄį": 3360,
      "Ġbub": 3361,
      "Ġvzo": 3362,
      "Ġvmla": 3363,
      "Ġzbyl": 3364,
      "Ġspat": 3365,
      "Ġnan": 3366,
      "ĠÄįiÅ¡": 3367,
      "Ġzbroj": 3368,
      "ĠtouÅ¾": 3369,
      "ĠvmlÃ¡": 3370,
      "Ġlob": 3371,
      "ĠlÃ¡ÅĻ": 3372,
      "Ġdral": 3373,
      "ĠÅ¾Ã¡t": 3374,
      "ĠslÃ¡b": 3375,
      "Ġvjiz": 3376,
      "Ġdvoj": 3377,
      "ĠzlÃ¡s": 3378,
      "vÃ½": 3379,
      "ĠrÅ¯v": 3380,
      "Ġpso": 3381,
      "Ġrce": 3382,
      "Ġmrs": 3383,
      "ĠbÃ½m": 3384,
      "Ġztro": 3385,
      "Ġsnech": 3386,
      "ĠviÄı": 3387,
      "ĠvtÃŃ": 3388,
      "ĠhÅ¯ÅĻ": 3389,
      "ĠtÄĽt": 3390,
      "ĠpsÃŃ": 3391,
      "ĠtÃŃn": 3392,
      "Ġshon": 3393,
      "ĠÅ¯": 3394,
      "ĠseÅ¡": 3395,
      "Ġgan": 3396,
      "ĠveÄį": 3397,
      "Ġlly": 3398,
      "Ġdes": 3399,
      "ĠbÃ½ch": 3400,
      "ĠÅ¥te": 3401,
      "ĠvzchÃ¡": 3402,
      "XXABBA": 3403,
      "Ġzkla": 3404,
      "Ġtisk": 3405,
      "Ġvzou": 3406,
      "ĠkouÅĻ": 3407,
      "Ġchcem": 3408,
      "Ġzdvo": 3409,
      "Ġvnoc": 3410,
      "AAXBBX": 3411,
      "Ġuc": 3412,
      "Ġproz": 3413,
      "Ġslek": 3414,
      "21": 3415,
      "ĠksvÄĽ": 3416,
      "Ġhav": 3417,
      "ĠtÅĻel": 3418,
      "Ġpruh": 3419,
      "Ġdeb": 3420,
      "ĠÄįeÅ¡": 3421,
      "ĠÅĻli": 3422,
      "ĠpiÄį": 3423,
      "ĠÅ¡tva": 3424,
      "Ġskvou": 3425,
      "ĠvtÃ½": 3426,
      "ĠrdÄĽ": 3427,
      "ĠrdÃŃ": 3428,
      "Ġchru": 3429,
      "ĠÅ¡kÅ¯d": 3430,
      "Ġjav": 3431,
      "Ġnep": 3432,
      "Ġlup": 3433,
      "Ġvkle": 3434,
      "Ġsru": 3435,
      "ĠÅ¡ad": 3436,
      "Ġhel": 3437,
      "ĠvstaÅĪ": 3438,
      "XXXAXA": 3439,
      "Ġdam": 3440,
      "ĠbÄĽs": 3441,
      "ĠvÅ¾Ã¡": 3442,
      "ĠpÅĻil": 3443,
      "Ġslep": 3444,
      "Ġah": 3445,
      "ĠÅĻiv": 3446,
      "Ġrval": 3447,
      "ĠkmÃŃ": 3448,
      "ĠjeÄį": 3449,
      "Ġvtmu": 3450,
      "Ġbot": 3451,
      "ĠhÅĻi": 3452,
      "Ġvplen": 3453,
      "ĠmÅ¡": 3454,
      "ĠhrÃ¡z": 3455,
      "Ġpsy": 3456,
      "ĠvchvÃŃ": 3457,
      "ĠvzÃŃt": 3458,
      "Ġpust": 3459,
      "Ġzyl": 3460,
      "Ġmes": 3461,
      "Ġdri": 3462,
      "Ġsin": 3463,
      "Ġam": 3464,
      "Ġbouk": 3465,
      "ĠjdeÅ¡": 3466,
      "ĠznÃŃÅ¾": 3467,
      "ĠchtÃŃt": 3468,
      "ĠfÃ©": 3469,
      "Ġjih": 3470,
      "ĠÅ¡ev": 3471,
      "ĠvÄĽd": 3472,
      "ĠrÃ¡n": 3473,
      "Ġzleh": 3474,
      "Ġbzu": 3475,
      "Ġlip": 3476,
      "Ġmer": 3477,
      "ĠpÅ¯t": 3478,
      "lÃ©d": 3479,
      "ĠznÃ¡t": 3480,
      "Ġvkli": 3481,
      "ĠrouÅ¡": 3482,
      "ĠrÃ©Å¾": 3483,
      "ĠcÃ©": 3484,
      "Ġspr": 3485,
      "ĠvÃ½z": 3486,
      "Ġflo": 3487,
      "Ġvkni": 3488,
      "ĠvzÅĪa": 3489,
      "Ġvkout": 3490,
      "Ġtar": 3491,
      "ĠdlÃ©m": 3492,
      "Ġkok": 3493,
      "ĠdÅ¾b": 3494,
      "Ġpluh": 3495,
      "iv": 3496,
      "ĠÅ¡lÃ½": 3497,
      "Ġskem": 3498,
      "Ġnin": 3499,
      "Ġhyz": 3500,
      "Ġdas": 3501,
      "Ġchor": 3502,
      "ĠklÃŃÄį": 3503,
      "Ġzjas": 3504,
      "Ġmag": 3505,
      "Ġbas": 3506,
      "ĠvtvÃ©m": 3507,
      "ĠhÅĻbet": 3508,
      "ĠlaÅ¡": 3509,
      "Ġvba": 3510,
      "ĠbÃ¡n": 3511,
      "Ġshni": 3512,
      "ĠkprÃ¡": 3513,
      "Ġvzdych": 3514,
      "ĠzÅ¾ÃŃ": 3515,
      "ĠÅ¡ed": 3516,
      "Ġvzm": 3517,
      "Ġvznes": 3518,
      "XABAB": 3519,
      "ĠÅ¾in": 3520,
      "ĠzdvÃŃ": 3521,
      "ĠstÃ½s": 3522,
      "Ġskvr": 3523,
      "Ġlau": 3524,
      "Ġpri": 3525,
      "Ġznej": 3526,
      "ĠzvÃ¡n": 3527,
      "ĠsÅĪ": 3528,
      "Ġcud": 3529,
      "Ġpach": 3530,
      "Ġvtma": 3531,
      "Ġzbor": 3532,
      "ĠhvÃŃz": 3533,
      "ry": 3534,
      "Ġskryl": 3535,
      "ĠtkÃ¡": 3536,
      "ĠkÃ½Å¾": 3537,
      "Ġhout": 3538,
      "Ġzdlou": 3539,
      "ĠÅĻÃŃk": 3540,
      "Ġvre": 3541,
      "ĠtmÃ¡ch": 3542,
      "ĠtÃ³n": 3543,
      "Ġstrun": 3544,
      "Ġkvla": 3545,
      "Ġhev": 3546,
      "ĠrtÃŃ": 3547,
      "Ġthu": 3548,
      "ĠvaÅ¾": 3549,
      "Ġzmar": 3550,
      "Ġet": 3551,
      "Ġvoz": 3552,
      "ĠchaÅĻ": 3553,
      "Ġvsmr": 3554,
      "Ġmru": 3555,
      "Ġskvo": 3556,
      "ĠsÄį": 3557,
      "ĠkvÄĽl": 3558,
      "Ġshor": 3559,
      "Ġzhla": 3560,
      "Ġrtem": 3561,
      "ĠvÅĻen": 3562,
      "ĠÅ¡lel": 3563,
      "ĠknÃŃÅ¾": 3564,
      "ĠÅ¾ou": 3565,
      "ĠmyÅ¡": 3566,
      "Ġzkad": 3567,
      "Ġtrub": 3568,
      "Ġske": 3569,
      "Ġtrhl": 3570,
      "ĠdÄĽÅ¥": 3571,
      "Ġtrok": 3572,
      "Ġvspo": 3573,
      "Ġvos": 3574,
      "ĠprÃ½Å¡": 3575,
      "ĠÅ¾h": 3576,
      "ĠvztÄĽ": 3577,
      "ĠzÃŃÅ¡": 3578,
      "Ġrot": 3579,
      "Ġsply": 3580,
      "Ġskli": 3581,
      "ĠtrÃ©": 3582,
      "ĠvÃŃd": 3583,
      "Ġab": 3584,
      "Ġbuz": 3585,
      "Ġpic": 3586,
      "Ġfon": 3587,
      "Ġmls": 3588,
      "ĠjÅ¯m": 3589,
      "Ġspod": 3590,
      "Ġgro": 3591,
      "Ġkj": 3592,
      "ĠÅ¡ÃŃc": 3593,
      "Ġbav": 3594,
      "ĠshÅ¯": 3595,
      "Ġzvr": 3596,
      "ÅĻad": 3597,
      "Ġsnes": 3598,
      "ĠÃ©": 3599,
      "Ġoj": 3600,
      "ĠstlÃ¡": 3601,
      "Ġgen": 3602,
      "ĠbrÃ¡t": 3603,
      "Ġchech": 3604,
      "Ġvg": 3605,
      "ĠzÄį": 3606,
      "Ġvble": 3607,
      "ĠssÃ¡": 3608,
      "Ġzbou": 3609,
      "Ġtroj": 3610,
      "ĠnnÃŃch": 3611,
      "ĠvsnÃ¡": 3612,
      "Ġchout": 3613,
      "ĠdlÃŃm": 3614,
      "ĠvsvÅ¯j": 3615,
      "ĠpeÅĪ": 3616,
      "Ġvtm": 3617,
      "jal": 3618,
      "ĠzÃ©": 3619,
      "ĠsrÃ¡z": 3620,
      "Ġvtou": 3621,
      "ĠbÃŃm": 3622,
      "Ġmis": 3623,
      "ĠtmÃŃ": 3624,
      "Ġryk": 3625,
      "ĠslÃ¡s": 3626,
      "ĠchlÃ½m": 3627,
      "Ġknut": 3628,
      "Ġryl": 3629,
      "ĠrÃ¡ÅĻ": 3630,
      "ĠÅ¡tvÃ¡": 3631,
      "ĠvtÄĽÅ¾": 3632,
      "Ġtles": 3633,
      "ĠvtvÃ©": 3634,
      "ĠzkÅĻi": 3635,
      "ĠvtmÃ¡ch": 3636,
      "ĠrtÅ¯m": 3637,
      "ĠlÃŃÅĻ": 3638,
      "ĠkÄįi": 3639,
      "Ġrep": 3640,
      "Ġjun": 3641,
      "ĠpÅ¯m": 3642,
      "ĠtÄĽk": 3643,
      "Ġzez": 3644,
      "Ġroc": 3645,
      "ĠmÅ¡i": 3646,
      "ĠchÅĻÃŃ": 3647,
      "Ġklel": 3648,
      "ĠvsnÃ¡ch": 3649,
      "Ġdaj": 3650,
      "ĠptÃ¡m": 3651,
      "ĠbÅĻit": 3652,
      "mut": 3653,
      "Ġdout": 3654,
      "ĠksmÃŃ": 3655,
      "ĠstlÃ©": 3656,
      "ĠhÃ¡v": 3657,
      "ĠvsÃŃÅĪ": 3658,
      "ĠchÃ¡Å¡": 3659,
      "ĠstÃ½ÅĻ": 3660,
      "ĠÅĻka": 3661,
      "Ġkvy": 3662,
      "ĠtrÃ¡v": 3663,
      "ĠkÅ¾": 3664,
      "ABC": 3665,
      "ĠdeÅĻ": 3666,
      "Ġzes": 3667,
      "ĠdceÅĻ": 3668,
      "Ġroh": 3669,
      "ĠhraÄį": 3670,
      "Ġjdem": 3671,
      "ĠsÃ¡ch": 3672,
      "Ġboh": 3673,
      "ĠstÃ¡d": 3674,
      "Ġmhou": 3675,
      "Ġvzda": 3676,
      "Ġnald": 3677,
      "Ġbrav": 3678,
      "Ġrab": 3679,
      "ĠpÅĻen": 3680,
      "ĠbÃ¡Å¡": 3681,
      "vÃ½m": 3682,
      "Ġmet": 3683,
      "Ġprst": 3684,
      "ĠÅ¾ra": 3685,
      "ĠnÃ¡l": 3686,
      "XABABX": 3687,
      "Ġchan": 3688,
      "Ġzoub": 3689,
      "Ġrmut": 3690,
      "Ġcva": 3691,
      "Ġmej": 3692,
      "Ġzrn": 3693,
      "Ġeh": 3694,
      "ĠÅ¡ou": 3695,
      "Ġvnez": 3696,
      "ĠÅ¡kol": 3697,
      "Ġem": 3698,
      "Ġcher": 3699,
      "ĠkvÃ¡": 3700,
      "Ġhnou": 3701,
      "ĠsnaÅ¾": 3702,
      "Ġland": 3703,
      "Ġvdlou": 3704,
      "ĠmdlÃ¡": 3705,
      "ĠÄįÅ¯m": 3706,
      "ka": 3707,
      "Ġvden": 3708,
      "ĠbÃ½Å¥": 3709,
      "ĠÅ¾va": 3710,
      "ĠÅĻÃŃd": 3711,
      "ĠflÃŃ": 3712,
      "Ġfau": 3713,
      "ĠkdÃŃ": 3714,
      "ĠsmÃ¡t": 3715,
      "ĠstvÃ©": 3716,
      "Ġtsk": 3717,
      "ĠdrÃ©m": 3718,
      "ĠstÃ¡n": 3719,
      "ĠzvÅ¯": 3720,
      "Ġdrak": 3721,
      "Ġkhro": 3722,
      "ĠlÅ¾e": 3723,
      "ĠkÃ½v": 3724,
      "ĠchvÄĽt": 3725,
      "Ġvlou": 3726,
      "ĠpÅĻev": 3727,
      "ĠplaÄį": 3728,
      "ĠktÄĽm": 3729,
      "ĠlÃ¡k": 3730,
      "Ġsroz": 3731,
      "Ġcer": 3732,
      "ĠpasÅ¥": 3733,
      "Ġzjed": 3734,
      "ĠÅĻÃ¡n": 3735,
      "Ġvzej": 3736,
      "ĠhÅĻmot": 3737,
      "ĠzÃ¡Å¡Å¥": 3738,
      "Ġskok": 3739,
      "ĠvzplÃ¡l": 3740,
      "ĠmstÃŃ": 3741,
      "on": 3742,
      "Ġmha": 3743,
      "Ġloup": 3744,
      "ĠkslÃ¡": 3745,
      "ĠdÃ©Äį": 3746,
      "Ġhoum": 3747,
      "ĠmÃŃÅĪ": 3748,
      "ĠvzpÅĻÃŃ": 3749,
      "Ġkrej": 3750,
      "Ġfat": 3751,
      "Ġzlil": 3752,
      "Ġglo": 3753,
      "ĠÅ¾eÅ¥": 3754,
      "ĠshÃ½": 3755,
      "ĠvmÃ½ch": 3756,
      "ĠpÅĻa": 3757,
      "Ġstiv": 3758,
      "mÃŃ": 3759,
      "Ġkluk": 3760,
      "ĠdrÅ¾": 3761,
      "Ġvcha": 3762,
      "Ġvpar": 3763,
      "Ġvnes": 3764,
      "ĠslÃŃÅ¡": 3765,
      "ĠvjÃŃ": 3766,
      "ĠvprÃ¡z": 3767,
      "Ġvrhl": 3768,
      "Ġae": 3769,
      "Ġzpy": 3770,
      "ĠkaÅ¡": 3771,
      "ĠmuÅ¡": 3772,
      "ĠtÅĻiv": 3773,
      "ĠÄįou": 3774,
      "ĠcÃŃÅĻ": 3775,
      "Ġdrem": 3776,
      "Ġment": 3777,
      "ĠlÅ¾ÃŃ": 3778,
      "ĠvztÃ½": 3779,
      "Ġtet": 3780,
      "ĠdnÃ½ch": 3781,
      "ĠtÄĽÅ¡": 3782,
      "ĠzblÃŃz": 3783,
      "ĠskrÃ½Å¡": 3784,
      "Ġkyn": 3785,
      "Ġvzhled": 3786,
      "ĠjitÅĻ": 3787,
      "ĠkÅ¡ti": 3788,
      "Ġbah": 3789,
      "ĠjÃŃz": 3790,
      "nech": 3791,
      "Ġvtis": 3792,
      "Ġhnul": 3793,
      "ĠvhouÅ¡": 3794,
      "ĠniÅ¥": 3795,
      "ABA": 3796,
      "Ġsod": 3797,
      "Ġchvo": 3798,
      "ĠsÃ¡l": 3799,
      "Ġjist": 3800,
      "ĠsÅ¯v": 3801,
      "ĠtÃ¡l": 3802,
      "Ġtvu": 3803,
      "Ġsai": 3804,
      "ĠvznÄĽt": 3805,
      "Ġuv": 3806,
      "Ġsok": 3807,
      "Ġpsi": 3808,
      "Ġex": 3809,
      "ĠÅ¡kr": 3810,
      "Ġvhor": 3811,
      "ĠtÅĻti": 3812,
      "Ġsji": 3813,
      "Ġrmou": 3814,
      "Ġvoh": 3815,
      "ĠvÅĻÃŃt": 3816,
      "ĠsmyÄį": 3817,
      "ĠspÅĻÃŃ": 3818,
      "Ġvlek": 3819,
      "Ġdlen": 3820,
      "ĠsmÃŃr": 3821,
      "Ġzvla": 3822,
      "Ġtik": 3823,
      "ĠzÃ¡n": 3824,
      "ĠkrÃ©": 3825,
      "Ġeu": 3826,
      "Ġchval": 3827,
      "Ġzkte": 3828,
      "Ġchud": 3829,
      "ĠdiÅ¥": 3830,
      "ĠstÅĻem": 3831,
      "ĠvyÅĻ": 3832,
      "ran": 3833,
      "ĠzÅ¡e": 3834,
      "ĠchÃ¡z": 3835,
      "ĠhÅĻÃŃÄį": 3836,
      "ĠpÃ½ch": 3837,
      "Ġhed": 3838,
      "Ġhos": 3839,
      "ĠtkvÃŃ": 3840,
      "Ġzyt": 3841,
      "ĠÅ¡pÃŃ": 3842,
      "Ġjes": 3843,
      "Ġhvozd": 3844,
      "Ġnar": 3845,
      "Ġkob": 3846,
      "Ġpech": 3847,
      "Ġnis": 3848,
      "ĠÄįap": 3849,
      "Ġcour": 3850,
      "ĠstÄĽj": 3851,
      "ĠvmÃ¡": 3852,
      "ĠÅ¾Å¯m": 3853,
      "Ġtol": 3854,
      "Ġhus": 3855,
      "ĠlÃ©t": 3856,
      "Ġvmr": 3857,
      "pÃŃ": 3858,
      "ĠÅ¾iÄį": 3859,
      "Ġztich": 3860,
      "Ġssa": 3861,
      "Ġsmlou": 3862,
      "Ġsvaz": 3863,
      "Ġzroz": 3864,
      "Ġlout": 3865,
      "ĠÅĻiÄį": 3866,
      "ĠbÃŃn": 3867,
      "ĠpÃ½m": 3868,
      "Ġdre": 3869,
      "ĠÅĪou": 3870,
      "ĠÅĻÃŃÅ¾": 3871,
      "ĠvhrÅ¯": 3872,
      "ĠkrÃ¡m": 3873,
      "ĠklÃ©m": 3874,
      "Ġtmu": 3875,
      "Ġzsi": 3876,
      "ri": 3877,
      "ĠÄįerv": 3878,
      "Ġrvou": 3879,
      "Ġvkom": 3880,
      "Ġpop": 3881,
      "ĠvÃ¡ÅĻ": 3882,
      "Ġhaj": 3883,
      "Ġhub": 3884,
      "Ġklep": 3885,
      "ĠÄįlun": 3886,
      "Ġtuch": 3887,
      "ĠvhnÄĽ": 3888,
      "ĠlaÅ¥": 3889,
      "ĠvÅ¡tÄĽ": 3890,
      "Ġkvil": 3891,
      "Ġdc": 3892,
      "Ġmur": 3893,
      "Ġbvy": 3894,
      "ĠpÅĻijÄı": 3895,
      "ĠvlaÅ¾": 3896,
      "Ġztmy": 3897,
      "ĠzÃŃr": 3898,
      "Ġhmy": 3899,
      "Ġsvod": 3900,
      "Ġsliv": 3901,
      "Ġsbra": 3902,
      "ĠkosÅ¥": 3903,
      "Ġpyt": 3904,
      "ĠstlÃ½": 3905,
      "Ġzach": 3906,
      "ĠvkrÄį": 3907,
      "ĠlÃ©k": 3908,
      "ĠnuÅ¡": 3909,
      "ĠdlaÅ¾": 3910,
      "ĠvztÃ¡h": 3911,
      "ĠslÅ¯v": 3912,
      "ĠzdÅĻÃŃ": 3913,
      "Ġvslo": 3914,
      "ĠnebÅ¥": 3915,
      "Ġzly": 3916,
      "ĠzÃ¡c": 3917,
      "Ġzc": 3918,
      "Ġdvr": 3919,
      "ĠtroÅ¡": 3920,
      "nul": 3921,
      "ĠvdÅ¯": 3922,
      "ĠspouÅ¡": 3923,
      "Å¡ech": 3924,
      "Ġkpro": 3925,
      "ĠÅ¡piÄį": 3926,
      "Ġvly": 3927,
      "Ġvdru": 3928,
      "Ġsmra": 3929,
      "Ġrra": 3930,
      "ĠsÅĪa": 3931,
      "Ġkrb": 3932,
      "ĠmÃ¡k": 3933,
      "ĠvlÃŃc": 3934,
      "Ġstvem": 3935,
      "ĠtÃ½d": 3936,
      "ĠfÅ¯": 3937,
      "Ġzisk": 3938,
      "Ġzci": 3939,
      "Ġoct": 3940,
      "ĠpÄĽn": 3941,
      "ĠdbÃ¡": 3942,
      "ĠkdÄĽ": 3943,
      "XABBA": 3944,
      "Ġkja": 3945,
      "Ġvzpou": 3946,
      "XABBAX": 3947,
      "ĠtÃŃh": 3948,
      "ĠvdlaÅĪ": 3949,
      "Ġat": 3950,
      "Ġmraz": 3951,
      "Ġzpit": 3952,
      "ĠtÅĻesk": 3953,
      "Ġlha": 3954,
      "Ġvsko": 3955,
      "Ġschy": 3956,
      "Ġpluk": 3957,
      "ĠstvÅ¯": 3958,
      "Ġslid": 3959,
      "ĠtÃ¡Å¡": 3960,
      "ĠdvÃ¡b": 3961,
      "Ġcouz": 3962,
      "ĠzÅ¡": 3963,
      "Ġzmla": 3964,
      "Ġvpoz": 3965,
      "Ġkpr": 3966,
      "ĠzdÃ¡r": 3967,
      "Ġsrn": 3968,
      "Ġchop": 3969,
      "ĠÅ¡ar": 3970,
      "Ġtluk": 3971,
      "Ġgli": 3972,
      "ĠdlÃ½m": 3973,
      "Ġvnuk": 3974,
      "Ġkmu": 3975,
      "ĠskaÅ¾": 3976,
      "ĠÄįeÅ¥": 3977,
      "ĠvtÃ¡": 3978,
      "Ġkbra": 3979,
      "Ġtup": 3980,
      "ĠÄįÃŃn": 3981,
      "ĠstÅ¯v": 3982,
      "Ġzvod": 3983,
      "ĠÅ¾ÃŃc": 3984,
      "ĠÄįli": 3985,
      "ĠÅĻÃ¡t": 3986,
      "Ġkuj": 3987,
      "Ġuh": 3988,
      "Ġgal": 3989,
      "ĠkbÅĻe": 3990,
      "ĠzkvÄĽ": 3991,
      "Ġstrop": 3992,
      "Ġdba": 3993,
      "Ġlvo": 3994,
      "ĠliÅ¾": 3995,
      "Ġsol": 3996,
      "Ġmlh": 3997,
      "vÃ½ch": 3998,
      "Ġric": 3999,
      "ĠÅ¾ÃŃn": 4000,
      "Ġtoul": 4001,
      "ĠbÃ¡v": 4002,
      "ĠcvÃ¡": 4003,
      "ĠdrÅ¯": 4004,
      "ĠmrÃ¡Äį": 4005,
      "Ġcvr": 4006,
      "Ġznik": 4007,
      "Ġxi": 4008,
      "ĠkÅ¾e": 4009,
      "ko": 4010,
      "ĠrÃ¡Äį": 4011,
      "Ġmeh": 4012,
      "ĠÄįiÄį": 4013,
      "Ġzdy": 4014,
      "ĠbÄĽÅ¾": 4015,
      "ĠÅĻve": 4016,
      "ĠsÃŃÅ¥": 4017,
      "ĠspÄĽj": 4018,
      "Ġdrah": 4019,
      "AAXXBB": 4020,
      "Ġzevs": 4021,
      "ĠsnÃ©": 4022,
      "ĠklÃ½m": 4023,
      "ĠfraÅ¡": 4024,
      "Ġrav": 4025,
      "ĠÅĻva": 4026,
      "Ġprac": 4027,
      "ĠpsÃ¡t": 4028,
      "ĠÅ¡ti": 4029,
      "ĠtÅĻen": 4030,
      "ĠzÃ¡r": 4031,
      "Ġmh": 4032,
      "Ġvchu": 4033,
      "ĠteÅ¾": 4034,
      "Ġzbar": 4035,
      "Ġvzdal": 4036,
      "ĠsfÃ©": 4037,
      "Ġson": 4038,
      "ĠfrÃ¡": 4039,
      "ĠkvÃ©st": 4040,
      "Ġfle": 4041,
      "ĠmÅ¯m": 4042,
      "ĠtÄĽr": 4043,
      "dlo": 4044,
      "ĠzvÅ¡ech": 4045,
      "Ġrouc": 4046,
      "Ġzlob": 4047,
      "Ġsez": 4048,
      "Ġvzad": 4049,
      "ĠsaÅĪ": 4050,
      "Ġvsy": 4051,
      "Ġtip": 4052,
      "Ġkroz": 4053,
      "Ġous": 4054,
      "ĠsÅ¾": 4055,
      "Ġvsu": 4056,
      "Ġvbuj": 4057,
      "ĠzpÅĻe": 4058,
      "Ġzbled": 4059,
      "Ġbost": 4060,
      "Ġger": 4061,
      "ĠpÅĻim": 4062,
      "Ġnah": 4063,
      "ĠzvÄĽsÅ¥": 4064,
      "Ġtha": 4065,
      "ĠctnÃ½": 4066,
      "Ġsvl": 4067,
      "Ġzkle": 4068,
      "ĠtnÃ½": 4069,
      "ĠÃŃch": 4070,
      "ĠvkrÃ¡s": 4071,
      "ĠvyÄį": 4072,
      "Ġim": 4073,
      "ĠÅĻeh": 4074,
      "ĠhÃ¡n": 4075,
      "ĠbÅĻeÄį": 4076,
      "ĠÅ¾b": 4077,
      "Ġdur": 4078,
      "Ġdrc": 4079,
      "Ġzhra": 4080,
      "ĠÅĻÃ¡s": 4081,
      "ĠztÄĽÅ¾": 4082,
      "ĠdoÅ¡": 4083,
      "ĠpÅ¡e": 4084,
      "ĠpraÅ¾": 4085,
      "ĠtvÃŃch": 4086,
      "ĠsÃ½ch": 4087,
      "Ġnud": 4088,
      "ĠÄįÃŃt": 4089,
      "ĠshrÅ¯": 4090,
      "Ġplot": 4091,
      "ĠnÃ©Äį": 4092,
      "Ġvprv": 4093,
      "Ġstrej": 4094,
      "ĠvadÅ¾": 4095,
      "ĠjvÄĽ": 4096,
      "ĠsmeÄį": 4097,
      "Ġir": 4098,
      "ĠÃ¡Å¡": 4099,
      "Ġup": 4100,
      "ĠsmÃŃm": 4101,
      "ĠÅĻkou": 4102,
      "ĠsteÄį": 4103,
      "ĠvnoÄį": 4104,
      "Ġvhroz": 4105,
      "ĠdÅ¡": 4106,
      "Ġvav": 4107,
      "ĠjvÃ½": 4108,
      "Ġmund": 4109,
      "ĠÄįÃŃk": 4110,
      "ĠvtvÃ½ch": 4111,
      "Ġvtro": 4112,
      "ĠzkvÃ©": 4113,
      "Ġsdo": 4114,
      "ĠvhruÄı": 4115,
      "Ġdep": 4116,
      "ĠÅ¡kod": 4117,
      "ĠÅ¡Ã¡k": 4118,
      "ĠstmÃŃ": 4119,
      "ĠÅ¥uÅ¡": 4120,
      "Ġvsled": 4121,
      "Ġvchlad": 4122,
      "ĠblyÅ¡": 4123,
      "Ġtah": 4124,
      "ĠÅ¡ÃŃk": 4125,
      "ĠzpÃ¡": 4126,
      "ĠgÃ¡": 4127,
      "Ġchrem": 4128,
      "ĠÅ¡vih": 4129,
      "ĠvjÃ¡": 4130,
      "Ġdlesk": 4131,
      "ĠschrÃ¡": 4132,
      "ĠÅ¡Ã¡r": 4133,
      "Ġzan": 4134,
      "Ġhouf": 4135,
      "ĠpruÅ¾": 4136,
      "ĠvkvÄĽt": 4137,
      "Ġvojsk": 4138,
      "ĠvÄĽÅ¥": 4139,
      "ĠtÅĻek": 4140,
      "Ġcez": 4141,
      "Ġzpur": 4142,
      "Ġvlak": 4143,
      "Ġzmno": 4144,
      "Ġlvi": 4145,
      "Ġcim": 4146,
      "ĠslÅ¯m": 4147,
      "ĠÅ¾ij": 4148,
      "Ġpous": 4149,
      "ĠrÅ¯st": 4150,
      "ĠkmÃ©": 4151,
      "ĠvklÃ¡Å¡": 4152,
      "ĠtrÅ¯m": 4153,
      "ĠpÅĻem": 4154,
      "ĠviÅĪ": 4155,
      "ĠdnÃ½m": 4156,
      "Ġbroj": 4157,
      "Ġzkru": 4158,
      "ĠpÅĻÃŃt": 4159,
      "Ġnym": 4160,
      "ĠjakÅ¾": 4161,
      "Ġsklen": 4162,
      "Ġdvih": 4163,
      "ĠlÃ¡v": 4164,
      "tej": 4165,
      "ĠklÃ¡s": 4166,
      "Ġzbe": 4167,
      "Ġchar": 4168,
      "Ġzven": 4169,
      "Ġgol": 4170,
      "Ġvzr": 4171,
      "ĠmÃŃst": 4172,
      "Ġvzka": 4173,
      "ĠradÅ¡": 4174,
      "ĠchvÃŃl": 4175,
      "ĠÄįtver": 4176,
      "Ġmlat": 4177,
      "ĠdveÅĻ": 4178,
      "ĠbdÄĽl": 4179,
      "ĠjÃŃÅ¥": 4180,
      "ĠmÃ¡c": 4181,
      "Ġzkro": 4182,
      "ĠvcÃŃ": 4183,
      "Ġpja": 4184,
      "Ġvstro": 4185,
      "Ġtrat": 4186,
      "ĠtÃ½n": 4187,
      "ĠvrÃ¡j": 4188,
      "ĠhrÃ¡m": 4189,
      "ĠstrÃ¡ÅĪ": 4190,
      "Ġchrt": 4191,
      "ĠsÅĻÃŃ": 4192,
      "ĠÅ¡Å¥Ã¡": 4193,
      "Ġthy": 4194,
      "ĠtiÅ¥": 4195,
      "ĠdÅĻej": 4196,
      "Ġvkap": 4197,
      "ĠbylÅ¥": 4198,
      "Ġosm": 4199,
      "Ġkrom": 4200,
      "ĠstmÄĽ": 4201,
      "ĠstiÄį": 4202,
      "Ġzple": 4203,
      "Ġgar": 4204,
      "Ġfre": 4205,
      "ĠceÅ¡": 4206,
      "Ġmoj": 4207,
      "Ġzbla": 4208,
      "Ġksa": 4209,
      "ĠbrÃ¡c": 4210,
      "ĠvnÄĽÅ¾": 4211,
      "Ġkha": 4212,
      "kÃ¡": 4213,
      "Ġsbe": 4214,
      "Ġsrp": 4215,
      "Ġtky": 4216,
      "ĠzÅ¾": 4217,
      "ĠbÅ¯m": 4218,
      "Ġzkrou": 4219,
      "Ġvby": 4220,
      "Ġvzlyk": 4221,
      "ĠvtÃ½l": 4222,
      "ĠsÅ¾i": 4223,
      "ĠÅĻÅ¯m": 4224,
      "ĠsnÅ¯m": 4225,
      "Ġtkal": 4226,
      "Ġdul": 4227,
      "Ġnejv": 4228,
      "Ġsnah": 4229,
      "ĠbÅĻes": 4230,
      "ĠvÃ¡k": 4231,
      "Ġplam": 4232,
      "Ġzvra": 4233,
      "22": 4234,
      "Ġvyl": 4235,
      "Ġvrab": 4236,
      "Ġknit": 4237,
      "Ġkslun": 4238,
      "Ġseb": 4239,
      "Ġtum": 4240,
      "Ġbij": 4241,
      "Ġvpy": 4242,
      "Ġdleh": 4243,
      "Ġzok": 4244,
      "ĠlÃŃn": 4245,
      "Ġzhor": 4246,
      "ĠÅ¾at": 4247,
      "ĠdaÅ¥": 4248,
      "ĠdrÅ¯m": 4249,
      "Ġstre": 4250,
      "Ġstri": 4251,
      "ĠÅĻez": 4252,
      "ĠzÃ¡k": 4253,
      "ĠdvÃ¡Å¾": 4254,
      "ĠrÃ¡k": 4255,
      "ĠkhvÄĽz": 4256,
      "ĠvÅ¡er": 4257,
      "ĠvÄįÃŃ": 4258,
      "Ġmos": 4259,
      "Ġmstu": 4260,
      "ĠdaÅĻ": 4261,
      "ĠstaÅ¥": 4262,
      "ĠÅ¡af": 4263,
      "ĠluÄį": 4264,
      "ĠdliÄį": 4265,
      "ĠÅ¡las": 4266,
      "ĠtlÃ©m": 4267,
      "ĠvznÃ©": 4268,
      "ĠH": 4269,
      "ÅĪu": 4270,
      "ĠvbÃ¡": 4271,
      "Ġfej": 4272,
      "Ġvha": 4273,
      "Ġkmat": 4274,
      "ĠpÃ³": 4275,
      "Ġvrt": 4276,
      "Ġklem": 4277,
      "ĠstrÃ¡n": 4278,
      "Ġzap": 4279,
      "ĠÅĻat": 4280,
      "Ġthi": 4281,
      "Ġkai": 4282,
      "ĠschÅ¯": 4283,
      "Ġvzhle": 4284,
      "Ġkrat": 4285,
      "ĠbÅĻin": 4286,
      "Ġloun": 4287,
      "ĠvchrÃ¡m": 4288,
      "Ġcnost": 4289,
      "Ġjab": 4290,
      "Ġkse": 4291,
      "ĠÄįed": 4292,
      "Ġvste": 4293,
      "Ġsejn": 4294,
      "ĠdÅĻich": 4295,
      "ĠÅ¡ik": 4296,
      "Ġvsvou": 4297,
      "Ġllas": 4298,
      "ĠvsmÃŃ": 4299,
      "ĠjÃŃst": 4300,
      "Ġvtaj": 4301,
      "Ġkrm": 4302,
      "Ġmsta": 4303,
      "Ġrum": 4304,
      "ĠvÅ¾e": 4305,
      "Ġpin": 4306,
      "Ġlva": 4307,
      "ĠsmÄĽr": 4308,
      "ĠmiÄį": 4309,
      "ĠvdÅ¯m": 4310,
      "ĠÅ¥ou": 4311,
      "Ġfek": 4312,
      "ĠkÅĻep": 4313,
      "ĠhlÃ©m": 4314,
      "ĠjlÃŃp": 4315,
      "ĠblÅ¯": 4316,
      "ĠtosÅ¥": 4317,
      "Ġslan": 4318,
      "Ġmout": 4319,
      "Ġvkus": 4320,
      "Ġdci": 4321,
      "Ġjho": 4322,
      "ĠÅ¡iÄį": 4323,
      "ĠvÅĻes": 4324,
      "Ġtvol": 4325,
      "Ġjda": 4326,
      "ĠÅ¡tve": 4327,
      "Ġzob": 4328,
      "Ġshas": 4329,
      "Ġprot": 4330,
      "Ġdent": 4331,
      "ĠksvÃ½m": 4332,
      "Ġbul": 4333,
      "Ġvznik": 4334,
      "ĠvvÄĽ": 4335,
      "Ġpsk": 4336,
      "ÅĪou": 4337,
      "ĠzkaÅ¾": 4338,
      "Ġzak": 4339,
      "ĠkÅĻÃ¡": 4340,
      "dÄĽ": 4341,
      "ĠÅ¡ec": 4342,
      "ĠrÃ¡b": 4343,
      "Ġmrt": 4344,
      "ĠÅ¡kra": 4345,
      "Ġzrad": 4346,
      "ĠtlÃ½m": 4347,
      "ĠvpÅ¯l": 4348,
      "Ġtb": 4349,
      "Ġpoch": 4350,
      "ĠstiÅ¥": 4351,
      "ĠpÃ¡m": 4352,
      "ĠsÃ¡n": 4353,
      "Ġsluj": 4354,
      "Ġzvad": 4355,
      "AAAA": 4356,
      "Ġfar": 4357,
      "ĠdrÃ¡ch": 4358,
      "ĠmÅĻÃŃÅ¾": 4359,
      "ĠsnÃŃÅ¾": 4360,
      "ĠspÃŃs": 4361,
      "Ġduj": 4362,
      "Ġxe": 4363,
      "Ġsmat": 4364,
      "ĠzhÅ¯": 4365,
      "AXABBX": 4366,
      "ĠprÅ¡": 4367,
      "ĠrÃ½Å¾": 4368,
      "ĠstrÃ©m": 4369,
      "Ġztvr": 4370,
      "Ġvska": 4371,
      "Ġvsvo": 4372,
      "Ġkhla": 4373,
      "Ġzmy": 4374,
      "Ġchme": 4375,
      "Ġvdech": 4376,
      "ĠverÅ¡": 4377,
      "Ġstkvost": 4378,
      "pÄĽ": 4379,
      "Ġvtak": 4380,
      "Ġsstou": 4381,
      "Ġksva": 4382,
      "ĠtkvÄĽ": 4383,
      "Ġvdiv": 4384,
      "Ġsval": 4385,
      "Ġnim": 4386,
      "Ġzme": 4387,
      "ĠvrÃ½": 4388,
      "ĠbÅĻeÅ¡": 4389,
      "Ġplen": 4390,
      "ĠzÄįech": 4391,
      "ĠÅ¡Ã¡t": 4392,
      "Ġgre": 4393,
      "Ġsnich": 4394,
      "Ġthos": 4395,
      "Ġhrd": 4396,
      "ĠcÃŃÅ¡": 4397,
      "ĠÄįtu": 4398,
      "mo": 4399,
      "Ġnoh": 4400,
      "ĠstÅĻech": 4401,
      "ĠsÅ¡e": 4402,
      "Ġkbla": 4403,
      "ĠÄįat": 4404,
      "Ġzik": 4405,
      "ĠvblÃ¡": 4406,
      "Ġvzta": 4407,
      "Ġdos": 4408,
      "Ġdis": 4409,
      "Ġvke": 4410,
      "ĠvosÅ¥": 4411,
      "ĠpÅĻeÄį": 4412,
      "rud": 4413,
      "ĠvstÃŃn": 4414,
      "Ġvhe": 4415,
      "ĠÅ¡tÄĽt": 4416,
      "ĠblÃ¡Äį": 4417,
      "Ġplout": 4418,
      "ĠbeÅ¡": 4419,
      "ĠÅ¾id": 4420,
      "ĠvprÅ¯": 4421,
      "ĠstvÃ½": 4422,
      "ĠztvÃ½ch": 4423,
      "Ġsklad": 4424,
      "Ġmsty": 4425,
      "ĠvbÅĻe": 4426,
      "ĠvskrÃ¡": 4427,
      "ĠÄıar": 4428,
      "Ġcr": 4429,
      "Ġrro": 4430,
      "ĠdÃ¡Å¾": 4431,
      "Ġstisk": 4432,
      "ĠdaÅĪ": 4433,
      "ĠÅ¡aÅ¡": 4434,
      "Ġad": 4435,
      "Ġvtan": 4436,
      "ĠbÃ¡ÅĪ": 4437,
      "Ġsmrou": 4438,
      "Ġsklon": 4439,
      "ĠmÅĪou": 4440,
      "ĠvstrÃ¡": 4441,
      "ĠzhÃ¡": 4442,
      "ĠzÃ½m": 4443,
      "Ġseh": 4444,
      "Ġmyr": 4445,
      "Ġvpi": 4446,
      "ĠrvÃ¡t": 4447,
      "ĠuÄį": 4448,
      "ĠplÃŃs": 4449,
      "ĠkÃ¡Å¾": 4450,
      "Ġruj": 4451,
      "ĠvsÃ¡": 4452,
      "ĠvspÄĽ": 4453,
      "ĠkpÃ¡": 4454,
      "Ġkut": 4455,
      "ĠÅ¾ÃŃr": 4456,
      "Ġvjar": 4457,
      "Ġzlit": 4458,
      "Ġdluh": 4459,
      "ĠnÃŃn": 4460,
      "Ġvzav": 4461,
      "Ġsvra": 4462,
      "Ġvlok": 4463,
      "Ġmzd": 4464,
      "ĠÅĻvou": 4465,
      "ĠsplÃŃ": 4466,
      "Ġsof": 4467,
      "Ġbloud": 4468,
      "ĠchÅ¯d": 4469,
      "Ġkf": 4470,
      "ĠkoÅ¾": 4471,
      "ĠmÅ¯r": 4472,
      "Ġtliv": 4473,
      "Ġdme": 4474,
      "Ġcyt": 4475,
      "Ġschla": 4476,
      "ĠsjÃŃ": 4477,
      "Ġzpl": 4478,
      "ĠzaÅĪ": 4479,
      "ĠzmlÃ¡": 4480,
      "ĠpÅĻÃŃl": 4481,
      "ĠdÅ¯l": 4482,
      "Ġmdle": 4483,
      "ĠscÃ©": 4484,
      "ĠtÅĻu": 4485,
      "ĠdluÅ¾": 4486,
      "Ġvkruh": 4487,
      "Ġtrn": 4488,
      "Ġvpad": 4489,
      "Ġnve": 4490,
      "Ġbet": 4491,
      "ĠÄįla": 4492,
      "ĠmnÃŃm": 4493,
      "Ġvals": 4494,
      "Ġchoun": 4495,
      "ĠmÅĻi": 4496,
      "Ġmam": 4497,
      "ĠflÃ©": 4498,
      "ĠzplÃ¡": 4499,
      "Ġkvou": 4500,
      "vu": 4501,
      "Ġmic": 4502,
      "Ġsor": 4503,
      "ĠvÅ¡ÃŃÅĻ": 4504,
      "ĠdeÅ¡Å¥": 4505,
      "ĠkruÅ¡": 4506,
      "ĠvsluÅ¾": 4507,
      "ĠvzrÅ¯st": 4508,
      "ĠpaÄį": 4509,
      "Ġbyls": 4510,
      "ĠtenÅ¥": 4511,
      "Ġvsen": 4512,
      "ĠptÃ½": 4513,
      "Ġpnu": 4514,
      "Ġstop": 4515,
      "Ġkrav": 4516,
      "Ġvdol": 4517,
      "Ġnevr": 4518,
      "ĠjvÄĽr": 4519,
      "ĠÅ¡lÃ©m": 4520,
      "ĠÅ¾ÃŃk": 4521,
      "Ġlkal": 4522,
      "Ġsjed": 4523,
      "ĠsdÄĽt": 4524,
      "ĠplÃ¡n": 4525,
      "ĠÅ¾Ã¡k": 4526,
      "ĠknÃ½": 4527,
      "ĠjvÃ½Å¡": 4528,
      "ĠpÅĻis": 4529,
      "ĠpÃ¡k": 4530,
      "Ġschva": 4531,
      "ĠtoÄį": 4532,
      "Ġzoh": 4533,
      "Ġsci": 4534,
      "ĠmÃŃc": 4535,
      "Ġkce": 4536,
      "Ġsau": 4537,
      "Ġpon": 4538,
      "Ġbab": 4539,
      "ABABBX": 4540,
      "XAAXBB": 4541,
      "ĠÃºÅ¡": 4542,
      "Ġmok": 4543,
      "Ġlub": 4544,
      "Ġvsnech": 4545,
      "ĠbÃ¡ÅĻ": 4546,
      "ĠzblÃ¡": 4547,
      "ĠÅ¾iÅ¥": 4548,
      "ĠztÃ¡": 4549,
      "ĠvbÃ¡z": 4550,
      "ĠvmÅ¾i": 4551,
      "Ġsdra": 4552,
      "ÅĻo": 4553,
      "Ġhrn": 4554,
      "Ġhve": 4555,
      "ĠpÅĻÃ¡t": 4556,
      "ĠdÅ¯t": 4557,
      "Ġplet": 4558,
      "ĠtaÅ¥": 4559,
      "ĠtouÅ¡": 4560,
      "ĠjsouÅ¥": 4561,
      "lÃ½m": 4562,
      "ĠkyÅĪ": 4563,
      "Ġcuj": 4564,
      "ĠÅĻÃŃz": 4565,
      "ĠvÃ½h": 4566,
      "ĠsÅĪat": 4567,
      "Ġpun": 4568,
      "ĠbraÅĪ": 4569,
      "ĠtoÅĪ": 4570,
      "lem": 4571,
      "ĠkÃ¡z": 4572,
      "Ġpud": 4573,
      "ĠtÅĻÃŃÄį": 4574,
      "he": 4575,
      "ĠtmÃ¡m": 4576,
      "ĠbÅĻÃŃz": 4577,
      "ĠkÃ¡r": 4578,
      "Ġrych": 4579,
      "ĠsÃ½c": 4580,
      "ĠzbÅ¯j": 4581,
      "ĠmaÅ¡": 4582,
      "ĠvdÄĽs": 4583,
      "Ġchry": 4584,
      "Ġnaiv": 4585,
      "ĠtnÃ©": 4586,
      "ĠtÃ¡Å¾": 4587,
      "ĠkaÅ¥": 4588,
      "Ġvaj": 4589,
      "Ġrud": 4590,
      "Ġvuj": 4591,
      "Ġhrej": 4592,
      "ĠtÅĻeb": 4593,
      "ĠvÃºs": 4594,
      "Ġop": 4595,
      "ĠroÅ¡": 4596,
      "lil": 4597,
      "ĠoÅĻ": 4598,
      "ĠtÃŃl": 4599,
      "Ġrub": 4600,
      "ĠkÅ¡tÄĽ": 4601,
      "ĠjÃ¡Å¥": 4602,
      "ĠÄįast": 4603,
      "ĠzhÅĻÃŃ": 4604,
      "ĠvblÃŃz": 4605,
      "ĠmÃ¡Äį": 4606,
      "Ġvbok": 4607,
      "ĠzÅ¾e": 4608,
      "ABX": 4609,
      "Ġnuz": 4610,
      "Ġzech": 4611,
      "Ġbuch": 4612,
      "ĠplaÅ¥": 4613,
      "ĠdÃŃch": 4614,
      "Ġstvou": 4615,
      "Ġtrov": 4616,
      "Ġbrod": 4617,
      "Ġvzruch": 4618,
      "ĠÅĻed": 4619,
      "Ġlar": 4620,
      "Ġzub": 4621,
      "Ġzis": 4622,
      "ĠvrÅ¡": 4623,
      "Ġstvy": 4624,
      "tÃ¡": 4625,
      "ĠÅ¾nÃŃ": 4626,
      "Ġsfin": 4627,
      "Ġpst": 4628,
      "Ġket": 4629,
      "ĠdnÃ©m": 4630,
      "ĠpleÅ¥": 4631,
      "ĠstrÅĪ": 4632,
      "ĠgÃ©": 4633,
      "Ġzpoz": 4634,
      "ĠÅ¾ur": 4635,
      "ĠchrÅ¯": 4636,
      "Ġvtes": 4637,
      "ĠÅ¡vec": 4638,
      "Ġlod": 4639,
      "ĠhnÃ¡t": 4640,
      "Ġblys": 4641,
      "Ġvslav": 4642,
      "ĠplÅĪ": 4643,
      "Ġblouk": 4644,
      "ĠÅ¥uk": 4645,
      "Ġptej": 4646,
      "ĠmÃŃch": 4647,
      "ĠzvÃ¡t": 4648,
      "ĠhnÃ¡n": 4649,
      "Ġvklid": 4650,
      "ĠstÃ¡m": 4651,
      "ĠbloÅĪ": 4652,
      "ĠshlÃ©": 4653,
      "Ġkdru": 4654,
      "ĠhrÃ½": 4655,
      "ĠvzkÃ¡": 4656,
      "ĠpÅ¡": 4657,
      "ĠpÅĻip": 4658,
      "ĠpraÅ¡": 4659,
      "Ġfro": 4660,
      "Ġdak": 4661,
      "ĠhÅĻiv": 4662,
      "zt": 4663,
      "ĠviÅ¥": 4664,
      "ĠchtÃŃc": 4665,
      "ĠdÅ¾bÃ¡": 4666,
      "Ġvouz": 4667,
      "Ġvchod": 4668,
      "Ġvky": 4669,
      "ĠsnÄĽt": 4670,
      "ĠzkÅĻÃŃ": 4671,
      "ĠÅ¡tÄĽp": 4672,
      "Ġvnou": 4673,
      "Ġvouk": 4674,
      "Ġkpom": 4675,
      "Ġblem": 4676,
      "ĠchoÄı": 4677,
      "Ġvdra": 4678,
      "ĠslÃ¡v": 4679,
      "Ġksto": 4680,
      "Ġsmej": 4681,
      "Ġgyp": 4682,
      "Ġplem": 4683,
      "Ġdlal": 4684,
      "ĠstÅĻej": 4685,
      "Ġvyk": 4686,
      "ĠvpÅĻi": 4687,
      "ĠpÃ¡Å¾": 4688,
      "ĠvÃºz": 4689,
      "lÃ³": 4690,
      "Ġdals": 4691,
      "ĠÄįtvrt": 4692,
      "ĠjÃŃn": 4693,
      "Ġdrn": 4694,
      "ĠvÄįem": 4695,
      "Ġcon": 4696,
      "ĠbrÅ¯": 4697,
      "Ġskrej": 4698,
      "Ġtrysk": 4699,
      "Ġfla": 4700,
      "Ġres": 4701,
      "Ġkstro": 4702,
      "ĠÅ¾lout": 4703,
      "ĠvÃ¡d": 4704,
      "Ġmod": 4705,
      "Ġkvet": 4706,
      "ĠzprÃ¡v": 4707,
      "ĠkÄįer": 4708,
      "Ġdor": 4709,
      "ĠzvÅ¡e": 4710,
      "ĠkvÄĽÄį": 4711,
      "Ġtus": 4712,
      "Ġspy": 4713,
      "ĠtyÄį": 4714,
      "Ġjeh": 4715,
      "ĠvtÅ¯": 4716,
      "ĠchÅ¯v": 4717,
      "ĠvmÄĽk": 4718,
      "ĠsÃ½m": 4719,
      "XAAA": 4720,
      "Ġvbr": 4721,
      "Ġvrod": 4722,
      "Ġvsku": 4723,
      "ĠzkouÅ¡": 4724,
      "Ġchleb": 4725,
      "ÅĻou": 4726,
      "ĠpÅĻÃ¡h": 4727,
      "Ġcre": 4728,
      "ĠÅ¡eÅ¡": 4729,
      "Ġvyv": 4730,
      "ĠvzpÄĽ": 4731,
      "ĠvspÃ¡n": 4732,
      "ĠvsmÄĽ": 4733,
      "mi": 4734,
      "ĠchÅĻad": 4735,
      "ĠvskÃ¡": 4736,
      "Ġvmdlo": 4737,
      "ĠÄįtou": 4738,
      "Ġbud": 4739,
      "ĠspÃ¡r": 4740,
      "ĠhÅ¯v": 4741,
      "Ġmuch": 4742,
      "ĠsÃŃd": 4743,
      "Ġzol": 4744,
      "ĠblaÅ¾": 4745,
      "Ġyon": 4746,
      "Ġvon": 4747,
      "ĠÅ¡klu": 4748,
      "ĠvkÅĻe": 4749,
      "ĠskÅĻÃŃÅĪ": 4750,
      "Ġvym": 4751,
      "Ġvis": 4752,
      "Ġsmou": 4753,
      "ĠtÃŃÄį": 4754,
      "ĠlÃ¡z": 4755,
      "Ġvleb": 4756,
      "Ġchlub": 4757,
      "Ġchlum": 4758,
      "ĠleÄı": 4759,
      "ĠpÃŃc": 4760,
      "Ġgil": 4761,
      "Ġzut": 4762,
      "ĠstÄĽÅ¾": 4763,
      "Ġvbles": 4764,
      "ĠznÃŃt": 4765,
      "Ġjvo": 4766,
      "ĠtaÅ¾": 4767,
      "Ġtram": 4768,
      "Ġssu": 4769,
      "Ġksta": 4770,
      "ĠlouÄį": 4771,
      "Ġchmat": 4772,
      "Ġztros": 4773,
      "ĠkÅĪa": 4774,
      "Ġmun": 4775,
      "Ġvzpja": 4776,
      "Ġvstr": 4777,
      "Ġstyd": 4778,
      "ĠskoÄį": 4779,
      "ĠmiÅĪ": 4780,
      "ĠmÃ¡v": 4781,
      "ĠspÃ¡d": 4782,
      "ĠkrouÅ¾": 4783,
      "Ġvzrak": 4784,
      "Ġnor": 4785,
      "ĠpÅĻiÅ¡": 4786,
      "ĠvmrÃ¡": 4787,
      "Ġtrost": 4788,
      "Ġvchva": 4789,
      "Ġproj": 4790,
      "Ġil": 4791,
      "ĠmÃ¡ÅĻ": 4792,
      "Ġpoun": 4793,
      "ĠsiÄį": 4794,
      "ĠmÃ©n": 4795,
      "ku": 4796,
      "Ġzau": 4797,
      "Ġbron": 4798,
      "ĠbÅĻÃŃÅ¡": 4799,
      "ĠnaÅ¥": 4800,
      "Ġkoz": 4801,
      "Ġjam": 4802,
      "ĠmÃŃÅ¥": 4803,
      "ĠsÄįÃŃ": 4804,
      "ĠsrÅ¯": 4805,
      "ĠkÄį": 4806,
      "ĠÅ¾ed": 4807,
      "Ġfil": 4808,
      "ĠÅ¡els": 4809,
      "Ġkhra": 4810,
      "Ġfouk": 4811,
      "Ġstoud": 4812,
      "Ġvep": 4813,
      "ĠÄįesÅ¥": 4814,
      "ĠtÅ¯Äį": 4815,
      "ĠpÃ½r": 4816,
      "Ġrac": 4817,
      "Ġklon": 4818,
      "Ġvmoz": 4819,
      "ĠpÅ¯r": 4820,
      "Ġprut": 4821,
      "Ġzhe": 4822,
      "ĠÅĻÅ¯v": 4823,
      "Ġvzlo": 4824,
      "ĠvzhlÃ©d": 4825,
      "Ġkum": 4826,
      "Ġmel": 4827,
      "XAABXB": 4828,
      "ĠctÃŃm": 4829,
      "Ġctil": 4830,
      "ĠzmÄĽk": 4831,
      "ĠtmÄĽl": 4832,
      "Ġvkal": 4833,
      "ĠlpÃŃ": 4834,
      "ĠlÃ¡r": 4835,
      "ĠhÃ½Äį": 4836,
      "ĠvÃ½t": 4837,
      "Ġmant": 4838,
      "Ġhot": 4839,
      "Ġtai": 4840,
      "ĠbÃ©m": 4841,
      "Ġcep": 4842,
      "ĠvÄĽsÅ¥": 4843,
      "Ġvplo": 4844,
      "ĠvÅĻÃŃn": 4845,
      "ĠbrÃ©m": 4846,
      "ĠÅ¡tÄĽr": 4847,
      "Ġtyr": 4848,
      "ĠÄįÃ¡p": 4849,
      "Ġtres": 4850,
      "Ġcouv": 4851,
      "ĠzkrÃ¡s": 4852,
      "ĠvplÃ¡Äį": 4853,
      "Ġvvo": 4854,
      "ĠÃºÄį": 4855,
      "Ġtrum": 4856,
      "Ġalp": 4857,
      "Ġplic": 4858,
      "ĠknimÅ¾": 4859,
      "ĠuÅ¡t": 4860,
      "Ġvtrh": 4861,
      "ĠstÃŃÅ¡": 4862,
      "Ġloub": 4863,
      "Ġsiv": 4864,
      "Ġplan": 4865,
      "ĠchlÃ©m": 4866,
      "Ġstrhl": 4867,
      "ĠjeÄı": 4868,
      "ĠchÃ¡n": 4869,
      "ĠctnÃ¡": 4870,
      "Ġruk": 4871,
      "Ġzoun": 4872,
      "ĠslÃ½ch": 4873,
      "ĠjaÅĻ": 4874,
      "Ġvul": 4875,
      "ĠzmÄĽn": 4876,
      "ĠvÅ¡p": 4877,
      "ĠvhnÃŃz": 4878,
      "ĠznÄĽj": 4879,
      "Ġnva": 4880,
      "ĠÅ¡ÃŃÅĻ": 4881,
      "ĠÅ¾dÃ¡": 4882,
      "Ġjor": 4883,
      "Ġstlu": 4884,
      "Ġlyp": 4885,
      "ĠvkÃ¡": 4886,
      "Ġtot": 4887,
      "ĠtuÅ¡": 4888,
      "Ġkouk": 4889,
      "Ġsus": 4890,
      "Ġstvi": 4891,
      "rÃ½": 4892,
      "Ġkma": 4893,
      "ĠlstÃŃ": 4894,
      "ĠhoÄı": 4895,
      "Ġzod": 4896,
      "ĠkleÅ¡": 4897,
      "Ġzyv": 4898,
      "Ġkslo": 4899,
      "bo": 4900,
      "ĠÅĻest": 4901,
      "Ġvbar": 4902,
      "ĠsmÄĽj": 4903,
      "ĠzdÃ¡v": 4904,
      "Ġhold": 4905,
      "Ġpul": 4906,
      "Ġtas": 4907,
      "Ġtknu": 4908,
      "ĠsÅĪal": 4909,
      "ta": 4910,
      "Ġzdej": 4911,
      "ĠsÄįer": 4912,
      "ĠskÅĻou": 4913,
      "ĠÅ¾ich": 4914,
      "ĠhouÅ¡Å¥": 4915,
      "ĠÅ¡ke": 4916,
      "ĠvloÄį": 4917,
      "Ġcli": 4918,
      "Ġhil": 4919,
      "Ġvslou": 4920,
      "ĠchlÃ½ch": 4921,
      "Ġdbej": 4922,
      "ĠchÅĻ": 4923,
      "ĠvÅ¡tÃŃ": 4924,
      "ĠstÃ¡h": 4925,
      "Ġzplo": 4926,
      "ĠsÃ¡z": 4927,
      "ĠkÅ¡ÃŃ": 4928,
      "ĠstuÅ¾": 4929,
      "ĠteÅ¡": 4930,
      "Ġloz": 4931,
      "Ġbuv": 4932,
      "Ġslab": 4933,
      "ĠtÅ¯ÅĪ": 4934,
      "AXABXB": 4935,
      "ĠbÃŃÅ¡": 4936,
      "ĠsvÃŃÄį": 4937,
      "ĠvzÃ¡m": 4938,
      "Ġstvol": 4939,
      "ĠnÃŃt": 4940,
      "Ġvss": 4941,
      "Ġspov": 4942,
      "Ġprus": 4943,
      "Ġvkri": 4944,
      "Ġvzmat": 4945,
      "23": 4946,
      "ĠÅĻisÅ¥": 4947,
      "Ġzust": 4948,
      "ĠmdlÃ½ch": 4949,
      "ĠspuÅ¡": 4950,
      "Ġmn": 4951,
      "ĠmÃº": 4952,
      "Ġzmlk": 4953,
      "ĠvÅ¾ÃŃ": 4954,
      "Ġnne": 4955,
      "ĠÅ¥Ã¡t": 4956,
      "Ġvryl": 4957,
      "Ġzfo": 4958,
      "ĠdÅ¾bÃ¡n": 4959,
      "ĠshvÄĽz": 4960,
      "ĠlvÃŃ": 4961,
      "ĠplaÅ¡": 4962,
      "ĠpÃ¡t": 4963,
      "ĠÅ¥Ã¡l": 4964,
      "ĠktvÃ©": 4965,
      "Ġkzu": 4966,
      "Ġtran": 4967,
      "ĠslÃŃÄį": 4968,
      "Ġvmoc": 4969,
      "Ġkvra": 4970,
      "ĠsnÃŃmÅ¾": 4971,
      "ĠstÅĻiÄį": 4972,
      "jat": 4973,
      "Ġtav": 4974,
      "ĠsnÃŃÅ¡": 4975,
      "Ġsmek": 4976,
      "Ġrmu": 4977,
      "Ġvah": 4978,
      "Ġsyc": 4979,
      "ĠskvÄĽl": 4980,
      "nt": 4981,
      "ĠdÅĻev": 4982,
      "Ġsis": 4983,
      "Ġzre": 4984,
      "ĠtnÃŃm": 4985,
      "ĠlÃ©Äį": 4986,
      "Ġsouc": 4987,
      "AXAXBB": 4988,
      "ĠzchrÃ¡": 4989,
      "Ġost": 4990,
      "ĠsÃŃt": 4991,
      "ĠrouÅ¾": 4992,
      "ĠskÅĻek": 4993,
      "ĠpÃŃÄı": 4994,
      "Ġstrem": 4995,
      "ĠzvÄĽÄį": 4996,
      "ny": 4997,
      "Ã¤": 4998,
      "ĠbeÅĻ": 4999,
      "ĠÅĻÃŃÄį": 5000,
      "Ġvzky": 5001,
      "Ġzchu": 5002,
      "Ġskep": 5003,
      "ĠÅĻval": 5004,
      "ĠzÃŃk": 5005,
      "Ġjmen": 5006,
      "Ġvkla": 5007,
      "ĠnnÃŃk": 5008,
      "ĠÄįtr": 5009,
      "ĠsjÃ¡": 5010,
      "ĠÅ¡tvÃ¡n": 5011,
      "ĠÅ¡ÃŃr": 5012,
      "us": 5013,
      "Ġzz": 5014,
      "Ġsvoj": 5015,
      "Ġther": 5016,
      "Ġknil": 5017,
      "ĠdÃŃr": 5018,
      "ĠsviÅ¡": 5019,
      "ĠzklÃ¡": 5020,
      "ĠÅ¾nÄĽ": 5021,
      "Ġbed": 5022,
      "ĠblaÄį": 5023,
      "Ġllus": 5024,
      "ĠÅ¡ÅĪ": 5025,
      "Ġvsad": 5026,
      "Ġshl": 5027,
      "ĠzdÃ½": 5028,
      "Ġfry": 5029,
      "ĠvÅĻi": 5030,
      "Ġskte": 5031,
      "Ġsmlu": 5032,
      "Ġhum": 5033,
      "ĠkliÄı": 5034,
      "ĠkpÅĻÃŃ": 5035,
      "ĠvspÃ¡": 5036,
      "ĠÄįlÃ¡": 5037,
      "Ġproh": 5038,
      "Ġkaj": 5039,
      "Ġdliv": 5040,
      "Ġvrb": 5041,
      "ĠztmÄĽ": 5042,
      "ĠvhÅĻÃŃ": 5043,
      "ĠÅĪÃ¡k": 5044,
      "Ġhmyz": 5045,
      "Ġtral": 5046,
      "ĠkjÃŃ": 5047,
      "AXB": 5048,
      "Ġpark": 5049,
      "ĠctÃŃt": 5050,
      "ABCABC": 5051,
      "Ġmzdu": 5052,
      "Ġvtru": 5053,
      "Ġspros": 5054,
      "Ġkta": 5055,
      "ĠssÃ¡l": 5056,
      "ĠmlÃ©Äį": 5057,
      "Ġchcy": 5058,
      "Ġvspol": 5059,
      "Ġhnout": 5060,
      "Ġjaks": 5061,
      "ĠÅĻiÅ¥": 5062,
      "ĠzhnÃŃz": 5063,
      "ĠpnÄĽ": 5064,
      "ĠÅ¾ab": 5065,
      "Ġtrup": 5066,
      "ĠcÃ¡r": 5067,
      "Ġsjas": 5068,
      "ĠvÅĻeÄį": 5069,
      "Ġgram": 5070,
      "Ġzeh": 5071,
      "ĠhruÅ¡": 5072,
      "ĠhÅĻÃ¡l": 5073,
      "ĠchmÅ¯": 5074,
      "ĠdaÄį": 5075,
      "Ġprinc": 5076,
      "ĠdcÅ¯": 5077,
      "Ġzdal": 5078,
      "ÄıÃ¡": 5079,
      "Ġmdlou": 5080,
      "ĠvtÄĽs": 5081,
      "ĠÄįmu": 5082,
      "ĠvÄįes": 5083,
      "Ġvnic": 5084,
      "ĠbÄĽj": 5085,
      "ĠvkÅĻi": 5086,
      "Ġgis": 5087,
      "ĠhrÃ¡ch": 5088,
      "ĠvzhlÃŃ": 5089,
      "ĠdnÃŃm": 5090,
      "Ġlhal": 5091,
      "Ġxan": 5092,
      "ĠsbÄĽh": 5093,
      "ĠpoÄı": 5094,
      "Ġes": 5095,
      "ĠmdlÃ½m": 5096,
      "ĠvvÃ½": 5097,
      "ĠflÃ©t": 5098,
      "Ġtch": 5099,
      "Ġzov": 5100,
      "ĠrÃ½n": 5101,
      "ĠÄıou": 5102,
      "Ġsdi": 5103,
      "Ã³n": 5104,
      "Ġmnil": 5105,
      "Ġmouc": 5106,
      "ĠptÃ¡t": 5107,
      "AXAXX": 5108,
      "ĠzhlÃŃd": 5109,
      "Ġvmech": 5110,
      "ĠhÃº": 5111,
      "Ġtim": 5112,
      "Ġdmu": 5113,
      "ĠstÅĻen": 5114,
      "Ġlav": 5115,
      "Ġtlesk": 5116,
      "Ġrras": 5117,
      "ĠkoÅĪ": 5118,
      "ĠtoÅ¡": 5119,
      "ĠpÄĽsÅ¥": 5120,
      "Ġchas": 5121,
      "ĠÅ¡kÃ¡": 5122,
      "ABACCB": 5123,
      "Ġchel": 5124,
      "Ġgend": 5125,
      "ABAAB": 5126,
      "ĠprÃ©": 5127,
      "ĠvkÅ¯": 5128,
      "Ġspek": 5129,
      "ĠksluÅ¾": 5130,
      "Ġzdru": 5131,
      "ĠpÄĽÅ¡": 5132,
      "ĠzmÃ½ch": 5133,
      "Ġgur": 5134,
      "Ġshluk": 5135,
      "Ġblah": 5136,
      "ĠÅ¡kleb": 5137,
      "AAXBXB": 5138,
      "ĠzÅ¾i": 5139,
      "ĠkaÄį": 5140,
      "Ġvzbo": 5141,
      "ĠY": 5142,
      "ĠjÃ¡c": 5143,
      "Ġzuj": 5144,
      "ĠpÅ¯st": 5145,
      "Ġvlez": 5146,
      "ĠvtmÄĽ": 5147,
      "ĠsÃ¡k": 5148,
      "ĠpsÅ¯": 5149,
      "ĠÅ¡pe": 5150,
      "ĠvnÄĽjÅ¾": 5151,
      "ĠnÃŃÅ¥": 5152,
      "ĠÅ¾ej": 5153,
      "ĠryÄį": 5154,
      "Ġred": 5155,
      "Ġhlup": 5156,
      "Ġschne": 5157,
      "Ġvskal": 5158,
      "ĠvdÃŃl": 5159,
      "ĠÅ¡vÃ¡": 5160,
      "ĠmaÄį": 5161,
      "Ġis": 5162,
      "Ġvmar": 5163,
      "Ġllen": 5164,
      "ĠvhvÄĽz": 5165,
      "ĠproÅĪ": 5166,
      "ĠÅ¡tÃ¡": 5167,
      "Ġtlit": 5168,
      "ĠÅ¾la": 5169,
      "Ġvzmu": 5170,
      "ĠsnÃŃl": 5171,
      "ĠthÃ©": 5172,
      "Ġwa": 5173,
      "Ġchost": 5174,
      "ĠkÅ¯l": 5175,
      "Ġssy": 5176,
      "ĠÅ¡etÅĻ": 5177,
      "ĠspÅ¯": 5178,
      "ĠtrÃ¡m": 5179,
      "ĠztvÃ©": 5180,
      "Ġtrob": 5181,
      "Ġlamp": 5182,
      "Ġsteh": 5183,
      "ĠÅ¡perk": 5184,
      "Ġdsk": 5185,
      "XXAXAX": 5186,
      "XAXAXA": 5187,
      "Ġmlej": 5188,
      "Ġkas": 5189,
      "ĠÄįiÅ¥": 5190,
      "ĠzklÃŃ": 5191,
      "Ġkres": 5192,
      "Ġkluz": 5193,
      "ĠsÅ¥": 5194,
      "AXAXXX": 5195,
      "ĠdÃ¡Å¥": 5196,
      "ĠhÃ¡l": 5197,
      "Ġsluh": 5198,
      "ĠziÄį": 5199,
      "vÃ¡t": 5200,
      "Ġchlej": 5201,
      "Ġkza": 5202,
      "ĠflÃŃk": 5203,
      "ĠÅĪÅ¯m": 5204,
      "Ġbros": 5205,
      "ĠvpouÅ¡Å¥": 5206,
      "Ġpuch": 5207,
      "ĠschvÃ¡l": 5208,
      "ĠhÅĻmÄĽl": 5209,
      "ĠkmeÅ¥": 5210,
      "Ġvdov": 5211,
      "Ġlog": 5212,
      "Ġzmd": 5213,
      "ĠsdÅ¯": 5214,
      "ĠzrÃ¡l": 5215,
      "Ġtc": 5216,
      "ĠzÄįi": 5217,
      "Ġbuk": 5218,
      "ĠtÃ©r": 5219,
      "Ġsbi": 5220,
      "Ġvskry": 5221,
      "Ġvhud": 5222,
      "Ġhluch": 5223,
      "Ġsved": 5224,
      "ĠloÅĪ": 5225,
      "ĠsÃ¡Å¡": 5226,
      "ĠkÅĻest": 5227,
      "up": 5228,
      "Ġduh": 5229,
      "ĠÅ¡lÃ¡p": 5230,
      "ĠvoÄı": 5231,
      "Ġzkon": 5232,
      "ĠÅ¡lou": 5233,
      "Ġnoz": 5234,
      "ĠvtÅĻe": 5235,
      "Ġllah": 5236,
      "Ġprok": 5237,
      "Ġspjat": 5238,
      "Ġprak": 5239,
      "Ġvjel": 5240,
      "ĠvÅ¡um": 5241,
      "Ġvzkaz": 5242,
      "Ġsam": 5243,
      "ĠpÅĻih": 5244,
      "ĠvkÅĻo": 5245,
      "ĠsnÅ¯v": 5246,
      "Ġrach": 5247,
      "ĠbÄĽn": 5248,
      "ĠpiÅ¥": 5249,
      "ĠdrÃ¡t": 5250,
      "ĠvdÃ¡v": 5251,
      "Ġsvad": 5252,
      "Ġmid": 5253,
      "Ġzkli": 5254,
      "Ġvkon": 5255,
      "Ġfrau": 5256,
      "Ã¶": 5257,
      "Ġmaj": 5258,
      "Ġvstav": 5259,
      "Ġzvln": 5260,
      "ĠsÅ¡ÃŃ": 5261,
      "ĠÅ¾hnou": 5262,
      "ĠroÄį": 5263,
      "ĠprÃ¡s": 5264,
      "Ġzlom": 5265,
      "ĠvbÄĽh": 5266,
      "ĠsoÅ¡": 5267,
      "Ġspos": 5268,
      "ĠvjichÅ¾": 5269,
      "Ġsde": 5270,
      "Ġsev": 5271,
      "ĠdlÃŃt": 5272,
      "Ġhvizd": 5273,
      "ĠvzdÃ¡t": 5274,
      "ĠdejÅ¾": 5275,
      "Ġtn": 5276,
      "Ġgor": 5277,
      "ĠzbÃ¡": 5278,
      "ĠshlÃ©d": 5279,
      "ĠsÃ½Å¡": 5280,
      "ĠkÅ¾a": 5281,
      "Ġvtros": 5282,
      "ĠspÄĽt": 5283,
      "AABXB": 5284,
      "ĠpÅĻeÅ¡": 5285,
      "Ġbaj": 5286,
      "th": 5287,
      "ĠÅ¡lu": 5288,
      "Ġtuh": 5289,
      "ĠÅ¡lal": 5290,
      "ĠvstraÅ¡": 5291,
      "Ġzkom": 5292,
      "ĠvchÅ¯": 5293,
      "ĠrÃ¡r": 5294,
      "Ġchyl": 5295,
      "Ġklec": 5296,
      "ĠÅĪal": 5297,
      "ĠkspÃ¡": 5298,
      "Ġpjal": 5299,
      "Ġmir": 5300,
      "ĠfrÃ½": 5301,
      "Ġvsto": 5302,
      "ĠvpÃ½": 5303,
      "ĠvzhlÃ©": 5304,
      "Ġzchla": 5305,
      "ĠzsvÃ©": 5306,
      "ĠvvÄĽÄį": 5307,
      "ĠsvÅ¡e": 5308,
      "Ġhran": 5309,
      "Ġvmat": 5310,
      "ĠzhrÅ¯": 5311,
      "ĠvpÅĻÃŃÅ¡": 5312,
      "Ġrdou": 5313,
      "Ġsbu": 5314,
      "ĠtÅĻiÄį": 5315,
      "ĠkplÃ¡": 5316,
      "ĠÄįtyÅĻ": 5317,
      "Ġvproud": 5318,
      "Ġhop": 5319,
      "Ġhma": 5320,
      "Ġvsh": 5321,
      "Ġhouk": 5322,
      "Ġklub": 5323,
      "Ġbard": 5324,
      "Ġzpom": 5325,
      "lech": 5326,
      "ĠpÃŃch": 5327,
      "ĠvbouÅĻ": 5328,
      "Ġjve": 5329,
      "Ġhraj": 5330,
      "Ġbert": 5331,
      "Ġgri": 5332,
      "hy": 5333,
      "ĠdÄĽls": 5334,
      "ĠzlÃ©m": 5335,
      "Ġcir": 5336,
      "ĠÄįÃŃl": 5337,
      "ĠhlÅ¯": 5338,
      "ABACBC": 5339,
      "ĠtÄĽc": 5340,
      "ĠzmÄĽÅ¥": 5341,
      "ĠstÃŃh": 5342,
      "ABABXB": 5343,
      "Ġsir": 5344,
      "ĠktrÅ¯": 5345,
      "Ġzmlh": 5346,
      "Ġmrd": 5347,
      "ĠvÃ¡t": 5348,
      "ĠzÃ¡j": 5349,
      "Ġsyv": 5350,
      "Ġzeb": 5351,
      "ĠslasÅ¥": 5352,
      "Ġhrb": 5353,
      "ĠjlÃ©": 5354,
      "ĠstÃŃs": 5355,
      "Ġsrb": 5356,
      "ĠstÃ¡v": 5357,
      "ĠpÃ¡Å¡": 5358,
      "Ġsvist": 5359,
      "ĠbrÃ¡n": 5360,
      "Ġjep": 5361,
      "Ġces": 5362,
      "ĠsmÃ½m": 5363,
      "ĠpÃŃk": 5364,
      "Ġvzpjal": 5365,
      "ĠsbÅĻe": 5366,
      "ĠÅ¾uj": 5367,
      "Ġprob": 5368,
      "Ġsvrh": 5369,
      "Ġzhloub": 5370,
      "Ġvak": 5371,
      "Ġktan": 5372,
      "ol": 5373,
      "Ġkord": 5374,
      "ĠvdÃ½m": 5375,
      "Ġhlod": 5376,
      "ĠdlÃ¡m": 5377,
      "Ġcid": 5378,
      "Ġtlej": 5379,
      "Ġck": 5380,
      "ĠsplÃ©": 5381,
      "Ġsyp": 5382,
      "ĠsvlÃ©": 5383,
      "ĠÅ¡ech": 5384,
      "Ġvsni": 5385,
      "Ġstlou": 5386,
      "Ġvsnu": 5387,
      "Ġblek": 5388,
      "Ġsble": 5389,
      "ĠkÅĻt": 5390,
      "ĠvrÅ¯z": 5391,
      "ĠvcÃŃr": 5392,
      "ĠÄįle": 5393,
      "ĠlkÃ¡t": 5394,
      "ĠzlÃ¡t": 5395,
      "ĠvcÃ¡": 5396,
      "ĠkspÃ¡n": 5397,
      "Ġkoch": 5398,
      "ĠvÃŃÅ¾": 5399,
      "Ġslat": 5400,
      "Ġsoum": 5401,
      "ĠzhouÅ¡": 5402,
      "Ġvhrad": 5403,
      "Ġzmdle": 5404,
      "ĠÅ¡Ã¡l": 5405,
      "ĠbaÅ¡": 5406,
      "Ġvpan": 5407,
      "Ġbvi": 5408,
      "ĠÅĻet": 5409,
      "ÅĪÃ¡": 5410,
      "ĠtÅĻej": 5411,
      "Ġtvrz": 5412,
      "Ġtroud": 5413,
      "ĠmnÃŃÅ¡": 5414,
      "AAABB": 5415,
      "Ġshra": 5416,
      "Ġcus": 5417,
      "ĠvÅ¾Ã¡r": 5418,
      "ĠvÅ¡el": 5419,
      "Ġvrop": 5420,
      "Ġsef": 5421,
      "ĠlÃ¡d": 5422,
      "Ġhles": 5423,
      "Ġdrh": 5424,
      "ĠzdÃ¡t": 5425,
      "ĠÅ¥Äįe": 5426,
      "ĠvneÅ¡": 5427,
      "ĠchtÃŃÄį": 5428,
      "Ġzdum": 5429,
      "ĠÄįac": 5430,
      "ĠvlÃ¡k": 5431,
      "ĠchÃ½Å¡": 5432,
      "ĠzrÃ½": 5433,
      "ĠskrÃ½t": 5434,
      "Ġsplav": 5435,
      "Ġslet": 5436,
      "ĠzvÃ¡Å¾": 5437,
      "Ġvpev": 5438,
      "ĠkyÅ¾": 5439,
      "Ġpet": 5440,
      "ĠvznÃ©st": 5441,
      "Ġag": 5442,
      "Ġztla": 5443,
      "ĠsbÃŃr": 5444,
      "Ġras": 5445,
      "ky": 5446,
      "Ġjh": 5447,
      "ĠvÅ¾al": 5448,
      "Ġsdce": 5449,
      "Ġknuv": 5450,
      "ĠhoÅ¡": 5451,
      "XXXXAA": 5452,
      "ĠhÅĻÃ¡t": 5453,
      "Ġkhru": 5454,
      "Ġvstoup": 5455,
      "Ġvtlu": 5456,
      "Ġec": 5457,
      "Ġztlu": 5458,
      "Ġztre": 5459,
      "Ġzdep": 5460,
      "Ġksy": 5461,
      "Ġprask": 5462,
      "ÅĪal": 5463,
      "Ġvtla": 5464,
      "Ġvzdej": 5465,
      "Ġfin": 5466,
      "ĠÅ¾rÃ¡": 5467,
      "Ġvut": 5468,
      "ĠtouÄį": 5469,
      "ĠklÃ¡st": 5470,
      "Ġhviz": 5471,
      "ĠzÅ¯m": 5472,
      "ĠstrasÅ¥": 5473,
      "ĠtÅĻÃŃc": 5474,
      "Ġsdan": 5475,
      "Ġhloh": 5476,
      "ĠzdÄĽt": 5477,
      "ĠpskÃ½ch": 5478,
      "ĠjÃŃÄį": 5479,
      "Ġklat": 5480,
      "ĠvÅĻeÅ¡": 5481,
      "Ġskot": 5482,
      "Ġschou": 5483,
      "ĠhÅĻmÃŃt": 5484,
      "ĠstvÄĽ": 5485,
      "ĠhaÄį": 5486,
      "ĠflÃ³": 5487,
      "ĠbouÄį": 5488,
      "ĠztÅĻe": 5489,
      "Ġvzep": 5490,
      "Ġzcha": 5491,
      "Ġwe": 5492,
      "Ġsg": 5493,
      "Ġvpos": 5494,
      "ĠÅ¥Ã¡k": 5495,
      "Ġdvrh": 5496,
      "Ġbob": 5497,
      "ĠzÄįÃŃ": 5498,
      "ĠpeÅ¡": 5499,
      "ĠkrÃ½ch": 5500,
      "Ġbic": 5501,
      "ĠbraÅ¥": 5502,
      "Ġshu": 5503,
      "ĠvlÃ¡t": 5504,
      "Ġmau": 5505,
      "ĠtrÄį": 5506,
      "Ġsvah": 5507,
      "Ġdles": 5508,
      "ĠmÄĽls": 5509,
      "Ġvtrp": 5510,
      "ĠnÄĽv": 5511,
      "Ġkpe": 5512,
      "ĠchÃ½Å¾": 5513,
      "Ġsklep": 5514,
      "Ġvbah": 5515,
      "Ġzbez": 5516,
      "Ġvsho": 5517,
      "ĠtmÃ¡": 5518,
      "ĠzdÅĻÃŃm": 5519,
      "Ġzast": 5520,
      "lun": 5521,
      "ĠvplÃŃ": 5522,
      "ĠptÃ¡Å¡": 5523,
      "ĠsmÃŃÅ¡": 5524,
      "ĠctÄĽn": 5525,
      "Ġkhar": 5526,
      "Ġsov": 5527,
      "ĠgrÃ¡": 5528,
      "ĠÄıme": 5529,
      "ĠvzbuÄı": 5530,
      "ĠztvÃ¡": 5531,
      "ĠzvÃŃd": 5532,
      "ĠÅ¾ne": 5533,
      "Ġzper": 5534,
      "ĠÅ¡ejd": 5535,
      "AABXBX": 5536,
      "BA": 5537,
      "ĠonÅ¥": 5538,
      "Ġslout": 5539,
      "ĠvÅĻÃŃs": 5540,
      "Ġdlej": 5541,
      "ĠhlÃº": 5542,
      "Ġoud": 5543,
      "ĠvdÄĽt": 5544,
      "ĠvÃºc": 5545,
      "Ġvstup": 5546,
      "ĠÅ¡eÅ¥": 5547,
      "ĠstÃŃch": 5548,
      "Ġsum": 5549,
      "ĠsdÃŃt": 5550,
      "ĠvchÃ½": 5551,
      "Ġtrouch": 5552,
      "Ġbus": 5553,
      "Ġbiz": 5554,
      "Ġvrej": 5555,
      "ĠcÃ½r": 5556,
      "ĠklÃŃÅĻ": 5557,
      "ĠvzlÃ©t": 5558,
      "Ġsza": 5559,
      "Ġvblu": 5560,
      "ĠtevÅĻ": 5561,
      "ĠlpÄĽ": 5562,
      "Ġcej": 5563,
      "XXXAAX": 5564,
      "ĠsÅ¯l": 5565,
      "Ġmdlob": 5566,
      "ĠtÅĻas": 5567,
      "Ġzkaz": 5568,
      "ĠvloÅ¾": 5569,
      "Ġai": 5570,
      "ĠvisÅ¥": 5571,
      "ĠzbÅĻe": 5572,
      "ĠtÅĻech": 5573,
      "Ġzhan": 5574,
      "ĠsÅĻe": 5575,
      "Ġkrt": 5576,
      "Ġvsbo": 5577,
      "ĠtÅĻev": 5578,
      "Ġcval": 5579,
      "Ġoch": 5580,
      "Ġlim": 5581,
      "Ġvas": 5582,
      "ĠtaÅ¡": 5583,
      "ĠsprÃ¡z": 5584,
      "Ġsun": 5585,
      "ĠmnÄĽl": 5586,
      "Ġdlost": 5587,
      "Ġnals": 5588,
      "Ġvsvor": 5589,
      "Ġjec": 5590,
      "Ġsmla": 5591,
      "Ġdroz": 5592,
      "Ġchav": 5593,
      "Ġhrud": 5594,
      "Ġvsed": 5595,
      "Ġakt": 5596,
      "ÃŃs": 5597,
      "ĠvÃ¡c": 5598,
      "ĠnnÃ¡m": 5599,
      "ĠvdÅ¯l": 5600,
      "ĠzblÃ¡z": 5601,
      "Ġprej": 5602,
      "Ġvps": 5603,
      "ĠÅ¡plÃŃ": 5604,
      "Ġvve": 5605,
      "Ġtau": 5606,
      "ĠtÄĽp": 5607,
      "Ġvkar": 5608,
      "ĠzmÃ½": 5609,
      "Ġtman": 5610,
      "ĠÅ¡ov": 5611,
      "AXXB": 5612,
      "lan": 5613,
      "Ġzst": 5614,
      "Ġsman": 5615,
      "ĠvlÃ¡l": 5616,
      "Ġzvlh": 5617,
      "Ġjic": 5618,
      "ĠmuÅ¥": 5619,
      "Ġvklu": 5620,
      "Ġzhl": 5621,
      "ĠÄıu": 5622,
      "Ġgerd": 5623,
      "ĠÄįis": 5624,
      "Ġvper": 5625,
      "ĠzhvÄĽz": 5626,
      "Ġpuj": 5627,
      "ĠskloÅĪ": 5628,
      "Ġsver": 5629,
      "ĠshlÃŃd": 5630,
      "Ġzlid": 5631,
      "Ġumf": 5632,
      "Ġsjel": 5633,
      "jÅ¡": 5634,
      "Ġjlil": 5635,
      "ĠÅ¾ÃŃÄį": 5636,
      "Ġvus": 5637,
      "ĠryÅ¡": 5638,
      "ĠzkÅĻe": 5639,
      "ĠkamÅ¾": 5640,
      "ĠtÅĻa": 5641,
      "ĠvnÃ¡d": 5642,
      "ĠvplÃ¡Å¡Å¥": 5643,
      "ĠÄįpÃŃ": 5644,
      "Ġpam": 5645,
      "Ġtvrd": 5646,
      "ĠjsemÅ¥": 5647,
      "Ġtym": 5648,
      "ĠgÃ¡n": 5649,
      "ĠzÃ¡Å¡t": 5650,
      "ĠsdÃŃl": 5651,
      "Ġie": 5652,
      "Ġham": 5653,
      "ĠkeÅ¡": 5654,
      "Ġnezv": 5655,
      "Ġschnou": 5656,
      "ĠÅĻan": 5657,
      "Ġgraf": 5658,
      "ĠvlÅ¯Å¾": 5659,
      "Ġcleh": 5660,
      "ĠjvejÅ¡": 5661,
      "Ġgou": 5662,
      "ĠkleÄį": 5663,
      "ĠchvÄĽn": 5664,
      "Ġzvel": 5665,
      "ill": 5666,
      "Ġbon": 5667,
      "ĠzhnÄĽ": 5668,
      "ĠbÅ¯Å¾": 5669,
      "ĠmstÃŃt": 5670,
      "Ġzbav": 5671,
      "ĠsÅ¾a": 5672,
      "ĠtakÅĻ": 5673,
      "ĠhuÄį": 5674,
      "ĠpÃ¡Äį": 5675,
      "ĠzchvÃ¡": 5676,
      "ĠvbÃŃd": 5677,
      "Ġzsrd": 5678,
      "ĠjÃ¡ÅĻ": 5679,
      "Ġvleh": 5680,
      "ĠskÅĻÃŃt": 5681,
      "ĠzklÃ¡Å¡": 5682,
      "Ġmol": 5683,
      "ĠbeÄį": 5684,
      "Ġbram": 5685,
      "ĠkliÄį": 5686,
      "ĠblÃ½Å¡": 5687,
      "Ġvzmach": 5688,
      "ĠvsvÃ¡": 5689,
      "Ġbrach": 5690,
      "ĠgÃ¡t": 5691,
      "Ġsba": 5692,
      "ĠsviÅ¾": 5693,
      "ĠÅ¡plech": 5694,
      "ĠrÃ¡t": 5695,
      "Ġkleb": 5696,
      "Ġvbod": 5697,
      "Ġvskle": 5698,
      "ĠÄįnÄĽl": 5699,
      "Ġbiv": 5700,
      "ĠkpÅ¯": 5701,
      "ĠÅ¡Å¯v": 5702,
      "ĠstkvÄĽl": 5703,
      "ĠbÃŃÄį": 5704,
      "ĠzmÅ¯": 5705,
      "ĠstvÃŃch": 5706,
      "ir": 5707,
      "ĠnÃ½ÅĻ": 5708,
      "Ġsoch": 5709,
      "ĠshnÄĽ": 5710,
      "ĠdlÃŃÅ¡": 5711,
      "ĠprÅ¯s": 5712,
      "kou": 5713,
      "Ġzvat": 5714,
      "Ġbac": 5715,
      "Ġzprou": 5716,
      "Ġvsmrt": 5717,
      "ĠtrÃ³": 5718,
      "Ġstuj": 5719,
      "Ġzhru": 5720,
      "ĠnÄĽjÅ¾": 5721,
      "Ġrre": 5722,
      "ĠÄįÃ¡l": 5723,
      "Ġph": 5724,
      "ĠcÅ¾e": 5725,
      "Ġstam": 5726,
      "ĠplÃ½ch": 5727,
      "ĠÄįich": 5728,
      "ĠhlaÄı": 5729,
      "Ã³r": 5730,
      "Ġzjich": 5731,
      "ĠvÃŃch": 5732,
      "Ġdik": 5733,
      "ĠvsÃ¡z": 5734,
      "Ġvdar": 5735,
      "Ġdrozd": 5736,
      "AC": 5737,
      "Ġvyn": 5738,
      "Ġktre": 5739,
      "ĠroÅ¾": 5740,
      "ĠvzÅĪal": 5741,
      "Ġstot": 5742,
      "Ġksu": 5743,
      "ĠslÃŃp": 5744,
      "Ġzlet": 5745,
      "Ġxal": 5746,
      "Ġlnou": 5747,
      "Ġsplo": 5748,
      "ĠbÃ½k": 5749,
      "Ġkpou": 5750,
      "ĠstÃ½l": 5751,
      "ĠzpÃŃs": 5752,
      "AXXX": 5753,
      "ABAABX": 5754,
      "Ġhust": 5755,
      "ĠvbrÃ¡": 5756,
      "ĠshÅĻÃŃ": 5757,
      "Ġvjes": 5758,
      "Ġcul": 5759,
      "Ġmrk": 5760,
      "ĠÅ¾by": 5761,
      "rob": 5762,
      "Ġkdvo": 5763,
      "Ġsav": 5764,
      "Ġchuj": 5765,
      "ĠchyÅ¥": 5766,
      "Ġznoj": 5767,
      "ĠtrÅ¯v": 5768,
      "Ġzchy": 5769,
      "Ġlv": 5770,
      "ĠÅĻÃŃn": 5771,
      "ĠstÃŃÅ¾": 5772,
      "Ġznou": 5773,
      "Ġzhled": 5774,
      "ĠslÃ¡n": 5775,
      "ĠknÃŃm": 5776,
      "ĠbÅ¯j": 5777,
      "ĠhnÃŃ": 5778,
      "ĠliÅ¥": 5779,
      "Ġzdou": 5780,
      "Ġzdor": 5781,
      "Ġvmno": 5782,
      "ĠslÃŃch": 5783,
      "ĠvÄįlo": 5784,
      "ĠnnÄĽj": 5785,
      "aN": 5786,
      "Ġstep": 5787,
      "ĠNaN": 5788,
      "Ġkzd": 5789,
      "ĠzvÃŃÅ¡": 5790,
      "Ġbrouk": 5791,
      "Ġprys": 5792,
      "Ġsnub": 5793,
      "Ġvzpru": 5794,
      "ĠvniÅ¾": 5795,
      "ĠzÅ¯v": 5796,
      "Ġmast": 5797,
      "Ġsre": 5798,
      "ĠrÅ¾": 5799,
      "Ġjiv": 5800,
      "Ġsmol": 5801,
      "ĠsvÃ¡l": 5802,
      "ĠzyÄį": 5803,
      "ĠvpÅ¯t": 5804,
      "lÅ¯": 5805,
      "ĠsÅ¾ÃŃ": 5806,
      "Ġnuj": 5807,
      "ĠÅ¡ept": 5808,
      "Ġvples": 5809,
      "ĠzluÄį": 5810,
      "ĠÅ¾da": 5811,
      "Ġvpal": 5812,
      "AAXXXX": 5813,
      "ĠÅĪat": 5814,
      "Ġxu": 5815,
      "Ġkoh": 5816,
      "Ġvstru": 5817,
      "Ġshrou": 5818,
      "Ġskost": 5819,
      "ĠÅ¡tu": 5820,
      "Ġspik": 5821,
      "ĠsfÃ©r": 5822,
      "Ġtnou": 5823,
      "ĠpÅĻer": 5824,
      "Ġvbra": 5825,
      "ĠjÅ¯v": 5826,
      "Ġzcu": 5827,
      "ĠstrÅ¾": 5828,
      "Ġkbe": 5829,
      "ĠstÅĻih": 5830,
      "ĠvpÄĽk": 5831,
      "ĠpsÃŃk": 5832,
      "Ġtron": 5833,
      "ĠkÅĻÃ¡l": 5834,
      "Ġzvrh": 5835,
      "ĠÅ¡ÅĪÅ¯": 5836,
      "Ġjir": 5837,
      "ĠlÃŃh": 5838,
      "Ġdvy": 5839,
      "ĠztÃ½": 5840,
      "mur": 5841,
      "Ġnai": 5842,
      "ĠroÅĪ": 5843,
      "ĠsloÅ¾": 5844,
      "Ġtknou": 5845,
      "ĠsÃºc": 5846,
      "ĠsoÅĪ": 5847,
      "Ġsouz": 5848,
      "ĠkÅĻiÄį": 5849,
      "ĠdÅĻec": 5850,
      "ĠplÃ©m": 5851,
      "ĠspleÅ¥": 5852,
      "Ġkin": 5853,
      "Ġcil": 5854,
      "ABAXXB": 5855,
      "ĠÄįec": 5856,
      "Ġlus": 5857,
      "Ġfem": 5858,
      "Ġboum": 5859,
      "ĠchÃ¡s": 5860,
      "ĠmlÅ¾": 5861,
      "ĠkÃ½ms": 5862,
      "ĠÅ¡tkÃ¡": 5863,
      "ĠslÃ©t": 5864,
      "ĠkrÃ½t": 5865,
      "Ġskvrn": 5866,
      "ĠtcÅ¯": 5867,
      "ĠsiÅ¥": 5868,
      "ĠlÃ¡l": 5869,
      "ĠfÄĽ": 5870,
      "Ġkvar": 5871,
      "Ġvlep": 5872,
      "ĠspÃŃm": 5873,
      "Ġskyt": 5874,
      "ĠbÅĻich": 5875,
      "Ġvblan": 5876,
      "ĠvÅĪÃ¡": 5877,
      "Ġzty": 5878,
      "Ġznec": 5879,
      "Ġlymp": 5880,
      "Ġthic": 5881,
      "ĠÄįly": 5882,
      "ĠzkvÃŃ": 5883,
      "ĠhÅ¯d": 5884,
      "ĠfÃŃr": 5885,
      "ĠpÃ©m": 5886,
      "Ġchvi": 5887,
      "Ġchvost": 5888,
      "ĠmiÅ¡": 5889,
      "ĠstvÅ¯r": 5890,
      "Ġksla": 5891,
      "ĠzÃ½ch": 5892,
      "Ġzab": 5893,
      "ĠkuÅĪ": 5894,
      "ĠkÃ¡l": 5895,
      "ĠkÅĻeÄį": 5896,
      "Ġvvz": 5897,
      "ĠÅĻkouc": 5898,
      "ĠÄįr": 5899,
      "ĠlÃ©n": 5900,
      "ĠziÅ¡": 5901,
      "ĠÅ¾an": 5902,
      "Ġfes": 5903,
      "ĠvÅĻeÅ¥": 5904,
      "ĠsviÅ¥": 5905,
      "ĠssvÄĽ": 5906,
      "ĠvdeÅ¡": 5907,
      "Ġcis": 5908,
      "ĠstiÅ¾": 5909,
      "ĠgÅ¯": 5910,
      "Ġvstej": 5911,
      "ĠkÅ¡i": 5912,
      "ĠvtvÅ¯j": 5913,
      "ĠÅ¡ma": 5914,
      "ĠdlÃ¡Å¾": 5915,
      "ĠÅĻÃŃct": 5916,
      "ĠlhÃ¡ÅĻ": 5917,
      "Ġzvlast": 5918,
      "Ġzg": 5919,
      "ĠvpÅĻÃ¡": 5920,
      "Ġmoun": 5921,
      "Ġbun": 5922,
      "Ġvlaj": 5923,
      "Ġzblu": 5924,
      "ĠchrÃ¡n": 5925,
      "Ġvkost": 5926,
      "Ġbom": 5927,
      "Ġksi": 5928,
      "ĠÅ¡tka": 5929,
      "ĠchyÅĪ": 5930,
      "ĠvleÄį": 5931,
      "Ġnven": 5932,
      "Ġzbr": 5933,
      "voz": 5934,
      "ĠkbÃŃ": 5935,
      "Ġfrak": 5936,
      "ĠsdÃŃv": 5937,
      "Ġjla": 5938,
      "ĠvdÃ½": 5939,
      "ĠplÃ½m": 5940,
      "Ġkroj": 5941,
      "ĠknÄĽh": 5942,
      "ĠÅ¡an": 5943,
      "Ġgun": 5944,
      "24": 5945,
      "Ġvjem": 5946,
      "Ġpluj": 5947,
      "Ġvrum": 5948,
      "Ġvdav": 5949,
      "ĠdÅ¡ti": 5950,
      "Ġvvoj": 5951,
      "Ġrhy": 5952,
      "Å¡em": 5953,
      "Ġveh": 5954,
      "Ġzke": 5955,
      "ĠzÃ½s": 5956,
      "Ġzboj": 5957,
      "Ġvjis": 5958,
      "ĠmoÅĪ": 5959,
      "Ġvtvo": 5960,
      "Ġeo": 5961,
      "Ġsles": 5962,
      "ĠzhÅĻe": 5963,
      "ĠblÃŃÄį": 5964,
      "Ġspar": 5965,
      "ĠstÅĻÃŃk": 5966,
      "Ġzlen": 5967,
      "Ġbrub": 5968,
      "ĠsplÃ¡ch": 5969,
      "ĠmlÃŃ": 5970,
      "Ġkun": 5971,
      "ĠvÅ¡ad": 5972,
      "ĠboÅ¡": 5973,
      "ĠsbÃ¡z": 5974,
      "ĠvhluÄį": 5975,
      "ĠvtÃŃs": 5976,
      "Ġjhem": 5977,
      "ĠrÃº": 5978,
      "ĠÅĻech": 5979,
      "Ġhouc": 5980,
      "Ġhrub": 5981,
      "ĠÅ¾ov": 5982,
      "ĠchÅĻest": 5983,
      "ĠstÅĻil": 5984,
      "XAAXXX": 5985,
      "ĠhÃ¡k": 5986,
      "ĠvÅ¯v": 5987,
      "Ġplec": 5988,
      "ĠkneÅ¡": 5989,
      "ĠlÃ©zt": 5990,
      "Ġvrak": 5991,
      "Ġges": 5992,
      "Ġvryt": 5993,
      "Ġprov": 5994,
      "Ġprk": 5995,
      "Ġkuds": 5996,
      "ĠbrouÄį": 5997,
      "ĠstÃ¡Å¡": 5998,
      "Ġlouk": 5999,
      "ĠvzÃ¡ÅĻ": 6000,
      "Ġumr": 6001,
      "ĠsnÃ©st": 6002,
      "ĠschrÃ¡n": 6003,
      "ĠvÅĻÃ¡": 6004,
      "Ġlne": 6005,
      "Ġvsvi": 6006,
      "Ġhoust": 6007,
      "Ġzot": 6008,
      "ĠanÅ¥": 6009,
      "Ġbrys": 6010,
      "Ġvzim": 6011,
      "ĠvtÅ¯ÅĪ": 6012,
      "Ġvbrz": 6013,
      "ber": 6014,
      "Ġvyt": 6015,
      "ĠtakÅ¾": 6016,
      "ĠmÃŃÄį": 6017,
      "ĠkÅ¯r": 6018,
      "Ġgh": 6019,
      "ĠvkÅĻÃŃ": 6020,
      "Ġtlak": 6021,
      "ĠtloÅĪ": 6022,
      "ĠknÃ½ch": 6023,
      "ĠvssÃ¡": 6024,
      "ĠslÃ½m": 6025,
      "ĠpÅĻÃŃj": 6026,
      "ĠschvÄĽ": 6027,
      "ĠÅ¡plou": 6028,
      "Ġnvi": 6029,
      "Ġlaur": 6030,
      "ĠsvÄĽÅ¥": 6031,
      "Ġvdou": 6032,
      "ĠsvÃŃc": 6033,
      "ĠkbrÃ¡": 6034,
      "ĠsvraÅ¡": 6035,
      "ĠdÃŃn": 6036,
      "Ġsmil": 6037,
      "Ġzdat": 6038,
      "ĠvÅ¡im": 6039,
      "Ġspis": 6040,
      "ĠpliÄį": 6041,
      "Ġstec": 6042,
      "Ġmont": 6043,
      "Ġdbal": 6044,
      "ĠvspÃŃ": 6045,
      "ĠhnÃŃzd": 6046,
      "ĠzdÅ¯": 6047,
      "Ġhyn": 6048,
      "Ġzkni": 6049,
      "ĠÄįti": 6050,
      "Ġmul": 6051,
      "ĠvÃ½r": 6052,
      "Ġdran": 6053,
      "ĠchtÄĽj": 6054,
      "Ġkvel": 6055,
      "ĠvlÃŃÄį": 6056,
      "ĠkÅĻti": 6057,
      "ABBAA": 6058,
      "Ġrit": 6059,
      "Ġvkry": 6060,
      "Ġcro": 6061,
      "ĠÅĻiÄı": 6062,
      "Ġsprost": 6063,
      "ĠÅ¡ÃŃÄį": 6064,
      "Ġsoh": 6065,
      "Ġdvad": 6066,
      "Ġzky": 6067,
      "ĠÅ¡pl": 6068,
      "Ġcan": 6069,
      "ĠmniÅ¡": 6070,
      "Ġvsr": 6071,
      "Ġhen": 6072,
      "Ġznes": 6073,
      "Ġknouc": 6074,
      "Ġvpur": 6075,
      "ĠhÃºt": 6076,
      "Ġkdi": 6077,
      "ĠdlÅ¯m": 6078,
      "Ġvhmo": 6079,
      "Ġzhnu": 6080,
      "Ġvled": 6081,
      "Ġsfe": 6082,
      "ĠvzmÃ¡": 6083,
      "Ã¡d": 6084,
      "ĠrÃ¡c": 6085,
      "Ġstret": 6086,
      "Ġvdnech": 6087,
      "Ġslez": 6088,
      "Ġzkor": 6089,
      "ĠvÅĻesk": 6090,
      "Ġdlid": 6091,
      "ĠsdrÃ¡": 6092,
      "Ġvbol": 6093,
      "ĠdÅĻel": 6094,
      "Ġovz": 6095,
      "ĠnnosÅ¥": 6096,
      "ĠvspÄĽch": 6097,
      "ĠvoÅ¡": 6098,
      "ĠÅ¾ÃŃÅ¥": 6099,
      "Ġvdne": 6100,
      "Ġslon": 6101,
      "ĠvmÅ¾ik": 6102,
      "Ġkub": 6103,
      "Ġstich": 6104,
      "Ġraf": 6105,
      "Ġpsu": 6106,
      "ĠzÃ½c": 6107,
      "ĠdÃ³m": 6108,
      "ĠmÄĽs": 6109,
      "Ġdls": 6110,
      "Ġsvan": 6111,
      "ĠkpÃŃs": 6112,
      "Ġkzp": 6113,
      "ĠknÃ½m": 6114,
      "ĠdvÃŃÅĻ": 6115,
      "ĠvskrÃ¡ÅĪ": 6116,
      "ĠkÅ¡e": 6117,
      "ĠÅ¾est": 6118,
      "ĠÅ¡iv": 6119,
      "Ġkvl": 6120,
      "Ġzver": 6121,
      "Ġsry": 6122,
      "ĠzÅ¾en": 6123,
      "ĠrÅ¾e": 6124,
      "ĠdÃ½s": 6125,
      "Ġrouch": 6126,
      "Ġskrou": 6127,
      "ĠÅ¡lÃŃm": 6128,
      "Ġtce": 6129,
      "ĠbÅĻad": 6130,
      "ĠstlÃŃ": 6131,
      "Ġtval": 6132,
      "ĠstÅĻeh": 6133,
      "Ġgot": 6134,
      "Ġpliv": 6135,
      "dÄĽÄį": 6136,
      "Ġvvy": 6137,
      "Ġlap": 6138,
      "ĠnÃ¡r": 6139,
      "Ġkvz": 6140,
      "Ġztad": 6141,
      "ĠÅ¾alm": 6142,
      "Ġvhoj": 6143,
      "ĠplÃ©st": 6144,
      "ĠskÅĻip": 6145,
      "ĠzhoÅĻ": 6146,
      "Ġwi": 6147,
      "Ġrhyt": 6148,
      "ĠzÃŃtÅĻ": 6149,
      "Ġzmen": 6150,
      "Ġstvr": 6151,
      "ĠhÅĻej": 6152,
      "im": 6153,
      "krÃ¡": 6154,
      "Ġlab": 6155,
      "ĠvÅ¾ha": 6156,
      "ĠtlÅ¯": 6157,
      "ĠdnÃŃch": 6158,
      "ĠtskÃ©": 6159,
      "ÅĻil": 6160,
      "Ġvbur": 6161,
      "AAABBX": 6162,
      "rÃ½m": 6163,
      "liÅ¾": 6164,
      "Ġsmar": 6165,
      "Ġvdrob": 6166,
      "Ġgem": 6167,
      "Ġzvoj": 6168,
      "Ġzhyz": 6169,
      "Ġsvle": 6170,
      "Ġhuj": 6171,
      "ĠhluÅ¡": 6172,
      "Ġktu": 6173,
      "ĠplyÅĪ": 6174,
      "Ġtric": 6175,
      "ĠkdÃ¡": 6176,
      "Ġvtra": 6177,
      "ĠvstÃ¡t": 6178,
      "Ġksl": 6179,
      "ABBAAB": 6180,
      "Ġstlin": 6181,
      "Ġkhu": 6182,
      "ĠclÃ¡": 6183,
      "Ġzvec": 6184,
      "Ġzbuj": 6185,
      "ĠkstÃ¡": 6186,
      "ĠcÃ¡t": 6187,
      "ABCC": 6188,
      "Ġski": 6189,
      "ĠtvÃ¡ch": 6190,
      "ĠksvÃ¡t": 6191,
      "Ġfis": 6192,
      "ĠvplÃ¡Å¡": 6193,
      "ĠmÃ³d": 6194,
      "ABCCAB": 6195,
      "Ġdeh": 6196,
      "ĠÄįÃŃs": 6197,
      "ĠlÃŃr": 6198,
      "Ġpodv": 6199,
      "Ġpsot": 6200,
      "nÅ¯": 6201,
      "Ġust": 6202,
      "ĠvÃ¡Äį": 6203,
      "ĠdÃ½n": 6204,
      "Ġvsti": 6205,
      "ĠkzlÃ©": 6206,
      "Ġbrus": 6207,
      "Ġzprv": 6208,
      "ĠzluÅ¡": 6209,
      "ĠsÅ¡u": 6210,
      "Ġvkan": 6211,
      "Ġtruj": 6212,
      "Ġbrun": 6213,
      "ĠjiÅ¥": 6214,
      "Ġskor": 6215,
      "ĠsnÄĽÅ¥": 6216,
      "ĠstÅĻÃŃd": 6217,
      "ĠnauÄį": 6218,
      "ld": 6219,
      "ĠsnÃ¡z": 6220,
      "Ġrakt": 6221,
      "Ġsvej": 6222,
      "Ġzrus": 6223,
      "Ġkloud": 6224,
      "ĠkÅ¡p": 6225,
      "ĠzlÅ¯Å¾": 6226,
      "ĠcÃŃp": 6227,
      "ĠlÃŃs": 6228,
      "Ġsper": 6229,
      "ĠreÅ¾": 6230,
      "ĠbÃ¡r": 6231,
      "ĠchrlÃŃ": 6232,
      "Ġchmel": 6233,
      "ĠpÅĻÃŃÄį": 6234,
      "ĠvÅ¾lu": 6235,
      "Ġzran": 6236,
      "ĠzmÄĽst": 6237,
      "ĠÄįtla": 6238,
      "Ġchrap": 6239,
      "ĠÅ¾nÃŃch": 6240,
      "Ġvzno": 6241,
      "Ġvzpur": 6242,
      "ĠvÅ¯l": 6243,
      "ĠvzdÃ½": 6244,
      "ym": 6245,
      "ĠtnÃ¡": 6246,
      "Ġjom": 6247,
      "Ġrry": 6248,
      "Ġryn": 6249,
      "Ġzpru": 6250,
      "Ġstuh": 6251,
      "ĠhouÄį": 6252,
      "Ġvzrost": 6253,
      "Ġfred": 6254,
      "Ġzvni": 6255,
      "ĠtÅĻo": 6256,
      "Ġthen": 6257,
      "ĠvÄįt": 6258,
      "Ġstka": 6259,
      "ĠdnÅ¯v": 6260,
      "ĠsÅ¡i": 6261,
      "ĠÅ¡let": 6262,
      "Ġsfor": 6263,
      "Ġvf": 6264,
      "ĠjÃ¡n": 6265,
      "ĠÄįÃ¡k": 6266,
      "Ġxa": 6267,
      "Ġscvr": 6268,
      "ĠÄįlÃ¡n": 6269,
      "Ġler": 6270,
      "ĠvloÄı": 6271,
      "ĠchÅĻiÅ¡": 6272,
      "Ġkvoj": 6273,
      "ĠfrÃ½d": 6274,
      "ĠÅ¡ÃŃn": 6275,
      "ĠvplÃ©": 6276,
      "Ġzon": 6277,
      "Ġslin": 6278,
      "ĠtÅĻÃŃÅ¡Å¥": 6279,
      "Ġktem": 6280,
      "ĠmlÃ¡Äı": 6281,
      "Ġtret": 6282,
      "ĠprsÅ¥": 6283,
      "ĠÅĻic": 6284,
      "ĠreÅ¡": 6285,
      "Ġzysk": 6286,
      "Ġstruk": 6287,
      "Ġmhy": 6288,
      "ĠsaÄı": 6289,
      "Ġgla": 6290,
      "ĠchmÃ½": 6291,
      "ĠvÅ¾Ã¡d": 6292,
      "Ġlnu": 6293,
      "Ġvklen": 6294,
      "tÃ¡n": 6295,
      "ĠraÅ¥": 6296,
      "Ġvprud": 6297,
      "Ġbour": 6298,
      "Ġvlem": 6299,
      "ĠstvÃ½m": 6300,
      "Ġcent": 6301,
      "Ġvsloup": 6302,
      "Ġpnul": 6303,
      "ĠstÅĻet": 6304,
      "Ġzcest": 6305,
      "Ġkstup": 6306,
      "Ġhmot": 6307,
      "ĠkchvÃ¡": 6308,
      "ĠÄįiÅ¾": 6309,
      "ĠsvÃ©st": 6310,
      "Ġbrej": 6311,
      "Ġcom": 6312,
      "ĠchvÄĽv": 6313,
      "ĠÅ¡tval": 6314,
      "Ġchvy": 6315,
      "Ġstlal": 6316,
      "Ġvcy": 6317,
      "ĠvmraÄį": 6318,
      "ĠcvrÄį": 6319,
      "ĠbÅĻa": 6320,
      "ĠmÃ¡d": 6321,
      "Ġkbou": 6322,
      "Ġkjed": 6323,
      "ĠsjÃŃÅ¾": 6324,
      "kal": 6325,
      "Ġaet": 6326,
      "Ġspjal": 6327,
      "ĠsÃŃg": 6328,
      "Ġvdr": 6329,
      "Ġshled": 6330,
      "Ġul": 6331,
      "ĠÅ¡eÅĻ": 6332,
      "ĠlÃŃb": 6333,
      "Ġvsan": 6334,
      "Ġbrad": 6335,
      "Ġvkme": 6336,
      "Ġklin": 6337,
      "Ġkpla": 6338,
      "ĠÅ¡Å¥av": 6339,
      "ĠtkvÄĽl": 6340,
      "ĠzeÅ¡": 6341,
      "Ġlum": 6342,
      "ĠchÃ½n": 6343,
      "ĠznaÄį": 6344,
      "Ġkij": 6345,
      "Ġzdla": 6346,
      "Ġvlil": 6347,
      "ĠÅ¡prÃ½": 6348,
      "ĠvmuÅ¾": 6349,
      "tno": 6350,
      "ĠsÃŃl": 6351,
      "ĠÅ¡iÅ¥": 6352,
      "Ġvlad": 6353,
      "ĠdÃ½l": 6354,
      "Ġcuk": 6355,
      "ĠÄįtyr": 6356,
      "ĠvjÃŃÅ¾": 6357,
      "pa": 6358,
      "ĠnaÅ¡": 6359,
      "ĠstvÃ½ch": 6360,
      "ĠstrÃ¡z": 6361,
      "Ġkhan": 6362,
      "Ġkyj": 6363,
      "Ġstoun": 6364,
      "ĠdrÃ¡p": 6365,
      "ĠztiÅ¡": 6366,
      "ĠskvÃŃt": 6367,
      "ĠnÃº": 6368,
      "ÃŃm": 6369,
      "ĠzeÅ¥": 6370,
      "ĠstÅĻÃŃm": 6371,
      "ĠmdlÃŃ": 6372,
      "ĠÅ¡Ã¡n": 6373,
      "um": 6374,
      "Ġkain": 6375,
      "Ġsklem": 6376,
      "ĠÅ¡ÃŃÅ¥": 6377,
      "ĠkrÃ¡ch": 6378,
      "ĠprÃ¡l": 6379,
      "Ġvzdou": 6380,
      "ĠklÅ¯": 6381,
      "Ġvnov": 6382,
      "ĠÅ¡lost": 6383,
      "ĠsdÄĽc": 6384,
      "ĠbÃ³": 6385,
      "Ġchrou": 6386,
      "ĠskÅĻÃŃn": 6387,
      "ĠschÅ¯z": 6388,
      "ĠÅ¥oun": 6389,
      "ĠzÅĻi": 6390,
      "Ġpau": 6391,
      "Ġzdvou": 6392,
      "Ġslul": 6393,
      "Ġskni": 6394,
      "Ġchard": 6395,
      "ĠvnÃŃz": 6396,
      "Ġchrop": 6397,
      "ĠtviÄį": 6398,
      "ĠvsmÃŃch": 6399,
      "ĠÅ¡Å¯m": 6400,
      "Ġed": 6401,
      "Ġvzpa": 6402,
      "Ã¼": 6403,
      "ĠsvlÃ¡": 6404,
      "ĠmiÅ¥": 6405,
      "ĠmÅ¯v": 6406,
      "Ġmrl": 6407,
      "Ġschlu": 6408,
      "ABBAAX": 6409,
      "Ġtno": 6410,
      "ĠtÃ¡k": 6411,
      "ĠvÅ¾er": 6412,
      "ĠstrÅ¯j": 6413,
      "ĠÅ¡prÃ½m": 6414,
      "ĠhÅĪu": 6415,
      "Ġnac": 6416,
      "ĠjÃŃÅĻ": 6417,
      "ĠmoÅ¡": 6418,
      "ĠprÃ¡t": 6419,
      "Ġhls": 6420,
      "Ġmro": 6421,
      "Ġbum": 6422,
      "Ġbleh": 6423,
      "Ġzkum": 6424,
      "Ġmav": 6425,
      "ĠmaÅĻ": 6426,
      "Ġhab": 6427,
      "Ġrez": 6428,
      "ĠvmÅ¯j": 6429,
      "Ġkvran": 6430,
      "Ġvjezd": 6431,
      "Ġgois": 6432,
      "ĠzÅ¡ÃŃ": 6433,
      "ĠchÅĻtÃ¡n": 6434,
      "ĠlÃ½t": 6435,
      "rÃ¡d": 6436,
      "Ġvzu": 6437,
      "Ġstrak": 6438,
      "ĠÅ¡ust": 6439,
      "ĠdrÃ¡b": 6440,
      "Ġspit": 6441,
      "Ġlant": 6442,
      "ĠsdÄĽs": 6443,
      "Ġskru": 6444,
      "ĠdÃŃÄį": 6445,
      "Ġkrz": 6446,
      "Ġvhan": 6447,
      "ĠhrÅ¯Å¾": 6448,
      "ĠkvraÅ¾": 6449,
      "ĠpÅĻez": 6450,
      "Ġpys": 6451,
      "Ġvchat": 6452,
      "Ġkzlo": 6453,
      "Ġhlost": 6454,
      "ĠÅ¾ÃŃÅ¾": 6455,
      "Ġzdna": 6456,
      "Ġsas": 6457,
      "ĠlÃ©z": 6458,
      "Ġbrak": 6459,
      "Ġbrv": 6460,
      "ĠslÃ¡d": 6461,
      "Ġsrst": 6462,
      "ĠcÃ¡s": 6463,
      "ĠstÅĻÃ¡b": 6464,
      "ĠvbÃ¡s": 6465,
      "Ġlvy": 6466,
      "ĠrosÅ¥": 6467,
      "ĠhaÅ¡": 6468,
      "ĠkchrÃ¡": 6469,
      "ĠgroÅ¡": 6470,
      "ĠdÅ¡tÃŃ": 6471,
      "ĠÄįme": 6472,
      "Ġkach": 6473,
      "ĠkÃ¡v": 6474,
      "nÄĽÅ¾": 6475,
      "ĠtrÅ¾": 6476,
      "ĠgrÃ¡n": 6477,
      "Ġsim": 6478,
      "Ġsmno": 6479,
      "ĠÅĻid": 6480,
      "Ġcym": 6481,
      "ĠbrÃ¡Å¥": 6482,
      "Ġvzkve": 6483,
      "Ġtby": 6484,
      "ĠmnÃ¡": 6485,
      "Ġsain": 6486,
      "ĠsÃ¡d": 6487,
      "Ġztma": 6488,
      "Ġvjev": 6489,
      "Ġzlep": 6490,
      "Ġvrus": 6491,
      "Ġvsklo": 6492,
      "AAAXBB": 6493,
      "ĠÄıoun": 6494,
      "ĠÅ¡vy": 6495,
      "ĠnuÅ¥": 6496,
      "Ġdlec": 6497,
      "ĠmÄĽlÅ¥": 6498,
      "Ġsdiv": 6499,
      "ĠzÄįa": 6500,
      "ĠpaÅĪ": 6501,
      "Ġtrak": 6502,
      "Ġsliz": 6503,
      "ĠzveÅ¡": 6504,
      "ĠstrÃ¡m": 6505,
      "Ġvkre": 6506,
      "Ġskel": 6507,
      "ĠÅ¾hne": 6508,
      "ct": 6509,
      "Ã¡s": 6510,
      "ĠÅ¾ÄıÃ¡": 6511,
      "Ġnum": 6512,
      "Ġvir": 6513,
      "ĠbeÅ¾": 6514,
      "Ġvtre": 6515,
      "ĠkniÅ¾": 6516,
      "Ġvchla": 6517,
      "ĠvhoÅĻ": 6518,
      "Ġshod": 6519,
      "ĠvhÃ¡j": 6520,
      "Ġzpev": 6521,
      "ĠchlÃŃp": 6522,
      "ĠtskÃ½ch": 6523,
      "Ġskra": 6524,
      "ĠhlÃ¡v": 6525,
      "ĠkhnÄĽ": 6526,
      "ĠtnÃŃch": 6527,
      "Ġvmih": 6528,
      "Ġvluz": 6529,
      "Ġglic": 6530,
      "ĠdlÃ¡n": 6531,
      "ĠszÃ¡": 6532,
      "Ġvklou": 6533,
      "Ġctn": 6534,
      "ĠchlÃ©v": 6535,
      "ĠÅ¡paÄį": 6536,
      "ĠtnÃ½m": 6537,
      "ĠvspÃŃÅ¡": 6538,
      "ju": 6539,
      "ĠfÃ½": 6540,
      "ĠkÃ½n": 6541,
      "Ġkprav": 6542,
      "ĠkÅĻtu": 6543,
      "Ġtne": 6544,
      "Ġap": 6545,
      "Ġzvem": 6546,
      "Ġstrah": 6547,
      "ĠtÅĻÃŃt": 6548,
      "ĠsÃ½p": 6549,
      "Ġsjez": 6550,
      "ĠkdÃŃv": 6551,
      "ĠboÅĻ": 6552,
      "Ġdim": 6553,
      "ĠvdÃ©": 6554,
      "Ġbrlo": 6555,
      "ĠprÃ¡ch": 6556,
      "Ġragd": 6557,
      "ĠrvaÄį": 6558,
      "ĠzvnitÅĻ": 6559,
      "ĠsvÅ¯": 6560,
      "Ġsklou": 6561,
      "Ġsps": 6562,
      "Ġprz": 6563,
      "Ġtrech": 6564,
      "AABBAA": 6565,
      "ĠknÃ©m": 6566,
      "ĠblÃ½ch": 6567,
      "ĠhoÅĪ": 6568,
      "Ġkdve": 6569,
      "Ġsij": 6570,
      "Ġhuk": 6571,
      "AABBBX": 6572,
      "Ġksvo": 6573,
      "ĠspÃ¡s": 6574,
      "Ġmstou": 6575,
      "ĠstÅĻin": 6576,
      "Ġchvoj": 6577,
      "Ġhno": 6578,
      "ĠsÃŃk": 6579,
      "Ġzpil": 6580,
      "ĠstÅĻev": 6581,
      "ĠzmÃŃn": 6582,
      "ĠstkÃ¡": 6583,
      "Ġclon": 6584,
      "ĠstÅĻÃ¡s": 6585,
      "ĠzdÅĻe": 6586,
      "ĠkmÃ½m": 6587,
      "Ġrri": 6588,
      "Ġdys": 6589,
      "ĠvraÅ¡": 6590,
      "Ġzhrd": 6591,
      "ĠzhlÃ©": 6592,
      "ĠzvÃ¡Å¡": 6593,
      "ÅĻas": 6594,
      "ĠpaÅ¾": 6595,
      "Ġvzvu": 6596,
      "Ġvtvr": 6597,
      "Ġslok": 6598,
      "ĠkvÅ¡e": 6599,
      "ĠbroÅ¡": 6600,
      "ĠhnÄĽt": 6601,
      "ĠlhÅ¯": 6602,
      "ĠstlÃ½ch": 6603,
      "ĠrdÄĽl": 6604,
      "ĠcÃŃt": 6605,
      "ĠsmrÃ¡": 6606,
      "ĠzvÃ©": 6607,
      "ABBCC": 6608,
      "Ġhyl": 6609,
      "Ġzmdlo": 6610,
      "ĠzhlÃ©d": 6611,
      "Ġplej": 6612,
      "Ġprout": 6613,
      "Ġknes": 6614,
      "Ġktr": 6615,
      "Ġkslav": 6616,
      "ABBCCA": 6617,
      "si": 6618,
      "Ġbvo": 6619,
      "ĠÄįku": 6620,
      "ĠprÃ½ch": 6621,
      "ĠpÅĻÃŃst": 6622,
      "Ġhoup": 6623,
      "Ġspoj": 6624,
      "Ġvhnu": 6625,
      "ĠfÃ¡d": 6626,
      "ĠkÅĻivd": 6627,
      "ĠzdÃŃch": 6628,
      "Ġvstes": 6629,
      "ĠvepÅĻ": 6630,
      "ĠvkvÃŃ": 6631,
      "Ġbrz": 6632,
      "ĠtvÃ¡n": 6633,
      "Ġsrou": 6634,
      "ĠvÄįlu": 6635,
      "ĠsÅ¡el": 6636,
      "Ġkko": 6637,
      "lÃ¡d": 6638,
      "ĠbaÅ¥": 6639,
      "Ġzpar": 6640,
      "ĠstrÄį": 6641,
      "ĠdrosÅ¥": 6642,
      "ĠchtÄĽls": 6643,
      "ĠÄıÃ¡l": 6644,
      "ĠlhÃ¡t": 6645,
      "ĠzkrÄį": 6646,
      "Ġvmrak": 6647,
      "Ġfric": 6648,
      "Ġvshni": 6649,
      "Ġchma": 6650,
      "ĠftÃŃ": 6651,
      "Ġvdom": 6652,
      "Ġvhrou": 6653,
      "Ġkple": 6654,
      "ĠÄįul": 6655,
      "Ġvtri": 6656,
      "ĠsÄįlo": 6657,
      "ĠÅ¾blun": 6658,
      "ĠkÄįlo": 6659,
      "Ġieu": 6660,
      "Ġlaj": 6661,
      "ĠtÃ¡t": 6662,
      "ĠbÃ¡Äį": 6663,
      "Ġvret": 6664,
      "Ġkryv": 6665,
      "ĠbÅĻÃŃk": 6666,
      "Ġvplod": 6667,
      "ĠhyÅĪ": 6668,
      "Ġzhrou": 6669,
      "Ġshe": 6670,
      "Ġkbu": 6671,
      "ĠkbliÅ¾": 6672,
      "ĠkoÅĻ": 6673,
      "Ġkdce": 6674,
      "Ġtaks": 6675,
      "ĠtÃ©l": 6676,
      "Ġvdvo": 6677,
      "Ġzmou": 6678,
      "ĠdnÅ¯m": 6679,
      "Ġdvard": 6680,
      "Ġfaust": 6681,
      "ĠkuÄı": 6682,
      "Ġslam": 6683,
      "ĠstÄĽch": 6684,
      "ĠstÅĻez": 6685,
      "Ġklost": 6686,
      "Ġpravd": 6687,
      "ĠtÅĻem": 6688,
      "ĠsmuÅ¾": 6689,
      "Ġscu": 6690,
      "Ġtme": 6691,
      "Äıa": 6692,
      "Ġsbur": 6693,
      "Ġkstra": 6694,
      "ĠÅ¯m": 6695,
      "ĠkÅĪu": 6696,
      "Ġsthe": 6697,
      "Ġbam": 6698,
      "ĠfÃ¡l": 6699,
      "Ġstrp": 6700,
      "ĠplÃ¡st": 6701,
      "Ġkrod": 6702,
      "ĠbÅ¯v": 6703,
      "Ġsmet": 6704,
      "Ġnr": 6705,
      "Ġcot": 6706,
      "ĠtkÃ¡t": 6707,
      "Ġzjem": 6708,
      "ĠchÅĻtÃ¡": 6709,
      "ĠbraÄį": 6710,
      "Ġtrut": 6711,
      "Ġzkus": 6712,
      "Ġchlup": 6713,
      "ĠsÅ¥a": 6714,
      "Ġsom": 6715,
      "Ġstoh": 6716,
      "Ġvhvoz": 6717,
      "ĠchvÃŃt": 6718,
      "zv": 6719,
      "ĠÅ¾iÅ¡": 6720,
      "ĠbÅĻez": 6721,
      "ĠÅ¥li": 6722,
      "Ġsbla": 6723,
      "Ġpse": 6724,
      "ĠdlÃ¡Å¡": 6725,
      "ĠzruÄį": 6726,
      "Ġchlost": 6727,
      "Ġjuj": 6728,
      "ĠzouÄį": 6729,
      "Ġpsan": 6730,
      "Ġcam": 6731,
      "ĠvlÃŃt": 6732,
      "ĠssvÃ½m": 6733,
      "Ġchri": 6734,
      "Ġmnul": 6735,
      "Ġjech": 6736,
      "ĠÅ¡te": 6737,
      "Ġnij": 6738,
      "Ġrop": 6739,
      "Ġbeh": 6740,
      "ĠÅ¡iÅ¡": 6741,
      "Ġvlach": 6742,
      "ĠÃŃm": 6743,
      "ĠpskÃ½": 6744,
      "Ġdag": 6745,
      "Ġpral": 6746,
      "ĠlouÅ¡": 6747,
      "Ġvrov": 6748,
      "Ġkba": 6749,
      "ĠstraÅ¾": 6750,
      "ĠhrsÅ¥": 6751,
      "ĠÅ¡krÃ¡": 6752,
      "Ġllis": 6753,
      "Ġklouz": 6754,
      "ĠzbÃŃd": 6755,
      "Ġpstr": 6756,
      "Ġsoust": 6757,
      "ĠÅĻÃ¡p": 6758,
      "Ġdved": 6759,
      "Ġharf": 6760,
      "ĠÅ¾old": 6761,
      "ĠllÃ¡": 6762,
      "ĠÅ¡rÃ¡": 6763,
      "Ġprop": 6764,
      "Ġsyr": 6765,
      "Ġstur": 6766,
      "Ġvraj": 6767,
      "Ġksn": 6768,
      "ĠÅ¡kor": 6769,
      "Ġvchi": 6770,
      "Ġchlil": 6771,
      "Ġdolf": 6772,
      "ĠpÅ¡en": 6773,
      "XXAXXA": 6774,
      "Ġtuc": 6775,
      "ĠdrÃ¡n": 6776,
      "ĠvlÃŃp": 6777,
      "Ġvliv": 6778,
      "Ġbve": 6779,
      "ĠseÅ¥": 6780,
      "Ġrup": 6781,
      "ĠÄįaj": 6782,
      "AABBAX": 6783,
      "Ġkzou": 6784,
      "ĠvmÃŃr": 6785,
      "ĠbdÃŃm": 6786,
      "Ġnrich": 6787,
      "ĠmÅ¡e": 6788,
      "ĠvoÅĪ": 6789,
      "ĠvzmÄĽ": 6790,
      "ĠÅ¥Å¯": 6791,
      "ĠsvÃ¡Å¾": 6792,
      "Ġrant": 6793,
      "Ġsfa": 6794,
      "Ġvhnus": 6795,
      "ÅĻb": 6796,
      "ĠoÅĪ": 6797,
      "Ġmum": 6798,
      "ĠzÃŃd": 6799,
      "Ġplaz": 6800,
      "Ġzbil": 6801,
      "Ġzost": 6802,
      "Ġzklu": 6803,
      "ĠpsÅ¯m": 6804,
      "Ġvtisk": 6805,
      "Ġssrd": 6806,
      "ĠkÅĻil": 6807,
      "ĠzbuÄı": 6808,
      "ĠvsnÄĽm": 6809,
      "ĠloÅ¥": 6810,
      "ĠlÃŃz": 6811,
      "ĠkÃ½ÅĻ": 6812,
      "ĠsblÃŃ": 6813,
      "Ġschod": 6814,
      "Ġsfou": 6815,
      "ĠstlÃ¡t": 6816,
      "it": 6817,
      "Ġlaz": 6818,
      "Ġklop": 6819,
      "Ġtant": 6820,
      "ĠÅ¡to": 6821,
      "ĠsvlaÄį": 6822,
      "Ġfaun": 6823,
      "ĠzÅ¡tÄĽ": 6824,
      "ĠzaÅ¥": 6825,
      "Ġvoch": 6826,
      "ĠmÃŃl": 6827,
      "Ġfec": 6828,
      "Ġtkne": 6829,
      "ĠvhÅĻÃŃch": 6830,
      "ĠvaÅĪ": 6831,
      "ĠboÄį": 6832,
      "ĠbuÅ¡": 6833,
      "Ġvsny": 6834,
      "ĠpÄĽÅ¥": 6835,
      "ĠprÃ¡m": 6836,
      "ĠstÅĻep": 6837,
      "Ġnils": 6838,
      "ĠstÅĻÃŃÅ¾": 6839,
      "ĠbdÃŃt": 6840,
      "ĠlstnÃ½": 6841,
      "ĠzjÃŃ": 6842,
      "25": 6843,
      "Ġvrz": 6844,
      "ĠslÃŃk": 6845,
      "Ġstliv": 6846,
      "Ġllan": 6847,
      "Ġvjih": 6848,
      "Ġzcho": 6849,
      "Ġzples": 6850,
      "ĠsvÅ¡": 6851,
      "XAXX": 6852,
      "Ġpik": 6853,
      "Ġstve": 6854,
      "ĠvÅĻev": 6855,
      "Ġsdlou": 6856,
      "Ġfir": 6857,
      "ĠsnÃ¡ÅĻ": 6858,
      "Ġvny": 6859,
      "Ġvpru": 6860,
      "ĠzÃŃc": 6861,
      "Ġgru": 6862,
      "Ġsvol": 6863,
      "Ġvkrev": 6864,
      "XXB": 6865,
      "Ġcop": 6866,
      "ĠpÅĻeh": 6867,
      "ĠbÃŃch": 6868,
      "Ġstost": 6869,
      "ĠpuÄı": 6870,
      "Ġzlat": 6871,
      "ĠkloÅĪ": 6872,
      "ĠcyÅ¥": 6873,
      "AABXXB": 6874,
      "ĠÅ¡tiv": 6875,
      "Ġxem": 6876,
      "Ġnlis": 6877,
      "cy": 6878,
      "Ġjry": 6879,
      "Ġrhe": 6880,
      "ĠÅ¡m": 6881,
      "ĠslÃº": 6882,
      "Ġruf": 6883,
      "ĠraÄı": 6884,
      "Ġznu": 6885,
      "ĠvÅ¾as": 6886,
      "Ġspon": 6887,
      "ĠrÃ½Äį": 6888,
      "Ġshou": 6889,
      "ĠtÅĻÃŃn": 6890,
      "Ġskri": 6891,
      "ĠthÅ¯": 6892,
      "Ġzdych": 6893,
      "ĠrÅ¾Ã¡": 6894,
      "Ġzac": 6895,
      "Ġdop": 6896,
      "Ġtaz": 6897,
      "Ġkoun": 6898,
      "Ġpyl": 6899,
      "ĠkmlÃ½": 6900,
      "Ġkti": 6901,
      "ĠÅ¡pej": 6902,
      "ĠstruÅ¾": 6903,
      "ĠvsnÄĽÅ¾": 6904,
      "ĠvpyÅ¡": 6905,
      "Ġsprou": 6906,
      "ĠvsÃ½": 6907,
      "Ġvzbro": 6908,
      "ĠÅ¡ot": 6909,
      "Ġcert": 6910,
      "Ġtoi": 6911,
      "Ġkouc": 6912,
      "Ġgle": 6913,
      "ĠzmrÃ¡": 6914,
      "ĠÅ¾Ã¡c": 6915,
      "ĠhÃ½l": 6916,
      "ĠschÅ¯d": 6917,
      "ĠÄıo": 6918,
      "ĠÅ¡pet": 6919,
      "Ġsda": 6920,
      "ĠkzpÄĽ": 6921,
      "Ġvga": 6922,
      "ÅĻem": 6923,
      "Ġprol": 6924,
      "ĠsvÄĽÄį": 6925,
      "ĠvhlÃŃ": 6926,
      "Ġvhym": 6927,
      "ĠkÃ©ms": 6928,
      "Ġznez": 6929,
      "CAC": 6930,
      "Ġdex": 6931,
      "Ġsplu": 6932,
      "Ġvpil": 6933,
      "ABBCAC": 6934,
      "Ġklis": 6935,
      "ĠzdÃ¡n": 6936,
      "Ġktak": 6937,
      "Ġkpod": 6938,
      "Ġlhou": 6939,
      "ĠvzÃ½t": 6940,
      "ĠvdÃŃv": 6941,
      "ĠkÅ¡tic": 6942,
      "Ġvklub": 6943,
      "Ġit": 6944,
      "Ġzps": 6945,
      "ĠÅ¥si": 6946,
      "Ġsprav": 6947,
      "Ġerb": 6948,
      "Ġzluk": 6949,
      "ll": 6950,
      "mÃ½": 6951,
      "Ã¡r": 6952,
      "Ġbut": 6953,
      "Ġklest": 6954,
      "ĠrÃ©v": 6955,
      "Ġztou": 6956,
      "Ġfen": 6957,
      "ĠkrÃ½v": 6958,
      "Ġfres": 6959,
      "ĠvbÅĻeh": 6960,
      "Ġllou": 6961,
      "Ġcal": 6962,
      "ĠseÄı": 6963,
      "ĠzdÅĻi": 6964,
      "Ġvplu": 6965,
      "Ġbim": 6966,
      "ĠvkrÅ¯": 6967,
      "Ġrich": 6968,
      "ĠÄįÃŃmÅ¾": 6969,
      "Ġsrost": 6970,
      "Ġchlit": 6971,
      "ĠchlÃ¡d": 6972,
      "Ġsaint": 6973,
      "ĠbÄĽr": 6974,
      "Ġctus": 6975,
      "Ġvlov": 6976,
      "po": 6977,
      "Ġkci": 6978,
      "ĠÅ¾ec": 6979,
      "Ġlot": 6980,
      "Ġchaj": 6981,
      "ĠÅ¡am": 6982,
      "ĠÅ¡Å¥ou": 6983,
      "ĠvboÅ¾": 6984,
      "ĠdÅĻek": 6985,
      "Ġent": 6986,
      "kÅĻ": 6987,
      "ĠtÃ¡r": 6988,
      "Ġvzdmu": 6989,
      "ĠvÄįest": 6990,
      "Ġvzho": 6991,
      "Ġstkvou": 6992,
      "ĠzÄįlu": 6993,
      "ĠvvÃ¡": 6994,
      "Ġdup": 6995,
      "Ġjse": 6996,
      "Ġstov": 6997,
      "Ġskop": 6998,
      "Ġzprz": 6999,
      "Ġnnes": 7000,
      "Ġsze": 7001,
      "Ġvhar": 7002,
      "Ġobzv": 7003,
      "ĠÅ¡tÄĽj": 7004,
      "ĠzmÄĽt": 7005,
      "Ġtref": 7006,
      "Ġfum": 7007,
      "Ġmlkl": 7008,
      "ĠÅ¡tÃ¡ÅĻ": 7009,
      "cho": 7010,
      "Ġrous": 7011,
      "Ġtlan": 7012,
      "ĠslÃŃt": 7013,
      "ĠÅ¡ach": 7014,
      "ĠsvÃ¡Å¡": 7015,
      "Ġssvou": 7016,
      "ĠkhÅĻÃŃ": 7017,
      "ĠdnÃ©ÅĻ": 7018,
      "AXXAXX": 7019,
      "Ġlvem": 7020,
      "Ġmlo": 7021,
      "ĠmÄĽÅĪ": 7022,
      "ĠbÄĽc": 7023,
      "ĠstÃ¡k": 7024,
      "ĠÅ¡kÅĻi": 7025,
      "ĠÅ¡pal": 7026,
      "ĠspÅĻeÅ¾": 7027,
      "ĠsnichÅ¾": 7028,
      "ĠjÃŃk": 7029,
      "Ġloj": 7030,
      "Ġvosk": 7031,
      "ĠdÃŃÅ¾": 7032,
      "ĠproÅ¡": 7033,
      "Ġvply": 7034,
      "ĠgÃ³": 7035,
      "ĠÅ¾Å¯v": 7036,
      "ĠkvoÄį": 7037,
      "ĠrtÃŃk": 7038,
      "ĠtÃŃt": 7039,
      "ĠmaÅ¥": 7040,
      "Ġtakt": 7041,
      "ĠsvÄĽn": 7042,
      "ĠÃºd": 7043,
      "AXBB": 7044,
      "ĠkzÃ¡m": 7045,
      "ĠzrÃ¡t": 7046,
      "ĠzÄįes": 7047,
      "Ġllin": 7048,
      "ĠsÄįet": 7049,
      "ĠhosÅ¥": 7050,
      "Ġlor": 7051,
      "ĠtÃ¡Äį": 7052,
      "Ġvbal": 7053,
      "ĠvbrÃ¡z": 7054,
      "ĠkskÃ¡": 7055,
      "ĠvÅ¡ik": 7056,
      "Ġnerv": 7057,
      "AABAB": 7058,
      "Ġkk": 7059,
      "Ġjli": 7060,
      "ĠpÅĻiÅĻ": 7061,
      "ĠrÃ½h": 7062,
      "ĠsÄįa": 7063,
      "hÅĻ": 7064,
      "Ġbva": 7065,
      "ĠcÃ³": 7066,
      "ĠrÃ³": 7067,
      "ĠnaÅ¾": 7068,
      "Ġloh": 7069,
      "ĠÅ¡eÄı": 7070,
      "ĠmÃŃÅĻ": 7071,
      "ĠzhÃ½": 7072,
      "ĠÅ¡liÄį": 7073,
      "Ġvpol": 7074,
      "Ġkpi": 7075,
      "Ġvdus": 7076,
      "ĠtluÄį": 7077,
      "Ġstils": 7078,
      "ĠvpÅĻÃŃz": 7079,
      "ĠchÃ³r": 7080,
      "Ġboz": 7081,
      "ĠÅĻÃŃj": 7082,
      "ĠzbrÃ¡": 7083,
      "Ġzliv": 7084,
      "ĠslÅ¯Å¾": 7085,
      "ĠÅ¡tÄĽrk": 7086,
      "za": 7087,
      "ĠÅ¾s": 7088,
      "Ġsost": 7089,
      "ĠpleÅ¡": 7090,
      "Ġrold": 7091,
      "Ġkcha": 7092,
      "nem": 7093,
      "ĠvÅ¡ep": 7094,
      "Ġlut": 7095,
      "ĠtrÃ½m": 7096,
      "ĠtraÅ¥": 7097,
      "ĠchvÃ¡l": 7098,
      "ĠsklÃ¡l": 7099,
      "ĠsvÅ¡ÃŃm": 7100,
      "tro": 7101,
      "ĠmkrÃ¡": 7102,
      "ĠzaÅ¾": 7103,
      "ĠvuÅ¡": 7104,
      "Ġkrs": 7105,
      "Ġvtvou": 7106,
      "ĠchvÃŃÅ¡": 7107,
      "ĠzdÃ¡Å¡": 7108,
      "Ġzvos": 7109,
      "Ġctnou": 7110,
      "ĠtluÅ¡": 7111,
      "ĠvpouÅ¥": 7112,
      "Ġjrad": 7113,
      "Ġsklid": 7114,
      "Ġthyr": 7115,
      "Ġvchvat": 7116,
      "ĠskÅĻoup": 7117,
      "Ġkyl": 7118,
      "Ġkda": 7119,
      "ĠÄįÃŃr": 7120,
      "Ġmann": 7121,
      "ĠvskÅĻÃŃ": 7122,
      "ĠskÅĻÃŃp": 7123,
      "Ġzchud": 7124,
      "ys": 7125,
      "Ġduk": 7126,
      "Ġodz": 7127,
      "ĠjÃ¡r": 7128,
      "ĠdrÅ¡": 7129,
      "Ġklik": 7130,
      "Ġstrost": 7131,
      "ĠstyÄı": 7132,
      "Ġtvat": 7133,
      "Ġtryz": 7134,
      "Ġtrej": 7135,
      "Ġkant": 7136,
      "ĠkÅ¾Ã¡d": 7137,
      "ĠpÅ¡tro": 7138,
      "Ġlza": 7139,
      "Ġoas": 7140,
      "Ġnix": 7141,
      "ĠmÃ¡r": 7142,
      "Ġmour": 7143,
      "Ġsslo": 7144,
      "Ġzrud": 7145,
      "Ġsjich": 7146,
      "Ġnand": 7147,
      "ĠbeÅĪ": 7148,
      "ĠbuÅ¾": 7149,
      "Ġhur": 7150,
      "Ġech": 7151,
      "ĠhÃ½n": 7152,
      "ĠpÅ¯v": 7153,
      "Ġzles": 7154,
      "ĠvnuÄį": 7155,
      "Ġlta": 7156,
      "ĠzÅĻa": 7157,
      "Ġnest": 7158,
      "ĠdÄĽr": 7159,
      "Ġich": 7160,
      "Ġdlas": 7161,
      "ĠvmlÃ½": 7162,
      "Ġdlet": 7163,
      "Ġant": 7164,
      "ĠzmÃŃr": 7165,
      "ĠÄįÅ¯v": 7166,
      "ĠzjÃ¡": 7167,
      "AAXBBB": 7168,
      "Ġltam": 7169,
      "ĠnÃŃÅĻ": 7170,
      "ĠvÅ¡ko": 7171,
      "Ġryv": 7172,
      "Ġvdum": 7173,
      "ĠssvÃ½": 7174,
      "ĠsÅ¥al": 7175,
      "ĠdmÃ½": 7176,
      "ĠÅ¾ils": 7177,
      "ĠmÃ¡mÅ¥": 7178,
      "ĠstÅĻÃŃÅ¡": 7179,
      "ĠtÅĻÃ¡st": 7180,
      "ĠterÄį": 7181,
      "ĠzhyÅĪ": 7182,
      "Ġsml": 7183,
      "ĠvtÅĻ": 7184,
      "ĠÅ¾Ã¡s": 7185,
      "ĠÄįÃŃms": 7186,
      "Ġjezd": 7187,
      "ĠdÃ³l": 7188,
      "Ġvheb": 7189,
      "Ġvam": 7190,
      "ĠmeÅ¾": 7191,
      "ĠvpÃ©": 7192,
      "Ġsur": 7193,
      "ĠzpÅĻÃ¡": 7194,
      "ĠzbrÃ¡z": 7195,
      "Ġvils": 7196,
      "ĠvlÃ¡n": 7197,
      "ĠzÅĻels": 7198,
      "Ġskles": 7199,
      "ĠvsÃŃch": 7200,
      "Ġzkout": 7201,
      "Ġvsoud": 7202,
      "Ġhnis": 7203,
      "ĠÅ¡vÃ©": 7204,
      "ĠceÅ¥": 7205,
      "ĠvzÅĻÃŃ": 7206,
      "ĠdyÅĪ": 7207,
      "Ġrah": 7208,
      "Ġzyn": 7209,
      "Ġhek": 7210,
      "ĠvchlÃŃ": 7211,
      "Ġchvou": 7212,
      "Ġsvez": 7213,
      "ĠvÅĻÃŃÅ¡": 7214,
      "ĠkÅ¡pej": 7215,
      "ĠvÅ¡eÅĻ": 7216,
      "ĠmÃ©r": 7217,
      "ĠglÃ³": 7218,
      "Ġchym": 7219,
      "Ġziv": 7220,
      "Ġskan": 7221,
      "Ġfix": 7222,
      "Ġkhr": 7223,
      "ĠÅĻov": 7224,
      "Ġgry": 7225,
      "ĠsbÄĽÅĻ": 7226,
      "Ġdcem": 7227,
      "ĠvvÃ½Å¡": 7228,
      "ĠkpÅ¯l": 7229,
      "Ġjl": 7230,
      "ĠplaÅĪ": 7231,
      "Ġvkmi": 7232,
      "ĠdrÃ¡Äį": 7233,
      "Ġzkap": 7234,
      "ĠlÃŃmp": 7235,
      "ic": 7236,
      "ĠÅ¡lem": 7237,
      "Ġroch": 7238,
      "Ġboch": 7239,
      "ĠsmÅ¯": 7240,
      "ĠpÅĻiv": 7241,
      "Ġzpta": 7242,
      "Ġzuz": 7243,
      "ĠshÅĻe": 7244,
      "Ġfic": 7245,
      "ĠvsÃŃÅ¥": 7246,
      "ĠÅ¾hÃ¡": 7247,
      "ĠzhvÄĽzd": 7248,
      "zdy": 7249,
      "ĠsÄįi": 7250,
      "Ġcp": 7251,
      "ĠvÅ¡Å¥": 7252,
      "luz": 7253,
      "ĠÅĪuj": 7254,
      "Ġspur": 7255,
      "Ġsfinx": 7256,
      "Ã©st": 7257,
      "Ġlisk": 7258,
      "Ġdad": 7259,
      "ĠÅĻeÅ¾": 7260,
      "ABBB": 7261,
      "ĠjmÃŃ": 7262,
      "ĠscÃŃ": 7263,
      "ĠspÅĻed": 7264,
      "Ġksvat": 7265,
      "Ġdch": 7266,
      "ĠbvÃ¡": 7267,
      "Ġvych": 7268,
      "ĠspÃ½": 7269,
      "XAXB": 7270,
      "ĠtÃ¡c": 7271,
      "ĠtÅĻÃŃd": 7272,
      "Ġschlad": 7273,
      "Ġvzat": 7274,
      "ĠvstÅĻed": 7275,
      "ĠchÅĻa": 7276,
      "Ġklap": 7277,
      "ĠksnÄĽ": 7278,
      "Ġdotk": 7279,
      "Ġvluh": 7280,
      "ĠsÅ¾eh": 7281,
      "ĠblÅ¯v": 7282,
      "Ġfron": 7283,
      "kle": 7284,
      "ĠÄįeÅĪ": 7285,
      "Ġvtmy": 7286,
      "Ġhron": 7287,
      "ĠbrÃ¡zd": 7288,
      "Ġzpol": 7289,
      "Ġgest": 7290,
      "Ġryth": 7291,
      "ĠrtuÅ¥": 7292,
      "Ġvzmar": 7293,
      "ĠÄįtouc": 7294,
      "ĠjvÃ¡": 7295,
      "ĠslaÅĻ": 7296,
      "Ġzour": 7297,
      "ĠprÃ½s": 7298,
      "Ġblic": 7299,
      "Ġvnach": 7300,
      "ĠzlÃŃk": 7301,
      "ĠÅ¡van": 7302,
      "ĠkmÃŃn": 7303,
      "Ġchne": 7304,
      "ĠvaÅ¡": 7305,
      "Ġkdnu": 7306,
      "Ġzpan": 7307,
      "ĠsÃ¡Äį": 7308,
      "Ġglu": 7309,
      "ĠzmÃ¡t": 7310,
      "Ġvmh": 7311,
      "ĠÅ¥ka": 7312,
      "ĠzvÄĽt": 7313,
      "ĠhlÃŃk": 7314,
      "ĠzvaÅ¾": 7315,
      "ĠzdÄĽl": 7316,
      "ĠÅĻuj": 7317,
      "ĠÅ¯v": 7318,
      "ĠdÃŃÅĻ": 7319,
      "Ġseth": 7320,
      "ĠzprÃ¡ch": 7321,
      "Ġvspou": 7322,
      "Ġvco": 7323,
      "Ġzflan": 7324,
      "Ġdvyk": 7325,
      "Ġghis": 7326,
      "ĠfÃ½r": 7327,
      "Ġksnad": 7328,
      "jt": 7329,
      "ĠcÃº": 7330,
      "Ġvsch": 7331,
      "ĠstÅĻes": 7332,
      "Ġlent": 7333,
      "ĠpÃ½t": 7334,
      "Ġvhold": 7335,
      "ĠvnÃ¡Å¡": 7336,
      "Ġzpout": 7337,
      "ĠctnÃ½ch": 7338,
      "mr": 7339,
      "ĠjÃ³": 7340,
      "ĠÅ¡me": 7341,
      "ĠsptÃ¡": 7342,
      "ĠstÃ¡Å¥": 7343,
      "ĠvdrÃ¡": 7344,
      "ĠkvÅ¡em": 7345,
      "Ġtils": 7346,
      "Ġdils": 7347,
      "Ġzves": 7348,
      "ĠÅ¡viÅ¾": 7349,
      "ĠvÄįÃŃÅ¡": 7350,
      "ĠÅ¡vÃ¡r": 7351,
      "Ġzpso": 7352,
      "ĠmÅ¾": 7353,
      "ĠÄįim": 7354,
      "Ġdouch": 7355,
      "Ġstrof": 7356,
      "ĠÅ¡tÄĽv": 7357,
      "Ġrenc": 7358,
      "ĠzmuÅ¾": 7359,
      "ĠÅ¡nÄĽ": 7360,
      "Ġpror": 7361,
      "ĠprÃ¡Å¡": 7362,
      "ĠstrÅ¯m": 7363,
      "ĠvÅ¾dyÅ¥s": 7364,
      "ĠÄįems": 7365,
      "Ġflan": 7366,
      "vil": 7367,
      "Ġjluz": 7368,
      "ÅĻu": 7369,
      "ĠloÄį": 7370,
      "ĠvstÄĽ": 7371,
      "ĠkboÅ¾": 7372,
      "ĠshrÅĪ": 7373,
      "Ġmak": 7374,
      "ĠvaÅĻ": 7375,
      "ĠfÅ¯m": 7376,
      "ĠkraÅ¡": 7377,
      "Ġbils": 7378,
      "Ġvskvost": 7379,
      "Ġfrank": 7380,
      "ĠsdruÅ¾": 7381,
      "Ġkspa": 7382,
      "Ġrcy": 7383,
      "ĠpokÅĻ": 7384,
      "Ġtex": 7385,
      "ĠpÃ¡v": 7386,
      "ĠklÃŃb": 7387,
      "ĠztÅĻeÅ¡": 7388,
      "war": 7389,
      "Ġloch": 7390,
      "ĠloÅ¡": 7391,
      "Ġcij": 7392,
      "Ġprod": 7393,
      "XAX": 7394,
      "ĠÅ¡ij": 7395,
      "Ġpris": 7396,
      "Ġrik": 7397,
      "Ġzvet": 7398,
      "ĠzÅĻen": 7399,
      "Ġvkos": 7400,
      "XABBXA": 7401,
      "ĠzpouÅ¡": 7402,
      "ĠvpÃ¡d": 7403,
      "Ġvhed": 7404,
      "ĠcÅ¾es": 7405,
      "ĠÃ¡t": 7406,
      "Ġtoh": 7407,
      "ĠzatÅĻ": 7408,
      "ĠvÅ¡at": 7409,
      "ĠbÃŃc": 7410,
      "ĠchvÃŃm": 7411,
      "Ġsslu": 7412,
      "rout": 7413,
      "Ġkpoz": 7414,
      "ĠÄįuj": 7415,
      "Ġhnizd": 7416,
      "ĠvdruÅ¾": 7417,
      "Ã½z": 7418,
      "Ġvsil": 7419,
      "Ġstos": 7420,
      "ĠzoÅĪ": 7421,
      "ĠdrÅ¥": 7422,
      "Ġstyk": 7423,
      "ĠknÃŃr": 7424,
      "ĠzroÅ¾": 7425,
      "Ġgai": 7426,
      "ĠÅ¡tast": 7427,
      "ĠsrÃ¡Å¾": 7428,
      "Ġveb": 7429,
      "ĠvÃŃÅ¥": 7430,
      "Ġztvo": 7431,
      "ĠzniÄį": 7432,
      "ĠsproÅ¡": 7433,
      "ĠkÅ¾rout": 7434,
      "ĠÄįpa": 7435,
      "ĠdÃ©s": 7436,
      "Ġshy": 7437,
      "ĠzÃ½Äį": 7438,
      "Ġdvet": 7439,
      "ĠztrÃ¡t": 7440,
      "Ġzbur": 7441,
      "ĠÅ¥ov": 7442,
      "ĠmÅ¾e": 7443,
      "ĠtÄĽÅ¥": 7444,
      "Ġmoi": 7445,
      "Ġmach": 7446,
      "Ġef": 7447,
      "ĠblÃŃk": 7448,
      "Ġspan": 7449,
      "ĠslÃŃc": 7450,
      "ĠzvÄĽn": 7451,
      "ĠÅĪan": 7452,
      "Ġvplec": 7453,
      "Ġchant": 7454,
      "ĠÅ¾vÃ½": 7455,
      "Ġtyl": 7456,
      "ĠvsnÃŃ": 7457,
      "ĠzÃŃt": 7458,
      "Ġsloh": 7459,
      "ĠgÅĻÃŃ": 7460,
      "ĠksÃŃ": 7461,
      "Ġfac": 7462,
      "ĠsnÄĽd": 7463,
      "ĠdbÃ¡t": 7464,
      "Ġmhla": 7465,
      "ĠvzboÅ¾": 7466,
      "ĠvÅ¡Å¥ast": 7467,
      "ĠdÃ¡s": 7468,
      "ĠzyÅ¡": 7469,
      "Ãºr": 7470,
      "ĠhlÃŃÅĻ": 7471,
      "ĠhliÄį": 7472,
      "ĠlkÃ¡m": 7473,
      "ĠvmÄĽl": 7474,
      "ĠvzplÃ¡t": 7475,
      "ĠcÃ¡p": 7476,
      "ĠvtrÃ¡v": 7477,
      "Ġgoism": 7478,
      "ĠtrÃ©m": 7479,
      "ĠdÅĻÃŃn": 7480,
      "Ġvlej": 7481,
      "Ġvstan": 7482,
      "ĠfÃ¡ÅĻ": 7483,
      "ĠvÅĻÃŃm": 7484,
      "ĠvplÃ¡ÅĪ": 7485,
      "ĠdcÃ©": 7486,
      "ĠzÅ¾eh": 7487,
      "Ġpni": 7488,
      "Ġmzdy": 7489,
      "Ġpac": 7490,
      "Ġspnou": 7491,
      "Ġsip": 7492,
      "Ġii": 7493,
      "ĠÅ¡lit": 7494,
      "ĠpÅĻÃ¡n": 7495,
      "ĠÄįemÅ¾": 7496,
      "AXBX": 7497,
      "Ġssr": 7498,
      "ĠbyÅ¥s": 7499,
      "Ġvspa": 7500,
      "ĠzkÃ¡z": 7501,
      "Ġcvik": 7502,
      "ĠÅ¡kub": 7503,
      "ĠsvdÄĽÄį": 7504,
      "ĠdoÅĪ": 7505,
      "ĠciÅ¥": 7506,
      "ĠtakÅ¥": 7507,
      "Ġcham": 7508,
      "ĠklÃ¡l": 7509,
      "Ġsdr": 7510,
      "ĠskrÃ¡s": 7511,
      "ĠkhÃ¡": 7512,
      "ĠztÄĽs": 7513,
      "ĠdbÃ¡m": 7514,
      "ĠkzpÅ¯r": 7515,
      "ĠssluÅ¾": 7516,
      "Ġpf": 7517,
      "Ġrz": 7518,
      "ĠhaÅ¥": 7519,
      "ĠstÃŃk": 7520,
      "Ġvtrou": 7521,
      "Ġsub": 7522,
      "Ġzbru": 7523,
      "Ġksk": 7524,
      "Ġya": 7525,
      "Ġjon": 7526,
      "Ġvzed": 7527,
      "Ġmlel": 7528,
      "ĠmÅ¾ÃŃ": 7529,
      "Å¡t": 7530,
      "Ġted": 7531,
      "Ġdun": 7532,
      "Ġlous": 7533,
      "Ġvman": 7534,
      "ĠÅ¡kvr": 7535,
      "ĠvlÃŃk": 7536,
      "Ġchlip": 7537,
      "Ġbep": 7538,
      "Ġztru": 7539,
      "ĠvÄįar": 7540,
      "ĠctnosÅ¥": 7541,
      "ĠsprÃ¡s": 7542,
      "ĠgrÃ©": 7543,
      "Ġkcho": 7544,
      "Ġsprv": 7545,
      "Ġvskok": 7546,
      "Ġpho": 7547,
      "ĠclÃ©": 7548,
      "ĠÅ¡tej": 7549,
      "Ġchnu": 7550,
      "ĠÅĻal": 7551,
      "ĠpaÅ¥": 7552,
      "Ġspil": 7553,
      "Ġig": 7554,
      "Ġflu": 7555,
      "ĠvÅ¯t": 7556,
      "ĠvrÃ¡m": 7557,
      "Ġkryj": 7558,
      "ĠdlÃŃc": 7559,
      "ĠmÅĻeÅ¡": 7560,
      "Ġsmyl": 7561,
      "Ġzdur": 7562,
      "Ġkloub": 7563,
      "Ġvbyt": 7564,
      "ĠhnÃŃt": 7565,
      "Ġstak": 7566,
      "Ġkad": 7567,
      "ĠkruÅ¾": 7568,
      "ĠsrsÅ¥": 7569,
      "Ġtlen": 7570,
      "ĠtskÃ½": 7571,
      "ck": 7572,
      "ABAXB": 7573,
      "Ġvkva": 7574,
      "ĠvbdÄĽ": 7575,
      "ĠkbÄĽ": 7576,
      "ĠbÅĻÃŃm": 7577,
      "ĠÅ¡ta": 7578,
      "ĠctÃŃc": 7579,
      "Ġvcu": 7580,
      "Ġpnout": 7581,
      "ĠvrÅ¯Å¾": 7582,
      "Ġkplat": 7583,
      "Ġjro": 7584,
      "ĠdyÅ¥": 7585,
      "ĠkrÃ¡st": 7586,
      "ĠÅ¡iÅ¾": 7587,
      "ĠstrÃ¡t": 7588,
      "ĠsprÃ¡ch": 7589,
      "Ġdant": 7590,
      "Ġbryn": 7591,
      "Ġkctno": 7592,
      "ĠÅ¡tvÃ¡t": 7593,
      "Ġvtroj": 7594,
      "ĠvdneÅ¡": 7595,
      "ĠprÃ©m": 7596,
      "Ġchun": 7597,
      "Ġkslad": 7598,
      "ĠhrÃ¡Å¡": 7599,
      "Ġtku": 7600,
      "AXXABB": 7601,
      "Ġnymf": 7602,
      "ĠsÃ©m": 7603,
      "ĠvÅĻad": 7604,
      "ĠÅ¡rou": 7605,
      "ĠÅĻvÃ¡": 7606,
      "ĠsvlÃŃ": 7607,
      "Ġtvil": 7608,
      "Ġfru": 7609,
      "ĠznÄĽt": 7610,
      "Ġgin": 7611,
      "ĠvskrÃ½": 7612,
      "Ġkmon": 7613,
      "Ġchiv": 7614,
      "Ġblb": 7615,
      "Ġchrup": 7616,
      "ĠlÃ©v": 7617,
      "ĠvtÃ©m": 7618,
      "Ġfli": 7619,
      "Ġvdal": 7620,
      "ĠzkÅ¯": 7621,
      "Ġshan": 7622,
      "Ġyet": 7623,
      "Ġknez": 7624,
      "ĠvmoÅĻ": 7625,
      "ĠthÄĽ": 7626,
      "ĠÅ¡lov": 7627,
      "ĠsmeÅ¥": 7628,
      "ĠÅ¡tkal": 7629,
      "Ġtlel": 7630,
      "Ġzruch": 7631,
      "Ġzpust": 7632,
      "ĠstlÃ½m": 7633,
      "ĠkÅ¾er": 7634,
      "ĠvcÃŃp": 7635,
      "Ġvvel": 7636,
      "Ġstau": 7637,
      "Ġtvem": 7638,
      "Ġvzvo": 7639,
      "ĠsaÅ¥": 7640,
      "Ġzprud": 7641,
      "ĠkÅĻÃŃc": 7642,
      "Ġsdnem": 7643,
      "Ã³p": 7644,
      "ĠzlÃŃÄį": 7645,
      "Ġssto": 7646,
      "Ġvblud": 7647,
      "Ġsvil": 7648,
      "ĠvplÃ½": 7649,
      "ĠzknÄĽÅ¾": 7650,
      "Ġknej": 7651,
      "ĠmÅĻÃŃÅ¥": 7652,
      "Ġdnin": 7653,
      "res": 7654,
      "ĠzÅ¡a": 7655,
      "Ġsmluv": 7656,
      "Ġkyr": 7657,
      "Ġsaz": 7658,
      "ABABAA": 7659,
      "ĠÅ¡kvÃ¡": 7660,
      "Ġkmy": 7661,
      "Ġneck": 7662,
      "Ġtmav": 7663,
      "Ġzchmur": 7664,
      "Ġvzchop": 7665,
      "ĠvkeÅĻ": 7666,
      "ĠkÄıa": 7667,
      "Ġtop": 7668,
      "Ġdez": 7669,
      "ĠskÅ¯": 7670,
      "ĠÅĻÃŃp": 7671,
      "Ġvtrud": 7672,
      "Ġvbor": 7673,
      "ĠzÅĻek": 7674,
      "Ġrinth": 7675,
      "ĠsklÃŃÄį": 7676,
      "Ġsprch": 7677,
      "ĠzmnoÅ¾": 7678,
      "Ġkfo": 7679,
      "ĠÅ¡ra": 7680,
      "Ġchnul": 7681,
      "Ġvzna": 7682,
      "Ġspoz": 7683,
      "Ġbrost": 7684,
      "Ġkmr": 7685,
      "Ġkbi": 7686,
      "Ġvdob": 7687,
      "ĠkÅĻtÃŃ": 7688,
      "ĠdÅ¡t": 7689,
      "ĠmkrÃ¡t": 7690,
      "Ġvva": 7691,
      "Ġcra": 7692,
      "Ġvov": 7693,
      "ĠvoÄį": 7694,
      "ĠspÅĻi": 7695,
      "ĠpraÄı": 7696,
      "ĠstÄĽr": 7697,
      "ĠrÃ½s": 7698,
      "ĠsmÃŃn": 7699,
      "Ġpsem": 7700,
      "Ġvju": 7701,
      "Ġskar": 7702,
      "ĠzlÃŃt": 7703,
      "Ġzniv": 7704,
      "ĠmÄĽjÅ¾": 7705,
      "Ġzbah": 7706,
      "Ġchic": 7707,
      "Ġsrub": 7708,
      "ĠchÅĻÃŃÅ¡": 7709,
      "Ġrron": 7710,
      "ĠP": 7711,
      "ĠhÃ³": 7712,
      "ABCB": 7713,
      "Ġpav": 7714,
      "ĠstÃŃc": 7715,
      "ĠÅ¾Ã¡Äį": 7716,
      "Ġvzpu": 7717,
      "Ġstals": 7718,
      "Ġthur": 7719,
      "ĠstrÅ¯v": 7720,
      "ĠÅ¡mej": 7721,
      "ABCBAC": 7722,
      "ĠÅ¡ÅĪu": 7723,
      "AABBXB": 7724,
      "ĠzkÅĻo": 7725,
      "Ġvlesk": 7726,
      "ĠvvÅ¡em": 7727,
      "ĠzÅ¾a": 7728,
      "ĠÄįlen": 7729,
      "ĠÅ¾nec": 7730,
      "ĠkÃ³": 7731,
      "Ġdmy": 7732,
      "ĠvhrÃ¡": 7733,
      "ĠkroÄį": 7734,
      "Ġmark": 7735,
      "Ġvchmur": 7736,
      "Ġzbran": 7737,
      "Ġsjem": 7738,
      "ĠvhÃ¡v": 7739,
      "Ġvmrz": 7740,
      "Ġsbles": 7741,
      "Ġzsk": 7742,
      "ĠÅ¡vÃŃ": 7743,
      "Ġtesk": 7744,
      "ĠÅ¾esÅ¥": 7745,
      "Ġbov": 7746,
      "lum": 7747,
      "ÅĪat": 7748,
      "Ġvdve": 7749,
      "Ġloud": 7750,
      "Ġsbou": 7751,
      "Ġzrod": 7752,
      "ĠÄįÃ¡sÅ¥": 7753,
      "Ġkby": 7754,
      "ĠtoÅ¾Å¥": 7755,
      "ĠÄįoÄį": 7756,
      "ĠÅ¡lÃŃÅ¡": 7757,
      "ĠÄıau": 7758,
      "Ġzjiz": 7759,
      "Ġkjas": 7760,
      "Ġsodv": 7761,
      "ĠjÃº": 7762,
      "Ġpte": 7763,
      "ĠpnÃŃ": 7764,
      "Ġbak": 7765,
      "Ġdai": 7766,
      "Ġpap": 7767,
      "ĠÅ¡ip": 7768,
      "ĠvtÅĻÃŃ": 7769,
      "ĠvlÃ¡Äį": 7770,
      "ĠmÃ½Å¾": 7771,
      "ĠsrÅ¡": 7772,
      "ĠspiÅ¡": 7773,
      "ĠkÃºs": 7774,
      "Ġzfran": 7775,
      "ĠhviÄį": 7776,
      "Ġkjich": 7777,
      "Ġtci": 7778,
      "Ġvuz": 7779,
      "Ġvdny": 7780,
      "Ġtlas": 7781,
      "Ġkman": 7782,
      "ĠsneÅ¡": 7783,
      "ĠtkÃ¡m": 7784,
      "Ġssou": 7785,
      "Ġxo": 7786,
      "ĠplÃŃÅ¥": 7787,
      "Ġkstar": 7788,
      "ĠvbÄĽd": 7789,
      "Ġmhu": 7790,
      "ĠliÅĪ": 7791,
      "ĠvzvÄĽ": 7792,
      "ĠrÃ¡s": 7793,
      "ĠsuÅĪ": 7794,
      "Ġslup": 7795,
      "Ġdlan": 7796,
      "Ġsleh": 7797,
      "ĠÅ¥at": 7798,
      "ĠÅ¡Å¥u": 7799,
      "ĠvchvÄĽ": 7800,
      "Ġvzhou": 7801,
      "Ġvklet": 7802,
      "Ġkfi": 7803,
      "Ġnra": 7804,
      "Ġvex": 7805,
      "ĠdÃ¡c": 7806,
      "Ġcor": 7807,
      "Ġvzas": 7808,
      "ĠkdyÅ¾s": 7809,
      "ĠplÃ¡z": 7810,
      "Ġfik": 7811,
      "ĠsnyÅ¥": 7812,
      "ĠzmoÅĻ": 7813,
      "ĠkviÄį": 7814,
      "ĠvzlÃ©m": 7815,
      "Ġrru": 7816,
      "ĠvÃ¡Å¥": 7817,
      "Ġzdem": 7818,
      "ĠvdÃ¡t": 7819,
      "Ġhes": 7820,
      "Ġjul": 7821,
      "Ġpty": 7822,
      "Ġvchmu": 7823,
      "ĠÅĪaÄį": 7824,
      "ĠzrÅ¯d": 7825,
      "Ġvysv": 7826,
      "Ġzkvet": 7827,
      "Ġsvlast": 7828,
      "ABXABX": 7829,
      "Ġpstru": 7830,
      "Ġksuk": 7831,
      "ÅĻbe": 7832,
      "Ġnyx": 7833,
      "Ġlys": 7834,
      "ĠsmÃ©": 7835,
      "Ġgno": 7836,
      "ĠktvÃ½m": 7837,
      "Ġzchlad": 7838,
      "ĠzrÅ¯z": 7839,
      "ĠÅ¡vÃ¡b": 7840,
      "ĠktrÃ³": 7841,
      "ĠjmÃŃn": 7842,
      "ĠmÅ¾ou": 7843,
      "Ġpkou": 7844,
      "ĠsÃ¡r": 7845,
      "Ġtlach": 7846,
      "Ġsby": 7847,
      "Ġkmrou": 7848,
      "ĠstruÄį": 7849,
      "ĠpsÃ¡n": 7850,
      "Ġkspol": 7851,
      "Ġszim": 7852,
      "ĠtskÃ½m": 7853,
      "ĠvÅ¡pi": 7854,
      "26": 7855,
      "Ġjri": 7856,
      "Ġast": 7857,
      "ÅĻbi": 7858,
      "ĠdeÅ¥": 7859,
      "ĠmasÅ¥": 7860,
      "ĠpÅĻep": 7861,
      "Ġrai": 7862,
      "Ġzmet": 7863,
      "Ġkmar": 7864,
      "ĠkpÄĽ": 7865,
      "Ġkplu": 7866,
      "ĠouÄį": 7867,
      "ĠouÅ¡": 7868,
      "ĠvchlÃ¡d": 7869,
      "Ġkhe": 7870,
      "Ġzmoh": 7871,
      "ĠblÃ©k": 7872,
      "ĠzrÅ¯st": 7873,
      "ĠmnÃŃmÅ¥": 7874,
      "Ġchyll": 7875,
      "ĠhÅĪup": 7876,
      "Ġhin": 7877,
      "Ġlai": 7878,
      "ĠpaÅ¡": 7879,
      "ĠkÃ¡d": 7880,
      "Ġbezv": 7881,
      "ĠdlÃ¡ch": 7882,
      "Ġvkrad": 7883,
      "ĠzbÄĽh": 7884,
      "Ġzcy": 7885,
      "ĠzcÃŃ": 7886,
      "ĠÅ¥ouÄį": 7887,
      "ĠÅ¡mÃ¡": 7888,
      "Ġrzi": 7889,
      "ĠÄįtÄĽ": 7890,
      "ĠÄįmou": 7891,
      "Ġsvrou": 7892,
      "ĠnoÅ¥": 7893,
      "Ġroic": 7894,
      "ĠstÃŃt": 7895,
      "Ġdraz": 7896,
      "ĠvhÅĻe": 7897,
      "ĠstvÃ©m": 7898,
      "ĠklÅĪ": 7899,
      "Ġvpor": 7900,
      "Ġouin": 7901,
      "ĠznÃŃz": 7902,
      "ĠmnÃŃch": 7903,
      "Ġpuls": 7904,
      "Ġouinti": 7905,
      "Ġkyv": 7906,
      "ABAXBX": 7907,
      "ĠÄįep": 7908,
      "ĠÅ¡ÃŃv": 7909,
      "ĠÄįÃŃÅĻ": 7910,
      "ĠÅ¡ir": 7911,
      "ĠdÅĻÃŃch": 7912,
      "ĠspÃ¡Äį": 7913,
      "ĠdlÃŃk": 7914,
      "Ġkzla": 7915,
      "ĠnÄĽls": 7916,
      "ĠvÃºt": 7917,
      "ĠssÃ¡t": 7918,
      "ĠranÅ¾": 7919,
      "ĠcloÅĪ": 7920,
      "Ġvmet": 7921,
      "Ġgent": 7922,
      "ĠmodÅĻ": 7923,
      "olo": 7924,
      "vÅ¯r": 7925,
      "ĠjrÃ¡": 7926,
      "ĠÄįky": 7927,
      "Ġist": 7928,
      "ĠbÃŃÅĻ": 7929,
      "Ġvsli": 7930,
      "Ġzpli": 7931,
      "ĠÅ¡kÃ½": 7932,
      "Ġtryl": 7933,
      "ĠkstrÃ¡": 7934,
      "Ġllon": 7935,
      "ĠtnÃ½ch": 7936,
      "ĠvÄįty": 7937,
      "Ġaeth": 7938,
      "Ġyette": 7939,
      "ĠvÃ¡ÅĪ": 7940,
      "Ġvzvy": 7941,
      "ĠluÅ¡": 7942,
      "ABABBA": 7943,
      "ĠztÅ¯": 7944,
      "ĠvÃŃmÅ¥": 7945,
      "Ġstyl": 7946,
      "ĠsvÃ½Å¡": 7947,
      "ĠdvÃ©st": 7948,
      "ĠtlÃŃm": 7949,
      "ĠfÃŃn": 7950,
      "ĠpÃ³l": 7951,
      "Ġfekt": 7952,
      "ĠvzpÄĽv": 7953,
      "un": 7954,
      "ĠkdÃ¡l": 7955,
      "ĠmaÅ¾": 7956,
      "Ġstaj": 7957,
      "ĠvdÃ³": 7958,
      "ĠznÃ¡Å¥": 7959,
      "ĠslÃ¡t": 7960,
      "Ġdvar": 7961,
      "ĠvzÃ¡Å¡": 7962,
      "ĠvruÄį": 7963,
      "Ġtroup": 7964,
      "Ġvtrys": 7965,
      "Ġzfa": 7966,
      "ĠrvÃ¡n": 7967,
      "ĠÅ¡oust": 7968,
      "Ġschyl": 7969,
      "ĠÅ¡klub": 7970,
      "ĠlvÅ¯": 7971,
      "Ġsvran": 7972,
      "Ġvoc": 7973,
      "ĠzeÄį": 7974,
      "ĠÃºÅ¾": 7975,
      "Ġtrar": 7976,
      "ĠtÅĻiÅ¥": 7977,
      "ĠpsÃ½": 7978,
      "Ġvdub": 7979,
      "Ġvros": 7980,
      "ĠmÅ¾it": 7981,
      "ĠsÃºz": 7982,
      "Ġscan": 7983,
      "ĠdÅĻin": 7984,
      "ĠzvÃ½h": 7985,
      "ĠhrÃ½zt": 7986,
      "Ġstle": 7987,
      "ĠrÅ¾ÃŃ": 7988,
      "Ġlij": 7989,
      "Ġuil": 7990,
      "Ġbrk": 7991,
      "Ġvems": 7992,
      "ĠzlosÅ¥": 7993,
      "Ġfai": 7994,
      "Ġbrot": 7995,
      "ĠklÃŃch": 7996,
      "AABAAB": 7997,
      "ĠÅ¾ul": 7998,
      "ĠniÅ¾Å¥": 7999,
      "ĠzbÄĽd": 8000,
      "Ġvbit": 8001,
      "ĠzÃ³": 8002,
      "Ġdow": 8003,
      "Ġsyk": 8004,
      "Ġsut": 8005,
      "ĠvslÃŃ": 8006,
      "Ġzhle": 8007,
      "ĠshnÃ¡": 8008,
      "ĠblÃŃn": 8009,
      "ĠtÅĻid": 8010,
      "ĠstÅĻÃŃs": 8011,
      "ĠtrÃ¡ch": 8012,
      "Ġskryj": 8013,
      "Ġtlouk": 8014,
      "Ġzvrat": 8015,
      "Ġvpych": 8016,
      "Ġzza": 8017,
      "Ġvychr": 8018,
      "Ġtwar": 8019,
      "Ġvau": 8020,
      "Ġmac": 8021,
      "Ġkoum": 8022,
      "Ġvsle": 8023,
      "ĠzprÃ¡z": 8024,
      "ĠdalÅ¥": 8025,
      "Ġvzdi": 8026,
      "ĠzÅĻÃŃc": 8027,
      "ĠÅ¥ce": 8028,
      "Ġhlil": 8029,
      "ĠktÃ¡": 8030,
      "Ġhloup": 8031,
      "Ġtlil": 8032,
      "Ġsnym": 8033,
      "Ġvcel": 8034,
      "Ġvryb": 8035,
      "Ġkspo": 8036,
      "Ġflex": 8037,
      "ĠjvÄĽÅ¡": 8038,
      "ĠmnÃ¡c": 8039,
      "Ġvtrest": 8040,
      "Ġds": 8041,
      "Ġtaur": 8042,
      "Ġtuk": 8043,
      "ĠbuÅĪ": 8044,
      "ĠsteÅ¡": 8045,
      "Ġgju": 8046,
      "Ġye": 8047,
      "Ġplyn": 8048,
      "ĠzleÅ¡": 8049,
      "Ġthle": 8050,
      "Ġsboch": 8051,
      "ĠzsvÃ½ch": 8052,
      "Ġzjis": 8053,
      "Ġknost": 8054,
      "ĠvÄĽs": 8055,
      "Ġnoun": 8056,
      "Ġzef": 8057,
      "ĠvtÃ³": 8058,
      "ĠbiÅ¡": 8059,
      "Ġvlam": 8060,
      "ĠdloÅ¾": 8061,
      "Ġctum": 8062,
      "ĠaÄįs": 8063,
      "Ġzrou": 8064,
      "Ġvnaz": 8065,
      "Ġhryz": 8066,
      "ĠbdÃŃÅ¡": 8067,
      "Ġgall": 8068,
      "ĠvcÃŃl": 8069,
      "Ġzmdlob": 8070,
      "ĠjÅĻil": 8071,
      "ĠchÃ³": 8072,
      "ĠbaÅĪ": 8073,
      "Ġvrem": 8074,
      "ĠrÃ½t": 8075,
      "Ġksko": 8076,
      "ĠcheÅĪ": 8077,
      "Ġhmat": 8078,
      "Ġkvol": 8079,
      "Ġnuc": 8080,
      "Ġvsma": 8081,
      "ĠstrÃ³p": 8082,
      "ĠkloÄı": 8083,
      "Ġktru": 8084,
      "ĠÄįtli": 8085,
      "Ġmsto": 8086,
      "ĠxÅ¯": 8087,
      "Ġllyr": 8088,
      "Ġthus": 8089,
      "ĠstlÃ©m": 8090,
      "ĠvÅ¡pat": 8091,
      "Ġvshro": 8092,
      "Ġllem": 8093,
      "Ġpha": 8094,
      "Ġid": 8095,
      "ĠvptÃ¡": 8096,
      "ĠvsÃ¡l": 8097,
      "Ġblom": 8098,
      "Ġvzbra": 8099,
      "ĠÅ¡lil": 8100,
      "Ġdoh": 8101,
      "Ġrut": 8102,
      "Ġia": 8103,
      "Ġhral": 8104,
      "ĠplÃ¡c": 8105,
      "Ġsmrk": 8106,
      "Ġtmo": 8107,
      "Ġsnej": 8108,
      "Ġtkou": 8109,
      "ĠkhrÅ¯": 8110,
      "ĠÅ¡Ã¡m": 8111,
      "ĠvpÅĻÃŃt": 8112,
      "Ġfun": 8113,
      "AXBBAX": 8114,
      "Ġstmou": 8115,
      "Ġjap": 8116,
      "ĠÅĻep": 8117,
      "ĠbaÄį": 8118,
      "ĠtamÅ¥": 8119,
      "Ġstouc": 8120,
      "ĠprouÅ¾": 8121,
      "Ġkplo": 8122,
      "Ġtlost": 8123,
      "Ġchals": 8124,
      "Ġstruh": 8125,
      "Ġkpos": 8126,
      "ĠvsaÄı": 8127,
      "Ġtbu": 8128,
      "ĠjvÃ¡b": 8129,
      "ĠÅ¡lÃ½m": 8130,
      "Ġhet": 8131,
      "ĠvskÅĻi": 8132,
      "ĠÄįov": 8133,
      "Ġfos": 8134,
      "Ġrent": 8135,
      "ĠmÅ¡ÃŃ": 8136,
      "Ġvget": 8137,
      "ĠvjÃŃc": 8138,
      "Ġzpyt": 8139,
      "Ġvstih": 8140,
      "ĠÅĻvÃ¡t": 8141,
      "ĠveÅ¾": 8142,
      "ĠnouÄį": 8143,
      "Ġvsmu": 8144,
      "Ġdland": 8145,
      "Ġblep": 8146,
      "AAXAXA": 8147,
      "ĠsdÃ¡": 8148,
      "Ġjdouc": 8149,
      "ĠrtÅ¯v": 8150,
      "ĠvstÅĻet": 8151,
      "Ġshud": 8152,
      "ĠpstrÃ©": 8153,
      "ĠdÅĻu": 8154,
      "ĠiÃŃ": 8155,
      "Ġztrou": 8156,
      "ĠvlÃ½": 8157,
      "ĠzpÄĽn": 8158,
      "Ġvpoc": 8159,
      "Ġvpov": 8160,
      "ĠzÅĻÃŃÅ¥": 8161,
      "Ġstrum": 8162,
      "Ġvpros": 8163,
      "Ġkment": 8164,
      "Ġchloup": 8165,
      "XABAXB": 8166,
      "rej": 8167,
      "Ġsex": 8168,
      "ĠvÅ¡ar": 8169,
      "Ġnuch": 8170,
      "ĠvzrÃ¡d": 8171,
      "ĠtyÅ¥": 8172,
      "ĠluÄı": 8173,
      "Ġmlas": 8174,
      "ĠsmÄĽt": 8175,
      "ĠÅ¡aj": 8176,
      "ĠstÃ½n": 8177,
      "Ġzvar": 8178,
      "ĠvzkvÄĽ": 8179,
      "Ġthes": 8180,
      "ĠkstÅĻe": 8181,
      "Ġfuj": 8182,
      "Ġztuh": 8183,
      "ĠshÃ½b": 8184,
      "ĠtchÃ¡n": 8185,
      "Ġsfouk": 8186,
      "ĠvsnÃŃh": 8187,
      "ĠnaÅĻ": 8188,
      "Ġhof": 8189,
      "Ġnok": 8190,
      "ĠslÃ©m": 8191,
      "ĠtÃŃz": 8192,
      "Ġjah": 8193,
      "Ġjaj": 8194,
      "ĠÅĻeÅ¡": 8195,
      "ĠvdÅĻe": 8196,
      "ĠdraÄį": 8197,
      "Ġvhle": 8198,
      "ĠbrÃ¡m": 8199,
      "Ġkmou": 8200,
      "ĠzlÃŃh": 8201,
      "Ġvsluj": 8202,
      "Ġvca": 8203,
      "Ġsbez": 8204,
      "Ġcukr": 8205,
      "kÃ©": 8206,
      "Ġdky": 8207,
      "ĠÅ¡y": 8208,
      "ABCCB": 8209,
      "ĠjskÃ©": 8210,
      "ĠdÃ¡Äį": 8211,
      "ĠkrÃ¡p": 8212,
      "ĠhaÅĪ": 8213,
      "Ġhlan": 8214,
      "ĠpÅĻit": 8215,
      "Ġtril": 8216,
      "ĠvsnÅ¯": 8217,
      "ĠrÃ©mÅ¾": 8218,
      "ĠkÅĻtÄĽ": 8219,
      "ĠvÅĻÃŃÄį": 8220,
      "Ġllic": 8221,
      "ĠvseÄį": 8222,
      "Ġsju": 8223,
      "Ġshroz": 8224,
      "ĠzkÅĻiÅ¡": 8225,
      "Ġvkyv": 8226,
      "ABCCBA": 8227,
      "ĠnÃ¡Å¥": 8228,
      "ĠnoÅĻ": 8229,
      "ĠkdÃŃt": 8230,
      "ĠkÃ¡Äį": 8231,
      "Ġmyt": 8232,
      "ĠzÃŃv": 8233,
      "Ġvout": 8234,
      "Ġzman": 8235,
      "Ġlils": 8236,
      "Ġcau": 8237,
      "Ġsdvo": 8238,
      "ĠvzkÅĻe": 8239,
      "ĠvjitÅĻ": 8240,
      "ĠzbÄĽÅĻ": 8241,
      "Ġkchu": 8242,
      "Ġztaj": 8243,
      "ĠrdÃŃc": 8244,
      "ĠzkÅĻik": 8245,
      "ĠlÅ¾eÅ¡": 8246,
      "ĠkÄįa": 8247,
      "Ġssk": 8248,
      "ĠsÅĻa": 8249,
      "Ġclou": 8250,
      "ĠsvÅĻe": 8251,
      "Ġmai": 8252,
      "ĠspÃ©": 8253,
      "ĠlÃ©r": 8254,
      "Ġvtk": 8255,
      "Ġei": 8256,
      "Ġez": 8257,
      "Ġvklo": 8258,
      "Ġklej": 8259,
      "Ġdnil": 8260,
      "ĠhrÃ¡Äį": 8261,
      "ĠzpoÄį": 8262,
      "Ġvjho": 8263,
      "ĠÅĪav": 8264,
      "Ġvkol": 8265,
      "ĠshoÄı": 8266,
      "ĠtbÃ¡ch": 8267,
      "ĠtchÃ¡": 8268,
      "Ġphoi": 8269,
      "ĠvslÃŃÄį": 8270,
      "Ġkuch": 8271,
      "Ġio": 8272,
      "ĠvsvÃŃ": 8273,
      "ĠbiÅ¥": 8274,
      "ĠvlaÄį": 8275,
      "Ġblat": 8276,
      "AAAABB": 8277,
      "Ġschle": 8278,
      "Ġkmla": 8279,
      "Ġvrub": 8280,
      "Ġtlech": 8281,
      "ĠdnÄĽj": 8282,
      "Ġvcir": 8283,
      "ĠÅ¾hnu": 8284,
      "Ġtba": 8285,
      "ĠcrÃ³": 8286,
      "ĠvkÅĻiÅ¡": 8287,
      "Ġtchy": 8288,
      "Ġmiv": 8289,
      "Ġmaur": 8290,
      "Ġtyn": 8291,
      "Ġchab": 8292,
      "Ġziz": 8293,
      "ĠstÅĻeÅ¾": 8294,
      "Ġmraj": 8295,
      "Ġshru": 8296,
      "Ġkls": 8297,
      "Ġkniv": 8298,
      "Ġbald": 8299,
      "Ġaus": 8300,
      "Ġvspro": 8301,
      "Ġvvla": 8302,
      "Ġkvlast": 8303,
      "Ġaest": 8304,
      "ĠklÅ¯Å¾": 8305,
      "Ġvsklon": 8306,
      "ĠnÄĽh": 8307,
      "ĠmuÄį": 8308,
      "Ġvig": 8309,
      "Ġzdmu": 8310,
      "Ġzram": 8311,
      "Ġvbro": 8312,
      "ĠshrÃ¡": 8313,
      "ĠksÃ½": 8314,
      "ĠvlÃ¡z": 8315,
      "ĠvchlÃ©": 8316,
      "Ġzjar": 8317,
      "ĠvÅĻÃ¡d": 8318,
      "ĠÅ¡Ã©": 8319,
      "ĠtaÅĻ": 8320,
      "Ġdesk": 8321,
      "Ġsuv": 8322,
      "ABBABX": 8323,
      "Ġbir": 8324,
      "ĠzmlÃ½": 8325,
      "Ġshlou": 8326,
      "Ġschro": 8327,
      "Ġhlem": 8328,
      "Ġvchvil": 8329,
      "ĠsboÅ¾": 8330,
      "ĠpÄĽls": 8331,
      "ĠÅ¾dyc": 8332,
      "Ġgral": 8333,
      "ĠzdrÅ¾": 8334,
      "ĠÄįteÅ¡": 8335,
      "Ġsvrch": 8336,
      "ĠhmoÅ¾": 8337,
      "ĠsÅ¡a": 8338,
      "Ġfons": 8339,
      "Ġzga": 8340,
      "Ġtest": 8341,
      "ĠnÃ½r": 8342,
      "Ġdud": 8343,
      "ĠmeÅ¥": 8344,
      "Ġzpor": 8345,
      "Ġdlat": 8346,
      "skÃ©": 8347,
      "Ġkret": 8348,
      "ĠsdÃ½": 8349,
      "ver": 8350,
      "Ġgel": 8351,
      "Ġblin": 8352,
      "Ġvloh": 8353,
      "ĠznÃ¡mÅ¥": 8354,
      "ĠvmlÅ¾": 8355,
      "Ġfyr": 8356,
      "Ġspekt": 8357,
      "Ġmlejn": 8358,
      "mÅ¯": 8359,
      "Ġrho": 8360,
      "ĠÅ¡vu": 8361,
      "ĠsvrÃ¡": 8362,
      "Ġskly": 8363,
      "ĠsmlÃ¡": 8364,
      "Ġpraz": 8365,
      "ĠpÃ¡st": 8366,
      "ĠchÃ¡b": 8367,
      "ĠchtÄĽt": 8368,
      "Ġvnec": 8369,
      "Ġssla": 8370,
      "Ġgran": 8371,
      "ĠzchÃ½": 8372,
      "ĠÄįnÃŃt": 8373,
      "Ġmlet": 8374,
      "Ġkvost": 8375,
      "Ġvvzd": 8376,
      "ĠÅ¡lÃ¡ÅĻ": 8377,
      "ĠvbÃ¡j": 8378,
      "Ġjvod": 8379,
      "Ġtimp": 8380,
      "Ġksym": 8381,
      "AXAXA": 8382,
      "vor": 8383,
      "ĠnÃ³": 8384,
      "Ġrill": 8385,
      "lau": 8386,
      "ĠvaÄı": 8387,
      "Ġjip": 8388,
      "Ġvyc": 8389,
      "ĠchaÄį": 8390,
      "Ġroun": 8391,
      "ĠzdÃ¡m": 8392,
      "Ġshnu": 8393,
      "ĠÄįils": 8394,
      "Ġhant": 8395,
      "ĠzdÄĽch": 8396,
      "ĠzdÃŃl": 8397,
      "Ġtvic": 8398,
      "Ġvgir": 8399,
      "ĠvtÃ¡h": 8400,
      "Ġvdrs": 8401,
      "mÃ©": 8402,
      "Ġnber": 8403,
      "ĠvvÃŃ": 8404,
      "Ġclum": 8405,
      "Ġkys": 8406,
      "ĠÅĻeÅ¥": 8407,
      "ĠtrÃ³n": 8408,
      "ĠnÃ½chs": 8409,
      "Ġbrah": 8410,
      "ĠgÅĻi": 8411,
      "Ġzkme": 8412,
      "Ġpils": 8413,
      "Ġfoi": 8414,
      "ĠkstÄĽ": 8415,
      "ĠzpÅĻed": 8416,
      "ĠzÅ¾u": 8417,
      "ACB": 8418,
      "ĠdmÃŃ": 8419,
      "ĠllÅ¯": 8420,
      "Ġaf": 8421,
      "Å¾b": 8422,
      "Ġchnou": 8423,
      "Ġstaf": 8424,
      "Ġvtva": 8425,
      "Ġslost": 8426,
      "Ġkes": 8427,
      "ĠztÃŃ": 8428,
      "ĠbÅĻed": 8429,
      "ĠÅ¡tÄĽk": 8430,
      "ĠvpoÄį": 8431,
      "Ġsblan": 8432,
      "Ġkmra": 8433,
      "ĠkmlÃ¡": 8434,
      "ĠzÅĻev": 8435,
      "ĠklÃ¡n": 8436,
      "Ġthem": 8437,
      "ĠvzklÃŃ": 8438,
      "Ġxy": 8439,
      "Ġploul": 8440,
      "Ġsmoc": 8441,
      "ĠcÃ©ÅĻ": 8442,
      "ĠkjÃ¡": 8443,
      "ABCACB": 8444,
      "Ġkpros": 8445,
      "ĠpÅ¡a": 8446,
      "ĠciÄį": 8447,
      "ĠlÃ©p": 8448,
      "Ġchus": 8449,
      "Ġfak": 8450,
      "ABBXAX": 8451,
      "ĠtÅĻep": 8452,
      "ĠmÃ½t": 8453,
      "ĠtresÅ¥": 8454,
      "Ġfranz": 8455,
      "ĠblÃ©m": 8456,
      "ĠhÅĻiÄį": 8457,
      "ĠsÅ¾en": 8458,
      "Ġvsrp": 8459,
      "dr": 8460,
      "nut": 8461,
      "ĠneÅ¥": 8462,
      "ĠnÃ¡z": 8463,
      "ĠvÅ¡Ã¡": 8464,
      "ĠmÄĽÄı": 8465,
      "ĠlyÅĪ": 8466,
      "ĠzvdÄĽÄį": 8467,
      "ĠÃºl": 8468,
      "Ġdour": 8469,
      "Ġmand": 8470,
      "ĠÅ¡tvou": 8471,
      "Ġjilm": 8472,
      "Ġbdi": 8473,
      "ĠskroÅ¥": 8474,
      "Ġvhlav": 8475,
      "ĠÅ¡vest": 8476,
      "ĠÅ¾van": 8477,
      "Ġstrel": 8478,
      "ĠvbÅĻes": 8479,
      "ĠsÄįÃŃm": 8480,
      "Ġcult": 8481,
      "ĠhÅĪuh": 8482,
      "Ġvzje": 8483,
      "Ġtrill": 8484,
      "ĠzhÅĻbe": 8485,
      "Ġmde": 8486,
      "Ġklus": 8487,
      "ĠÅ¾luÅ¥": 8488,
      "Ġvsmy": 8489,
      "ĠlkÃ¡Å¥": 8490,
      "Ġzhur": 8491,
      "Ġzvrt": 8492,
      "ĠjradÅ¡": 8493,
      "ĠjÅĻi": 8494,
      "ĠÅ¡vÃ½": 8495,
      "Ġlac": 8496,
      "ĠvÃ¡h": 8497,
      "ĠspÅ¯d": 8498,
      "ĠzÃ¡z": 8499,
      "Ġlul": 8500,
      "ĠdÅĻÃŃk": 8501,
      "Ġschlou": 8502,
      "ĠhlouÄį": 8503,
      "Ġzpov": 8504,
      "Ġblon": 8505,
      "Ġzmiz": 8506,
      "ĠzsvÄĽt": 8507,
      "ĠÅ¾dÃ¡t": 8508,
      "ĠÅ¾dÃ¡m": 8509,
      "ĠÅ¾bÃ¡n": 8510,
      "AXBABX": 8511,
      "ĠdskÃ©": 8512,
      "Ġspsem": 8513,
      "XAXXXA": 8514,
      "Ġvgeth": 8515,
      "ĠvÃ³": 8516,
      "Ġlvu": 8517,
      "Ġjha": 8518,
      "ĠÅ¾re": 8519,
      "ĠÄįka": 8520,
      "Ġchmou": 8521,
      "ĠÅ¾ev": 8522,
      "ĠkdÅ¯": 8523,
      "ĠbraÅ¡": 8524,
      "ĠzoÄį": 8525,
      "Ġklim": 8526,
      "ĠsmrÅ¡": 8527,
      "Ġkslou": 8528,
      "Ġtlal": 8529,
      "ĠslÃŃd": 8530,
      "ĠpÅĻÃ¡Å¥": 8531,
      "Ġfel": 8532,
      "ĠtrÃ¡k": 8533,
      "ĠcoÅ¾s": 8534,
      "ĠzpÃŃt": 8535,
      "ĠstÃ¡ls": 8536,
      "Ġznov": 8537,
      "Ġthin": 8538,
      "Ġvkob": 8539,
      "Ġchran": 8540,
      "ĠdlÃ¡ÅĻ": 8541,
      "ĠkhrÃ¡": 8542,
      "ĠchrÅ¯m": 8543,
      "Ġchrlil": 8544,
      "ĠmdlÃ©m": 8545,
      "Ġvpsa": 8546,
      "Ġpten": 8547,
      "Ġmber": 8548,
      "lej": 8549,
      "rÃ¡v": 8550,
      "ĠÄįÃŃÅ¾": 8551,
      "ĠÅ¾ic": 8552,
      "Ġbaf": 8553,
      "Ġdouk": 8554,
      "ĠchyÅ¾": 8555,
      "Ġzhno": 8556,
      "ĠsliÅ¥": 8557,
      "Ġdloud": 8558,
      "Ġvzpi": 8559,
      "Ġznoz": 8560,
      "Ġtlup": 8561,
      "Ġparr": 8562,
      "Ġchlic": 8563,
      "ĠÅĪÃ¡Äį": 8564,
      "ĠvmrÅ¡": 8565,
      "ĠvstrÅ¾": 8566,
      "Ġsvrhl": 8567,
      "ĠvschrÃ¡": 8568,
      "Ġtnu": 8569,
      "Ġbrd": 8570,
      "ĠcÅ¾": 8571,
      "Å¯v": 8572,
      "Ġkau": 8573,
      "Ġzvil": 8574,
      "ĠpÃŃn": 8575,
      "ĠvÅ¾u": 8576,
      "ĠkroÅ¥": 8577,
      "ĠbÅĻeÅ¾": 8578,
      "ĠvÅĻed": 8579,
      "ĠznÃ¡d": 8580,
      "ĠvlÃ¡st": 8581,
      "Ġvlech": 8582,
      "ĠÅ¡ky": 8583,
      "Ġplos": 8584,
      "ĠpÃ©r": 8585,
      "Ġzsa": 8586,
      "ĠmÃ¤": 8587,
      "ĠÅ¾ni": 8588,
      "ĠÅ¡or": 8589,
      "Ġzec": 8590,
      "ĠspoÄį": 8591,
      "ĠsleÅ¥": 8592,
      "ĠvmÃ½": 8593,
      "Ġmens": 8594,
      "ĠsÃ½r": 8595,
      "ĠÄıat": 8596,
      "ĠvzkvÃ©": 8597,
      "ĠvzkvÄĽt": 8598,
      "ĠvpÅĻÃŃs": 8599,
      "Ġzsmr": 8600,
      "Ġkult": 8601,
      "ĠvvÅ¯": 8602,
      "Ġkfran": 8603,
      "ĠvzmuÅ¾": 8604,
      "ĠbaÅ¡t": 8605,
      "Ġjroz": 8606,
      "ĠsprÅ¯": 8607,
      "ĠÅ¡ic": 8608,
      "Ġhup": 8609,
      "Ġpep": 8610,
      "ĠsuÅ¡": 8611,
      "ĠdÄĽlÅ¥": 8612,
      "Ġvmal": 8613,
      "Ġkrup": 8614,
      "Ġgust": 8615,
      "Ġvhrom": 8616,
      "Ġvtur": 8617,
      "Ġfant": 8618,
      "ĠvtvÅ¯r": 8619,
      "Ġsstra": 8620,
      "Ġpsov": 8621,
      "ĠshvÄĽzd": 8622,
      "ĠflÃ³r": 8623,
      "Ġkbez": 8624,
      "Ġmva": 8625,
      "Ġcri": 8626,
      "Ġtir": 8627,
      "ABXX": 8628,
      "Ġsix": 8629,
      "ĠmÃŃs": 8630,
      "ĠbaÅĻ": 8631,
      "ĠprÃ³": 8632,
      "ĠzoÅ¡": 8633,
      "Ġdrich": 8634,
      "ĠstvÃŃÅ¡": 8635,
      "Ġzhi": 8636,
      "ĠbÅĻev": 8637,
      "ĠkpÅĻi": 8638,
      "ĠstvoÅĻ": 8639,
      "Ġvchra": 8640,
      "Ġvkam": 8641,
      "ĠmstÄĽ": 8642,
      "ĠzlÃ¡z": 8643,
      "Ġsfres": 8644,
      "ĠsklÃŃn": 8645,
      "ĠskÅĻes": 8646,
      "ĠvhouÅ¡Å¥": 8647,
      "ĠÄįmel": 8648,
      "hi": 8649,
      "ĠnrÃ¡d": 8650,
      "ĠrÃŃ": 8651,
      "ĠlyÅ¥": 8652,
      "Ġvzdro": 8653,
      "ĠstÅĻeÅĪ": 8654,
      "ĠsmÄĽst": 8655,
      "Ġkrum": 8656,
      "Ġfus": 8657,
      "Ġshlas": 8658,
      "ĠvskoÄį": 8659,
      "ĠdskÃ½": 8660,
      "Ġvpsal": 8661,
      "Ġbvaz": 8662,
      "ĠvtÅĻpy": 8663,
      "Ġmik": 8664,
      "Ġvest": 8665,
      "ĠprÃ½m": 8666,
      "ĠhÃ¡c": 8667,
      "Ġey": 8668,
      "skÃ½ch": 8669,
      "Ġsbr": 8670,
      "ĠklÃ¡t": 8671,
      "ĠzvÃŃs": 8672,
      "Ġknem": 8673,
      "Ġwer": 8674,
      "ĠsvlÃ©k": 8675,
      "ĠvchÃ½Å¾": 8676,
      "ĠvkÅĻÃŃÅ¾": 8677,
      "Ġskiz": 8678,
      "XAXXAX": 8679,
      "ĠpfÃŃ": 8680,
      "ĠdÄįe": 8681,
      "Ġlix": 8682,
      "Ġmich": 8683,
      "ĠniÅ¡Å¥": 8684,
      "Ġsken": 8685,
      "Ġpai": 8686,
      "ĠtyÅĪ": 8687,
      "ĠvÅ¾en": 8688,
      "ĠzraÄı": 8689,
      "Ġsvic": 8690,
      "tip": 8691,
      "ĠkrÅ¯Äį": 8692,
      "ĠspÅĻÃŃz": 8693,
      "Ġkblan": 8694,
      "XABX": 8695,
      "ĠvzlÃŃ": 8696,
      "ĠhlaÅ¥": 8697,
      "Ġbach": 8698,
      "ĠmouÅ¡": 8699,
      "Ġjud": 8700,
      "ĠjuÅ¡": 8701,
      "Ġksli": 8702,
      "Ġschi": 8703,
      "Ġfas": 8704,
      "ĠvÄįet": 8705,
      "ĠtrÃ¡l": 8706,
      "Ġkzbo": 8707,
      "ĠvbeÄį": 8708,
      "Ġwal": 8709,
      "ĠvchvÃŃl": 8710,
      "ĠkdÄĽl": 8711,
      "Ġzblan": 8712,
      "Ġaethru": 8713,
      "XABXAB": 8714,
      "Ġnip": 8715,
      "ĠvzÃº": 8716,
      "ĠraÅ¾": 8717,
      "Ġsap": 8718,
      "Ġhun": 8719,
      "Ġvpom": 8720,
      "ĠvÅ¾il": 8721,
      "Ġbrech": 8722,
      "ĠsvaÅ¾": 8723,
      "Ġzys": 8724,
      "Ġmoct": 8725,
      "ĠbÅĻesk": 8726,
      "Ġtrep": 8727,
      "ĠvlÃ©k": 8728,
      "Ġsplet": 8729,
      "ĠvzplaÅĪ": 8730,
      "ĠtlÃŃk": 8731,
      "ĠzÃ©r": 8732,
      "ĠvbÅĻed": 8733,
      "Ġsaul": 8734,
      "ĠÅ¡rÃ¡m": 8735,
      "AXAXAX": 8736,
      "Ġrl": 8737,
      "ĠnÄĽÅ¥": 8738,
      "ĠtiÅ¡Å¥": 8739,
      "Ġdog": 8740,
      "Ġkaf": 8741,
      "Ġmiz": 8742,
      "Ġnoum": 8743,
      "ĠsvÄĽc": 8744,
      "Ġkrem": 8745,
      "ĠvdÅĻÃŃ": 8746,
      "ĠgÅ¯m": 8747,
      "Ġdrt": 8748,
      "Ġblast": 8749,
      "ĠÅ¡uÅ¡": 8750,
      "Ġscha": 8751,
      "ĠpsÃ½m": 8752,
      "Ġkzb": 8753,
      "AXAABB": 8754,
      "ĠfrÃ©": 8755,
      "Ġchis": 8756,
      "Ġsfi": 8757,
      "ĠstÅĻÃ¡st": 8758,
      "Ġzhroz": 8759,
      "Ġsjha": 8760,
      "ĠchÅĻic": 8761,
      "Ġvslast": 8762,
      "Ġvklec": 8763,
      "Ġaeolo": 8764,
      "ĠvhnÄĽt": 8765,
      "Ġvsym": 8766,
      "ĠspyÅ¡": 8767,
      "Ġphi": 8768,
      "AABABX": 8769,
      "ĠvmhÃ¡ch": 8770,
      "ĠÅ¡tejn": 8771,
      "id": 8772,
      "ĠsÄıÃ¡": 8773,
      "ĠzÅĻas": 8774,
      "Ġrr": 8775,
      "ĠnÄĽs": 8776,
      "ĠboÅĪ": 8777,
      "ĠdÃ½k": 8778,
      "ĠpouÄį": 8779,
      "Ġhrav": 8780,
      "Ġmrch": 8781,
      "Ġvzdra": 8782,
      "ĠsmÄĽv": 8783,
      "Ġschra": 8784,
      "ĠschmÅ¯": 8785,
      "ĠbÅĻÃŃch": 8786,
      "ĠvnÃ¡ÅĻ": 8787,
      "Ġzmok": 8788,
      "ĠstÅĻik": 8789,
      "Ġkvit": 8790,
      "Ġgym": 8791,
      "Ġsaic": 8792,
      "ĠvÅ¡per": 8793,
      "Ġsgra": 8794,
      "Ġzze": 8795,
      "Ġchni": 8796,
      "ĠhuÅ¡": 8797,
      "ĠÅĻiÅ¡": 8798,
      "Ġvouc": 8799,
      "ĠhraÄı": 8800,
      "Ġzhmo": 8801,
      "ĠklÃŃc": 8802,
      "Ġsnez": 8803,
      "Ġchvu": 8804,
      "Ġfraj": 8805,
      "ĠxÃŃ": 8806,
      "ĠlkÃ¡Å¡": 8807,
      "Ġvplav": 8808,
      "ĠzproÅ¡": 8809,
      "Ġzfi": 8810,
      "ĠnimÅ¾": 8811,
      "ĠvssÃ¡l": 8812,
      "ĠzhrÅ¯z": 8813,
      "ĠÅ¾neÄį": 8814,
      "Ġzknih": 8815,
      "ĠvskÅĻip": 8816,
      "ĠÅ¾eÅ¾": 8817,
      "Ġnop": 8818,
      "ĠfÃ³r": 8819,
      "ĠdÃ½Å¥": 8820,
      "ĠbÃ¡c": 8821,
      "ĠstÅĻeÅ¡": 8822,
      "Ġtrop": 8823,
      "ĠstÅĻÃŃt": 8824,
      "Ġcajt": 8825,
      "Ġzvaz": 8826,
      "ĠvÄįÃ¡": 8827,
      "Ġgrand": 8828,
      "ĠsÄįel": 8829,
      "Ġfrid": 8830,
      "ĠcnosÅ¥": 8831,
      "Ġtcho": 8832,
      "Ġsge": 8833,
      "Ġvfo": 8834,
      "ĠclÃ©ÅĻ": 8835,
      "hn": 8836,
      "Ġkkou": 8837,
      "ĠposÅ¥": 8838,
      "Ġskme": 8839,
      "Ġmad": 8840,
      "ĠfÃ³": 8841,
      "ĠgÃ¶": 8842,
      "ĠzdeÅ¥": 8843,
      "Ġtrait": 8844,
      "Ġskoj": 8845,
      "lÃ½s": 8846,
      "Ġschech": 8847,
      "Ġkryp": 8848,
      "ĠdroÅ¾": 8849,
      "ĠhruÅ¾": 8850,
      "Ġkhlu": 8851,
      "Ġsmag": 8852,
      "Ġkmoc": 8853,
      "ĠtrÃ½s": 8854,
      "Ġpres": 8855,
      "ĠchmÃº": 8856,
      "ĠzpyÅ¡": 8857,
      "Ã¤n": 8858,
      "ĠkÅĻtem": 8859,
      "Ġkak": 8860,
      "ĠjÃ©": 8861,
      "ĠvÅ¡k": 8862,
      "ĠsknÃŃ": 8863,
      "Ġvdy": 8864,
      "Ġdoup": 8865,
      "ĠplÅ¯": 8866,
      "ĠztÅĻÃŃ": 8867,
      "Ġzhar": 8868,
      "Ġkals": 8869,
      "ĠschÅĻa": 8870,
      "Ġktvo": 8871,
      "ĠÅ¾liv": 8872,
      "Ġchrle": 8873,
      "ĠvdÃ¡Å¥": 8874,
      "ĠkvyÅ¡": 8875,
      "Ġvzvon": 8876,
      "Ġnoj": 8877,
      "ĠboÄı": 8878,
      "Ġvzj": 8879,
      "Ġbag": 8880,
      "ĠjÃ¡Äį": 8881,
      "ĠfÃ©m": 8882,
      "Ġzul": 8883,
      "AABBBB": 8884,
      "ĠstÅĻeÄį": 8885,
      "Ġshar": 8886,
      "ĠschvÃŃ": 8887,
      "ĠÅ¡kar": 8888,
      "ĠkprÅ¯": 8889,
      "Ġkbri": 8890,
      "Ġvruch": 8891,
      "ĠpÅ¯jÄį": 8892,
      "ĠkpohÅĻ": 8893,
      "ĠvraÅ¾d": 8894,
      "Ġtloust": 8895,
      "Ġvpark": 8896,
      "ĠÅ¾bÃ¡": 8897,
      "Ġsbuj": 8898,
      "ĠvÅ¥": 8899,
      "Ġdt": 8900,
      "Ġhul": 8901,
      "ĠhuÅ¥": 8902,
      "Ġvur": 8903,
      "ĠpÅĻÃŃÅ¥": 8904,
      "Ġhrk": 8905,
      "Ġzden": 8906,
      "Ġmlem": 8907,
      "ĠzvoÅĪ": 8908,
      "ĠdÅĻÃŃm": 8909,
      "ĠspÄĽk": 8910,
      "ĠhrÃ¡n": 8911,
      "Ġsnim": 8912,
      "Ġrand": 8913,
      "Ġstkal": 8914,
      "ĠznÄĽjÅ¾": 8915,
      "Ġzzku": 8916,
      "Ġkvzne": 8917,
      "ĠkhrÃ¡m": 8918,
      "tin": 8919,
      "ĠkaÅĪ": 8920,
      "Ġmah": 8921,
      "Ġdrat": 8922,
      "Ġtrus": 8923,
      "ĠchvÃ¡ÅĻ": 8924,
      "ĠsvÃ½s": 8925,
      "Ġchrp": 8926,
      "Ġzbron": 8927,
      "Ġhip": 8928,
      "Ġzju": 8929,
      "Ġslits": 8930,
      "Ġvglo": 8931,
      "ĠÅ¡Å¥Ã¡v": 8932,
      "ĠzmlÃ¡d": 8933,
      "ĠvzvuÄį": 8934,
      "ĠvvÃ¡l": 8935,
      "Ġeine": 8936,
      "Ġstcho": 8937,
      "Ġrha": 8938,
      "ABCBC": 8939,
      "Ġtyp": 8940,
      "ĠvÃ©zt": 8941,
      "Ġzdmi": 8942,
      "XAAABB": 8943,
      "ĠchvÃŃc": 8944,
      "ĠchouÄį": 8945,
      "Ġvhon": 8946,
      "Ġkpol": 8947,
      "Ġzdus": 8948,
      "ĠklouÄį": 8949,
      "Ġvctno": 8950,
      "ĠztrÃ½z": 8951,
      "Ġkis": 8952,
      "ĠkspÄĽ": 8953,
      "ĠÅ¾ral": 8954,
      "ABCBCA": 8955,
      "by": 8956,
      "Ġvvr": 8957,
      "Ġlbi": 8958,
      "ĠmÅĻem": 8959,
      "Ġpag": 8960,
      "ĠsaÄį": 8961,
      "Ġryz": 8962,
      "ĠbiÅĻ": 8963,
      "Ġslen": 8964,
      "Ġmlal": 8965,
      "ĠÅĪak": 8966,
      "ĠtÅĻtin": 8967,
      "Ġoul": 8968,
      "Ġpert": 8969,
      "Ġhlin": 8970,
      "Ġgov": 8971,
      "ĠvstÃ¡n": 8972,
      "Ġzchat": 8973,
      "Ġsnop": 8974,
      "Ġspev": 8975,
      "Ġflek": 8976,
      "ĠvsmÄĽs": 8977,
      "ĠkÄįÃŃ": 8978,
      "Ġssyl": 8979,
      "ĠvÄįtver": 8980,
      "Ġmudr": 8981,
      "Ġzvin": 8982,
      "ABABXA": 8983,
      "Ġvsb": 8984,
      "ĠÅ¾av": 8985,
      "Ġmars": 8986,
      "Ġkps": 8987,
      "ĠÅ¡pen": 8988,
      "Ġvchvo": 8989,
      "Ġkzr": 8990,
      "ĠvrouÅ¡": 8991,
      "Ġauf": 8992,
      "ĠÃ¡h": 8993,
      "ĠÄįur": 8994,
      "Ġvplach": 8995,
      "Ġzmrz": 8996,
      "Ġvgo": 8997,
      "ĠÅ¡krt": 8998,
      "Ġksul": 8999,
      "ĠsÃ³": 9000,
      "ĠÅ¾ko": 9001,
      "ĠvÃŃl": 9002,
      "Ġvom": 9003,
      "XAABBB": 9004,
      "ĠvzÃ¡j": 9005,
      "Ġnevs": 9006,
      "Ġkhor": 9007,
      "Ġchrli": 9008,
      "ĠzmÃŃst": 9009,
      "Ġzdrh": 9010,
      "Ġzse": 9011,
      "Ġvplet": 9012,
      "Ġsplas": 9013,
      "ĠtlÃŃt": 9014,
      "ĠsmraÄį": 9015,
      "ĠsÅĪav": 9016,
      "ĠzkvÃ©st": 9017,
      "Ġmzda": 9018,
      "ĠdÅ¡tÃ½": 9019,
      "ĠstÅĻa": 9020,
      "Ġkyz": 9021,
      "ĠvpÃ³": 9022,
      "Ġvsna": 9023,
      "ĠplÃ¡Å¥": 9024,
      "ĠznÃ¡n": 9025,
      "ĠmÃ½l": 9026,
      "ĠÅĻÃ¡b": 9027,
      "ĠÅ¡tÃŃp": 9028,
      "ĠÅ¡tÃŃr": 9029,
      "Ġsves": 9030,
      "Ġvztr": 9031,
      "ĠzpuÅ¡": 9032,
      "Ġvtep": 9033,
      "Ġmass": 9034,
      "ĠÅ¡kam": 9035,
      "ĠzvraÅ¾": 9036,
      "ĠsplÃ©st": 9037,
      "Ġvdnes": 9038,
      "Ġvkmit": 9039,
      "ĠvhrÃ¡ch": 9040,
      "Ġuf": 9041,
      "ABAABB": 9042,
      "Ġdir": 9043,
      "Ġvuc": 9044,
      "ĠzÃŃn": 9045,
      "ĠznÃ©st": 9046,
      "Ġest": 9047,
      "Ġzbl": 9048,
      "Ġspom": 9049,
      "ĠÅ¡lej": 9050,
      "Ġzlok": 9051,
      "ĠÅ¾aÄį": 9052,
      "Ġans": 9053,
      "Ġnass": 9054,
      "ĠvpÄĽst": 9055,
      "Ġkprv": 9056,
      "ĠzjichÅ¾": 9057,
      "Ġkzdro": 9058,
      "ĠcÃºn": 9059,
      "ĠrÄįe": 9060,
      "ĠÅ¡iÅĻ": 9061,
      "ĠhrÅĪ": 9062,
      "ĠzdaÅĻ": 9063,
      "Ġrim": 9064,
      "ĠstÃ©n": 9065,
      "Ġyal": 9066,
      "ĠzvÄĽr": 9067,
      "Ġktur": 9068,
      "Ġzsy": 9069,
      "ĠsdÄĽl": 9070,
      "Ġvzchod": 9071,
      "Ġthon": 9072,
      "Ġvprus": 9073,
      "Ġkskut": 9074,
      "ĠmÃ½Å¾Äı": 9075,
      "ĠjÃ³n": 9076,
      "Å¾u": 9077,
      "ĠciÄı": 9078,
      "ĠsvÄĽÅĻ": 9079,
      "ĠzpÅ¯r": 9080,
      "ĠblasÅ¥": 9081,
      "Ġjus": 9082,
      "ĠstouÅ¾": 9083,
      "ĠznoÄį": 9084,
      "ĠskuÄį": 9085,
      "ĠhÅĻmi": 9086,
      "Ġclau": 9087,
      "Ġhir": 9088,
      "ĠÅ¥Ã¡r": 9089,
      "Ġvclo": 9090,
      "Ġwin": 9091,
      "Ġsport": 9092,
      "ABXBAX": 9093,
      "ĠrÅ¾eÄį": 9094,
      "ĠzjÃŃc": 9095,
      "Ġhoz": 9096,
      "Ġlif": 9097,
      "Ġkdra": 9098,
      "ĠpeÅĻ": 9099,
      "ĠstoÅĪ": 9100,
      "Ġzbal": 9101,
      "ĠzhÅĻ": 9102,
      "ĠvbÅĻi": 9103,
      "skÃ½": 9104,
      "ĠdliÅ¡": 9105,
      "ĠÅĻils": 9106,
      "ĠzÅĻet": 9107,
      "ĠklÃŃt": 9108,
      "ĠÅ¡pu": 9109,
      "Ġvskrej": 9110,
      "ĠpÃ©Äį": 9111,
      "ĠshoÅĻ": 9112,
      "Ġvspor": 9113,
      "ĠnehÅĻ": 9114,
      "XABBAA": 9115,
      "ĠfÃŃk": 9116,
      "ĠdÅ¾a": 9117,
      "ĠdÅ¾be": 9118,
      "ĠzÄįÃ¡": 9119,
      "ĠhrÃ½z": 9120,
      "ĠmnÃ¡ct": 9121,
      "Ġflin": 9122,
      "ĠpepÅĻ": 9123,
      "ĠÅ¾vÃ¡": 9124,
      "ĠnÃ©Å¥": 9125,
      "ĠvÅ¡an": 9126,
      "ĠvÅ¡tip": 9127,
      "Ġlun": 9128,
      "ĠzpÅĻi": 9129,
      "Ġhyp": 9130,
      "ĠsÃ¡c": 9131,
      "Ġtouc": 9132,
      "ĠvouÅ¡": 9133,
      "ĠdÃ©n": 9134,
      "Ġvzpup": 9135,
      "ĠtrÃ¡Å¡": 9136,
      "ĠdvÄĽÄį": 9137,
      "ĠdrÃ¡h": 9138,
      "ĠkzkÃ¡": 9139,
      "ĠzvÃŃm": 9140,
      "ĠthÃ¡m": 9141,
      "Ġvbub": 9142,
      "ĠvhÃ¡d": 9143,
      "ĠdvÃŃk": 9144,
      "Ġens": 9145,
      "ĠvpÄĽsÅ¥": 9146,
      "ĠvjÃŃz": 9147,
      "ĠtaÄį": 9148,
      "ĠtÃŃÅ¥": 9149,
      "ĠzdÃ½m": 9150,
      "Ġsmas": 9151,
      "ĠvsÅĪa": 9152,
      "Ġgto": 9153,
      "Ġzhlo": 9154,
      "Ġklok": 9155,
      "Ġtlap": 9156,
      "ĠsvÃŃn": 9157,
      "ĠsbÅĻi": 9158,
      "ĠzvÄĽd": 9159,
      "ĠkhnÃŃz": 9160,
      "ĠÅ¡tou": 9161,
      "Ġzryl": 9162,
      "ĠsÅ¾Ã¡": 9163,
      "Ġkstol": 9164,
      "ĠÅ¡ÅĪÅ¯r": 9165,
      "ĠthÃ©n": 9166,
      "ĠspÅ¯l": 9167,
      "Ġjhu": 9168,
      "Ġvtrap": 9169,
      "Ġvklouz": 9170,
      "Ġnow": 9171,
      "Ġniz": 9172,
      "Ġpaf": 9173,
      "Ġprom": 9174,
      "ĠcÃŃn": 9175,
      "Ġhard": 9176,
      "ĠzvÅĻe": 9177,
      "Ġvmas": 9178,
      "ĠvmÅ¾e": 9179,
      "Ġrib": 9180,
      "ĠÅ¡lik": 9181,
      "Ġzjes": 9182,
      "ĠzÃ½Å¡": 9183,
      "Ġvpras": 9184,
      "ĠtliÄį": 9185,
      "ĠrÃ½mÅ¾": 9186,
      "ĠkÅĻÅ¯": 9187,
      "Ġmstil": 9188,
      "ĠspouÅ¡Å¥": 9189,
      "ĠvvdÄĽ": 9190,
      "ĠlÃ³s": 9191,
      "Ġprim": 9192,
      "ĠvstrÃ¡ÅĪ": 9193,
      "ĠpstrÃ¡": 9194,
      "ĠflaÅ¡": 9195,
      "ĠvÅ¡pal": 9196,
      "ĠÅ¾hÃ¡ÅĻ": 9197,
      "ĠsvlÃŃd": 9198,
      "Ġaesthe": 9199,
      "rt": 9200,
      "ĠnÄĽd": 9201,
      "Ġnir": 9202,
      "Ġdet": 9203,
      "ĠvÃŃÅĻ": 9204,
      "ĠmoÄį": 9205,
      "ĠvzÅ¯": 9206,
      "Ġvum": 9207,
      "ĠstÃ¡j": 9208,
      "ĠtouÅĪ": 9209,
      "Ġzber": 9210,
      "AAXABB": 9211,
      "ĠhÃ½k": 9212,
      "ĠdliÅ¥": 9213,
      "ĠsbÃ¡": 9214,
      "Ġfex": 9215,
      "Ġzlech": 9216,
      "ĠbÅĻÃŃs": 9217,
      "ĠvzkvÃŃ": 9218,
      "ĠÅ¡tin": 9219,
      "Ġxis": 9220,
      "Ġthel": 9221,
      "Ġhnut": 9222,
      "ĠvtÃŃl": 9223,
      "Ġskliz": 9224,
      "Ġzklid": 9225,
      "ĠzkÅĻeh": 9226,
      "ĠphÃŃ": 9227,
      "Ġkpsa": 9228,
      "ĠzÃ³n": 9229,
      "Ġstma": 9230,
      "Ġnew": 9231,
      "Ġnist": 9232,
      "Ġcol": 9233,
      "Ġspru": 9234,
      "ĠkrÃ½m": 9235,
      "Ġzkan": 9236,
      "Ġblas": 9237,
      "ĠbychÅ¥": 9238,
      "ĠsmrÄį": 9239,
      "ĠkveÅ¥": 9240,
      "han": 9241,
      "Ġspras": 9242,
      "ĠÅ¡tÃ½": 9243,
      "Ġsklet": 9244,
      "ĠfrÃŃ": 9245,
      "zdÃ¡": 9246,
      "Ġrint": 9247,
      "Ġvstud": 9248,
      "ĠvhnÄĽv": 9249,
      "Ġrrot": 9250,
      "Ġvklat": 9251,
      "ABAABA": 9252,
      "Ġvkmen": 9253,
      "Ġspsy": 9254,
      "ĠdmÃŃl": 9255,
      "27": 9256,
      "ĠzÅĻad": 9257,
      "Ġsec": 9258,
      "ĠÄįpÄĽ": 9259,
      "Ġmyst": 9260,
      "Ġpyg": 9261,
      "Ġsbar": 9262,
      "ĠktvÃ¡": 9263,
      "Ġzals": 9264,
      "ĠkvÃŃl": 9265,
      "Ġvjin": 9266,
      "ĠvjÃŃt": 9267,
      "Ġtknul": 9268,
      "Ġssl": 9269,
      "ĠssvÃ©": 9270,
      "Ġvkop": 9271,
      "Ġchral": 9272,
      "ĠvÄįin": 9273,
      "Ġtrik": 9274,
      "ĠstÅĻic": 9275,
      "Ġplij": 9276,
      "Ġzslad": 9277,
      "Ġztrp": 9278,
      "ĠsÅ¡tÄĽ": 9279,
      "ĠstkvÃŃÅ¡": 9280,
      "Ġvspod": 9281,
      "Ġcvrk": 9282,
      "Ġnnen": 9283,
      "es": 9284,
      "Ġril": 9285,
      "ĠvÃ¡p": 9286,
      "ĠluÅ¾": 9287,
      "ĠÄįav": 9288,
      "Ġblet": 9289,
      "ĠheÅĻ": 9290,
      "ĠksnÃŃ": 9291,
      "ĠbrÃ¡Äį": 9292,
      "ĠspÄĽv": 9293,
      "ĠdvÄĽt": 9294,
      "ĠchÅ¯z": 9295,
      "Ġart": 9296,
      "ĠblÃ¡n": 9297,
      "Ġkpoc": 9298,
      "Ġxen": 9299,
      "ĠdnÄĽn": 9300,
      "Ġsples": 9301,
      "ĠstkvÄĽj": 9302,
      "ĠpneÅ¡": 9303,
      "ĠÅ¡oup": 9304,
      "Ġcept": 9305,
      "ĠÅ¾rÃ¡t": 9306,
      "Ġkzda": 9307,
      "ABXXAB": 9308,
      "Ġdp": 9309,
      "ĠÅ¾le": 9310,
      "ĠÅ¡ÃŃt": 9311,
      "ĠkÃ¡p": 9312,
      "ĠbuÅĻ": 9313,
      "Ġiem": 9314,
      "Ġzvrou": 9315,
      "Ġslas": 9316,
      "Ġpim": 9317,
      "ĠvmÅĻÃŃ": 9318,
      "Ġklic": 9319,
      "Ġzhni": 9320,
      "ĠstouÅ¡": 9321,
      "ĠkskrÃ¡": 9322,
      "ĠsvÃŃÅ¾": 9323,
      "ĠsrÃ½": 9324,
      "ĠtÃ©mÅ¾": 9325,
      "ĠplÃŃÅĻ": 9326,
      "ĠplouÄį": 9327,
      "Ġvkrok": 9328,
      "Ġkir": 9329,
      "ĠsmÃ½t": 9330,
      "Ġkfa": 9331,
      "AAABBB": 9332,
      "ĠlpÄĽl": 9333,
      "Ġdsber": 9334,
      "Ġrhap": 9335,
      "ABAA": 9336,
      "Ġskd": 9337,
      "ĠgÃŃ": 9338,
      "Ġplz": 9339,
      "Ġskol": 9340,
      "ĠÅ¡pÃ¡d": 9341,
      "ĠkÅĻu": 9342,
      "ĠkÅĻad": 9343,
      "ĠsrÃ¡d": 9344,
      "Ġzbles": 9345,
      "Ġsvrz": 9346,
      "ĠvdÃŃk": 9347,
      "Ġzbit": 9348,
      "ĠvÅ¾el": 9349,
      "kleb": 9350,
      "ABAAAB": 9351,
      "ĠsÅĻas": 9352,
      "ĠjrÅ¯": 9353,
      "ĠstÃ¤n": 9354,
      "Ġac": 9355,
      "ĠhoÅ¥": 9356,
      "ABAAXB": 9357,
      "ÅĪÅ¯": 9358,
      "Ġzus": 9359,
      "Ġzraj": 9360,
      "ĠstuÄį": 9361,
      "ĠsvÃŃt": 9362,
      "ĠsdvÄĽ": 9363,
      "Ġgard": 9364,
      "Ġthra": 9365,
      "ĠthÃº": 9366,
      "Ġkrist": 9367,
      "Ġpath": 9368,
      "Ġllist": 9369,
      "Ġchlin": 9370,
      "Ġvrys": 9371,
      "ĠÄįter": 9372,
      "Ġstrouch": 9373,
      "Ġzbiv": 9374,
      "Ġcvrli": 9375,
      "Ġvsuk": 9376,
      "Ġbourg": 9377,
      "pak": 9378,
      "ĠbÃº": 9379,
      "ĠÅ¾pak": 9380,
      "ĠjiÄį": 9381,
      "Ġrom": 9382,
      "ĠsknÄĽÅ¾": 9383,
      "Ġmoch": 9384,
      "ĠtrÃ½ch": 9385,
      "Ġvpta": 9386,
      "ĠsoÄį": 9387,
      "Ġev": 9388,
      "Ġklan": 9389,
      "ĠrÃ©s": 9390,
      "ĠkvÄĽz": 9391,
      "ĠkvÄĽÅ¥": 9392,
      "ĠvlÅ¯m": 9393,
      "ĠzhÅĻÃ¡": 9394,
      "Ġvbri": 9395,
      "Ġkska": 9396,
      "Ġstych": 9397,
      "Ġotr": 9398,
      "ĠvnÄĽk": 9399,
      "ĠkryÅ¡": 9400,
      "ĠkmÃ¡": 9401,
      "ĠtÃ½mÅ¾": 9402,
      "Ġsbol": 9403,
      "ĠzmaÄį": 9404,
      "ĠÄįals": 9405,
      "Ġint": 9406,
      "ĠzbÃ½t": 9407,
      "Ġkfor": 9408,
      "ĠkÅ¡pal": 9409,
      "Ġcpe": 9410,
      "vÅ¯": 9411,
      "ĠtÃº": 9412,
      "ouc": 9413,
      "Ġaz": 9414,
      "lÃ¡Å¡": 9415,
      "Ġslap": 9416,
      "Ġnuls": 9417,
      "Ġkrost": 9418,
      "ĠsblÃ¡": 9419,
      "Ġfez": 9420,
      "Ġzpoc": 9421,
      "ĠsnÃ¡d": 9422,
      "ĠzlÃ©t": 9423,
      "ĠvÅĻÃŃj": 9424,
      "Ġzprav": 9425,
      "Ġkstu": 9426,
      "Ġksmut": 9427,
      "Ġthar": 9428,
      "Ġmzdou": 9429,
      "Ġvklam": 9430,
      "Ġaetny": 9431,
      "ĠbÃ³v": 9432,
      "Ġcloud": 9433,
      "Ġvvzdor": 9434,
      "ĠcÅ¾ech": 9435,
      "souc": 9436,
      "Ġleg": 9437,
      "ĠnÃ©r": 9438,
      "ĠvÃŃz": 9439,
      "ĠzkvÄĽt": 9440,
      "Ġvstat": 9441,
      "Ġcyn": 9442,
      "ĠstÃ©z": 9443,
      "Ġkver": 9444,
      "ĠtÄĽls": 9445,
      "ĠÅ¡tem": 9446,
      "ĠvtuÄį": 9447,
      "ĠvkroÄį": 9448,
      "Ġshrk": 9449,
      "ĠÄįrt": 9450,
      "Ġsvlek": 9451,
      "Ġchroust": 9452,
      "Ġeylau": 9453,
      "Ġaeolos": 9454,
      "Ġzai": 9455,
      "ĠroÄı": 9456,
      "Ġjad": 9457,
      "ĠsmlÃ©": 9458,
      "ĠsÃŃr": 9459,
      "Ġhlej": 9460,
      "ĠsyÅ¥": 9461,
      "Ġchon": 9462,
      "ĠvknÃŃ": 9463,
      "Ġzont": 9464,
      "Ġpouz": 9465,
      "ĠzknÄĽ": 9466,
      "Ġvher": 9467,
      "ĠvhÅĻb": 9468,
      "Ġslic": 9469,
      "Ġtlam": 9470,
      "Ġdlin": 9471,
      "ĠÅ¡lap": 9472,
      "Ġhloun": 9473,
      "ĠÅ¡pin": 9474,
      "Ġvnoz": 9475,
      "Ġvjsouc": 9476,
      "Ġkzis": 9477,
      "Ġthou": 9478,
      "Ġvskon": 9479,
      "Ġvlip": 9480,
      "Ġsproz": 9481,
      "Ġtheb": 9482,
      "Ġzten": 9483,
      "Ġvdes": 9484,
      "ĠcÃ©v": 9485,
      "ĠÅ¡touch": 9486,
      "ĠvhÅĻbet": 9487,
      "dlÃ©": 9488,
      "ĠÄįkÃ¡": 9489,
      "Ġlais": 9490,
      "Ġrar": 9491,
      "Ġtyk": 9492,
[...]
