{
  "version": "1.0",
  "truncation": null,
  "padding": null,
  "added_tokens": [
    {
      "id": 0,
      "content": "<|EOS|>",
      "single_word": false,
      "lstrip": false,
      "rstrip": false,
      "normalized": false,
      "special": true
    },
    {
      "id": 1,
      "content": "<|PAD|>",
      "single_word": false,
      "lstrip": false,
      "rstrip": false,
      "normalized": false,
      "special": true
    },
    {
      "id": 2,
      "content": "<|UNK|>",
      "single_word": false,
      "lstrip": false,
      "rstrip": false,
      "normalized": false,
      "special": true
    },
    {
      "id": 3,
      "content": "<|CLS|>",
      "single_word": false,
      "lstrip": false,
      "rstrip": false,
      "normalized": false,
      "special": true
    }
  ],
  "normalizer": null,
  "pre_tokenizer": {
    "type": "ByteLevel",
    "add_prefix_space": false,
    "trim_offsets": true,
    "use_regex": true
  },
  "post_processor": {
    "type": "RobertaProcessing",
    "sep": [
      "<|EOS|>",
      0
    ],
    "cls": [
      "<|CLS|>",
      3
    ],
    "trim_offsets": false,
    "add_prefix_space": false
  },
  "decoder": {
    "type": "ByteLevel",
    "add_prefix_space": true,
    "trim_offsets": true,
    "use_regex": true
  },
  "model": {
    "type": "BPE",
    "dropout": null,
    "unk_token": null,
    "continuing_subword_prefix": null,
    "end_of_word_suffix": null,
    "fuse_unk": false,
    "byte_fallback": false,
    "vocab": {
      "<|EOS|>": 0,
      "<|PAD|>": 1,
      "<|UNK|>": 2,
      "<|CLS|>": 3,
      "!": 4,
      "#": 5,
      ",": 6,
      ".": 7,
      "0": 8,
      "1": 9,
      "2": 10,
      "3": 11,
      "4": 12,
      "5": 13,
      "6": 14,
      "7": 15,
      "8": 16,
      "9": 17,
      "?": 18,
      "A": 19,
      "B": 20,
      "C": 21,
      "D": 22,
      "H": 23,
      "J": 24,
      "N": 25,
      "P": 26,
      "T": 27,
      "X": 28,
      "Y": 29,
      "a": 30,
      "b": 31,
      "c": 32,
      "d": 33,
      "e": 34,
      "f": 35,
      "g": 36,
      "h": 37,
      "i": 38,
      "j": 39,
      "k": 40,
      "l": 41,
      "m": 42,
      "n": 43,
      "o": 44,
      "p": 45,
      "q": 46,
      "r": 47,
      "s": 48,
      "t": 49,
      "u": 50,
      "v": 51,
      "w": 52,
      "x": 53,
      "y": 54,
      "z": 55,
      "¡": 56,
      "¤": 57,
      "¥": 58,
      "©": 59,
      "¯": 60,
      "³": 61,
      "¶": 62,
      "º": 63,
      "¼": 64,
      "½": 65,
      "¾": 66,
      "Ã": 67,
      "Ä": 68,
      "Å": 69,
      "Ċ": 70,
      "Ġ": 71,
      "Ī": 72,
      "į": 73,
      "ı": 74,
      "Ļ": 75,
      "Ľ": 76,
      "Ń": 77,
      "Ġ#": 78,
      "Ġs": 79,
      "Ġn": 80,
      "ÃŃ": 81,
      "Ġv": 82,
      "Ã¡": 83,
      "Ġt": 84,
      "Ġk": 85,
      "Ġ1": 86,
      "Ġd": 87,
      "Ġp": 88,
      "Ġj": 89,
      "ÄĽ": 90,
      "Ġm": 91,
      "Ġl": 92,
      "Ġz": 93,
      "ĠÅ": 94,
      "Ġb": 95,
      "Ġc": 96,
      "Ġh": 97,
      "Ã½": 98,
      "Ã©": 99,
      "ou": 100,
      "Ġr": 101,
      "Äį": 102,
      "Ġa": 103,
      "Ġst": 104,
      "ÅĻ": 105,
      "Ġje": 106,
      "Ġ10": 107,
      "Ġ8": 108,
      "ch": 109,
      "Ġse": 110,
      "Å¾": 111,
      "Ġ11": 112,
      "Ġne": 113,
      "la": 114,
      "ĠÅ¾": 115,
      "ĠÅ¡": 116,
      "Ġna": 117,
      "Å¡": 118,
      "Å¯": 119,
      "ĠÄį": 120,
      "Ġch": 121,
      "Ġo": 122,
      "Ġpo": 123,
      "em": 124,
      "ra": 125,
      "XX": 126,
      "ĠnÃŃ": 127,
      "Ġsv": 128,
      "Ġle": 129,
      "Ġko": 130,
      "ak": 131,
      "le": 132,
      "ro": 133,
      "Ġho": 134,
      "st": 135,
      "AB": 136,
      "ĠÅĻ": 137,
      "rÃ¡": 138,
      "Ġce": 139,
      "Ġ9": 140,
      "Ġli": 141,
      "Ġte": 142,
      "Ġdo": 143,
      "Ġza": 144,
      "ĠnÄĽ": 145,
      "ÅĻe": 146,
      "Ġto": 147,
      "Ġti": 148,
      "ĠÅ¾e": 149,
      "Ġka": 150,
      "Ġby": 151,
      "ĠnÃ¡": 152,
      "Ġno": 153,
      "Ġ19": 154,
      "Ġ7": 155,
      "Ġji": 156,
      "Ġve": 157,
      "Ġla": 158,
      "Ġmi": 159,
      "ĠnÃ½": 160,
      "Ġsl": 161,
      "Ġro": 162,
      "Ġni": 163,
      "Ġta": 164,
      "Ġva": 165,
      "ĠjÃŃ": 166,
      "Ġu": 167,
      "ĠvÄĽ": 168,
      "ÅĻÃŃ": 169,
      "ĠnÃ©": 170,
      "Ġkd": 171,
      "ĠtÄĽ": 172,
      "ĠvÅ¡": 173,
      "Ġsk": 174,
      "Ġde": 175,
      "ĠvÃ¡": 176,
      "Ġvo": 177,
      "ĠÅ¡e": 178,
      "ĠÄįe": 179,
      "Ġlo": 180,
      "nÃŃ": 181,
      "Ġky": 182,
      "Ġmo": 183,
      "Ġku": 184,
      "Ġ6": 185,
      "ĠdÄĽ": 186,
      "al": 187,
      "il": 188,
      "Ġdu": 189,
      "Ġmu": 190,
      "ĠvÃŃ": 191,
      "Ġbo": 192,
      "ne": 193,
      "Ġvy": 194,
      "Ġ12": 195,
      "Ġtv": 196,
      "Ġjak": 197,
      "Ġvz": 198,
      "lo": 199,
      "Ġpa": 200,
      "ĠtÃŃ": 201,
      "Ġjs": 202,
      "Ġ18": 203,
      "vÄĽ": 204,
      "li": 205,
      "ĠmÄĽ": 206,
      "nÄĽ": 207,
      "ĠdÃ¡": 208,
      "Ġme": 209,
      "Ġze": 210,
      "Ġsp": 211,
      "Ġja": 212,
      "Ġpro": 213,
      "lÃ¡": 214,
      "ĠdÃŃ": 215,
      "Ã½ch": 216,
      "Ġtu": 217,
      "Ġru": 218,
      "Ġma": 219,
      "Ġvi": 220,
      "ru": 221,
      "Ġci": 222,
      "Ġnou": 223,
      "ĠAB": 224,
      "Ġnu": 225,
      "Ġdi": 226,
      "Ġbe": 227,
      "ÅĻi": 228,
      "Ġsta": 229,
      "00": 230,
      "Ġ1900": 231,
      "Ġjen": 232,
      "ĠmÃ¡": 233,
      "ĠcÃŃ": 234,
      "Å¥": 235,
      "XXXX": 236,
      "XA": 237,
      "Ġda": 238,
      "ĠÅĻe": 239,
      "ĠÅ¾i": 240,
      "Ġ13": 241,
      "ĠpÅĻe": 242,
      "Ġco": 243,
      "ĠÅ¡ÃŃ": 244,
      "Ġsi": 245,
      "Ġbu": 246,
      "lÃŃ": 247,
      "Ġra": 248,
      "ĠlÃŃ": 249,
      "ĠlÃ¡": 250,
      "Ġkdy": 251,
      "lu": 252,
      "Ġsm": 253,
      "Ġzd": 254,
      "ĠÄįi": 255,
      "Ã½m": 256,
      "ĠÄįÃŃ": 257,
      "ĠABAB": 258,
      "Ġny": 259,
      "Ġi": 260,
      "vÃŃ": 261,
      "Ġty": 262,
      "ĠrÃ¡": 263,
      "ĠmÃŃ": 264,
      "Ġhla": 265,
      "ĠvÅ¡e": 266,
      "ĠkÃ¡": 267,
      "ĠsvÄĽ": 268,
      "Ġzv": 269,
      "ĠkrÃ¡": 270,
      "ĠÅĻÃŃ": 271,
      "ĠA": 272,
      "80": 273,
      "Ġ1880": 274,
      "Ġsti": 275,
      "na": 276,
      "Ġdy": 277,
      "20": 278,
      "Ġha": 279,
      "ĠXXXX": 280,
      "ĠzÃ¡": 281,
      "ĠsÃŃ": 282,
      "Ġly": 283,
      "ĠbÄĽ": 284,
      "ĠÃ": 285,
      "Ã©m": 286,
      "ĠÅ¾ÃŃ": 287,
      "Ġtak": 288,
      "Äı": 289,
      "ce": 290,
      "te": 291,
      "Ġsa": 292,
      "no": 293,
      "ĠstÃŃ": 294,
      "Ġ1920": 295,
      "Ġjsem": 296,
      "je": 297,
      "Ġpe": 298,
      "nÃ¡": 299,
      "ÅĪ": 300,
      "Ġhle": 301,
      "ĠtÃ¡": 302,
      "ĠvÃ½": 303,
      "Ġpr": 304,
      "Ġkou": 305,
      "Ġkr": 306,
      "Ġpra": 307,
      "ĠpÅĻi": 308,
      "ni": 309,
      "Ġtr": 310,
      "Ġba": 311,
      "tÄĽ": 312,
      "rd": 313,
      "Ġzp": 314,
      "Ġlu": 315,
      "Ġvs": 316,
      "ĠÅ¡i": 317,
      "ĠkdyÅ¾": 318,
      "Ġcho": 319,
      "lou": 320,
      "Ġvp": 321,
      "ĠpÃŃ": 322,
      "ĠjÃ¡": 323,
      "tÃŃ": 324,
      "Ġsla": 325,
      "Ġmy": 326,
      "ti": 327,
      "Å¯j": 328,
      "dy": 329,
      "vÃ¡": 330,
      "Ġsto": 331,
      "ĠvÃ©": 332,
      "Ġ5": 333,
      "ly": 334,
      "Ġhu": 335,
      "ĠpÃ¡": 336,
      "ĠAAB": 337,
      "Ġod": 338,
      "ĠbÃŃ": 339,
      "ĠstÃ¡": 340,
      "Ġsy": 341,
      "ĠtÃ©": 342,
      "ĠkÃ©": 343,
      "ĠlÃ©": 344,
      "va": 345,
      "ĠvÅ¡ak": 346,
      "ĠXA": 347,
      "Ġroz": 348,
      "ĠhÃ¡": 349,
      "ĠpÄĽ": 350,
      "Ġso": 351,
      "lÃ©": 352,
      "nou": 353,
      "Ġten": 354,
      "Ġf": 355,
      "Ġvd": 356,
      "Ġkde": 357,
      "ĠsvÃ©": 358,
      "ĠÄįa": 359,
      "Ġbi": 360,
      "ĠnÃ½ch": 361,
      "Ġsu": 362,
      "Ġsrd": 363,
      "Ġchu": 364,
      "ĠÅĻi": 365,
      "ĠÃº": 366,
      "Ġry": 367,
      "Ġste": 368,
      "ĠAABB": 369,
      "ku": 370,
      "Ġpla": 371,
      "Ġvu": 372,
      "Ġtam": 373,
      "ĠzÃŃ": 374,
      "ĠpÅĻÃŃ": 375,
      "Ġre": 376,
      "ĠkÃ½": 377,
      "ĠjiÅ¾": 378,
      "Ġvt": 379,
      "me": 380,
      "Ġslu": 381,
      "40": 382,
      "ĠkÅ¯": 383,
      "ĠsÃ¡": 384,
      "nÃ©": 385,
      "Ġtou": 386,
      "Ġvla": 387,
      "Ġbyl": 388,
      "Ġpu": 389,
      "sk": 390,
      "nu": 391,
      "Ġbra": 392,
      "ĠvÅ¾": 393,
      "ĠXAXA": 394,
      "Ġnad": 395,
      "Ġhy": 396,
      "Ġslo": 397,
      "jÃŃ": 398,
      "ĠjeÅ¾": 399,
      "Ġzra": 400,
      "Ġkem": 401,
      "Ġzm": 402,
      "ĠkvÄĽ": 403,
      "Ġkle": 404,
      "Ġzb": 405,
      "ny": 406,
      "ho": 407,
      "Ġdra": 408,
      "Ġzla": 409,
      "Ġkla": 410,
      "ĠbÃ¡": 411,
      "Ġbou": 412,
      "ka": 413,
      "Ġcha": 414,
      "Ġzas": 415,
      "ky": 416,
      "ĠnÃ½m": 417,
      "Ġhro": 418,
      "ĠmÃ©": 419,
      "ci": 420,
      "Ġval": 421,
      "ĠlÃ¡s": 422,
      "Ġdou": 423,
      "Ġg": 424,
      "lÃ½": 425,
      "Ġden": 426,
      "ĠlÃ½": 427,
      "tÃ¡": 428,
      "Ġtem": 429,
      "Ġe": 430,
      "vo": 431,
      "CC": 432,
      "Ġhra": 433,
      "ĠÄįer": 434,
      "Ġkte": 435,
      "Ġpou": 436,
      "ĠdÃ½": 437,
      "Ġzi": 438,
      "du": 439,
      "ĠvÅ¾dy": 440,
      "Ġpod": 441,
      "ĠprÃ¡": 442,
      "ĠtvÃ¡": 443,
      "Ġbez": 444,
      "Ġpak": 445,
      "Ġkdo": 446,
      "ĠtÃ½": 447,
      "ĠnÃŃm": 448,
      "Ġjed": 449,
      "Ġvk": 450,
      "Ġspo": 451,
      "Ġsou": 452,
      "ĠnÃ¡m": 453,
      "Ġsva": 454,
      "ve": 455,
      "Ġ15": 456,
      "ĠjenÅ¾": 457,
      "ĠplÃ¡": 458,
      "nÃ½": 459,
      "Ġstra": 460,
      "Ġvra": 461,
      "Ġlem": 462,
      "Ġsle": 463,
      "Ġbla": 464,
      "Ġ14": 465,
      "Ġmne": 466,
      "Ġvr": 467,
      "ĠsvÄĽt": 468,
      "Å¯m": 469,
      "Ġzo": 470,
      "ĠchÃ¡": 471,
      "Ġhr": 472,
      "Ġjest": 473,
      "ĠaÅ¾": 474,
      "de": 475,
      "Ġpi": 476,
      "ĠXXXXXX": 477,
      "Äįe": 478,
      "Ġjich": 479,
      "ĠdÃ©": 480,
      "60": 481,
      "Ġsvo": 482,
      "ĠpÅĻed": 483,
      "Ġvou": 484,
      "Ġhou": 485,
      "Ġsna": 486,
      "ĠÃ³": 487,
      "cÃŃ": 488,
      "Ġpl": 489,
      "Ġdne": 490,
      "Ġvm": 491,
      "ĠtÅĻe": 492,
      "ĠbÃ½": 493,
      "Ġzem": 494,
      "Ġkra": 495,
      "ĠrÅ¯": 496,
      "Ġlou": 497,
      "Ġlid": 498,
      "Ġsly": 499,
      "Ġble": 500,
      "Ġdr": 501,
      "Ġvst": 502,
      "Ġ4": 503,
      "Ġstu": 504,
      "Ġchy": 505,
      "Ġdru": 506,
      "Ġke": 507,
      "ĠteÄı": 508,
      "ĠjeÅ¡": 509,
      "Ġsem": 510,
      "vÃ©": 511,
      "Ġzu": 512,
      "Ġzt": 513,
      "Ġsvou": 514,
      "Ġdla": 515,
      "ĠdÄĽl": 516,
      "sti": 517,
      "ĠÅ¡el": 518,
      "ĠchvÃŃ": 519,
      "Ġ16": 520,
      "Ġbr": 521,
      "Ġjej": 522,
      "ĠkaÅ¾": 523,
      "Ġhe": 524,
      "ĠvÅ¯": 525,
      "Ġkli": 526,
      "ĠuÅ¾": 527,
      "ĠÅ¾Ã¡": 528,
      "ÅĻÃ¡": 529,
      "Ġtvo": 530,
      "ÄįÃŃ": 531,
      "Ġ1940": 532,
      "Ġstro": 533,
      "vÄĽz": 534,
      "Å¾ÃŃ": 535,
      "dÃŃ": 536,
      "Ġvl": 537,
      "Ġjsou": 538,
      "Ġmra": 539,
      "ĠkrÃ¡s": 540,
      "Ġon": 541,
      "BA": 542,
      "ĠmÅ¯j": 543,
      "Ġzvo": 544,
      "ĠchvÄĽ": 545,
      "Ġjsi": 546,
      "ĠmÅ¯": 547,
      "Ġvb": 548,
      "Ġkro": 549,
      "Ġvel": 550,
      "kÃ¡": 551,
      "ĠvÅ¡ech": 552,
      "Ġjem": 553,
      "ĠtÃŃm": 554,
      "Å¡ÃŃ": 555,
      "ĠnÃ©m": 556,
      "ĠhvÄĽz": 557,
      "Ġdal": 558,
      "ry": 559,
      "Ġslun": 560,
      "ĠstÅĻe": 561,
      "ĠstÄĽ": 562,
      "Ġnech": 563,
      "Ġsnad": 564,
      "ĠmnÄĽ": 565,
      "Å¡e": 566,
      "ha": 567,
      "ji": 568,
      "Ġzde": 569,
      "ĠvÅ¡ec": 570,
      "ĠsvÃŃ": 571,
      "Ġmr": 572,
      "ĠtvÃ©": 573,
      "ĠsnÃŃ": 574,
      "ĠrÃ½": 575,
      "dÃ¡": 576,
      "Ġneb": 577,
      "Ġnej": 578,
      "Ġmla": 579,
      "ĠkÅĻÃŃ": 580,
      "ĠsÃ¡m": 581,
      "ĠABBA": 582,
      "Ġbych": 583,
      "ĠneÅ¾": 584,
      "ĠrÃ©": 585,
      "Ġob": 586,
      "Ġnes": 587,
      "ĠskÃ©": 588,
      "Ġvh": 589,
      "Ġrou": 590,
      "Ġdnes": 591,
      "Ġ1860": 592,
      "ĠdÃ¡l": 593,
      "Ġkol": 594,
      "at": 595,
      "Ġstr": 596,
      "ĠvÅĻe": 597,
      "Ġtra": 598,
      "Ġdlou": 599,
      "Ġnem": 600,
      "Ġtro": 601,
      "ĠslÃ¡": 602,
      "ĠÅ¡tÄĽ": 603,
      "Ġ1840": 604,
      "ĠzpÄĽ": 605,
      "Ġdem": 606,
      "Ġvzp": 607,
      "ko": 608,
      "Ġmou": 609,
      "ĠkvÄĽt": 610,
      "Ġslad": 611,
      "Ġhlu": 612,
      "ĠvrÃ¡": 613,
      "ĠaÅ¥": 614,
      "ĠÄįas": 615,
      "Ġtel": 616,
      "Ġtm": 617,
      "Ġvot": 618,
      "ĠvÄĽÄį": 619,
      "Ġdle": 620,
      "Ġhlas": 621,
      "ĠhÃ½": 622,
      "Ġjas": 623,
      "it": 624,
      "ĠznÃ¡": 625,
      "ĠzdÃ¡": 626,
      "ĠzÅĻÃŃ": 627,
      "ĠnÃ¡s": 628,
      "Ġzy": 629,
      "Ġkam": 630,
      "ĠbÅ¯": 631,
      "ĠptÃ¡": 632,
      "Ġmat": 633,
      "ĠvÃ¡m": 634,
      "ĠAA": 635,
      "ut": 636,
      "Ġmno": 637,
      "vy": 638,
      "ĠsmÄĽ": 639,
      "Ġles": 640,
      "Ġzh": 641,
      "ĠchtÄĽ": 642,
      "Ġsmr": 643,
      "ĠblÃŃ": 644,
      "Ġjsme": 645,
      "Ġstou": 646,
      "ĠbrÃ¡": 647,
      "Ġzve": 648,
      "Ġnost": 649,
      "ĠskÃ¡": 650,
      "ĠvlÃ¡": 651,
      "ĠÅ¡le": 652,
      "Ġtom": 653,
      "ĠmÄĽl": 654,
      "vi": 655,
      "Ġple": 656,
      "Ġklo": 657,
      "Å¾e": 658,
      "ze": 659,
      "dÄĽ": 660,
      "Ġks": 661,
      "Ġnik": 662,
      "Ġzlo": 663,
      "ĠstvÃŃ": 664,
      "Ġpy": 665,
      "ĠpÃŃs": 666,
      "ĠsnÄĽ": 667,
      "Ġsko": 668,
      "Ġml": 669,
      "Ġpoz": 670,
      "Ġchla": 671,
      "ĠtÅ¯": 672,
      "ĠdÅĻÃŃ": 673,
      "Ġdiv": 674,
      "ĠspÄĽ": 675,
      "Ġmlu": 676,
      "Ġsb": 677,
      "ĠnÄĽj": 678,
      "Ġnic": 679,
      "Ġsil": 680,
      "ĠbÅĻe": 681,
      "Ġjim": 682,
      "Ġzrak": 683,
      "Ġspa": 684,
      "to": 685,
      "Ġsli": 686,
      "val": 687,
      "ĠnÅ¯": 688,
      "Ġzk": 689,
      "Ġju": 690,
      "Ġnez": 691,
      "ĠÅ¡u": 692,
      "ĠbÅ¯h": 693,
      "ĠsmÃŃ": 694,
      "ĠvÃŃc": 695,
      "Ġvpo": 696,
      "ĠtÅĻÃŃ": 697,
      "ĠkÅĻi": 698,
      "ĠhrÃ¡": 699,
      "Ġlet": 700,
      "Ġmoc": 701,
      "Ġvil": 702,
      "Ġtil": 703,
      "Ġzda": 704,
      "Ã¡t": 705,
      "Ġmen": 706,
      "Ġkre": 707,
      "ĠcÃŃch": 708,
      "stÃŃ": 709,
      "ĠÅĪ": 710,
      "ĠleÄį": 711,
      "Ġvle": 712,
      "Ġzvu": 713,
      "ĠlÅ¯": 714,
      "Ġnul": 715,
      "Ġsen": 716,
      "ĠsvÅ¯j": 717,
      "ĠhÃ©": 718,
      "ĠdÅ¯": 719,
      "Ġsmut": 720,
      "Ġsty": 721,
      "Ġsh": 722,
      "Ġmar": 723,
      "Ġdl": 724,
      "ĠpÅ¯": 725,
      "Ġdost": 726,
      "Ġven": 727,
      "Ġri": 728,
      "Ġsch": 729,
      "Ġdli": 730,
      "ĠXX": 731,
      "Ġvto": 732,
      "Ġhne": 733,
      "ty": 734,
      "Ġdil": 735,
      "ĠÅ¾a": 736,
      "Ġtru": 737,
      "ĠzpÃŃ": 738,
      "ĠÄįlo": 739,
      "vu": 740,
      "Ġrod": 741,
      "ta": 742,
      "vou": 743,
      "Ġkry": 744,
      "sÅ¥": 745,
      "Ġkru": 746,
      "Ġchem": 747,
      "Ġsud": 748,
      "ĠvÃŃm": 749,
      "Ġklid": 750,
      "Ġtla": 751,
      "Ġpad": 752,
      "vÃ½": 753,
      "ĠrÃ¡d": 754,
      "ste": 755,
      "ĠtÃ©Å¾": 756,
      "ĠzvÄĽ": 757,
      "ĠtvÅ¯j": 758,
      "ĠAABBCC": 759,
      "Ġhned": 760,
      "ĠÅ¾il": 761,
      "Ġan": 762,
      "ĠkrÃ¡t": 763,
      "ĠspÃŃ": 764,
      "ĠtÄĽch": 765,
      "Ġchce": 766,
      "ĠvnÄĽ": 767,
      "ĠÅĻa": 768,
      "ĠsvÃ½ch": 769,
      "Ġvat": 770,
      "ĠhÅĻÃŃ": 771,
      "Ãº": 772,
      "ĠpÅĻÃ¡": 773,
      "Ġdech": 774,
      "ĠnÃŃk": 775,
      "ĠspÃ¡": 776,
      "ĠvÃ½ch": 777,
      "ĠknÄĽ": 778,
      "mu": 779,
      "Ġtek": 780,
      "Ġrem": 781,
      "ĠAAXX": 782,
      "ĠkvÃŃ": 783,
      "ĠsvÃ½m": 784,
      "ĠÅ¥": 785,
      "Ġach": 786,
      "ĠmÃ¡m": 787,
      "nich": 788,
      "ĠvÄĽk": 789,
      "Ġnoc": 790,
      "ĠtÄĽÅ¾": 791,
      "ĠkÃ½ch": 792,
      "nÅ¯": 793,
      "Ġot": 794,
      "Ġsled": 795,
      "ĠjÃŃm": 796,
      "ĠproÄį": 797,
      "Ġzje": 798,
      "Ã¡l": 799,
      "ĠbuÄı": 800,
      "ĠstrÃ¡": 801,
      "ĠnÄĽm": 802,
      "Ġvem": 803,
      "ĠÅ¡li": 804,
      "ĠvÃ¡s": 805,
      "ĠnÃ¡Å¡": 806,
      "ĠzÅĻe": 807,
      "Ġnom": 808,
      "ĠskÃ½": 809,
      "Ġslou": 810,
      "ĠpÅĻec": 811,
      "Ġprav": 812,
      "Ġbro": 813,
      "Ġhor": 814,
      "mi": 815,
      "ĠklÃŃ": 816,
      "Ġkrev": 817,
      "ĠslÃŃ": 818,
      "Ġcem": 819,
      "ĠseÅĪ": 820,
      "Ġhled": 821,
      "or": 822,
      "ĠÅ¡la": 823,
      "Ġvdu": 824,
      "ĠznÃŃ": 825,
      "Ġnek": 826,
      "Ġvtom": 827,
      "Ġfa": 828,
      "Ġduch": 829,
      "Ġdro": 830,
      "ĠvÃ½m": 831,
      "ĠchÃ½": 832,
      "ĠdÃ¡v": 833,
      "Ġprou": 834,
      "ĠÄįÃŃm": 835,
      "ĠvÄįe": 836,
      "ĠznÄĽ": 837,
      "ĠÄįek": 838,
      "ĠchrÃ¡": 839,
      "Ġvol": 840,
      "Ġkve": 841,
      "dou": 842,
      "Ġtva": 843,
      "Ġkal": 844,
      "ĠmlÃ¡": 845,
      "bÄĽ": 846,
      "tu": 847,
      "Ġkp": 848,
      "Ġjste": 849,
      "ĠstÅĻÃŃ": 850,
      "Ġslav": 851,
      "zÃŃ": 852,
      "ĠÅ¾en": 853,
      "hu": 854,
      "Ġhru": 855,
      "ĠmuÅ¾": 856,
      "Ġlen": 857,
      "ĠvÃ¡Å¡": 858,
      "ĠbÃ½t": 859,
      "Ġprv": 860,
      "Ġkne": 861,
      "ĠpÅĻes": 862,
      "Ġvlast": 863,
      "chu": 864,
      "ĠABABCC": 865,
      "ĠdÃŃm": 866,
      "Ġjde": 867,
      "Ġbes": 868,
      "ĠvÄĽr": 869,
      "ĠvnÄĽm": 870,
      "ĠtrÃ¡": 871,
      "ĠÅ¡ÃŃm": 872,
      "Ġpil": 873,
      "ĠÄįil": 874,
      "Ġvje": 875,
      "Ġhem": 876,
      "ĠhnÄĽ": 877,
      "Ġus": 878,
      "ĠcÅ¯": 879,
      "Ġzou": 880,
      "ĠstÃ©": 881,
      "ĠkÃ½m": 882,
      "sÃŃ": 883,
      "hÃ¡": 884,
      "Ġdva": 885,
      "Ġdej": 886,
      "ĠtÅĻi": 887,
      "ĠsvÃ¡": 888,
      "ĠnÃŃch": 889,
      "Ġnec": 890,
      "ĠsÅ¯": 891,
      "AX": 892,
      "Ġnil": 893,
      "nem": 894,
      "ĠchtÄĽl": 895,
      "Ġzno": 896,
      "Å¾i": 897,
      "ĠÅ¡a": 898,
      "ĠhlÃŃ": 899,
      "Ġvsrd": 900,
      "Ġkl": 901,
      "AA": 902,
      "Ġdlo": 903,
      "mÃŃ": 904,
      "hy": 905,
      "ja": 906,
      "da": 907,
      "ĠmÃ½": 908,
      "Ġtma": 909,
      "Ġchlad": 910,
      "Ġvzdu": 911,
      "Ġtlu": 912,
      "ĠdÃŃv": 913,
      "ĠtvÃ¡ÅĻ": 914,
      "Ġoh": 915,
      "Ġ3": 916,
      "ĠABABXX": 917,
      "kÅ¯": 918,
      "mÄĽ": 919,
      "ĠklÃ¡": 920,
      "Ġvzpo": 921,
      "ĠneÄį": 922,
      "Ġdvo": 923,
      "ĠkrÃ¡l": 924,
      "se": 925,
      "ĠdrÃ¡": 926,
      "Ġ1960": 927,
      "Å¡i": 928,
      "Ġkon": 929,
      "Ġvne": 930,
      "Ġhl": 931,
      "ĠnÄĽk": 932,
      "ĠvzÃ¡": 933,
      "ĠÅĻÃ¡": 934,
      "Ġnout": 935,
      "ĠvÅ¡em": 936,
      "nÃ½ch": 937,
      "rÃ½": 938,
      "Ġzna": 939,
      "Ġkni": 940,
      "ĠtÅĻ": 941,
      "ĠÅĻil": 942,
      "Ġsni": 943,
      "Ġplo": 944,
      "Ġcit": 945,
      "ĠÅĻek": 946,
      "ĠzrÃ¡": 947,
      "ĠpÄĽt": 948,
      "ĠmÃŃr": 949,
      "ĠskÃ½ch": 950,
      "Äįi": 951,
      "Ġvod": 952,
      "ĠdeÅ¡": 953,
      "ĠstÃ½": 954,
      "Ġdob": 955,
      "Ġps": 956,
      "ĠvÅ¾dyÅ¥": 957,
      "Ġnal": 958,
      "ĠchvÃ¡": 959,
      "ĠÅ¡Å¥": 960,
      "Ġlost": 961,
      "ĠpÃ¡n": 962,
      "Ġblou": 963,
      "ast": 964,
      "lem": 965,
      "Ġpom": 966,
      "ĠdÄĽt": 967,
      "ĠvlÃŃ": 968,
      "kem": 969,
      "ĠpÅĻij": 970,
      "Ġ17": 971,
      "ĠskrÃ¡": 972,
      "Ġrov": 973,
      "ĠknÃŃ": 974,
      "Ġhod": 975,
      "Ġmnou": 976,
      "Ġstal": 977,
      "ĠdÃ¡m": 978,
      "Ġhlou": 979,
      "rÅ¯": 980,
      "be": 981,
      "Ġchle": 982,
      "ĠstÃŃn": 983,
      "ĠhÅĻ": 984,
      "Ġvno": 985,
      "Ġvch": 986,
      "ĠvdÄĽ": 987,
      "ĠÅ¡tÃŃ": 988,
      "ĠtvÃ½ch": 989,
      "ĠtÃ¡h": 990,
      "Ġsed": 991,
      "Ã³": 992,
      "Ġsne": 993,
      "ĠÅ¾al": 994,
      "ĠzmÄĽ": 995,
      "ĠÅ¡p": 996,
      "ĠÄı": 997,
      "ĠsvÃ©m": 998,
      "Ġskry": 999,
      "Ġplu": 1000,
      "ĠsÃŃc": 1001,
      "Ġleh": 1002,
      "Ġpan": 1003,
      "vat": 1004,
      "ma": 1005,
      "Ġjo": 1006,
      "ĠtvÃŃ": 1007,
      "ĠhÅ¯": 1008,
      "py": 1009,
      "Ġvna": 1010,
      "Ġpru": 1011,
      "Ġlov": 1012,
      "ĠdlÃŃ": 1013,
      "ĠkÅĻe": 1014,
      "ĠÅ¾el": 1015,
      "ĠXXAA": 1016,
      "ĠsmÃŃch": 1017,
      "ĠzpÄĽv": 1018,
      "Ġpal": 1019,
      "Ġzpo": 1020,
      "Ġdce": 1021,
      "ĠÄįes": 1022,
      "ĠvÅ¡i": 1023,
      "Ġvza": 1024,
      "ĠhlÃ¡": 1025,
      "ĠvÅ¡u": 1026,
      "ĠjuÅ¾": 1027,
      "ĠzÅ¯": 1028,
      "Ġves": 1029,
      "ĠcoÅ¾": 1030,
      "Ġstvo": 1031,
      "Ġvbo": 1032,
      "Ġlil": 1033,
      "ĠtÃ½ch": 1034,
      "ĠkÃ©m": 1035,
      "ĠÅ¾eh": 1036,
      "ĠhrÅ¯": 1037,
      "Ġstat": 1038,
      "Ġtlo": 1039,
      "ĠsklÃ¡": 1040,
      "Ġzle": 1041,
      "CCB": 1042,
      "ĠchÅ¯": 1043,
      "ĠvÃ©m": 1044,
      "hou": 1045,
      "ĠaÄį": 1046,
      "ĠstÃ¡l": 1047,
      "Ġca": 1048,
      "Ġlik": 1049,
      "ĠmÃ½ch": 1050,
      "ĠÅ¾Ã¡d": 1051,
      "ĠlÃ½ch": 1052,
      "ĠtÄĽz": 1053,
      "Ġ1820": 1054,
      "Ġkto": 1055,
      "ĠÅ¡ep": 1056,
      "Ġhrob": 1057,
      "Ġsvit": 1058,
      "Ġbys": 1059,
      "Ġtys": 1060,
      "Ġzbo": 1061,
      "nÃŃm": 1062,
      "Ġvrou": 1063,
      "Ġkdys": 1064,
      "kou": 1065,
      "Ġvzh": 1066,
      "ĠdÃ½m": 1067,
      "ĠÃºs": 1068,
      "ĠdvÄĽ": 1069,
      "vil": 1070,
      "ĠAXA": 1071,
      "ĠÅĪa": 1072,
      "ĠAABCCB": 1073,
      "Ġvti": 1074,
      "Å¡Å¥": 1075,
      "Ġsvi": 1076,
      "ABB": 1077,
      "ĠpÃ½": 1078,
      "ĠsnÃ¡": 1079,
      "Ġvro": 1080,
      "Ġvoj": 1081,
      "Ġbal": 1082,
      "Ġzdo": 1083,
      "Ġmd": 1084,
      "ĠvÃ¡n": 1085,
      "Ġchci": 1086,
      "ĠnÃ¡ch": 1087,
      "ĠvdÃ¡l": 1088,
      "ĠÅ¾ha": 1089,
      "Ġsmrt": 1090,
      "nost": 1091,
      "ĠkÃ¡ch": 1092,
      "ĠcÃŃm": 1093,
      "ĠneÅ¡": 1094,
      "Ġvzde": 1095,
      "Ġbles": 1096,
      "nÃ½m": 1097,
      "Ġply": 1098,
      "Ġzro": 1099,
      "Ġmal": 1100,
      "Ġvni": 1101,
      "ĠvnÃŃ": 1102,
      "Ġkme": 1103,
      "Ġtes": 1104,
      "mÃ©": 1105,
      "ĠÅ¾o": 1106,
      "tÃ½": 1107,
      "Ġlek": 1108,
      "Ġzel": 1109,
      "Ġdar": 1110,
      "Ġvzd": 1111,
      "bi": 1112,
      "Ġstej": 1113,
      "ĠXAAX": 1114,
      "Ġpev": 1115,
      "Ġboj": 1116,
      "Ġfi": 1117,
      "ĠmÅĻe": 1118,
      "Ġblo": 1119,
      "Ġvmo": 1120,
      "ĠzÃ¡ÅĻ": 1121,
      "sy": 1122,
      "ĠÅ¡Å¥ast": 1123,
      "Ġhrad": 1124,
      "Ġbil": 1125,
      "mo": 1126,
      "Ġper": 1127,
      "ĠhlÃ©": 1128,
      "Ġkri": 1129,
      "Ġhroz": 1130,
      "Ġche": 1131,
      "su": 1132,
      "Ġtec": 1133,
      "Ġhlo": 1134,
      "Ġlest": 1135,
      "tÃ©": 1136,
      "ĠvÄĽt": 1137,
      "ĠjÃŃc": 1138,
      "Ġcu": 1139,
      "ĠdÄĽj": 1140,
      "Ġnosti": 1141,
      "Ġcy": 1142,
      "Ġchod": 1143,
      "ĠteÄį": 1144,
      "my": 1145,
      "ĠzpÄĽt": 1146,
      "ĠblÃ¡": 1147,
      "ĠprÃ½": 1148,
      "Ġok": 1149,
      "ĠzvÃŃ": 1150,
      "ÅĻa": 1151,
      "Ġnit": 1152,
      "Ġkraj": 1153,
      "ĠhvÄĽzd": 1154,
      "ĠÅ¾Ã¡r": 1155,
      "Ġvru": 1156,
      "ĠtrÅ¯": 1157,
      "ĠbÃ¡s": 1158,
      "ĠboÅ¾": 1159,
      "ĠmÃŃn": 1160,
      "Ġman": 1161,
      "Ġsho": 1162,
      "ĠslyÅ¡": 1163,
      "Ġkva": 1164,
      "re": 1165,
      "Ġtry": 1166,
      "Ġzmi": 1167,
      "Ġztra": 1168,
      "Ġbli": 1169,
      "Ġskou": 1170,
      "Ġpoj": 1171,
      "Ġhal": 1172,
      "Ġy": 1173,
      "Ġtvou": 1174,
      "ĠdÅĻÃŃv": 1175,
      "Ġsbo": 1176,
      "Ġzved": 1177,
      "Ġzva": 1178,
      "Ġzby": 1179,
      "ĠzÅĻel": 1180,
      "Ġblu": 1181,
      "nul": 1182,
      "ĠÄįem": 1183,
      "Ġtan": 1184,
      "Ġchou": 1185,
      "Ġleb": 1186,
      "Ġska": 1187,
      "Ġge": 1188,
      "ĠvÅ¾dyc": 1189,
      "Ġled": 1190,
      "ĠprÃ¡z": 1191,
      "Ġga": 1192,
      "Ġkles": 1193,
      "Ġvsta": 1194,
      "Ġdruh": 1195,
      "Ġchal": 1196,
      "Ġmoh": 1197,
      "Ġtal": 1198,
      "ĠvÃº": 1199,
      "Ġjdou": 1200,
      "ĠÅ¡ko": 1201,
      "ĠsnÃŃm": 1202,
      "ĠÅĻÃŃm": 1203,
      "Ġzli": 1204,
      "ĠhÅĻe": 1205,
      "sta": 1206,
      "ĠÄįin": 1207,
      "Ġvpra": 1208,
      "ĠtoÅ¥": 1209,
      "Ġbol": 1210,
      "Ġbar": 1211,
      "ĠmoÅ¾": 1212,
      "ĠvtÃ©": 1213,
      "ĠÅ¡lÃ©": 1214,
      "Ġskal": 1215,
      "Ġjar": 1216,
      "ĠjmÃ©": 1217,
      "Ġznich": 1218,
      "ĠvÅ¡ÃŃ": 1219,
      "Ġkb": 1220,
      "Ġvnich": 1221,
      "Ġsklo": 1222,
      "ĠmÃ¡Å¡": 1223,
      "Ġpot": 1224,
      "ĠÄįÃ¡": 1225,
      "ĠvÃŃÅ¡": 1226,
      "Ġsr": 1227,
      "ĠlÃ½m": 1228,
      "ĠztrÃ¡": 1229,
      "ĠskrÃ½": 1230,
      "Ġvko": 1231,
      "Ġct": 1232,
      "Ġvdo": 1233,
      "Ġret": 1234,
      "Ġdve": 1235,
      "Ġgi": 1236,
      "Ġcen": 1237,
      "ĠjÃŃt": 1238,
      "ĠÄįen": 1239,
      "Ġpoh": 1240,
      "Ġstru": 1241,
      "ĠÄįel": 1242,
      "rou": 1243,
      "di": 1244,
      "ĠlÃ©m": 1245,
      "Ġzdra": 1246,
      "ĠchÃ©": 1247,
      "Ġvze": 1248,
      "Ġvho": 1249,
      "Ġtaj": 1250,
      "Ġhud": 1251,
      "by": 1252,
      "bu": 1253,
      "Ġcos": 1254,
      "sky": 1255,
      "ĠsnÅ¯": 1256,
      "ĠvlÃ¡d": 1257,
      "ĠÄįet": 1258,
      "ĠdÄĽs": 1259,
      "Ġsyn": 1260,
      "ĠskvÄĽ": 1261,
      "ĠblÃŃÅ¾": 1262,
      "ĠzmÃŃ": 1263,
      "Ġvan": 1264,
      "Ġtvr": 1265,
      "Ġvpa": 1266,
      "ĠnnÃ©": 1267,
      "nÃ¡m": 1268,
      "Ġzbra": 1269,
      "Ġslov": 1270,
      "Ġdin": 1271,
      "Ġnich": 1272,
      "ĠdÃ½ch": 1273,
      "Ġvlas": 1274,
      "Ġzvy": 1275,
      "Ġ2": 1276,
      "ĠpouÅ¡": 1277,
      "ĠmÄĽv": 1278,
      "ĠnechÅ¥": 1279,
      "ĠvtÄĽ": 1280,
      "Ġmem": 1281,
      "Ġnen": 1282,
      "Ġstem": 1283,
      "kÃ½": 1284,
      "ĠrÃ½ch": 1285,
      "Ġver": 1286,
      "Ġas": 1287,
      "ĠnnÃŃ": 1288,
      "Ġsten": 1289,
      "Ġvzte": 1290,
      "ĠvnÃ¡": 1291,
      "Ġvzne": 1292,
      "Ġlist": 1293,
      "ĠÅ¡ich": 1294,
      "ĠÅ¡il": 1295,
      "Ġpov": 1296,
      "rÃ¡z": 1297,
      "Ġcest": 1298,
      "ĠÅ¾li": 1299,
      "ĠtÅĻpy": 1300,
      "ĠjÃŃÅ¾": 1301,
      "ĠsnÃŃh": 1302,
      "Ġvzal": 1303,
      "Ġvlo": 1304,
      "ĠmÃ½m": 1305,
      "Ġjis": 1306,
      "ĠtÅĻÃ¡": 1307,
      "ĠvzhÅ¯": 1308,
      "lÃ½ch": 1309,
      "ĠvÃ¡Å¾": 1310,
      "Ġchra": 1311,
      "Ġzvol": 1312,
      "ĠvÃ½Å¡": 1313,
      "Ġzdvi": 1314,
      "Ġtech": 1315,
      "pÃŃ": 1316,
      "Ġkdes": 1317,
      "ĠÅĻÃ¡d": 1318,
      "Ġvka": 1319,
      "Ġzor": 1320,
      "ĠsÃŃm": 1321,
      "Ġou": 1322,
      "ĠvstÅĻÃŃ": 1323,
      "Ġfe": 1324,
      "Ġral": 1325,
      "Ġkat": 1326,
      "Ġzma": 1327,
      "Ġbraz": 1328,
      "Ġpos": 1329,
      "ĠmÃŃt": 1330,
      "ĠnÄĽl": 1331,
      "Ġjin": 1332,
      "vr": 1333,
      "ĠkÅ¯m": 1334,
      "Ġtk": 1335,
      "Ġvit": 1336,
      "Ġvej": 1337,
      "Ġzne": 1338,
      "Ġsel": 1339,
      "stvÃŃ": 1340,
      "ĠptÃ¡k": 1341,
      "Ġsmy": 1342,
      "Ġzti": 1343,
      "ĠvÅ¾i": 1344,
      "ĠdlÃ¡": 1345,
      "ĠvsvÄĽ": 1346,
      "Ġstva": 1347,
      "Ġzjev": 1348,
      "Ġsme": 1349,
      "Ġkud": 1350,
      "ĠnÄĽÅ¾": 1351,
      "ĠhÃ¡d": 1352,
      "Ġstrom": 1353,
      "ĠkÃ¡m": 1354,
      "Ġtre": 1355,
      "Ġtit": 1356,
      "ĠdlÃ©": 1357,
      "ĠvdÃ¡": 1358,
      "nil": 1359,
      "ĠdÅ¯m": 1360,
      "Ġsny": 1361,
      "ĠÅ¡len": 1362,
      "Ġzka": 1363,
      "ĠÅ¡ÃŃch": 1364,
      "ĠpÄĽk": 1365,
      "Ġklad": 1366,
      "ĠtÃ½m": 1367,
      "ĠstÅ¯": 1368,
      "Ġblesk": 1369,
      "Ġpat": 1370,
      "Ġdat": 1371,
      "ĠjejÅ¾": 1372,
      "ĠÅ¥a": 1373,
      "ĠzÅĻÃŃm": 1374,
      "ĠruÄį": 1375,
      "ĠtÄĽl": 1376,
      "ĠsvÃ½": 1377,
      "ĠtÃ©m": 1378,
      "ĠÅ¡em": 1379,
      "Ġlal": 1380,
      "Ġsku": 1381,
      "Ġdly": 1382,
      "Ġples": 1383,
      "ĠvÄĽn": 1384,
      "ĠpÅ¯j": 1385,
      "Ġder": 1386,
      "ĠmeÄį": 1387,
      "Ġor": 1388,
      "ĠvstÅĻÃŃc": 1389,
      "Ġjal": 1390,
      "ĠpÅ¯l": 1391,
      "ĠdÄĽv": 1392,
      "Ġstup": 1393,
      "ĠÅĻeÄį": 1394,
      "ĠÅ¾lu": 1395,
      "ĠvÃ¡nÃŃ": 1396,
      "ĠdÅĻe": 1397,
      "ĠdiÄį": 1398,
      "ĠzlÃŃ": 1399,
      "ĠzlÃ©": 1400,
      "Ġpar": 1401,
      "Ġstli": 1402,
      "ĠnuÅ¾": 1403,
      "ĠjÃŃcÃŃ": 1404,
      "ĠÄįit": 1405,
      "Ġdit": 1406,
      "ĠÅ¾ÃŃt": 1407,
      "nal": 1408,
      "ĠpÃ©": 1409,
      "led": 1410,
      "Ġtich": 1411,
      "ĠslÃ©": 1412,
      "Ġlej": 1413,
      "ĠbÃŃd": 1414,
      "ĠXAXAXX": 1415,
      "Ġkot": 1416,
      "ĠvÃ¡l": 1417,
      "ĠmÄĽk": 1418,
      "ĠniÄį": 1419,
      "Ġkz": 1420,
      "Ġbem": 1421,
      "ĠdÃŃÅ¡": 1422,
      "Ġol": 1423,
      "ÅĪa": 1424,
      "Ġnev": 1425,
      "Ġtis": 1426,
      "ĠnenÃŃ": 1427,
      "ĠvlÃŃd": 1428,
      "ĠzvÃ¡": 1429,
      "ĠbÅĻÃŃ": 1430,
      "ĠÅ¡um": 1431,
      "Ġmrak": 1432,
      "Ġvzduch": 1433,
      "ĠÅ¾ÃŃm": 1434,
      "ĠmÅĻÃŃ": 1435,
      "Ġhej": 1436,
      "ĠcÃ½": 1437,
      "ĠAXAX": 1438,
      "Ġzvuk": 1439,
      "Ġbled": 1440,
      "ĠÄįest": 1441,
      "Ġgo": 1442,
      "ĠhoÅ¾": 1443,
      "Ġved": 1444,
      "Ġhlad": 1445,
      "Ġprud": 1446,
      "Ġproud": 1447,
      "Ġhnu": 1448,
      "ĠÅ¾iv": 1449,
      "he": 1450,
      "Ġzal": 1451,
      "ĠhleÄı": 1452,
      "ĠvzdÃ¡": 1453,
      "til": 1454,
      "Ġdlit": 1455,
      "Ġstar": 1456,
      "ĠÅ¡at": 1457,
      "ĠsmÃ¡": 1458,
      "ĠhruÄı": 1459,
      "Ġkrok": 1460,
      "tem": 1461,
      "Ġtle": 1462,
      "Ġvad": 1463,
      "ĠÅ¡lo": 1464,
      "Ġnel": 1465,
      "ĠkÅĻÃŃÅ¾": 1466,
      "ĠvÅ¡ich": 1467,
      "Ġzce": 1468,
      "Ġum": 1469,
      "Ġzim": 1470,
      "Ġkso": 1471,
      "ĠliÅ¡": 1472,
      "Ġskle": 1473,
      "bÃŃ": 1474,
      "Ġhli": 1475,
      "ĠznÃ¡m": 1476,
      "Ġkoj": 1477,
      "Ġpor": 1478,
      "ĠtoÅ¾": 1479,
      "Ġvzdech": 1480,
      "nout": 1481,
      "bÃ¡": 1482,
      "Ġkost": 1483,
      "ĠÅĻem": 1484,
      "Ġzr": 1485,
      "Ġnav": 1486,
      "Ġjel": 1487,
      "ĠtÄĽm": 1488,
      "ĠsÃ½": 1489,
      "ĠkÅĻik": 1490,
      "vÅ¯": 1491,
      "ĠstÃŃm": 1492,
      "ĠrÃ½m": 1493,
      "vÃ©m": 1494,
      "Ġrak": 1495,
      "Ġpta": 1496,
      "Ġvli": 1497,
      "ĠvstÃ¡": 1498,
      "ĠhoÅĻ": 1499,
      "ba": 1500,
      "ĠzÃ½": 1501,
      "Ġchr": 1502,
      "dÄĽl": 1503,
      "ĠliÄį": 1504,
      "Ġsmu": 1505,
      "ĠÄįÃŃch": 1506,
      "ĠÃ¡": 1507,
      "ĠvÄĽz": 1508,
      "Ġran": 1509,
      "Ġhoj": 1510,
      "Ġaj": 1511,
      "Ġhrom": 1512,
      "Ġsek": 1513,
      "Ġov": 1514,
      "Ġprs": 1515,
      "nÃŃz": 1516,
      "vÃ½ch": 1517,
      "Ġsal": 1518,
      "Ġchmu": 1519,
      "as": 1520,
      "Ġnaj": 1521,
      "ĠdÄĽc": 1522,
      "Ġfra": 1523,
      "Ġvte": 1524,
      "Ġdel": 1525,
      "ĠblÃŃz": 1526,
      "nÃ©m": 1527,
      "Ġvhro": 1528,
      "Ġset": 1529,
      "Ġchvil": 1530,
      "XB": 1531,
      "ĠÅ¾it": 1532,
      "Ġvslu": 1533,
      "in": 1534,
      "ĠjÃŃch": 1535,
      "Ġsma": 1536,
      "ÅĻil": 1537,
      "Ġzha": 1538,
      "Ġrek": 1539,
      "ĠpuÅ¡": 1540,
      "Ġpout": 1541,
      "Ġvzk": 1542,
      "Ġber": 1543,
      "Ġsoud": 1544,
      "Ġvin": 1545,
      "Ġhan": 1546,
      "ĠprÅ¯": 1547,
      "ĠstÃ¡t": 1548,
      "ĠÅ¾u": 1549,
      "Ġvzdy": 1550,
      "ĠzdrÃ¡": 1551,
      "Ġtic": 1552,
      "ABAB": 1553,
      "Ġklam": 1554,
      "Ġzni": 1555,
      "ĠhnÄĽv": 1556,
      "Ġvez": 1557,
      "Ġkze": 1558,
      "Ġzen": 1559,
      "Ġdav": 1560,
      "ĠchvÃŃli": 1561,
      "ĠÅ¾itÃŃ": 1562,
      "Ġbuj": 1563,
      "Ġzbu": 1564,
      "Ġher": 1565,
      "Ġpol": 1566,
      "ĠsplÃ½": 1567,
      "ĠnoÄį": 1568,
      "vost": 1569,
      "ĠkdoÅ¾": 1570,
      "ĠbÃ©": 1571,
      "ĠsÃ¡h": 1572,
      "ĠtvÃ½m": 1573,
      "Ġal": 1574,
      "ĠblÃ½": 1575,
      "Ġdouc": 1576,
      "en": 1577,
      "ĠdruÅ¾": 1578,
      "Ġstil": 1579,
      "ĠrÃ©m": 1580,
      "ĠnnÄĽ": 1581,
      "bou": 1582,
      "ĠÅĻit": 1583,
      "Ġzru": 1584,
      "ĠvÅĻÃŃ": 1585,
      "Ġdrob": 1586,
      "Ġkh": 1587,
      "Ġstech": 1588,
      "Ġar": 1589,
      "ĠvÅĻa": 1590,
      "Ġkrou": 1591,
      "ĠbouÅĻ": 1592,
      "Ġcel": 1593,
      "ĠvÅ¡a": 1594,
      "pÃ¡": 1595,
      "ĠpyÅ¡": 1596,
      "ĠdvÃ©": 1597,
      "ĠztÄĽ": 1598,
      "Ġzmo": 1599,
      "ĠnaÄį": 1600,
      "ĠnnÃ½": 1601,
      "ĠbÄĽd": 1602,
      "Ġspi": 1603,
      "ĠdÃ©m": 1604,
      "Ġzaz": 1605,
      "ĠsvÄĽd": 1606,
      "men": 1607,
      "Ġrok": 1608,
      "skÃ¡": 1609,
      "ĠjÅ¯": 1610,
      "Ġprach": 1611,
      "ĠnÃ©ho": 1612,
      "Ġstrach": 1613,
      "ĠstÅĻed": 1614,
      "Ġdom": 1615,
      "Ġnat": 1616,
      "ĠknÃ¡m": 1617,
      "ĠÅ¡lÃ©n": 1618,
      "Ġzvon": 1619,
      "ĠmÃ©m": 1620,
      "vÃ¡m": 1621,
      "Ġrej": 1622,
      "Ġkmi": 1623,
      "Ġtli": 1624,
      "ĠnÃŃÅ¾": 1625,
      "Ġvji": 1626,
      "ĠletÃŃ": 1627,
      "ĠdÃ¡t": 1628,
      "Ġvln": 1629,
      "ĠlkÃ¡": 1630,
      "Ġlas": 1631,
      "tÅ¯": 1632,
      "Ġkno": 1633,
      "Ġrad": 1634,
      "ĠpÅĻÃŃÅ¡": 1635,
      "Ġhrou": 1636,
      "Ġzba": 1637,
      "Ġnebe": 1638,
      "mÃ¡": 1639,
      "Ġhas": 1640,
      "Ġlez": 1641,
      "Ġned": 1642,
      "ĠzemÄĽ": 1643,
      "Ġlesk": 1644,
      "ĠzdÃ¡l": 1645,
      "Ġsve": 1646,
      "chÃ¡": 1647,
      "lÅ¯": 1648,
      "ĠskÃ½m": 1649,
      "ĠstraÅ¡": 1650,
      "Ġsd": 1651,
      "Ġhost": 1652,
      "Ġstav": 1653,
      "Ġvsa": 1654,
      "Ġdno": 1655,
      "Ġspra": 1656,
      "ĠheÅĪ": 1657,
      "ĠÅ¡tÄĽstÃŃ": 1658,
      "Ġbrou": 1659,
      "ĠhÅĻÃŃch": 1660,
      "ĠplÃŃ": 1661,
      "ĠzboÅ¾": 1662,
      "Ġbor": 1663,
      "ĠmraÄį": 1664,
      "Ġvys": 1665,
      "Ġtin": 1666,
      "ĠviÄį": 1667,
      "ĠhÃ½ch": 1668,
      "Ġscho": 1669,
      "ĠtiÄį": 1670,
      "Ġspou": 1671,
      "ĠvpÅĻe": 1672,
      "Äįek": 1673,
      "ĠmÄĽst": 1674,
      "ĠbrÃ©": 1675,
      "ĠÅ¡t": 1676,
      "ĠchvÄĽl": 1677,
      "Ġtrp": 1678,
      "ĠzlÃ¡": 1679,
      "ĠkoÅ¡": 1680,
      "ĠbrÃ½": 1681,
      "ABBX": 1682,
      "ĠchrÃ¡m": 1683,
      "Ġnut": 1684,
      "Ġvrh": 1685,
      "ĠzrÃ¡d": 1686,
      "Ġtvor": 1687,
      "ĠbiÄį": 1688,
      "Ġzdro": 1689,
      "Ġkov": 1690,
      "ĠnÃŃz": 1691,
      "ĠchlÃ©": 1692,
      "Ġvzdor": 1693,
      "ĠdnÃŃ": 1694,
      "ĠvÄĽc": 1695,
      "ĠfÃ¡": 1696,
      "lad": 1697,
      "ĠdrÃ©": 1698,
      "Ġklu": 1699,
      "ech": 1700,
      "ĠnutÃŃ": 1701,
      "ĠvÄį": 1702,
      "Ġsnu": 1703,
      "ĠbyÅ¥": 1704,
      "ĠÅ¡et": 1705,
      "cÃŃch": 1706,
      "ĠdÃŃt": 1707,
      "ĠsvÃŃtÃŃ": 1708,
      "ĠstrÃ¡Å¾": 1709,
      "ĠÅ¡ek": 1710,
      "Ġdum": 1711,
      "ĠÅ¡k": 1712,
      "ĠlÃŃc": 1713,
      "Ġvja": 1714,
      "Ġlep": 1715,
      "tech": 1716,
      "ĠpÄĽl": 1717,
      "Ġchat": 1718,
      "Ġknu": 1719,
      "Ġkm": 1720,
      "Ġkpo": 1721,
      "Ġjme": 1722,
      "ĠskÃ©m": 1723,
      "ĠchceÅ¡": 1724,
      "ĠstojÃŃ": 1725,
      "Ġrel": 1726,
      "Ġklet": 1727,
      "ĠhnÃŃz": 1728,
      "ĠÅ¡er": 1729,
      "ĠÄįist": 1730,
      "Ġruch": 1731,
      "dem": 1732,
      "Ġpry": 1733,
      "ĠspoÅĪ": 1734,
      "ĠkÃ©Å¾": 1735,
      "Å¡el": 1736,
      "Ġbrat": 1737,
      "ĠÄįÃŃÅ¡": 1738,
      "ĠpoÄį": 1739,
      "tek": 1740,
      "Ġmluv": 1741,
      "ĠnÄĽn": 1742,
      "ĠstrÃ½": 1743,
      "zy": 1744,
      "Ġhly": 1745,
      "Ġbod": 1746,
      "ĠvraÅ¾": 1747,
      "Ġur": 1748,
      "Ġkbo": 1749,
      "ĠpÅĻÃŃs": 1750,
      "Ġpros": 1751,
      "ĠjichÅ¾": 1752,
      "ĠkrÃ½": 1753,
      "Ġblud": 1754,
      "ĠzdÄĽ": 1755,
      "Ġter": 1756,
      "ĠÅ¡o": 1757,
      "Ġjeho": 1758,
      "Ġvpr": 1759,
      "Ġnak": 1760,
      "ĠkvÃ©": 1761,
      "Ġmor": 1762,
      "ĠÄįech": 1763,
      "ĠpojÄı": 1764,
      "Ġvce": 1765,
      "ĠvnÄĽmÅ¾": 1766,
      "ĠÅĻen": 1767,
      "Ġrty": 1768,
      "ĠvtvÃ¡": 1769,
      "Ġhoch": 1770,
      "Ġnice": 1771,
      "ĠvkrÃ¡": 1772,
      "vÃ½m": 1773,
      "ĠdnÅ¯": 1774,
      "Ġtrou": 1775,
      "Ġtl": 1776,
      "ĠÃŃ": 1777,
      "ĠvÄĽÅĻ": 1778,
      "Ġnno": 1779,
      "hÃ½": 1780,
      "Ġkyt": 1781,
      "Ġzum": 1782,
      "ĠzpÃ¡t": 1783,
      "ĠÅ¡Ã¡": 1784,
      "ĠmÄĽj": 1785,
      "Ġtost": 1786,
      "nÃ¡ch": 1787,
      "Ġmech": 1788,
      "BC": 1789,
      "ĠvsÃŃ": 1790,
      "Ġthe": 1791,
      "Ġvec": 1792,
      "ĠÃºz": 1793,
      "ĠplÃ¡Äį": 1794,
      "ĠÅ¡en": 1795,
      "ĠvÅ¯d": 1796,
      "kÃ©": 1797,
      "ĠnaÅĪ": 1798,
      "Ġzko": 1799,
      "ĠplÃ©": 1800,
      "Ġtrh": 1801,
      "ĠvzplÃ¡": 1802,
      "ĠtÃ³": 1803,
      "Ġkej": 1804,
      "ĠsvÃ¡t": 1805,
      "ĠÅ¾em": 1806,
      "Ġstk": 1807,
      "Ġlin": 1808,
      "ĠloÄı": 1809,
      "Ġvta": 1810,
      "ĠjÃŃmÅ¾": 1811,
      "ĠdvÃ¡": 1812,
      "Ġsra": 1813,
      "ĠtvÃ©m": 1814,
      "Ġjez": 1815,
      "Ġskro": 1816,
      "ĠdÃ¡n": 1817,
      "Ġjdu": 1818,
      "Ġzhy": 1819,
      "vÄĽt": 1820,
      "Ġvzle": 1821,
      "ĠzeÅĪ": 1822,
      "ĠrÃ¡j": 1823,
      "Ġsbor": 1824,
      "ĠleÅ¾ÃŃ": 1825,
      "tou": 1826,
      "Ġzto": 1827,
      "Ġvpro": 1828,
      "ĠpÃ¡r": 1829,
      "er": 1830,
      "Ġvrat": 1831,
      "Ġzar": 1832,
      "Ġkar": 1833,
      "Ġzdu": 1834,
      "Ġzku": 1835,
      "Ġrost": 1836,
      "Ġ1800": 1837,
      "Ġmlad": 1838,
      "ĠnÅ¯m": 1839,
      "Ġvyz": 1840,
      "CBC": 1841,
      "skÃ©": 1842,
      "ĠÅĻÃŃÅ¡": 1843,
      "ri": 1844,
      "Ġsky": 1845,
      "Ġkly": 1846,
      "ĠskÅĻÃŃ": 1847,
      "ĠvznÃ¡": 1848,
      "Ġcti": 1849,
      "ĠskÅĻi": 1850,
      "Ġvkra": 1851,
      "ĠÄıÃ¡": 1852,
      "Ġpen": 1853,
      "kal": 1854,
      "Ġsro": 1855,
      "Ġkor": 1856,
      "Ġmil": 1857,
      "Ġhlav": 1858,
      "ĠmrÃ¡z": 1859,
      "cem": 1860,
      "ĠvÃŃr": 1861,
      "Ġcet": 1862,
      "ĠhÃ½m": 1863,
      "ĠXXABAB": 1864,
      "Ġvala": 1865,
      "Ġpel": 1866,
      "ĠpryÄį": 1867,
      "ĠznÄĽl": 1868,
      "Ġhar": 1869,
      "nek": 1870,
      "tÅĻ": 1871,
      "Ġbec": 1872,
      "ĠzprÃ¡": 1873,
      "ĠvzÃ¡c": 1874,
      "Ġtev": 1875,
      "Ġtor": 1876,
      "Ġzch": 1877,
      "ĠzvlÃ¡": 1878,
      "Ġtov": 1879,
      "Ġdny": 1880,
      "ĠchtÃŃ": 1881,
      "Ġben": 1882,
      "ĠvÃŃce": 1883,
      "Ġstesk": 1884,
      "Ġoz": 1885,
      "ĠdÄĽti": 1886,
      "Ġhat": 1887,
      "Ġpsa": 1888,
      "Ġslova": 1889,
      "ĠpÄĽv": 1890,
      "ĠlÃŃm": 1891,
      "Ġlec": 1892,
      "Ġfal": 1893,
      "Ġzdi": 1894,
      "Ġzemi": 1895,
      "Ġhlavy": 1896,
      "Ġtrem": 1897,
      "ĠdÃŃvÃ¡": 1898,
      "Ġkus": 1899,
      "Ġhol": 1900,
      "Ġvtu": 1901,
      "Ġblan": 1902,
      "Ġsno": 1903,
      "ĠrÃ¡z": 1904,
      "Ġviz": 1905,
      "Ġhad": 1906,
      "lav": 1907,
      "Ġsnem": 1908,
      "Ġss": 1909,
      "Ġdosti": 1910,
      "ĠÄįu": 1911,
      "ĠABBACC": 1912,
      "Ġzval": 1913,
      "ĠlÃŃÄį": 1914,
      "Ġbyla": 1915,
      "ĠmÄĽnÃŃ": 1916,
      "ĠrÅ¯z": 1917,
      "Ġdlu": 1918,
      "ĠoÄįi": 1919,
      "dla": 1920,
      "ĠvlÃ¡s": 1921,
      "ĠkrÅ¯": 1922,
      "Ġhez": 1923,
      "Ġzil": 1924,
      "Ġpln": 1925,
      "tal": 1926,
      "Ġgu": 1927,
      "Ġbude": 1928,
      "Ġbylo": 1929,
      "Ġfo": 1930,
      "Ġlan": 1931,
      "Ġgra": 1932,
      "Ġzl": 1933,
      "ska": 1934,
      "Å¡tÃŃ": 1935,
      "Ġplod": 1936,
      "ĠÅ¾dy": 1937,
      "ĠvdÄĽÄį": 1938,
      "Ġskvost": 1939,
      "zd": 1940,
      "Ġzho": 1941,
      "ĠÄįo": 1942,
      "ĠbÄĽh": 1943,
      "ĠmoÅĻe": 1944,
      "ĠdÃ¡Å¡": 1945,
      "ĠsvÄĽta": 1946,
      "ĠduÅ¡i": 1947,
      "Ġbru": 1948,
      "Ġtri": 1949,
      "pÄĽ": 1950,
      "Ġsje": 1951,
      "Ġbit": 1952,
      "ar": 1953,
      "len": 1954,
      "Ġplou": 1955,
      "ĠnÃ¡d": 1956,
      "ĠrÃ¡m": 1957,
      "ĠAXAA": 1958,
      "Ġvor": 1959,
      "ĠtÃŃÅ¾": 1960,
      "Ġluz": 1961,
      "ĠXAABBX": 1962,
      "Ġdek": 1963,
      "ĠduÅ¡e": 1964,
      "Ġclo": 1965,
      "Ġfran": 1966,
      "ct": 1967,
      "Ġlit": 1968,
      "Ġbyt": 1969,
      "ĠsluÅ¾": 1970,
      "Ġstran": 1971,
      "ĠmÃ¡t": 1972,
      "ĠmÅ¾i": 1973,
      "ĠÅ¾as": 1974,
      "ĠvÅ¡ÃŃm": 1975,
      "ĠsbÃŃ": 1976,
      "ĠÅ¡ly": 1977,
      "ĠÄįej": 1978,
      "Ġlib": 1979,
      "Ġzja": 1980,
      "Å¡ti": 1981,
      "Ġtmy": 1982,
      "Ġkmo": 1983,
      "Ġdot": 1984,
      "ĠhoÅĻÃŃ": 1985,
      "Ġzlou": 1986,
      "Ġchl": 1987,
      "Ġhloub": 1988,
      "ĠstÅĻi": 1989,
      "Ġbin": 1990,
      "ĠspÃŃÅ¡": 1991,
      "skÃ½": 1992,
      "ĠcÃŃl": 1993,
      "ĠblÃ½s": 1994,
      "Ġvnad": 1995,
      "ĠskrÃ¡ÅĪ": 1996,
      "Ġchli": 1997,
      "Ġhlavu": 1998,
      "ĠvidÃŃ": 1999,
      "Ġtly": 2000,
      "ĠÅ¡enÃŃ": 2001,
      "ĠÅ¾er": 2002,
      "ĠtÃŃÅ¡": 2003,
      "Ġmdlo": 2004,
      "ĠdrÃ½": 2005,
      "Ġjist": 2006,
      "Ġkdos": 2007,
      "ĠbÅĻi": 2008,
      "Äįku": 2009,
      "ĠvstÃŃ": 2010,
      "ej": 2011,
      "Ġvhlou": 2012,
      "Ġmek": 2013,
      "ĠzÃŃch": 2014,
      "Ġpit": 2015,
      "Ġzbro": 2016,
      "Ġvzdo": 2017,
      "Ġprost": 2018,
      "ĠÄįt": 2019,
      "Ġbral": 2020,
      "Ġos": 2021,
      "Ġvstou": 2022,
      "ĠdÄĽje": 2023,
      "ĠztÄĽch": 2024,
      "ĠAABCBC": 2025,
      "Ġchva": 2026,
      "ĠdÄĽla": 2027,
      "Ġvse": 2028,
      "ĠnÄĽjÅ¡ÃŃ": 2029,
      "ĠÄįal": 2030,
      "Å¾il": 2031,
      "ĠknÄĽÅ¾": 2032,
      "ĠdÃŃk": 2033,
      "ĠklÃŃn": 2034,
      "ĠkvÃŃt": 2035,
      "ĠhlÃ©d": 2036,
      "Ġsit": 2037,
      "Ġchlu": 2038,
      "Ġkruh": 2039,
      "Ġzpu": 2040,
      "ĠvÅ¡ed": 2041,
      "Ġvry": 2042,
      "Äįer": 2043,
      "Ġuz": 2044,
      "Ġvroz": 2045,
      "ĠvmÄĽ": 2046,
      "Ġdlem": 2047,
      "ĠvÅĻel": 2048,
      "ĠtÃŃs": 2049,
      "Ġdrav": 2050,
      "ĠÅ¡ÃŃÅ¡": 2051,
      "Ġsad": 2052,
      "ĠbÃ¡ch": 2053,
      "ĠsÃº": 2054,
      "ĠÅĪu": 2055,
      "Ġtlou": 2056,
      "Ġslil": 2057,
      "ĠvyÅ¡": 2058,
      "ĠÅ¾ÃŃÅ¡": 2059,
      "ĠdlÃ½": 2060,
      "Ġtok": 2061,
      "ĠlaÄį": 2062,
      "Å¯v": 2063,
      "Ġlam": 2064,
      "Ġzdvih": 2065,
      "Ġtve": 2066,
      "Ġchvat": 2067,
      "ĠhÃ©m": 2068,
      "Ġvstal": 2069,
      "Ġsej": 2070,
      "ĠvkaÅ¾": 2071,
      "Ġjan": 2072,
      "Ġtmou": 2073,
      "ĠX": 2074,
      "ĠdÃ¡vÃ¡": 2075,
      "Ġtrys": 2076,
      "Ġvtem": 2077,
      "Ġlze": 2078,
      "ĠtajÃŃ": 2079,
      "ĠvplÃ¡": 2080,
      "Ġdni": 2081,
      "ĠvpÃŃ": 2082,
      "ĠdlaÅĪ": 2083,
      "Ġhvo": 2084,
      "ĠpadÃ¡": 2085,
      "Ġpas": 2086,
      "ĠzÃº": 2087,
      "ĠlÃŃch": 2088,
      "ĠtÄĽj": 2089,
      "Ġpes": 2090,
      "Ġvali": 2091,
      "Ġskr": 2092,
      "Ġnnou": 2093,
      "ĠsaÅĻ": 2094,
      "hem": 2095,
      "ĠdÃŃl": 2096,
      "ĠhÃ¡m": 2097,
      "Ġvlh": 2098,
      "Ġvso": 2099,
      "ĠÅĻad": 2100,
      "ĠhÅĻbi": 2101,
      "Ġnna": 2102,
      "ĠvpÅĻed": 2103,
      "ĠtÃ¡m": 2104,
      "rem": 2105,
      "Ġzkve": 2106,
      "Ġjsa": 2107,
      "ĠdÃŃtÄĽ": 2108,
      "Ġjdi": 2109,
      "ĠÅ¾ena": 2110,
      "Ġpli": 2111,
      "Ġvpou": 2112,
      "ĠdÃ¡le": 2113,
      "Ġnoci": 2114,
      "Ġchmur": 2115,
      "dÃ©": 2116,
      "Ġvzpla": 2117,
      "Ġvjed": 2118,
      "Ġkan": 2119,
      "Ġvnu": 2120,
      "Ġsic": 2121,
      "zu": 2122,
      "ĠhÅĻmÃŃ": 2123,
      "Ġvzbu": 2124,
      "ĠdnÃ©": 2125,
      "Ġkup": 2126,
      "Ġin": 2127,
      "ĠtÅĻpyt": 2128,
      "Ġx": 2129,
      "Ġctno": 2130,
      "Ġvkou": 2131,
      "Ġknim": 2132,
      "Ġzvl": 2133,
      "Ġstes": 2134,
      "ĠmlÄį": 2135,
      "ĠknÄĽz": 2136,
      "ĠrÃ¡ch": 2137,
      "ĠvrÃ¡z": 2138,
      "Ġskon": 2139,
      "Ġvsi": 2140,
      "Ġlad": 2141,
      "ĠzÅĻÃŃt": 2142,
      "Ġjat": 2143,
      "Ġnos": 2144,
      "Ġpur": 2145,
      "ĠzpÃŃvÃ¡": 2146,
      "ĠÄįty": 2147,
      "ĠslÃŃm": 2148,
      "ĠvÄĽÅ¡": 2149,
      "ĠzvÄĽst": 2150,
      "Ġau": 2151,
      "ĠboÅ¥": 2152,
      "ĠnosÅ¥": 2153,
      "tÃŃm": 2154,
      "ĠhrÃ¡l": 2155,
      "ĠhluÄį": 2156,
      "ĠcÅ¯m": 2157,
      "Ġkap": 2158,
      "ĠoÄį": 2159,
      "ĠzÃŃm": 2160,
      "Ġbel": 2161,
      "ĠvÄĽst": 2162,
      "Äįil": 2163,
      "ĠtÅĻÃ¡s": 2164,
      "Ġmli": 2165,
      "ĠnÃ¡nÃŃ": 2166,
      "Ġhbi": 2167,
      "Ġvhla": 2168,
      "Ġpem": 2169,
      "ĠAABBXX": 2170,
      "Ġsha": 2171,
      "ĠboÅ¾ÃŃ": 2172,
      "ĠvsvÃ©": 2173,
      "rÃ¡t": 2174,
      "ĠÅĻec": 2175,
      "ĠpeÄį": 2176,
      "Ġnese": 2177,
      "Ġteh": 2178,
      "Ġnici": 2179,
      "Ġken": 2180,
      "ĠjvÃŃ": 2181,
      "Ġtkli": 2182,
      "ĠlÃ¡sky": 2183,
      "ĠlÃ©b": 2184,
      "Ġzhou": 2185,
      "ĠsÃŃly": 2186,
      "ĠpÃ¡d": 2187,
      "Ġsrdce": 2188,
      "mou": 2189,
      "Ġdna": 2190,
      "Ġdnem": 2191,
      "Ġvdi": 2192,
      "ĠtÄĽs": 2193,
      "ĠÄįenÃŃ": 2194,
      "Ġstla": 2195,
      "Ġhon": 2196,
      "ĠdÃ¡ch": 2197,
      "Ġvrouc": 2198,
      "ĠmlÃ¡d": 2199,
      "ĠpÄĽj": 2200,
      "ĠtlÃ©": 2201,
      "Ġspal": 2202,
      "ĠvÃ½s": 2203,
      "Ġtiv": 2204,
      "ĠhlÃ½": 2205,
      "Ġknou": 2206,
      "Ġslech": 2207,
      "ĠjejÃŃ": 2208,
      "Ġvmy": 2209,
      "ĠplÃ½": 2210,
      "ĠkÅĻ": 2211,
      "Ġkolem": 2212,
      "ĠzlÃ½": 2213,
      "mr": 2214,
      "Ġprch": 2215,
      "Ġrtech": 2216,
      "Ġlosti": 2217,
      "ĠlÃ¡t": 2218,
      "Ġrat": 2219,
      "Ġmon": 2220,
      "ĠABBAXX": 2221,
      "Ġtebe": 2222,
      "ĠnnÃ¡": 2223,
      "ĠbÅĻeh": 2224,
      "Ġspro": 2225,
      "ĠchÃ¡m": 2226,
      "ĠvajÃŃ": 2227,
      "Ġklas": 2228,
      "ĠstvÃŃm": 2229,
      "ĠÅ¾eb": 2230,
      "ĠtÅĻil": 2231,
      "ĠsliÄį": 2232,
      "Ġnli": 2233,
      "Ġkop": 2234,
      "Ġtur": 2235,
      "Ġksrd": 2236,
      "Ġlat": 2237,
      "ĠÅĻo": 2238,
      "Ġtrud": 2239,
      "ĠkÅĻes": 2240,
      "Ġzkou": 2241,
      "nec": 2242,
      "ĠcelÃ½": 2243,
      "ĠmÅ¯Å¾": 2244,
      "Ġjil": 2245,
      "Ġspu": 2246,
      "Ġzvi": 2247,
      "Ġvsk": 2248,
      "Ġnaz": 2249,
      "stÃ¡": 2250,
      "ĠÅ¡tÃŃt": 2251,
      "ĠhÅĻÃ¡": 2252,
      "Ġbej": 2253,
      "ĠtiÅ¡e": 2254,
      "Ġlev": 2255,
      "ĠhÅĻmÄĽ": 2256,
      "Äįka": 2257,
      "Ġstih": 2258,
      "Ġkaz": 2259,
      "ĠÅĻÅ¯": 2260,
      "ĠhoÅĻe": 2261,
      "ĠpÃ¡s": 2262,
      "Ġtej": 2263,
      "Ġchyt": 2264,
      "ĠschvÃ¡": 2265,
      "ĠAAXA": 2266,
      "Ġsnil": 2267,
      "Ġdoj": 2268,
      "Ġstez": 2269,
      "ĠrtÅ¯": 2270,
      "Ġdrech": 2271,
      "ĠÅ¥ast": 2272,
      "Ġvkr": 2273,
      "Ġcou": 2274,
      "ĠtmÄĽ": 2275,
      "ĠpÅĻej": 2276,
      "ĠvpÅĻÃŃ": 2277,
      "ĠÅ¡it": 2278,
      "ĠzaÄį": 2279,
      "ral": 2280,
      "ĠvklÃŃ": 2281,
      "ĠvzÃŃ": 2282,
      "Ġmoz": 2283,
      "ĠtrÃ½": 2284,
      "ĠklÃ©": 2285,
      "Ġren": 2286,
      "ABBA": 2287,
      "ĠlÃ¡ch": 2288,
      "Ġkos": 2289,
      "Ġznal": 2290,
      "Ġskut": 2291,
      "nech": 2292,
      "Ġdvou": 2293,
      "Ġdala": 2294,
      "ĠABABAB": 2295,
      "ĠvnÃŃÅ¾": 2296,
      "Ġzpra": 2297,
      "ĠstÅĻÃ¡": 2298,
      "ĠvzrÅ¯": 2299,
      "ĠsobÄĽ": 2300,
      "Ġfu": 2301,
      "ĠspÃ¡n": 2302,
      "Ġneh": 2303,
      "ĠspÄĽch": 2304,
      "ĠÅ¾eny": 2305,
      "Ġkv": 2306,
      "cha": 2307,
      "ĠnÄĽnÃŃ": 2308,
      "ĠbdÃŃ": 2309,
      "Ġtat": 2310,
      "Ġjit": 2311,
      "Ġmoje": 2312,
      "ĠvsvÃ©m": 2313,
      "Ġkmet": 2314,
      "ĠlÃŃp": 2315,
      "Ġvyh": 2316,
      "ĠvÄįer": 2317,
      "ĠÅĪÃ¡": 2318,
      "Ġnap": 2319,
      "ĠprÃ¡h": 2320,
      "Ġzdr": 2321,
      "Ġsob": 2322,
      "ĠÄįÃ¡t": 2323,
      "Ġlic": 2324,
      "ĠzmÃ¡": 2325,
      "ĠvdÄĽk": 2326,
      "ĠvsnÄĽ": 2327,
      "ĠvznÄĽ": 2328,
      "ĠblÃ¡z": 2329,
      "ĠchvÃŃle": 2330,
      "ĠniÅ¾": 2331,
      "ĠtÃ½l": 2332,
      "ĠdiÅ¾": 2333,
      "ĠÅ¡lech": 2334,
      "ĠÅ¾ÃŃz": 2335,
      "Ġvet": 2336,
      "Ġdev": 2337,
      "Å¡tÄĽ": 2338,
      "Ġsple": 2339,
      "cÅ¯": 2340,
      "ĠÅ¾enÃŃ": 2341,
      "ĠveÅ¡": 2342,
      "sÃ¡": 2343,
      "ĠmÅĻel": 2344,
      "Ġmrou": 2345,
      "dil": 2346,
      "ĠhÅ¯m": 2347,
      "Ġvzru": 2348,
      "ĠhnÃ¡": 2349,
      "Ġluh": 2350,
      "Ġkmit": 2351,
      "Ġspolu": 2352,
      "Ġzah": 2353,
      "ĠchlÃ©b": 2354,
      "Ġruce": 2355,
      "Ġmih": 2356,
      "ĠcÃŃr": 2357,
      "Ġzase": 2358,
      "Ġvztek": 2359,
      "ĠtÃ¡n": 2360,
      "ĠsÅ¯m": 2361,
      "Ġblak": 2362,
      "Ġvost": 2363,
      "ĠtvÃ½": 2364,
      "ĠvbÃŃ": 2365,
      "ĠstavÃŃ": 2366,
      "Ġkvi": 2367,
      "ĠÄįelo": 2368,
      "ĠslÃ½": 2369,
      "ĠXXA": 2370,
      "Ġjvy": 2371,
      "ĠtÃŃÅĻ": 2372,
      "ĠbÃŃlÃ½": 2373,
      "Ġrev": 2374,
      "Å¯r": 2375,
      "ĠbdÄĽ": 2376,
      "Ġvslun": 2377,
      "ĠpÅĻÃŃm": 2378,
      "ĠsprÃ¡": 2379,
      "ĠkÅ¯v": 2380,
      "ĠplÃ¡l": 2381,
      "ĠtÃ¡z": 2382,
      "Ġvhlu": 2383,
      "ĠsmÃ¡l": 2384,
      "Ġmov": 2385,
      "Ġroj": 2386,
      "nÃŃk": 2387,
      "ĠstÃ¡r": 2388,
      "Ġzji": 2389,
      "ĠsnÄĽnÃŃ": 2390,
      "Ġnuv": 2391,
      "ĠvzkÅĻi": 2392,
      "ĠÅĪo": 2393,
      "ĠmrÃ¡": 2394,
      "Ġklen": 2395,
      "Ġspat": 2396,
      "ĠtmÃ¡": 2397,
      "Ġvrah": 2398,
      "Ġvhru": 2399,
      "Ġvzly": 2400,
      "ĠvtÄĽch": 2401,
      "ĠÄįte": 2402,
      "mut": 2403,
      "Ġhlavou": 2404,
      "ĠzkÃ¡": 2405,
      "Ġlla": 2406,
      "Å¯d": 2407,
      "ĠdobÄĽ": 2408,
      "Ġstrh": 2409,
      "ĠzÃ¡m": 2410,
      "ĠsmÄĽs": 2411,
      "ĠsvÃ©ho": 2412,
      "ĠlÃ¡m": 2413,
      "tel": 2414,
      "ĠkÃ¡n": 2415,
      "sud": 2416,
      "ĠvlÃ©": 2417,
      "Ġspla": 2418,
      "ĠplÃ¡t": 2419,
      "Ġctnost": 2420,
      "ĠjvyÅ¡": 2421,
      "BB": 2422,
      "ĠÅ¡va": 2423,
      "Ġvten": 2424,
      "ĠmoÅĻ": 2425,
      "ĠnÃ¡ÅĻ": 2426,
      "Ġsmi": 2427,
      "ĠhledÃŃ": 2428,
      "ĠchÅĻi": 2429,
      "skou": 2430,
      "Ġvml": 2431,
      "Ġchlo": 2432,
      "Ġvpe": 2433,
      "ĠstÅ¯j": 2434,
      "ĠvmÃ©": 2435,
      "Ġpoc": 2436,
      "Ġhut": 2437,
      "ĠmlÃ½": 2438,
      "ĠstÅĻel": 2439,
      "Ġjov": 2440,
      "zi": 2441,
      "Ġlos": 2442,
      "cho": 2443,
      "ĠÄįÅ¯": 2444,
      "Ġzhas": 2445,
      "ĠvÅ¡ic": 2446,
      "ĠvlÅ¯": 2447,
      "Ġsvat": 2448,
      "Ġmoci": 2449,
      "Ġsot": 2450,
      "ĠÄįnÃŃ": 2451,
      "ĠchÃ©m": 2452,
      "Ġvkro": 2453,
      "ĠpsÃ¡": 2454,
      "ĠcÃ¡": 2455,
      "Ġej": 2456,
      "ĠÄįela": 2457,
      "ĠsluÅ¡": 2458,
      "Ġsvor": 2459,
      "Ġsf": 2460,
      "ĠkÃ¡nÃŃ": 2461,
      "ĠpÃŃt": 2462,
      "ĠvÃŃÄį": 2463,
      "ĠtÃ¡ÅĻ": 2464,
      "Ġjiz": 2465,
      "sa": 2466,
      "ĠpoÅ¡": 2467,
      "ĠvzpÃŃ": 2468,
      "Ġdol": 2469,
      "ĠÅ¡pat": 2470,
      "Ġzav": 2471,
      "dlo": 2472,
      "ĠkÃ½s": 2473,
      "Ġner": 2474,
      "ĠdnÄĽ": 2475,
      "ĠpohÅĻ": 2476,
      "ĠtÄĽlo": 2477,
      "ĠstaÅĪ": 2478,
      "ĠbÃ¡j": 2479,
      "ĠschÃ¡": 2480,
      "nÃŃch": 2481,
      "Ġzlu": 2482,
      "Ġvbou": 2483,
      "ĠreÄį": 2484,
      "Ġnach": 2485,
      "ĠzÅĻÃŃÅ¡": 2486,
      "ĠÅ¾hou": 2487,
      "emi": 2488,
      "ĠlÃ¡n": 2489,
      "Ġvzla": 2490,
      "ĠvraÅ¥": 2491,
      "Ġzek": 2492,
      "ĠtuÅ¾": 2493,
      "Ġkel": 2494,
      "Ġkev": 2495,
      "Ġpast": 2496,
      "ĠvnichÅ¾": 2497,
      "Ġslz": 2498,
      "ĠleÅ¾": 2499,
      "ĠmilÃ½": 2500,
      "ĠbÃ½ti": 2501,
      "Ġlli": 2502,
      "ĠdneÅ¡": 2503,
      "Ġdok": 2504,
      "XXA": 2505,
      "ĠvÄĽj": 2506,
      "ĠmÅ¯Å¾e": 2507,
      "ĠnostÃŃ": 2508,
      "ĠpanÃŃ": 2509,
      "Ġvsku": 2510,
      "ĠzbÃ½": 2511,
      "Ġbrov": 2512,
      "Ġvda": 2513,
      "Ġrci": 2514,
      "Ġmec": 2515,
      "Ġplat": 2516,
      "ĠhÅĻÃŃÅ¡": 2517,
      "ĠjimÅ¾": 2518,
      "ĠÅ¾eÅ¡": 2519,
      "ĠspÄĽÅ¡": 2520,
      "ĠsÄįe": 2521,
      "ĠkvÃ¡m": 2522,
      "ĠhrÃ¡t": 2523,
      "ĠkvÃŃtÃŃ": 2524,
      "ĠzvuÄį": 2525,
      "Ġstvu": 2526,
      "ĠdraÅ¾": 2527,
      "ĠtÄĽla": 2528,
      "ĠvÅĪa": 2529,
      "ĠÅ¡leh": 2530,
      "ĠzvlÃ¡Å¡": 2531,
      "Ġzed": 2532,
      "ĠstrÃ©": 2533,
      "Ġvmra": 2534,
      "Ġzml": 2535,
      "ĠvpÅ¯": 2536,
      "Ġvlu": 2537,
      "Ġvar": 2538,
      "ĠÅ¡Å¥a": 2539,
      "ĠzÃ¡ÅĻÃŃ": 2540,
      "Ġchom": 2541,
      "ĠzbraÅĪ": 2542,
      "vem": 2543,
      "ĠrÅ¯Å¾e": 2544,
      "pil": 2545,
      "ĠstÃ½ch": 2546,
      "Ġzat": 2547,
      "ĠsnÄĽÅ¾": 2548,
      "Ġdrs": 2549,
      "Ġpras": 2550,
      "ĠÃºst": 2551,
      "Ġhym": 2552,
      "BX": 2553,
      "Ġsmo": 2554,
      "Ġraj": 2555,
      "Ġhmo": 2556,
      "ĠslÃ©z": 2557,
      "ĠtvÅ¯r": 2558,
      "ĠpravÃŃ": 2559,
      "Ġsluch": 2560,
      "Ġkmen": 2561,
      "Ġplach": 2562,
      "stu": 2563,
      "ĠlÃŃce": 2564,
      "pa": 2565,
      "ĠtÅ¯m": 2566,
      "ĠbrÃ¡z": 2567,
      "ĠtiÅ¡": 2568,
      "Ġvaly": 2569,
      "Ġstic": 2570,
      "Ġruku": 2571,
      "Ġvrch": 2572,
      "ĠztÃ©": 2573,
      "Ġhluk": 2574,
      "ĠstÃ©m": 2575,
      "Ġstane": 2576,
      "Ġbran": 2577,
      "XABB": 2578,
      "ĠsvojÃŃ": 2579,
      "dÄĽt": 2580,
      "Ġtele": 2581,
      "Ġzyk": 2582,
      "dal": 2583,
      "Ġsebe": 2584,
      "ĠÅ¡pi": 2585,
      "ĠmÅĻÃŃt": 2586,
      "ĠdomÅ¯": 2587,
      "ĠmÄĽÅ¡": 2588,
      "ĠtÃŃch": 2589,
      "Ġbek": 2590,
      "ĠmÃ¡j": 2591,
      "Ġstud": 2592,
      "ĠmÄĽch": 2593,
      "dÃ¡m": 2594,
      "ĠspÃ¡t": 2595,
      "Ġmas": 2596,
      "ĠdÃ©l": 2597,
      "ĠklÃ½": 2598,
      "ĠvrÃ¡s": 2599,
      "ĠÅ¡kle": 2600,
      "pe": 2601,
      "Ġfor": 2602,
      "Ġvyj": 2603,
      "Å¡ÃŃm": 2604,
      "Ġdic": 2605,
      "Ġfan": 2606,
      "Ġkom": 2607,
      "ĠhÃ¡j": 2608,
      "ĠmilÃ¡": 2609,
      "Ġvyr": 2610,
      "vÅ¯r": 2611,
      "Ġchi": 2612,
      "ĠvolÃ¡": 2613,
      "ĠpeÅ¾": 2614,
      "ĠlenÃŃ": 2615,
      "ĠmiÅ¾": 2616,
      "Ġvtip": 2617,
      "ĠhrÅ¯z": 2618,
      "ĠsrÃ¡": 2619,
      "Ġw": 2620,
      "ĠnÃŃkÅ¯": 2621,
      "ĠsklÃ¡nÃŃ": 2622,
      "Ġzlem": 2623,
      "ĠdoÄį": 2624,
      "ĠbÃ¡m": 2625,
      "ĠsÃŃch": 2626,
      "ĠÅ¾Å¯": 2627,
      "Ġvkte": 2628,
      "Ġmost": 2629,
      "ĠÅĻÃŃch": 2630,
      "ĠnnÃ½ch": 2631,
      "ĠnÃŃÄį": 2632,
      "Ġtud": 2633,
      "Ġklou": 2634,
      "ĠdeÄį": 2635,
      "Ġpek": 2636,
      "ĠsvÅ¯d": 2637,
      "Ġvila": 2638,
      "ĠsÃŃÅ¡": 2639,
      "Ġhi": 2640,
      "Ġpec": 2641,
      "ĠÅ¥an": 2642,
      "ĠznÃ¡s": 2643,
      "Ġkt": 2644,
      "Ġbat": 2645,
      "Ġniv": 2646,
      "ĠduÅ¡": 2647,
      "ĠÅ¾ek": 2648,
      "Ġvati": 2649,
      "ĠÅ¾ÃŃch": 2650,
      "ĠkeÅĻ": 2651,
      "ĠtoÄįÃŃ": 2652,
      "ĠvÃ¡b": 2653,
      "ĠmÄĽr": 2654,
      "ĠtobÄĽ": 2655,
      "Ġztu": 2656,
      "Ġteb": 2657,
      "Ġhvoz": 2658,
      "ĠkÄįe": 2659,
      "ĠÄıas": 2660,
      "Ġtlem": 2661,
      "ĠtÅĻÃŃÅ¡": 2662,
      "Ġki": 2663,
      "ĠbÃŃt": 2664,
      "ĠnÄĽch": 2665,
      "ĠtlÃ½": 2666,
      "ĠmusÃŃ": 2667,
      "Ġmlou": 2668,
      "Ġros": 2669,
      "Ġvbe": 2670,
      "Ġrto": 2671,
      "ĠÅĻu": 2672,
      "ĠÅĻin": 2673,
      "Ġstan": 2674,
      "ĠmÃŃm": 2675,
      "ĠzraÄį": 2676,
      "Ġnny": 2677,
      "ĠspÄĽl": 2678,
      "Ġlich": 2679,
      "ĠzÃ¡Å¡": 2680,
      "Ġvpu": 2681,
      "Ġvmi": 2682,
      "Ġchot": 2683,
      "Äįky": 2684,
      "ĠABA": 2685,
      "Ġheb": 2686,
      "Ġdec": 2687,
      "ĠpusÅ¥": 2688,
      "Ġstry": 2689,
      "ĠXAXABB": 2690,
      "Ġbis": 2691,
      "Ġnau": 2692,
      "Ġmys": 2693,
      "Ġlis": 2694,
      "ĠstÃ¡le": 2695,
      "ĠsdÃŃ": 2696,
      "dÃ½": 2697,
      "ĠtrÅ¯n": 2698,
      "ĠtÃ¡ch": 2699,
      "Ġchyb": 2700,
      "ĠchÃ½m": 2701,
      "ĠctÃŃ": 2702,
      "Ġmus": 2703,
      "ĠÅ¡ak": 2704,
      "ĠvhÃ¡": 2705,
      "Ġmod": 2706,
      "Ġjednou": 2707,
      "Ġvzlet": 2708,
      "Ġav": 2709,
      "ĠvrÃ¡tÃŃ": 2710,
      "ĠsÃŃÄį": 2711,
      "Ġhna": 2712,
      "ĠjeÅ¥": 2713,
      "Ġvme": 2714,
      "Ġzraky": 2715,
      "Ġtrest": 2716,
      "Ġliv": 2717,
      "Ġvprach": 2718,
      "Ġmot": 2719,
      "ĠAXXA": 2720,
      "ĠdnÃ½": 2721,
      "Ġstin": 2722,
      "ĠvÃ¡ch": 2723,
      "ĠÅ¾es": 2724,
      "lil": 2725,
      "ĠcÃŃtÃŃ": 2726,
      "ĠduÅ¡ÃŃ": 2727,
      "Ġrus": 2728,
      "Ġslunce": 2729,
      "Ġvota": 2730,
      "Ġkout": 2731,
      "ĠklonÃŃ": 2732,
      "Ġvok": 2733,
      "Ġdali": 2734,
      "Ġ20": 2735,
      "Ġrve": 2736,
      "Ġznova": 2737,
      "Ġzte": 2738,
      "ĠjvÄĽt": 2739,
      "ĠÅ¾iÅ¾": 2740,
      "ĠnovÃ©": 2741,
      "ĠnÃŃka": 2742,
      "ĠdÃ¡nÃŃ": 2743,
      "ĠmÃŃst": 2744,
      "Ġvdla": 2745,
      "ĠhvÃŃ": 2746,
      "ĠÄįekÃ¡": 2747,
      "Ġztr": 2748,
      "ĠkÅ¾i": 2749,
      "Ġsan": 2750,
      "Ġluj": 2751,
      "Ġstroj": 2752,
      "Ġhrd": 2753,
      "Ġvzni": 2754,
      "Ġkraje": 2755,
      "ĠvzlÃ©": 2756,
      "Ġnov": 2757,
      "Ġvles": 2758,
      "ĠspÅĻÃ¡": 2759,
      "hÃ©": 2760,
      "Ġchlap": 2761,
      "ĠtvÃ¡r": 2762,
      "ĠvtrÃ¡": 2763,
      "Ġskrom": 2764,
      "Ġhnal": 2765,
      "Ġzkr": 2766,
      "ĠvmÃŃ": 2767,
      "Ġslep": 2768,
      "Ġsvr": 2769,
      "Ġskla": 2770,
      "Ġlka": 2771,
      "ĠdÃ©Å¡Å¥": 2772,
      "ĠlidÃŃ": 2773,
      "ĠznÃ¡Å¡": 2774,
      "Ġvsou": 2775,
      "ĠchraÅĪ": 2776,
      "Ġvskut": 2777,
      "ĠtÅĻese": 2778,
      "Ġtka": 2779,
      "ĠÅ¡in": 2780,
      "Ġryb": 2781,
      "ĠpÅĻÃ¡l": 2782,
      "Ġpane": 2783,
      "ĠÅ¾to": 2784,
      "ĠsnÃŃt": 2785,
      "Ġvzro": 2786,
      "Ġvku": 2787,
      "ĠÄıa": 2788,
      "ĠkÅ¯ÅĪ": 2789,
      "Ġdan": 2790,
      "ĠvracÃŃ": 2791,
      "Ġvci": 2792,
      "Ġtul": 2793,
      "ÅĻÃŃm": 2794,
      "Ġmed": 2795,
      "ĠÅ¾ije": 2796,
      "ĠstÅ¯l": 2797,
      "vÃŃm": 2798,
      "ĠsÃ©": 2799,
      "ĠzvonÃŃ": 2800,
      "Ġmnich": 2801,
      "ĠoÄįÃŃ": 2802,
      "Ġmni": 2803,
      "Ġdila": 2804,
      "Ġkho": 2805,
      "nak": 2806,
      "lun": 2807,
      "Ġprsk": 2808,
      "Ġzlost": 2809,
      "Ġspad": 2810,
      "Ġdoz": 2811,
      "Ġsnou": 2812,
      "ĠzdrÃ¡v": 2813,
      "vÃ¡n": 2814,
      "ĠvtvÃ¡ÅĻ": 2815,
      "ĠbÃ¡z": 2816,
      "Ġpsal": 2817,
      "Ġnoch": 2818,
      "ĠruÅ¡": 2819,
      "ÅĻem": 2820,
      "Ġdvi": 2821,
      "Ġstoj": 2822,
      "ĠcenÃŃ": 2823,
      "ĠbÄĽÅ¥": 2824,
      "Ġprin": 2825,
      "ost": 2826,
      "ĠchvÄĽje": 2827,
      "ĠmÄĽla": 2828,
      "Ġlud": 2829,
      "Ġvek": 2830,
      "ĠkvÃ½": 2831,
      "ĠstÄĽn": 2832,
      "ĠvÃ¡z": 2833,
      "ĠstÃ½m": 2834,
      "ĠsplÃ¡": 2835,
      "ĠbÃ¡l": 2836,
      "Ġtisk": 2837,
      "Ġodv": 2838,
      "ĠtlÃ¡": 2839,
      "Ġchet": 2840,
      "Ġlech": 2841,
      "Ġvab": 2842,
      "ĠskÃ¡ly": 2843,
      "Ġsce": 2844,
      "Ġmin": 2845,
      "Ġbur": 2846,
      "ĠchÅĻe": 2847,
      "ĠbÃŃlÃ©": 2848,
      "Ġsvoji": 2849,
      "Ġtep": 2850,
      "Ġdiny": 2851,
      "ĠtvÃ¡ÅĻÃŃ": 2852,
      "Ġkrut": 2853,
      "Ġlho": 2854,
      "ĠdajÃŃ": 2855,
      "ĠzhlÃŃ": 2856,
      "Ġstis": 2857,
      "ĠvbÄĽ": 2858,
      "ĠlÅ¯Å¾": 2859,
      "ĠdolÅ¯": 2860,
      "Ġvech": 2861,
      "ĠskvÃŃ": 2862,
      "Ġstrou": 2863,
      "Ġznak": 2864,
      "Ġdon": 2865,
      "Ġzhro": 2866,
      "Ġkje": 2867,
      "Ġzmat": 2868,
      "ĠvznÃŃ": 2869,
      "Ġluje": 2870,
      "an": 2871,
      "ĠtnÃŃ": 2872,
      "ĠbolÃŃ": 2873,
      "ĠstkvÄĽ": 2874,
      "ĠnÃ¡c": 2875,
      "Ġvob": 2876,
      "Ġslast": 2877,
      "Ġzmr": 2878,
      "ĠplÃ¡Å¡Å¥": 2879,
      "skÃ½ch": 2880,
      "ĠvchrÃ¡": 2881,
      "ĠXXAABB": 2882,
      "ĠÅ¾et": 2883,
      "Ġzaj": 2884,
      "ĠvpÃŃs": 2885,
      "ĠdÄĽd": 2886,
      "ĠpenÃŃ": 2887,
      "eÅĪ": 2888,
      "ĠjvÃŃc": 2889,
      "ĠnÃ½mi": 2890,
      "Ġstus": 2891,
      "ĠzdÃŃ": 2892,
      "ĠnÃŃci": 2893,
      "ĠmÄĽt": 2894,
      "Ġspe": 2895,
      "ĠzÃ¡ch": 2896,
      "Ġvple": 2897,
      "ĠAAXB": 2898,
      "Ġslal": 2899,
      "ĠvÄįas": 2900,
      "cy": 2901,
      "Ġnouti": 2902,
      "ĠuÅ¡": 2903,
      "ĠtÅĻÃŃs": 2904,
      "Ġmez": 2905,
      "Ġvede": 2906,
      "ĠschÃ½": 2907,
      "Ġrech": 2908,
      "Ġkst": 2909,
      "ĠvrÃ¡t": 2910,
      "Ġvzra": 2911,
      "ĠvÃŃs": 2912,
      "Ġshla": 2913,
      "Ġvaz": 2914,
      "rÃ©": 2915,
      "ĠklÃ¡Å¡": 2916,
      "ĠkrÃ¡sy": 2917,
      "ĠbliÅ¾": 2918,
      "ĠlÅ¯m": 2919,
      "ĠhÃ¡ch": 2920,
      "ĠhÅĻeb": 2921,
      "ĠhledÃ¡": 2922,
      "ĠvÅ¡ecko": 2923,
      "ĠblÃ©": 2924,
      "ĠlÃŃÅ¡": 2925,
      "ĠÅ¥Ã¡": 2926,
      "ĠsvÄĽÅ¾ÃŃ": 2927,
      "ĠcizÃŃ": 2928,
      "ĠdÄĽli": 2929,
      "Ġkryl": 2930,
      "ĠtÅĻeÅ¡": 2931,
      "ĠkÅĻiv": 2932,
      "Ġzhu": 2933,
      "Ġzhlu": 2934,
      "ĠzdaÅ¾": 2935,
      "ĠnynÃŃ": 2936,
      "Ġvkru": 2937,
      "rad": 2938,
      "ĠpÃ½ch": 2939,
      "Ġkrov": 2940,
      "Ġdoby": 2941,
      "ĠtlÃŃ": 2942,
      "Ġzej": 2943,
      "Ġchti": 2944,
      "ĠÅ¾ik": 2945,
      "Ġklek": 2946,
      "Ġut": 2947,
      "ĠtÅĻes": 2948,
      "Ġhni": 2949,
      "Ġtady": 2950,
      "ĠnoÅ¾": 2951,
      "zel": 2952,
      "Ġvpla": 2953,
      "ĠvÄĽÄı": 2954,
      "ĠmenÃŃ": 2955,
      "Ġvbu": 2956,
      "Ġkul": 2957,
      "ĠtkÃ¡": 2958,
      "ĠnÃŃÅ¡": 2959,
      "Ġtila": 2960,
      "Ġhry": 2961,
      "ĠzlÃ½ch": 2962,
      "ĠbÃ¡t": 2963,
      "ĠpÄĽst": 2964,
      "ĠchÃ½lÃŃ": 2965,
      "Ġtlum": 2966,
      "Ġspja": 2967,
      "ĠzpÅ¯": 2968,
      "Ġlesy": 2969,
      "Ġspor": 2970,
      "Ġmuk": 2971,
      "Ġsse": 2972,
      "Ġspl": 2973,
      "ĠkÃ©n": 2974,
      "tla": 2975,
      "ĠÅ¥u": 2976,
      "ĠmlÃ©": 2977,
      "ĠjdeÅ¡": 2978,
      "Ġboje": 2979,
      "ĠÅ¡eÅĪ": 2980,
      "ĠbÄĽÅ¾ÃŃ": 2981,
      "Ġpust": 2982,
      "kÃ¡ch": 2983,
      "Ġsech": 2984,
      "Ġdus": 2985,
      "ĠvÃ¡r": 2986,
      "ĠstÃŃny": 2987,
      "ĠmeÅ¡": 2988,
      "Ġkraji": 2989,
      "ĠsvÄĽtem": 2990,
      "Ġvzem": 2991,
      "Ġvsl": 2992,
      "Ġbly": 2993,
      "ĠvnitÅĻ": 2994,
      "ĠdlÃ½ch": 2995,
      "Ġdvor": 2996,
      "Ġnila": 2997,
      "ĠrÃ¡na": 2998,
      "ĠjetÃŃ": 2999,
      "Ġzhlou": 3000,
      "ĠÅ¡ÃŃp": 3001,
      "ĠvkvÄĽ": 3002,
      "ĠÅ¡vi": 3003,
      "ĠskÅĻe": 3004,
      "Ġzin": 3005,
      "Ġnan": 3006,
      "ĠbÄĽs": 3007,
      "ĠÅ¾ivo": 3008,
      "ĠÅ¡var": 3009,
      "ĠchÃ¡ch": 3010,
      "Ġbije": 3011,
      "Ġani": 3012,
      "ĠvalÃŃ": 3013,
      "ÅĻit": 3014,
      "Ġzdroj": 3015,
      "Ġvznes": 3016,
      "Ġhory": 3017,
      "ĠmÃ¡Å¥": 3018,
      "Ġel": 3019,
      "Ġnot": 3020,
      "Ġvic": 3021,
      "ĠmÃ¡l": 3022,
      "Ġclav": 3023,
      "Ġfy": 3024,
      "Ġsdu": 3025,
      "ĠsÃºs": 3026,
      "nÄĽl": 3027,
      "Ġslib": 3028,
      "Ġsig": 3029,
      "Ġdov": 3030,
      "Ġkous": 3031,
      "ĠprÃ¡ci": 3032,
      "ĠbÃ½vÃ¡": 3033,
      "pu": 3034,
      "lÃ©d": 3035,
      "Ġspas": 3036,
      "Ġgic": 3037,
      "ĠtrÃ½z": 3038,
      "ĠdvÅ¯r": 3039,
      "ĠhlÃŃd": 3040,
      "Ġzvyk": 3041,
      "ĠnÃ©st": 3042,
      "Ġkryt": 3043,
      "ĠvÄĽÅ¾": 3044,
      "ĠzenÃŃ": 3045,
      "ĠvenÃŃ": 3046,
      "lÃŃz": 3047,
      "ĠjeÅ¡tÄĽ": 3048,
      "ĠXXXA": 3049,
      "ĠÅĻÃŃci": 3050,
      "ĠdrÃ½ch": 3051,
      "Ġrec": 3052,
      "ĠzvedÃ¡": 3053,
      "Ġvlasy": 3054,
      "ĠÄįiny": 3055,
      "Ġvhod": 3056,
      "po": 3057,
      "ĠkÅĻo": 3058,
      "ĠchÃ½ch": 3059,
      "ĠbÄĽl": 3060,
      "ĠvpÃ¡": 3061,
      "Ġstek": 3062,
      "ĠnÃ¡h": 3063,
      "Ġptal": 3064,
      "ĠplÃ¡Å¡": 3065,
      "Ġvboj": 3066,
      "Ġjdem": 3067,
      "ĠvÄĽl": 3068,
      "ĠhrÃ¡d": 3069,
      "Ġchcem": 3070,
      "lek": 3071,
      "ĠzbÄĽ": 3072,
      "Ġkala": 3073,
      "ĠkrÃ¡se": 3074,
      "Ġzry": 3075,
      "ĠkdeÅ¾": 3076,
      "ĠvstÅĻe": 3077,
      "Ġsnech": 3078,
      "Ġzdech": 3079,
      "ĠzvÄĽÅĻ": 3080,
      "Ġvbla": 3081,
      "ĠdosÅ¥": 3082,
      "ĠzeÄı": 3083,
      "Ġvist": 3084,
      "Ġksmr": 3085,
      "cÃŃm": 3086,
      "Ġchol": 3087,
      "Ġchut": 3088,
      "jem": 3089,
      "rat": 3090,
      "lÃ©m": 3091,
      "ĠsleÄį": 3092,
      "Ġvcho": 3093,
      "hÅ¯": 3094,
      "Ġdub": 3095,
      "ĠkovÃ©": 3096,
      "ĠjÃŃmÃ¡": 3097,
      "ĠzÃŃrÃ¡": 3098,
      "ĠslyÅ¡ÃŃ": 3099,
      "Å¾en": 3100,
      "ĠpÃŃÅ¡": 3101,
      "Ġhnus": 3102,
      "Ġlsti": 3103,
      "ĠjÃ¡k": 3104,
      "ven": 3105,
      "Ġteli": 3106,
      "ĠvlasÅ¥": 3107,
      "ĠtvÃ¡ÅĻe": 3108,
      "ĠnÃŃku": 3109,
      "ĠvÄĽku": 3110,
      "ĠvmÃ©m": 3111,
      "ĠvÃŃru": 3112,
      "ĠsÃŃÅĪ": 3113,
      "Ġnula": 3114,
      "ĠvdÃ¡li": 3115,
      "ĠvprÃ¡": 3116,
      "ĠÄįar": 3117,
      "Ġzpr": 3118,
      "Ġzrov": 3119,
      "Ġston": 3120,
      "ĠÅ¾ivot": 3121,
      "ĠvÄįel": 3122,
      "ĠmnÃŃ": 3123,
      "ĠzÄįe": 3124,
      "cen": 3125,
      "Ġzta": 3126,
      "Ġpis": 3127,
      "Ġcla": 3128,
      "Ġhyb": 3129,
      "Ġsvoje": 3130,
      "ĠsklÃŃ": 3131,
      "ĠÄįtvr": 3132,
      "Ġmeny": 3133,
      "ĠÅĻli": 3134,
      "Ġer": 3135,
      "ĠslÃ¡vy": 3136,
      "Ġstoup": 3137,
      "Ġzam": 3138,
      "ĠsvÄĽtla": 3139,
      "krÃ¡t": 3140,
      "ĠseÄį": 3141,
      "Ġbok": 3142,
      "ĠksvÃ©": 3143,
      "ĠvÃ½Å¡e": 3144,
      "ĠcÅ¯v": 3145,
      "nÅ¯m": 3146,
      "Ġsnes": 3147,
      "ĠstaÄįÃŃ": 3148,
      "ĠÅĻÃŃc": 3149,
      "Ġdrost": 3150,
      "tit": 3151,
      "Ġstrany": 3152,
      "ĠlÅ¾i": 3153,
      "Ġskvou": 3154,
      "Ġrukou": 3155,
      "ĠsedÃŃ": 3156,
      "ĠvÃŃk": 3157,
      "Ġspol": 3158,
      "Ġshlu": 3159,
      "ĠsmÄĽÅ¡": 3160,
      "Ġboji": 3161,
      "ĠkÃº": 3162,
      "Ġzep": 3163,
      "Ġsply": 3164,
      "Ġvlet": 3165,
      "ĠmlÃ¡dÃŃ": 3166,
      "ĠkÃ¡Å¡": 3167,
      "ĠsmrÅ¥": 3168,
      "Ġsat": 3169,
      "ĠvchÃ¡": 3170,
      "Ġviny": 3171,
      "Ġztich": 3172,
      "jal": 3173,
      "ĠnoÅ¡": 3174,
      "ĠshÃ½": 3175,
      "hal": 3176,
      "ĠfÃŃ": 3177,
      "ĠÅ¾eÅĪ": 3178,
      "Ġrodu": 3179,
      "Ġvzor": 3180,
      "ĠblÃŃÅ¾ÃŃ": 3181,
      "ĠÅ¡tva": 3182,
      "Ġker": 3183,
      "Ġses": 3184,
      "Ġzer": 3185,
      "lÃŃm": 3186,
      "Ġmrav": 3187,
      "ĠÃ¡l": 3188,
      "ĠÄįasy": 3189,
      "ĠmdlÃ½": 3190,
      "ĠjmÄĽ": 3191,
      "ĠpÃŃm": 3192,
      "ĠhvÃŃz": 3193,
      "ĠtÄĽn": 3194,
      "ĠslÃ¡va": 3195,
      "ĠÅĻev": 3196,
      "ĠÅ¡lÃ¡": 3197,
      "ĠztrÃ¡cÃŃ": 3198,
      "is": 3199,
      "Ġnam": 3200,
      "Ġvpod": 3201,
      "ĠviÅ¡": 3202,
      "ĠstmÃŃ": 3203,
      "ĠkvÄĽty": 3204,
      "Ġkras": 3205,
      "ĠkrÃ¡ÄįÃŃ": 3206,
      "ĠvrÅ¯": 3207,
      "Ġpre": 3208,
      "jÃŃc": 3209,
      "ĠzrÅ¯": 3210,
      "ĠstvÃ¡": 3211,
      "ĠtÃ¡nÃŃ": 3212,
      "Ġchej": 3213,
      "ĠchovÃ¡": 3214,
      "ĠzlatÃ©": 3215,
      "ĠdÃ¡r": 3216,
      "Ġtvi": 3217,
      "ĠnÄĽmÅ¾": 3218,
      "Ġsja": 3219,
      "hne": 3220,
      "ĠsbÄĽ": 3221,
      "Ġdnech": 3222,
      "Ġsloup": 3223,
      "ĠvnÃ¡s": 3224,
      "ĠsÃŃce": 3225,
      "ĠznichÅ¾": 3226,
      "ĠAAAX": 3227,
      "ĠvÅ¾a": 3228,
      "ĠplÃ¡ÅĪ": 3229,
      "ĠsÃŃla": 3230,
      "Ġchen": 3231,
      "ĠvsvÄĽt": 3232,
      "Ġkosti": 3233,
      "Ġplane": 3234,
      "ĠshlÃŃ": 3235,
      "ĠhÅĻbe": 3236,
      "ĠkÃ¡z": 3237,
      "Ġvzma": 3238,
      "Ġzmu": 3239,
      "ĠmÅ¾ik": 3240,
      "Ġpne": 3241,
      "Ġbry": 3242,
      "Ġlom": 3243,
      "ĠmÃ¡nÃŃ": 3244,
      "Ġplav": 3245,
      "Ġkami": 3246,
      "Ġdnu": 3247,
      "ĠlÃŃt": 3248,
      "Ġstel": 3249,
      "ĠsmÃ½": 3250,
      "ĠvÅ¡ude": 3251,
      "ĠmalÃ½": 3252,
      "ĠbudÃŃ": 3253,
      "Ġzdob": 3254,
      "Ġdcer": 3255,
      "Ġshr": 3256,
      "ĠvzkÅĻik": 3257,
      "ĠkcÃŃ": 3258,
      "ĠzkvÃ©": 3259,
      "ĠAX": 3260,
      "ĠpÅĻÃŃz": 3261,
      "Ġvma": 3262,
      "ĠvbÃ¡": 3263,
      "Ġtros": 3264,
      "ÅĪat": 3265,
      "Ġblouz": 3266,
      "Ġjle": 3267,
      "ĠÅ¾ila": 3268,
      "ĠzÃ¡ÅĻe": 3269,
      "Ġhlasem": 3270,
      "Ġlok": 3271,
      "Ġvsva": 3272,
      "ĠzvÃ¡s": 3273,
      "Ġlila": 3274,
      "Ġryt": 3275,
      "Ġnami": 3276,
      "Ġlel": 3277,
      "Ġkdysi": 3278,
      "ĠsmÄĽl": 3279,
      "Ġzdar": 3280,
      "ĠÅ¡per": 3281,
      "ĠmdlÃ©": 3282,
      "ĠsrÃ¡z": 3283,
      "bal": 3284,
      "ĠvlaÅ¡": 3285,
      "ĠvÅ¡emi": 3286,
      "Ġsmrti": 3287,
      "Ġzbled": 3288,
      "Ġvine": 3289,
      "ĠsvÄĽtÄĽ": 3290,
      "ĠABABAX": 3291,
      "Ġtrav": 3292,
      "ĠpovÃŃ": 3293,
      "ĠmÃ¡n": 3294,
      "ĠÄįert": 3295,
      "ĠdÃ½Å¡e": 3296,
      "Ġkvas": 3297,
      "ur": 3298,
      "ĠveÄı": 3299,
      "ĠrdÃŃ": 3300,
      "ĠÅĻas": 3301,
      "Ġrun": 3302,
      "ĠmeÅĪ": 3303,
      "Ġske": 3304,
      "ĠhÃ¡r": 3305,
      "ĠchÃ¡zÃŃ": 3306,
      "ĠplÃ¡Äįe": 3307,
      "Ġmsti": 3308,
      "Ġdina": 3309,
      "ĠrÃ¡l": 3310,
      "Ġvlasti": 3311,
      "ĠtÅĻÃŃm": 3312,
      "Ġloval": 3313,
      "Ġzmra": 3314,
      "ĠpÄĽnÃŃ": 3315,
      "ĠvÅ¯z": 3316,
      "ĠkÅĻeh": 3317,
      "Ġkzemi": 3318,
      "Ġsdru": 3319,
      "ĠÄįÃŃst": 3320,
      "Ġmrz": 3321,
      "Ġdych": 3322,
      "ĠkvÄĽtÅ¯": 3323,
      "ĠnÅ¯v": 3324,
      "Ġshle": 3325,
      "Ġvzdych": 3326,
      "Ġsup": 3327,
      "ĠkÅ¡ti": 3328,
      "Ġraz": 3329,
      "ĠprÃ¡vÄĽ": 3330,
      "Ġvjich": 3331,
      "nit": 3332,
      "Ġpouze": 3333,
      "ĠnnÃ½m": 3334,
      "ĠvÅ¾dycky": 3335,
      "Ġnet": 3336,
      "ĠÅ¡im": 3337,
      "ĠchoÅ¥": 3338,
      "ĠrvÃ¡": 3339,
      "ĠmÃ¡lo": 3340,
      "Ġlidu": 3341,
      "Ġvid": 3342,
      "nku": 3343,
      "ĠchlÃŃ": 3344,
      "ĠsvÄĽtu": 3345,
      "ĠrÃ¡no": 3346,
      "ĠkpÅĻe": 3347,
      "nd": 3348,
      "Ġlle": 3349,
      "Ġvzty": 3350,
      "ĠlÃŃcÃŃ": 3351,
      "Ġvran": 3352,
      "ĠjÃŃce": 3353,
      "ĠÅ¾enou": 3354,
      "ĠmÃŃru": 3355,
      "ĠdrÃ¡Å¾": 3356,
      "Ġrol": 3357,
      "Ġvpl": 3358,
      "Ġzpa": 3359,
      "ÄįÃŃm": 3360,
      "ĠslednÃŃ": 3361,
      "si": 3362,
      "Ġztem": 3363,
      "ĠrtÃŃ": 3364,
      "ĠlÃŃst": 3365,
      "Ġvde": 3366,
      "Ġvmu": 3367,
      "Ġster": 3368,
      "ĠÅ¡pa": 3369,
      "ĠznÃ¡t": 3370,
      "Ġzpod": 3371,
      "ĠdÅĻi": 3372,
      "ĠpÃŃseÅĪ": 3373,
      "Ġvody": 3374,
      "ĠÅ¡est": 3375,
      "ĠvÄĽru": 3376,
      "ĠbojÃŃ": 3377,
      "Ġstor": 3378,
      "Ġkav": 3379,
      "ĠdÄĽji": 3380,
      "ĠÅ¾ÃŃti": 3381,
      "Ġluk": 3382,
      "ĠshÃ¡": 3383,
      "Ġzev": 3384,
      "ĠtmÃŃ": 3385,
      "mÃ¡ch": 3386,
      "Ġton": 3387,
      "ĠvzkÅĻÃŃ": 3388,
      "Ġvhloub": 3389,
      "ĠXXABBA": 3390,
      "ĠleÅĪ": 3391,
      "ĠzpÃ¡tky": 3392,
      "Ġokem": 3393,
      "Ġtrap": 3394,
      "ĠpouÅ¥": 3395,
      "Ġboha": 3396,
      "Ġzpi": 3397,
      "ĠbÃŃlÃ¡": 3398,
      "Ġpnou": 3399,
      "ĠtuÅ¡ÃŃ": 3400,
      "ĠchaÅ¥": 3401,
      "ĠXXAAXX": 3402,
      "Ġkvo": 3403,
      "Ġvtou": 3404,
      "Ġrob": 3405,
      "Ġzblou": 3406,
      "Ġtvoje": 3407,
      "ĠzlatÃ½": 3408,
      "Ġshon": 3409,
      "ĠchvÄĽla": 3410,
      "Ġhrst": 3411,
      "Ġsar": 3412,
      "Ġcov": 3413,
      "ĠchvÄĽj": 3414,
      "ĠlÃ¡Äį": 3415,
      "Ġzpup": 3416,
      "ĠruÅ¥": 3417,
      "ĠlÃ¡ska": 3418,
      "Ġvslad": 3419,
      "Ġvkli": 3420,
      "Ġstit": 3421,
      "lÃ½m": 3422,
      "ĠrokÅ¯": 3423,
      "ĠnovÃ½": 3424,
      "dech": 3425,
      "Ġchlou": 3426,
      "ĠsvatÃ©": 3427,
      "Ġvuje": 3428,
      "Ġcno": 3429,
      "Ġsym": 3430,
      "ĠvdÃŃ": 3431,
      "Ġbzu": 3432,
      "ĠlenÃ©": 3433,
      "ĠnÃŃky": 3434,
      "ĠnÃ©mu": 3435,
      "ĠvsnÃ¡ch": 3436,
      "Ġmraz": 3437,
      "Ġhvi": 3438,
      "ĠteÅĻ": 3439,
      "ĠhlÃ¡s": 3440,
      "ĠvztÃ¡": 3441,
      "ĠjemnÄĽ": 3442,
      "Ġjek": 3443,
      "ĠstmÄĽ": 3444,
      "sty": 3445,
      "Äįel": 3446,
      "Ġkoje": 3447,
      "Ġskli": 3448,
      "ĠgÃ¡": 3449,
      "ĠÅ¡ve": 3450,
      "ĠÅ¾ene": 3451,
      "Ġvhou": 3452,
      "ĠÅĻÃŃÅ¡e": 3453,
      "ĠÅĻist": 3454,
      "Ġzet": 3455,
      "ĠÅĻenÃŃ": 3456,
      "qu": 3457,
      "lal": 3458,
      "Ġmet": 3459,
      "Ġvty": 3460,
      "ĠvidÄĽl": 3461,
      "Ġfri": 3462,
      "ĠdrahÃ¡": 3463,
      "Ġkams": 3464,
      "Ġmatky": 3465,
      "ĠvÄĽÅĻÃŃ": 3466,
      "ĠvzduÅ¡": 3467,
      "ĠhÅ¯l": 3468,
      "ĠjiÅ¡": 3469,
      "ĠÅ¡ed": 3470,
      "lit": 3471,
      "ĠzdvÃŃ": 3472,
      "Ġvlid": 3473,
      "Ġhradu": 3474,
      "ĠkvÃ©st": 3475,
      "Ġdobu": 3476,
      "ĠdvÃŃ": 3477,
      "ĠdÃ¡k": 3478,
      "ĠlÃŃk": 3479,
      "Ġsyl": 3480,
      "Ġslovy": 3481,
      "Ġchvo": 3482,
      "ÅĻel": 3483,
      "ĠvtmÃ¡ch": 3484,
      "ĠvmÃ¡": 3485,
      "Ġzmar": 3486,
      "Ġpuk": 3487,
      "ĠtÅĻÃŃk": 3488,
      "Ġchly": 3489,
      "chy": 3490,
      "Ġptac": 3491,
      "Ġzbyl": 3492,
      "pal": 3493,
      "ĠdÅ¾": 3494,
      "Ġllo": 3495,
      "ĠnÃ¡n": 3496,
      "Ġchor": 3497,
      "Ġmut": 3498,
      "ĠzÃŃs": 3499,
      "Ġkji": 3500,
      "Ġskryt": 3501,
      "Ġrtem": 3502,
      "ĠjÃŃti": 3503,
      "Ġvalo": 3504,
      "Ġcud": 3505,
      "do": 3506,
      "Ġqu": 3507,
      "ĠjÃŃÅ¡": 3508,
      "ĠvtÃŃ": 3509,
      "Ġtuj": 3510,
      "ĠbenÃŃ": 3511,
      "ĠhouÅ¡": 3512,
      "Ġhlub": 3513,
      "Ġzhr": 3514,
      "ĠbÄĽt": 3515,
      "Ġgy": 3516,
      "Ġtroc": 3517,
      "ĠvÃŃn": 3518,
      "Ġdrou": 3519,
      "ĠvanÃ©": 3520,
      "Ġdry": 3521,
      "Ġkrot": 3522,
      "ĠvduÅ¡i": 3523,
      "Ġmene": 3524,
      "ĠnÃ¡ct": 3525,
      "ĠvÄĽky": 3526,
      "ĠdÄĽtÃŃ": 3527,
      "ĠshÅ¯": 3528,
      "Ġjou": 3529,
      "ĠraÄį": 3530,
      "Ġrtu": 3531,
      "Ġvzi": 3532,
      "ĠpÃ¡lÃŃ": 3533,
      "ĠXXXAXA": 3534,
      "ĠzvrÃ¡": 3535,
      "Ġcin": 3536,
      "ĠpÃ¡ch": 3537,
      "Ġzlato": 3538,
      "ĠcelÃ¡": 3539,
      "Ġloup": 3540,
      "ĠhÃ¡nÃŃ": 3541,
      "Ġllu": 3542,
      "Ġkrve": 3543,
      "Ġslit": 3544,
      "Ġsvla": 3545,
      "Ġzble": 3546,
      "ĠptÃ¡Äį": 3547,
      "ĠspÅĻe": 3548,
      "ĠkzÃ¡": 3549,
      "ĠXABAB": 3550,
      "ĠnaÅ¡e": 3551,
      "Ġkdu": 3552,
      "Ġvkraj": 3553,
      "Ġbyli": 3554,
      "ĠmajÃŃ": 3555,
      "Ġvnoc": 3556,
      "ĠlekÃ¡": 3557,
      "ĠsmÃ¡t": 3558,
      "Ġprah": 3559,
      "ĠvstaÅĪ": 3560,
      "ĠvÄĽd": 3561,
      "ĠdÃŃval": 3562,
      "Ġchud": 3563,
      "Ġgro": 3564,
      "ĠchÃ¡z": 3565,
      "Ġzvou": 3566,
      "ĠtvÃ¡ÅĻi": 3567,
      "Ġnep": 3568,
      "Ġhlava": 3569,
      "Ġvstu": 3570,
      "Ġdes": 3571,
      "ĠzvlÃ¡Å¡Å¥": 3572,
      "ĠmnoÅ¾": 3573,
      "ĠÅ¡lÃŃ": 3574,
      "Ġvprou": 3575,
      "Ġhrot": 3576,
      "nic": 3577,
      "ĠtÃ½r": 3578,
      "ĠtÃ³n": 3579,
      "ĠmÄĽn": 3580,
      "Ġvre": 3581,
      "dle": 3582,
      "ĠvchvÃŃ": 3583,
      "ĠhalÃŃ": 3584,
      "Ġ21": 3585,
      "Ġpole": 3586,
      "ĠvklÃŃn": 3587,
      "ĠÅ¡Å¯": 3588,
      "ĠkdÃŃ": 3589,
      "Ġrva": 3590,
      "Ġvzej": 3591,
      "ĠzÃºst": 3592,
      "ĠvÃŃt": 3593,
      "ĠtvÄĽ": 3594,
      "ĠpÃ¡na": 3595,
      "ĠlenÃ½": 3596,
      "Ġslem": 3597,
      "ÅĻen": 3598,
      "Ġvinu": 3599,
      "Ġmit": 3600,
      "ĠmizÃŃ": 3601,
      "bil": 3602,
      "ĠstkvÃŃ": 3603,
      "ĠpÃ¡ni": 3604,
      "ĠsplÃ½vÃ¡": 3605,
      "Ġnouc": 3606,
      "ĠÄįÃ¡r": 3607,
      "ĠÄįele": 3608,
      "ĠstromÅ¯": 3609,
      "ĠvÃŃd": 3610,
      "Ġjet": 3611,
      "Ġbri": 3612,
      "Ġknul": 3613,
      "Ġrce": 3614,
      "ĠhostÃŃ": 3615,
      "ĠlÃ¡Å¡": 3616,
      "ĠstÃ¡la": 3617,
      "Ġtvar": 3618,
      "Ġvjas": 3619,
      "Ġmle": 3620,
      "Ġsep": 3621,
      "ĠtÅĻti": 3622,
      "ĠvpÄĽ": 3623,
      "ĠsvatÃ½": 3624,
      "ĠÅ¥al": 3625,
      "ĠsprÃ¡v": 3626,
      "ĠleÅ¥": 3627,
      "ĠpÅĻel": 3628,
      "ĠdÅĻÃŃmÃ¡": 3629,
      "Ġtvy": 3630,
      "ĠtÅ¯v": 3631,
      "ĠmÃŃti": 3632,
      "ĠpÃ¡nÄĽ": 3633,
      "ĠkÃ½vÃ¡": 3634,
      "Ġchech": 3635,
      "ĠnedÃ¡": 3636,
      "ĠvzÅĪa": 3637,
      "ĠmÃŃnÃ¡": 3638,
      "ĠsdÄĽ": 3639,
      "ĠtÄĽÅ¡": 3640,
      "Ġsos": 3641,
      "ĠkvÃŃlÃŃ": 3642,
      "ĠchlÃ¡": 3643,
      "ĠvzÃ½": 3644,
      "ĠÅĻel": 3645,
      "Ġrmut": 3646,
      "Ġsyt": 3647,
      "Ġvhu": 3648,
      "Ġmrt": 3649,
      "ĠrÃ¡Å¾": 3650,
      "Ġsru": 3651,
      "Ġhraje": 3652,
      "Ġak": 3653,
      "Ġchru": 3654,
      "ABXB": 3655,
      "Ġlup": 3656,
      "ĠtouÅ¾ÃŃ": 3657,
      "Ġjlep": 3658,
      "Ġbl": 3659,
      "Ġzjas": 3660,
      "ĠmuÅ¡": 3661,
      "ĠÅĻeÄįÃŃ": 3662,
      "Ġcez": 3663,
      "ĠpouÅ¡Å¥": 3664,
      "ĠchlÃ½": 3665,
      "Ġkyne": 3666,
      "ĠnnÃ©m": 3667,
      "Ġtvrd": 3668,
      "ĠfrÃ¡": 3669,
      "ĠdrÃ½m": 3670,
      "ĠzÄįer": 3671,
      "ĠmÃ¡ch": 3672,
      "ĠlÃ¡sku": 3673,
      "ĠksmÃŃ": 3674,
      "ĠstÃ¡vÃ¡": 3675,
      "Ġbrem": 3676,
      "Ġzkla": 3677,
      "Ġnnost": 3678,
      "ĠrÃ¡da": 3679,
      "Ġtouhy": 3680,
      "Ġvhr": 3681,
      "ĠlÅ¯v": 3682,
      "ĠbrÃ¡t": 3683,
      "Ġpruh": 3684,
      "ĠvÄĽka": 3685,
      "ĠdÄĽn": 3686,
      "ĠruÄįÃŃ": 3687,
      "ĠmÃ¡me": 3688,
      "Ġkvet": 3689,
      "ĠdÄĽÄį": 3690,
      "Ġkpa": 3691,
      "ĠdÄĽnÃŃ": 3692,
      "Ġcestu": 3693,
      "ĠvÅ¯m": 3694,
      "Ġsval": 3695,
      "ĠXABABX": 3696,
      "Ġrval": 3697,
      "Ġlena": 3698,
      "Ġcar": 3699,
      "ĠnichÅ¾": 3700,
      "ĠkoÄį": 3701,
      "ĠzvÃ½": 3702,
      "ĠseÅ¡": 3703,
      "ĠÅ¡al": 3704,
      "Ġcek": 3705,
      "ĠchodÃŃ": 3706,
      "ĠloÅ¾": 3707,
      "ĠsÃ¡t": 3708,
      "ĠvzhÅ¯ru": 3709,
      "cel": 3710,
      "Ġvkle": 3711,
      "zen": 3712,
      "ĠÄįtve": 3713,
      "Ġdlel": 3714,
      "ĠÅ¡lÃ½ch": 3715,
      "Ġstrun": 3716,
      "Ġlice": 3717,
      "ĠÅĻila": 3718,
      "tra": 3719,
      "ĠmÃŃÅ¡": 3720,
      "Ġtomu": 3721,
      "Ġvhrob": 3722,
      "Ġsc": 3723,
      "Ġtos": 3724,
      "Ġbub": 3725,
      "ĠÅ¡umÃŃ": 3726,
      "ĠlaÅĪ": 3727,
      "ÅĻad": 3728,
      "Ġkvil": 3729,
      "Ġstol": 3730,
      "ĠÅĻÃŃtÃŃ": 3731,
      "ĠtÅĻesk": 3732,
      "Ġrin": 3733,
      "Ġposled": 3734,
      "ĠjÃŃz": 3735,
      "ĠtmÃ¡ch": 3736,
      "ĠnÄĽz": 3737,
      "Ġnebes": 3738,
      "ich": 3739,
      "Ġvzcho": 3740,
      "ĠlesÅ¥": 3741,
      "tÅ¯m": 3742,
      "lost": 3743,
      "ĠmÄĽsta": 3744,
      "ĠzemÃŃ": 3745,
      "jat": 3746,
      "Ġspr": 3747,
      "ĠsnÃ¡ch": 3748,
      "Ġshro": 3749,
      "Ġkrad": 3750,
      "ĠmoÅĻi": 3751,
      "ĠkvÅ¯": 3752,
      "Ġvice": 3753,
      "ĠskrÃ½vÃ¡": 3754,
      "Ġsuk": 3755,
      "Ġvzbou": 3756,
      "ĠnÄĽmÃ½": 3757,
      "ĠvzÃŃt": 3758,
      "ĠcelÃ©": 3759,
      "Ġfau": 3760,
      "ĠdnÃ¡": 3761,
      "Ġosud": 3762,
      "Ġskvo": 3763,
      "Ġstev": 3764,
      "kat": 3765,
      "ĠvÅ¡eho": 3766,
      "ĠbrÃ¡k": 3767,
      "Ġzvad": 3768,
      "Ġmyl": 3769,
      "ĠchvÄĽnÃŃ": 3770,
      "Ġskrz": 3771,
      "ĠrÃ¡ny": 3772,
      "ĠvÄįa": 3773,
      "Ġknout": 3774,
      "ĠvÃ©ho": 3775,
      "Ġstrast": 3776,
      "ĠstÄĽny": 3777,
      "ĠzÅĻÃŃd": 3778,
      "ĠvÄįi": 3779,
      "ĠkajÃŃ": 3780,
      "ĠnoucÃŃ": 3781,
      "Ġth": 3782,
      "ĠÅĻÃŃd": 3783,
      "Ġzpro": 3784,
      "ĠtouÅ¾": 3785,
      "ĠbledÃ¡": 3786,
      "ĠveÅĪ": 3787,
      "Ġhyne": 3788,
      "Ġzur": 3789,
      "ĠjdÄĽ": 3790,
      "Ġbohu": 3791,
      "Ġpej": 3792,
      "Ġvstra": 3793,
      "ĠdlanÃŃ": 3794,
      "ĠrdÄĽ": 3795,
      "Ġhoun": 3796,
      "iv": 3797,
      "ĠslÅ¯": 3798,
      "ĠnÅ¯Å¾": 3799,
      "ĠchÅ¯m": 3800,
      "Ġjih": 3801,
      "ĠÄįila": 3802,
      "Ġmlk": 3803,
      "ĠkprÃ¡": 3804,
      "ĠkrÄį": 3805,
      "ĠpolÃŃ": 3806,
      "ĠstÃŃnu": 3807,
      "jÃ¡": 3808,
      "Ġknih": 3809,
      "ĠplÃ¡nÃŃ": 3810,
      "ĠdÃŃc": 3811,
      "Ġskvr": 3812,
      "Ġtuch": 3813,
      "ĠprÃ¡ce": 3814,
      "Ġvoz": 3815,
      "Ġpoli": 3816,
      "ĠÅĻÃŃcÃŃ": 3817,
      "ĠpÄĽje": 3818,
      "ĠvzplÃ¡l": 3819,
      "Ġom": 3820,
      "Ġkola": 3821,
      "Ġban": 3822,
      "ĠpÅĻedc": 3823,
      "ĠmalÃ¡": 3824,
      "ĠsvÄĽtlo": 3825,
      "Ġcer": 3826,
      "Ġkryje": 3827,
      "ĠlÃ©ta": 3828,
      "ĠslÃ¡b": 3829,
      "ĠnÃŃkem": 3830,
      "Ġvzo": 3831,
      "ĠzkrÃ¡": 3832,
      "ĠviÄı": 3833,
      "ĠvÅ¯nÄĽ": 3834,
      "ĠdÃ¡ti": 3835,
      "ĠvisÃŃ": 3836,
      "Ġchro": 3837,
      "ĠÅ¾lou": 3838,
      "ĠmojÃŃ": 3839,
      "ĠmÃ©ho": 3840,
      "stech": 3841,
      "Ġskrov": 3842,
      "Ġkok": 3843,
      "Ġzpou": 3844,
      "den": 3845,
      "Ġgan": 3846,
      "ĠksobÄĽ": 3847,
      "ĠnÃ¡v": 3848,
      "sku": 3849,
      "ĠtlÃ½ch": 3850,
      "ĠprosÃŃ": 3851,
      "Ġah": 3852,
      "ĠtÃ½Å¾": 3853,
      "ĠmrÅ¡": 3854,
      "ĠmlÃ½n": 3855,
      "ĠprÃ¡v": 3856,
      "Ġdmou": 3857,
      "ĠXABBA": 3858,
      "ĠlhÃ¡": 3859,
      "Ġvha": 3860,
      "Ġtrs": 3861,
      "Ġzbroj": 3862,
      "ĠnocÃŃ": 3863,
      "Ġkhro": 3864,
      "Ġvane": 3865,
      "ĠkrÃ¡li": 3866,
      "ĠzbÃŃ": 3867,
      "ĠdouÅ¡": 3868,
      "Ġdlech": 3869,
      "Ġboku": 3870,
      "Ġnni": 3871,
      "Ġdnou": 3872,
      "Ġbudu": 3873,
      "ĠjeÄį": 3874,
      "Ġdlil": 3875,
      "Ġvden": 3876,
      "ĠvmlÃ¡": 3877,
      "Ġvzpom": 3878,
      "Ġzkad": 3879,
      "Ġzad": 3880,
      "ĠktÃ©": 3881,
      "Ġzpe": 3882,
      "ĠzlÃ½m": 3883,
      "Ġoj": 3884,
      "ĠbrÃ¡nÃŃ": 3885,
      "Ġpij": 3886,
      "ĠslyÅ¡el": 3887,
      "Å¡en": 3888,
      "Ġskryl": 3889,
      "ĠnÃ¡hle": 3890,
      "Ġjsouc": 3891,
      "ĠdÃ¡li": 3892,
      "Ġzes": 3893,
      "Ġzbyt": 3894,
      "Ġzrakem": 3895,
      "Ġvnik": 3896,
      "ĠctÄĽ": 3897,
      "ĠÅ¡ÃŃj": 3898,
      "ĠdÄĽjÃŃ": 3899,
      "ĠvnÄĽj": 3900,
      "ĠmÃŃrÃ¡": 3901,
      "ĠlÃŃbÃ¡": 3902,
      "ĠstÅ¯m": 3903,
      "ĠboÅ¾e": 3904,
      "ĠsnÄĽm": 3905,
      "Ġvzpou": 3906,
      "Ġvsluch": 3907,
      "nat": 3908,
      "ĠvÄĽtÅ¡ÃŃ": 3909,
      "ĠjinÃ©": 3910,
      "ĠdÃ¡ÅĻ": 3911,
      "ĠknÃ©": 3912,
      "Ġstala": 3913,
      "ĠvklÃ¡": 3914,
      "Ġplyne": 3915,
      "ĠstrÅ¯": 3916,
      "Ġen": 3917,
      "ĠvÃŃtÃ¡": 3918,
      "ĠmladÃ¡": 3919,
      "Ġhlasy": 3920,
      "ĠsmÄĽje": 3921,
      "ĠÄįera": 3922,
      "Ġpadne": 3923,
      "sÃŃc": 3924,
      "ĠrÃ¡n": 3925,
      "ĠzpÅĻÃŃ": 3926,
      "ĠkrÃ¡le": 3927,
      "ĠsladkÃ½": 3928,
      "ĠdinÄĽ": 3929,
      "ĠrouÅ¡": 3930,
      "ĠniÅ¡": 3931,
      "ĠÅ¾enÃ©": 3932,
      "Ġvyp": 3933,
      "Ġdavy": 3934,
      "ĠlestÃŃ": 3935,
      "Ġtala": 3936,
      "Ġkuje": 3937,
      "ĠsvÃŃrÃ¡": 3938,
      "ĠbitÃŃ": 3939,
      "ĠkÃ½v": 3940,
      "ĠrÅ¯m": 3941,
      "ĠdeÅĪ": 3942,
      "Ġdrah": 3943,
      "Ġrody": 3944,
      "ĠchtÄĽla": 3945,
      "Ġzcela": 3946,
      "ĠvslÃ¡": 3947,
      "Ġsul": 3948,
      "ĠtkvÃŃ": 3949,
      "Ġstl": 3950,
      "ĠlÃ©t": 3951,
      "kÃ¡m": 3952,
      "ĠÅ¾ili": 3953,
      "ĠvonÃŃ": 3954,
      "Ġvba": 3955,
      "ĠnÃ¡t": 3956,
      "Ġmohu": 3957,
      "ĠmladÃ½": 3958,
      "ĠmÃ¡k": 3959,
      "ĠzÃ¡Å¡Å¥": 3960,
      "ĠstÃ¡nÃŃ": 3961,
      "Ġvon": 3962,
      "Ġhaj": 3963,
      "ĠÄįan": 3964,
      "ĠmÄĽli": 3965,
      "Ġtaky": 3966,
      "Ġbav": 3967,
      "Ġmraky": 3968,
      "ĠksvÄĽ": 3969,
      "ĠdÃ©Äį": 3970,
      "ĠdÃ½chÃ¡": 3971,
      "ĠvaÄį": 3972,
      "Ġih": 3973,
      "Ġvlny": 3974,
      "Ġkna": 3975,
      "ĠzÅĪa": 3976,
      "ĠobÄĽ": 3977,
      "ĠstÃ½s": 3978,
      "ĠjlÃŃ": 3979,
      "dlÃŃ": 3980,
      "ĠÅ¾enÃ½": 3981,
      "Ġbolu": 3982,
      "Ġvsmut": 3983,
      "ĠskrÃ¡nÃŃ": 3984,
      "ĠÄįeÅ¡": 3985,
      "Ġkpra": 3986,
      "Ġkali": 3987,
      "ĠAAXBBX": 3988,
      "Ġcvi": 3989,
      "ĠveÄį": 3990,
      "ĠvtvÃ©": 3991,
      "ĠlÃŃci": 3992,
      "ĠzahÅĻ": 3993,
      "ĠrudÃ©": 3994,
      "ĠkvÄĽtu": 3995,
      "Ġhody": 3996,
      "Ġruka": 3997,
      "ĠzdravÃŃ": 3998,
      "Ġtles": 3999,
      "ĠkÄįi": 4000,
      "Ġstly": 4001,
      "ĠsahÃ¡": 4002,
      "Ġnas": 4003,
      "neÅ¡": 4004,
      "Ġhrady": 4005,
      "ĠlenÃ¡": 4006,
      "ĠmocÃŃ": 4007,
      "Ġlesa": 4008,
      "pÃ¡n": 4009,
      "ĠptÃ¡ci": 4010,
      "Ġhrudi": 4011,
      "ĠsmÃŃr": 4012,
      "ĠÃ©": 4013,
      "ĠchvÄĽjÃŃ": 4014,
      "ĠnÃ¡mi": 4015,
      "ĠÄįasem": 4016,
      "ĠknÃŃÅ¾": 4017,
      "ĠhlavÄĽ": 4018,
      "ĠzvÅ¡e": 4019,
      "ĠplaÄį": 4020,
      "ĠplÃ©m": 4021,
      "ĠptÃ¡m": 4022,
      "ĠnevÃŃ": 4023,
      "Ġfou": 4024,
      "ĠÅĻeÄįi": 4025,
      "sko": 4026,
      "ĠpÃŃsnÃŃ": 4027,
      "ĠvhrobÄĽ": 4028,
      "ros": 4029,
      "ABX": 4030,
      "ĠcenÃ©": 4031,
      "ĠtÃŃÅ¾ÃŃ": 4032,
      "ĠzblÃŃz": 4033,
      "Ġzuje": 4034,
      "Ġboun": 4035,
      "ĠbytÃŃ": 4036,
      "Ġet": 4037,
      "ĠmilÃ©": 4038,
      "Ġsama": 4039,
      "ĠÅ¡kÅ¯": 4040,
      "Ġlesti": 4041,
      "ĠÃºc": 4042,
      "nÃ©st": 4043,
      "Ġzit": 4044,
      "Ġvsmr": 4045,
      "ĠsÅ¾e": 4046,
      "Ġpluh": 4047,
      "ĠschrÃ¡": 4048,
      "Ġmha": 4049,
      "ĠÄįasu": 4050,
      "ĠÅ¥o": 4051,
      "ĠtÃŃk": 4052,
      "Ġjejich": 4053,
      "et": 4054,
      "Ġmis": 4055,
      "ĠdeÅ¾": 4056,
      "ĠvÅ¾Ã¡": 4057,
      "Ġsami": 4058,
      "Ġzraku": 4059,
      "Ġsledy": 4060,
      "Ġpso": 4061,
      "ĠdolÃŃ": 4062,
      "Ġdep": 4063,
      "ĠstrÃ½ch": 4064,
      "ĠkvÄĽtem": 4065,
      "Ġvc": 4066,
      "ĠzaÅ¡": 4067,
      "Ġsie": 4068,
      "ĠÅĪÅ¯": 4069,
      "ĠdÃ³": 4070,
      "ĠbuÅ¡ÃŃ": 4071,
      "ĠÅ¡kÅ¯d": 4072,
      "ĠtÅĻeba": 4073,
      "Ġjemu": 4074,
      "Ġsrov": 4075,
      "ĠlaÅ¡": 4076,
      "ĠzkvÄĽ": 4077,
      "ĠkÅĻiÅ¡": 4078,
      "ĠmstÃŃ": 4079,
      "Ġkoli": 4080,
      "ĠtÃ¡l": 4081,
      "ĠstÃ¡ch": 4082,
      "ĠpÅĻil": 4083,
      "Ġpych": 4084,
      "ĠvpouÅ¡": 4085,
      "ĠXABBAX": 4086,
      "Ġcvr": 4087,
      "Ġlip": 4088,
      "ĠjitÅĻ": 4089,
      "Ġmena": 4090,
      "Ġvbi": 4091,
      "bo": 4092,
      "ĠÅ¡ku": 4093,
      "Ġbyly": 4094,
      "Ġpila": 4095,
      "Ġoko": 4096,
      "ĠsmÄĽle": 4097,
      "ĠvÄĽkÅ¯": 4098,
      "ĠdÅ¾bÃ¡": 4099,
      "ĠÅ¾va": 4100,
      "ĠznÃŃÅ¾": 4101,
      "ĠvkrÃ¡t": 4102,
      "ĠcenÃ½": 4103,
      "ĠÃºsta": 4104,
      "ĠzlatÃŃ": 4105,
      "Ġhvozd": 4106,
      "ĠtmÃ¡m": 4107,
      "Ġvbez": 4108,
      "Ġbech": 4109,
      "ĠÄįiÅĪ": 4110,
      "ĠtvoÅĻÃŃ": 4111,
      "Ġnohou": 4112,
      "ĠpÅĻiz": 4113,
      "Ġlout": 4114,
      "Ġlvi": 4115,
      "ĠktÄĽ": 4116,
      "Ġkvap": 4117,
      "ĠkmÄĽ": 4118,
      "ĠÅ¾h": 4119,
      "ĠvÃŃrÃ¡": 4120,
      "ĠpÃ¡t": 4121,
      "ĠklÃŃÄį": 4122,
      "Ġsop": 4123,
      "ĠchtÃŃt": 4124,
      "Ġdole": 4125,
      "ĠmuÅ¾e": 4126,
      "Ġvzka": 4127,
      "ĠmÄĽÅ¥": 4128,
      "ĠmÃŃvÃ¡": 4129,
      "ĠvÄĽdÄĽl": 4130,
      "Ġnala": 4131,
      "Ġkovi": 4132,
      "Ġrot": 4133,
      "Ġzpla": 4134,
      "ĠsuÄı": 4135,
      "ĠvtÄĽÅ¾": 4136,
      "ĠdrahÃ½": 4137,
      "ĠvÅĻes": 4138,
      "ĠvtvÃ©m": 4139,
      "Ġkrokem": 4140,
      "Ġstalo": 4141,
      "on": 4142,
      "Ġdoma": 4143,
      "Ġrud": 4144,
      "ĠmÃ¡ti": 4145,
      "ĠÅ¾ij": 4146,
      "ĠjasnÃ©": 4147,
      "ĠvroucÃŃ": 4148,
      "Ġlym": 4149,
      "Ġvous": 4150,
      "Ġuc": 4151,
      "Ġzbi": 4152,
      "ĠhraÄį": 4153,
      "ĠkÅĻÃŃdla": 4154,
      "ĠpÃŃr": 4155,
      "Ġryk": 4156,
      "ĠbrÃ½ch": 4157,
      "Ġvzhled": 4158,
      "ĠÄįÃ¡st": 4159,
      "Ġnah": 4160,
      "ĠmÄĽti": 4161,
      "Ġdam": 4162,
      "vej": 4163,
      "Ġvosti": 4164,
      "ĠÄįase": 4165,
      "ĠhlÃ½ch": 4166,
      "Ġzdy": 4167,
      "ĠoÅ¡": 4168,
      "Ġduje": 4169,
      "ĠkouÅĻ": 4170,
      "Ġzlata": 4171,
      "Äįen": 4172,
      "dÃŃm": 4173,
      "Ġmru": 4174,
      "ĠtÅĻel": 4175,
      "ĠstrÃ½m": 4176,
      "ĠstarÃ¡": 4177,
      "kÃ½ch": 4178,
      "ĠknÃ¡": 4179,
      "ĠdnÃ½ch": 4180,
      "Ġstisk": 4181,
      "ĠkÃ©ho": 4182,
      "ĠkaÅ¡": 4183,
      "Ġvoh": 4184,
      "Ġplamen": 4185,
      "Ġser": 4186,
      "Ġrab": 4187,
      "Ġzoru": 4188,
      "ĠskÃ©ho": 4189,
      "Ġvble": 4190,
      "Ġhmy": 4191,
      "ĠnÃ©Äį": 4192,
      "ĠstÃŃrÃ¡": 4193,
      "ĠÅ¡pÃŃ": 4194,
      "stal": 4195,
      "ĠlÃ¡c": 4196,
      "ĠvspÄĽ": 4197,
      "Ġskok": 4198,
      "ĠnÃŃmÅ¾": 4199,
      "ĠnemÃ¡": 4200,
      "Ġvodu": 4201,
      "ĠstvÅ¯": 4202,
      "Ġsvad": 4203,
      "Ġsvaz": 4204,
      "Ġroste": 4205,
      "ĠnoÅĻÃŃ": 4206,
      "ĠsvatÃ¡": 4207,
      "Ġktomu": 4208,
      "ĠhonÃŃ": 4209,
      "ĠpiÅ¡": 4210,
      "Ġdaly": 4211,
      "Ġdili": 4212,
      "Ġschu": 4213,
      "Ġzhoub": 4214,
      "ĠdlanÄĽ": 4215,
      "Ġvzda": 4216,
      "ĠpÃŃlÃŃ": 4217,
      "Ġmnoho": 4218,
      "Ġrvou": 4219,
      "ĠstarÃ½": 4220,
      "ĠchudÃ©": 4221,
      "ĠÅ¡ka": 4222,
      "ĠkÃ¡t": 4223,
      "ĠsÅĻÃŃ": 4224,
      "Ġklidu": 4225,
      "Ġkslun": 4226,
      "Ġmenem": 4227,
      "ĠpojÃŃ": 4228,
      "ĠstÃ¡ti": 4229,
      "Ġvnej": 4230,
      "ĠvzdÄĽ": 4231,
      "ĠhÅĻmo": 4232,
      "ĠleÅ¡": 4233,
      "Ġvos": 4234,
      "ĠsluÅ¡ÃŃ": 4235,
      "Ġvjiz": 4236,
      "ĠstvÃ©": 4237,
      "Ġbila": 4238,
      "Å¾el": 4239,
      "ĠsÃ¡l": 4240,
      "Ġvpar": 4241,
      "ĠdlÃ¡k": 4242,
      "bit": 4243,
      "Ġdinu": 4244,
      "Ġplam": 4245,
      "Ġasi": 4246,
      "ĠlÅ¾ÃŃ": 4247,
      "ĠmÃŃÅĪ": 4248,
      "Ġvlese": 4249,
      "ĠrtÅ¯m": 4250,
      "Ġvkout": 4251,
      "Ġtho": 4252,
      "Ġtrub": 4253,
      "Ġzdlou": 4254,
      "ĠhÃ¡zÃŃ": 4255,
      "ĠÄıte": 4256,
      "Ġtrysk": 4257,
      "Ġchan": 4258,
      "ĠblÃŃÅ¾e": 4259,
      "Ġtluk": 4260,
      "ĠmdlÃ¡": 4261,
      "Ġbas": 4262,
      "Ġnnu": 4263,
      "ĠstlÃ¡": 4264,
      "ĠzvÅ¯": 4265,
      "Ġkod": 4266,
      "ĠzÃŃÅ¡": 4267,
      "Ġron": 4268,
      "Ġlon": 4269,
      "ĠnÄĽt": 4270,
      "ĠnosÃŃ": 4271,
      "ÅĪal": 4272,
      "ĠchuÅ¥": 4273,
      "ĠÅ¡ad": 4274,
      "ĠprÃ½Å¡": 4275,
      "ĠtÄĽt": 4276,
      "ĠvznÄĽt": 4277,
      "Ġlha": 4278,
      "ĠjinÃ½": 4279,
      "Ġlau": 4280,
      "ĠmÄĽÅĻ": 4281,
      "Ġvsko": 4282,
      "ĠdennÃŃ": 4283,
      "ĠlesÅ¯": 4284,
      "Ġtesk": 4285,
      "ĠrÅ¯Å¾": 4286,
      "ĠklÃ½ch": 4287,
      "Ġduj": 4288,
      "Å¾it": 4289,
      "Ġmur": 4290,
      "ĠvÃ©st": 4291,
      "Ġdeb": 4292,
      "ĠtuÄį": 4293,
      "Ġsji": 4294,
      "ĠÄįeÅ¾": 4295,
      "Ġkvla": 4296,
      "el": 4297,
      "let": 4298,
      "ĠslÃŃÅ¡": 4299,
      "Ġsele": 4300,
      "Ġtmu": 4301,
      "ĠpÅĻijÄı": 4302,
      "ĠklesÃ¡": 4303,
      "Ġzach": 4304,
      "ĠsnÅ¯m": 4305,
      "ĠvstÃ¡vÃ¡": 4306,
      "ĠnÃ¡k": 4307,
      "Ġkvr": 4308,
      "ĠrÃ¡je": 4309,
      "Ġvili": 4310,
      "Ġvlak": 4311,
      "Ġschy": 4312,
      "ĠhlÃ½m": 4313,
      "ĠtÅĻit": 4314,
      "ĠholÃŃ": 4315,
      "ĠchvÄĽt": 4316,
      "ĠhvÄĽzdy": 4317,
      "Ġvcha": 4318,
      "ĠbÅĻit": 4319,
      "Ġmhou": 4320,
      "ĠjevÃŃ": 4321,
      "Ġvtr": 4322,
      "ĠbÃ¡Å¡": 4323,
      "chem": 4324,
      "ĠkÃ¡ÅĻ": 4325,
      "Ġsyna": 4326,
      "ĠpÅĻÃ¡nÃŃ": 4327,
      "ĠsvÃ¡r": 4328,
      "ĠkÃ©s": 4329,
      "ĠrÅ¯st": 4330,
      "Ġjsy": 4331,
      "Ġrys": 4332,
      "ĠronÃŃ": 4333,
      "ĠvÅ¡tÄĽ": 4334,
      "Ġdri": 4335,
      "Ġfer": 4336,
      "Ġkoji": 4337,
      "ĠvsmÃŃ": 4338,
      "ĠlÃ©k": 4339,
      "Ġzlat": 4340,
      "ĠpÅ¯t": 4341,
      "Ġvtma": 4342,
      "Ġvlek": 4343,
      "ĠdiÅ¡": 4344,
      "ĠvlÃŃc": 4345,
      "ĠvhruÄı": 4346,
      "pat": 4347,
      "ĠvsÃ¡": 4348,
      "ĠsnÃ¡mi": 4349,
      "ĠvÃ½z": 4350,
      "ĠvlaÅ¾": 4351,
      "ĠdÅ¯v": 4352,
      "ĠzpÃŃval": 4353,
      "Ġmoji": 4354,
      "ĠkÃ¡men": 4355,
      "nky": 4356,
      "Ġstele": 4357,
      "ĠzlatÃ¡": 4358,
      "nÄĽn": 4359,
      "ĠspÅĻÃŃ": 4360,
      "ĠpiÄį": 4361,
      "ĠÄįiÄį": 4362,
      "ĠÅĻiÄį": 4363,
      "Ġvmou": 4364,
      "Ġvlou": 4365,
      "Ġroh": 4366,
      "ĠvztÃ½": 4367,
      "Ġzvr": 4368,
      "ĠzÃ¡hy": 4369,
      "Ġtoho": 4370,
      "ĠdrÅ¾": 4371,
      "Ġhel": 4372,
      "Ġzez": 4373,
      "ĠvprÃ¡z": 4374,
      "ĠslÃ¡s": 4375,
      "ĠzdÃ¡li": 4376,
      "ĠknÄĽmu": 4377,
      "Ġtha": 4378,
      "Ġlovat": 4379,
      "Ġtuje": 4380,
      "ĠzÃ¡ÅĻi": 4381,
      "Ġvnes": 4382,
      "ĠpsÃ¡t": 4383,
      "Ġsvy": 4384,
      "ĠtÃ¡Å¡": 4385,
      "Ġvsu": 4386,
      "Ġdral": 4387,
      "Ġssa": 4388,
      "Ġshas": 4389,
      "ĠdinÃ½": 4390,
      "ĠnaÅ¡i": 4391,
      "vÄĽk": 4392,
      "Ġdami": 4393,
      "Ġbre": 4394,
      "ĠspÄĽje": 4395,
      "Ġpus": 4396,
      "Å¾ik": 4397,
      "ĠnnÃŃm": 4398,
      "ĠkÃ¡Å¾e": 4399,
      "Ġvspo": 4400,
      "ĠztmÄĽ": 4401,
      "rech": 4402,
      "ĠdomÃŃ": 4403,
      "ĠÅ¡enÃ©": 4404,
      "ĠÅ¾iÄį": 4405,
      "Ġpluk": 4406,
      "Ġnus": 4407,
      "Ġgli": 4408,
      "Ġnebi": 4409,
      "ĠÃ¡n": 4410,
      "Ġslovo": 4411,
      "ĠpÃŃsnÄĽ": 4412,
      "ĠvztÃ¡h": 4413,
      "ĠnÄĽla": 4414,
      "ĠnÃ¡l": 4415,
      "ĠpÄĽn": 4416,
      "Ġchleba": 4417,
      "Ġchodu": 4418,
      "ĠpÄĽti": 4419,
      "ĠsplÃŃ": 4420,
      "Ġruky": 4421,
      "ĠtemnÄĽ": 4422,
      "kol": 4423,
      "Ġzlob": 4424,
      "Ġzkro": 4425,
      "Ġcle": 4426,
      "Ġvzlyk": 4427,
      "ĠdbÃ¡": 4428,
      "ĠvkvÄĽt": 4429,
      "ĠtÄĽr": 4430,
      "ĠÄįap": 4431,
      "ĠslÃ¡vu": 4432,
      "mat": 4433,
      "ĠvanÃ½": 4434,
      "Ġlkal": 4435,
      "ĠlÃ¡ÅĻ": 4436,
      "Ġvplen": 4437,
      "Ġtik": 4438,
      "Ġric": 4439,
      "Ġsok": 4440,
      "Äįit": 4441,
      "Ġpri": 4442,
      "ĠdlaÅ¾": 4443,
      "ĠtratÃŃ": 4444,
      "rÃ¡ch": 4445,
      "vod": 4446,
      "ĠsÅĪa": 4447,
      "ĠbÄĽda": 4448,
      "ĠkalÃŃ": 4449,
      "ĠdlÃŃm": 4450,
      "ĠmoÅĻÃŃ": 4451,
      "ĠvrÃ½": 4452,
      "Ġkvete": 4453,
      "Ġhrobu": 4454,
      "ĠrÃ¡zem": 4455,
      "Ġnohy": 4456,
      "Ġstop": 4457,
      "ĠÅ¾ert": 4458,
      "ĠjistÄĽ": 4459,
      "Ġprst": 4460,
      "ĠprÃ¡va": 4461,
      "ĠstÃ½ÅĻ": 4462,
      "Ġleje": 4463,
      "Ġrady": 4464,
      "Ġrep": 4465,
      "ĠbrÃ½m": 4466,
      "Ġchoun": 4467,
      "mÄĽl": 4468,
      "Ġchop": 4469,
      "Ġmlh": 4470,
      "Ġrie": 4471,
      "ĠkhvÄĽz": 4472,
      "Ġoku": 4473,
      "Ġmic": 4474,
      "Ġslab": 4475,
      "Ġflo": 4476,
      "ĠÅ¡Å¥Ã¡": 4477,
      "ĠÄįiÅ¡": 4478,
      "ĠhÃ¡v": 4479,
      "ĠpÅĻa": 4480,
      "Ġjev": 4481,
      "Ġvprav": 4482,
      "ĠdÄĽlÃ¡": 4483,
      "Ġstranou": 4484,
      "Ġvrab": 4485,
      "Ġtrochu": 4486,
      "Ġjra": 4487,
      "Ġost": 4488,
      "ĠrodÃŃ": 4489,
      "Ġnuly": 4490,
      "Ġfon": 4491,
      "Ġthu": 4492,
      "Ġnin": 4493,
      "Ġstrov": 4494,
      "Ġhroby": 4495,
      "Ġboh": 4496,
      "ĠsmÃŃm": 4497,
      "ĠmÃ¡te": 4498,
      "ĠhrajÃŃ": 4499,
      "ĠsvÄĽty": 4500,
      "ĠkonÄĽ": 4501,
      "ĠnÃ¡Äį": 4502,
      "ĠvÃŃte": 4503,
      "Ġdvoj": 4504,
      "Ġtaje": 4505,
      "Ġmer": 4506,
      "ĠvyÅĻ": 4507,
      "Ġvsnech": 4508,
      "ĠpatÅĻÃŃ": 4509,
      "Ġkaly": 4510,
      "Ġmej": 4511,
      "Ġam": 4512,
      "Ġgen": 4513,
      "ĠÅĻej": 4514,
      "ĠpovÄĽ": 4515,
      "ĠÄįinu": 4516,
      "ĠkrvÃŃ": 4517,
      "Ġpouti": 4518,
      "ĠdÄĽcko": 4519,
      "Ġdavu": 4520,
      "ĠpÅĻece": 4521,
      "ĠÄįiv": 4522,
      "Ġchoval": 4523,
      "ĠmyÅ¡": 4524,
      "ĠÄįlovÄĽk": 4525,
      "Ġpili": 4526,
      "ĠABC": 4527,
      "ĠtÃ¡ÅĻi": 4528,
      "Ġbij": 4529,
      "ĠstrÃ¡ÅĪ": 4530,
      "Ġpolem": 4531,
      "ĠkolÃŃ": 4532,
      "Ġdomu": 4533,
      "ĠpravÃ½": 4534,
      "ĠzumÃŃ": 4535,
      "Ġjun": 4536,
      "Ġzrn": 4537,
      "ĠrÃ¡Å¡": 4538,
      "jÃŃch": 4539,
      "Ġkrej": 4540,
      "ĠÅ¾eno": 4541,
      "ĠzmlÃ¡": 4542,
      "Ġsvod": 4543,
      "Ġspjat": 4544,
      "ĠjÃ¡sÃ¡": 4545,
      "Ġvpad": 4546,
      "ĠlosÅ¥": 4547,
      "Ġvina": 4548,
      "ĠchystÃ¡": 4549,
      "ĠvaÅ¾": 4550,
      "ĠvÃŃra": 4551,
      "ĠÄıar": 4552,
      "ĠÅ¡kol": 4553,
      "Ġvnuk": 4554,
      "ĠnaÅ¡ÃŃ": 4555,
      "Ġuj": 4556,
      "ĠzÅĻej": 4557,
      "Ġbouk": 4558,
      "ĠstÅĻech": 4559,
      "Ġpop": 4560,
      "ĠplatÃŃ": 4561,
      "ĠvenÃ½": 4562,
      "Ġmund": 4563,
      "Ġjeden": 4564,
      "Ġnar": 4565,
      "ĠvsvÃ½ch": 4566,
      "ĠzrÃ¡na": 4567,
      "Å¡il": 4568,
      "Ġbah": 4569,
      "ĠchÃ¡Å¡": 4570,
      "Ġdrem": 4571,
      "ĠÅ¡lÃ½": 4572,
      "ĠvzchÃ¡": 4573,
      "Ġrag": 4574,
      "ĠspÄĽj": 4575,
      "Ġshni": 4576,
      "ĠvhouÅ¡": 4577,
      "Ġnis": 4578,
      "Ġkta": 4579,
      "ĠzÅ¡e": 4580,
      "ĠbÃŃm": 4581,
      "ĠkrÃ¡su": 4582,
      "Ġmnoh": 4583,
      "ĠnÄĽnÃ©": 4584,
      "Ġvici": 4585,
      "Ġzhla": 4586,
      "ĠhrÃ¡z": 4587,
      "ĠjmÃ©no": 4588,
      "ĠzlÃ¡s": 4589,
      "ĠvjÃŃ": 4590,
      "ĠruÅ¡ÃŃ": 4591,
      "ĠsvÄĽtÃŃ": 4592,
      "ĠpÅĻiÅ¡el": 4593,
      "ĠpÄĽstÃŃ": 4594,
      "ĠvÅ¡ecky": 4595,
      "ĠdeÅĻ": 4596,
      "Å¾ÃŃm": 4597,
      "Ġletu": 4598,
      "rej": 4599,
      "ĠlÃ¡k": 4600,
      "ĠkrÃ¡snÃ©": 4601,
      "ĠrÃ¡ÅĻ": 4602,
      "Ġsroz": 4603,
      "ĠÅ¡ti": 4604,
      "Ġpadu": 4605,
      "mÃ½": 4606,
      "ĠtÃŃh": 4607,
      "ĠpÅĻiÅ¡": 4608,
      "Ġducha": 4609,
      "ĠtÅĻetÃŃ": 4610,
      "ĠjemstvÃŃ": 4611,
      "ĠvdÅ¯": 4612,
      "ĠlistÃŃ": 4613,
      "ĠdÃ¡me": 4614,
      "ĠrajÃŃ": 4615,
      "ĠlÃ¡nÃŃ": 4616,
      "ĠzdÃ¡lo": 4617,
      "Ġdout": 4618,
      "ĠstÃ¡h": 4619,
      "Ġshor": 4620,
      "Ġzme": 4621,
      "Ġcesta": 4622,
      "Ġcitu": 4623,
      "Ġdluh": 4624,
      "ĠkynÄĽ": 4625,
      "Ġstolu": 4626,
      "ĠktobÄĽ": 4627,
      "ĠmÄĽvem": 4628,
      "Ġat": 4629,
      "ĠvyÄį": 4630,
      "ĠprÃ¡zd": 4631,
      "ĠvÅ¡ady": 4632,
      "Ġlese": 4633,
      "Ġdechu": 4634,
      "ĠlÃ©ho": 4635,
      "Ġlenou": 4636,
      "ĠmÃ¡Å¾": 4637,
      "ĠhradÄĽ": 4638,
      "ĠvÃŃna": 4639,
      "Ġklade": 4640,
      "Ġjemnou": 4641,
      "ĠznÃŃt": 4642,
      "Ġchrem": 4643,
      "ĠÅĻeky": 4644,
      "Ġvmla": 4645,
      "um": 4646,
      "ĠtuÅ¥": 4647,
      "Ġzbou": 4648,
      "ĠdvÃ¡b": 4649,
      "ĠÅ¾Ã¡dÃ¡": 4650,
      "Ġdoba": 4651,
      "ĠbratÅĻÃŃ": 4652,
      "Ġvoku": 4653,
      "ĠvzpÅĻÃŃ": 4654,
      "Ġkhla": 4655,
      "Ġsebou": 4656,
      "ĠhajÃŃ": 4657,
      "ĠkaÅĻ": 4658,
      "ĠzÃ¡c": 4659,
      "Ġrych": 4660,
      "ĠsvÃ½mi": 4661,
      "Ġvhor": 4662,
      "ĠpsÃŃ": 4663,
      "vor": 4664,
      "seÅĪ": 4665,
      "Ġsedm": 4666,
      "Ġcher": 4667,
      "ĠskrÃ½Å¡": 4668,
      "ĠpÅĻÃŃt": 4669,
      "Ġdalo": 4670,
      "ĠzmÃŃrÃ¡": 4671,
      "Ġtosti": 4672,
      "ĠmÄĽlo": 4673,
      "ĠnitÅĻ": 4674,
      "ĠdÄĽlÃŃ": 4675,
      "Ġvinou": 4676,
      "Ġvlk": 4677,
      "ĠkÅĻep": 4678,
      "ĠumÃŃ": 4679,
      "Ġsila": 4680,
      "ĠzÃ¡k": 4681,
      "ĠzoÅĻe": 4682,
      "ĠmÅ¡i": 4683,
      "ĠÅ¾at": 4684,
      "Ġzvla": 4685,
      "ĠÅ¥te": 4686,
      "ĠtiÅ¾": 4687,
      "Ġsbra": 4688,
      "Ġzs": 4689,
      "ĠhÅĻi": 4690,
      "ĠrobÄĽ": 4691,
      "pad": 4692,
      "Ġlici": 4693,
      "ĠctnÃ©": 4694,
      "ĠvÄĽje": 4695,
      "Ġprudce": 4696,
      "Ġhoru": 4697,
      "ju": 4698,
      "Ġhus": 4699,
      "Ġtouha": 4700,
      "Ġdlesk": 4701,
      "Ġhluch": 4702,
      "ĠhÅĻÃŃÄį": 4703,
      "ĠvhnÄĽ": 4704,
      "Ġstlo": 4705,
      "Ġdinou": 4706,
      "ĠnÄĽji": 4707,
      "Ġmam": 4708,
      "Ġvdru": 4709,
      "Ġzik": 4710,
      "Ġblaha": 4711,
      "dek": 4712,
      "Ġzvuky": 4713,
      "ĠkrÃ¡sa": 4714,
      "sek": 4715,
      "Ġtar": 4716,
      "Ġbolem": 4717,
      "Ġspod": 4718,
      "ĠÅ¡ev": 4719,
      "ĠtelÃ©": 4720,
      "ĠsvÄĽtÅ¯": 4721,
      "Ġzkra": 4722,
      "ĠtlaÄįÃŃ": 4723,
      "ĠrvÃ¡t": 4724,
      "ĠvaÅ¥": 4725,
      "ĠstÃ¡n": 4726,
      "Ġkch": 4727,
      "Ġhochu": 4728,
      "stva": 4729,
      "ĠtkvÄĽ": 4730,
      "ĠspouÅ¡": 4731,
      "Ġnnosti": 4732,
      "ĠÅ¡ÅĪ": 4733,
      "ĠvelÃŃ": 4734,
      "ĠzmÃ©": 4735,
      "ĠmalÃ©": 4736,
      "ĠkÃ¡s": 4737,
      "ĠryzÃŃ": 4738,
      "Ġplen": 4739,
      "Ġkob": 4740,
      "ĠÄįasÅ¯": 4741,
      "Ġ22": 4742,
      "uj": 4743,
      "ĠhÃ¡Äį": 4744,
      "Ġnilo": 4745,
      "ĠÅ¡enÃ½": 4746,
      "Ġprot": 4747,
      "ĠzkÅĻi": 4748,
      "ĠrÃ¡di": 4749,
      "Ġplul": 4750,
      "Ã¡ch": 4751,
      "ĠÅ¾dÃ¡": 4752,
      "ĠvÃŃdÃ¡": 4753,
      "skÃ½m": 4754,
      "ĠvrÃ¡til": 4755,
      "ĠklÃŃnu": 4756,
      "Ġdivy": 4757,
      "ĠsvÃ©mu": 4758,
      "Ġcela": 4759,
      "ĠhrobÄĽ": 4760,
      "ĠdveÅĻÃŃ": 4761,
      "Ġhov": 4762,
      "ĠhuÄįÃŃ": 4763,
      "ĠchvÄĽlo": 4764,
      "Ġletem": 4765,
      "ĠtÅĻen": 4766,
      "Ġvpoli": 4767,
      "ĠnÃ¡vÃ¡": 4768,
      "ĠnicÃŃ": 4769,
      "ĠstiÄį": 4770,
      "tej": 4771,
      "ĠÅ¡Ã¡t": 4772,
      "Ġpach": 4773,
      "Ġpic": 4774,
      "lech": 4775,
      "Ġbiny": 4776,
      "ĠstrojÃŃ": 4777,
      "ĠmÅ¯r": 4778,
      "ĠslÃ¡vÄĽ": 4779,
      "ĠsenÃŃ": 4780,
      "Ġvslo": 4781,
      "Ġvkni": 4782,
      "Ġstromy": 4783,
      "Ġtrok": 4784,
      "Ġvchlad": 4785,
      "ĠvÅĻÃŃt": 4786,
      "Ġmes": 4787,
      "Ġbudou": 4788,
      "Ġpsi": 4789,
      "Ġsynu": 4790,
      "ĠchrÃ¡nÃŃ": 4791,
      "ĠhledÄĽl": 4792,
      "ĠzpÄĽvy": 4793,
      "Ġzly": 4794,
      "Ġhos": 4795,
      "Ġpiv": 4796,
      "Ġvzduchu": 4797,
      "Ġzleh": 4798,
      "ĠÅĻve": 4799,
      "ĠvnoÄį": 4800,
      "Ġkrista": 4801,
      "Ġvznik": 4802,
      "ĠÅ¾enu": 4803,
      "Ġmatka": 4804,
      "ĠradÅ¡": 4805,
      "Ġop": 4806,
      "ĠvtÃ½": 4807,
      "ĠrÃ¡nÃŃ": 4808,
      "Ġzdej": 4809,
      "ĠÅ¡piÄį": 4810,
      "vÅ¯j": 4811,
      "Ġviv": 4812,
      "ĠzÅĻÃŃti": 4813,
      "ĠboÅĻÃŃ": 4814,
      "ĠzdÃ¡r": 4815,
      "ĠÅĪÃ¡t": 4816,
      "Ġchval": 4817,
      "ĠvÄĽÅ¾ÃŃ": 4818,
      "Ġtup": 4819,
      "ĠcÃŃle": 4820,
      "ĠtrÃ©": 4821,
      "ĠbavÃŃ": 4822,
      "ĠÅ¡iÄį": 4823,
      "ĠvkÅĻe": 4824,
      "ĠdrÃ©m": 4825,
      "Ġsliv": 4826,
      "Ġlie": 4827,
      "ĠlÃŃÅĻ": 4828,
      "ĠsteÄį": 4829,
      "Ġvtru": 4830,
      "Ġrouc": 4831,
      "Ġksou": 4832,
      "ĠdliÄį": 4833,
      "Ġvsled": 4834,
      "Ġknebi": 4835,
      "Ġpsy": 4836,
      "Ġpravil": 4837,
      "ĠdvÃ¡Å¾": 4838,
      "Ġpost": 4839,
      "Ġcech": 4840,
      "Ġceny": 4841,
      "ĠdivÃ¡": 4842,
      "ĠÅ¡lenÃŃ": 4843,
      "ĠdlÃ½m": 4844,
      "Ġmdle": 4845,
      "ĠvÃŃme": 4846,
      "ĠdaÅĻÃŃ": 4847,
      "ĠflÃ©": 4848,
      "ĠspÃŃs": 4849,
      "ĠmladÃ©": 4850,
      "ĠÄįnÄĽ": 4851,
      "Ġmeni": 4852,
      "ĠÅ¾id": 4853,
      "Ġram": 4854,
      "Ġbyls": 4855,
      "zeÅĪ": 4856,
      "Ġstyd": 4857,
      "ĠsedÃ¡": 4858,
      "ĠvmÃ½ch": 4859,
      "Ġvstro": 4860,
      "ĠplÃ©mÄĽ": 4861,
      "Ġuh": 4862,
      "Ġmok": 4863,
      "Ġviti": 4864,
      "ĠsÃŃÅ¥": 4865,
      "ĠtÃ½d": 4866,
      "ĠkplÃ¡": 4867,
      "Ġzhor": 4868,
      "ĠkÃ¡zal": 4869,
      "ĠÅ¡era": 4870,
      "Ġznovu": 4871,
      "ĠhÃ¡Å¡": 4872,
      "Ġvanou": 4873,
      "ĠvodÃŃ": 4874,
      "ĠdrtÃŃ": 4875,
      "ĠshlÃ©d": 4876,
      "ĠrannÃŃ": 4877,
      "tec": 4878,
      "Ġloun": 4879,
      "Ġbesa": 4880,
      "ĠbÃ½m": 4881,
      "ĠplnÃ½": 4882,
      "Ġradost": 4883,
      "ĠpÅĻÃŃÅ¡tÃŃ": 4884,
      "ĠABB": 4885,
      "ĠlÃ¡z": 4886,
      "Ġzmoc": 4887,
      "Ġbud": 4888,
      "ĠvÅĻela": 4889,
      "Ġkpr": 4890,
      "ĠÅ¡Ã¡r": 4891,
      "ĠnikÃ¡": 4892,
      "ĠAAAA": 4893,
      "ĠktÄĽm": 4894,
      "ĠÄįlun": 4895,
      "ĠÄįed": 4896,
      "Ġkslu": 4897,
      "Ġslovem": 4898,
      "Ġvzruch": 4899,
      "Ġdilo": 4900,
      "ĠjÃŃcÃ½": 4901,
      "ĠvsÃŃÅĪ": 4902,
      "ĠÄįli": 4903,
      "ĠsmeÄį": 4904,
      "Ġbot": 4905,
      "Ġplout": 4906,
      "ĠvÄįÃŃ": 4907,
      "Ġrosy": 4908,
      "Ġmoj": 4909,
      "Ġbloud": 4910,
      "Ġtoku": 4911,
      "ĠÄįast": 4912,
      "ĠAXABBX": 4913,
      "Ġjinou": 4914,
      "ĠvÃŃÅĻÃŃ": 4915,
      "Ġpyt": 4916,
      "ĠsmÄĽr": 4917,
      "ĠvnÄĽÅ¾": 4918,
      "Ġvdech": 4919,
      "Ġplanou": 4920,
      "ĠÅ¾ol": 4921,
      "ĠvpÅ¯l": 4922,
      "Ġleka": 4923,
      "Ġstavil": 4924,
      "ĠÅĻÃŃk": 4925,
      "del": 4926,
      "kÃ©m": 4927,
      "ĠtÄĽnÃŃ": 4928,
      "ĠmÅĻi": 4929,
      "ĠtÃŃc": 4930,
      "ĠpÅĻeÄį": 4931,
      "Ġkroky": 4932,
      "Ġvtis": 4933,
      "ĠtÅĻpytÃŃ": 4934,
      "ĠÄįistÃ¡": 4935,
      "Ġglo": 4936,
      "Ġvdlou": 4937,
      "ĠÄįerv": 4938,
      "ĠvidÃŃm": 4939,
      "Ġmine": 4940,
      "ĠÄįÃŃc": 4941,
      "Ġbab": 4942,
      "tÃ¡m": 4943,
      "ĠtmavÃ½": 4944,
      "ĠmrÃ¡Äį": 4945,
      "Ġznej": 4946,
      "Ġnud": 4947,
      "Ġab": 4948,
      "ÅĻo": 4949,
      "Ġdul": 4950,
      "ĠmÄĽÅĻÃŃ": 4951,
      "ĠABABBX": 4952,
      "Ġzlil": 4953,
      "ĠcÃ©": 4954,
      "ĠnajÃŃ": 4955,
      "Ġtuh": 4956,
      "Ġnili": 4957,
      "Ġzob": 4958,
      "stÄĽ": 4959,
      "ĠverÅ¡": 4960,
      "Ġvv": 4961,
      "ĠsmÄĽlÃ½": 4962,
      "ĠhodÃŃ": 4963,
      "Ġdaj": 4964,
      "Ġstiv": 4965,
      "Ġvsen": 4966,
      "Ġryl": 4967,
      "ĠÅ¥Ã¡t": 4968,
      "ĠpruÅ¾": 4969,
      "Ġvlok": 4970,
      "Ġkvy": 4971,
      "ĠdostÃŃ": 4972,
      "ĠÅ¾ela": 4973,
      "ĠvÅ¾e": 4974,
      "Ġvprv": 4975,
      "ĠvenÃ©": 4976,
      "Ġsin": 4977,
      "Ġcesty": 4978,
      "ĠvtÃ¡": 4979,
      "ĠzrakÅ¯": 4980,
      "ĠskrÃ¡nÄĽ": 4981,
      "ĠÅ¡kr": 4982,
      "dra": 4983,
      "Ġruchu": 4984,
      "Ġhles": 4985,
      "ĠslavÃŃ": 4986,
      "ĠtÃ¡hne": 4987,
      "ĠkbÅĻe": 4988,
      "ĠslÅ¯v": 4989,
      "ĠblaÄį": 4990,
      "ĠtvÃ©ho": 4991,
      "ĠskÃ¡la": 4992,
      "ĠknÃ½": 4993,
      "Å¾a": 4994,
      "Å¾Ã¡": 4995,
      "ĠÄįou": 4996,
      "ĠÅ¾ivÃ½": 4997,
      "Ġpous": 4998,
      "ĠzvuÄįÃŃ": 4999,
      "Ġjara": 5000,
      "Ġtvol": 5001,
      "ĠvskrÃ¡": 5002,
      "Ġex": 5003,
      "Ġoba": 5004,
      "Ġsvitu": 5005,
      "Ġcuje": 5006,
      "Ġcouz": 5007,
      "ĠjenÃŃ": 5008,
      "rÃ¡m": 5009,
      "Ġdie": 5010,
      "ĠÅ¡ik": 5011,
      "vec": 5012,
      "Ġpije": 5013,
      "ĠspÃ¡d": 5014,
      "us": 5015,
      "Å¡a": 5016,
      "Ġup": 5017,
      "ĠXAAXBB": 5018,
      "Ġsklen": 5019,
      "Ġznik": 5020,
      "ĠkrÃ¡te": 5021,
      "Ġtelem": 5022,
      "Ġlety": 5023,
      "ĠsfÃ©": 5024,
      "ĠvÄĽdÃŃ": 5025,
      "ĠnuÅ¡": 5026,
      "ĠtakÃ©": 5027,
      "ĠspÃ¡r": 5028,
      "Ġeh": 5029,
      "ĠhÃ½Äį": 5030,
      "ĠÄįili": 5031,
      "ĠvÅĻi": 5032,
      "Ġkdesi": 5033,
      "ĠlejÅ¡ÃŃ": 5034,
      "ĠpovÄĽÄı": 5035,
      "ĠmÃ³": 5036,
      "ĠtÄĽle": 5037,
      "ĠXAAA": 5038,
      "ĠvÃ¡zÃŃ": 5039,
      "Ġmos": 5040,
      "skÃ©m": 5041,
      "Ġvmr": 5042,
      "ĠdlenÃŃ": 5043,
      "ĠdeÅ¡tÄĽ": 5044,
      "ĠcvÃ¡": 5045,
      "ĠpeÅĪ": 5046,
      "Ġkladu": 5047,
      "Å¡ek": 5048,
      "Ġtiny": 5049,
      "ĠveÄįer": 5050,
      "ĠhnutÃŃ": 5051,
      "Ġoct": 5052,
      "ĠsÃŃlu": 5053,
      "Ġzlatem": 5054,
      "Ġvhra": 5055,
      "ĠkmÃŃ": 5056,
      "Ġzmlk": 5057,
      "ĠbÅĻÃŃz": 5058,
      "nt": 5059,
      "ĠstÃ¡li": 5060,
      "ĠsÃ¡ch": 5061,
      "ĠschÅ¯": 5062,
      "ĠcÃ½m": 5063,
      "Ġbuz": 5064,
      "Ġnaiv": 5065,
      "ĠÅ¡eÅĻÃŃ": 5066,
      "tÄĽl": 5067,
      "Ġcnost": 5068,
      "ĠpasÅ¥": 5069,
      "ĠÅ¾in": 5070,
      "Ġsdo": 5071,
      "ĠplÃŃs": 5072,
      "hla": 5073,
      "ĠmÃŃnÃ¡m": 5074,
      "ĠprostÃ©": 5075,
      "Ġdumy": 5076,
      "ĠteÅ¾": 5077,
      "Ġnie": 5078,
      "ĠdÃ¡val": 5079,
      "ĠcÃŃÅĻ": 5080,
      "Ġzticha": 5081,
      "Ġem": 5082,
      "ĠsÅ¾i": 5083,
      "Ġlala": 5084,
      "ĠtÄĽstÃŃ": 5085,
      "Ġchov": 5086,
      "Ġpadla": 5087,
      "mÅ¯": 5088,
      "ĠmÃŃra": 5089,
      "ĠlidÃ©": 5090,
      "ĠsklÃ¡dÃ¡": 5091,
      "Ġger": 5092,
      "ĠbÃ½ch": 5093,
      "Ġtili": 5094,
      "Ġvzta": 5095,
      "ĠmanÄĽ": 5096,
      "ĠlÃ¡me": 5097,
      "ĠskoÄįÃŃ": 5098,
      "Ġsrp": 5099,
      "ĠdÅ¯l": 5100,
      "Ġlije": 5101,
      "ĠcÃŃtil": 5102,
      "ĠÅ¾ÃŃn": 5103,
      "Ġvboji": 5104,
      "ĠtiÅ¡ÃŃ": 5105,
      "ĠvoÅĻÃŃ": 5106,
      "Ġim": 5107,
      "Ġtichu": 5108,
      "ĠpÄĽjÃŃ": 5109,
      "ĠmuÅ¾i": 5110,
      "Ġvnady": 5111,
      "ĠvÃ¡k": 5112,
      "ĠtÃ©ho": 5113,
      "Ġvnez": 5114,
      "ĠbledÃ½": 5115,
      "Ġschop": 5116,
      "Ġland": 5117,
      "ĠuÄį": 5118,
      "Ġsah": 5119,
      "Ġzjed": 5120,
      "Ġzrad": 5121,
      "Ġhlasu": 5122,
      "Ġvnoci": 5123,
      "kÃ½m": 5124,
      "ĠÄįat": 5125,
      "ĠdlouhÃ½": 5126,
      "ĠbÅĻehu": 5127,
      "ĠbÃ¡n": 5128,
      "ĠtrÃ¡v": 5129,
      "ĠskrÃ¡ni": 5130,
      "Ġtily": 5131,
      "ĠbouÅĻÃŃ": 5132,
      "ĠptÃ¡t": 5133,
      "ĠjÃŃcÃŃch": 5134,
      "ĠjlÃŃp": 5135,
      "ic": 5136,
      "Ġkane": 5137,
      "ĠlÃ¡v": 5138,
      "Ġkbla": 5139,
      "Ġzkaz": 5140,
      "ĠcÃ½ch": 5141,
      "ĠceÅ¡": 5142,
      "ĠdÄĽsÃŃ": 5143,
      "Ġstavy": 5144,
      "ĠpÃ¡m": 5145,
      "Ġhes": 5146,
      "ĠdaÅĪ": 5147,
      "Ġzdvo": 5148,
      "ĠÄįÃŃk": 5149,
      "Ġvtmu": 5150,
      "Ġchala": 5151,
      "ĠlÃ¡skou": 5152,
      "Ġzkru": 5153,
      "ĠlkÃ¡t": 5154,
      "ĠÅ¾ra": 5155,
      "Ġbodu": 5156,
      "Ġmag": 5157,
      "Ġlisty": 5158,
      "sil": 5159,
      "ĠbdÄĽl": 5160,
      "Ġvoru": 5161,
      "Ġrub": 5162,
      "ĠbÃŃdu": 5163,
      "Ġhed": 5164,
      "ĠÅĻeh": 5165,
      "ĠrÃ¡b": 5166,
      "Ġjes": 5167,
      "Ġsz": 5168,
      "Ġdrak": 5169,
      "Ġzhra": 5170,
      "Ġpja": 5171,
      "Ġstvem": 5172,
      "Ġkyn": 5173,
      "Ġmly": 5174,
      "ĠbuÅ¥": 5175,
      "ĠÄįina": 5176,
      "ĠpracÃŃ": 5177,
      "Äįej": 5178,
      "ĠrÅ¯v": 5179,
      "ĠvstrÃ¡": 5180,
      "ĠpÅĻen": 5181,
      "ĠvÃ½h": 5182,
      "ĠstÅĻem": 5183,
      "ĠÅ¡ou": 5184,
      "ĠvÃŃry": 5185,
      "ĠpÃŃÅ¡e": 5186,
      "ĠzkvÃŃ": 5187,
      "ĠhÅĻbet": 5188,
      "ĠzlÅ¯": 5189,
      "ĠkdÄĽ": 5190,
      "ĠdÄĽlo": 5191,
      "ĠtrÅ¯m": 5192,
      "Ġhrej": 5193,
      "ĠlikÃ½": 5194,
      "ĠvzlÃ©t": 5195,
      "ĠbÄĽÅ¾": 5196,
      "ĠvblÃ¡": 5197,
      "ĠhrÃ¡m": 5198,
      "Ġtice": 5199,
      "ĠnovÃ¡": 5200,
      "ĠjÃŃst": 5201,
      "ĠzbranÄĽ": 5202,
      "Ġcele": 5203,
      "ĠsÃŃnÃ¡": 5204,
      "ĠpeÄįÃŃ": 5205,
      "Ġsluje": 5206,
      "ĠstrÃ¡nÃŃ": 5207,
      "Ġpoch": 5208,
      "Ġsvra": 5209,
      "ĠÄįelem": 5210,
      "Ġrala": 5211,
      "ĠslÃ©t": 5212,
      "Ġvly": 5213,
      "Ġsilou": 5214,
      "ĠzvÃ¡n": 5215,
      "ĠhbitÄĽ": 5216,
      "ĠmenÃ¡": 5217,
      "ĠzvÄĽsÅ¥": 5218,
      "ĠlvÃŃ": 5219,
      "ĠnÃŃtÃŃ": 5220,
      "Ġmraku": 5221,
      "ĠmÃŃsta": 5222,
      "Ġzvod": 5223,
      "ÃŃch": 5224,
      "Ġzci": 5225,
      "Ġtet": 5226,
      "Ġzela": 5227,
      "Ġzbor": 5228,
      "XAX": 5229,
      "ĠÅ¾ivÃ¡": 5230,
      "Ġprahu": 5231,
      "ĠmluvÃŃ": 5232,
      "Ġzpl": 5233,
      "Ġnald": 5234,
      "ĠÄįeji": 5235,
      "Ġbos": 5236,
      "ĠrÃ¡Äį": 5237,
      "Ġzmy": 5238,
      "tÃ¡ÅĻ": 5239,
      "ĠzpÅĻe": 5240,
      "ĠkÅĻÃ¡": 5241,
      "Ġtrn": 5242,
      "Ġfre": 5243,
      "ĠbrÃ¡ny": 5244,
      "ĠAAXXBB": 5245,
      "Ġotce": 5246,
      "ĠvlasÅ¯": 5247,
      "Ġnechce": 5248,
      "ĠbÅĻeÄį": 5249,
      "Ġsfin": 5250,
      "Ġvpoz": 5251,
      "Ġvzad": 5252,
      "Ġtouze": 5253,
      "Ġklec": 5254,
      "ĠzkrÃ¡t": 5255,
      "ĠzbÃ¡": 5256,
      "Ġhouf": 5257,
      "ĠsnÄĽt": 5258,
      "Ġkruhu": 5259,
      "Ġvg": 5260,
      "Ġkvou": 5261,
      "ĠkojÃŃ": 5262,
      "Ġpluje": 5263,
      "Ġlilo": 5264,
      "Ġbyv": 5265,
      "ĠlovÃ©": 5266,
      "Ġzisk": 5267,
      "Ġdlen": 5268,
      "ĠkpÃ¡": 5269,
      "ĠkmÃ©": 5270,
      "Ġniti": 5271,
      "ĠtÄĽk": 5272,
      "ĠpÄĽla": 5273,
      "Ġsnah": 5274,
      "ĠdoÅ¡": 5275,
      "ĠÄįÃŃvÃ¡": 5276,
      "ĠchopÃŃ": 5277,
      "Ġblesky": 5278,
      "Ġvzala": 5279,
      "Ġony": 5280,
      "ĠsÃŃle": 5281,
      "Ġklene": 5282,
      "ĠchvÃŃlÃŃ": 5283,
      "Ġsluj": 5284,
      "Ġstrop": 5285,
      "ĠzÅ¾e": 5286,
      "ĠÅ¾enÃ¡": 5287,
      "Ġbili": 5288,
      "Ġchout": 5289,
      "Ġvjar": 5290,
      "ĠtoÄį": 5291,
      "Ġvsla": 5292,
      "ĠhoÄı": 5293,
      "ĠkrÃ¡tkÃ½": 5294,
      "ĠtÄĽchu": 5295,
      "Ġhasne": 5296,
      "Ġseh": 5297,
      "ĠhlÃŃdÃ¡": 5298,
      "Ġstvol": 5299,
      "ĠtichÃ¡": 5300,
      "ĠfÃ¡m": 5301,
      "Ġvzrak": 5302,
      "ĠsÄįÃŃ": 5303,
      "ĠstÃ¡ly": 5304,
      "ĠdennÄĽ": 5305,
      "ĠztvÃ½ch": 5306,
      "Ġouz": 5307,
      "ĠnouÅ¥": 5308,
      "Ġplakal": 5309,
      "Ġzvuku": 5310,
      "ĠknÃŃÅ¾e": 5311,
      "ĠtvÃŃch": 5312,
      "ĠtÃŃÄį": 5313,
      "ĠdaÅĻ": 5314,
      "Å¡ÃŃch": 5315,
      "Ġledne": 5316,
      "ĠtlÃ©m": 5317,
      "ĠhnÃ¡t": 5318,
      "Ġzf": 5319,
      "Ġnimi": 5320,
      "Ġkouz": 5321,
      "ĠvtvÃ½ch": 5322,
      "Ġsladce": 5323,
      "ĠÅ¾eÅ¥": 5324,
      "Ġgar": 5325,
      "ĠÅĻÃŃkÃ¡": 5326,
      "Äįet": 5327,
      "Ġzvony": 5328,
      "Ġkja": 5329,
      "ĠmÄĽlÃ½": 5330,
      "ĠplaÅ¡e": 5331,
      "ĠsÃ¡z": 5332,
      "Ġseb": 5333,
      "ĠrÃ¡nu": 5334,
      "ĠtrÃ¡vy": 5335,
      "ĠdÄĽvy": 5336,
      "ĠsÃŃci": 5337,
      "ĠdÃŃlo": 5338,
      "tÃ¡ch": 5339,
      "lak": 5340,
      "ĠoÅĻ": 5341,
      "ĠvÃ¡t": 5342,
      "Ġjasu": 5343,
      "Ġzven": 5344,
      "ĠÅ¾Ã¡dnÃ©": 5345,
      "Ġticho": 5346,
      "ĠvtÅ¯": 5347,
      "ĠbÃ¡k": 5348,
      "ĠtvojÃŃ": 5349,
      "ĠkÅĻÃŃÅ¾e": 5350,
      "ĠptÃ¡Äįe": 5351,
      "Ġchry": 5352,
      "Ġjede": 5353,
      "ĠskÃ¡le": 5354,
      "ĠbÃŃn": 5355,
      "ĠnÄĽnÃ½": 5356,
      "Ġplet": 5357,
      "Ġzbar": 5358,
      "ĠpÃ³": 5359,
      "Ġjala": 5360,
      "Ġhledu": 5361,
      "Ġfat": 5362,
      "Ġpomo": 5363,
      "ĠÅ¾hnou": 5364,
      "ĠchÅĻad": 5365,
      "ĠnÃŃc": 5366,
      "ĠÅĻva": 5367,
      "Ġkati": 5368,
      "Ġzkvet": 5369,
      "ĠzrÃ½": 5370,
      "Ġhnul": 5371,
      "Ġnoh": 5372,
      "Ġkytu": 5373,
      "Ġbet": 5374,
      "Ġvzdal": 5375,
      "ĠnÃ©sti": 5376,
      "ĠtÄĽÅ¡ÃŃ": 5377,
      "ĠdÄĽly": 5378,
      "Ġroc": 5379,
      "Ġmuka": 5380,
      "Ġhav": 5381,
      "Ġmyr": 5382,
      "Ġrysy": 5383,
      "Ġstre": 5384,
      "ĠklÃ¡s": 5385,
      "Ġstavu": 5386,
      "ten": 5387,
      "ĠstÃ¡d": 5388,
      "ÅĻÃ¡d": 5389,
      "Ġmlat": 5390,
      "ĠÅ¡aty": 5391,
      "ĠvdlaÅĪ": 5392,
      "ĠsnÃ©": 5393,
      "Ġkanou": 5394,
      "ĠpÅĻÃŃval": 5395,
      "Ġnesla": 5396,
      "ĠÅ¡eru": 5397,
      "Ġzkte": 5398,
      "Ġcena": 5399,
      "Ġtvu": 5400,
      "ĠsvÃŃtÃ¡": 5401,
      "ĠÅĻvou": 5402,
      "ĠrÅ¯Å¾ÃŃ": 5403,
      "ĠkslÃ¡": 5404,
      "bej": 5405,
      "Ġtaly": 5406,
      "ĠtÄĽmi": 5407,
      "ĠvolÃŃ": 5408,
      "ĠdÄĽk": 5409,
      "Ġvzou": 5410,
      "ĠvidÄĽt": 5411,
      "ĠÅ¡ÃŃÅĻÃŃ": 5412,
      "ĠkrÃ¡m": 5413,
      "ĠstÃŃnÅ¯": 5414,
      "ĠstÄĽj": 5415,
      "Ġvchu": 5416,
      "ĠprÅ¡": 5417,
      "Ġvska": 5418,
      "Ġtouhou": 5419,
      "ĠhÅ¯ÅĻ": 5420,
      "Ġ23": 5421,
      "ĠÅ¾enÄĽ": 5422,
      "ĠhÃ¡je": 5423,
      "Ġpuje": 5424,
      "Ġdba": 5425,
      "Ġchar": 5426,
      "ĠvrÅ¡": 5427,
      "Ġtkal": 5428,
      "ĠslÃ½ch": 5429,
      "ĠvzÅĪat": 5430,
      "ĠzÃ¡r": 5431,
      "ĠvÃ½Å¡i": 5432,
      "Ġblah": 5433,
      "ĠsÅĪat": 5434,
      "Ġrit": 5435,
      "Ġkomu": 5436,
      "Ġvsy": 5437,
      "Ġjemi": 5438,
      "ĠstÄĽÅ¾ÃŃ": 5439,
      "ĠbloudÃŃ": 5440,
      "ĠliÅ¾": 5441,
      "Ġnulo": 5442,
      "ĠkÃ¡cÃŃ": 5443,
      "Ġlesem": 5444,
      "Ġchleb": 5445,
      "ĠvÅ¡udy": 5446,
      "ĠÅĻval": 5447,
      "Ġkdru": 5448,
      "ĠlouÄį": 5449,
      "Ġhev": 5450,
      "ĠÅ¾Ã¡ru": 5451,
      "Ġona": 5452,
      "Ġdis": 5453,
      "ĠÄįÃŃt": 5454,
      "ĠXAABXB": 5455,
      "Ġstrachu": 5456,
      "ĠvrÃ¡j": 5457,
      "Ġroda": 5458,
      "ĠhlÃ¡sÃŃ": 5459,
      "Ġnati": 5460,
      "ĠchvÄĽly": 5461,
      "ĠvlÃŃci": 5462,
      "ĠznÃ¡mÃ½": 5463,
      "ĠlikÃ¡": 5464,
      "ĠpÃŃti": 5465,
      "Ġsol": 5466,
      "ĠplÃ¡ly": 5467,
      "ĠvÅĻen": 5468,
      "ĠsladkÃ¡": 5469,
      "ĠdÅĻÃŃve": 5470,
      "ĠzvÃ¡t": 5471,
      "Ġzub": 5472,
      "ĠpleÅ¥": 5473,
      "ĠhlÃ©m": 5474,
      "ĠblÃ¡Äį": 5475,
      "Ġgon": 5476,
      "Ġnily": 5477,
      "ĠzÃŃtra": 5478,
      "Ġket": 5479,
      "Ġnesu": 5480,
      "ĠzdÃ¡nÃŃ": 5481,
      "Ã¡n": 5482,
      "Ġsest": 5483,
      "ĠkrÃ¡snÃ¡": 5484,
      "Ġwa": 5485,
      "ĠmÃŃhÃ¡": 5486,
      "Ġzpit": 5487,
      "ĠztvÃ©": 5488,
      "ĠcovÃ©": 5489,
      "Ġkrb": 5490,
      "ĠÅĻady": 5491,
      "ĠvzpÄĽ": 5492,
      "Ã¡m": 5493,
      "Ġpech": 5494,
      "Ġeu": 5495,
      "Ġvkla": 5496,
      "Ġlidem": 5497,
      "Ġsklon": 5498,
      "Ġdosud": 5499,
      "ĠÅĻÃ¡n": 5500,
      "ĠmÃŃstÄĽ": 5501,
      "Ġkrk": 5502,
      "ĠlÃ©z": 5503,
      "Ġbrav": 5504,
      "ĠdivÃ½": 5505,
      "ĠÅ¡edÃ©": 5506,
      "Ġcim": 5507,
      "Ġhledy": 5508,
      "ĠbÃ¡v": 5509,
      "Ġslek": 5510,
      "ĠdveÅĻ": 5511,
      "ĠzÅ¾i": 5512,
      "Ġvzkaz": 5513,
      "Ġlily": 5514,
      "ĠÄįima": 5515,
      "ĠpÃŃnÃ¡": 5516,
      "Ġdvih": 5517,
      "ĠÅ¡els": 5518,
      "ĠchvÃ¡tÃ¡": 5519,
      "ĠlostÃŃ": 5520,
      "Ġhub": 5521,
      "ĠchladnÃ©": 5522,
      "ĠbledÃ©": 5523,
      "ĠflÃ©t": 5524,
      "ĠjÅ¯m": 5525,
      "Ġvzlo": 5526,
      "cet": 5527,
      "nosÅ¥": 5528,
      "ĠfÅ¯": 5529,
      "ĠplÃ¡ni": 5530,
      "ĠplnÃŃ": 5531,
      "ĠdusÃŃ": 5532,
      "ĠstÅ¯nÄĽ": 5533,
      "ĠlkÃ¡nÃŃ": 5534,
      "Ġmz": 5535,
      "Ġposud": 5536,
      "Ġzok": 5537,
      "ĠdvojÃŃ": 5538,
      "ĠblÃ½skÃ¡": 5539,
      "ĠssÃ¡": 5540,
      "Ġbuje": 5541,
      "Ġprac": 5542,
      "Ġcemi": 5543,
      "ĠdvÃ©ÅĻe": 5544,
      "ĠÅ¾ed": 5545,
      "Ġnuz": 5546,
      "Ġnym": 5547,
      "Ġpud": 5548,
      "Ġtram": 5549,
      "Ġvzhle": 5550,
      "ĠchlÃ½m": 5551,
      "ĠmÄĽly": 5552,
      "ĠpÅĻip": 5553,
      "Ġson": 5554,
      "ĠÅ¾havÃ½": 5555,
      "ĠlÃŃtÃ¡": 5556,
      "ĠkÃ¡r": 5557,
      "ĠvpÃ½": 5558,
      "Ġztmy": 5559,
      "ĠÄįinÃŃ": 5560,
      "Ġfej": 5561,
      "Ġlly": 5562,
      "ĠkosÅ¥": 5563,
      "Ġbul": 5564,
      "Ġsci": 5565,
      "ĠdÃ¡no": 5566,
      "ĠkamÅ¾ik": 5567,
      "ĠskÅĻek": 5568,
      "Ġkovy": 5569,
      "ĠtÃŃl": 5570,
      "ĠdinÃ¡": 5571,
      "ĠvbÃ¡z": 5572,
      "ĠskoÄį": 5573,
      "Ġmluvil": 5574,
      "ĠÅĻez": 5575,
      "ĠkvÃ©sti": 5576,
      "ĠvÃ¡me": 5577,
      "ĠmeÄįe": 5578,
      "ĠÅ¡ÃŃk": 5579,
      "ĠlÃŃto": 5580,
      "ĠluÄį": 5581,
      "ĠdravÃ½": 5582,
      "ĠbÃ½val": 5583,
      "ĠduchÅ¯": 5584,
      "ĠpouÅ¡tÃŃ": 5585,
      "ĠkmitÃ¡": 5586,
      "ĠzbÃ½vÃ¡": 5587,
      "Ġtokem": 5588,
      "Ġrami": 5589,
      "ĠflÃŃ": 5590,
      "dÃ¡ch": 5591,
      "ĠskÃ¡Äįe": 5592,
      "ĠteÄįe": 5593,
      "ĠvzhlÃŃ": 5594,
      "Ġsmek": 5595,
      "ĠkvÃ¡": 5596,
      "Ġdak": 5597,
      "Ġsez": 5598,
      "Ġtilo": 5599,
      "ĠrojÃŃ": 5600,
      "jel": 5601,
      "ĠziÄį": 5602,
      "Ġoblak": 5603,
      "ĠshrÅ¯": 5604,
      "ĠvÄįera": 5605,
      "ĠktvÃ©": 5606,
      "Ġlvo": 5607,
      "Ġbost": 5608,
      "Ġproz": 5609,
      "ĠvskÃ¡": 5610,
      "ĠzlÃ©m": 5611,
      "rÃ½m": 5612,
      "Ġtebou": 5613,
      "Ġctnosti": 5614,
      "Ġpok": 5615,
      "ĠsÃŃnÄĽ": 5616,
      "Ġzplo": 5617,
      "ĠpÃ¡Å¾": 5618,
      "ĠÅ¡lÃ¡p": 5619,
      "Ġvpi": 5620,
      "Ġzoun": 5621,
      "Ġkmat": 5622,
      "Ġgyp": 5623,
      "Ġmohou": 5624,
      "ĠkÃ¡vÃ¡": 5625,
      "ĠhÃ¡n": 5626,
      "Ġsvel": 5627,
      "Ġther": 5628,
      "Ġvtan": 5629,
      "Ġhvizd": 5630,
      "Ġjho": 5631,
      "ĠÅĻÃŃz": 5632,
      "ĠtÃ¡ÅĻe": 5633,
      "Ġad": 5634,
      "stvo": 5635,
      "ĠstÃ¡ÅĻÃŃ": 5636,
      "tÃ¡n": 5637,
      "Ġhoum": 5638,
      "Ġvleb": 5639,
      "Ġkur": 5640,
      "ĠtyÄį": 5641,
      "Ġvdol": 5642,
      "Ġstlu": 5643,
      "ĠplaÅ¡ÃŃ": 5644,
      "ĠÄįtu": 5645,
      "ĠjemnÃ©": 5646,
      "ĠshvÄĽz": 5647,
      "ĠsÅ¯v": 5648,
      "ĠvlÃ¡dne": 5649,
      "ĠkoÅĻÃŃ": 5650,
      "Ġcelou": 5651,
      "Ġzech": 5652,
      "ĠÅĻÃŃÄį": 5653,
      "Ġstopy": 5654,
      "Ġthy": 5655,
      "Äįa": 5656,
      "Ġuv": 5657,
      "ĠloÅ¾e": 5658,
      "stou": 5659,
      "ĠÄįenÃ©": 5660,
      "ĠtÃŃn": 5661,
      "Ġsice": 5662,
      "ĠpuÄįÃŃ": 5663,
      "ĠdrÅ¯": 5664,
      "Ġvotem": 5665,
      "ĠtvÃŃm": 5666,
      "ĠptÃ½": 5667,
      "Ġcie": 5668,
      "ĠpÅĻim": 5669,
      "Ġvkap": 5670,
      "Ġoc": 5671,
      "ĠkrÃ©": 5672,
      "Ġkres": 5673,
      "ĠÄįlu": 5674,
      "ĠÅĻenÃ©": 5675,
      "Ġnejv": 5676,
      "ĠvÃ¡nÃŃm": 5677,
      "Ġzmla": 5678,
      "ĠdrÅ¯m": 5679,
      "sal": 5680,
      "Ġdos": 5681,
      "Ġvoce": 5682,
      "Ġdati": 5683,
      "ĠbylÅ¥": 5684,
      "Ġvmdlo": 5685,
      "ĠpomnÄĽl": 5686,
      "Ġosm": 5687,
      "ĠsnoubÃŃ": 5688,
      "Ġnivy": 5689,
      "Ġradu": 5690,
      "Ġhout": 5691,
      "ĠcÃ¡r": 5692,
      "Ġnali": 5693,
      "rod": 5694,
      "Ġmuch": 5695,
      "Ġzraje": 5696,
      "Ġhromu": 5697,
      "ĠzpÄĽvu": 5698,
      "Ġpadlo": 5699,
      "ĠdÄĽtem": 5700,
      "Ġlili": 5701,
      "Ġvke": 5702,
      "Ġdeme": 5703,
      "ĠvzdychÃ¡": 5704,
      "ĠÅĻat": 5705,
      "ĠpraÅ¾": 5706,
      "Ġhuje": 5707,
      "Ġsor": 5708,
      "ĠskloÅĪ": 5709,
      "ĠkÅ¾e": 5710,
      "ĠÄįenÃ½": 5711,
      "nes": 5712,
      "Ġmenu": 5713,
      "ĠrutÃŃ": 5714,
      "Ġsrn": 5715,
      "ĠzkouÅ¡": 5716,
      "Ġfle": 5717,
      "ĠchvÃ¡tÃŃ": 5718,
      "bek": 5719,
      "Ġklesla": 5720,
      "Ġshluk": 5721,
      "pou": 5722,
      "ĠvjÃ¡": 5723,
      "ĠsÃŃd": 5724,
      "Ġvzpja": 5725,
      "ĠhÅĻmot": 5726,
      "Ġcep": 5727,
      "Ġlob": 5728,
      "Ġmuce": 5729,
      "Ġlehce": 5730,
      "ĠkrÃ½vÃ¡": 5731,
      "ĠvenÃ¡": 5732,
      "Ġhlup": 5733,
      "Ġdivem": 5734,
      "Ġvenku": 5735,
      "Ġhledal": 5736,
      "ĠsmÃŃchu": 5737,
      "Ġzroz": 5738,
      "Ġrav": 5739,
      "ĠbÃŃrÃ¡": 5740,
      "Ġzol": 5741,
      "pi": 5742,
      "Ġdbal": 5743,
      "Ġtol": 5744,
      "ĠtosÅ¥": 5745,
      "Ġlada": 5746,
      "Ġmilou": 5747,
      "Ġslzy": 5748,
      "ĠbÃŃda": 5749,
      "ĠvÃ½mi": 5750,
      "ĠÅ¡ar": 5751,
      "bin": 5752,
      "ĠvkrÃ¡s": 5753,
      "Ġtoval": 5754,
      "ĠvÄĽsÃŃ": 5755,
      "Ġkma": 5756,
      "ĠznÄĽla": 5757,
      "Ġzvedne": 5758,
      "Ġvklid": 5759,
      "ĠvÅ¯nÃŃ": 5760,
      "Ġvletu": 5761,
      "ĠstvÃ½": 5762,
      "Ġroje": 5763,
      "ĠvÃ¡ÅĻ": 5764,
      "ĠÄįely": 5765,
      "ĠpÃŃrÃ¡": 5766,
      "stvÃŃm": 5767,
      "ĠÄįistÃ½": 5768,
      "ABC": 5769,
      "ĠABCABC": 5770,
      "ĠÅ¯": 5771,
      "ĠlÃŃb": 5772,
      "sem": 5773,
      "ĠdnÃ½m": 5774,
      "ĠnilÃ¡": 5775,
      "ĠmÃ¡Äį": 5776,
      "ĠzÃŃr": 5777,
      "Ġhyz": 5778,
      "ĠbesÅ¯m": 5779,
      "ĠbloÅĪ": 5780,
      "Ġvrhl": 5781,
      "ĠÅ¾Å¯m": 5782,
      "ĠvÃ¡cÃŃ": 5783,
      "Ġkrat": 5784,
      "Ġvste": 5785,
      "ĠbrÅ¯": 5786,
      "ĠvblÃŃz": 5787,
      "ĠÅ¾ilo": 5788,
      "ĠplesÃ¡": 5789,
      "ĠpÃ¡nu": 5790,
      "ĠvhnÃŃz": 5791,
      "ĠspÃ¡ti": 5792,
      "ĠznÄĽnÃŃ": 5793,
      "ĠdÅĻev": 5794,
      "Ġkhra": 5795,
      "ĠstrÃ½c": 5796,
      "XXB": 5797,
      "Ġpasu": 5798,
      "ĠzmÅ¯": 5799,
      "ĠvhrÅ¯": 5800,
      "ĠstrÃ¡n": 5801,
      "ĠvzhlÃ©d": 5802,
      "Ġvrod": 5803,
      "Ġtknu": 5804,
      "ĠmlÃ©Äį": 5805,
      "ĠbohÅ¯": 5806,
      "ĠkletÃŃ": 5807,
      "ĠdluÅ¾": 5808,
      "Ġksto": 5809,
      "ĠztÃ¡": 5810,
      "ĠselÃŃ": 5811,
      "Ġotec": 5812,
      "ĠÄįÃŃnÃ¡": 5813,
      "Ġsam": 5814,
      "ĠztÄĽÅ¾": 5815,
      "ĠÅ¾Ã¡k": 5816,
      "ĠstÅĻela": 5817,
      "Ġnesou": 5818,
      "ĠvÄĽkem": 5819,
      "ĠmuÄįÃŃ": 5820,
      "Ġsvist": 5821,
      "Ġgol": 5822,
      "ran": 5823,
      "XXX": 5824,
      "ĠzÃ©": 5825,
      "Ġbuch": 5826,
      "ĠmÃŃnek": 5827,
      "Ġplynou": 5828,
      "Ġblohou": 5829,
      "ĠdÃŃla": 5830,
      "Ġvis": 5831,
      "Ġrety": 5832,
      "Ġklel": 5833,
      "ĠÅ¡tvÃ¡n": 5834,
      "Ġbory": 5835,
      "Ġslet": 5836,
      "Ġmatku": 5837,
      "ĠmnoÅ¾ÃŃ": 5838,
      "ĠdÅ¯t": 5839,
      "Ġdechem": 5840,
      "ĠvÅ¡ÃŃÅĻ": 5841,
      "Ġblys": 5842,
      "ĠAXABXB": 5843,
      "ĠnÃŃvÃ¡": 5844,
      "ĠsÃŃtÄĽ": 5845,
      "Ġvchod": 5846,
      "ĠtuÅ¡e": 5847,
      "Ġrtoma": 5848,
      "Ġpon": 5849,
      "ĠmotÄĽ": 5850,
      "Ġvzat": 5851,
      "Ġpohled": 5852,
      "ĠÄįÃŃcÃŃ": 5853,
      "ĠpÅĻÃŃtel": 5854,
      "ĠbÃ¡ÅĪ": 5855,
      "hat": 5856,
      "Ġhledem": 5857,
      "Ġnuje": 5858,
      "ĠlÃŃn": 5859,
      "ĠÅ¾ÃŃr": 5860,
      "Ġtroj": 5861,
      "ĠdeÅ¡Å¥": 5862,
      "ĠhÅĻÃ¡t": 5863,
      "ĠÅ¡kleb": 5864,
      "ĠABACCB": 5865,
      "ĠzÅ¾ÃŃ": 5866,
      "ĠsÃŃt": 5867,
      "ĠbÃ¡je": 5868,
      "ĠhÅĻeje": 5869,
      "ĠpatÅĻ": 5870,
      "ĠvkrÄį": 5871,
      "ĠscÃ©": 5872,
      "Ġvky": 5873,
      "ĠvaÅ¡e": 5874,
      "ĠvÃ¡nek": 5875,
      "ĠjaÅĻ": 5876,
      "Ġhala": 5877,
      "Ġklep": 5878,
      "ĠznÃ¡ti": 5879,
      "ĠhÅĻÃŃmÃ¡": 5880,
      "ĠÅ¡tkÃ¡": 5881,
      "Ġvrati": 5882,
      "ĠnÄĽmi": 5883,
      "ĠlÃ¡kÃ¡": 5884,
      "Ġput": 5885,
      "Ġmout": 5886,
      "Ġvzali": 5887,
      "ĠptaÄįÃŃ": 5888,
      "ĠÅ¡edÃ¡": 5889,
      "Ġvrak": 5890,
      "Ġvbr": 5891,
      "ĠkÅĻÃŃd": 5892,
      "ĠsnivÃ¡": 5893,
      "ĠhrÅ¯zy": 5894,
      "Ġdme": 5895,
      "ĠniÅ¥": 5896,
      "Ġvoda": 5897,
      "ĠtvÃŃrÃ¡": 5898,
      "Ġvadne": 5899,
      "Ġxi": 5900,
      "Ġchme": 5901,
      "ĠchrÅ¯": 5902,
      "lel": 5903,
      "Ġhot": 5904,
      "Ġproj": 5905,
      "Ġruj": 5906,
      "Ġdleh": 5907,
      "Ġskem": 5908,
      "Ġruk": 5909,
      "Ġlidi": 5910,
      "Ġschla": 5911,
      "Ġzc": 5912,
      "Ġporu": 5913,
      "ĠnÃ¡no": 5914,
      "Ġrum": 5915,
      "Ġbed": 5916,
      "ĠcÃŃtÃŃm": 5917,
      "ĠchytÃŃ": 5918,
      "ĠstlÃ©": 5919,
      "Ġtedy": 5920,
      "ĠjinÃŃ": 5921,
      "ĠÅ¡enÃ¡": 5922,
      "Ġvouk": 5923,
      "ĠvÅ¯le": 5924,
      "Ġbrod": 5925,
      "Ġhloubi": 5926,
      "ĠhÃ¡dky": 5927,
      "ĠÅ¡tvÃ¡": 5928,
      "ĠvÃ¡te": 5929,
      "ĠpÅĻev": 5930,
      "cÅ¯m": 5931,
      "Å¡em": 5932,
      "ĠÅ¾ivÃ©": 5933,
      "ĠchoÄı": 5934,
      "ĠslÃ¡v": 5935,
      "ĠÅĻili": 5936,
      "Ġzdroje": 5937,
      "ĠsÄįer": 5938,
      "Ġrdou": 5939,
      "ĠdovÃ©": 5940,
      "Ġhust": 5941,
      "ĠvlnÃŃ": 5942,
      "Ġobra": 5943,
      "ĠjvÃ½": 5944,
      "ĠbouÅĻe": 5945,
      "ĠhnÃ¡n": 5946,
      "Ġhnou": 5947,
      "Ġrmou": 5948,
      "Ġkova": 5949,
      "Ġsbe": 5950,
      "ĠchÅ¯d": 5951,
      "ĠvÅ¾itÃŃ": 5952,
      "ĠstaÅ¥": 5953,
      "Ġprachu": 5954,
      "Ġprahy": 5955,
      "ĠmÅĻÃŃÅ¾": 5956,
      "Ġskep": 5957,
      "ĠspÄĽchu": 5958,
      "ĠvÃºz": 5959,
      "Ġvbuj": 5960,
      "Ġjmen": 5961,
      "ĠÄįÅ¯m": 5962,
      "ĠvanÃ¡": 5963,
      "Ġsklad": 5964,
      "ĠloÅ¾i": 5965,
      "Ġmuky": 5966,
      "Ġstanu": 5967,
      "Ġvlaje": 5968,
      "ĠvÅ¡emu": 5969,
      "ĠzbranÃŃ": 5970,
      "Ġhmyz": 5971,
      "ĠsdÄĽt": 5972,
      "Ġmukou": 5973,
      "ĠplÅĪ": 5974,
      "ĠlidskÃ½": 5975,
      "Ġkse": 5976,
      "Ġhosti": 5977,
      "ĠnÃ¡val": 5978,
      "Ġvyl": 5979,
      "ĠbijÃŃ": 5980,
      "ĠtÅ¯ÅĪ": 5981,
      "Ġmant": 5982,
      "ĠnÄĽte": 5983,
      "Ġvena": 5984,
      "Ġzpy": 5985,
      "Ġkroku": 5986,
      "ĠstrÃ¡ni": 5987,
      "ĠÅ¾ur": 5988,
      "ĠvstÃŃn": 5989,
      "Ã¶": 5990,
      "Ġale": 5991,
      "ĠvÃºs": 5992,
      "lest": 5993,
      "ĠvÃŃÅ¾e": 5994,
      "ĠvelkÃ½": 5995,
      "Ġsdi": 5996,
      "Ġcval": 5997,
      "ĠÅ¡ej": 5998,
      "Ġbaj": 5999,
      "ĠchajÃŃ": 6000,
      "Ġblaky": 6001,
      "Ġzdep": 6002,
      "ĠvznÃ¡Å¡ÃŃ": 6003,
      "Ġzre": 6004,
      "ĠvÄĽstÃŃ": 6005,
      "Ġvhe": 6006,
      "Ġsnimi": 6007,
      "Ġkoval": 6008,
      "ĠvÄĽci": 6009,
      "ĠvkÃ¡": 6010,
      "ĠÅ¾lout": 6011,
      "ĠÅ¡ÃŃc": 6012,
      "ĠstÃŃhÃ¡": 6013,
      "Ġvdra": 6014,
      "Ġsrdci": 6015,
      "ĠvÅ¾ÃŃ": 6016,
      "Ġhynou": 6017,
      "ĠÅ¡aÅ¡": 6018,
      "Ġvskry": 6019,
      "ĠkÅ¡tÄĽ": 6020,
      "Ġpnu": 6021,
      "ĠvÃ½t": 6022,
      "ĠpustÃŃ": 6023,
      "Ġvby": 6024,
      "ĠÅ¡tÄĽp": 6025,
      "ĠtÃŃsnÃŃ": 6026,
      "ĠmyslÃŃ": 6027,
      "ĠkÅĪa": 6028,
      "Ġmilo": 6029,
      "Ġtah": 6030,
      "Ġmun": 6031,
      "ĠkvÄĽl": 6032,
      "Ġkroz": 6033,
      "Ġliny": 6034,
      "ĠÄįÃŃÅ¡e": 6035,
      "ĠfÃ©": 6036,
      "Ġbice": 6037,
      "ĠdlouhÃ¡": 6038,
      "ĠdlÃ©m": 6039,
      "Ġdrozd": 6040,
      "ĠvÄįes": 6041,
      "ĠÅ¾aly": 6042,
      "ĠÅ¡vÃ¡": 6043,
      "ĠkaÄį": 6044,
      "ĠmÃ¡c": 6045,
      "ĠmÃ¡ÅĻ": 6046,
      "ĠÅĻada": 6047,
      "ĠvÄįele": 6048,
      "chal": 6049,
      "Ġsmat": 6050,
      "ĠstuÅ¾": 6051,
      "Ġstvou": 6052,
      "ĠpÅĻeÅ¡": 6053,
      "Ġvsvo": 6054,
      "ĠÅ¡ila": 6055,
      "ĠstÄĽÅ¾": 6056,
      "ĠsÅ¥": 6057,
      "Ġproh": 6058,
      "ĠmÃŃsÃŃ": 6059,
      "Ġbilo": 6060,
      "ĠnÄĽnÃ¡": 6061,
      "ĠkvÄĽÄį": 6062,
      "ĠstrÃ©m": 6063,
      "ĠsnÄĽhu": 6064,
      "Ġtrhl": 6065,
      "ĠvzrÅ¯stÃ¡": 6066,
      "ĠcenÃ¡": 6067,
      "ĠdolÃ¡": 6068,
      "Ġlod": 6069,
      "ĠproÅĪ": 6070,
      "ĠdivÃ©": 6071,
      "Ġdily": 6072,
      "ĠplÃ¡n": 6073,
      "ĠvÅĻÃŃn": 6074,
      "ĠvavÃ½": 6075,
      "ĠvsvÄĽtÄĽ": 6076,
      "Ġtlesk": 6077,
      "ĠÄįesÅ¥": 6078,
      "ĠdÃ¡na": 6079,
      "Ġslan": 6080,
      "ĠzdÃ¡v": 6081,
      "Ġzkle": 6082,
      "Ġkbra": 6083,
      "ĠvchrÃ¡m": 6084,
      "Ġnim": 6085,
      "ĠdÃŃme": 6086,
      "ĠtrhÃ¡": 6087,
      "ĠzkaÅ¾": 6088,
      "ĠdiÄįky": 6089,
      "Ġvedla": 6090,
      "ĠpÅ¡e": 6091,
      "ĠpraÅ¡": 6092,
      "Ġtvoji": 6093,
      "Ġdlouho": 6094,
      "ĠtmÄĽl": 6095,
      "Ġhnout": 6096,
      "ĠlÃ©Äį": 6097,
      "ĠplÃ¡la": 6098,
      "ĠstoupÃ¡": 6099,
      "ĠhruÅ¡": 6100,
      "Ġdceru": 6101,
      "ĠbratÅĻi": 6102,
      "ĠsrÅ¯": 6103,
      "ĠstranÄĽ": 6104,
      "Ġsili": 6105,
      "Ġpomoc": 6106,
      "ĠnÄĽho": 6107,
      "ĠvspÃ¡": 6108,
      "Ġzbla": 6109,
      "ĠtopÃŃ": 6110,
      "ĠmÄĽstÃŃ": 6111,
      "ĠsplÃ©": 6112,
      "Ġvuj": 6113,
      "ĠÅĻÃ¡s": 6114,
      "Ġchlub": 6115,
      "Ġrmu": 6116,
      "ĠtisÃŃc": 6117,
      "Ġnohu": 6118,
      "ĠvostÃŃ": 6119,
      "Ġvolal": 6120,
      "ĠzejÃŃ": 6121,
      "ĠstÃ¡lo": 6122,
      "Ġzoh": 6123,
      "ĠklÃ½m": 6124,
      "ĠzÃ½vÃ¡": 6125,
      "Ġmoru": 6126,
      "ĠtÃŃÅ¾e": 6127,
      "ĠsmÄĽj": 6128,
      "ĠÅ¡lel": 6129,
      "ĠkÅĻiÄįÃŃ": 6130,
      "ĠklÃŃnÄĽ": 6131,
      "Ġctil": 6132,
      "ĠÄįistÃ©": 6133,
      "ĠdÃ¡te": 6134,
      "Ġzvra": 6135,
      "ĠvÄĽnce": 6136,
      "Ġvzduchem": 6137,
      "ĠÃ¡Å¡": 6138,
      "Ġnva": 6139,
      "Ġpasti": 6140,
      "ĠspÃŃnÃ¡": 6141,
      "ĠdrÃ¡hy": 6142,
      "Ġzvolna": 6143,
      "oun": 6144,
      "ĠkostÃŃ": 6145,
      "Ġmuku": 6146,
      "Ġvzmat": 6147,
      "Ġnuli": 6148,
      "ĠmÃŃjÃŃ": 6149,
      "Ġpin": 6150,
      "ĠsvlÃ©": 6151,
      "Ġkalo": 6152,
      "Ġmist": 6153,
      "ĠzenÃ©": 6154,
      "Ġcid": 6155,
      "ĠtrÃ³": 6156,
      "ĠÄįac": 6157,
      "Ġklat": 6158,
      "Ġgri": 6159,
      "Ġotci": 6160,
      "Ġsved": 6161,
      "Ġnete": 6162,
      "Ġvyk": 6163,
      "ĠtuÅ¡": 6164,
      "Ġdrc": 6165,
      "ĠptÃ¡Å¡": 6166,
      "Ġlesku": 6167,
      "ĠtnÄĽ": 6168,
      "Ġroky": 6169,
      "Ġvnic": 6170,
      "ĠskvÄĽlÃ½": 6171,
      "ĠchtÃŃÄį": 6172,
      "ĠvsnÄĽnÃŃ": 6173,
      "ĠnÃ¡Å¡ÃŃ": 6174,
      "ĠÅĻÃŃÅ¾": 6175,
      "Ġdarmo": 6176,
      "ĠmÅ¯m": 6177,
      "ĠÅĻeka": 6178,
      "ĠÅ¾ÃŃc": 6179,
      "Ġloub": 6180,
      "Ġmrs": 6181,
      "ben": 6182,
      "Ġhloh": 6183,
      "dÅ¯": 6184,
      "Ġhop": 6185,
      "ĠjakÅ¾": 6186,
      "ĠdÃŃte": 6187,
      "ĠpÄĽtÃŃ": 6188,
      "ĠXAXAXA": 6189,
      "ĠvmÅ¾i": 6190,
      "ĠzhÅĻÃŃ": 6191,
      "ĠkspÃ¡": 6192,
      "ĠhnÄĽvu": 6193,
      "ĠvznÃ©": 6194,
      "ĠpÃŃÄı": 6195,
      "Ġrozv": 6196,
      "ĠbraÅĪ": 6197,
      "Ġzis": 6198,
      "ĠsviÅ¥": 6199,
      "ĠbÅ¯m": 6200,
      "Ġveta": 6201,
      "ĠvprÅ¯": 6202,
      "Ġpanny": 6203,
      "ĠÅ¡ke": 6204,
      "ĠblyÅ¡": 6205,
      "Ġboko": 6206,
      "ĠÅ¡ÃŃÅĻ": 6207,
      "ĠÄįÃŃtÃ¡": 6208,
      "Ġvzpjal": 6209,
      "Ġtrup": 6210,
      "ĠpÅĻÃ¡t": 6211,
      "ĠtrÃ¡va": 6212,
      "ĠjÃŃcÃŃm": 6213,
      "ĠmÅĻÃŃti": 6214,
      "ĠnÄĽna": 6215,
      "ĠstÃ¡lÃ½": 6216,
      "Ġfr": 6217,
      "ĠzpÃŃvat": 6218,
      "Ġpark": 6219,
      "ĠzlÃ¡t": 6220,
      "Ġjeli": 6221,
      "ĠÄįeje": 6222,
      "Ġfro": 6223,
      "ĠpukÃ¡": 6224,
      "ĠzkÅĻÃŃ": 6225,
      "Ġplot": 6226,
      "Ġfek": 6227,
      "ĠÅ¾uje": 6228,
      "ĠvyÅ¡el": 6229,
      "ĠÅĻeny": 6230,
      "Ġsmlou": 6231,
      "ĠslasÅ¥": 6232,
      "ĠchvÃŃl": 6233,
      "ĠtmavÃ©": 6234,
      "Ġcuj": 6235,
      "ĠÅĪuje": 6236,
      "Ġvnou": 6237,
      "ĠlaÅ¥": 6238,
      "Ġkuj": 6239,
      "ĠsaÅĪ": 6240,
      "ÅĪÃ¡": 6241,
      "Ġvlna": 6242,
      "Ġdals": 6243,
      "ĠnÃŃÅ¾ÃŃ": 6244,
      "ĠzplÃ¡": 6245,
      "Ġzhru": 6246,
      "ĠdruhÃ½": 6247,
      "Ġkstro": 6248,
      "Ġnoha": 6249,
      "ĠdÄĽlÃ©": 6250,
      "ĠjednÃ©": 6251,
      "Ġzuby": 6252,
      "ĠpÃ½r": 6253,
      "Ġbleskem": 6254,
      "bÃ¡ch": 6255,
      "Ġvkus": 6256,
      "Ġlhal": 6257,
      "ĠsvÃŃce": 6258,
      "ĠzhÅ¯": 6259,
      "Ġnikdy": 6260,
      "ĠsnÄĽti": 6261,
      "Ġvzdej": 6262,
      "ĠpÅĻem": 6263,
      "ĠstlÃ½": 6264,
      "Ġbody": 6265,
      "Ġzple": 6266,
      "ĠpÃ¡ny": 6267,
      "ĠzkusÃŃ": 6268,
      "Ġskrej": 6269,
      "Ġdur": 6270,
      "Ġklady": 6271,
      "ĠsnÃŃl": 6272,
      "Ġmatce": 6273,
      "Ġzlom": 6274,
      "ĠsnÅ¯v": 6275,
      "ĠsmÃ¡la": 6276,
      "Ġchlum": 6277,
      "ĠkoÄįÃŃ": 6278,
      "Ġdor": 6279,
      "ĠtaÅ¾": 6280,
      "ĠÅ¡tÄĽr": 6281,
      "Ġvruce": 6282,
      "ĠbliÄįej": 6283,
      "ĠvidÃŃÅ¡": 6284,
      "ĠstraÅ¡ÃŃ": 6285,
      "ĠzhnÄĽ": 6286,
      "ĠÅĻilo": 6287,
      "Ġzboj": 6288,
      "Ġnovi": 6289,
      "ĠmÃ¡v": 6290,
      "Ġkza": 6291,
      "Ġzak": 6292,
      "ĠuÄįÃŃ": 6293,
      "Ġsmra": 6294,
      "ĠretÅ¯": 6295,
      "ĠnÃŃt": 6296,
      "ĠrodÄĽ": 6297,
      "ĠpeÅĻÃŃ": 6298,
      "ĠchÃ¡n": 6299,
      "ĠvÅ¯li": 6300,
      "Ġslid": 6301,
      "jen": 6302,
      "ĠlÃ¡sce": 6303,
      "ĠsnaÅ¾": 6304,
      "ĠsbÃ¡": 6305,
      "ĠmÅĻela": 6306,
      "ĠABACBC": 6307,
      "ĠAAXBXB": 6308,
      "Ġsre": 6309,
      "ĠpÃ½m": 6310,
      "ĠvznÃ©st": 6311,
      "Ġpase": 6312,
      "ĠschvÄĽ": 6313,
      "Ġztratil": 6314,
      "ĠskaÅ¾": 6315,
      "ĠssÃ¡l": 6316,
      "Ġsjed": 6317,
      "Ġspek": 6318,
      "Ġkaj": 6319,
      "Ġranou": 6320,
      "ĠÅĻÃŃÅ¡i": 6321,
      "Ġvtak": 6322,
      "ved": 6323,
      "Ġvilo": 6324,
      "Ġzpoz": 6325,
      "Ġchali": 6326,
      "Ġvkom": 6327,
      "ĠtÃ¡Å¾": 6328,
      "ĠvhvÄĽz": 6329,
      "ĠklÃ¡dÃ¡": 6330,
      "ĠzdvihÃ¡": 6331,
      "ĠvzdÃ¡t": 6332,
      "ĠmÃ©mu": 6333,
      "Ġvedou": 6334,
      "ĠdeÅĻÃŃ": 6335,
      "ĠvtÄĽs": 6336,
      "ĠdÅĻich": 6337,
      "ÄĽl": 6338,
      "ĠÅĻÅ¯m": 6339,
      "Ġvzr": 6340,
      "ĠbÄĽlÃ¡": 6341,
      "Ġgr": 6342,
      "ĠbÃ½Å¥": 6343,
      "Ġvbar": 6344,
      "ĠlÅ¯nÄĽ": 6345,
      "ĠvplÃ¡Äįi": 6346,
      "Ġstvi": 6347,
      "ĠpoÅĻÃ¡d": 6348,
      "rak": 6349,
      "Ġsady": 6350,
      "Ġsyny": 6351,
      "ĠznÄĽlo": 6352,
      "ĠdÅ¾bÃ¡n": 6353,
      "Ġcenou": 6354,
      "ĠkÃ¡Å¾": 6355,
      "ĠhatÃ½": 6356,
      "ĠzoÄįÃŃ": 6357,
      "Ġdlouhou": 6358,
      "ĠhÅĻmÄĽl": 6359,
      "ĠvÃ¡na": 6360,
      "ĠvsmÄĽ": 6361,
      "Ġplaz": 6362,
      "Ġpun": 6363,
      "Ġztlu": 6364,
      "ĠpsÅ¯": 6365,
      "Ġhali": 6366,
      "ĠpÄĽsÅ¥": 6367,
      "Ġchaty": 6368,
      "ĠchtÄĽli": 6369,
      "Ġvpos": 6370,
      "ĠmÄĽsÃŃc": 6371,
      "Ġes": 6372,
      "ctvÃŃ": 6373,
      "ĠlÅ¾e": 6374,
      "ĠroÄį": 6375,
      "Ġlot": 6376,
      "ĠzmÄĽnÃŃ": 6377,
      "ĠjÃŃn": 6378,
      "ĠABABXB": 6379,
      "Ġplesu": 6380,
      "Ġment": 6381,
      "ĠjistÃ©": 6382,
      "Ġxe": 6383,
      "Ġvdiv": 6384,
      "ĠvbouÅĻ": 6385,
      "Ġdbej": 6386,
      "ĠÅĻÃ¡t": 6387,
      "ĠjatÃ½": 6388,
      "Ġditi": 6389,
      "ĠÄįilo": 6390,
      "ĠdceÅĻ": 6391,
      "ĠnnÃŃch": 6392,
      "vit": 6393,
      "ĠchlÃ½ch": 6394,
      "ĠcÃŃli": 6395,
      "ĠprvÃ©": 6396,
      "ĠzpÃ¡": 6397,
      "Ġplem": 6398,
      "ĠÅ¡tÄĽt": 6399,
      "koj": 6400,
      "ĠkrÃ¡tce": 6401,
      "ĠtÅĻu": 6402,
      "ĠdÅĻej": 6403,
      "ĠvodÄĽ": 6404,
      "Ġoken": 6405,
      "ĠnutÃŃm": 6406,
      "ĠnÃ¡rod": 6407,
      "ĠÅĻenÃ½": 6408,
      "Ġvlaj": 6409,
      "ĠksvÃ½m": 6410,
      "Ġsmys": 6411,
      "Ġtop": 6412,
      "ĠtÃŃseÅĪ": 6413,
      "ĠhoupÃ¡": 6414,
      "ĠhlÃ¡sÃ¡": 6415,
      "Ġvbok": 6416,
      "ĠoÅĻe": 6417,
      "ĠkonÃŃ": 6418,
      "ĠmÄĽlÃ©": 6419,
      "ĠABCC": 6420,
      "ĠÅ¾iku": 6421,
      "ĠspanÃŃ": 6422,
      "ĠÅ¥Ã¡l": 6423,
      "Ġkhru": 6424,
      "Ġskyt": 6425,
      "ĠhÅĻmÃŃt": 6426,
      "ĠjinÃ¡": 6427,
      "ĠÄįeru": 6428,
      "Ġpala": 6429,
      "ĠXAA": 6430,
      "ĠkaÅ¾dÃ½": 6431,
      "Ġstromu": 6432,
      "ĠÃŃch": 6433,
      "ĠsnovÃ©": 6434,
      "Ġlva": 6435,
      "ĠsedÄĽl": 6436,
      "ĠÄįlÃ¡": 6437,
      "ĠhojÃŃ": 6438,
      "Ġdoly": 6439,
      "Ġveru": 6440,
      "ĠvÃŃdal": 6441,
      "ĠboÄįÃŃ": 6442,
      "ĠranÃŃ": 6443,
      "ĠrÃ©Å¾": 6444,
      "Ġhromy": 6445,
      "Ġzimy": 6446,
      "ĠchtÄĽlo": 6447,
      "ĠtÄĽzstvÃŃ": 6448,
      "Ġlar": 6449,
      "ĠÄįÃŃl": 6450,
      "Ġbala": 6451,
      "Ġzbe": 6452,
      "Ġvjel": 6453,
      "ĠpÅĻijde": 6454,
      "ĠsnÃŃmÅ¾": 6455,
      "ĠsvÄĽdÄįÃŃ": 6456,
      "Ġjitra": 6457,
      "Ġhve": 6458,
      "Ġtina": 6459,
      "ĠdÃŃvat": 6460,
      "ĠbÃ¡nÃŃ": 6461,
      "ĠhrÃ¡la": 6462,
      "ĠvÄĽrnÃ©": 6463,
      "ĠstmÃŃvÃ¡": 6464,
      "ĠpÃ¡dÃŃ": 6465,
      "Ġbrachu": 6466,
      "ĠÄįernÃ©": 6467,
      "ĠplÃ¡lo": 6468,
      "Ġstranu": 6469,
      "ĠtÅĻeb": 6470,
      "Ġvotu": 6471,
      "ĠchÅ¯v": 6472,
      "ĠsdÃŃl": 6473,
      "dat": 6474,
      "ĠkÄįer": 6475,
      "Ġstila": 6476,
      "ĠchudÃ½": 6477,
      "ĠsmÃŃchem": 6478,
      "ĠmÄĽsto": 6479,
      "Ġjda": 6480,
      "ĠmÃŃÅĻÃŃ": 6481,
      "Ġhany": 6482,
      "Ġsus": 6483,
      "Ġkrav": 6484,
      "ĠkrÃ¡snÃ½": 6485,
      "ĠzÅĻela": 6486,
      "ĠzvÅ¡ech": 6487,
      "Ġktan": 6488,
      "Ġkmu": 6489,
      "ĠvÃ¡no": 6490,
      "ĠÄįiti": 6491,
      "ĠvkÅĻo": 6492,
      "ĠplÃ¡Äįi": 6493,
      "ĠskvÄĽl": 6494,
      "ĠbÃ©ÅĻe": 6495,
      "Ġroval": 6496,
      "ĠÅ¡ÃŃje": 6497,
      "Ġvskal": 6498,
      "Ġvpy": 6499,
      "Ġstela": 6500,
      "Ġzmno": 6501,
      "Ġzan": 6502,
      "Ġjaks": 6503,
      "ĠbeÅ¡": 6504,
      "ĠsmrÃ¡": 6505,
      "ĠÅĻekl": 6506,
      "ĠdlÃŃÅ¡": 6507,
      "Ġvojsk": 6508,
      "rek": 6509,
      "ĠsjÃŃ": 6510,
      "Ġjav": 6511,
      "ĠvÅ¾al": 6512,
      "ĠvkÅĻi": 6513,
      "Ġsvatou": 6514,
      "Ġdroz": 6515,
      "Ġkpro": 6516,
      "Ġchvatem": 6517,
      "ĠvzÃŃti": 6518,
      "ĠschÃ¡zÃŃ": 6519,
      "hlÃ©": 6520,
      "ĠÅ¾la": 6521,
      "Ġhodou": 6522,
      "Ġzap": 6523,
      "ĠklestÃŃ": 6524,
      "ĠstÅĻely": 6525,
      "ĠzvÄĽÄį": 6526,
      "Ġdejte": 6527,
      "ĠklÃ¡st": 6528,
      "Ġvkon": 6529,
      "ĠstÅĻiÄį": 6530,
      "Ġhil": 6531,
      "ĠtÄĽlem": 6532,
      "Ġmala": 6533,
      "ĠÅ¡ÃŃho": 6534,
      "ĠÅĻiv": 6535,
      "Ġkrom": 6536,
      "ĠtrÃ¡m": 6537,
      "Ġplic": 6538,
      "ĠtÄĽly": 6539,
      "ĠvÄĽÄįnÃ©": 6540,
      "vic": 6541,
      "ĠzmÃŃtÃ¡": 6542,
      "ĠÅ¡ÃŃji": 6543,
      "ĠkÅĻiku": 6544,
      "ĠznÄĽj": 6545,
      "ĠÅĻily": 6546,
      "ĠdvÄĽd": 6547,
      "Ġmdlou": 6548,
      "ĠsÅĪal": 6549,
      "ĠsnÃŃÅ¾": 6550,
      "Ġplec": 6551,
      "ĠzboÅ¾ÃŃ": 6552,
      "ĠmodlÃŃ": 6553,
      "ĠhovÃŃ": 6554,
      "Ġpet": 6555,
      "ĠdrÅ¾ÃŃ": 6556,
      "Ġsmutku": 6557,
      "Ġsnebe": 6558,
      "Ġkrm": 6559,
      "ĠzklÃŃ": 6560,
      "Ġvmoc": 6561,
      "ĠplÃŃÅ¾ÃŃ": 6562,
      "ÅĻÃŃt": 6563,
      "Ġvym": 6564,
      "ĠpÃ¡nem": 6565,
      "ĠtrÅ¯nu": 6566,
      "ĠtichÃ½": 6567,
      "Ġvyv": 6568,
      "ĠAABXB": 6569,
      "ĠzchrÃ¡": 6570,
      "Ġkut": 6571,
      "ĠdaÄį": 6572,
      "Ġsis": 6573,
      "Ġlub": 6574,
      "ĠdrahÃ©": 6575,
      "ĠzmÄĽÅ¥": 6576,
      "Ġpst": 6577,
      "Ġjeme": 6578,
      "ĠÄįla": 6579,
      "ĠvsvÅ¯j": 6580,
      "ĠzvonÅ¯": 6581,
      "ĠohnÄĽ": 6582,
      "Ġvzdoru": 6583,
      "Ġvoval": 6584,
      "Ġklasy": 6585,
      "Ġvily": 6586,
      "ĠspÃŃÅ¡e": 6587,
      "Ġvchva": 6588,
      "Ġjeh": 6589,
      "lec": 6590,
      "Ġbere": 6591,
      "Ġhlubin": 6592,
      "Ġkonce": 6593,
      "ĠmdlÃ½m": 6594,
      "Ġvzep": 6595,
      "ĠvpÅĻÃŃÅ¡": 6596,
      "ĠsiÄį": 6597,
      "ĠprÃ¡t": 6598,
      "ĠsnÄĽtÃŃ": 6599,
      "ĠtÅ¯Äį": 6600,
      "Ġvstoup": 6601,
      "Ġzpur": 6602,
      "Ġcva": 6603,
      "Ġsev": 6604,
      "ĠpolÃ¡": 6605,
      "ĠpÅĻeje": 6606,
      "Ġsai": 6607,
      "ĠvrhÃ¡": 6608,
      "dej": 6609,
      "Ġvsto": 6610,
      "Ġschou": 6611,
      "ĠÅĻasy": 6612,
      "ĠchÃ½Å¾": 6613,
      "Ġvzkve": 6614,
      "ĠsÅ¡e": 6615,
      "ĠnÄĽly": 6616,
      "ĠvzrÅ¯st": 6617,
      "ĠmiÄį": 6618,
      "Ġvslav": 6619,
      "ĠkÃ½Å¾": 6620,
      "Ġobz": 6621,
      "Ġvbles": 6622,
      "Ġksta": 6623,
      "Ġkord": 6624,
      "ĠÄįeskÃ½": 6625,
      "ĠjÃ¡c": 6626,
      "Ġsyp": 6627,
      "ĠpÄĽli": 6628,
      "Ġtemnou": 6629,
      "ĠmlÄįÃŃ": 6630,
      "ĠspÃ¡sy": 6631,
      "ĠnÄĽmÃ¡": 6632,
      "Ġprob": 6633,
      "Ġcity": 6634,
      "mek": 6635,
      "ĠmÃ©n": 6636,
      "vech": 6637,
      "ĠsvÃ¡mi": 6638,
      "ĠgÃ¡n": 6639,
      "ĠsvÃ¡l": 6640,
      "Ġjila": 6641,
      "Ġvaje": 6642,
      "ĠblaÅ¾": 6643,
      "Ġzab": 6644,
      "Ġmechu": 6645,
      "ĠvplÃŃ": 6646,
      "Ġzhled": 6647,
      "Ġvhroz": 6648,
      "ĠÅ¡perk": 6649,
      "Ġhm": 6650,
      "Ġoch": 6651,
      "Ġsvl": 6652,
      "Ġhodu": 6653,
      "Ġzdou": 6654,
      "ĠprvÃ½": 6655,
      "skal": 6656,
      "Ġzima": 6657,
      "Ġdruhu": 6658,
      "Ġbrzy": 6659,
      "sen": 6660,
      "ĠÅ¡vih": 6661,
      "ĠdÄĽvu": 6662,
      "Ġbohem": 6663,
      "Ġmeno": 6664,
      "ĠÅĻiti": 6665,
      "ĠchytÃ¡": 6666,
      "Ġprut": 6667,
      "ĠÅ¾Ã¡rem": 6668,
      "Ġcestou": 6669,
      "Ġvzrost": 6670,
      "ĠmnÃŃÅ¡": 6671,
      "por": 6672,
      "ĠhÃº": 6673,
      "Ġjiny": 6674,
      "ĠrÃ¡cÃŃ": 6675,
      "Ġzmdle": 6676,
      "ĠcestÄĽ": 6677,
      "ĠrovÃ©": 6678,
      "ĠstÃŃnem": 6679,
      "Ġjesti": 6680,
      "ĠbrÃ¡c": 6681,
      "Ġris": 6682,
      "ĠznÄĽly": 6683,
      "ĠvlastnÃŃ": 6684,
      "ĠvloÅ¾": 6685,
      "Ġnovou": 6686,
      "ĠmenÅ¯": 6687,
      "ĠslouchÃ¡": 6688,
      "ĠstÃ½l": 6689,
      "ĠsviÅ¡": 6690,
      "Ġtali": 6691,
      "ĠvzkÃ¡": 6692,
      "ĠÅ¾iva": 6693,
      "Ġsudu": 6694,
      "kam": 6695,
      "ĠvÄįem": 6696,
      "Ġprve": 6697,
      "Ġstri": 6698,
      "ĠvdÄĽs": 6699,
      "Ġrra": 6700,
      "Ġpaty": 6701,
      "ĠstiÅ¥": 6702,
      "ĠbÃŃÅ¡": 6703,
      "ĠhloÅ¾ÃŃ": 6704,
      "ĠdraÅ¾Å¡ÃŃ": 6705,
      "Ġdci": 6706,
      "ĠnaÅ¡": 6707,
      "ĠnaÅ¡el": 6708,
      "ĠkoÅ¾": 6709,
      "ĠtÄĽti": 6710,
      "ĠzdÅĻÃŃm": 6711,
      "Ġluce": 6712,
      "ĠtÄĽchy": 6713,
      "Ġzoub": 6714,
      "Ġhaly": 6715,
      "Ġvstup": 6716,
      "ĠzaÅĪ": 6717,
      "ĠpÅĻis": 6718,
      "ĠhrozÃŃ": 6719,
      "ĠhouÅ¡Å¥": 6720,
      "ĠdÃ¡lky": 6721,
      "Ġshled": 6722,
      "ĠzvÄĽsti": 6723,
      "co": 6724,
      "rÃ©m": 6725,
      "Ġvoje": 6726,
      "Ġspjal": 6727,
      "ĠlujÃŃ": 6728,
      "ĠvspÃ¡n": 6729,
      "Ġhodil": 6730,
      "ĠjmÃ©na": 6731,
      "Ġzcha": 6732,
      "ĠvujÃŃ": 6733,
      "ĠpouhÃ½": 6734,
      "Ġruje": 6735,
      "Ġvsvou": 6736,
      "ĠbÃŃti": 6737,
      "Ġvstru": 6738,
      "Ġdvod": 6739,
      "Ġticha": 6740,
      "ĠtlÃ½m": 6741,
      "Ġvtaj": 6742,
      "ĠlajÃŃ": 6743,
      "ĠÅ¡enÄĽ": 6744,
      "Ġstich": 6745,
      "ĠvdÅ¯m": 6746,
      "Ġhraj": 6747,
      "ĠmrakÅ¯": 6748,
      "ĠvrÃ¡sky": 6749,
      "ĠhlasÅ¯": 6750,
      "Ġano": 6751,
      "Ġjela": 6752,
      "Ġneme": 6753,
      "lic": 6754,
      "Ġdrn": 6755,
      "Ġrii": 6756,
      "ĠrodÅ¯": 6757,
      "ĠmÄĽkkÃ¡": 6758,
      "Ġvtes": 6759,
      "Ġvryt": 6760,
      "Ġdmu": 6761,
      "ĠÅ¾hne": 6762,
      "ĠnÄĽnou": 6763,
      "ĠrudÃ½": 6764,
      "rud": 6765,
      "ĠpeÅ¡": 6766,
      "Ġpravou": 6767,
      "ĠkletÃ½": 6768,
      "Ġdent": 6769,
      "ĠchÃ¡s": 6770,
      "ĠzlobÄĽ": 6771,
      "ĠzvukÅ¯": 6772,
      "Ġvryl": 6773,
      "Ġpokoj": 6774,
      "Ġtiti": 6775,
      "ĠplaÅ¡": 6776,
      "Ġpuch": 6777,
      "Ġsnahy": 6778,
      "ĠsmÃŃÅ¡": 6779,
      "Ġria": 6780,
      "ĠzliÄį": 6781,
      "ĠjmÄĽnÃŃ": 6782,
      "Ġzsi": 6783,
      "ĠhorÃ¡ch": 6784,
      "Ġdoval": 6785,
      "ĠnÄĽhy": 6786,
      "ĠvÃ¡Å¾ÃŃ": 6787,
      "ĠvÃ¡Å¾e": 6788,
      "ĠlÃ¡d": 6789,
      "ĠzÃŃvÃ¡": 6790,
      "ĠjsouÅ¥": 6791,
      "ĠzlÃ©ho": 6792,
      "ĠblÅ¯": 6793,
      "Ġae": 6794,
      "ĠjeÄı": 6795,
      "ĠcÃŃÅ¡": 6796,
      "Ġgre": 6797,
      "ĠzdÃ¡t": 6798,
      "hÃ¡ch": 6799,
      "ĠstÅ¯v": 6800,
      "ĠÅ¡ÅĪÅ¯": 6801,
      "Ġil": 6802,
      "Å¯l": 6803,
      "ĠnÄĽhu": 6804,
      "ĠnivÃ¡": 6805,
      "Ġvsnu": 6806,
      "ĠdejÅ¾": 6807,
      "Ġcosi": 6808,
      "Ġzvyku": 6809,
      "ĠstinnÃ©": 6810,
      "ĠbÃ©m": 6811,
      "ĠzmÃ½ch": 6812,
      "ĠhlÃŃÅ¾ÃŃ": 6813,
      "ĠzrÃ¡l": 6814,
      "Ġssu": 6815,
      "Ġlap": 6816,
      "ĠkletÃ¡": 6817,
      "ĠvdÄĽt": 6818,
      "ĠvÅ¯dce": 6819,
      "ĠlÃ³": 6820,
      "Ġoka": 6821,
      "Ġbohy": 6822,
      "Ġvzky": 6823,
      "ĠruÄįe": 6824,
      "ĠvÅĻelÃ©": 6825,
      "Ġvzpru": 6826,
      "Ġbros": 6827,
      "ĠÅ¾houcÃŃ": 6828,
      "Ġkojen": 6829,
      "ĠmetÃ¡": 6830,
      "ĠstenÃ¡": 6831,
      "ĠblahÃ½": 6832,
      "Ġdlani": 6833,
      "ĠhÅĻÃŃchu": 6834,
      "ĠhÅĻÃ¡l": 6835,
      "ĠspÃ¡nku": 6836,
      "ĠÅ¾nÃŃ": 6837,
      "Ġmel": 6838,
      "Ġprok": 6839,
      "Ġdrahou": 6840,
      "ĠblaÅ¾ÃŃ": 6841,
      "ĠspÄĽjÃŃ": 6842,
      "ĠmennÃ©": 6843,
      "Ġklem": 6844,
      "ĠXXAXAX": 6845,
      "ĠnÃŃn": 6846,
      "ĠcestÃŃ": 6847,
      "ĠmaÅ¡": 6848,
      "ĠslunÃŃ": 6849,
      "ĠtÃ½n": 6850,
      "ĠvmoÅĻi": 6851,
      "Ġkluk": 6852,
      "ĠdÃŃtky": 6853,
      "ĠÄįena": 6854,
      "Ġdanou": 6855,
      "ĠpÅĻÃŃl": 6856,
      "ĠpÃ½Å¡e": 6857,
      "Ġzvedla": 6858,
      "ĠÅ¾luÄį": 6859,
      "Ġkoch": 6860,
      "Ġniny": 6861,
      "ĠzenÃ½": 6862,
      "ĠmÃ¡je": 6863,
      "ĠdanÃ©": 6864,
      "Ġramen": 6865,
      "Ġluji": 6866,
      "ĠÅ¾ily": 6867,
      "Ġmohl": 6868,
      "Ġpoto": 6869,
      "Ġsof": 6870,
      "Ġfar": 6871,
      "Ġstatky": 6872,
      "Ġkonec": 6873,
      "ĠnivÄĽ": 6874,
      "Ġdete": 6875,
      "ĠÅĻÃŃdÃŃ": 6876,
      "ĠstokrÃ¡t": 6877,
      "ĠÃºdy": 6878,
      "ĠkvÄĽte": 6879,
      "Ġdre": 6880,
      "Ġmrakem": 6881,
      "ĠÅ¡kod": 6882,
      "ĠjlÃ©": 6883,
      "Ġis": 6884,
      "Ġhlase": 6885,
      "ĠzjevÃŃ": 6886,
      "ĠvbÄĽh": 6887,
      "ĠvklÃ¡Å¡": 6888,
      "ĠsfÃ©r": 6889,
      "kÅ¯m": 6890,
      "Ġjvo": 6891,
      "ĠÄįinou": 6892,
      "ĠtÅĻÃŃÅ¡tÃŃ": 6893,
      "Ġsedne": 6894,
      "ĠkÅĻest": 6895,
      "Ġnaly": 6896,
      "ĠnÄĽli": 6897,
      "Ġpest": 6898,
      "Ġfla": 6899,
      "ĠdÄĽls": 6900,
      "ĠvbÅĻe": 6901,
      "ĠhrÃ¡ch": 6902,
      "Ã³r": 6903,
      "Ġvzadu": 6904,
      "Ġvbod": 6905,
      "ĠÅ¾emi": 6906,
      "ĠzkvÃ©tÃ¡": 6907,
      "ĠkavÃ½": 6908,
      "ĠtÄĽkÃ¡": 6909,
      "Ġrunu": 6910,
      "Ġvije": 6911,
      "ĠzÃ¡n": 6912,
      "ter": 6913,
      "ĠzhÃ¡": 6914,
      "ĠtÅĻÃŃÄį": 6915,
      "Ġnitra": 6916,
      "ĠspÅĻÃ¡dÃ¡": 6917,
      "Ġobraz": 6918,
      "ĠsvÃŃtil": 6919,
      "ĠjasnÃ½": 6920,
      "Ġproudy": 6921,
      "ĠdÃ¡my": 6922,
      "ĠvdÃ¡v": 6923,
      "Ġkboji": 6924,
      "Ġnova": 6925,
      "ĠvotÄĽ": 6926,
      "ĠvÃŃno": 6927,
      "ĠstrÃ¡nÄĽ": 6928,
      "ĠÄįekal": 6929,
      "din": 6930,
      "ĠmÃŃsto": 6931,
      "Ġkoni": 6932,
      "Ġvslou": 6933,
      "Ġvraha": 6934,
      "ĠÅ¡af": 6935,
      "ĠÅ¡koly": 6936,
      "Ġsvrh": 6937,
      "ĠteÅ¡": 6938,
      "ĠkujÃŃ": 6939,
      "Ġmenech": 6940,
      "ĠstÃ½skÃ¡": 6941,
      "ĠÄıme": 6942,
      "ĠÅ¡ept": 6943,
      "Ġmalu": 6944,
      "ĠÄįenstvÃŃ": 6945,
      "kne": 6946,
      "ĠmlÅ¾": 6947,
      "ĠkrouÅ¾ÃŃ": 6948,
      "ĠÅ¡tka": 6949,
      "ĠstkÃ¡": 6950,
      "Ġchvi": 6951,
      "Ġkrovem": 6952,
      "ĠvÅ¡ichni": 6953,
      "Ġskles": 6954,
      "ĠmÃ¡tku": 6955,
      "Ġpustil": 6956,
      "Ġvodou": 6957,
      "Ġsplav": 6958,
      "ĠviÅĪ": 6959,
      "Ġvsho": 6960,
      "Ġvblu": 6961,
      "kost": 6962,
      "ĠspÃŃcÃŃ": 6963,
      "Ġchcete": 6964,
      "sel": 6965,
      "Ġsklep": 6966,
      "Ġkluz": 6967,
      "ĠvcÃŃ": 6968,
      "Ġces": 6969,
      "Ġlali": 6970,
      "ĠbohÃ½": 6971,
      "ĠÅ¾ivÃŃ": 6972,
      "louz": 6973,
      "ĠbouÄį": 6974,
      "ĠchyÅ¥": 6975,
      "ĠklÃ¡nÃŃ": 6976,
      "Ġdcera": 6977,
      "Ġvzdechy": 6978,
      "ĠlejÃŃ": 6979,
      "Ġcely": 6980,
      "ĠvÅ¡tÃŃ": 6981,
      "ĠzmizÃŃ": 6982,
      "ĠfraÅ¡": 6983,
      "ĠctÃŃt": 6984,
      "ĠslyÅ¡ÃŃÅ¡": 6985,
      "cÃ½": 6986,
      "lat": 6987,
      "ĠÅ¡ÃŃlÃŃ": 6988,
      "ĠryÄį": 6989,
      "Å¡et": 6990,
      "ĠzvÃŃÅ¡": 6991,
      "Ġcour": 6992,
      "ĠpÅ¯m": 6993,
      "Ġjete": 6994,
      "ĠlicÃŃ": 6995,
      "ĠÅ¾eti": 6996,
      "Ġbrali": 6997,
      "Ġkleb": 6998,
      "ĠkpÅĻÃŃ": 6999,
      "Äįin": 7000,
      "pÄĽt": 7001,
      "ĠjistÃ¡": 7002,
      "Äįem": 7003,
      "Ġletech": 7004,
      "Ġlys": 7005,
      "Ġvtros": 7006,
      "ĠbraÅ¥": 7007,
      "Ġnechal": 7008,
      "ĠdobÅĻe": 7009,
      "Ġzpom": 7010,
      "ĠÅ¾Ã¡dnÃ½": 7011,
      "ĠÅ¾iti": 7012,
      "ĠrÃ¡k": 7013,
      "ĠvÅĻeÅ¡": 7014,
      "Ġshu": 7015,
      "Ġbloudil": 7016,
      "ĠzmÄĽny": 7017,
      "Ġpluj": 7018,
      "Ġvtichu": 7019,
      "ĠÅ¾da": 7020,
      "ĠÅ¡ena": 7021,
      "ĠdivÃŃ": 7022,
      "ĠbÃ¡ÅĻ": 7023,
      "Ġkama": 7024,
      "Ġskokem": 7025,
      "ĠspÄĽchÃ¡": 7026,
      "ĠlenÃ½ch": 7027,
      "Ġvedl": 7028,
      "ĠsÅ¾ÃŃ": 7029,
      "ĠÅĻka": 7030,
      "Ġrac": 7031,
      "ĠbÄĽhu": 7032,
      "ĠvÅ¯kol": 7033,
      "ĠtrÃ¡vÄĽ": 7034,
      "ĠhnÄĽt": 7035,
      "ĠknimÅ¾": 7036,
      "ĠjvÃ½Å¡": 7037,
      "Ġpjal": 7038,
      "ĠlpÃŃ": 7039,
      "ĠmezÃŃ": 7040,
      "Ġsoum": 7041,
      "ĠbrÅ¾": 7042,
      "ĠsvitÄĽ": 7043,
      "ĠzvÃ¡Å¾": 7044,
      "ĠpÃ½chu": 7045,
      "ĠkcÃŃli": 7046,
      "ĠsnÃ©st": 7047,
      "Ġvami": 7048,
      "ĠdÃŃky": 7049,
      "ĠzÃ¡j": 7050,
      "ĠpÃ¡Å¡": 7051,
      "Ġvtlu": 7052,
      "Ġztros": 7053,
      "ĠhrÃ¡ly": 7054,
      "ĠkruÅ¡": 7055,
      "ĠvÃ¡nkÅ¯": 7056,
      "ĠÄįuje": 7057,
      "ĠvhlavÄĽ": 7058,
      "nka": 7059,
      "Ġbvy": 7060,
      "vÃ¡Å¡": 7061,
      "Ġfil": 7062,
      "ĠztÃ½": 7063,
      "Å¾et": 7064,
      "Ġleskem": 7065,
      "ĠsbÃŃrÃ¡": 7066,
      "Ġtahy": 7067,
      "ĠÅ¡enÃŃm": 7068,
      "ĠcÃŃho": 7069,
      "Ġsble": 7070,
      "Ġchrt": 7071,
      "Ġzvln": 7072,
      "ĠhÃ¡rÃ¡": 7073,
      "Ġsouc": 7074,
      "ĠÅ¾Ã¡ry": 7075,
      "Ġkryla": 7076,
      "Ġknut": 7077,
      "ĠAABXBX": 7078,
      "ĠsÅĻe": 7079,
      "Ġspit": 7080,
      "ĠÅ¾Ã¡t": 7081,
      "ĠbÅĻeÅ¾ÃŃ": 7082,
      "ĠdlÃŃt": 7083,
      "rev": 7084,
      "Ġjisk": 7085,
      "Ġvav": 7086,
      "ĠmÃŃval": 7087,
      "ĠvlÃ¡k": 7088,
      "Ġsbi": 7089,
      "ĠdrÃ¡t": 7090,
      "ĠdrÃ¡ch": 7091,
      "ĠvsluÅ¾": 7092,
      "Ġsdra": 7093,
      "rob": 7094,
      "ĠÅ¡eÅĻ": 7095,
      "ĠbÄĽti": 7096,
      "Ġzlatou": 7097,
      "ĠtÅĻa": 7098,
      "ĠÅĻekne": 7099,
      "ĠdruhÅ¯": 7100,
      "Ġonu": 7101,
      "ĠkoÅĪ": 7102,
      "ĠpaÄį": 7103,
      "Ġcii": 7104,
      "ĠÄįinÄĽ": 7105,
      "Ġdneska": 7106,
      "ĠvlÃ¡l": 7107,
      "ĠpÃŃsni": 7108,
      "ĠmennÃ¡": 7109,
      "ĠklidnÄĽ": 7110,
      "ber": 7111,
      "ĠzÄįÃŃ": 7112,
      "ĠÅ¡edÃ½": 7113,
      "ĠlÃŃbÃŃ": 7114,
      "Ġfry": 7115,
      "ĠzÃŃtÅĻ": 7116,
      "ĠtouÅ¾il": 7117,
      "ĠsÅ¡": 7118,
      "Ġraje": 7119,
      "ĠbÃ¡jÃŃ": 7120,
      "ĠchmÃ½": 7121,
      "Ġdary": 7122,
      "ĠÄįinÅ¯": 7123,
      "ĠvÅĻenÃŃ": 7124,
      "ĠvlÃ¡t": 7125,
      "Ġschlad": 7126,
      "Ġvedli": 7127,
      "ĠÅ¡tve": 7128,
      "Ġvzmach": 7129,
      "ĠshÃ¡nÃŃ": 7130,
      "ot": 7131,
      "Ġkai": 7132,
      "ĠvÄĽdi": 7133,
      "Ġpam": 7134,
      "Ġtum": 7135,
      "ĠsnÃŃÅ¡": 7136,
      "mÄĽt": 7137,
      "ĠABAABX": 7138,
      "ĠvnÄĽjÅ¾": 7139,
      "Ġdomy": 7140,
      "ĠrÃ¡r": 7141,
      "ĠchovÃ©": 7142,
      "nut": 7143,
      "ĠkleÄįÃŃ": 7144,
      "Ġvrb": 7145,
      "Ġdlouze": 7146,
      "ĠvleÄįe": 7147,
      "ĠÅ¾itÃŃm": 7148,
      "ĠÄįtyÅĻ": 7149,
      "ĠtaÅ¥": 7150,
      "ĠÅ¡ela": 7151,
      "Ġloz": 7152,
      "ĠdÄĽle": 7153,
      "Ġboru": 7154,
      "ĠmÄĽlÃ¡": 7155,
      "Ġjata": 7156,
      "Ġrada": 7157,
      "ĠXXXXAA": 7158,
      "ĠprÃ©": 7159,
      "Ġvplo": 7160,
      "ĠrekÅ¯": 7161,
      "ĠzhvÄĽz": 7162,
      "Ġtrudu": 7163,
      "Ġdoucnost": 7164,
      "ĠkonÃ¡": 7165,
      "Ġroku": 7166,
      "ĠAXB": 7167,
      "Ġprak": 7168,
      "Ġrez": 7169,
      "ĠvtÅĻe": 7170,
      "ĠzhnÃŃz": 7171,
      "ĠzmÄĽn": 7172,
      "ĠvloÄį": 7173,
      "Ġjab": 7174,
      "ĠtÄĽnÃ©": 7175,
      "ĠloÅ¾il": 7176,
      "Ġsiv": 7177,
      "ĠbÃŃdy": 7178,
      "ĠspojÃŃ": 7179,
      "Ġsledu": 7180,
      "ÄįÃŃch": 7181,
      "ĠhrÃ¡zÃŃ": 7182,
      "Ġtlukou": 7183,
      "ĠtÃ¡hla": 7184,
      "Ġsg": 7185,
      "Äįlo": 7186,
      "Ġjista": 7187,
      "ĠvinÄĽ": 7188,
      "ĠsÃŃtÃŃ": 7189,
      "vÃ¡t": 7190,
      "Ġsoko": 7191,
      "Ġbiz": 7192,
      "Ġblaze": 7193,
      "ĠtroÅ¡": 7194,
      "Ġjase": 7195,
      "Ġhrud": 7196,
      "Ġpily": 7197,
      "ĠvÃ¡nky": 7198,
      "ĠvkroÄįÃŃ": 7199,
      "Ġvbah": 7200,
      "pas": 7201,
      "ĠdÃŃvÃ¡m": 7202,
      "Ġzod": 7203,
      "ĠtÅĻebÃŃ": 7204,
      "ĠvhÅĻÃŃ": 7205,
      "Ġdlid": 7206,
      "Ġcr": 7207,
      "Ġleno": 7208,
      "ĠvÄĽcÃŃ": 7209,
      "ĠvÄĽsÅ¥": 7210,
      "ĠdunÃŃ": 7211,
      "ĠvÃŃÅ¾": 7212,
      "Ġvzb": 7213,
      "ĠlÃŃbal": 7214,
      "voz": 7215,
      "Ġkslo": 7216,
      "Ġkvetla": 7217,
      "Ġvmoz": 7218,
      "ĠsvÃ½Å¡e": 7219,
      "Ġumf": 7220,
      "Ġtric": 7221,
      "Ġptej": 7222,
      "ĠmÄĽle": 7223,
      "Ġsmil": 7224,
      "ĠlidskÃ©": 7225,
      "Ġseni": 7226,
      "ĠÅ¾ej": 7227,
      "ĠvÃŃÄįka": 7228,
      "Ġvtvo": 7229,
      "ĠbrÃ¡na": 7230,
      "Ġklidem": 7231,
      "ĠÅĻadu": 7232,
      "ĠslouÅ¾ÃŃ": 7233,
      "ĠvtvÃ¡ÅĻi": 7234,
      "ĠhoÅĻi": 7235,
      "ĠÄįenÃ¡": 7236,
      "ĠÅ¾itÄĽ": 7237,
      "ĠbÄĽj": 7238,
      "ĠstÃŃnÃŃ": 7239,
      "Ġhude": 7240,
      "Ġsvah": 7241,
      "ĠdÄĽlem": 7242,
      "Ġchodil": 7243,
      "ĠsÃ¡hne": 7244,
      "Ġklub": 7245,
      "ĠzchvÃ¡": 7246,
      "ĠkanÃ©": 7247,
      "Ġnouze": 7248,
      "ĠvkÅĻÃŃ": 7249,
      "Ġvmar": 7250,
      "Ġtrob": 7251,
      "Ġsba": 7252,
      "Ġvled": 7253,
      "ĠÅĪad": 7254,
      "Ġvadla": 7255,
      "ĠuÅ¡t": 7256,
      "ĠvÄĽjÃŃ": 7257,
      "ĠrÃ¡mÄĽ": 7258,
      "ĠbÃŃlou": 7259,
      "ĠblakÅ¯": 7260,
      "Ġvrej": 7261,
      "ĠzkÅĻe": 7262,
      "ĠpÅ¯r": 7263,
      "ĠvzbuÄı": 7264,
      "ĠkÅĻti": 7265,
      "ĠslepÃ½": 7266,
      "ĠzhlÃŃd": 7267,
      "ĠjÃŃÅ¥": 7268,
      "ĠmÄĽje": 7269,
      "Ġzena": 7270,
      "ĠÅĻed": 7271,
      "ĠsvÃŃÄį": 7272,
      "Ġhluku": 7273,
      "Ġchvatu": 7274,
      "Ã¡k": 7275,
      "ĠholÃ¡": 7276,
      "Ġtova": 7277,
      "Ġnor": 7278,
      "Ġkum": 7279,
      "Ġspy": 7280,
      "ĠzmÄĽk": 7281,
      "Ġzlid": 7282,
      "ĠskrÃ½t": 7283,
      "Ġvdou": 7284,
      "ĠspÄĽt": 7285,
      "Ġduchu": 7286,
      "ĠchvÃ¡lÃŃ": 7287,
      "Ġsboru": 7288,
      "Ġ24": 7289,
      "Ġzg": 7290,
      "ĠÅ¡lu": 7291,
      "ĠÅ¡kÃ¡": 7292,
      "ĠnÃŃho": 7293,
      "Ġtip": 7294,
      "Ġkas": 7295,
      "Ġzera": 7296,
      "ĠnutÃ©": 7297,
      "Ġstoud": 7298,
      "ĠhrÃ¡ti": 7299,
      "ĠchrÃ¡mu": 7300,
      "ĠÅ¾havÃ©": 7301,
      "Ġvedu": 7302,
      "ĠÄįÃŃn": 7303,
      "ĠvplÃ©": 7304,
      "ĠrÅ¯Å¾i": 7305,
      "Ġvhrad": 7306,
      "Ġstrem": 7307,
      "ĠchrÃ¡my": 7308,
      "ĠvtÄĽle": 7309,
      "Ġrali": 7310,
      "Ġtroud": 7311,
      "Ġvpev": 7312,
      "ĠshÃ½bÃ¡": 7313,
      "ĠvzÅĪal": 7314,
      "Ġsir": 7315,
      "Ġsmou": 7316,
      "ĠdoucÃŃ": 7317,
      "ĠsmÄĽlÃ¡": 7318,
      "ĠsmÄĽlÃ©": 7319,
      "Ġpanna": 7320,
      "ĠAXAXBB": 7321,
      "ĠfÃ¡nÃŃ": 7322,
      "Ġfaust": 7323,
      "Na": 7324,
      "ĠNa": 7325,
      "Ġzdat": 7326,
      "ĠhladÃŃ": 7327,
      "Ġstep": 7328,
      "Ġstebou": 7329,
      "ĠvÅĻelÃ¡": 7330,
      "ĠchtÄĽj": 7331,
      "ĠchlÃ©m": 7332,
      "Ġvzplane": 7333,
      "ĠNaN": 7334,
      "Ġslasti": 7335,
      "Ġgil": 7336,
      "ĠknÄĽÅ¾ÃŃ": 7337,
      "ĠctnÃ½": 7338,
      "ĠÅ¡erÃ©": 7339,
      "ĠsbÄĽh": 7340,
      "ĠdavÄĽ": 7341,
      "ĠsÃŃni": 7342,
      "ĠkletÃ©": 7343,
      "Ġspoj": 7344,
      "ĠchÃ¡zel": 7345,
      "ĠdÃ¡vno": 7346,
      "ĠzmÄĽna": 7347,
      "ĠÅ¾havÃ¡": 7348,
      "Ġvkruh": 7349,
      "ĠsÃ½m": 7350,
      "Ġnoty": 7351,
      "ĠvÄĽti": 7352,
      "vÄĽl": 7353,
      "Ġbudem": 7354,
      "Ġztre": 7355,
      "Ġlence": 7356,
      "ĠklÃ©m": 7357,
      "ĠtmavÃ¡": 7358,
      "Ġchlej": 7359,
      "ĠzkÃ¡z": 7360,
      "Ġvmech": 7361,
      "ĠsÃ½ch": 7362,
      "Ġtky": 7363,
      "ĠvÄĽÅĻil": 7364,
      "ĠÄįeti": 7365,
      "ĠmÃ¡la": 7366,
      "ĠlÃ¡ÅĻe": 7367,
      "Ġbranou": 7368,
      "Ġvkal": 7369,
      "ĠsladkÃ©": 7370,
      "ĠcitÅ¯": 7371,
      "ĠlÃŃÄįka": 7372,
      "Ġmusil": 7373,
      "Ġvblan": 7374,
      "Ġlnou": 7375,
      "ĠvoÄįi": 7376,
      "ĠÅ¡enou": 7377,
      "Ġzdru": 7378,
      "ĠsÃ¡k": 7379,
      "Ġvrt": 7380,
      "Ġztro": 7381,
      "ĠkrÃ¡snÄĽ": 7382,
      "ĠniÄįky": 7383,
      "Ġprys": 7384,
      "ĠspuÅ¡": 7385,
      "Ġhviz": 7386,
      "Ġvece": 7387,
      "ĠroÅ¾": 7388,
      "Ġlodi": 7389,
      "Ġstanul": 7390,
      "jÃŃt": 7391,
      "ĠchaÅĻ": 7392,
      "ĠprÃ¡s": 7393,
      "Ġvmno": 7394,
      "ĠmrazÃŃ": 7395,
      "ĠtÅ¯nÄĽ": 7396,
      "ĠdÅĻÃŃme": 7397,
      "ĠvÄĽrnÃ½": 7398,
      "Ġzpola": 7399,
      "Ġvstala": 7400,
      "Ġvstane": 7401,
      "Ġvzteku": 7402,
      "Ã¼": 7403,
      "ĠkoÅĻe": 7404,
      "ĠuÅ¡i": 7405,
      "ĠplazÃŃ": 7406,
      "ĠzblÃ¡": 7407,
      "ĠkrokÅ¯": 7408,
      "ĠdlivÃ½": 7409,
      "ĠvÅ¡um": 7410,
      "ĠmoÅ¾no": 7411,
      "ĠvkrÃ¡dÃ¡": 7412,
      "pÄĽl": 7413,
      "Ġveden": 7414,
      "ĠtÅĻesou": 7415,
      "Ġvak": 7416,
      "Ġprov": 7417,
      "ĠlÃ©tÃ¡": 7418,
      "ĠbrÃ©m": 7419,
      "ĠvÅĻenÃ©": 7420,
      "ĠdletÃŃ": 7421,
      "Ġksva": 7422,
      "Ġstkvost": 7423,
      "ĠdnÃ©m": 7424,
      "Å¡t": 7425,
      "Ġir": 7426,
      "ĠÃºÄį": 7427,
      "Ġvkri": 7428,
      "Ġduchem": 7429,
      "ĠÅ¾alu": 7430,
      "Ġzvlh": 7431,
      "ĠpÃ½cha": 7432,
      "ĠzÄįi": 7433,
      "Ġtim": 7434,
      "Ġtav": 7435,
      "Ġduh": 7436,
      "lÃŃch": 7437,
      "Ġmoud": 7438,
      "ĠsmrtÃŃ": 7439,
      "ĠÅĪal": 7440,
      "Ġsbory": 7441,
      "Ġznes": 7442,
      "ĠsdÅ¯": 7443,
      "ĠskÅĻÃŃt": 7444,
      "ĠbÅĻin": 7445,
      "Ġxan": 7446,
      "Ġleni": 7447,
      "ĠmiÅĪ": 7448,
      "Ġklame": 7449,
      "ĠkspÃ¡n": 7450,
      "ĠnÄĽjÅ¾": 7451,
      "ĠvsobÄĽ": 7452,
      "ĠsmÄĽsi": 7453,
      "AC": 7454,
      "ĠtavÃ½": 7455,
      "ĠtÅĻek": 7456,
      "ĠdrÃ¡p": 7457,
      "Ġpoly": 7458,
      "Ġmila": 7459,
      "Ġvlnou": 7460,
      "ĠvchÃ½": 7461,
      "Ġsnich": 7462,
      "ĠkÅ¡": 7463,
      "ĠnalÃ½": 7464,
      "ĠhovÃ©": 7465,
      "Ġnovu": 7466,
      "ĠbajÃŃ": 7467,
      "ĠplaÅ¥": 7468,
      "ĠmraÄįÃŃ": 7469,
      "ĠÄįily": 7470,
      "Ġsbohem": 7471,
      "ĠmÃº": 7472,
      "ĠkotÃ¡": 7473,
      "ĠtÃŃcÃŃ": 7474,
      "Ġmaje": 7475,
      "ĠstÃ¡da": 7476,
      "ĠpudÃŃ": 7477,
      "Ġnesl": 7478,
      "Ġtrat": 7479,
      "ĠkpÃŃ": 7480,
      "hÃ¡m": 7481,
      "Ġznoj": 7482,
      "ĠbÃ¡snÄĽ": 7483,
      "Ġbledne": 7484,
      "ĠtivÃ½": 7485,
      "ĠjiÅ¡ti": 7486,
      "ĠnivÃ©": 7487,
      "Ġnivou": 7488,
      "ĠtujÃŃ": 7489,
      "ĠstÃŃs": 7490,
      "ĠvÃ½sk": 7491,
      "ĠsnÄĽÅ¥": 7492,
      "ĠzvÃŃÅĻe": 7493,
      "ÅĻek": 7494,
      "ĠrÃ¡Å¾ÃŃ": 7495,
      "Ġztvr": 7496,
      "ĠstÅĻeÅ¾ÃŃ": 7497,
      "ĠrÃ½Å¾": 7498,
      "ĠÅĻekla": 7499,
      "ĠprÃ½Å¡tÃŃ": 7500,
      "ĠmÃŃnka": 7501,
      "ĠhromÅ¯": 7502,
      "ĠhrouÅ¾ÃŃ": 7503,
      "Ġgraf": 7504,
      "ĠvÃ¡bÃŃ": 7505,
      "Ġtus": 7506,
      "Ġluhy": 7507,
      "ĠpÄĽny": 7508,
      "Ġvals": 7509,
      "ĠvÅ¯ni": 7510,
      "Ġvzpu": 7511,
      "ĠmÃ½Å¡": 7512,
      "ĠvzÃ¡m": 7513,
      "Ġcas": 7514,
      "ĠsnÃ¡z": 7515,
      "ĠshÅ¯ry": 7516,
      "ĠprosÃŃm": 7517,
      "Ġkin": 7518,
      "ĠÅ¾ou": 7519,
      "ĠnahÃ¡": 7520,
      "rost": 7521,
      "ĠmilÃŃ": 7522,
      "Ġbozi": 7523,
      "Ġmady": 7524,
      "ĠlÃŃnÄĽ": 7525,
      "Ġhum": 7526,
      "Ġchab": 7527,
      "ĠonÅ¯": 7528,
      "Ġtliv": 7529,
      "ĠABAXXB": 7530,
      "Ġliti": 7531,
      "ĠbÄĽtÃŃ": 7532,
      "Ġpramen": 7533,
      "Ġzhl": 7534,
      "Ġshrou": 7535,
      "ĠdnovÃ©": 7536,
      "ĠvtÃŃs": 7537,
      "ĠstÃŃÅ¡": 7538,
      "ĠtÃ½kÃ¡": 7539,
      "Ġjednu": 7540,
      "Ġpiti": 7541,
      "kot": 7542,
      "Ġjasem": 7543,
      "ĠshlÃ©": 7544,
      "Ġmsty": 7545,
      "ĠholÃ©": 7546,
      "Ġmova": 7547,
      "ĠtuhÃ½": 7548,
      "ĠlÃ¡ny": 7549,
      "ĠpÃ¡nÅ¯": 7550,
      "ĠsnivÃ©": 7551,
      "Ġsedla": 7552,
      "ĠhvÃŃzdÃ¡": 7553,
      "ĠvspÄĽch": 7554,
      "kla": 7555,
      "Ġkovu": 7556,
      "ĠdiÅ¥": 7557,
      "ĠÅĻech": 7558,
      "ĠÄįÃŃs": 7559,
      "ĠrÃ¡ji": 7560,
      "Ġzrady": 7561,
      "ĠjasnÃ¡": 7562,
      "ĠÅ¡ili": 7563,
      "Ġzchy": 7564,
      "ĠletÄĽl": 7565,
      "ĠkovÃ½": 7566,
      "ĠvÃŃla": 7567,
      "ĠvÃŃly": 7568,
      "Ġvzemi": 7569,
      "ĠmaÄį": 7570,
      "Ġras": 7571,
      "ĠznaÄįÃŃ": 7572,
      "Ġbloze": 7573,
      "ĠskvÄĽlÃ©": 7574,
      "ĠhÅĻÃŃchy": 7575,
      "ĠvpouÅ¡Å¥": 7576,
      "ĠklasÅ¯": 7577,
      "ĠchÅĻest": 7578,
      "Ġvspol": 7579,
      "ĠnalÃ©": 7580,
      "ĠÅ¡ine": 7581,
      "ĠsÃ¡n": 7582,
      "Ġbradu": 7583,
      "Ġhran": 7584,
      "Ġstrasti": 7585,
      "deÅ¡": 7586,
      "ĠvÅ¡ecka": 7587,
      "ĠznÃ¡te": 7588,
      "ĠbrÃ¡nu": 7589,
      "Ġkvetou": 7590,
      "ĠstÃ©nÃ¡": 7591,
      "ĠtÅĻiv": 7592,
      "ĠskrytÄĽ": 7593,
      "ĠzhoÅĻ": 7594,
      "Ġsjel": 7595,
      "Ġsadu": 7596,
      "ĠslyÅ¡ÃŃm": 7597,
      "Ġtmavou": 7598,
      "ĠkovÃ¡": 7599,
      "ĠÃºsmÄĽ": 7600,
      "Ġkrajem": 7601,
      "ĠtÃ©mÄĽ": 7602,
      "ĠvmÄĽk": 7603,
      "ĠlstÃŃ": 7604,
      "ĠnÃ¡vi": 7605,
      "ĠkyÅĪ": 7606,
      "Ġcoval": 7607,
      "ĠkouÅĻÃŃ": 7608,
      "Ġvsny": 7609,
      "ĠsloÅ¾ÃŃ": 7610,
      "ĠpÅĻÃ¡h": 7611,
      "ĠvdÃ¡lku": 7612,
      "ĠvsÃ¡z": 7613,
      "Ġjedu": 7614,
      "Ġzeje": 7615,
      "ĠsnivÃ½": 7616,
      "ĠÅ¡prÃ½m": 7617,
      "ĠztiÅ¡": 7618,
      "Ġruchem": 7619,
      "ĠvÅ¡ednÃŃ": 7620,
      "ĠÅ¡klebÃŃ": 7621,
      "Ġrhy": 7622,
      "ĠÅ¡tÃ¡": 7623,
      "ĠtÃ©r": 7624,
      "ĠptÃ¡ka": 7625,
      "ĠmÄĽls": 7626,
      "ĠÅĪat": 7627,
      "ĠznÃŃti": 7628,
      "Ġhloup": 7629,
      "ĠskvÄĽlÃ¡": 7630,
      "Ġgram": 7631,
      "Ġpekla": 7632,
      "Ġrhyt": 7633,
      "ĠnivÃ½": 7634,
      "Ġzdal": 7635,
      "ĠdravÃŃ": 7636,
      "ĠbÃ¡r": 7637,
      "ĠÅ¡lehÃ¡": 7638,
      "Ġvjezd": 7639,
      "Ġmluvit": 7640,
      "ĠtÃŃme": 7641,
      "ĠbÃŃk": 7642,
      "ĠvstÃ¡t": 7643,
      "ĠchvÃŃvÃ¡": 7644,
      "zek": 7645,
      "ĠkrÃ¡lem": 7646,
      "ĠrovnÃ¡": 7647,
      "ĠblÃ½sk": 7648,
      "Ġsmol": 7649,
      "Ġzky": 7650,
      "ĠjÃŃÄį": 7651,
      "Ġdere": 7652,
      "ĠkÃ¡l": 7653,
      "van": 7654,
      "ĠkeÅĻi": 7655,
      "ĠvÅĻelÃ½": 7656,
      "ĠhrÃ¡vÃ¡": 7657,
      "ĠvlÃ¡dce": 7658,
      "ĠlhÃ¡ÅĻ": 7659,
      "ĠÅ¾nÄĽ": 7660,
      "Ġtiky": 7661,
      "ĠvÄĽÅ¾e": 7662,
      "ĠpaÅ¾ÃŃ": 7663,
      "ĠbeÄį": 7664,
      "ÅĪu": 7665,
      "ĠhravÃ½": 7666,
      "ĠvÅĻele": 7667,
      "ĠspÄĽla": 7668,
      "Ġsnila": 7669,
      "ĠÅ¡koda": 7670,
      "ĠkosÃŃ": 7671,
      "Ġtovat": 7672,
      "ĠvÄĽdÄĽt": 7673,
      "ĠmÃ¡vÃ¡": 7674,
      "Ġrati": 7675,
      "Ġchyl": 7676,
      "ĠbrÃ¡ti": 7677,
      "Ġleta": 7678,
      "Ġtluku": 7679,
      "Ġblouk": 7680,
      "Ġvhrudi": 7681,
      "ĠpnÄĽ": 7682,
      "ĠÅĻÅ¯v": 7683,
      "Ġzeli": 7684,
      "Ġnuj": 7685,
      "ĠlÃŃvÃ¡": 7686,
      "ĠjsemÅ¥": 7687,
      "ĠsÃ¡zÃŃ": 7688,
      "Ġstaly": 7689,
      "ĠvÄĽtvÃŃ": 7690,
      "Ġleskne": 7691,
      "dlech": 7692,
      "ĠdujÃŃ": 7693,
      "ĠmanÃŃ": 7694,
      "Ġstanou": 7695,
      "tost": 7696,
      "ĠzpÃŃs": 7697,
      "ĠsklonÃŃ": 7698,
      "ĠvnÃ¡d": 7699,
      "ĠvtrÃ¡vÄĽ": 7700,
      "ĠzdvÃŃhÃ¡": 7701,
      "Ã¤": 7702,
      "Ġdolu": 7703,
      "ĠtulÃŃ": 7704,
      "ĠÅ¾ijÃŃ": 7705,
      "ĠvtmÄĽ": 7706,
      "ĠmÃ¡mÃŃ": 7707,
      "ĠÅ¡epce": 7708,
      "ĠjvyÅ¡Å¡ÃŃ": 7709,
      "Ġmilost": 7710,
      "Ġdii": 7711,
      "Ġzran": 7712,
      "Ġvmat": 7713,
      "ĠsvÃŃjÃŃ": 7714,
      "ĠzÅĻeli": 7715,
      "ĠvÄįely": 7716,
      "ĠÅ¾enstvÃŃ": 7717,
      "Ġtvrz": 7718,
      "Ġfes": 7719,
      "Ġobzor": 7720,
      "ĠcÅ¾e": 7721,
      "ĠbodÄĽ": 7722,
      "Ġjam": 7723,
      "Ġbuk": 7724,
      "Ġslez": 7725,
      "ĠkruÅ¡ÃŃ": 7726,
      "ĠÅ¡plou": 7727,
      "ĠztratÃŃ": 7728,
      "ĠvlÃŃdnÄĽ": 7729,
      "ĠÅĻuje": 7730,
      "Ġkha": 7731,
      "ĠkopÃŃ": 7732,
      "Ġzami": 7733,
      "ĠÄįeno": 7734,
      "ĠjatÃ©": 7735,
      "ĠlÃ¡r": 7736,
      "Ġchopil": 7737,
      "ĠpÄĽna": 7738,
      "Ġtoul": 7739,
      "ĠÄįernÃ½": 7740,
      "ĠnejÅ¡ÃŃ": 7741,
      "Ġcyt": 7742,
      "ĠmÃŃnky": 7743,
      "ĠvÃŃÅĻe": 7744,
      "Ġjaro": 7745,
      "ĠmÃŃch": 7746,
      "Ġreji": 7747,
      "Ġbrala": 7748,
      "ĠhravÄĽ": 7749,
      "ĠznÃ¡mÃ©": 7750,
      "tor": 7751,
      "ĠslÃŃÄį": 7752,
      "Ġzvednou": 7753,
      "ĠchÅĻ": 7754,
      "ĠvitÃ©": 7755,
      "Ġcis": 7756,
      "ĠkleÅ¡": 7757,
      "ĠdruÅ¾ÃŃ": 7758,
      "Ġskot": 7759,
      "ĠoheÅĪ": 7760,
      "Ġtres": 7761,
      "Ġnvi": 7762,
      "Ġsef": 7763,
      "ĠÅĻet": 7764,
      "ĠsynÅ¯": 7765,
      "Ġbram": 7766,
      "Ġslovu": 7767,
      "ĠchvÃŃt": 7768,
      "zÃŃch": 7769,
      "Ġzlet": 7770,
      "ĠbolÅ¯": 7771,
      "ĠÅ¾uj": 7772,
      "Ġvsad": 7773,
      "ĠÄįnÄĽl": 7774,
      "Ġchvost": 7775,
      "Ġhoda": 7776,
      "Ġjina": 7777,
      "ĠvÄĽno": 7778,
      "Ġmate": 7779,
      "ĠpÄĽÅ¡": 7780,
      "cit": 7781,
      "ĠloudÃŃ": 7782,
      "ĠslÃ¡vou": 7783,
      "ĠbÅĻehy": 7784,
      "ĠvolnÄĽ": 7785,
      "Ġtlouci": 7786,
      "Ġjitro": 7787,
      "kle": 7788,
      "Ġvavou": 7789,
      "Ġzebe": 7790,
      "ĠmÃ¡cÃŃ": 7791,
      "ĠbujÃŃ": 7792,
      "Ġtyr": 7793,
      "ĠgÃ©": 7794,
      "ĠvmÅ¯j": 7795,
      "ĠpevnÄĽ": 7796,
      "ĠkrÃ½t": 7797,
      "ĠstÅĻÃ¡s": 7798,
      "ĠgroÅ¡": 7799,
      "ĠABCCAB": 7800,
      "ĠzÅ¯m": 7801,
      "Ġpolu": 7802,
      "lej": 7803,
      "Ġzast": 7804,
      "ĠÅ¾est": 7805,
      "Ġrosti": 7806,
      "Ġvany": 7807,
      "Ġboka": 7808,
      "Ġmau": 7809,
      "ĠlÃŃh": 7810,
      "Ġsoudu": 7811,
      "ĠsnÄĽÅ¾ÃŃ": 7812,
      "ĠsvÃ¡dÃŃ": 7813,
      "Ġsdce": 7814,
      "Ġmysl": 7815,
      "ĠvosÅ¥": 7816,
      "Ġdik": 7817,
      "ĠdenkrÃ¡t": 7818,
      "Ġjedno": 7819,
      "Ġzove": 7820,
      "ĠpÃ½ÅĻÃŃ": 7821,
      "Ġzmije": 7822,
      "Ġvadlo": 7823,
      "Ġprsou": 7824,
      "Ġvinnost": 7825,
      "ĠÃºsmÄĽv": 7826,
      "ol": 7827,
      "ĠselÃ½": 7828,
      "Ġvas": 7829,
      "ĠvrÃ¡ji": 7830,
      "ĠstrÃ¡z": 7831,
      "ĠÅ¾enÃ½ch": 7832,
      "ĠtluÄįe": 7833,
      "ĠdvoÅĻÃŃ": 7834,
      "ĠzvÃŃd": 7835,
      "Ġsmutek": 7836,
      "ĠzÄįech": 7837,
      "Ġthi": 7838,
      "mal": 7839,
      "ĠtovÃ©": 7840,
      "ĠtÄĽnÃ½": 7841,
      "Ġbob": 7842,
      "Ġvzho": 7843,
      "ĠzÃ¡da": 7844,
      "ĠsbÅĻe": 7845,
      "Ġprus": 7846,
      "ĠsnÃ¡Å¡ÃŃ": 7847,
      "ĠsmÃ¡lo": 7848,
      "Ġvproud": 7849,
      "ĠcvrÄį": 7850,
      "Å¡ad": 7851,
      "Ġmsta": 7852,
      "ĠÄįeÅ¥": 7853,
      "Ġdice": 7854,
      "ĠdravÃ©": 7855,
      "Ġgal": 7856,
      "ĠsvÄĽtlÃ½": 7857,
      "ĠbÅĻes": 7858,
      "Ġplody": 7859,
      "ĠhÅ¯v": 7860,
      "ĠsviÅ¾": 7861,
      "Ġfin": 7862,
      "Ġstkvou": 7863,
      "ĠXXXAAX": 7864,
      "Ġhma": 7865,
      "ĠvavÃ©": 7866,
      "ĠÅ¡ec": 7867,
      "Ġvzmu": 7868,
      "ĠkrÃ¡nu": 7869,
      "ĠpravÃ©": 7870,
      "ĠplÃ¡nÄĽ": 7871,
      "Ġsladkou": 7872,
      "Ġdles": 7873,
      "ĠtÅĻÃŃÅ¡Å¥": 7874,
      "ĠznÄĽjÃŃ": 7875,
      "Ġzdomu": 7876,
      "ĠzdobÃŃ": 7877,
      "Ġzvykem": 7878,
      "ĠstojÃŃm": 7879,
      "Ġlamp": 7880,
      "ĠvtÅ¯ÅĪ": 7881,
      "ĠcÃ¡t": 7882,
      "Ġzau": 7883,
      "ĠdÃŃÄį": 7884,
      "Ġvinul": 7885,
      "ĠdinÃ©": 7886,
      "ĠbuÅ¡": 7887,
      "ĠvÅ¡eru": 7888,
      "Ġsosti": 7889,
      "ĠkÅ¯r": 7890,
      "Ġkladou": 7891,
      "Ġvrata": 7892,
      "Ġplnou": 7893,
      "ĠpoznÃ¡": 7894,
      "Ġbron": 7895,
      "Ġkonal": 7896,
      "ĠvchÅ¯": 7897,
      "ĠbratÅĻe": 7898,
      "ĠvmraÄį": 7899,
      "Ġpotom": 7900,
      "Ġbyst": 7901,
      "Ġlog": 7902,
      "ĠsvÄĽÅ¥": 7903,
      "Ġvlase": 7904,
      "ĠstÅĻechu": 7905,
      "ĠpÅĻÃ¡tel": 7906,
      "ĠchÃ½Å¡": 7907,
      "ĠÅ¡erem": 7908,
      "ĠpsanÃŃ": 7909,
      "Ġvj": 7910,
      "ĠstlÃŃ": 7911,
      "ĠtoÅ¡": 7912,
      "Ġlaur": 7913,
      "ĠprsÅ¥": 7914,
      "ĠtÃ©l": 7915,
      "ĠtenÅ¥": 7916,
      "ĠzmÃ½": 7917,
      "ĠhoucÃŃ": 7918,
      "ĠstÅĻedu": 7919,
      "Ġsbla": 7920,
      "ĠhnÄĽvy": 7921,
      "ĠtlumÃŃ": 7922,
      "ĠÄįinil": 7923,
      "ĠdlÃ¡Å¾": 7924,
      "ĠlepÃ½": 7925,
      "Ġztoho": 7926,
      "ĠzluÄį": 7927,
      "ĠvÅĪÃ¡": 7928,
      "ĠpovÃŃm": 7929,
      "Ġkoh": 7930,
      "Ġtici": 7931,
      "ĠkavÄĽ": 7932,
      "Ġmile": 7933,
      "ĠvÃŃnem": 7934,
      "ĠrÃ¡ÄįÃŃ": 7935,
      "Ġmladou": 7936,
      "ĠdvoÅĻe": 7937,
      "Ġzdola": 7938,
      "ĠhÃ¡dka": 7939,
      "ĠtevÅĻ": 7940,
      "ĠkpÃŃs": 7941,
      "ĠstvÄĽ": 7942,
      "ĠselÃ©": 7943,
      "Ġnoho": 7944,
      "vÃ¡ch": 7945,
      "ĠvÃ©sti": 7946,
      "Ġsod": 7947,
      "vek": 7948,
      "ĠptÃ¡kÅ¯": 7949,
      "ĠzhlÃ©d": 7950,
      "ĠsilÃŃ": 7951,
      "ĠvleÄį": 7952,
      "Ġgest": 7953,
      "ĠtickÃ½": 7954,
      "Ġvsed": 7955,
      "ĠvdÅ¯l": 7956,
      "Ġnon": 7957,
      "Ġgor": 7958,
      "ĠÄįernÃŃ": 7959,
      "der": 7960,
      "ĠzumÄĽl": 7961,
      "ĠAAABBX": 7962,
      "Ġzhnu": 7963,
      "ĠbrÃ¡n": 7964,
      "ĠtrÃ¡vÃŃ": 7965,
      "Ġzbav": 7966,
      "ek": 7967,
      "ĠÄįec": 7968,
      "ĠbodÃ¡": 7969,
      "ĠdÃŃcÃŃ": 7970,
      "ĠpouhÃ¡": 7971,
      "ĠsnÃŃti": 7972,
      "ĠvÄĽÄįnÃ½": 7973,
      "ĠpÅĻÃ¡no": 7974,
      "ĠÅ¡atÄĽ": 7975,
      "Ġstruny": 7976,
      "ĠstrÃ½Äį": 7977,
      "ĠÄįasto": 7978,
      "ĠmnÃŃm": 7979,
      "Ġzchu": 7980,
      "ĠtinÄĽ": 7981,
      "ĠÅ¾eli": 7982,
      "Ġrokem": 7983,
      "ĠÅ¡ero": 7984,
      "ĠvkÅ¯": 7985,
      "vin": 7986,
      "Ġzbyla": 7987,
      "ĠvplÃ¡Äį": 7988,
      "ĠvpÅ¯t": 7989,
      "ĠknÃ½ch": 7990,
      "ĠÄįtou": 7991,
      "ĠÅĻkou": 7992,
      "Ġceno": 7993,
      "ĠtoÅĪ": 7994,
      "Ġskte": 7995,
      "Ġbohou": 7996,
      "ĠsaÅĻi": 7997,
      "ĠvdÃ½m": 7998,
      "ĠÅ¾an": 7999,
      "ĠcelÃ©m": 8000,
      "ĠvdÃŃl": 8001,
      "ĠtÄĽp": 8002,
      "Ġstolem": 8003,
      "ĠpÃ¡ry": 8004,
      "Ġfl": 8005,
      "ĠbinÃ¡ch": 8006,
      "Ġtran": 8007,
      "ĠzvÄĽstÃŃ": 8008,
      "ĠdobrÃ½": 8009,
      "Ġvtisk": 8010,
      "ĠnoÄįnÃŃ": 8011,
      "ĠskvoucÃŃ": 8012,
      "sou": 8013,
      "Ã¡Å¡": 8014,
      "Ġkce": 8015,
      "ĠctÃŃm": 8016,
      "ĠÅ¡ta": 8017,
      "ĠnutÃ½": 8018,
      "Ġzila": 8019,
      "ĠstÅĻeh": 8020,
      "ĠstÅĻet": 8021,
      "ĠroucÃŃ": 8022,
      "ĠshnÄĽ": 8023,
      "Ġvchla": 8024,
      "Ġvchmu": 8025,
      "Ġpliv": 8026,
      "ĠmusÃŃm": 8027,
      "Ġhbit": 8028,
      "ĠtostÃŃ": 8029,
      "ĠvÃŃch": 8030,
      "ĠmÄĽvu": 8031,
      "Ġslava": 8032,
      "Ġvdnech": 8033,
      "ĠÅĻisÅ¥": 8034,
      "ĠzdÃ¡la": 8035,
      "ĠzkvÄĽt": 8036,
      "Ġvesna": 8037,
      "Ġmnil": 8038,
      "ĠnÃŃcÃŃ": 8039,
      "Ġleko": 8040,
      "ĠroÅ¡": 8041,
      "ĠvÄĽnec": 8042,
      "ĠdÄĽÅ¥": 8043,
      "ĠbenÃ©": 8044,
      "ĠhnÄĽte": 8045,
      "Ġpali": 8046,
      "Ġvdov": 8047,
      "ĠsÄįela": 8048,
      "ĠksmÃŃchu": 8049,
      "za": 8050,
      "Ġnavy": 8051,
      "Ġbon": 8052,
      "ĠÅĻena": 8053,
      "Ġretu": 8054,
      "ĠsoudÃŃ": 8055,
      "ĠdÃ©ho": 8056,
      "Ġvbra": 8057,
      "Ġmls": 8058,
      "Ġcitem": 8059,
      "Ġmdlob": 8060,
      "ĠsÅ¾a": 8061,
      "ĠthÃ©": 8062,
      "ĠzÅ¾": 8063,
      "ĠnanÃ©": 8064,
      "Ġkole": 8065,
      "ruh": 8066,
      "Ġvper": 8067,
      "Ġzuru": 8068,
      "ĠonÅ¥": 8069,
      "ĠÄįtvrt": 8070,
      "ĠvchÃ¡zÃŃ": 8071,
      "Ġai": 8072,
      "ĠstvÃ½m": 8073,
      "Ġtoky": 8074,
      "Ġnoval": 8075,
      "Ġzeb": 8076,
      "ĠjarÃ½": 8077,
      "lÃŃk": 8078,
      "Ġhanu": 8079,
      "ĠvdÃ½": 8080,
      "ĠprÃ¡l": 8081,
      "Ġzoval": 8082,
      "ĠmnohÃ½": 8083,
      "Ġshod": 8084,
      "ĠvÅ¾Ã¡r": 8085,
      "Ġpotu": 8086,
      "ĠleÄı": 8087,
      "ĠlicÃŃch": 8088,
      "Ġdolem": 8089,
      "Ġtoh": 8090,
      "Ġrohy": 8091,
      "ĠmutÃŃ": 8092,
      "ĠzenÃ¡": 8093,
      "Ġnulost": 8094,
      "Ġvstr": 8095,
      "Ġvlil": 8096,
      "ĠABBAAB": 8097,
      "ĠstydÃŃ": 8098,
      "ĠmarnÄĽ": 8099,
      "ĠÅĻadou": 8100,
      "ĠproudÃŃ": 8101,
      "Ġsvitem": 8102,
      "Ġstrhl": 8103,
      "Ġboce": 8104,
      "ĠÄįÃŃÅ¡i": 8105,
      "ĠstÃ¡v": 8106,
      "ĠkÅ¯l": 8107,
      "Ġsvoj": 8108,
      "ĠtÅĻej": 8109,
      "Ġchladu": 8110,
      "ĠneÄįnÃ©": 8111,
      "ĠvzÃ¡ÅĻ": 8112,
      "Ġzhloub": 8113,
      "ĠmstÃŃt": 8114,
      "Ġpau": 8115,
      "ĠhÃ¡ji": 8116,
      "ĠdrÃ¡hu": 8117,
      "ĠÄıoun": 8118,
      "ĠzdravÃ½": 8119,
      "ĠtÃ½mi": 8120,
      "Ġzdroji": 8121,
      "ĠÅ¡ov": 8122,
      "Ġzjich": 8123,
      "ĠsvÅ¡e": 8124,
      "ĠpastÃŃ": 8125,
      "Ġsala": 8126,
      "ĠpÅĻih": 8127,
      "Ġstroje": 8128,
      "Ġkrovy": 8129,
      "ĠmladÃŃ": 8130,
      "ĠpÅ¯du": 8131,
      "ĠvÃ©mu": 8132,
      "ĠjvÃŃce": 8133,
      "ĠktrÅ¯": 8134,
      "ĠclÃ¡": 8135,
      "ĠvisÅ¥": 8136,
      "Ġvtvr": 8137,
      "ĠtemnÃ©": 8138,
      "Ġhoust": 8139,
      "Ġzchla": 8140,
      "ĠtÄĽjÅ¡ÃŃ": 8141,
      "ĠzhouÅ¡": 8142,
      "Ġzmlh": 8143,
      "ĠÄįme": 8144,
      "Ġcenu": 8145,
      "Ġtot": 8146,
      "ĠtovÃ½": 8147,
      "ĠvÄĽÅĻÃŃm": 8148,
      "ĠsÃŃnÃŃ": 8149,
      "ĠsajÃŃ": 8150,
      "ĠspÃ¡nek": 8151,
      "ĠhnÃŃzd": 8152,
      "ĠnÄĽjÅ¡ÃŃm": 8153,
      "Ġrre": 8154,
      "Ġamen": 8155,
      "rÃ¡n": 8156,
      "ĠnÃ¡me": 8157,
      "Ġvenou": 8158,
      "Ġvzdou": 8159,
      "ĠvÅ¡er": 8160,
      "ĠkrÃ¡Äįel": 8161,
      "ĠtÃ¡hnou": 8162,
      "ĠzhyÅĪ": 8163,
      "ĠskÅĻÃŃÅĪ": 8164,
      "ĠvstÃŃnu": 8165,
      "Ġleny": 8166,
      "stil": 8167,
      "ĠvÃŃtal": 8168,
      "ĠbohÃ¡": 8169,
      "ĠpajÃŃ": 8170,
      "ĠÄįÃŃsti": 8171,
      "Ġstot": 8172,
      "Ġjedna": 8173,
      "ĠstÅĻej": 8174,
      "ĠstejnÄĽ": 8175,
      "ĠvÄĽtÅĻÃŃ": 8176,
      "Ġsteskem": 8177,
      "ĠsÃºc": 8178,
      "ĠnÄĽlo": 8179,
      "ĠÅĻÃŃzy": 8180,
      "Ġhrn": 8181,
      "Ġhouk": 8182,
      "ĠvmÅ¾ik": 8183,
      "Ġklop": 8184,
      "ĠpozdÄĽ": 8185,
      "ĠnÃŃkÅ¯m": 8186,
      "Ġhrub": 8187,
      "Ġklesl": 8188,
      "Ġseje": 8189,
      "ĠvÄĽÅ¥": 8190,
      "ĠtÄĽte": 8191,
      "Ġzelo": 8192,
      "Ġzeno": 8193,
      "Ġsrdcem": 8194,
      "Ġklamy": 8195,
      "ĠbouÅĻi": 8196,
      "Ġzhe": 8197,
      "ĠblÃŃÄį": 8198,
      "ĠhrÃ¡li": 8199,
      "ĠÅ¾asu": 8200,
      "ĠÅ¡an": 8201,
      "ĠvlÅ¯Å¾": 8202,
      "Ġvzim": 8203,
      "Ġzcu": 8204,
      "Ġlami": 8205,
      "ĠÅĻiÄı": 8206,
      "Ġvtla": 8207,
      "Ġkroj": 8208,
      "Ġzloby": 8209,
      "ĠvlÃŃÄį": 8210,
      "Ġstali": 8211,
      "Ġbily": 8212,
      "Ġmohla": 8213,
      "ĠztrÃ¡t": 8214,
      "Ġdvr": 8215,
      "ABA": 8216,
      "Ġjeno": 8217,
      "ÄıÃ¡": 8218,
      "Ġstoru": 8219,
      "Ġsnaha": 8220,
      "ĠsÅ¯l": 8221,
      "ĠsÃŃckrÃ¡t": 8222,
      "Ġpaly": 8223,
      "Ġvesla": 8224,
      "ĠlekÃ½": 8225,
      "Ġpsan": 8226,
      "Ġksk": 8227,
      "Ġkolu": 8228,
      "rÃ¡l": 8229,
      "ĠdÃŃlu": 8230,
      "Ġvtra": 8231,
      "Ġpul": 8232,
      "ĠbÃ¡nÄĽ": 8233,
      "ĠstÅĻen": 8234,
      "ĠvlÃ¡dy": 8235,
      "ĠtÅĻas": 8236,
      "ĠpÃ½chy": 8237,
      "Ġkoho": 8238,
      "ĠholÃ½": 8239,
      "ĠrazÃŃ": 8240,
      "Ġchovat": 8241,
      "ĠzÃŃral": 8242,
      "Ġklon": 8243,
      "ĠslÃŃt": 8244,
      "Ġprout": 8245,
      "Ġzbude": 8246,
      "ĠvÄĽstu": 8247,
      "ĠhÅĻiv": 8248,
      "Ġkf": 8249,
      "ĠknÃ½m": 8250,
      "ouÄį": 8251,
      "ĠpoÄı": 8252,
      "Ġkovat": 8253,
      "Ġhovor": 8254,
      "Ġbytu": 8255,
      "ĠvaÅ¡i": 8256,
      "ĠvÃ¡hÃ¡": 8257,
      "ĠkrÃ¡tÃŃ": 8258,
      "ĠpenÃ©": 8259,
      "Ġsluh": 8260,
      "Ġchav": 8261,
      "Ġhen": 8262,
      "Ġvleh": 8263,
      "Ġschnou": 8264,
      "ĠkneÅ¡": 8265,
      "ĠvÃºc": 8266,
      "Ġretem": 8267,
      "ĠvhoÅĻ": 8268,
      "Ġkbohu": 8269,
      "Ġllen": 8270,
      "Ġcej": 8271,
      "ĠÅ¾ele": 8272,
      "Ġzely": 8273,
      "ĠviÅ¥": 8274,
      "Ġhami": 8275,
      "Ġkrt": 8276,
      "ĠziÅ¡": 8277,
      "ĠvÄĽÄįnÃ¡": 8278,
      "ĠÅĻan": 8279,
      "Ġvkar": 8280,
      "Ġstrachem": 8281,
      "ĠschvÃ¡tÃŃ": 8282,
      "ĠksluÅ¾": 8283,
      "Ġsry": 8284,
      "Ġlim": 8285,
      "Ġzala": 8286,
      "ĠpaÅĪ": 8287,
      "Ġluny": 8288,
      "mech": 8289,
      "Ġblaho": 8290,
      "Ġhrb": 8291,
      "ĠstÄĽna": 8292,
      "ĠvlÃ¡hy": 8293,
      "Ġzloba": 8294,
      "ĠÅ¾ab": 8295,
      "ĠmlÃ¡zÃŃ": 8296,
      "ĠzrÃ¡t": 8297,
      "ĠvniÅ¾": 8298,
      "ĠniÄįku": 8299,
      "ĠhÅĻÃŃchÅ¯": 8300,
      "ĠstÅĻÃ¡sÃ¡": 8301,
      "Ġsjas": 8302,
      "ĠvdeÅ¡": 8303,
      "Ġmzdu": 8304,
      "ĠnÃ¡vist": 8305,
      "Ġsda": 8306,
      "Ġstka": 8307,
      "ĠvÄĽda": 8308,
      "ĠvÃ¡c": 8309,
      "ĠspÅ¯": 8310,
      "ĠÄįivÃ¡": 8311,
      "Ġred": 8312,
      "ĠtouÄį": 8313,
      "ĠdravÃ¡": 8314,
      "Ġstret": 8315,
      "Ġstatku": 8316,
      "ĠvlÃŃdnÃ½": 8317,
      "ĠsplÃ½val": 8318,
      "Ġhmot": 8319,
      "ĠvbÃ¡s": 8320,
      "Ġvbrz": 8321,
      "Ġbum": 8322,
      "Ġvus": 8323,
      "ĠvlajÃŃ": 8324,
      "ĠvÅ¾ha": 8325,
      "Ġhynu": 8326,
      "ĠvelkÃ¡": 8327,
      "ĠstrÃ¡Å¾ÃŃ": 8328,
      "Ġpilo": 8329,
      "ĠznajÃŃ": 8330,
      "ĠkvÃ©tÃ¡": 8331,
      "ĠÄįtr": 8332,
      "ĠkstÃ¡": 8333,
      "ĠvoÄı": 8334,
      "Ġsun": 8335,
      "ĠtÅĻÃŃmÃ¡": 8336,
      "ĠvinnÃ©": 8337,
      "ĠkvÃŃtky": 8338,
      "Ġmrazem": 8339,
      "ĠzÅĻa": 8340,
      "ĠjenÃ½": 8341,
      "ĠhynÄĽ": 8342,
      "Ġplesy": 8343,
      "Ġbesy": 8344,
      "Ġdarem": 8345,
      "ĠbrouÄį": 8346,
      "ĠmoÅĻem": 8347,
      "Ġvples": 8348,
      "zÃ½": 8349,
      "Ġblem": 8350,
      "Ġtai": 8351,
      "nÄĽz": 8352,
      "ĠzÃ¡pad": 8353,
      "ĠpÃŃc": 8354,
      "Ġtron": 8355,
      "ĠjasnÄĽ": 8356,
      "ĠnÄĽmÃŃ": 8357,
      "Ġvejte": 8358,
      "bÃ¡n": 8359,
      "Ġchvilku": 8360,
      "ĠXABB": 8361,
      "ĠsbÃ¡z": 8362,
      "ĠtnÃ©": 8363,
      "ĠdcÅ¯": 8364,
      "ĠÅ¡lou": 8365,
      "Ġtera": 8366,
      "ĠÅ¡eli": 8367,
      "ĠÅ¡eÄı": 8368,
      "ĠmlÃ¡Äı": 8369,
      "ĠvadÅ¾": 8370,
      "ĠdnÅ¯v": 8371,
      "ĠtevÅĻel": 8372,
      "ĠdevÅ¡ad": 8373,
      "hly": 8374,
      "ĠnaÅ¥": 8375,
      "ĠnÃ½ÅĻ": 8376,
      "ĠslÃ½m": 8377,
      "ĠÄįeÅĻi": 8378,
      "Ġcir": 8379,
      "ĠÅĻest": 8380,
      "Ġsmla": 8381,
      "ĠkoupÃ¡": 8382,
      "ĠstÃ¡m": 8383,
      "ĠfÄĽ": 8384,
      "Ġsuch": 8385,
      "ĠpujÃŃ": 8386,
      "Ġslok": 8387,
      "Ġdliv": 8388,
      "Ġpadly": 8389,
      "ĠklÃŃna": 8390,
      "ĠvzhlÃ©": 8391,
      "ĠviÄįku": 8392,
      "Ġprinc": 8393,
      "Ġcli": 8394,
      "ĠhnÃŃ": 8395,
      "Ġduhy": 8396,
      "Ġzlosti": 8397,
      "Ġshl": 8398,
      "Ġkruhy": 8399,
      "ĠbesÃŃch": 8400,
      "ĠchvÃ¡ly": 8401,
      "Ġtret": 8402,
      "Ġgur": 8403,
      "Ġzahrad": 8404,
      "ĠpsÃ¡no": 8405,
      "Ġceli": 8406,
      "Ġveno": 8407,
      "ĠvÄĽÅ¾i": 8408,
      "Ġmovu": 8409,
      "Ġvyt": 8410,
      "Ġberu": 8411,
      "Ġzdla": 8412,
      "ĠjÃ¡Å¥": 8413,
      "Ġchasu": 8414,
      "ĠhouÅ¡tÃŃ": 8415,
      "Ġdruzi": 8416,
      "ĠslÃ¡d": 8417,
      "ĠvÄĽÄįnÄĽ": 8418,
      "ĠzÅĻÃŃdla": 8419,
      "Ġskost": 8420,
      "Ġzkni": 8421,
      "Ġshra": 8422,
      "Ġsrb": 8423,
      "ĠoltÃ¡ÅĻ": 8424,
      "ĠspÅĻeÅ¾": 8425,
      "ĠtÄĽzÃŃ": 8426,
      "Ġboty": 8427,
      "ĠzdÅ¯": 8428,
      "ĠryÅ¡": 8429,
      "ĠsvatÃŃ": 8430,
      "ĠtelnÃ©": 8431,
      "ĠbÅĻez": 8432,
      "ĠkÃ½mi": 8433,
      "ĠhÅĻej": 8434,
      "ĠÅ¡Ã¡k": 8435,
      "Ġsplet": 8436,
      "ĠXAAXXX": 8437,
      "hrad": 8438,
      "ĠdÅ¡": 8439,
      "Ġniku": 8440,
      "Ġtas": 8441,
      "Ġtalo": 8442,
      "Ġtati": 8443,
      "ĠdeÃ¡l": 8444,
      "Ġcon": 8445,
      "Ġprk": 8446,
      "Ġvsr": 8447,
      "Ġbiti": 8448,
      "ĠnÃ¡mÃ½": 8449,
      "Ġzory": 8450,
      "Ġpice": 8451,
      "ĠvÅĻelo": 8452,
      "Ġkrytu": 8453,
      "ĠÅ¥at": 8454,
      "Ġpravda": 8455,
      "Ġvduchu": 8456,
      "ĠplujÃŃ": 8457,
      "Ġvprachu": 8458,
      "ĠzprÃ¡v": 8459,
      "Ġllah": 8460,
      "ĠsvÅ¯": 8461,
      "ĠtiÅ¥": 8462,
      "Ġrovat": 8463,
      "Ġroby": 8464,
      "ĠpÃŃch": 8465,
      "skem": 8466,
      "Ġblahu": 8467,
      "ĠsnÃŃcÃŃ": 8468,
      "ĠhÃ½n": 8469,
      "ĠkÅĻiky": 8470,
      "ĠstrÃ¡Å¾e": 8471,
      "Ġtman": 8472,
      "ĠschÃ½lÃŃ": 8473,
      "Ġheslo": 8474,
      "Ġjic": 8475,
      "Ġski": 8476,
      "ĠbokÃ©": 8477,
      "Ġjako": 8478,
      "ĠvzmÃ¡": 8479,
      "ĠlÃ¡vÃ¡": 8480,
      "Ġsmlu": 8481,
      "Ġhuj": 8482,
      "ĠlÃ©ÄįÃŃ": 8483,
      "Ġsporu": 8484,
      "ÅĻÃ¡n": 8485,
      "ĠchvÃ¡le": 8486,
      "ĠmÄĽstu": 8487,
      "ĠmÄĽstÄĽ": 8488,
      "ĠbudeÅ¡": 8489,
      "Ġskel": 8490,
      "ĠsÅ¥a": 8491,
      "tvÃŃ": 8492,
      "Ġlne": 8493,
      "Ġlati": 8494,
      "Ġmenou": 8495,
      "ĠdÃŃkÅ¯": 8496,
      "ĠsÃŃlÃŃ": 8497,
      "Ġbam": 8498,
      "Ġspov": 8499,
      "Ġchyby": 8500,
      "Ġdruha": 8501,
      "ĠkÅĻÃŃÅ¾i": 8502,
      "Ġtravou": 8503,
      "ĠbÅ¯Å¾": 8504,
      "ĠsmÄĽjÃŃ": 8505,
      "Ġksa": 8506,
      "ĠtÄĽÅ¾kÃ¡": 8507,
      "Ġrostou": 8508,
      "ĠtÃŃsnÄĽ": 8509,
      "Ġrychle": 8510,
      "ĠkoÅĻÃ¡n": 8511,
      "rÃ¡d": 8512,
      "ĠvaÅ¡ÃŃ": 8513,
      "ĠvÄĽÅĻe": 8514,
      "ĠtÄĽnÃ¡": 8515,
      "Ġkynou": 8516,
      "ĠjakÃ½": 8517,
      "ĠbeÅĻ": 8518,
      "ĠÅĻeku": 8519,
      "ĠÅ¡ÃŃn": 8520,
      "ĠmÃŃÄį": 8521,
      "ĠkÃ½n": 8522,
      "Ġzradu": 8523,
      "Ġdrosti": 8524,
      "ĠmÄĽkkÃ½": 8525,
      "Ġfrak": 8526,
      "ĠfalÃ½": 8527,
      "ev": 8528,
      "ĠselÃ¡": 8529,
      "Ġdovat": 8530,
      "Ġtiku": 8531,
      "ĠmoÅĪ": 8532,
      "Ġruny": 8533,
      "ĠÅ¾ivÄĽ": 8534,
      "ĠlÃŃnÃ¡": 8535,
      "ĠzdÅĻÃŃ": 8536,
      "ĠhavÃ½": 8537,
      "Ġlum": 8538,
      "Ġsoka": 8539,
      "ĠprÃ¡vÃŃ": 8540,
      "ĠhvÄĽzda": 8541,
      "ĠznÃ¡me": 8542,
      "ĠkÅĻiÄį": 8543,
      "Ġzjevy": 8544,
      "Ġblohu": 8545,
      "ĠÅĪÃ¡k": 8546,
      "ĠchÅĻice": 8547,
      "chod": 8548,
      "ĠvÄĽla": 8549,
      "Ġvoli": 8550,
      "Ġvory": 8551,
      "ĠlÃ¡ci": 8552,
      "ĠÄįÃŃhÃ¡": 8553,
      "ĠpÃ¡l": 8554,
      "ĠÅĻivÃ¡": 8555,
      "ĠstudÃŃ": 8556,
      "ĠrÃ©v": 8557,
      "Ġskorem": 8558,
      "Ġsbu": 8559,
      "ĠÅ¡eptÃ¡": 8560,
      "Ġbrouk": 8561,
      "Ġjmeno": 8562,
      "ĠspÄĽchem": 8563,
      "Ġzvem": 8564,
      "Ġhada": 8565,
      "Ġfem": 8566,
      "Ġchudou": 8567,
      "ĠzÃŃk": 8568,
      "ĠsÃ¡d": 8569,
      "Ġhyn": 8570,
      "Ġzbr": 8571,
      "Ġvklu": 8572,
      "Ġzon": 8573,
      "Ġvstej": 8574,
      "ĠnechÃ¡": 8575,
      "Ġpravdu": 8576,
      "Ġknihu": 8577,
      "ĠhnÃŃzda": 8578,
      "ĠvyÅ¡Å¡ÃŃ": 8579,
      "ĠtklivÃ¡": 8580,
      "mem": 8581,
      "Ġstava": 8582,
      "ĠdanÃ½": 8583,
      "Ġhlady": 8584,
      "Ġhladu": 8585,
      "ĠtÃ¡cÃŃ": 8586,
      "ĠvpÅĻÃ¡": 8587,
      "ĠprÃ¡vo": 8588,
      "ĠABBAAX": 8589,
      "ĠspÃ¡sa": 8590,
      "ĠÅ¡las": 8591,
      "ĠmdlÃŃ": 8592,
      "ĠÅ¡atem": 8593,
      "Ġumr": 8594,
      "ĠvÅĻÃŃs": 8595,
      "ĠÅ¡kra": 8596,
      "Ġpeklo": 8597,
      "ĠoÅĻi": 8598,
      "ĠtavÄĽ": 8599,
      "ĠjÃŃÅĻ": 8600,
      "ĠÅ¡eti": 8601,
      "Ġsici": 8602,
      "ĠstÃ¡tu": 8603,
      "ĠvlnÃ¡ch": 8604,
      "ĠtelÅ¯": 8605,
      "sten": 8606,
      "ĠklÃŃÄįÃŃ": 8607,
      "ĠlenÃ½m": 8608,
      "hev": 8609,
      "ĠvÄįlo": 8610,
      "ĠÅ¡van": 8611,
      "Ġbrys": 8612,
      "ĠnÃ¡na": 8613,
      "ĠniÄįÃŃ": 8614,
      "ĠlodÃŃ": 8615,
      "ĠdÃŃle": 8616,
      "ĠvÃ½skÃ¡": 8617,
      "Ġchytil": 8618,
      "Ġdlej": 8619,
      "Ġmatko": 8620,
      "Ġzhrd": 8621,
      "ĠvÃ¡Å¡nÄĽ": 8622,
      "ĠklÃ¡tÃŃ": 8623,
      "ĠneÄįnÄĽ": 8624,
      "Ġdobou": 8625,
      "ĠschrÃ¡n": 8626,
      "ĠABX": 8627,
      "ĠtÃ¡Å¾e": 8628,
      "Ġbrach": 8629,
      "ĠkroÄįÃŃ": 8630,
      "Ġdivou": 8631,
      "ĠotÄįe": 8632,
      "ĠslouÅ¾il": 8633,
      "ĠslÃŃp": 8634,
      "Ġjinak": 8635,
      "ĠzbudÃŃ": 8636,
      "Ġhostem": 8637,
      "ĠÅ¡Ã¡lÃŃ": 8638,
      "Ġhora": 8639,
      "ĠhodÄĽ": 8640,
      "ĠliÅ¥": 8641,
      "ĠkrÃ¡snou": 8642,
      "ĠvÄĽÄįnost": 8643,
      "Ġsily": 8644,
      "Ġvodil": 8645,
      "ĠlostnÃ©": 8646,
      "ĠlovstvÃŃ": 8647,
      "ĠÅ¡ilo": 8648,
      "Ġkladem": 8649,
      "Ġstili": 8650,
      "Ġzchlad": 8651,
      "ĠbdÃŃm": 8652,
      "ĠcÃŃrk": 8653,
      "Ġryth": 8654,
      "ĠÃ¡t": 8655,
      "ĠdnÅ¯m": 8656,
      "ĠÅ¡Ã¡l": 8657,
      "ĠtaÅ¡": 8658,
      "ĠboÅ¡": 8659,
      "Ġpata": 8660,
      "ĠpÅĻer": 8661,
      "Ġcot": 8662,
      "Ġpravy": 8663,
      "ĠreÅ¾": 8664,
      "ĠpustÃ¡": 8665,
      "Ġvhrou": 8666,
      "Ġtral": 8667,
      "ĠvjÃŃÅ¾": 8668,
      "ĠvÄĽry": 8669,
      "Ġsau": 8670,
      "ĠÃºkol": 8671,
      "ĠsÃ¡lÃ¡": 8672,
      "ĠbracÃŃ": 8673,
      "ĠvÃ¡mi": 8674,
      "ĠzÅĻenÃŃ": 8675,
      "ĠkrÃ¡lÅ¯": 8676,
      "Ġzbylo": 8677,
      "Ġvezdy": 8678,
      "Ġsnuje": 8679,
      "ĠvrÅ¯z": 8680,
      "bÅ¯": 8681,
      "os": 8682,
      "ĠletÄĽ": 8683,
      "ĠvavÃ¡": 8684,
      "Ġvoze": 8685,
      "Ġbolest": 8686,
      "ĠpÅĻede": 8687,
      "ĠbÃŃÄį": 8688,
      "Ġchuti": 8689,
      "Ġdruhy": 8690,
      "ĠztvÃ¡": 8691,
      "ĠkÅĻÃŃdlech": 8692,
      "ĠtelstvÃŃ": 8693,
      "zet": 8694,
      "Ġtlak": 8695,
      "ĠzvÄĽna": 8696,
      "ĠznaÄį": 8697,
      "ĠmraÄįna": 8698,
      "ĠÅ¾ely": 8699,
      "ĠlÃŃbil": 8700,
      "ĠÄįiÅ¾": 8701,
      "ĠpÃŃk": 8702,
      "Ġnesa": 8703,
      "ĠkryjÃŃ": 8704,
      "ĠskrÃ½Å¡e": 8705,
      "ĠtÅĻÃ¡st": 8706,
      "ĠmlÃŃ": 8707,
      "ĠÅ¡to": 8708,
      "Ġboky": 8709,
      "ĠmÃŃrat": 8710,
      "ĠÅĻÃŃma": 8711,
      "ĠdÃ½l": 8712,
      "Ġblaka": 8713,
      "Ġblek": 8714,
      "Ġneslo": 8715,
      "Ġspar": 8716,
      "ĠÄįÃ¡p": 8717,
      "ĠbiÄįku": 8718,
      "ĠchtÃŃc": 8719,
      "ĠnÄĽjÃŃ": 8720,
      "ĠÅĻenÃ¡": 8721,
      "ĠpravÃ¡": 8722,
      "ĠpÃ¡Å¾e": 8723,
      "ĠlÃ©pe": 8724,
      "ĠkleÄį": 8725,
      "ĠslÃ¡n": 8726,
      "ĠhÃ½bÃ¡": 8727,
      "ĠtÄĽzem": 8728,
      "ĠmalÃŃ": 8729,
      "ĠplouÅ¾ÃŃ": 8730,
      "Ġkdosi": 8731,
      "Ġvsklo": 8732,
      "Ġzmatku": 8733,
      "ĠvjichÅ¾": 8734,
      "ĠtkvÄĽl": 8735,
      "kej": 8736,
      "Ġroji": 8737,
      "ĠmÄĽnu": 8738,
      "ĠsÃŃlÃ¡": 8739,
      "Ġhynul": 8740,
      "ĠzradÃŃ": 8741,
      "ĠhÃ½ÅĻÃŃ": 8742,
      "Ġvlep": 8743,
      "ĠvatÃ½": 8744,
      "ĠhlednÃ©": 8745,
      "ĠÅ¡pl": 8746,
      "ĠbÅĻÃŃmÄĽ": 8747,
      "ĠfÃ¡d": 8748,
      "ĠvcÃ¡": 8749,
      "Ġvtrh": 8750,
      "hÃ¡t": 8751,
      "ĠlhÃ¡t": 8752,
      "Ġznu": 8753,
      "Ġselo": 8754,
      "Ġkynul": 8755,
      "Ġvzno": 8756,
      "Ġstatek": 8757,
      "ĠzÃ¡nÃŃ": 8758,
      "ĠhledÄĽt": 8759,
      "ĠÅ¡inou": 8760,
      "ĠstrasÅ¥": 8761,
      "ĠchÃ¡nÃŃ": 8762,
      "ĠplÃ½ch": 8763,
      "ĠzujÃŃ": 8764,
      "Ġbrz": 8765,
      "Ġnezv": 8766,
      "ĠÅ¡ach": 8767,
      "ĠdrÃ¡ze": 8768,
      "Ġspros": 8769,
      "Ġvmrak": 8770,
      "Ġnii": 8771,
      "ĠlomÃŃ": 8772,
      "ĠdÃ¡Å¾": 8773,
      "ĠkÅĻÃŃdel": 8774,
      "Ġnikdo": 8775,
      "ĠkÅĻikem": 8776,
      "ĠschvÃŃ": 8777,
      "ĠrodnÃ©": 8778,
      "ĠblÃ½Å¡": 8779,
      "ĠvÅĻava": 8780,
      "Ġvskle": 8781,
      "zim": 8782,
      "ĠÅ¡tu": 8783,
      "Ġlibek": 8784,
      "ĠnovÃ©m": 8785,
      "lik": 8786,
      "Ġberou": 8787,
      "ĠhÃ¡vu": 8788,
      "Ġdrama": 8789,
      "Ġplna": 8790,
      "Ġskoku": 8791,
      "Ġpadl": 8792,
      "ĠhodnÃ©": 8793,
      "Ġlovna": 8794,
      "yl": 8795,
      "ĠhoÅ¡": 8796,
      "Ġdop": 8797,
      "Ġlab": 8798,
      "ĠrosÃŃ": 8799,
      "Ġcovat": 8800,
      "ĠvsvÃ¡": 8801,
      "ĠsouÅ¾ÃŃ": 8802,
      "Ġbledou": 8803,
      "Ġspala": 8804,
      "Ġbesku": 8805,
      "ĠhÅ¯d": 8806,
      "ĠzÅ¯stal": 8807,
      "ĠvÄĽnci": 8808,
      "ĠÅ¥uk": 8809,
      "ĠvÃ¡lÃŃ": 8810,
      "ĠÄįeli": 8811,
      "ĠfÃ¡l": 8812,
      "Ġstuj": 8813,
      "Ġnebem": 8814,
      "ĠsnÄĽhy": 8815,
      "ĠkÅĻeÄį": 8816,
      "Ġblesku": 8817,
      "Ġzmaru": 8818,
      "ĠvzplÃ¡t": 8819,
      "ĠvplÃ¡Å¡Å¥": 8820,
      "ĠdÃ³m": 8821,
      "ĠdnÃŃm": 8822,
      "ĠzÅĻi": 8823,
      "ĠrÅ¾Ã¡": 8824,
      "ĠstvÃ½ch": 8825,
      "ĠhonÄĽ": 8826,
      "ĠvÃ¡d": 8827,
      "ĠpaÅ¾e": 8828,
      "ĠlÃ¡ÅĻi": 8829,
      "ĠmykÃ¡": 8830,
      "ĠstoÅĻe": 8831,
      "ĠklanÃŃ": 8832,
      "Ġblaku": 8833,
      "Ġnemo": 8834,
      "Ġtrudy": 8835,
      "ĠÅ¡eptal": 8836,
      "ĠblÃŃÅ¾il": 8837,
      "ĠvzdechÅ¯": 8838,
      "Ġvtaji": 8839,
      "Ġjezd": 8840,
      "ĠtviÄį": 8841,
      "ĠvÃŃvÃ¡": 8842,
      "ĠdÃ¡vÃ¡m": 8843,
      "Ġsov": 8844,
      "ĠdÃ½Å¡ÃŃ": 8845,
      "vel": 8846,
      "Ġmrl": 8847,
      "ĠvatÃ©": 8848,
      "ĠmÃ½lÃŃ": 8849,
      "ĠpliÄį": 8850,
      "Ġstesku": 8851,
      "ĠvÃŃtr": 8852,
      "ĠtesknÃ©": 8853,
      "Ġmol": 8854,
      "ĠdiÃŃ": 8855,
      "ĠzÃ¡z": 8856,
      "ĠkÅ¯Å¾e": 8857,
      "ĠzlatÄĽ": 8858,
      "Ġhoup": 8859,
      "ĠpÅ¯dy": 8860,
      "ĠanÅ¥": 8861,
      "Ġkvel": 8862,
      "Ġkpou": 8863,
      "Ġbali": 8864,
      "ĠvÃ¡lky": 8865,
      "ĠpÅĻÃŃsnÄĽ": 8866,
      "ĠvÄĽjÅ¡ÃŃ": 8867,
      "ĠAAAXBB": 8868,
      "rt": 8869,
      "zal": 8870,
      "ĠjiÅĻÃŃ": 8871,
      "ĠtÄĽli": 8872,
      "ĠdÄĽnÃ©": 8873,
      "nej": 8874,
      "ĠhledÄĽ": 8875,
      "ĠvtvÅ¯j": 8876,
      "ĠjemnÃ¡": 8877,
      "ĠzhÅĻe": 8878,
      "ĠtrudÃŃ": 8879,
      "Ġskryla": 8880,
      "Ġdcery": 8881,
      "Ġhlod": 8882,
      "Ġvrum": 8883,
      "Ġgie": 8884,
      "ĠhÃ¡dce": 8885,
      "ĠsÃ¡hla": 8886,
      "Ġnedal": 8887,
      "ĠmroucÃŃ": 8888,
      "ov": 8889,
      "ĠbÅĻa": 8890,
      "Ġleji": 8891,
      "ĠleÅ¾el": 8892,
      "ĠkanÃ½": 8893,
      "Ġlaj": 8894,
      "Ġzeh": 8895,
      "Ġtuze": 8896,
      "ĠvÃ½r": 8897,
      "ĠtrÄį": 8898,
      "ĠchorÃ½": 8899,
      "Ġvplu": 8900,
      "Ġrozum": 8901,
      "Ġvklen": 8902,
      "Ġslel": 8903,
      "ĠzoÅĻi": 8904,
      "Ġzhrou": 8905,
      "Ġpoznal": 8906,
      "ĠzpÄĽvem": 8907,
      "Ġzles": 8908,
      "ĠskÃ©mu": 8909,
      "ĠvhÃ¡j": 8910,
      "Ġlii": 8911,
      "ĠslÅ¯m": 8912,
      "Ġdas": 8913,
      "ĠbaÅ¡": 8914,
      "Ġluhu": 8915,
      "ĠAABBBX": 8916,
      "ĠvÅ¾er": 8917,
      "ĠslovÃŃ": 8918,
      "Ġvracel": 8919,
      "Ġskane": 8920,
      "ĠsmÃ¡ti": 8921,
      "Ġlnu": 8922,
      "ĠÅ¾ne": 8923,
      "ĠkoÅĻen": 8924,
      "ĠvavÄĽ": 8925,
      "ĠvÃ¡Äį": 8926,
      "ĠlÃŃÄįek": 8927,
      "ĠmÃŃnat": 8928,
      "Ġlus": 8929,
      "ĠÅ¡iny": 8930,
      "ĠstÃ¡lÃ¡": 8931,
      "ĠhÃ¡dÃ¡": 8932,
      "ĠzÃŃd": 8933,
      "ĠvelkÃ©": 8934,
      "Ġvhvoz": 8935,
      "kop": 8936,
      "Ġtekla": 8937,
      "Ġproudu": 8938,
      "ĠviÄįka": 8939,
      "ĠzdÄĽt": 8940,
      "Ġzhyne": 8941,
      "ĠnÄĽjÅ¡ÃŃch": 8942,
      "ĠvvÄĽ": 8943,
      "ĠÅ¾hÃ¡": 8944,
      "Ġnai": 8945,
      "Ġpory": 8946,
      "Ġveh": 8947,
      "ÅĻÃŃÅ¡": 8948,
      "ĠdivÄĽ": 8949,
      "ĠpÃŃvÃ¡": 8950,
      "ĠzÃŃcÃŃ": 8951,
      "Ġsluchu": 8952,
      "ĠbÃ¡dÃ¡": 8953,
      "Ġchmuru": 8954,
      "ĠzluÅ¡": 8955,
      "Ġvpur": 8956,
      "ĠvznÃŃtÃŃ": 8957,
      "ĠshlÃŃÅ¾ÃŃ": 8958,
      "ĠbojÃŃm": 8959,
      "ĠÄįtver": 8960,
      "ĠkplÃ¡Äįi": 8961,
      "Ġchmel": 8962,
      "hlÃ¡": 8963,
      "ĠÄįle": 8964,
      "ĠloÅ¾ÃŃ": 8965,
      "Ġmoty": 8966,
      "ĠstiÅ¾": 8967,
      "ĠstiskÃ¡": 8968,
      "Ġvdr": 8969,
      "CCA": 8970,
      "ĠmnÄĽl": 8971,
      "Ġnesli": 8972,
      "Ġplete": 8973,
      "ĠvodnÃŃ": 8974,
      "ĠvdÄĽkÅ¯": 8975,
      "Ġvzav": 8976,
      "ĠÅ¾Ã¡dal": 8977,
      "Ġzcest": 8978,
      "Ġhold": 8979,
      "Ġzluk": 8980,
      "ĠsdÃŃv": 8981,
      "ĠABBCCA": 8982,
      "ĠlÃ©zt": 8983,
      "ĠzhvÄĽzd": 8984,
      "tru": 8985,
      "ĠnÄĽno": 8986,
      "Ġnotu": 8987,
      "nÄĽt": 8988,
      "Ġsamy": 8989,
      "ĠAABBAA": 8990,
      "Ġvalem": 8991,
      "ĠrÃ½n": 8992,
      "Ġklonil": 8993,
      "Ġdivu": 8994,
      "Ġslila": 8995,
      "ĠpÄĽknÃ©": 8996,
      "ĠmÅĻÃŃÅ¾ÃŃ": 8997,
      "hej": 8998,
      "ĠstarÃ©": 8999,
      "ĠchrlÃŃ": 9000,
      "ĠlÃŃÄįku": 9001,
      "Ġcouv": 9002,
      "ĠÄįÃ¡tku": 9003,
      "Ġvzmar": 9004,
      "Ġlymp": 9005,
      "th": 9006,
      "ĠbÅĻad": 9007,
      "ĠÄįÃ¡l": 9008,
      "ĠdomÄĽ": 9009,
      "Ġlova": 9010,
      "Ġmotu": 9011,
      "Ġstiti": 9012,
      "Ġsoch": 9013,
      "Ġres": 9014,
      "Ġpouta": 9015,
      "ĠvkvÃŃ": 9016,
      "Ġzuj": 9017,
      "ĠskÃ¡lu": 9018,
      "AXB": 9019,
      "Ġdvoru": 9020,
      "ĠvlÃŃt": 9021,
      "Ġbrazem": 9022,
      "ĠsmavÃ½": 9023,
      "ĠvÅĻavu": 9024,
      "ĠÅ¡lÃ©nky": 9025,
      "Ġvzdory": 9026,
      "Ġvvz": 9027,
      "ĠsvraÅ¡": 9028,
      "ĠnevÃŃm": 9029,
      "Ġzali": 9030,
      "Ġulic": 9031,
      "ĠbokÃ¡": 9032,
      "liÅ¡": 9033,
      "ĠtuÅ¡il": 9034,
      "ĠÅ¾ÃŃly": 9035,
      "vad": 9036,
      "Ġvtvou": 9037,
      "ĠÄįerem": 9038,
      "ĠdÃ©le": 9039,
      "Ġkroji": 9040,
      "ĠÅ¡lenek": 9041,
      "Ġkpi": 9042,
      "Ġvnebi": 9043,
      "Ġvesny": 9044,
      "Ġbrazy": 9045,
      "ĠzdrÃ¡va": 9046,
      "ĠzrÃ¡dce": 9047,
      "ĠÅ¡etÅĻ": 9048,
      "Ġbvi": 9049,
      "Ġrro": 9050,
      "ĠstvÅ¯r": 9051,
      "ĠcenÃ½ch": 9052,
      "Ġline": 9053,
      "Ġmeh": 9054,
      "ĠmadÄĽ": 9055,
      "ĠplnÃ¡": 9056,
      "Ġbrlo": 9057,
      "ĠÅ¡uje": 9058,
      "Ġkple": 9059,
      "Ġsnese": 9060,
      "Ġprosil": 9061,
      "Ġzkus": 9062,
      "ĠbÅĻehÅ¯": 9063,
      "ĠnaÅ¡ich": 9064,
      "Ġnaven": 9065,
      "ĠkÃ½val": 9066,
      "BAX": 9067,
      "Ġslunci": 9068,
      "ĠnickÃ½": 9069,
      "Ġcym": 9070,
      "Ġgis": 9071,
      "ĠdlÃ¡m": 9072,
      "Ġprslek": 9073,
      "ĠbiÄįka": 9074,
      "Ġvskutku": 9075,
      "ĠchÅĻa": 9076,
      "ĠbokÅ¯": 9077,
      "ĠrÃ¡t": 9078,
      "Ġhati": 9079,
      "Ġprsty": 9080,
      "vÃ¡l": 9081,
      "Ġvdar": 9082,
      "Ġzmou": 9083,
      "ĠplÃ¡ti": 9084,
      "ĠkÅĻÃŃsÃŃ": 9085,
      "ĠhÃ©ho": 9086,
      "ĠznÄĽho": 9087,
      "ĠÅ¾alem": 9088,
      "ĠbilÃŃ": 9089,
      "ĠlebÃŃ": 9090,
      "ĠdruhÃ©": 9091,
      "Ġvpan": 9092,
      "Ġzmatek": 9093,
      "ĠsmÃ¡li": 9094,
      "ĠsvatÃ½ch": 9095,
      "Ġkvetly": 9096,
      "ĠÅ¡ma": 9097,
      "Ġnij": 9098,
      "Ġrach": 9099,
      "Ġbic": 9100,
      "ĠvbrÃ¡": 9101,
      "ĠhrÃ¡lo": 9102,
      "Ġslout": 9103,
      "ĠhrudÃŃ": 9104,
      "Ġvsrdci": 9105,
      "ĠhlÃ¡sky": 9106,
      "ĠmdlÃ½ch": 9107,
      "Ġbludy": 9108,
      "ĠskrÃ½val": 9109,
      "ĠhÃ¡dku": 9110,
      "Ġprsa": 9111,
      "Ġzbuj": 9112,
      "Ġtiskne": 9113,
      "Ġzdych": 9114,
      "Ġminul": 9115,
      "ĠvoÅĻil": 9116,
      "Ġmenout": 9117,
      "ĠsptÃ¡": 9118,
      "tÄĽn": 9119,
      "Ġryje": 9120,
      "ĠsvÃ¡tek": 9121,
      "ĠtrÅ¯nÃŃ": 9122,
      "ĠsmyÄį": 9123,
      "ĠneÄįek": 9124,
      "Ġhokam": 9125,
      "Ġslze": 9126,
      "ĠÅ¡enÃ½ch": 9127,
      "ĠvitÃ¡": 9128,
      "ĠÅĻiÅ¥": 9129,
      "Ġgou": 9130,
      "Ġjedem": 9131,
      "Ġschva": 9132,
      "Ġpalem": 9133,
      "ĠhroznÃ¡": 9134,
      "ĠklamnÃ©": 9135,
      "ĠbdÃŃt": 9136,
      "Ġlinou": 9137,
      "Ġvep": 9138,
      "ĠÄįeskÃ©": 9139,
      "Ġdag": 9140,
      "ĠsivÃ½": 9141,
      "ĠÅ¾ÃŃk": 9142,
      "ĠsrdcÃŃ": 9143,
      "ĠjemnÃ½": 9144,
      "ĠpÃŃsku": 9145,
      "ĠdivnÃ©": 9146,
      "Ġjom": 9147,
      "Ġkmeny": 9148,
      "Ġkvasu": 9149,
      "Ġztad": 9150,
      "ĠkpÅĻedu": 9151,
      "Ġkprav": 9152,
      "pit": 9153,
      "ĠtcÅ¯": 9154,
      "ĠkÅ¡e": 9155,
      "ĠvÄĽzÃŃ": 9156,
      "ĠvÄĽÅĻit": 9157,
      "ĠdÄĽr": 9158,
      "ĠdanÃŃ": 9159,
      "ĠtrvÃ¡": 9160,
      "Ġbavy": 9161,
      "ĠvÅ¾lu": 9162,
      "stit": 9163,
      "Ġvbit": 9164,
      "ĠhluÅ¡ÃŃ": 9165,
      "Ġstoupil": 9166,
      "ĠslavnÃ½": 9167,
      "Ġvlasem": 9168,
      "ĠzvÃ¡Å¡": 9169,
      "Ġzjara": 9170,
      "dit": 9171,
      "Ġrop": 9172,
      "ĠkyÅ¾": 9173,
      "ĠstivÃ½": 9174,
      "Ġpraha": 9175,
      "Ġvraj": 9176,
      "Ġvrahy": 9177,
      "Ġmravy": 9178,
      "ĠrouÅ¾": 9179,
      "ĠnÄĽmÄĽ": 9180,
      "ĠvnikÃ¡": 9181,
      "Ġzvedl": 9182,
      "ĠbÅĻÃŃzy": 9183,
      "ĠÃ¡ly": 9184,
      "ĠspouÅ¡tÃŃ": 9185,
      "bor": 9186,
      "ĠseÄįe": 9187,
      "Ġlav": 9188,
      "Ġbudil": 9189,
      "Ġvsp": 9190,
      "Ġstoh": 9191,
      "Ġvlad": 9192,
      "ĠsloÅ¾": 9193,
      "ĠvlÃ¡sky": 9194,
      "Ġksy": 9195,
      "Ġnicky": 9196,
      "ĠbÃ¡snÃŃ": 9197,
      "ĠvzkvÃ©": 9198,
      "ĠvÅ¡ad": 9199,
      "ctno": 9200,
      "ĠtÃŃsni": 9201,
      "ĠsvatÃ©m": 9202,
      "Ġnachem": 9203,
      "ĠkÅĻovÃŃ": 9204,
      "ĠchmÅ¯": 9205,
      "ĠtovÄĽ": 9206,
      "ĠnÃ¡te": 9207,
      "ĠdeÅ¡el": 9208,
      "ĠÄįeÅĻÃŃ": 9209,
      "Ġkyni": 9210,
      "ĠloubÃŃ": 9211,
      "Ġplese": 9212,
      "Ġzkli": 9213,
      "Ġjuj": 9214,
      "ĠbÃŃdnÃ½": 9215,
      "ĠniÄįka": 9216,
      "ĠzvÃ¡nÃŃ": 9217,
      "ĠmÅĻÃŃÅ¾e": 9218,
      "Ġharf": 9219,
      "Ġsprost": 9220,
      "ĠspÄĽchal": 9221,
      "ĠvzpÃŃrÃ¡": 9222,
      "ĠhÃºt": 9223,
      "Ġsklem": 9224,
      "ĠcÃŃp": 9225,
      "ĠÅĻela": 9226,
      "ĠtÃ¡t": 9227,
      "ĠsoÄįÃŃ": 9228,
      "ĠsvÄĽtlem": 9229,
      "ĠstoupÃŃ": 9230,
      "ĠdÄĽsnÃ¡": 9231,
      "Ġraly": 9232,
      "ĠnnÄĽj": 9233,
      "Ġvluz": 9234,
      "ĠcÃº": 9235,
      "Ġtika": 9236,
      "Ġmav": 9237,
      "ĠkÃ¡na": 9238,
      "Ġbami": 9239,
      "ĠstÃ¡ÄįÃŃ": 9240,
      "ĠvalnÃ©": 9241,
      "ĠprÃ¡ch": 9242,
      "Ġsliz": 9243,
      "Ġtvary": 9244,
      "ĠpouÅ¡ti": 9245,
      "ĠdÄĽlal": 9246,
      "ĠplÃ½vÃ¡": 9247,
      "ĠvhluÄį": 9248,
      "ĠvzpÃŃnÃ¡": 9249,
      "ĠsÅ¾": 9250,
      "Ġtoka": 9251,
      "Ġtinu": 9252,
      "ĠstaÅĻÃŃ": 9253,
      "ĠbÄĽn": 9254,
      "Ġvdvo": 9255,
      "Ġbim": 9256,
      "Ġklest": 9257,
      "Ġzyl": 9258,
      "Ġchaly": 9259,
      "ĠsmÃ¡ly": 9260,
      "ĠkrouÅ¾": 9261,
      "ĠstÅĻin": 9262,
      "Ġstezku": 9263,
      "ĠschÅ¯z": 9264,
      "ĠtskÃ©": 9265,
      "Ġjep": 9266,
      "ĠÅ¡Å¯v": 9267,
      "ĠkoÅĻi": 9268,
      "ĠÄįenou": 9269,
      "Ġmul": 9270,
      "ĠpaÅ¾": 9271,
      "ĠzeÅ¡": 9272,
      "ĠdaÅ¥": 9273,
      "Ġvprud": 9274,
      "Ġdouf": 9275,
      "Ġrouhev": 9276,
      "ĠkrutÃ½": 9277,
      "ĠhÅĻÃŃvÃ¡": 9278,
      "bel": 9279,
      "ĠÅ¡pet": 9280,
      "Ġvbolu": 9281,
      "Ġnitro": 9282,
      "ĠbolnÃ¡": 9283,
      "ĠzbuÄı": 9284,
      "Ġvkraji": 9285,
      "Ġkvz": 9286,
      "ĠjvÄĽtÅ¡ÃŃ": 9287,
      "ĠÅ¡paÄį": 9288,
      "bÃ¡t": 9289,
      "ĠtnÃ½": 9290,
      "ĠtoÄįil": 9291,
      "Ġladu": 9292,
      "ĠtavÃŃ": 9293,
      "Ġmaj": 9294,
      "ĠjenÃ©": 9295,
      "ĠstinÄĽ": 9296,
      "ĠzÃ¡Å¡tÃŃ": 9297,
      "ĠpoutÃŃ": 9298,
      "Ġlemu": 9299,
      "ĠkraÅ¡": 9300,
      "ĠvÅĻely": 9301,
      "Ġjarem": 9302,
      "ĠvÅ¡ade": 9303,
      "ĠtÃ³ny": 9304,
      "ĠÅ¾asem": 9305,
      "Ġmeze": 9306,
      "ĠbenÃ½": 9307,
      "ĠlÃ¡l": 9308,
      "ĠpÄĽsti": 9309,
      "ĠÅĻic": 9310,
      "Ġhyly": 9311,
      "Ġziny": 9312,
      "ĠpodÃ¡l": 9313,
      "Ġbezd": 9314,
      "deÅĪ": 9315,
      "ĠchvÃŃÅ¡": 9316,
      "ĠvÅ¡echny": 9317,
      "jit": 9318,
      "ĠrÃ½Äį": 9319,
      "Ġvlez": 9320,
      "ĠslavnÃ©": 9321,
      "ĠvÄĽrou": 9322,
      "ĠdÃŃvka": 9323,
      "ĠvÃ¡nku": 9324,
      "Ġzlit": 9325,
      "Ġsklonil": 9326,
      "Ġzrud": 9327,
      "ĠvraÅ¾dy": 9328,
      "Ġmlej": 9329,
      "ĠzlatÃ©m": 9330,
      "ĠknÃ©m": 9331,
      "Ġmlo": 9332,
      "Ġzz": 9333,
      "ĠÅĻku": 9334,
      "Ġmaru": 9335,
      "ĠÅĻeje": 9336,
      "ĠradÄĽ": 9337,
      "ĠÄįata": 9338,
      "Ġklap": 9339,
      "ĠslyÅ¡et": 9340,
      "Ġkspa": 9341,
[...]
