{
  "version": "1.0",
  "truncation": null,
  "padding": null,
  "added_tokens": [
    {
      "id": 0,
      "content": "<|EOS|>",
      "single_word": false,
      "lstrip": false,
      "rstrip": false,
      "normalized": false,
      "special": true
    },
    {
      "id": 1,
      "content": "<|PAD|>",
      "single_word": false,
      "lstrip": false,
      "rstrip": false,
      "normalized": false,
      "special": true
    },
    {
      "id": 2,
      "content": "<|UNK|>",
      "single_word": false,
      "lstrip": false,
      "rstrip": false,
      "normalized": false,
      "special": true
    }
  ],
  "normalizer": null,
  "pre_tokenizer": {
    "type": "ByteLevel",
    "add_prefix_space": false,
    "trim_offsets": true,
    "use_regex": true
  },
  "post_processor": {
    "type": "ByteLevel",
    "add_prefix_space": true,
    "trim_offsets": false,
    "use_regex": true
  },
  "decoder": {
    "type": "ByteLevel",
    "add_prefix_space": true,
    "trim_offsets": true,
    "use_regex": true
  },
  "model": {
    "type": "BPE",
    "dropout": null,
    "unk_token": null,
    "continuing_subword_prefix": null,
    "end_of_word_suffix": null,
    "fuse_unk": false,
    "byte_fallback": false,
    "vocab": {
      "<|EOS|>": 0,
      "<|PAD|>": 1,
      "<|UNK|>": 2,
      "!": 3,
      "#": 4,
      "+": 5,
      ",": 6,
      ".": 7,
      "/": 8,
      "0": 9,
      "1": 10,
      "2": 11,
      "3": 12,
      "4": 13,
      "5": 14,
      "6": 15,
      "7": 16,
      "8": 17,
      "9": 18,
      "=": 19,
      "?": 20,
      "A": 21,
      "B": 22,
      "C": 23,
      "D": 24,
      "E": 25,
      "H": 26,
      "I": 27,
      "J": 28,
      "K": 29,
      "L": 30,
      "M": 31,
      "N": 32,
      "O": 33,
      "P": 34,
      "Q": 35,
      "R": 36,
      "S": 37,
      "T": 38,
      "U": 39,
      "W": 40,
      "X": 41,
      "Y": 42,
      "Z": 43,
      "`": 44,
      "a": 45,
      "b": 46,
      "c": 47,
      "d": 48,
      "e": 49,
      "f": 50,
      "g": 51,
      "h": 52,
      "i": 53,
      "j": 54,
      "k": 55,
      "l": 56,
      "m": 57,
      "n": 58,
      "o": 59,
      "p": 60,
      "q": 61,
      "r": 62,
      "s": 63,
      "t": 64,
      "u": 65,
      "v": 66,
      "w": 67,
      "x": 68,
      "y": 69,
      "z": 70,
      "¡": 71,
      "¢": 72,
      "¤": 73,
      "¥": 74,
      "¦": 75,
      "§": 76,
      "¨": 77,
      "©": 78,
      "ª": 79,
      "«": 80,
      "®": 81,
      "¯": 82,
      "²": 83,
      "³": 84,
      "´": 85,
      "¶": 86,
      "¹": 87,
      "º": 88,
      "»": 89,
      "¼": 90,
      "½": 91,
      "¾": 92,
      "Â": 93,
      "Ã": 94,
      "Ä": 95,
      "Å": 96,
      "Ï": 97,
      "â": 98,
      "Ċ": 99,
      "Ġ": 100,
      "Ģ": 101,
      "Ĥ": 102,
      "Ħ": 103,
      "ħ": 104,
      "ĩ": 105,
      "Ī": 106,
      "Ĭ": 107,
      "į": 108,
      "ı": 109,
      "Ĵ": 110,
      "ĵ": 111,
      "Ļ": 112,
      "ļ": 113,
      "Ľ": 114,
      "Ł": 115,
      "ł": 116,
      "Ń": 117,
      "Ġ#": 118,
      "Ġs": 119,
      "ÃŃ": 120,
      "Ġv": 121,
      "Ã¡": 122,
      "Ġn": 123,
      "Ġp": 124,
      "Ġ1": 125,
      "Ġj": 126,
      "Ġt": 127,
      "ÄĽ": 128,
      "Ġk": 129,
      "Ġz": 130,
      "Ġm": 131,
      "Ġd": 132,
      "Å¾": 133,
      "Ġa": 134,
      "ch": 135,
      "Ġb": 136,
      "la": 137,
      "Å¡": 138,
      "Ã½": 139,
      "ÅĻ": 140,
      "Ã©": 141,
      "le": 142,
      "Ġh": 143,
      "ou": 144,
      "st": 145,
      "Ġje": 146,
      "Ġse": 147,
      "em": 148,
      "Äį": 149,
      "ro": 150,
      "ak": 151,
      "Ġ10": 152,
      "Ġo": 153,
      "Ġ8": 154,
      "li": 155,
      "Ġne": 156,
      "Ġ11": 157,
      "ra": 158,
      "Ġpo": 159,
      "Ġna": 160,
      "en": 161,
      "Ġst": 162,
      "Å¯": 163,
      "lo": 164,
      "ce": 165,
      "je": 166,
      "Ġsv": 167,
      "XX": 168,
      "al": 169,
      "Ġr": 170,
      "Ġza": 171,
      "nÃŃ": 172,
      "ĠÅ¾": 173,
      "sk": 174,
      "Ġjak": 175,
      "Ġl": 176,
      "ÅĻe": 177,
      "il": 178,
      "ne": 179,
      "Ġc": 180,
      "AB": 181,
      "Ġf": 182,
      "Ġ9": 183,
      "Ġdo": 184,
      "ho": 185,
      "Ġto": 186,
      "at": 187,
      "de": 188,
      "nÄĽ": 189,
      "rÃ¡": 190,
      "Ġu": 191,
      "ÅĻÃŃ": 192,
      "no": 193,
      "te": 194,
      "Å¡e": 195,
      "ĠÄį": 196,
      "Ġji": 197,
      "Ġch": 198,
      "Ġ19": 199,
      "Ġ7": 200,
      "dy": 201,
      "na": 202,
      "ru": 203,
      "vo": 204,
      "lu": 205,
      "Ġve": 206,
      "it": 207,
      "ko": 208,
      "Ġjs": 209,
      "Ġle": 210,
      "nÃ½": 211,
      "Ġro": 212,
      "..": 213,
      "Ne": 214,
      "va": 215,
      "vÄĽ": 216,
      "ka": 217,
      "Ġpro": 218,
      "nÃ©": 219,
      "ÃŃm": 220,
      "Ġho": 221,
      "NI": 222,
      "ku": 223,
      "Ġby": 224,
      "di": 225,
      "Ġko": 226,
      "Ã¡m": 227,
      "Ġmi": 228,
      "Ġ6": 229,
      "Ġta": 230,
      "Ġjen": 231,
      "ni": 232,
      "do": 233,
      "nu": 234,
      "ĠÅ¡": 235,
      "Ġ12": 236,
      "Ġmo": 237,
      "vÃ¡": 238,
      "ÅĻi": 239,
      "Ġdu": 240,
      "Ġli": 241,
      "ci": 242,
      "Ã½ch": 243,
      "lÃ¡": 244,
      "Ġsp": 245,
      "Ġ18": 246,
      "Ġti": 247,
      "ti": 248,
      "jÃŃ": 249,
      "Ġbo": 250,
      "Ti": 251,
      "Ġco": 252,
      "Ġvz": 253,
      "ar": 254,
      "Ġtak": 255,
      "Im": 256,
      "tÄĽ": 257,
      "Ġi": 258,
      "Ġtu": 259,
      "Ġmu": 260,
      "nou": 261,
      "Re": 262,
      "ĠÅ¾e": 263,
      "ĠnÃŃ": 264,
      "Ġte": 265,
      "nÃ¡": 266,
      "vÃŃ": 267,
      "ky": 268,
      "Å¥": 269,
      "mu": 270,
      "Ġka": 271,
      "ĠAB": 272,
      "Ġvy": 273,
      "Ġno": 274,
      "as": 275,
      "ĠZ": 276,
      "du": 277,
      "00": 278,
      "po": 279,
      "lÃŃ": 280,
      "Ġ1900": 281,
      "Ġce": 282,
      "Ġg": 283,
      "Ã½m": 284,
      "to": 285,
      "er": 286,
      "Ġsk": 287,
      "XXXX": 288,
      "ÄĽt": 289,
      "Ġvi": 290,
      "XA": 291,
      "rA": 292,
      "vi": 293,
      "da": 294,
      "ly": 295,
      "Ġ13": 296,
      "Ġjsem": 297,
      "Ġpa": 298,
      "ĠnÃ¡": 299,
      "Ġru": 300,
      "ĠnÄĽ": 301,
      "Ġroz": 302,
      "Ġob": 303,
      "Ġsi": 304,
      "Se": 305,
      "Ġhla": 306,
      "Ġkdy": 307,
      "se": 308,
      "ve": 309,
      "Ix": 310,
      "...": 311,
      "vÃ©": 312,
      "tÃŃ": 313,
      "ĠABAB": 314,
      "Ġbu": 315,
      "ĠpÅĻe": 316,
      "Ġneb": 317,
      "ĠvÄĽ": 318,
      "Te": 319,
      "Ġsm": 320,
      "ĠtÄĽ": 321,
      "dÄĽ": 322,
      "Ġla": 323,
      "ji": 324,
      "Ġni": 325,
      "mi": 326,
      "Ni": 327,
      "ĠvÃŃ": 328,
      "ĠA": 329,
      "ĠvÅ¡": 330,
      "80": 331,
      "Ġ1880": 332,
      "RI": 333,
      "ĠdÃ¡": 334,
      "TI": 335,
      "ĠÃ": 336,
      "Ġod": 337,
      "Ġvo": 338,
      "ny": 339,
      "ÅĪ": 340,
      "20": 341,
      "ĠC": 342,
      "lÃ©": 343,
      "ĠvÅ¡e": 344,
      "cÃŃ": 345,
      "sti": 346,
      "ze": 347,
      "Ġpra": 348,
      "ĠXXXX": 349,
      "Ġjako": 350,
      "vu": 351,
      "ĠvÃ¡": 352,
      "Ġx": 353,
      "Ġku": 354,
      "Å¡ÃŃ": 355,
      "ta": 356,
      "dÃ¡": 357,
      "lou": 358,
      "ĠjÃŃ": 359,
      "Äı": 360,
      "Ġ1920": 361,
      "nE": 362,
      "Ġtv": 363,
      "Ġten": 364,
      "me": 365,
      "ÄįÃŃ": 366,
      "rd": 367,
      "vje": 368,
      "Ġbi": 369,
      "Ġbe": 370,
      "Ġty": 371,
      "Ġpr": 372,
      "ĠmÄĽ": 373,
      "ĠzÃ¡": 374,
      "dÃŃ": 375,
      "Å¾e": 376,
      "Ġtam": 377,
      "bo": 378,
      "ha": 379,
      "Ġra": 380,
      "ĠkrÃ¡": 381,
      "ĠdÃŃ": 382,
      "lI": 383,
      "sta": 384,
      "mo": 385,
      "ĠmÃ¡": 386,
      "De": 387,
      "ĠkdyÅ¾": 388,
      "kÃ¡": 389,
      "vI": 390,
      "Ġkr": 391,
      "Ã©m": 392,
      "Ġzem": 393,
      "Äįe": 394,
      "led": 395,
      "ma": 396,
      "Ġsla": 397,
      "Ġjeho": 398,
      "rak": 399,
      "Å¾ÃŃ": 400,
      "Å¯j": 401,
      "Ri": 402,
      "lA": 403,
      "ĠÄįe": 404,
      "by": 405,
      "ĠdÄĽ": 406,
      "jI": 407,
      "nA": 408,
      "ĠpÅĻi": 409,
      "ĠlÃ¡": 410,
      "Ġ5": 411,
      "val": 412,
      "ĠAAB": 413,
      "Ġme": 414,
      "Ġsrd": 415,
      "Ġslu": 416,
      "Ġlo": 417,
      "Ġze": 418,
      "Ġpod": 419,
      "tÃ¡": 420,
      "ĠÅ¾i": 421,
      "si": 422,
      "Ġjed": 423,
      "ĠsvÄĽt": 424,
      "Ġzas": 425,
      "ĠjÃ¡": 426,
      "ĠÅ¡e": 427,
      "lem": 428,
      "ĠlÃŃ": 429,
      "ĠvÅ¡ak": 430,
      "ĠÃº": 431,
      "ĠXA": 432,
      "hu": 433,
      "Ġnad": 434,
      "ĠrÃ¡": 435,
      "Ġsta": 436,
      "bi": 437,
      "men": 438,
      "mÄĽ": 439,
      "ĠtÃŃ": 440,
      "ki": 441,
      "ĠsvÃ©": 442,
      "ĠS": 443,
      "ry": 444,
      "Ġvla": 445,
      "Ġkte": 446,
      "Äįi": 447,
      "Ġky": 448,
      "vA": 449,
      "sa": 450,
      "tu": 451,
      "ĠZe": 452,
      "Ġkde": 453,
      "vy": 454,
      "DI": 455,
      "Å¡i": 456,
      "ej": 457,
      "ad": 458,
      "mÃŃ": 459,
      "ĠnA": 460,
      "ĠÅĻe": 461,
      "ĠAABB": 462,
      "bÄĽ": 463,
      "nI": 464,
      "bu": 465,
      "ĠcÃŃ": 466,
      "nÃ½ch": 467,
      "Ġpak": 468,
      "Ġhro": 469,
      "Ġci": 470,
      "be": 471,
      "Ġjest": 472,
      "lÃ½": 473,
      "ba": 474,
      "ĠjiÅ¾": 475,
      "40": 476,
      "kem": 477,
      "Di": 478,
      "Ġzla": 479,
      "Ġpla": 480,
      "su": 481,
      "stÃŃ": 482,
      "Ġmne": 483,
      "Ġmy": 484,
      "Ġot": 485,
      "Ġso": 486,
      "Ġnu": 487,
      "Ġpe": 488,
      "Ġgdi": 489,
      "ĠtÃ©": 490,
      "kou": 491,
      "sÃŃ": 492,
      "ste": 493,
      "ĠÅĻÃŃ": 494,
      "Ġnem": 495,
      "ĠXAXA": 496,
      "zd": 497,
      "Ġsa": 498,
      "Ġzp": 499,
      "Ġhle": 500,
      "ĠpRe": 501,
      "zi": 502,
      "ĠjeÅ¾": 503,
      "Ġva": 504,
      "ĠvI": 505,
      "ĠpÅĻÃŃ": 506,
      "Ġnej": 507,
      "Ġda": 508,
      "ĠvÃ½": 509,
      "Ġslo": 510,
      "Ġdne": 511,
      "lad": 512,
      "ĠmÃŃ": 513,
      "Ġbyl": 514,
      "Ġny": 515,
      "Ġma": 516,
      "Ġjej": 517,
      "Ġde": 518,
      "Ġvje": 519,
      "ĠstÃ¡": 520,
      "ĠpÃ¡": 521,
      "vÃ½": 522,
      "Ġhu": 523,
      "Ġbez": 524,
      "Å¡tÄĽ": 525,
      "Ġsto": 526,
      "ĠpÃŃ": 527,
      "Ġsrdce": 528,
      "ĠstÃŃ": 529,
      "Ġnes": 530,
      "Ġlu": 531,
      "cho": 532,
      "Ġnez": 533,
      "Ġpoh": 534,
      "Ġpos": 535,
      "Ġon": 536,
      "nce": 537,
      "ĠfS": 538,
      "Ġtr": 539,
      "sto": 540,
      "Ġdi": 541,
      "ĠbÃŃ": 542,
      "Å¯m": 543,
      "Ġden": 544,
      "vÄĽt": 545,
      "Å¾dy": 546,
      "Qt": 547,
      "ĠnÃ¡m": 548,
      "Ġlid": 549,
      "Ġdob": 550,
      "ĠmNe": 551,
      "ĠÄįi": 552,
      "Ġnebe": 553,
      "ĠfSe": 554,
      "hy": 555,
      "CC": 556,
      "Ġjsi": 557,
      "chu": 558,
      "vou": 559,
      "ĠlÃ¡sk": 560,
      "Ġkle": 561,
      "ĠÅ¡ÃŃ": 562,
      "ĠnÃ©": 563,
      "nÃ½m": 564,
      "Ġsvo": 565,
      "kÃ©": 566,
      "lE": 567,
      "Ġkter": 568,
      "ĠTi": 569,
      "zÃŃ": 570,
      "rat": 571,
      "ĠÅ¾ÃŃ": 572,
      "Ġale": 573,
      "Ġsy": 574,
      "Ġzd": 575,
      "Ġdru": 576,
      "ĠmÃ©": 577,
      "ĠvÅ¾dy": 578,
      "ĠÄįÃŃ": 579,
      "SI": 580,
      "nem": 581,
      "Ze": 582,
      "pu": 583,
      "Am": 584,
      "Ġzrak": 585,
      "ĠjenÅ¾": 586,
      "Ġstra": 587,
      "ĠbÄĽ": 588,
      "sTi": 589,
      "ri": 590,
      "kÅ¯": 591,
      "enÃŃ": 592,
      "Ġkdo": 593,
      "ĠTe": 594,
      "Ġ15": 595,
      "ĠpÅĻed": 596,
      "Ġnou": 597,
      "Ġly": 598,
      "Ġja": 599,
      "hÃ¡": 600,
      "ĠNi": 601,
      "Ġ14": 602,
      "ĠtvÃ¡": 603,
      "Ġvel": 604,
      "Ġkra": 605,
      "Ġnep": 606,
      "dou": 607,
      "Ġsvat": 608,
      "Ġsti": 609,
      "ĠaÅ¾": 610,
      "vat": 611,
      "ĠXXXXXX": 612,
      "cI": 613,
      "Ġmil": 614,
      "Ġbla": 615,
      "CI": 616,
      "ĠsÃŃ": 617,
      "Ġsna": 618,
      "pa": 619,
      "Ġtom": 620,
      "60": 621,
      "Ġstar": 622,
      "ĠzA": 623,
      "Ġre": 624,
      "Ġba": 625,
      "Ġzde": 626,
      "ĠdA": 627,
      "ĠÃ³": 628,
      "ÅĻÃ¡": 629,
      "pe": 630,
      "Ġtou": 631,
      "Ġpu": 632,
      "Ġmat": 633,
      "vot": 634,
      "ĠZi": 635,
      "Ġdra": 636,
      "Å¾i": 637,
      "Ce": 638,
      "kÃ½": 639,
      "vE": 640,
      "ĠjeS": 641,
      "sy": 642,
      "ĠgdiS": 643,
      "ĠkvÄĽt": 644,
      "Ġtem": 645,
      "Ġ4": 646,
      "Ġhra": 647,
      "Ġbude": 648,
      "Ġpou": 649,
      "Ġry": 650,
      "ĠkrA": 651,
      "Ġzlat": 652,
      "ĠkaÅ¾": 653,
      "Ġdnes": 654,
      "ĠteÄı": 655,
      "ĠprÃ¡": 656,
      "ĠmA": 657,
      "ĠdÃ¡l": 658,
      "ĠÄįas": 659,
      "ĠÄįer": 660,
      "rou": 661,
      "Ġsvou": 662,
      "ĠtÃ¡": 663,
      "Ġsvje": 664,
      "nost": 665,
      "Ġhlu": 666,
      "stu": 667,
      "ĠplÃ¡": 668,
      "ĠpRi": 669,
      "kA": 670,
      "pi": 671,
      "ĠuÅ¾": 672,
      "ĠsQt": 673,
      "rt": 674,
      "Ġ16": 675,
      "ZI": 676,
      "Ġmod": 677,
      "ĠneÅ¾": 678,
      "Ġjsme": 679,
      "Ġjas": 680,
      "ĠÅ¾en": 681,
      "Ġhlas": 682,
      "Ġoh": 683,
      "hou": 684,
      "vil": 685,
      "Ġkou": 686,
      "ty": 687,
      "jem": 688,
      "Ġ1940": 689,
      "Ġzvo": 690,
      "skÃ©": 691,
      "ĠjA": 692,
      "Ġsmu": 693,
      "Ġpoz": 694,
      "pÃŃ": 695,
      "Ġspo": 696,
      "mNe": 697,
      "Ġha": 698,
      "nul": 699,
      "Uj": 700,
      "ĠnÃ½": 701,
      "Ġjsou": 702,
      "Ġstro": 703,
      "ĠvÅ¡ech": 704,
      "ĠDe": 705,
      "tel": 706,
      "Ġchu": 707,
      "ĠmÅ¯j": 708,
      "BA": 709,
      "len": 710,
      "ĠtvÃ©": 711,
      "Ġmno": 712,
      "Ġsu": 713,
      "Ġnech": 714,
      "ĠfSak": 715,
      "ĠkÃ¡": 716,
      "Ci": 717,
      "ĠU": 718,
      "dem": 719,
      "mI": 720,
      "re": 721,
      "Ġslunce": 722,
      "Ġkli": 723,
      "ĠpÄĽ": 724,
      "Ġop": 725,
      "ĠbI": 726,
      "ĠhvÄĽ": 727,
      "Ġtvo": 728,
      "Ġsnad": 729,
      "nÃ©m": 730,
      "ĠnÃ¡s": 731,
      "Ġjim": 732,
      "Ġsl": 733,
      "ĠmnÄĽ": 734,
      "nÃŃm": 735,
      "my": 736,
      "cen": 737,
      "ĠrÅ¯": 738,
      "Si": 739,
      "ĠjeÅ¡tÄĽ": 740,
      "Ġgde": 741,
      "Ġvra": 742,
      "ĠĠ": 743,
      "nÅ¯": 744,
      "ĠsvE": 745,
      "ven": 746,
      "so": 747,
      "Ġhr": 748,
      "ĠduÅ¡e": 749,
      "Ġpl": 750,
      "mÃ¡": 751,
      "hle": 752,
      "bou": 753,
      "Ġkro": 754,
      "chÃ¡": 755,
      "Ġmar": 756,
      "Ġkla": 757,
      "ĠbÃ½": 758,
      "Ġe": 759,
      "rem": 760,
      "ĠABBA": 761,
      "Ġval": 762,
      "ĠlA": 763,
      "ĠkaÅ¾d": 764,
      "tA": 765,
      "Ġsmut": 766,
      "dÄĽl": 767,
      "ĠvÅ¯": 768,
      "ĠCe": 769,
      "Ġdy": 770,
      "Ġsem": 771,
      "nat": 772,
      "ĠbÃ¡": 773,
      "Ġ1860": 774,
      "ĠsÃ¡m": 775,
      "bÃŃ": 776,
      "ĠnÄĽm": 777,
      "ĠjejÃŃ": 778,
      "cem": 779,
      "Ġvl": 780,
      "Ġsou": 781,
      "Ġcho": 782,
      "dA": 783,
      "bje": 784,
      "Ġmilo": 785,
      "dla": 786,
      "Ġkol": 787,
      "Ġ1840": 788,
      "ĠhÃ¡": 789,
      "ĠNI": 790,
      "Ġhne": 791,
      "ĠvÅ¡ec": 792,
      "rÃ½": 793,
      "za": 794,
      "ĠaÅ¥": 795,
      "ĠvA": 796,
      "ÅĻen": 797,
      "ĠnÃŃm": 798,
      "Ġkam": 799,
      "Ġlet": 800,
      "sku": 801,
      "Ġpot": 802,
      "xo": 803,
      "Ġbou": 804,
      "zu": 805,
      "ĠchvÃŃ": 806,
      "ĠzÃŃ": 807,
      "ĠlÃ©": 808,
      "ĠDI": 809,
      "sTI": 810,
      "Ġbrat": 811,
      "tek": 812,
      "Ġnoc": 813,
      "ĠÅ¾ivot": 814,
      "Ġbil": 815,
      "ĠjiS": 816,
      "ĠN": 817,
      "rÃ¡t": 818,
      "Ġsly": 819,
      "Å¾en": 820,
      "ĠAA": 821,
      "Ġjich": 822,
      "ska": 823,
      "Ġok": 824,
      "Ġke": 825,
      "sI": 826,
      "nIx": 827,
      "Å¡el": 828,
      "ĠÅ¾Ã¡": 829,
      "nÃ¡m": 830,
      "Ġan": 831,
      "cha": 832,
      "sko": 833,
      "ĠvÃ¡m": 834,
      "Ġkolem": 835,
      "ĠvÄĽÄį": 836,
      "zy": 837,
      "nal": 838,
      "vem": 839,
      "Ġsen": 840,
      "ĠduÅ¡i": 841,
      "ĠrA": 842,
      "Ġsli": 843,
      "let": 844,
      "Ġrado": 845,
      "ĠÅ¡i": 846,
      "tk": 847,
      "Ġkre": 848,
      "Ġzb": 849,
      "an": 850,
      "Ġdal": 851,
      "pÄĽ": 852,
      "ĠsvÄĽ": 853,
      "Ġmal": 854,
      "nom": 855,
      "Ġzda": 856,
      "ĠkrÃ¡s": 857,
      "ĠÅĻ": 858,
      "ĠsQtce": 859,
      "tr": 860,
      "Ġdruh": 861,
      "Ġble": 862,
      "Ġslad": 863,
      "Ġles": 864,
      "ĠkÅĻÃŃ": 865,
      "ĠnenÃŃ": 866,
      "Ġjeji": 867,
      "Ġdlou": 868,
      "hla": 869,
      "Ġbych": 870,
      "Ġruce": 871,
      "sÅ¥": 872,
      "kla": 873,
      "Ġmoje": 874,
      "Ġju": 875,
      "ĠtÄĽch": 876,
      "tem": 877,
      "Ġzemi": 878,
      "Ġvlast": 879,
      "ĠpRI": 880,
      "Em": 881,
      "nosti": 882,
      "Ġboh": 883,
      "Å¯h": 884,
      "ĠNe": 885,
      "Ġnepo": 886,
      "Ġus": 887,
      "ĠchtÄĽ": 888,
      "ĠÅ¡tÄĽ": 889,
      "Ġmra": 890,
      "Ġprav": 891,
      "Ġple": 892,
      "Ġsko": 893,
      "vit": 894,
      "sla": 895,
      "Ġpan": 896,
      "spo": 897,
      "Ġvr": 898,
      "tra": 899,
      "nIm": 900,
      "co": 901,
      "Ġzlo": 902,
      "ĠkÅ¯": 903,
      "Ġsf": 904,
      "nek": 905,
      "ĠĊ": 906,
      "ĠtE": 907,
      "ĠpI": 908,
      "ĠptÃ¡": 909,
      "Ġhru": 910,
      "Ġjste": 911,
      "Ġhor": 912,
      "Zdi": 913,
      "ĠtÅĻe": 914,
      "Ġmou": 915,
      "ĠoÄįi": 916,
      "ĠzÅĻÃŃ": 917,
      "hne": 918,
      "Ġsil": 919,
      "Ġbylo": 920,
      "Ġtebe": 921,
      "stÃ¡": 922,
      "sÃ¡": 923,
      "Ġjenom": 924,
      "ĠslÃ¡": 925,
      "ĠvÄĽt": 926,
      "cÃŃch": 927,
      "ÅĻel": 928,
      "ĠÅ¾it": 929,
      "Ġnoci": 930,
      "ĠpA": 931,
      "Ġdla": 932,
      "ĠmI": 933,
      "ĠsvÃ½m": 934,
      "ĠjI": 935,
      "Ġmoc": 936,
      "ĠvÃ©": 937,
      "Ġmlad": 938,
      "Ġml": 939,
      "jÅ¡ÃŃ": 940,
      "ĠvÃŃc": 941,
      "vÃ½ch": 942,
      "Ġnich": 943,
      "pla": 944,
      "ĠlI": 945,
      "ĠsvÅ¯j": 946,
      "bÃ¡": 947,
      "py": 948,
      "Å¡en": 949,
      "stvÃŃ": 950,
      "zo": 951,
      "ast": 952,
      "Ġkru": 953,
      "um": 954,
      "jde": 955,
      "Ġstu": 956,
      "ĠmÃ¡m": 957,
      "ĠbÅ¯h": 958,
      "sli": 959,
      "zI": 960,
      "Ġklid": 961,
      "chy": 962,
      "Ġhlavu": 963,
      "ck": 964,
      "Ġzah": 965,
      "Ġnik": 966,
      "sl": 967,
      "Ġgdo": 968,
      "Ġote": 969,
      "xu": 970,
      "Ġcit": 971,
      "Ġhe": 972,
      "ved": 973,
      "Ġhy": 974,
      "ĠstA": 975,
      "ĠtÃŃm": 976,
      "ĠXX": 977,
      "Ġsvjet": 978,
      "ĠsmÄĽ": 979,
      "ĠjenS": 980,
      "ĠlÃ¡sky": 981,
      "lovÄĽ": 982,
      "pad": 983,
      "ĠsmÃŃ": 984,
      "Ġoko": 985,
      "stou": 986,
      "lik": 987,
      "Ġpad": 988,
      "skÃ½": 989,
      "chem": 990,
      "Ġjde": 991,
      "ĠsvÃ½ch": 992,
      "Ġmlu": 993,
      "nÃ©ho": 994,
      "Ġbyla": 995,
      "kU": 996,
      "ĠpÃŃs": 997,
      "Ġzvu": 998,
      "vnÃŃ": 999,
      "Ġste": 1000,
      "nil": 1001,
      "hÃ½": 1002,
      "Ġpi": 1003,
      "ĠmE": 1004,
      "ĠblÃŃ": 1005,
      "ĠtvÅ¯j": 1006,
      "Ġhned": 1007,
      "jen": 1008,
      "ĠaS": 1009,
      "Ġbra": 1010,
      "uje": 1011,
      "vÃ½m": 1012,
      "ĠÄįlovÄĽ": 1013,
      "ĠvZdi": 1014,
      "ĠAABBCC": 1015,
      "stÄĽ": 1016,
      "ĠsvÃŃ": 1017,
      "ĠmÄĽl": 1018,
      "ĠsnÄĽ": 1019,
      "ĠSe": 1020,
      "ĠRe": 1021,
      "Ġbole": 1022,
      "rÃ©": 1023,
      "Äįka": 1024,
      "Zi": 1025,
      "Ġboj": 1026,
      "ĠO": 1027,
      "Ġnev": 1028,
      "ĠpQ": 1029,
      "Äįen": 1030,
      "ĠvÃ¡s": 1031,
      "kal": 1032,
      "ĠtÃ©Å¾": 1033,
      "skÃ¡": 1034,
      "Ġtro": 1035,
      "pÃ¡": 1036,
      "ĠpÅ¯": 1037,
      "hi": 1038,
      "Ġnebo": 1039,
      "sud": 1040,
      "Ġslova": 1041,
      "Ġach": 1042,
      "ski": 1043,
      "ĠAAXX": 1044,
      "ÅĻil": 1045,
      "zen": 1046,
      "Ġzje": 1047,
      "ĠsobÄĽ": 1048,
      "Ġven": 1049,
      "Ġtoho": 1050,
      "ĠlÃ½": 1051,
      "TIm": 1052,
      "Ġtru": 1053,
      "dil": 1054,
      "ĠzpÄĽ": 1055,
      "ĠvÅ¡em": 1056,
      "ĠtobÄĽ": 1057,
      "Ġvu": 1058,
      "Ġzm": 1059,
      "Ġneu": 1060,
      "ĠDi": 1061,
      "ĠkaÅ¾dÃ½": 1062,
      "ĠproÄį": 1063,
      "Ġvol": 1064,
      "Ġchy": 1065,
      "ĠdÅĻÃŃ": 1066,
      "ĠCi": 1067,
      "ĠzdÃ¡": 1068,
      "Å¡Å¥": 1069,
      "Ġslun": 1070,
      "ĠtÄĽÅ¾": 1071,
      "Ġobra": 1072,
      "dle": 1073,
      "hA": 1074,
      "ĠzemÄĽ": 1075,
      "Ġani": 1076,
      "ĠÅ¾itÃŃ": 1077,
      "Ġzi": 1078,
      "ĠuS": 1079,
      "Ġchce": 1080,
      "Ġnebi": 1081,
      "Å¡ÃŃm": 1082,
      "lek": 1083,
      "Ġjeden": 1084,
      "Ġpok": 1085,
      "til": 1086,
      "Ġtich": 1087,
      "ĠkaZ": 1088,
      "Ġaby": 1089,
      "bit": 1090,
      "rÅ¯": 1091,
      "Ġhou": 1092,
      "tva": 1093,
      "Ġmezi": 1094,
      "Å¡tÃŃ": 1095,
      "ĠpÅĻes": 1096,
      "Ġkem": 1097,
      "Ġost": 1098,
      "ĠNem": 1099,
      "ĠnAm": 1100,
      "ĠpÅĻec": 1101,
      "ĠchvÄĽ": 1102,
      "Ġhled": 1103,
      "ĠhvÄĽz": 1104,
      "Ġzase": 1105,
      "ĠbuÄı": 1106,
      "sky": 1107,
      "Ġpat": 1108,
      "Ġslav": 1109,
      "ĠrÃ¡d": 1110,
      "RA": 1111,
      "Ġmrt": 1112,
      "Ġzo": 1113,
      "lil": 1114,
      "ĠspÃ¡": 1115,
      "Ġtma": 1116,
      "pr": 1117,
      "Ġkvje": 1118,
      "Ġsx": 1119,
      "lÃ½ch": 1120,
      "Ġjejich": 1121,
      "Ġsrdci": 1122,
      "Ġkrev": 1123,
      "rost": 1124,
      "hÃ©": 1125,
      "ĠsnÃŃ": 1126,
      "skE": 1127,
      "ĠleÄį": 1128,
      "Ġvzdu": 1129,
      "seÅĪ": 1130,
      "ĠteT": 1131,
      "Ġpoto": 1132,
      "Ġbled": 1133,
      "Ġmrak": 1134,
      "nky": 1135,
      "stal": 1136,
      "Ġros": 1137,
      "Äįer": 1138,
      "sty": 1139,
      "ĠvÅ¡ecko": 1140,
      "ĠprA": 1141,
      "pI": 1142,
      "ĠkÃ½": 1143,
      "Um": 1144,
      "RIm": 1145,
      "ĠmÅ¯": 1146,
      "vno": 1147,
      "Ġsmr": 1148,
      "Äįky": 1149,
      "Ġlit": 1150,
      "Ġnemo": 1151,
      "ĠÅĻi": 1152,
      "Ġmla": 1153,
      "Ġnevi": 1154,
      "ĠneS": 1155,
      "iti": 1156,
      "zem": 1157,
      "tÃ½": 1158,
      "pra": 1159,
      "NIm": 1160,
      "Äįek": 1161,
      "pomÃŃ": 1162,
      "Ġduch": 1163,
      "rod": 1164,
      "ĠmuÅ¾": 1165,
      "ĠCer": 1166,
      "mÅ¯": 1167,
      "ĠÅ¾al": 1168,
      "ĠplA": 1169,
      "ĠÄįa": 1170,
      "Ġdiv": 1171,
      "ĠÅ¡tÄĽstÃŃ": 1172,
      "nku": 1173,
      "Ġsed": 1174,
      "tÃŃm": 1175,
      "Ġjar": 1176,
      "Ã©ho": 1177,
      "Ġlou": 1178,
      "Ġpoko": 1179,
      "Ġum": 1180,
      "nka": 1181,
      "ĠnÃ¡Å¡": 1182,
      "ĠnaÅ¡e": 1183,
      "ĠdAl": 1184,
      "Ġoz": 1185,
      "Ġspje": 1186,
      "ÅĻem": 1187,
      "ĠÅ¡el": 1188,
      "skÃ½ch": 1189,
      "cÅ¯": 1190,
      "ĠtvA": 1191,
      "ĠhvÄĽzd": 1192,
      "Ġsebe": 1193,
      "ĠvlÃ¡": 1194,
      "Ġposled": 1195,
      "vali": 1196,
      "ĠstÅĻe": 1197,
      "ĠABABCC": 1198,
      "ĠzpÃŃ": 1199,
      "Ġprou": 1200,
      "Ġnat": 1201,
      "nec": 1202,
      "Ġmoh": 1203,
      "rov": 1204,
      "ĠCas": 1205,
      "nÃŃk": 1206,
      "Ġpom": 1207,
      "Ġnedo": 1208,
      "ĠhÅĻÃŃ": 1209,
      "Ġtomu": 1210,
      "ĠbÃ½t": 1211,
      "ĠtvÃ¡ÅĻ": 1212,
      "lÅ¯": 1213,
      "vala": 1214,
      "Ġnic": 1215,
      "ĠkaZd": 1216,
      "nout": 1217,
      "Ġnebes": 1218,
      "Ġper": 1219,
      "Ġsle": 1220,
      "dlo": 1221,
      "Ġnex": 1222,
      "Ġplamen": 1223,
      "den": 1224,
      "dal": 1225,
      "Ġpoli": 1226,
      "ĠspÄĽ": 1227,
      "ĠsÃ¡": 1228,
      "Ġklo": 1229,
      "Ġkraj": 1230,
      "Ġtra": 1231,
      "nÃŃch": 1232,
      "ĠdÄĽl": 1233,
      "ĠduSe": 1234,
      "Ġzno": 1235,
      "ĠmUj": 1236,
      "Ġvese": 1237,
      "dnÃ©": 1238,
      "vet": 1239,
      "ĠdÃŃv": 1240,
      "tku": 1241,
      "Ġzak": 1242,
      "tal": 1243,
      "ĠfSex": 1244,
      "Ġzbo": 1245,
      "dech": 1246,
      "Äįku": 1247,
      "ĠmlÃ¡": 1248,
      "Ġlem": 1249,
      "ĠtÃ½": 1250,
      "ĠjeSTe": 1251,
      "Ġdar": 1252,
      "pat": 1253,
      "Ġona": 1254,
      "ĠÃºs": 1255,
      "AX": 1256,
      "el": 1257,
      "ĠchtÄĽl": 1258,
      "Äįil": 1259,
      "ĠÅĻek": 1260,
      "ĠZen": 1261,
      "ĠsI": 1262,
      "ĠcelÃ½": 1263,
      "AA": 1264,
      "ĠchrÃ¡": 1265,
      "Ġbar": 1266,
      "ĠkÅĻi": 1267,
      "Ġroze": 1268,
      "ĠnAs": 1269,
      "ĠstrÃ¡": 1270,
      "ude": 1271,
      "Ġvoj": 1272,
      "Ġ3": 1273,
      "Ġdou": 1274,
      "Å¡li": 1275,
      "bI": 1276,
      "Ġdl": 1277,
      "Ġves": 1278,
      "Ġlesk": 1279,
      "Ġvou": 1280,
      "Ġzna": 1281,
      "Ġhroz": 1282,
      "Ġvelk": 1283,
      "Ġdost": 1284,
      "Ġpru": 1285,
      "ĠcI": 1286,
      "ĠpÃŃseÅĪ": 1287,
      "Ġhlou": 1288,
      "Ġpje": 1289,
      "ĠtakÃ©": 1290,
      "ĠskÃ¡": 1291,
      "ĠABABXX": 1292,
      "Ġdva": 1293,
      "ĠvÃ¡Å¡": 1294,
      "ĠdÃŃtÄĽ": 1295,
      "ĠÅĪ": 1296,
      "Ġos": 1297,
      "ben": 1298,
      "Ġpros": 1299,
      "ĠÅ¾ivo": 1300,
      "ĠsvÃ©m": 1301,
      "Å¾il": 1302,
      "lit": 1303,
      "Ġsvit": 1304,
      "Ġprost": 1305,
      "Ġpal": 1306,
      "ĠdÅ¯": 1307,
      "ĠpL": 1308,
      "ĠmoÅĻe": 1309,
      "Ġ1960": 1310,
      "ĠspÃŃ": 1311,
      "Ġneo": 1312,
      "Ġsotva": 1313,
      "ĠaT": 1314,
      "ĠsTI": 1315,
      "Ġjedno": 1316,
      "Ġzele": 1317,
      "jÃŃcÃŃ": 1318,
      "ĠhnÄĽ": 1319,
      "Ġode": 1320,
      "Ġchlad": 1321,
      "Ġtlu": 1322,
      "Ġblesk": 1323,
      "Ġskal": 1324,
      "zel": 1325,
      "ĠchvÃŃli": 1326,
      "Ġdech": 1327,
      "dÃŃm": 1328,
      "Ġradost": 1329,
      "ct": 1330,
      "Ġruka": 1331,
      "Ġproto": 1332,
      "nÄĽjÅ¡ÃŃ": 1333,
      "Ġtaj": 1334,
      "pje": 1335,
      "sT": 1336,
      "ĠkrÃ¡l": 1337,
      "Ġjemu": 1338,
      "ĠmyÅ¡": 1339,
      "Ġplo": 1340,
      "Del": 1341,
      "Ġjin": 1342,
      "dnÃ½": 1343,
      "pil": 1344,
      "ĠnÃ¡hle": 1345,
      "Ġkri": 1346,
      "ĠvÅ¾dyÅ¥": 1347,
      "Ġruku": 1348,
      "Ġfi": 1349,
      "Ġhvje": 1350,
      "Ġpov": 1351,
      "nU": 1352,
      "ĠdÄĽt": 1353,
      "ĠrU": 1354,
      "xA": 1355,
      "ĠvÃŃm": 1356,
      "ĠnÄĽk": 1357,
      "Ġobla": 1358,
      "nÃ¡ch": 1359,
      "Ġzu": 1360,
      "ĠoÄįÃŃ": 1361,
      "jte": 1362,
      "ĠlÃ¡ska": 1363,
      "ĠfSec": 1364,
      "ati": 1365,
      "Ġsnat": 1366,
      "Ġtvoje": 1367,
      "ĠstÃŃn": 1368,
      "nEm": 1369,
      "Ġdvo": 1370,
      "Ġ17": 1371,
      "Ġhrob": 1372,
      "ja": 1373,
      "Ġzra": 1374,
      "ĠpÃ¡n": 1375,
      "ĠsvÃ©ho": 1376,
      "ĠÄįlovÄĽk": 1377,
      "ĠveÄįer": 1378,
      "ĠjejI": 1379,
      "Ġtep": 1380,
      "ĠznÃŃ": 1381,
      "hÅ¯": 1382,
      "ran": 1383,
      "Ġbje": 1384,
      "hem": 1385,
      "jÃŃc": 1386,
      "nes": 1387,
      "Ġmnou": 1388,
      "Ġpy": 1389,
      "ĠnynÃŃ": 1390,
      "tka": 1391,
      "ĠspI": 1392,
      "vIm": 1393,
      "ĠstÅĻÃŃ": 1394,
      "ĠbÅĻe": 1395,
      "pal": 1396,
      "Eho": 1397,
      "ĠduSi": 1398,
      "ĠvU": 1399,
      "Ġrud": 1400,
      "Ġri": 1401,
      "Ġsku": 1402,
      "xa": 1403,
      "Ġpozd": 1404,
      "lÃ½m": 1405,
      "Ġsamo": 1406,
      "Ġdr": 1407,
      "Ġtesk": 1408,
      "ĠÃºsmÄĽ": 1409,
      "Ġplu": 1410,
      "sil": 1411,
      "ĠkterÃ©": 1412,
      "Ġdej": 1413,
      "Ġzapo": 1414,
      "ĠhrÃ¡": 1415,
      "Ġvlas": 1416,
      "ĠklÃŃ": 1417,
      "ral": 1418,
      "ĠpÅĻÃ¡": 1419,
      "ĠjÃŃm": 1420,
      "Ġtajem": 1421,
      "Ġpane": 1422,
      "ĠtiÅ¡e": 1423,
      "lal": 1424,
      "ĠvL": 1425,
      "lov": 1426,
      "ĠkQ": 1427,
      "ĠtrÃ¡": 1428,
      "ĠkterÃ½": 1429,
      "Ġhlubo": 1430,
      "Ġjednou": 1431,
      "ĠsvÄĽta": 1432,
      "ĠstÃ¡le": 1433,
      "ĠvjeC": 1434,
      "Sel": 1435,
      "Ġup": 1436,
      "ĠkvÃŃ": 1437,
      "Ġbes": 1438,
      "Ġxo": 1439,
      "ĠlÅ¯": 1440,
      "ĠznÃ¡m": 1441,
      "ĠzvÄĽ": 1442,
      "fa": 1443,
      "sou": 1444,
      "Ġpev": 1445,
      "Ġjix": 1446,
      "pen": 1447,
      "ĠZivot": 1448,
      "ĠstÄĽ": 1449,
      "kli": 1450,
      "ĠZA": 1451,
      "ĠsvÃ¡": 1452,
      "pas": 1453,
      "ĠvÃŃce": 1454,
      "ĠstojÃŃ": 1455,
      "mÃ©": 1456,
      "ĠbA": 1457,
      "ĠÅ¡Å¥": 1458,
      "Ġkal": 1459,
      "Å¡la": 1460,
      "ĠtisÃŃ": 1461,
      "ĠneNI": 1462,
      "Ġveli": 1463,
      "Ġobje": 1464,
      "ĠXXAA": 1465,
      "Ġodpo": 1466,
      "Ġsvoje": 1467,
      "tky": 1468,
      "ÅĻÃŃm": 1469,
      "Ġbix": 1470,
      "ĠzpÄĽv": 1471,
      "ĠRI": 1472,
      "ĠsAm": 1473,
      "Ġzv": 1474,
      "ĠbÃŃlÃ©": 1475,
      "Ġpole": 1476,
      "rob": 1477,
      "ĠkrAs": 1478,
      "ĠjuÅ¾": 1479,
      "ĠcoÅ¾": 1480,
      "ĠvÄĽr": 1481,
      "Ġpoj": 1482,
      "nÄĽl": 1483,
      "mA": 1484,
      "Ġjem": 1485,
      "rI": 1486,
      "Zen": 1487,
      "Ġzt": 1488,
      "fo": 1489,
      "ĠboÅ¾ÃŃ": 1490,
      "ST": 1491,
      "ĠÄįÃŃm": 1492,
      "Ġhud": 1493,
      "tce": 1494,
      "vÃ©m": 1495,
      "Ġbr": 1496,
      "Ġuk": 1497,
      "lost": 1498,
      "ĠsmÃŃch": 1499,
      "Ġlist": 1500,
      "ĠkÃ©": 1501,
      "tou": 1502,
      "Ġnikdy": 1503,
      "Ġnap": 1504,
      "dce": 1505,
      "Ġrukou": 1506,
      "CCB": 1507,
      "Ġoka": 1508,
      "ĠdÃ©": 1509,
      "ĠaÄį": 1510,
      "ĠhÅĻ": 1511,
      "ĠtvÃ½ch": 1512,
      "Ġjedi": 1513,
      "Ġkles": 1514,
      "Ren": 1515,
      "dnÃŃ": 1516,
      "Ġbudou": 1517,
      "Ġret": 1518,
      "kle": 1519,
      "Ġbilo": 1520,
      "sem": 1521,
      "Ġ1820": 1522,
      "skou": 1523,
      "ĠnadÄĽ": 1524,
      "ĠÅ¾il": 1525,
      "Ġpomo": 1526,
      "mou": 1527,
      "ĠkRI": 1528,
      "ĠSTe": 1529,
      "tÃ©": 1530,
      "Ġkraji": 1531,
      "Ġzav": 1532,
      "ĠhrÅ¯": 1533,
      "ĠvzpomÃŃ": 1534,
      "Ã¡me": 1535,
      "ĠsL": 1536,
      "Ġtys": 1537,
      "ĠTex": 1538,
      "Ġlidu": 1539,
      "Ġnav": 1540,
      "Ġleh": 1541,
      "Ġkon": 1542,
      "ĠnaÅ¡i": 1543,
      "Ġsvobo": 1544,
      "Ġotec": 1545,
      "Ġpotom": 1546,
      "Ġmnoho": 1547,
      "Ġstrom": 1548,
      "dnou": 1549,
      "ĠoCi": 1550,
      "ĠÅ¡Å¥ast": 1551,
      "hal": 1552,
      "Nen": 1553,
      "Ã³": 1554,
      "jÃŃm": 1555,
      "mit": 1556,
      "Ġrou": 1557,
      "Äįko": 1558,
      "Ġstr": 1559,
      "Ġsvoji": 1560,
      "Ġneza": 1561,
      "ĠvÃŃtÄĽ": 1562,
      "ĠmÄĽsÃŃ": 1563,
      "ĠAXA": 1564,
      "cit": 1565,
      "Ġsklo": 1566,
      "ĠrÅ¯Å¾e": 1567,
      "ĠAABCCB": 1568,
      "ĠÅ¡u": 1569,
      "Ġkdyby": 1570,
      "Ġjisk": 1571,
      "cky": 1572,
      "ÄįnÃŃ": 1573,
      "Ġblu": 1574,
      "ĠhQ": 1575,
      "ABB": 1576,
      "ĠtvE": 1577,
      "stA": 1578,
      "Ġzve": 1579,
      "ĠtQ": 1580,
      "Ġsmrt": 1581,
      "Ã½mi": 1582,
      "ĠnÃ½ch": 1583,
      "Til": 1584,
      "kol": 1585,
      "ata": 1586,
      "Ġnese": 1587,
      "ĠnevÄĽ": 1588,
      "bil": 1589,
      "Ġpar": 1590,
      "Ġhlava": 1591,
      "Ġzh": 1592,
      "skI": 1593,
      "cÃŃm": 1594,
      "ĠbrÃ¡": 1595,
      "Ġchci": 1596,
      "vost": 1597,
      "ĠznÃ¡": 1598,
      "ĠmÃ½ch": 1599,
      "nosTi": 1600,
      "Ġkvjet": 1601,
      "ĠzÃ¡ÅĻ": 1602,
      "Ġsni": 1603,
      "ĠxTe": 1604,
      "ĠdÄĽti": 1605,
      "tko": 1606,
      "Ġstat": 1607,
      "hod": 1608,
      "skA": 1609,
      "Ġstej": 1610,
      "ĠmL": 1611,
      "Ġzlato": 1612,
      "Ġzmi": 1613,
      "ĠstÃ¡l": 1614,
      "ĠdÃ½": 1615,
      "Ġpil": 1616,
      "ĠpRet": 1617,
      "ĠnÃŃÅ¾": 1618,
      "Ġbolest": 1619,
      "vÃŃm": 1620,
      "ĠprvnÃŃ": 1621,
      "ĠtRe": 1622,
      "ĠptA": 1623,
      "Ġsh": 1624,
      "Ġbol": 1625,
      "ÅĻit": 1626,
      "Ġsmrti": 1627,
      "Ġzk": 1628,
      "nit": 1629,
      "ĠchÃ¡": 1630,
      "lech": 1631,
      "ĠNix": 1632,
      "stva": 1633,
      "ĠXAAX": 1634,
      "sce": 1635,
      "Ġnit": 1636,
      "ÄįnÄĽ": 1637,
      "Ġol": 1638,
      "ĠnÃ¡rod": 1639,
      "Ġor": 1640,
      "Ġcos": 1641,
      "Ġhlavy": 1642,
      "ĠlAski": 1643,
      "ĠblI": 1644,
      "cIx": 1645,
      "Ġtla": 1646,
      "Ġbila": 1647,
      "ĠcelÃ©": 1648,
      "bA": 1649,
      "Ġpohled": 1650,
      "ĠmusÃŃ": 1651,
      "ĠdÃ¡le": 1652,
      "Ġboji": 1653,
      "fÃ¡": 1654,
      "tech": 1655,
      "ĠNig": 1656,
      "ĠknÄĽ": 1657,
      "Ġcestu": 1658,
      "Ux": 1659,
      "ĠxvI": 1660,
      "Ġdce": 1661,
      "ĠskrÃ¡": 1662,
      "Å¡ti": 1663,
      "stra": 1664,
      "ĠvrÃ¡": 1665,
      "ĠÅ¡at": 1666,
      "Ġpolo": 1667,
      "Ġvzdo": 1668,
      "Ġposta": 1669,
      "Ġskry": 1670,
      "nice": 1671,
      "ĠpIs": 1672,
      "Ġnena": 1673,
      "Ġct": 1674,
      "kÃ¡ch": 1675,
      "ĠkterÃ¡": 1676,
      "ĠnovÃ©": 1677,
      "or": 1678,
      "ĠslA": 1679,
      "sal": 1680,
      "lna": 1681,
      "Ġuli": 1682,
      "Ġran": 1683,
      "Ġax": 1684,
      "ĠpRed": 1685,
      "Ġbohu": 1686,
      "Ġhrd": 1687,
      "ĠpÅĻece": 1688,
      "NIx": 1689,
      "Ġproti": 1690,
      "ĠzpÄĽt": 1691,
      "Ġmatka": 1692,
      "Ġdale": 1693,
      "ĠtÅ¯": 1694,
      "Ġboha": 1695,
      "Ġticho": 1696,
      "vÃ¡nÃŃ": 1697,
      "Rel": 1698,
      "hl": 1699,
      "Ġneby": 1700,
      "!...": 1701,
      "Ġjaro": 1702,
      "krÃ¡t": 1703,
      "Ġosud": 1704,
      "Ġotev": 1705,
      "Ġzahra": 1706,
      "Ġbohat": 1707,
      "xi": 1708,
      "Ġkar": 1709,
      "zÃ¡": 1710,
      "stvI": 1711,
      "Ġsama": 1712,
      "Ġvele": 1713,
      "Ġtolik": 1714,
      "kÃ½ch": 1715,
      "ĠletÃŃ": 1716,
      "vIx": 1717,
      "tÅ¯": 1718,
      "Ġdem": 1719,
      "Cka": 1720,
      "dli": 1721,
      "ĠÅ¡tÃŃ": 1722,
      "Ġkdys": 1723,
      "ĠkvÄĽ": 1724,
      "ĠstarÃ½": 1725,
      "Nil": 1726,
      "ĠClo": 1727,
      "jo": 1728,
      "Ġdlouho": 1729,
      "str": 1730,
      "ĠleÅ¾ÃŃ": 1731,
      "ĠsmNe": 1732,
      "Ġvlasti": 1733,
      "Ġpust": 1734,
      "Ġrod": 1735,
      "Ġvzal": 1736,
      "jSI": 1737,
      "Ġzved": 1738,
      "Äįel": 1739,
      "Ġrost": 1740,
      "alu": 1741,
      "ĠkÅĻe": 1742,
      "ĠspA": 1743,
      "ĠbUx": 1744,
      "jat": 1745,
      "ĠmeÄį": 1746,
      "dne": 1747,
      "Ġkamen": 1748,
      "Ġtobje": 1749,
      "fi": 1750,
      "Ġrozko": 1751,
      "dnÄĽ": 1752,
      "ĠTeS": 1753,
      "ĠvÅ¡i": 1754,
      "Ġhlavou": 1755,
      "Ġspolu": 1756,
      "bor": 1757,
      "Ġnapo": 1758,
      "ĠduÅ¡ÃŃ": 1759,
      "Ġlep": 1760,
      "ÄįÃŃm": 1761,
      "ĠNIm": 1762,
      "ĠvÅĻe": 1763,
      "Ġtat": 1764,
      "Ġbudu": 1765,
      "der": 1766,
      "gi": 1767,
      "nech": 1768,
      "Ġrych": 1769,
      "Ġspat": 1770,
      "Ġsobje": 1771,
      "ĠznA": 1772,
      "ĠsvUj": 1773,
      "fal": 1774,
      "ĠbÃ¡s": 1775,
      "nEho": 1776,
      "stÅĻÃŃ": 1777,
      "ĠdÃ¡vno": 1778,
      "ĠClovje": 1779,
      "Ġbuj": 1780,
      "hI": 1781,
      "ala": 1782,
      "ĠproC": 1783,
      "ĠvAm": 1784,
      "Dil": 1785,
      "xem": 1786,
      "Ġaj": 1787,
      "ĠZiTI": 1788,
      "Ġzou": 1789,
      "Ġopu": 1790,
      "Ġkoru": 1791,
      "Ġas": 1792,
      "Ġrov": 1793,
      "znÄĽ": 1794,
      "ĠsvIm": 1795,
      "Ġvjet": 1796,
      "ĠhvÄĽzdy": 1797,
      "ĠnÅ¯": 1798,
      "ĠsQtci": 1799,
      "Ġslovo": 1800,
      "Ġned": 1801,
      "ĠkaZdI": 1802,
      "Ġhrad": 1803,
      "Ġbal": 1804,
      "Ġhovo": 1805,
      "Ġzbra": 1806,
      "ĠtÅĻi": 1807,
      "ĠtoÅ¥": 1808,
      "ĠtA": 1809,
      "ĠprÃ½": 1810,
      "Ġzdra": 1811,
      "Ġhospo": 1812,
      "ĠcizÃŃ": 1813,
      "ĠnÄĽj": 1814,
      "bal": 1815,
      "ĠdobÅĻe": 1816,
      "ĠtvUj": 1817,
      "Ġvil": 1818,
      "et": 1819,
      "ĠboÅ¾e": 1820,
      "ĠstrA": 1821,
      "klo": 1822,
      "Ġnimi": 1823,
      "ĠvdÄĽ": 1824,
      "Ġjdou": 1825,
      "stvo": 1826,
      "ĠvidÃŃ": 1827,
      "Ġslou": 1828,
      "Ġnel": 1829,
      "nutÃŃ": 1830,
      "Ġples": 1831,
      "Ġblaho": 1832,
      "ĠzÃ¡ÅĻÃŃ": 1833,
      "pit": 1834,
      "emi": 1835,
      "Ġzdvi": 1836,
      "ĠmÅ¯Å¾e": 1837,
      "Ġcha": 1838,
      "Ġsch": 1839,
      "nula": 1840,
      "ĠzÅ¯": 1841,
      "Ġhl": 1842,
      "Ġosu": 1843,
      "ĠdÅĻÃŃv": 1844,
      "ĠvÅ¡ecky": 1845,
      "ĠaNi": 1846,
      "stup": 1847,
      "Ġtvou": 1848,
      "Ġmysli": 1849,
      "Ġabi": 1850,
      "Ġzvolna": 1851,
      "ĠÅ¾ena": 1852,
      "pA": 1853,
      "ĠÄįasto": 1854,
      "ĠzlatÃ©": 1855,
      "Ġuz": 1856,
      "ali": 1857,
      "ĠSI": 1858,
      "ĠsvÄĽtÄĽ": 1859,
      "ĠvIc": 1860,
      "Ġvat": 1861,
      "Ġmd": 1862,
      "ĠsvI": 1863,
      "Ġbohem": 1864,
      "Ġxce": 1865,
      "ĠposlednÃŃ": 1866,
      "ĠÅ¾ha": 1867,
      "ĠvolÃ¡": 1868,
      "ĠchvÃŃle": 1869,
      "Ġbeze": 1870,
      "ĠstÅĻÃŃb": 1871,
      "ÄįnÃ©": 1872,
      "ĠtÅĻÃŃ": 1873,
      "Ġtebou": 1874,
      "kne": 1875,
      "Ġblou": 1876,
      "ĠvidÄĽl": 1877,
      "ĠÅ¾ivota": 1878,
      "Ġkrok": 1879,
      "Äįit": 1880,
      "Ġvod": 1881,
      "ĠpU": 1882,
      "ĠÅ¡ep": 1883,
      "ĠdÃ¡m": 1884,
      "ĠzemNe": 1885,
      "Ġopo": 1886,
      "ĠhR": 1887,
      "ĠsnÅ¯": 1888,
      "seN": 1889,
      "Ġtan": 1890,
      "Ġdom": 1891,
      "vila": 1892,
      "DIm": 1893,
      "ĠhledÃŃ": 1894,
      "rAt": 1895,
      "ĠkvÄĽty": 1896,
      "ĠnÃ½m": 1897,
      "Ġhoj": 1898,
      "Ġxu": 1899,
      "ĠtES": 1900,
      "vÃ¡m": 1901,
      "Ġ2": 1902,
      "nk": 1903,
      "sek": 1904,
      "Ġhlubi": 1905,
      "ĠpohÃ¡": 1906,
      "sTe": 1907,
      "ec": 1908,
      "rnÃ©": 1909,
      "ĠboÅ¾": 1910,
      "ĠvAs": 1911,
      "ĠsNe": 1912,
      "Ġhnet": 1913,
      "ĠleC": 1914,
      "ĠprÃ¡zd": 1915,
      "ĠtÅĻ": 1916,
      "hli": 1917,
      "ĠTix": 1918,
      "SIm": 1919,
      "ĠhÃ½": 1920,
      "Ġvrou": 1921,
      "alo": 1922,
      "znÃŃ": 1923,
      "pou": 1924,
      "Ġkry": 1925,
      "Ġpodo": 1926,
      "ĠÄįelo": 1927,
      "Ġjejix": 1928,
      "ĠpanÃŃ": 1929,
      "Ġzdo": 1930,
      "ĠÄįist": 1931,
      "Ġjit": 1932,
      "Sen": 1933,
      "Ġmr": 1934,
      "ĠkÅĻÃŃÅ¾": 1935,
      "ĠmQt": 1936,
      "ĠzmÄĽ": 1937,
      "Cen": 1938,
      "Ġzach": 1939,
      "ĠsmÃ¡": 1940,
      "ĠsvÃŃtÃŃ": 1941,
      "Ġoba": 1942,
      "rnÄĽ": 1943,
      "lIx": 1944,
      "ĠvQ": 1945,
      "Ġvem": 1946,
      "ĠtÄĽlo": 1947,
      "ĠslyÅ¡": 1948,
      "vNI": 1949,
      "Ġbys": 1950,
      "ĠsmQ": 1951,
      "Ġkat": 1952,
      "Ġmilost": 1953,
      "sA": 1954,
      "Ġkni": 1955,
      "ĠTIm": 1956,
      "ĠzÅĻel": 1957,
      "sle": 1958,
      "hlÃ©": 1959,
      "ĠpoÄį": 1960,
      "Ġzjev": 1961,
      "Ġstru": 1962,
      "ĠzdA": 1963,
      "teli": 1964,
      "dÄĽla": 1965,
      "Ġcest": 1966,
      "Ġoku": 1967,
      "vÃ¡n": 1968,
      "ĠnechÅ¥": 1969,
      "ĠÅĪad": 1970,
      "ĠfSecko": 1971,
      "ĠlÃ¡sku": 1972,
      "Ġznova": 1973,
      "STI": 1974,
      "ĠSTesTI": 1975,
      "Ġy": 1976,
      "ĠpRec": 1977,
      "zal": 1978,
      "ĠlÃ¡skou": 1979,
      "ĠtÅĻeba": 1980,
      "Ġtakto": 1981,
      "slÃŃ": 1982,
      "Ġpozdra": 1983,
      "Ġzap": 1984,
      "Ġpouze": 1985,
      "Ġperu": 1986,
      "ĠjakÃ½": 1987,
      "ĠbuT": 1988,
      "Ġhost": 1989,
      "rnÃ½": 1990,
      "ĠobÄĽ": 1991,
      "Å¡em": 1992,
      "ĠmNel": 1993,
      "ĠpÅ¯l": 1994,
      "Cki": 1995,
      "Ġokem": 1996,
      "Å¡il": 1997,
      "cela": 1998,
      "ĠsnÃŃh": 1999,
      "ĠblÃŃÅ¾": 2000,
      "ĠnaSe": 2001,
      "Å¯v": 2002,
      "Ġslatk": 2003,
      "jal": 2004,
      "ĠÅĻÃ¡": 2005,
      "Sli": 2006,
      "Ġdle": 2007,
      "Ril": 2008,
      "ĠchvÃ¡": 2009,
      "ĠnÄĽho": 2010,
      "Å¡enÃŃ": 2011,
      "ĠdrÃ¡": 2012,
      "ĠsklÃ¡": 2013,
      "Cek": 2014,
      "Ġtady": 2015,
      "Ġdrob": 2016,
      "ĠR": 2017,
      "nic": 2018,
      "Ġobzo": 2019,
      "ĠdÄĽs": 2020,
      "ĠbÃ½ti": 2021,
      "Ġzby": 2022,
      "vol": 2023,
      "Ġou": 2024,
      "ĠÄįek": 2025,
      "ĠvelkÃ©": 2026,
      "dr": 2027,
      "krÃ¡": 2028,
      "ĠsvÄĽtlo": 2029,
      "Ġubo": 2030,
      "Ġfs": 2031,
      "Ġdomo": 2032,
      "dra": 2033,
      "ĠpolÃŃ": 2034,
      "ĠpÃŃsnÄĽ": 2035,
      "Ġpta": 2036,
      "he": 2037,
      "ÅĻed": 2038,
      "Ġhej": 2039,
      "skIx": 2040,
      "Ġklam": 2041,
      "ĠbÃŃlÃ½": 2042,
      "Ġkmit": 2043,
      "ĠvÃ½Å¡": 2044,
      "Ġnero": 2045,
      "ĠvÅ¾dycky": 2046,
      "ĠnovÃ½": 2047,
      "ĠptÃ¡k": 2048,
      "Ġhvjez": 2049,
      "hra": 2050,
      "hE": 2051,
      "kÅĻi": 2052,
      "roj": 2053,
      "Ġotro": 2054,
      "Ġnelze": 2055,
      "Ġvys": 2056,
      "ĠÅ¾Ã¡r": 2057,
      "ĠnÃ¡ru": 2058,
      "Ġobraz": 2059,
      "ĠvÃŃtÄĽz": 2060,
      "ĠhA": 2061,
      "Å¾it": 2062,
      "Ġsny": 2063,
      "ĠvelkÃ½": 2064,
      "Ġdole": 2065,
      "ĠbouÅĻ": 2066,
      "ĠsvIx": 2067,
      "Ġtedy": 2068,
      "Ġver": 2069,
      "Ġhory": 2070,
      "ĠÅ¾eny": 2071,
      "kE": 2072,
      "Ġvich": 2073,
      "del": 2074,
      "Ġsyn": 2075,
      "Ġnevy": 2076,
      "ĠdÃ¡li": 2077,
      "vÅ¯": 2078,
      "Ġvyp": 2079,
      "Ġjedna": 2080,
      "vr": 2081,
      "Ġmoji": 2082,
      "ĠvlastnÃŃ": 2083,
      "Ġslunci": 2084,
      "vajÃŃ": 2085,
      "ĠumÃŃ": 2086,
      "Ġslzy": 2087,
      "bra": 2088,
      "tQ": 2089,
      "Ġov": 2090,
      "nÃ½mi": 2091,
      "Ġjara": 2092,
      "kali": 2093,
      "Ġvez": 2094,
      "Ġxvje": 2095,
      "ĠhruÄı": 2096,
      "kÃ½m": 2097,
      "zko": 2098,
      "zrak": 2099,
      "Ġmohu": 2100,
      "ĠmÃ¡Å¡": 2101,
      "kone": 2102,
      "Ġkterak": 2103,
      "Ġar": 2104,
      "ĠblÃ¡": 2105,
      "tla": 2106,
      "fÃŃ": 2107,
      "ju": 2108,
      "Ġnikdo": 2109,
      "cU": 2110,
      "ĠÅ¡um": 2111,
      "Ġhrobu": 2112,
      "valo": 2113,
      "nko": 2114,
      "lÃ©m": 2115,
      "ĠvÃŃtr": 2116,
      "ĠnÃ¡mi": 2117,
      "Cer": 2118,
      "ĠCa": 2119,
      "Ġrem": 2120,
      "chni": 2121,
      "ĠvÅ¡eho": 2122,
      "ĠsvatÃ½": 2123,
      "lez": 2124,
      "Ġpapr": 2125,
      "Ġkrve": 2126,
      "Ġbit": 2127,
      "ĠjejÅ¾": 2128,
      "Ġfa": 2129,
      "Ġoblo": 2130,
      "Ġsty": 2131,
      "vra": 2132,
      "Ġkva": 2133,
      "Ġber": 2134,
      "Ġzvuk": 2135,
      "kud": 2136,
      "ĠvÃ½ch": 2137,
      "ĠmarnÄĽ": 2138,
      "chÃ¡zÃŃ": 2139,
      "ĠvÄĽru": 2140,
      "ĠjmÃ©": 2141,
      "Ġkole": 2142,
      "Ġvzne": 2143,
      "ĠsvojÃŃ": 2144,
      "Ġtre": 2145,
      "jel": 2146,
      "Ġcen": 2147,
      "Ġpocho": 2148,
      "Ġsest": 2149,
      "hnu": 2150,
      "Ġhi": 2151,
      "Ġdoma": 2152,
      "Ġkap": 2153,
      "ÄįenÃŃ": 2154,
      "ĠvaÅ¡e": 2155,
      "zou": 2156,
      "dnÃ¡": 2157,
      "ĠstarÃ©": 2158,
      "Ġvna": 2159,
      "kI": 2160,
      "ĠdvÄĽ": 2161,
      "div": 2162,
      "Å¾o": 2163,
      "Ġprach": 2164,
      "Å¾el": 2165,
      "koli": 2166,
      "ĠvidÃŃm": 2167,
      "Imi": 2168,
      "ĠhoÅĻÃŃ": 2169,
      "ek": 2170,
      "ĠvstÅĻÃŃ": 2171,
      "Ġhlavi": 2172,
      "Ġki": 2173,
      "lat": 2174,
      "Ġproud": 2175,
      "ĠzRI": 2176,
      "Ġved": 2177,
      "ĠvÃ¡Å¾": 2178,
      "ĠopÄĽt": 2179,
      "Ġvedle": 2180,
      "ĠpadÃ¡": 2181,
      "Ġrak": 2182,
      "Ġkvet": 2183,
      "Ġkonec": 2184,
      "Ġhlav": 2185,
      "ĠtÃ¡h": 2186,
      "dÃ©": 2187,
      "Ġminu": 2188,
      "Cku": 2189,
      "ĠvstÅĻÃŃc": 2190,
      "Ġ,": 2191,
      "hled": 2192,
      "ĠcelI": 2193,
      "nostÃŃ": 2194,
      "jIcI": 2195,
      "Ġohe": 2196,
      "NIk": 2197,
      "Ġhlasem": 2198,
      "Ġdux": 2199,
      "ĠmÃŃr": 2200,
      "ĠneznÃ¡m": 2201,
      "ĠlE": 2202,
      "kala": 2203,
      "ĠvÅ¡ude": 2204,
      "ĠkaÅ¾dÃ©": 2205,
      "ĠpIseN": 2206,
      "ĠnÄĽkdy": 2207,
      "sen": 2208,
      "Ġrozum": 2209,
      "ĠmÃ¡lo": 2210,
      "ĠmrÃ¡": 2211,
      "ĠbIt": 2212,
      "hÅ¯ru": 2213,
      "Ġnek": 2214,
      "fÄĽ": 2215,
      "Ġmysl": 2216,
      "ĠmÃ©ho": 2217,
      "ĠÃºsmÄĽv": 2218,
      "Ġmoud": 2219,
      "ĠjistÄĽ": 2220,
      "ĠÅĻa": 2221,
      "ĠmAm": 2222,
      "ĠnuÅ¾": 2223,
      "ĠmilÃ½": 2224,
      "ĠplÃ¡Äį": 2225,
      "ĠXAXAXX": 2226,
      "ĠnÄĽmu": 2227,
      "stane": 2228,
      "Ġhodi": 2229,
      "Ġzro": 2230,
      "kat": 2231,
      "ĠpÅĻem": 2232,
      "ĠpÄĽk": 2233,
      "ĠtrÅ¯": 2234,
      "Ġstesk": 2235,
      "ĠZI": 2236,
      "Ġkmen": 2237,
      "Ġkdes": 2238,
      "ĠrÃ¡na": 2239,
      "ĠknÃŃ": 2240,
      "Ġokam": 2241,
      "Ġzr": 2242,
      "ÄįnÃ½": 2243,
      "Ġkraje": 2244,
      "kro": 2245,
      "Ġmile": 2246,
      "ĠskA": 2247,
      "ĠsvatÃ©": 2248,
      "ĠmÃŃt": 2249,
      "ĠlidÃ©": 2250,
      "Ġmen": 2251,
      "Ġkref": 2252,
      "ĠhlÃ¡": 2253,
      "ĠdomÅ¯": 2254,
      "ĠzÅĻÃŃm": 2255,
      "Ġdivo": 2256,
      "ĠnemÃ¡": 2257,
      "Ġkouz": 2258,
      "ĠnAS": 2259,
      "Ġmus": 2260,
      "ĠmlA": 2261,
      "dej": 2262,
      "van": 2263,
      "Ġtil": 2264,
      "Ġtako": 2265,
      "Ġstou": 2266,
      "Ġaspo": 2267,
      "stem": 2268,
      "ĠzlatÃ½": 2269,
      "ĠmlÃ¡dÃŃ": 2270,
      "Ġskle": 2271,
      "ĠpÅĻiÅ¡el": 2272,
      "ĠsÃŃly": 2273,
      "ĠprÃ¡vÄĽ": 2274,
      "ĠDITe": 2275,
      "Ġpropa": 2276,
      "ĠsvÄĽtla": 2277,
      "Ġmilu": 2278,
      "ĠstRe": 2279,
      "ĠmoRe": 2280,
      "ĠtakE": 2281,
      "Rem": 2282,
      "ĠmÃŃsto": 2283,
      "ĠAXAX": 2284,
      "tki": 2285,
      "ĠpÅĻijde": 2286,
      "ĠdÃ¡v": 2287,
      "ĠnÄĽmÅ¾": 2288,
      "ĠkA": 2289,
      "ĠchÃ½": 2290,
      "Ġsnu": 2291,
      "ĠstvÃŃ": 2292,
      "ĠslÃ¡vy": 2293,
      "ĠvlA": 2294,
      "dat": 2295,
      "ĠzpÃŃvÃ¡": 2296,
      "ĠmilÃ¡": 2297,
      "ĠvÅ¡echno": 2298,
      "kÃ©m": 2299,
      "ĠhoÅĻe": 2300,
      "mE": 2301,
      "rE": 2302,
      "rk": 2303,
      "ĠSi": 2304,
      "ĠprÃ¡ci": 2305,
      "vec": 2306,
      "Ġzam": 2307,
      "ĠneÅ¾li": 2308,
      "Ġramen": 2309,
      "ĠfSem": 2310,
      "Ġprosto": 2311,
      "rom": 2312,
      "ĠskrÃ½": 2313,
      "Ġzal": 2314,
      "las": 2315,
      "ĠkrÃ¡sy": 2316,
      "ĠCI": 2317,
      "snÄĽ": 2318,
      "ĠpÃŃsnÃŃ": 2319,
      "ĠstÃŃny": 2320,
      "Ġfspo": 2321,
      "Ġrychle": 2322,
      "Ġnekone": 2323,
      "met": 2324,
      "mÄĽnÃŃ": 2325,
      "ĠmÃ½m": 2326,
      "ĠrAt": 2327,
      "ĠprÃ¡ce": 2328,
      "Ġskr": 2329,
      "Ġman": 2330,
      "STe": 2331,
      "Ġpravil": 2332,
      "Ġpodzi": 2333,
      "ĠÄı": 2334,
      "ĠbouÅĻe": 2335,
      "Ġal": 2336,
      "Ġtrochu": 2337,
      "Ġjdu": 2338,
      "Ġnade": 2339,
      "ĠandÄĽl": 2340,
      "Ġroste": 2341,
      "ĠkrÃ¡lov": 2342,
      "ĠdÄĽv": 2343,
      "lU": 2344,
      "mem": 2345,
      "ĠnaÅ¡ÃŃ": 2346,
      "lila": 2347,
      "ĠzÃ¡ÅĻi": 2348,
      "her": 2349,
      "ÃŃme": 2350,
      "ĠvÄĽÄįnÄĽ": 2351,
      "Ġvzdech": 2352,
      "ĠtÅĻpy": 2353,
      "ĠvzhÅ¯ru": 2354,
      "lku": 2355,
      "nt": 2356,
      "ĠDIf": 2357,
      "lenÃŃ": 2358,
      "ĠmoÅ¾": 2359,
      "ĠÅ¾ÃŃt": 2360,
      "Ġpravda": 2361,
      "Ġjinak": 2362,
      "Ġrok": 2363,
      "ĠÅ¡la": 2364,
      "ĠZivo": 2365,
      "Ġrozm": 2366,
      "dÅ¯": 2367,
      "rU": 2368,
      "ĠznÄĽ": 2369,
      "Ġasi": 2370,
      "Ãº": 2371,
      "Ġrozp": 2372,
      "Ġhal": 2373,
      "Ġset": 2374,
      "ĠdÅ¯m": 2375,
      "ĠhÅ¯": 2376,
      "dala": 2377,
      "ĠÅ¡ko": 2378,
      "Ġano": 2379,
      "Ġchem": 2380,
      "ĠlAska": 2381,
      "Ġvon": 2382,
      "ĠnevÃŃ": 2383,
      "Ġvzp": 2384,
      "ĠpovÄĽ": 2385,
      "hna": 2386,
      "lesk": 2387,
      "ĠÅ¾el": 2388,
      "ĠnÃ¡ro": 2389,
      "ÅĻa": 2390,
      "Ġpri": 2391,
      "go": 2392,
      "Ġhar": 2393,
      "ĠnÄĽÅ¾": 2394,
      "ĠnAro": 2395,
      "Ġotce": 2396,
      "Tast": 2397,
      "ĠmiS": 2398,
      "Ġznovu": 2399,
      "lIm": 2400,
      "ĠkRi": 2401,
      "Ġbyli": 2402,
      "ĠlidÃŃ": 2403,
      "ĠxrA": 2404,
      "Ġtento": 2405,
      "fu": 2406,
      "Ġcesta": 2407,
      "skÃ©ho": 2408,
      "ĠxTel": 2409,
      "ĠUs": 2410,
      "ĠNic": 2411,
      "sel": 2412,
      "Ġvzduch": 2413,
      "leh": 2414,
      "Ġhlo": 2415,
      "Ġdoko": 2416,
      "ĠzaÄį": 2417,
      "Ġbud": 2418,
      "Ġsr": 2419,
      "ĠkvÄĽtÅ¯": 2420,
      "ĠdÃ½m": 2421,
      "Ġprapo": 2422,
      "ĠtvÃ¡ÅĻe": 2423,
      "Ġpol": 2424,
      "nÄĽm": 2425,
      "ĠÄįech": 2426,
      "Ġruk": 2427,
      "Ġtek": 2428,
      "ĠkÃ¡m": 2429,
      "ĠÅ¾lu": 2430,
      "nik": 2431,
      "UZe": 2432,
      "Ġnul": 2433,
      "jet": 2434,
      "ĠjakÃ©": 2435,
      "Ġducha": 2436,
      "Ġmilen": 2437,
      "ckÃ©": 2438,
      "tI": 2439,
      "ĠzrÃ¡": 2440,
      "ĠÅĻeÄį": 2441,
      "Ġbyly": 2442,
      "ĠdolÅ¯": 2443,
      "tele": 2444,
      "Ġpout": 2445,
      "zna": 2446,
      "ĠtvÃ¡ÅĻÃŃ": 2447,
      "Ġfe": 2448,
      "ĠkrÃ¡t": 2449,
      "Ġchla": 2450,
      "ĠnAhle": 2451,
      "valy": 2452,
      "ĠvlÃŃ": 2453,
      "Ġboje": 2454,
      "Äįera": 2455,
      "Cil": 2456,
      "Ġbili": 2457,
      "pl": 2458,
      "cel": 2459,
      "Ġdarmo": 2460,
      "nici": 2461,
      "ĠÅ¾iv": 2462,
      "ĠsmIx": 2463,
      "vej": 2464,
      "Ġztra": 2465,
      "ĠÄįekÃ¡": 2466,
      "Ġstvo": 2467,
      "Ġzraky": 2468,
      "ĠTI": 2469,
      "Ġhas": 2470,
      "XB": 2471,
      "Å¾Ã¡": 2472,
      "Ġspas": 2473,
      "Ġjiz": 2474,
      "Ġkrva": 2475,
      "ĠvÅ¡ichni": 2476,
      "ĠtvÃ¡ÅĻi": 2477,
      "Zil": 2478,
      "ĠvÄĽk": 2479,
      "ĠvZdiT": 2480,
      "ÅĻela": 2481,
      "hlÃŃ": 2482,
      "cy": 2483,
      "nki": 2484,
      "Ġvede": 2485,
      "ĠzI": 2486,
      "Ġtouhy": 2487,
      "vad": 2488,
      "ĠklÃ¡": 2489,
      "ĠnichÅ¾": 2490,
      "slo": 2491,
      "Ġzmat": 2492,
      "fe": 2493,
      "ĠTiSe": 2494,
      "ĠvÃŃÅ¡": 2495,
      "Ġchat": 2496,
      "Ġsmy": 2497,
      "Ġjedn": 2498,
      "Ġdoby": 2499,
      "ĠsTi": 2500,
      "vÃ©ho": 2501,
      "zni": 2502,
      "Ġprch": 2503,
      "Ġzy": 2504,
      "ĠÄįest": 2505,
      "tila": 2506,
      "aly": 2507,
      "ĠpojÄı": 2508,
      "ĠzvÃŃ": 2509,
      "ĠlÃ¡sce": 2510,
      "Ġvzde": 2511,
      "dÄĽj": 2512,
      "ABAB": 2513,
      "Ġzaz": 2514,
      "ĠniNI": 2515,
      "Ġjmen": 2516,
      "Ġsebou": 2517,
      "Ġslov": 2518,
      "Ġprsou": 2519,
      "ĠpÅ¯j": 2520,
      "Ġvlny": 2521,
      "ĠÄįernÃ©": 2522,
      "Ġzapla": 2523,
      "ĠmyÅ¡lÃ©": 2524,
      "Ġviz": 2525,
      "Ġvyso": 2526,
      "Ġpovz": 2527,
      "ĠmÄĽsta": 2528,
      "dnE": 2529,
      "Ġsoud": 2530,
      "Ġzbu": 2531,
      "Ġlesa": 2532,
      "Ġzrakem": 2533,
      "Ġlesy": 2534,
      "Ġdil": 2535,
      "ĠnocÃŃ": 2536,
      "ĠkdoÅ¾": 2537,
      "ĠvÅ¯nÄĽ": 2538,
      "ĠjinÃ©": 2539,
      "Ġspra": 2540,
      "dÄĽt": 2541,
      "ĠmÄĽk": 2542,
      "ĠnaÅ¡ich": 2543,
      "Ġnak": 2544,
      "ĠsladkÃ©": 2545,
      "ĠzmÃŃ": 2546,
      "skÃ©m": 2547,
      "Ġsva": 2548,
      "nÃ¡nÃŃ": 2549,
      "Ġjestli": 2550,
      "Ġokna": 2551,
      "Ġom": 2552,
      "mat": 2553,
      "NejSI": 2554,
      "ĠvAS": 2555,
      "ĠClovjek": 2556,
      "nami": 2557,
      "ader": 2558,
      "ĠÄįem": 2559,
      "ĠstAle": 2560,
      "ĠmÄĽsÃŃc": 2561,
      "ĠcÃŃch": 2562,
      "ĠprÅ¯": 2563,
      "Ġmodlit": 2564,
      "Å¡t": 2565,
      "skÃ½m": 2566,
      "ĠstRI": 2567,
      "Ġply": 2568,
      "lÃ©b": 2569,
      "ĠusmÃŃ": 2570,
      "Ġdosud": 2571,
      "ĠkterE": 2572,
      "Ġonen": 2573,
      "ĠkrÃ¡snÃ©": 2574,
      "Ġchmu": 2575,
      "ĠTisI": 2576,
      "ĠsvEho": 2577,
      "ten": 2578,
      "ĠdÃ½ch": 2579,
      "Ġprobu": 2580,
      "deme": 2581,
      "ĠkterI": 2582,
      "rech": 2583,
      "ĠhNe": 2584,
      "Ġhod": 2585,
      "Ġdum": 2586,
      "ĠtÄĽla": 2587,
      "ĠstÃ©": 2588,
      "Ġsho": 2589,
      "ĠhoÅĻ": 2590,
      "ĠNeg": 2591,
      "ĠsvÄĽtem": 2592,
      "ĠvÃ½Å¡e": 2593,
      "Ġkoste": 2594,
      "ĠvÄĽky": 2595,
      "ĠmÃ©m": 2596,
      "Ġlidem": 2597,
      "ĠhÅĻÃŃch": 2598,
      "Ġrej": 2599,
      "ĠhnÄĽv": 2600,
      "ĠvzdÃ¡": 2601,
      "Ġlese": 2602,
      "Ġpravdu": 2603,
      "ĠpÅĻÃŃro": 2604,
      "ĠrÃ½": 2605,
      "letÃŃ": 2606,
      "ĠslyÅ¡ÃŃ": 2607,
      "ĠhnÃŃ": 2608,
      "Ġvs": 2609,
      "ĠvrA": 2610,
      "ĠvÃ½m": 2611,
      "Ã¡c": 2612,
      "Ġdve": 2613,
      "ĠkÅĻÃŃdla": 2614,
      "ĠdQ": 2615,
      "man": 2616,
      "ĠdRI": 2617,
      "ĠstojI": 2618,
      "Ġtis": 2619,
      "Ġhlad": 2620,
      "ev": 2621,
      "Å¡ka": 2622,
      "Å¡nÄĽ": 2623,
      "ĠjÃŃt": 2624,
      "ĠveCer": 2625,
      "ĠnesmÃŃ": 2626,
      "Ġrek": 2627,
      "ĠmyÅ¡len": 2628,
      "Ġstaro": 2629,
      "Ġspi": 2630,
      "Ġchvil": 2631,
      "Ġnesm": 2632,
      "cIm": 2633,
      "ĠÄįil": 2634,
      "Ġvody": 2635,
      "ĠztrÃ¡": 2636,
      "kot": 2637,
      "ĠvIce": 2638,
      "vod": 2639,
      "Ġpokoj": 2640,
      "Ġzadu": 2641,
      "dila": 2642,
      "ĠÄįasem": 2643,
      "Ġpodzim": 2644,
      "mÄĽl": 2645,
      "ĠhvÄĽzda": 2646,
      "ĠslyÅ¡e": 2647,
      "stech": 2648,
      "Ġfo": 2649,
      "Ġsma": 2650,
      "Ġhloub": 2651,
      "Ġvenku": 2652,
      "Ġpoe": 2653,
      "ĠnaÄį": 2654,
      "ĠlÃŃce": 2655,
      "pce": 2656,
      "ĠkrvÃŃ": 2657,
      "kÃ¡nÃŃ": 2658,
      "Ġcy": 2659,
      "ĠbIlE": 2660,
      "Ġfran": 2661,
      "Ġzti": 2662,
      "Ġlil": 2663,
      "ĠNigdi": 2664,
      "Ġnaz": 2665,
      "ĠcelÃ¡": 2666,
      "Ġhnu": 2667,
      "ĠtvÃ½m": 2668,
      "ĠsnÄĽnÃŃ": 2669,
      "Ġzvy": 2670,
      "Ġtisk": 2671,
      "bito": 2672,
      "ĠtoÅ¾": 2673,
      "ĠchrÃ¡m": 2674,
      "Ġsled": 2675,
      "ĠtÄĽm": 2676,
      "Ġzasta": 2677,
      "ĠpÅĻij": 2678,
      "ĠcoS": 2679,
      "dali": 2680,
      "ĠsedÃŃ": 2681,
      "cu": 2682,
      "Ġklad": 2683,
      "nÃ¡Å¡ÃŃ": 2684,
      "Ġpramen": 2685,
      "ĠpRA": 2686,
      "Å¾ÃŃm": 2687,
      "Ġdala": 2688,
      "Ġsnem": 2689,
      "din": 2690,
      "Ġkali": 2691,
      "ĠUsmNe": 2692,
      "Ġvit": 2693,
      "ĠÅ¡li": 2694,
      "ĠzaÅ¡": 2695,
      "Ġstran": 2696,
      "ĠlÃŃc": 2697,
      "nila": 2698,
      "ĠbRe": 2699,
      "ĠnaDe": 2700,
      "Ġhrom": 2701,
      "ĠsÅ¯": 2702,
      "ĠZal": 2703,
      "Ġsami": 2704,
      "?!": 2705,
      "Ġsmutek": 2706,
      "Ã½vÃ¡": 2707,
      "Ġzba": 2708,
      "Ġur": 2709,
      "Ġdobro": 2710,
      "ĠmluvÃŃ": 2711,
      "ĠstarÃ¡": 2712,
      "Ġhan": 2713,
      "ĠslÃ¡va": 2714,
      "ĠkvI": 2715,
      "cet": 2716,
      "chÃ½": 2717,
      "ĠjakÃ¡": 2718,
      "ĠRek": 2719,
      "ĠslavÃŃ": 2720,
      "lka": 2721,
      "Ġslza": 2722,
      "Ġcesty": 2723,
      "Ġnost": 2724,
      "ĠjeDi": 2725,
      "Ġporo": 2726,
      "Ġskvost": 2727,
      "ĠblaÅ¾en": 2728,
      "Ġsten": 2729,
      "ĠÅ¾ije": 2730,
      "Ġuse": 2731,
      "ĠzÃ¡pas": 2732,
      "novÃ©": 2733,
      "ĠmyslÃŃ": 2734,
      "ĠstÃ¡t": 2735,
      "ĠboZI": 2736,
      "ĠpAn": 2737,
      "xU": 2738,
      "dek": 2739,
      "ĠdlÃŃ": 2740,
      "Ġdav": 2741,
      "Ġvjer": 2742,
      "vati": 2743,
      "ĠcÃŃtÃŃ": 2744,
      "ter": 2745,
      "ĠÄįele": 2746,
      "Ġtouha": 2747,
      "Ġtvrd": 2748,
      "nAx": 2749,
      "ĠjinÃ½": 2750,
      "ĠhleÄı": 2751,
      "ĠpravÃŃ": 2752,
      "Ġzab": 2753,
      "Ġbojo": 2754,
      "Ġpodle": 2755,
      "ĠSTast": 2756,
      "Ġdomu": 2757,
      "Ġmdlo": 2758,
      "ĠdÃ¡t": 2759,
      "ĠaC": 2760,
      "Ġkone": 2761,
      "ÅĻenÃŃ": 2762,
      "ĠhÅĻe": 2763,
      "vÄĽl": 2764,
      "Ġbije": 2765,
      "ĠbÃŃlÃ¡": 2766,
      "Ġsvjeta": 2767,
      "stÃ½": 2768,
      "Ġcestou": 2769,
      "Ġzapad": 2770,
      "Å¡ku": 2771,
      "ĠzNI": 2772,
      "dÃ½": 2773,
      "Ġmn": 2774,
      "ĠnÄĽco": 2775,
      "Ġhlaho": 2776,
      "ĠzÃ¡ÅĻe": 2777,
      "Ġvzdor": 2778,
      "vete": 2779,
      "Ġpas": 2780,
      "ĠtvAR": 2781,
      "ABBX": 2782,
      "Ġzat": 2783,
      "ĠdÃŃvÃ¡": 2784,
      "Ġkterou": 2785,
      "Ġotpo": 2786,
      "Ġlam": 2787,
      "ĠmNesI": 2788,
      "ĠÃºst": 2789,
      "Å¾enÃŃ": 2790,
      "Ġplane": 2791,
      "Ġjo": 2792,
      "Ġstal": 2793,
      "ĠnaSi": 2794,
      "Ġzvon": 2795,
      "ĠzboÅ¾": 2796,
      "ĠjÃŃÅ¾": 2797,
      "Ġmatky": 2798,
      "Sla": 2799,
      "vuje": 2800,
      "vili": 2801,
      "Ġtf": 2802,
      "Ġmist": 2803,
      "ĠmÄĽla": 2804,
      "Nit": 2805,
      "slu": 2806,
      "Ġjednu": 2807,
      "ĠtvÃ©m": 2808,
      "ĠrUZe": 2809,
      "ĠfspomI": 2810,
      "ĠsA": 2811,
      "Ġkdysi": 2812,
      "ĠmoÅĻi": 2813,
      "ĠkrAl": 2814,
      "ber": 2815,
      "Ġohni": 2816,
      "ĠjuS": 2817,
      "ĠvrÃ¡t": 2818,
      "ĠklI": 2819,
      "Ġxci": 2820,
      "ĠrÃ¡j": 2821,
      "Ġdosti": 2822,
      "dnI": 2823,
      "ĠbÄĽda": 2824,
      "Ġvyz": 2825,
      "Ġlze": 2826,
      "tom": 2827,
      "Å¾eh": 2828,
      "ĠplnÃ½": 2829,
      "Ġzpo": 2830,
      "Ġpohle": 2831,
      "Ġtemno": 2832,
      "Cko": 2833,
      "vin": 2834,
      "Ġboku": 2835,
      "zil": 2836,
      "Ġvln": 2837,
      "ĠsvÃ©mu": 2838,
      "ĠvÅ¡echny": 2839,
      "ĠbouÅĻÃŃ": 2840,
      "ĠstQ": 2841,
      "pQ": 2842,
      "ĠSu": 2843,
      "ĠÃºsta": 2844,
      "ĠtvÃ©ho": 2845,
      "ĠnevÃŃm": 2846,
      "ĠslÃŃ": 2847,
      "ĠdÄĽc": 2848,
      "dE": 2849,
      "tnÃ©": 2850,
      "ĠmojÃŃ": 2851,
      "jIm": 2852,
      "Ġmlado": 2853,
      "lex": 2854,
      "tÄĽl": 2855,
      "Nel": 2856,
      "ÅĻÃŃt": 2857,
      "nouti": 2858,
      "Ġsam": 2859,
      "sut": 2860,
      "ĠbyÅ¥": 2861,
      "tor": 2862,
      "Ġklu": 2863,
      "Ġsvi": 2864,
      "ĠnÃ¡d": 2865,
      "Ġdrah": 2866,
      "ĠsladkÃ½": 2867,
      "ĠzdrÃ¡": 2868,
      "ĠtisÃŃc": 2869,
      "mlu": 2870,
      "Ġstrach": 2871,
      "ĠhlÃŃ": 2872,
      "Ġkus": 2873,
      "Ġcelou": 2874,
      "liÅ¡": 2875,
      "ĠhrU": 2876,
      "ĠDiv": 2877,
      "ĠÄįela": 2878,
      "ech": 2879,
      "Ġsud": 2880,
      "Ġzvje": 2881,
      "ĠjIm": 2882,
      "ĠhrA": 2883,
      "Ġjino": 2884,
      "ĠskÃ¡ly": 2885,
      "Ġnejs": 2886,
      "ĠmladÃ½": 2887,
      "Ġhoch": 2888,
      "ĠmusI": 2889,
      "ÅĻo": 2890,
      "CNI": 2891,
      "stala": 2892,
      "Ġvzdy": 2893,
      "Ġpsa": 2894,
      "ĠdnÅ¯": 2895,
      "ĠvÄĽc": 2896,
      "tno": 2897,
      "Ġtit": 2898,
      "Ġmodr": 2899,
      "Ġgdibi": 2900,
      "Ġpotu": 2901,
      "Ġmoci": 2902,
      "Ġjsa": 2903,
      "Ġchyt": 2904,
      "ĠhlavÄĽ": 2905,
      "ĠDeTi": 2906,
      "Ġnas": 2907,
      "ĠcÃŃsa": 2908,
      "Ġvlo": 2909,
      "ĠkaÅ¾dÃ¡": 2910,
      "ĠdvÃ©": 2911,
      "Ġpest": 2912,
      "ĠchceÅ¡": 2913,
      "bli": 2914,
      "ĠSel": 2915,
      "cki": 2916,
      "Ġklas": 2917,
      "ĠdruÅ¾": 2918,
      "eni": 2919,
      "ĠvIm": 2920,
      "Ġpoho": 2921,
      "dÄĽli": 2922,
      "ĠsmQTi": 2923,
      "ĠmnohÃ½": 2924,
      "ĠsTIn": 2925,
      "ĠstromÅ¯": 2926,
      "Ġspole": 2927,
      "Ġnohou": 2928,
      "dl": 2929,
      "voj": 2930,
      "dn": 2931,
      "Ġprok": 2932,
      "Ã¡ch": 2933,
      "ĠÅĻÃŃm": 2934,
      "Nice": 2935,
      "ĠpÄĽt": 2936,
      "ĠuÄįi": 2937,
      "ĠklidnÄĽ": 2938,
      "Ġjimi": 2939,
      "ĠsvÄĽÅ¾ÃŃ": 2940,
      "kÃ¡m": 2941,
      "Ġdni": 2942,
      "ĠÄįÃ¡": 2943,
      "ĠstÃŃnu": 2944,
      "ver": 2945,
      "Ġholu": 2946,
      "ĠvITe": 2947,
      "ĠkÃ©Å¾": 2948,
      "zky": 2949,
      "ĠdÃ¡lky": 2950,
      "Ġstk": 2951,
      "Ġhudba": 2952,
      "ĠoheÅĪ": 2953,
      "ĠdobrÃ©": 2954,
      "Å¡ek": 2955,
      "ĠÅĻÃŃci": 2956,
      "ĠloÄı": 2957,
      "Ġrty": 2958,
      "ĠnÃ©m": 2959,
      "ĠvÄĽÄįnÃ©": 2960,
      "ĠhledÃ¡": 2961,
      "Ġveleb": 2962,
      "ĠklÃŃn": 2963,
      "Ġtmy": 2964,
      "Ġhem": 2965,
      "pro": 2966,
      "nAm": 2967,
      "Ġlili": 2968,
      "ĠvIS": 2969,
      "ost": 2970,
      "ĠmÃ½": 2971,
      "losti": 2972,
      "dajÃŃ": 2973,
      "ĠsvA": 2974,
      "zku": 2975,
      "ĠnadÄĽje": 2976,
      "Ġruky": 2977,
      "kon": 2978,
      "Ġmis": 2979,
      "ĠjehoÅ¾": 2980,
      "ĠkrÃ¡snÃ¡": 2981,
      "ĠmuÅ¾i": 2982,
      "Ġzlata": 2983,
      "Ġcel": 2984,
      "Ġspad": 2985,
      "ĠdAle": 2986,
      "tli": 2987,
      "ckÃ½": 2988,
      "jas": 2989,
      "ĠlidskÃ©": 2990,
      "kÅĻik": 2991,
      "ĠjarnÃŃ": 2992,
      "Ġsme": 2993,
      "Ġzapom": 2994,
      "ĠhnÃŃz": 2995,
      "ĠkrÃ¡ÄįÃŃ": 2996,
      "ĠdobrÃ½": 2997,
      "Ġvesele": 2998,
      "ĠnovE": 2999,
      "ĠcelE": 3000,
      "ĠbrA": 3001,
      "Rit": 3002,
      "skem": 3003,
      "ĠskrA": 3004,
      "Ġslab": 3005,
      "Ġide": 3006,
      "Ġpry": 3007,
      "dit": 3008,
      "Ġnevje": 3009,
      "Ġtvoji": 3010,
      "Ġklet": 3011,
      "ĠplnÃ©": 3012,
      "cad": 3013,
      "ĠmuS": 3014,
      "gu": 3015,
      "tajÃŃ": 3016,
      "Ġdali": 3017,
      "ĠchÅ¯": 3018,
      "ĠdÃ¡vÃ¡": 3019,
      "Ġvin": 3020,
      "CNe": 3021,
      "ĠskvÄĽ": 3022,
      "ĠsmQt": 3023,
      "ĠsÃŃla": 3024,
      "ĠkÃ¡men": 3025,
      "Ġvti": 3026,
      "stil": 3027,
      "ĠzatÃŃm": 3028,
      "BC": 3029,
      "Ġxlad": 3030,
      "ĠrÃ¡no": 3031,
      "Ġruch": 3032,
      "Ġznamen": 3033,
      "Ġvlasy": 3034,
      "ĠaspoÅĪ": 3035,
      "tost": 3036,
      "ĠtÃ©to": 3037,
      "ĠmladÃ©": 3038,
      "ĠstrÃ¡Å¾": 3039,
      "nÄĽnÃŃ": 3040,
      "ĠvyÅ¡": 3041,
      "ĠCIm": 3042,
      "Ġvoda": 3043,
      "ĠmIx": 3044,
      "ĠnaÅĪ": 3045,
      "Ġnebude": 3046,
      "Ax": 3047,
      "ĠmÃ¡me": 3048,
      "prv": 3049,
      "Ġspu": 3050,
      "Ġskon": 3051,
      "ĠpRece": 3052,
      "ĠdrahÃ¡": 3053,
      "Ġkost": 3054,
      "Ġtri": 3055,
      "Ġsxo": 3056,
      "Ġblaha": 3057,
      "sit": 3058,
      "zvu": 3059,
      "Å¡ÃŃch": 3060,
      "Ġdobr": 3061,
      "Ġkomu": 3062,
      "Ġvle": 3063,
      "Ġpek": 3064,
      "Äįet": 3065,
      "ĠzÃŃtra": 3066,
      "ĠcÃŃtÃŃm": 3067,
      "ĠÅĻad": 3068,
      "zli": 3069,
      "Ġbratr": 3070,
      "Å¡nÃ©": 3071,
      "Ġklidu": 3072,
      "Ġsad": 3073,
      "Å¡ky": 3074,
      "Ġkrokem": 3075,
      "klad": 3076,
      "Ġjakby": 3077,
      "Ġvelik": 3078,
      "ĠrÃ¡ny": 3079,
      "Ġuna": 3080,
      "ĠoltÃ¡": 3081,
      "bat": 3082,
      "ĠnemÄĽ": 3083,
      "ĠT": 3084,
      "ĠlÃ©ta": 3085,
      "Ġsic": 3086,
      "Ġzlatem": 3087,
      "ĠÄįin": 3088,
      "Ġpope": 3089,
      "ĠoCI": 3090,
      "ĠrÃ¡z": 3091,
      "ĠtichÃ©": 3092,
      "Ġteh": 3093,
      "zeÅĪ": 3094,
      "ĠslyÅ¡el": 3095,
      "STi": 3096,
      "ĠrÅ¯Å¾ÃŃ": 3097,
      "Ġnoh": 3098,
      "ĠvÃ¡l": 3099,
      "ĠTixo": 3100,
      "Ġnebyl": 3101,
      "vjet": 3102,
      "Ġsvad": 3103,
      "ĠdU": 3104,
      "Ġslovem": 3105,
      "Ġvar": 3106,
      "ĠjÃŃmÅ¾": 3107,
      "cla": 3108,
      "Ġosla": 3109,
      "ĠtisÃŃce": 3110,
      "ĠpÅĻÃŃliÅ¡": 3111,
      "ĠtÅĻÃ¡": 3112,
      "Ġluz": 3113,
      "Ġcu": 3114,
      "Ġtce": 3115,
      "ĠkterA": 3116,
      "Äįin": 3117,
      "Ġvztek": 3118,
      "ĠNIS": 3119,
      "ga": 3120,
      "ĠmuÅ¾e": 3121,
      "pem": 3122,
      "ĠtichÃ½": 3123,
      "Ġzle": 3124,
      "ĠleTI": 3125,
      "jme": 3126,
      "ĠjichÅ¾": 3127,
      "ĠmotÃ½": 3128,
      "nak": 3129,
      "Ġchle": 3130,
      "ĠproTi": 3131,
      "ĠpovÃŃ": 3132,
      "Ġbrzy": 3133,
      "Ġzni": 3134,
      "Ġradosti": 3135,
      "ĠpÃ©": 3136,
      "Ġ1800": 3137,
      "ĠdrahÃ©": 3138,
      "ĠÄįernÃ½": 3139,
      "Ġspou": 3140,
      "Ġmodli": 3141,
      "Ġmali": 3142,
      "CBC": 3143,
      "Ġzmo": 3144,
      "noucÃŃ": 3145,
      "Ġsrdcem": 3146,
      "Ġvze": 3147,
      "Ġkolik": 3148,
      "ke": 3149,
      "Ġtry": 3150,
      "ĠpRes": 3151,
      "ĠmilÃ©": 3152,
      "has": 3153,
      "Ġlek": 3154,
      "Ġnoha": 3155,
      "Ġrozu": 3156,
      "ĠmalÃ½": 3157,
      "Ġtva": 3158,
      "Ġtrp": 3159,
      "Ġuvi": 3160,
      "hn": 3161,
      "ĠmÃŃru": 3162,
      "Ġzhas": 3163,
      "Ġrosko": 3164,
      "vice": 3165,
      "Ġrodi": 3166,
      "ĠdruhÃ½": 3167,
      "Ġjazy": 3168,
      "ĠmrÃ¡z": 3169,
      "ĠvÄĽkÅ¯": 3170,
      "Ġtato": 3171,
      "mrak": 3172,
      "ĠleZI": 3173,
      "Ġpes": 3174,
      "dky": 3175,
      "Ġdex": 3176,
      "bila": 3177,
      "Ġsmi": 3178,
      "Ġoblak": 3179,
      "ĠrytÃŃ": 3180,
      "Ġmnoh": 3181,
      "Ġbro": 3182,
      "ĠdlouhÃ©": 3183,
      "ĠvÄĽtÅ¡ÃŃ": 3184,
      "Ġhradu": 3185,
      "ĠÅĻeÄįi": 3186,
      "Ġdnem": 3187,
      "ĠkvÃŃtÃŃ": 3188,
      "Ġzka": 3189,
      "Ġblanky": 3190,
      "ĠXXABAB": 3191,
      "Ġdny": 3192,
      "ĠtvIx": 3193,
      "Ġnil": 3194,
      "rÃ¡ch": 3195,
      "Ġrozk": 3196,
      "Ġjab": 3197,
      "nala": 3198,
      "dÃ¡m": 3199,
      "ĠkrÃ¡snÃ½": 3200,
      "Ġnepro": 3201,
      "ĠbudeÅ¡": 3202,
      "Ġstromy": 3203,
      "ĠstarI": 3204,
      "ĠpÃ¡r": 3205,
      "ĠchodÃŃ": 3206,
      "ĠbÃ¡snÃŃ": 3207,
      "Ġtvor": 3208,
      "ĠpryÄį": 3209,
      "Ġtuto": 3210,
      "Ġobli": 3211,
      "ĠpÃŃsni": 3212,
      "ĠÅĻekl": 3213,
      "Ġkonce": 3214,
      "boj": 3215,
      "Ġmatko": 3216,
      "Ġteb": 3217,
      "vor": 3218,
      "Ġprachu": 3219,
      "Ġin": 3220,
      "Ġhrudi": 3221,
      "ĠsplÃ½": 3222,
      "Ġpli": 3223,
      "ĠkrÃ¡li": 3224,
      "kra": 3225,
      "tÅĻe": 3226,
      "Ġhloubi": 3227,
      "hat": 3228,
      "Ġhvo": 3229,
      "Ġhad": 3230,
      "ĠtrA": 3231,
      "Ġbl": 3232,
      "Äįkou": 3233,
      "Ġcizi": 3234,
      "ĠlesÅ¯": 3235,
      "jak": 3236,
      "ĠpÅĻÃŃÅ¡tÃŃ": 3237,
      "Ġvzbu": 3238,
      "ĠvÃŃru": 3239,
      "vÃ¡t": 3240,
      "ĠDel": 3241,
      "pÃ½": 3242,
      "zra": 3243,
      "ĠpÅĻede": 3244,
      "ĠvÅ¡ÃŃm": 3245,
      "ĠbQ": 3246,
      "ÄįÃ¡": 3247,
      "kAx": 3248,
      "Ġfst": 3249,
      "Ġdv": 3250,
      "vÃŃrÃ¡": 3251,
      "ĠchvÄĽje": 3252,
      "ĠdobÄĽ": 3253,
      "stÃ©": 3254,
      "Ġtouhou": 3255,
      "Ġsne": 3256,
      "Ġpode": 3257,
      "ĠvolA": 3258,
      "ĠbratÅĻÃŃ": 3259,
      "Ġsbor": 3260,
      "Ġster": 3261,
      "ĠzdÃ¡lo": 3262,
      "tex": 3263,
      "ĠvaÅ¡i": 3264,
      "Ġled": 3265,
      "krAt": 3266,
      "ĠlistÃŃ": 3267,
      "Ġrix": 3268,
      "ĠtoT": 3269,
      "Ġmilosti": 3270,
      "ĠnemÅ¯": 3271,
      "Ġlex": 3272,
      "ĠmajÃŃ": 3273,
      "Ġnevin": 3274,
      "ĠboZe": 3275,
      "ĠkNe": 3276,
      "Ġplach": 3277,
      "ĠnedÃ¡": 3278,
      "ĠÄįet": 3279,
      "ĠbAs": 3280,
      "ĠvÄĽÅĻ": 3281,
      "lÃ©t": 3282,
      "hlu": 3283,
      "ĠdÄĽdi": 3284,
      "Ġcti": 3285,
      "Ġchvat": 3286,
      "Ġjez": 3287,
      "Ġtruch": 3288,
      "Ska": 3289,
      "bnÃŃ": 3290,
      "Ġosa": 3291,
      "tala": 3292,
      "ĠslyÅ¡ÃŃm": 3293,
      "ĠmÅ¾i": 3294,
      "lÃ©ho": 3295,
      "ĠdlaÅĪ": 3296,
      "ÄįnÃ¡": 3297,
      "Ġxi": 3298,
      "ĠÄįasu": 3299,
      "dlem": 3300,
      "ÅĻila": 3301,
      "ĠABBACC": 3302,
      "ĠmÄĽsto": 3303,
      "ĠÅ¡umÃŃ": 3304,
      "Ġproro": 3305,
      "ĠcÃŃtil": 3306,
      "Ġdoba": 3307,
      "ĠrozkoÅ¡": 3308,
      "ĠsNI": 3309,
      "Ġkom": 3310,
      "ĠpRez": 3311,
      "ĠnÃ¡ruÄį": 3312,
      "Ġpln": 3313,
      "Ġzim": 3314,
      "ĠsÃŃlu": 3315,
      "Ġleb": 3316,
      "lej": 3317,
      "ĠdÃŃvka": 3318,
      "Ġstane": 3319,
      "Ġpoc": 3320,
      "Ġnim": 3321,
      "Ġdaleko": 3322,
      "ĠdobRe": 3323,
      "ĠNimi": 3324,
      "nci": 3325,
      "ĠknÃŃÅ¾e": 3326,
      "Ġvp": 3327,
      "in": 3328,
      "Ġjal": 3329,
      "ĠvÄĽÄįnÃ½": 3330,
      "Ġhora": 3331,
      "Ġpoled": 3332,
      "ĠkteÅĻÃŃ": 3333,
      "ĠCist": 3334,
      "ĠblÃ½": 3335,
      "ĠÅĻil": 3336,
      "Ġraj": 3337,
      "Ġnapos": 3338,
      "ĠpQvNI": 3339,
      "ĠĠĠ": 3340,
      "ĠfSi": 3341,
      "ĠskrÃ¡ÅĪ": 3342,
      "Ġposud": 3343,
      "Ġvet": 3344,
      "mNeNI": 3345,
      "Ġsmutku": 3346,
      "Ġkmet": 3347,
      "CIm": 3348,
      "ĠÄıÃ¡": 3349,
      "Ġvjen": 3350,
      "ĠtenkrÃ¡t": 3351,
      "Ġnesly": 3352,
      "bem": 3353,
      "Ġscho": 3354,
      "Ġslune": 3355,
      "bro": 3356,
      "ĠxvIli": 3357,
      "Ġej": 3358,
      "ĠkRe": 3359,
      "uj": 3360,
      "Ġbolu": 3361,
      "Ġstalo": 3362,
      "ĠrÅ¯Å¾o": 3363,
      "Ġsluncem": 3364,
      "Ġzoufal": 3365,
      "ĠvlasTi": 3366,
      "ĠbÅĻehu": 3367,
      "nÃ©mu": 3368,
      "mÃ¡ch": 3369,
      "zuje": 3370,
      "ĠposledNI": 3371,
      "ĠduSI": 3372,
      "ĠcÃŃl": 3373,
      "Ġska": 3374,
      "ĠsvÄĽtu": 3375,
      "ĠvÅ¯le": 3376,
      "dNI": 3377,
      "ĠpÃ¡ni": 3378,
      "ĠrÃ¡m": 3379,
      "ĠzvlÃ¡": 3380,
      "Ġpomoc": 3381,
      "ĠznÄĽl": 3382,
      "ĠrÃ¡zem": 3383,
      "ĠmalÃ©": 3384,
      "stÃ¡vÃ¡": 3385,
      "ĠkrÃ¡se": 3386,
      "ĠplÃ¡Äįe": 3387,
      "Ġletu": 3388,
      "ĠvzÃ¡c": 3389,
      "chal": 3390,
      "Ġspa": 3391,
      "tit": 3392,
      "lan": 3393,
      "ĠÅĪader": 3394,
      "chvÄĽ": 3395,
      "Ġcosi": 3396,
      "Ġlidstva": 3397,
      "ĠAXAA": 3398,
      "ĠÅ¡a": 3399,
      "Ġbudouc": 3400,
      "Ġztracen": 3401,
      "ĠXAABBX": 3402,
      "ĠvÅ¯kol": 3403,
      "Ġpanen": 3404,
      "ĠpÃ½ch": 3405,
      "Ġduchu": 3406,
      "ĠZena": 3407,
      "Ġbleskem": 3408,
      "Ġnechce": 3409,
      "hlo": 3410,
      "tÃ¡m": 3411,
      "ĠoÄįÃŃch": 3412,
      "kej": 3413,
      "han": 3414,
      "vANI": 3415,
      "ĠdAvno": 3416,
      "ĠjmÃ©no": 3417,
      "Ġjat": 3418,
      "Å¡lo": 3419,
      "Ġbis": 3420,
      "ĠmUZe": 3421,
      "ĠvÅ¡emi": 3422,
      "ĠkrÅ¯": 3423,
      "ĠÅ¾a": 3424,
      "ÅĻenÃ©": 3425,
      "Ġzdali": 3426,
      "ĠsvatÃ¡": 3427,
      "Ġoce": 3428,
      "ĠbITi": 3429,
      "Ġjeli": 3430,
      "Ġgo": 3431,
      "ĠzARI": 3432,
      "tro": 3433,
      "ĠzU": 3434,
      "bel": 3435,
      "Ġmni": 3436,
      "ĠpohA": 3437,
      "nut": 3438,
      "Ġane": 3439,
      "ĠkrÃ¡le": 3440,
      "Ġznal": 3441,
      "ĠprI": 3442,
      "nali": 3443,
      "Ġtk": 3444,
      "Ġprahu": 3445,
      "Cel": 3446,
      "lnÃŃ": 3447,
      "ĠkonÄĽ": 3448,
      "dro": 3449,
      "ĠbIlI": 3450,
      "Ġhori": 3451,
      "ÅĻek": 3452,
      "jÃŃt": 3453,
      "ĠfSecki": 3454,
      "Ġmisli": 3455,
      "ĠzlatE": 3456,
      "Ġstuden": 3457,
      "penÃŃ": 3458,
      "tej": 3459,
      "stat": 3460,
      "ĠklonÃŃ": 3461,
      "Ġvnu": 3462,
      "Ġnajde": 3463,
      "ĠvalÃŃ": 3464,
      "mek": 3465,
      "Ġgdis": 3466,
      "brÃ¡": 3467,
      "ĠchtÃŃ": 3468,
      "ĠvÃ½Å¡i": 3469,
      "ĠrÅ¯z": 3470,
      "ĠtÃ©m": 3471,
      "Ġkolo": 3472,
      "Ġsladce": 3473,
      "ĠskÅĻi": 3474,
      "hnul": 3475,
      "ĠdÄĽtÃŃ": 3476,
      "ĠtÃ³": 3477,
      "Ġroj": 3478,
      "per": 3479,
      "tkem": 3480,
      "ĠrÃ©": 3481,
      "ĠÅ¡le": 3482,
      "Ġher": 3483,
      "ĠtÄĽÅ¾kÃ©": 3484,
      "Ġrci": 3485,
      "ĠjasnÃ©": 3486,
      "Ġono": 3487,
      "stupu": 3488,
      "Ġmari": 3489,
      "Ġvad": 3490,
      "Äįnou": 3491,
      "nuli": 3492,
      "vAm": 3493,
      "Ġjitra": 3494,
      "Ġnebu": 3495,
      "ĠdÅ¯vÄĽ": 3496,
      "Ġkos": 3497,
      "pot": 3498,
      "Ġmatce": 3499,
      "Ġhvjezdi": 3500,
      "ĠhrobÄĽ": 3501,
      "CnE": 3502,
      "ĠpÅĻiÅ¡la": 3503,
      "rce": 3504,
      "ĠhleDI": 3505,
      "Ġdlouh": 3506,
      "ĠpaNI": 3507,
      "Ġkoho": 3508,
      "Ġctnost": 3509,
      "Ġzax": 3510,
      "ĠprAzd": 3511,
      "Ġzdi": 3512,
      "Ġzraku": 3513,
      "Äįila": 3514,
      "kami": 3515,
      "mNel": 3516,
      "pÅ¯": 3517,
      "kojen": 3518,
      "jIc": 3519,
      "ĠmizÃŃ": 3520,
      "us": 3521,
      "ĠzvonÃŃ": 3522,
      "ĠrÃ¡da": 3523,
      "stek": 3524,
      "ĠTelo": 3525,
      "ĠnexT": 3526,
      "ĠzÃ¡hy": 3527,
      "Ġodpu": 3528,
      "ĠCasto": 3529,
      "jÃŃch": 3530,
      "ĠdÃŃm": 3531,
      "Ġbudem": 3532,
      "Ġostat": 3533,
      "ĠsmutnÄĽ": 3534,
      "dÃ¡nÃŃ": 3535,
      "Uf": 3536,
      "ĠÅ¾eh": 3537,
      "rku": 3538,
      "Ġmodra": 3539,
      "Ġsat": 3540,
      "kajÃŃ": 3541,
      "Ġmohl": 3542,
      "Ġhrou": 3543,
      "tat": 3544,
      "zek": 3545,
      "ĠvzplÃ¡": 3546,
      "ĠstÅ¯": 3547,
      "host": 3548,
      "ĠmeC": 3549,
      "Ġnout": 3550,
      "rnÃ¡": 3551,
      "Ġchra": 3552,
      "Ġhraje": 3553,
      "ĠkrÃ¡sa": 3554,
      "Nem": 3555,
      "Ġpoesi": 3556,
      "snÃ©": 3557,
      "Ġnohy": 3558,
      "neÅ¡": 3559,
      "ĠlAsku": 3560,
      "ĠZivota": 3561,
      "ĠCelo": 3562,
      "ĠmodrÃ©": 3563,
      "ĠovÅ¡em": 3564,
      "ĠzÃ¡m": 3565,
      "ĠvÄĽz": 3566,
      "snÃ½": 3567,
      "ĠhRIx": 3568,
      "Ġvix": 3569,
      "ĠSTI": 3570,
      "ĠAABCBC": 3571,
      "lnÄĽ": 3572,
      "?...": 3573,
      "ĠsrdcÃŃ": 3574,
      "Ġnebem": 3575,
      "chÃ¡ze": 3576,
      "Ġnec": 3577,
      "rek": 3578,
      "Ġpano": 3579,
      "ĠdrahÃ½": 3580,
      "ĠmoÅ¾no": 3581,
      "Ġmimo": 3582,
      "ĠzAR": 3583,
      "ĠNad": 3584,
      "ĠsvÃ½mi": 3585,
      "kaz": 3586,
      "mot": 3587,
      "ĠsvEm": 3588,
      "ĠÄįeskÃ©": 3589,
      "dNe": 3590,
      "ĠbÅĻÃŃ": 3591,
      "Ġkruh": 3592,
      "rÃ¡m": 3593,
      "ĠlAsk": 3594,
      "Ġtmou": 3595,
      "ĠstarÃ½ch": 3596,
      "ĠÃºtÄĽ": 3597,
      "ĠtReba": 3598,
      "ĠxvIle": 3599,
      "ĠpoC": 3600,
      "ĠjejÃŃm": 3601,
      "Ġotci": 3602,
      "Ġmluvil": 3603,
      "Ġdraho": 3604,
      "Ġjd": 3605,
      "Äįem": 3606,
      "Ġsve": 3607,
      "ĠviDI": 3608,
      "Ġmili": 3609,
      "ĠdÅĻÃŃve": 3610,
      "Ġunaven": 3611,
      "ĠmladÃ¡": 3612,
      "ĠsfÃ©": 3613,
      "ĠsluÅ¾": 3614,
      "ĠmilI": 3615,
      "ĠstAl": 3616,
      "Ġzhy": 3617,
      "ĠchtÄĽla": 3618,
      "Cit": 3619,
      "ĠNit": 3620,
      "snÃŃ": 3621,
      "Ġklen": 3622,
      "ĠumI": 3623,
      "Ski": 3624,
      "jdu": 3625,
      "ĠkvÄĽti": 3626,
      "vrat": 3627,
      "Ġznak": 3628,
      "Ġdobu": 3629,
      "dka": 3630,
      "Ġprsa": 3631,
      "ĠÅ¾enu": 3632,
      "Å¡le": 3633,
      "Å¡nÃ½": 3634,
      "ĠodpovÄĽ": 3635,
      "ĠvÃ¡mi": 3636,
      "Ġvelko": 3637,
      "ĠkrÅ¯pÄĽ": 3638,
      "ĠzlatÃ¡": 3639,
      "ĠbouÅĻi": 3640,
      "Ġosut": 3641,
      "Ġzcela": 3642,
      "Ġpodiv": 3643,
      "Ġvis": 3644,
      "Ġkristu": 3645,
      "ĠzÃ¡zrak": 3646,
      "ĠhÃ¡j": 3647,
      "Ġpravdy": 3648,
      "Ġsvato": 3649,
      "Ġspjef": 3650,
      "ĠnepÅĻÃ¡": 3651,
      "Ġdlo": 3652,
      "ĠnepÅĻÃŃ": 3653,
      "Ġopat": 3654,
      "ĠchvÄĽl": 3655,
      "ĠZha": 3656,
      "Ġmatku": 3657,
      "ĠÅ¾Ã¡dnÃ½": 3658,
      "Ġpromlu": 3659,
      "ĠtRi": 3660,
      "ker": 3661,
      "bek": 3662,
      "ĠjedinÃ½": 3663,
      "cnÄĽ": 3664,
      "Ġdok": 3665,
      "Ġholubi": 3666,
      "ĠjakI": 3667,
      "ĠhÅĻbito": 3668,
      "ĠvelkÃ¡": 3669,
      "Ġvrcho": 3670,
      "ĠNeho": 3671,
      "ĠmÄĽnÃŃ": 3672,
      "Ġzapomen": 3673,
      "ĠstejnÄĽ": 3674,
      "Ġtadi": 3675,
      "vedli": 3676,
      "ĠX": 3677,
      "vce": 3678,
      "koj": 3679,
      "ĠÅĻas": 3680,
      "Ġvrah": 3681,
      "ĠkaÅ¾dou": 3682,
      "dex": 3683,
      "ĠdennÄĽ": 3684,
      "ĠnAru": 3685,
      "skne": 3686,
      "ĠtouÅ¾ÃŃ": 3687,
      "nosÅ¥": 3688,
      "ĠtÃŃÅ¾": 3689,
      "bec": 3690,
      "dlÃŃ": 3691,
      "ĠslÃ¡vÄĽ": 3692,
      "stvu": 3693,
      "Ġoken": 3694,
      "ĠsLzi": 3695,
      "ZIm": 3696,
      "Ġpadne": 3697,
      "ĠspÃŃÅ¡": 3698,
      "nÃ¡Å¡e": 3699,
      "Ġnemoc": 3700,
      "kut": 3701,
      "Ġfz": 3702,
      "ĠdRIf": 3703,
      "Ġkade": 3704,
      "ĠpÅĻÃ¡tel": 3705,
      "ĠslÃ¡vu": 3706,
      "SeNI": 3707,
      "ĠbÅĻeh": 3708,
      "Ġpoznal": 3709,
      "Ġmaje": 3710,
      "ĠjednÃ©": 3711,
      "kÅ¯m": 3712,
      "Ġkrou": 3713,
      "ĠokamÅ¾i": 3714,
      "ĠnArot": 3715,
      "Ġteprv": 3716,
      "Ġciz": 3717,
      "ĠmraÄį": 3718,
      "ĠnepÅĻi": 3719,
      "ĠtR": 3720,
      "Äįej": 3721,
      "Ġvstal": 3722,
      "ĠzÅĻe": 3723,
      "Ġzima": 3724,
      "Ġjeze": 3725,
      "jÃ¡": 3726,
      "Ġdlu": 3727,
      "ĠskÃ½": 3728,
      "ĠnAmi": 3729,
      "ĠpevnÄĽ": 3730,
      "ĠdAli": 3731,
      "Ġskoro": 3732,
      "lÃŃÅ¾ÃŃ": 3733,
      "ĠpÃ½": 3734,
      "Ġkdos": 3735,
      "ujÃŃ": 3736,
      "Ġvola": 3737,
      "ĠÅ¾ÃŃti": 3738,
      "Ġozdo": 3739,
      "Ġobzor": 3740,
      "ĠpoÅ¾eh": 3741,
      "ĠsnU": 3742,
      "ĠNigdo": 3743,
      "Ġvelmi": 3744,
      "Ġdotk": 3745,
      "ĠstÃ¡la": 3746,
      "Ġvine": 3747,
      "ĠtÅĻetÃŃ": 3748,
      "zkÃ©": 3749,
      "Ġdro": 3750,
      "Ġpape": 3751,
      "Ġmate": 3752,
      "Zo": 3753,
      "ĠÃºdo": 3754,
      "ĠvDe": 3755,
      "Ġvzlet": 3756,
      "Ġtedi": 3757,
      "ĠnovI": 3758,
      "ĠbÄĽÅ¾ÃŃ": 3759,
      "pila": 3760,
      "ĠÄįerven": 3761,
      "ĠvÃ½cho": 3762,
      "Ġkl": 3763,
      "ĠxvA": 3764,
      "ĠsvITI": 3765,
      "Dit": 3766,
      "Ġjel": 3767,
      "ĠmÃŃti": 3768,
      "Ġmati": 3769,
      "pÄĽl": 3770,
      "tev": 3771,
      "ĠpIsNe": 3772,
      "vel": 3773,
      "ĠblA": 3774,
      "ĠviDel": 3775,
      "rAs": 3776,
      "ĠptÃ¡ci": 3777,
      "Ġjitro": 3778,
      "Ġneho": 3779,
      "ĠzemÃŃ": 3780,
      "ĠmlÄįÃŃ": 3781,
      "Ġpropast": 3782,
      "Ġpob": 3783,
      "Ġhluk": 3784,
      "Tit": 3785,
      "ĠvracÃŃ": 3786,
      "Ġhlubin": 3787,
      "ĠÅĻeÄįÃŃ": 3788,
      "Ġjdi": 3789,
      "Ġtal": 3790,
      "ĠbudÃŃ": 3791,
      "sila": 3792,
      "ĠsliS": 3793,
      "staÅĪ": 3794,
      "ĠdlouhÃ½": 3795,
      "ĠpUl": 3796,
      "vÃ½mi": 3797,
      "ĠnenÃ¡": 3798,
      "ĠÅĻÃŃÅ¡": 3799,
      "ĠSep": 3800,
      "ctvÃŃ": 3801,
      "Ġprapor": 3802,
      "Sku": 3803,
      "Ã¡tky": 3804,
      "Ġkvjeti": 3805,
      "ĠzÃ¡pa": 3806,
      "ZNe": 3807,
      "ĠÄįt": 3808,
      "Ġsluch": 3809,
      "Ġpozor": 3810,
      "ĠdruhÃ©": 3811,
      "vÅ¡": 3812,
      "ĠÄįlovÄĽka": 3813,
      "Ġseb": 3814,
      "Det": 3815,
      "Ġlesem": 3816,
      "ĠjmE": 3817,
      "ĠvRe": 3818,
      "ene": 3819,
      "ĠnoÄįnÃŃ": 3820,
      "Dela": 3821,
      "ĠnemA": 3822,
      "ĠsQ": 3823,
      "Ġtrou": 3824,
      "klÃ¡": 3825,
      "Ġmraky": 3826,
      "ĠmarNe": 3827,
      "ĠrudÃ©": 3828,
      "ĠnevI": 3829,
      "ĠZeni": 3830,
      "Ġnejsem": 3831,
      "tU": 3832,
      "ĠpadA": 3833,
      "hlI": 3834,
      "Ġnebylo": 3835,
      "ĠdrA": 3836,
      "stvÃŃm": 3837,
      "Ġsilou": 3838,
      "ĠtÄĽle": 3839,
      "Ġpit": 3840,
      "lenÃ©": 3841,
      "ĠneboÅ¥": 3842,
      "Ġvzpo": 3843,
      "ĠjejS": 3844,
      "Ġnechci": 3845,
      "ĠlÃŃbÃ¡": 3846,
      "ĠvzneÅ¡en": 3847,
      "rpu": 3848,
      "Ġhrop": 3849,
      "Ġneroz": 3850,
      "Ġmramo": 3851,
      "Ġmusil": 3852,
      "ĠÄįaro": 3853,
      "ĠdÅĻe": 3854,
      "Ġvot": 3855,
      "Ġzor": 3856,
      "ĠrtÅ¯": 3857,
      "ĠpapQ": 3858,
      "ĠzÃ¡vi": 3859,
      "Ġjan": 3860,
      "ĠknÄĽÅ¾": 3861,
      "fA": 3862,
      "ĠcizI": 3863,
      "rnou": 3864,
      "Ġca": 3865,
      "Å¾ila": 3866,
      "Ġrad": 3867,
      "Ġstav": 3868,
      "ĠkvÄĽtu": 3869,
      "ĠSer": 3870,
      "cÅ¯m": 3871,
      "ĠÅ¡edi": 3872,
      "ĠmIr": 3873,
      "ĠsklÃ¡nÃŃ": 3874,
      "ĠneZ": 3875,
      "dili": 3876,
      "ĠmalÃ¡": 3877,
      "lep": 3878,
      "dI": 3879,
      "ĠbÃŃlÃ½ch": 3880,
      "pÄĽt": 3881,
      "ĠhoRI": 3882,
      "ĠstavÃŃ": 3883,
      "ĠAABBXX": 3884,
      "chou": 3885,
      "dÃ¡ch": 3886,
      "Ġzmizel": 3887,
      "ĠvZdicki": 3888,
      "kovi": 3889,
      "ĠÃºzko": 3890,
      "ĠvlastNI": 3891,
      "ĠkI": 3892,
      "teÄį": 3893,
      "ĠvÅ¯li": 3894,
      "ĠpÅ¯lno": 3895,
      "ĠvÄįera": 3896,
      "Ġmluvit": 3897,
      "Ġpora": 3898,
      "ĠsmA": 3899,
      "Ġbran": 3900,
      "ĠfSeho": 3901,
      "vede": 3902,
      "Ġmed": 3903,
      "Ġvzru": 3904,
      "Sem": 3905,
      "ĠDet": 3906,
      "ĠkNi": 3907,
      "Ġdvou": 3908,
      "Ġvrat": 3909,
      "Ġtkli": 3910,
      "nImi": 3911,
      "Ġhvjezd": 3912,
      "Ġtur": 3913,
      "ĠsklA": 3914,
      "tE": 3915,
      "Ġmas": 3916,
      "kovÃ©": 3917,
      "Ġfan": 3918,
      "Ġvane": 3919,
      "stro": 3920,
      "rÃ¡tÃŃ": 3921,
      "Ġsouse": 3922,
      "Ġau": 3923,
      "ĠvÃŃr": 3924,
      "Ġvlh": 3925,
      "Ġpoxo": 3926,
      "Ġprud": 3927,
      "Å¡nÃŃ": 3928,
      "Ġoch": 3929,
      "ĠtÃ¡hne": 3930,
      "ĠrÃ¡je": 3931,
      "ĠÅĻeky": 3932,
      "Ġhosti": 3933,
      "Ġlok": 3934,
      "cuje": 3935,
      "ĠstarE": 3936,
      "fy": 3937,
      "Ġrtech": 3938,
      "Å¡it": 3939,
      "Ġpen": 3940,
      "ĠpQs": 3941,
      "Ġneod": 3942,
      "ĠÅĪadra": 3943,
      "xNi": 3944,
      "ÅĻÅ¯": 3945,
      "Ġ0": 3946,
      "Ġrozho": 3947,
      "dÄĽnÃŃ": 3948,
      "ĠknÄĽz": 3949,
      "Zit": 3950,
      "ĠsIli": 3951,
      "ĠÄįty": 3952,
      "set": 3953,
      "ĠlkÃ¡": 3954,
      "Ġmuk": 3955,
      "Ġpomoci": 3956,
      "ĠnÃ¡dher": 3957,
      "Ġvstou": 3958,
      "ĠmQ": 3959,
      "Ġhon": 3960,
      "Ġbral": 3961,
      "Ġut": 3962,
      "Ġspjet": 3963,
      "ĠjisTe": 3964,
      "kva": 3965,
      "ĠbÃ½vÃ¡": 3966,
      "Ġsvjetlo": 3967,
      "fI": 3968,
      "CeNI": 3969,
      "dÃŃÅ¡": 3970,
      "Ġvan": 3971,
      "ĠkrÃ¡su": 3972,
      "lÃŃm": 3973,
      "ĠABBAXX": 3974,
      "ĠÄįÃŃÅ¡": 3975,
      "hlÃ¡": 3976,
      "vajI": 3977,
      "sÅ¯": 3978,
      "Äįo": 3979,
      "Ġsin": 3980,
      "ĠnadÅ¡en": 3981,
      "Ġnesou": 3982,
      "Ġbru": 3983,
      "stÅĻe": 3984,
      "Ġhochu": 3985,
      "ĠmusÃŃm": 3986,
      "ĠbohatÃ½": 3987,
      "Ġzrcad": 3988,
      "Ġkrista": 3989,
      "Ġzku": 3990,
      "ĠnuS": 3991,
      "Ġvjeru": 3992,
      "Ġspla": 3993,
      "ĠbledÃ¡": 3994,
      "vQ": 3995,
      "rav": 3996,
      "Ġstolu": 3997,
      "hÃ¡nÃŃ": 3998,
      "bez": 3999,
      "ĠskÃ©": 4000,
      "Ġluh": 4001,
      "ĠnÄĽjak": 4002,
      "Ġnovou": 4003,
      "ĠsmutnÃ©": 4004,
      "ĠkaZdE": 4005,
      "Å¾Å¡ÃŃ": 4006,
      "Ġobro": 4007,
      "jÃŃce": 4008,
      "Ġkyne": 4009,
      "ĠvelkI": 4010,
      "ĠvÅ¯nÃŃ": 4011,
      "ĠnÄĽkdo": 4012,
      "Ġzaho": 4013,
      "ĠzvedÃ¡": 4014,
      "on": 4015,
      "ĠvaSe": 4016,
      "ĠtvQ": 4017,
      "vEm": 4018,
      "ĠpRijde": 4019,
      "ĠzRIm": 4020,
      "Ġmohla": 4021,
      "Ġox": 4022,
      "ĠmÄĽst": 4023,
      "ĠÅ¡tÃŃt": 4024,
      "Ġnaslou": 4025,
      "mil": 4026,
      "ĠmEho": 4027,
      "Ġoni": 4028,
      "ĠsNi": 4029,
      "ĠmlADI": 4030,
      "ĠlidE": 4031,
      "ĠchrÃ¡mu": 4032,
      "Ġmrtvo": 4033,
      "ĠNegdi": 4034,
      "ĠmAlo": 4035,
      "dnÃ½ch": 4036,
      "ĠÄįeskÃ½": 4037,
      "domÃŃ": 4038,
      "Ġprv": 4039,
      "Ġhledal": 4040,
      "Ġhoto": 4041,
      "Ġmlha": 4042,
      "ĠvonÃŃ": 4043,
      "Ġpekel": 4044,
      "bla": 4045,
      "Ġhed": 4046,
      "ĠzlatÃ½ch": 4047,
      "Ġsyna": 4048,
      "jednou": 4049,
      "Ġklit": 4050,
      "ĠÅĻÃŃÅ¡e": 4051,
      "slav": 4052,
      "ckÃ½ch": 4053,
      "ĠÅ¡Ã¡": 4054,
      "ĠdÃ¡lku": 4055,
      "Ġvdo": 4056,
      "ĠzdÄĽ": 4057,
      "Ġuza": 4058,
      "lÃ©z": 4059,
      "Ġchod": 4060,
      "ĠvItQ": 4061,
      "bili": 4062,
      "skal": 4063,
      "ĠdomU": 4064,
      "ĠsrÃ¡": 4065,
      "ĠmrtvÃ©": 4066,
      "ĠzlatI": 4067,
      "Ġblesky": 4068,
      "ĠzRel": 4069,
      "ĠrAna": 4070,
      "ĠzÅĻÃŃt": 4071,
      "fje": 4072,
      "Ġhlasy": 4073,
      "Ġpolib": 4074,
      "Ġnaho": 4075,
      "Ġpadla": 4076,
      "Ġmech": 4077,
      "ĠsvatI": 4078,
      "Ġabych": 4079,
      "Ġpjek": 4080,
      "ĠAAXA": 4081,
      "Ġstrany": 4082,
      "Ġlaska": 4083,
      "Ġrosa": 4084,
      "ĠZAr": 4085,
      "ge": 4086,
      "Ġkor": 4087,
      "ĠDes": 4088,
      "ĠkQve": 4089,
      "ĠpravI": 4090,
      "ĠbÃŃlou": 4091,
      "Ġopjet": 4092,
      "ĠNemu": 4093,
      "ĠÃºsmÄĽvem": 4094,
      "vek": 4095,
      "ĠblÃŃÅ¾ÃŃ": 4096,
      "ĠpodÃ¡": 4097,
      "ĠzÃ¡stup": 4098,
      "ĠvyÅ¡el": 4099,
      "ĠpÃ¡nÄĽ": 4100,
      "hly": 4101,
      "dost": 4102,
      "ĠnÃ¡ch": 4103,
      "ĠfSude": 4104,
      "Ġposlou": 4105,
      "Ġkrajem": 4106,
      "Å¾enÃ©": 4107,
      "ĠsÃ½": 4108,
      "Å¾ka": 4109,
      "Ġkola": 4110,
      "Å¡Å¥ast": 4111,
      "dnA": 4112,
      "ĠprAci": 4113,
      "Ġkvete": 4114,
      "fÃ©": 4115,
      "hali": 4116,
      "ĠpÅĻÃŃÅ¡e": 4117,
      "ĠhÅĻmÃŃ": 4118,
      "ĠtvojÃŃ": 4119,
      "pL": 4120,
      "ABBA": 4121,
      "ĠobjetÃŃ": 4122,
      "nej": 4123,
      "liS": 4124,
      "ĠmilA": 4125,
      "ĠpIsNI": 4126,
      "ĠvroucÃŃ": 4127,
      "Ġtvr": 4128,
      "lk": 4129,
      "ĠpotÄĽ": 4130,
      "Ġkroky": 4131,
      "jÅ¡ÃŃm": 4132,
      "ĠotÄįe": 4133,
      "ĠdE": 4134,
      "ĠABABAB": 4135,
      "bÅ¯": 4136,
      "ĠmÄĽli": 4137,
      "ĠsmÃŃchu": 4138,
      "ĠpsÃ¡": 4139,
      "bnÄĽ": 4140,
      "kr": 4141,
      "nkem": 4142,
      "jA": 4143,
      "Ġner": 4144,
      "ĠhoRe": 4145,
      "ĠmIsto": 4146,
      "ena": 4147,
      "ĠlU": 4148,
      "SIx": 4149,
      "ĠneznA": 4150,
      "Ġklade": 4151,
      "ĠsfÄĽt": 4152,
      "itu": 4153,
      "Ġznaven": 4154,
      "ĠdÃ¡lce": 4155,
      "ĠopuÅ¡tÄĽ": 4156,
      "ĠÄįasy": 4157,
      "ĠNemS": 4158,
      "lec": 4159,
      "rka": 4160,
      "ĠanDel": 4161,
      "Ġzar": 4162,
      "ĠvisÃŃ": 4163,
      "Ġsmutno": 4164,
      "CnI": 4165,
      "ĠcestÄĽ": 4166,
      "ĠzprÃ¡": 4167,
      "Ġtrest": 4168,
      "ĠsladkÃ¡": 4169,
      "Ġbli": 4170,
      "Ġstromu": 4171,
      "ĠslyÅ¡et": 4172,
      "livÄĽ": 4173,
      "ĠkÅĻik": 4174,
      "ĠD": 4175,
      "Ġhvjest": 4176,
      "Ġdneska": 4177,
      "ĠzvÄĽst": 4178,
      "ĠklesÃ¡": 4179,
      "ĠandÄĽ": 4180,
      "ĠpRiSel": 4181,
      "Ġbolesti": 4182,
      "Ġvytr": 4183,
      "vÄĽd": 4184,
      "ĠcÃŃrk": 4185,
      "Ġzbled": 4186,
      "Ġbolem": 4187,
      "Ġplno": 4188,
      "Ġutr": 4189,
      "ĠhoDi": 4190,
      "ĠnenÃ¡vi": 4191,
      "lEm": 4192,
      "Ġnet": 4193,
      "Ġodva": 4194,
      "ĠotÃ¡": 4195,
      "Ġpaprsk": 4196,
      "nÄĽn": 4197,
      "Ġvypra": 4198,
      "bnÃ©": 4199,
      "Ġlev": 4200,
      "ĠmyslÃŃm": 4201,
      "sot": 4202,
      "lky": 4203,
      "Ġslz": 4204,
      "dku": 4205,
      "ĠfSexno": 4206,
      "ĠvÃŃry": 4207,
      "ĠtoÄįÃŃ": 4208,
      "ĠzpÃ¡tky": 4209,
      "ĠmÃŃsta": 4210,
      "ĠvÃ¡Å¡nÃŃ": 4211,
      "ĠlÃŃto": 4212,
      "ĠvelkE": 4213,
      "Ġdoz": 4214,
      "ĠvÅ¡a": 4215,
      "ĠlepÅ¡ÃŃ": 4216,
      "Ġlesi": 4217,
      "ĠUsmNef": 4218,
      "ZnE": 4219,
      "ĠpamÄĽ": 4220,
      "ĠskÅĻÃŃ": 4221,
      "ĠsmI": 4222,
      "ĠkrAsi": 4223,
      "diÅ¾": 4224,
      "ĠnavÅ¾dy": 4225,
      "ĠvidÄĽt": 4226,
      "Ġprax": 4227,
      "ĠspIvA": 4228,
      "lenÃ½": 4229,
      "nuTI": 4230,
      "eri": 4231,
      "ĠvdÄĽk": 4232,
      "Ġradu": 4233,
      "Ġlabu": 4234,
      "Zel": 4235,
      "Ġpoch": 4236,
      "ĠprAce": 4237,
      "Ġtroxu": 4238,
      "ĠvÃ¡cla": 4239,
      "ĠÅ¾alo": 4240,
      "Sil": 4241,
      "ĠnovÃ¡": 4242,
      "ĠviDIm": 4243,
      "ĠblÃŃÅ¾e": 4244,
      "Ġsynu": 4245,
      "ĠplAC": 4246,
      "ĠtÄĽÅ¾kÃ½": 4247,
      "Ġslep": 4248,
      "Ġmlhy": 4249,
      "ĠcÃŃsaÅĻ": 4250,
      "ĠjinÃ½ch": 4251,
      "Ġvej": 4252,
      "Ġoknem": 4253,
      "ĠvÅ¡emu": 4254,
      "ĠstÃ½": 4255,
      "ĠdÃŃk": 4256,
      "ĠzARi": 4257,
      "ĠCekA": 4258,
      "Ġtichou": 4259,
      "ĠboS": 4260,
      "Ġchal": 4261,
      "Ġgra": 4262,
      "stÃŃm": 4263,
      "ĠzlÃŃ": 4264,
      "ĠobÄĽt": 4265,
      "ĠkÅĻesÅ¥": 4266,
      "Ġvik": 4267,
      "Ġrve": 4268,
      "Ġxit": 4269,
      "Ġslast": 4270,
      "Ġbod": 4271,
      "ĠsTIni": 4272,
      "Ġpurpu": 4273,
      "ckE": 4274,
      "Ġpovo": 4275,
      "ĠchlÃ©b": 4276,
      "vanÃ©": 4277,
      "Ġsoumrak": 4278,
      "Ġchlu": 4279,
      "ĠohnÄĽm": 4280,
      "ĠjasnÃ½": 4281,
      "Ġjede": 4282,
      "Ġrosp": 4283,
      "hnou": 4284,
      "ĠvjeCNe": 4285,
      "nitÅĻ": 4286,
      "ĠRA": 4287,
      "Ġpekla": 4288,
      "ĠnejvÃŃ": 4289,
      "ĠÄįernÃ½ch": 4290,
      "ĠpÃ¡na": 4291,
      "skla": 4292,
      "Ġvelkou": 4293,
      "ĠzQ": 4294,
      "Ġobe": 4295,
      "ĠnaSI": 4296,
      "ĠvÅĻa": 4297,
      "Ġchcem": 4298,
      "Ġplod": 4299,
      "hostej": 4300,
      "ĠpatÅĻÃŃ": 4301,
      "ĠRa": 4302,
      "ĠÄįernÃ¡": 4303,
      "tnÄĽ": 4304,
      "Ġdokud": 4305,
      "Ġskla": 4306,
      "ĠpolI": 4307,
      "Ġfsp": 4308,
      "ĠlÃŃci": 4309,
      "Ġzdro": 4310,
      "Ġlehce": 4311,
      "Ġjakoby": 4312,
      "Ġpop": 4313,
      "Ġnevz": 4314,
      "ĠÅ¡lech": 4315,
      "ĠÅ¾ene": 4316,
      "Ġsbo": 4317,
      "nese": 4318,
      "nosTI": 4319,
      "ĠnadÅ¡enÃŃ": 4320,
      "Deli": 4321,
      "ĠbledÃ©": 4322,
      "ĠslAvi": 4323,
      "eme": 4324,
      "Ġvolal": 4325,
      "Ġnesli": 4326,
      "Ġbohy": 4327,
      "ĠkoÅĻen": 4328,
      "ĠXXA": 4329,
      "ĠmAS": 4330,
      "ĠrÅ¯Å¾i": 4331,
      "jeÅ¡": 4332,
      "ĠtrU": 4333,
      "ĠvraÅ¾": 4334,
      "ĠneZli": 4335,
      "Ġztich": 4336,
      "CIx": 4337,
      "Ġhmo": 4338,
      "Ġzdroj": 4339,
      "dÃ½ch": 4340,
      "ĠotcÅ¯": 4341,
      "ĠtichÃ¡": 4342,
      "ĠkoÅĻi": 4343,
      "ĠvrÃ¡tÃŃ": 4344,
      "ĠSat": 4345,
      "ĠjevÃŃ": 4346,
      "ĠhuÄįÃŃ": 4347,
      "Ġzmize": 4348,
      "Ġpokla": 4349,
      "Ġvsi": 4350,
      "ĠmnohÃ©": 4351,
      "ĠdÄĽvÄįe": 4352,
      "Ġstem": 4353,
      "zlo": 4354,
      "rovna": 4355,
      "ĠmrtvÃ½ch": 4356,
      "Ġtel": 4357,
      "xUru": 4358,
      "vici": 4359,
      "Ġvzduchu": 4360,
      "Ġhust": 4361,
      "Ġzlatou": 4362,
      "ĠzlÃ½": 4363,
      "Ġprob": 4364,
      "cenÃŃ": 4365,
      "ĠhruT": 4366,
      "Ġrixle": 4367,
      "Ġlhostej": 4368,
      "ĠvÃŃno": 4369,
      "ĠlÃŃp": 4370,
      "Ġskali": 4371,
      "zenÃŃ": 4372,
      "ĠmÄĽj": 4373,
      "Nici": 4374,
      "Å¾ÃŃÅ¡": 4375,
      "nulo": 4376,
      "Ġjag": 4377,
      "ĠzdravÃŃ": 4378,
      "Ġsnil": 4379,
      "ĠsvojI": 4380,
      "Ġpovje": 4381,
      "Ġnutno": 4382,
      "ĠhrÅ¯zou": 4383,
      "nÃŃkÅ¯": 4384,
      "Ret": 4385,
      "Ġmiloval": 4386,
      "Ġpsal": 4387,
      "Ġge": 4388,
      "ĠdolU": 4389,
      "nikÃ¡": 4390,
      "skEho": 4391,
      "Ġrodu": 4392,
      "ĠkvÄĽtem": 4393,
      "Ġkop": 4394,
      "Ġzpu": 4395,
      "ĠmoZ": 4396,
      "ĠdobrÃ¡": 4397,
      "RIS": 4398,
      "ĠloÅ¾e": 4399,
      "Ġpestr": 4400,
      "ĠpUj": 4401,
      "Ġpeklo": 4402,
      "ĠzlÃ©": 4403,
      "ĠÄįistÃ©": 4404,
      "Ġprocit": 4405,
      "RIc": 4406,
      "Ġnemlu": 4407,
      "leNI": 4408,
      "ĠDivo": 4409,
      "ĠdRIm": 4410,
      "Ġzamy": 4411,
      "Ġkdesi": 4412,
      "ĠhlA": 4413,
      "ĠjasnÄĽ": 4414,
      "kov": 4415,
      "ĠliDI": 4416,
      "ĠzÃŃrÃ¡": 4417,
      "Ck": 4418,
      "Ġtichu": 4419,
      "ĠsmÃ¡l": 4420,
      "ĠpoÄįÃŃ": 4421,
      "ĠpÅĻÃŃtel": 4422,
      "Ġluk": 4423,
      "Ġpomalu": 4424,
      "ĠrannÃŃ": 4425,
      "Ġsoucit": 4426,
      "Ġkarel": 4427,
      "sly": 4428,
      "kost": 4429,
      "chÅ¯": 4430,
      "ĠvÄĽci": 4431,
      "Ġduxa": 4432,
      "ĠsmutnÃ½": 4433,
      "ĠpromÄĽ": 4434,
      "ĠpÅĻedu": 4435,
      "ĠbÃ¡snÃŃk": 4436,
      "ĠÅĻÃ¡d": 4437,
      "Ġtlo": 4438,
      "ĠrÃ¡nu": 4439,
      "ĠtemnÃ©": 4440,
      "Ġletem": 4441,
      "bÃ¡ch": 4442,
      "Ġvyh": 4443,
      "Ġlidstvo": 4444,
      "Ġhbit": 4445,
      "ĠlAsce": 4446,
      "ĠbÃ¡j": 4447,
      "zNe": 4448,
      "ĠdÄĽla": 4449,
      "liv": 4450,
      "Ġtopo": 4451,
      "Ġdechem": 4452,
      "Ġspokojen": 4453,
      "ĠvolnÄĽ": 4454,
      "ĠdAv": 4455,
      "ĠzÃ¡pad": 4456,
      "ĠveÅ¡": 4457,
      "tali": 4458,
      "kÃ©ho": 4459,
      "padÃ¡": 4460,
      "rel": 4461,
      "mon": 4462,
      "Ġnaposled": 4463,
      "Ġzlost": 4464,
      "ĠvÅ¡ecka": 4465,
      "BB": 4466,
      "armo": 4467,
      "ĠkolÃ©b": 4468,
      "Ġdavu": 4469,
      "ĠstaÅĻe": 4470,
      "ĠZlu": 4471,
      "ĠtÄĽÅ¾ce": 4472,
      "Ġnikde": 4473,
      "Ġpohlet": 4474,
      "ĠohnÄĽ": 4475,
      "ĠÅĻekla": 4476,
      "Ġcesti": 4477,
      "cenÃ©": 4478,
      "Ġhrdi": 4479,
      "Ġzdvih": 4480,
      "Ġclo": 4481,
      "Ġga": 4482,
      "ĠptAk": 4483,
      "ĠzmI": 4484,
      "ĠdÄĽje": 4485,
      "krÃ¡s": 4486,
      "cÃ½": 4487,
      "ĠnocI": 4488,
      "Å¡to": 4489,
      "hajÃŃ": 4490,
      "Äįa": 4491,
      "Dej": 4492,
      "Å¾enÃ½": 4493,
      "ĠzNe": 4494,
      "Ġmor": 4495,
      "Ġtoto": 4496,
      "ĠplÃ©": 4497,
      "Å¡te": 4498,
      "ĠzaC": 4499,
      "Ã¡n": 4500,
      "Äįiny": 4501,
      "Ġsvjetla": 4502,
      "ĠvÄĽÅĻÃŃ": 4503,
      "ĠjakE": 4504,
      "ĠbÄĽd": 4505,
      "ÄįnÃ½ch": 4506,
      "neme": 4507,
      "ZA": 4508,
      "dru": 4509,
      "Ġpochy": 4510,
      "ĠÅ¾ebrÃ¡": 4511,
      "ĠÃºÅ¾": 4512,
      "ĠkNI": 4513,
      "Ġtlum": 4514,
      "ĠtÅĻese": 4515,
      "ĠumÃŃrÃ¡": 4516,
      "ĠmÃ¡te": 4517,
      "ejte": 4518,
      "ĠvÅ¯ni": 4519,
      "Ġgdes": 4520,
      "pki": 4521,
      "Å¾ky": 4522,
      "dovat": 4523,
      "Set": 4524,
      "Ġfra": 4525,
      "hala": 4526,
      "ĠdÃŃlo": 4527,
      "Ġobras": 4528,
      "ĠleÅ¾": 4529,
      "Å¾nÃ©": 4530,
      "Ġvzpla": 4531,
      "ĠneznÃ¡": 4532,
      "ĠchfÃŃ": 4533,
      "ĠjimÅ¾": 4534,
      "ĠvÅ¡ÃŃ": 4535,
      "Ġtm": 4536,
      "Ġstanul": 4537,
      "rozen": 4538,
      "zda": 4539,
      "Ġkruhu": 4540,
      "asi": 4541,
      "chÃ©": 4542,
      "Ġnetu": 4543,
      "Ġblaze": 4544,
      "Ġvida": 4545,
      "ĠsmÄĽle": 4546,
      "ĠNixS": 4547,
      "nex": 4548,
      "Ġlesku": 4549,
      "ĠbratÅĻi": 4550,
      "Ġkvetou": 4551,
      "ĠprAvje": 4552,
      "Tte": 4553,
      "ĠpamÃ¡": 4554,
      "ĠpÅ¯va": 4555,
      "ĠpLn": 4556,
      "Ġproz": 4557,
      "Ġnemohu": 4558,
      "rÃ¡til": 4559,
      "ckI": 4560,
      "pek": 4561,
      "bÃ½": 4562,
      "xAzI": 4563,
      "ĠbloudÃŃ": 4564,
      "ĠdÅĻÃŃmÃ¡": 4565,
      "Ġotco": 4566,
      "tnÃ½": 4567,
      "les": 4568,
      "ĠsvatE": 4569,
      "Ġkristus": 4570,
      "Ġzdar": 4571,
      "ĠÅ¡iro": 4572,
      "Ġpoklad": 4573,
      "ĠCernE": 4574,
      "ĠfSixNi": 4575,
      "vla": 4576,
      "ĠcÃ½": 4577,
      "vAn": 4578,
      "vro": 4579,
      "Ġvlna": 4580,
      "Ġslovan": 4581,
      "Ġnemoh": 4582,
      "ĠÅ¡ÃŃm": 4583,
      "ĠnÃŃk": 4584,
      "Ġapo": 4585,
      "Ġhnal": 4586,
      "ÄįkÃ¡": 4587,
      "ĠlidskÃ½": 4588,
      "ĠvyprÃ¡": 4589,
      "ĠnemÅ¯Å¾e": 4590,
      "ĠhÃ©": 4591,
      "ĠznAm": 4592,
      "ĠmlÃ½": 4593,
      "Ġdvje": 4594,
      "Ġvznes": 4595,
      "Ġnal": 4596,
      "ÅĻÃŃk": 4597,
      "sili": 4598,
      "hnÄĽ": 4599,
      "luje": 4600,
      "ĠdÃŃvky": 4601,
      "Ã¡l": 4602,
      "bar": 4603,
      "ĠSum": 4604,
      "ĠmÅĻÃŃ": 4605,
      "Ġhovor": 4606,
      "Ġzma": 4607,
      "Äįela": 4608,
      "vÃ¡Å¡": 4609,
      "Ġsxas": 4610,
      "ĠprovÃ¡": 4611,
      "Ġnebesa": 4612,
      "Ġjakou": 4613,
      "ĠprosÃŃm": 4614,
      "Ġsvatou": 4615,
      "sten": 4616,
      "ĠumÄĽnÃŃ": 4617,
      "Ġnos": 4618,
      "ĠbÃ½val": 4619,
      "ĠmNesIc": 4620,
      "Ġjist": 4621,
      "ĠzbraÅĪ": 4622,
      "ĠnepÅĻe": 4623,
      "ĠhalÃŃ": 4624,
      "Ġhore": 4625,
      "lili": 4626,
      "ĠÅ¾as": 4627,
      "Rela": 4628,
      "Ġzraki": 4629,
      "Ġnepoz": 4630,
      "Ġobo": 4631,
      "Ġnesko": 4632,
      "ĠÅĪadrech": 4633,
      "rnÃ½ch": 4634,
      "lovÃ©": 4635,
      "ĠnaSix": 4636,
      "sÃŃch": 4637,
      "ĠjinE": 4638,
      "Ġnitru": 4639,
      "Ġobzoru": 4640,
      "rÃ©m": 4641,
      "ĠplÃ¡po": 4642,
      "zka": 4643,
      "Ġkouzel": 4644,
      "Cera": 4645,
      "ĠrytÃŃÅĻ": 4646,
      "ĠvÃŃra": 4647,
      "skIm": 4648,
      "ĠhrdÄĽ": 4649,
      "Äįkem": 4650,
      "ĠmalI": 4651,
      "ĠtÄĽl": 4652,
      "ĠmÅ¯Å¾": 4653,
      "ĠdÄĽcko": 4654,
      "Ġdop": 4655,
      "ĠnemÄĽl": 4656,
      "letu": 4657,
      "ÅĪat": 4658,
      "ĠDef": 4659,
      "ĠmiSlE": 4660,
      "ĠsNIx": 4661,
      "ĠzvI": 4662,
      "ĠpÅĻÃŃsa": 4663,
      "Ġder": 4664,
      "skEm": 4665,
      "Ġnesta": 4666,
      "ĠpoznÃ¡": 4667,
      "Ġbarev": 4668,
      "ĠhoR": 4669,
      "jÃŃmÃ¡": 4670,
      "XXA": 4671,
      "tili": 4672,
      "nANI": 4673,
      "Tila": 4674,
      "Ġplna": 4675,
      "ĠmIt": 4676,
      "hlE": 4677,
      "Ġspal": 4678,
      "ĠdÃ½Å¡e": 4679,
      "Ġzhou": 4680,
      "ĠradostÃŃ": 4681,
      "ĠRIm": 4682,
      "ovi": 4683,
      "ĠhrÃ¡l": 4684,
      "Ġhlado": 4685,
      "Ġjablo": 4686,
      "Ġsra": 4687,
      "ĠseÅĪ": 4688,
      "ĠgdoS": 4689,
      "tNI": 4690,
      "ĠcÃŃm": 4691,
      "Ġvzduchem": 4692,
      "Ġsev": 4693,
      "ĠvaÅ¡ÃŃ": 4694,
      "ĠbledÃ½": 4695,
      "oval": 4696,
      "vosti": 4697,
      "vÃ¡ch": 4698,
      "ĠhledÄĽl": 4699,
      "ĠÅ¾enou": 4700,
      "Ġsvobodu": 4701,
      "rala": 4702,
      "ĠzachvÄĽ": 4703,
      "jeme": 4704,
      "ĠztrÃ¡cÃŃ": 4705,
      "pili": 4706,
      "Ġdno": 4707,
      "sat": 4708,
      "Ġvodi": 4709,
      "ĠsvÄĽty": 4710,
      "ĠtÄĽÅ¾ko": 4711,
      "ĠrokÅ¯": 4712,
      "Ġpouta": 4713,
      "Ġhym": 4714,
      "Ġof": 4715,
      "ĠÅ¾Ã¡dnÃ©": 4716,
      "ĠmlÄįky": 4717,
      "pku": 4718,
      "Ġsladkou": 4719,
      "ĠmocnÄĽ": 4720,
      "ĠbudiÅ¾": 4721,
      "ĠvÄĽÄįnosti": 4722,
      "ĠsmÄĽje": 4723,
      "Ġsmysl": 4724,
      "ĠstRIb": 4725,
      "Ġzavo": 4726,
      "Äıte": 4727,
      "kUm": 4728,
      "Ġslunko": 4729,
      "Ġluny": 4730,
      "chom": 4731,
      "ĠkaÅ¾dÃ©m": 4732,
      "ĠpÄĽl": 4733,
      "ĠkrAsnE": 4734,
      "Ġsnech": 4735,
      "Ġdosut": 4736,
      "ĠupomÃŃ": 4737,
      "ĠZil": 4738,
      "tÃ¡n": 4739,
      "ĠpozdÄĽ": 4740,
      "ĠTela": 4741,
      "Ġstroj": 4742,
      "dec": 4743,
      "ĠpQx": 4744,
      "kIx": 4745,
      "Ġtamo": 4746,
      "Ġcitu": 4747,
      "Ġdaleka": 4748,
      "ĠkvjetU": 4749,
      "vaje": 4750,
      "nuly": 4751,
      "Ġobej": 4752,
      "Ġzvuky": 4753,
      "Ġopoj": 4754,
      "Ġchleba": 4755,
      "Ġstarou": 4756,
      "lel": 4757,
      "tÃ¡nÃŃ": 4758,
      "ĠstÄĽny": 4759,
      "ĠuÅ¡": 4760,
      "ĠpohÅĻ": 4761,
      "jala": 4762,
      "Ġnach": 4763,
      "Ġvzk": 4764,
      "ĠnovÃ½ch": 4765,
      "Ġnesmr": 4766,
      "ĠptÃ¡Äįe": 4767,
      "ĠvÃ¡Å¡nÄĽ": 4768,
      "Ac": 4769,
      "zNi": 4770,
      "ĠnaÅ¡el": 4771,
      "Ġodkud": 4772,
      "Ġpozdrav": 4773,
      "ĠzlÃ¡": 4774,
      "Ġbisku": 4775,
      "lala": 4776,
      "Ġtmu": 4777,
      "ĠmIm": 4778,
      "Ġuka": 4779,
      "dum": 4780,
      "Ġklesla": 4781,
      "ĠpÄĽknÄĽ": 4782,
      "anil": 4783,
      "ĠdnÃŃ": 4784,
      "Ġnesla": 4785,
      "BX": 4786,
      "Ġslovy": 4787,
      "ĠtemnÄĽ": 4788,
      "Ġevro": 4789,
      "Ra": 4790,
      "ot": 4791,
      "Ġzvony": 4792,
      "Ġvyvo": 4793,
      "Ġdalek": 4794,
      "ĠsnÄĽhu": 4795,
      "nkou": 4796,
      "ĠcITI": 4797,
      "ĠsfÄĽ": 4798,
      "Ġjindy": 4799,
      "Ġlodi": 4800,
      "ĠÅ¾alu": 4801,
      "Ġteskno": 4802,
      "ĠkRIdla": 4803,
      "ĠtfÃ¡": 4804,
      "Ġrozma": 4805,
      "ĠÅ¾ivotem": 4806,
      "Ġlaho": 4807,
      "stali": 4808,
      "Ġstan": 4809,
      "ĠdÃŃvÄįÃŃ": 4810,
      "ĠtoS": 4811,
      "ĠmNesta": 4812,
      "ĠsbÃŃ": 4813,
      "Ġleskem": 4814,
      "Ġlidi": 4815,
      "voucÃŃ": 4816,
      "Ġrmu": 4817,
      "Ġhorou": 4818,
      "vci": 4819,
      "Ġule": 4820,
      "ZnI": 4821,
      "Ġvzala": 4822,
      "Ġpoza": 4823,
      "ĠpoÅ¾Ã¡": 4824,
      "ĠfÄĽ": 4825,
      "bÃ¡m": 4826,
      "ĠtmavÃ©": 4827,
      "ĠfI": 4828,
      "Ġskrom": 4829,
      "ĠjÃŃti": 4830,
      "ĠplÃ¡Äįi": 4831,
      "ĠdIm": 4832,
      "Ġhroby": 4833,
      "ĠsNeNI": 4834,
      "XABB": 4835,
      "Ġral": 4836,
      "ĠpÅĻit": 4837,
      "ĠdÃ¡ti": 4838,
      "Ġil": 4839,
      "ĠbolÃŃ": 4840,
      "ĠvÃŃna": 4841,
      "ĠmiSlen": 4842,
      "Ġxla": 4843,
      "pec": 4844,
      "ĠslatkE": 4845,
      "vyÅ¡": 4846,
      "ĠnesmI": 4847,
      "ĠpiS": 4848,
      "ĠhnÃ¡": 4849,
      "ĠmocÃŃ": 4850,
      "ĠjinÃŃ": 4851,
      "ĠsliSI": 4852,
      "dU": 4853,
      "kANI": 4854,
      "tvÃ¡": 4855,
      "ĠvLni": 4856,
      "ĠpoÅĻÃ¡": 4857,
      "ĠneÅ¡Å¥ast": 4858,
      "Ġjazyk": 4859,
      "Ġmalo": 4860,
      "ĠpÃŃt": 4861,
      "ĠpRem": 4862,
      "ĠmÃ¡j": 4863,
      "huje": 4864,
      "Ġorel": 4865,
      "Ġluna": 4866,
      "ĠposmÄĽ": 4867,
      "ĠkQva": 4868,
      "ĠjÃŃc": 4869,
      "ĠtvARe": 4870,
      "Å¾nÃ½": 4871,
      "ÅĻiti": 4872,
      "Ġvjeki": 4873,
      "Ġspanil": 4874,
      "ĠvzÃŃ": 4875,
      "ĠnÃŃz": 4876,
      "ĠprostÅĻed": 4877,
      "ĠnemÃ¡m": 4878,
      "ĠspÃ¡t": 4879,
      "kam": 4880,
      "Ġrosk": 4881,
      "Ġsvjetem": 4882,
      "ĠlIce": 4883,
      "ĠnaC": 4884,
      "ĠcelA": 4885,
      "Ġbabi": 4886,
      "Ġxmu": 4887,
      "Ġhalu": 4888,
      "ĠprÃ¡vo": 4889,
      "Ġmost": 4890,
      "Ġnadarmo": 4891,
      "ĠkoneÄįnÄĽ": 4892,
      "ĠveÄįera": 4893,
      "ĠnÄĽkde": 4894,
      "dly": 4895,
      "ÅĻenÃ½": 4896,
      "ĠchÃ½lÃŃ": 4897,
      "ĠsmrtÃŃ": 4898,
      "Ġnau": 4899,
      "vEho": 4900,
      "ĠtajemstvÃŃ": 4901,
      "ĠzpÃŃval": 4902,
      "ĠvelikÃ½": 4903,
      "nilo": 4904,
      "Ġsice": 4905,
      "ĠÄįel": 4906,
      "ĠtÅĻpyt": 4907,
      "Ġpopel": 4908,
      "Ġneji": 4909,
      "Ġzbro": 4910,
      "ĠdÄĽji": 4911,
      "ĠpÅĻipra": 4912,
      "ĠsvÄĽtÅ¯": 4913,
      "Ġusta": 4914,
      "ĠprU": 4915,
      "Ġnalez": 4916,
      "Ġnaklo": 4917,
      "STen": 4918,
      "ĠfÃŃ": 4919,
      "ĠskrI": 4920,
      "ĠpravÃ½": 4921,
      "ĠkÅĻÃŃÅ¾e": 4922,
      "ĠCasem": 4923,
      "ĠvUNe": 4924,
      "kry": 4925,
      "ĠtmÃ¡ch": 4926,
      "Ġmiluje": 4927,
      "ĠblIS": 4928,
      "benÃŃ": 4929,
      "Ġzvi": 4930,
      "Ġbrou": 4931,
      "lena": 4932,
      "Ġdruhu": 4933,
      "ĠÄįnÃŃ": 4934,
      "ĠpÅĻÃ¡nÃŃ": 4935,
      "Ġdna": 4936,
      "Ġvodo": 4937,
      "ĠvÄĽtru": 4938,
      "ĠDif": 4939,
      "ĠZije": 4940,
      "Ġcem": 4941,
      "Ġchas": 4942,
      "ĠvISe": 4943,
      "hlÃ½": 4944,
      "Ġkf": 4945,
      "ĠhorÃ¡ch": 4946,
      "ĠplÃ¡l": 4947,
      "Ġzoufa": 4948,
      "Ġkorunu": 4949,
      "Ġmrou": 4950,
      "ĠReC": 4951,
      "bnÃ½": 4952,
      "Ġblah": 4953,
      "ĠlesnÃŃ": 4954,
      "ĠplÃ¡Å¡Å¥": 4955,
      "ĠtvÅ¯": 4956,
      "ĠfstRIc": 4957,
      "Ġohrom": 4958,
      "ĠvÃ©m": 4959,
      "ĠÃºt": 4960,
      "ckni": 4961,
      "ĠsT": 4962,
      "Ġzmar": 4963,
      "ĠsplÃ½vÃ¡": 4964,
      "ĠhrÃ¡t": 4965,
      "ĠobrÃ¡": 4966,
      "Ġheb": 4967,
      "Ġvichr": 4968,
      "gra": 4969,
      "ol": 4970,
      "ĠsÃŃm": 4971,
      "ĠtI": 4972,
      "Ġstud": 4973,
      "ĠmeÄįem": 4974,
      "ĠdivÃ½": 4975,
      "ĠnechÃ¡": 4976,
      "ĠNej": 4977,
      "ĠnnÃ©": 4978,
      "novi": 4979,
      "Ġminul": 4980,
      "ratil": 4981,
      "ĠvrÃ¡til": 4982,
      "lÃ¡nÃŃ": 4983,
      "ĠdÄĽj": 4984,
      "Ġpel": 4985,
      "ĠdIx": 4986,
      "ĠslAva": 4987,
      "ĠhNI": 4988,
      "ĠÅ¡pat": 4989,
      "sL": 4990,
      "ĠÅ¾ert": 4991,
      "ĠbIlA": 4992,
      "telem": 4993,
      "Ġrozmar": 4994,
      "ĠkQvI": 4995,
      "kÃ¡n": 4996,
      "ĠvÄĽÅ¾e": 4997,
      "Ġjinde": 4998,
      "Ġlest": 4999,
      "tÃ½ch": 5000,
      "Ġptal": 5001,
      "ĠdivnÃ©": 5002,
      "cenÃ½": 5003,
      "ĠmÃ©mu": 5004,
      "ĠstarA": 5005,
      "ĠrudÃ½": 5006,
      "zNI": 5007,
      "zdu": 5008,
      "Ġukru": 5009,
      "lof": 5010,
      "Ġkomo": 5011,
      "ĠslavnÃ½": 5012,
      "stex": 5013,
      "klÃŃ": 5014,
      "Ġkan": 5015,
      "Ġtomto": 5016,
      "ĠbohÅ¯": 5017,
      "ĠsmÄĽs": 5018,
      "ĠvojÃ¡": 5019,
      "Ġuprost": 5020,
      "ĠnÃ¡ruÄįÃŃ": 5021,
      "ĠstaÄįÃŃ": 5022,
      "ĠhrÅ¯zy": 5023,
      "ĠcÅ¯": 5024,
      "Nila": 5025,
      "Å¾nÄĽ": 5026,
      "Ġvykou": 5027,
      "ĠkaÅ¾dÃ½m": 5028,
      "ĠvÅ¡ickni": 5029,
      "ÅĻad": 5030,
      "Ġviso": 5031,
      "ĠnevIm": 5032,
      "Ġukry": 5033,
      "ĠxI": 5034,
      "Ġkdybych": 5035,
      "Ġzaha": 5036,
      "Ġfsk": 5037,
      "ĠvÄĽn": 5038,
      "ĠvÅ¡ady": 5039,
      "Ġfy": 5040,
      "Ġplnou": 5041,
      "vic": 5042,
      "ĠvLn": 5043,
      "Ġzkou": 5044,
      "nASI": 5045,
      "ĠvidÃŃÅ¡": 5046,
      "Ġnesmrtel": 5047,
      "Ġledo": 5048,
      "Ġdub": 5049,
      "ĠÅĪÃ¡": 5050,
      "Ġjednoho": 5051,
      "ĠpÃ¡lÃŃ": 5052,
      "ĠtrÅ¯n": 5053,
      "ĠvlI": 5054,
      "ĠstÃŃnÅ¯": 5055,
      "Å¡enÃ©": 5056,
      "Ġhledat": 5057,
      "ĠsÃŃÅĪ": 5058,
      "Ġzrovna": 5059,
      "Dila": 5060,
      "ĠÃºÅ¾as": 5061,
      "ĠzkÃ¡": 5062,
      "ĠmeÄįe": 5063,
      "ĠSko": 5064,
      "Ġlen": 5065,
      "tkA": 5066,
      "Ġstranou": 5067,
      "ĠTem": 5068,
      "dalo": 5069,
      "dÃ¡l": 5070,
      "ĠvÄĽtvÃŃ": 5071,
      "ĠusmI": 5072,
      "vedl": 5073,
      "xI": 5074,
      "zat": 5075,
      "Ġplou": 5076,
      "mÃŃr": 5077,
      "Ġdavy": 5078,
      "ĠtÃŃÅ¾ÃŃ": 5079,
      "ĠnÄĽmÃ½": 5080,
      "Ġbjeda": 5081,
      "osti": 5082,
      "Ġosudu": 5083,
      "ĠsnÃ¡ch": 5084,
      "lin": 5085,
      "ĠstÅ¯j": 5086,
      "nÄĽch": 5087,
      "ĠSla": 5088,
      "ĠmoRi": 5089,
      "ĠtmÄĽ": 5090,
      "Ġzacho": 5091,
      "lÃ©tÃ¡": 5092,
      "Ġvzdych": 5093,
      "hor": 5094,
      "rajÃŃ": 5095,
      "Ġdceru": 5096,
      "ĠmladÃŃ": 5097,
      "ĠzÅ¯stal": 5098,
      "Ġhvozd": 5099,
      "zla": 5100,
      "Ġpohledem": 5101,
      "ĠjinI": 5102,
      "Ġvinu": 5103,
      "Ġsnes": 5104,
      "Ġkrvi": 5105,
      "ĠspÄĽch": 5106,
      "ĠklA": 5107,
      "ĠmlÃ¡d": 5108,
      "ĠzARe": 5109,
      "ĠNeco": 5110,
      "hnout": 5111,
      "Ġazu": 5112,
      "ĠzaS": 5113,
      "Nik": 5114,
      "ĠukÃ¡": 5115,
      "Ġpropas": 5116,
      "Ġmora": 5117,
      "Ġkomnat": 5118,
      "ĠABA": 5119,
      "ĠnosÃŃ": 5120,
      "ĠrodÃŃ": 5121,
      "ĠvzdA": 5122,
      "ĠlidskÃ½ch": 5123,
      "ĠmNela": 5124,
      "ĠXAXABB": 5125,
      "ĠusmÃ¡": 5126,
      "Ġprudce": 5127,
      "ĠnnÃŃ": 5128,
      "Ġmatki": 5129,
      "Ġovo": 5130,
      "ef": 5131,
      "ĠseDI": 5132,
      "telÃ©": 5133,
      "ĠvÄĽnec": 5134,
      "ĠÅĻetÄĽ": 5135,
      "Ġdruhdy": 5136,
      "Ġzast": 5137,
      "nÅ¯m": 5138,
      "ĠpodÃŃ": 5139,
      "ĠptaÄįÃŃ": 5140,
      "ĠvsxUru": 5141,
      "ĠmislI": 5142,
      "rex": 5143,
      "ĠdlanÃŃ": 5144,
      "lko": 5145,
      "Ġbok": 5146,
      "ĠnepÅĻÃ¡tel": 5147,
      "Ġkryje": 5148,
      "Ġkot": 5149,
      "ES": 5150,
      "ĠposlÃ©z": 5151,
      "ĠjIS": 5152,
      "Ġzbor": 5153,
      "Ġdol": 5154,
      "ÄįnÃ½m": 5155,
      "raje": 5156,
      "Ġchou": 5157,
      "ĠslzÃŃ": 5158,
      "ĠpRIro": 5159,
      "ĠmluvI": 5160,
      "Ġnebez": 5161,
      "ĠschvÃ¡": 5162,
      "ĠdI": 5163,
      "ĠchfÃŃli": 5164,
      "Ġproudy": 5165,
      "ĠtvoÅĻÃŃ": 5166,
      "ĠkvÃ©": 5167,
      "Ġmodlid": 5168,
      "ĠtajÃŃ": 5169,
      "Din": 5170,
      "Ġmiluji": 5171,
      "ĠCele": 5172,
      "ĠmÄĽstÄĽ": 5173,
      "Ġzasmu": 5174,
      "ĠdÃ©m": 5175,
      "ĠslavnÃ©": 5176,
      "sTil": 5177,
      "Ġkouzlo": 5178,
      "ĠjakA": 5179,
      "ĠvÅ¯dce": 5180,
      "ĠsprÃ¡": 5181,
      "Ġnerozu": 5182,
      "ĠUsta": 5183,
      "Ġjdem": 5184,
      "Ġlisty": 5185,
      "ĠTisIc": 5186,
      "Ġvip": 5187,
      "Ġbratra": 5188,
      "rnE": 5189,
      "ĠzrA": 5190,
      "ĠAXXA": 5191,
      "ĠblÃŃzko": 5192,
      "rÃ¡l": 5193,
      "ĠduchÅ¯": 5194,
      "ĠozvÄĽ": 5195,
      "slov": 5196,
      "kova": 5197,
      "ĠoÄįima": 5198,
      "dQ": 5199,
      "Ġdlouhou": 5200,
      "ita": 5201,
      "Ġmox": 5202,
      "Rik": 5203,
      "Ġtuze": 5204,
      "Ġprokle": 5205,
      "hlas": 5206,
      "ĠdlouhÃ¡": 5207,
      "ĠvlasÅ¯": 5208,
      "ĠnejvyÅ¡": 5209,
      "Ġhvjezda": 5210,
      "Ġzel": 5211,
      "Ġpozem": 5212,
      "pÃŃnÃ¡": 5213,
      "ĠslatkI": 5214,
      "ĠzApas": 5215,
      "ĠÃºdolÃŃ": 5216,
      "ĠvznÄĽ": 5217,
      "Nej": 5218,
      "Ġrozlo": 5219,
      "jÃŃcÃŃm": 5220,
      "ĠskÃ¡la": 5221,
      "mbo": 5222,
      "Ġ20": 5223,
      "ĠdosTi": 5224,
      "vÅ¡ak": 5225,
      "Ġpouti": 5226,
      "Ġdrak": 5227,
      "ĠÅ¾es": 5228,
      "ĠdlanÄĽ": 5229,
      "ĠchladnÃ©": 5230,
      "Ġvojsko": 5231,
      "ĠsLza": 5232,
      "ĠkÅĻo": 5233,
      "tud": 5234,
      "ĠzlI": 5235,
      "Ġstarost": 5236,
      "kIm": 5237,
      "Å¡a": 5238,
      "Ġuti": 5239,
      "kop": 5240,
      "Tel": 5241,
      "Ġjednom": 5242,
      "ĠtemnÃ½": 5243,
      "ĠprÃ¡va": 5244,
      "ĠdÃ©Å¡Å¥": 5245,
      "Äįce": 5246,
      "ĠlÃ©m": 5247,
      "ĠzpÄĽvu": 5248,
      "Ġzdr": 5249,
      "ĠmEm": 5250,
      "ĠkU": 5251,
      "Ġdon": 5252,
      "Ġvodu": 5253,
      "pis": 5254,
      "tan": 5255,
      "Ġposel": 5256,
      "Ġmuka": 5257,
      "ĠkrÃ¡Äįel": 5258,
      "Ġposlu": 5259,
      "ĠhnÄĽvu": 5260,
      "ĠÄįemu": 5261,
      "nuv": 5262,
      "Ġsluje": 5263,
      "Ġplesu": 5264,
      "ĠÅ¡pi": 5265,
      "ĠjÃ¡sa": 5266,
      "ĠsamÃ©": 5267,
      "Ġses": 5268,
      "ĠÅĻÃŃtÃŃ": 5269,
      "ĠvelkÃ½ch": 5270,
      "ĠÄįistÃ½": 5271,
      "ĠÄįervÃ¡n": 5272,
      "ĠcitÅ¯": 5273,
      "ĠmotÃ½l": 5274,
      "Ġnebezpe": 5275,
      "Ġgdisi": 5276,
      "ĠpLnI": 5277,
      "Ġdly": 5278,
      "ĠhledA": 5279,
      "Cin": 5280,
      "nd": 5281,
      "Ġrto": 5282,
      "ĠmojI": 5283,
      "Äįte": 5284,
      "Ġude": 5285,
      "ĠdÃŃval": 5286,
      "Ġmem": 5287,
      "Ġvina": 5288,
      "kl": 5289,
      "ĠstraS": 5290,
      "ĠtrÃ¡vÄĽ": 5291,
      "Ġhlasu": 5292,
      "ĠSa": 5293,
      "ĠÅĻeka": 5294,
      "ĠtvARI": 5295,
      "Ġspor": 5296,
      "ĠchudÃ©": 5297,
      "Ġdnu": 5298,
      "Ġren": 5299,
      "ĠnadÄĽj": 5300,
      "Ġmistr": 5301,
      "Ġpotok": 5302,
      "Ġzvolal": 5303,
      "buje": 5304,
      "kaly": 5305,
      "ĠslavnÄĽ": 5306,
      "ĠavÅ¡ak": 5307,
      "ĠvÃŃtÄĽzstvÃŃ": 5308,
      "tne": 5309,
      "Ġvzly": 5310,
      "ĠÄįasÅ¯": 5311,
      "Ġtehdy": 5312,
      "ĠpalÃ¡": 5313,
      "Ġarci": 5314,
      "mÃ½": 5315,
      "vodu": 5316,
      "Ġgi": 5317,
      "Å¾ili": 5318,
      "ĠfSexni": 5319,
      "ĠmyÅ¡lenky": 5320,
      "sklo": 5321,
      "Ġspravedli": 5322,
      "ĠSli": 5323,
      "ĠpovI": 5324,
      "ĠkÅĻÃŃdel": 5325,
      "Ġdat": 5326,
      "ĠjinÃ¡": 5327,
      "ĠstraÅ¡": 5328,
      "Ġdos": 5329,
      "Ġpraze": 5330,
      "Ġpije": 5331,
      "ĠnadÄĽjÃŃ": 5332,
      "zdy": 5333,
      "ĠumÄĽ": 5334,
      "ĠdeÅ¡tÄĽ": 5335,
      "ĠCela": 5336,
      "hL": 5337,
      "vky": 5338,
      "stoj": 5339,
      "hÃ¡m": 5340,
      "ĠpoZe": 5341,
      "Ġkup": 5342,
      "ĠbiT": 5343,
      "ĠhRe": 5344,
      "Ġvtip": 5345,
      "ĠstÅ¯l": 5346,
      "Ġpocit": 5347,
      "vjel": 5348,
      "vÅ¯r": 5349,
      "ĠkRIS": 5350,
      "ĠkES": 5351,
      "Ã©mu": 5352,
      "leTI": 5353,
      "Ġplanou": 5354,
      "ĠznÃ¡Å¡": 5355,
      "ĠkÅ¯ÅĪ": 5356,
      "rad": 5357,
      "Nic": 5358,
      "Ġdejte": 5359,
      "hro": 5360,
      "ĠvelkÃ½m": 5361,
      "rnÃŃ": 5362,
      "Ġmarno": 5363,
      "ĠaspoN": 5364,
      "ĠuCi": 5365,
      "ĠsfÃ©m": 5366,
      "ĠZIt": 5367,
      "ĠtvEho": 5368,
      "ĠslavI": 5369,
      "ĠÄįarov": 5370,
      "ĠÅ¡edÃ©": 5371,
      "Ġkams": 5372,
      "Ġdobi": 5373,
      "rky": 5374,
      "ĠzdrÃ¡v": 5375,
      "Ġpono": 5376,
      "Ġrosxo": 5377,
      "ĠnaDeje": 5378,
      "Ġstopy": 5379,
      "ĠRIci": 5380,
      "ĠtuÅ¡ÃŃ": 5381,
      "Ġbub": 5382,
      "ĠbratÅĻe": 5383,
      "Ġhlahol": 5384,
      "Ġbyst": 5385,
      "Ġvzte": 5386,
      "ĠnÃŃch": 5387,
      "Ġvyr": 5388,
      "Ġnaposle": 5389,
      "ĠjeÅ¥": 5390,
      "ĠvzrÅ¯": 5391,
      "Ġtaky": 5392,
      "ĠkaZdA": 5393,
      "ĠcITIm": 5394,
      "Ġpne": 5395,
      "Ġzami": 5396,
      "ĠÅ¡eru": 5397,
      "vaTi": 5398,
      "ĠjemnÄĽ": 5399,
      "ĠvroucnÄĽ": 5400,
      "dnÃ½m": 5401,
      "ĠzmNe": 5402,
      "ĠsvEmu": 5403,
      "ĠklidNe": 5404,
      "ĠxrAm": 5405,
      "ĠDec": 5406,
      "ĠspÃ¡nku": 5407,
      "ĠdrÅ¾ÃŃ": 5408,
      "Ġnesu": 5409,
      "ĠpoDi": 5410,
      "ZeNI": 5411,
      "ĠsIla": 5412,
      "Ġodho": 5413,
      "kÅ¯v": 5414,
      "ĠplÃŃ": 5415,
      "ĠpravÃ©": 5416,
      "ĠbÄĽh": 5417,
      "Ġhluboko": 5418,
      "nily": 5419,
      "ĠmAme": 5420,
      "Ġjasu": 5421,
      "ĠdveÅĻÃŃ": 5422,
      "ĠfstA": 5423,
      "Ġjihu": 5424,
      "ĠUst": 5425,
      "ĠtÄĽchto": 5426,
      "ĠĠĊ": 5427,
      "ĠstromU": 5428,
      "pala": 5429,
      "ĠdAlki": 5430,
      "ren": 5431,
      "ĠvÄĽÄįnÃ¡": 5432,
      "Tili": 5433,
      "ĠbÃŃdy": 5434,
      "hÃ¡ch": 5435,
      "bej": 5436,
      "ĠbdÃŃ": 5437,
      "ĠmladI": 5438,
      "ĠdÃ½chÃ¡": 5439,
      "Ġtouze": 5440,
      "ĠÅ¾hou": 5441,
      "ĠblaZen": 5442,
      "ĠdivnÃ½": 5443,
      "ĠlitskE": 5444,
      "ĠsprA": 5445,
      "lÃŃk": 5446,
      "ĠvÃ¡Å¡ni": 5447,
      "ĠhrÅ¯za": 5448,
      "ĠoheN": 5449,
      "ĠzdrA": 5450,
      "Ġulic": 5451,
      "Ġokno": 5452,
      "ĠpÅĻelu": 5453,
      "ĠobÄĽÅ¥": 5454,
      "Ġzahy": 5455,
      "ĠmuZ": 5456,
      "ĠÅ¾Ã¡dÃ¡": 5457,
      "Ġspjat": 5458,
      "ĠnuÅ¾e": 5459,
      "ĠupÅĻÃŃm": 5460,
      "Ġsever": 5461,
      "vanÃ½": 5462,
      "ÅĪte": 5463,
      "ĠkrÃ¡sou": 5464,
      "Å¡ly": 5465,
      "rÃ½vÃ¡": 5466,
      "ĠzÃ¡ha": 5467,
      "ĠpojT": 5468,
      "ĠzItra": 5469,
      "Ġdoj": 5470,
      "ĠtÄĽlem": 5471,
      "ĠtÄĽÅ¾kÃ¡": 5472,
      "Ġlibo": 5473,
      "vech": 5474,
      "Ġosi": 5475,
      "ĠmnohI": 5476,
      "ĠpÅĻÃŃval": 5477,
      "ĠjarNI": 5478,
      "vU": 5479,
      "ĠÅ¡er": 5480,
      "tÅĻÃŃ": 5481,
      "jÃŃcÃŃch": 5482,
      "Ġbozi": 5483,
      "ĠbÃŃda": 5484,
      "vilo": 5485,
      "ĠstÃ¡ti": 5486,
      "Ġkout": 5487,
      "Ġmluv": 5488,
      "ĠskAli": 5489,
      "ĠsedÄĽl": 5490,
      "Ġucho": 5491,
      "Den": 5492,
      "ĠmocnÃ½": 5493,
      "ĠusmÃŃvÃ¡": 5494,
      "ĠvaÅ¡ich": 5495,
      "ĠvÄĽku": 5496,
      "ĠzÃ¡voj": 5497,
      "ĠvÄĽtrem": 5498,
      "ĠsTInu": 5499,
      "ĠvÃ¡Å¾nÄĽ": 5500,
      "Ġaf": 5501,
      "ĠsvÃŃrÃ¡": 5502,
      "ĠcIsa": 5503,
      "ĠstaÅĻec": 5504,
      "ĠtRI": 5505,
      "Sek": 5506,
      "ĠdÃ¡n": 5507,
      "ĠchovÃ¡": 5508,
      "lenek": 5509,
      "moc": 5510,
      "ĠkAmen": 5511,
      "ĠxceS": 5512,
      "svit": 5513,
      "ĠhlI": 5514,
      "Ġrti": 5515,
      "ĠnAd": 5516,
      "Ġpokro": 5517,
      "ĠdnÄĽ": 5518,
      "Reli": 5519,
      "ĠsvÄĽtel": 5520,
      "Ġvzdux": 5521,
      "ĠÅ¡t": 5522,
      "tnÃ¡": 5523,
      "Ġkolena": 5524,
      "ĠsnÃŃm": 5525,
      "Ġobrov": 5526,
      "Ġbor": 5527,
      "dajI": 5528,
      "ĠpÅĻiÅ¡li": 5529,
      "zÃŃm": 5530,
      "ĠtrÃ½": 5531,
      "ĠzÅĻÃŃÅ¡": 5532,
      "Ġjesti": 5533,
      "nili": 5534,
      "Äįnosti": 5535,
      "ĠvjeCnE": 5536,
      "ĠtvIm": 5537,
      "ĠjednÃŃm": 5538,
      "Ġvolnost": 5539,
      "loudil": 5540,
      "ĠvÄĽtve": 5541,
      "ĠkÃ½m": 5542,
      "Ġduchem": 5543,
      "Ġruki": 5544,
      "ĠdobrI": 5545,
      "ĠtÃ½ch": 5546,
      "lÃ¡k": 5547,
      "Ġdrahou": 5548,
      "Ġsnadno": 5549,
      "ĠvÃ½kÅĻik": 5550,
      "ĠhÃ¡je": 5551,
      "letÄĽ": 5552,
      "ĠzÃ¡kon": 5553,
      "ĠkrAsnA": 5554,
      "ĠvÃŃte": 5555,
      "ĠtrÅ¯nu": 5556,
      "Å¾ela": 5557,
      "ĠCest": 5558,
      "ĠjinÃ½m": 5559,
      "ĠpRij": 5560,
      "ĠosamÄĽ": 5561,
      "Cet": 5562,
      "Ġvrch": 5563,
      "Ġshas": 5564,
      "Ġzjef": 5565,
      "kolik": 5566,
      "ĠDIvA": 5567,
      "ĠsLz": 5568,
      "rNe": 5569,
      "Ġleda": 5570,
      "ĠpotÅĻe": 5571,
      "ĠstÅĻedu": 5572,
      "ĠXXAABB": 5573,
      "Ġplen": 5574,
      "stalo": 5575,
      "ĠlidskÃ¡": 5576,
      "Ġpodob": 5577,
      "ĠrodnÃ©": 5578,
      "ĠzÃ¡ko": 5579,
      "Äįili": 5580,
      "ĠroskoS": 5581,
      "Ġsel": 5582,
      "ĠÅ¾elez": 5583,
      "Ġmelo": 5584,
      "ĠdrahA": 5585,
      "ĠrAno": 5586,
      "Å¾ku": 5587,
      "Ġdnech": 5588,
      "Ġrtu": 5589,
      "ĠlÃ½ch": 5590,
      "ĠÅ¡lo": 5591,
      "ĠpRIliS": 5592,
      "ĠÅ¾alÃ¡": 5593,
      "Ġjiskra": 5594,
      "ĠstrÃ½": 5595,
      "nÃŃku": 5596,
      "chod": 5597,
      "ĠprÃ¡h": 5598,
      "ĠstÅĻÃŃbro": 5599,
      "Å¡ko": 5600,
      "Äįas": 5601,
      "Ġmilou": 5602,
      "ĠbrÃ¡ny": 5603,
      "Ġproh": 5604,
      "Ġvyje": 5605,
      "ĠtÃ¡hnou": 5606,
      "nÃŃci": 5607,
      "Ġpluje": 5608,
      "ĠohNi": 5609,
      "ĠoÅ¾i": 5610,
      "ĠkrACI": 5611,
      "ĠsvÄĽd": 5612,
      "ĠmoÅĻem": 5613,
      "Ġskou": 5614,
      "Dili": 5615,
      "ĠAAXB": 5616,
      "ĠoltA": 5617,
      "ÅĻili": 5618,
      "Ġspasi": 5619,
      "dÄĽti": 5620,
      "ĠskrÃ½vÃ¡": 5621,
      "ĠvstÃ¡vÃ¡": 5622,
      "ex": 5623,
      "pka": 5624,
      "ĠsvÅ¯": 5625,
      "bala": 5626,
      "ĠzdaÅ¾": 5627,
      "ĠvÄĽrnÄĽ": 5628,
      "ĠloÅ¾i": 5629,
      "Ġvojska": 5630,
      "ĠtÄĽÅ¡ÃŃ": 5631,
      "zÃŃch": 5632,
      "ĠzÃ¡vo": 5633,
      "ĠmrtvÃ½": 5634,
      "zÃ¡ch": 5635,
      "ĠdivÃ©": 5636,
      "ĠodpovÃŃ": 5637,
      "Ġbalva": 5638,
      "Ġtaje": 5639,
      "ĠdivÃ¡": 5640,
      "Äįely": 5641,
      "ĠÅĻÃŃÅ¡i": 5642,
      "ĠkvÃŃlÃŃ": 5643,
      "ĠkÃ¡ch": 5644,
      "ĠrAni": 5645,
      "ĠnejvÃŃc": 5646,
      "Ġzval": 5647,
      "ĠmladE": 5648,
      "jit": 5649,
      "ĠtuÅ¾": 5650,
      "ĠtEto": 5651,
      "ĠdÃ¡vnÃ½ch": 5652,
      "Ġharmo": 5653,
      "ĠpLnE": 5654,
      "Ġsina": 5655,
      "ĠvznÃ¡Å¡ÃŃ": 5656,
      "ĠodmÄĽ": 5657,
      "ĠÄįar": 5658,
      "Ġtyto": 5659,
      "ĠrozechvÄĽ": 5660,
      "ĠbudeS": 5661,
      "Ġpast": 5662,
      "ĠÃŃ": 5663,
      "vedla": 5664,
      "ĠvichÅĻi": 5665,
      "ĠjehoS": 5666,
      "Ġupo": 5667,
      "cemi": 5668,
      "sNe": 5669,
      "Ġpolem": 5670,
      "ĠlEta": 5671,
      "Ġhol": 5672,
      "ĠodvÃ¡": 5673,
      "ĠzbI": 5674,
      "Ġseve": 5675,
      "Ġvzdi": 5676,
      "ĠsmutnÃ¡": 5677,
      "ĠkÃ½vÃ¡": 5678,
      "rnI": 5679,
      "ĠmÃ¡ti": 5680,
      "ĠpÃ¡nu": 5681,
      "Ġotcem": 5682,
      "ĠTisIce": 5683,
      "Ġony": 5684,
      "ĠÅ¾ivÃ©": 5685,
      "ur": 5686,
      "Ġzru": 5687,
      "Ġzane": 5688,
      "ĠmuZi": 5689,
      "ĠkrÃ¡snou": 5690,
      "ĠpracÃŃ": 5691,
      "ĠsvÄĽtlem": 5692,
      "ĠdvÃ©ÅĻe": 5693,
      "ĠbolestÃŃ": 5694,
      "ĠrÃ½m": 5695,
      "ĠCem": 5696,
      "ĠkterÃ½m": 5697,
      "Ġrosx": 5698,
      "Ġvzali": 5699,
      "ĠbÃŃdu": 5700,
      "Ġperly": 5701,
      "ĠjImS": 5702,
      "Ġuzav": 5703,
      "Å¾et": 5704,
      "Ġat": 5705,
      "ĠbÃ¡je": 5706,
      "ĠverÅ¡": 5707,
      "ĠlÃ©pe": 5708,
      "ĠjÃ¡sÃ¡": 5709,
      "Ġzvad": 5710,
      "ĠzdÃ¡l": 5711,
      "ĠchvÄĽla": 5712,
      "Ġmladi": 5713,
      "Ġmohlo": 5714,
      "ĠÅĻady": 5715,
      "ĠÄįernou": 5716,
      "chvÃ¡": 5717,
      "ĠzaTIm": 5718,
      "Ġjaksi": 5719,
      "ĠTixI": 5720,
      "Ġvyko": 5721,
      "ĠsedÃ¡": 5722,
      "vobo": 5723,
      "Ġkme": 5724,
      "ĠmotI": 5725,
      "zeN": 5726,
      "ĠTixE": 5727,
      "vcÅ¯": 5728,
      "Ġtmi": 5729,
      "kalo": 5730,
      "ĠvelikÃ©": 5731,
      "Ġplyne": 5732,
      "kAm": 5733,
      "Ġbzu": 5734,
      "Ġrosy": 5735,
      "ĠdAvA": 5736,
      "ĠkÃ¡Å¾e": 5737,
      "ĠchladnÃ½": 5738,
      "ĠokamÅ¾ik": 5739,
      "ĠpÄĽst": 5740,
      "ĠÄıas": 5741,
      "mÄĽt": 5742,
      "Ġvry": 5743,
      "Ġzkvet": 5744,
      "Ġonu": 5745,
      "ĠrAj": 5746,
      "vnÄĽ": 5747,
      "ĠstÃ¡ÅĻÃŃ": 5748,
      "ĠnechtÄĽ": 5749,
      "CA": 5750,
      "Ġdit": 5751,
      "vinu": 5752,
      "bilo": 5753,
      "ĠsliSel": 5754,
      "nÄĽla": 5755,
      "Ġhospodi": 5756,
      "ReNI": 5757,
      "ĠcÃŃle": 5758,
      "ĠpÅĻil": 5759,
      "Ġpova": 5760,
      "ĠmladÃ½ch": 5761,
      "Å¡eÅĪ": 5762,
      "Ġhladi": 5763,
      "ĠplnÃ¡": 5764,
      "Ġmilovat": 5765,
      "ĠstoupÃ¡": 5766,
      "ĠÅ¡kle": 5767,
      "tajI": 5768,
      "Ġrozv": 5769,
      "Ġbezd": 5770,
      "ĠloT": 5771,
      "ĠpIsNi": 5772,
      "ĠskÃ¡le": 5773,
      "ĠtatÃŃ": 5774,
      "Ġjagbi": 5775,
      "Ġdostal": 5776,
      "Ġpraco": 5777,
      "Ġjmeno": 5778,
      "ĠpÅĻÃŃrody": 5779,
      "ĠnazpÄĽt": 5780,
      "Ġblahem": 5781,
      "ĠchudÃ¡": 5782,
      "ĠvÄĽÅ¾ÃŃ": 5783,
      "ĠÅĻada": 5784,
      "zA": 5785,
      "ĠmÃŃstÄĽ": 5786,
      "ÄįÅ¯": 5787,
      "ĠnedA": 5788,
      "volu": 5789,
      "Ġnebil": 5790,
      "Ġpozo": 5791,
      "zkou": 5792,
      "ĠmanÄĽ": 5793,
      "Ġboho": 5794,
      "ĠkrAtk": 5795,
      "Ġfor": 5796,
      "ĠjdeÅ¡": 5797,
      "ĠsplI": 5798,
      "ĠdÃŃky": 5799,
      "Ġdiva": 5800,
      "Ġslzou": 5801,
      "ckÃ¡": 5802,
      "lejÅ¡ÃŃ": 5803,
      "ito": 5804,
      "ĠCA": 5805,
      "Ġkul": 5806,
      "Ġprsty": 5807,
      "ĠÅ¾itÃŃm": 5808,
      "ĠvlÃ¡dne": 5809,
      "Ġzvyk": 5810,
      "zdo": 5811,
      "ĠpotÃ¡": 5812,
      "Ġpana": 5813,
      "Ġmet": 5814,
      "Ġnitro": 5815,
      "ÅĻenÃ¡": 5816,
      "ĠsfÄĽtÄĽ": 5817,
      "ĠxA": 5818,
      "ĠradÄĽj": 5819,
      "ĠplnÃŃ": 5820,
      "ĠjixS": 5821,
      "Ġzmu": 5822,
      "ĠzlÃ½ch": 5823,
      "Ġkosti": 5824,
      "pÃŃrÃ¡": 5825,
      "skutku": 5826,
      "Ġpoesie": 5827,
      "loval": 5828,
      "Ġvedla": 5829,
      "Ġtanci": 5830,
      "ĠbAsNI": 5831,
      "ĠvlÃ¡d": 5832,
      "ĠsQtcem": 5833,
      "ĠmIru": 5834,
      "Ġpanna": 5835,
      "ĠbQzi": 5836,
      "ĠrÃ¡ji": 5837,
      "ĠÄįÃŃÅ¡e": 5838,
      "ĠradosTi": 5839,
      "Ġust": 5840,
      "Ġpravdi": 5841,
      "Ġrtem": 5842,
      "Ġam": 5843,
      "Ġuto": 5844,
      "Ġsvate": 5845,
      "Ġhasne": 5846,
      "zne": 5847,
      "Ġdumy": 5848,
      "Ġblesku": 5849,
      "ĠprÃ¡zdno": 5850,
      "ĠmÅ¾ik": 5851,
      "Ġzlou": 5852,
      "Ġporu": 5853,
      "ĠutÃŃ": 5854,
      "ĠzpÄĽvy": 5855,
      "Ġdoktor": 5856,
      "Ġklobou": 5857,
      "ĠmoÅĻ": 5858,
      "Ġpohro": 5859,
      "Ġnepla": 5860,
      "ĠdvÅ¯r": 5861,
      "ari": 5862,
      "ĠmarnÃ©": 5863,
      "Ġpokry": 5864,
      "ĠjedinÃ¡": 5865,
      "ĠstÃ¡li": 5866,
      "Ġdcera": 5867,
      "ĠvÄĽÅ¾": 5868,
      "mech": 5869,
      "Ġdvak": 5870,
      "ron": 5871,
      "ĠÄįeho": 5872,
      "Ġstin": 5873,
      "ĠplÃ¡t": 5874,
      "ĠjejÃŃch": 5875,
      "Ġdli": 5876,
      "ĠkÃ½ch": 5877,
      "RIt": 5878,
      "ĠsIlu": 5879,
      "ĠtepQ": 5880,
      "ĠletÄĽ": 5881,
      "ĠÄįekal": 5882,
      "pali": 5883,
      "Ġkvas": 5884,
      "Ġulo": 5885,
      "ĠÄįinÃŃ": 5886,
      "udy": 5887,
      "Ġstup": 5888,
      "ĠvnitÅĻ": 5889,
      "ĠkÃ©m": 5890,
      "rali": 5891,
      "viti": 5892,
      "ĠdUm": 5893,
      "Ġoli": 5894,
      "ĠÃºto": 5895,
      "ĠhnÃŃzdo": 5896,
      "Ġxvil": 5897,
      "ĠCernI": 5898,
      "ĠklÃŃnu": 5899,
      "ĠtrÃ¡vy": 5900,
      "ĠpÅ¯jde": 5901,
      "nÃŃho": 5902,
      "Ġnejsou": 5903,
      "Ġvesel": 5904,
      "nÄĽte": 5905,
      "ĠmnohÃ¡": 5906,
      "Ġtrud": 5907,
      "ĠÅ¾havÃ©": 5908,
      "blÃŃ": 5909,
      "nati": 5910,
      "Ġdomov": 5911,
      "ĠmÅĻe": 5912,
      "ĠpoÅ¾ehnÃ¡nÃŃ": 5913,
      "ĠchvÃŃlÃŃ": 5914,
      "Ġrostou": 5915,
      "Ġjarem": 5916,
      "ĠkrAsnI": 5917,
      "ĠhonÃŃ": 5918,
      "chÃ¡ch": 5919,
      "Ġsep": 5920,
      "Ġvlasi": 5921,
      "ĠÄįase": 5922,
      "mal": 5923,
      "ĠkolE": 5924,
      "ĠlÃ¡n": 5925,
      "ĠdruhI": 5926,
      "Å¡enÃ½": 5927,
      "ÅĻÃŃÅ¡": 5928,
      "Ġhlavje": 5929,
      "ĠprchÃ¡": 5930,
      "ĠÄįistÃ¡": 5931,
      "ĠfÃ¡": 5932,
      "dilo": 5933,
      "Ġrozpu": 5934,
      "Ġobloze": 5935,
      "Ġben": 5936,
      "raz": 5937,
      "Ġvece": 5938,
      "ĠvraÅ¥": 5939,
      "ĠkrAli": 5940,
      "Ġvnad": 5941,
      "ĠvÄĽnce": 5942,
      "ĠÅ¡Å¥asten": 5943,
      "Ġztr": 5944,
      "Ġdel": 5945,
      "ĠÅ¾enÄĽ": 5946,
      "Ġsno": 5947,
      "lenÃ¡": 5948,
      "ĠlisTI": 5949,
      "ĠmilE": 5950,
      "Ġmnich": 5951,
      "ĠveÄįe": 5952,
      "ĠobrA": 5953,
      "ĠdvE": 5954,
      "Nili": 5955,
      "ĠnesmÄĽ": 5956,
      "ĠmajI": 5957,
      "ĠsvjeTe": 5958,
      "Ġostro": 5959,
      "ĠÅ¡koda": 5960,
      "Ġfranci": 5961,
      "ĠpIx": 5962,
      "ĠvÅ¡udy": 5963,
      "ĠmNeli": 5964,
      "ĠmuÅ¾Å¯": 5965,
      "ĠÅ¾havÃ½": 5966,
      "Ġstruny": 5967,
      "ĠpÅĻÃŃmo": 5968,
      "ĠpÃ¡nem": 5969,
      "ĠsliSIm": 5970,
      "livÃ©": 5971,
      "Ġbyt": 5972,
      "ĠhÃ¡zÃŃ": 5973,
      "ÄįkÃ½": 5974,
      "Ġhrot": 5975,
      "ÄįkÅ¯": 5976,
      "ĠdÃ¡Å¡": 5977,
      "ĠptÃ¡kÅ¯": 5978,
      "Ġulici": 5979,
      "ĠzÃ¡padu": 5980,
      "krÃ¡snÄĽjÅ¡ÃŃ": 5981,
      "ĠprosÃŃ": 5982,
      "ĠubÃŃ": 5983,
      "ĠskrÃ¡nÃŃ": 5984,
      "ĠstÅĻel": 5985,
      "ĠxoDI": 5986,
      "ĠskrÃ¡nÄĽ": 5987,
      "Ġslib": 5988,
      "ĠmrakÅ¯": 5989,
      "Ġpraxu": 5990,
      "Ġhubi": 5991,
      "Ġdus": 5992,
      "Ġlos": 5993,
      "Ġsvitu": 5994,
      "Ġopi": 5995,
      "ĠmuZe": 5996,
      "Ġgu": 5997,
      "ĠnejkrÃ¡snÄĽjÅ¡ÃŃ": 5998,
      "ĠkrÃ¡tkÃ½": 5999,
      "ĠjeÅ¡": 6000,
      "ĠvÃŃtÃ¡": 6001,
      "Ġstromi": 6002,
      "ĠrÃ¡mÄĽ": 6003,
      "Ġpor": 6004,
      "Ġblahu": 6005,
      "ĠCex": 6006,
      "ĠzeÄı": 6007,
      "ĠrozkoÅ¡e": 6008,
      "ĠsvÄĽdomÃŃ": 6009,
      "losTi": 6010,
      "Ġmyslil": 6011,
      "dAm": 6012,
      "ĠroDi": 6013,
      "Ġejhle": 6014,
      "ĠnAruC": 6015,
      "ÄįenÃ©": 6016,
      "Ġmohli": 6017,
      "Ġpadl": 6018,
      "ĠpÃ¡s": 6019,
      "Ġzlomen": 6020,
      "ĠXXXA": 6021,
      "ĠplACe": 6022,
      "ĠpamÄĽti": 6023,
      "Ġhrobem": 6024,
      "ĠriTI": 6025,
      "Ġztratil": 6026,
      "ĠctÃŃ": 6027,
      "Å¾eb": 6028,
      "ĠveÅ¡ker": 6029,
      "Ġsvobody": 6030,
      "nÄĽnÃ©": 6031,
      "ĠÄįelem": 6032,
      "Ġjazi": 6033,
      "Ġvzej": 6034,
      "Ġvav": 6035,
      "Ġsiro": 6036,
      "ĠdlouhÃ½ch": 6037,
      "ĠvÃ¡clav": 6038,
      "Ġnef": 6039,
      "tuje": 6040,
      "ĠpÅĻÃŃteli": 6041,
      "ĠpÃ¡d": 6042,
      "ĠdrahE": 6043,
      "ĠzvonÅ¯": 6044,
      "ĠReCi": 6045,
      "ĠchvÄĽjÃŃ": 6046,
      "jÃŃcÃ½": 6047,
      "Ġrozmil": 6048,
      "dlI": 6049,
      "ĠnejvÄĽt": 6050,
      "cÃŃho": 6051,
      "ĠdÃŃÅ¡": 6052,
      "Ġnejlep": 6053,
      "US": 6054,
      "Ġak": 6055,
      "ĠposvÃ¡t": 6056,
      "Ġbarvy": 6057,
      "ĠzbranÄĽ": 6058,
      "ĠneÅ¡tÄĽ": 6059,
      "ĠsÃŃnÄĽ": 6060,
      "ĠcITil": 6061,
      "ĠpyÅ¡": 6062,
      "ĠvÄĽdÄĽl": 6063,
      "ĠkrÃ¡snÄĽ": 6064,
      "ĠlesU": 6065,
      "ĠÄįlovÄĽku": 6066,
      "Ġoj": 6067,
      "ĠhruDi": 6068,
      "ĠdivnÄĽ": 6069,
      "ĠkÅĻiv": 6070,
      "Å¡u": 6071,
      "Ġpozved": 6072,
      "ĠstojÃŃm": 6073,
      "Ġhyne": 6074,
      "Ġramena": 6075,
      "tilo": 6076,
      "Ġnejsi": 6077,
      "ĠdennÃŃ": 6078,
      "Ġnest": 6079,
      "Ġfla": 6080,
      "ĠdomÃ¡": 6081,
      "ĠskRi": 6082,
      "Ġdobrou": 6083,
      "ĠzvÄĽÅĻ": 6084,
      "Ġchud": 6085,
      "Ġdvacet": 6086,
      "Ġpodi": 6087,
      "Å¡ila": 6088,
      "Ġpre": 6089,
      "covÃ©": 6090,
      "ĠtmavÃ½": 6091,
      "ĠSumI": 6092,
      "ovÃ©": 6093,
      "Ġbychom": 6094,
      "Ġpusto": 6095,
      "ĠvzpomÃŃnÃ¡m": 6096,
      "Ġpokoje": 6097,
      "Ġfilo": 6098,
      "ĠzvÃŃÅĻe": 6099,
      "ĠÄįtyÅĻi": 6100,
      "Ġzato": 6101,
      "nEmu": 6102,
      "ĠpRede": 6103,
      "Ġdivy": 6104,
      "Ġdobje": 6105,
      "ĠplÃ¡ÅĪ": 6106,
      "ĠprostÃ©": 6107,
      "zar": 6108,
      "Ġxa": 6109,
      "ĠkdeÅ¾": 6110,
      "Ġstrachu": 6111,
      "Ġzen": 6112,
      "ĠskQ": 6113,
      "Ġnapad": 6114,
      "Ġceli": 6115,
      "jil": 6116,
      "ĠvÃ¡Å¡eÅĪ": 6117,
      "mene": 6118,
      "Ġhromu": 6119,
      "ÅĻena": 6120,
      "ĠplÃ¡Äįem": 6121,
      "Ġvzor": 6122,
      "ĠvlasÅ¥": 6123,
      "ĠkÅĻiÄįÃŃ": 6124,
      "tnou": 6125,
      "Ġpovin": 6126,
      "ĠzaznÃŃ": 6127,
      "ĠnovÃ½m": 6128,
      "Ġskvje": 6129,
      "Upje": 6130,
      "Å¾ek": 6131,
      "ĠCasu": 6132,
      "ĠmlÃ¡den": 6133,
      "ĠvjetSI": 6134,
      "Ġjinoch": 6135,
      "lÃ½mi": 6136,
      "Ġodev": 6137,
      "Ġneli": 6138,
      "Ġrato": 6139,
      "ĠjemuÅ¾": 6140,
      "Ġrol": 6141,
      "Ġsedmi": 6142,
      "Ġpopra": 6143,
      "Ġcar": 6144,
      "ĠbÃŃt": 6145,
      "ĠsvjeZI": 6146,
      "ĠtichÃ©m": 6147,
      "ĠbratQ": 6148,
      "ĠobjeTI": 6149,
      "ĠodpusÅ¥": 6150,
      "nutÃŃm": 6151,
      "Ġzuby": 6152,
      "ĠnaÅ¡em": 6153,
      "ĠhrozÃŃ": 6154,
      "ĠmÃ¡Å¥": 6155,
      "Ġmalou": 6156,
      "ĠmyÅ¡lÃ©nky": 6157,
      "ĠmilosTi": 6158,
      "sej": 6159,
      "ĠZel": 6160,
      "Ġhrdin": 6161,
      "Ġsmrtel": 6162,
      "ĠvÄĽrnÃ½": 6163,
      "ĠpÄĽstÃŃ": 6164,
      "Ġnah": 6165,
      "nÃ¡ct": 6166,
      "ĠvÃ¡bÃŃ": 6167,
      "ĠslzÃ¡ch": 6168,
      "ĠzvuÄįÃŃ": 6169,
      "Ġdosta": 6170,
      "ĠstÅĻÃ¡": 6171,
      "koho": 6172,
      "ĠbratRI": 6173,
      "bNI": 6174,
      "Ġrt": 6175,
      "rovÃ©": 6176,
      "ĠjiÅĻÃŃ": 6177,
      "Ġspro": 6178,
      "ĠotvÃŃrÃ¡": 6179,
      "Ġvlasten": 6180,
      "rnÃ½m": 6181,
      "Ġnexce": 6182,
      "livÃ½": 6183,
      "Ġjisto": 6184,
      "ĠpovÄĽz": 6185,
      "CnA": 6186,
      "Ġpoku": 6187,
      "ĠlÃŃbez": 6188,
      "Ġodtud": 6189,
      "ĠpÅĻÃ¡l": 6190,
      "dni": 6191,
      "rie": 6192,
      "ĠmITi": 6193,
      "ĠdnU": 6194,
      "Ġgro": 6195,
      "ĠdobrE": 6196,
      "Ġstracen": 6197,
      "vÅ¡e": 6198,
      "Ġbezna": 6199,
      "Ġstisk": 6200,
      "voval": 6201,
      "Ġhnus": 6202,
      "Ġposut": 6203,
      "ĠfTi": 6204,
      "ĠpamNe": 6205,
      "Ġslof": 6206,
      "ĠjIt": 6207,
      "ĠbuÅ¡ÃŃ": 6208,
      "ĠvÃŃÅĻÃŃ": 6209,
      "Slo": 6210,
      "nÃŃka": 6211,
      "ĠcelÃ©m": 6212,
      "ĠoCIx": 6213,
      "Ġobou": 6214,
      "Ġsuk": 6215,
      "ĠkeÅĻ": 6216,
      "Ġjiskry": 6217,
      "ĠsmÃŃchem": 6218,
      "Ġtrav": 6219,
      "ĠcÃŃli": 6220,
      "ĠÅĻem": 6221,
      "Ġrce": 6222,
      "ĠNader": 6223,
      "hU": 6224,
      "sTIm": 6225,
      "ĠdÃŃl": 6226,
      "ĠlÃŃcÃŃ": 6227,
      "ĠÅĻÃŃkÃ¡": 6228,
      "ĠDA": 6229,
      "ĠvstÃ¡": 6230,
      "ĠzrakÅ¯": 6231,
      "ĠzahrÃ¡": 6232,
      "Ġhrat": 6233,
      "Ġnaj": 6234,
      "ĠÅ¾ivÃ½": 6235,
      "ĠpoupÄĽ": 6236,
      "ĠvÄĽÄįnost": 6237,
      "ĠrUZI": 6238,
      "ĠjmEno": 6239,
      "ĠkorÃ¡": 6240,
      "ĠvÄĽÄįnou": 6241,
      "Ġtrux": 6242,
      "ĠdÄĽtem": 6243,
      "ĠznamenÃŃ": 6244,
      "kru": 6245,
      "Ġpokra": 6246,
      "Ġrus": 6247,
      "Cej": 6248,
      "Ġdopro": 6249,
      "ĠdunÃŃ": 6250,
      "ĠÅ¡ero": 6251,
      "Ġstarce": 6252,
      "ĠkÅĻÃŃdlem": 6253,
      "ĠpriC": 6254,
      "Ġsatan": 6255,
      "ĠstRIbQ": 6256,
      "lEho": 6257,
      "hlou": 6258,
      "cek": 6259,
      "ĠvlnÃŃ": 6260,
      "ĠRekL": 6261,
      "vIrA": 6262,
      "ĠplÃ¡nÃŃ": 6263,
      "ÄįnÃ©m": 6264,
      "ĠÄįerst": 6265,
      "Ġpocti": 6266,
      "Ġvni": 6267,
      "nÃŃky": 6268,
      "ĠrÃ¡di": 6269,
      "Ġhrobje": 6270,
      "ĠvjekU": 6271,
      "ĠspÄĽl": 6272,
      "ĠjakÃ½s": 6273,
      "ĠkfÄĽt": 6274,
      "Ġpost": 6275,
      "lon": 6276,
      "krÃ¡te": 6277,
      "Ġchlap": 6278,
      "Ġtok": 6279,
      "ĠÅ¡edÃ½": 6280,
      "ĠvlnÃ¡ch": 6281,
      "ĠmalE": 6282,
      "ĠonÃ©": 6283,
      "Ġneob": 6284,
      "Ġbrzo": 6285,
      "Ġprince": 6286,
      "Ġdaf": 6287,
      "Ġfje": 6288,
      "Ġletech": 6289,
      "ĠvaSi": 6290,
      "Ġhus": 6291,
      "ĠkrAse": 6292,
      "ĠsmrÅ¥": 6293,
      "Ġxvjeje": 6294,
      "Ġdeset": 6295,
      "Ġnejde": 6296,
      "ĠstokrÃ¡t": 6297,
      "ÅĻenÃ½ch": 6298,
      "ĠÅ¾Ã¡rem": 6299,
      "Ġpokli": 6300,
      "Ġdoli": 6301,
      "ĠrAzem": 6302,
      "ĠbojovnÃŃ": 6303,
      "ĠodÄĽ": 6304,
      "viny": 6305,
      "tec": 6306,
      "Rek": 6307,
      "Ġzho": 6308,
      "ĠdÄĽlÃ¡": 6309,
      "Ġex": 6310,
      "ÅĻily": 6311,
      "ĠjÃŃmÃ¡": 6312,
      "ĠÅ¡eptÃ¡": 6313,
      "ĠpÅ¯jdu": 6314,
      "Ġtech": 6315,
      "ĠtenkrAt": 6316,
      "Ġblank": 6317,
      "ĠpouÅ¡Å¥": 6318,
      "ĠmusIm": 6319,
      "ÄįkÃ¡ch": 6320,
      "Ġnemi": 6321,
      "ĠtajnÄĽ": 6322,
      "ĠpÅĻÃŃroda": 6323,
      "vAt": 6324,
      "ĠdlÃ¡": 6325,
      "Ġplax": 6326,
      "tin": 6327,
      "ĠvelikÃ¡": 6328,
      "Ġstrun": 6329,
      "ĠÄıÃ¡bel": 6330,
      "ĠpÃŃsku": 6331,
      "Ġkne": 6332,
      "ĠnaN": 6333,
      "Ġleto": 6334,
      "kajI": 6335,
      "ĠnoÅĻÃŃ": 6336,
      "Ġer": 6337,
      "toval": 6338,
      "ĠkvITI": 6339,
      "Ġmladosti": 6340,
      "zkÃ½": 6341,
      "Ġoso": 6342,
      "Ġdojem": 6343,
      "Ġvlek": 6344,
      "Ġuva": 6345,
      "Ġdruha": 6346,
      "ĠtÄĽÅ¾kou": 6347,
      "Ur": 6348,
      "ĠrozlÃ©": 6349,
      "Ġpravo": 6350,
      "ĠmNesto": 6351,
      "ĠÅ¾eno": 6352,
      "Ġneh": 6353,
      "ĠhroznÃ½": 6354,
      "Ġzahrad": 6355,
      "fat": 6356,
      "rÃ½m": 6357,
      "Ġhoru": 6358,
      "Ġposlal": 6359,
      "ĠvjeCnI": 6360,
      "ĠvzkÅĻik": 6361,
      "ĠzdAlo": 6362,
      "ĠkNIZe": 6363,
      "ĠbRehu": 6364,
      "bÃ©": 6365,
      "bled": 6366,
      "ĠcelÃ½m": 6367,
      "Ġmechu": 6368,
      "ĠdAt": 6369,
      "Ġpohr": 6370,
      "ĠpravdÄĽ": 6371,
      "pky": 6372,
      "ĠpE": 6373,
      "ĠnechtÄĽl": 6374,
      "Ġproudem": 6375,
      "Äįina": 6376,
      "Ġmilio": 6377,
      "ĠpANi": 6378,
      "ĠnÃ¡rodu": 6379,
      "zvuk": 6380,
      "ĠÅ¡il": 6381,
      "ĠverÅ¡e": 6382,
      "Ġvzrost": 6383,
      "ĠskvÃŃ": 6384,
      "ĠkrÅ¯pÄĽj": 6385,
      "ĠsvatÃ½ch": 6386,
      "ĠtvÃŃ": 6387,
      "ĠplaÅ¡e": 6388,
      "Ġkrut": 6389,
      "Ġkalich": 6390,
      "Ġpoledne": 6391,
      "ĠmZi": 6392,
      "ĠhrabÄĽ": 6393,
      "Ġslatce": 6394,
      "ĠjedinÃ©": 6395,
      "ĠpoutnÃŃk": 6396,
      "ĠmisL": 6397,
      "cou": 6398,
      "dÄĽji": 6399,
      "lIZI": 6400,
      "Rila": 6401,
      "Ġzbroj": 6402,
      "Ġrukama": 6403,
      "Ġprostor": 6404,
      "Ġozval": 6405,
      "ĠslyÅ¡ÃŃÅ¡": 6406,
      "ĠvÄĽcÃŃ": 6407,
      "ĠlÃŃbal": 6408,
      "Ġohlas": 6409,
      "Ġcity": 6410,
      "ĠZa": 6411,
      "ĠDeTI": 6412,
      "ĠrAda": 6413,
      "Ġviny": 6414,
      "ĠÅ¡tÄĽstÃŃm": 6415,
      "Ġskro": 6416,
      "ĠvUle": 6417,
      "Ġsje": 6418,
      "Ġnecha": 6419,
      "Ġtluk": 6420,
      "Ġratole": 6421,
      "ĠsQtcI": 6422,
      "Ġticha": 6423,
      "ĠvÅ¡ednÃŃ": 6424,
      "Ġotpu": 6425,
      "ĠpojÃŃ": 6426,
      "Ġrat": 6427,
      "ĠÄįerno": 6428,
      "ĠhrÅ¯z": 6429,
      "ĠmoÅ¾nÃ¡": 6430,
      "Ġneje": 6431,
      "Ġzara": 6432,
      "ĠhledÃŃm": 6433,
      "lilo": 6434,
      "Ġhox": 6435,
      "Sto": 6436,
      "Ġztu": 6437,
      "ĠpastÃ½": 6438,
      "zÃ½": 6439,
      "ĠkrÄį": 6440,
      "ĠdÄĽvy": 6441,
      "ĠDeDi": 6442,
      "ĠbÃ©": 6443,
      "Ġduxu": 6444,
      "Ġnohu": 6445,
      "ĠÅĻev": 6446,
      "ĠvÄįel": 6447,
      "Å¡tÃŃm": 6448,
      "Ġovoce": 6449,
      "gna": 6450,
      "Ġnechal": 6451,
      "Ġjinou": 6452,
      "Ġpozdvi": 6453,
      "Ġjisker": 6454,
      "ble": 6455,
      "ĠpÄĽnÃŃ": 6456,
      "ĠmnÃŃ": 6457,
      "ĠpÅĻÃŃs": 6458,
      "Ġvzdex": 6459,
      "krAs": 6460,
      "Ġpoha": 6461,
      "ĠbÄĽlost": 6462,
      "Ġchudo": 6463,
      "ĠAAAX": 6464,
      "Ġihne": 6465,
      "ĠÄįert": 6466,
      "ĠkteRI": 6467,
      "ĠcÃ¡": 6468,
      "Ġad": 6469,
      "Ġoct": 6470,
      "Ġposa": 6471,
      "Ġusly": 6472,
      "ĠmanÅ¾el": 6473,
      "jIt": 6474,
      "ĠzpÃŃvat": 6475,
      "ĠpAr": 6476,
      "ĠhrUz": 6477,
      "rAx": 6478,
      "nicÃŃ": 6479,
      "Ġsek": 6480,
      "ilÃŃ": 6481,
      "menu": 6482,
      "ĠpouÅ¥": 6483,
      "roval": 6484,
      "ÅĪÅ¯": 6485,
      "ĠsamÃ½": 6486,
      "ĠÅ¥": 6487,
      "Ġsestra": 6488,
      "Ġracho": 6489,
      "Ġsvjetu": 6490,
      "ĠÅ¾Ã¡dnÃ¡": 6491,
      "ĠÄįeskÃ¡": 6492,
      "ĠtrhÃ¡": 6493,
      "ĠNim": 6494,
      "ĠmlÃ©": 6495,
      "ĠnaÅĻÃŃ": 6496,
      "ĠmizI": 6497,
      "Ġpraha": 6498,
      "Ġxle": 6499,
      "Ġnitra": 6500,
      "Ġpropasti": 6501,
      "ĠÃºzkost": 6502,
      "Ġlidmi": 6503,
      "ĠkrAle": 6504,
      "Ġulice": 6505,
      "Ġnedal": 6506,
      "ĠspÃŃcÃŃ": 6507,
      "Ġctnosti": 6508,
      "ĠhnutÃŃ": 6509,
      "Ġpavu": 6510,
      "ĠfSIm": 6511,
      "Ġvezmi": 6512,
      "Cn": 6513,
      "Ġblud": 6514,
      "Ġplakal": 6515,
      "ĠmodlÃŃ": 6516,
      "ĠsmutNe": 6517,
      "ĠnÃŃmÅ¾": 6518,
      "Ġchvilku": 6519,
      "Ġbalvan": 6520,
      "Ġsal": 6521,
      "Ġnekli": 6522,
      "ĠcTi": 6523,
      "ĠAX": 6524,
      "Ġpanny": 6525,
      "ĠnejvyÅ¡Å¡ÃŃ": 6526,
      "ĠmÅ¯Å¾eÅ¡": 6527,
      "kEm": 6528,
      "ĠtÄĽmi": 6529,
      "peNI": 6530,
      "!!": 6531,
      "ĠvÃ¡nek": 6532,
      "ĠlIc": 6533,
      "ĠtvARi": 6534,
      "Ġminulost": 6535,
      "Ġmoudro": 6536,
      "ĠmoZno": 6537,
      "Ġpohan": 6538,
      "ĠstÃŃnem": 6539,
      "ĠzaÄįal": 6540,
      "Ġblankyt": 6541,
      "fÃ©m": 6542,
      "najÃŃ": 6543,
      "ĠsvatA": 6544,
      "Ġpusti": 6545,
      "Ġchcete": 6546,
      "Ġcig": 6547,
      "Ġlibu": 6548,
      "ĠfSemi": 6549,
      "ĠletnÃŃ": 6550,
      "Ġsloup": 6551,
      "Ġhat": 6552,
      "ĠpouÅ¡ti": 6553,
      "slil": 6554,
      "ĠspÃ¡nek": 6555,
      "Ġperla": 6556,
      "Ġsos": 6557,
      "Ġvysoko": 6558,
      "ĠpapeÅ¾": 6559,
      "ĠkrAsa": 6560,
      "Å¯so": 6561,
      "ĠpouÅ¡tÃŃ": 6562,
      "Ġpomi": 6563,
      "ĠzavÃ¡": 6564,
      "jÃŃÅ¾": 6565,
      "Ġpamat": 6566,
      "meNI": 6567,
      "Ġseveru": 6568,
      "ĠkoNe": 6569,
      "ĠslI": 6570,
      "Ġpuk": 6571,
      "ĠrUZo": 6572,
      "Ġmohut": 6573,
      "ĠpouÅ¡tÄĽ": 6574,
      "Ġprova": 6575,
      "ĠnÄĽme": 6576,
      "Ġpodve": 6577,
      "Äįnost": 6578,
      "Ġvzdoru": 6579,
      "Ġpochyb": 6580,
      "ĠvzpomÃŃnka": 6581,
      "Ġnohi": 6582,
      "ĠdÃŃtky": 6583,
      "Ġsfat": 6584,
      "Ġnejdra": 6585,
      "ĠUTe": 6586,
      "Ġmraz": 6587,
      "ĠstAt": 6588,
      "Ġw": 6589,
      "Ġjedovat": 6590,
      "ĠÄįervÃ¡": 6591,
      "ĠCeskE": 6592,
      "ĠhrdÃ©": 6593,
      "vlÃ¡": 6594,
      "Ġvypu": 6595,
      "ĠABABAX": 6596,
      "Ġhav": 6597,
      "ĠhroznÃ©": 6598,
      "Sko": 6599,
      "ĠneÅ¡tÄĽstÃŃ": 6600,
      "Ġmladou": 6601,
      "ĠtÅĻÃ¡s": 6602,
      "ĠleÅ¾el": 6603,
      "ĠvisI": 6604,
      "ĠjasnE": 6605,
      "Ġlitstva": 6606,
      "ĠchystÃ¡": 6607,
      "ĠhrajÃŃ": 6608,
      "Ġcele": 6609,
      "ÄįenÃ½": 6610,
      "ĠokamZi": 6611,
      "ĠpenÃŃ": 6612,
      "ĠkterÃ½ch": 6613,
      "ĠzvÄĽda": 6614,
      "Ġuh": 6615,
      "dol": 6616,
      "Ġnov": 6617,
      "ĠsrdcÃŃch": 6618,
      "ĠtQp": 6619,
      "Ġmladost": 6620,
      "Ġhrst": 6621,
      "dno": 6622,
      "ĠÅ¡va": 6623,
      "Ste": 6624,
      "nie": 6625,
      "ĠmohL": 6626,
      "ĠzÃ¡ÅĻÃŃcÃŃ": 6627,
      "Ġvodou": 6628,
      "ĠhvÄĽzdi": 6629,
      "mÃ¡nÃŃ": 6630,
      "ĠkolÃ©": 6631,
      "ĠvÃ½s": 6632,
      "ĠlÅ¯nÄĽ": 6633,
      "ĠsÃŃle": 6634,
      "slIm": 6635,
      "ĠmÄĽsÃŃce": 6636,
      "ĠmdlÃ½": 6637,
      "ĠkrUpje": 6638,
      "ĠzlatÃ½m": 6639,
      "ĠspÄĽchÃ¡": 6640,
      "ĠvzAc": 6641,
      "Ġgeni": 6642,
      "ĠkrÃ¡lem": 6643,
      "ĠsÃŃni": 6644,
      "ĠDIfka": 6645,
      "ĠtanÄįÃŃ": 6646,
      "Ġzmaten": 6647,
      "ĠuprostÅĻed": 6648,
      "tAm": 6649,
      "Ġzbude": 6650,
      "vjen": 6651,
      "Ġjdeme": 6652,
      "ĠstarIx": 6653,
      "Ġhromo": 6654,
      "Ġzaji": 6655,
      "Ġmuzi": 6656,
      "ĠdÄĽva": 6657,
      "ĠjasnÃ¡": 6658,
      "ĠpustÃ©": 6659,
      "rÄįÃŃ": 6660,
      "ĠZer": 6661,
      "Ġstrax": 6662,
      "Ġmraku": 6663,
      "ĠbrÃ¡nÃŃ": 6664,
      "Ġvzdechy": 6665,
      "brA": 6666,
      "ĠdrahI": 6667,
      "ĠpRiSla": 6668,
      "Ġplameny": 6669,
      "ĠÅ¾ivotÄĽ": 6670,
      "ĠdrobnÃ©": 6671,
      "ĠvzdychÃ¡": 6672,
      "Ġskryt": 6673,
      "Ġprahy": 6674,
      "ckÃ½m": 6675,
      "Ġzrozen": 6676,
      "ĠvlÃŃdnÄĽ": 6677,
      "Ġpohy": 6678,
      "ĠvÅ¯z": 6679,
      "ĠslavÃŃk": 6680,
      "ca": 6681,
      "Ġsej": 6682,
      "ĠneÅ¡": 6683,
      "ĠsvÃŃtil": 6684,
      "ĠskuteÄį": 6685,
      "Ġpof": 6686,
      "Ġpobo": 6687,
      "Ġston": 6688,
      "ĠpozdnÃŃ": 6689,
      "os": 6690,
      "ĠkrAlof": 6691,
      "ckou": 6692,
      "ĠÅ¡ÃŃp": 6693,
      "ĠzAhi": 6694,
      "Ġnavra": 6695,
      "ĠnÃ¡ho": 6696,
      "Ġnepoko": 6697,
      "Ġsxi": 6698,
      "ĠZenu": 6699,
      "Ġvza": 6700,
      "ĠÅ¡est": 6701,
      "Cila": 6702,
      "pomÃŃnÃ¡": 6703,
      "Ġpopla": 6704,
      "Ġskrit": 6705,
      "Ġhry": 6706,
      "fÃ½": 6707,
      "ĠvÅ¡echen": 6708,
      "ĠUsko": 6709,
      "ĠchoÅ¥": 6710,
      "dnu": 6711,
      "lali": 6712,
      "Ġzahu": 6713,
      "ĠstÃ¡r": 6714,
      "Ġtemnou": 6715,
      "Ġproklet": 6716,
      "ĠzdÃŃ": 6717,
      "ĠtrÃ¡va": 6718,
      "ĠjeDinI": 6719,
      "ĠzaÅ¡e": 6720,
      "Ġbur": 6721,
      "ĠpospÃŃ": 6722,
      "Ġkvil": 6723,
      "Ġvyt": 6724,
      "ĠpoÄįal": 6725,
      "Ġkov": 6726,
      "stoup": 6727,
      "ĠvÄĽrnÃ©": 6728,
      "ĠoÅĻe": 6729,
      "Ġsoko": 6730,
      "ĠÅĻit": 6731,
      "fce": 6732,
      "Ġdocela": 6733,
      "dL": 6734,
      "Ġknihy": 6735,
      "Ġleta": 6736,
      "Ġlost": 6737,
      "Ġbezpe": 6738,
      "ĠdruhÃ¡": 6739,
      "Ġparku": 6740,
      "ĠneÃº": 6741,
      "ĠvUkol": 6742,
      "Ġjezd": 6743,
      "ĠÅ¾u": 6744,
      "Ġdopo": 6745,
      "ĠvelÃŃ": 6746,
      "Ġmysti": 6747,
      "ĠpohÃ¡r": 6748,
      "ĠzelenÃ©": 6749,
      "Ġhudbu": 6750,
      "ĠstejNe": 6751,
      "ĠmNeNI": 6752,
      "Ġhluku": 6753,
      "Ġumdle": 6754,
      "ĠzlatA": 6755,
      "ĠbuÄıte": 6756,
      "ĠTeSkE": 6757,
      "ĠcizÃŃch": 6758,
      "ĠkrÃ¡lÅ¯": 6759,
      "Ġkled": 6760,
      "Ġnesl": 6761,
      "Ġrevolu": 6762,
      "ĠvpÅĻed": 6763,
      "Ġslzu": 6764,
      "Ġvesna": 6765,
      "RenE": 6766,
      "ĠvodÄĽ": 6767,
      "Ġpetr": 6768,
      "ĠmladA": 6769,
      "ĠtRA": 6770,
      "Ġchr": 6771,
      "ĠchudÃ½": 6772,
      "Ġbludi": 6773,
      "Ġzachy": 6774,
      "ĠrUz": 6775,
      "ĠxTela": 6776,
      "gy": 6777,
      "ĠzlatÃŃ": 6778,
      "ĠvÄĽÅĻÃŃm": 6779,
      "Ġzloba": 6780,
      "ĠznÃ¡mÃ½": 6781,
      "zeNI": 6782,
      "ĠschÃ½": 6783,
      "nÃ©st": 6784,
      "Ġkouzlem": 6785,
      "Ġpsi": 6786,
      "Ġokra": 6787,
      "ĠchtÄĽli": 6788,
      "ĠvzpomÃŃnÃ¡": 6789,
      "ĠznÃ¡t": 6790,
      "Ġvpad": 6791,
      "Ġmha": 6792,
      "ĠbojÃŃ": 6793,
      "ĠmaTi": 6794,
      "Ġhisto": 6795,
      "ĠsTix": 6796,
      "smu": 6797,
      "Ġjedem": 6798,
      "es": 6799,
      "ÅĪuje": 6800,
      "ĠtÅĻpytÃŃ": 6801,
      "Al": 6802,
      "Ġperel": 6803,
      "ĠzapomnÄĽl": 6804,
      "Ġtouhu": 6805,
      "Ġbratry": 6806,
      "ĠpQsa": 6807,
      "Ġvhod": 6808,
      "Ġzjas": 6809,
      "ĠdivÄĽ": 6810,
      "dÃ¡vÃ¡": 6811,
      "ĠnepRI": 6812,
      "ĠpouhÃ½": 6813,
      "Å¾ena": 6814,
      "ĠÅĻekne": 6815,
      "ĠpoZeh": 6816,
      "Ġnaro": 6817,
      "ĠhÅĻÃŃchu": 6818,
      "ĠptAci": 6819,
      "Ġstranu": 6820,
      "ĠnepRi": 6821,
      "Ġjasno": 6822,
      "duje": 6823,
      "Ġscela": 6824,
      "dovÃ©": 6825,
      "Ġhladem": 6826,
      "ĠmLCI": 6827,
      "nÄĽnÃ½": 6828,
      "ĠjednE": 6829,
      "Ġskok": 6830,
      "Ġbere": 6831,
      "vÃŃvÃ¡": 6832,
      "Ġvaz": 6833,
      "Ġteplo": 6834,
      "Ġtvar": 6835,
      "Ġmodro": 6836,
      "tna": 6837,
      "Ġfu": 6838,
      "ĠjejIm": 6839,
      "ĠposvÄĽ": 6840,
      "ĠXXABBA": 6841,
      "Ġtragi": 6842,
      "ĠZITi": 6843,
      "Ġzmatku": 6844,
      "Ġmine": 6845,
      "Ġperli": 6846,
      "Äįiti": 6847,
      "NeNI": 6848,
      "ĠnepRA": 6849,
      "ĠzAzrak": 6850,
      "Celi": 6851,
      "Ġnexci": 6852,
      "Ġhejno": 6853,
      "ĠZAdnI": 6854,
      "ĠklIn": 6855,
      "venÃ©": 6856,
      "ĠnnÃ½": 6857,
      "lumen": 6858,
      "Ġ!": 6859,
      "Ġposu": 6860,
      "Ġkane": 6861,
      "Ġnejen": 6862,
      "zala": 6863,
      "ĠsluÅ¡ÃŃ": 6864,
      "ĠdenNe": 6865,
      "Ġstech": 6866,
      "ĠofSem": 6867,
      "Ġroztou": 6868,
      "ĠvÅĻel": 6869,
      "Ġjet": 6870,
      "Rili": 6871,
      "Ġryt": 6872,
      "ĠmodrE": 6873,
      "ĠperutÃŃ": 6874,
      "ĠzNi": 6875,
      "Ġzad": 6876,
      "Ġzjevil": 6877,
      "ĠsnÃ¡": 6878,
      "ĠrAs": 6879,
      "Ġshon": 6880,
      "ĠtO": 6881,
      "ĠlÃ¡sko": 6882,
      "ĠhÃ¡ji": 6883,
      "ĠsladkÃ½ch": 6884,
      "ĠXXAAXX": 6885,
      "Ġhodiny": 6886,
      "ĠtepQf": 6887,
      "xal": 6888,
      "Ġmsti": 6889,
      "ĠdomÄĽ": 6890,
      "tajen": 6891,
      "ĠvÅ¯bec": 6892,
      "Ġoblaka": 6893,
      "ĠplÃ©mÄĽ": 6894,
      "ĠzÅĻela": 6895,
      "ĠlÃ½m": 6896,
      "Ġroky": 6897,
      "Ġmok": 6898,
      "ĠdÄĽd": 6899,
      "ĠtvÃ©mu": 6900,
      "Ġslavnost": 6901,
      "Ġpokoji": 6902,
      "ĠÅ¾ivotu": 6903,
      "zkÃ¡": 6904,
      "Ġudi": 6905,
      "hej": 6906,
      "ĠhRbito": 6907,
      "ĠdÃ¡vnÃ©": 6908,
      "stupuje": 6909,
      "ÄįnÃŃm": 6910,
      "Ġsval": 6911,
      "ĠvjeR": 6912,
      "ĠpÃŃÅ¡e": 6913,
      "ĠÅ¾eni": 6914,
      "ĠhNef": 6915,
      "bet": 6916,
      "ĠbÅĻi": 6917,
      "ĠmNi": 6918,
      "ĠvonnÃ½": 6919,
      "ĠtÃ©mÄĽ": 6920,
      "Ġxra": 6921,
      "slem": 6922,
      "ĠdAm": 6923,
      "Ġvjec": 6924,
      "ĠtÃ½m": 6925,
      "Ġpoje": 6926,
      "Ġvedou": 6927,
      "ĠbÃ¡l": 6928,
      "ĠvAmi": 6929,
      "ĠkloNI": 6930,
      "ĠÅ¡ly": 6931,
      "bami": 6932,
      "ĠvÅ¯d": 6933,
      "Cem": 6934,
      "stav": 6935,
      "ĠboÅ¾ÃŃm": 6936,
      "Ġmoudrost": 6937,
      "ĠvalI": 6938,
      "lce": 6939,
      "rej": 6940,
      "Ġlsti": 6941,
      "nova": 6942,
      "ĠsamotÄĽ": 6943,
      "ĠjDi": 6944,
      "ĠdRIve": 6945,
      "ĠvIk": 6946,
      "ĠvISi": 6947,
      "Ġvzejde": 6948,
      "ĠhostÃŃ": 6949,
      "Ġbrachu": 6950,
      "ĠtReTI": 6951,
      "sNI": 6952,
      "lom": 6953,
      "Ġmozo": 6954,
      "ĠxTI": 6955,
      "ĠÅ¡ÃŃji": 6956,
      "ĠtÃ¡bo": 6957,
      "ĠzvoNI": 6958,
      "ĠzbranÃŃ": 6959,
      "dom": 6960,
      "Ġchodil": 6961,
      "Ġbledou": 6962,
      "Ġvkro": 6963,
      "ĠÅ¡per": 6964,
      "ĠzmÃŃrÃ¡": 6965,
      "Ġchti": 6966,
      "DIS": 6967,
      "venÃ½": 6968,
      "ĠperuÅ¥": 6969,
      "Ġtka": 6970,
      "ĠvÃ¡n": 6971,
      "ĠdruÅ¾i": 6972,
      "Ġgdos": 6973,
      "ĠchraÅĪ": 6974,
      "Ġodlesk": 6975,
      "ĠmalÃŃ": 6976,
      "ĠSlex": 6977,
      "Ġdavi": 6978,
      "Ġslovu": 6979,
      "Ġhorami": 6980,
      "ujI": 6981,
      "ĠsilnÃ½": 6982,
      "Ġpoky": 6983,
      "ÅĪo": 6984,
      "mAx": 6985,
      "ĠÄįlu": 6986,
      "ĠzvlA": 6987,
      "Ġzapomenu": 6988,
      "ĠpÅ¯vab": 6989,
      "Å¡et": 6990,
      "ĠsvatÃ½m": 6991,
      "ĠtÅĻesou": 6992,
      "Ġmrtev": 6993,
      "Ġanebo": 6994,
      "ĠÅ¾ÃŃm": 6995,
      "ĠÅ¡erÃ©": 6996,
      "dan": 6997,
      "Ġslabo": 6998,
      "Ġtrap": 6999,
      "Ġplot": 7000,
      "ĠrovnÄĽ": 7001,
      "Ġsvr": 7002,
      "Ġhlasi": 7003,
      "ĠmodrÃ½": 7004,
      "ĠÅ¾Ã¡ru": 7005,
      "ĠsmÄĽlÃ½": 7006,
      "ĠpÅ¯du": 7007,
      "ĠkoÅĻist": 7008,
      "ĠvyÅ¡la": 7009,
      "ĠdlaN": 7010,
      "Ġbiskup": 7011,
      "Ġvist": 7012,
      "Ul": 7013,
      "Ġsata": 7014,
      "Ġutk": 7015,
      "ĠkonÃŃ": 7016,
      "ĠvIru": 7017,
      "Ġnejd": 7018,
      "skot": 7019,
      "ĠtRpit": 7020,
      "nÅ¯v": 7021,
      "ĠlIbA": 7022,
      "ĠfÅ¡e": 7023,
      "ĠvÅ¡eli": 7024,
      "chÃ¡zel": 7025,
      "ÅĻej": 7026,
      "bÄĽh": 7027,
      "Ġmrazi": 7028,
      "ĠvÄĽtry": 7029,
      "ĠvÄĽtrÅ¯": 7030,
      "Ġbas": 7031,
      "rAm": 7032,
      "ĠbÅ¯": 7033,
      "Ġuko": 7034,
      "Ġslasti": 7035,
      "jemi": 7036,
      "ĠÅ¡Å¥astnÃ½": 7037,
      "ĠzdravI": 7038,
      "dlÃ©": 7039,
      "Ġpoliti": 7040,
      "sala": 7041,
      "Ġsedm": 7042,
      "ĠklÃŃnÄĽ": 7043,
      "ĠsvImi": 7044,
      "ĠprÅ¯vod": 7045,
      "Ġdovo": 7046,
      "novu": 7047,
      "ĠslAvu": 7048,
      "Ġzne": 7049,
      "Ġpose": 7050,
      "ĠlÅ¾i": 7051,
      "ĠtrpÄĽ": 7052,
      "ĠhvÄĽzdÃ¡m": 7053,
      "Ġnajednou": 7054,
      "jila": 7055,
      "Ġopak": 7056,
      "ĠvrhÃ¡": 7057,
      "Ġjezer": 7058,
      "fou": 7059,
      "mbu": 7060,
      "ĠpRIm": 7061,
      "ĠpRISTI": 7062,
      "ĠdÄĽjin": 7063,
      "ĠkÅ¯m": 7064,
      "ĠbIl": 7065,
      "ĠpolÃŃbenÃŃ": 7066,
      "ĠvIx": 7067,
      "Ġvlta": 7068,
      "Ġvyk": 7069,
      "Ġodv": 7070,
      "ĠzlatÃ©m": 7071,
      "ĠobliÄįej": 7072,
      "rÃ½ch": 7073,
      "Ġposte": 7074,
      "ĠmraC": 7075,
      "kynÄĽ": 7076,
      "tÃ¡h": 7077,
      "ĠÄįÃŃst": 7078,
      "ĠodpoÄįi": 7079,
      "ĠpRAtel": 7080,
      "ĠprvnÃŃm": 7081,
      "Ġhroma": 7082,
      "ĠtU": 7083,
      "ĠzeleÅĪ": 7084,
      "ĠzDi": 7085,
      "Ġspit": 7086,
      "daje": 7087,
      "ĠnutÃŃ": 7088,
      "ĠodpovÄĽÄı": 7089,
      "ajÃŃ": 7090,
      "ĠrAje": 7091,
      "Ġrenal": 7092,
      "ĠsnÃŃt": 7093,
      "krA": 7094,
      "ĠzvÃ¡": 7095,
      "Ġpokud": 7096,
      "ĠpUlno": 7097,
      "ĠlÃ¡m": 7098,
      "ÅĻilo": 7099,
      "ĠpÄĽje": 7100,
      "Ġzbyl": 7101,
      "dÃ¡Å¡": 7102,
      "ĠryzÃŃ": 7103,
      "Ġoprav": 7104,
      "Ġproudu": 7105,
      "ĠpolÃŃch": 7106,
      "Ġnaposledy": 7107,
      "sech": 7108,
      "ĠSle": 7109,
      "ĠhnÄĽvem": 7110,
      "ĠdUvje": 7111,
      "nkÃ©": 7112,
      "jeli": 7113,
      "Ġvidi": 7114,
      "ĠrÅ¯Å¾": 7115,
      "ĠbjeZI": 7116,
      "ĠhleT": 7117,
      "Ġabys": 7118,
      "ĠrudE": 7119,
      "ĠhospodÃ¡": 7120,
      "ĠpÅĻemo": 7121,
      "Ġnevo": 7122,
      "ĠÅ¡leh": 7123,
      "veNI": 7124,
      "Ġrady": 7125,
      "Ġslzami": 7126,
      "Ġsit": 7127,
      "ĠsTe": 7128,
      "stvIm": 7129,
      "Ġskokem": 7130,
      "Ġana": 7131,
      "ĠhÅĻÃ¡": 7132,
      "Ġpovi": 7133,
      "ĠdneÅ¡nÃŃ": 7134,
      "ĠdruhE": 7135,
      "Ġklek": 7136,
      "ĠdvojÃŃ": 7137,
      "Ã¡t": 7138,
      "Ġflo": 7139,
      "Ġuhas": 7140,
      "Ġvoje": 7141,
      "ANI": 7142,
      "Ġstrast": 7143,
      "ĠtlaÄįÃŃ": 7144,
      "Ġvezme": 7145,
      "ĠvznÃŃ": 7146,
      "ĠnoCNI": 7147,
      "ĠpapÃŃ": 7148,
      "ĠnÃ¡mÄĽ": 7149,
      "Zili": 7150,
      "Ġrcete": 7151,
      "Ġlicho": 7152,
      "mila": 7153,
      "Ġroztr": 7154,
      "ĠzpÄĽvem": 7155,
      "ĠskÃ½ch": 7156,
      "Ġkudy": 7157,
      "ĠtrpÃŃ": 7158,
      "Ġjasem": 7159,
      "ĠbÃŃlÃ©m": 7160,
      "ĠtAhne": 7161,
      "Ġminulosti": 7162,
      "ĠnedÄĽ": 7163,
      "Ġmraki": 7164,
      "Äįeli": 7165,
      "ĠvelkA": 7166,
      "Ġsup": 7167,
      "Ġklasy": 7168,
      "Ġnebilo": 7169,
      "Ġkonci": 7170,
      "Ġrozlou": 7171,
      "tÃ¡ch": 7172,
      "Ġkroku": 7173,
      "ĠtichÃ½m": 7174,
      "Ġzl": 7175,
      "ĠzÃ¡me": 7176,
      "taly": 7177,
      "lki": 7178,
      "Ġvno": 7179,
      "Ġposl": 7180,
      "ĠmusÃŃÅ¡": 7181,
      "Å¾enou": 7182,
      "ĠkÅĻÃŃdlo": 7183,
      "Ġpanu": 7184,
      "Ġmrazem": 7185,
      "Ġbyto": 7186,
      "ĠsvÄĽtlu": 7187,
      "Ġhrdlo": 7188,
      "ĠvQxo": 7189,
      "zdÄĽ": 7190,
      "lenou": 7191,
      "Ġroku": 7192,
      "Ġkej": 7193,
      "Ġposk": 7194,
      "Ġmez": 7195,
      "Ġmnohou": 7196,
      "NenE": 7197,
      "blesk": 7198,
      "Ġroje": 7199,
      "lÃŃÅ¡": 7200,
      "ĠbIlIx": 7201,
      "Ġzva": 7202,
      "Ġstala": 7203,
      "Ġpolibek": 7204,
      "ĠdÃ©man": 7205,
      "ĠXXXAXA": 7206,
      "ĠzApa": 7207,
      "Ġsladko": 7208,
      "Ġlampa": 7209,
      "ĠskrAN": 7210,
      "ĠvzkÅĻÃŃ": 7211,
      "ĠmoÅĻÃŃ": 7212,
      "Ġhanu": 7213,
      "ĠzvlÃ¡Å¡t": 7214,
      "Ġsedla": 7215,
      "ĠÅ¡tÄĽd": 7216,
      "ĠkrvavÃ©": 7217,
      "ĠnejvÄĽtÅ¡ÃŃ": 7218,
      "Ġmohy": 7219,
      "ĠtkÃ¡": 7220,
      "ĠhlÃ©": 7221,
      "ĠtesknÄĽ": 7222,
      "Ġkober": 7223,
      "Ġxat": 7224,
      "ĠkrÃ¡snÃ½ch": 7225,
      "ĠReCI": 7226,
      "ĠcIsaR": 7227,
      "pne": 7228,
      "Ã¡Å¡": 7229,
      "ĠÄįÃŃÅ¡i": 7230,
      "ĠspÃ¡sy": 7231,
      "ĠtratÃŃ": 7232,
      "jali": 7233,
      "ĠmraÄįna": 7234,
      "Ġbudeme": 7235,
      "Ġstarci": 7236,
      "ĠjÃ¡sot": 7237,
      "ĠÄįiny": 7238,
      "Ġzakle": 7239,
      "Ġochra": 7240,
      "ĠtmÃŃ": 7241,
      "ĠjmÃ©na": 7242,
      "Ġter": 7243,
      "ĠskRI": 7244,
      "chala": 7245,
      "ĠstAla": 7246,
      "Ġprokop": 7247,
      "die": 7248,
      "Ġnebla": 7249,
      "Ġsestry": 7250,
      "ĠzvÃŃtÄĽ": 7251,
      "ĠzÃ¡mku": 7252,
      "bali": 7253,
      "Ġhrozi": 7254,
      "Ġcenu": 7255,
      "Ġdrux": 7256,
      "ĠNadra": 7257,
      "ĠXABAB": 7258,
      "ĠnenA": 7259,
      "ĠnevÃ½": 7260,
      "Ġplan": 7261,
      "Ġkine": 7262,
      "Ġbudoucnost": 7263,
      "ĠlÃŃst": 7264,
      "Ġvjek": 7265,
      "ĠmyÅ¡lenek": 7266,
      "ĠrozkoÅ¡ÃŃ": 7267,
      "ĠoltÃ¡ÅĻ": 7268,
      "ĠmalA": 7269,
      "ĠkÅĻesÅ¥a": 7270,
      "ĠzÃ¡zra": 7271,
      "ĠZiv": 7272,
      "Ġrosou": 7273,
      "Ġrval": 7274,
      "Ġklene": 7275,
      "pjet": 7276,
      "ĠspatÅĻil": 7277,
      "ĠhI": 7278,
      "Ġglo": 7279,
      "Ġrozva": 7280,
      "Ġtemna": 7281,
      "Å¾enÃ¡": 7282,
      "ĠpenÄĽ": 7283,
      "Ġhonem": 7284,
      "Ġlal": 7285,
      "ĠnechaÅ¥": 7286,
      "ĠzÃ¡ba": 7287,
      "ĠsmutnE": 7288,
      "ĠblÃ½skÃ¡": 7289,
      "nos": 7290,
      "cUm": 7291,
      "ĠRi": 7292,
      "lenE": 7293,
      "Ġskrov": 7294,
      "ĠsmÃ¡t": 7295,
      "Ġrot": 7296,
      "Ġmuce": 7297,
      "zdra": 7298,
      "ĠstÄĽn": 7299,
      "ĠtÃ³n": 7300,
      "Ġniv": 7301,
      "stoupil": 7302,
      "ĠnÄĽkolik": 7303,
      "ĠkrAsu": 7304,
      "Ġlad": 7305,
      "vena": 7306,
      "Ġstate": 7307,
      "ĠpohÃ¡d": 7308,
      "ĠtvrdÃ©": 7309,
      "ĠkterÃ©m": 7310,
      "ĠpÅĻÃŃzrak": 7311,
      "Ġheslo": 7312,
      "bky": 7313,
      "ĠfCera": 7314,
      "Ġskute": 7315,
      "Ġknih": 7316,
      "gan": 7317,
      "ĠmrAs": 7318,
      "ĠÃºdy": 7319,
      "ĠnnÃ¡": 7320,
      "Ġada": 7321,
      "ĠmÄĽlo": 7322,
      "Ġklidem": 7323,
      "ĠsleÄį": 7324,
      "ĠkÅĻesÅ¥an": 7325,
      "Ġzpup": 7326,
      "lice": 7327,
      "Ġlec": 7328,
      "ĠfSa": 7329,
      "Ġbytost": 7330,
      "Ġnemu": 7331,
      "Ġstrachem": 7332,
      "Ġmatkou": 7333,
      "ĠneboT": 7334,
      "venÃŃ": 7335,
      "Ġpjen": 7336,
      "Å¾te": 7337,
      "ĠokÃ©": 7338,
      "ĠzvlÃ¡Å¡Å¥": 7339,
      "tlo": 7340,
      "Ġiro": 7341,
      "Ġpravi": 7342,
      "ĠÅ¡era": 7343,
      "mysl": 7344,
      "ĠvÄĽtÅĻÃŃk": 7345,
      "ĠprostÃ½": 7346,
      "Ġnesk": 7347,
      "Ġvzty": 7348,
      "ĠbuDI": 7349,
      "Ġdechu": 7350,
      "ĠusmÄĽ": 7351,
      "ĠÃºsvit": 7352,
      "ĠzQcad": 7353,
      "ĠcIl": 7354,
      "Ġobloha": 7355,
      "Ġbyste": 7356,
      "ĠnÃ©st": 7357,
      "Ġprosil": 7358,
      "ĠNegdo": 7359,
      "RIx": 7360,
      "ĠrdÃŃ": 7361,
      "Ġduma": 7362,
      "ĠstraÅ¡li": 7363,
      "ĠpÄĽÅ¡i": 7364,
      "ĠspÄĽje": 7365,
      "ĠnÄĽl": 7366,
      "Ġ21": 7367,
      "ĠÅ¡en": 7368,
      "ĠjÃŃch": 7369,
      "Ġlidstvu": 7370,
      "nosT": 7371,
      "nouc": 7372,
      "ĠÅ¡aty": 7373,
      "Ġaneb": 7374,
      "ĠsmÄĽl": 7375,
      "Ġzvuku": 7376,
      "ĠkvÃ©st": 7377,
      "Ġplet": 7378,
      "Ġpropad": 7379,
      "kuje": 7380,
      "uji": 7381,
      "ĠzavÃŃ": 7382,
      "chovÃ©": 7383,
      "Ġvlnou": 7384,
      "ĠpANe": 7385,
      "ĠReki": 7386,
      "ĠkÅĻiÅ¡Å¥": 7387,
      "Ġtito": 7388,
      "ĠpoÅ¡": 7389,
      "Ġkoni": 7390,
      "ĠjejÃŃÅ¾": 7391,
      "ĠhnÃŃzda": 7392,
      "Å¾ko": 7393,
      "dÄĽte": 7394,
      "mNen": 7395,
      "ĠzbÄĽ": 7396,
      "rami": 7397,
      "Ġnasl": 7398,
      "Ġrux": 7399,
      "Ġruchu": 7400,
      "ĠnejvI": 7401,
      "ĠhlubokÃ©": 7402,
      "Ã½Å¡": 7403,
      "Ġobec": 7404,
      "ĠzÃ¡hu": 7405,
      "Ġkostela": 7406,
      "ĠjimiÅ¾": 7407,
      "Ġlide": 7408,
      "Ġvlaje": 7409,
      "ĠpRIS": 7410,
      "ĠkrutÃ½": 7411,
      "Ġcitem": 7412,
      "ĠÅ¾houcÃŃ": 7413,
      "Å¾uje": 7414,
      "Ġhoxu": 7415,
      "ĠÄįechÃ¡ch": 7416,
      "Cili": 7417,
      "mÃ¡n": 7418,
      "Ġmlh": 7419,
      "Å¡o": 7420,
      "ĠspÅĻÃ¡": 7421,
      "ĠzpÅ¯so": 7422,
      "ĠstrÃ¡ni": 7423,
      "mar": 7424,
      "vÃŃÅ¡": 7425,
      "ruje": 7426,
      "ĠstrojÃŃ": 7427,
      "Zila": 7428,
      "ĠhovoÅĻÃŃ": 7429,
      "Ġotpovje": 7430,
      "lenÃ½ch": 7431,
      "jela": 7432,
      "tkU": 7433,
      "Ġtiskne": 7434,
      "Ġtane": 7435,
      "ĠzÃ¡Å¡tÃŃ": 7436,
      "ĠzemI": 7437,
      "ĠskrÃ¡ni": 7438,
      "pjel": 7439,
      "Ġjezera": 7440,
      "ZIS": 7441,
      "Ġvedl": 7442,
      "vedu": 7443,
      "Ġkrbu": 7444,
      "ĠsvÄĽtle": 7445,
      "Ġknihu": 7446,
      "ĠvITez": 7447,
      "mor": 7448,
      "ĠboÅ¾skÃ©": 7449,
      "mnÄĽl": 7450,
      "Ġrozhod": 7451,
      "ĠpÅĻiÅ¡lo": 7452,
      "ĠkaÅ¾dÃ©ho": 7453,
      "ĠvyÅ¡Å¡ÃŃ": 7454,
      "Ġproni": 7455,
      "ĠvracI": 7456,
      "ĠsladkÃ½m": 7457,
      "Ġnepokoj": 7458,
      "ĠvstaÅĪ": 7459,
      "Ġranou": 7460,
      "Äįilo": 7461,
      "cena": 7462,
      "Ġstesku": 7463,
      "ĠdAlku": 7464,
      "nkÃ¡ch": 7465,
      "ĠvIra": 7466,
      "Ġmrav": 7467,
      "ĠdivnÃ¡": 7468,
      "ĠsÃ¡h": 7469,
      "ĠhÅ¯l": 7470,
      "ĠaniÅ¾": 7471,
      "ĠveÅ¡el": 7472,
      "Ġondy": 7473,
      "ĠzmizÃŃ": 7474,
      "Ġpovy": 7475,
      "Ġsluha": 7476,
      "ĠplatÃŃ": 7477,
      "Ġmilos": 7478,
      "Ġdlel": 7479,
      "ĠzDe": 7480,
      "Ġhladu": 7481,
      "ĠlÃ¡kÃ¡": 7482,
      "Ġresi": 7483,
      "ĠpRIs": 7484,
      "hr": 7485,
      "ĠudÄĽ": 7486,
      "Ġslito": 7487,
      "ĠstAli": 7488,
      "ĠkvjeTi": 7489,
      "Ġpravou": 7490,
      "Ġcizo": 7491,
      "ĠzÅĻÃŃti": 7492,
      "ĠtÅĻikrÃ¡t": 7493,
      "ĠCaro": 7494,
      "ĠbÄĽla": 7495,
      "Ġsoudu": 7496,
      "Ġabix": 7497,
      "ĠvUli": 7498,
      "Ġnebudu": 7499,
      "fil": 7500,
      "Ġvym": 7501,
      "Ġlahod": 7502,
      "ĠÅ¡ÃŃÅĻÃŃ": 7503,
      "Ġkdosi": 7504,
      "Ġopil": 7505,
      "ĠzbÃ½vÃ¡": 7506,
      "ĠbledA": 7507,
      "ĠRISe": 7508,
      "Ġsnou": 7509,
      "ĠkrokÅ¯": 7510,
      "bitÃŃ": 7511,
      "ĠnemÅ¯Å¾": 7512,
      "Ġsky": 7513,
      "ĠzNel": 7514,
      "Ġotu": 7515,
      "kolem": 7516,
      "ĠCeskI": 7517,
      "ĠNejak": 7518,
      "Ġuvad": 7519,
      "jIce": 7520,
      "ĠzAvi": 7521,
      "cNe": 7522,
      "Ġkrov": 7523,
      "Ġjil": 7524,
      "Ġkovo": 7525,
      "ĠnepÅĻÃŃtel": 7526,
      "Ġbet": 7527,
      "ĠdÃŃla": 7528,
      "DiS": 7529,
      "Ġodda": 7530,
      "ĠmQtvI": 7531,
      "klI": 7532,
      "ABXB": 7533,
      "ĠsmÄĽsi": 7534,
      "Ġroucho": 7535,
      "lenI": 7536,
      "Ġtlou": 7537,
      "ĠCti": 7538,
      "ĠnAdher": 7539,
      "ĠnnÄĽ": 7540,
      "Ġuc": 7541,
      "Ġkriti": 7542,
      "Ġsadu": 7543,
      "Ġbah": 7544,
      "ĠnadÄĽji": 7545,
      "Ġel": 7546,
      "ĠproudÃŃ": 7547,
      "nen": 7548,
      "ĠsmIxu": 7549,
      "ĠÄįarodÄĽj": 7550,
      "ĠfsplA": 7551,
      "ĠuÄįÃŃ": 7552,
      "Ġskri": 7553,
      "ĠsahÃ¡": 7554,
      "ĠnebesÅ¯m": 7555,
      "tkÅ¯": 7556,
      "ĠklÃ¡Å¡": 7557,
      "Ġhni": 7558,
      "Ġoby": 7559,
      "DeNI": 7560,
      "ĠvIr": 7561,
      "Ġzvoni": 7562,
      "ĠkÃ¡zal": 7563,
      "Ġpjet": 7564,
      "livÃ¡": 7565,
      "vostÃŃ": 7566,
      "ĠpÅĻÃŃtom": 7567,
      "ĠjunÃ¡": 7568,
      "ĠpÄĽknÃ©": 7569,
      "ĠhlÃ¡sÃ¡": 7570,
      "ĠmislIm": 7571,
      "Ġvrh": 7572,
      "Ġzkr": 7573,
      "vÅ¡i": 7574,
      "ĠmodrÃ½ch": 7575,
      "Ġroman": 7576,
      "ĠsliSet": 7577,
      "ĠlepSI": 7578,
      "Ġlevo": 7579,
      "Ġvir": 7580,
      "Ġdarem": 7581,
      "ĠbohatI": 7582,
      "ĠkÅĻÃŃÅ¾em": 7583,
      "ĠotCe": 7584,
      "ĠneznAm": 7585,
      "ĠCet": 7586,
      "ĠnÃ¡roda": 7587,
      "tef": 7588,
      "Ġrovi": 7589,
      "Ġnezna": 7590,
      "vImi": 7591,
      "Ġfar": 7592,
      "ĠvoNI": 7593,
      "Ġpohla": 7594,
      "SenE": 7595,
      "ĠslyÅ¡te": 7596,
      "ĠxrAmu": 7597,
      "niti": 7598,
      "dÄĽly": 7599,
      "bÅ¯h": 7600,
      "qu": 7601,
      "chne": 7602,
      "ĠkovÃ¡": 7603,
      "bytÃŃ": 7604,
      "ĠÃºc": 7605,
      "ĠbÃŃlÃ½m": 7606,
      "Ġslze": 7607,
      "Ġpruh": 7608,
      "Ġzastavil": 7609,
      "Ġneskonal": 7610,
      "Zem": 7611,
      "ZnA": 7612,
      "Ġhlubiny": 7613,
      "Ġpohledu": 7614,
      "Ġrozumu": 7615,
      "Ġplam": 7616,
      "ĠpohÅĻe": 7617,
      "Ġbudoucnosti": 7618,
      "rci": 7619,
      "vNe": 7620,
      "Ġsul": 7621,
      "Ġdary": 7622,
      "Ġfau": 7623,
      "RU": 7624,
      "ĠSA": 7625,
      "ĠTele": 7626,
      "ĠdrtÃŃ": 7627,
      "ĠznÄĽlo": 7628,
      "Ġrmut": 7629,
      "ĠklÃ¡Å¡ter": 7630,
      "ĠletÄĽl": 7631,
      "ĠstaÅĻÃŃ": 7632,
      "ĠotA": 7633,
      "xot": 7634,
      "ckIx": 7635,
      "ĠpÅĻÃ¡telÃ©": 7636,
      "Ġkvap": 7637,
      "ĠXABABX": 7638,
      "Å¡kou": 7639,
      "ĠnecÃŃ": 7640,
      "Ġpoda": 7641,
      "Ġpovr": 7642,
      "ĠveÄįernÃŃ": 7643,
      "Ġzdroje": 7644,
      "lova": 7645,
      "ĠronÃŃ": 7646,
      "ĠslatkA": 7647,
      "ĠpyÅ¡nÄĽ": 7648,
      "ĠzÃ¡vra": 7649,
      "ĠpÃŃlÃŃ": 7650,
      "chodu": 7651,
      "ĠblahÃ©": 7652,
      "ĠbolesTi": 7653,
      "ĠpÅĻijdou": 7654,
      "ĠvzI": 7655,
      "haly": 7656,
      "ĠostatnÃŃ": 7657,
      "ĠlÃŃm": 7658,
      "ĠzÃ¡pal": 7659,
      "Ġhudby": 7660,
      "don": 7661,
      "Å¡ÃŃÅ¡": 7662,
      "Ġneznal": 7663,
      "ĠhroznÃ¡": 7664,
      "ĠhrdÃ½": 7665,
      "ĠspAtki": 7666,
      "ĠzaplÃ¡": 7667,
      "Ġfsta": 7668,
      "domI": 7669,
      "znÃ¡": 7670,
      "Ġnnou": 7671,
      "Ġlip": 7672,
      "Ġsply": 7673,
      "ĠbÄĽl": 7674,
      "ĠtÄĽÅ¾kÃ½ch": 7675,
      "ĠstrÃ¡nÃŃ": 7676,
      "Ġmih": 7677,
      "ĠÅ¡ÃŃlen": 7678,
      "ĠplÃ¡ni": 7679,
      "ĠClovjeka": 7680,
      "Å¡til": 7681,
      "ĠlesÃŃch": 7682,
      "Ġprokla": 7683,
      "polu": 7684,
      "ĠnÄĽhy": 7685,
      "ĠtÄĽs": 7686,
      "ĠÄįeskÃ½ch": 7687,
      "ĠÅ¾ili": 7688,
      "ĠzlatIx": 7689,
      "Ġdojde": 7690,
      "ĠdAlce": 7691,
      "ĠodpoÄįÃŃ": 7692,
      "Zas": 7693,
      "tul": 7694,
      "Ġjasnou": 7695,
      "ĠupÃŃ": 7696,
      "ĠpevNe": 7697,
      "ĠkÅĻeh": 7698,
      "jIx": 7699,
      "Ġbem": 7700,
      "Ġton": 7701,
      "Ġske": 7702,
      "rodru": 7703,
      "Ġplamenem": 7704,
      "Ġvskutku": 7705,
      "ĠpoTe": 7706,
      "ĠÄįit": 7707,
      "Ġvije": 7708,
      "ĠtvEm": 7709,
      "ĠÅ¾alem": 7710,
      "ĠÅ¾alost": 7711,
      "Ġpodu": 7712,
      "Ġprovo": 7713,
      "ĠvonnÃ©": 7714,
      "ĠuÄįen": 7715,
      "ĠkypÃŃ": 7716,
      "Ġstop": 7717,
      "Ġdruhou": 7718,
      "ĠZif": 7719,
      "ÄįkÃ©": 7720,
      "ĠvÅ¡ed": 7721,
      "ĠpuÄįÃŃ": 7722,
      "Ġleskne": 7723,
      "ĠmLha": 7724,
      "ĠhbitÄĽ": 7725,
      "dIx": 7726,
      "vÄĽti": 7727,
      "meÅĪ": 7728,
      "ĠÃºna": 7729,
      "ĠvUNI": 7730,
      "Ġzamra": 7731,
      "Ġzabo": 7732,
      "Ġdoho": 7733,
      "Ġdobrodru": 7734,
      "xAze": 7735,
      "ĠblIZI": 7736,
      "fÃ¡nÃŃ": 7737,
      "Ġvinou": 7738,
      "vÃ©tÃ¡": 7739,
      "ĠlIto": 7740,
      "ĠmlÃ¡de": 7741,
      "ĠbrÃ¡t": 7742,
      "vAS": 7743,
      "Ġhudbou": 7744,
      "Ġmozek": 7745,
      "ĠzÃ¡pla": 7746,
      "ĠÅ¡irÃ©": 7747,
      "hradu": 7748,
      "ĠkrÃ¡lovstvÃŃ": 7749,
      "ĠrtU": 7750,
      "ĠCasi": 7751,
      "Ġpaprsky": 7752,
      "Å¾stvÃŃ": 7753,
      "Ġjesen": 7754,
      "Ġhavra": 7755,
      "ĠpapQsk": 7756,
      "eno": 7757,
      "Ġlety": 7758,
      "ĠlÃ©to": 7759,
      "lily": 7760,
      "ĠodÅĻÃŃ": 7761,
      "ĠÅ¡Å¥astnÄĽ": 7762,
      "Ġzahrady": 7763,
      "ĠsklANI": 7764,
      "Ġnepohnu": 7765,
      "ĠozÃ¡": 7766,
      "ĠvzpomÃŃnky": 7767,
      "Ġnehle": 7768,
      "ĠpÅĻis": 7769,
      "ĠDivI": 7770,
      "Ġsprost": 7771,
      "ĠnÄĽhoÅ¾": 7772,
      "Ġkouzla": 7773,
      "Ġtle": 7774,
      "ĠutQ": 7775,
      "Ġnivy": 7776,
      "ĠzlatÄĽ": 7777,
      "Ġzraje": 7778,
      "Ġdcery": 7779,
      "Äįat": 7780,
      "Ġmohou": 7781,
      "ĠTisk": 7782,
      "Ġsvaty": 7783,
      "ĠsÃŃtÄĽ": 7784,
      "Ġkroki": 7785,
      "Ġkriste": 7786,
      "Å¾u": 7787,
      "Ġdych": 7788,
      "ĠvzÃŃt": 7789,
      "rit": 7790,
      "Ġvedli": 7791,
      "ĠzachvÄĽl": 7792,
      "ĠjeÅ¾ÃŃ": 7793,
      "ĠdÃ¡lnÃ©": 7794,
      "Ġbleski": 7795,
      "ĠvolnÃ½": 7796,
      "zÅ¯": 7797,
      "Ġxlat": 7798,
      "ĠÅ¾lutÃ©": 7799,
      "ptal": 7800,
      "rÅ¯m": 7801,
      "ĠvÄĽÅ¡t": 7802,
      "ĠkrvÃ¡": 7803,
      "vnÃŃk": 7804,
      "ĠtoCI": 7805,
      "Ġpropu": 7806,
      "Ġvraha": 7807,
      "ĠslÃ¡vou": 7808,
      "par": 7809,
      "tci": 7810,
      "Ġsinu": 7811,
      "ĠvÃŃnem": 7812,
      "ĠkrÃ¡tce": 7813,
      "ĠvÄĽÅĻit": 7814,
      "ĠspÃŃÅ¡e": 7815,
      "ĠkvÃŃtek": 7816,
      "ĠkrouÅ¾ÃŃ": 7817,
      "rnÃ©m": 7818,
      "ĠÅ¾ele": 7819,
      "ĠodvÄĽ": 7820,
      "Ġluhu": 7821,
      "ĠkalÃŃ": 7822,
      "Ġrakev": 7823,
      "Ġmami": 7824,
      "ĠneustÃ¡": 7825,
      "Ġkdybys": 7826,
      "ĠvÅ¡ecku": 7827,
      "dily": 7828,
      "Ġbledne": 7829,
      "Ġpopr": 7830,
      "ĠcesTe": 7831,
      "ĠmÄĽstem": 7832,
      "ĠznÄĽla": 7833,
      "Ġjala": 7834,
      "ĠmdlÃ©": 7835,
      "ĠfSemu": 7836,
      "Ġsyny": 7837,
      "ÅĻuje": 7838,
      "ĠCt": 7839,
      "ĠopÃ¡": 7840,
      "ĠCin": 7841,
      "ctvI": 7842,
      "ĠnavZdi": 7843,
      "ĠcizÃŃm": 7844,
      "ĠxlE": 7845,
      "ĠpLno": 7846,
      "Ġptact": 7847,
      "Ġlije": 7848,
      "Ime": 7849,
      "ĠrUZi": 7850,
      "chÃ¡m": 7851,
      "Ġpojednou": 7852,
      "ĠzÃ¡vÄĽ": 7853,
      "ĠsxI": 7854,
      "Ġplody": 7855,
      "ĠtakÃ½": 7856,
      "Ġmudr": 7857,
      "ĠzoÅĻe": 7858,
      "Ġmrakem": 7859,
      "ĠfA": 7860,
      "skÃ©mu": 7861,
      "rovnÃ¡": 7862,
      "Ġjedu": 7863,
      "Ġjina": 7864,
      "doval": 7865,
      "Ġpodal": 7866,
      "ĠsvÄĽtlÃ½": 7867,
      "ĠkÅĻÃŃdly": 7868,
      "Ġzvedne": 7869,
      "Ġskrz": 7870,
      "ĠhvÃŃ": 7871,
      "Ġklesl": 7872,
      "ĠSeDi": 7873,
      "ĠmLhi": 7874,
      "ĠzazpÃŃ": 7875,
      "ĠpÅĻedc": 7876,
      "ĠpRiSli": 7877,
      "ĠzalÃ©": 7878,
      "ĠjinIx": 7879,
      "Ġsoudru": 7880,
      "skat": 7881,
      "ĠnÃ¡ÅĻek": 7882,
      "ĠUdo": 7883,
      "Ġzbit": 7884,
      "mp": 7885,
      "Ġdomy": 7886,
      "ĠplÃ¡la": 7887,
      "ĠpaÅĻÃŃ": 7888,
      "ÅĪÃ¡": 7889,
      "ĠpÅĻichÃ¡zÃŃ": 7890,
      "Ġreka": 7891,
      "ĠzvedA": 7892,
      "cnost": 7893,
      "ĠsnovÃ©": 7894,
      "Ġsig": 7895,
      "ĠosvÄĽ": 7896,
      "Ġdvoj": 7897,
      "kmu": 7898,
      "Ġrosu": 7899,
      "Ġrozs": 7900,
      "ĠostrÃ½": 7901,
      "Ġnapro": 7902,
      "ĠmQtvE": 7903,
      "jan": 7904,
      "Ġneur": 7905,
      "Ġjedinou": 7906,
      "Ġholubice": 7907,
      "nov": 7908,
      "nus": 7909,
      "Ġpravila": 7910,
      "ĠstÃ¡ly": 7911,
      "Ġzimy": 7912,
      "ĠchrÃ¡nÃŃ": 7913,
      "Ġrakvi": 7914,
      "ĠrÃ¡ko": 7915,
      "Ġslet": 7916,
      "ĠstavI": 7917,
      "ĠzAstup": 7918,
      "Ġklesne": 7919,
      "ĠznÄĽly": 7920,
      "Ġrosi": 7921,
      "vÄĽla": 7922,
      "zila": 7923,
      "Ġzikmu": 7924,
      "Ġnastal": 7925,
      "ĠÅ¡pa": 7926,
      "Ġpoupat": 7927,
      "ĠbIvA": 7928,
      "Ġdlani": 7929,
      "ĠnevÃŃÅ¡": 7930,
      "Ġudat": 7931,
      "Ġvlak": 7932,
      "Ġokny": 7933,
      "ĠpAna": 7934,
      "ĠstrÃ¡nÄĽ": 7935,
      "ĠdÄĽtstvÃŃ": 7936,
      "Ġjakobi": 7937,
      "ĠlIci": 7938,
      "ĠCernA": 7939,
      "ĠbÅĻehy": 7940,
      "Ġpostavy": 7941,
      "Ġsrde": 7942,
      "menÄĽ": 7943,
      "Ġpadlo": 7944,
      "ĠslednÃŃ": 7945,
      "ĠUsmNevem": 7946,
      "ĠnevÃ½slov": 7947,
      "Ġholou": 7948,
      "Ġsklen": 7949,
      "ÄįÃŃch": 7950,
      "ÅĻenou": 7951,
      "ĠvzplÃ¡l": 7952,
      "ĠTixA": 7953,
      "Ġpivo": 7954,
      "rmu": 7955,
      "ĠstranÄĽ": 7956,
      "ĠohNem": 7957,
      "nkÃ¡": 7958,
      "Ġumu": 7959,
      "tÄĽjÅ¡ÃŃ": 7960,
      "Ġkara": 7961,
      "ĠvodnÃŃ": 7962,
      "ĠpodA": 7963,
      "ĠotrÃ¡": 7964,
      "ĠtvojI": 7965,
      "Ġsmutnou": 7966,
      "ĠspIS": 7967,
      "ZenE": 7968,
      "ĠzdrÃ¡va": 7969,
      "ĠpoÅĻÃ¡d": 7970,
      "Ġhli": 7971,
      "ĠzvukÅ¯": 7972,
      "Ġpravdou": 7973,
      "ĠpodÄĽ": 7974,
      "ĠkolÃŃ": 7975,
      "talo": 7976,
      "ĠmIsta": 7977,
      "ĠklesA": 7978,
      "Ġzhu": 7979,
      "Ġhlat": 7980,
      "ĠhÅĻÃŃÅ¡": 7981,
      "Ġmak": 7982,
      "Ġdokut": 7983,
      "ÅĪal": 7984,
      "ĠnenadÃ¡": 7985,
      "ĠlaÅĪ": 7986,
      "Ġkostel": 7987,
      "ĠhvÄĽzdami": 7988,
      "Ġrtex": 7989,
      "ĠlÃŃtÃ¡": 7990,
      "ĠtouÅ¾il": 7991,
      "ĠtemnÃ½ch": 7992,
      "ĠhÅĻÃŃchy": 7993,
      "Äįily": 7994,
      "Ġsestro": 7995,
      "ĠumIrA": 7996,
      "vÃ¡me": 7997,
      "ĠvyÅ¡e": 7998,
      "Ġsoused": 7999,
      "osTi": 8000,
      "Ġpox": 8001,
      "Ġfste": 8002,
      "Ġtohle": 8003,
      "ĠbÃŃdnÃ½": 8004,
      "ĠslÃ½ch": 8005,
      "ĠCernIx": 8006,
      "vami": 8007,
      "ĠzmÃ¡m": 8008,
      "ĠpoÅ¾e": 8009,
      "lÃŃch": 8010,
      "Ġsklonil": 8011,
      "ĠTeSkI": 8012,
      "rÃ¡Å¾ÃŃ": 8013,
      "ĠhosTi": 8014,
      "Ġkapit": 8015,
      "ĠzimÄĽ": 8016,
      "ĠÅĻadu": 8017,
      "Ġlexce": 8018,
      "ĠrtÅ¯m": 8019,
      "Ġzava": 8020,
      "Ġvypla": 8021,
      "Ġxcem": 8022,
      "Ġrada": 8023,
      "ĠmaÄı": 8024,
      "Ġlidskou": 8025,
      "ĠÅ¡ÃŃje": 8026,
      "gli": 8027,
      "ĠÅ¾eÅĪ": 8028,
      "Ġprst": 8029,
      "ĠÅ¾ivobytÃŃ": 8030,
      "Ġresigna": 8031,
      "Ġbly": 8032,
      "ĠoÄįka": 8033,
      "zenÃ©": 8034,
      "ĠnenAvi": 8035,
      "Ġlupen": 8036,
      "ĠmyÅ¡lenka": 8037,
      "rn": 8038,
      "Ġrolan": 8039,
      "Ġrozbit": 8040,
      "ĠbledE": 8041,
      "ĠprospÄĽ": 8042,
      "ĠtRese": 8043,
      "ĠuvÄĽ": 8044,
      "ĠdivÃ©m": 8045,
      "Ġzvukem": 8046,
      "Ġnebyla": 8047,
      "ĠvrATI": 8048,
      "ĠXABBA": 8049,
      "ĠtajnÃ©": 8050,
      "ÅĻeli": 8051,
      "ĠÄįen": 8052,
      "Ġstanu": 8053,
      "Ġkleno": 8054,
      "ĠchvÄĽnÃŃ": 8055,
      "ĠmlÃ½n": 8056,
      "ĠDefCe": 8057,
      "ĠstE": 8058,
      "Ġlup": 8059,
      "Ġrety": 8060,
      "ĠskÃ¡Äįe": 8061,
      "Ġnapl": 8062,
      "clo": 8063,
      "Ġvzma": 8064,
      "Äįinu": 8065,
      "natÃ©": 8066,
      "vejte": 8067,
      "Ġnaposlet": 8068,
      "Ak": 8069,
      "zdi": 8070,
      "rÃ¡nÃŃ": 8071,
      "vujÃŃ": 8072,
      "ckÃ©m": 8073,
      "ĠpestrÃ©": 8074,
      "Ġrtoma": 8075,
      "Ġhvi": 8076,
      "ily": 8077,
      "Ġslux": 8078,
      "Ġref": 8079,
      "ĠmraÄįen": 8080,
      "ĠzahradÄĽ": 8081,
      "Ġvadne": 8082,
      "Ġzdu": 8083,
      "ĠzAm": 8084,
      "ĠdÃŃvku": 8085,
      "Ġdrs": 8086,
      "ĠpilnÄĽ": 8087,
      "Ġvte": 8088,
      "ĠZalo": 8089,
      "ĠÅ¾ivÃ¡": 8090,
      "ĠutrpenÃŃ": 8091,
      "ĠÅ¡lechet": 8092,
      "ĠumÄĽl": 8093,
      "Ġvzhled": 8094,
      "Ġstrani": 8095,
      "Ġbohi": 8096,
      "ĠprosIm": 8097,
      "ĠsnivÃ©": 8098,
      "CkA": 8099,
      "Ġocho": 8100,
      "dovi": 8101,
      "ĠpÅĻej": 8102,
      "Äįeji": 8103,
      "ĠloZe": 8104,
      "ĠvÃ½Äįit": 8105,
      "ĠnatSeNI": 8106,
      "Ġrozep": 8107,
      "ĠkÅ¡ti": 8108,
      "stroj": 8109,
      "Sk": 8110,
      "ĠÅ¾ila": 8111,
      "ĠlkA": 8112,
      "Ġjun": 8113,
      "Ġvnuk": 8114,
      "nÃ¡ÅĻ": 8115,
      "Ġprsten": 8116,
      "ĠZene": 8117,
      "ĠdÅ¯stoj": 8118,
      "Ġmoder": 8119,
      "ĠhQDi": 8120,
      "Ġskryl": 8121,
      "Ġukrut": 8122,
      "ĠlhÃ¡": 8123,
      "ĠrAnu": 8124,
      "ĠsklÃŃ": 8125,
      "ĠpRedu": 8126,
      "ĠdobrA": 8127,
      "ĠhuCI": 8128,
      "eru": 8129,
      "pak": 8130,
      "nesla": 8131,
      "Ġduje": 8132,
      "ĠdÄĽsÃŃ": 8133,
      "ĠubohÃ©": 8134,
      "Ġjek": 8135,
      "desÃ¡": 8136,
      "ĠtuÅ¡ÃŃm": 8137,
      "tÃŃÅ¡": 8138,
      "ĠhrobÅ¯": 8139,
      "ĠzdvihÃ¡": 8140,
      "ĠkmitÃ¡": 8141,
      "ĠÅ¡o": 8142,
      "mÄĽla": 8143,
      "Ġit": 8144,
      "Ġzbi": 8145,
      "ĠÅ¾er": 8146,
      "ĠjasnI": 8147,
      "Ġhel": 8148,
      "Ġpomsty": 8149,
      "Ġsvojich": 8150,
      "ĠfarÃ¡": 8151,
      "ĠvÃ½chodu": 8152,
      "star": 8153,
      "Ġtone": 8154,
      "ledne": 8155,
      "ĠCerven": 8156,
      "Ġzaklet": 8157,
      "zlem": 8158,
      "ĠsÃŃc": 8159,
      "Ġgdesi": 8160,
      "zali": 8161,
      "ĠhRmI": 8162,
      "ĠholÃ©": 8163,
      "Ġdexem": 8164,
      "ĠchvÃ¡tÃ¡": 8165,
      "Nte": 8166,
      "ĠvnÄĽm": 8167,
      "ĠpoCI": 8168,
      "Ġsmutkem": 8169,
      "ĠstkvÃŃ": 8170,
      "ĠkoRi": 8171,
      "ĠzÃ¡ho": 8172,
      "ceni": 8173,
      "ĠpÅ¯dy": 8174,
      "Ġjih": 8175,
      "ĠkoÄįÃ¡": 8176,
      "Ġplny": 8177,
      "Ġslunka": 8178,
      "Ġchaty": 8179,
      "rovi": 8180,
      "vÄĽjÅ¡ÃŃ": 8181,
      "ĠoblÃ¡": 8182,
      "Ġlada": 8183,
      "ĠpÅĻÃŃsnÄĽ": 8184,
      "ĠsnÄĽhem": 8185,
      "ĠjitÅĻ": 8186,
      "lÃ¡m": 8187,
      "Ġtly": 8188,
      "rATI": 8189,
      "Ġkyti": 8190,
      "ĠpÅĻÃŃk": 8191,
      "ĠdRe": 8192,
      "Ġah": 8193,
      "celi": 8194,
      "Ġzatra": 8195,
      "ĠotvÃŃ": 8196,
      "ĠoÄį": 8197,
      "Ġneum": 8198,
      "ĠnovA": 8199,
      "Ġpav": 8200,
      "ĠstÃ¡lo": 8201,
      "ĠTixu": 8202,
      "ĠpustÃ½": 8203,
      "ĠvASNI": 8204,
      "Ġrozle": 8205,
      "ĠzÃ¡stu": 8206,
      "vnÃ©": 8207,
      "stÃ¡nÃŃ": 8208,
      "Ġotrok": 8209,
      "vka": 8210,
      "ĠschÃ¡zÃŃ": 8211,
      "Ġponu": 8212,
      "ĠZivI": 8213,
      "ĠÅ¡ele": 8214,
      "Ġdalo": 8215,
      "Ġpluk": 8216,
      "Ġzkad": 8217,
      "prch": 8218,
      "Ġbarbar": 8219,
      "Ġblankytu": 8220,
      "Ġprcha": 8221,
      "ĠzÃ¡Å¡Å¥": 8222,
      "nASe": 8223,
      "ĠpÃ¡dÃŃ": 8224,
      "lEt": 8225,
      "Ġodve": 8226,
      "ĠskÅĻivan": 8227,
      "Zn": 8228,
      "pU": 8229,
      "ĠssÃ¡": 8230,
      "ÅĻÃŃch": 8231,
      "ĠkoRen": 8232,
      "byl": 8233,
      "ĠmocnÃ©": 8234,
      "ĠznÃ¡mÃ©": 8235,
      "ĠmAte": 8236,
      "cenÃ¡": 8237,
      "Ġkvjetem": 8238,
      "Ġzmije": 8239,
      "ĠuÅ¡i": 8240,
      "ĠrozlÃŃ": 8241,
      "ĠobjÃŃm": 8242,
      "ĠpÃŃti": 8243,
      "Ġtemnu": 8244,
      "ĠsmutnI": 8245,
      "ĠmlÄįenÃŃ": 8246,
      "Ġoblaky": 8247,
      "Äįan": 8248,
      "ĠpRItel": 8249,
      "ĠpISe": 8250,
      "ĠstudÃ¡": 8251,
      "ĠlistÅ¯": 8252,
      "ĠmQtvIx": 8253,
      "ĠÃºro": 8254,
      "ĠvlastnÄĽ": 8255,
      "ĠdÃ©le": 8256,
      "pt": 8257,
      "Ġkmo": 8258,
      "ĠutÄĽ": 8259,
      "Ġrozd": 8260,
      "ĠnArod": 8261,
      "ĠnÃ¡bo": 8262,
      "ĠÅĻÃŃc": 8263,
      "cos": 8264,
      "ĠhouÅ¡tÃŃ": 8265,
      "ĠmÅĻÃŃt": 8266,
      "ĠDIlo": 8267,
      "ĠranNI": 8268,
      "Å¾nÃ¡": 8269,
      "ĠhoÅ¡i": 8270,
      "ĠprÃ¡zdnÃ©": 8271,
      "slI": 8272,
      "Ġnehy": 8273,
      "ĠviDet": 8274,
      "ĠsadÄĽ": 8275,
      "ĠvlastnÃŃm": 8276,
      "ĠmÃ¡jo": 8277,
      "ĠknÄĽÅ¾ÃŃ": 8278,
      "ĠÅ¡epce": 8279,
      "ĠzoufalstvÃŃ": 8280,
      "Ġtanec": 8281,
      "Ġvzdal": 8282,
      "ĠbÄĽlo": 8283,
      "nÄĽjÅ¡ÃŃch": 8284,
      "ĠTeSce": 8285,
      "zdÃ¡": 8286,
      "ĠnepRe": 8287,
      "Ġsmysly": 8288,
      "Ġhly": 8289,
      "Ġuho": 8290,
      "Ġmoj": 8291,
      "lÃŃcÃŃ": 8292,
      "Ġohla": 8293,
      "ĠohNe": 8294,
      "ĠptÃ¡ka": 8295,
      "Ġkalu": 8296,
      "gen": 8297,
      "Ġvipra": 8298,
      "ĠmÄĽstu": 8299,
      "ĠotcU": 8300,
      "cenE": 8301,
      "ĠplnÃ½m": 8302,
      "Ġzmatek": 8303,
      "ĠCistE": 8304,
      "ZNI": 8305,
      "leno": 8306,
      "Ġtrudu": 8307,
      "ĠnapÅĻed": 8308,
      "ĠoltÃ¡ÅĻi": 8309,
      "ĠpsA": 8310,
      "Ġprose": 8311,
      "Ġsplet": 8312,
      "Ġosudem": 8313,
      "Ġvzadu": 8314,
      "ĠÃºkol": 8315,
      "ret": 8316,
      "nÄĽly": 8317,
      "ĠkamenÃŃ": 8318,
      "Ġdokola": 8319,
      "SenI": 8320,
      "ĠtakovÃ©": 8321,
      "ĠvitQ": 8322,
      "komu": 8323,
      "ĠrtÃŃ": 8324,
      "ĠvysokÃ©": 8325,
      "Ġmladist": 8326,
      "lis": 8327,
      "ĠstÃŃhÃ¡": 8328,
      "ĠstarÃ©m": 8329,
      "Ġpous": 8330,
      "ĠÅ¡lehÃ¡": 8331,
      "chat": 8332,
      "ĠvÄĽÄįnÃ½ch": 8333,
      "ĠvLx": 8334,
      "ĠnÅ¯Å¾": 8335,
      "ĠhÅĻÃŃchÅ¯": 8336,
      "ĠonÄĽch": 8337,
      "Ġtuh": 8338,
      "ĠZalu": 8339,
      "ĠmilÃŃ": 8340,
      "RAt": 8341,
      "ĠhlubokÃ½": 8342,
      "deÅĪ": 8343,
      "ĠteÄįe": 8344,
      "Ġluhy": 8345,
      "ĠSir": 8346,
      "ĠpÅ¯lnoc": 8347,
      "Ġfant": 8348,
      "Ġleje": 8349,
      "nÃ©sti": 8350,
      "ĠÅ¡edÃ¡": 8351,
      "ĠskÃ¡lu": 8352,
      "ĠNigde": 8353,
      "livje": 8354,
      "Ġvych": 8355,
      "ceNI": 8356,
      "Ġdojat": 8357,
      "dÃŃl": 8358,
      "ĠlÃ©ka": 8359,
      "Ġpluh": 8360,
      "ĠkResT": 8361,
      "ĠhedvÃ¡": 8362,
      "ĠvavÅĻÃŃ": 8363,
      "fci": 8364,
      "Ġneda": 8365,
      "ĠZeh": 8366,
      "Ġsvoboda": 8367,
      "ĠvichÅĻice": 8368,
      "Ġneto": 8369,
      "Ġfsi": 8370,
      "ĠvidÄĽla": 8371,
      "ĠvesmÃŃr": 8372,
      "ĠdÄĽsnÃ½": 8373,
      "Ġnesa": 8374,
      "Ġvid": 8375,
      "Ġlom": 8376,
      "ĠlIp": 8377,
      "ĠopuSTen": 8378,
      "ato": 8379,
      "stila": 8380,
      "ĠzÃ¡dum": 8381,
      "ÄįekÃ¡": 8382,
      "ĠmyÅ¡lÃ©nka": 8383,
      "Ġnejsme": 8384,
      "ĠzimnÃŃ": 8385,
      "Ckem": 8386,
      "Sce": 8387,
      "ĠvtÄĽ": 8388,
      "Ġnezd": 8389,
      "dosti": 8390,
      "ĠÄįervÃ¡nkÅ¯": 8391,
      "AR": 8392,
      "Ġledu": 8393,
      "ĠviSel": 8394,
      "ĠpÅĻekva": 8395,
      "ĠbleskÅ¯": 8396,
      "ĠAAXBBX": 8397,
      "Ġfstek": 8398,
      "ĠprvÃ½": 8399,
      "Ġpadal": 8400,
      "Ġhodin": 8401,
      "ĠÄıÃ¡b": 8402,
      "CnIx": 8403,
      "Ġsc": 8404,
      "ĠnelÃŃ": 8405,
      "Ġneve": 8406,
      "ĠchceÅ¡li": 8407,
      "ĠsmNeje": 8408,
      "ĠideÃ¡": 8409,
      "Ġihned": 8410,
      "Ã½t": 8411,
      "Ġmuse": 8412,
      "ĠnÃ¡v": 8413,
      "ĠplÃ¡ly": 8414,
      "Ġsfo": 8415,
      "Ġzelena": 8416,
      "Ġpase": 8417,
      "ĠpÃ¡ny": 8418,
      "ĠbuDiS": 8419,
      "ĠZebrA": 8420,
      "Ġmlze": 8421,
      "ĠnaÅ¡eho": 8422,
      "ĠzmÃŃtÃ¡": 8423,
      "ĠhRI": 8424,
      "taj": 8425,
      "Ġloupe": 8426,
      "jou": 8427,
      "Ġvzbou": 8428,
      "ĠpamA": 8429,
      "hajI": 8430,
      "ĠlitskI": 8431,
      "ĠÅ¡tva": 8432,
      "ĠÅĻÃŃma": 8433,
      "ĠvIri": 8434,
      "Å¡tÄĽnÃŃ": 8435,
      "ĠchtÄĽjÃŃ": 8436,
      "Ġmlat": 8437,
      "Ġchceme": 8438,
      "ĠptÃ¡m": 8439,
      "Ġxvat": 8440,
      "Ġrysy": 8441,
      "Ġpadli": 8442,
      "Ġrostla": 8443,
      "ĠstrAcI": 8444,
      "ĠneznÃ¡mÃ½": 8445,
      "ĠÅĻen": 8446,
      "Ġveta": 8447,
      "Ġkorou": 8448,
      "Ġmistra": 8449,
      "ĠbAsNIk": 8450,
      "Ġpola": 8451,
      "ĠburÃ¡": 8452,
      "ĠtemnE": 8453,
      "pÃŃÅ¡": 8454,
      "padne": 8455,
      "ĠmyÅ¡lÃ©nek": 8456,
      "ĠdvakrÃ¡t": 8457,
      "ĠuvÃŃ": 8458,
      "ĠobjÃŃmÃ¡": 8459,
      "ĠslastÃŃ": 8460,
      "ĠvIno": 8461,
      "kan": 8462,
      "ĠhoÅĻi": 8463,
      "ĠpÃ¡ry": 8464,
      "Ġshlu": 8465,
      "Ġzticha": 8466,
      "razil": 8467,
      "nÃ¡n": 8468,
      "ĠpamÄĽt": 8469,
      "ĠvAcla": 8470,
      "ĠRekla": 8471,
      "ĠchrÃ¡my": 8472,
      "ÅĻeje": 8473,
      "ĠÅ¡erem": 8474,
      "Ġstole": 8475,
      "Ġpaprs": 8476,
      "ĠpomÃ¡": 8477,
      "ĠhladÃŃ": 8478,
      "ĠdruzÃŃ": 8479,
      "ĠsvatÃ©m": 8480,
      "ĠDeje": 8481,
      "xom": 8482,
      "Ġsteskem": 8483,
      "NitR": 8484,
      "ĠbÃ©ÅĻe": 8485,
      "bNe": 8486,
      "Ġmedu": 8487,
      "Ġlov": 8488,
      "kouz": 8489,
      "ĠpohlÃ©": 8490,
      "ĠdÃ¡my": 8491,
      "ĠhalI": 8492,
      "ĠdRImA": 8493,
      "ĠzÃ¡dumÄįi": 8494,
      "Ġfel": 8495,
      "ĠpÅĻÃŃklad": 8496,
      "CnosTi": 8497,
      "ĠNemI": 8498,
      "ĠvzpomÃŃnek": 8499,
      "ĠSiro": 8500,
      "ĠnesmQ": 8501,
      "!?": 8502,
      "Ġnedej": 8503,
      "Ġzale": 8504,
      "Ġnechte": 8505,
      "Ġmoudrosti": 8506,
      "ABX": 8507,
      "Ġduhu": 8508,
      "Ġxlu": 8509,
      "Ġhim": 8510,
      "Ġmilence": 8511,
      "ĠhÅĻbitov": 8512,
      "ĠseÄį": 8513,
      "Ġzajde": 8514,
      "ĠpÅĻesvÄĽd": 8515,
      "ĠNadrex": 8516,
      "Ġchech": 8517,
      "Ġhude": 8518,
      "Ġanto": 8519,
      "Ġdosa": 8520,
      "ĠboÅĻÃŃ": 8521,
      "ĠbratRi": 8522,
      "ĠtÅĻesk": 8523,
      "Ġstudu": 8524,
      "ĠpohÃ¡dky": 8525,
      "xE": 8526,
      "ĠnÄĽmÃ¡": 8527,
      "ĠhledÃ¡m": 8528,
      "ĠsklÃ¡dÃ¡": 8529,
      "ĠmÅ¾ikem": 8530,
      "Ġjene": 8531,
      "Ġoblou": 8532,
      "Ġluni": 8533,
      "Ġmilova": 8534,
      "Ġkolkolem": 8535,
      "ĠzelenÃ½": 8536,
      "ĠperutÄĽ": 8537,
      "sni": 8538,
      "Ġnepra": 8539,
      "ĠpÅĻelud": 8540,
      "ĠchÅĻe": 8541,
      "ĠstaRe": 8542,
      "Ġsvor": 8543,
      "ĠpÅĻedsta": 8544,
      "ĠsnÄĽho": 8545,
      "Ġstatek": 8546,
      "ĠbujnÃ©": 8547,
      "ĠblÃ¡ho": 8548,
      "dlen": 8549,
      "ĠlodÃŃ": 8550,
      "ĠtÃ¡bor": 8551,
      "ĠtmÃ¡m": 8552,
      "ÅĻely": 8553,
      "ĠumNeNI": 8554,
      "ĠÅ¡et": 8555,
      "sali": 8556,
      "ĠÅĻadou": 8557,
      "ĠbohatÃ½r": 8558,
      "hlA": 8559,
      "Ġmdle": 8560,
      "Äįuje": 8561,
      "ĠbavÃŃ": 8562,
      "ĠmnohE": 8563,
      "ĠnohÃ¡m": 8564,
      "Ġkapra": 8565,
      "NikA": 8566,
      "ĠznÃ¡te": 8567,
      "Ġbloudil": 8568,
      "ĠdISe": 8569,
      "ÅĻiv": 8570,
      "cIho": 8571,
      "ĠpLna": 8572,
      "Ġhostem": 8573,
      "ĠNitru": 8574,
      "ĠpoznA": 8575,
      "ĠzjevÃŃ": 8576,
      "ĠZAdnE": 8577,
      "Ġtl": 8578,
      "Ġdmou": 8579,
      "ÅĻÃŃti": 8580,
      "Ġobrazy": 8581,
      "ĠslabÃ©": 8582,
      "ĠpÃ½cha": 8583,
      "Ġprop": 8584,
      "Ġgene": 8585,
      "ĠriTIR": 8586,
      "Ġfiloso": 8587,
      "ĠbolI": 8588,
      "Ġrozvi": 8589,
      "ĠlÃŃstek": 8590,
      "ĠmÃŃhÃ¡": 8591,
      "Ġvjeci": 8592,
      "ĠchtÄĽlo": 8593,
      "ĠfSecka": 8594,
      "ĠÅ¾ilÃ¡ch": 8595,
      "Å¾nou": 8596,
      "ĠjinÃ©ho": 8597,
      "mÃŃvÃ¡": 8598,
      "ĠnevidÄĽl": 8599,
      "ĠsmNele": 8600,
      "Ġnedba": 8601,
      "ĠzdobÃŃ": 8602,
      "SNe": 8603,
      "Ġzanech": 8604,
      "Ġlisti": 8605,
      "ĠÄįechy": 8606,
      "ĠanDe": 8607,
      "dami": 8608,
      "beNI": 8609,
      "Ġmag": 8610,
      "ĠÅ¡irÃ½": 8611,
      "ĠpatRI": 8612,
      "ĠspÃ¡ti": 8613,
      "Ġxleba": 8614,
      "ova": 8615,
      "Ġpoxi": 8616,
      "Ġdere": 8617,
      "ĠmrA": 8618,
      "Ġnele": 8619,
      "Ġpohod": 8620,
      "zili": 8621,
      "ĠpoÄįne": 8622,
      "Ġhavran": 8623,
      "ĠplE": 8624,
      "ĠstÃ¡do": 8625,
      "ĠkaÅ¾dÃ©mu": 8626,
      "ĠvÃ¡lky": 8627,
      "ĠpoÅ¾Ã¡r": 8628,
      "An": 8629,
      "vrt": 8630,
      "zet": 8631,
      "ĠtÄĽÅ¾kÃ½m": 8632,
      "voru": 8633,
      "Ġsmil": 8634,
      "Ġoddech": 8635,
      "mÃŃra": 8636,
      "ĠÅ¾ÃŃzni": 8637,
      "dlech": 8638,
      "Ġplameni": 8639,
      "ĠTeSko": 8640,
      "xvje": 8641,
      "Neli": 8642,
      "ĠvjeS": 8643,
      "ĠsnÃ¡Å¡ÃŃ": 8644,
      "ĠbodÃ¡": 8645,
      "Ġtup": 8646,
      "ĠÄįekÃ¡m": 8647,
      "ĠrÅ¯znÃ©": 8648,
      "ĠDecko": 8649,
      "ĠXABBAX": 8650,
      "mra": 8651,
      "ĠspoÄįÃŃ": 8652,
      "Ġjsouc": 8653,
      "stÃ¡ch": 8654,
      "ĠsnÄĽm": 8655,
      "ĠvrÃ¡sky": 8656,
      "Ġdomova": 8657,
      "ĠzIrA": 8658,
      "ĠtkvÃŃ": 8659,
      "Ġzkla": 8660,
      "Ġfer": 8661,
      "Ġtaji": 8662,
      "Ġvysko": 8663,
      "ĠÅ¾iva": 8664,
      "Ġhrobi": 8665,
      "ĠvÃ½kÅĻi": 8666,
      "ĠpohR": 8667,
      "ĠpozDe": 8668,
      "ĠklÃ¡Å¡te": 8669,
      "zela": 8670,
      "ĠsrdÃ©": 8671,
      "mÄĽly": 8672,
      "ĠplACi": 8673,
      "ĠupomI": 8674,
      "br": 8675,
      "Ġprs": 8676,
      "Ġmnohem": 8677,
      "ĠradosTI": 8678,
      "bnE": 8679,
      "ĠlÃ¡me": 8680,
      "ĠruÄįky": 8681,
      "ĠÄįinu": 8682,
      "ĠÅ¡ÃŃj": 8683,
      "ĠjITi": 8684,
      "ĠretÅ¯": 8685,
      "Ġplynou": 8686,
      "ptÃ¡": 8687,
      "ĠÅĻece": 8688,
      "ĠkoutÄĽ": 8689,
      "ĠmateÅĻ": 8690,
      "bAm": 8691,
      "Ġrozli": 8692,
      "ĠnebeskÃ©": 8693,
      "Cini": 8694,
      "ĠvrahÅ¯": 8695,
      "ĠpravÃŃm": 8696,
      "Ġokolo": 8697,
      "ĠchvÄĽlo": 8698,
      "ĠtajemnÃ©": 8699,
      "Ġpostava": 8700,
      "Ġvnady": 8701,
      "ĠzlE": 8702,
      "Ġfp": 8703,
      "Nela": 8704,
      "Ġsan": 8705,
      "ĠpRIsa": 8706,
      "ĠcIrk": 8707,
      "ĠvteÅĻi": 8708,
      "ĠdlI": 8709,
      "Ġzask": 8710,
      "tiv": 8711,
      "ÄįinÄĽ": 8712,
      "Ġhrub": 8713,
      "Ġodo": 8714,
      "Ġopojen": 8715,
      "ĠzlÃ½m": 8716,
      "ĠjasNe": 8717,
      "ĠjimS": 8718,
      "hlÃŃÅ¾ÃŃ": 8719,
      "ĠrÅ¯znÃ½ch": 8720,
      "ĠzaÄįÃŃ": 8721,
      "ÅĻeny": 8722,
      "Ġpoklo": 8723,
      "ĠchvÄĽj": 8724,
      "ĠvlÃ¡dy": 8725,
      "ĠzRIt": 8726,
      "Ġsvla": 8727,
      "ĠpÃ¡nÅ¯": 8728,
      "ĠzdQ": 8729,
      "ĠhlasÅ¯": 8730,
      "Ġnepozna": 8731,
      "ĠskalÃ¡ch": 8732,
      "Ġzbylo": 8733,
      "hrad": 8734,
      "Ġhlet": 8735,
      "ĠkouÅĻ": 8736,
      "ĠvraZ": 8737,
      "ĠdÄĽtin": 8738,
      "ĠnÄĽÅ¾nÃ©": 8739,
      "Ġpoklady": 8740,
      "ĠmlI": 8741,
      "ĠnaSel": 8742,
      "Ġkrej": 8743,
      "Ġnespo": 8744,
      "rova": 8745,
      "voÅĻÃŃ": 8746,
      "Ġsple": 8747,
      "Ġgar": 8748,
      "ĠnÄĽmÃ©": 8749,
      "ĠradosÅ¥": 8750,
      "Ġsmilo": 8751,
      "ĠÅ¾ebrÃ¡k": 8752,
      "Ġhodo": 8753,
      "ĠkacÃŃ": 8754,
      "Ġvyv": 8755,
      "ĠnemNel": 8756,
      "ĠmÃŃsÃŃ": 8757,
      "Ġblankit": 8758,
      "ĠfZdi": 8759,
      "ĠuhlÃŃ": 8760,
      "tÃ¡ÅĻ": 8761,
      "Ġzvonek": 8762,
      "ĠvÃ©vo": 8763,
      "ĠvylÃŃ": 8764,
      "pÄĽv": 8765,
      "ĠÄįlovÄĽkem": 8766,
      "ĠpevnÃ½": 8767,
      "ĠhQDe": 8768,
      "ĠptACe": 8769,
      "ĠchtÃŃt": 8770,
      "ĠvE": 8771,
      "Ġinu": 8772,
      "ĠvÃŃÄįka": 8773,
      "ĠbÄĽhu": 8774,
      "mNeli": 8775,
      "ĠblIZe": 8776,
      "ĠproklÃŃ": 8777,
      "ĠmajestÃ¡": 8778,
      "ĠzlA": 8779,
      "Ġfstal": 8780,
      "rÃ¡n": 8781,
      "ĠvjeCnosTi": 8782,
      "ZenI": 8783,
      "Ġtrium": 8784,
      "bÃ½vÃ¡": 8785,
      "Ġfri": 8786,
      "ĠmocI": 8787,
      "Ġjedle": 8788,
      "ĠblaÅ¾ÃŃ": 8789,
      "ĠvÅ¡echna": 8790,
      "ĠDela": 8791,
      "ĠmrtvÃŃ": 8792,
      "Ġsamot": 8793,
      "Ġkorun": 8794,
      "ĠsNehu": 8795,
      "ĠzvlÃ¡Å¡tnÃŃ": 8796,
      "ĠxlEp": 8797,
      "ĠhRIS": 8798,
      "ÄįnÃŃch": 8799,
      "ĠnemAm": 8800,
      "ĠsvatÃ©ho": 8801,
      "zeno": 8802,
      "ĠsxA": 8803,
      "ĠpÃ½Å¡e": 8804,
      "ĠdnovÃ©": 8805,
      "Ġobjal": 8806,
      "ĠmistÅĻe": 8807,
      "ĠnÃ¡dhe": 8808,
      "ĠpoprvÃ©": 8809,
      "ĠpouhÃ©": 8810,
      "ĠnexA": 8811,
      "Ġhrdla": 8812,
      "ĠposmÄĽch": 8813,
      "ilI": 8814,
      "novE": 8815,
      "teÄįnÃŃ": 8816,
      "lÃ¡n": 8817,
      "ĠposlE": 8818,
      "ĠshÃ½": 8819,
      "Ġnejkra": 8820,
      "Ġkapli": 8821,
      "plo": 8822,
      "Ġzapu": 8823,
      "ĠrozÅ¾": 8824,
      "ĠÅ¡epo": 8825,
      "Å¡ili": 8826,
      "Å¾ily": 8827,
      "Ġfspla": 8828,
      "Ġobrovit": 8829,
      "bas": 8830,
      "Å¡ce": 8831,
      "ĠneÅĻe": 8832,
      "ĠÄįten": 8833,
      "ĠprobÃŃ": 8834,
      "ĠpÄĽti": 8835,
      "Ġlitstvo": 8836,
      "ĠslabÃ½": 8837,
      "ĠapoÅ¡to": 8838,
      "ĠdÃ¡no": 8839,
      "ĠÅ¡ÃŃle": 8840,
      "ĠsrÃ¡z": 8841,
      "ĠprvÃ©": 8842,
      "ĠÅ¡ÃŃch": 8843,
      "ĠslÃ¡b": 8844,
      "Ġhovoru": 8845,
      "ĠkrvavÃ½": 8846,
      "Ġprale": 8847,
      "ĠfSI": 8848,
      "ĠÄįistou": 8849,
      "ĠzahÅĻ": 8850,
      "zena": 8851,
      "ĠjejichÅ¾": 8852,
      "Ġpovstal": 8853,
      "ĠvLna": 8854,
      "ĠzmÄĽnÃŃ": 8855,
      "ĠdrÃ¡hy": 8856,
      "ĠnevÃ¡": 8857,
      "Ġpoo": 8858,
      "Ġryk": 8859,
      "ĠkÃ¡cÃŃ": 8860,
      "ĠbledI": 8861,
      "ĠplAST": 8862,
      "ĠsmQTI": 8863,
      "Qx": 8864,
      "ĠzadÃŃ": 8865,
      "ĠprovA": 8866,
      "Ġhero": 8867,
      "ĠzamyÅ¡": 8868,
      "CnIm": 8869,
      "ĠdÅ¾": 8870,
      "ĠvojÃŃ": 8871,
      "Ġkly": 8872,
      "Ġdomek": 8873,
      "ĠrokU": 8874,
      "veho": 8875,
      "ĠvÃ¡no": 8876,
      "ĠpenÄĽz": 8877,
      "....": 8878,
      "ĠskoÄįÃŃ": 8879,
      "Ġvzduxem": 8880,
      "ĠdivokÃ©": 8881,
      "Ġhlase": 8882,
      "ĠpodzimnÃŃ": 8883,
      "ĠkNes": 8884,
      "Ġnasy": 8885,
      "Ġlot": 8886,
      "ĠkaZdEm": 8887,
      "ĠÅ¡eptal": 8888,
      "ĠpjekNe": 8889,
      "ÅĻte": 8890,
      "Ġobna": 8891,
      "ĠdÄĽlÃŃ": 8892,
      "biTI": 8893,
      "Ġsokol": 8894,
      "ĠnemUZe": 8895,
      "Ġkras": 8896,
      "Ġusnul": 8897,
      "ĠklidnÃ½": 8898,
      "ĠnesmQtel": 8899,
      "ĠsnÅ¯m": 8900,
      "ĠposÃŃ": 8901,
      "Ġpara": 8902,
      "ĠhvÄĽzdou": 8903,
      "Emu": 8904,
      "Ġzahle": 8905,
      "Äįena": 8906,
      "Å¾dÄĽ": 8907,
      "ĠliDi": 8908,
      "jÃŃti": 8909,
      "ĠmLCki": 8910,
      "ĠnabÃŃ": 8911,
      "ĠÅ¡ÃŃÅĻ": 8912,
      "ĠkrutÃ©": 8913,
      "ĠnedoÄįka": 8914,
      "ĠkrÃ¡tkÃ©": 8915,
      "ĠzboÅ¾nÄĽ": 8916,
      "Ġprobou": 8917,
      "Ġchalou": 8918,
      "Cnost": 8919,
      "Ġvstane": 8920,
      "ĠvRa": 8921,
      "ĠposmNe": 8922,
      "Ġvyjde": 8923,
      "Ġotkut": 8924,
      "ĠsxvA": 8925,
      "ĠÄįtvrt": 8926,
      "Ġskvr": 8927,
      "ĠnÃ¡ÅĻ": 8928,
      "ĠvÄĽÅĻte": 8929,
      "Ġvnik": 8930,
      "ÅĻelo": 8931,
      "ĠzÃ¡vrat": 8932,
      "ĠpÅĻines": 8933,
      "Ġsymbo": 8934,
      "ĠsvÃŃtÃ¡": 8935,
      "ĠpoZA": 8936,
      "Ġvrata": 8937,
      "Ġzora": 8938,
      "ĠmoudrÃ½": 8939,
      "leni": 8940,
      "ĠkaÅ¡": 8941,
      "ĠvIte": 8942,
      "Ġkamsi": 8943,
      "ĠsliSe": 8944,
      "zoval": 8945,
      "Ġdvora": 8946,
      "Ġjinam": 8947,
      "Ġneru": 8948,
      "silo": 8949,
      "kladu": 8950,
      "ĠkÃ½v": 8951,
      "ĠnovÃ©ho": 8952,
      "ĠperuT": 8953,
      "Ġrozka": 8954,
      "RIk": 8955,
      "ĠrekÅ¯": 8956,
      "Cela": 8957,
      "ĠplnÃ½ch": 8958,
      "ĠsfÃ½ch": 8959,
      "Ġkrux": 8960,
      "Ġpili": 8961,
      "Ġlampy": 8962,
      "ĠviprA": 8963,
      "Ġposko": 8964,
      "Ġcnost": 8965,
      "Ġpodla": 8966,
      "cenI": 8967,
      "ĠhlÃ¡sÃŃ": 8968,
      "ĠdÄĽcka": 8969,
      "zdÃŃ": 8970,
      "ĠlÃŃtost": 8971,
      "ĠmNej": 8972,
      "ĠpÃ¡nbÅ¯h": 8973,
      "ĠjmÃ©nem": 8974,
      "Ġzabu": 8975,
      "ĠjiNI": 8976,
      "ĠrodnÃ½": 8977,
      "Å¾eli": 8978,
      "ĠÃºtro": 8979,
      "Ġposly": 8980,
      "ĠvrÃ¡z": 8981,
      "dechu": 8982,
      "ĠsmÃŃm": 8983,
      "ĠniÅ¾": 8984,
      "ĠstaCI": 8985,
      "ĠvItA": 8986,
      "dANI": 8987,
      "ĠmrtvÃ¡": 8988,
      "ĠposlednÃŃm": 8989,
      "Ġvyhna": 8990,
      "ĠtÃŃsnÃŃ": 8991,
      "ĠDeji": 8992,
      "ĠsrA": 8993,
      "ĠdNi": 8994,
      "ĠnovÃ©m": 8995,
      "ĠvÃŃme": 8996,
      "ĠknÃŃÅ¾": 8997,
      "Ġvsa": 8998,
      "ĠbIval": 8999,
      "ĠnevÄĽdÄĽl": 9000,
      "ĠDIfki": 9001,
      "ĠhleÄıte": 9002,
      "ĠÄįinÅ¯": 9003,
      "ĠkrÃ¡lovna": 9004,
      "Ġdrahoka": 9005,
      "ĠvznÄĽt": 9006,
      "ĠseÅ¡": 9007,
      "Ġsmuten": 9008,
      "ĠbÅĻehÅ¯": 9009,
      "ĠÃºsmÄĽvu": 9010,
      "ĠkRIZe": 9011,
      "ĠjevI": 9012,
      "ĠmÃ¡k": 9013,
      "Ġzpit": 9014,
      "Ġslovi": 9015,
      "ĠrovnÄĽÅ¾": 9016,
      "ĠstoletÃŃ": 9017,
      "ĠmEmu": 9018,
      "ĠvÅ¡emo": 9019,
      "ĠsmÃ¡la": 9020,
      "Ġdomovu": 9021,
      "ĠnÃ¡mÄĽstÃŃ": 9022,
      "Ġvdech": 9023,
      "ĠkR": 9024,
      "ĠkrAlov": 9025,
      "ĠNegde": 9026,
      "Ġrozkvet": 9027,
      "ĠprochÃ¡": 9028,
      "Ġbudo": 9029,
      "ĠpÅĻehlu": 9030,
      "Ġplav": 9031,
      "ĠÅĻÃŃdÃŃ": 9032,
      "ĠteplÃ½": 9033,
      "Ġhospody": 9034,
      "ĠxIlI": 9035,
      "bral": 9036,
      "Ġzajat": 9037,
      "Ġkopy": 9038,
      "ĠvÃ¡le": 9039,
      "Ġmeze": 9040,
      "Ġzvou": 9041,
      "Ġnezapo": 9042,
      "Ġrakve": 9043,
      "Ġdokonal": 9044,
      "Ġptactvo": 9045,
      "Sle": 9046,
      "ĠÅ¾ivÃŃ": 9047,
      "Ġplakat": 9048,
      "ĠtemNe": 9049,
      "Ġnedotk": 9050,
      "Ġskutku": 9051,
      "Ġvyho": 9052,
      "Ġhromem": 9053,
      "Ġzdech": 9054,
      "ĠÄįerv": 9055,
      "ĠneSTast": 9056,
      "ĠspaNil": 9057,
      "ÅĪu": 9058,
      "ĠÄįernÃ½m": 9059,
      "ĠvQx": 9060,
      "Ġzmoc": 9061,
      "ĠzavÄĽ": 9062,
      "ĠÅ¡vi": 9063,
      "Ġpani": 9064,
      "mile": 9065,
      "ĠpAlI": 9066,
      "Ġprostoru": 9067,
      "Å¾nÃ½ch": 9068,
      "ĠviÄı": 9069,
      "rii": 9070,
      "Ġryb": 9071,
      "ĠslepÃ½": 9072,
      "Ġkristo": 9073,
      "ĠtAhn": 9074,
      "ĠnAruCI": 9075,
      "SNI": 9076,
      "Ġsar": 9077,
      "Ġvrak": 9078,
      "Å¾iti": 9079,
      "ĠcestÃ¡ch": 9080,
      "Ġodpla": 9081,
      "Ġjaru": 9082,
      "Ġthe": 9083,
      "lovi": 9084,
      "ĠfrÃ¡": 9085,
      "Ġduna": 9086,
      "ĠhleDel": 9087,
      "Ġdruzi": 9088,
      "ĠzlÃ©ho": 9089,
      "ĠjeÅ¾ÃŃÅ¡": 9090,
      "ĠvaSI": 9091,
      "Ġpozve": 9092,
      "ĠZivotem": 9093,
      "bAx": 9094,
      "Ġpasu": 9095,
      "rovat": 9096,
      "Ġlkal": 9097,
      "ĠnovIx": 9098,
      "ĠobjIm": 9099,
      "ĠloDi": 9100,
      "Ġzvedla": 9101,
      "stvem": 9102,
      "ĠhorAx": 9103,
      "Ġvysta": 9104,
      "Ġout": 9105,
      "ĠkÅĻovÃŃ": 9106,
      "taje": 9107,
      "ĠmNest": 9108,
      "ĠrudI": 9109,
      "Ġshle": 9110,
      "lÃŃp": 9111,
      "ĠhustÃ©": 9112,
      "Ġostru": 9113,
      "ĠvUNi": 9114,
      "jIcIx": 9115,
      "ĠstÃ¡da": 9116,
      "Ġstopu": 9117,
      "ĠkleÄįÃŃ": 9118,
      "ĠbÃ¡snÄĽ": 9119,
      "ĠpodveÄįer": 9120,
      "chi": 9121,
      "Ġodsou": 9122,
      "Ġzasy": 9123,
      "Ġluka": 9124,
      "ĠsladkÃ©m": 9125,
      "Ġbrali": 9126,
      "Cte": 9127,
      "Ġpnou": 9128,
      "ĠskvoucÃŃ": 9129,
      "ĠlÃŃpy": 9130,
      "Ġfial": 9131,
      "ĠmdlÃ¡": 9132,
      "Ġfon": 9133,
      "Ġroztom": 9134,
      "veÅĪ": 9135,
      "ĠSpat": 9136,
      "Ġplatno": 9137,
      "Å¾enÃ½ch": 9138,
      "mpe": 9139,
      "om": 9140,
      "ĠjÅ¯": 9141,
      "rec": 9142,
      "ĠpÄĽjÃŃ": 9143,
      "ĠmarnÃ½": 9144,
      "ĠchvÄĽly": 9145,
      "Ġjindi": 9146,
      "ĠprÃ¡zdnÃ½": 9147,
      "ĠubohÃ½": 9148,
      "bU": 9149,
      "Ġstavu": 9150,
      "Dif": 9151,
      "Ġnezas": 9152,
      "Ġhezky": 9153,
      "Ġobrazem": 9154,
      "ĠnekoneÄį": 9155,
      "pej": 9156,
      "ĠrAm": 9157,
      "nÄĽnou": 9158,
      "Ġbist": 9159,
      "nÃŃkem": 9160,
      "ĠmÄĽly": 9161,
      "ĠhouÅ¡ti": 9162,
      "Ġpomy": 9163,
      "lovE": 9164,
      "Ġlite": 9165,
      "ĠstÅĻela": 9166,
      "ĠtÅ¯nÄĽ": 9167,
      "Ġvzplane": 9168,
      "Ġzbje": 9169,
      "Ġlau": 9170,
      "stÃŃrÃ¡": 9171,
      "Ġsocha": 9172,
      "ĠplÃ¡lo": 9173,
      "ĠhÃ¡v": 9174,
      "ĠpaprskÅ¯": 9175,
      "Ġjazik": 9176,
      "Ġmon": 9177,
      "pol": 9178,
      "ĠTeSI": 9179,
      "veno": 9180,
      "ĠstkvÄĽ": 9181,
      "ĠpoÅ¡e": 9182,
      "ĠpRANI": 9183,
      "ĠmeCem": 9184,
      "ĠsTeni": 9185,
      "ĠroDI": 9186,
      "ĠkopÃŃ": 9187,
      "Ġvivo": 9188,
      "ĠblahÃ½": 9189,
      "ĠmarnÃ¡": 9190,
      "ĠlesNI": 9191,
      "coval": 9192,
      "ĠsnivÃ¡": 9193,
      "ul": 9194,
      "neS": 9195,
      "Ġkohou": 9196,
      "ĠvlaÅ¡to": 9197,
      "Ġoknu": 9198,
      "bÃ¡n": 9199,
      "ĠspanÃŃ": 9200,
      "Ġsoumraku": 9201,
      "ĠzdvÃŃ": 9202,
      "ĠtisÃŃci": 9203,
      "ĠpÅ¯lnoci": 9204,
      "Ġzmizela": 9205,
      "ĠnosI": 9206,
      "ĠrubÃŃ": 9207,
      "Ġzemdle": 9208,
      "ĠpÅĻipo": 9209,
      "ĠsluZ": 9210,
      "ĠbohU": 9211,
      "ĠvolNe": 9212,
      "ĠjmÄĽnÃŃ": 9213,
      "Ġab": 9214,
      "Ġcvi": 9215,
      "Ġzej": 9216,
      "ĠvIna": 9217,
      "ĠklasÅ¯": 9218,
      "ĠpRISer": 9219,
      "ĠdlÃ©": 9220,
      "luv": 9221,
      "ĠpaÅ¾ÃŃ": 9222,
      "ĠbijÃŃ": 9223,
      "ÄįeÅ¾": 9224,
      "bech": 9225,
      "Ġnejra": 9226,
      "ĠzÅ¯sta": 9227,
      "Ġis": 9228,
      "ĠdATi": 9229,
      "Ġplesem": 9230,
      "beni": 9231,
      "ĠsTInU": 9232,
      "ĠjeseÅĪ": 9233,
      "Ġoc": 9234,
      "ĠtuÅ¾eb": 9235,
      "Ġnemy": 9236,
      "ĠslAvje": 9237,
      "ĠboÅ¾stvÃŃ": 9238,
      "Ġpromluvil": 9239,
      "ĠtÃ¡m": 9240,
      "ĠvydÃ¡": 9241,
      "rAl": 9242,
      "ÅĪa": 9243,
      "Ġzove": 9244,
      "ĠkaZdIm": 9245,
      "Ġsvitem": 9246,
      "Ġmilenci": 9247,
      "ĠplÃŃÅ¾ÃŃ": 9248,
      "ĠonÄĽ": 9249,
      "Ġstil": 9250,
      "ĠdÄĽvu": 9251,
      "ĠdÃŃvce": 9252,
      "benÃ©": 9253,
      "ĠpovÄĽst": 9254,
      "ĠjdÄĽte": 9255,
      "roste": 9256,
      "nÃ¡Å¡el": 9257,
      "ĠZes": 9258,
      "Ġstrasti": 9259,
      "ĠdÃ½mu": 9260,
      "ĠpRit": 9261,
      "Ġzil": 9262,
      "Ġduho": 9263,
      "ĠhradÄĽ": 9264,
      "trp": 9265,
      "Ġmraven": 9266,
      "Ġtrosky": 9267,
      "ĠchytÃ¡": 9268,
      "ĠdÄĽvÄįÃ¡": 9269,
      "ĠoltÃ¡ÅĻe": 9270,
      "ZnIx": 9271,
      "are": 9272,
      "ĠtuSI": 9273,
      "ĠspÄĽÅ¡": 9274,
      "ĠtesknÃ©": 9275,
      "ĠvÃ½chod": 9276,
      "Ġkata": 9277,
      "Ġmuky": 9278,
      "ĠzÃ¡slu": 9279,
      "Ġdek": 9280,
      "ĠmnoÅ¾stvÃŃ": 9281,
      "Ġpokle": 9282,
      "ĠotevÅĻel": 9283,
      "rag": 9284,
      "ĠpRipra": 9285,
      "ĠjizbÄĽ": 9286,
      "ĠkoneCNe": 9287,
      "Ã½val": 9288,
      "ĠleÅ¥": 9289,
      "ditel": 9290,
      "Ġobdi": 9291,
      "ĠpÅĻedtu": 9292,
      "Ġkrije": 9293,
      "ĠstÅĻÃŃbrnÃ©": 9294,
      "ĠblÃ½ska": 9295,
      "fki": 9296,
      "Ġrose": 9297,
      "ĠmeCe": 9298,
      "Ġkyp": 9299,
      "pÄĽla": 9300,
      "zenÃ½": 9301,
      "Ġstatku": 9302,
      "Sit": 9303,
      "ĠmÅĻel": 9304,
      "ĠnaÅ¡ÃŃm": 9305,
      "Rej": 9306,
      "ĠhledÄĽ": 9307,
      "bÃ¡Å¡": 9308,
      "ĠstÅĻed": 9309,
      "ĠdÄĽtskÃ©": 9310,
      "Ġtceru": 9311,
      "Ġkultu": 9312,
      "Ġroztomil": 9313,
      "ĠsnÃ¡Å¡e": 9314,
      "Ġcvr": 9315,
      "NIkU": 9316,
      "Ġpracu": 9317,
      "ĠlehkÃ½": 9318,
      "rny": 9319,
      "ĠhÅĻÃŃmÃ¡": 9320,
      "ĠÅ¡uma": 9321,
      "nickÃ©": 9322,
      "ÅĻÃŃvÃ¡": 9323,
      "ĠÄįte": 9324,
      "tiny": 9325,
      "Ġsluj": 9326,
      "ĠbÄĽs": 9327,
      "ĠDIk": 9328,
      "Ġokla": 9329,
      "ĠpevnÃ©": 9330,
      "Ġfsx": 9331,
      "Ġjsy": 9332,
      "ĠpÄĽsti": 9333,
      "ĠmalÃ½ch": 9334,
      "ĠsvÃŃce": 9335,
      "ĠspIval": 9336,
      "ĠjeT": 9337,
      "ĠlitskIx": 9338,
      "Ġem": 9339,
      "Ġoly": 9340,
      "skÃ½mi": 9341,
      "ĠhoÅĻem": 9342,
      "ĠmÃ¡li": 9343,
      "ĠpodlÃ©": 9344,
      "Ġdan": 9345,
      "ĠstÅĻÃŃbrem": 9346,
      "ĠneznÃ¡mÃ©": 9347,
      "ĠpÅĻijÄı": 9348,
      "ĠbÅĻÃŃmÄĽ": 9349,
      "Ġnosil": 9350,
      "Ġvozu": 9351,
      "ĠlÃŃch": 9352,
      "Ġozve": 9353,
      "ĠpamÄĽÅ¥": 9354,
      "ĠplI": 9355,
      "ĠÄįeskou": 9356,
      "ĠplaÅ¡ÃŃ": 9357,
      "ĠmÃ©nÄĽ": 9358,
      "ĠvÃ¡Å¾nÃ½": 9359,
      "ĠTIZI": 9360,
      "ĠmÄĽkce": 9361,
      "vÅ¡ad": 9362,
      "ĠfSadi": 9363,
      "Ġpoce": 9364,
      "ĠobrÃ¡til": 9365,
      "Ġzelen": 9366,
      "ĠdlaNI": 9367,
      "ĠdÄĽsnÃ©": 9368,
      "ĠhrUzi": 9369,
      "Ġoto": 9370,
      "Ġhukot": 9371,
      "Ġstromo": 9372,
      "pÃ¡n": 9373,
      "ĠhAj": 9374,
      "Ġtaki": 9375,
      "ĠUt": 9376,
      "ĠĠĠĠ": 9377,
      "ĠtrÃ¡vu": 9378,
      "Ġzaml": 9379,
      "ĠÅ¡av": 9380,
      "ZIx": 9381,
      "ĠplachÃ½": 9382,
      "ĠprAvo": 9383,
      "Ġzakry": 9384,
      "ĠzÅĻeli": 9385,
      "Ġhmy": 9386,
      "ĠnaÅ¡li": 9387,
      "Ġposla": 9388,
      "ĠobÄĽti": 9389,
      "nickÃ½": 9390,
      "Ġdivoce": 9391,
      "Ġjho": 9392,
      "Ġnajdu": 9393,
      "ĠoblÃ©": 9394,
      "Nilo": 9395,
      "ĠkÅĻ": 9396,
      "Å¾ilo": 9397,
      "hnej": 9398,
      "ÄįkovÃ©": 9399,
      "ĠbdÄĽ": 9400,
      "nesli": 9401,
      "ĠvysÃŃ": 9402,
      "rdÃŃ": 9403,
      "ĠkrÃ¡lo": 9404,
      "Ġspolku": 9405,
      "ĠmocNe": 9406,
      "ĠhoupÃ¡": 9407,
      "nÄĽt": 9408,
      "ĠuTi": 9409,
      "Ġlila": 9410,
      "Ġtuch": 9411,
      "ĠhorÅ¡ÃŃ": 9412,
      "ĠsvÃ¡tek": 9413,
      "Ġxvjel": 9414,
      "ĠdQs": 9415,
      "ĠtmAx": 9416,
      "ĠzÃ¡mek": 9417,
      "Ġsnaha": 9418,
      "ĠodeÅ¡el": 9419,
      "for": 9420,
      "ĠsLzI": 9421,
      "Ġlehko": 9422,
      "ĠxTeli": 9423,
      "Ġzdob": 9424,
      "Ġhodina": 9425,
[...]
