{
  "version": "1.0",
  "truncation": null,
  "padding": null,
  "added_tokens": [
    {
      "id": 0,
      "content": "<|EOS|>",
      "single_word": false,
      "lstrip": false,
      "rstrip": false,
      "normalized": false,
      "special": true
    },
    {
      "id": 1,
      "content": "<|PAD|>",
      "single_word": false,
      "lstrip": false,
      "rstrip": false,
      "normalized": false,
      "special": true
    },
    {
      "id": 2,
      "content": "<|UNK|>",
      "single_word": false,
      "lstrip": false,
      "rstrip": false,
      "normalized": false,
      "special": true
    },
    {
      "id": 3,
      "content": "<|CLS|>",
      "single_word": false,
      "lstrip": false,
      "rstrip": false,
      "normalized": false,
      "special": true
    }
  ],
  "normalizer": null,
  "pre_tokenizer": {
    "type": "ByteLevel",
    "add_prefix_space": false,
    "trim_offsets": true,
    "use_regex": true
  },
  "post_processor": {
    "type": "RobertaProcessing",
    "sep": [
      "<|EOS|>",
      0
    ],
    "cls": [
      "<|CLS|>",
      3
    ],
    "trim_offsets": false,
    "add_prefix_space": false
  },
  "decoder": {
    "type": "ByteLevel",
    "add_prefix_space": true,
    "trim_offsets": true,
    "use_regex": true
  },
  "model": {
    "type": "BPE",
    "dropout": null,
    "unk_token": null,
    "continuing_subword_prefix": null,
    "end_of_word_suffix": null,
    "fuse_unk": false,
    "byte_fallback": false,
    "vocab": {
      "<|EOS|>": 0,
      "<|PAD|>": 1,
      "<|UNK|>": 2,
      "<|CLS|>": 3,
      "!": 4,
      "#": 5,
      ",": 6,
      ".": 7,
      "0": 8,
      "1": 9,
      "2": 10,
      "3": 11,
      "4": 12,
      "5": 13,
      "6": 14,
      "7": 15,
      "8": 16,
      "9": 17,
      "?": 18,
      "A": 19,
      "B": 20,
      "C": 21,
      "D": 22,
      "H": 23,
      "J": 24,
      "N": 25,
      "P": 26,
      "T": 27,
      "X": 28,
      "Y": 29,
      "a": 30,
      "b": 31,
      "c": 32,
      "d": 33,
      "e": 34,
      "f": 35,
      "g": 36,
      "h": 37,
      "i": 38,
      "j": 39,
      "k": 40,
      "l": 41,
      "m": 42,
      "n": 43,
      "o": 44,
      "p": 45,
      "q": 46,
      "r": 47,
      "s": 48,
      "t": 49,
      "u": 50,
      "v": 51,
      "w": 52,
      "x": 53,
      "y": 54,
      "z": 55,
      "¡": 56,
      "¤": 57,
      "¥": 58,
      "©": 59,
      "¯": 60,
      "³": 61,
      "¶": 62,
      "º": 63,
      "¼": 64,
      "½": 65,
      "¾": 66,
      "Ã": 67,
      "Ä": 68,
      "Å": 69,
      "Ċ": 70,
      "Ġ": 71,
      "Ī": 72,
      "į": 73,
      "ı": 74,
      "Ļ": 75,
      "Ľ": 76,
      "Ń": 77,
      "Ġ#": 78,
      "Ġn": 79,
      "Ġs": 80,
      "Ġv": 81,
      "ÃŃ": 82,
      "Ġt": 83,
      "Ġk": 84,
      "Ã¡": 85,
      "Ġ1": 86,
      "Ġd": 87,
      "Ġj": 88,
      "Ġl": 89,
      "Ġp": 90,
      "Ġm": 91,
      "ÄĽ": 92,
      "ĠÅ": 93,
      "Ġz": 94,
      "Ġc": 95,
      "Ġb": 96,
      "Ġh": 97,
      "Ã½": 98,
      "Ã©": 99,
      "ou": 100,
      "Ġr": 101,
      "Ġst": 102,
      "Ġa": 103,
      "Ġje": 104,
      "Äį": 105,
      "Ġ10": 106,
      "Ġ8": 107,
      "Ġse": 108,
      "Ġ11": 109,
      "Ġne": 110,
      "ÅĻ": 111,
      "ch": 112,
      "Å¾": 113,
      "Ġna": 114,
      "ĠÅ¾": 115,
      "ĠÅ¡": 116,
      "ĠÄį": 117,
      "Å¯": 118,
      "Ġch": 119,
      "Ġo": 120,
      "ĠnÃŃ": 121,
      "Å¡": 122,
      "la": 123,
      "Ġpo": 124,
      "em": 125,
      "ra": 126,
      "XX": 127,
      "Ġle": 128,
      "ak": 129,
      "Ġko": 130,
      "Ġce": 131,
      "ĠÅĻ": 132,
      "Ġho": 133,
      "Ġsv": 134,
      "Ġli": 135,
      "AB": 136,
      "ĠnÄĽ": 137,
      "Ġ9": 138,
      "ro": 139,
      "Ġte": 140,
      "Ġti": 141,
      "Ġla": 142,
      "Ġza": 143,
      "Ġto": 144,
      "Ġdo": 145,
      "Ġka": 146,
      "le": 147,
      "ĠnÃ¡": 148,
      "ĠnÃ½": 149,
      "ĠÅ¾e": 150,
      "Ġby": 151,
      "Ġji": 152,
      "ĠjÃŃ": 153,
      "rÃ¡": 154,
      "Ġmi": 155,
      "Ġno": 156,
      "Ġ19": 157,
      "Ġ7": 158,
      "ÅĻe": 159,
      "ĠnÃ©": 160,
      "st": 161,
      "Ġta": 162,
      "Ġva": 163,
      "Ġve": 164,
      "Ġky": 165,
      "Ġni": 166,
      "Ġku": 167,
      "ĠvÃ¡": 168,
      "Ġro": 169,
      "Ġsl": 170,
      "Ġu": 171,
      "Ġlo": 172,
      "Ġkd": 173,
      "ĠtÄĽ": 174,
      "ĠvÄĽ": 175,
      "ĠtÃŃ": 176,
      "Ġde": 177,
      "ĠÅ¡e": 178,
      "ĠvÅ¡": 179,
      "ĠÄįe": 180,
      "Ġsk": 181,
      "Ġdu": 182,
      "Ġvy": 183,
      "Ġmu": 184,
      "Ġ6": 185,
      "Ġvo": 186,
      "ĠvÃŃ": 187,
      "ÅĻÃŃ": 188,
      "Ġ12": 189,
      "Ġnou": 190,
      "ĠdÄĽ": 191,
      "Ġmo": 192,
      "Ġjak": 193,
      "ĠdÃŃ": 194,
      "Ġci": 195,
      "Ġjs": 196,
      "Ġ18": 197,
      "Ġtv": 198,
      "ĠdÃ¡": 199,
      "Ġze": 200,
      "ĠcÃŃ": 201,
      "Ġtu": 202,
      "Ġpa": 203,
      "Ġme": 204,
      "Ġnu": 205,
      "Ġda": 206,
      "Ġja": 207,
      "il": 208,
      "ĠmÄĽ": 209,
      "Ġru": 210,
      "Ġbo": 211,
      "Ġpro": 212,
      "Ġvz": 213,
      "Ġny": 214,
      "Ġma": 215,
      "ĠÅ¡ÃŃ": 216,
      "Ġbe": 217,
      "ĠAB": 218,
      "Ã½ch": 219,
      "Ġsta": 220,
      "00": 221,
      "ĠÄįÃŃ": 222,
      "Ġ1900": 223,
      "Ġsp": 224,
      "ĠÅĻe": 225,
      "ne": 226,
      "Ġjen": 227,
      "Å¥": 228,
      "ĠmÃ¡": 229,
      "XXXX": 230,
      "ĠlÃŃ": 231,
      "Ġvi": 232,
      "vÄĽ": 233,
      "Ġdi": 234,
      "lo": 235,
      "XA": 236,
      "Ġly": 237,
      "Ġ13": 238,
      "Ġsti": 239,
      "Ġty": 240,
      "Ġra": 241,
      "Ġco": 242,
      "ĠpÅĻe": 243,
      "ĠlÃ¡": 244,
      "Ġsi": 245,
      "ÅĻi": 246,
      "Ġdy": 247,
      "ĠkÃ¡": 248,
      "lÃ¡": 249,
      "ĠÅĻÃŃ": 250,
      "Ġkdy": 251,
      "ĠÅ¾i": 252,
      "Ġbu": 253,
      "ĠÅ¾ÃŃ": 254,
      "Ġi": 255,
      "li": 256,
      "ĠABAB": 257,
      "Ġsn": 258,
      "ru": 259,
      "ĠÄįi": 260,
      "ĠrÃ¡": 261,
      "ĠvÃ½": 262,
      "ĠvÅ¡e": 263,
      "Ġzd": 264,
      "ĠA": 265,
      "Ġsm": 266,
      "80": 267,
      "Ġ1880": 268,
      "ĠmÃŃ": 269,
      "ĠstÃŃ": 270,
      "ĠbÄĽ": 271,
      "Ġha": 272,
      "20": 273,
      "Ġzv": 274,
      "Ġhla": 275,
      "ĠXXXX": 276,
      "ĠvÃ©": 277,
      "lu": 278,
      "ĠsÃŃ": 279,
      "ĠkrÃ¡": 280,
      "nÄĽ": 281,
      "ĠsvÄĽ": 282,
      "ĠtÃ¡": 283,
      "Ġtak": 284,
      "Ã½m": 285,
      "Äı": 286,
      "Ġsa": 287,
      "ĠÃ": 288,
      "Ġkou": 289,
      "ĠzÃ¡": 290,
      "Ġ1920": 291,
      "Ġjsem": 292,
      "Ġba": 293,
      "ĠÅ¡i": 294,
      "ÅĪ": 295,
      "ĠtÃ©": 296,
      "ĠkÃ©": 297,
      "Ġlu": 298,
      "lÃŃ": 299,
      "ĠlÃ©": 300,
      "Ġpe": 301,
      "ĠpÅĻi": 302,
      "Ġsy": 303,
      "Ġhu": 304,
      "Ġhle": 305,
      "Ġpr": 306,
      "ĠkdyÅ¾": 307,
      "Ġmy": 308,
      "Ġtr": 309,
      "vÃŃ": 310,
      "Ġkr": 311,
      "Ġvs": 312,
      "Å¯j": 313,
      "ĠjÃ¡": 314,
      "rd": 315,
      "Ġvt": 316,
      "Ġ5": 317,
      "ĠAAB": 318,
      "Ġchu": 319,
      "Ġpra": 320,
      "Ġvu": 321,
      "ĠpÃŃ": 322,
      "ĠkÅ¯": 323,
      "Ġod": 324,
      "Ġvp": 325,
      "ĠnÃ½ch": 326,
      "ĠsvÃ©": 327,
      "Ġsla": 328,
      "Ġzp": 329,
      "ĠhÃ¡": 330,
      "Ġzn": 331,
      "Ġsu": 332,
      "ĠÅĻi": 333,
      "ĠzÃŃ": 334,
      "Ġcho": 335,
      "ĠvÅ¡ak": 336,
      "Ġry": 337,
      "ĠXA": 338,
      "ĠbÃŃ": 339,
      "Ġroz": 340,
      "Ġkem": 341,
      "lou": 342,
      "Ġsto": 343,
      "ĠstÃ¡": 344,
      "ĠkÃ½": 345,
      "ĠpÃ¡": 346,
      "Ġten": 347,
      "Ġkde": 348,
      "Ġval": 349,
      "al": 350,
      "ĠAABB": 351,
      "ĠlÃ½": 352,
      "Ġtam": 353,
      "te": 354,
      "Ġhy": 355,
      "Ġso": 356,
      "Ġf": 357,
      "ĠpÄĽ": 358,
      "Ġsrd": 359,
      "Ġbi": 360,
      "ĠjiÅ¾": 361,
      "40": 362,
      "Ġste": 363,
      "Ġvd": 364,
      "ĠsÃ¡": 365,
      "ĠÃº": 366,
      "Ġre": 367,
      "ĠÄįa": 368,
      "Ġbyl": 369,
      "Ġtou": 370,
      "lÃ©": 371,
      "ĠpÅĻÃŃ": 372,
      "ĠXAXA": 373,
      "Ġtem": 374,
      "Ġnad": 375,
      "ĠjeÅ¾": 376,
      "ĠnÃ½m": 377,
      "ĠvÅ¾": 378,
      "Ġpu": 379,
      "Ġslu": 380,
      "no": 381,
      "Ġdou": 382,
      "Ġbou": 383,
      "ĠmÃ©": 384,
      "Ġpla": 385,
      "Ġlem": 386,
      "tÄĽ": 387,
      "dy": 388,
      "Ġe": 389,
      "ĠnÃŃm": 390,
      "Ġvla": 391,
      "Ġvou": 392,
      "ĠtÃ½": 393,
      "Ġcha": 394,
      "Ġbra": 395,
      "ĠdÃ©": 396,
      "ĠbÃ¡": 397,
      "nÃŃ": 398,
      "Ġkla": 399,
      "Ġden": 400,
      "ĠdÃ½": 401,
      "Ġzas": 402,
      "Ġzra": 403,
      "ĠlÃ¡s": 404,
      "Ġslo": 405,
      "CC": 406,
      "Ġvk": 407,
      "ĠkvÄĽ": 408,
      "Ġzm": 409,
      "Ġkte": 410,
      "Ġzb": 411,
      "Ġpak": 412,
      "Ġpl": 413,
      "Ġg": 414,
      "Ġdra": 415,
      "Ġkdo": 416,
      "Ġhou": 417,
      "Ġbez": 418,
      "ĠvÅ¾dy": 419,
      "Ġkle": 420,
      "ĠÄįer": 421,
      "ad": 422,
      "Ġzi": 423,
      "Ġzla": 424,
      "Ġpod": 425,
      "Ġsou": 426,
      "ĠnÃ¡m": 427,
      "Ġhro": 428,
      "ĠchÃ¡": 429,
      "Ġ15": 430,
      "ĠjenÅ¾": 431,
      "Ġdv": 432,
      "Ġsem": 433,
      "Ġ14": 434,
      "Ġjich": 435,
      "Ġmne": 436,
      "Ġlou": 437,
      "ĠaÅ¾": 438,
      "ĠXXXXXX": 439,
      "Ġpou": 440,
      "60": 441,
      "me": 442,
      "ni": 443,
      "Ġjest": 444,
      "Å¯m": 445,
      "ĠtvÃ¡": 446,
      "ĠÃ³": 447,
      "ĠpÅĻed": 448,
      "Ġdla": 449,
      "ĠÅ¡el": 450,
      "ĠdÄĽl": 451,
      "Ġdne": 452,
      "Ġstu": 453,
      "ĠrÅ¯": 454,
      "Ġsle": 455,
      "Ġhr": 456,
      "Ġspo": 457,
      "ce": 458,
      "Ġ4": 459,
      "Ġjed": 460,
      "Ġkv": 461,
      "Ġhra": 462,
      "ĠprÃ¡": 463,
      "Ġpi": 464,
      "Ġchy": 465,
      "Ġvr": 466,
      "ĠteÄı": 467,
      "ĠjeÅ¡": 468,
      "Ġzt": 469,
      "Ġbla": 470,
      "ly": 471,
      "Ġdr": 472,
      "Ġzo": 473,
      "Ġvm": 474,
      "Ġke": 475,
      "Ġnn": 476,
      "Ġsvou": 477,
      "Ġsly": 478,
      "Ġsva": 479,
      "Ġstra": 480,
      "Ġ16": 481,
      "ĠplÃ¡": 482,
      "ĠrÃ©": 483,
      "ĠtÃŃm": 484,
      "ĠbÃ½": 485,
      "Ġvra": 486,
      "ĠskÃ©": 487,
      "ĠnÃ©m": 488,
      "ĠuÅ¾": 489,
      "ĠmÅ¯": 490,
      "je": 491,
      "Ġsvo": 492,
      "ĠkaÅ¾": 493,
      "Ġvzd": 494,
      "Ġ1940": 495,
      "Ġjej": 496,
      "Ġzu": 497,
      "ĠtÅĻe": 498,
      "Ġnem": 499,
      "Ġdem": 500,
      "Ġjsou": 501,
      "Ġbr": 502,
      "Ġkra": 503,
      "Ġdru": 504,
      "Ġvst": 505,
      "ĠtvÃ©": 506,
      "BA": 507,
      "Ġlid": 508,
      "Ġon": 509,
      "ĠmÅ¯j": 510,
      "Ġvh": 511,
      "Ġjsi": 512,
      "Ġzk": 513,
      "ĠvÅ¯": 514,
      "Ġhe": 515,
      "Ġble": 516,
      "Ġzem": 517,
      "Ġdal": 518,
      "Ġkli": 519,
      "vÄĽz": 520,
      "ĠvÅ¡ech": 521,
      "Ġjd": 522,
      "ĠrÃ½": 523,
      "ĠstÄĽ": 524,
      "ĠmnÄĽ": 525,
      "Ġvel": 526,
      "Ġvl": 527,
      "Ġsnad": 528,
      "Ġnech": 529,
      "Ġzy": 530,
      "ĠhvÄĽz": 531,
      "Ġzde": 532,
      "ĠstvÃŃ": 533,
      "ĠsvÄĽt": 534,
      "ĠÅ¾Ã¡": 535,
      "ĠhÃ½": 536,
      "Ġrou": 537,
      "Ġstr": 538,
      "Ġvb": 539,
      "ĠsÃ¡m": 540,
      "ĠABBA": 541,
      "lÃ½": 542,
      "Ġtvo": 543,
      "Ġjem": 544,
      "Ġpt": 545,
      "Ġzh": 546,
      "Ġstro": 547,
      "Ġbych": 548,
      "ĠneÅ¾": 549,
      "Ġslun": 550,
      "Ġnej": 551,
      "Ġdnes": 552,
      "Ġ1860": 553,
      "ÅĻÃ¡": 554,
      "ĠnÅ¯": 555,
      "Ġmra": 556,
      "ĠvÃ¡m": 557,
      "Ġmr": 558,
      "ĠsnÃŃ": 559,
      "ĠdÃ¡l": 560,
      "ĠtÅ¯": 561,
      "Ġ1840": 562,
      "Ġzvo": 563,
      "Ġtra": 564,
      "ĠvÅ¡ec": 565,
      "Ġkro": 566,
      "Ġmou": 567,
      "ĠchvÃŃ": 568,
      "ĠaÅ¥": 569,
      "ĠstÅĻe": 570,
      "ĠbÅ¯": 571,
      "Ġstv": 572,
      "Ġtil": 573,
      "Ġnost": 574,
      "ĠnÃ¡s": 575,
      "Ġkol": 576,
      "Ġsh": 577,
      "Ġdle": 578,
      "ĠcÃŃch": 579,
      "Ġpy": 580,
      "ĠAA": 581,
      "Ġtel": 582,
      "ĠzpÄĽ": 583,
      "Ġnul": 584,
      "ĠkrÃ¡s": 585,
      "ĠhÃ©": 586,
      "Ġvot": 587,
      "Ġdn": 588,
      "ĠkÅĻÃŃ": 589,
      "ut": 590,
      "Ġtro": 591,
      "Ġmla": 592,
      "Ġdlou": 593,
      "Ġchem": 594,
      "ĠvÄĽÄį": 595,
      "Ġob": 596,
      "Ġvzp": 597,
      "ĠchvÄĽ": 598,
      "Ġvat": 599,
      "Ġjsme": 600,
      "Ġstou": 601,
      "ĠmÄĽl": 602,
      "ĠzÅĻÃŃ": 603,
      "Ġrem": 604,
      "Ġhlu": 605,
      "Ġtm": 606,
      "ĠlÅ¯": 607,
      "Ġkam": 608,
      "Ġslad": 609,
      "sk": 610,
      "ĠdÅ¯": 611,
      "ĠznÃ¡": 612,
      "Ġneb": 613,
      "Ġsmr": 614,
      "Ġvil": 615,
      "ĠvÅĻe": 616,
      "ĠzdÃ¡": 617,
      "Ġnes": 618,
      "ĠptÃ¡": 619,
      "Ġmno": 620,
      "Ġnic": 621,
      "Ġtom": 622,
      "ĠchtÄĽ": 623,
      "Ġsli": 624,
      "Ġsty": 625,
      "ĠÅ¡tÄĽ": 626,
      "Ġjas": 627,
      "Ġnik": 628,
      "Ġvem": 629,
      "Ġdl": 630,
      "Ġjim": 631,
      "Ġmat": 632,
      "ĠslÃ¡": 633,
      "Ġhlas": 634,
      "Ġdil": 635,
      "ĠtÅĻÃŃ": 636,
      "ĠsvÃŃ": 637,
      "Ġml": 638,
      "Ġsil": 639,
      "Ġpoz": 640,
      "ĠbÅ¯h": 641,
      "ĠkvÄĽt": 642,
      "ĠvrÃ¡": 643,
      "Ġju": 644,
      "ĠvÃ½ch": 645,
      "ĠvÃŃc": 646,
      "Ġtla": 647,
      "Ġtek": 648,
      "ĠÄįas": 649,
      "Ġchv": 650,
      "Ġmen": 651,
      "ĠvÃŃm": 652,
      "nou": 653,
      "Ġklo": 654,
      "Ġnez": 655,
      "ĠskÃ¡": 656,
      "Äįe": 657,
      "ĠÅ¡le": 658,
      "ĠblÃŃ": 659,
      "Ġsud": 660,
      "Ġmlu": 661,
      "Ġzlo": 662,
      "Ġmoc": 663,
      "Ġspa": 664,
      "Ġzrak": 665,
      "ĠbÅĻe": 666,
      "Ġsen": 667,
      "sÅ¥": 668,
      "Ġzda": 669,
      "Ġdost": 670,
      "Ġks": 671,
      "Ġchla": 672,
      "ĠdÅĻÃŃ": 673,
      "ĠsvÅ¯j": 674,
      "Ġdiv": 675,
      "ĠÅ¾il": 676,
      "Ġsko": 677,
      "Ġvpo": 678,
      "ĠleÄį": 679,
      "Ġzve": 680,
      "Ġkre": 681,
      "nÃ¡": 682,
      "ĠXX": 683,
      "ĠbrÃ¡": 684,
      "Ġven": 685,
      "Ġsb": 686,
      "ĠsmÄĽ": 687,
      "ĠnÄĽj": 688,
      "Ġhne": 689,
      "ĠÄįek": 690,
      "ĠsmÃŃ": 691,
      "Ġvto": 692,
      "Ġnek": 693,
      "Ġple": 694,
      "ĠvlÃ¡": 695,
      "Ġdli": 696,
      "ĠkÃ½ch": 697,
      "ĠpÃŃs": 698,
      "Ã¡t": 699,
      "ĠpÅ¯": 700,
      "ĠtÃ©Å¾": 701,
      "ĠÄįlo": 702,
      "ĠtvÅ¯j": 703,
      "ĠvÃ½m": 704,
      "ĠskÃ½": 705,
      "ĠAABBCC": 706,
      "ĠÅ¡u": 707,
      "ĠÅ¾a": 708,
      "Ġmar": 709,
      "Ġhned": 710,
      "Ġtru": 711,
      "ĠkÅĻi": 712,
      "ĠkrÃ¡t": 713,
      "Ġan": 714,
      "ĠspÄĽ": 715,
      "ĠsvÃ½ch": 716,
      "ĠvnÄĽ": 717,
      "Ġsmut": 718,
      "ĠÅĪ": 719,
      "ĠstÃ©": 720,
      "ĠseÅĪ": 721,
      "Ġkal": 722,
      "Ġles": 723,
      "ĠAAXX": 724,
      "Ġchce": 725,
      "Ġlet": 726,
      "ĠsÅ¯": 727,
      "Ġdech": 728,
      "ĠÅ¡li": 729,
      "Ġach": 730,
      "Ġklid": 731,
      "Ãº": 732,
      "ĠmÃ¡m": 733,
      "Ġnoc": 734,
      "Ġskr": 735,
      "or": 736,
      "Ġcem": 737,
      "Ġzvu": 738,
      "ĠproÄį": 739,
      "ĠsnÄĽ": 740,
      "ĠhrÃ¡": 741,
      "ĠbuÄı": 742,
      "tÃŃ": 743,
      "ĠnÃ¡Å¡": 744,
      "Ġrod": 745,
      "Ġvle": 746,
      "ĠtÄĽch": 747,
      "ĠÄįÃŃm": 748,
      "Ġhem": 749,
      "ĠjÃŃm": 750,
      "ich": 751,
      "ĠnÃŃk": 752,
      "Ġnom": 753,
      "ĠvÃ¡s": 754,
      "ĠsvÃ½m": 755,
      "ĠvÄĽk": 756,
      "Ġsled": 757,
      "Ġnil": 758,
      "Ġri": 759,
      "ĠdÃŃm": 760,
      "ĠrÃ¡d": 761,
      "ĠÅ¡ÃŃm": 762,
      "Ġsvi": 763,
      "ĠpÅĻec": 764,
      "Ġkru": 765,
      "ĠtÄĽÅ¾": 766,
      "ĠÅ¡la": 767,
      "ĠcÅ¯": 768,
      "Ġkrev": 769,
      "Ġvni": 770,
      "ĠspÃŃ": 771,
      "ĠknÄĽ": 772,
      "ĠzvÄĽ": 773,
      "ĠslÃŃ": 774,
      "Ġdlo": 775,
      "Ã¡l": 776,
      "Ġnec": 777,
      "Ġsch": 778,
      "at": 779,
      "Ġvtom": 780,
      "Ġzje": 781,
      "Ġkry": 782,
      "Ġnout": 783,
      "ĠÅ¥": 784,
      "ĠpÅĻÃ¡": 785,
      "ĠvÃ¡Å¡": 786,
      "ĠnÃŃch": 787,
      "ci": 788,
      "nu": 789,
      "Ġkne": 790,
      "Ġot": 791,
      "ste": 792,
      "Ġhor": 793,
      "ĠÄįil": 794,
      "ĠzÅĻe": 795,
      "ĠznÃŃ": 796,
      "Ġjste": 797,
      "ĠhÅĻÃŃ": 798,
      "ĠbÃ½t": 799,
      "Ġpad": 800,
      "Ġfa": 801,
      "ĠzpÃŃ": 802,
      "ĠkÃ½m": 803,
      "Ġprv": 804,
      "Ġtva": 805,
      "ĠpÅĻes": 806,
      "ĠABABCC": 807,
      "ĠmÃ½": 808,
      "Ġprav": 809,
      "Ġdro": 810,
      "ĠÅ¾en": 811,
      "ĠvnÄĽm": 812,
      "Ġjde": 813,
      "ĠdÃ¡v": 814,
      "Ġbro": 815,
      "Ġslou": 816,
      "ĠnÄĽm": 817,
      "Ġkl": 818,
      "ĠÅĻil": 819,
      "Ġpil": 820,
      "ĠtÅĻi": 821,
      "Ġvlast": 822,
      "ĠspÃ¡": 823,
      "Ġzou": 824,
      "Ġvdu": 825,
      "Ġus": 826,
      "ĠstrÃ¡": 827,
      "Ġvol": 828,
      "ĠchÃ½": 829,
      "ĠstÅĻÃŃ": 830,
      "Ġvje": 831,
      "Ġnal": 832,
      "Ġhled": 833,
      "Ġslav": 834,
      "ĠmuÅ¾": 835,
      "Ġprou": 836,
      "Ġkm": 837,
      "Ġlen": 838,
      "AX": 839,
      "ĠskÃ½ch": 840,
      "Ġkp": 841,
      "Ġbes": 842,
      "ĠchtÄĽl": 843,
      "Ġdej": 844,
      "ĠvÄįe": 845,
      "as": 846,
      "AA": 847,
      "Ġduch": 848,
      "Ã©m": 849,
      "ĠdÃ¡m": 850,
      "Ġkve": 851,
      "ĠklÃŃ": 852,
      "Ġhl": 853,
      "ĠchrÃ¡": 854,
      "ĠkvÃŃ": 855,
      "Ġdva": 856,
      "ĠhÅ¯": 857,
      "Ġlil": 858,
      "Ġ3": 859,
      "Ġvsrd": 860,
      "ĠABABXX": 861,
      "ĠtvÃ¡ÅĻ": 862,
      "Ġhru": 863,
      "Ġvzpo": 864,
      "ĠmlÃ¡": 865,
      "ĠznÄĽ": 866,
      "Ġkt": 867,
      "Ġ1960": 868,
      "ĠÅ¡k": 869,
      "ĠpÄĽt": 870,
      "Ġtlo": 871,
      "ĠstÃ½": 872,
      "ar": 873,
      "Ġlost": 874,
      "ĠnÄĽk": 875,
      "ĠdÄĽt": 876,
      "ĠvÄĽr": 877,
      "ĠdÃŃv": 878,
      "ĠkrÃ¡l": 879,
      "ĠvÅ¾dyÅ¥": 880,
      "ĠpÃ¡n": 881,
      "ĠnÃ¡ch": 882,
      "Ġvne": 883,
      "ĠvzÃ¡": 884,
      "ĠtÃ½ch": 885,
      "Ġoh": 886,
      "ĠdeÅ¡": 887,
      "ĠvÃ©m": 888,
      "Ġ17": 889,
      "ĠlÃ½ch": 890,
      "Ġvod": 891,
      "ĠdlÃŃ": 892,
      "ĠhnÄĽ": 893,
      "ĠkÃ©m": 894,
      "ĠchÅ¯": 895,
      "ĠsvÃ¡": 896,
      "ĠtrÃ¡": 897,
      "Ġvzdu": 898,
      "Ġkni": 899,
      "Ġmnou": 900,
      "ĠsÃŃc": 901,
      "ĠcÃŃm": 902,
      "Ġkon": 903,
      "Ġrt": 904,
      "ĠmÃŃr": 905,
      "Ġcit": 906,
      "ĠtvÃŃ": 907,
      "ĠÅ¾el": 908,
      "ĠtvÃ½ch": 909,
      "vo": 910,
      "ĠstÃŃn": 911,
      "ĠÅĻÃ¡": 912,
      "Ġps": 913,
      "Ġstal": 914,
      "Ġchlad": 915,
      "ĠkÃ¡ch": 916,
      "Ġzna": 917,
      "ĠklÃ¡": 918,
      "vi": 919,
      "Ġtlu": 920,
      "ĠpÅĻij": 921,
      "ĠÅ¡a": 922,
      "ĠknÃŃ": 923,
      "ĠhlÃŃ": 924,
      "ha": 925,
      "ĠÅ¡Å¥": 926,
      "ech": 927,
      "ĠÅĻa": 928,
      "Ġtma": 929,
      "ast": 930,
      "ĠXXAA": 931,
      "ĠÅĻek": 932,
      "Ġblou": 933,
      "Ġvj": 934,
      "ĠvÅ¡em": 935,
      "ĠzÅ¯": 936,
      "ĠneÄį": 937,
      "ĠdrÃ¡": 938,
      "ĠtÅĻ": 939,
      "Ġchle": 940,
      "ĠjuÅ¾": 941,
      "Ġzel": 942,
      "ĠcoÅ¾": 943,
      "Ġzno": 944,
      "ĠÄįes": 945,
      "Ġplo": 946,
      "Ġsd": 947,
      "Ġvch": 948,
      "ĠneÅ¡": 949,
      "Ġpal": 950,
      "Ġhlou": 951,
      "Ġvno": 952,
      "ĠsvÃ©m": 953,
      "ĠmÃ½ch": 954,
      "Ġpom": 955,
      "CCB": 956,
      "ĠÅ¡tÃŃ": 957,
      "ĠaÄį": 958,
      "Ġstvo": 959,
      "Ġtal": 960,
      "ĠzpÄĽv": 961,
      "Ġct": 962,
      "Ġcy": 963,
      "ĠÄı": 964,
      "Ġrov": 965,
      "Ġ1820": 966,
      "ĠsmÃŃch": 967,
      "Ġzpo": 968,
      "Ġtys": 969,
      "Ġbys": 970,
      "ĠhÅĻ": 971,
      "ĠstÃ¡l": 972,
      "Ġsni": 973,
      "Ġsne": 974,
      "ve": 975,
      "ĠnnÃŃ": 976,
      "ĠAXA": 977,
      "ĠAABCCB": 978,
      "ĠpÃ½": 979,
      "ĠhlÃ©": 980,
      "ĠzrÃ¡": 981,
      "ABB": 982,
      "Ġleh": 983,
      "ĠvdÄĽ": 984,
      "Ġbal": 985,
      "vÃ¡": 986,
      "ĠvlÃŃ": 987,
      "ĠÅ¾eh": 988,
      "Ġchci": 989,
      "Ġtec": 990,
      "ĠjÃŃc": 991,
      "Ã³": 992,
      "Å¡Å¥": 993,
      "ĠvÃ¡n": 994,
      "na": 995,
      "ĠÃºs": 996,
      "Ġjo": 997,
      "ĠÅ¡p": 998,
      "Ġsmrt": 999,
      "ĠkÅĻe": 1000,
      "Ġkz": 1001,
      "ĠvnÃŃ": 1002,
      "ĠdÃ½m": 1003,
      "Ġpan": 1004,
      "Ġhod": 1005,
      "ĠÅ¾al": 1006,
      "ĠlÃ©m": 1007,
      "ĠXAAX": 1008,
      "ĠhlÃ¡": 1009,
      "Ġpru": 1010,
      "ĠÄįem": 1011,
      "ĠnnÃ©": 1012,
      "ĠdvÄĽ": 1013,
      "Ġskou": 1014,
      "Ġbles": 1015,
      "Ġzle": 1016,
      "Ġstat": 1017,
      "Ġves": 1018,
      "ĠchvÃ¡": 1019,
      "ĠskrÃ¡": 1020,
      "Ġvbo": 1021,
      "Ġbil": 1022,
      "ĠhrÅ¯": 1023,
      "Ġzr": 1024,
      "Ġplu": 1025,
      "Ġsed": 1026,
      "Ġlek": 1027,
      "ĠzÃ¡ÅĻ": 1028,
      "Ġhrad": 1029,
      "ĠÅ¡ep": 1030,
      "Ġdce": 1031,
      "ĠvdÃ¡l": 1032,
      "Ġvro": 1033,
      "Ġtk": 1034,
      "Ġlest": 1035,
      "Ġdvo": 1036,
      "va": 1037,
      "Ġnit": 1038,
      "ĠlÃ½m": 1039,
      "ĠtÃ¡h": 1040,
      "ĠÅĪa": 1041,
      "ĠÅĻÃŃm": 1042,
      "Ġlik": 1043,
      "Ġvti": 1044,
      "Ġtes": 1045,
      "Ġlov": 1046,
      "Ġvza": 1047,
      "Ġstem": 1048,
      "ĠdÄĽj": 1049,
      "ĠzpÄĽt": 1050,
      "Ġmd": 1051,
      "Ġchal": 1052,
      "Ġboj": 1053,
      "ĠÄįel": 1054,
      "Ġchou": 1055,
      "Ġvoj": 1056,
      "Ġzbo": 1057,
      "Ġskry": 1058,
      "ĠzmÄĽ": 1059,
      "Ġy": 1060,
      "ĠvÅ¡u": 1061,
      "Ġmem": 1062,
      "Ġvzh": 1063,
      "Ġhlo": 1064,
      "Ġtvou": 1065,
      "Ġkdys": 1066,
      "Ġdar": 1067,
      "ĠzÅĻel": 1068,
      "ĠslyÅ¡": 1069,
      "Ġvrou": 1070,
      "Ġsr": 1071,
      "ĠdÅĻÃŃv": 1072,
      "Ġstej": 1073,
      "ĠÅ¾Ã¡d": 1074,
      "Ġkto": 1075,
      "Ġsvit": 1076,
      "Ġfi": 1077,
      "Ġvmo": 1078,
      "Ġtech": 1079,
      "ĠprÃ½": 1080,
      "Ġzro": 1081,
      "Ġcen": 1082,
      "ĠvÃŃÅ¡": 1083,
      "en": 1084,
      "Ġpev": 1085,
      "vÃ©": 1086,
      "Ġhroz": 1087,
      "Ġdly": 1088,
      "ĠhvÄĽzd": 1089,
      "Ġtry": 1090,
      "Ġkme": 1091,
      "ĠÅ¡Å¥ast": 1092,
      "Å¾i": 1093,
      "Ġman": 1094,
      "ĠmÅĻe": 1095,
      "ĠsnÃ¡": 1096,
      "Ġkraj": 1097,
      "ĠÅ¾Ã¡r": 1098,
      "ĠjÃŃt": 1099,
      "Ġsna": 1100,
      "Ġper": 1101,
      "ĠtÄĽz": 1102,
      "ĠsÃŃm": 1103,
      "Ġska": 1104,
      "ĠchÃ©": 1105,
      "Ġtit": 1106,
      "ĠtoÅ¥": 1107,
      "ĠmÃ¡Å¡": 1108,
      "ĠÅ¾o": 1109,
      "ĠkÅ¯m": 1110,
      "Ġpoj": 1111,
      "ĠsnÃŃm": 1112,
      "Ġjdou": 1113,
      "Ġral": 1114,
      "ĠkÃ¡m": 1115,
      "Ġvit": 1116,
      "Ġznich": 1117,
      "Ġkat": 1118,
      "ĠvtÃ©": 1119,
      "Ġth": 1120,
      "Ġvnich": 1121,
      "ĠnÄĽl": 1122,
      "ĠvÃº": 1123,
      "Ġvru": 1124,
      "ĠtrÅ¯": 1125,
      "Ġdit": 1126,
      "ĠÄįen": 1127,
      "Ġtan": 1128,
      "Ġkri": 1129,
      "ĠbÃ¡s": 1130,
      "Ġtl": 1131,
      "ĠvÅ¡ÃŃ": 1132,
      "Ġchod": 1133,
      "Ġcu": 1134,
      "ĠboÅ¾": 1135,
      "ĠdlÃ©": 1136,
      "Ġjm": 1137,
      "Ġzdo": 1138,
      "Ġzl": 1139,
      "Ġhrob": 1140,
      "ĠzvÃŃ": 1141,
      "Ġdat": 1142,
      "Ġlal": 1143,
      "ĠÅ¾ha": 1144,
      "Ġbar": 1145,
      "ĠtÃ©m": 1146,
      "ĠÅ¡ÃŃch": 1147,
      "ĠsnÅ¯": 1148,
      "Ġztra": 1149,
      "Ġca": 1150,
      "ĠrÃ½ch": 1151,
      "Ġply": 1152,
      "Ġstva": 1153,
      "ĠblÃ¡": 1154,
      "Ġvan": 1155,
      "ĠÅ¾ÃŃm": 1156,
      "ĠteÄį": 1157,
      "ĠÅ¡ich": 1158,
      "Ġzmi": 1159,
      "ĠÄįet": 1160,
      "Ġvpra": 1161,
      "Ġpot": 1162,
      "ej": 1163,
      "ĠprÃ¡z": 1164,
      "Ġmoh": 1165,
      "ĠÅ¡lÃ©": 1166,
      "mu": 1167,
      "ĠdÃŃÅ¡": 1168,
      "Ġok": 1169,
      "Ġhal": 1170,
      "Ġbem": 1171,
      "Ġ2": 1172,
      "Ġtvr": 1173,
      "Ġcos": 1174,
      "Ġvko": 1175,
      "ĠnechÅ¥": 1176,
      "Ġsyn": 1177,
      "Ġnich": 1178,
      "Ġzal": 1179,
      "Ġbol": 1180,
      "ĠmoÅ¾": 1181,
      "Ġsbo": 1182,
      "Ġtaj": 1183,
      "Ġskal": 1184,
      "Ġblu": 1185,
      "ĠtÄĽl": 1186,
      "ĠmÃŃn": 1187,
      "ĠblÃŃÅ¾": 1188,
      "Ġblo": 1189,
      "Ġzli": 1190,
      "ĠÄįin": 1191,
      "Ġvej": 1192,
      "ĠcÃ½": 1193,
      "Ġzby": 1194,
      "ĠÄįit": 1195,
      "ĠÄįt": 1196,
      "Ġbli": 1197,
      "Ġga": 1198,
      "Ġkb": 1199,
      "Ġvsta": 1200,
      "ĠsklÃ¡": 1201,
      "ĠtÃ½m": 1202,
      "ĠÅ¡il": 1203,
      "ĠsnÃŃh": 1204,
      "Ġret": 1205,
      "Ġdin": 1206,
      "ĠvnÃ¡": 1207,
      "Ġnen": 1208,
      "Ġzor": 1209,
      "Ġge": 1210,
      "ĠdÅ¯m": 1211,
      "Ġjis": 1212,
      "ĠmÃ½m": 1213,
      "Ġjar": 1214,
      "Ġhud": 1215,
      "ĠvÅ¾dyc": 1216,
      "ĠÅĻem": 1217,
      "ĠÅ¾li": 1218,
      "Ġsten": 1219,
      "Ġvdo": 1220,
      "Ġsklo": 1221,
      "ĠjÃŃÅ¾": 1222,
      "Ġchr": 1223,
      "Ġpov": 1224,
      "ĠvstÅĻÃŃ": 1225,
      "Ġstru": 1226,
      "ĠvÄĽt": 1227,
      "ĠvÃ½Å¡": 1228,
      "Ġkud": 1229,
      "Ġdruh": 1230,
      "ĠdlÃ¡": 1231,
      "ĠptÃ¡k": 1232,
      "Ġpoh": 1233,
      "ĠmÄĽv": 1234,
      "Ġver": 1235,
      "ĠhÅĻe": 1236,
      "ĠÄįÃ¡": 1237,
      "ĠÅ¡em": 1238,
      "ĠmÃŃt": 1239,
      "ĠjÃŃch": 1240,
      "Ġled": 1241,
      "Ġvsk": 1242,
      "ĠvtÄĽ": 1243,
      "ĠÅĻit": 1244,
      "Ġsny": 1245,
      "Ġleb": 1246,
      "Ġsel": 1247,
      "ĠzÅĻÃŃm": 1248,
      "rÃ¡z": 1249,
      "Ġvka": 1250,
      "Ġgi": 1251,
      "ĠjejÅ¾": 1252,
      "ĠstÅ¯": 1253,
      "ĠnnÃ½": 1254,
      "ĠjmÃ©": 1255,
      "Ġvzk": 1256,
      "Ġzne": 1257,
      "Ġkh": 1258,
      "Ġsek": 1259,
      "Ġzva": 1260,
      "Ġbraz": 1261,
      "Ġder": 1262,
      "ĠdÄĽs": 1263,
      "Ġvzne": 1264,
      "Ġzvol": 1265,
      "ĠÅ¾ÃŃt": 1266,
      "Ġstech": 1267,
      "ĠÅ¾it": 1268,
      "Ġzen": 1269,
      "ĠvstÅĻÃŃc": 1270,
      "ĠÅĻÃ¡d": 1271,
      "ĠnnÄĽ": 1272,
      "ĠÅ¡lo": 1273,
      "Ġsho": 1274,
      "ĠÄįÃŃch": 1275,
      "Ġlk": 1276,
      "ĠruÄį": 1277,
      "ja": 1278,
      "Ġjel": 1279,
      "Ġkmi": 1280,
      "Ġhli": 1281,
      "Ġjin": 1282,
      "ĠÅ¡ko": 1283,
      "Ġvzal": 1284,
      "ĠnuÅ¾": 1285,
      "Ġjal": 1286,
      "ĠdÃ½ch": 1287,
      "Ġvna": 1288,
      "ĠpÅ¯l": 1289,
      "Ġkdes": 1290,
      "ĠvÃ¡Å¾": 1291,
      "ĠXAXAXX": 1292,
      "Ġnev": 1293,
      "ĠstÃŃm": 1294,
      "Ġzvuk": 1295,
      "Ġvho": 1296,
      "er": 1297,
      "Ġor": 1298,
      "ĠdÄĽv": 1299,
      "Ġzjev": 1300,
      "Ġsku": 1301,
      "Ġas": 1302,
      "ĠvÄį": 1303,
      "Ġmrak": 1304,
      "Ġslov": 1305,
      "ĠvÅ¾i": 1306,
      "Ġvze": 1307,
      "ĠvsvÄĽ": 1308,
      "Ġdve": 1309,
      "Ġtis": 1310,
      "ĠsÃ½": 1311,
      "ĠnÄĽÅ¾": 1312,
      "Ġou": 1313,
      "Ġdel": 1314,
      "ĠpouÅ¡": 1315,
      "ĠpÄĽk": 1316,
      "Ġzved": 1317,
      "ĠAXAX": 1318,
      "ĠtÅĻÃ¡": 1319,
      "ĠhoÅ¾": 1320,
      "Ġzbra": 1321,
      "ĠzlÃ©": 1322,
      "Ġchra": 1323,
      "ĠknÃ¡": 1324,
      "ĠÅ¡len": 1325,
      "ĠpÅ¯j": 1326,
      "ĠmeÄį": 1327,
      "ĠjÅ¯": 1328,
      "ĠÅĻeÄį": 1329,
      "ĠsvÃ½": 1330,
      "Ġsmy": 1331,
      "ĠrÃ©m": 1332,
      "ĠtÄĽm": 1333,
      "ĠhleÄı": 1334,
      "Ġvlas": 1335,
      "Ġzdvi": 1336,
      "ĠÄįest": 1337,
      "ĠvlÃ¡d": 1338,
      "Ġkrok": 1339,
      "ĠhruÄı": 1340,
      "Ġkost": 1341,
      "Ġvpr": 1342,
      "Ġzvy": 1343,
      "Ġvzte": 1344,
      "Ġhej": 1345,
      "ĠÃŃ": 1346,
      "Ġstli": 1347,
      "Ġkot": 1348,
      "ĠpÃ©": 1349,
      "Ġpat": 1350,
      "Ġrek": 1351,
      "Ġvlo": 1352,
      "Ġnat": 1353,
      "ĠdÅĻe": 1354,
      "py": 1355,
      "ĠvzhÅ¯": 1356,
      "ĠhÅĻm": 1357,
      "Ġol": 1358,
      "Ġkva": 1359,
      "ĠÅ¡t": 1360,
      "ĠslÃ©": 1361,
      "ĠÅ¥a": 1362,
      "ĠtoÅ¾": 1363,
      "ĠÅ¡um": 1364,
      "ĠliÅ¡": 1365,
      "Ġpor": 1366,
      "ĠvÃ¡l": 1367,
      "ÅĪa": 1368,
      "Ġzdra": 1369,
      "Ġdob": 1370,
      "Ġlist": 1371,
      "ĠzlÃŃ": 1372,
      "Ġpar": 1373,
      "ĠtÅĻpy": 1374,
      "Ġkoj": 1375,
      "ĠkÅĻÃŃÅ¾": 1376,
      "Ġstup": 1377,
      "Ġum": 1378,
      "Ġproud": 1379,
      "Ġklad": 1380,
      "ĠrÃ½m": 1381,
      "ĠskrÃ½": 1382,
      "Ġaj": 1383,
      "Ġsal": 1384,
      "Ġzim": 1385,
      "Ġvzduch": 1386,
      "Ġgo": 1387,
      "ĠzmÃŃ": 1388,
      "Ġcel": 1389,
      "ĠvÄĽz": 1390,
      "Ġtre": 1391,
      "ĠdÃ©m": 1392,
      "Ġblesk": 1393,
      "bi": 1394,
      "ĠztrÃ¡": 1395,
      "ĠkÅĻik": 1396,
      "ĠÅ¾lu": 1397,
      "Ġnel": 1398,
      "ĠzÃ½": 1399,
      "Ġtle": 1400,
      "XB": 1401,
      "ĠvÅ¡ich": 1402,
      "ĠstÃ¡t": 1403,
      "Ġlej": 1404,
      "ÅĻa": 1405,
      "Ġhly": 1406,
      "Ġkles": 1407,
      "Ã¡m": 1408,
      "ĠbÃŃd": 1409,
      "Ġdlit": 1410,
      "ĠÅ¾iv": 1411,
      "ĠbÅĻÃŃ": 1412,
      "ABAB": 1413,
      "Ġrak": 1414,
      "Ġkze": 1415,
      "Ġsme": 1416,
      "ĠhoÅĻ": 1417,
      "ĠÅ¡ek": 1418,
      "ĠzvÃ¡": 1419,
      "Ġnav": 1420,
      "ĠkdoÅ¾": 1421,
      "Ġvli": 1422,
      "ĠvÄĽn": 1423,
      "Ġss": 1424,
      "Ġpout": 1425,
      "ĠskvÄĽ": 1426,
      "ĠprÅ¯": 1427,
      "Ġmal": 1428,
      "Ġhoj": 1429,
      "ĠskÃ½m": 1430,
      "Ġvpa": 1431,
      "Ġlas": 1432,
      "Ġfra": 1433,
      "Ġov": 1434,
      "Ġvslu": 1435,
      "Ġhnu": 1436,
      "Ġstil": 1437,
      "ĠheÅĪ": 1438,
      "ĠmÅĻÃŃ": 1439,
      "ĠtvÃ½m": 1440,
      "Ġset": 1441,
      "Ġnaj": 1442,
      "Ġsmu": 1443,
      "ĠÅĻen": 1444,
      "Ġstrom": 1445,
      "Ġbuj": 1446,
      "ĠpuÅ¡": 1447,
      "Ġal": 1448,
      "Ġples": 1449,
      "ĠnÄĽn": 1450,
      "ĠchlÃ©": 1451,
      "Ġspi": 1452,
      "Ġnno": 1453,
      "Ġhan": 1454,
      "ĠbÃ©": 1455,
      "Ġhlad": 1456,
      "Ġbd": 1457,
      "ĠbouÅĻ": 1458,
      "Ġskle": 1459,
      "ĠhÃ½ch": 1460,
      "ĠmÄĽk": 1461,
      "ĠknÃ¡m": 1462,
      "Ġtli": 1463,
      "Ġzka": 1464,
      "ĠÃ¡": 1465,
      "Ġdav": 1466,
      "ĠnaÄį": 1467,
      "ĠbrÃ½": 1468,
      "ĠdÃ¡t": 1469,
      "ĠdiÄį": 1470,
      "ĠvlÃŃd": 1471,
      "ĠstÅĻed": 1472,
      "ĠÅ¡en": 1473,
      "Ġchvil": 1474,
      "in": 1475,
      "ĠhnÄĽv": 1476,
      "ĠdnÃŃ": 1477,
      "ĠznÃ¡m": 1478,
      "ĠnÃŃÅ¾": 1479,
      "Ġrej": 1480,
      "Ġknu": 1481,
      "ĠhÃ¡d": 1482,
      "Ġvzdech": 1483,
      "Ġprud": 1484,
      "Ġhrom": 1485,
      "Ġvln": 1486,
      "Ġar": 1487,
      "Ġrok": 1488,
      "ĠnoÄį": 1489,
      "Ġpos": 1490,
      "Ġkly": 1491,
      "Ġknou": 1492,
      "nÃŃz": 1493,
      "Ġvec": 1494,
      "Ġstar": 1495,
      "Ġpol": 1496,
      "Ġprach": 1497,
      "Ġzaz": 1498,
      "ĠniÄį": 1499,
      "ĠvdÃ¡": 1500,
      "ĠnÅ¯m": 1501,
      "ĠpÄĽl": 1502,
      "ĠzeÅĪ": 1503,
      "Ġber": 1504,
      "ĠchvÄĽl": 1505,
      "ĠztÄĽ": 1506,
      "Ġpta": 1507,
      "ĠlÃŃm": 1508,
      "Ġdrob": 1509,
      "Ġsoud": 1510,
      "Ġvez": 1511,
      "Ġchmu": 1512,
      "Ġkso": 1513,
      "ĠvÅĻÃŃ": 1514,
      "Ġzni": 1515,
      "ĠvÅ¡i": 1516,
      "ĠmÃ©m": 1517,
      "Ġkno": 1518,
      "ĠÄįÃŃÅ¡": 1519,
      "ĠbrÃ©": 1520,
      "ĠdrÃ©": 1521,
      "Ġzce": 1522,
      "ĠpyÅ¡": 1523,
      "ĠkoÅ¡": 1524,
      "ABBX": 1525,
      "Ġher": 1526,
      "ĠÅ¡et": 1527,
      "ĠÅ¾u": 1528,
      "Ġvsv": 1529,
      "Ġdouc": 1530,
      "ĠvzdÃ¡": 1531,
      "Ġstrach": 1532,
      "ĠzdÃ¡l": 1533,
      "ĠvpÅĻe": 1534,
      "ĠblÃŃz": 1535,
      "ĠskÃ©m": 1536,
      "ĠzdrÃ¡": 1537,
      "Ġrel": 1538,
      "Ġnak": 1539,
      "Ġtly": 1540,
      "Ġctno": 1541,
      "ĠdruÅ¾": 1542,
      "vr": 1543,
      "Ġzvon": 1544,
      "ĠspoÅĪ": 1545,
      "Ġbor": 1546,
      "Ġfe": 1547,
      "ĠbyÅ¥": 1548,
      "ĠlÃŃc": 1549,
      "Å¯r": 1550,
      "Ġklam": 1551,
      "Ġstav": 1552,
      "Ġprs": 1553,
      "Ġdno": 1554,
      "Ġlit": 1555,
      "Ġzma": 1556,
      "ĠdvÃ©": 1557,
      "Ġzbu": 1558,
      "ĠvÄĽc": 1559,
      "ĠzboÅ¾": 1560,
      "Ġzru": 1561,
      "ĠÅ¡at": 1562,
      "Ġvzb": 1563,
      "ĠchrÃ¡m": 1564,
      "Ġtost": 1565,
      "ĠstrÃ½": 1566,
      "Ġned": 1567,
      "Ġtic": 1568,
      "Ġcet": 1569,
      "ĠkÃ©Å¾": 1570,
      "Ġvzdy": 1571,
      "Ġzmo": 1572,
      "ĠchceÅ¡": 1573,
      "ĠrÃ¡m": 1574,
      "ĠbÄĽd": 1575,
      "Ġvys": 1576,
      "ĠstraÅ¡": 1577,
      "Ġkpo": 1578,
      "Ġchat": 1579,
      "Ġdek": 1580,
      "Ġran": 1581,
      "Ġpry": 1582,
      "Ġnnou": 1583,
      "Ġvhro": 1584,
      "ĠliÄį": 1585,
      "Ġspra": 1586,
      "ĠjichÅ¾": 1587,
      "Ġben": 1588,
      "Ġtrp": 1589,
      "Ġpen": 1590,
      "Ġkej": 1591,
      "Ġved": 1592,
      "Ġter": 1593,
      "ĠvnÄĽmÅ¾": 1594,
      "rÅ¯": 1595,
      "ĠdÄĽc": 1596,
      "Ġtvor": 1597,
      "Ġskvo": 1598,
      "Ġrty": 1599,
      "ĠÅ¡lÃ©n": 1600,
      "Ġzum": 1601,
      "Ġzti": 1602,
      "Ġsma": 1603,
      "Ġbrou": 1604,
      "Ġkrou": 1605,
      "Ġspou": 1606,
      "Ġnut": 1607,
      "Ġjme": 1608,
      "Ġvzt": 1609,
      "ĠdnÅ¯": 1610,
      "ĠpojÄı": 1611,
      "ĠÅĻÃŃÅ¡": 1612,
      "ĠvstÃ¡": 1613,
      "ĠtÃŃÅ¡": 1614,
      "Ġur": 1615,
      "ĠzlÃ¡": 1616,
      "Ġtrem": 1617,
      "ĠnnÃ¡": 1618,
      "Ġzj": 1619,
      "BC": 1620,
      "ĠsvÄĽd": 1621,
      "ĠblÃ½": 1622,
      "Ġmech": 1623,
      "Ġzil": 1624,
      "ĠdÃ¡Å¡": 1625,
      "ĠvÄĽÅĻ": 1626,
      "ĠhÃ½m": 1627,
      "ĠnaÅĪ": 1628,
      "ĠdlÃ½": 1629,
      "ĠplÃ©": 1630,
      "ĠstrÃ¡Å¾": 1631,
      "et": 1632,
      "ĠÅ¾em": 1633,
      "Ġvzdor": 1634,
      "ĠjÃŃmÅ¾": 1635,
      "ĠnÃŃz": 1636,
      "Ġtin": 1637,
      "Ġlec": 1638,
      "Ġcest": 1639,
      "Ġjdu": 1640,
      "Ġsnu": 1641,
      "Ġruch": 1642,
      "ti": 1643,
      "Ġdum": 1644,
      "ĠloÄı": 1645,
      "Ġpit": 1646,
      "Ġvrh": 1647,
      "Ġsve": 1648,
      "Ġkov": 1649,
      "ĠpÅĻÃŃÅ¡": 1650,
      "Ġvad": 1651,
      "Ġmor": 1652,
      "Ġvin": 1653,
      "ĠmÄĽj": 1654,
      "Ġsit": 1655,
      "ĠtÃ¡m": 1656,
      "ĠzdÄĽ": 1657,
      "Ġbit": 1658,
      "Ġhat": 1659,
      "Ġhost": 1660,
      "ĠpÃ¡r": 1661,
      "Ġkn": 1662,
      "Ġzar": 1663,
      "Ġsky": 1664,
      "Ġ1800": 1665,
      "CBC": 1666,
      "ĠÃºz": 1667,
      "ĠÄįej": 1668,
      "ĠplÃ¡Äį": 1669,
      "Ġhrou": 1670,
      "Ġhoch": 1671,
      "ĠÅ¡ÃŃÅ¡": 1672,
      "zd": 1673,
      "Ġvsa": 1674,
      "Ġchl": 1675,
      "Ġdlem": 1676,
      "Ġbec": 1677,
      "ĠsmÃ¡": 1678,
      "Ġtor": 1679,
      "ĠtvÃ©m": 1680,
      "ĠzÃŃch": 1681,
      "ĠmraÄį": 1682,
      "Ġvpro": 1683,
      "Ġkar": 1684,
      "Ġhlav": 1685,
      "ĠdÃ¡n": 1686,
      "Ġmluv": 1687,
      "ĠmrÃ¡z": 1688,
      "ĠÅ¡ly": 1689,
      "ĠXXABAB": 1690,
      "ĠbÃ¡ch": 1691,
      "ĠhÅĻÃŃch": 1692,
      "ĠdÃŃt": 1693,
      "ĠpryÄį": 1694,
      "ĠÅĻÅ¯": 1695,
      "Ġpel": 1696,
      "ĠhnÃŃz": 1697,
      "ĠhÃ©m": 1698,
      "Ġvce": 1699,
      "Ġklet": 1700,
      "ĠtlÃ©": 1701,
      "Ġdny": 1702,
      "ĠpoÄį": 1703,
      "Ġnna": 1704,
      "ĠvtvÃ¡": 1705,
      "Ġmek": 1706,
      "ĠrÃ¡ch": 1707,
      "ĠznÄĽl": 1708,
      "Ġlez": 1709,
      "vou": 1710,
      "ĠpÅĻÃŃs": 1711,
      "Ġscho": 1712,
      "Ġcti": 1713,
      "Ġmil": 1714,
      "ĠÅ¾dy": 1715,
      "Ġbin": 1716,
      "Ġlin": 1717,
      "ĠhÃ¡m": 1718,
      "Ġzba": 1719,
      "ĠvsÃŃ": 1720,
      "ĠrÃ¡j": 1721,
      "Ġklu": 1722,
      "Ġkyt": 1723,
      "Ġsnem": 1724,
      "Ġstk": 1725,
      "Ġvyz": 1726,
      "ĠskÅĻi": 1727,
      "ĠABBACC": 1728,
      "Ġlh": 1729,
      "Ġvor": 1730,
      "Ġsbor": 1731,
      "Ġtov": 1732,
      "ĠÄįech": 1733,
      "Ġhar": 1734,
      "Ġpln": 1735,
      "Ġvta": 1736,
      "Ġhm": 1737,
      "ĠzrÃ¡d": 1738,
      "Ġvtu": 1739,
      "ĠzvlÃ¡": 1740,
      "Ġsra": 1741,
      "Ġsro": 1742,
      "ĠsÃ¡h": 1743,
      "ĠvraÅ¾": 1744,
      "Ġblud": 1745,
      "Ġkor": 1746,
      "ĠlÃŃch": 1747,
      "ĠsplÃ½": 1748,
      "Ġrat": 1749,
      "ĠtiÄį": 1750,
      "ĠÅ¡o": 1751,
      "ĠvÅĻel": 1752,
      "ĠviÄį": 1753,
      "ĠvÅ¡a": 1754,
      "ĠÅ¾ÃŃÅ¡": 1755,
      "Ġbral": 1756,
      "ĠvzÃ¡c": 1757,
      "Ġzdro": 1758,
      "Ġvrat": 1759,
      "Ġzdi": 1760,
      "ĠpÄĽv": 1761,
      "Ġviz": 1762,
      "Ġtrou": 1763,
      "Ġpem": 1764,
      "Ġlep": 1765,
      "ĠnÃ¡d": 1766,
      "ĠkrÅ¯": 1767,
      "Ġhas": 1768,
      "ĠdrÃ½": 1769,
      "ĠvÅĻa": 1770,
      "tÅĻ": 1771,
      "ĠnosÅ¥": 1772,
      "ĠstvÃŃm": 1773,
      "ĠvÅ¯d": 1774,
      "ĠAXAA": 1775,
      "ĠvÃŃr": 1776,
      "ĠXAABBX": 1777,
      "Ġkus": 1778,
      "Ġoz": 1779,
      "Ġblan": 1780,
      "ĠdÃ¡ch": 1781,
      "Ġmst": 1782,
      "Ġzto": 1783,
      "Ġgra": 1784,
      "Ġtrh": 1785,
      "ze": 1786,
      "ĠplÃŃ": 1787,
      "lad": 1788,
      "Ġzko": 1789,
      "Ġzdu": 1790,
      "ĠÄıÃ¡": 1791,
      "Ġtmy": 1792,
      "ĠvÅ¡ÃŃm": 1793,
      "ĠÅ¾h": 1794,
      "Ġgu": 1795,
      "ĠhlÃ½": 1796,
      "ĠtÃŃÅ¾": 1797,
      "ĠbiÄį": 1798,
      "Ġrad": 1799,
      "Ġvsm": 1800,
      "Ġvkra": 1801,
      "ĠcÅ¯m": 1802,
      "ĠÄįal": 1803,
      "ĠblÃ½s": 1804,
      "ĠvlÃ¡s": 1805,
      "ĠskrÃ¡ÅĪ": 1806,
      "ĠfÃ¡": 1807,
      "ĠtÃ³": 1808,
      "Ġzch": 1809,
      "Ġfran": 1810,
      "Ġjez": 1811,
      "ĠvkrÃ¡": 1812,
      "ĠspÃŃÅ¡": 1813,
      "ĠÅ¡Ã¡": 1814,
      "Ġken": 1815,
      "ĠchtÃŃ": 1816,
      "ĠcÃŃl": 1817,
      "Ġzval": 1818,
      "Ġvkr": 1819,
      "ĠsÅ¯m": 1820,
      "ĠzÃŃm": 1821,
      "Ġmni": 1822,
      "Ġfo": 1823,
      "Ġlesk": 1824,
      "Ġvji": 1825,
      "Ġpros": 1826,
      "Ġjil": 1827,
      "ĠdÃŃk": 1828,
      "Ġdlu": 1829,
      "ĠklÃ©": 1830,
      "ĠkrÃ½": 1831,
      "ĠrÅ¯z": 1832,
      "ĠvzplÃ¡": 1833,
      "Ġvzle": 1834,
      "ĠchÃ¡m": 1835,
      "Ġstran": 1836,
      "Ġskro": 1837,
      "ĠskÅĻÃŃ": 1838,
      "Ġtat": 1839,
      "Ġbyt": 1840,
      "ĠztÄĽch": 1841,
      "ĠAABCBC": 1842,
      "ĠÅ¡it": 1843,
      "Ġbod": 1844,
      "ĠdnÃ©": 1845,
      "ĠdvÃ¡": 1846,
      "Ġkbo": 1847,
      "Ġbled": 1848,
      "ĠkvÃ©": 1849,
      "ĠklÃŃn": 1850,
      "Ġhloub": 1851,
      "Ġvost": 1852,
      "Ġtev": 1853,
      "ĠvznÃ¡": 1854,
      "Ġvzde": 1855,
      "Ġtok": 1856,
      "Ġhol": 1857,
      "Ġzlou": 1858,
      "Ġlan": 1859,
      "Ġdot": 1860,
      "Ġbru": 1861,
      "ĠbÄĽh": 1862,
      "Ġvsp": 1863,
      "Ġlat": 1864,
      "Ġzhy": 1865,
      "Ġvroz": 1866,
      "Ġtri": 1867,
      "Å¡e": 1868,
      "Ġhad": 1869,
      "Ġtve": 1870,
      "Ġslil": 1871,
      "ĠsÃº": 1872,
      "ĠslÃŃm": 1873,
      "Ġsje": 1874,
      "ĠsvÃ¡t": 1875,
      "ĠmÅ¾i": 1876,
      "ĠvkaÅ¾": 1877,
      "led": 1878,
      "Ġvhlou": 1879,
      "Ġdrav": 1880,
      "Ġvn": 1881,
      "Ġtmou": 1882,
      "Ġplod": 1883,
      "ĠX": 1884,
      "Ġthe": 1885,
      "ĠÅ¡er": 1886,
      "ĠdlaÅĪ": 1887,
      "Ġos": 1888,
      "Ġlze": 1889,
      "Å¯d": 1890,
      "Ġstesk": 1891,
      "Ġkdos": 1892,
      "Ġpes": 1893,
      "Ġdni": 1894,
      "Ġzku": 1895,
      "Ġdrech": 1896,
      "lav": 1897,
      "ĠmÄĽst": 1898,
      "ĠsaÅĻ": 1899,
      "Ġkruh": 1900,
      "ĠzÃº": 1901,
      "Ġchli": 1902,
      "Ġkmo": 1903,
      "ĠlÃ¡ch": 1904,
      "ĠhÅĻbi": 1905,
      "Ġtrys": 1906,
      "Ġtich": 1907,
      "Ġjan": 1908,
      "ĠÅ¾er": 1909,
      "ĠÅĻad": 1910,
      "ĠvpÅĻed": 1911,
      "Ġluz": 1912,
      "Ġskvost": 1913,
      "Ġjsa": 1914,
      "Ġlam": 1915,
      "Ġjdi": 1916,
      "Ġblak": 1917,
      "ĠÄįÅ¯": 1918,
      "ĠlkÃ¡": 1919,
      "Ġx": 1920,
      "ĠnÃ¡c": 1921,
      "ĠzÅĻÃŃt": 1922,
      "ĠhrÃ¡l": 1923,
      "ĠstÅĻi": 1924,
      "Ġvtem": 1925,
      "Ġpsa": 1926,
      "Ġbel": 1927,
      "Ġau": 1928,
      "ĠboÅ¥": 1929,
      "Ġknim": 1930,
      "Ġin": 1931,
      "ÃŃt": 1932,
      "ĠvrÃ¡z": 1933,
      "ĠdÃŃl": 1934,
      "Ġvsi": 1935,
      "ĠhÅ¯m": 1936,
      "Ġmli": 1937,
      "Ġsic": 1938,
      "Ġsej": 1939,
      "ĠÄįu": 1940,
      "Ġvjed": 1941,
      "Ġzpu": 1942,
      "ĠÄįo": 1943,
      "Ġvnad": 1944,
      "Ġhez": 1945,
      "ĠvdÄĽÄį": 1946,
      "ĠvstÃŃ": 1947,
      "Ġpur": 1948,
      "ĠmlÄį": 1949,
      "Ġrost": 1950,
      "ĠAABBXX": 1951,
      "ĠvsvÃ©": 1952,
      "Ġvlh": 1953,
      "Ġjat": 1954,
      "Ġskon": 1955,
      "Ġdnem": 1956,
      "ĠvmÄĽ": 1957,
      "Å¾e": 1958,
      "ĠzprÃ¡": 1959,
      "Ġplou": 1960,
      "ĠsluÅ¾": 1961,
      "ĠtÅĻil": 1962,
      "vy": 1963,
      "ĠtÃ¡n": 1964,
      "ĠknÄĽz": 1965,
      "Ġvdi": 1966,
      "Ġrd": 1967,
      "ĠknÄĽÅ¾": 1968,
      "ĠbÅĻi": 1969,
      "Ġvstou": 1970,
      "ĠzvÄĽst": 1971,
      "ĠÅĻec": 1972,
      "Ġsad": 1973,
      "Ã¡ch": 1974,
      "ĠzlÃ½": 1975,
      "ĠkÅ¯v": 1976,
      "ĠpÄĽj": 1977,
      "ĠtÄĽj": 1978,
      "Ġvte": 1979,
      "Ġsno": 1980,
      "Ġtlou": 1981,
      "Ġdna": 1982,
      "ouÅ¡": 1983,
      "tech": 1984,
      "Ġvstal": 1985,
      "ĠmÅĻel": 1986,
      "Ġrtech": 1987,
      "Ġvtm": 1988,
      "ĠlÃ¡m": 1989,
      "ĠABBAXX": 1990,
      "ĠvÄĽÅ¡": 1991,
      "ĠpÃ¡d": 1992,
      "Ġchmur": 1993,
      "vÄĽt": 1994,
      "ĠchÃ©m": 1995,
      "ĠtÅĻpyt": 1996,
      "Ġtej": 1997,
      "Ġpli": 1998,
      "ĠsÃŃch": 1999,
      "Ġkan": 2000,
      "Ġzha": 2001,
      "ĠÅ¾as": 2002,
      "ĠÄįty": 2003,
      "Ġteh": 2004,
      "Ġvkou": 2005,
      "Ġlib": 2006,
      "Ġvmy": 2007,
      "Ġpas": 2008,
      "ĠvÃ½s": 2009,
      "ĠsbÃŃ": 2010,
      "ĠslÃ½": 2011,
      "Ġuz": 2012,
      "ĠÅ¡tÃŃt": 2013,
      "Ġtiv": 2014,
      "ĠvÅ¡ed": 2015,
      "Ġstla": 2016,
      "Ġbek": 2017,
      "Ġnny": 2018,
      "ĠAAXA": 2019,
      "Ġvse": 2020,
      "ĠrtÅ¯": 2021,
      "ĠoÄį": 2022,
      "Ġzvl": 2023,
      "Ġstes": 2024,
      "Ġmon": 2025,
      "ĠtÅ¯m": 2026,
      "Ġfr": 2027,
      "Ġhvo": 2028,
      "ĠdiÅ¾": 2029,
      "ABBA": 2030,
      "ĠzpÃ¡t": 2031,
      "ĠmÅ¯Å¾": 2032,
      "ĠtÃ¡ch": 2033,
      "Ġlla": 2034,
      "Ġvso": 2035,
      "Ġdvou": 2036,
      "ĠABABAB": 2037,
      "ĠvnÃŃÅ¾": 2038,
      "Ġvzbu": 2039,
      "Ġlev": 2040,
      "Ġbej": 2041,
      "Ġchva": 2042,
      "ĠlaÄį": 2043,
      "ĠzÄįe": 2044,
      "ĠkÃ¡n": 2045,
      "ĠstÃ©m": 2046,
      "ĠjvÃŃ": 2047,
      "Ġren": 2048,
      "Ġvry": 2049,
      "Ġzdvih": 2050,
      "Ġchlu": 2051,
      "Ġslech": 2052,
      "Ġzek": 2053,
      "ĠvpÅĻÃŃ": 2054,
      "Ġhon": 2055,
      "ĠhluÄį": 2056,
      "ĠvpÃŃ": 2057,
      "Ġlad": 2058,
      "ĠtÃ¡ÅĻ": 2059,
      "Ġkup": 2060,
      "Ġzbro": 2061,
      "ĠvsvÃ©m": 2062,
      "Ġvrouc": 2063,
      "Ġlic": 2064,
      "Ġfu": 2065,
      "Ġksrd": 2066,
      "Ġkmet": 2067,
      "ĠvÄįer": 2068,
      "Ġkaz": 2069,
      "ĠmÃ¡t": 2070,
      "ĠtvÃ½": 2071,
      "Ġfal": 2072,
      "ĠvdÄĽk": 2073,
      "ĠÅĪu": 2074,
      "Ġvnu": 2075,
      "ĠmlÃ¡d": 2076,
      "Ġmdlo": 2077,
      "ĠkvÃŃt": 2078,
      "Ġvzdo": 2079,
      "ĠÅ¾eb": 2080,
      "ĠtÃ½l": 2081,
      "Ġclo": 2082,
      "ĠhlÃ©d": 2083,
      "ĠÅĻÃŃch": 2084,
      "ĠniÅ¾": 2085,
      "Ġspu": 2086,
      "Ã¡n": 2087,
      "Ġbat": 2088,
      "ĠchlÃ©b": 2089,
      "ĠtÃŃch": 2090,
      "ĠbÃ¡m": 2091,
      "ĠÅ¾Å¯": 2092,
      "Ġrev": 2093,
      "Ġkev": 2094,
      "ĠlÃŃÄį": 2095,
      "ĠmÃŃm": 2096,
      "ĠplÃ½": 2097,
      "ĠXXA": 2098,
      "ĠtlÃ½": 2099,
      "ĠkÅĻes": 2100,
      "Ġtur": 2101,
      "ĠplÃ¡l": 2102,
      "Ġksm": 2103,
      "ĠÅ¾eÅ¡": 2104,
      "Ġnuv": 2105,
      "ĠklÃ½": 2106,
      "ĠvÄĽÄı": 2107,
      "Ġnaz": 2108,
      "ĠvplÃ¡": 2109,
      "Ġstry": 2110,
      "ĠnnÃ½ch": 2111,
      "Ġkvi": 2112,
      "ĠvyÅ¡": 2113,
      "Ġstvu": 2114,
      "ĠpÅĻej": 2115,
      "ĠrÃ¡z": 2116,
      "ĠsliÄį": 2117,
      "Ġspro": 2118,
      "ĠbÅĻeh": 2119,
      "ĠvtÄĽch": 2120,
      "ĠlÃŃp": 2121,
      "ĠbdÄĽ": 2122,
      "ĠkÅĻ": 2123,
      "ĠlÃ¡n": 2124,
      "ĠsmÃ¡l": 2125,
      "Ġkop": 2126,
      "Ġprch": 2127,
      "Ġcou": 2128,
      "Ġmoz": 2129,
      "Ġvet": 2130,
      "Ġchlo": 2131,
      "Ġnos": 2132,
      "BB": 2133,
      "ĠveÅ¡": 2134,
      "Ġvten": 2135,
      "Ġvhlu": 2136,
      "Ġchvat": 2137,
      "ĠvbÃŃ": 2138,
      "ĠtÃŃÅĻ": 2139,
      "Ġvyh": 2140,
      "Ġsmi": 2141,
      "Ġtrud": 2142,
      "Ġneh": 2143,
      "ĠvmÃ©": 2144,
      "ĠstaÅĪ": 2145,
      "ĠpÃŃt": 2146,
      "Ġztr": 2147,
      "ĠsÄįe": 2148,
      "ĠÅ¾ek": 2149,
      "Ġzvi": 2150,
      "Ġzyk": 2151,
      "Ġroj": 2152,
      "ĠsÃŃÅ¡": 2153,
      "Ġvzpla": 2154,
      "ĠpeÄį": 2155,
      "ĠvÃ¡ch": 2156,
      "Ġzat": 2157,
      "ĠkÄįe": 2158,
      "ĠstÅĻel": 2159,
      "ĠÅĪÃ¡": 2160,
      "Ġvslun": 2161,
      "ĠzÅĻÃŃÅ¡": 2162,
      "ĠtnÃŃ": 2163,
      "ĠÅ¾ik": 2164,
      "Ġdoj": 2165,
      "ĠÅ¡lech": 2166,
      "Ġmov": 2167,
      "Ġvhla": 2168,
      "ĠstÃ½ch": 2169,
      "ĠvraÅ¥": 2170,
      "Ġkel": 2171,
      "Ġrech": 2172,
      "ĠÅ¾ÃŃch": 2173,
      "Ġsnil": 2174,
      "ĠkÃ½s": 2175,
      "Ġdol": 2176,
      "Ġkap": 2177,
      "Ġej": 2178,
      "ĠÅ¥ast": 2179,
      "ĠmÅĻÃŃt": 2180,
      "ĠvklÃŃ": 2181,
      "ĠstÅ¯j": 2182,
      "Ġluh": 2183,
      "ĠÄįnÃŃ": 2184,
      "Ġklas": 2185,
      "Ġctnost": 2186,
      "Ġsot": 2187,
      "ĠstrÃ©": 2188,
      "ĠhrÃ¡t": 2189,
      "Ġpoc": 2190,
      "ĠvnichÅ¾": 2191,
      "ĠleÅ¾": 2192,
      "Ġtud": 2193,
      "ĠpÃ¡s": 2194,
      "ĠlÃ©b": 2195,
      "XXA": 2196,
      "Ġznal": 2197,
      "Ġsob": 2198,
      "Ġvple": 2199,
      "ĠvlÅ¯": 2200,
      "ĠtmÄĽ": 2201,
      "Ġpast": 2202,
      "Ġlech": 2203,
      "Ġkos": 2204,
      "Ġrci": 2205,
      "Ġmec": 2206,
      "ĠjimÅ¾": 2207,
      "ĠvzkÅĻi": 2208,
      "Ġzdr": 2209,
      "ĠdnÄĽ": 2210,
      "Ġkst": 2211,
      "ĠkvÃ¡m": 2212,
      "ĠcÃŃr": 2213,
      "ĠÄįte": 2214,
      "Ġchom": 2215,
      "Ġvech": 2216,
      "ĠhÅĻmÃŃ": 2217,
      "ĠmrÃ¡": 2218,
      "ĠzaÄį": 2219,
      "Ġnap": 2220,
      "ĠnÃ¡ÅĻ": 2221,
      "Ġtlem": 2222,
      "Ġsj": 2223,
      "ĠstÃ¡r": 2224,
      "ĠzÃ¡m": 2225,
      "Ġpec": 2226,
      "val": 2227,
      "Ġzpra": 2228,
      "Ġnli": 2229,
      "Ġstih": 2230,
      "ĠslÃ©z": 2231,
      "ĠzbraÅĪ": 2232,
      "Ġvml": 2233,
      "Ġvja": 2234,
      "Ġvpe": 2235,
      "Ġzhou": 2236,
      "ĠpohÅĻ": 2237,
      "Ġzlem": 2238,
      "BX": 2239,
      "ĠtÄĽs": 2240,
      "ĠpeÅ¾": 2241,
      "ĠÅ¾et": 2242,
      "ĠbÃ¡j": 2243,
      "rou": 2244,
      "Ġdom": 2245,
      "ĠmÄĽch": 2246,
      "Ġdb": 2247,
      "Ġzkve": 2248,
      "Ġvzm": 2249,
      "Ġlli": 2250,
      "ĠhÅĻÃ¡": 2251,
      "ĠzvlÃ¡Å¡": 2252,
      "Ġliv": 2253,
      "Ġzho": 2254,
      "Ġvek": 2255,
      "Ġpras": 2256,
      "Ġbl": 2257,
      "Ġvztek": 2258,
      "XABB": 2259,
      "Ġklen": 2260,
      "Ġhluk": 2261,
      "Ġjov": 2262,
      "ĠkÅ¡": 2263,
      "ĠprÃ¡h": 2264,
      "Ġvrah": 2265,
      "Ġvbou": 2266,
      "ĠplÃ¡t": 2267,
      "ĠdnÃ½": 2268,
      "ĠvÄĽst": 2269,
      "ĠztÃ©": 2270,
      "Ġmrou": 2271,
      "ĠvÅ¡ic": 2272,
      "ĠspÃ¡t": 2273,
      "Ġner": 2274,
      "Ġzml": 2275,
      "ĠmiÅ¾": 2276,
      "Ġkmen": 2277,
      "ĠsÃ©": 2278,
      "Ġsech": 2279,
      "ĠnÃŃÅ¡": 2280,
      "Ġdrs": 2281,
      "Ġsf": 2282,
      "ĠlÅ¯m": 2283,
      "Ġlos": 2284,
      "ĠbÃŃt": 2285,
      "ĠtrÃ½": 2286,
      "Ġvic": 2287,
      "ĠÅ¾ÃŃz": 2288,
      "ĠhnÃ¡": 2289,
      "Ġvar": 2290,
      "ĠvÅĪa": 2291,
      "Ġvzla": 2292,
      "Ġspal": 2293,
      "ĠtlÃ¡": 2294,
      "Ġdec": 2295,
      "ĠbdÃŃ": 2296,
      "Ġhbi": 2297,
      "ĠpoÅ¡": 2298,
      "Ġsvor": 2299,
      "Ġniv": 2300,
      "ĠnÄĽch": 2301,
      "Ġjiz": 2302,
      "ĠtÅĻÃ¡s": 2303,
      "ĠmÃ¡j": 2304,
      "ĠhÅĻÃŃÅ¡": 2305,
      "Ġraj": 2306,
      "Ġjvy": 2307,
      "ĠtÃŃs": 2308,
      "ur": 2309,
      "ĠÅĻo": 2310,
      "ĠlÃ¡t": 2311,
      "Ġvrch": 2312,
      "Ġche": 2313,
      "Ġstez": 2314,
      "ĠtÅĻÃŃÅ¡": 2315,
      "ĠspÄĽÅ¡": 2316,
      "ĠvÃŃÄį": 2317,
      "Ġvzru": 2318,
      "Ġhut": 2319,
      "Ġsluch": 2320,
      "Ġvkte": 2321,
      "ĠspÄĽl": 2322,
      "ĠznÃ¡s": 2323,
      "Ġvtv": 2324,
      "ĠspÄĽch": 2325,
      "ĠctÃŃ": 2326,
      "ĠchÃ½m": 2327,
      "ĠvrÃ¡s": 2328,
      "Ġvhru": 2329,
      "ĠsluÅ¡": 2330,
      "ĠblÃ¡z": 2331,
      "Ġdic": 2332,
      "Ġmih": 2333,
      "Ġhym": 2334,
      "ĠstÅĻÃ¡": 2335,
      "ĠmlÃ½": 2336,
      "Ġchyt": 2337,
      "Ġstrh": 2338,
      "ĠpusÅ¥": 2339,
      "ĠbÄĽÅ¥": 2340,
      "Ġfan": 2341,
      "Ġhi": 2342,
      "ĠlÃŃÅ¡": 2343,
      "ĠmÄĽt": 2344,
      "Ġw": 2345,
      "ĠzÃ¡Å¡": 2346,
      "ĠhÃ¡ch": 2347,
      "ĠÅ¡Å¥a": 2348,
      "ĠsprÃ¡": 2349,
      "ĠsmÄĽs": 2350,
      "to": 2351,
      "ĠjeÅ¥": 2352,
      "ĠABA": 2353,
      "Ġslal": 2354,
      "ĠÅ¡pat": 2355,
      "Ġdev": 2356,
      "Ġnach": 2357,
      "ĠXAXABB": 2358,
      "Ġdok": 2359,
      "Ġvyr": 2360,
      "Ġzlu": 2361,
      "Ġsmo": 2362,
      "Ġvbe": 2363,
      "ĠhÅĻmÄĽ": 2364,
      "Ġvlu": 2365,
      "Ġslz": 2366,
      "ĠdoÄį": 2367,
      "ĠvÄĽl": 2368,
      "ĠzvuÄį": 2369,
      "Ġzah": 2370,
      "Ġav": 2371,
      "ĠÅĪo": 2372,
      "ĠspÃ¡n": 2373,
      "Ġzkr": 2374,
      "ĠtrÅ¯n": 2375,
      "ĠÄįÃ¡t": 2376,
      "Ġkom": 2377,
      "Ġki": 2378,
      "Ġsple": 2379,
      "ĠjvyÅ¡": 2380,
      "Ġvprach": 2381,
      "ĠAXXA": 2382,
      "Ġluj": 2383,
      "ĠpÅĻÃŃm": 2384,
      "ĠtvÅ¯r": 2385,
      "Ġvmra": 2386,
      "ĠÅ¾es": 2387,
      "ĠreÄį": 2388,
      "ĠstÃ½m": 2389,
      "ĠvznÄĽ": 2390,
      "ĠzmÃ¡": 2391,
      "Ġskut": 2392,
      "ĠÅ¡ak": 2393,
      "ĠÃºst": 2394,
      "ĠdneÅ¡": 2395,
      "Ġ20": 2396,
      "ĠslÅ¯": 2397,
      "ĠkeÅĻ": 2398,
      "ĠcÃ¡": 2399,
      "ĠvÄĽj": 2400,
      "Ġzkou": 2401,
      "ĠvlÃ©": 2402,
      "Ġteb": 2403,
      "ĠmÄĽÅ¡": 2404,
      "Ġbran": 2405,
      "Ġplat": 2406,
      "Ġstan": 2407,
      "ĠpÅĻÃ¡l": 2408,
      "Ġrve": 2409,
      "Ġtkli": 2410,
      "ĠmoÅĻ": 2411,
      "Ġklou": 2412,
      "ĠdÃ©l": 2413,
      "Ġvmi": 2414,
      "ĠÅ¾to": 2415,
      "Ġjit": 2416,
      "ĠÅ¥an": 2417,
      "ĠdÃ©Å¡Å¥": 2418,
      "ĠzÃ¡ch": 2419,
      "Ġbrov": 2420,
      "ĠdlÃ½ch": 2421,
      "Ġstus": 2422,
      "Ġvzly": 2423,
      "Ġzhas": 2424,
      "Ġstic": 2425,
      "ĠznÃ¡Å¡": 2426,
      "Ġvyj": 2427,
      "ĠkÅ¯ÅĪ": 2428,
      "Ġbis": 2429,
      "Ġvda": 2430,
      "ĠvzrÅ¯": 2431,
      "ĠÅĻin": 2432,
      "nÃ©": 2433,
      "ĠvsnÄĽ": 2434,
      "Ġchot": 2435,
      "ĠchÃ¡ch": 2436,
      "Ġkmit": 2437,
      "ĠvpÅ¯": 2438,
      "Ġvtip": 2439,
      "Ġstm": 2440,
      "Ġplach": 2441,
      "ĠzkÃ¡": 2442,
      "ĠstÅ¯l": 2443,
      "ĠÄıas": 2444,
      "Ġvist": 2445,
      "ĠschvÃ¡": 2446,
      "Ġstud": 2447,
      "Ġzji": 2448,
      "Ġmas": 2449,
      "Ġvles": 2450,
      "ĠvtvÃ¡ÅĻ": 2451,
      "Ġmot": 2452,
      "Å¾ÃŃ": 2453,
      "ĠzdrÃ¡v": 2454,
      "Ġlst": 2455,
      "Ġstrou": 2456,
      "Ġlich": 2457,
      "Ġvsou": 2458,
      "Ġkout": 2459,
      "Ġspla": 2460,
      "Ġnoch": 2461,
      "Ġchyb": 2462,
      "ĠjvÃŃc": 2463,
      "an": 2464,
      "Ġvci": 2465,
      "Ġspat": 2466,
      "Ġzav": 2467,
      "ĠtuÅ¾": 2468,
      "ĠchraÅĪ": 2469,
      "ĠbÃ¡l": 2470,
      "ĠmnÃŃ": 2471,
      "Ġodv": 2472,
      "ĠÅ¡pi": 2473,
      "ĠkÃ¡Å¡": 2474,
      "Ġsat": 2475,
      "ĠvÃ¡b": 2476,
      "ĠtiÅ¡": 2477,
      "ĠpÃŃm": 2478,
      "ĠbrÃ¡z": 2479,
      "Ġel": 2480,
      "ĠchÅĻi": 2481,
      "ĠÅ¡in": 2482,
      "ĠhÃ¡j": 2483,
      "Ġchi": 2484,
      "Ġlle": 2485,
      "ĠsvÅ¯d": 2486,
      "Ġfor": 2487,
      "ĠsnÄĽÅ¾": 2488,
      "Ġkryl": 2489,
      "Ġryb": 2490,
      "Ġlis": 2491,
      "Ġhmo": 2492,
      "Ġmlou": 2493,
      "ĠmÃ¡l": 2494,
      "Ġzte": 2495,
      "ĠXXAABB": 2496,
      "ĠÅ¡eÅĪ": 2497,
      "ĠplÃ¡Å¡Å¥": 2498,
      "Ġvzlet": 2499,
      "Ġkje": 2500,
      "Ġmed": 2501,
      "Ġzja": 2502,
      "Ġstis": 2503,
      "ĠtlÃŃ": 2504,
      "ĠÅ¾hou": 2505,
      "Ġrec": 2506,
      "ĠAAXB": 2507,
      "Ġlho": 2508,
      "Ġprin": 2509,
      "ĠblÃ©": 2510,
      "Ġsvr": 2511,
      "Ġstek": 2512,
      "Ġkrov": 2513,
      "ĠsnÃŃt": 2514,
      "cÃŃ": 2515,
      "ĠvÄįas": 2516,
      "ĠdeÄį": 2517,
      "lun": 2518,
      "ĠjÃ¡k": 2519,
      "Ġchet": 2520,
      "Ġmost": 2521,
      "ĠschÃ¡": 2522,
      "ĠÅ¡lÃŃ": 2523,
      "Ġvob": 2524,
      "Ġfy": 2525,
      "ĠzdaÅ¾": 2526,
      "ĠdosÅ¥": 2527,
      "Ġtrest": 2528,
      "Ġmus": 2529,
      "Ġdan": 2530,
      "ĠvzlÃ©": 2531,
      "lÃ½ch": 2532,
      "ĠkÅ¾i": 2533,
      "ĠsÃŃÄį": 2534,
      "Ġslast": 2535,
      "Ġvme": 2536,
      "ĠÅ¾iÅ¾": 2537,
      "ĠÅ¡leh": 2538,
      "Ġpsal": 2539,
      "Ġhn": 2540,
      "Ġsan": 2541,
      "Ġdoz": 2542,
      "ĠdraÅ¾": 2543,
      "ĠnÃŃÄį": 2544,
      "ĠzlÃ½ch": 2545,
      "ĠpÃŃÅ¡": 2546,
      "Ġclav": 2547,
      "Ġtul": 2548,
      "Ġvkro": 2549,
      "Ġlel": 2550,
      "Ġlud": 2551,
      "Ġnov": 2552,
      "Ġvpou": 2553,
      "Ġzej": 2554,
      "Ġvab": 2555,
      "ĠÄįist": 2556,
      "Ġzlost": 2557,
      "Ġmuk": 2558,
      "Ġhvoz": 2559,
      "ĠÅĻÃŃc": 2560,
      "ĠjdeÅ¡": 2561,
      "Ġstroj": 2562,
      "Ġsha": 2563,
      "Ġchlap": 2564,
      "ĠklÃ¡Å¡": 2565,
      "ĠzdÃŃ": 2566,
      "ĠvzpÃŃ": 2567,
      "ĠtÃ¡z": 2568,
      "Ġnau": 2569,
      "ĠsrÃ¡": 2570,
      "ĠtÄĽn": 2571,
      "ĠÅ¡kle": 2572,
      "Ġztu": 2573,
      "ĠdrÃ½ch": 2574,
      "ĠchÃ½ch": 2575,
      "Ġdon": 2576,
      "Ġvpu": 2577,
      "Ġzpi": 2578,
      "Ġzhlu": 2579,
      "ĠstÄĽn": 2580,
      "Ġzmr": 2581,
      "ĠsdÄĽ": 2582,
      "Ġvaz": 2583,
      "ĠcÅ¯v": 2584,
      "Ġvzem": 2585,
      "Ġkul": 2586,
      "Ġvok": 2587,
      "Ġtlum": 2588,
      "ĠuÅ¡": 2589,
      "Ġbrat": 2590,
      "ĠÄıa": 2591,
      "Ġhna": 2592,
      "Ġvzro": 2593,
      "ĠnÃ©st": 2594,
      "Ġbur": 2595,
      "Ġdvi": 2596,
      "Ġnot": 2597,
      "ĠmÄĽr": 2598,
      "Ġpis": 2599,
      "ĠkÅĻiv": 2600,
      "ĠvhÃ¡": 2601,
      "Ġspe": 2602,
      "ĠnÅ¯v": 2603,
      "Ġvpla": 2604,
      "ĠzpÅ¯": 2605,
      "mou": 2606,
      "Ġskla": 2607,
      "ĠmÃ¡Å¥": 2608,
      "Ġstoj": 2609,
      "ĠvchrÃ¡": 2610,
      "ĠsÃºs": 2611,
      "Ġspor": 2612,
      "ĠskvÃŃ": 2613,
      "Ġer": 2614,
      "Ġvskut": 2615,
      "Ġhry": 2616,
      "Ġdrost": 2617,
      "ĠdvÅ¯r": 2618,
      "Ġcno": 2619,
      "ĠjvÄĽt": 2620,
      "ĠvÃŃs": 2621,
      "Ġkj": 2622,
      "ĠXXXA": 2623,
      "ĠnnÃ½m": 2624,
      "ĠmÃ¡n": 2625,
      "Ġsig": 2626,
      "Ġvsl": 2627,
      "Ġrus": 2628,
      "ĠtÅĻeÅ¡": 2629,
      "Ġnam": 2630,
      "ĠvmÃŃ": 2631,
      "Ġvzch": 2632,
      "ĠkvÃ½": 2633,
      "ĠÅ¡Å¯": 2634,
      "ĠduÅ¡": 2635,
      "ĠbÄĽl": 2636,
      "ĠhvÃŃ": 2637,
      "Ġvboj": 2638,
      "Ġjou": 2639,
      "ĠvnitÅĻ": 2640,
      "Ġvzni": 2641,
      "ĠplÃ¡Å¡": 2642,
      "ĠnÃ¡n": 2643,
      "Ġsnech": 2644,
      "Ġstit": 2645,
      "ĠjÃŃÅ¡": 2646,
      "ĠzvÄĽÅĻ": 2647,
      "ĠvÄĽÅ¾": 2648,
      "ĠzeÄı": 2649,
      "Ġvdla": 2650,
      "Ġskrom": 2651,
      "Ġut": 2652,
      "ĠzraÄį": 2653,
      "ĠkdeÅ¾": 2654,
      "ĠtÅĻÃŃm": 2655,
      "ĠpsÃ¡": 2656,
      "Ġspja": 2657,
      "Ġvkru": 2658,
      "Ġzed": 2659,
      "Ġkous": 2660,
      "ĠvÃŃk": 2661,
      "Ġprsk": 2662,
      "ĠvpÃŃs": 2663,
      "ĠvlasÅ¥": 2664,
      "Ġheb": 2665,
      "Ġmh": 2666,
      "Ġchc": 2667,
      "ĠvmÃ©m": 2668,
      "ĠÅĻu": 2669,
      "Ġgr": 2670,
      "Ġzhro": 2671,
      "Ġnnost": 2672,
      "Ġmnich": 2673,
      "ĠzbÃ½": 2674,
      "Ġvbu": 2675,
      "Ġspl": 2676,
      "Ġzdroj": 2677,
      "Ġtuj": 2678,
      "ĠnoÅ¾": 2679,
      "ĠpÄĽst": 2680,
      "Ġvbla": 2681,
      "Ġdnu": 2682,
      "Ġchol": 2683,
      "Ġmez": 2684,
      "Ġtka": 2685,
      "ĠÅ¡ÃŃp": 2686,
      "ĠksvÃ©": 2687,
      "ĠmeÅĪ": 2688,
      "ĠvbÄĽ": 2689,
      "Ġros": 2690,
      "Ġkho": 2691,
      "ĠbÃ¡t": 2692,
      "Ġkryt": 2693,
      "Ġzpr": 2694,
      "Ġmin": 2695,
      "ĠdÄĽd": 2696,
      "ĠsplÃ¡": 2697,
      "ĠÅ¾eÅĪ": 2698,
      "ĠlÅ¯Å¾": 2699,
      "Ġsdu": 2700,
      "ĠhÅĻeb": 2701,
      "Ġhnal": 2702,
      "ĠhrÅ¯z": 2703,
      "ĠsmrÅ¥": 2704,
      "Ġzet": 2705,
      "Ġznak": 2706,
      "Ġslib": 2707,
      "Ġzaj": 2708,
      "ĠÅĻist": 2709,
      "Ġshla": 2710,
      "Ġchej": 2711,
      "Ġzhlou": 2712,
      "ĠÅ¥Ã¡": 2713,
      "ĠÅĻev": 2714,
      "ĠmdlÃ½": 2715,
      "ĠhÃ¡r": 2716,
      "Ġvzra": 2717,
      "Ġdov": 2718,
      "Ġvlet": 2719,
      "Ġsce": 2720,
      "Ġchen": 2721,
      "ĠbÃ¡z": 2722,
      "ĠkÃº": 2723,
      "ĠÅ¡v": 2724,
      "Ġvku": 2725,
      "Ġkrut": 2726,
      "Ġses": 2727,
      "Ġvhod": 2728,
      "ĠÃ¡l": 2729,
      "ĠnÄĽmÅ¾": 2730,
      "ĠÄįar": 2731,
      "Ġvpod": 2732,
      "ĠÅ¡im": 2733,
      "Ġdnech": 2734,
      "ĠvnÃ¡s": 2735,
      "Ġstel": 2736,
      "ĠvtrÃ¡": 2737,
      "ĠznichÅ¾": 2738,
      "ĠsÃŃÅĪ": 2739,
      "ĠAAAX": 2740,
      "Ġzam": 2741,
      "ĠÅ¡vi": 2742,
      "Ġsse": 2743,
      "Ġlka": 2744,
      "ĠplÃ¡ÅĪ": 2745,
      "Ġpne": 2746,
      "Ġkvas": 2747,
      "ĠmÅ¾ik": 2748,
      "Ġker": 2749,
      "Ġptal": 2750,
      "ĠzbÄĽ": 2751,
      "ĠAX": 2752,
      "Ġstor": 2753,
      "Ġzrov": 2754,
      "ĠskÅĻe": 2755,
      "ĠmeÅ¡": 2756,
      "ĠlÃŃk": 2757,
      "ĠchÅĻe": 2758,
      "ĠzvÃ¡s": 2759,
      "ĠpÅĻ": 2760,
      "ĠvstÅĻe": 2761,
      "Ġdlech": 2762,
      "Ġchly": 2763,
      "ĠvrÅ¯": 2764,
      "Ġvsva": 2765,
      "ĠmdlÃ©": 2766,
      "Ġzdech": 2767,
      "Ġknul": 2768,
      "ĠsdÃŃ": 2769,
      "Ġsyl": 2770,
      "Ġslem": 2771,
      "ĠtÅĻÃŃs": 2772,
      "ĠruÅ¡": 2773,
      "Ġvcho": 2774,
      "ĠÅĻel": 2775,
      "Ġdvor": 2776,
      "ĠABABAX": 2777,
      "ĠleÅĪ": 2778,
      "Ġdub": 2779,
      "ĠviÅ¡": 2780,
      "ĠseÄį": 2781,
      "ĠÄįÃŃst": 2782,
      "ĠruÅ¥": 2783,
      "ĠlÃ¡Å¡": 2784,
      "Ġtros": 2785,
      "ĠvlaÅ¡": 2786,
      "ĠnnÃ©m": 2787,
      "Ġhni": 2788,
      "ĠrÃ¡l": 2789,
      "Ġvma": 2790,
      "ĠnoÅ¡": 2791,
      "Ġspas": 2792,
      "ĠvsvÄĽt": 2793,
      "ĠvÄįel": 2794,
      "ĠmlÃ©": 2795,
      "Ġzdar": 2796,
      "Ġsar": 2797,
      "Ġpre": 2798,
      "Ġblouz": 2799,
      "ĠvÅ¯z": 2800,
      "Ġspad": 2801,
      "ĠnÄĽz": 2802,
      "Ġhyb": 2803,
      "Ġjle": 2804,
      "Ġbly": 2805,
      "Ġhnus": 2806,
      "nd": 2807,
      "Ġksmr": 2808,
      "Ġchcem": 2809,
      "Ġvjich": 2810,
      "ĠvkvÄĽ": 2811,
      "ĠÄįert": 2812,
      "ĠbliÅ¾": 2813,
      "ĠchoÅ¥": 2814,
      "ĠtvÃ¡r": 2815,
      "Ġjdem": 2816,
      "Ġzmu": 2817,
      "ĠveÄı": 2818,
      "Ġprost": 2819,
      "ĠÅ¡lÃ¡": 2820,
      "ĠzkrÃ¡": 2821,
      "Ġzin": 2822,
      "Ġzer": 2823,
      "Ġston": 2824,
      "Ġtrav": 2825,
      "Ġjek": 2826,
      "ĠsleÄį": 2827,
      "ĠdÃ¡k": 2828,
      "Ġvpl": 2829,
      "Ġmrav": 2830,
      "ĠschÃ½": 2831,
      "ĠÅ¥u": 2832,
      "ĠstvÃ¡": 2833,
      "Ġrun": 2834,
      "ĠchaÅ¥": 2835,
      "ĠtÅ¯v": 2836,
      "Ġsvat": 2837,
      "ĠzhlÃŃ": 2838,
      "Ġshr": 2839,
      "ĠznÃ¡t": 2840,
      "ĠmÃŃÅ¡": 2841,
      "ĠvÃ¡r": 2842,
      "ĠspÅĻÃ¡": 2843,
      "ĠsmÄĽÅ¡": 2844,
      "Ġluk": 2845,
      "Ġzpod": 2846,
      "Ġnet": 2847,
      "Ġdry": 2848,
      "ĠdnÃ¡": 2849,
      "ĠtÃ½r": 2850,
      "Ġpek": 2851,
      "ĠXXABBA": 2852,
      "Ġzpa": 2853,
      "ĠknÃ©": 2854,
      "ĠhlÃŃd": 2855,
      "ĠpouÅ¥": 2856,
      "Ġjet": 2857,
      "Ġllo": 2858,
      "ĠvznÃŃ": 2859,
      "ĠÄįtvr": 2860,
      "ĠvÅ¯m": 2861,
      "Ġvran": 2862,
      "ĠXXAAXX": 2863,
      "Ġsloup": 2864,
      "ĠveÅĪ": 2865,
      "Ġdus": 2866,
      "Äįi": 2867,
      "Ġshle": 2868,
      "Ġslit": 2869,
      "ĠÅ¡var": 2870,
      "ĠtÅĻÃŃk": 2871,
      "Ġshon": 2872,
      "Ġzs": 2873,
      "Ġrol": 2874,
      "ĠdÅĻi": 2875,
      "Ġtvy": 2876,
      "Ġdych": 2877,
      "Ġvhloub": 2878,
      "Ġvslad": 2879,
      "Ġpnou": 2880,
      "ĠrÅ¯m": 2881,
      "ĠsmÄĽl": 2882,
      "ĠbÄĽs": 2883,
      "ĠdÄĽn": 2884,
      "Ġzhu": 2885,
      "Ġvtr": 2886,
      "ĠfÃŃ": 2887,
      "Ġhrst": 2888,
      "ĠvsnÃ¡": 2889,
      "Ġknout": 2890,
      "Ġbry": 2891,
      "Ġztem": 2892,
      "Ġgic": 2893,
      "ĠvsnÃ¡ch": 2894,
      "Ġvde": 2895,
      "Ġztm": 2896,
      "ĠlÃ¡Äį": 2897,
      "Ġdrou": 2898,
      "ĠÅ¡est": 2899,
      "Ġton": 2900,
      "Ġtvi": 2901,
      "Ġlsti": 2902,
      "Ġzvyk": 2903,
      "Ġsdru": 2904,
      "ĠnÃ¡ct": 2905,
      "Ġkams": 2906,
      "ĠkvÃ©st": 2907,
      "Ġvty": 2908,
      "ĠvÅ¾a": 2909,
      "Ġzit": 2910,
      "ĠjiÅ¡": 2911,
      "Ġplav": 2912,
      "ĠvzkÅĻik": 2913,
      "Ġzev": 2914,
      "Ġlok": 2915,
      "Ġchut": 2916,
      "ĠchlÃŃ": 2917,
      "Ġrto": 2918,
      "lÃŃz": 2919,
      "Ġsym": 2920,
      "ĠkÃ©n": 2921,
      "Ġtrap": 2922,
      "Ġvlid": 2923,
      "ĠvtmÃ¡ch": 2924,
      "Ġgy": 2925,
      "ĠÅĻli": 2926,
      "Ġptac": 2927,
      "Ġzbyl": 2928,
      "Ġkras": 2929,
      "Ġzry": 2930,
      "Ġdcer": 2931,
      "ĠpÃ¡ch": 2932,
      "Ġvid": 2933,
      "ĠzÃŃs": 2934,
      "Ġchti": 2935,
      "ĠdeÅĪ": 2936,
      "Ġklek": 2937,
      "Ġrtem": 2938,
      "ĠtvÄĽ": 2939,
      "ĠlÅ¯v": 2940,
      "Ġzhr": 2941,
      "ĠhÅ¯l": 2942,
      "Ġzmar": 2943,
      "ĠvzkÅĻÃŃ": 2944,
      "ĠhÅĻb": 2945,
      "Ġcla": 2946,
      "Ġsnou": 2947,
      "Ġbrem": 2948,
      "ĠvbÃ¡": 2949,
      "ĠÅ¡per": 2950,
      "ĠlesÅ¥": 2951,
      "ĠlÅ¾i": 2952,
      "Ġster": 2953,
      "ĠpÅĻel": 2954,
      "ĠchlÃ½": 2955,
      "ĠXXXAXA": 2956,
      "ĠhouÅ¡": 2957,
      "Ġllu": 2958,
      "Ġnan": 2959,
      "ĠvpÃ¡": 2960,
      "Ġdnou": 2961,
      "ĠbÄĽt": 2962,
      "Ġlom": 2963,
      "ĠvprÃ¡": 2964,
      "Ġrtu": 2965,
      "ĠXABAB": 2966,
      "ĠchÅ¯m": 2967,
      "ĠtrÃ½z": 2968,
      "Ġztich": 2969,
      "ĠÅ¡ve": 2970,
      "ĠraÄį": 2971,
      "Ġzble": 2972,
      "Ġvnoc": 2973,
      "ĠsmÃ¡t": 2974,
      "Ġryt": 2975,
      "Ġvkraj": 2976,
      "ĠdrÃ½m": 2977,
      "ĠÅĻas": 2978,
      "Ġnouc": 2979,
      "Ġbz": 2980,
      "Ġspol": 2981,
      "lÃ©d": 2982,
      "ĠkÅĻo": 2983,
      "ĠlÃŃt": 2984,
      "Ġmrz": 2985,
      "Ġzmra": 2986,
      "ĠvzduÅ¡": 2987,
      "Ġzblou": 2988,
      "ĠzvlÃ¡Å¡Å¥": 2989,
      "ĠrdÃŃ": 2990,
      "Ġcek": 2991,
      "ĠlÃŃst": 2992,
      "Ġzvou": 2993,
      "Ġvzty": 2994,
      "Ġvc": 2995,
      "nech": 2996,
      "ĠmÃ¡ch": 2997,
      "ĠstkvÄĽ": 2998,
      "Ġ21": 2999,
      "Ġzta": 3000,
      "ĠvklÃŃn": 3001,
      "ĠleÅ¥": 3002,
      "ĠzÃºst": 3003,
      "Ġhrot": 3004,
      "ĠsbÄĽ": 3005,
      "ĠdrÃ¡Å¾": 3006,
      "ĠÅ¡pa": 3007,
      "ĠtÃ³n": 3008,
      "ĠdÃŃc": 3009,
      "Ġkvo": 3010,
      "ĠtÅĻes": 3011,
      "Ġshlu": 3012,
      "ĠÅ¾d": 3013,
      "Ġkav": 3014,
      "Ġzep": 3015,
      "ĠvstaÅĪ": 3016,
      "Ġchor": 3017,
      "ĠvÃŃn": 3018,
      "ĠtkÃ¡": 3019,
      "ĠvÃ¡z": 3020,
      "ĠdÃ¡r": 3021,
      "Ġzmat": 3022,
      "Ġstl": 3023,
      "Ġzdob": 3024,
      "Ġzpup": 3025,
      "ĠÅ¡lÃ½ch": 3026,
      "Ġdlel": 3027,
      "Ġtep": 3028,
      "ĠÅ¡ad": 3029,
      "Ġvzor": 3030,
      "Ġtvar": 3031,
      "Ġtroc": 3032,
      "Ġvjas": 3033,
      "Ġchvo": 3034,
      "ĠdvÃŃ": 3035,
      "ĠvrÃ¡t": 3036,
      "Ġspr": 3037,
      "ĠzrÅ¯": 3038,
      "ĠteÅĻ": 3039,
      "Ġmit": 3040,
      "ABXB": 3041,
      "ĠbrÃ¡k": 3042,
      "ĠtmÃŃ": 3043,
      "ĠstÅ¯m": 3044,
      "Ġchru": 3045,
      "ĠpouÅ¡Å¥": 3046,
      "Ġsply": 3047,
      "ĠtlÃ½ch": 3048,
      "Ġnnu": 3049,
      "Ġsup": 3050,
      "ĠstÃ¡ch": 3051,
      "Ġpruh": 3052,
      "Ġhvi": 3053,
      "Ġcov": 3054,
      "Ġvkle": 3055,
      "ĠstrÅ¯": 3056,
      "Ġvznes": 3057,
      "qu": 3058,
      "Ġchlou": 3059,
      "Ġsc": 3060,
      "ĠXABABX": 3061,
      "Ġvhu": 3062,
      "ĠnichÅ¾": 3063,
      "Ġmsti": 3064,
      "Ġskryt": 3065,
      "Ġsvla": 3066,
      "Ġbech": 3067,
      "Ġvkli": 3068,
      "ĠbrÃ¡t": 3069,
      "ĠsÃ¡t": 3070,
      "Ġtos": 3071,
      "Ġpej": 3072,
      "Ġvstu": 3073,
      "Ġvmu": 3074,
      "ĠzÄįer": 3075,
      "ĠchvÄĽj": 3076,
      "ĠÅĪÅ¯": 3077,
      "Ġmlad": 3078,
      "ĠÄįÃ¡r": 3079,
      "ĠtmÃ¡ch": 3080,
      "Ġbzu": 3081,
      "Ġvzi": 3082,
      "ĠkÅĻeh": 3083,
      "Ġskvou": 3084,
      "ĠvztÃ¡": 3085,
      "ĠsnÃ¡ch": 3086,
      "Ġvhr": 3087,
      "Ġstly": 3088,
      "ĠchlÃ¡": 3089,
      "Ġqu": 3090,
      "Ġcud": 3091,
      "ĠnÄĽt": 3092,
      "ĠvchÃ¡": 3093,
      "ho": 3094,
      "ĠsmÃ½": 3095,
      "ĠkpÅĻe": 3096,
      "ĠvzÃŃt": 3097,
      "Ġvtou": 3098,
      "ĠsklÃŃ": 3099,
      "Ġvhrob": 3100,
      "ĠhvÃŃz": 3101,
      "Ġske": 3102,
      "Ġsep": 3103,
      "Ġbri": 3104,
      "Ġstoup": 3105,
      "Ġvzej": 3106,
      "ĠptÃ¡Äį": 3107,
      "Ġskrz": 3108,
      "ĠvchvÃŃ": 3109,
      "Ġcar": 3110,
      "Ġksp": 3111,
      "Ġvprou": 3112,
      "ĠzÃŃÅ¡": 3113,
      "Ġhlub": 3114,
      "Ġfri": 3115,
      "vÃ¡t": 3116,
      "ĠjlÃŃ": 3117,
      "ĠsÄį": 3118,
      "Ġkvil": 3119,
      "Ġrin": 3120,
      "ĠÃ¡n": 3121,
      "ĠpÅĻÃŃz": 3122,
      "Ġoc": 3123,
      "ĠdeÅ¾": 3124,
      "Ġsyt": 3125,
      "ĠkzÃ¡": 3126,
      "Ġzkla": 3127,
      "Ġgro": 3128,
      "Ġsnes": 3129,
      "ĠspÅĻe": 3130,
      "Ġknih": 3131,
      "ĠstkvÃŃ": 3132,
      "Ġmut": 3133,
      "Ġshro": 3134,
      "Ġfau": 3135,
      "ĠvzplÃ¡l": 3136,
      "jal": 3137,
      "ĠtÃ¡Å¡": 3138,
      "ĠvdÃŃ": 3139,
      "Ġjlep": 3140,
      "ĠpÅĻedc": 3141,
      "ĠtÄĽt": 3142,
      "ĠnÅ¯Å¾": 3143,
      "Ġkch": 3144,
      "Ġrob": 3145,
      "Ġdlil": 3146,
      "ĠviÄı": 3147,
      "Ġjih": 3148,
      "is": 3149,
      "ĠzvÃ½": 3150,
      "Ġstrun": 3151,
      "Ġstev": 3152,
      "ĠtÃ½Å¾": 3153,
      "Ġah": 3154,
      "Ġom": 3155,
      "ĠvÄĽd": 3156,
      "ĠnnÃŃm": 3157,
      "ĠlaÅĪ": 3158,
      "ĠXABBA": 3159,
      "Ġcin": 3160,
      "Ġdes": 3161,
      "Ġzjas": 3162,
      "ĠhrÃ¡d": 3163,
      "Ġbok": 3164,
      "Ġtisk": 3165,
      "ĠdÅ¾": 3166,
      "Ġtrs": 3167,
      "Ġzur": 3168,
      "Ġzkad": 3169,
      "Ġvbi": 3170,
      "ĠÄįeÅ¡": 3171,
      "Ġoj": 3172,
      "Ġzpro": 3173,
      "Ġskryl": 3174,
      "ĠÅ¥al": 3175,
      "Ġvden": 3176,
      "ĠmlÃ½n": 3177,
      "ĠÄįtve": 3178,
      "Ġak": 3179,
      "ĠktÃ©": 3180,
      "Ġsru": 3181,
      "ĠshlÃŃ": 3182,
      "ĠkcÃŃ": 3183,
      "Ġstrast": 3184,
      "Ġvsluch": 3185,
      "Ġsja": 3186,
      "ĠvÄįa": 3187,
      "ĠrÃ¡Å¡": 3188,
      "Ġrce": 3189,
      "ĠdÃ¡ÅĻ": 3190,
      "ĠtÃŃk": 3191,
      "ĠmrÅ¡": 3192,
      "Ġkok": 3193,
      "ĠrÃ¡n": 3194,
      "ĠmÃ¡k": 3195,
      "Ġvzpom": 3196,
      "Ġzbi": 3197,
      "ĠniÅ¡": 3198,
      "ĠmnoÅ¾": 3199,
      "ĠhlÃ½ch": 3200,
      "Ġraz": 3201,
      "ĠjmÄĽ": 3202,
      "ĠÅ¡tva": 3203,
      "Ġrva": 3204,
      "ĠvzÅĪa": 3205,
      "ĠtÅĻit": 3206,
      "ĠÅ¡ÃŃj": 3207,
      "ĠrÃ¡Å¾": 3208,
      "Ġjsouc": 3209,
      "Ġzbroj": 3210,
      "ĠÄįan": 3211,
      "Ġlup": 3212,
      "Ġsos": 3213,
      "ka": 3214,
      "ĠsnÄĽm": 3215,
      "mut": 3216,
      "ĠsprÃ¡v": 3217,
      "ĠzÃ¡Å¡Å¥": 3218,
      "ĠprÃ¡v": 3219,
      "ĠkoÄį": 3220,
      "Ġvzdych": 3221,
      "ĠnÃ¡k": 3222,
      "Ġbub": 3223,
      "Ġvzbou": 3224,
      "Ġchech": 3225,
      "Ġih": 3226,
      "ĠstÃ½s": 3227,
      "ĠmÄĽn": 3228,
      "ĠvaÅ¥": 3229,
      "ĠmÄĽÅ¥": 3230,
      "ĠstrÃ½ch": 3231,
      "ĠnÃ¡t": 3232,
      "Ġslep": 3233,
      "ĠdnÃ½ch": 3234,
      "ĠAAXBBX": 3235,
      "Ġtuch": 3236,
      "ĠvtvÃ©": 3237,
      "Ġnep": 3238,
      "ĠtkvÃŃ": 3239,
      "ĠtouÅ¾": 3240,
      "Ġtles": 3241,
      "Ġmle": 3242,
      "ĠbÃŃm": 3243,
      "ĠrtÃŃ": 3244,
      "Ġlon": 3245,
      "ĠpÃŃr": 3246,
      "Ġrmut": 3247,
      "ĠplaÄį": 3248,
      "ĠvpÄĽ": 3249,
      "ĠvnÄĽj": 3250,
      "ĠptÃ¡m": 3251,
      "ABX": 3252,
      "Ġsul": 3253,
      "Ġkrad": 3254,
      "ĠseÅ¡": 3255,
      "Ġhaj": 3256,
      "Ġkrot": 3257,
      "Ġskli": 3258,
      "Ġkpa": 3259,
      "Ġgan": 3260,
      "Ġpluh": 3261,
      "Ġvstra": 3262,
      "ĠsrÃ¡z": 3263,
      "ĠbrÃ½ch": 3264,
      "ĠmuÅ¡": 3265,
      "ĠvzÃŃ": 3266,
      "ĠÄįiÅĪ": 3267,
      "ĠÅ¡ed": 3268,
      "ĠzvrÃ¡": 3269,
      "ĠzlÃ½m": 3270,
      "Ġdmou": 3271,
      "Ġdam": 3272,
      "Ġmru": 3273,
      "ĠÅ¡al": 3274,
      "ĠkÅĻiÅ¡": 3275,
      "Ġvba": 3276,
      "ĠvpouÅ¡": 3277,
      "ĠstvÃ©": 3278,
      "ĠXABBAX": 3279,
      "Ġjra": 3280,
      "ĠÅ¾lou": 3281,
      "Ġnus": 3282,
      "ĠklÃ½ch": 3283,
      "ĠkrÄį": 3284,
      "ĠbÃ¡Å¡": 3285,
      "Ġstol": 3286,
      "ĠlaÅ¡": 3287,
      "Ġmis": 3288,
      "ĠzahÅĻ": 3289,
      "Ġpuk": 3290,
      "ĠznÃŃÅ¾": 3291,
      "ĠkÅ¡ti": 3292,
      "ĠslÃŃÅ¡": 3293,
      "ĠtmÃ¡m": 3294,
      "Ġvbez": 3295,
      "Ġprah": 3296,
      "ĠzkvÃ©": 3297,
      "ĠlosÅ¥": 3298,
      "ĠlÃ¡c": 3299,
      "Ġryk": 3300,
      "Ġban": 3301,
      "Ġvyp": 3302,
      "Ġpij": 3303,
      "ĠslÃ¡b": 3304,
      "ĠnÃ¡v": 3305,
      "ĠdlÃŃm": 3306,
      "Ġhoun": 3307,
      "ĠstrÃ½m": 3308,
      "Ġnas": 3309,
      "ĠnÃ¡l": 3310,
      "ĠtÅĻel": 3311,
      "ĠrdÄĽ": 3312,
      "ĠchtÃŃt": 3313,
      "ĠzÅĪa": 3314,
      "Ġjist": 3315,
      "Ġpych": 3316,
      "Ġsuk": 3317,
      "Ġmyl": 3318,
      "ĠshÃ½": 3319,
      "ĠvÃ©st": 3320,
      "ĠvtÄĽÅ¾": 3321,
      "Ġvzma": 3322,
      "Ġkdu": 3323,
      "ĠvtvÃ©m": 3324,
      "Ġzes": 3325,
      "ĠveÄį": 3326,
      "ĠjdÄĽ": 3327,
      "Ġmlk": 3328,
      "Ġvhra": 3329,
      "Ġkna": 3330,
      "Ġen": 3331,
      "ĠsmÃŃr": 3332,
      "Ġvzo": 3333,
      "ĠÄıte": 3334,
      "ĠkvÅ¯": 3335,
      "ĠksvÄĽ": 3336,
      "ĠhlÃ¡s": 3337,
      "ĠoÅ¡": 3338,
      "ĠkÃ¡t": 3339,
      "ĠdlÃ¡k": 3340,
      "Ġskvr": 3341,
      "ĠjeÄį": 3342,
      "ĠkÃ¡ÅĻ": 3343,
      "ĠchvÄĽt": 3344,
      "Å¡i": 3345,
      "Ġzpe": 3346,
      "ĠloÅ¾": 3347,
      "ĠdÅ¯v": 3348,
      "Ġrval": 3349,
      "ĠkouÅĻ": 3350,
      "Ġron": 3351,
      "ĠvaÄį": 3352,
      "ĠhlÃ½m": 3353,
      "ĠktÄĽ": 3354,
      "ros": 3355,
      "ĠtÃ¡l": 3356,
      "ĠÃºc": 3357,
      "ĠnÃŃmÅ¾": 3358,
      "Ġskok": 3359,
      "ĠvmÃ¡": 3360,
      "ĠsuÄı": 3361,
      "Ġnin": 3362,
      "ĠsÃ¡l": 3363,
      "Ġloup": 3364,
      "ĠmÃŃÅĪ": 3365,
      "ĠklÃŃÄį": 3366,
      "ĠvÄįi": 3367,
      "Ġkji": 3368,
      "Ġduj": 3369,
      "ĠhraÄį": 3370,
      "ĠdouÅ¡": 3371,
      "Ġvnej": 3372,
      "Ġnni": 3373,
      "Ġvsmut": 3374,
      "Ġzad": 3375,
      "ĠchuÅ¥": 3376,
      "Ġuc": 3377,
      "ĠpÅĻiz": 3378,
      "ĠpiÅ¡": 3379,
      "ĠÄįiv": 3380,
      "ĠvtÃŃ": 3381,
      "ĠmÄĽÅĻ": 3382,
      "ĠÅ¥o": 3383,
      "Ġzbyt": 3384,
      "Ġvzcho": 3385,
      "Ġkpra": 3386,
      "Ġvsmr": 3387,
      "Ġmha": 3388,
      "ĠÅ¡lÃ½": 3389,
      "ĠvzÃ½": 3390,
      "Ġstin": 3391,
      "ĠvÅ¾Ã¡": 3392,
      "ĠrtÅ¯m": 3393,
      "vÃ½": 3394,
      "ĠmdlÃ¡": 3395,
      "Ġlip": 3396,
      "ĠkÃ½v": 3397,
      "ĠzbÃŃ": 3398,
      "ĠchÃ¡Å¡": 3399,
      "ĠshÅ¯": 3400,
      "Ġtluk": 3401,
      "ĠÄįeÅ¾": 3402,
      "ĠzdvÃŃ": 3403,
      "Ġdral": 3404,
      "Ġvnik": 3405,
      "Ġchud": 3406,
      "ĠfrÃ¡": 3407,
      "Ġvble": 3408,
      "Ġser": 3409,
      "ĠjitÅĻ": 3410,
      "Ġmet": 3411,
      "ĠtÅĻesk": 3412,
      "Ġvoh": 3413,
      "Ġlym": 3414,
      "Ġvlak": 3415,
      "ĠvznÄĽt": 3416,
      "ĠdÃ©Äį": 3417,
      "ĠzkvÄĽ": 3418,
      "ĠvÅĻÃŃt": 3419,
      "Ġhvozd": 3420,
      "ry": 3421,
      "Ġtmu": 3422,
      "ĠsnÅ¯m": 3423,
      "Ġrvou": 3424,
      "ĠleÅ¡": 3425,
      "ĠlÃ¡k": 3426,
      "ĠkÃ©s": 3427,
      "ĠvzdÄĽ": 3428,
      "ĠvslÃ¡": 3429,
      "Ġvjiz": 3430,
      "ĠtÄĽÅ¡": 3431,
      "Ġsrov": 3432,
      "ĠpÅĻijÄı": 3433,
      "Ġchro": 3434,
      "ĠhÃ¡Å¡": 3435,
      "ÅĻad": 3436,
      "Ġvous": 3437,
      "Ġmraz": 3438,
      "ĠprÃ½Å¡": 3439,
      "Ġcvr": 3440,
      "Ġbouk": 3441,
      "Ġjsy": 3442,
      "ĠvlÃŃc": 3443,
      "Ġvzka": 3444,
      "Ġskrov": 3445,
      "ĠsvÃ¡r": 3446,
      "ĠknÃŃÅ¾": 3447,
      "ĠrÅ¯st": 3448,
      "Ġvre": 3449,
      "Ġdrem": 3450,
      "Ġtik": 3451,
      "ĠlÃ¡ÅĻ": 3452,
      "ĠÄįÃ¡st": 3453,
      "ĠvhruÄı": 3454,
      "Ġcer": 3455,
      "ĠjÃŃz": 3456,
      "Ġpluk": 3457,
      "ĠÄįnÄĽ": 3458,
      "ĠcÃ½ch": 3459,
      "ĠÅĻÃŃd": 3460,
      "ĠzpÅĻÃŃ": 3461,
      "ĠrouÅ¡": 3462,
      "ĠzÅĻÃŃd": 3463,
      "Ġzhoub": 3464,
      "Ġcez": 3465,
      "ĠdÄĽÄį": 3466,
      "ĠvmlÃ¡": 3467,
      "Ġtrub": 3468,
      "Ġvmou": 3469,
      "ĠlÃ©k": 3470,
      "Ġfer": 3471,
      "ĠshÃ¡": 3472,
      "ĠstmÃŃ": 3473,
      "ĠÃ©": 3474,
      "Ġkod": 3475,
      "Ġvpar": 3476,
      "ĠslÃ¡s": 3477,
      "Ġnai": 3478,
      "Ġstlo": 3479,
      "ĠÅ¡ku": 3480,
      "ĠpsÃ¡t": 3481,
      "ĠdiÅ¡": 3482,
      "ĠÅ¾ij": 3483,
      "Ġbas": 3484,
      "Ġbav": 3485,
      "Ġet": 3486,
      "Ġhnou": 3487,
      "ĠkprÃ¡": 3488,
      "Ġsvy": 3489,
      "ĠvÃŃt": 3490,
      "ĠvÅĻes": 3491,
      "Ġroh": 3492,
      "ĠÅĻÃ¡n": 3493,
      "Ġvos": 3494,
      "Ġpus": 3495,
      "Ġhmy": 3496,
      "Ġhel": 3497,
      "Ġlau": 3498,
      "Ġvkout": 3499,
      "Ġcech": 3500,
      "ĠkdÃŃ": 3501,
      "ĠpÅĻil": 3502,
      "ĠbrÃ½m": 3503,
      "Ġvzpou": 3504,
      "Ġvtma": 3505,
      "Ġkhro": 3506,
      "Ġstiv": 3507,
      "Ġplam": 3508,
      "ĠtiÅ¾": 3509,
      "Ġzpou": 3510,
      "ĠsÅĪ": 3511,
      "Ġhev": 3512,
      "Ġboun": 3513,
      "Ġkslun": 3514,
      "ĠdrÅ¾": 3515,
      "ĠlÅ¾ÃŃ": 3516,
      "ĠksmÃŃ": 3517,
      "ĠtvÃŃch": 3518,
      "Ġkvla": 3519,
      "ĠvkvÄĽt": 3520,
      "Ġmund": 3521,
      "Ġrab": 3522,
      "Ġfou": 3523,
      "Ġvplen": 3524,
      "Ġrot": 3525,
      "ĠrÃ¡ÅĻ": 3526,
      "Ġslek": 3527,
      "ĠsÅ¾e": 3528,
      "ĠnÃ¡Äį": 3529,
      "ĠhÃ¡v": 3530,
      "ĠctÄĽ": 3531,
      "ĠkÄįi": 3532,
      "Ġvoz": 3533,
      "Ġmlh": 3534,
      "ĠvklÃ¡": 3535,
      "ĠÅ¡tvÃ¡": 3536,
      "Ġlly": 3537,
      "Ġrys": 3538,
      "Ġam": 3539,
      "ĠnÃ©Äį": 3540,
      "ĠdÃ³": 3541,
      "Ġvcha": 3542,
      "ĠrÅ¯Å¾": 3543,
      "ĠspÅĻÃŃ": 3544,
      "ĠvprÃ¡z": 3545,
      "Ġfon": 3546,
      "ĠÄįiÅ¡": 3547,
      "Ġchan": 3548,
      "Ġcvi": 3549,
      "Ġsop": 3550,
      "Ġmej": 3551,
      "Ġvsnech": 3552,
      "Ġlout": 3553,
      "ĠsmÃŃm": 3554,
      "re": 3555,
      "ĠkaÅ¡": 3556,
      "ĠvÃ½z": 3557,
      "ĠÅ¾ert": 3558,
      "ĠsÃ¡ch": 3559,
      "ĠchÃ¡z": 3560,
      "ĠstÃ½ÅĻ": 3561,
      "ĠstÅĻ": 3562,
      "Ġdeb": 3563,
      "ĠÄįiÄį": 3564,
      "Ġvzhled": 3565,
      "ĠABC": 3566,
      "Ġzpla": 3567,
      "ĠstrÃ¡ÅĪ": 3568,
      "Ġkvap": 3569,
      "Ġzly": 3570,
      "ĠdÅ¾b": 3571,
      "Ġchrem": 3572,
      "ĠdeÅĻ": 3573,
      "ĠpÄĽn": 3574,
      "ĠpiÄį": 3575,
      "ĠbÃ¡n": 3576,
      "Ġdvoj": 3577,
      "ĠtÃŃc": 3578,
      "Ġvnes": 3579,
      "ĠstÃ¡n": 3580,
      "ĠlhÃ¡": 3581,
      "Ġstrov": 3582,
      "ĠhÅĻmo": 3583,
      "ĠvsvÃ½ch": 3584,
      "Ġgen": 3585,
      "ĠÅ¥te": 3586,
      "ĠÅ¾va": 3587,
      "ĠkaÅĻ": 3588,
      "ĠvhouÅ¡": 3589,
      "ĠlÃ©t": 3590,
      "Ġzbled": 3591,
      "ĠnitÅĻ": 3592,
      "ĠzlÃ¡s": 3593,
      "Ġvzlyk": 3594,
      "ĠvkrÃ¡t": 3595,
      "Ġpri": 3596,
      "Ġkvr": 3597,
      "Ġbre": 3598,
      "Ġtsk": 3599,
      "Ġnar": 3600,
      "Ġsroz": 3601,
      "Ġschy": 3602,
      "ĠzÄį": 3603,
      "Ġzlob": 3604,
      "ĠÅ¾iÄį": 3605,
      "Ġzvr": 3606,
      "ĠÅ¡ka": 3607,
      "Ġcle": 3608,
      "Ġshor": 3609,
      "Ġdluh": 3610,
      "Ġtar": 3611,
      "Ġvprav": 3612,
      "Ġtrok": 3613,
      "Ġzrn": 3614,
      "Ġzdlou": 3615,
      "ĠÅĻiÄį": 3616,
      "ĠznÃŃt": 3617,
      "ĠtuÄį": 3618,
      "ĠtuÅ¥": 3619,
      "ĠlÃŃÅĻ": 3620,
      "Ġmhou": 3621,
      "ĠdlÃ½m": 3622,
      "ĠkÃ¡s": 3623,
      "Ġvmla": 3624,
      "Ġjev": 3625,
      "ĠÅ¡kol": 3626,
      "ĠskrÃ½Å¡": 3627,
      "Ġflo": 3628,
      "ĠvznÃ©": 3629,
      "ĠkhvÄĽz": 3630,
      "ĠhÃ¡Äį": 3631,
      "ĠvsmÃŃ": 3632,
      "Ġmur": 3633,
      "Ġvhor": 3634,
      "Ġvnuk": 3635,
      "ĠvaÅ¾": 3636,
      "ĠvdÅ¯": 3637,
      "Ġvspo": 3638,
      "ĠvÅ¡tÄĽ": 3639,
      "ĠvlaÅ¾": 3640,
      "Ġstvem": 3641,
      "ĠtÅĻti": 3642,
      "Ġdrah": 3643,
      "ĠzvÅ¯": 3644,
      "Ġshni": 3645,
      "Ġplul": 3646,
      "Ġnis": 3647,
      "ĠmÅ¡i": 3648,
      "Ġzach": 3649,
      "ĠtÄĽr": 3650,
      "ĠzblÃŃz": 3651,
      "Ġvlk": 3652,
      "Ġsedm": 3653,
      "ĠÄįÃŃc": 3654,
      "Ġmer": 3655,
      "Ġzkro": 3656,
      "Ġdlesk": 3657,
      "ĠvztÃ½": 3658,
      "Ġzez": 3659,
      "ĠÄįap": 3660,
      "ĠsnÃ©": 3661,
      "ĠdrÃ©m": 3662,
      "ĠstmÄĽ": 3663,
      "ĠrvÃ¡t": 3664,
      "ĠzÃ¡k": 3665,
      "ĠstlÃ¡": 3666,
      "ĠhrÃ¡z": 3667,
      "ĠsÅĪa": 3668,
      "Ġpach": 3669,
      "Ġviv": 3670,
      "Ġjun": 3671,
      "ĠspouÅ¡": 3672,
      "Ġnah": 3673,
      "Ġdri": 3674,
      "Ġ22": 3675,
      "ĠvyÅĻ": 3676,
      "ĠvÃŃd": 3677,
      "Ġvzda": 3678,
      "ĠbÃ½m": 3679,
      "ĠnouÅ¥": 3680,
      "Ġsbra": 3681,
      "ĠpÅĻÃŃt": 3682,
      "ĠzmÃ©": 3683,
      "ĠspÄĽj": 3684,
      "ĠhÅĻÃŃÄį": 3685,
      "vÃ½m": 3686,
      "ĠÅĻve": 3687,
      "Ġdout": 3688,
      "Ġkrej": 3689,
      "Ġhos": 3690,
      "Ġbah": 3691,
      "Ġpiv": 3692,
      "ĠvnoÄį": 3693,
      "ĠvÃ¡k": 3694,
      "ĠÅĻÃŃk": 3695,
      "Ġzdy": 3696,
      "Ġplen": 3697,
      "ĠradÅ¡": 3698,
      "Ġtha": 3699,
      "Ġzik": 3700,
      "ĠmÃŃst": 3701,
      "Ġvchlad": 3702,
      "ĠmÃ¡Å¾": 3703,
      "ĠkmÄĽ": 3704,
      "Ġschu": 3705,
      "ĠbÅĻit": 3706,
      "ĠsÅĻÃŃ": 3707,
      "Ġdep": 3708,
      "Ġstop": 3709,
      "Ġat": 3710,
      "Ġmic": 3711,
      "Ġzbou": 3712,
      "ĠvztÃ¡h": 3713,
      "Ġvsu": 3714,
      "Ġvsled": 3715,
      "ĠbÃŃn": 3716,
      "Ġbyls": 3717,
      "ĠpÅĻa": 3718,
      "Ġsah": 3719,
      "Ġvrab": 3720,
      "Ġsok": 3721,
      "ĠdlaÅ¾": 3722,
      "ĠknÃ½": 3723,
      "Ġlvi": 3724,
      "ĠÅĻej": 3725,
      "Ġkvy": 3726,
      "ĠvmÃ½ch": 3727,
      "ĠÅ¡kÅ¯d": 3728,
      "ĠÄıar": 3729,
      "Ġchoun": 3730,
      "Ġprst": 3731,
      "ĠpÃ¡m": 3732,
      "vÃ½ch": 3733,
      "Ġsin": 3734,
      "ĠABB": 3735,
      "Ġvdru": 3736,
      "ĠtÅĻen": 3737,
      "ĠdÄĽk": 3738,
      "ĠAAAA": 3739,
      "ĠktÄĽm": 3740,
      "ĠvyÄį": 3741,
      "Ġgli": 3742,
      "ĠdvÃ¡b": 3743,
      "ĠtrÃ©": 3744,
      "Ġsvaz": 3745,
      "Ġtvol": 3746,
      "Ġzhor": 3747,
      "Ġplout": 3748,
      "Ġpech": 3749,
      "Ġbij": 3750,
      "Ġzkra": 3751,
      "ĠvzpÅĻÃŃ": 3752,
      "ĠtÄĽk": 3753,
      "ĠÄįou": 3754,
      "ĠsÃŃÅ¥": 3755,
      "ĠfÃ¡m": 3756,
      "ĠvÅĻen": 3757,
      "ĠAXABBX": 3758,
      "ĠpasÅ¥": 3759,
      "Ġrag": 3760,
      "nul": 3761,
      "ĠzÅ¡e": 3762,
      "ĠvnÄĽÅ¾": 3763,
      "Ġkyn": 3764,
      "Ġtho": 3765,
      "ĠrÅ¯v": 3766,
      "Ġem": 3767,
      "Ġvtis": 3768,
      "Ġvlou": 3769,
      "ĠbÃ½ch": 3770,
      "ĠcÃ½m": 3771,
      "Ġsval": 3772,
      "Ġuj": 3773,
      "Ġmoj": 3774,
      "Ġmam": 3775,
      "ĠÄįÃŃk": 3776,
      "ĠÅ¡iÄį": 3777,
      "Ġvdlou": 3778,
      "ĠÄįat": 3779,
      "ĠzÃ¡c": 3780,
      "ĠdliÄį": 3781,
      "ĠnÃŃc": 3782,
      "Ġzvla": 3783,
      "Ġvzruch": 3784,
      "ĠstÅĻech": 3785,
      "ĠABABBX": 3786,
      "Ġhus": 3787,
      "ĠvpÅ¯l": 3788,
      "ĠvÅĻi": 3789,
      "ĠsteÄį": 3790,
      "ĠvsÃŃÅĪ": 3791,
      "Ġspod": 3792,
      "ĠÄįlun": 3793,
      "Ġkob": 3794,
      "ĠteÅ¾": 3795,
      "ĠÅ¡ev": 3796,
      "ĠvspÄĽ": 3797,
      "Ġryl": 3798,
      "ĠzÅĻej": 3799,
      "Ġvsko": 3800,
      "ĠbÃ¡k": 3801,
      "Ġvprv": 3802,
      "ĠpÅĻen": 3803,
      "Ġvsen": 3804,
      "Ġzmoc": 3805,
      "ĠpeÅĪ": 3806,
      "ĠpsÃŃ": 3807,
      "ĠsÅ¡": 3808,
      "ĠvÅ¾e": 3809,
      "ĠspÃŃs": 3810,
      "Ġpso": 3811,
      "Ġstisk": 3812,
      "ĠbuÅ¥": 3813,
      "Ġrep": 3814,
      "ĠtrÅ¯m": 3815,
      "ĠvjÃŃ": 3816,
      "ĠÄįed": 3817,
      "ĠsmÄĽr": 3818,
      "Ġmdle": 3819,
      "Ġkpr": 3820,
      "ĠtvÃŃm": 3821,
      "Ġvkni": 3822,
      "ĠXAAXBB": 3823,
      "Ġsz": 3824,
      "Ġex": 3825,
      "Ġpsi": 3826,
      "ĠjlÃŃp": 3827,
      "ĠspÃ¡r": 3828,
      "Ġznej": 3829,
      "ĠzÅ¾": 3830,
      "Ġeh": 3831,
      "ĠÄįerv": 3832,
      "Ġlkal": 3833,
      "Ġbot": 3834,
      "Ġpsy": 3835,
      "ĠmrÃ¡Äį": 3836,
      "ĠXAAA": 3837,
      "Ġsvod": 3838,
      "Ġvstro": 3839,
      "ĠÅ¾in": 3840,
      "Ġglo": 3841,
      "Ġpic": 3842,
      "ĠschrÃ¡": 3843,
      "ĠceÅ¡": 3844,
      "Ġmos": 3845,
      "ĠrÃ¡b": 3846,
      "Ġvmr": 3847,
      "Ġdul": 3848,
      "Ġger": 3849,
      "Ġvlok": 3850,
      "ĠsmeÄį": 3851,
      "nÃ½": 3852,
      "ĠtÃŃh": 3853,
      "Ġssa": 3854,
      "Ġab": 3855,
      "ĠÅ¡ou": 3856,
      "Ġpust": 3857,
      "Ġvha": 3858,
      "ĠÅ¡ik": 3859,
      "ĠjÅ¯m": 3860,
      "Ġthu": 3861,
      "Ġvly": 3862,
      "ĠkÅĻep": 3863,
      "ĠÅ¾ol": 3864,
      "ĠzvÃ¡n": 3865,
      "ĠfÅ¯": 3866,
      "Ġzlil": 3867,
      "ĠÃ¡Å¡": 3868,
      "ĠhÅĻi": 3869,
      "Ġland": 3870,
      "Ġzleh": 3871,
      "ĠvsÃ¡": 3872,
      "Ġvnez": 3873,
      "ĠstvÅ¯": 3874,
      "Ġpyt": 3875,
      "Ġsdo": 3876,
      "ĠslÅ¯v": 3877,
      "Ġpost": 3878,
      "ĠptÃ¡t": 3879,
      "ĠÅ¾hnou": 3880,
      "Ġram": 3881,
      "Ġvtmu": 3882,
      "ĠÅ¡pÃŃ": 3883,
      "Ġvv": 3884,
      "ĠlkÃ¡t": 3885,
      "ĠhrÃ¡m": 3886,
      "ĠspÃ¡d": 3887,
      "ĠÅ¡Å¥Ã¡": 3888,
      "Ġtvu": 3889,
      "ĠjÃŃst": 3890,
      "Ġzvad": 3891,
      "Ġhoum": 3892,
      "ĠzkÅĻi": 3893,
      "ĠdaÅĪ": 3894,
      "ĠstiÄį": 3895,
      "Ġim": 3896,
      "Ġvslo": 3897,
      "Ġvtru": 3898,
      "ĠvtÃ¡": 3899,
      "ĠgÃ¡": 3900,
      "Ġsrp": 3901,
      "ĠÅ¡Ã¡r": 3902,
      "Ġmly": 3903,
      "Ġsji": 3904,
      "ĠhÅĻbet": 3905,
      "Ġhov": 3906,
      "ĠvhnÄĽ": 3907,
      "ĠcÃ©": 3908,
      "Ġric": 3909,
      "ĠÄįli": 3910,
      "Ġprot": 3911,
      "Ġzmd": 3912,
      "Ġcouz": 3913,
      "Ġcher": 3914,
      "Ġdrak": 3915,
      "ĠzvÄĽsÅ¥": 3916,
      "Ġpous": 3917,
      "Ġvdech": 3918,
      "Ġrouc": 3919,
      "Ġzvod": 3920,
      "Ġshas": 3921,
      "Ġdlen": 3922,
      "ĠbdÄĽl": 3923,
      "Ġksk": 3924,
      "ĠzaÅ¡": 3925,
      "ĠdvÃ¡Å¾": 3926,
      "Ġbab": 3927,
      "XAX": 3928,
      "Ġcnost": 3929,
      "Ġzhra": 3930,
      "Ġvznik": 3931,
      "ĠstlÃ©": 3932,
      "Ġklec": 3933,
      "Ġnald": 3934,
      "ĠsÅ¾": 3935,
      "ĠAAXXBB": 3936,
      "ĠhlÃ©m": 3937,
      "ĠdrÅ¯": 3938,
      "pÃŃ": 3939,
      "ĠtoÄį": 3940,
      "Ġnud": 3941,
      "Ġvzad": 3942,
      "Ġvpoz": 3943,
      "ĠvzchÃ¡": 3944,
      "yt": 3945,
      "ĠÄįÅ¯m": 3946,
      "ĠÅ¡ÃŃk": 3947,
      "ĠzmlÃ¡": 3948,
      "Ġmout": 3949,
      "Ġsliv": 3950,
      "Ġksou": 3951,
      "ĠtlÃ©m": 3952,
      "ĠÅ¾eÅ¥": 3953,
      "Ġsnah": 3954,
      "Ġchry": 3955,
      "ĠvÄįÃŃ": 3956,
      "ĠctnÃ©": 3957,
      "Ġzob": 3958,
      "Ġzjed": 3959,
      "ĠkmÃ©": 3960,
      "ĠpruÅ¾": 3961,
      "Ġzmlk": 3962,
      "Ġmag": 3963,
      "Ġhed": 3964,
      "Ġson": 3965,
      "ĠsÅ¾i": 3966,
      "ĠÅ¡ti": 3967,
      "Ġlha": 3968,
      "Ġzci": 3969,
      "Ġvzta": 3970,
      "ĠsfÃ©": 3971,
      "ĠliÅ¾": 3972,
      "Ġrub": 3973,
      "Ġtrn": 3974,
      "ĠvkÅĻe": 3975,
      "ĠvmÅ¾i": 3976,
      "ĠsnÄĽt": 3977,
      "Ġbyv": 3978,
      "Ġvzrak": 3979,
      "ĠlvÃŃ": 3980,
      "ĠÅ¾ra": 3981,
      "ĠztvÃ½ch": 3982,
      "ĠverÅ¡": 3983,
      "Ġfle": 3984,
      "Ġfej": 3985,
      "ĠvrÃ½": 3986,
      "ĠzlÅ¯": 3987,
      "ĠÅ¡piÄį": 3988,
      "ĠbÅĻeÄį": 3989,
      "Ġvlek": 3990,
      "ĠhnÃ¡t": 3991,
      "ĠvtvÃ½ch": 3992,
      "Ġmok": 3993,
      "ĠÅ¾id": 3994,
      "Ġstvol": 3995,
      "ĠcÃŃÅĻ": 3996,
      "ĠzdÅĻÃŃ": 3997,
      "Ġsluj": 3998,
      "Ġdaj": 3999,
      "Ġeu": 4000,
      "ĠmÅ¯r": 4001,
      "ĠstÃ¡h": 4002,
      "Ġschop": 4003,
      "ĠÅ¡va": 4004,
      "ĠflÃ©": 4005,
      "ĠuÄį": 4006,
      "ĠpÅĻeÄį": 4007,
      "Ġhrej": 4008,
      "ĠhoÄı": 4009,
      "ĠÅ¾Ã¡k": 4010,
      "cÅ¯": 4011,
      "Ġgar": 4012,
      "Ġloun": 4013,
      "Ġzhla": 4014,
      "ri": 4015,
      "ĠpÅ¯t": 4016,
      "ĠsÅ¯v": 4017,
      "ĠlÃŃn": 4018,
      "Ġhnul": 4019,
      "Ġoct": 4020,
      "ĠÅ¯": 4021,
      "ĠdaÅĻ": 4022,
      "ĠhÅĻbe": 4023,
      "Ġzpl": 4024,
      "ĠdÅ¯l": 4025,
      "ĠÅ¡ÅĪ": 4026,
      "Ġchval": 4027,
      "ĠhÅ¯ÅĻ": 4028,
      "Ġvjar": 4029,
      "ĠdlÃ©m": 4030,
      "ĠÃŃch": 4031,
      "ĠvdlaÅĪ": 4032,
      "Ġnaiv": 4033,
      "ĠtosÅ¥": 4034,
      "ĠtÃŃÄį": 4035,
      "ĠÄįÃŃt": 4036,
      "Ġzbor": 4037,
      "Ġtb": 4038,
      "ĠÅ¡els": 4039,
      "Ġvg": 4040,
      "Ġpja": 4041,
      "Ġvpad": 4042,
      "Ġbloud": 4043,
      "Ġchm": 4044,
      "ĠnuÅ¡": 4045,
      "Ġvzou": 4046,
      "Ġvsla": 4047,
      "Ġstrop": 4048,
      "Ġ23": 4049,
      "Ġvska": 4050,
      "Ġznik": 4051,
      "ĠkosÅ¥": 4052,
      "Ġzmy": 4053,
      "ny": 4054,
      "Ġsvra": 4055,
      "Ġbrav": 4056,
      "Ġbost": 4057,
      "ĠzpÅĻe": 4058,
      "ĠsÄįÃŃ": 4059,
      "kÃ¡": 4060,
      "Ġpoch": 4061,
      "ĠÅ¡lel": 4062,
      "ĠchlÃ½m": 4063,
      "Ġzkte": 4064,
      "Ġvchu": 4065,
      "ĠXAABXB": 4066,
      "ĠtrÃ¡v": 4067,
      "ĠstÅĻem": 4068,
      "ĠtkvÄĽ": 4069,
      "Ġkbla": 4070,
      "ĠvrÃ¡j": 4071,
      "ĠdÅ¡": 4072,
      "ĠÅ¾nÃŃ": 4073,
      "Ġrud": 4074,
      "ĠÅ¾ÃŃn": 4075,
      "Ġzdvo": 4076,
      "Ġup": 4077,
      "Ġboh": 4078,
      "Ġzbar": 4079,
      "Ġzisk": 4080,
      "Ġsklen": 4081,
      "Ġsfin": 4082,
      "ĠrÃ¡Äį": 4083,
      "ĠpÃ½ch": 4084,
      "ĠhÃ¡n": 4085,
      "Ġmlat": 4086,
      "ĠztvÃ©": 4087,
      "ĠkbÅĻe": 4088,
      "ĠdbÃ¡": 4089,
      "ĠÅ¾Å¯m": 4090,
      "ĠpleÅ¥": 4091,
      "Ġkrk": 4092,
      "Ġchop": 4093,
      "ĠnÃŃt": 4094,
      "Ġhout": 4095,
      "ĠklÃ¡s": 4096,
      "ĠÅ¡Ã¡t": 4097,
      "Ġtol": 4098,
      "ĠvÃ¡t": 4099,
      "ĠÅĻvou": 4100,
      "Ġskem": 4101,
      "ĠbÅĻÃŃz": 4102,
      "Ġchov": 4103,
      "ĠdrÅ¯m": 4104,
      "Ġkslu": 4105,
      "Ġfat": 4106,
      "Ġket": 4107,
      "ĠvtÃ½": 4108,
      "ĠkrÃ©": 4109,
      "Ġtet": 4110,
      "Ġouz": 4111,
      "Ġztmy": 4112,
      "Ġzf": 4113,
      "ĠzdÃ¡r": 4114,
      "Ġvsy": 4115,
      "Ġsor": 4116,
      "Ġsklon": 4117,
      "Ġklel": 4118,
      "ĠskÅĻek": 4119,
      "Ġseh": 4120,
      "ĠvtÅ¯": 4121,
      "ĠshlÃ©d": 4122,
      "ĠoÅĻ": 4123,
      "Ġhouf": 4124,
      "Ġtram": 4125,
      "Ġmes": 4126,
      "Ġbuz": 4127,
      "Ġjes": 4128,
      "ĠzÃ¡r": 4129,
      "ĠpÃ¡Å¾": 4130,
      "ĠdnÃ½m": 4131,
      "ĠzÃ©": 4132,
      "Ġmyr": 4133,
      "Ġkhla": 4134,
      "Ġvrhl": 4135,
      "ĠktvÃ©": 4136,
      "Ġment": 4137,
      "ĠkdÄĽ": 4138,
      "ĠstvÃ½": 4139,
      "Ġhrd": 4140,
      "ĠniÅ¥": 4141,
      "ĠbÄĽÅ¾": 4142,
      "es": 4143,
      "ĠstÄĽj": 4144,
      "Ġzven": 4145,
      "ĠmÃ³": 4146,
      "Ġzc": 4147,
      "Ġruj": 4148,
      "Ġsol": 4149,
      "ĠblÃ¡Äį": 4150,
      "ĠvzlÃ©t": 4151,
      "Ġjho": 4152,
      "ĠsplÃŃ": 4153,
      "Ġcim": 4154,
      "Ġsvel": 4155,
      "ĠtÃ½d": 4156,
      "ĠbÃ¡v": 4157,
      "Ġzrad": 4158,
      "Ġwa": 4159,
      "Ġdis": 4160,
      "Ġstvou": 4161,
      "ĠshvÄĽz": 4162,
      "Ġstyd": 4163,
      "ĠpÃ½r": 4164,
      "ĠÄįtu": 4165,
      "Ġkrb": 4166,
      "ĠhÅĻÃ¡t": 4167,
      "ĠvÃ½h": 4168,
      "ĠhÃ½Äį": 4169,
      "Ġtkal": 4170,
      "Ġnejv": 4171,
      "ĠbloÅĪ": 4172,
      "Ġgon": 4173,
      "ĠstÃ¡d": 4174,
      "ĠbylÅ¥": 4175,
      "Ġthy": 4176,
      "Ġchar": 4177,
      "Ġmnoh": 4178,
      "Ġvdol": 4179,
      "Ġdvih": 4180,
      "Ġsci": 4181,
      "Ġrum": 4182,
      "Ġhvizd": 4183,
      "ĠmÅĻi": 4184,
      "ĠmÅ¯m": 4185,
      "Ġmuch": 4186,
      "Ġvuj": 4187,
      "ĠkslÃ¡": 4188,
      "Ġxi": 4189,
      "ĠzÅ¾e": 4190,
      "ĠvÃ¡ÅĻ": 4191,
      "ĠskloÅĪ": 4192,
      "Ġnym": 4193,
      "Ġther": 4194,
      "ĠzÅ¾i": 4195,
      "Ġnoh": 4196,
      "Ġproz": 4197,
      "ĠcÃ¡r": 4198,
      "ĠpÅĻim": 4199,
      "ĠblaÄį": 4200,
      "ĠstaÅ¥": 4201,
      "Ġzroz": 4202,
      "ĠjvÃ½": 4203,
      "ĠbÅ¯m": 4204,
      "Ġosm": 4205,
      "Ġtrhl": 4206,
      "ĠvkrÃ¡s": 4207,
      "lÃ½m": 4208,
      "ĠÅ¥Ã¡t": 4209,
      "ĠkÅĻÃ¡": 4210,
      "ABC": 4211,
      "Ġbud": 4212,
      "Ġvklid": 4213,
      "Ġvzkaz": 4214,
      "ĠABCABC": 4215,
      "Ġzkru": 4216,
      "ĠrvÃ¡": 4217,
      "Ġvouk": 4218,
      "Ġkur": 4219,
      "ĠkrÃ¡m": 4220,
      "ĠbrÅ¯": 4221,
      "ĠkmÃŃ": 4222,
      "Ġkvet": 4223,
      "Ġcuj": 4224,
      "ĠÅ¡ÃŃc": 4225,
      "ĠstrÃ½c": 4226,
      "XXB": 4227,
      "ĠÅĻeh": 4228,
      "ĠkpÃ¡": 4229,
      "Ġvrod": 4230,
      "ĠvskrÃ¡": 4231,
      "ĠvÅĻÃŃn": 4232,
      "ĠhÅĻmot": 4233,
      "Ġuh": 4234,
      "ĠlÃ¡v": 4235,
      "ĠzvÃ¡t": 4236,
      "ĠschÅ¯": 4237,
      "Ġroc": 4238,
      "ĠpÃ¡t": 4239,
      "ĠchrÅ¯": 4240,
      "Ġuv": 4241,
      "ĠmstÃŃ": 4242,
      "XXX": 4243,
      "Ġzmla": 4244,
      "Ġvyl": 4245,
      "ĠshrÅ¯": 4246,
      "Ġmant": 4247,
      "Ġgol": 4248,
      "ĠÅ¡tvÃ¡n": 4249,
      "ĠÅĻk": 4250,
      "ĠpÅĻip": 4251,
      "ĠziÄį": 4252,
      "ĠstrÃ©m": 4253,
      "ĠvÅ¡ÃŃÅĻ": 4254,
      "ĠAXABXB": 4255,
      "Ġblys": 4256,
      "ĠtÃŃn": 4257,
      "ĠlouÄį": 4258,
      "Ġzok": 4259,
      "ĠbÃ¡ÅĪ": 4260,
      "Ġkrat": 4261,
      "ĠpÃ³": 4262,
      "Ġseb": 4263,
      "ĠÅĻÅ¯m": 4264,
      "Ġdos": 4265,
      "Ġvzdal": 4266,
      "ĠABACCB": 4267,
      "ĠÅ¡ar": 4268,
      "ĠvblÃ¡": 4269,
      "ĠpÃ½m": 4270,
      "Ġsez": 4271,
      "Ġmrt": 4272,
      "ĠstlÃ½": 4273,
      "ÅĻo": 4274,
      "Ġvpi": 4275,
      "ĠkvÄĽl": 4276,
      "ĠnnÃŃch": 4277,
      "ĠvbÃ¡z": 4278,
      "Ġdme": 4279,
      "ĠchoÄı": 4280,
      "ĠdveÅĻ": 4281,
      "Ġkdru": 4282,
      "ĠÅĻÃŃÅ¾": 4283,
      "ĠtnÄĽ": 4284,
      "Ġhve": 4285,
      "Ġruk": 4286,
      "Ġvchod": 4287,
      "ĠcvÃ¡": 4288,
      "Ġstlu": 4289,
      "ĠÅĻva": 4290,
      "ĠzÅ¡": 4291,
      "ĠÅ¡ej": 4292,
      "ĠÅĻez": 4293,
      "ĠpatÅĻ": 4294,
      "ĠlÃ¡z": 4295,
      "Ġbul": 4296,
      "ĠzÃ¡n": 4297,
      "Ġpte": 4298,
      "Ġzvra": 4299,
      "ĠvhnÃŃz": 4300,
      "ĠvzpÄĽ": 4301,
      "Ġsvist": 4302,
      "ĠcÃŃÅ¡": 4303,
      "ĠhnÃ¡n": 4304,
      "ĠmÃ¡Äį": 4305,
      "ĠÅ¾ÃŃc": 4306,
      "ĠluÄį": 4307,
      "Ġvsvo": 4308,
      "ĠÅĪÃ¡t": 4309,
      "ĠklÃ½m": 4310,
      "ĠÅ¡kr": 4311,
      "Ġvbuj": 4312,
      "ĠÅĻval": 4313,
      "ĠpÅĻev": 4314,
      "ĠdÅĻich": 4315,
      "ĠpraÅ¾": 4316,
      "Ġvdra": 4317,
      "Ġvkla": 4318,
      "Ġblah": 4319,
      "Ġtuh": 4320,
      "ĠbÃŃÅ¡": 4321,
      "Ġzdej": 4322,
      "ĠvÃºz": 4323,
      "Ġpon": 4324,
      "ĠÅĻÃŃÄį": 4325,
      "ĠvjÃ¡": 4326,
      "ĠvstÃŃn": 4327,
      "Ġhles": 4328,
      "ĠprÅ¡": 4329,
      "ĠmyÅ¡": 4330,
      "Ġdrc": 4331,
      "ĠtÅ¯ÅĪ": 4332,
      "Ġvkap": 4333,
      "Ġsbe": 4334,
      "Ġzol": 4335,
      "ĠmÃ¡ÅĻ": 4336,
      "Ġhub": 4337,
      "Ġvhe": 4338,
      "Ġvtan": 4339,
      "Ġhav": 4340,
      "ĠvrÅ¡": 4341,
      "ĠdeÅ¡Å¥": 4342,
      "ĠÄįesÅ¥": 4343,
      "Ġkvou": 4344,
      "ĠvkrÄį": 4345,
      "ĠÅ¾ed": 4346,
      "Ġkroz": 4347,
      "Ġsrn": 4348,
      "Ġtah": 4349,
      "Ġmod": 4350,
      "ĠjaÅĻ": 4351,
      "Ġbuch": 4352,
      "ĠvstrÃ¡": 4353,
      "Ġtrysk": 4354,
      "Ġzme": 4355,
      "Ġvleb": 4356,
      "ĠÅ¾ur": 4357,
      "Ġjmen": 4358,
      "Ġhyz": 4359,
      "ĠvÄįes": 4360,
      "ĠvÃºs": 4361,
      "ĠflÃ©t": 4362,
      "ĠjÃŃn": 4363,
      "Ġprac": 4364,
      "Ġvzpja": 4365,
      "Ġpop": 4366,
      "ĠplÃ¡n": 4367,
      "ĠplÃŃs": 4368,
      "ĠzkrÃ¡t": 4369,
      "Å¡ech": 4370,
      "Ġcep": 4371,
      "ĠmÅĻÃŃÅ¾": 4372,
      "ĠÅ¡kleb": 4373,
      "Ġgyp": 4374,
      "ĠproÅĪ": 4375,
      "Ġrav": 4376,
      "ĠzbÃ¡": 4377,
      "Ġkmat": 4378,
      "ĠchÃ¡n": 4379,
      "ĠlaÅ¥": 4380,
      "Ġnim": 4381,
      "ĠÅ¡lÃ¡p": 4382,
      "Ġproj": 4383,
      "ĠstrÃ¡n": 4384,
      "Ġsdi": 4385,
      "ĠtmÄĽl": 4386,
      "ĠzkaÅ¾": 4387,
      "Ġhnout": 4388,
      "pÄĽ": 4389,
      "ĠtyÄį": 4390,
      "Ġstre": 4391,
      "ĠslÃ¡v": 4392,
      "ĠdvÄĽd": 4393,
      "Ġchout": 4394,
      "ĠvchrÃ¡m": 4395,
      "Ġtum": 4396,
      "Ġbet": 4397,
      "Ġvbr": 4398,
      "Ġdba": 4399,
      "Ġdals": 4400,
      "Ġtroj": 4401,
      "ĠdÅĻev": 4402,
      "Ġkhra": 4403,
      "Ġhmyz": 4404,
      "ĠztmÄĽ": 4405,
      "Ġsai": 4406,
      "Ġschla": 4407,
      "ĠpÅĻÃ¡t": 4408,
      "ĠpÅ¡e": 4409,
      "Ġnuz": 4410,
      "ĠkÃ¡r": 4411,
      "ĠvhrÅ¯": 4412,
      "ĠptÃ¡Å¡": 4413,
      "Ġkbra": 4414,
      "ĠchlÃ½ch": 4415,
      "Ġnva": 4416,
      "ĠkaÄį": 4417,
      "Ġlob": 4418,
      "Ġris": 4419,
      "Ġvnic": 4420,
      "Ġzoun": 4421,
      "ĠskoÄį": 4422,
      "ĠchÅ¯v": 4423,
      "Ġhot": 4424,
      "ĠdoÅ¡": 4425,
      "Ġvzr": 4426,
      "ĠflÃŃ": 4427,
      "ĠplÅĪ": 4428,
      "Ġmrs": 4429,
      "ĠsviÅ¥": 4430,
      "Ġhloh": 4431,
      "ĠjakÅ¾": 4432,
      "ĠXAXAXA": 4433,
      "ĠkvÄĽÄį": 4434,
      "Ġpin": 4435,
      "ĠzlÃ©m": 4436,
      "Ġad": 4437,
      "Ġdor": 4438,
      "ĠpÃŃÄı": 4439,
      "ĠÅ¡pr": 4440,
      "ĠsÄįer": 4441,
      "ĠzvÅ¡e": 4442,
      "ĠÅĻiv": 4443,
      "ĠptÃ½": 4444,
      "ĠslÃ½ch": 4445,
      "ĠpsÅ¯": 4446,
      "ĠkÅĪa": 4447,
      "Ġcid": 4448,
      "Ġklep": 4449,
      "ĠÅ¡tÄĽp": 4450,
      "ĠtÃŃl": 4451,
      "Ġsis": 4452,
      "ĠslasÅ¥": 4453,
      "Ġzis": 4454,
      "Ġpud": 4455,
      "ĠdlÃŃÅ¡": 4456,
      "ĠvprÅ¯": 4457,
      "ĠblyÅ¡": 4458,
      "ĠÅĻat": 4459,
      "Ġslet": 4460,
      "Ġvrak": 4461,
      "Ġchme": 4462,
      "ĠsaÅĪ": 4463,
      "ĠpÅ¯m": 4464,
      "ĠteÅ¡": 4465,
      "ĠÅ¾at": 4466,
      "ĠsÃŃt": 4467,
      "Ġpark": 4468,
      "Ġzdep": 4469,
      "ĠsnÅ¯v": 4470,
      "ĠdluÅ¾": 4471,
      "lem": 4472,
      "Ġsvad": 4473,
      "Ġzub": 4474,
      "Ã¶": 4475,
      "Ġdur": 4476,
      "ĠlÃ©Äį": 4477,
      "Ġzoh": 4478,
      "Ġhluch": 4479,
      "dÄĽ": 4480,
      "ĠnÃŃn": 4481,
      "Ġvmd": 4482,
      "Ġkse": 4483,
      "ĠbÃ½Å¥": 4484,
      "ĠABACBC": 4485,
      "ĠAAXBXB": 4486,
      "ĠsdÄĽt": 4487,
      "Ġkuj": 4488,
      "Ġzplo": 4489,
      "ĠssÃ¡l": 4490,
      "Ġskep": 4491,
      "ĠvznÃ©st": 4492,
      "ĠsmÄĽj": 4493,
      "ĠbraÅĪ": 4494,
      "ĠvzdÃ¡t": 4495,
      "Ġvkom": 4496,
      "ĠpeÅ¡": 4497,
      "Ġrozv": 4498,
      "Ġplot": 4499,
      "Ġsmra": 4500,
      "ĠkÅ¾": 4501,
      "ĠfÃ©": 4502,
      "Ġvzhle": 4503,
      "ĠhÅĻmÄĽl": 4504,
      "ĠÄįlu": 4505,
      "ĠpÄĽsÅ¥": 4506,
      "ĠstÄĽÅ¾": 4507,
      "ĠkplÃ¡": 4508,
      "Ġmun": 4509,
      "Ġplem": 4510,
      "Ġzpoz": 4511,
      "ĠztÄĽÅ¾": 4512,
      "Ġtup": 4513,
      "ĠvblÃŃz": 4514,
      "ĠskaÅ¾": 4515,
      "Ġdak": 4516,
      "ĠÅ¡ÃŃÅĻ": 4517,
      "ĠÅ¾ÃŃr": 4518,
      "ĠABABXB": 4519,
      "ĠpraÅ¡": 4520,
      "Ġfro": 4521,
      "Ġklem": 4522,
      "ĠslÃ©t": 4523,
      "Ġvdiv": 4524,
      "Ġzpit": 4525,
      "mo": 4526,
      "nt": 4527,
      "Ġvbar": 4528,
      "ĠdceÅĻ": 4529,
      "Ġvkus": 4530,
      "Ġmzd": 4531,
      "ĠtÃ¡Å¾": 4532,
      "ĠrÃ©Å¾": 4533,
      "ĠvhvÄĽz": 4534,
      "ĠzdÃ¡v": 4535,
      "ĠvbouÅĻ": 4536,
      "Ġkaj": 4537,
      "ĠlÃ©z": 4538,
      "ĠksvÃ½m": 4539,
      "ĠkÄį": 4540,
      "Ġdci": 4541,
      "ĠÄįla": 4542,
      "Ġvbok": 4543,
      "Ġkja": 4544,
      "ĠABCC": 4545,
      "Ġhlup": 4546,
      "ĠhÅĻmÃŃt": 4547,
      "Ġsjed": 4548,
      "ĠXAA": 4549,
      "Ġzbla": 4550,
      "ĠchvÃŃl": 4551,
      "ĠvskÃ¡": 4552,
      "ĠÅ¾dÃ¡": 4553,
      "Ġlva": 4554,
      "Ġkrm": 4555,
      "Ġfek": 4556,
      "Ġvtak": 4557,
      "Ġplet": 4558,
      "Ġzre": 4559,
      "Ġsus": 4560,
      "ĠsnÃŃmÅ¾": 4561,
      "ĠstÅ¯v": 4562,
      "Ġjav": 4563,
      "Ġvjel": 4564,
      "ĠdÅ¾bÃ¡n": 4565,
      "ĠjvÃ½Å¡": 4566,
      "ĠÅĻÃŃz": 4567,
      "Ġsmat": 4568,
      "ĠÅ¥Ã¡l": 4569,
      "Ġkza": 4570,
      "ĠzvÅ¡ech": 4571,
      "Ġjda": 4572,
      "Ġchleb": 4573,
      "Ġchlum": 4574,
      "ĠbÃ©m": 4575,
      "Ġhop": 4576,
      "ĠskvÄĽl": 4577,
      "Ġvke": 4578,
      "ĠzkvÃŃ": 4579,
      "Ġjaks": 4580,
      "Ġdleh": 4581,
      "ĠÅ¡aÅ¡": 4582,
      "ĠlÅ¾e": 4583,
      "ĠÄįac": 4584,
      "Ġkpro": 4585,
      "ĠklÃ¡st": 4586,
      "ĠpÅĻem": 4587,
      "Ġvzdej": 4588,
      "ĠblÅ¯": 4589,
      "tÃ¡": 4590,
      "Ġvnou": 4591,
      "Ġlod": 4592,
      "ĠsrÅ¯": 4593,
      "Ġplic": 4594,
      "ĠzÃŃr": 4595,
      "Ġzbe": 4596,
      "ĠdÅ¯t": 4597,
      "Ġmdlou": 4598,
      "Ġzboj": 4599,
      "Ġzech": 4600,
      "ĠbeÅ¡": 4601,
      "Ġzpy": 4602,
      "ĠztÃ¡": 4603,
      "ĠsÅ¥": 4604,
      "ĠrÃ¡k": 4605,
      "ĠsnÃŃÅ¾": 4606,
      "Ġrmu": 4607,
      "Ġvzlo": 4608,
      "ĠstiÅ¥": 4609,
      "ĠÅ¾ne": 4610,
      "ĠznÄĽj": 4611,
      "ĠtrÃ¡m": 4612,
      "Ġgri": 4613,
      "ĠmÃ¡c": 4614,
      "ĠAABXB": 4615,
      "ĠdÅĻej": 4616,
      "ĠgÃ¡n": 4617,
      "Ġplec": 4618,
      "ĠzmÄĽÅ¥": 4619,
      "Ġpun": 4620,
      "Ġtrup": 4621,
      "ĠvsvÅ¯j": 4622,
      "ĠdiÅ¥": 4623,
      "Ġslan": 4624,
      "ĠzrÃ¡l": 4625,
      "ĠvzhlÃ©d": 4626,
      "Ġvmoc": 4627,
      "ĠvosÅ¥": 4628,
      "Ġbos": 4629,
      "Ġtrob": 4630,
      "ĠvsmÄĽ": 4631,
      "ĠvpÅĻÃŃÅ¡": 4632,
      "ĠzhÅ¯": 4633,
      "ĠchÅ¯d": 4634,
      "ĠsÃ½m": 4635,
      "ĠchÅĻad": 4636,
      "he": 4637,
      "Ġkum": 4638,
      "Ġtlesk": 4639,
      "Ġvslav": 4640,
      "ĠzrÃ½": 4641,
      "ĠmlÃ©Äį": 4642,
      "Ġsmlou": 4643,
      "ĠkÃ½Å¾": 4644,
      "ol": 4645,
      "ĠkvÃ¡": 4646,
      "Ġstrem": 4647,
      "ĠvtÄĽs": 4648,
      "Ġcva": 4649,
      "Ġproh": 4650,
      "Ġdent": 4651,
      "ĠsbÃ¡": 4652,
      "ĠÅ¡perk": 4653,
      "Ġsouc": 4654,
      "ĠtlÃ½m": 4655,
      "nÅ¯": 4656,
      "Ġsklad": 4657,
      "ĠhouÅ¡Å¥": 4658,
      "Ġztlu": 4659,
      "ĠzkÅĻÃŃ": 4660,
      "Ġdrozd": 4661,
      "Ġprut": 4662,
      "ĠtaÅ¾": 4663,
      "ĠstÃŃÅ¡": 4664,
      "Ġsre": 4665,
      "Ġvhroz": 4666,
      "ĠsvÃ¡l": 4667,
      "rud": 4668,
      "ĠmnÃŃÅ¡": 4669,
      "ĠkoÅ¾": 4670,
      "ĠmÃ¡v": 4671,
      "Ġvis": 4672,
      "ĠdÄĽls": 4673,
      "ĠzkouÅ¡": 4674,
      "Ġop": 4675,
      "Ġoch": 4676,
      "ĠvÄįem": 4677,
      "ĠvÃ½t": 4678,
      "Ġkrav": 4679,
      "Ġcval": 4680,
      "ĠÅ¡tÄĽr": 4681,
      "ĠvdÄĽs": 4682,
      "ĠscÃ©": 4683,
      "ĠsÅ¡e": 4684,
      "ĠlÃ³": 4685,
      "ĠhÅĻÃ¡l": 4686,
      "Ġput": 4687,
      "ĠsviÅ¡": 4688,
      "ĠmÃ©n": 4689,
      "Ġkrom": 4690,
      "Ġslid": 4691,
      "vat": 4692,
      "Ġsst": 4693,
      "Ġzkle": 4694,
      "ĠzaÅĪ": 4695,
      "Ġvsvou": 4696,
      "ĠzÅ¾ÃŃ": 4697,
      "Ġost": 4698,
      "Ġvyv": 4699,
      "ĠvdÅ¯m": 4700,
      "ĠÅ¾luÄį": 4701,
      "Ġvbles": 4702,
      "ĠÅ¡vÃ¡": 4703,
      "Ġrac": 4704,
      "ĠvkÃ¡": 4705,
      "Ġctil": 4706,
      "Ġthi": 4707,
      "Ġhil": 4708,
      "ĠvÅĻeÅ¡": 4709,
      "ĠÅ¾hne": 4710,
      "Ġvryl": 4711,
      "ĠzplÃ¡": 4712,
      "Ġvtes": 4713,
      "Ġshluk": 4714,
      "ĠsÃ¡n": 4715,
      "ĠjsouÅ¥": 4716,
      "ĠssÃ¡": 4717,
      "ĠzpÃ¡": 4718,
      "ĠzdÃ¡t": 4719,
      "Ġsvl": 4720,
      "Ġbaj": 4721,
      "Ġvsnu": 4722,
      "ĠdejÅ¾": 4723,
      "Ġdvod": 4724,
      "Ġvtaj": 4725,
      "Ġrdou": 4726,
      "Ġspek": 4727,
      "ĠzmÃ½ch": 4728,
      "ĠhrÃ¡ch": 4729,
      "ĠkÅ¾e": 4730,
      "Ġhraj": 4731,
      "Ġvzpjal": 4732,
      "ĠÄıme": 4733,
      "Ġvkon": 4734,
      "ĠvloÅ¾": 4735,
      "Ġzkaz": 4736,
      "Ġdbej": 4737,
      "Ġschou": 4738,
      "Ġbros": 4739,
      "ĠvspÃ¡n": 4740,
      "Ġvlaj": 4741,
      "ĠchÃ½Å¾": 4742,
      "ĠhruÅ¡": 4743,
      "Ġchlub": 4744,
      "ĠXXAXAX": 4745,
      "ĠkÅ¡tÄĽ": 4746,
      "ĠÅ¾lout": 4747,
      "vu": 4748,
      "ĠzvÄĽÄį": 4749,
      "ĠvdÄĽt": 4750,
      "Ġkluk": 4751,
      "ĠdlÃŃt": 4752,
      "ĠdrÃ¡ch": 4753,
      "Ġzsi": 4754,
      "ĠkÃ¡z": 4755,
      "Ġpuch": 4756,
      "ĠtÃ½n": 4757,
      "Ġtliv": 4758,
      "Ġgram": 4759,
      "ĠchtÃŃÄį": 4760,
      "ĠklÃ©m": 4761,
      "Ġxe": 4762,
      "ĠtaÅ¥": 4763,
      "ĠvzhlÃŃ": 4764,
      "Ġsof": 4765,
      "Ġfre": 4766,
      "ĠsÅĪat": 4767,
      "Ġzak": 4768,
      "Ġkma": 4769,
      "ĠÅ¡ke": 4770,
      "ĠvzrÅ¯st": 4771,
      "ĠsfÃ©r": 4772,
      "Ġlub": 4773,
      "Ġvojsk": 4774,
      "Ġvstup": 4775,
      "Ġknut": 4776,
      "ĠdaÄį": 4777,
      "Ġvky": 4778,
      "ĠzvÃŃÅ¡": 4779,
      "Ġvpy": 4780,
      "ĠvkÅĻi": 4781,
      "ĠbrÅ¾": 4782,
      "Ġzcha": 4783,
      "ĠstÅĻiÄį": 4784,
      "ĠsÅĪal": 4785,
      "Ġsyp": 4786,
      "Ġzple": 4787,
      "ĠtÅĻeb": 4788,
      "Ġzab": 4789,
      "ĠroÄį": 4790,
      "ĠvÅ¾ÃŃ": 4791,
      "ĠtÅĻek": 4792,
      "ĠÅ¡tÄĽt": 4793,
      "ĠvdÃ¡v": 4794,
      "Ġtus": 4795,
      "ĠtÅ¯Äį": 4796,
      "Ġcour": 4797,
      "Ġvym": 4798,
      "ĠÅĻÅ¯v": 4799,
      "Ġzan": 4800,
      "ĠchyÅ¥": 4801,
      "Ġvby": 4802,
      "ĠzchrÃ¡": 4803,
      "ĠdÄĽÅ¥": 4804,
      "ĠvpÃ½": 4805,
      "ĠbraÅ¥": 4806,
      "ĠvlÃ¡l": 4807,
      "Ġskyt": 4808,
      "Ġpst": 4809,
      "Ġloub": 4810,
      "ĠstuÅ¾": 4811,
      "ĠjeÄı": 4812,
      "Ġdrn": 4813,
      "ĠctÃŃt": 4814,
      "ĠÅĻet": 4815,
      "ĠbÃ¡ÅĻ": 4816,
      "ĠmdlÃ½m": 4817,
      "ĠÅ¾ou": 4818,
      "Ġvyk": 4819,
      "Ġis": 4820,
      "Ġktan": 4821,
      "ĠÅ¾la": 4822,
      "Ġvtros": 4823,
      "ĠhÃº": 4824,
      "ĠviÅĪ": 4825,
      "Ġsam": 4826,
      "ĠdnÃ©m": 4827,
      "Ġkstro": 4828,
      "Å¯l": 4829,
      "ĠchÃ¡s": 4830,
      "ĠÅ¡tkÃ¡": 4831,
      "Ġlvo": 4832,
      "ĠÅĻka": 4833,
      "ĠsmÃŃÅ¡": 4834,
      "ĠkpÅĻÃŃ": 4835,
      "vost": 4836,
      "ĠknimÅ¾": 4837,
      "ĠprÃ©": 4838,
      "ĠtÅĻu": 4839,
      "ĠsvlÃ©": 4840,
      "ĠmiÄį": 4841,
      "ĠbÄĽj": 4842,
      "ÅĪÃ¡": 4843,
      "Ġvals": 4844,
      "ĠpÅĻÃŃl": 4845,
      "Ġztros": 4846,
      "ĠtÅĻÃŃÄį": 4847,
      "Ġkmu": 4848,
      "ĠvklÃ¡Å¡": 4849,
      "ĠsnÃ©st": 4850,
      "Ġlar": 4851,
      "Ġvryt": 4852,
      "ĠkÅĻest": 4853,
      "Ġzvln": 4854,
      "ĠvÄĽsÅ¥": 4855,
      "Ã³r": 4856,
      "ĠAABXBX": 4857,
      "ĠjÃŃÅ¥": 4858,
      "ĠbrÃ¡c": 4859,
      "ĠzÅ¯m": 4860,
      "Ġslab": 4861,
      "ĠÅ¡eÅĻ": 4862,
      "Ġprob": 4863,
      "Ġvslou": 4864,
      "ĠchlÃ©m": 4865,
      "Ġsved": 4866,
      "Ġvzmat": 4867,
      "Ġvmdlo": 4868,
      "ĠvcÃŃ": 4869,
      "Ġpnu": 4870,
      "Ġzmdle": 4871,
      "Ġbed": 4872,
      "ĠvlÃ¡t": 4873,
      "ĠzmÅ¯": 4874,
      "ĠmlÅ¾": 4875,
      "ĠvspÃ¡": 4876,
      "ĠsnÃŃÅ¡": 4877,
      "ĠABAABX": 4878,
      "ĠvnÄĽjÅ¾": 4879,
      "ĠlpÃŃ": 4880,
      "Ġrra": 4881,
      "Ġae": 4882,
      "Ġpam": 4883,
      "Ġmel": 4884,
      "ĠsiÄį": 4885,
      "Ġvrb": 4886,
      "Ġchvi": 4887,
      "ĠXXXXAA": 4888,
      "ĠpÅĻis": 4889,
      "ĠsnaÅ¾": 4890,
      "ĠkÄįer": 4891,
      "Ġtch": 4892,
      "Ġjvo": 4893,
      "ĠÄįÃŃn": 4894,
      "ĠAXB": 4895,
      "Ġdroz": 4896,
      "ĠÅ¾uj": 4897,
      "ĠÄįtyÅĻ": 4898,
      "Ġvav": 4899,
      "ĠsÃ¡z": 4900,
      "ĠzhÅĻÃŃ": 4901,
      "Ġsble": 4902,
      "ĠspÄĽt": 4903,
      "Ġvskal": 4904,
      "oun": 4905,
      "ĠmaÅ¡": 4906,
      "Ġspy": 4907,
      "Ġvstru": 4908,
      "ĠsnÃŃl": 4909,
      "Ġumf": 4910,
      "ĠmÃŃch": 4911,
      "Ġvzmach": 4912,
      "Ġil": 4913,
      "ĠÄįÃŃl": 4914,
      "Ġzod": 4915,
      "Ġvsto": 4916,
      "ĠvbÅĻe": 4917,
      "Ġzpur": 4918,
      "ud": 4919,
      "ĠsplÃ©": 4920,
      "ĠzhvÄĽz": 4921,
      "Ġsbi": 4922,
      "ĠÅ¡af": 4923,
      "Ġfla": 4924,
      "Ġpluj": 4925,
      "ĠÅ¡tÃ¡": 4926,
      "ĠvbÄĽh": 4927,
      "ĠjÃ¡c": 4928,
      "Ġzmno": 4929,
      "Ġvzep": 4930,
      "ĠÅ¡tve": 4931,
      "Ġksto": 4932,
      "ma": 4933,
      "Ġes": 4934,
      "Ġvzky": 4935,
      "Ġsg": 4936,
      "Ġrych": 4937,
      "ĠtÅĻiv": 4938,
      "ĠvloÄį": 4939,
      "ĠviÅ¥": 4940,
      "ĠrÃ¡t": 4941,
      "Ġfil": 4942,
      "Ġdliv": 4943,
      "ĠzmÄĽn": 4944,
      "ĠtuÅ¡": 4945,
      "Ġvmar": 4946,
      "Ġchrt": 4947,
      "ĠÅ¡vih": 4948,
      "Ġvrej": 4949,
      "ĠskrÃ½t": 4950,
      "ĠvsluÅ¾": 4951,
      "Ġsvah": 4952,
      "Ġ24": 4953,
      "ĠvzbuÄı": 4954,
      "Ġvtvo": 4955,
      "ĠhÅ¯v": 4956,
      "Ġsvrh": 4957,
      "Ġsba": 4958,
      "Ġchlej": 4959,
      "Ġvstoup": 4960,
      "Ġptej": 4961,
      "ĠjlÃ©": 4962,
      "ĠÄįlÃ¡": 4963,
      "ĠkyÅĪ": 4964,
      "ĠvÃŃch": 4965,
      "ĠsÃŃd": 4966,
      "ĠzliÄį": 4967,
      "ĠAXAXBB": 4968,
      "Ġfaust": 4969,
      "Na": 4970,
      "ĠNa": 4971,
      "Ġsev": 4972,
      "Ġduh": 4973,
      "ĠNaN": 4974,
      "Ġck": 4975,
      "Ġzdou": 4976,
      "Ġrez": 4977,
      "ĠsvÃŃÄį": 4978,
      "ĠctnÃ½": 4979,
      "Ġsmek": 4980,
      "Ġgraf": 4981,
      "Ġvpev": 4982,
      "ĠsÅĻe": 4983,
      "Ġcr": 4984,
      "ĠvkÅĻo": 4985,
      "ĠÅĪal": 4986,
      "Ġsklep": 4987,
      "Ġtroud": 4988,
      "Ġvkruh": 4989,
      "Ġgil": 4990,
      "Ġzhru": 4991,
      "Ġvpos": 4992,
      "Ġlhal": 4993,
      "Ġvmech": 4994,
      "ĠÅ¾ej": 4995,
      "Ġprok": 4996,
      "Ġsplav": 4997,
      "ĠpÅĻeÅ¡": 4998,
      "ĠsÃ¡k": 4999,
      "ĠprÃ¡s": 5000,
      "ĠchtÄĽj": 5001,
      "Ġvblan": 5002,
      "Ġvas": 5003,
      "ĠsdÅ¯": 5004,
      "Ġprys": 5005,
      "ĠvÄĽÅ¥": 5006,
      "Ġzpom": 5007,
      "Ġzlid": 5008,
      "ĠvÅ¡tÃŃ": 5009,
      "ĠÄįast": 5010,
      "ĠvÅ¡um": 5011,
      "Ġssu": 5012,
      "ÃŃs": 5013,
      "ĠÅ¡lu": 5014,
      "ĠpÃ¡Å¡": 5015,
      "ĠvlÃ¡k": 5016,
      "Ġvhrad": 5017,
      "ÅĪal": 5018,
      "Ġprak": 5019,
      "ĠplaÅ¥": 5020,
      "Ġzoub": 5021,
      "ĠdrÃ¡t": 5022,
      "Ġstep": 5023,
      "ĠvzkÃ¡": 5024,
      "Ġfry": 5025,
      "ĠspuÅ¡": 5026,
      "Ġspjal": 5027,
      "ĠnÄĽjÅ¾": 5028,
      "ĠkspÃ¡n": 5029,
      "AC": 5030,
      "ĠmiÅĪ": 5031,
      "ĠpaÄį": 5032,
      "ĠvtÅĻe": 5033,
      "Ġbrod": 5034,
      "ĠsnÃ¡z": 5035,
      "Ġnve": 5036,
      "Ġsiv": 5037,
      "Ġvled": 5038,
      "ĠzdÅĻÃŃm": 5039,
      "ĠsÃ½ch": 5040,
      "Ġsef": 5041,
      "ĠÄįeÅ¥": 5042,
      "ĠkÃ¡Å¾": 5043,
      "Ġsnich": 5044,
      "ĠrÃ¡r": 5045,
      "ĠbouÄį": 5046,
      "ĠrÃ½Å¾": 5047,
      "Ġblouk": 5048,
      "Ġdbal": 5049,
      "Ġvzrost": 5050,
      "ĠpnÄĽ": 5051,
      "ĠbÃŃk": 5052,
      "ĠÅ¡ept": 5053,
      "ĠzlÃ¡t": 5054,
      "ĠkoÅĪ": 5055,
      "Ġkas": 5056,
      "Ġnon": 5057,
      "ĠztÃ½": 5058,
      "Ġvblu": 5059,
      "ĠsnÄĽÅ¥": 5060,
      "ĠvisÅ¥": 5061,
      "Ġklat": 5062,
      "ĠschvÄĽ": 5063,
      "Ġfar": 5064,
      "Ġvskry": 5065,
      "ĠdÅ¾bÃ¡": 5066,
      "ĠmÄĽls": 5067,
      "ĠsdÃŃl": 5068,
      "Ġsmou": 5069,
      "Ġsoum": 5070,
      "Ġztvr": 5071,
      "Ġsdra": 5072,
      "ĠABAXXB": 5073,
      "Ġtip": 5074,
      "Ġksva": 5075,
      "Ġvbah": 5076,
      "ĠzklÃŃ": 5077,
      "Ġzvlh": 5078,
      "Ġllah": 5079,
      "Ġhrud": 5080,
      "Ġmsty": 5081,
      "ĠsjÃŃ": 5082,
      "ĠvspÄĽch": 5083,
      "Ġkin": 5084,
      "Ġzg": 5085,
      "Ġjeh": 5086,
      "Ġstri": 5087,
      "ĠstÃŃs": 5088,
      "ĠzhnÄĽ": 5089,
      "ĠÅĻÃ¡s": 5090,
      "ĠzvÃ¡Å¾": 5091,
      "Ġbvy": 5092,
      "Ġnuj": 5093,
      "Ġstich": 5094,
      "Ġsjel": 5095,
      "Ġtav": 5096,
      "Ġznoj": 5097,
      "Ġkhru": 5098,
      "ĠtiÅ¥": 5099,
      "ĠÅ¾est": 5100,
      "ĠvÅ¾al": 5101,
      "ĠvpouÅ¡Å¥": 5102,
      "mi": 5103,
      "Ġkce": 5104,
      "ĠÅ¾b": 5105,
      "Ġzdru": 5106,
      "Ġvsny": 5107,
      "Ġvtlu": 5108,
      "ĠvkÅĻÃŃ": 5109,
      "Ġvmno": 5110,
      "ĠpÅ¯r": 5111,
      "ĠlstÃŃ": 5112,
      "Ġlnou": 5113,
      "ĠleÄı": 5114,
      "Ġces": 5115,
      "ĠÅĻisÅ¥": 5116,
      "Ġtrat": 5117,
      "ĠstÅĻen": 5118,
      "ĠzÄįÃŃ": 5119,
      "ĠÄįle": 5120,
      "ĠÅ¡ec": 5121,
      "ĠvoÄı": 5122,
      "Ġvmoz": 5123,
      "ĠuÅ¡t": 5124,
      "Ġvjezd": 5125,
      "Ġkut": 5126,
      "Ġir": 5127,
      "Ġvste": 5128,
      "Ġkta": 5129,
      "ĠvmÄĽk": 5130,
      "ĠtrÃ³": 5131,
      "ĠstÃ¡m": 5132,
      "Ġvbod": 5133,
      "ĠkrÃ½t": 5134,
      "ĠÅĻed": 5135,
      "ĠryÄį": 5136,
      "ĠchvÄĽn": 5137,
      "nil": 5138,
      "ĠdcÅ¯": 5139,
      "Ġklub": 5140,
      "Ġrmou": 5141,
      "ĠstvÄĽ": 5142,
      "Ġkord": 5143,
      "Ġnor": 5144,
      "ĠjsemÅ¥": 5145,
      "ĠzÃŃtÅĻ": 5146,
      "ĠmaÄį": 5147,
      "ĠzÃ¡j": 5148,
      "Ġgor": 5149,
      "ĠbrÃ©m": 5150,
      "ĠvnÃ¡d": 5151,
      "ĠzhoÅĻ": 5152,
      "Ġpjal": 5153,
      "ĠkÃ¡l": 5154,
      "Ġdre": 5155,
      "ĠvhÅĻÃŃ": 5156,
      "ĠchvÃŃt": 5157,
      "ĠknÃ½ch": 5158,
      "Ġprov": 5159,
      "Ġzran": 5160,
      "ĠvtmÄĽ": 5161,
      "Ġksta": 5162,
      "Ġbuk": 5163,
      "Ġzap": 5164,
      "ĠlÃ¡d": 5165,
      "Ġvplo": 5166,
      "Ġvrt": 5167,
      "Ġlv": 5168,
      "ĠnaÅ¥": 5169,
      "neÅ¡": 5170,
      "Ġvtra": 5171,
      "Ġvmat": 5172,
      "ĠztiÅ¡": 5173,
      "ĠplaÅ¡": 5174,
      "ĠchaÅĻ": 5175,
      "ĠkleÅ¡": 5176,
      "ĠvstÃ¡t": 5177,
      "Ġzlom": 5178,
      "Ġloz": 5179,
      "ĠtÃ©r": 5180,
      "ĠgÅ¯": 5181,
      "ĠzhÃ¡": 5182,
      "Ġzhled": 5183,
      "Ġtvrz": 5184,
      "Ġnne": 5185,
      "ĠzÄįi": 5186,
      "ĠprÃ¡l": 5187,
      "ĠÄįnÄĽl": 5188,
      "ĠÅĻech": 5189,
      "ĠvmÅ¯j": 5190,
      "Ġvhou": 5191,
      "Ġzhl": 5192,
      "Ġskot": 5193,
      "ĠABCCAB": 5194,
      "ĠÄįec": 5195,
      "Ġkleb": 5196,
      "Ġvbra": 5197,
      "ĠtÄĽp": 5198,
      "Ġzyl": 5199,
      "ĠzpÃŃs": 5200,
      "ĠvzÃ¡m": 5201,
      "ĠroÅ¡": 5202,
      "ĠpÃ¡l": 5203,
      "Ġsir": 5204,
      "Ġsmol": 5205,
      "ĠÅ¾da": 5206,
      "Ġvproud": 5207,
      "ĠliÅ¥": 5208,
      "Ġtron": 5209,
      "ĠkruÅ¡": 5210,
      "Ġmsta": 5211,
      "ĠXXXAAX": 5212,
      "Ġztro": 5213,
      "ĠblaÅ¾": 5214,
      "Ġlamp": 5215,
      "ĠvtÅ¯ÅĪ": 5216,
      "Ġvak": 5217,
      "ĠpÃŃc": 5218,
      "Ġbram": 5219,
      "ĠgÃ©": 5220,
      "ĠbÅĻes": 5221,
      "ĠfraÅ¡": 5222,
      "ĠvplÃŃ": 5223,
      "Ġvdou": 5224,
      "Ġshra": 5225,
      "Ġstoud": 5226,
      "ĠtÅĻÃŃÅ¡Å¥": 5227,
      "ĠstÃ½l": 5228,
      "Ġcyt": 5229,
      "ĠchÅĻest": 5230,
      "Ġlaur": 5231,
      "ĠsvÄĽÅ¥": 5232,
      "ĠprsÅ¥": 5233,
      "ĠtenÅ¥": 5234,
      "ĠprÃ¡t": 5235,
      "Ġsbla": 5236,
      "ĠkneÅ¡": 5237,
      "Ġblem": 5238,
      "Ã¼": 5239,
      "ÅĻas": 5240,
      "Ġdles": 5241,
      "Ġskost": 5242,
      "ĠtÅĻa": 5243,
      "ĠsÅ¾ÃŃ": 5244,
      "ĠtnÃ©": 5245,
      "ĠÅĻÃ¡t": 5246,
      "ĠlhÃ¡ÅĻ": 5247,
      "Ġtot": 5248,
      "ĠtoÅĪ": 5249,
      "ĠAAABBX": 5250,
      "ĠÅ¡ÅĪÅ¯": 5251,
      "ĠchÅĻ": 5252,
      "ĠbeÄį": 5253,
      "ĠzkÅĻe": 5254,
      "Ġvzkve": 5255,
      "ĠzÄįech": 5256,
      "Ġtvrd": 5257,
      "ĠpÃŃk": 5258,
      "ĠzhnÃŃz": 5259,
      "Ġsbu": 5260,
      "ĠvplÃ¡Äį": 5261,
      "Ġskte": 5262,
      "Ġbon": 5263,
      "Ġstvi": 5264,
      "Ġskrej": 5265,
      "Ġtknu": 5266,
      "Ġvsku": 5267,
      "ĠÅĪÃ¡k": 5268,
      "Ġhran": 5269,
      "Ġstret": 5270,
      "Ġtral": 5271,
      "ĠstvÃ½m": 5272,
      "ĠbrÃ¡n": 5273,
      "ĠskÅĻÃŃt": 5274,
      "ĠmnÃŃm": 5275,
      "ĠtoÅ¡": 5276,
      "Ġjab": 5277,
      "ĠvchÃ½": 5278,
      "Ġkzd": 5279,
      "ĠctÃŃm": 5280,
      "ĠvdÅ¯l": 5281,
      "jat": 5282,
      "Ġkai": 5283,
      "Ġlog": 5284,
      "ĠÅĻiÅ¥": 5285,
      "Ġvdnech": 5286,
      "Ġsluh": 5287,
      "ĠknÃ½m": 5288,
      "ĠpÅ¡": 5289,
      "ĠnÃ½ÅĻ": 5290,
      "Ġsod": 5291,
      "Ġkluz": 5292,
      "ĠÅ¾nÄĽ": 5293,
      "ĠÅ¡lou": 5294,
      "Ġzau": 5295,
      "ĠtouÄį": 5296,
      "ĠslÃ¡n": 5297,
      "Ġbron": 5298,
      "Ġmdlob": 5299,
      "ĠonÅ¥": 5300,
      "ĠÅ¡kÃ¡": 5301,
      "Ġfin": 5302,
      "Ġzbav": 5303,
      "ĠjÃŃÄį": 5304,
      "Ġvkal": 5305,
      "ĠvÅ¾Ã¡r": 5306,
      "ĠslÅ¯m": 5307,
      "ĠvÃŃÅ¾": 5308,
      "Ġjam": 5309,
      "ĠzÃŃk": 5310,
      "Ġtoul": 5311,
      "ĠzblÃ¡": 5312,
      "ĠABBAAB": 5313,
      "ĠtevÅĻ": 5314,
      "Ġstrhl": 5315,
      "Ġhviz": 5316,
      "Ġvsad": 5317,
      "Ġbiz": 5318,
      "ĠsviÅ¾": 5319,
      "ĠvzÃ¡ÅĻ": 5320,
      "ĠÅĻan": 5321,
      "ĠdlÃ¡m": 5322,
      "ĠmstÃŃt": 5323,
      "ĠÅ¡Ã¡k": 5324,
      "ĠgroÅ¡": 5325,
      "ĠmÃº": 5326,
      "Ġmnil": 5327,
      "Ġtim": 5328,
      "Ġtyr": 5329,
      "Ġbic": 5330,
      "ĠÃºÄį": 5331,
      "Ġzjich": 5332,
      "ĠdaÅ¥": 5333,
      "Ġvstr": 5334,
      "ĠÅ¡an": 5335,
      "Ġtman": 5336,
      "Ġvkri": 5337,
      "ĠzhlÃŃd": 5338,
      "Ġrh": 5339,
      "ĠroÅ¾": 5340,
      "Ġcis": 5341,
      "ĠzhouÅ¡": 5342,
      "Ġzmlh": 5343,
      "ĠcvrÄį": 5344,
      "Ġkres": 5345,
      "ĠÅ¾an": 5346,
      "ĠpÅĻÃ¡h": 5347,
      "Ġxan": 5348,
      "Ġrre": 5349,
      "Ġcej": 5350,
      "ĠvÅ¡er": 5351,
      "ĠtÃ©l": 5352,
      "ĠzhyÅĪ": 5353,
      "ĠÅĻiÄı": 5354,
      "Ġvzpru": 5355,
      "ĠslÃŃÄį": 5356,
      "ĠÄįtou": 5357,
      "ĠstrÃ½Äį": 5358,
      "ĠsÅ¾a": 5359,
      "Ġmau": 5360,
      "Ġras": 5361,
      "ĠlÃ¡r": 5362,
      "ĠvmÅ¾ik": 5363,
      "Ġtas": 5364,
      "Ġdas": 5365,
      "ĠkÅ¯l": 5366,
      "ĠvdÃ½": 5367,
      "Ġzhe": 5368,
      "ĠshlÃ©": 5369,
      "Ġvzim": 5370,
      "ĠvÅĪÃ¡": 5371,
      "Ġdm": 5372,
      "Ġlim": 5373,
      "Ġzlet": 5374,
      "Ġtky": 5375,
      "ĠztrÃ¡t": 5376,
      "Ġspit": 5377,
      "ĠsbÄĽh": 5378,
      "Ġvspol": 5379,
      "ABA": 5380,
      "ĠlÃŃh": 5381,
      "Ġzdat": 5382,
      "Ġtruj": 5383,
      "ĠsÅ¯l": 5384,
      "Ġznes": 5385,
      "ĠÅ¡tka": 5386,
      "ĠhnÃŃzd": 5387,
      "ĠvmraÄį": 5388,
      "Ġgre": 5389,
      "Ġdmu": 5390,
      "ĠslÃ½m": 5391,
      "ĠsmrÃ¡": 5392,
      "ĠtÃ¡t": 5393,
      "Ġvtvr": 5394,
      "Ġvper": 5395,
      "ĠdlÃ¡Å¾": 5396,
      "ĠskÅĻÃŃÅĪ": 5397,
      "Ġai": 5398,
      "Ġsklou": 5399,
      "Ġzeb": 5400,
      "Ġbum": 5401,
      "Ġmls": 5402,
      "Ġprus": 5403,
      "Ġzlen": 5404,
      "ĠvtÃŃs": 5405,
      "Ġcli": 5406,
      "ĠvÅ¡k": 5407,
      "ĠstvÃŃch": 5408,
      "ĠzrÃ¡t": 5409,
      "ĠthÃ©": 5410,
      "Ġstkvost": 5411,
      "Ġzhloub": 5412,
      "ĠkspÃ¡": 5413,
      "up": 5414,
      "Ġzdal": 5415,
      "Ġvus": 5416,
      "Ġfl": 5417,
      "ĠziÅ¡": 5418,
      "Ġzky": 5419,
      "Ġvleh": 5420,
      "Ġztre": 5421,
      "Ġdik": 5422,
      "ĠbÃ¡r": 5423,
      "Ġhen": 5424,
      "ĠvniÅ¾": 5425,
      "Ġschnou": 5426,
      "ĠchÃ½Å¡": 5427,
      "ĠvhoÅĻ": 5428,
      "Ġsjas": 5429,
      "Ġmzdu": 5430,
      "ĠvÅ¡p": 5431,
      "ĠÅ¾iÅ¥": 5432,
      "ĠkÅ¯r": 5433,
      "ĠvÅ¾ha": 5434,
      "ĠÄįtr": 5435,
      "Ġwe": 5436,
      "ĠvdeÅ¡": 5437,
      "Ġdsk": 5438,
      "rob": 5439,
      "ĠÅ¡las": 5440,
      "Ġvskle": 5441,
      "ĠbÅĻin": 5442,
      "ĠvÃ¡d": 5443,
      "Ġkroj": 5444,
      "Ġshrou": 5445,
      "ĠvlÃŃÄį": 5446,
      "ĠvÃºc": 5447,
      "Ġchvost": 5448,
      "ĠlÃ©zt": 5449,
      "ĠÃ¡t": 5450,
      "Ġkc": 5451,
      "Ġmaj": 5452,
      "ĠplÃ©m": 5453,
      "ĠXABB": 5454,
      "ĠÅ¡eÄı": 5455,
      "Ġgal": 5456,
      "Ġhrn": 5457,
      "ĠÅ¡let": 5458,
      "ĠdnÅ¯v": 5459,
      "ĠvadÅ¾": 5460,
      "Ġvples": 5461,
      "ĠÄįtvrt": 5462,
      "Ġski": 5463,
      "Ġvon": 5464,
      "Ġslok": 5465,
      "Ġspoj": 5466,
      "ĠkÅĻti": 5467,
      "ĠÅĻkou": 5468,
      "Ã¡r": 5469,
      "Ġjh": 5470,
      "Ġkoh": 5471,
      "ĠdÃ¡Å¾": 5472,
      "Ġchav": 5473,
      "Ġslez": 5474,
      "ĠvleÄį": 5475,
      "ĠdrÃ¡p": 5476,
      "Ġgur": 5477,
      "ĠpoÄı": 5478,
      "ĠjÃ¡Å¥": 5479,
      "ĠpÃ¡k": 5480,
      "Ġfem": 5481,
      "Ġhoust": 5482,
      "Ġkslo": 5483,
      "Ġvsed": 5484,
      "Ġprinc": 5485,
      "ĠvdÃŃl": 5486,
      "bo": 5487,
      "ĠtcÅ¯": 5488,
      "ĠkpÃŃs": 5489,
      "ĠktrÅ¯": 5490,
      "Ġzchla": 5491,
      "ĠzchvÃ¡": 5492,
      "ĠXAAXXX": 5493,
      "ĠpÃ©m": 5494,
      "ĠÄįiÅ¾": 5495,
      "Ġvsho": 5496,
      "ĠsbÅĻe": 5497,
      "Ġsde": 5498,
      "Ġsdce": 5499,
      "Ġpliv": 5500,
      "Ġrhyt": 5501,
      "Ġcas": 5502,
      "ĠÅ¡kod": 5503,
      "ĠstÅĻÃ¡s": 5504,
      "Ġbob": 5505,
      "ĠÅ¾Ã¡t": 5506,
      "ĠspÅĻeÅ¾": 5507,
      "ĠÅ¡ÃŃn": 5508,
      "Ġbam": 5509,
      "Ġdvr": 5510,
      "Ġspov": 5511,
      "Ġhma": 5512,
      "Ã¤": 5513,
      "ĠÄįme": 5514,
      "ran": 5515,
      "ĠmoÅĪ": 5516,
      "ĠmÃŃÄį": 5517,
      "Ġvbrz": 5518,
      "Ġlum": 5519,
      "Ġhuj": 5520,
      "ĠmlÃ¡Äı": 5521,
      "mur": 5522,
      "Ġcleh": 5523,
      "Ġlne": 5524,
      "Ġlap": 5525,
      "ĠvzÅĪal": 5526,
      "Ġsmil": 5527,
      "Ġvss": 5528,
      "ĠplÃ½ch": 5529,
      "Ġsvoj": 5530,
      "Ġbrouk": 5531,
      "Ġcon": 5532,
      "Ġhum": 5533,
      "Ġstot": 5534,
      "ĠrÃ©v": 5535,
      "Ġzuj": 5536,
      "ĠstvÃ½ch": 5537,
      "Ġsmla": 5538,
      "Ġvsr": 5539,
      "ĠÅĻic": 5540,
      "ĠbÃ¡Äį": 5541,
      "ĠABBAAX": 5542,
      "ĠÅ¡plou": 5543,
      "Ġtret": 5544,
      "ĠbrouÄį": 5545,
      "Ġhmot": 5546,
      "Ġsmlu": 5547,
      "Ġvstej": 5548,
      "voz": 5549,
      "Ġsry": 5550,
      "ĠvÄįlo": 5551,
      "Ġzcu": 5552,
      "ĠÄįÃ¡l": 5553,
      "Ġlus": 5554,
      "Ġblek": 5555,
      "Ġzlit": 5556,
      "Ġtric": 5557,
      "ĠABX": 5558,
      "ĠsÃºc": 5559,
      "ĠsvÅ¯": 5560,
      "ĠvdÃ½m": 5561,
      "Ġvdov": 5562,
      "ĠbdÃŃm": 5563,
      "Å¡ÃŃ": 5564,
      "ĠdnÅ¯m": 5565,
      "Ġzz": 5566,
      "Ġbus": 5567,
      "Ġpul": 5568,
      "ĠstÅĻeh": 5569,
      "ĠtÅĻÃ¡st": 5570,
      "ĠvrÅ¯z": 5571,
      "ĠspÅ¯": 5572,
      "ĠtÅĻej": 5573,
      "Ġtlak": 5574,
      "ĠÅ¾ab": 5575,
      "Ġtres": 5576,
      "ĠkÅĻt": 5577,
      "ĠbeÅĻ": 5578,
      "ĠpÅĻih": 5579,
      "Ġsun": 5580,
      "Ġslel": 5581,
      "Ġzhnu": 5582,
      "ĠschrÃ¡n": 5583,
      "ĠsvÅ¡e": 5584,
      "Ġvzmu": 5585,
      "ĠÅ¾ich": 5586,
      "Ġbrach": 5587,
      "ĠklÃŃÅĻ": 5588,
      "Ġvchva": 5589,
      "ĠchtÃŃc": 5590,
      "ĠÅ¾ÃŃk": 5591,
      "ĠvplÃ©": 5592,
      "ĠkleÄį": 5593,
      "Ġdlid": 5594,
      "ĠchÃ½n": 5595,
      "Ġfrak": 5596,
      "ĠvjichÅ¾": 5597,
      "Ġbrys": 5598,
      "ĠtkvÄĽl": 5599,
      "Ġrach": 5600,
      "Ġvlep": 5601,
      "ĠdnÃŃm": 5602,
      "ĠchmÃ½": 5603,
      "ĠksluÅ¾": 5604,
      "ĠstrasÅ¥": 5605,
      "Ġzkni": 5606,
      "Ġshl": 5607,
      "Ġnezv": 5608,
      "ĠzmÄĽk": 5609,
      "ĠlhÃ¡t": 5610,
      "ĠÅ¡ov": 5611,
      "Ġvmrak": 5612,
      "ĠdÃ³m": 5613,
      "ĠsÅ¥a": 5614,
      "ĠjÃŃÅĻ": 5615,
      "ĠblÃ½Å¡": 5616,
      "Ġskel": 5617,
      "ĠmuÅ¥": 5618,
      "ĠrÃ½n": 5619,
      "ĠvÅĻÃŃs": 5620,
      "ĠvlÅ¯Å¾": 5621,
      "Ġtran": 5622,
      "ĠshnÄĽ": 5623,
      "ĠtÅĻas": 5624,
      "ĠmdlÃŃ": 5625,
      "Ġprk": 5626,
      "ĠtrÄį": 5627,
      "Ġres": 5628,
      "Ġksa": 5629,
      "ĠhÅĻej": 5630,
      "ĠvzplÃ¡t": 5631,
      "ĠvplÃ¡Å¡Å¥": 5632,
      "ĠsbÃ¡z": 5633,
      "Ġkf": 5634,
      "ĠryÅ¡": 5635,
      "ĠkÃ½n": 5636,
      "Ġhyn": 5637,
      "Ġllen": 5638,
      "ĠvbÃ¡s": 5639,
      "ĠhÅĻiv": 5640,
      "ĠÄįiÅ¥": 5641,
      "Ġchyl": 5642,
      "Ġshled": 5643,
      "ĠnnÃŃk": 5644,
      "ĠÄįÃ¡p": 5645,
      "ĠÅ¡Å¯v": 5646,
      "Ġpau": 5647,
      "ĠpÅĻer": 5648,
      "ĠfÄĽ": 5649,
      "Ġvkar": 5650,
      "Ġhouk": 5651,
      "ĠanÅ¥": 5652,
      "Ġkvel": 5653,
      "ĠsÃ½c": 5654,
      "ĠAAAXBB": 5655,
      "ĠzÃ½m": 5656,
      "ĠbaÅ¡": 5657,
      "Ġvsvi": 5658,
      "Ġvlil": 5659,
      "ĠtroÅ¡": 5660,
      "Ġvrum": 5661,
      "ĠvtvÅ¯j": 5662,
      "ĠÅ¥uk": 5663,
      "ĠvÃ½r": 5664,
      "ĠkÅĻiÄį": 5665,
      "ĠklÅ¯": 5666,
      "ĠvzhlÃ©": 5667,
      "Ġnvi": 5668,
      "Ġmul": 5669,
      "ĠAABBBX": 5670,
      "Ġstuj": 5671,
      "Ġvkre": 5672,
      "nÃ½ch": 5673,
      "Ġsau": 5674,
      "Ġsov": 5675,
      "ĠkÅĻeÄį": 5676,
      "ĠzluÄį": 5677,
      "Ġlav": 5678,
      "Ġzast": 5679,
      "Ġchmel": 5680,
      "Ġlot": 5681,
      "CCA": 5682,
      "ĠmnÄĽl": 5683,
      "Ġstvy": 5684,
      "Ġvchla": 5685,
      "Ġhlod": 5686,
      "Ġzcest": 5687,
      "Ġzchu": 5688,
      "Ġzluk": 5689,
      "ĠABBCCA": 5690,
      "ĠzhvÄĽzd": 5691,
      "ym": 5692,
      "ĠÅ¡te": 5693,
      "ĠtaÅ¡": 5694,
      "ĠAABBAA": 5695,
      "Ġjuj": 5696,
      "Ġvzmar": 5697,
      "ĠvhÃ¡j": 5698,
      "Ġbim": 5699,
      "Ġspar": 5700,
      "AXB": 5701,
      "Ġzchy": 5702,
      "Ġhold": 5703,
      "ĠÅ¡lÃŃm": 5704,
      "Ġtai": 5705,
      "Ġvtvou": 5706,
      "ĠpÄĽÅ¡": 5707,
      "Ġmol": 5708,
      "ĠtnÃ½": 5709,
      "ÄıÃ¡": 5710,
      "Ġvpur": 5711,
      "BAX": 5712,
      "ĠÅ¡kra": 5713,
      "ĠhnÄĽt": 5714,
      "ĠstÃŃch": 5715,
      "ĠpÃŃch": 5716,
      "Ġvdar": 5717,
      "ĠtouÅ¡": 5718,
      "Ġzlat": 5719,
      "ĠchrlÃŃ": 5720,
      "ĠÅ¡etÅĻ": 5721,
      "ĠzprÃ¡v": 5722,
      "ĠzluÅ¡": 5723,
      "Ġvklen": 5724,
      "ĠvvÄĽ": 5725,
      "ĠrÅ¾": 5726,
      "ĠmdlÃ½ch": 5727,
      "ĠhoÅ¡": 5728,
      "Ġkrt": 5729,
      "Ġxu": 5730,
      "ĠstÅĻin": 5731,
      "Ġlymp": 5732,
      "ĠsvraÅ¡": 5733,
      "tÃ¡n": 5734,
      "ĠstlÃŃ": 5735,
      "Ġjec": 5736,
      "Ġvdr": 5737,
      "ĠbdÃŃt": 5738,
      "Ġztad": 5739,
      "ĠchvÃŃÅ¡": 5740,
      "Ġpyl": 5741,
      "ĠchvÄĽv": 5742,
      "Ġschva": 5743,
      "ĠsdÃŃv": 5744,
      "ĠÅ¡prÃ½m": 5745,
      "Ġvtla": 5746,
      "Ġvzdou": 5747,
      "Ġcym": 5748,
      "Ġvzav": 5749,
      "Ġspros": 5750,
      "Ġkoch": 5751,
      "Ġjic": 5752,
      "Ġzbr": 5753,
      "ĠrouÅ¾": 5754,
      "ĠslÃŃch": 5755,
      "ĠÄįÃ¡k": 5756,
      "ĠknÃ©m": 5757,
      "ĠtskÃ©": 5758,
      "ĠvÅ¡ad": 5759,
      "Ġspjat": 5760,
      "ĠstÃ¡v": 5761,
      "Ġslout": 5762,
      "Ġvpan": 5763,
      "ĠfÃŃr": 5764,
      "Ġryth": 5765,
      "Ġskra": 5766,
      "ĠstiÅ¾": 5767,
      "Ġstoh": 5768,
      "ĠvkÅ¯": 5769,
      "Ġvklu": 5770,
      "Ġzmou": 5771,
      "Ġvraj": 5772,
      "ĠpliÄį": 5773,
      "ĠkyÅ¾": 5774,
      "Ġsklem": 5775,
      "Ġmeh": 5776,
      "ĠÄįÃŃs": 5777,
      "Ġslat": 5778,
      "ĠdÃ½l": 5779,
      "ĠhÃ½n": 5780,
      "Ġkpe": 5781,
      "Ġvluz": 5782,
      "Ġkprav": 5783,
      "ĠnÃŃÅ¥": 5784,
      "Ġdlej": 5785,
      "Ġgis": 5786,
      "ĠvhluÄį": 5787,
      "ĠvpÅ¯t": 5788,
      "ĠvjÃŃÅ¾": 5789,
      "lÅ¯": 5790,
      "Ġdc": 5791,
      "Ġsvle": 5792,
      "Ġvlad": 5793,
      "ĠblÃŃÄį": 5794,
      "ĠdÅĻec": 5795,
      "Ġfes": 5796,
      "Ġzbuj": 5797,
      "ĠzdÄĽt": 5798,
      "tno": 5799,
      "Ġplaz": 5800,
      "ĠzmÃ½": 5801,
      "ĠstÅĻej": 5802,
      "ĠÄıoun": 5803,
      "Ġbert": 5804,
      "Ġzkvet": 5805,
      "ĠbÅĻad": 5806,
      "Ġrro": 5807,
      "ĠpaÅĪ": 5808,
      "Ġgou": 5809,
      "ĠstvÅ¯r": 5810,
      "ĠvÃ¡Äį": 5811,
      "ĠlÃ¡l": 5812,
      "ĠvlÃŃt": 5813,
      "ĠzvÃ¡Å¡": 5814,
      "ouÄį": 5815,
      "ĠrosÅ¥": 5816,
      "ĠdÄĽr": 5817,
      "Ġcir": 5818,
      "ĠbÃŃÄį": 5819,
      "Ġred": 5820,
      "Ġech": 5821,
      "Ġhrb": 5822,
      "ĠprÃ¡ch": 5823,
      "Ġprout": 5824,
      "ĠzbuÄı": 5825,
      "ĠÅĻku": 5826,
      "on": 5827,
      "Ġjor": 5828,
      "ĠsÃ¡Å¡": 5829,
      "Ġjom": 5830,
      "ĠsjÃ¡": 5831,
      "Ġwi": 5832,
      "ĠcÃ¡t": 5833,
      "Ġvklou": 5834,
      "ĠchvÃŃm": 5835,
      "Ġgot": 5836,
      "Ġkha": 5837,
      "Ġdag": 5838,
      "Ġvprud": 5839,
      "ĠAABBAX": 5840,
      "Ġsoch": 5841,
      "ĠvÅ¾lu": 5842,
      "Ġshu": 5843,
      "Ġchvy": 5844,
      "ĠboÅ¡": 5845,
      "Ġshe": 5846,
      "ĠslÃŃp": 5847,
      "ĠstrÃ¡z": 5848,
      "Ġsrb": 5849,
      "ĠÅ¡van": 5850,
      "Ġtval": 5851,
      "ÅĪu": 5852,
      "ĠvsvÃ¡": 5853,
      "Ġznu": 5854,
      "ĠtvÃ¡ch": 5855,
      "ĠbÅĻez": 5856,
      "ĠchtÄĽls": 5857,
      "ĠnnosÅ¥": 5858,
      "Ġsprav": 5859,
      "ĠÅ¡paÄį": 5860,
      "ĠrdÄĽl": 5861,
      "ĠÅ¡prÃ½": 5862,
      "Ġlaj": 5863,
      "Ġvul": 5864,
      "Ġgh": 5865,
      "Ġpravd": 5866,
      "Ġvchvat": 5867,
      "Ġges": 5868,
      "ĠsmyÄį": 5869,
      "Ġpsan": 5870,
      "ta": 5871,
      "ĠcÅ¾e": 5872,
      "Ġul": 5873,
      "ĠdÃŃÄį": 5874,
      "ĠdÃŃch": 5875,
      "ĠvpÅĻÃ¡": 5876,
      "Ġklest": 5877,
      "ĠtÅĻÃŃt": 5878,
      "ĠlkÃ¡m": 5879,
      "Ġspis": 5880,
      "Ġmhy": 5881,
      "ĠtviÄį": 5882,
      "ĠÄįtver": 5883,
      "ĠbÅ¯Å¾": 5884,
      "ĠpÅ¯st": 5885,
      "ĠAXAXXX": 5886,
      "ĠmÅĻeÅ¡": 5887,
      "ĠvsmÃŃch": 5888,
      "ĠÄįly": 5889,
      "ĠnÄĽv": 5890,
      "Ġbrun": 5891,
      "Ġvtrh": 5892,
      "ĠcÃº": 5893,
      "ĠbÄĽn": 5894,
      "Ġzon": 5895,
      "ĠzvÃŃd": 5896,
      "ĠdnÃŃch": 5897,
      "Ġztma": 5898,
      "ĠÅ¡vec": 5899,
      "ĠÄįk": 5900,
      "Ġmac": 5901,
      "ĠÅĻest": 5902,
      "ĠzhÅĻe": 5903,
      "ĠsbÄĽÅĻ": 5904,
      "ĠzÅĻi": 5905,
      "Ġkub": 5906,
      "ĠvchÅ¯": 5907,
      "Ġvsklo": 5908,
      "ĠfÃ¡d": 5909,
      "Ġvkrev": 5910,
      "ĠraÅ¥": 5911,
      "Ġbun": 5912,
      "Ġrit": 5913,
      "Ġmav": 5914,
      "Ġzpar": 5915,
      "ĠgrÃ¡": 5916,
      "ĠztvÃ¡": 5917,
      "ĠvmrÃ¡": 5918,
      "ĠrÃ½Äį": 5919,
      "ĠblÃŃn": 5920,
      "Ġkbe": 5921,
      "Ġdlal": 5922,
      "Ġtrum": 5923,
      "ĠÅĪÅ¯m": 5924,
      "Ġsda": 5925,
      "Ġstlal": 5926,
      "Ġryn": 5927,
      "ĠzhlÃ©d": 5928,
      "ĠkloÅĪ": 5929,
      "Ġsbur": 5930,
      "ĠplyÅĪ": 5931,
      "ĠjvÄĽ": 5932,
      "Ġlab": 5933,
      "ĠABBC": 5934,
      "Ġbrad": 5935,
      "ĠsloÅ¾": 5936,
      "ĠplÃ½m": 5937,
      "Ġhoup": 5938,
      "Ġzhrou": 5939,
      "ĠspÃŃm": 5940,
      "ĠABBCAC": 5941,
      "ĠtÃŃt": 5942,
      "ĠsmÃ½m": 5943,
      "Ġzvem": 5944,
      "ĠreÅ¾": 5945,
      "Ġmrl": 5946,
      "Ġcouv": 5947,
      "vÃ¡l": 5948,
      "ĠkaÅ¥": 5949,
      "Ġcot": 5950,
      "Ġslul": 5951,
      "ĠvÅ¯l": 5952,
      "ĠvboÅ¾": 5953,
      "ĠkdÃŃv": 5954,
      "Ġvsloup": 5955,
      "Ġoas": 5956,
      "ĠlÃŃb": 5957,
      "ĠvÅ¾er": 5958,
      "ĠslÃ¡d": 5959,
      "ĠÅ¥Å¯": 5960,
      "ĠznaÄį": 5961,
      "ĠÅ¡ach": 5962,
      "Ġvtmy": 5963,
      "Ġcert": 5964,
      "Ġtce": 5965,
      "ĠsptÃ¡": 5966,
      "ĠÄįich": 5967,
      "ĠpÅĻiÅ¡": 5968,
      "Ġklap": 5969,
      "Ġspon": 5970,
      "ĠslÃŃt": 5971,
      "ĠjÅ¯v": 5972,
      "ĠzjÃŃ": 5973,
      "ĠpÅĻez": 5974,
      "ĠplaÅĪ": 5975,
      "ĠvzdÃ½": 5976,
      "Ġklon": 5977,
      "ĠspleÅ¥": 5978,
      "ĠzÄįa": 5979,
      "Ġjep": 5980,
      "Ġjse": 5981,
      "ĠcÃŃp": 5982,
      "ĠlÃŃr": 5983,
      "ĠvÅ¡el": 5984,
      "Ġpuj": 5985,
      "ĠÅ¡pl": 5986,
      "ĠvsÃ¡z": 5987,
      "Ġtby": 5988,
      "ĠÄįpÃŃ": 5989,
      "Ġtoi": 5990,
      "Ġjiv": 5991,
      "ĠmÄĽÅĪ": 5992,
      "ĠmaÅĻ": 5993,
      "Ġsoh": 5994,
      "ĠÅ¡pe": 5995,
      "Ġ25": 5996,
      "ĠzÄįes": 5997,
      "Ġzvrh": 5998,
      "Ġvep": 5999,
      "Ġsles": 6000,
      "ĠctnÃ¡": 6001,
      "Ġfir": 6002,
      "Ġknouc": 6003,
      "Ġchvoj": 6004,
      "ĠhÃºt": 6005,
      "ĠhnÃŃ": 6006,
      "ĠsvÄĽÄį": 6007,
      "ĠstrÅ¾": 6008,
      "Ġkpom": 6009,
      "Ġvret": 6010,
      "Ġvhrou": 6011,
      "Ġbroj": 6012,
      "Ġvzho": 6013,
      "Ġzkon": 6014,
      "Ġsver": 6015,
      "Ġveh": 6016,
      "Ġduk": 6017,
      "ĠÃºÅ¡": 6018,
      "Ġvkme": 6019,
      "ĠhrsÅ¥": 6020,
      "Ġsvol": 6021,
      "Ġksy": 6022,
      "ĠÅ¡am": 6023,
      "Ġovz": 6024,
      "Ġvzbo": 6025,
      "Ġmstu": 6026,
      "ĠdÅ¡tÃŃ": 6027,
      "ĠÅĻeÅ¾": 6028,
      "ĠmÃ¡r": 6029,
      "Ġvjis": 6030,
      "ĠÅ¥Ã¡k": 6031,
      "Ġvplu": 6032,
      "ĠkvÅ¡e": 6033,
      "Ġvmh": 6034,
      "Ġzut": 6035,
      "ĠkÃ½ms": 6036,
      "Ġstkvou": 6037,
      "Ġlnu": 6038,
      "Ġzdor": 6039,
      "Ġchost": 6040,
      "Ġslon": 6041,
      "ĠrÃ½h": 6042,
      "ĠchÅĻtÃ¡n": 6043,
      "ĠbÃ³": 6044,
      "Ġvdrob": 6045,
      "hÅĻ": 6046,
      "ĠlpÄĽ": 6047,
      "Ġstlou": 6048,
      "Ġzvoj": 6049,
      "ĠÄįlÃ¡n": 6050,
      "Ġpsk": 6051,
      "Ġkdi": 6052,
      "ĠzÃŃd": 6053,
      "Ġlent": 6054,
      "Ġvtisk": 6055,
      "Ġclon": 6056,
      "ĠtskÃ½ch": 6057,
      "ĠÄįr": 6058,
      "Ġnij": 6059,
      "ĠpaÅ¾": 6060,
      "Ġvzno": 6061,
      "Ġzdla": 6062,
      "ĠtvÃ¡n": 6063,
      "Ġmour": 6064,
      "Ġvjem": 6065,
      "ĠdrÃ¡b": 6066,
      "Ġscvr": 6067,
      "Ġbvi": 6068,
      "Ġrri": 6069,
      "Ġzkus": 6070,
      "ĠXXAXXA": 6071,
      "Ġkjed": 6072,
      "ĠctÄĽn": 6073,
      "Ġnix": 6074,
      "Ġrop": 6075,
      "ĠdÃ½n": 6076,
      "Ġskrou": 6077,
      "ĠkbÃŃ": 6078,
      "ĠkÅ¡tic": 6079,
      "Ġvah": 6080,
      "Ġvir": 6081,
      "ĠhyÅĪ": 6082,
      "Ġbrak": 6083,
      "Ġsliz": 6084,
      "Ġumr": 6085,
      "ĠjÃ³": 6086,
      "Ġmlo": 6087,
      "ĠXAXX": 6088,
      "Ġvrz": 6089,
      "Ġklin": 6090,
      "Ġkpi": 6091,
      "Ġvbol": 6092,
      "ĠÅ¾hÃ¡": 6093,
      "Ġchel": 6094,
      "Ġvhud": 6095,
      "ĠzÅ¾en": 6096,
      "ĠÅ¾nec": 6097,
      "ÅĻem": 6098,
      "Ġlor": 6099,
      "Ġvyn": 6100,
      "Ġvyt": 6101,
      "ĠÅĻÃŃj": 6102,
      "Ġspos": 6103,
      "Ġztvo": 6104,
      "ĠsklÃ¡l": 6105,
      "Ġzmdlo": 6106,
      "ĠlÃŃs": 6107,
      "Ġvdvo": 6108,
      "ĠmÅ¯v": 6109,
      "ĠtlÅ¯": 6110,
      "Ġchrap": 6111,
      "Ġalp": 6112,
      "Ġxem": 6113,
      "ĠvmÃŃr": 6114,
      "ĠvskrÃ¡ÅĪ": 6115,
      "Ġkci": 6116,
      "ĠmÅ¡e": 6117,
      "ĠchÅĻÃŃ": 6118,
      "ĠdÃŃn": 6119,
      "Ġslin": 6120,
      "ĠÅ¡tu": 6121,
      "Ġtnou": 6122,
      "ĠÅ¡Ã¡l": 6123,
      "ĠdlÅ¯m": 6124,
      "ĠtÅĻÃŃc": 6125,
      "Ġksvo": 6126,
      "Ġschlad": 6127,
      "ĠkÅ¡e": 6128,
      "ĠboÄį": 6129,
      "ĠABAX": 6130,
      "ĠzdÅ¯": 6131,
      "Ġvsle": 6132,
      "ĠsvÃ©st": 6133,
      "ĠvdrÃ¡": 6134,
      "Ġvsti": 6135,
      "ĠvbrÃ¡": 6136,
      "Ġvzpur": 6137,
      "ĠÃŃm": 6138,
      "ĠvzmÃ¡": 6139,
      "Ġvsni": 6140,
      "ĠtÅĻech": 6141,
      "ĠvÅ¯v": 6142,
      "ĠknÄĽh": 6143,
      "Ġgest": 6144,
      "ĠvÅ¡im": 6145,
      "ĠstkÃ¡": 6146,
      "Ġmstou": 6147,
      "ĠstÅĻÃ¡b": 6148,
      "ĠsdÄĽc": 6149,
      "Ġhnizd": 6150,
      "ĠvdÃŃv": 6151,
      "ĠbuÅ¡": 6152,
      "Ġtrech": 6153,
      "Ġjli": 6154,
      "ĠÄįaj": 6155,
      "Ġkvra": 6156,
      "Ġkryj": 6157,
      "Ġtno": 6158,
      "Ġkk": 6159,
      "ĠmlÃŃ": 6160,
      "Ġsper": 6161,
      "Ġbrz": 6162,
      "Ġzkli": 6163,
      "Ġstvr": 6164,
      "ĠkoÅĻ": 6165,
      "ĠzeÅ¡": 6166,
      "Ġcop": 6167,
      "Ġvzpu": 6168,
      "ĠAAXBBB": 6169,
      "Ã¡s": 6170,
      "ĠstlÃ½ch": 6171,
      "ĠsaÄı": 6172,
      "ĠpuÄı": 6173,
      "Ġvpol": 6174,
      "Ġfis": 6175,
      "Ġvkost": 6176,
      "Ġvjih": 6177,
      "ĠbÅĻich": 6178,
      "ĠkÅ¡ÃŃ": 6179,
      "ĠsÄįa": 6180,
      "Ġmlej": 6181,
      "ĠvpÄĽk": 6182,
      "Ġzvlast": 6183,
      "Ġvvz": 6184,
      "Ġjhem": 6185,
      "Ġbva": 6186,
      "ĠchÅĻa": 6187,
      "Ġkrz": 6188,
      "ĠhouÄį": 6189,
      "Ġkvl": 6190,
      "ĠstÅĻÃŃm": 6191,
      "ĠvnÃŃz": 6192,
      "Ġvhoj": 6193,
      "Ġous": 6194,
      "ĠkrouÅ¾": 6195,
      "ĠXAB": 6196,
      "ĠsvlaÄį": 6197,
      "ĠzÅ¡ÃŃ": 6198,
      "ber": 6199,
      "Ġcre": 6200,
      "ĠvÅ¡at": 6201,
      "ĠzeÅ¥": 6202,
      "Ġprol": 6203,
      "ĠhlaÄı": 6204,
      "Ġthen": 6205,
      "ĠÅ¡lÃ©m": 6206,
      "Ġvluh": 6207,
      "ĠzkrÃ¡s": 6208,
      "ĠvcÃŃr": 6209,
      "Ġpnul": 6210,
      "ĠtrÅ¾": 6211,
      "ĠreÅ¡": 6212,
      "ĠvkvÃŃ": 6213,
      "Ġnals": 6214,
      "ĠtluÅ¡": 6215,
      "ĠÅ¡pet": 6216,
      "Ġvrov": 6217,
      "Ġchrou": 6218,
      "us": 6219,
      "Ġtne": 6220,
      "ĠllÃ¡": 6221,
      "Ã½z": 6222,
      "Ġjaj": 6223,
      "ĠkraÅ¡": 6224,
      "Ġschne": 6225,
      "ĠschvÃ¡l": 6226,
      "Ġkple": 6227,
      "Ġjrad": 6228,
      "Ġmir": 6229,
      "ĠsoÅ¡": 6230,
      "Ġbiv": 6231,
      "ĠhÅ¯d": 6232,
      "Ġvrop": 6233,
      "ĠblÃ½ch": 6234,
      "Ġpet": 6235,
      "Ġprej": 6236,
      "ĠjÃ¡ÅĻ": 6237,
      "Ġklop": 6238,
      "Ġvjev": 6239,
      "Ġkcha": 6240,
      "ĠseÄı": 6241,
      "Ġfen": 6242,
      "ĠstÅĻez": 6243,
      "ĠtmÃ¡": 6244,
      "Ġzmoh": 6245,
      "ĠzkÃ¡z": 6246,
      "Ġcp": 6247,
      "ĠpÅĻÃŃÄį": 6248,
      "Ġkti": 6249,
      "ĠÅ¾alm": 6250,
      "ĠprÃ½s": 6251,
      "ĠzniÄį": 6252,
      "Ġstka": 6253,
      "Ġsfinx": 6254,
      "ĠÅ¡eÅ¥": 6255,
      "ĠmÃŃÅ¥": 6256,
      "ĠsÃ¡d": 6257,
      "Ġdlec": 6258,
      "Ġdlet": 6259,
      "ĠÅ¡ust": 6260,
      "ĠtrÅ¯v": 6261,
      "Ġshod": 6262,
      "Ġvnach": 6263,
      "ĠplÃ©st": 6264,
      "ĠkstÃ¡": 6265,
      "ĠÅ¡Å¯m": 6266,
      "Ġpok": 6267,
      "Ġsvil": 6268,
      "ĠnÄĽh": 6269,
      "Ġzdna": 6270,
      "ĠkrÃ½ch": 6271,
      "Ġgla": 6272,
      "Ġvdus": 6273,
      "ĠkmÃ½m": 6274,
      "Ġkbu": 6275,
      "th": 6276,
      "Ġnum": 6277,
      "Ġgem": 6278,
      "ĠpiÅ¥": 6279,
      "Ġvlem": 6280,
      "Ġpse": 6281,
      "ĠÄįti": 6282,
      "ĠzmÃŃr": 6283,
      "ĠvcÃ¡": 6284,
      "ĠschÅ¯z": 6285,
      "ĠsjÃŃÅ¾": 6286,
      "ĠtnÃ¡": 6287,
      "ĠÅ¡ma": 6288,
      "ĠsÃŃk": 6289,
      "ĠtakÅĻ": 6290,
      "ĠvtÃ³": 6291,
      "Ġzvel": 6292,
      "ĠchrÃ¡n": 6293,
      "rÃ¡t": 6294,
      "Ġraf": 6295,
      "Ġstuh": 6296,
      "Ġskor": 6297,
      "ĠbrÃ¡zd": 6298,
      "Ġkspa": 6299,
      "ct": 6300,
      "ĠbÅĻa": 6301,
      "Ġbom": 6302,
      "Ġgru": 6303,
      "ĠAAXXXX": 6304,
      "Ġvlez": 6305,
      "Ġchri": 6306,
      "ĠnnÄĽj": 6307,
      "ĠdÅĻek": 6308,
      "Ġzprv": 6309,
      "Ġzdych": 6310,
      "ĠflÃŃk": 6311,
      "nÃ½m": 6312,
      "ĠÄįÃŃr": 6313,
      "Ġvut": 6314,
      "Ġbrlo": 6315,
      "Ġzkor": 6316,
      "ĠkliÄį": 6317,
      "ĠnebÅ¥": 6318,
      "ĠsblÃŃ": 6319,
      "ĠscÃŃ": 6320,
      "Ġdup": 6321,
      "ĠzdÃ½": 6322,
      "Ġdlost": 6323,
      "ĠzouÄį": 6324,
      "ĠvnÃ¡Å¡": 6325,
      "ĠvÅĻÃŃÅ¡": 6326,
      "ĠÅ¡ot": 6327,
      "ĠsÅ¾eh": 6328,
      "ĠvtÃ½l": 6329,
      "ĠXABBXA": 6330,
      "ĠhoÅĪ": 6331,
      "Ġdop": 6332,
      "Ġkdve": 6333,
      "ĠztÅĻe": 6334,
      "ĠstraÅ¾": 6335,
      "Ġcent": 6336,
      "ĠvloÄı": 6337,
      "ĠvÃ¡c": 6338,
      "Ġvps": 6339,
      "Ġdvy": 6340,
      "Ġtmav": 6341,
      "ĠÄıu": 6342,
      "ABBB": 6343,
      "Ġzrud": 6344,
      "Ġvco": 6345,
      "ĠkchrÃ¡": 6346,
      "ĠvÅ¡Å¥": 6347,
      "Ġdys": 6348,
      "ĠpÃ¡v": 6349,
      "Ġkvz": 6350,
      "Ġkpou": 6351,
      "ĠvneÅ¡": 6352,
      "ĠÄįuj": 6353,
      "Ġvsmrt": 6354,
      "Ã©st": 6355,
      "Ġvpal": 6356,
      "Ġplan": 6357,
      "Ġvhvoz": 6358,
      "Ġvils": 6359,
      "Ġtrut": 6360,
      "Ġvkan": 6361,
      "Ġznec": 6362,
      "Ġstlin": 6363,
      "Ġstliv": 6364,
      "Ġknuv": 6365,
      "Ġbrus": 6366,
      "ĠsbÃŃr": 6367,
      "Ġspur": 6368,
      "ĠstkvÄĽl": 6369,
      "ĠrÅ¾Ã¡": 6370,
      "Ġvzat": 6371,
      "ĠmÃ¡d": 6372,
      "Ġskles": 6373,
      "Ġtau": 6374,
      "Ġkda": 6375,
      "Ġsas": 6376,
      "ĠzmrÃ¡": 6377,
      "Ġtlan": 6378,
      "ĠÅ¾ils": 6379,
      "Ġsmet": 6380,
      "ĠssÃ¡t": 6381,
      "rÃ½": 6382,
      "ĠnÃ¡r": 6383,
      "Ġzper": 6384,
      "Ġzbil": 6385,
      "ĠlouÅ¡": 6386,
      "Ġbrej": 6387,
      "ĠstrÅ¯j": 6388,
      "ĠstyÄı": 6389,
      "Ġksl": 6390,
      "ĠzvÄĽn": 6391,
      "ĠktvÃ½m": 6392,
      "ĠterÄį": 6393,
      "Ġhno": 6394,
      "Ġrry": 6395,
      "Ġsthe": 6396,
      "ill": 6397,
      "ĠfÃ¡l": 6398,
      "ĠvbrÃ¡z": 6399,
      "ĠhluÅ¡": 6400,
      "ĠvstraÅ¡": 6401,
      "ĠzlÅ¯Å¾": 6402,
      "ĠdmÃ½": 6403,
      "ju": 6404,
      "Ġmid": 6405,
      "ĠciÅ¥": 6406,
      "ĠbeÅĪ": 6407,
      "Ġham": 6408,
      "ĠÅ¡iv": 6409,
      "Ġstov": 6410,
      "Ġchas": 6411,
      "ĠvÅĻesk": 6412,
      "Ġzles": 6413,
      "Ġmann": 6414,
      "ĠvÄįt": 6415,
      "Ġglic": 6416,
      "ĠjvÄĽr": 6417,
      "ky": 6418,
      "ĠÅ¾s": 6419,
      "Ġzac": 6420,
      "ĠznÄĽt": 6421,
      "ĠzÃ½ch": 6422,
      "ĠrÃ³": 6423,
      "Ġust": 6424,
      "ĠvoÅĪ": 6425,
      "Ġpror": 6426,
      "ĠtakÅ¾": 6427,
      "ĠprÃ¡m": 6428,
      "Ġrouch": 6429,
      "ĠzhÃ½": 6430,
      "ĠtÅĻÃŃd": 6431,
      "Ġzniv": 6432,
      "ĠvplÃ¡Å¡": 6433,
      "ĠdvÃŃÅĻ": 6434,
      "ĠzÅ¾eh": 6435,
      "ĠvÅĻÃ¡": 6436,
      "Ġskru": 6437,
      "Ġsml": 6438,
      "ĠzveÅ¡": 6439,
      "ĠmÃ½Å¾": 6440,
      "Ġpsem": 6441,
      "ĠdbÃ¡t": 6442,
      "ĠskvÃŃt": 6443,
      "ĠdÅ¡t": 6444,
      "ĠchÃ³r": 6445,
      "Ġkyj": 6446,
      "Ġodz": 6447,
      "Ġsum": 6448,
      "Ġdlas": 6449,
      "Ġzpout": 6450,
      "ĠkÅ¾a": 6451,
      "ĠÅ¡vÃ¡r": 6452,
      "ĠvzboÅ¾": 6453,
      "ĠÅ¡ÃŃÄį": 6454,
      "Ġbac": 6455,
      "ĠbÃ½k": 6456,
      "ĠsdÃŃt": 6457,
      "Ġvtrud": 6458,
      "Ġtoh": 6459,
      "Ġkad": 6460,
      "Ġkun": 6461,
      "Ġcil": 6462,
      "Ġvzu": 6463,
      "ĠzdÅĻe": 6464,
      "Ġzvat": 6465,
      "Ġtakt": 6466,
      "ĠvsnÃŃ": 6467,
      "ĠtÅĻÃŃn": 6468,
      "ĠstÅĻÃŃk": 6469,
      "ĠknÃŃm": 6470,
      "ĠzmÃŃn": 6471,
      "Ġtlej": 6472,
      "Ġvliv": 6473,
      "ĠÅĪuj": 6474,
      "ĠrtuÅ¥": 6475,
      "kal": 6476,
      "po": 6477,
      "ĠclÃ¡": 6478,
      "ĠloÅĪ": 6479,
      "ĠvsnÅ¯": 6480,
      "Ġzot": 6481,
      "Ġrik": 6482,
      "ĠvsÃŃÅ¥": 6483,
      "ĠtnÃŃm": 6484,
      "ĠvmuÅ¾": 6485,
      "ĠÅ¥ov": 6486,
      "Ġtci": 6487,
      "Ġvsbo": 6488,
      "Ġtkne": 6489,
      "ĠzÅĻels": 6490,
      "Ġvzed": 6491,
      "Ġsnub": 6492,
      "Ġsrub": 6493,
      "ic": 6494,
      "Ġvve": 6495,
      "ĠmÃŃc": 6496,
      "Ġziv": 6497,
      "ĠdrÅ¥": 6498,
      "Ġzhrd": 6499,
      "ĠstÅĻet": 6500,
      "Ġtils": 6501,
      "ĠsvÃ¡Å¡": 6502,
      "Ġskryj": 6503,
      "Ġoud": 6504,
      "Ġzcho": 6505,
      "lÃ¡d": 6506,
      "ĠhaÄį": 6507,
      "Ġstec": 6508,
      "Ġztou": 6509,
      "Ġnils": 6510,
      "ĠhlÅ¯": 6511,
      "ĠsvÃ¡Å¾": 6512,
      "Ġ26": 6513,
      "ĠflÃ³": 6514,
      "Ġsmej": 6515,
      "ĠkÃ½ÅĻ": 6516,
      "ĠvdÃ©": 6517,
      "Ġsvan": 6518,
      "ĠkliÄı": 6519,
      "Ġsbou": 6520,
      "Ġgerd": 6521,
      "Ġdvet": 6522,
      "ĠzlÃŃk": 6523,
      "ĠchmÅ¯": 6524,
      "Ġler": 6525,
      "Ġvzvu": 6526,
      "Ġknez": 6527,
      "ĠÅ¡tval": 6528,
      "ĠkviÄį": 6529,
      "Ġsplet": 6530,
      "Å¡em": 6531,
      "Ġkoz": 6532,
      "Ġlouk": 6533,
      "ĠAAA": 6534,
      "ĠzdÃ¡Å¡": 6535,
      "ĠÄįÃŃms": 6536,
      "ĠkzpÄĽ": 6537,
      "Ġfos": 6538,
      "ĠsplÃ¡ch": 6539,
      "Ġsprch": 6540,
      "Ġchnu": 6541,
      "Ġdesk": 6542,
      "Ġsplo": 6543,
      "ĠtÃ¡r": 6544,
      "ĠbaÅ¥": 6545,
      "ĠluÅ¡": 6546,
      "Ġbour": 6547,
      "ĠzvoÅĪ": 6548,
      "Ġzves": 6549,
      "ĠstÅĻÃŃÅ¡": 6550,
      "Ġvdom": 6551,
      "ĠzlÃŃh": 6552,
      "ĠvnuÄį": 6553,
      "ĠvzmÄĽ": 6554,
      "Ġmnul": 6555,
      "Ġkach": 6556,
      "ĠbeÅ¾": 6557,
      "ĠkrÃ¡st": 6558,
      "ĠÅ¡ij": 6559,
      "Ġpral": 6560,
      "ĠhÃ¡k": 6561,
      "ĠzÃŃv": 6562,
      "ĠbÅ¯v": 6563,
      "ĠzvÄĽt": 6564,
      "ĠschvÃŃ": 6565,
      "ĠdrosÅ¥": 6566,
      "ĠkpÅ¯l": 6567,
      "ĠÅ¡kvÃ¡": 6568,
      "Ġnevr": 6569,
      "ĠsmeÅ¥": 6570,
      "ĠvÅ¡Å¥ast": 6571,
      "Ġskni": 6572,
      "ĠraÄı": 6573,
      "ĠÅĻÃŃn": 6574,
      "Ġvsh": 6575,
      "ĠvpÅĻi": 6576,
      "Ġsub": 6577,
      "ĠgÃ¡t": 6578,
      "Ġzkrou": 6579,
      "Ġvzpa": 6580,
      "Ġvstav": 6581,
      "ĠvzkÅĻe": 6582,
      "Ġnerv": 6583,
      "Ġerb": 6584,
      "ĠvÅ¾Ã¡d": 6585,
      "lil": 6586,
      "ĠrÃ½t": 6587,
      "ĠkamÅ¾": 6588,
      "Ġzdum": 6589,
      "ĠstÅĻih": 6590,
      "ĠvpyÅ¡": 6591,
      "ĠsÄįi": 6592,
      "ĠmÅ¾ÃŃ": 6593,
      "ĠroÅĪ": 6594,
      "ĠloÅ¥": 6595,
      "ĠdÃŃÅ¾": 6596,
      "ĠdÃ¡Å¥": 6597,
      "ĠÅ¾iÅ¡": 6598,
      "ĠABABAA": 6599,
      "ĠprÃ½ch": 6600,
      "ĠvhlÃŃ": 6601,
      "Ġsrst": 6602,
      "Ġtop": 6603,
      "Ġmum": 6604,
      "ĠboÅĻ": 6605,
      "Ġmach": 6606,
      "Ġshou": 6607,
      "Ġvjes": 6608,
      "ĠÄįtyr": 6609,
      "ĠÅ¾Å¯v": 6610,
      "Ġvtri": 6611,
      "nem": 6612,
      "ĠsvlÃŃ": 6613,
      "ĠkdÃ¡": 6614,
      "Ġsur": 6615,
      "Ġchab": 6616,
      "ĠztÅ¯": 6617,
      "ĠvbdÄĽ": 6618,
      "ĠksnÄĽ": 6619,
      "Ġzrod": 6620,
      "ĠXABX": 6621,
      "Ġslits": 6622,
      "ĠÅ¡tÄĽrk": 6623,
      "Ġthic": 6624,
      "war": 6625,
      "ĠmnÃ¡": 6626,
      "ĠmÄĽs": 6627,
      "ĠpÅĻeh": 6628,
      "ĠAXX": 6629,
      "ĠlÃ©n": 6630,
      "ĠpÃ¡st": 6631,
      "ĠÅ¡to": 6632,
      "Ġfum": 6633,
      "Ġzsrd": 6634,
      "ll": 6635,
      "ĠhosÅ¥": 6636,
      "ĠspÃ½": 6637,
      "Ġvhar": 6638,
      "ĠzdÃ¡m": 6639,
      "Ġfrau": 6640,
      "Ġkant": 6641,
      "ĠkÅĻil": 6642,
      "ĠsÄįlo": 6643,
      "ĠsÅ¡ÃŃ": 6644,
      "ĠzbÅĻe": 6645,
      "BAC": 6646,
      "ĠvÅ¯t": 6647,
      "ĠstÅĻÃŃs": 6648,
      "ĠknÃŃr": 6649,
      "Ġzlep": 6650,
      "Ġchlil": 6651,
      "Ġvspa": 6652,
      "ĠABCBAC": 6653,
      "ĠÅ¾nÃŃch": 6654,
      "ĠhÃ³": 6655,
      "Å¡t": 6656,
      "Ġtaz": 6657,
      "ĠsprÃ¡z": 6658,
      "Ġfli": 6659,
      "ĠtraÅ¥": 6660,
      "Ġkrod": 6661,
      "ĠpÅ¯v": 6662,
      "Ġsdlou": 6663,
      "Ġtknou": 6664,
      "ĠvmoÅĻ": 6665,
      "ĠchlÃ©v": 6666,
      "ĠctnosÅ¥": 6667,
      "ĠÅĻuj": 6668,
      "Ġvtrp": 6669,
      "Ġvzchop": 6670,
      "ĠjÃŃk": 6671,
      "ĠmeÅ¾": 6672,
      "ĠvzÅĻÃŃ": 6673,
      "Ġbep": 6674,
      "ĠAABBXB": 6675,
      "Ġvklo": 6676,
      "Ġpik": 6677,
      "ĠstÄĽr": 6678,
      "Ġmoun": 6679,
      "ĠksÃŃ": 6680,
      "ĠÅ¥at": 6681,
      "Ġskan": 6682,
      "Ġznez": 6683,
      "Ġharf": 6684,
      "ĠkÄįlo": 6685,
      "Ġzbez": 6686,
      "Ġstam": 6687,
      "Ġsim": 6688,
      "ĠkÃ¡d": 6689,
      "ĠsteÅ¡": 6690,
      "Ġvdny": 6691,
      "Ġzblu": 6692,
      "ĠchyÅĪ": 6693,
      "ĠvÅĻeÄį": 6694,
      "ĠskÅĻip": 6695,
      "ĠÅ¡Å¥av": 6696,
      "Ġvdav": 6697,
      "Ġztuh": 6698,
      "Ġragd": 6699,
      "Ġnest": 6700,
      "Ġmast": 6701,
      "Ġstau": 6702,
      "ĠsiÅ¥": 6703,
      "Ġplyn": 6704,
      "Ġkpod": 6705,
      "ĠÅ¡Ã¡n": 6706,
      "ĠsdruÅ¾": 6707,
      "ld": 6708,
      "Ġdran": 6709,
      "ĠtÅĻiÄį": 6710,
      "ĠtkÃ¡m": 6711,
      "ĠlhÅ¯": 6712,
      "Ġschyl": 6713,
      "Ġbak": 6714,
      "Ġprz": 6715,
      "ĠzÃŃc": 6716,
      "Ġvhym": 6717,
      "Ġrous": 6718,
      "ĠksvÃ¡t": 6719,
      "ĠsnÄĽd": 6720,
      "Ġknej": 6721,
      "ĠdlÃ¡n": 6722,
      "Ġpnout": 6723,
      "ĠpokÅĻ": 6724,
      "ÅĻil": 6725,
      "Ġvex": 6726,
      "Ġkouk": 6727,
      "Ġsyc": 6728,
      "Ġvtrou": 6729,
      "Ġsloh": 6730,
      "Ġpodv": 6731,
      "Ġtlas": 6732,
      "Ġkret": 6733,
      "ĠvzkvÃ©": 6734,
      "ĠvÅ¡ik": 6735,
      "Ġknem": 6736,
      "Ġsfer": 6737,
      "Ġzjiz": 6738,
      "ĠvpÄĽst": 6739,
      "ck": 6740,
      "Ġvlach": 6741,
      "Ġvouz": 6742,
      "Ġstve": 6743,
      "Ġkzou": 6744,
      "ĠtnÃŃch": 6745,
      "Ġsjich": 6746,
      "ĠbdÃŃÅ¡": 6747,
      "ĠzblÃ¡z": 6748,
      "Ġph": 6749,
      "ĠÅ¡rou": 6750,
      "ĠÅ¾ec": 6751,
      "Ġlyp": 6752,
      "ĠÅ¡iÅ¡": 6753,
      "Ġvdal": 6754,
      "Ġvdum": 6755,
      "ĠÄįÃ¡sÅ¥": 6756,
      "ĠstÅĻil": 6757,
      "ĠkÅĻÃ¡l": 6758,
      "ĠvzpÄĽv": 6759,
      "Ġpni": 6760,
      "ĠÅ¾ÃŃÅ¥": 6761,
      "Ġzvin": 6762,
      "Ġvsil": 6763,
      "ĠbiÅ¥": 6764,
      "Ġvhan": 6765,
      "Ġsdr": 6766,
      "Ġxo": 6767,
      "Ġchcy": 6768,
      "ĠmodÅĻ": 6769,
      "Ġdvrh": 6770,
      "vor": 6771,
      "ĠsvÅ¡ÃŃ": 6772,
      "ĠkÃ¡Äį": 6773,
      "ĠrÃ¡c": 6774,
      "ĠbÃŃch": 6775,
      "ĠsvÃŃc": 6776,
      "ĠstrÃ¡m": 6777,
      "Ġxa": 6778,
      "Ġvskok": 6779,
      "Ġstle": 6780,
      "ĠÅ¡ip": 6781,
      "ĠstÅĻes": 6782,
      "Ġstoun": 6783,
      "ĠÅ¡lal": 6784,
      "ĠhlÃ¡v": 6785,
      "Ġzkom": 6786,
      "Ġvtry": 6787,
      "ĠvpÃ¡d": 6788,
      "ĠvdruÅ¾": 6789,
      "pa": 6790,
      "Ġzst": 6791,
      "Ġbvo": 6792,
      "ĠÅ¡eÅ¡": 6793,
      "ĠvÃŃÅ¥": 6794,
      "Ġrut": 6795,
      "ĠvtÅĻ": 6796,
      "ĠstÄĽch": 6797,
      "Ġkslav": 6798,
      "Ġktu": 6799,
      "Ġtryl": 6800,
      "Ġzliv": 6801,
      "ĠÅĻÃŃct": 6802,
      "ĠkchvÃ¡": 6803,
      "Ġsbles": 6804,
      "ĠlvÅ¯": 6805,
      "Ġnac": 6806,
      "ĠkÃ¡v": 6807,
      "ĠpÅĻiv": 6808,
      "ĠXAXB": 6809,
      "ĠlÃ½t": 6810,
      "ĠzbrÃ¡z": 6811,
      "Ġgno": 6812,
      "Ġbrv": 6813,
      "Ġzvet": 6814,
      "ĠkveÅ¥": 6815,
      "Ġzbran": 6816,
      "ĠÅ¾luÅ¥": 6817,
      "ĠzruÄį": 6818,
      "Ġchlip": 6819,
      "ĠblÃ©m": 6820,
      "Ġskvrn": 6821,
      "Ġfouk": 6822,
      "Ġjezd": 6823,
      "ĠÅ¾rou": 6824,
      "Ġlai": 6825,
      "ĠmaÅ¥": 6826,
      "Ġvtro": 6827,
      "Ġzty": 6828,
      "ĠzkÅ¯": 6829,
      "Ġtrouch": 6830,
      "Ġtlouk": 6831,
      "ĠvseÄį": 6832,
      "ĠvstÅĻed": 6833,
      "ĠchlÃŃp": 6834,
      "Ġfaun": 6835,
      "ĠshvÄĽzd": 6836,
      "Ġvheb": 6837,
      "zi": 6838,
      "ĠkuÄı": 6839,
      "ĠvoÅ¡": 6840,
      "ĠhÃ¡l": 6841,
      "ĠbÃŃc": 6842,
      "Ġvbal": 6843,
      "Ġksvat": 6844,
      "ĠpÅĻÃ¡n": 6845,
      "Ġcaj": 6846,
      "Ġvkry": 6847,
      "Ġllan": 6848,
      "ĠkskÃ¡": 6849,
      "ĠrÃŃ": 6850,
      "Ġnand": 6851,
      "Ġkain": 6852,
      "Ġdud": 6853,
      "ĠÄįis": 6854,
      "ĠsvÄĽn": 6855,
      "Ġsyk": 6856,
      "Ġhust": 6857,
      "Ġzvos": 6858,
      "Ġtrak": 6859,
      "Ġkmy": 6860,
      "ĠkbrÃ¡": 6861,
      "Ġkcho": 6862,
      "Ġpsot": 6863,
      "ĠÅ¡tÃ¡ÅĻ": 6864,
      "Ġii": 6865,
      "ĠABABBA": 6866,
      "ĠsoÅĪ": 6867,
      "Ġstrah": 6868,
      "ĠsdrÃ¡": 6869,
      "Ġvzbro": 6870,
      "Ġkpoz": 6871,
      "Ġzjem": 6872,
      "Ġvkrad": 6873,
      "ĠÄįÅ¯v": 6874,
      "Ġdolf": 6875,
      "ĠchlÃ¡d": 6876,
      "Ġlvem": 6877,
      "AAB": 6878,
      "ĠkÅĪu": 6879,
      "ĠbÅ¯j": 6880,
      "ĠAABAAB": 6881,
      "Ġzust": 6882,
      "ĠzÅĻÃŃc": 6883,
      "ĠspÃ¡Äį": 6884,
      "ĠthÅ¯": 6885,
      "Ġcus": 6886,
      "ĠbÅĻÃŃk": 6887,
      "Ġrant": 6888,
      "Ġlhou": 6889,
      "ĠkÅĻivd": 6890,
      "ĠkjÃŃ": 6891,
      "Ġjry": 6892,
      "rÃ¡m": 6893,
      "Ġkdnu": 6894,
      "ĠtÅĻev": 6895,
      "ĠhÃ½l": 6896,
      "Ġdils": 6897,
      "ĠtÅĻem": 6898,
      "Ġkba": 6899,
      "ĠÄįteÅ¡": 6900,
      "Ġvblud": 6901,
      "ĠÄįlen": 6902,
      "ĠvvÃ½": 6903,
      "ĠclÃ©": 6904,
      "Ġnoz": 6905,
      "ĠvaÅ¡": 6906,
      "Ġzeh": 6907,
      "Ġhuk": 6908,
      "Ġhup": 6909,
      "Ġtril": 6910,
      "Ġvsli": 6911,
      "Ġvpru": 6912,
      "Ġslup": 6913,
      "ĠvmlÃ½": 6914,
      "ĠslÃŃk": 6915,
      "Ġkmr": 6916,
      "Ġkzlo": 6917,
      "Ġchrp": 6918,
      "Ġkuds": 6919,
      "ĠpÅ¡en": 6920,
      "Ġchnou": 6921,
      "Ġrah": 6922,
      "ĠÅ¾ÃŃÅ¾": 6923,
      "Ġsav": 6924,
      "Ġsleh": 6925,
      "Ġstrej": 6926,
      "Ġye": 6927,
      "ĠstruÅ¾": 6928,
      "ĠshoÄı": 6929,
      "Ġvloh": 6930,
      "ĠÅ¡lÃ¡ÅĻ": 6931,
      "ĠkvoÄį": 6932,
      "tin": 6933,
      "ĠzatÅĻ": 6934,
      "XAA": 6935,
      "ĠtÃ¡Äį": 6936,
      "Ġbrk": 6937,
      "ĠzmÄĽst": 6938,
      "Ġzvrat": 6939,
      "ĠÄįmou": 6940,
      "Ġjir": 6941,
      "Ġuil": 6942,
      "Ġhouc": 6943,
      "Ġhral": 6944,
      "ĠkÃ©ms": 6945,
      "Ġzchlad": 6946,
      "ĠvbÃŃd": 6947,
      "ĠfÃŃn": 6948,
      "ĠhviÄį": 6949,
      "ĠstrÅ¯v": 6950,
      "Ġkyv": 6951,
      "ĠskÅ¯": 6952,
      "ĠvuÅ¡": 6953,
      "ĠvraÅ¡": 6954,
      "ĠouÅ¡": 6955,
      "ĠdÅĻel": 6956,
      "Ġxy": 6957,
      "Ġllas": 6958,
      "mÃŃ": 6959,
      "Ġjech": 6960,
      "ĠÅ¾ni": 6961,
      "ĠnÃ¡Å¥": 6962,
      "ĠstÃ¡Å¡": 6963,
      "Ġskop": 6964,
      "ĠspÃ¡s": 6965,
      "Ġsejn": 6966,
      "Ġklouz": 6967,
      "ĠÅ¯v": 6968,
      "Ġvoch": 6969,
      "Ġboch": 6970,
      "Ġdim": 6971,
      "Ġcom": 6972,
      "Ġsmar": 6973,
      "ĠpÄĽÅ¥": 6974,
      "ĠvdneÅ¡": 6975,
      "Ġvman": 6976,
      "Ġvchmur": 6977,
      "Ġya": 6978,
      "Ġlles": 6979,
      "ĠÅ¥uÅ¡": 6980,
      "Ġvcy": 6981,
      "Ġsprv": 6982,
      "ĠtskÃ½": 6983,
      "ĠABAXBX": 6984,
      "nut": 6985,
      "Ġjl": 6986,
      "ĠzÅĻa": 6987,
      "ĠÅ¡vÃ©": 6988,
      "ĠcÃŃt": 6989,
      "Ġvzvo": 6990,
      "liÅ¾": 6991,
      "Ġeo": 6992,
      "Ġkvar": 6993,
      "ĠzklÃ¡": 6994,
      "ĠklÃŃt": 6995,
      "ĠtÅĻtin": 6996,
      "Ġzpov": 6997,
      "ĠskrÃ¡s": 6998,
      "Ġjdouc": 6999,
      "Ġvkos": 7000,
      "ĠvskÅĻÃŃ": 7001,
      "Ġfrank": 7002,
      "ĠvjitÅĻ": 7003,
      "Ġfres": 7004,
      "Ġmlkl": 7005,
      "ĠszÃ¡": 7006,
      "hou": 7007,
      "vil": 7008,
      "Ġroch": 7009,
      "Ġloj": 7010,
      "ĠvtÃ©m": 7011,
      "ĠÃºl": 7012,
      "ĠkvÅ¡em": 7013,
      "ĠvstÄĽ": 7014,
      "ĠzkÅĻo": 7015,
      "Ġskri": 7016,
      "ĠhrÃ¡Äį": 7017,
      "ĠÅ¡kor": 7018,
      "Ġcan": 7019,
      "ĠÅ¾hnu": 7020,
      "ĠÅ¡kub": 7021,
      "dÄĽÄį": 7022,
      "ĠvzmuÅ¾": 7023,
      "Ġjha": 7024,
      "Å¾ou": 7025,
      "ĠvztÄĽ": 7026,
      "Ġzvil": 7027,
      "ĠvtÅĻÃŃ": 7028,
      "Ġzhle": 7029,
      "Ġshan": 7030,
      "ĠvÅĻev": 7031,
      "ĠkpÅ¯": 7032,
      "ĠzÅ¯v": 7033,
      "ĠzdÃŃch": 7034,
      "Ġthyr": 7035,
      "ĠXABAXB": 7036,
      "zdy": 7037,
      "ĠÅ¡ra": 7038,
      "Ġloh": 7039,
      "Ġdeh": 7040,
      "ĠÅ¡ÃŃt": 7041,
      "Äıa": 7042,
      "Ġchuj": 7043,
      "ĠpÃŃn": 7044,
      "ĠvdÅĻÃŃ": 7045,
      "ĠvdÃ¡t": 7046,
      "ĠmÃ©r": 7047,
      "ĠzhrÅ¯": 7048,
      "ĠstÅĻeÅ¾": 7049,
      "ĠÅĪat": 7050,
      "ĠhrÃ¡Å¡": 7051,
      "ĠvlÃŃk": 7052,
      "Ġsjez": 7053,
      "ĠzÅ¾a": 7054,
      "ĠvtÃ¡h": 7055,
      "ir": 7056,
      "Ġdrh": 7057,
      "Ġdnil": 7058,
      "Ġsmrk": 7059,
      "Ġfec": 7060,
      "ĠvsÃŃch": 7061,
      "ĠvraÅ¾d": 7062,
      "Ġvspou": 7063,
      "ĠzbÄĽÅĻ": 7064,
      "Ġsklid": 7065,
      "ĠsÅĻas": 7066,
      "ĠmoÅ¡": 7067,
      "Ġcor": 7068,
      "ĠsuÅ¡": 7069,
      "ĠvlÃ¡z": 7070,
      "ĠschÅ¯d": 7071,
      "Ġbils": 7072,
      "ĠkstrÃ¡": 7073,
      "Ġsze": 7074,
      "ÅĻbi": 7075,
      "ĠmaÅ¾": 7076,
      "ĠsmÃ©": 7077,
      "ĠAABXXB": 7078,
      "ĠspoÄį": 7079,
      "Ġbrech": 7080,
      "ĠstÅĻep": 7081,
      "ĠmÄĽlÅ¥": 7082,
      "Ġplev": 7083,
      "Ġant": 7084,
      "ĠvchvÄĽ": 7085,
      "ĠÅ¡ta": 7086,
      "Ġlant": 7087,
      "Ġllon": 7088,
      "Ġsstou": 7089,
      "ĠchÃ³": 7090,
      "Ġprod": 7091,
      "ĠdyÅĪ": 7092,
      "Ġprask": 7093,
      "Ġgle": 7094,
      "ĠÅĻils": 7095,
      "ĠÅ¾ov": 7096,
      "Ġthle": 7097,
      "Ġtlech": 7098,
      "ĠÅ¾ul": 7099,
      "ĠzdÄĽl": 7100,
      "ĠmniÅ¡": 7101,
      "ĠvpÅĻÃŃt": 7102,
      "ĠÅĻov": 7103,
      "ĠABCCBA": 7104,
      "ĠdÅ¡tÃ½": 7105,
      "ĠjiÅ¥": 7106,
      "Ġrai": 7107,
      "ĠstÃŃt": 7108,
      "ĠprÃ©m": 7109,
      "ĠstvÃ©m": 7110,
      "Ġvlej": 7111,
      "ĠtkÃ¡t": 7112,
      "ĠsnÃ¡ÅĻ": 7113,
      "Ġvklet": 7114,
      "Ġflex": 7115,
      "ĠdÅ¡ti": 7116,
      "ĠpnÃŃ": 7117,
      "Ġrhe": 7118,
      "ĠmÄĽÄı": 7119,
      "Ġsmno": 7120,
      "ĠsvÄĽÅĻ": 7121,
      "ĠstÅĻeÅĪ": 7122,
      "Ġschod": 7123,
      "Ġhnis": 7124,
      "ĠvÄįÃŃÅ¡": 7125,
      "ĠznÄĽjÅ¾": 7126,
      "ĠvmhÃ¡ch": 7127,
      "Ġmak": 7128,
      "Ġlif": 7129,
      "ĠkrÃ¡ch": 7130,
      "Ġvlam": 7131,
      "Ġstyk": 7132,
      "ĠblÃŃk": 7133,
      "ĠmÃ½t": 7134,
      "ĠÅ¡plÃŃ": 7135,
      "Ġknil": 7136,
      "Ġdotk": 7137,
      "ĠvlÃ©k": 7138,
      "ĠAAAABB": 7139,
      "zv": 7140,
      "Ġhin": 7141,
      "Ġchne": 7142,
      "Ġdez": 7143,
      "Ġtyl": 7144,
      "ĠÅ¡ir": 7145,
      "ĠpÅĻÃŃj": 7146,
      "Ġztla": 7147,
      "Ġstrp": 7148,
      "ĠvchlÃ©": 7149,
      "Ġkzla": 7150,
      "ĠzvÃŃm": 7151,
      "Ġvkam": 7152,
      "ĠvÄįin": 7153,
      "Ġfel": 7154,
      "ĠvspÃŃ": 7155,
      "ĠAAXAXA": 7156,
      "Ġvmih": 7157,
      "ĠmÃ³d": 7158,
      "Ġmzdy": 7159,
      "Ġvych": 7160,
      "ĠÅ¾ÃŃÄį": 7161,
      "ĠÅ¡iÅ¥": 7162,
      "Ġsost": 7163,
      "Ġhron": 7164,
      "Ġshud": 7165,
      "Ġmlas": 7166,
      "Ġvzpi": 7167,
      "ĠstÅĻÃŃd": 7168,
      "ĠstÅĻÃŃÅ¾": 7169,
      "ĠtrÃ¡k": 7170,
      "ĠÅĻÃ¡p": 7171,
      "ĠzlÃŃÄį": 7172,
      "ĠkÃºs": 7173,
      "ĠÅ¾hÃ¡ÅĻ": 7174,
      "Ġag": 7175,
      "ĠÅ¾vÃ½": 7176,
      "ĠoÅĪ": 7177,
      "ĠÄįep": 7178,
      "Ġtuc": 7179,
      "Ġsij": 7180,
      "Ġhul": 7181,
      "Ġef": 7182,
      "Ġvstes": 7183,
      "Ġdved": 7184,
      "Ġssrd": 7185,
      "Ġgun": 7186,
      "Ġhryz": 7187,
      "ĠABBABX": 7188,
      "ĠzmlÃ¡d": 7189,
      "ĠblÅ¯v": 7190,
      "ĠAXBBAX": 7191,
      "ĠjÃº": 7192,
      "ĠÅ¡lÃ½m": 7193,
      "Ġspil": 7194,
      "ĠpÅĻÃŃst": 7195,
      "Ġzraj": 7196,
      "Ġvkva": 7197,
      "Ġspoz": 7198,
      "ĠdloÅ¾": 7199,
      "ĠstruÄį": 7200,
      "ĠvzklÃŃ": 7201,
      "ĠsprÃ¡s": 7202,
      "Ġkjich": 7203,
      "Ġzbit": 7204,
      "ĠABCAC": 7205,
      "ĠABCACB": 7206,
      "ĠllÅ¯": 7207,
      "Ġlij": 7208,
      "Ġvest": 7209,
      "Ġkuch": 7210,
      "Ġskly": 7211,
      "ĠbÄĽr": 7212,
      "ĠbÃŃÅĻ": 7213,
      "Ġsteh": 7214,
      "Ġtrost": 7215,
      "Ġvros": 7216,
      "ĠÄįnÃŃt": 7217,
      "Ġmhla": 7218,
      "Ġvbit": 7219,
      "ĠlÅ¾eÅ¡": 7220,
      "Ġfred": 7221,
      "Ġnven": 7222,
      "ĠÅĻkouc": 7223,
      "ĠABXABX": 7224,
      "ĠÅĻal": 7225,
      "ĠdeÅ¥": 7226,
      "Ġbuv": 7227,
      "Ġig": 7228,
      "ĠzvÃ©": 7229,
      "ĠbaÅĻ": 7230,
      "ĠÃºd": 7231,
      "ĠvkrÅ¯": 7232,
      "Ġvbor": 7233,
      "Ġmrk": 7234,
      "ĠznÃ¡Å¥": 7235,
      "Ġschle": 7236,
      "Ġvchmu": 7237,
      "ĠzmÄĽt": 7238,
      "ĠvskrÃ½": 7239,
      "ĠsÃ½p": 7240,
      "ĠkrÃ½v": 7241,
      "ĠAXXAXX": 7242,
      "Ġtba": 7243,
      "Ġsblan": 7244,
      "Ġllou": 7245,
      "ouch": 7246,
      "Ġstak": 7247,
      "Ġdow": 7248,
      "ĠdÃ¡c": 7249,
      "Ġstaf": 7250,
      "ĠmÃŃl": 7251,
      "ĠmÃŃz": 7252,
      "Ġvply": 7253,
      "ĠÅĻid": 7254,
      "Ġec": 7255,
      "Ġzbru": 7256,
      "Ġscha": 7257,
      "ĠklÃ¡t": 7258,
      "ĠvruÄį": 7259,
      "ĠvÅĻÃŃm": 7260,
      "Ġzbur": 7261,
      "Ġchlup": 7262,
      "Ġkstra": 7263,
      "ĠvkÅĻÃŃÅ¾": 7264,
      "Ġvdrs": 7265,
      "ĠnaÅ¡": 7266,
      "Ġvau": 7267,
      "ÅĪat": 7268,
      "Ġpys": 7269,
      "Ġkryv": 7270,
      "ĠvzÃ¡Å¡": 7271,
      "Ġzpol": 7272,
      "ĠkzÃ¡m": 7273,
      "ĠchouÄį": 7274,
      "Ġvsvor": 7275,
      "ĠzjÃ¡": 7276,
      "Ġsrost": 7277,
      "ĠrvaÄį": 7278,
      "Ġksko": 7279,
      "ĠvÅ¡pi": 7280,
      "ĠvsnÃŃh": 7281,
      "Ġloch": 7282,
      "Ġdun": 7283,
      "ĠmuÄį": 7284,
      "ĠhaÅ¡": 7285,
      "ĠzbrÃ¡": 7286,
      "Ġdraz": 7287,
      "ĠprÃ¡Å¡": 7288,
      "Ġzke": 7289,
      "Ġvsoud": 7290,
      "ĠjradÅ¡": 7291,
      "Ġtwar": 7292,
      "ĠÅ¾eÅ¾": 7293,
      "ĠslÃ©m": 7294,
      "Ġvzas": 7295,
      "Ġhab": 7296,
      "Ġzprou": 7297,
      "Ġznou": 7298,
      "ĠgÃ¶": 7299,
      "Ġstur": 7300,
      "ĠrÃ½s": 7301,
      "ĠbÅĻev": 7302,
      "Ġpils": 7303,
      "Ġchals": 7304,
      "Ġkhr": 7305,
      "ĠÅ¡tkal": 7306,
      "ĠÄįov": 7307,
      "ĠzmuÅ¾": 7308,
      "Ġshroz": 7309,
      "ĠrtÃŃk": 7310,
      "Ġtc": 7311,
      "ĠzÅĻas": 7312,
      "Ġaet": 7313,
      "ĠÅ¾rÃ¡": 7314,
      "Ġskar": 7315,
      "Ġtuk": 7316,
      "ĠsvÄĽc": 7317,
      "ĠkdyÅ¾s": 7318,
      "ĠvsÃ¡l": 7319,
      "Ġvsmu": 7320,
      "Ġzpan": 7321,
      "ĠpÃ¡Äį": 7322,
      "Ġzmet": 7323,
      "Ġztru": 7324,
      "Ġzyv": 7325,
      "ĠpÃ½t": 7326,
      "Ġyo": 7327,
      "ĠkhÅĻÃŃ": 7328,
      "Ġklus": 7329,
      "ĠzprÃ¡ch": 7330,
      "Ġvga": 7331,
      "ĠkÅĻtu": 7332,
      "Ġnr": 7333,
      "Ġlisk": 7334,
      "Ġvzna": 7335,
      "ĠtyÅ¥": 7336,
      "Ġbard": 7337,
      "ĠtamÅ¥": 7338,
      "ĠÄįtla": 7339,
      "Ġvlov": 7340,
      "ĠÅ¡tvou": 7341,
      "ĠssvÃ½m": 7342,
      "Ġgran": 7343,
      "ĠkÅĻtÃŃ": 7344,
      "ĠvsnÄĽÅ¾": 7345,
      "Ġmhu": 7346,
      "Ġfric": 7347,
      "ĠshlÃŃd": 7348,
      "ĠcÃ©v": 7349,
      "Ġpstru": 7350,
      "ĠmÅ¾ou": 7351,
      "Ġchmou": 7352,
      "Ġted": 7353,
      "ĠslÃº": 7354,
      "ĠdÃ¡s": 7355,
      "Ġpai": 7356,
      "Ġvkyt": 7357,
      "Ġstrof": 7358,
      "ĠshÅĻÃŃ": 7359,
      "ĠvlÃ¡st": 7360,
      "Ġtrus": 7361,
      "ĠzÃ½s": 7362,
      "Ġvpros": 7363,
      "ĠvplÃ¡ÅĪ": 7364,
      "Ġvmet": 7365,
      "Ġvtre": 7366,
      "Ġvctno": 7367,
      "ĠAXBABX": 7368,
      "ĠvvÄĽÄį": 7369,
      "im": 7370,
      "ĠÅĻvÃ¡t": 7371,
      "ĠvoÄį": 7372,
      "ĠboÄı": 7373,
      "Ġlys": 7374,
      "ĠiÃŃ": 7375,
      "Ġsyr": 7376,
      "ĠjÃ¡n": 7377,
      "Ġvbro": 7378,
      "Ġklost": 7379,
      "Ġspan": 7380,
      "ĠstÃ½n": 7381,
      "ĠpsÃ¡n": 7382,
      "Ġsrou": 7383,
      "ĠvzplaÅĪ": 7384,
      "Ġstmou": 7385,
      "ĠzkÅĻik": 7386,
      "Ġbvaz": 7387,
      "ku": 7388,
      "ĠneÅ¥": 7389,
      "Ġsvrou": 7390,
      "Ġrup": 7391,
      "Ġie": 7392,
      "ĠsleÅ¥": 7393,
      "Ġklis": 7394,
      "Ġkpros": 7395,
      "Ġjon": 7396,
      "ĠÄįemÅ¾": 7397,
      "Ġvkob": 7398,
      "Ġzruch": 7399,
      "ĠABBXAX": 7400,
      "ĠzÅ¾u": 7401,
      "ĠchmÃº": 7402,
      "Ġpten": 7403,
      "un": 7404,
      "Ġmich": 7405,
      "ĠvÃŃl": 7406,
      "Ġdoup": 7407,
      "Ġbrah": 7408,
      "ĠgÃ³": 7409,
      "Ġvzdmu": 7410,
      "ĠsmÄĽt": 7411,
      "Ġvstan": 7412,
      "Ġsprost": 7413,
      "Ġzjis": 7414,
      "ĠvrÅ¯Å¾": 7415,
      "Ġnymf": 7416,
      "ĠÅ¡vÃ¡b": 7417,
      "ĠÅ¡tej": 7418,
      "ĠsvÅ¡ÃŃm": 7419,
      "ĠnoÅ¥": 7420,
      "Ġstaj": 7421,
      "ĠbÅĻeÅ¾": 7422,
      "Ġvpom": 7423,
      "ĠpleÅ¡": 7424,
      "Ġkplu": 7425,
      "Ġhrub": 7426,
      "ĠdrÃ¡n": 7427,
      "ĠÅ¡pal": 7428,
      "ĠÅ¾dyc": 7429,
      "Ġfyr": 7430,
      "Ġcvik": 7431,
      "Ġtbu": 7432,
      "Ġap": 7433,
      "rÃ¡d": 7434,
      "ĠstiÅ¡": 7435,
      "Ġed": 7436,
      "ĠgÅĻÃŃ": 7437,
      "Ġdven": 7438,
      "Ġknes": 7439,
      "ĠstÅĻÃŃt": 7440,
      "ĠtÅĻo": 7441,
      "Ġvnov": 7442,
      "ĠÄįems": 7443,
      "Ġfic": 7444,
      "ĠbÅĻÃŃÅ¡": 7445,
      "Ġvzbra": 7446,
      "Ġtroup": 7447,
      "ĠvbÃ¡j": 7448,
      "Ġkvoj": 7449,
      "vÅ¯r": 7450,
      "ĠtÃº": 7451,
      "Ġtest": 7452,
      "Ġmik": 7453,
      "Ġroic": 7454,
      "ĠkdÃ¡l": 7455,
      "Ġnoun": 7456,
      "Ġtvem": 7457,
      "Ġvik": 7458,
      "Ġslam": 7459,
      "ĠvÃŃmÅ¥": 7460,
      "Ġmde": 7461,
      "Ġcam": 7462,
      "Ġkbi": 7463,
      "Ġsmyl": 7464,
      "Ġzchat": 7465,
      "ĠskÅĻÃŃn": 7466,
      "Ġkis": 7467,
      "ĠchÅĻic": 7468,
      "Ġakt": 7469,
      "Ġthos": 7470,
      "ĠnoÅĻ": 7471,
      "Ġdai": 7472,
      "ĠÅ¾ic": 7473,
      "ĠvÅ¡ep": 7474,
      "ĠzÃŃn": 7475,
      "Ġfak": 7476,
      "ĠsÃ¡r": 7477,
      "Ġblas": 7478,
      "Ġzkme": 7479,
      "Ġtrov": 7480,
      "ĠzlosÅ¥": 7481,
      "ĠÄįÃŃmÅ¾": 7482,
      "Ġsvic": 7483,
      "ĠÅ¥ou": 7484,
      "ĠhlÃŃÅĻ": 7485,
      "ĠÄıo": 7486,
      "Ġkhe": 7487,
      "Ġsfa": 7488,
      "ĠtlÃŃt": 7489,
      "ĠzkvÃ©st": 7490,
      "ĠsÄįÃŃm": 7491,
      "Ġzmdlob": 7492,
      "Ġnrich": 7493,
      "Ġdch": 7494,
      "ÅĻu": 7495,
      "Ġdet": 7496,
      "ĠÅ¡ÃŃr": 7497,
      "Ġiem": 7498,
      "ĠsmlÃ¡": 7499,
      "ĠhaÅĪ": 7500,
      "Ġvsna": 7501,
      "ĠklaÄı": 7502,
      "ĠzkvÄĽt": 7503,
      "ĠzhlÃ©": 7504,
      "ĠkroÅ¥": 7505,
      "Ġdls": 7506,
      "Ġplej": 7507,
      "Ġfix": 7508,
      "ĠsÃºz": 7509,
      "Ġfun": 7510,
      "ĠsÄįel": 7511,
      "ĠzrÅ¯z": 7512,
      "Ġskliz": 7513,
      "Ġatd": 7514,
      "Ġzknih": 7515,
      "Ġvklub": 7516,
      "ĠXABXAB": 7517,
      "ĠmÅĪ": 7518,
      "ĠmÅ¾e": 7519,
      "ĠÅ¾re": 7520,
      "ĠÄįtÄĽ": 7521,
      "Ġvoc": 7522,
      "ĠpÅĻit": 7523,
      "ĠjÃ¡r": 7524,
      "Ġhyl": 7525,
      "skÃ©": 7526,
      "Ġbrost": 7527,
      "ĠklÃŃb": 7528,
      "ĠsÃ½Äį": 7529,
      "Ġhmat": 7530,
      "Ġzhyz": 7531,
      "ĠdbÃ¡m": 7532,
      "ĠtkÃ¡Å¡": 7533,
      "Ġchrop": 7534,
      "mÃ©": 7535,
      "ĠÅ¾le": 7536,
      "ĠnÃŃÅĻ": 7537,
      "Ġnir": 7538,
      "Ġich": 7539,
      "ĠzdÅĻi": 7540,
      "ĠbraÄį": 7541,
      "Ġdloud": 7542,
      "Ġusch": 7543,
      "ĠhrÅ¯Å¾": 7544,
      "ĠnÄĽls": 7545,
      "ĠvÃºt": 7546,
      "ĠbÅĻÃŃm": 7547,
      "Ġssy": 7548,
      "Ġfrain": 7549,
      "Ġzmok": 7550,
      "ĠskÅĻÃŃp": 7551,
      "Ġvcir": 7552,
      "Ġchrup": 7553,
      "ĠzkÅĻiÅ¡": 7554,
      "Ġvf": 7555,
      "Ġtnu": 7556,
      "ĠniÅ¡Å¥": 7557,
      "Ġkdvo": 7558,
      "Ġvur": 7559,
      "ĠbÅĻed": 7560,
      "ĠÄįils": 7561,
      "ĠkpÄĽ": 7562,
      "ĠAXAABB": 7563,
      "Ġkzb": 7564,
      "ĠsrsÅ¥": 7565,
      "ĠxÃŃ": 7566,
      "ĠsrÃ¡Å¾": 7567,
      "ĠÅ¾by": 7568,
      "ĠhnÃŃt": 7569,
      "ĠvÅĻad": 7570,
      "ĠstÅĻa": 7571,
      "Ġun": 7572,
      "Ġtvil": 7573,
      "ĠstÃŃh": 7574,
      "ĠzpouÅ¡": 7575,
      "Ġvdne": 7576,
      "Ġtrar": 7577,
      "Ġctnou": 7578,
      "Ġfik": 7579,
      "ĠsÃ½Å¡": 7580,
      "ĠzchÃ½": 7581,
      "ĠfrÃ©": 7582,
      "ĠspÅĻÃŃz": 7583,
      "Ġzfran": 7584,
      "ĠÅ¾neÄį": 7585,
      "ĠvbÅĻeh": 7586,
      "ĠAXXABB": 7587,
      "Ġdky": 7588,
      "ĠmÅĻem": 7589,
      "ĠdÃŃr": 7590,
      "ĠspÅ¯d": 7591,
      "Ġdyk": 7592,
      "ĠtÃ¡k": 7593,
      "ĠpraÄı": 7594,
      "Ġbezv": 7595,
      "ĠvÅĻed": 7596,
      "ĠvlÃ¡n": 7597,
      "Ġrim": 7598,
      "ĠctnÃ½ch": 7599,
      "Ġtryz": 7600,
      "Ġthem": 7601,
      "Ġthur": 7602,
      "Ġvkol": 7603,
      "Ġblom": 7604,
      "ĠkbÄĽ": 7605,
      "Ġtlit": 7606,
      "Ġvryb": 7607,
      "Ġkvit": 7608,
      "Ġkment": 7609,
      "ĠÅ¾dÃ¡m": 7610,
      "Ġkblan": 7611,
      "Ġsdiv": 7612,
      "Ġtchy": 7613,
      "Ġtme": 7614,
      "Ġlyr": 7615,
      "ĠÅĻÃŃp": 7616,
      "Ġzvar": 7617,
      "ĠsnÃŃc": 7618,
      "Ġpsu": 7619,
      "Ġzjar": 7620,
      "ĠvzleÅ¥": 7621,
      "ĠlkÃ¡Å¡": 7622,
      "ĠsdÄĽl": 7623,
      "ĠmdlÃ©m": 7624,
      "ĠshÃ½b": 7625,
      "Ġzfa": 7626,
      "Ġdoh": 7627,
      "ĠvÅ¡eÅĻ": 7628,
      "ĠAABABX": 7629,
      "ĠfÃ½": 7630,
      "ĠvÅ¾u": 7631,
      "ĠÅ¾Ã¡c": 7632,
      "Ġstrost": 7633,
      "ĠÅ¡tÄĽk": 7634,
      "Ġvpoh": 7635,
      "ĠpÃ½ÅĻ": 7636,
      "Ġvrub": 7637,
      "Ġbdi": 7638,
      "Ġkpoc": 7639,
      "ĠfÃ¡Å¡": 7640,
      "Ġllis": 7641,
      "Ġkhan": 7642,
      "ĠXAXXXA": 7643,
      "ĠztÅĻeÅ¡": 7644,
      "ĠsÃ©m": 7645,
      "ĠsÅ¡i": 7646,
      "ĠcÅ¾": 7647,
      "ĠvÃ¡Å¥": 7648,
      "Ġruf": 7649,
      "ĠtyÅĪ": 7650,
      "ĠAABBBB": 7651,
      "ĠbÃ¡c": 7652,
      "Ġzuz": 7653,
      "Ġvher": 7654,
      "Ġfac": 7655,
      "ĠklÅĪ": 7656,
      "ĠtrÃ¡ch": 7657,
      "Ġvchat": 7658,
      "ĠnauÄį": 7659,
      "ĠstlÃ¡t": 7660,
      "rt": 7661,
      "ĠtnÃ½ch": 7662,
      "Ġlvy": 7663,
      "ĠÅĻvÃ¡": 7664,
      "ĠnÄĽÅ¥": 7665,
      "lech": 7666,
      "ĠveÅ¾": 7667,
      "ĠspÃ©": 7668,
      "Ġvig": 7669,
      "ĠstÃŃk": 7670,
      "Ġsyv": 7671,
      "ĠzraÄı": 7672,
      "Ġtlach": 7673,
      "ĠbÅĻesk": 7674,
      "Ġsdnem": 7675,
      "Ġblin": 7676,
      "Ġalt": 7677,
      "Ġsvez": 7678,
      "Ġmstil": 7679,
      "ĠÅ¡ÅĪu": 7680,
      "ĠrvÃ¡n": 7681,
      "Ġnra": 7682,
      "ĠvÃ³": 7683,
      "ĠrÃº": 7684,
      "Ġist": 7685,
      "ĠjÃ¡Äį": 7686,
      "ĠvpÃ©": 7687,
      "Ġvdve": 7688,
      "Ġstrak": 7689,
      "ĠzÅĻÃŃÅ¥": 7690,
      "Ġtmo": 7691,
      "Ġvpov": 7692,
      "Ġschro": 7693,
      "Ġhls": 7694,
      "ĠÅĻÃ¡b": 7695,
      "Ġvju": 7696,
      "Ġznoz": 7697,
      "Ġzkap": 7698,
      "Ġvsma": 7699,
      "Ġtloust": 7700,
      "ĠvpÅĻÃŃs": 7701,
      "ĠvtvÅ¯r": 7702,
      "ĠfÃŃk": 7703,
      "Ġsvras": 7704,
      "Ġvhed": 7705,
      "Ġvychr": 7706,
      "Ġvvo": 7707,
      "Ġdz": 7708,
      "Ġmber": 7709,
      "Ġnok": 7710,
      "Ġsps": 7711,
      "Ġstig": 7712,
      "Ġit": 7713,
      "Ġzdmu": 7714,
      "luz": 7715,
      "ĠhuÄį": 7716,
      "Ġvsch": 7717,
      "Ġvpil": 7718,
      "Ġslap": 7719,
      "Ġzpor": 7720,
      "ĠbiÅĻ": 7721,
      "ĠÅĪan": 7722,
      "ĠjmÃŃ": 7723,
      "Ġkbou": 7724,
      "Ġstruh": 7725,
      "ĠshoÅĻ": 7726,
      "Ġchlit": 7727,
      "Ġgry": 7728,
      "ĠzbÄĽd": 7729,
      "Ġdmy": 7730,
      "Ġjro": 7731,
      "Ġllem": 7732,
      "Ġcra": 7733,
      "ĠÅ¡nÄĽ": 7734,
      "Ġzlad": 7735,
      "ĠztÅĻÃŃ": 7736,
      "ĠkeÅ¡": 7737,
      "Ġhet": 7738,
      "ĠzÅĻek": 7739,
      "ĠklÃŃc": 7740,
      "ĠhlouÄį": 7741,
      "ĠdvÄĽÄį": 7742,
      "ĠzvaÅ¾": 7743,
      "ĠvÄįar": 7744,
      "ĠfÃ¡ÅĻ": 7745,
      "ĠvmlÅ¾": 7746,
      "ĠsdÄĽs": 7747,
      "Ġtvic": 7748,
      "ĠvkÅĻiÅ¡": 7749,
      "ĠtchÃ¡n": 7750,
      "ĠvhouÅ¡Å¥": 7751,
      "Ġvtrys": 7752,
      "ĠÄįeÅĪ": 7753,
      "Ġsplu": 7754,
      "ĠsaÅ¥": 7755,
      "Ġlun": 7756,
      "ĠstrÅ¯m": 7757,
      "Ġshy": 7758,
      "Ġobzv": 7759,
      "ĠvrÃ¡m": 7760,
      "ĠklÃ¡l": 7761,
      "ĠzmÄĽÅĪ": 7762,
      "ĠblÃ¡h": 7763,
      "ĠkÅĻtÄĽ": 7764,
      "ĠkÅ¡i": 7765,
      "Ġwal": 7766,
      "Ġmlet": 7767,
      "ĠkskrÃ¡": 7768,
      "ĠXAAABB": 7769,
      "Ġvkmen": 7770,
      "zt": 7771,
      "ĠnÃ³": 7772,
      "ĠtnÃ½m": 7773,
      "Ġjla": 7774,
      "Ġcal": 7775,
      "Ġrich": 7776,
      "Ġrzi": 7777,
      "ĠÄįim": 7778,
      "Ġzdvou": 7779,
      "ĠzvÃ¡l": 7780,
      "Ġvum": 7781,
      "Ġvpta": 7782,
      "ĠshrÃ¡": 7783,
      "Ġslic": 7784,
      "ĠdÅĻÃŃk": 7785,
      "Ġkrist": 7786,
      "Ġzmiz": 7787,
      "Ġtlel": 7788,
      "Ġstkal": 7789,
      "ĠABAABB": 7790,
      "ĠÅ¡viÅ¾": 7791,
      "Ġent": 7792,
      "ĠÅ¡ÅĪÅ¯r": 7793,
      "ĠkÄįa": 7794,
      "Ġsaul": 7795,
      "Ġvvy": 7796,
      "ĠmÅ¡ÃŃ": 7797,
      "Ġril": 7798,
      "Ġveb": 7799,
      "ĠloÅ¡": 7800,
      "Ġvov": 7801,
      "ĠsvaÅ¾": 7802,
      "ĠtvoÅĻ": 7803,
      "ĠdÅĻÃŃn": 7804,
      "Ġkmla": 7805,
      "Ġzrou": 7806,
      "Ġvruch": 7807,
      "ĠkhrÃ¡m": 7808,
      "ĠkboÅ¾": 7809,
      "Ġzprz": 7810,
      "ĠÅ¡vÃ½": 7811,
      "Ġvvla": 7812,
      "Ġsbez": 7813,
      "ĠmÃ½Å¾Äı": 7814,
      "ĠvtÅĻpy": 7815,
      "ĠÅ¡lil": 7816,
      "ĠÄįpa": 7817,
      "Å¡ti": 7818,
      "ĠÅ¾ev": 7819,
      "Ġid": 7820,
      "ĠmÃŃs": 7821,
      "ĠhaÅ¥": 7822,
      "ĠvsÃ½": 7823,
      "ĠvÅ¾as": 7824,
      "Ġdour": 7825,
      "Ġvbur": 7826,
      "Ġzhlo": 7827,
      "Ġknit": 7828,
      "ĠsdÃ¡": 7829,
      "ĠstvoÅĻ": 7830,
      "ĠdvÄĽt": 7831,
      "ĠsrÅ¡": 7832,
      "Ġchrli": 7833,
      "ĠhliÄį": 7834,
      "Ġsjem": 7835,
      "ĠzkrÄį": 7836,
      "ĠÅ¡vest": 7837,
      "Ġscu": 7838,
      "ĠXABBAA": 7839,
      "ĠvssÃ¡": 7840,
      "Ġghis": 7841,
      "ĠclÃ©ÅĻ": 7842,
      "ĠÅ¡m": 7843,
      "ĠsvlÃ¡": 7844,
      "Ġvaj": 7845,
      "Ġmaur": 7846,
      "ĠpÅĻep": 7847,
      "ĠrÃ¡s": 7848,
      "ĠXAABBB": 7849,
      "Ġstos": 7850,
      "Ġgju": 7851,
      "Ġblat": 7852,
      "Ġzont": 7853,
      "Ġjuch": 7854,
      "ĠznÃŃz": 7855,
      "ĠÅ¡ky": 7856,
      "Ġfoi": 7857,
      "ĠÅ¾dÃ¡l": 7858,
      "Ġsvlast": 7859,
      "ko": 7860,
      "ĠnÃ¡z": 7861,
      "Ġvam": 7862,
      "ĠABCBC": 7863,
      "ĠlÃ¡j": 7864,
      "ĠzÃ¡z": 7865,
      "ĠsuÅĪ": 7866,
      "Ġzost": 7867,
      "Ġshru": 7868,
      "ĠslÃŃc": 7869,
      "ĠvÄįest": 7870,
      "ĠkhrÅ¯": 7871,
      "ĠmstÄĽ": 7872,
      "ĠdnÃ©ÅĻ": 7873,
      "ĠstÅĻik": 7874,
      "ĠzrÅ¯st": 7875,
      "ĠvdÃŃk": 7876,
      "Ġkvlast": 7877,
      "ĠflÃ³r": 7878,
      "ĠvÅĻÃ¡d": 7879,
      "ĠzklÃ¡Å¡": 7880,
      "ĠABCBCA": 7881,
      "ĠkÃ³": 7882,
      "ĠlÃº": 7883,
      "ĠrÅ¾e": 7884,
      "Ġboz": 7885,
      "Ġtlap": 7886,
      "ĠdÅĻÃŃm": 7887,
      "Ġkals": 7888,
      "ĠdlÃŃk": 7889,
      "ĠpsÅ¯m": 7890,
      "Ġsdvo": 7891,
      "ĠkhÃ¡": 7892,
      "ĠzlÃŃt": 7893,
      "Ġzchmur": 7894,
      "ĠbruÄį": 7895,
      "Ġzhroz": 7896,
      "ĠsvlÃ©k": 7897,
      "ĠcÅ¾es": 7898,
      "ĠbÃº": 7899,
      "Ġlac": 7900,
      "Ġjah": 7901,
      "ĠABXX": 7902,
      "ĠABABXA": 7903,
      "ĠÄįic": 7904,
      "Ġpraz": 7905,
      "ĠbiÅ¡": 7906,
      "ĠvbÅĻi": 7907,
      "ĠstÃ©n": 7908,
      "Ġkrup": 7909,
      "Ġtant": 7910,
      "Ġblic": 7911,
      "ĠrtÅ¯v": 7912,
      "Ġztaj": 7913,
      "Ġvpark": 7914,
      "ĠsÅ¡u": 7915,
      "ĠzpÅĻed": 7916,
      "Ġpav": 7917,
      "Ġkoun": 7918,
      "Ġvzdar": 7919,
      "ĠvhÅĻe": 7920,
      "Ġvhnu": 7921,
      "Ġhek": 7922,
      "Ġzhur": 7923,
      "ĠÅ¡lek": 7924,
      "Ġsby": 7925,
      "ĠmÃ¡mÅ¥": 7926,
      "ĠhlÃŃk": 7927,
      "ĠvÄįÃ¡": 7928,
      "Ġkpos": 7929,
      "ĠgrÃ©": 7930,
      "Ġmzda": 7931,
      "ĠcÃºn": 7932,
      "Ġssk": 7933,
      "ĠsÃ³": 7934,
      "Ġskme": 7935,
      "Ġvyc": 7936,
      "ĠhuÅ¾": 7937,
      "ĠstÃ¡j": 7938,
      "Ġgl": 7939,
      "ĠgÅĻi": 7940,
      "Ġhrk": 7941,
      "ĠznÃŃÅ¡": 7942,
      "Ġktvo": 7943,
      "Ġvzhou": 7944,
      "Ġblon": 7945,
      "Ġsklet": 7946,
      "Ġknost": 7947,
      "ĠkrÅ¯Äį": 7948,
      "Ġmont": 7949,
      "Ġscy": 7950,
      "Ġzpev": 7951,
      "Ġsaic": 7952,
      "Ġzblan": 7953,
      "mÄĽ": 7954,
      "si": 7955,
      "Ġkak": 7956,
      "ĠkÄıa": 7957,
      "ĠvaÅĻ": 7958,
      "ĠÅ¡ech": 7959,
      "Ġmoi": 7960,
      "ĠÅ¡ÃŃÅ¥": 7961,
      "Ġsut": 7962,
      "ĠfÃ³": 7963,
      "Ġlous": 7964,
      "Ġkes": 7965,
      "ĠnnÃ¡m": 7966,
      "Ġvzdra": 7967,
      "Ġvbyt": 7968,
      "Ġpty": 7969,
      "ĠschlÃŃ": 7970,
      "ĠprouÅ¾": 7971,
      "Ġtknul": 7972,
      "Ġgel": 7973,
      "Ġgin": 7974,
      "ĠvzdÃ¡n": 7975,
      "Ġhip": 7976,
      "ĠvpouÅ¥": 7977,
      "Ġkvol": 7978,
      "ĠspÅĻed": 7979,
      "Ġvplod": 7980,
      "Ġjluz": 7981,
      "Ġrl": 7982,
      "ĠrrÃ¡": 7983,
      "Ġkdce": 7984,
      "ĠABAA": 7985,
      "ĠbaÄį": 7986,
      "ĠlÃ©v": 7987,
      "ĠpÅĻiÅĻ": 7988,
      "Ġhun": 7989,
      "ĠhuÅ¡": 7990,
      "Ġchun": 7991,
      "ĠÃºÅ¾": 7992,
      "ĠdraÄį": 7993,
      "ĠheÅĻ": 7994,
      "ĠsmrÅ¡": 7995,
      "Ġksi": 7996,
      "Ġmars": 7997,
      "ĠdlÃ¡Å¡": 7998,
      "ĠblÃ½sk": 7999,
      "Ġfus": 8000,
      "Ġvslz": 8001,
      "Ġzevs": 8002,
      "Ġvca": 8003,
      "ĠABAAAB": 8004,
      "ĠkdÅ¯": 8005,
      "Ġzec": 8006,
      "ĠcÃŃn": 8007,
      "ĠspÅ¯l": 8008,
      "ĠsaÄį": 8009,
      "ĠvdnÅ¯": 8010,
      "ĠstraÅĪ": 8011,
      "Ġstals": 8012,
      "ĠssvÃ½": 8013,
      "ĠdvÃ©st": 8014,
      "Ġvysv": 8015,
      "Ġsnop": 8016,
      "Ġblb": 8017,
      "Ġkir": 8018,
      "Ġkjas": 8019,
      "ĠAXBA": 8020,
      "Ġgym": 8021,
      "ĠtkÃ¡ÅĪ": 8022,
      "it": 8023,
      "ĠÅ¡vÃŃ": 8024,
      "Å¯v": 8025,
      "ĠÅ¡lej": 8026,
      "Ġkslad": 8027,
      "ĠhrÃ¡Å¥": 8028,
      "ĠzÅĻev": 8029,
      "ĠdrÃ¡h": 8030,
      "Ġsnej": 8031,
      "Ġztrp": 8032,
      "ĠvlÃ©Äį": 8033,
      "ĠzÄįÃ¡": 8034,
      "Ġsza": 8035,
      "ĠvcÃŃl": 8036,
      "ĠÄįmel": 8037,
      "ĠklÅ¯Å¾": 8038,
      "ĠvzkÅĻek": 8039,
      "ĠÅ¾rout": 8040,
      "Ġcro": 8041,
      "Ġcri": 8042,
      "ĠhvÃ©": 8043,
      "ĠluÅ¾": 8044,
      "ĠpeÅĻ": 8045,
      "ĠprÃ³": 8046,
      "ĠzpÅĻÃ¡": 8047,
      "Ġsom": 8048,
      "Ġei": 8049,
      "Ġez": 8050,
      "Ġklej": 8051,
      "ĠstÅĻeÅ¡": 8052,
      "Ġfas": 8053,
      "ĠÅ¡tÃŃr": 8054,
      "ĠABAABA": 8055,
      "ĠblÃ©k": 8056,
      "Ġsvrch": 8057,
      "ĠÅ¡lÃŃÅ¡": 8058,
      "ĠvzlÃ©m": 8059,
      "Ġzga": 8060,
      "ĠXAXXAX": 8061,
      "Ġrr": 8062,
      "Ġcev": 8063,
      "ĠvÃ¡h": 8064,
      "Ġvosk": 8065,
      "Ġbov": 8066,
      "ĠproÅ¡": 8067,
      "ĠbuÅĪ": 8068,
      "Ġbach": 8069,
      "Ġdouch": 8070,
      "Ġvkmi": 8071,
      "Ġvhmo": 8072,
      "ĠAAXABB": 8073,
      "ĠÅ¡tÄĽj": 8074,
      "ĠÅ¡tÄĽv": 8075,
      "Ġtlam": 8076,
      "Ġbrot": 8077,
      "ĠklÃŃch": 8078,
      "ĠÅ¡krÃ¡": 8079,
      "ĠvzkvÄĽ": 8080,
      "ĠtresÅ¥": 8081,
      "ĠztÄĽs": 8082,
      "Ġtrik": 8083,
      "ĠhnÅ¯j": 8084,
      "ĠzdÃŃl": 8085,
      "ĠvbÄĽd": 8086,
      "ĠsmÃ½t": 8087,
      "ĠsklÃŃÄį": 8088,
      "Ġcvrli": 8089,
      "ĠÅ¾old": 8090,
      "ĠÅ¾ral": 8091,
      "Ġvslast": 8092,
      "ĠABXBAX": 8093,
      "ĠsÅĻa": 8094,
      "Ġmk": 8095,
      "ĠsknÄĽ": 8096,
      "Ġpaf": 8097,
      "ĠmeÅ¥": 8098,
      "Ġvstat": 8099,
      "ĠzyÄį": 8100,
      "Ġstvin": 8101,
      "Ġnuls": 8102,
      "Ġmens": 8103,
      "ĠhneÅ¡": 8104,
      "ĠschÅĻa": 8105,
      "ĠzpÃŃt": 8106,
      "ĠktÃ¡": 8107,
      "ĠÄıat": 8108,
      "Ġ27": 8109,
      "ĠÄįtem": 8110,
      "ĠpÅ¯jÄį": 8111,
      "ĠssvÄĽ": 8112,
      "ĠvtuÅ¾": 8113,
      "Ġchlic": 8114,
      "Ġvmlh": 8115,
      "Ġkchu": 8116,
      "ĠÅ¡Å¥Ã¡v": 8117,
      "ĠzÃ³": 8118,
      "ĠmiÅ¡": 8119,
      "Ġvtk": 8120,
      "Ġzmlad": 8121,
      "ĠvmÃ½": 8122,
      "ĠkroÄį": 8123,
      "Ġksu": 8124,
      "Ġhlem": 8125,
      "Ġktem": 8126,
      "ĠvÅĻÃŃj": 8127,
      "Ġrold": 8128,
      "ĠdÅ¾a": 8129,
      "Ġaeo": 8130,
      "ĠhoÅ¥": 8131,
      "ĠdÃ¡Äį": 8132,
      "ĠpaÅ¡": 8133,
      "Ġprom": 8134,
      "Ġlul": 8135,
      "ĠzÃŃt": 8136,
      "ĠvdÅĻe": 8137,
      "ĠzvÄĽr": 8138,
      "ĠmÃ½l": 8139,
      "Ġkmar": 8140,
      "ĠtluÄį": 8141,
      "ĠÅ¡pen": 8142,
      "Ġvrus": 8143,
      "Ġvkov": 8144,
      "ĠkhnÄĽ": 8145,
      "Ġkhor": 8146,
      "ĠzlÃ©t": 8147,
      "Ġssvou": 8148,
      "Ġzprav": 8149,
      "Ġchis": 8150,
      "ĠsÅ¾Ã¡": 8151,
      "Ġnard": 8152,
      "Ġkdra": 8153,
      "Ġtvat": 8154,
      "Ġpris": 8155,
      "Ġfech": 8156,
      "Ġdrich": 8157,
      "ĠAAABBB": 8158,
      "ĠvpoÄį": 8159,
      "ĠzvÄĽd": 8160,
      "ĠÅ¥me": 8161,
      "Ġkmra": 8162,
      "ĠvchlÃ¡d": 8163,
      "ĠzrÅ¯d": 8164,
      "ĠtÃ½mÅ¾": 8165,
      "Ġstruk": 8166,
      "ĠranÅ¾": 8167,
      "Ġkloub": 8168,
      "ĠsÅ¡a": 8169,
      "ĠdbÃ¡Å¡": 8170,
      "Ġtih": 8171,
      "ĠspÅĻi": 8172,
      "Ġplz": 8173,
      "Ġvzdro": 8174,
      "ĠzdeÅ¥": 8175,
      "ĠÅ¾Ã¡Äį": 8176,
      "ĠvlÃ¡Äį": 8177,
      "ĠÅ¡pu": 8178,
      "ĠsklÃ¡n": 8179,
      "Ġvsluj": 8180,
      "ĠÄįoÅ¡": 8181,
      "Ġfuj": 8182,
      "ĠcnosÅ¥": 8183,
      "Ġblysk": 8184,
      "Ġkspo": 8185,
      "Ġcvrk": 8186,
      "ĠtrÃ³n": 8187,
      "Ġkzdro": 8188,
      "Ġjhu": 8189,
      "ĠnaÅĻ": 8190,
      "ĠÅ¾vÃ¡": 8191,
      "ĠÅ¡lem": 8192,
      "ĠnÄĽd": 8193,
      "ĠsprÅ¯": 8194,
      "ĠbuÅ¾": 8195,
      "ĠkrÃ¡d": 8196,
      "ĠzmlÃ½": 8197,
      "ĠzbÅ¯j": 8198,
      "Ġdland": 8199,
      "ĠrÃ©s": 8200,
      "Ġkliv": 8201,
      "Ġksla": 8202,
      "ĠÅ¡uj": 8203,
      "ĠÅ¡lik": 8204,
      "ĠÅ¡pÃ¡s": 8205,
      "ĠÅĪav": 8206,
      "Ġthar": 8207,
      "ĠpÃ©r": 8208,
      "ĠhÅĻmi": 8209,
      "Ġploul": 8210,
      "ĠrdÃŃt": 8211,
      "ĠsproÅ¡": 8212,
      "ĠkÅĻÅ¯": 8213,
      "Ġchlost": 8214,
      "ĠtnÃŃk": 8215,
      "ĠABAAXB": 8216,
      "ĠhmoÅ¾": 8217,
      "ĠkjÃ¡": 8218,
      "Ġzse": 8219,
      "ĠzsvÃ©": 8220,
      "ĠdvÃŃk": 8221,
      "ĠABBABA": 8222,
      "ĠvhnÄĽv": 8223,
      "ĠstlÃ©m": 8224,
      "Ġspekt": 8225,
      "Ġsbuj": 8226,
      "ĠzÅĻad": 8227,
      "Ġdog": 8228,
      "Ġkau": 8229,
      "Ġrom": 8230,
      "Ġzdmi": 8231,
      "ĠtÃ¡c": 8232,
      "Ġflu": 8233,
      "ĠsÃ¡c": 8234,
      "Ġziz": 8235,
      "Ġvzpup": 8236,
      "Ġsils": 8237,
      "Ġplech": 8238,
      "ĠspÄĽÅ¾": 8239,
      "ĠhrÃ¡n": 8240,
      "ĠÄıouÄį": 8241,
      "Ġhlost": 8242,
      "ĠdlÃ¡ÅĻ": 8243,
      "ĠskvÄĽt": 8244,
      "ĠznÃ¡mÅ¥": 8245,
      "ĠvstÅĻet": 8246,
      "Ġpres": 8247,
      "Ġfron": 8248,
      "Ġfekt": 8249,
      "ĠsÅ¥al": 8250,
      "ĠvÅ¡ko": 8251,
      "Å¾b": 8252,
      "ĠzaÅ¾": 8253,
      "ĠvÅ¡ar": 8254,
      "ĠkÃ¡ÅĪ": 8255,
      "ĠvÅ¾en": 8256,
      "Ġgat": 8257,
      "ĠzoÄį": 8258,
      "ĠvlÅ¯m": 8259,
      "Ġzlok": 8260,
      "Ġvpoc": 8261,
      "Ġdlin": 8262,
      "Ġplos": 8263,
      "ĠÅ¡tÃŃp": 8264,
      "ĠchvÃ¡ÅĻ": 8265,
      "ĠzroÅ¾": 8266,
      "Ġtrep": 8267,
      "Ġbrouz": 8268,
      "Ġvcel": 8269,
      "ĠvpÅĻÃŃz": 8270,
      "Ġzbron": 8271,
      "ĠspusÅ¥": 8272,
      "Ġztrouch": 8273,
      "ĠXABABA": 8274,
      "hn": 8275,
      "ĠsÄıÃ¡": 8276,
      "ĠkdÃŃt": 8277,
      "ĠvÃŃÅĻ": 8278,
      "Ġcij": 8279,
      "ĠkrÃ¡p": 8280,
      "ĠsvÄĽr": 8281,
      "Ġsab": 8282,
      "ĠzprÃ¡z": 8283,
      "Ġryv": 8284,
      "ĠstÃ¡Å¥": 8285,
      "ĠsÃ¡Äį": 8286,
      "Ġdlan": 8287,
      "ĠzoÅ¡": 8288,
      "Ġjus": 8289,
      "ĠdÅĻÃŃt": 8290,
      "Ġsbar": 8291,
      "ĠdliÅ¡": 8292,
      "ĠÅ¥ouÄį": 8293,
      "ĠÄįtli": 8294,
      "ĠzmoÅĻ": 8295,
      "Ġsfi": 8296,
      "Ġsmoc": 8297,
      "ĠpÃ³l": 8298,
      "ĠpÅ¡t": 8299,
      "Ġzze": 8300,
      "ÅĻou": 8301,
      "ĠsvÅĻe": 8302,
      "ĠvzlÃŃ": 8303,
      "ĠÅĻep": 8304,
      "ĠzdnÅ¯": 8305,
      "ĠstÃŃc": 8306,
      "ĠbÄĽc": 8307,
      "Ġtaks": 8308,
      "Ġbau": 8309,
      "Ġkrs": 8310,
      "Ġzpil": 8311,
      "ĠvlaÄį": 8312,
      "ĠdÃ©n": 8313,
      "ĠhrÅĪ": 8314,
      "Ġchym": 8315,
      "ĠvhrÃ¡": 8316,
      "ĠchvÃ¡l": 8317,
      "ĠÅ¡uÅ¡": 8318,
      "Ġkves": 8319,
      "ĠvzÃ¡r": 8320,
      "Ġsnez": 8321,
      "ĠkbliÅ¾": 8322,
      "Ġvzals": 8323,
      "Ġberk": 8324,
      "Ġller": 8325,
      "ĠzpÅ¯l": 8326,
      "ĠsÅ¥at": 8327,
      "Ġvsklon": 8328,
      "ĠnÃº": 8329,
      "ĠbvÃ¡": 8330,
      "ĠseÅ¾": 8331,
      "ĠpoÅ¾": 8332,
      "Ġkdal": 8333,
      "ĠsknÃŃ": 8334,
      "Ġmai": 8335,
      "Ġsprou": 8336,
      "ĠlyÅĪ": 8337,
      "Ġzvrou": 8338,
      "ĠkÃ©t": 8339,
      "Ġzprud": 8340,
      "Ġfru": 8341,
      "Ġdrat": 8342,
      "Ġzov": 8343,
      "Ġzhmo": 8344,
      "Ġvdub": 8345,
      "Ġlils": 8346,
      "Ġplyt": 8347,
      "ĠtrÃ½s": 8348,
      "Ġwin": 8349,
      "Ġchic": 8350,
      "ĠsdÄĽv": 8351,
      "ĠvhÃ¡d": 8352,
      "Ġvdes": 8353,
      "ĠvztyÄį": 8354,
      "ĠsklÃŃn": 8355,
      "Ġvklam": 8356,
      "ĠsnichÅ¾": 8357,
      "ĠXAXBAB": 8358,
      "ĠdÃº": 8359,
      "ĠÅ¡Ã©": 8360,
      "Ġchnul": 8361,
      "Ġlix": 8362,
      "ĠkaÅĪ": 8363,
      "Ġmad": 8364,
      "ĠvÃ½sk": 8365,
      "Ġchaj": 8366,
      "Ġvmas": 8367,
      "Ġvhej": 8368,
      "ĠABBAXA": 8369,
      "Ġstros": 8370,
      "Ġsbal": 8371,
      "ĠvlÃ¡h": 8372,
      "Ġkrum": 8373,
      "Ġvner": 8374,
      "ĠdrÃ¡Äį": 8375,
      "Ġznov": 8376,
      "Ġzmij": 8377,
      "Ġvskvost": 8378,
      "Ġsmyk": 8379,
      "Ġsman": 8380,
      "Ġvspor": 8381,
      "ĠmÅ¾it": 8382,
      "Ġllic": 8383,
      "Ġvmraz": 8384,
      "Ġdcem": 8385,
      "ĠkvraÅ¾": 8386,
      "Ġtni": 8387,
      "Ġjve": 8388,
      "Ġdod": 8389,
      "ĠdoÅĪ": 8390,
      "Ġnop": 8391,
      "ĠtÃŃz": 8392,
      "ĠsmÅ¯": 8393,
      "ĠsÃŃr": 8394,
      "Ġslas": 8395,
      "Ġzpli": 8396,
      "louz": 8397,
      "ĠvkÅ¡ti": 8398,
      "ĠpouÄį": 8399,
      "ĠzpÄĽn": 8400,
      "ĠproÄįs": 8401,
      "ĠÅ¡tvÃ¡t": 8402,
      "ĠtliÄį": 8403,
      "Ġvztr": 8404,
      "Ġzbah": 8405,
      "Ġsfou": 8406,
      "ĠvhÃ¡v": 8407,
      "Ġfons": 8408,
      "Ġvsuk": 8409,
      "ĠsÅ¡tÄĽ": 8410,
      "Ġthyst": 8411,
      "ĠvsmÄĽs": 8412,
      "ĠvchÃ½Å¾": 8413,
      "ĠzjichÅ¾": 8414,
      "ĠkÅĻtem": 8415,
      "ĠmnÃ¡c": 8416,
      "Ġdzin": 8417,
      "mr": 8418,
      "Ġlbi": 8419,
      "Ġaz": 8420,
      "ĠÅ¾esÅ¥": 8421,
      "ĠboÅĪ": 8422,
      "ĠkrÃ½m": 8423,
      "Ġchus": 8424,
      "ĠznÃ©": 8425,
      "ĠstÃ¡k": 8426,
      "ĠvzdÃ¡m": 8427,
      "Ġkrop": 8428,
      "ĠspÄĽv": 8429,
      "Ġschlou": 8430,
      "Ġfai": 8431,
      "ĠdrÃ¡l": 8432,
      "Ġtlil": 8433,
      "ĠkhnÃŃz": 8434,
      "ĠvjaÅĻ": 8435,
      "ĠchlÃŃm": 8436,
      "ĠkÅ¾Ã¡": 8437,
      "ĠkÄįÃŃ": 8438,
      "ĠvkeÅĻ": 8439,
      "ĠrmuÅ¥": 8440,
      "ĠvÅ¾ÃŃz": 8441,
      "ĠgrÃ¡n": 8442,
      "Ġchroust": 8443,
      "ĠzcÃŃ": 8444,
      "ĠÅ¡mo": 8445,
      "ĠmÃ¡st": 8446,
      "Ġtyp": 8447,
      "ĠpÅĻet": 8448,
      "Ġbut": 8449,
      "ĠzÃ¡t": 8450,
      "Ġvsak": 8451,
      "Ġest": 8452,
      "Ġspom": 8453,
      "ĠvlÃ½": 8454,
      "ĠÅ¡leÅ¡": 8455,
      "ĠktvÃ¡": 8456,
      "ĠsboÅ¾": 8457,
      "Ġspin": 8458,
      "ĠptaÄį": 8459,
      "Ġsjezd": 8460,
      "Ġvplet": 8461,
      "ĠkÅ¡p": 8462,
      "ĠtlÃ¡k": 8463,
      "ĠstÅĻÃ¡st": 8464,
      "Ġfant": 8465,
      "ĠÅ¯m": 8466,
      "ĠchÅĻtÃ¡": 8467,
      "Ġsklouz": 8468,
      "ĠdskÃ©": 8469,
      "Ġtnost": 8470,
      "nÅ¯m": 8471,
      "Ġlvu": 8472,
      "ĠÄįpÄĽ": 8473,
      "Ġmah": 8474,
      "ĠstÃŃÅ¾": 8475,
      "Ġryh": 8476,
      "ĠfÅ¯m": 8477,
      "Ġplil": 8478,
      "ĠgrÅ¯": 8479,
      "ĠztÃŃ": 8480,
      "Ġzyz": 8481,
      "ĠstrÅĪ": 8482,
      "Ġmraj": 8483,
      "ĠsvÃŃt": 8484,
      "Ġjul": 8485,
      "ĠksÅĪat": 8486,
      "Ġvpor": 8487,
      "Ġschi": 8488,
      "Ġbrok": 8489,
      "ĠhruÅ¾": 8490,
      "Ġkzu": 8491,
      "Ġtknut": 8492,
      "ĠblÃ¡n": 8493,
      "Ġmohs": 8494,
      "Ġkby": 8495,
      "Ġssl": 8496,
      "ĠmÅĻÃŃÅ¥": 8497,
      "Ġsfe": 8498,
      "Ġwer": 8499,
      "Ġstma": 8500,
      "Ġojc": 8501,
      "Ġnnin": 8502,
      "ĠtrÃ©t": 8503,
      "ĠkmÃŃn": 8504,
      "Ġsge": 8505,
      "ĠckÃ½": 8506,
      "Ġnnen": 8507,
      "Ġkctno": 8508,
      "Ġvsrp": 8509,
      "Ġshlt": 8510,
      "Ġvklouz": 8511,
      "ĠvÄįty": 8512,
      "ĠjmÃŃn": 8513,
      "ĠvÅ¥": 8514,
      "ĠzÅĪal": 8515,
      "ĠposÅ¥": 8516,
      "Ġhof": 8517,
      "Ġtaur": 8518,
      "Ġio": 8519,
      "Ġboum": 8520,
      "Ġcham": 8521,
      "ĠdÃ½k": 8522,
      "ĠvknÃŃ": 8523,
      "ĠplÅ¯": 8524,
      "Ġzul": 8525,
      "Ġvhle": 8526,
      "ĠAAABAB": 8527,
      "Ġjud": 8528,
      "Ġschech": 8529,
      "Ġkml": 8530,
      "ĠtrÃ¡l": 8531,
      "Ġthor": 8532,
      "Ġhlin": 8533,
      "Ġtref": 8534,
      "Ġspik": 8535,
      "ĠvmÄĽst": 8536,
      "ĠkstÅĻe": 8537,
      "Ġkstar": 8538,
      "Ġmhly": 8539,
      "ĠzbÃ½t": 8540,
      "ĠkvyÅ¡": 8541,
      "Ġvsym": 8542,
      "ĠrvÃ¡Äį": 8543,
      "ĠvbÅĻez": 8544,
      "Ġdmul": 8545,
      "ĠzjÃŃc": 8546,
      "ĠsvlÃŃd": 8547,
      "Ġds": 8548,
      "ĠjÃ©": 8549,
      "Ġpf": 8550,
      "Ġleg": 8551,
      "ĠnÃ½Å¥": 8552,
      "Ġdir": 8553,
      "Ġtyk": 8554,
      "Ġmyk": 8555,
      "ĠvsvÃŃ": 8556,
      "ĠXAABBA": 8557,
      "Ġvdy": 8558,
      "Ġnadv": 8559,
      "ĠchÃ¡b": 8560,
      "ĠdÄĽlÅ¥": 8561,
      "Ġvraz": 8562,
      "Ġvhlo": 8563,
      "Ġvhlad": 8564,
      "Ġblech": 8565,
      "Ġzhni": 8566,
      "ĠjsmeÅ¥": 8567,
      "Ġtku": 8568,
      "ĠdlÃ©t": 8569,
      "ĠvnÃ¡ÅĻ": 8570,
      "Ġvskro": 8571,
      "Ġvsmy": 8572,
      "ĠsÄįet": 8573,
      "ĠsvrÅ¡": 8574,
      "ĠÄıau": 8575,
      "ĠzvÃ½h": 8576,
      "ĠspÅĻÃŃs": 8577,
      "Ġzfi": 8578,
      "ĠÅ¾bÃ¡n": 8579,
      "Ġvssu": 8580,
      "ĠpskÃ½ch": 8581,
      "Ġbve": 8582,
      "Ġac": 8583,
      "ĠÄįka": 8584,
      "lan": 8585,
      "Ġloi": 8586,
      "Ġjap": 8587,
      "ĠzdÃ½m": 8588,
      "ĠtakÅ¥": 8589,
      "Ġvtva": 8590,
      "ĠAABBAB": 8591,
      "ĠchaÄį": 8592,
      "Ġsouz": 8593,
      "ĠrÃ©n": 8594,
      "Ġvhi": 8595,
      "Ġstyl": 8596,
      "Ġstych": 8597,
      "ĠÅ¡lap": 8598,
      "ĠstÃ¡ls": 8599,
      "Ġkhu": 8600,
      "Ġkhlu": 8601,
      "Ġsraz": 8602,
      "ĠplÃŃÅĻ": 8603,
      "Ġjilm": 8604,
      "ĠchlÃŃk": 8605,
      "Ġlvic": 8606,
      "Ġtcho": 8607,
      "ĠvtÅĻes": 8608,
      "Ġvtrap": 8609,
      "Ġzklid": 8610,
      "Ġbrloh": 8611,
      "ĠABXXAB": 8612,
      "hu": 8613,
      "Ġvva": 8614,
      "Ġtna": 8615,
      "ĠjvÃ¡": 8616,
      "Ġsec": 8617,
      "ĠÅ¡ut": 8618,
      "ĠchÅĪa": 8619,
      "ĠvÄĽs": 8620,
      "Ġnys": 8621,
      "Ġzdve": 8622,
      "Ġlut": 8623,
      "Ġsuv": 8624,
      "Ġhyp": 8625,
      "ĠkvÄĽÅ¥": 8626,
      "ĠzmÃ¡t": 8627,
      "ĠsmÄĽv": 8628,
      "Ġkpu": 8629,
      "ĠmlÃ¡z": 8630,
      "ĠvtiÅ¡": 8631,
      "ĠÅ¡tÃ½": 8632,
      "Ġtlen": 8633,
      "ĠprÅ¯s": 8634,
      "Ġsju": 8635,
      "Ġdant": 8636,
      "ĠzbÄĽh": 8637,
      "ĠvtrÃ½z": 8638,
      "Ġchecht": 8639,
      "ĠpsÃŃk": 8640,
      "Ġflet": 8641,
      "ĠzbÃ¡s": 8642,
      "ĠspyÅ¡": 8643,
      "ĠzhnÃŃzd": 8644,
      "ĠvÅĻem": 8645,
      "Ġtut": 8646,
      "ĠvzÃº": 8647,
      "Ġkouc": 8648,
      "Ġsoj": 8649,
      "ĠziÅ¾": 8650,
      "Ġhrab": 8651,
      "BAA": 8652,
      "ĠzdaÅĻ": 8653,
      "Ġschlu": 8654,
      "ĠsdvÄĽ": 8655,
      "ĠbÅĻÃŃch": 8656,
      "Ġthes": 8657,
      "ĠkÅ¡u": 8658,
      "Ġspev": 8659,
      "Ġzryl": 8660,
      "ĠvtouÅ¾": 8661,
      "ĠzvraÅ¾": 8662,
      "ĠÅ¡roub": 8663,
      "hi": 8664,
      "Ġpho": 8665,
      "Ġrme": 8666,
      "Ġrvu": 8667,
      "ĠÅĻim": 8668,
      "ĠÅĻip": 8669,
      "ĠvdÃ³": 8670,
      "Ġslost": 8671,
      "Ġgas": 8672,
      "Ġpouz": 8673,
      "ĠtmÃŃt": 8674,
      "ĠzdÃ¡n": 8675,
      "Ġksli": 8676,
      "ĠÅĪou": 8677,
      "Ġdvar": 8678,
      "ĠtloÅ¡": 8679,
      "Ġvchvil": 8680,
      "Ġvhon": 8681,
      "ĠzlÃŃÅ¡": 8682,
      "ĠzÃ½c": 8683,
      "Ġvtur": 8684,
      "ĠvÅ¡ach": 8685,
      "ĠkstÄĽ": 8686,
      "Ġvbub": 8687,
      "ĠrdÃŃc": 8688,
      "Ġzvous": 8689,
      "ĠstlÃ½m": 8690,
      "Ġvmrz": 8691,
      "Ġmyrr": 8692,
      "ĠnimÅ¾": 8693,
      "ĠdcÃ©": 8694,
      "ĠdÅ¡tÃ½n": 8695,
      "ĠmÅĪou": 8696,
      "nÃ©m": 8697,
      "ĠjÃŃl": 8698,
      "Ġsklu": 8699,
      "Ġtun": 8700,
      "ĠÄįÃŃÅ¾": 8701,
      "Ġvij": 8702,
      "ĠÅ¡ic": 8703,
      "ĠvtrÅ¯": 8704,
      "ĠhÃ¡ÅĪ": 8705,
      "Ġvhlav": 8706,
      "Ġshlou": 8707,
      "ĠzlÅ¯m": 8708,
      "Ġvpras": 8709,
      "ĠcÃ½r": 8710,
      "ĠvskvÄĽ": 8711,
      "ĠÄıaur": 8712,
      "Ġclau": 8713,
      "Ġzcy": 8714,
      "ĠvstrÃ¡ÅĪ": 8715,
      "Ġvtlum": 8716,
      "ĠjseÅ¡": 8717,
      "Ġcpe": 8718,
      "ĠgÃ¶r": 8719,
      "ĠjiÅ¡Å¥": 8720,
      "ĠtaÄį": 8721,
      "ĠvÃŃz": 8722,
      "ĠdÃŃÅ¥": 8723,
      "ĠtuÄı": 8724,
      "ĠlyÅ¥": 8725,
      "ĠzdÅ¯l": 8726,
      "Ġkrem": 8727,
      "ĠXAXAAX": 8728,
      "Ġgha": 8729,
      "skÃ½": 8730,
      "ĠÅ¥li": 8731,
      "ĠzÅĻen": 8732,
      "ĠkpÅĻi": 8733,
      "Ã³p": 8734,
      "Ġzdom": 8735,
      "ĠvzkvÃŃ": 8736,
      "ĠdveÄı": 8737,
      "ĠzlÃŃch": 8738,
      "Ġgois": 8739,
      "Ġsrol": 8740,
      "Ġzdiv": 8741,
      "Ġwar": 8742,
      "Ġvplach": 8743,
      "ĠstkvÃŃt": 8744,
      "ĠzvÃ½z": 8745,
      "Ġzvrt": 8746,
      "ĠzkraÅ¥": 8747,
      "ĠÅ¾hnout": 8748,
      "ĠzÅ¡a": 8749,
      "ĠvhrÅ¯z": 8750,
      "Ġkfa": 8751,
      "ĠvtÃ©mÅ¾": 8752,
      "ĠjÅĻÃŃ": 8753,
      "Ġlb": 8754,
      "ĠcÃ³": 8755,
      "cho": 8756,
      "ĠÅ¾nou": 8757,
      "ĠÅ¡me": 8758,
      "Ġmud": 8759,
      "Ġtven": 8760,
      "ĠkvÅ¯d": 8761,
      "ĠskosÅ¥": 8762,
      "ĠkvÃŃch": 8763,
      "Ġvjho": 8764,
      "Ġyal": 8765,
      "ĠzvÃŃs": 8766,
      "ĠsvÃ½s": 8767,
      "Ġparr": 8768,
      "ĠvliÄį": 8769,
      "Ġvlist": 8770,
      "ĠsplÅĪ": 8771,
      "ĠskÅĻes": 8772,
      "ĠzÅ¡u": 8773,
      "ĠXABBBA": 8774,
      "Ġdvyk": 8775,
      "Ġvkvap": 8776,
      "ĠAXBAXB": 8777,
      "ĠvvÃŃ": 8778,
      "Ġtg": 8779,
      "ĠsvrÃ¡": 8780,
      "Ġsket": 8781,
      "Ġsug": 8782,
      "Ġvdvou": 8783,
      "ĠgÅ¯m": 8784,
      "Ġzos": 8785,
      "Ġvlesk": 8786,
      "Ġsche": 8787,
      "ĠdroÅ¾": 8788,
      "ĠstÅĻÃŃl": 8789,
      "ĠkmlÃ½": 8790,
      "Ġkver": 8791,
      "Ġktru": 8792,
      "Ġjmou": 8793,
      "ĠchrÅ¯m": 8794,
      "Ġzdus": 8795,
      "ĠzchÃ¡": 8796,
      "Ġkmoc": 8797,
      "Ġxal": 8798,
      "Ġtloun": 8799,
      "ĠvjÃŃz": 8800,
      "ĠcÃ©ÅĻ": 8801,
      "ĠÅ¡krt": 8802,
      "ĠvmdlÃ©": 8803,
      "ĠXAXBBA": 8804,
      "ĠÅ¡uth": 8805,
      "hy": 8806,
      "Ġts": 8807,
      "Ġmro": 8808,
      "ĠnÄĽs": 8809,
      "Ġkys": 8810,
      "ĠnuÅ¥": 8811,
      "Ġspnou": 8812,
      "ĠzdÃ©": 8813,
      "Ġkoust": 8814,
      "ĠtÃ©v": 8815,
      "ĠzpÅĻi": 8816,
      "Ġdvad": 8817,
      "Ġdlat": 8818,
      "Ġblast": 8819,
      "Ġrid": 8820,
      "ĠknÄĽn": 8821,
      "Ġkpl": 8822,
      "ĠtrÃ¡c": 8823,
      "Ġztrav": 8824,
      "Ġgai": 8825,
      "Ġzju": 8826,
      "ĠtÃ³m": 8827,
      "Ġspus": 8828,
      "Ġksmut": 8829,
      "Ġzmrz": 8830,
      "Ġfrid": 8831,
      "Ġrint": 8832,
      "ĠÅ¡kam": 8833,
      "Ġzkrot": 8834,
      "ĠsÅ¡k": 8835,
      "Ġzhrad": 8836,
      "Ġsvrhl": 8837,
      "ĠschvÄĽl": 8838,
      "Ġflin": 8839,
      "Ġuille": 8840,
      "Ġvhnus": 8841,
      "rr": 8842,
      "ĠvvÃ¡": 8843,
      "Ġpje": 8844,
      "ĠÅ¾lÃ¡": 8845,
      "Ġoi": 8846,
      "ĠsvdÄĽÄį": 8847,
      "ĠvoÅĻ": 8848,
      "ĠzeÄį": 8849,
      "Ġdad": 8850,
      "Ġvzje": 8851,
      "Ġsip": 8852,
      "ĠslaÅĻ": 8853,
      "ĠslaÄı": 8854,
      "Ġchon": 8855,
      "ĠvdvÅ¯r": 8856,
      "ĠvÅ¾hou": 8857,
      "ĠklaÅĪ": 8858,
      "nitÅĻ": 8859,
      "Ġvzdi": 8860,
      "ĠvhÅĻ": 8861,
      "ĠkÅĻÃŃÅ¡": 8862,
      "Ġchvu": 8863,
      "Ġkplo": 8864,
      "ĠvÄįet": 8865,
      "ĠhnÄĽd": 8866,
      "ĠsdÃ½": 8867,
      "ĠsmuÅ¾": 8868,
      "ĠstkÃ¡n": 8869,
      "ĠvÅ¡an": 8870,
      "Ġzdrob": 8871,
      "ĠsmiÅĻ": 8872,
      "ĠhÅĻmÄĽt": 8873,
      "Ġvklec": 8874,
      "Ġgend": 8875,
      "Ġkprv": 8876,
      "ĠzmeÅ¡": 8877,
      "ĠzbÃ¡z": 8878,
      "ĠÅ¾lab": 8879,
      "ĠkpÅ¯t": 8880,
      "Ġdvent": 8881,
      "ĠjrÅ¯": 8882,
      "ĠcmÃŃ": 8883,
      "ĠjiÄį": 8884,
      "Ġnuc": 8885,
      "Ġnyx": 8886,
      "ĠÅĻeÅ¡": 8887,
      "Ġies": 8888,
      "ĠpÄĽr": 8889,
      "Ġchard": 8890,
      "ĠslÃ¡t": 8891,
      "Ġkryp": 8892,
      "Ġtluc": 8893,
      "Ġzleb": 8894,
      "Ġkudr": 8895,
      "ĠsvÃ½Å¡": 8896,
      "ĠzmÃŃst": 8897,
      "ĠzlÃ¡z": 8898,
      "Ġzkost": 8899,
      "Ġsfor": 8900,
      "Ġsco": 8901,
      "ĠvhvÄĽzd": 8902,
      "Ġsvlh": 8903,
      "Ġkzda": 8904,
      "ĠvssÃ¡l": 8905,
      "Ġsvlek": 8906,
      "ĠmnÃ¡ct": 8907,
      "Ġtknout": 8908,
      "Ġjroz": 8909,
      "ĠpÅ¡tro": 8910,
      "Ġtst": 8911,
      "ĠÅ¡rÃ¡": 8912,
      "Ġpag": 8913,
      "ĠrÃ¡h": 8914,
      "Ġmys": 8915,
      "Ġvset": 8916,
      "lout": 8917,
      "ĠAABBBA": 8918,
      "ĠbraÅ¡": 8919,
      "Ġstul": 8920,
      "ĠkvlÃ¡": 8921,
      "Ġzyn": 8922,
      "Ġmlal": 8923,
      "Ġzver": 8924,
      "Ġotr": 8925,
      "ĠkmÃ¡": 8926,
      "Ġkpla": 8927,
      "ĠÅ¡kar": 8928,
      "Ġsdla": 8929,
      "Ġvchlu": 8930,
      "ĠÃ¡r": 8931,
      "ĠpÄĽls": 8932,
      "ĠvsaÄı": 8933,
      "ĠvnÃ©st": 8934,
      "Ġind": 8935,
      "Ġzpust": 8936,
      "Ġllin": 8937,
      "ĠkÅ¡a": 8938,
      "ĠsprÃ¡ch": 8939,
      "Ġbzuk": 8940,
      "Ġmlel": 8941,
      "ĠvpÄĽsÅ¥": 8942,
      "Ġkskut": 8943,
      "Ġvpsa": 8944,
      "ĠÅ¡vÃ©d": 8945,
      "lt": 8946,
      "yn": 8947,
      "Ġdt": 8948,
      "Ġmva": 8949,
      "Ġnais": 8950,
      "ĠkoÅ¥": 8951,
      "ĠceÅ¥": 8952,
      "Ġtex": 8953,
      "ĠvÃ¡p": 8954,
      "ĠroÄı": 8955,
      "Ġdut": 8956,
      "ĠABXA": 8957,
      "Ġspru": 8958,
      "Ġvsb": 8959,
      "Ġslar": 8960,
      "Ġkvin": 8961,
      "ĠchvÃŃc": 8962,
      "ĠkruÅ¾": 8963,
      "ĠvjÃŃt": 8964,
      "Ġsnim": 8965,
      "ĠÅ¾lic": 8966,
      "ĠpÃ©Äį": 8967,
      "Ġvlip": 8968,
      "ĠkpohÅĻ": 8969,
      "ĠzdÄĽv": 8970,
      "Ġclow": 8971,
      "ĠksmÄĽ": 8972,
      "Ġvhlas": 8973,
      "Ġgrem": 8974,
      "ĠpneÅ¡": 8975,
      "ĠÅ¡vej": 8976,
      "Ġvge": 8977,
      "Ġnnes": 8978,
      "ĠÄįku": 8979,
      "Ġvshro": 8980,
      "Ġvtroud": 8981,
      "ĠglÃ³": 8982,
      "Ġjlo": 8983,
      "ĠzÅ¡i": 8984,
      "ĠpÅĻeÄı": 8985,
      "ĠstÃŃÄį": 8986,
      "Ġhaf": 8987,
      "Ġtrej": 8988,
      "Ġkdek": 8989,
      "Ġkvzd": 8990,
      "Ġvsty": 8991,
      "Ġskre": 8992,
      "ĠkzÃŃ": 8993,
      "Ġyet": 8994,
      "Ġzals": 8995,
      "ĠÄįta": 8996,
      "Ġgos": 8997,
      "Ġsves": 8998,
      "Ġzten": 8999,
      "Ġscest": 9000,
      "ĠzhuÅ¡": 9001,
      "ĠkdÄĽc": 9002,
      "Ġzca": 9003,
      "Ġoasy": 9004,
      "Ġvmhu": 9005,
      "ĠjÃ³n": 9006,
      "cy": 9007,
      "ÄĽn": 9008,
      "ĠÅ¾rÃ¡t": 9009,
      "ĠkuÅ¡": 9010,
      "ĠAXXB": 9011,
      "Ġsap": 9012,
      "Ġryz": 9013,
      "ĠvdÅ¾b": 9014,
      "ĠhrÃ½z": 9015,
      "ĠplÃ¡ch": 9016,
      "Ġshlav": 9017,
      "Ġkven": 9018,
      "Ġtals": 9019,
      "ĠÅ¡pÃ¡": 9020,
      "Ġkzbo": 9021,
      "Ġcau": 9022,
      "ĠrÃ©mÅ¾": 9023,
      "Ġpoll": 9024,
      "Ġzruk": 9025,
      "Ġzarr": 9026,
      "ĠÅ¡os": 9027,
      "Ġvkrou": 9028,
      "ĠkÅĻou": 9029,
      "ĠslÅ¯Å¾": 9030,
      "Ġmass": 9031,
      "ĠvtrÃ¡v": 9032,
      "Ġkurs": 9033,
      "ĠkdruÅ¾": 9034,
      "Ġgypt": 9035,
      "Ġpstr": 9036,
      "Ġsmluv": 9037,
      "Ġvklus": 9038,
      "ĠXABABB": 9039,
      "ĠcÅ¾ech": 9040,
      "ĠmkrÃ¡t": 9041,
      "Ġzplic": 9042,
      "Ġrru": 9043,
      "Ġnoj": 9044,
      "Ġuo": 9045,
      "ĠtÄĽv": 9046,
      "ĠÄįÃŃÅĻ": 9047,
      "ĠviÅ¾": 9048,
      "Ġzdem": 9049,
      "Ġzpru": 9050,
      "ĠvalÅ¥": 9051,
      "ĠvouÅ¡": 9052,
      "ĠdvÃ¡l": 9053,
      "ĠztÃŃs": 9054,
      "Ġzkal": 9055,
      "Ġzhar": 9056,
      "ĠksnÅ¯m": 9057,
      "ĠÅĪouÄį": 9058,
      "ĠÅ¡lit": 9059,
      "ĠstrÃ¡t": 9060,
      "ĠktÅ¯": 9061,
      "Ġtkou": 9062,
      "ĠtkÃ¡n": 9063,
      "Ġcum": 9064,
      "Ġsbol": 9065,
      "Ġchran": 9066,
      "Ġpart": 9067,
      "Ġgog": 9068,
      "ĠzdÄĽr": 9069,
      "Ġzchlu": 9070,
      "ĠvmÄĽl": 9071,
      "ĠvpÅĻÃŃÄį": 9072,
      "ĠzjaÅĻ": 9073,
      "Ġhnut": 9074,
      "ĠskvÃŃÅ¡": 9075,
      "ĠÅ¾dÃ¡t": 9076,
      "Ġgent": 9077,
      "ĠvtÃ½Å¾": 9078,
      "Ġvklas": 9079,
      "ĠvchÃ½Å¡": 9080,
      "Ġwell": 9081,
      "ĠzhrÅ¯z": 9082,
      "Ġpstruh": 9083,
      "Ġnry": 9084,
      "Ġlve": 9085,
      "ĠnÃ©Å¥": 9086,
      "Ġmaz": 9087,
      "ĠmÃŃk": 9088,
      "ĠflÃ¡": 9089,
      "ĠchÃ¡Äį": 9090,
      "Ġslen": 9091,
      "ĠtlaÄį": 9092,
      "Ġkslou": 9093,
      "ĠdlÃŃc": 9094,
      "Ġkhar": 9095,
      "ĠzlÃŃm": 9096,
      "Ġberg": 9097,
      "ĠÅ¾erÄı": 9098,
      "ĠkÄįes": 9099,
      "Ġvpout": 9100,
      "ĠvbÄĽl": 9101,
      "Ġbrit": 9102,
      "ĠzÅ¾Ã¡": 9103,
      "Ġvztah": 9104,
      "Ġvsyp": 9105,
      "Ġsmrad": 9106,
      "ĠsmraÄį": 9107,
      "ĠkÅ¾er": 9108,
      "ĠvÅ¾ÃŃr": 9109,
      "ĠfÄĽr": 9110,
      "ĠvÄįtve": 9111,
      "Ġbrecht": 9112,
      "ĠzdÅĻim": 9113,
      "Ġmnu": 9114,
      "Ġcka": 9115,
      "Ġrho": 9116,
      "Ġaf": 9117,
      "ĠchÅĻÃ¡": 9118,
      "Ġsvz": 9119,
      "Ġcip": 9120,
      "ĠpaÅ¥": 9121,
      "Ġvzvy": 9122,
      "Ġbeg": 9123,
      "ĠkÅ¯st": 9124,
      "Ġdoub": 9125,
      "ĠdÃ©r": 9126,
      "Ġvkve": 9127,
      "Ġhous": 9128,
      "ĠABBAXB": 9129,
      "ĠAAABXB": 9130,
      "ĠÅ¡up": 9131,
      "Ġkls": 9132,
      "ĠkprÅ¯": 9133,
      "han": 9134,
      "ĠXXAAAX": 9135,
      "ĠctnÃ½m": 9136,
      "ĠvrouÅ¡": 9137,
      "Ġfij": 9138,
      "ĠthÄĽ": 9139,
      "Ġgov": 9140,
      "ĠplouÄį": 9141,
      "Ġvtep": 9142,
      "ĠzdrÅ¥": 9143,
      "Ġzhoj": 9144,
      "ĠtlÃŃch": 9145,
      "Ġvkrok": 9146,
      "Ġbryn": 9147,
      "ĠchlÃŃÅ¡": 9148,
      "ĠÅ¾dal": 9149,
      "Ġtskou": 9150,
      "Ġthan": 9151,
      "Ġszim": 9152,
      "ĠvrÃ½t": 9153,
      "ĠscÃ©n": 9154,
      "ĠvhrÃ¡ch": 9155,
      "Ġast": 9156,
      "ĠÅ¡Ã¡m": 9157,
      "Ġlast": 9158,
      "Ġdoch": 9159,
      "ĠkyÅĻ": 9160,
      "Ġvzj": 9161,
      "Ġvisk": 9162,
      "ĠhlaÅ¥": 9163,
      "ĠprÃ½m": 9164,
      "ĠAABABB": 9165,
      "Ġznad": 9166,
      "ĠvÅ¾ur": 9167,
      "Ġpum": 9168,
      "ĠkvÃ¡l": 9169,
      "Ġztle": 9170,
      "Ġzhvoz": 9171,
      "Ġtrop": 9172,
      "ĠvzpÅĻÃ¡": 9173,
      "Ġskol": 9174,
      "ĠsmÄĽst": 9175,
      "Ġzjes": 9176,
      "ĠkpÃ³": 9177,
      "ĠznoÄį": 9178,
      "ĠvdÄĽc": 9179,
      "Ġjohn": 9180,
      "Ġkzr": 9181,
      "ĠkzkÃ¡": 9182,
      "ĠtÃ©mÅ¾": 9183,
      "Ġcag": 9184,
      "Ġskald": 9185,
      "ĠsklÃ¡t": 9186,
      "Ġskul": 9187,
      "ĠvÄįlun": 9188,
      "ĠsÃ½r": 9189,
      "Ġstils": 9190,
      "Ġwo": 9191,
      "ĠzmÃ¡st": 9192,
      "ĠcÃ¡b": 9193,
      "ĠvdlaÅ¾": 9194,
      "Ġzmuk": 9195,
      "ĠzsvÃ½ch": 9196,
      "Ġnnic": 9197,
      "ĠstmÄĽl": 9198,
      "Ġnvent": 9199,
      "ĠpnÄĽl": 9200,
      "ĠthÃ©n": 9201,
      "ĠbÃ³v": 9202,
      "Ġvvzpo": 9203,
      "ĠÅ¡kvÃ¡r": 9204,
      "ĠcmÃŃr": 9205,
      "Ġclou": 9206,
      "ĠjesÅ¥": 9207,
      "Ġtoc": 9208,
      "Ġtoch": 9209,
      "leb": 9210,
      "Ġnold": 9211,
      "ĠtaÅĻ": 9212,
      "Ġnuch": 9213,
      "Ġbeh": 9214,
      "ĠkÃ¡p": 9215,
      "Ġpep": 9216,
      "ĠvsrÃ¡z": 9217,
      "Ġvuc": 9218,
      "Ġvdva": 9219,
      "Ġkdom": 9220,
      "Ġspoc": 9221,
      "ĠbrÅ¯m": 9222,
      "Ġvstrou": 9223,
      "ĠsvÃŃÅ¾": 9224,
      "ĠÅĻÃ¡k": 9225,
      "ĠÄıÃ¡l": 9226,
      "ĠvlÃŃp": 9227,
      "ĠkÅĻen": 9228,
      "Ġvrost": 9229,
      "ĠdlÃ¡Äį": 9230,
      "ĠvskÅĻe": 9231,
      "Ġssr": 9232,
      "Ġssou": 9233,
      "ĠztÄĽl": 9234,
      "Ġspras": 9235,
      "ĠzdÄĽs": 9236,
      "ĠzÃºz": 9237,
      "Ġxis": 9238,
      "Ġkstol": 9239,
      "ĠtlÃŃm": 9240,
      "ĠdÅ¾Ã¡r": 9241,
      "ĠvzÃ½t": 9242,
      "ĠAAAAAA": 9243,
      "Ġzmlkl": 9244,
      "Ġscim": 9245,
      "ĠzvÅ¡ed": 9246,
      "ĠzpyÅ¡": 9247,
      "ĠlpÄĽl": 9248,
      "ĠstÅĻap": 9249,
      "ĠdohÅĻ": 9250,
      "ĠÄįeb": 9251,
      "ĠmoÄį": 9252,
      "Ġsaz": 9253,
      "ĠtrÃ½ch": 9254,
      "ĠzpÃ½": 9255,
      "Ġsuc": 9256,
      "ĠAABBXA": 9257,
      "Ġtouc": 9258,
      "Ġmark": 9259,
      "Ġjob": 9260,
      "ĠzleÅ¥": 9261,
      "ĠthÅ¯m": 9262,
      "Ġgir": 9263,
      "Ġzdrav": 9264,
      "ĠknouÅ¥": 9265,
      "Ġdnin": 9266,
      "ĠklouÄį": 9267,
      "Ġztes": 9268,
      "Ġrinx": 9269,
      "Ġvstrach": 9270,
      "Ġzvrb": 9271,
      "ĠÅ¾bÃ¡": 9272,
      "Ġghi": 9273,
      "Ġvzvon": 9274,
      "kou": 9275,
      "Ġnber": 9276,
      "Ġdp": 9277,
      "Ġsth": 9278,
      "Ġlach": 9279,
      "ĠlÃŃv": 9280,
      "ĠlÃŃz": 9281,
      "Ġev": 9282,
      "ĠÄįerÅĪ": 9283,
      "ĠvmÅĻÃŃ": 9284,
      "ĠvhÅĻbi": 9285,
      "ĠkÅĻiÅ¾": 9286,
      "Ġschmu": 9287,
      "Ġtlup": 9288,
      "ĠXXAAXA": 9289,
      "Ġkbal": 9290,
      "ĠkbÃ¡s": 9291,
      "ĠÅ¾uÅ¾": 9292,
      "ĠmÄĽjÅ¾": 9293,
      "Ġgrand": 9294,
      "Ġzchmu": 9295,
      "Ġfranc": 9296,
      "ĠlstnÃ©": 9297,
      "ĠpreÄį": 9298,
      "Ġvcval": 9299,
      "Ġmyrt": 9300,
      "ĠkÅĻtil": 9301,
      "Ġtmel": 9302,
      "Ġsw": 9303,
      "Ġlak": 9304,
      "ĠÅ¾mo": 9305,
      "Ġchich": 9306,
      "ĠsvÄįe": 9307,
      "ĠnÃ½r": 9308,
      "ĠnouÄį": 9309,
      "Ġjaz": 9310,
      "Ġbesk": 9311,
      "ĠpÅĻeÅ¾": 9312,
      "ĠdyÅ¡": 9313,
      "ĠhaÅĻ": 9314,
      "ĠvÃ©zt": 9315,
      "ĠvÅ¾il": 9316,
      "Ġklac": 9317,
      "Ġzmen": 9318,
      "Ġglu": 9319,
      "ĠstÄĽs": 9320,
      "Ġvblouz": 9321,
      "Ġstouc": 9322,
      "ĠspÄĽk": 9323,
      "ĠÅ¥oun": 9324,
      "ĠznÄĽm": 9325,
      "ĠvlÃŃst": 9326,
      "Ġmand": 9327,
      "ĠÅ¡ils": 9328,
      "Ġget": 9329,
      "ĠÅ¡tast": 9330,
      "ĠrÃ½mÅ¾": 9331,
      "ĠfÃ¡r": 9332,
      "ĠfÃ¡Å¾": 9333,
      "Ġzhan": 9334,
      "ĠcheÅĪ": 9335,
      "Ġkult": 9336,
      "ĠÅ¥Ã¡c": 9337,
      "ĠAXABAB": 9338,
      "Ġglos": 9339,
      "ĠÅ¡ÅĪup": 9340,
      "ĠmÃ³n": 9341,
      "Ġgall": 9342,
      "Ġskiz": 9343,
      "ĠsdeÅ¡": 9344,
      "ĠtmÃ¡ÅĻ": 9345,
      "ĠvsliÄį": 9346,
      "vem": 9347,
      "Ġnri": 9348,
      "ĠnaÅ¾": 9349,
      "ĠÄįkÃ¡": 9350,
      "Ġmiv": 9351,
      "Ġmiz": 9352,
      "ĠtÄĽd": 9353,
      "ĠÅ¡iÅĻ": 9354,
      "Ġvdvor": 9355,
      "Ġdlak": 9356,
      "Ġhrat": 9357,
      "Ġnesv": 9358,
      "Ġklok": 9359,
      "ĠslÃŃd": 9360,
      "ĠtÅĻiÅ¥": 9361,
      "ĠdrÃ¡m": 9362,
      "Ġkzt": 9363,
      "Ġzlej": 9364,
      "Ġyer": 9365,
      "ĠsrÃ½": 9366,
      "Ġvspi": 9367,
      "Ġxer": 9368,
      "ĠkstÃŃ": 9369,
      "Ġkim": 9370,
      "ĠtlÃŃk": 9371,
      "ĠmhÃ¡ch": 9372,
      "Ġshlas": 9373,
      "ĠrdÃŃÅ¡": 9374,
      "ĠkspÄĽ": 9375,
      "Ġcink": 9376,
      "Ġvstrom": 9377,
      "Ġthus": 9378,
      "ĠvtÃ½d": 9379,
      "ĠzplÃ¡l": 9380,
      "ĠmlÃŃÄį": 9381,
      "ĠÄįmoud": 9382,
      "Ġstaff": 9383,
      "ĠjrÅ¯z": 9384,
      "Ġvvr": 9385,
      "ĠdÅ¾i": 9386,
      "ĠlaÅĻ": 9387,
      "Ġmist": 9388,
      "ĠvÅ¡o": 9389,
      "ĠvyÅ¥": 9390,
      "ĠÄįisÅ¥": 9391,
      "Ġvsar": 9392,
      "ĠstÄĽl": 9393,
      "lÃ½s": 9394,
      "ĠsbÅĻÃŃ": 9395,
      "Ġsber": 9396,
      "Ġschmi": 9397,
      "Ġkryb": 9398,
      "Ġvjez": 9399,
      "Ġdvard": 9400,
      "ĠklÃ¡n": 9401,
      "ĠjoÅ¡t": 9402,
      "ĠhlÃ¡Å¡": 9403,
      "ĠsnÃ¡d": 9404,
      "ĠvkaÅ¡": 9405,
      "Ġzkan": 9406,
      "ĠplÃŃÅ¡": 9407,
      "Ġgup": 9408,
      "Ġvhluk": 9409,
      "Ġkstu": 9410,
      "ĠvlÃ©t": 9411,
      "Ġzmrs": 9412,
      "Ġvcud": 9413,
      "Ġkpras": 9414,
      "ĠstlÃ¡n": 9415,
      "ĠvjÃŃc": 9416,
      "Ġvvl": 9417,
      "ĠllÃ¡r": 9418,
      "Ġvvel": 9419,
      "Ġdchnu": 9420,
      "ĠfÃ½r": 9421,
      "ĠkÅĻtÄĽn": 9422,
      "ĠvtÅĻpyt": 9423,
      "Ġtnul": 9424,
      "ĠjÅĻi": 9425,
      "ĠzÃ©m": 9426,
      "Ġbrd": 9427,
      "ĠÅ¾ÄıÃ¡": 9428,
      "Ġtir": 9429,
      "Ġmoch": 9430,
      "Ġrur": 9431,
      "ĠABXB": 9432,
      "Ġia": 9433,
      "Ġsmd": 9434,
      "ĠtÃ¡v": 9435,
      "Ġsain": 9436,
      "Ġhlej": 9437,
      "ĠpÃŃÅ¥": 9438,
      "ĠpiÅ¾": 9439,
      "ĠchyÅ¡": 9440,
      "Ġvrad": 9441,
      "Ġzhlav": 9442,
      "Ġmram": 9443,
      "Ġshar": 9444,
      "Ġksle": 9445,
      "ĠÅ¾aÄį": 9446,
      "ĠchÅ¯z": 9447,
      "ĠkzÅĻÃŃ": 9448,
      "Ġvkop": 9449,
      "Ġoul": 9450,
      "Ġrakt": 9451,
      "ĠÃ¡h": 9452,
      "ĠzÃºs": 9453,
      "ĠzpuÅ¡": 9454,
      "ĠÅĪÃ¡Äį": 9455,
      "Ġsjis": 9456,
      "ĠztuÄį": 9457,
      "Ġsport": 9458,
      "ĠvbÄĽs": 9459,
      "Ġzbles": 9460,
      "Ġkvost": 9461,
      "ĠzÄįlo": 9462,
      "ĠvÅ¾eÅĪ": 9463,
      "ĠkrÃ©t": 9464,
      "ĠvstrÃ¡Å¾": 9465,
      "Ġvbrlo": 9466,
      "ĠvnouÄį": 9467,
      "ĠAABXBB": 9468,
      "ĠtchÃ¡": 9469,
      "Ġshrad": 9470,
      "ĠvÅ¡ke": 9471,
      "ĠdskÃ½": 9472,
[...]
