{
  "version": "1.0",
  "truncation": null,
  "padding": null,
  "added_tokens": [
    {
      "id": 0,
      "content": "<|EOS|>",
      "single_word": false,
      "lstrip": false,
      "rstrip": false,
      "normalized": false,
      "special": true
    },
    {
      "id": 1,
      "content": "<|PAD|>",
      "single_word": false,
      "lstrip": false,
      "rstrip": false,
      "normalized": false,
      "special": true
    },
    {
      "id": 2,
      "content": "<|UNK|>",
      "single_word": false,
      "lstrip": false,
      "rstrip": false,
      "normalized": false,
      "special": true
    }
  ],
  "normalizer": null,
  "pre_tokenizer": {
    "type": "ByteLevel",
    "add_prefix_space": false,
    "trim_offsets": true,
    "use_regex": true
  },
  "post_processor": {
    "type": "ByteLevel",
    "add_prefix_space": true,
    "trim_offsets": false,
    "use_regex": true
  },
  "decoder": {
    "type": "ByteLevel",
    "add_prefix_space": true,
    "trim_offsets": true,
    "use_regex": true
  },
  "model": {
    "type": "BPE",
    "dropout": null,
    "unk_token": null,
    "continuing_subword_prefix": null,
    "end_of_word_suffix": null,
    "fuse_unk": false,
    "byte_fallback": false,
    "vocab": {
      "<|EOS|>": 0,
      "<|PAD|>": 1,
      "<|UNK|>": 2,
      "!": 3,
      "#": 4,
      "+": 5,
      ",": 6,
      ".": 7,
      "0": 8,
      "1": 9,
      "2": 10,
      "3": 11,
      "4": 12,
      "5": 13,
      "6": 14,
      "7": 15,
      "8": 16,
      "9": 17,
      "=": 18,
      "?": 19,
      "A": 20,
      "B": 21,
      "C": 22,
      "D": 23,
      "H": 24,
      "J": 25,
      "N": 26,
      "P": 27,
      "T": 28,
      "X": 29,
      "Y": 30,
      "`": 31,
      "a": 32,
      "b": 33,
      "c": 34,
      "d": 35,
      "e": 36,
      "f": 37,
      "g": 38,
      "h": 39,
      "i": 40,
      "j": 41,
      "k": 42,
      "l": 43,
      "m": 44,
      "n": 45,
      "o": 46,
      "p": 47,
      "q": 48,
      "r": 49,
      "s": 50,
      "t": 51,
      "u": 52,
      "v": 53,
      "w": 54,
      "x": 55,
      "y": 56,
      "z": 57,
      "¡": 58,
      "¢": 59,
      "¤": 60,
      "¥": 61,
      "¦": 62,
      "§": 63,
      "¨": 64,
      "©": 65,
      "ª": 66,
      "«": 67,
      "®": 68,
      "¯": 69,
      "²": 70,
      "³": 71,
      "´": 72,
      "¶": 73,
      "º": 74,
      "»": 75,
      "¼": 76,
      "½": 77,
      "¾": 78,
      "Â": 79,
      "Ã": 80,
      "Ä": 81,
      "Å": 82,
      "Ï": 83,
      "â": 84,
      "Ċ": 85,
      "Ġ": 86,
      "Ģ": 87,
      "Ĥ": 88,
      "Ħ": 89,
      "ĩ": 90,
      "Ī": 91,
      "Ĭ": 92,
      "į": 93,
      "ı": 94,
      "Ĵ": 95,
      "ĵ": 96,
      "Ļ": 97,
      "ļ": 98,
      "Ľ": 99,
      "Ł": 100,
      "ł": 101,
      "Ń": 102,
      "Ġ#": 103,
      "ÃŃ": 104,
      "Ġs": 105,
      "Ã¡": 106,
      "Ġv": 107,
      "Ġn": 108,
      "ÄĽ": 109,
      "ĠJ": 110,
      "Ġt": 111,
      "Ġp": 112,
      "Ġj": 113,
      "Ġk": 114,
      "ĠT": 115,
      "Å¾": 116,
      "Ġz": 117,
      "ch": 118,
      "Ġm": 119,
      "Ġd": 120,
      "Å¡": 121,
      "Ã½": 122,
      "ÅĻ": 123,
      "Ã©": 124,
      "ou": 125,
      "Ġa": 126,
      "Ġb": 127,
      "la": 128,
      "Äį": 129,
      "10": 130,
      "Ġ1": 131,
      "XX": 132,
      "le": 133,
      "Ġh": 134,
      "st": 135,
      "11": 136,
      "Ġje": 137,
      "Ġse": 138,
      "AB": 139,
      "em": 140,
      "ro": 141,
      "ak": 142,
      "Å¯": 143,
      "Ġo": 144,
      "Ġne": 145,
      "ra": 146,
      "li": 147,
      "Ġ19": 148,
      "Ġpo": 149,
      "Ġna": 150,
      "en": 151,
      "Ġst": 152,
      "lo": 153,
      "rÃ¡": 154,
      "Ġc": 155,
      "ĠÅ¾": 156,
      "nÃŃ": 157,
      "ÅĻe": 158,
      "ĠN": 159,
      "Ġsv": 160,
      "nÄĽ": 161,
      "al": 162,
      "ÅĻÃŃ": 163,
      "Ġl": 164,
      "Ġ18": 165,
      "Å¡e": 166,
      "ĠÄį": 167,
      "Ġza": 168,
      "ce": 169,
      "ru": 170,
      "Ġch": 171,
      "dy": 172,
      "Ġjak": 173,
      "il": 174,
      "00": 175,
      "ne": 176,
      "Ġ1900": 177,
      "sk": 178,
      "XXXX": 179,
      "nÃ½": 180,
      "XA": 181,
      "ho": 182,
      "Ġdo": 183,
      "Ġto": 184,
      "at": 185,
      "vÄĽ": 186,
      "de": 187,
      "Ġu": 188,
      "ABAB": 189,
      "nÃ©": 190,
      "ÃŃm": 191,
      "no": 192,
      "te": 193,
      "Ġby": 194,
      "Ġji": 195,
      "Ã¡m": 196,
      "ÅĻi": 197,
      "80": 198,
      "Ġ1880": 199,
      "na": 200,
      "ĠÅ¡": 201,
      "Ġle": 202,
      "12": 203,
      "Ġve": 204,
      "vo": 205,
      "20": 206,
      "vÃ¡": 207,
      "je": 208,
      "ko": 209,
      "lu": 210,
      "Ġjs": 211,
      "Ã½ch": 212,
      "ti": 213,
      "ABB": 214,
      "Ġro": 215,
      "lÃ¡": 216,
      "jÃŃ": 217,
      "va": 218,
      "Ġ1920": 219,
      "tÄĽ": 220,
      "ni": 221,
      "nou": 222,
      "Ġho": 223,
      "ĠÅ¾e": 224,
      "ka": 225,
      "ĠnÃŃ": 226,
      "Ġpro": 227,
      "vÃŃ": 228,
      "nÃ¡": 229,
      "ky": 230,
      "Ġvy": 231,
      "Ġr": 232,
      "Å¥": 233,
      "Ġko": 234,
      "ku": 235,
      "..": 236,
      "Ġta": 237,
      "lÃŃ": 238,
      "Ġti": 239,
      "Ġli": 240,
      "Ã½m": 241,
      "tÃŃ": 242,
      "Ġmi": 243,
      "Ġjen": 244,
      "ĠvÄĽ": 245,
      "do": 246,
      "nu": 247,
      "ly": 248,
      "Ġdu": 249,
      "Ġvz": 250,
      "13": 251,
      "Ġmo": 252,
      "ci": 253,
      "ĠnÃ¡": 254,
      "ĠnÄĽ": 255,
      "Ġkdy": 256,
      "po": 257,
      "dÄĽ": 258,
      "vÃ©": 259,
      "Ġka": 260,
      "Ġtu": 261,
      "Ġmu": 262,
      "ĠpÅĻe": 263,
      "Ġbo": 264,
      "Ġte": 265,
      "Ġce": 266,
      "ĠtÄĽ": 267,
      "Ġtak": 268,
      "Ġni": 269,
      "Ġco": 270,
      "Ġi": 271,
      "Ġno": 272,
      "AABB": 273,
      "ĠvÃŃ": 274,
      "ĠÄįe": 275,
      "ar": 276,
      "ĠvÅ¡": 277,
      "mu": 278,
      "to": 279,
      "as": 280,
      "ĠD": 281,
      "Ġla": 282,
      "ĠÃ": 283,
      "ĠdÃ¡": 284,
      "40": 285,
      "ny": 286,
      "Ġroz": 287,
      "du": 288,
      "ÅĪ": 289,
      "lÃ©": 290,
      "ÄĽt": 291,
      "ĠvÅ¡e": 292,
      "cÃŃ": 293,
      "ĠvÃ¡": 294,
      "di": 295,
      "XAXA": 296,
      "Å¡ÃŃ": 297,
      "Ġsk": 298,
      "Ġru": 299,
      "sti": 300,
      "lou": 301,
      "ĠjÃŃ": 302,
      "dÃ¡": 303,
      "vi": 304,
      "da": 305,
      "Äı": 306,
      "Äįe": 307,
      "Ġjsem": 308,
      "Ġpa": 309,
      "Ġob": 310,
      "ÄįÃŃ": 311,
      "ve": 312,
      "Ġhla": 313,
      "dÃŃ": 314,
      "ĠÅ¾i": 315,
      "Ġty": 316,
      "Ġneb": 317,
      "ĠmÄĽ": 318,
      "Ġsp": 319,
      "ĠzÃ¡": 320,
      "mÄĽ": 321,
      "rd": 322,
      "Å¾e": 323,
      "Ġod": 324,
      "se": 325,
      "Ġku": 326,
      "Ġbu": 327,
      "ĠkrÃ¡": 328,
      "Ġsi": 329,
      "ĠdÃŃ": 330,
      "ĠmÃ¡": 331,
      "ĠkdyÅ¾": 332,
      "ji": 333,
      "ĠdÄĽ": 334,
      "kÃ¡": 335,
      "mÃŃ": 336,
      "ĠsvÃ©": 337,
      "mi": 338,
      "ĠpÅĻi": 339,
      "ry": 340,
      "CC": 341,
      "Ġvo": 342,
      "by": 343,
      "Å¾ÃŃ": 344,
      "tÃ¡": 345,
      "...": 346,
      "Å¯j": 347,
      "ĠlÃ¡": 348,
      "Äįi": 349,
      "vu": 350,
      "AA": 351,
      "ez": 352,
      "Ġsrd": 353,
      "Ġpra": 354,
      "Ġjako": 355,
      "ĠÅ¡e": 356,
      "Ġpr": 357,
      "XXXXXX": 358,
      "ĠlÃŃ": 359,
      "ĠjÃ¡": 360,
      "ĠrÃ¡": 361,
      "ta": 362,
      "ĠsvÄĽt": 363,
      "ĠvÅ¡ak": 364,
      "60": 365,
      "ĠÃº": 366,
      "Ġvi": 367,
      "ĠtÃŃ": 368,
      "Å¡i": 369,
      "Ġky": 370,
      "ze": 371,
      "vy": 372,
      "Ġkde": 373,
      "Ġten": 374,
      "Ã©m": 375,
      "Ġci": 376,
      "Ġra": 377,
      "Ġlo": 378,
      "ĠÅĻe": 379,
      "me": 380,
      "Ġtam": 381,
      "bÄĽ": 382,
      "nÃ½ch": 383,
      "bo": 384,
      "ĠcÃŃ": 385,
      "lad": 386,
      "ha": 387,
      "Ġ1940": 388,
      "ĠjiÅ¾": 389,
      "lÃ½": 390,
      "ma": 391,
      "mo": 392,
      "sta": 393,
      "led": 394,
      "Ġzem": 395,
      "stÃŃ": 396,
      "Ġmy": 397,
      "Ġkr": 398,
      "ĠtÃ©": 399,
      "rak": 400,
      "Ġpod": 401,
      "val": 402,
      "Ġnad": 403,
      "Ġjeho": 404,
      "kou": 405,
      "Ġze": 406,
      "ĠÅĻÃŃ": 407,
      "sÃŃ": 408,
      "ĠjeÅ¾": 409,
      "Ġbyl": 410,
      "ĠvÃ½": 411,
      "ĠpÅĻÃŃ": 412,
      "ABBA": 413,
      "Ġny": 414,
      "Ġzp": 415,
      "tu": 416,
      "Ġslu": 417,
      "ĠmÃŃ": 418,
      "Ġsta": 419,
      "vou": 420,
      "Ġzas": 421,
      "Ġjed": 422,
      "lem": 423,
      "ĠstÃ¡": 424,
      "vÃ½": 425,
      "ĠpÃ¡": 426,
      "Å¡tÄĽ": 427,
      "hu": 428,
      "Ġpe": 429,
      "ĠstÃŃ": 430,
      "Ġ1860": 431,
      "Ġde": 432,
      "ĠX": 433,
      "cho": 434,
      "ĠpÃŃ": 435,
      "Ġnu": 436,
      "men": 437,
      "ad": 438,
      "Ġsrdce": 439,
      "Ġdi": 440,
      "Ġ1840": 441,
      "Ġvla": 442,
      "hÃ¡": 443,
      "Ġkte": 444,
      "ĠÄįi": 445,
      "Ġbez": 446,
      "Å¯m": 447,
      "ĠbÃŃ": 448,
      "hy": 449,
      "vÄĽt": 450,
      "ĠnÃ¡m": 451,
      "ud": 452,
      "Å¾dy": 453,
      "Å¾i": 454,
      "chu": 455,
      "ĠnÃ©": 456,
      "sa": 457,
      "nÃ½m": 458,
      "rou": 459,
      "kÃ©": 460,
      "ĠÅ¡ÃŃ": 461,
      "ĠlÃ¡sk": 462,
      "Ġme": 463,
      "si": 464,
      "Ġsy": 465,
      "Ġva": 466,
      "be": 467,
      "Ġpak": 468,
      "ĠÅ¾ÃŃ": 469,
      "ĠjenÅ¾": 470,
      "Ġhro": 471,
      "zÃŃ": 472,
      "Ġjest": 473,
      "ĠÄįÃŃ": 474,
      "ĠbÄĽ": 475,
      "ĠvÅ¾dy": 476,
      "ĠmÃ©": 477,
      "kem": 478,
      "ĠpÅĻed": 479,
      "Ġlid": 480,
      "kÅ¯": 481,
      "Ġnou": 482,
      "Ġly": 483,
      "enÃŃ": 484,
      "ĠĊ": 485,
      "Ġtv": 486,
      "Ġda": 487,
      "Ġzla": 488,
      "bu": 489,
      "ba": 490,
      "Ġpla": 491,
      "15": 492,
      "Ġso": 493,
      "Ġkdo": 494,
      "ĠtvÃ¡": 495,
      "14": 496,
      "Ġmne": 497,
      "Ġnem": 498,
      "Ġhle": 499,
      "ste": 500,
      "zd": 501,
      "ĠsÃŃ": 502,
      "ĠaÅ¾": 503,
      "Ġsti": 504,
      "Ġsm": 505,
      "rÃ½": 506,
      "Ġsa": 507,
      "ÅĻÃ¡": 508,
      "dou": 509,
      "Ġlu": 510,
      "ĠÃ³": 511,
      "ty": 512,
      "sy": 513,
      "kÃ½": 514,
      "Ġtou": 515,
      "nes": 516,
      "Ġslo": 517,
      "Ġma": 518,
      "Ġnej": 519,
      "Ġpos": 520,
      "Ġry": 521,
      "bi": 522,
      "ĠÅ¾ivo": 523,
      "AAXX": 524,
      "ĠkaÅ¾": 525,
      "ĠkvÄĽt": 526,
      "Ġjej": 527,
      "ĠteÄı": 528,
      "Ġsna": 529,
      "Ġpou": 530,
      "Ġsto": 531,
      "ĠprÃ¡": 532,
      "ĠÄįas": 533,
      "re": 534,
      "Ġden": 535,
      "ĠtÃ¡": 536,
      "Ġsvou": 537,
      "Ġnes": 538,
      "Ġnez": 539,
      "ĠÄįer": 540,
      "ĠdÃ¡l": 541,
      "ĠplÃ¡": 542,
      "16": 543,
      "Ġon": 544,
      "ĠÅ¾en": 545,
      "nce": 546,
      "ĠuÅ¾": 547,
      "Ġsla": 548,
      "hou": 549,
      "Ġkou": 550,
      "sto": 551,
      "ĠneÅ¾": 552,
      "ĠnÃ½": 553,
      "skÃ©": 554,
      "Ġkle": 555,
      "tr": 556,
      "pÃŃ": 557,
      "Ġf": 558,
      "ĠvÅ¡ech": 559,
      "Ġjsou": 560,
      "Ġhu": 561,
      "Ġdob": 562,
      "rt": 563,
      "Ġsvo": 564,
      "AABBCC": 565,
      "ĠmÅ¯j": 566,
      "Ġre": 567,
      "Ġzrak": 568,
      "Ġbra": 569,
      "rÃ©": 570,
      "ĠtvÃ©": 571,
      "Ġdru": 572,
      "ĠkÃ¡": 573,
      "Ġjsi": 574,
      "Ġnech": 575,
      "Ġale": 576,
      "rÅ¯": 577,
      "ĠpÄĽ": 578,
      "my": 579,
      "nem": 580,
      "Ġnebe": 581,
      "nÃ©m": 582,
      "mÃ¡": 583,
      "ĠhvÄĽ": 584,
      "Ġsvat": 585,
      "ĠmnÄĽ": 586,
      "ĠnÃ¡s": 587,
      "ĠrÅ¯": 588,
      "ĠjeÅ¡tÄĽ": 589,
      "pu": 590,
      "Ġba": 591,
      "vat": 592,
      "Ġtem": 593,
      "Ġkra": 594,
      "nÅ¯": 595,
      "pe": 596,
      "Ġvel": 597,
      "Ġsnad": 598,
      "nÃŃm": 599,
      "pa": 600,
      "bou": 601,
      "Ġstra": 602,
      "Ġpl": 603,
      "ĠduÅ¡e": 604,
      "dÄĽl": 605,
      "chÃ¡": 606,
      "Ġdy": 607,
      "ĠkaÅ¾d": 608,
      "ĠbÃ½": 609,
      "Ġtom": 610,
      "ĠvÅ¯": 611,
      "Ġbla": 612,
      "Ġmil": 613,
      "Ġhra": 614,
      "ĠjejÃŃ": 615,
      "bÃŃ": 616,
      "Ġmat": 617,
      "ĠbÃ¡": 618,
      "Ġzde": 619,
      "Ġvl": 620,
      "ĠnÄĽm": 621,
      "Ġja": 622,
      "Ġcho": 623,
      "ĠsÃ¡m": 624,
      "Ġdra": 625,
      "Ġot": 626,
      "Ġsou": 627,
      "AX": 628,
      "ĠhÃ¡": 629,
      "Ġstar": 630,
      "ĠkrÃ¡s": 631,
      "ĠnÃŃm": 632,
      "Ġpu": 633,
      "Ġchu": 634,
      "ÅĻen": 635,
      "ĠvÅ¡ec": 636,
      "Ġhlas": 637,
      "ĠA": 638,
      "Ġpoh": 639,
      "Ġval": 640,
      "Ġbou": 641,
      "Ġsl": 642,
      "Ġdnes": 643,
      "ĠchvÃŃ": 644,
      "ĠaÅ¥": 645,
      "vil": 646,
      "Ġzd": 647,
      "ĠlÃ©": 648,
      "ĠzÃŃ": 649,
      "Å¾en": 650,
      "ej": 651,
      "Å¡el": 652,
      "pÄĽ": 653,
      "Ġsly": 654,
      "Ġhlu": 655,
      "Ġha": 656,
      "Ġjich": 657,
      "ĠÅ¡i": 658,
      "nost": 659,
      "ABABCC": 660,
      "stu": 661,
      "cha": 662,
      "pi": 663,
      "ĠÅ¾Ã¡": 664,
      "Ġtr": 665,
      "Ġzlat": 666,
      "ĠvÃ¡m": 667,
      "Ġoh": 668,
      "nÃ¡m": 669,
      "AAB": 670,
      "ĠÅ¾ivot": 671,
      "Ġjas": 672,
      "ĠsvÄĽ": 673,
      "Ġbe": 674,
      "zy": 675,
      "Ġbude": 676,
      "Ġos": 677,
      "ĠduÅ¡i": 678,
      "Ġjsme": 679,
      "Ġzvo": 680,
      "Ġmod": 681,
      "ĠvÄĽÄį": 682,
      "ev": 683,
      "Ġpoz": 684,
      "nul": 685,
      "ABABXX": 686,
      "rÃ¡t": 687,
      "Ġdlou": 688,
      "Ġstro": 689,
      "Ġvra": 690,
      "sÅ¥": 691,
      "jem": 692,
      "Ġslad": 693,
      "ĠkÅĻÃŃ": 694,
      "tel": 695,
      "ĠnenÃŃ": 696,
      "Ġmno": 697,
      "hÃ½": 698,
      "Ġsmu": 699,
      "Ġ1960": 700,
      "ĠÅĻ": 701,
      "ĠtÄĽch": 702,
      "AXA": 703,
      "Ġbych": 704,
      "Ġspo": 705,
      "nosti": 706,
      "tra": 707,
      "ĠchtÄĽ": 708,
      "Ġkli": 709,
      "Ġsu": 710,
      "ĠkÅ¯": 711,
      "Ġsem": 712,
      "cen": 713,
      "ven": 714,
      "Ġslunce": 715,
      "Ġtvo": 716,
      "Ġbylo": 717,
      "hle": 718,
      "ĠÅ¡tÄĽ": 719,
      "ĠoÄįi": 720,
      "ĠtÅĻe": 721,
      "Ġjim": 722,
      "Å¯h": 723,
      "ĠptÃ¡": 724,
      "Ġkro": 725,
      "Ġkla": 726,
      "nil": 727,
      "Ġmou": 728,
      "Ġe": 729,
      "ĠzÅĻÃŃ": 730,
      "jÅ¡ÃŃ": 731,
      "ĠvÃ©": 732,
      "stÃ¡": 733,
      "ÅĻel": 734,
      "Ġnep": 735,
      "ĠsvÃ½m": 736,
      "sÃ¡": 737,
      "vÃ½ch": 738,
      "cÃŃch": 739,
      "Å¡en": 740,
      "len": 741,
      "bÃ¡": 742,
      "Ġnich": 743,
      "ned": 744,
      "zi": 745,
      "py": 746,
      "ĠsvÅ¯j": 747,
      "Ġml": 748,
      "stvÃŃ": 749,
      "ĠvÃŃc": 750,
      "chy": 751,
      "ĠslÃ¡": 752,
      "Ġg": 753,
      "Ġmar": 754,
      "Ġkol": 755,
      "ĠmÃ¡m": 756,
      "Ġbi": 757,
      "Ġhy": 758,
      "ĠsmÄĽ": 759,
      "hÃ©": 760,
      "lovÄĽ": 761,
      "Ġlet": 762,
      "Ġnik": 763,
      "so": 764,
      "stou": 765,
      "ĠtÃŃm": 766,
      "nÃ©ho": 767,
      "Ġbyla": 768,
      "dem": 769,
      "ĠbÅ¯h": 770,
      "Ġsmut": 771,
      "tÃ½": 772,
      "ĠsvÃ½ch": 773,
      "vÃ½m": 774,
      "skÃ½": 775,
      "cem": 776,
      "stÄĽ": 777,
      "chem": 778,
      "Ġmys": 779,
      "pÃ¡": 780,
      "ĠsmÃŃ": 781,
      "ĠlÃ¡sky": 782,
      "ĠblÃŃ": 783,
      "vnÃŃ": 784,
      "Ġdal": 785,
      "Ġhned": 786,
      "rem": 787,
      "Ġmilo": 788,
      "tek": 789,
      "dla": 790,
      "jich": 791,
      "til": 792,
      "ĠmÄĽl": 793,
      "ĠÄįlovÄĽ": 794,
      "ĠpÃŃs": 795,
      "Ġvr": 796,
      "ĠtvÅ¯j": 797,
      "Ġsen": 798,
      "lesk": 799,
      "nal": 800,
      "zu": 801,
      "ĠsvÃŃ": 802,
      "Äįen": 803,
      "ÅĻil": 804,
      "ĠsnÄĽ": 805,
      "Ġkam": 806,
      "ĠtÃ©Å¾": 807,
      "Äįka": 808,
      "Ġ1820": 809,
      "Ġnoc": 810,
      "za": 811,
      "ĠvÃ¡s": 812,
      "ĠpÅ¯": 813,
      "ĠsobÄĽ": 814,
      "Ġkolem": 815,
      "vem": 816,
      "CCB": 817,
      "ĠlÃ½": 818,
      "tÃŃm": 819,
      "Ġke": 820,
      "Ġach": 821,
      "Ġan": 822,
      "skÃ¡": 823,
      "ĠvÅ¡em": 824,
      "ĠzdÃ¡": 825,
      "Ġmal": 826,
      "ĠkaÅ¾dÃ½": 827,
      "Ġchy": 828,
      "ĠtobÄĽ": 829,
      "Å¡Å¥": 830,
      "ri": 831,
      "ĠpÅĻes": 832,
      "ĠtÄĽÅ¾": 833,
      "Ġok": 834,
      "tem": 835,
      "Ġvu": 836,
      "Ġles": 837,
      "Ġop": 838,
      "Ġrado": 839,
      "ĠproÄį": 840,
      "ĠdÅĻÃŃ": 841,
      "ĠzpÄĽ": 842,
      "ĠÅĻi": 843,
      "ĠzemÄĽ": 844,
      "Ġani": 845,
      "Ġkem": 846,
      "Ġpan": 847,
      "Ġdla": 848,
      "XAAX": 849,
      "XXAA": 850,
      "Ġaby": 851,
      "AABCCB": 852,
      "Ġhou": 853,
      "Å¡ÃŃm": 854,
      "Ġtich": 855,
      "Ġzda": 856,
      "Å¡tÃŃ": 857,
      "hla": 858,
      "nom": 859,
      "ĠvÄĽt": 860,
      "Ġju": 861,
      "ĠÅ¾itÃŃ": 862,
      "ĠchvÄĽ": 863,
      "Ġple": 864,
      "Ġchce": 865,
      "lÃ½ch": 866,
      "sty": 867,
      "ĠhvÄĽz": 868,
      "Ġjejich": 869,
      "ĠÅ¡u": 870,
      "ĠÄįa": 871,
      "ĠpÅĻec": 872,
      "Ġklid": 873,
      "nky": 874,
      "kla": 875,
      "tÃ©": 876,
      "Ġruce": 877,
      "Ġsil": 878,
      "vÃŃm": 879,
      "ĠspÃ¡": 880,
      "ĠrÃ¡d": 881,
      "Ġkrev": 882,
      "ĠbuÄı": 883,
      "ĠsnÃŃ": 884,
      "ĠleÄį": 885,
      "ĠkÃ½": 886,
      "Ġvlast": 887,
      "Ġsrdci": 888,
      "Ġzemi": 889,
      "Ġus": 890,
      "Äįky": 891,
      "Ġmra": 892,
      "ĠveÄįe": 893,
      "tou": 894,
      "Ġmoc": 895,
      "mÅ¯": 896,
      "ĠvÅ¡ecko": 897,
      "Ġmoje": 898,
      "seÅĪ": 899,
      "Ġdiv": 900,
      "Ġmrt": 901,
      "ĠmuÅ¾": 902,
      "ved": 903,
      "co": 904,
      "Ġnepo": 905,
      "lÅ¯": 906,
      "Ġzb": 907,
      "Äįek": 908,
      "Ġsmr": 909,
      "Ġsko": 910,
      "Ġhru": 911,
      "pr": 912,
      "AXAX": 913,
      "nek": 914,
      "ĠmÅ¯": 915,
      "Ġjste": 916,
      "Ġduch": 917,
      "Ġlou": 918,
      "Ġzlo": 919,
      "Ġhor": 920,
      "ĠnÃ¡Å¡": 921,
      "aly": 922,
      "ÅĻem": 923,
      "pomÃŃ": 924,
      "Ġmez": 925,
      "ĠÅ¡el": 926,
      "cÅ¯": 927,
      "Ġkru": 928,
      "lil": 929,
      "ĠvlÃ¡": 930,
      "ĠnaÅ¡e": 931,
      "skÃ½ch": 932,
      "Ġprou": 933,
      "an": 934,
      "hÅ¯": 935,
      "ĠstÅĻe": 936,
      "dil": 937,
      "ĠÅ¡tÄĽstÃŃ": 938,
      "Ġpad": 939,
      "nÃŃk": 940,
      "ĠtvÃ¡ÅĻ": 941,
      "Ġjenom": 942,
      "Ġste": 943,
      "ĠhvÄĽzd": 944,
      "ĠnÃ¡ro": 945,
      "kÃ½ch": 946,
      "Ġnoci": 947,
      "ĠdÃ¡v": 948,
      "ĠĠ": 949,
      "Ġtebe": 950,
      "Ġhlavu": 951,
      "ĠhÅĻÃŃ": 952,
      "Ġhr": 953,
      "pad": 954,
      "Ġote": 955,
      "Ġzvu": 956,
      "ĠdÃŃv": 957,
      "ĠspÄĽ": 958,
      "ĠdÄĽl": 959,
      "dnÃ©": 960,
      "pla": 961,
      "Ġprav": 962,
      "zo": 963,
      "ĠÅ¾al": 964,
      "ĠbÃ½t": 965,
      "su": 966,
      "nout": 967,
      "Ġmlad": 968,
      "nÃŃch": 969,
      "Ġnic": 970,
      "Äįil": 971,
      "ĠsÃ¡": 972,
      "Ġoko": 973,
      "hem": 974,
      "ĠzpÃŃ": 975,
      "ĠtÃ½": 976,
      "ĠmlÃ¡": 977,
      "sku": 978,
      "jde": 979,
      "Äįku": 980,
      "sky": 981,
      "hne": 982,
      "Ġven": 983,
      "ĠchtÄĽl": 984,
      "ĠÅĻek": 985,
      "Ġmlu": 986,
      "ĠchrÃ¡": 987,
      "dech": 988,
      "Ġlem": 989,
      "Ġblesk": 990,
      "Ġpi": 991,
      "ĠkÅĻi": 992,
      "ĠstrÃ¡": 993,
      "tÅ¯": 994,
      "ĠcelÃ½": 995,
      "ast": 996,
      "Ġvou": 997,
      "Ġhe": 998,
      "Ġzah": 999,
      "ĠskÃ¡": 1000,
      "ĠÃºs": 1001,
      "Ġzje": 1002,
      "Å¡li": 1003,
      "Ġdou": 1004,
      "uje": 1005,
      "ĠtakÃ©": 1006,
      "Ġboj": 1007,
      "Ġjde": 1008,
      "Å¾il": 1009,
      "Ġdne": 1010,
      "Ġhlou": 1011,
      "dÃŃm": 1012,
      "Ġtro": 1013,
      "Ġsvi": 1014,
      "ĠsvÃ©m": 1015,
      "ĠÅĪ": 1016,
      "ĠvÃ¡Å¡": 1017,
      "Ġtru": 1018,
      "ĠdÅ¯": 1019,
      "Ġslova": 1020,
      "ĠdÃŃtÄĽ": 1021,
      "zen": 1022,
      "Ġobra": 1023,
      "Ġneu": 1024,
      "ĠpÃŃseÅĪ": 1025,
      "jÃŃcÃŃ": 1026,
      "ĠnÃ¡hle": 1027,
      "Ġnebo": 1028,
      "ĠchvÃŃli": 1029,
      "ĠmoÅĻe": 1030,
      "kÃ½m": 1031,
      "Ġbole": 1032,
      "Ġzi": 1033,
      "tva": 1034,
      "Ġdech": 1035,
      "ska": 1036,
      "ĠhnÄĽ": 1037,
      "Ġchlad": 1038,
      "ĠspÃŃ": 1039,
      "Ġtoho": 1040,
      "nÄĽjÅ¡ÃŃ": 1041,
      "ati": 1042,
      "ĠkrÃ¡l": 1043,
      "sko": 1044,
      "ĠmyÅ¡": 1045,
      "Ġslun": 1046,
      "sou": 1047,
      "dnÃ½": 1048,
      "Ġvol": 1049,
      "Ġpok": 1050,
      "kal": 1051,
      "Ã©ho": 1052,
      "ĠkterÃ©": 1053,
      "dle": 1054,
      "ĠvÅ¾dyÅ¥": 1055,
      "jÃŃc": 1056,
      "ĠvÃŃm": 1057,
      "hl": 1058,
      "ĠoÄįÃŃ": 1059,
      "ĠnÄĽk": 1060,
      "Ġslav": 1061,
      "ĠsvÃ©ho": 1062,
      "ĠnynÃŃ": 1063,
      "Ġmezi": 1064,
      "Ġmla": 1065,
      "nÃ¡ch": 1066,
      "ĠstÃŃn": 1067,
      "Ġvzdu": 1068,
      "Ġzo": 1069,
      "Ġpy": 1070,
      "ĠbÅĻe": 1071,
      "ĠÄįlovÄĽk": 1072,
      "Ġmrak": 1073,
      "ĠstÅĻÃŃ": 1074,
      "tky": 1075,
      "Ġhled": 1076,
      "Ġjeden": 1077,
      "ĠpÃ¡n": 1078,
      "17": 1079,
      "Ġbrat": 1080,
      "Ġmnou": 1081,
      "ĠlÃ¡ska": 1082,
      "Ġost": 1083,
      "Ġzase": 1084,
      "er": 1085,
      "Ġdr": 1086,
      "Ġtma": 1087,
      "ĠznÃŃ": 1088,
      "ĠkterÃ½": 1089,
      "ĠpÅĻÃ¡": 1090,
      "ĠstÄĽ": 1091,
      "ĠjÃŃm": 1092,
      "Ġpoto": 1093,
      "Ġjednou": 1094,
      "ĠklÃŃ": 1095,
      "ĠhrÃ¡": 1096,
      "ĠznÃ¡m": 1097,
      "ĠlÅ¯": 1098,
      "ĠstÃ¡le": 1099,
      "rov": 1100,
      "ĠsvÄĽta": 1101,
      "XAXAXX": 1102,
      "ĠzvÄĽ": 1103,
      "ĠstojÃŃ": 1104,
      "Ġpat": 1105,
      "krÃ¡t": 1106,
      "rost": 1107,
      "ĠtiÅ¡e": 1108,
      "Ġdost": 1109,
      "Ġoz": 1110,
      "Ġbled": 1111,
      "pra": 1112,
      "Ġzm": 1113,
      "ĠkvÃŃ": 1114,
      "ĠsvÃ¡": 1115,
      "Å¡la": 1116,
      "dnÃŃ": 1117,
      "Ġsle": 1118,
      "mÃ©": 1119,
      "ĠÃºsmÄĽ": 1120,
      "Ġnemo": 1121,
      "sla": 1122,
      "ĠvÃŃce": 1123,
      "lÃ½m": 1124,
      "ĠtisÃŃ": 1125,
      "ĠjuÅ¾": 1126,
      "nec": 1127,
      "Ġjar": 1128,
      "nku": 1129,
      "nka": 1130,
      "mnÄĽ": 1131,
      "Ġveli": 1132,
      "ĠÅ¡Å¥": 1133,
      "ĠbÃŃlÃ©": 1134,
      "Ġtra": 1135,
      "spo": 1136,
      "vala": 1137,
      "Ġodpo": 1138,
      "Ġklo": 1139,
      "ĠcoÅ¾": 1140,
      "vÃ©m": 1141,
      "ĠvÄĽr": 1142,
      "zem": 1143,
      "lit": 1144,
      "Ġrukou": 1145,
      "ĠzpÄĽv": 1146,
      "Ġpoko": 1147,
      "Ġsebe": 1148,
      "ĠtrÃ¡": 1149,
      "Ġposled": 1150,
      "ĠaÄį": 1151,
      "dnou": 1152,
      "Ġnebi": 1153,
      "Ġvoj": 1154,
      "ĠkÃ©": 1155,
      "lek": 1156,
      "jte": 1157,
      "ĠÄįÃŃm": 1158,
      "ĠveÄįer": 1159,
      "dce": 1160,
      "Ġhrob": 1161,
      "ĠboÅ¾ÃŃ": 1162,
      "nat": 1163,
      "Ġum": 1164,
      "ĠsmÃŃch": 1165,
      "Ġkraj": 1166,
      "ĠÅ¾il": 1167,
      "Ġstu": 1168,
      "Ġpot": 1169,
      "Ġplamen": 1170,
      "dal": 1171,
      "ĠhÅĻ": 1172,
      "ĠhrÅ¯": 1173,
      "Ġnikdy": 1174,
      "jÃŃm": 1175,
      "skou": 1176,
      "stÃ©": 1177,
      "mou": 1178,
      "Ġjedi": 1179,
      "Ġtomu": 1180,
      "ĠnaÅ¡i": 1181,
      "ĠtvÃ½ch": 1182,
      "Ġvese": 1183,
      "vra": 1184,
      "Ġnedo": 1185,
      "XB": 1186,
      "ÅĻÃŃm": 1187,
      "ĠnadÄĽ": 1188,
      "Ġrou": 1189,
      "ĠnÃ½ch": 1190,
      "Ġbudou": 1191,
      "Ġtys": 1192,
      "vz": 1193,
      "vr": 1194,
      "ĠvzpomÃŃ": 1195,
      "Ã¡me": 1196,
      "Ġzak": 1197,
      "Ġsli": 1198,
      "Ã³": 1199,
      "Ġkdyby": 1200,
      "Ġdar": 1201,
      "dlo": 1202,
      "tku": 1203,
      "stal": 1204,
      "Äįko": 1205,
      "ÄįnÃŃ": 1206,
      "ĠmÄĽsÃŃ": 1207,
      "Ġzno": 1208,
      "ĠÅ¡Å¥ast": 1209,
      "Ġpal": 1210,
      "ĠstÃ¡l": 1211,
      "Ġpoli": 1212,
      "Å¡ti": 1213,
      "Ġves": 1214,
      "Ġona": 1215,
      "ĠznÃ¡": 1216,
      "Ġzele": 1217,
      "Ġlesk": 1218,
      "ĠvÃŃtÄĽ": 1219,
      "ĠnevÄĽ": 1220,
      "ĠvrÃ¡": 1221,
      "tal": 1222,
      "ben": 1223,
      "ĠbrÃ¡": 1224,
      "ĠrÅ¯Å¾e": 1225,
      "Ġzu": 1226,
      "ude": 1227,
      "cÃŃm": 1228,
      "Ġdva": 1229,
      "cky": 1230,
      "ĠmÃ½ch": 1231,
      "ĠdÄĽti": 1232,
      "Ġpru": 1233,
      "ĠnÃŃÅ¾": 1234,
      "lech": 1235,
      "ĠdÃ©": 1236,
      "Ġsmrt": 1237,
      "Ġstr": 1238,
      "ĠprvnÃŃ": 1239,
      "Ġskal": 1240,
      "vit": 1241,
      "Ġhroz": 1242,
      "Ġsed": 1243,
      "ĠzÃ¡ÅĻ": 1244,
      "Ġnevi": 1245,
      "Ġbar": 1246,
      "Ġsotva": 1247,
      "Ġhlavy": 1248,
      "Ġtlu": 1249,
      "Ġnebes": 1250,
      "Ġchci": 1251,
      "ÄįnÄĽ": 1252,
      "stÃ½": 1253,
      "ĠknÄĽ": 1254,
      "Ġdce": 1255,
      "ĠcelÃ©": 1256,
      "ĠchÃ¡": 1257,
      "Ġzna": 1258,
      "vnÄĽ": 1259,
      "Ġleh": 1260,
      "ĠkterÃ¡": 1261,
      "pil": 1262,
      "ĠÅ¡at": 1263,
      "Ġsmrti": 1264,
      "vali": 1265,
      "lik": 1266,
      "ĠdÃ¡le": 1267,
      "ĠznÄĽ": 1268,
      "Ġpom": 1269,
      "Ġsh": 1270,
      "sil": 1271,
      "ĠskrÃ¡": 1272,
      "Ġtaj": 1273,
      "nice": 1274,
      "Ġbr": 1275,
      "let": 1276,
      "Ġneo": 1277,
      "ĠnovÃ©": 1278,
      "ĠmusÃŃ": 1279,
      "Ġjemu": 1280,
      "Ġdvo": 1281,
      "Ġskry": 1282,
      "ĠdÄĽt": 1283,
      "Ġplo": 1284,
      "Ġproti": 1285,
      "hat": 1286,
      "Ġjedno": 1287,
      "Ġhrd": 1288,
      "Ġneby": 1289,
      "kÃ¡ch": 1290,
      "dÅ¯": 1291,
      "Ġosud": 1292,
      "ĠpÅĻece": 1293,
      "Ġruka": 1294,
      "vÃ¡nÃŃ": 1295,
      "tech": 1296,
      "zel": 1297,
      "Ġruku": 1298,
      "ĠtÅ¯": 1299,
      "Ġticho": 1300,
      "Ġkal": 1301,
      "Ġradost": 1302,
      "Ġdlouho": 1303,
      "Ġzh": 1304,
      "ĠzpÄĽt": 1305,
      "ĠÅ¡tÃŃ": 1306,
      "Ġobla": 1307,
      "Ġkdys": 1308,
      "ĠdÃ½": 1309,
      "Ġproto": 1310,
      "ĠstarÃ½": 1311,
      "znÄĽ": 1312,
      "Ġvlas": 1313,
      "lov": 1314,
      "dnÄĽ": 1315,
      "kÃ©m": 1316,
      "ĠletÃŃ": 1317,
      "Äįel": 1318,
      "ĠmeÄį": 1319,
      "Ġzk": 1320,
      "ĠleÅ¾ÃŃ": 1321,
      "ĠkÅĻe": 1322,
      "ĠvÅ¡i": 1323,
      "Ġrozko": 1324,
      "Ã½mi": 1325,
      "Ġhlavou": 1326,
      "Ġjin": 1327,
      "Ġplu": 1328,
      "Ġrych": 1329,
      "pen": 1330,
      "Ġvlasti": 1331,
      "nic": 1332,
      "pl": 1333,
      "Ġtvoje": 1334,
      "nit": 1335,
      "Ġdruh": 1336,
      "Ġzbo": 1337,
      "Ġzra": 1338,
      "Ġode": 1339,
      "ĠvÅĻe": 1340,
      "ĠkvÄĽ": 1341,
      "pou": 1342,
      "Ġdem": 1343,
      "ĠtÅĻi": 1344,
      "ĠprÃ½": 1345,
      "ral": 1346,
      "ĠduÅ¡ÃŃ": 1347,
      "ĠdÃ¡vno": 1348,
      "ĠnÅ¯": 1349,
      "ÄįÃŃm": 1350,
      "nech": 1351,
      "ĠvidÃŃ": 1352,
      "stÅĻÃŃ": 1353,
      "rnÃ©": 1354,
      "Ġpohled": 1355,
      "ĠnÄĽj": 1356,
      "rnÄĽ": 1357,
      "Ġsamo": 1358,
      "ĠÄįasto": 1359,
      "lal": 1360,
      "ĠcizÃŃ": 1361,
      "Ġslou": 1362,
      "Ġcit": 1363,
      "Ġpozd": 1364,
      "ĠbÃ¡s": 1365,
      "Ġroze": 1366,
      "Ġmoh": 1367,
      "ĠkrÃ¡t": 1368,
      "pat": 1369,
      "ĠvidÄĽl": 1370,
      "Ġhlubo": 1371,
      "ĠhvÄĽzdy": 1372,
      "ĠdobÅĻe": 1373,
      "Ġzou": 1374,
      "Ġkles": 1375,
      "ĠobÄĽ": 1376,
      "Ġnimi": 1377,
      "vÅ¯": 1378,
      "nutÃŃ": 1379,
      "Ġper": 1380,
      "ĠzÃ¡ÅĻÃŃ": 1381,
      "alo": 1382,
      "Ġpros": 1383,
      "Ġtesk": 1384,
      "ĠzlatÃ©": 1385,
      "Ġsch": 1386,
      "ĠtoÅ¥": 1387,
      "ĠvdÄĽ": 1388,
      "zÃ¡": 1389,
      "ĠstÅĻÃŃb": 1390,
      "Ġrud": 1391,
      "ĠH": 1392,
      "Ġzt": 1393,
      "Ġtajem": 1394,
      "pal": 1395,
      "ĠÅ¾ena": 1396,
      "ĠchvÃŃle": 1397,
      "ĠboÅ¾e": 1398,
      "jen": 1399,
      "lÃŃm": 1400,
      "ĠsvÄĽtÄĽ": 1401,
      "ĠnÃ½m": 1402,
      "Ġsvoje": 1403,
      "ĠvÅ¡ecky": 1404,
      "Ġlist": 1405,
      "ĠtÅĻÃŃ": 1406,
      "ĠdÅĻÃŃv": 1407,
      "Ġkri": 1408,
      "ĠzÅ¯": 1409,
      "Ġblou": 1410,
      "Ġcha": 1411,
      "stÅĻe": 1412,
      "ĠvolÃ¡": 1413,
      "ĠhledÃŃ": 1414,
      "Ġjdou": 1415,
      "Ġpane": 1416,
      "Ġy": 1417,
      "ĠmÅ¯Å¾e": 1418,
      "Ġtla": 1419,
      "ran": 1420,
      "Ġpole": 1421,
      "den": 1422,
      "rob": 1423,
      "ÄįnÃ©": 1424,
      "Ġtvou": 1425,
      "ĠposlednÃŃ": 1426,
      "ĠÅ¾ivota": 1427,
      "ABBX": 1428,
      "rÃ½ch": 1429,
      "Ġkry": 1430,
      "ĠÄįelo": 1431,
      "Ġvrou": 1432,
      "ĠÅ¡ep": 1433,
      "AXX": 1434,
      "Ġotec": 1435,
      "Ġpil": 1436,
      "Ġuk": 1437,
      "ĠtÅĻ": 1438,
      "tka": 1439,
      "ĠdÃ¡m": 1440,
      "rnÃ½": 1441,
      "ĠhÃ½": 1442,
      "dnÃ¡": 1443,
      "ĠÅ¾ha": 1444,
      "ĠnÃ¡rod": 1445,
      "ĠsnÅ¯": 1446,
      "Ġvat": 1447,
      "ĠprÃ¡zd": 1448,
      "Ġzapo": 1449,
      "Ġtebou": 1450,
      "ĠpanÃŃ": 1451,
      "ct": 1452,
      "ĠzmÄĽ": 1453,
      "Ġsku": 1454,
      "ĠdÄĽs": 1455,
      "ĠkvÄĽty": 1456,
      "Å¡em": 1457,
      "kle": 1458,
      "vÃ¡n": 1459,
      "Ġoka": 1460,
      "CB": 1461,
      "ĠpoÄį": 1462,
      "hlÃ©": 1463,
      "Ġkni": 1464,
      "Ġhud": 1465,
      "dÄĽla": 1466,
      "Ġlidst": 1467,
      "ĠslyÅ¡": 1468,
      "chvÄĽ": 1469,
      "ĠzÅĻel": 1470,
      "ĠpohÃ¡": 1471,
      "ĠboÅ¾": 1472,
      "ĠtÄĽlo": 1473,
      "ala": 1474,
      "Ġkon": 1475,
      "ĠkÅĻÃŃÅ¾": 1476,
      "ĠjakÃ½": 1477,
      "ĠÅĪad": 1478,
      "Ġdale": 1479,
      "ĠsvÃŃtÃŃ": 1480,
      "Ġztra": 1481,
      "Ġkraji": 1482,
      "ĠtÅĻeba": 1483,
      "Ġou": 1484,
      "Å¡il": 1485,
      "Ġmnoho": 1486,
      "Ġzve": 1487,
      "Ġsvit": 1488,
      "kli": 1489,
      "krÃ¡": 1490,
      "Ġup": 1491,
      "ĠsmÃ¡": 1492,
      "Ġbys": 1493,
      "Ġjem": 1494,
      "ĠnechÅ¥": 1495,
      "um": 1496,
      "ĠlÃ¡skou": 1497,
      "Ġsvobo": 1498,
      "Ġpouze": 1499,
      "ĠÅĻÃ¡": 1500,
      "Ġlidu": 1501,
      "Ġ1800": 1502,
      "ĠvelkÃ©": 1503,
      "Ġsklo": 1504,
      "ĠdrÃ¡": 1505,
      "ĠlÃ¡sku": 1506,
      "Ġpoj": 1507,
      "ĠnÄĽho": 1508,
      "ĠpÅ¯l": 1509,
      "Ġjisk": 1510,
      "Ġtady": 1511,
      "pas": 1512,
      "ÅĻit": 1513,
      "Å¡enÃŃ": 1514,
      "Ġkve": 1515,
      "ĠchvÃ¡": 1516,
      "ĠblÃŃÅ¾": 1517,
      "Ġpotom": 1518,
      "Ġpomo": 1519,
      "ĠsklÃ¡": 1520,
      "ĠsnÃŃh": 1521,
      "ĠÄįek": 1522,
      "ĠsvÄĽtlo": 1523,
      "Ġmoud": 1524,
      "Ġzouf": 1525,
      "Ġvys": 1526,
      "ĠvÃ½Å¡": 1527,
      "Ġstat": 1528,
      "vÃ¡m": 1529,
      "Ġblu": 1530,
      "ĠvelkÃ½": 1531,
      "CBC": 1532,
      "ĠpolÃŃ": 1533,
      "Ġhory": 1534,
      "Ġhrad": 1535,
      "ĠnovÃ½": 1536,
      "vost": 1537,
      "kol": 1538,
      "ĠbÃ½ti": 1539,
      "nik": 1540,
      "Ġtedy": 1541,
      "ĠbÃŃlÃ½": 1542,
      "Ġvich": 1543,
      "Ġzby": 1544,
      "Ġhlava": 1545,
      "ĠbouÅĻ": 1546,
      "ĠÅ¾eny": 1547,
      "ĠvÅ¾dycky": 1548,
      "tla": 1549,
      "Ġsyn": 1550,
      "nÃ½mi": 1551,
      "XXABAB": 1552,
      "ĠptÃ¡k": 1553,
      "Ġtep": 1554,
      "ĠpÃŃsnÄĽ": 1555,
      "Ġtat": 1556,
      "ĠdÃ¡li": 1557,
      "Ġneza": 1558,
      "vajÃŃ": 1559,
      "ĠtÃ¡h": 1560,
      "ĠnÃ¡ru": 1561,
      "kÅĻi": 1562,
      "Ġvem": 1563,
      "ĠÅ¾Ã¡r": 1564,
      "Ġpar": 1565,
      "Ġnese": 1566,
      "Ġnevy": 1567,
      "ke": 1568,
      "Ġzved": 1569,
      "sem": 1570,
      "zko": 1571,
      "ĠvlastnÃŃ": 1572,
      "Ġsny": 1573,
      "ĠvÃ½ch": 1574,
      "Ġdos": 1575,
      "Ġslzy": 1576,
      "Ġrem": 1577,
      "Ġposta": 1578,
      "ĠhruÄı": 1579,
      "Ġsni": 1580,
      "Ġzlato": 1581,
      "Ġret": 1582,
      "Ġdej": 1583,
      "znÃŃ": 1584,
      "ĠvÄĽru": 1585,
      "nostÃŃ": 1586,
      "Ġsty": 1587,
      "rÃ½m": 1588,
      "tro": 1589,
      "ĠjejÅ¾": 1590,
      "ĠsvatÃ½": 1591,
      "bil": 1592,
      "ĠvÃŃtr": 1593,
      "Ġdivo": 1594,
      "ĠsvojÃŃ": 1595,
      "Ġzjev": 1596,
      "ĠmÃ¡Å¡": 1597,
      "kud": 1598,
      "dÄĽt": 1599,
      "ĠdÃ½m": 1600,
      "chni": 1601,
      "Ġobraz": 1602,
      "Ġmr": 1603,
      "Ġpolo": 1604,
      "ĠÅ¡um": 1605,
      "Å¾el": 1606,
      "Ġvzdo": 1607,
      "Ġpapr": 1608,
      "Ġkamen": 1609,
      "Ġkrve": 1610,
      "Ġstej": 1611,
      "ĠumÃŃ": 1612,
      "Ġzahra": 1613,
      "Ġct": 1614,
      "ĠvidÃŃm": 1615,
      "ĠmarnÄĽ": 1616,
      "ĠvÅ¡eho": 1617,
      "Ġbol": 1618,
      "ĠvÃ¡Å¾": 1619,
      "ĠstarÃ©": 1620,
      "ĠopÄĽt": 1621,
      "lÃ©m": 1622,
      "Ġzmi": 1623,
      "AXAA": 1624,
      "ĠnÃ¡mi": 1625,
      "ABBACC": 1626,
      "ĠvÃŃtÄĽz": 1627,
      "chÃ¡zÃŃ": 1628,
      "Ġcos": 1629,
      "ĠjmÃ©": 1630,
      "Ġnikdo": 1631,
      "ĠblÃ¡": 1632,
      "ata": 1633,
      "ĠdvÄĽ": 1634,
      "Å¾o": 1635,
      "ÄįenÃŃ": 1636,
      "ĠvaÅ¡e": 1637,
      "Ġuli": 1638,
      "zou": 1639,
      "Ġvele": 1640,
      "Ġboji": 1641,
      "ĠÅĻa": 1642,
      "Ġol": 1643,
      "Ġcestu": 1644,
      "ĠvÅ¡ude": 1645,
      "Ġpocho": 1646,
      "ys": 1647,
      "Ġbolest": 1648,
      "hal": 1649,
      "ĠpÅĻem": 1650,
      "he": 1651,
      "Ġsbo": 1652,
      "Ġor": 1653,
      "Ġmatka": 1654,
      "ĠmÃ¡lo": 1655,
      "Ġprach": 1656,
      "ĠnÄĽkdy": 1657,
      "Ġchud": 1658,
      "Ġbohat": 1659,
      "tk": 1660,
      "ĠvstÅĻÃŃ": 1661,
      "lna": 1662,
      "Ġnena": 1663,
      "ĠnÄĽmu": 1664,
      "ĠkaÅ¾dÃ©": 1665,
      "stra": 1666,
      "ĠhoÅĻÃŃ": 1667,
      "ĠmÃ©ho": 1668,
      "Ġvil": 1669,
      "div": 1670,
      "ĠmilÃ½": 1671,
      "ĠvstÅĻÃŃc": 1672,
      "ĠpÄĽk": 1673,
      "Ġvzal": 1674,
      "ĠknÃŃ": 1675,
      "ĠneznÃ¡m": 1676,
      "ĠmrÃ¡": 1677,
      "XAABBX": 1678,
      "ĠtrÅ¯": 1679,
      "hÅ¯ru": 1680,
      "ĠsvatÃ©": 1681,
      "tit": 1682,
      "ĠrÃ¡na": 1683,
      "dit": 1684,
      "Ġvod": 1685,
      "ĠpadÃ¡": 1686,
      "ĠprÃ¡vÄĽ": 1687,
      "Ġotev": 1688,
      "Ġstou": 1689,
      "ĠpÅĻiÅ¡el": 1690,
      "ĠhlÃ¡": 1691,
      "Ġzv": 1692,
      "Ġved": 1693,
      "ĠnuÅ¾": 1694,
      "Ġbuj": 1695,
      "ÄįnÃ½": 1696,
      "Ġkouz": 1697,
      "or": 1698,
      "ĠjistÄĽ": 1699,
      "ĠmÃŃr": 1700,
      "Ġkdes": 1701,
      "ĠplÃ¡Äį": 1702,
      "ĠdomÅ¯": 1703,
      "ĠlidÃ©": 1704,
      "ĠÃºsmÄĽv": 1705,
      "Ġran": 1706,
      "ĠstvÃŃ": 1707,
      "Ġtil": 1708,
      "din": 1709,
      "Ġbohu": 1710,
      "ĠchÃ½": 1711,
      "ĠmÃŃsto": 1712,
      "Ġbal": 1713,
      "sal": 1714,
      "ĠnÄĽmÅ¾": 1715,
      "ĠkrÃ¡lov": 1716,
      "ĠsÃŃly": 1717,
      "ĠnemÃ¡": 1718,
      "Ġvyh": 1719,
      "Ġsvoji": 1720,
      "snÄĽ": 1721,
      "ĠzÅĻÃŃm": 1722,
      "ĠzlatÃ½": 1723,
      "ĠsvÄĽtla": 1724,
      "tnÃ©": 1725,
      "ĠhoÅĻe": 1726,
      "Ġsama": 1727,
      "ĠmlÃ¡dÃŃ": 1728,
      "Ġrychle": 1729,
      "Ġzdvi": 1730,
      "ĠvÅ¡echno": 1731,
      "sce": 1732,
      "Ġas": 1733,
      "ĠprÃ¡ci": 1734,
      "Ġjaro": 1735,
      "ĠmÃŃt": 1736,
      "ĠmilÃ¡": 1737,
      "Ġzbra": 1738,
      "Ġproud": 1739,
      "Ġhal": 1740,
      "ĠstÃŃny": 1741,
      "AABCBC": 1742,
      "ĠslÃ¡vy": 1743,
      "ĠprÃ¡ce": 1744,
      "lenÃŃ": 1745,
      "dne": 1746,
      "AABBXX": 1747,
      "ĠbouÅĻe": 1748,
      "ĠkrÃ¡sy": 1749,
      "Ġfi": 1750,
      "Ġspat": 1751,
      "Ġov": 1752,
      "Ġnev": 1753,
      "ĠzÃ¡ÅĻi": 1754,
      "Å¯v": 1755,
      "mÄĽnÃŃ": 1756,
      "ĠneÅ¾li": 1757,
      "Ġvyp": 1758,
      "ĠpÅĻijde": 1759,
      "Ġtrochu": 1760,
      "ĠÅ¡la": 1761,
      "Ġhovo": 1762,
      "ĠmÃ½m": 1763,
      "Ġkrok": 1764,
      "Ġboha": 1765,
      "ĠdÅ¯m": 1766,
      "ĠtÅĻpy": 1767,
      "Ġsr": 1768,
      "ĠnaÅ¡ÃŃ": 1769,
      "Ġstrom": 1770,
      "ĠpÅĻij": 1771,
      "ĠvzhÅ¯ru": 1772,
      "ĠÄı": 1773,
      "ĠskrÃ½": 1774,
      "ĠdÄĽv": 1775,
      "Ġchem": 1776,
      "Ġzr": 1777,
      "lost": 1778,
      "Ġaj": 1779,
      "ĠhÅ¯": 1780,
      "ckÃ©": 1781,
      "Ġhospo": 1782,
      "Ġbyli": 1783,
      "ĠlidÃŃ": 1784,
      "ĠpÃŃsnÃŃ": 1785,
      "ĠzpÃŃvÃ¡": 1786,
      "cy": 1787,
      "ĠmoÅ¾": 1788,
      "Ãº": 1789,
      "Å¾eh": 1790,
      "der": 1791,
      "ĠandÄĽl": 1792,
      "ĠjakÃ©": 1793,
      "ĠtvÃ¡ÅĻe": 1794,
      "ÅĻa": 1795,
      "Ġspolu": 1796,
      "ĠnÄĽÅ¾": 1797,
      "Ġkat": 1798,
      "ĠÅ¡ko": 1799,
      "skÃ©ho": 1800,
      "Ġkoru": 1801,
      "ĠzaÄį": 1802,
      "ĠnevÃŃ": 1803,
      "Ġzvolna": 1804,
      "vila": 1805,
      "Ġbyly": 1806,
      "Ġslovo": 1807,
      "ĠtvÃ¡ÅĻÃŃ": 1808,
      "Ġnav": 1809,
      "nula": 1810,
      "Ġvzdech": 1811,
      "Ġducha": 1812,
      "BB": 1813,
      "Ġrozp": 1814,
      "valy": 1815,
      "Ġopu": 1816,
      "Ġnapo": 1817,
      "Ġtolik": 1818,
      "Ġpout": 1819,
      "ĠkvÄĽtÅ¯": 1820,
      "Ġvzduch": 1821,
      "ĠpovÄĽ": 1822,
      "Ġvzp": 1823,
      "Ġzraky": 1824,
      "stup": 1825,
      "Ã¡c": 1826,
      "ĠÅĻeÄį": 1827,
      "Ġmysli": 1828,
      "Ġnul": 1829,
      "ĠtvÃ¡ÅĻi": 1830,
      "nÄĽm": 1831,
      "ĠÄįech": 1832,
      "Ġblaho": 1833,
      "Ġzdra": 1834,
      "Ġchla": 1835,
      "jat": 1836,
      "ĠÅ¾lu": 1837,
      "ĠvÄĽÄįnÄĽ": 1838,
      "Äįit": 1839,
      "ĠdolÅ¯": 1840,
      "ĠvlÃŃ": 1841,
      "Ġmen": 1842,
      "ĠvÅ¡ichni": 1843,
      "tila": 1844,
      "Ġchat": 1845,
      "hod": 1846,
      "Å¾Ã¡": 1847,
      "ĠzrÃ¡": 1848,
      "ĠmÄĽsta": 1849,
      "Ġvyso": 1850,
      "Ġnek": 1851,
      "ĠklÃ¡": 1852,
      "bra": 1853,
      "ĠkÃ¡m": 1854,
      "Ġdle": 1855,
      "Ġbudu": 1856,
      "ĠÅ¾ÃŃt": 1857,
      "Ġdoby": 1858,
      "ĠvÄĽk": 1859,
      "vÃ©ho": 1860,
      "ĠnichÅ¾": 1861,
      "ĠÅ¾iv": 1862,
      "Ġmd": 1863,
      "ĠvÄįe": 1864,
      "Ġples": 1865,
      "rÃ©m": 1866,
      "ĠÅ¾el": 1867,
      "Ġnel": 1868,
      "Ġhoj": 1869,
      "nici": 1870,
      "ĠvÃŃÅ¡": 1871,
      "Ġvon": 1872,
      "Ġsebou": 1873,
      "Ġpodo": 1874,
      "Ġzdo": 1875,
      "Ġzy": 1876,
      "ĠmyÅ¡lÃ©": 1877,
      "ĠÄįekÃ¡": 1878,
      "Ġprsou": 1879,
      "Ġkrva": 1880,
      "Å¾ÃŃm": 1881,
      "Ġprch": 1882,
      "ĠzvÃŃ": 1883,
      "Ġlesy": 1884,
      "Ġopo": 1885,
      "Ġbratr": 1886,
      "Ġdil": 1887,
      "sek": 1888,
      "ĠchrÃ¡m": 1889,
      "dÄĽj": 1890,
      "Ġvlny": 1891,
      "stil": 1892,
      "ĠÄįernÃ©": 1893,
      "18": 1894,
      "lÃ©b": 1895,
      "!...": 1896,
      "ĠtisÃŃc": 1897,
      "rech": 1898,
      "ĠmÄĽk": 1899,
      "Ġuz": 1900,
      "ĠjinÃ©": 1901,
      "Ġtouhy": 1902,
      "Ġtan": 1903,
      "ĠÄįest": 1904,
      "Ġpev": 1905,
      "ĠnaÅ¡ich": 1906,
      "ĠY": 1907,
      "ĠcÃŃch": 1908,
      "stem": 1909,
      "Ġply": 1910,
      "ĠkdoÅ¾": 1911,
      "gi": 1912,
      "Ġchmu": 1913,
      "Ġhlubi": 1914,
      "dila": 1915,
      "Ġstud": 1916,
      "Ġtek": 1917,
      "Ġtakto": 1918,
      "ĠlÃ¡sce": 1919,
      "ĠsladkÃ©": 1920,
      "Ġcen": 1921,
      "skÃ©m": 1922,
      "skÃ½m": 1923,
      "Ġokem": 1924,
      "ÅĻela": 1925,
      "ABBAXX": 1926,
      "Ġnap": 1927,
      "ĠpÅĻÃŃro": 1928,
      "Ġdosud": 1929,
      "ĠÄįem": 1930,
      "tko": 1931,
      "Ġmilost": 1932,
      "ĠnocÃŃ": 1933,
      "Ġzvuk": 1934,
      "Ġoba": 1935,
      "Ġkmi": 1936,
      "Ġbohem": 1937,
      "Ġstru": 1938,
      "ĠÄįil": 1939,
      "Ġrov": 1940,
      "ĠmÄĽsÃŃc": 1941,
      "Ġbeze": 1942,
      "ĠvÅ¯nÄĽ": 1943,
      "ĠkrÃ¡snÃ©": 1944,
      "ĠzmÃŃ": 1945,
      "Ġsho": 1946,
      "ĠstÃ©": 1947,
      "roz": 1948,
      "ĠvÃ½Å¡e": 1949,
      "Ġvna": 1950,
      "ĠpÅ¯j": 1951,
      "Å¡ka": 1952,
      "Ġoku": 1953,
      "ĠtÄĽla": 1954,
      "bal": 1955,
      "ĠvÃ½m": 1956,
      "Ġznova": 1957,
      "leh": 1958,
      "ĠÅ¡ed": 1959,
      "Ġperu": 1960,
      "ĠslyÅ¡ÃŃ": 1961,
      "nila": 1962,
      "ĠsvÄĽtem": 1963,
      "Ġzap": 1964,
      "stech": 1965,
      "letÃŃ": 1966,
      "ĠprÅ¯": 1967,
      "Ġslov": 1968,
      "Ġcy": 1969,
      "ĠhnÃŃ": 1970,
      "rk": 1971,
      "ĠÄįasem": 1972,
      "sÃŃm": 1973,
      "roj": 1974,
      "Ġchvil": 1975,
      "ĠdÃ½ch": 1976,
      "ĠsedÃŃ": 1977,
      "teli": 1978,
      "ĠnesmÃŃ": 1979,
      "Ġned": 1980,
      "tÅĻe": 1981,
      "ĠpojÄı": 1982,
      "cela": 1983,
      "nÃ¡nÃŃ": 1984,
      "Ġzav": 1985,
      "Ġvody": 1986,
      "ĠnÃ¡d": 1987,
      "ĠrÃ½": 1988,
      "ĠkÅĻÃŃdla": 1989,
      "ĠhÅĻÃŃch": 1990,
      "ĠlÃŃce": 1991,
      "Ġkva": 1992,
      "Å¡nÄĽ": 1993,
      "Ġhej": 1994,
      "ĠmÃ©m": 1995,
      "ĠusmÃŃ": 1996,
      "ĠmyÅ¡len": 1997,
      "Ġvyz": 1998,
      "mÄĽl": 1999,
      "ĠvzdÃ¡": 2000,
      "novÃ©": 2001,
      "ĠvÄĽky": 2002,
      "Ġklam": 2003,
      "ĠjakÃ¡": 2004,
      "Ġpropa": 2005,
      "ĠhvÄĽzda": 2006,
      "ĠhoÅĻ": 2007,
      "ĠÅ¡li": 2008,
      "ĠpravÃŃ": 2009,
      "zni": 2010,
      "Ġrod": 2011,
      "ĠslyÅ¡e": 2012,
      "ABABAB": 2013,
      "Ġzvy": 2014,
      "Ġtisk": 2015,
      "cit": 2016,
      "kÃ¡m": 2017,
      "valo": 2018,
      "ĠcelÃ¡": 2019,
      "Ġdrob": 2020,
      "Ġobzo": 2021,
      "ĠnaÄį": 2022,
      "ĠvÃ¡l": 2023,
      "Ġtre": 2024,
      "Ġhloub": 2025,
      "Ġpta": 2026,
      "Ġsoud": 2027,
      "jel": 2028,
      "Ġpozdra": 2029,
      "kÃ¡nÃŃ": 2030,
      "ĠsÅ¯": 2031,
      "ĠjÃŃt": 2032,
      "ĠtÄĽm": 2033,
      "ĠkrvÃŃ": 2034,
      "Ġkterak": 2035,
      "ĠztrÃ¡": 2036,
      "lez": 2037,
      "Ġdomo": 2038,
      "Ġver": 2039,
      "AAXA": 2040,
      "Ġubo": 2041,
      "ĠlÃŃc": 2042,
      "Ġar": 2043,
      "ĠÄįele": 2044,
      "vol": 2045,
      "Ġmodlit": 2046,
      "ĠsnÄĽnÃŃ": 2047,
      "ĠzÃ¡vo": 2048,
      "ĠhnÄĽv": 2049,
      "chÃ½": 2050,
      "Ġnit": 2051,
      "ali": 2052,
      "Ġobje": 2053,
      "ĠtoÅ¾": 2054,
      "ĠmluvÃŃ": 2055,
      "ĠstarÃ¡": 2056,
      "ĠzaÅ¡": 2057,
      "Ġkole": 2058,
      "nÃ¡Å¡ÃŃ": 2059,
      "Ġfa": 2060,
      "Ġhlad": 2061,
      "AXXA": 2062,
      "klo": 2063,
      "ÅĻed": 2064,
      "Ġotro": 2065,
      "ĠtvÃ½m": 2066,
      "ĠmyslÃŃ": 2067,
      "Ġcesty": 2068,
      "hra": 2069,
      "Ġzti": 2070,
      "del": 2071,
      "ĠjinÃ½": 2072,
      "ĠÃºst": 2073,
      "ĠslavÃŃ": 2074,
      "Ġnost": 2075,
      "Ã½vÃ¡": 2076,
      "ĠzÃ¡pas": 2077,
      "ĠnevÃŃm": 2078,
      "ĠblaÅ¾en": 2079,
      "ĠskvÄĽ": 2080,
      "Ġmohu": 2081,
      "lila": 2082,
      "hlÃŃ": 2083,
      "ĠhleÄı": 2084,
      "Ġjedna": 2085,
      "rel": 2086,
      "hled": 2087,
      "ĠÅ¾ije": 2088,
      "Ġkterou": 2089,
      "ĠdlÃŃ": 2090,
      "Ġkdysi": 2091,
      "sen": 2092,
      "ĠmÄĽla": 2093,
      "Å¡ku": 2094,
      "Ġoblo": 2095,
      "ĠnÄĽco": 2096,
      "zrak": 2097,
      "ĠhÅĻe": 2098,
      "Ġslza": 2099,
      "ĠzÃ¡ÅĻe": 2100,
      "Ġvedle": 2101,
      "Ġcestou": 2102,
      "met": 2103,
      "zal": 2104,
      "ĠslÃ¡va": 2105,
      "ĠstÃ¡t": 2106,
      "Ġtouha": 2107,
      "ĠjÃŃÅ¾": 2108,
      "Ġpest": 2109,
      "Ġnelze": 2110,
      "BX": 2111,
      "ĠcÃŃtÃŃ": 2112,
      "Ġdosti": 2113,
      "ĠzboÅ¾": 2114,
      "nko": 2115,
      "kone": 2116,
      "Å¡t": 2117,
      "ĠbÃŃlÃ¡": 2118,
      "ĠplnÃ½": 2119,
      "ĠdÃŃvÃ¡": 2120,
      "Ġkmen": 2121,
      "ÅĻenÃŃ": 2122,
      "vati": 2123,
      "Å¾it": 2124,
      "Ġzal": 2125,
      "ujÃŃ": 2126,
      "Ġjara": 2127,
      "ĠvÅ¡echny": 2128,
      "on": 2129,
      "Å¾enÃŃ": 2130,
      "Ġdole": 2131,
      "Ġmatky": 2132,
      "ĠdÄĽc": 2133,
      "ĠsvÃ©mu": 2134,
      "ĠbouÅĻÃŃ": 2135,
      "ĠmladÃ½": 2136,
      "ĠskÃ¡ly": 2137,
      "Ġble": 2138,
      "ĠdÃ¡t": 2139,
      "Ġohni": 2140,
      "Ġvsta": 2141,
      "Ġslunci": 2142,
      "ĠmoÅĻi": 2143,
      "Ġvln": 2144,
      "ĠslÃŃ": 2145,
      "Ġkap": 2146,
      "mlu": 2147,
      "kro": 2148,
      "liÅ¡": 2149,
      "Ġdav": 2150,
      "Ġhodi": 2151,
      "ĠcÃŃsa": 2152,
      "ĠÄįela": 2153,
      "Ġhlasem": 2154,
      "rÃ¡til": 2155,
      "Ġdoma": 2156,
      "tÄĽl": 2157,
      "Ġ,": 2158,
      "Ġnaz": 2159,
      "Ġvez": 2160,
      "ĠvÄĽc": 2161,
      "ĠmnohÃ½": 2162,
      "XABB": 2163,
      "Ġstrach": 2164,
      "ĠtvÃ©m": 2165,
      "Ġhoch": 2166,
      "ĠrÃ¡j": 2167,
      "Ġhrobu": 2168,
      "Ġlep": 2169,
      "ĠbÄĽda": 2170,
      "ĠmojÃŃ": 2171,
      "ĠhlÃŃ": 2172,
      "dÄĽli": 2173,
      "ĠdvÃ©": 2174,
      "ĠtvÃ©ho": 2175,
      "nouti": 2176,
      "ĠÃºsta": 2177,
      "Ġcelou": 2178,
      "uj": 2179,
      "ĠnÃ©m": 2180,
      "kÅĻik": 2181,
      "ĠdruÅ¾": 2182,
      "koli": 2183,
      "Ġrozum": 2184,
      "Ġohe": 2185,
      "ckÃ½": 2186,
      "Ã¡ch": 2187,
      "Ġnohou": 2188,
      "ĠÅĻÃŃm": 2189,
      "ĠhlavÄĽ": 2190,
      "dr": 2191,
      "ĠdnÅ¯": 2192,
      "ĠjehoÅ¾": 2193,
      "ĠkaÅ¾dÃ¡": 2194,
      "tajÃŃ": 2195,
      "Ġminu": 2196,
      "ĠbyÅ¥": 2197,
      "Ġpravil": 2198,
      "Ġzpo": 2199,
      "dra": 2200,
      "ech": 2201,
      "ĠstÃŃnu": 2202,
      "ĠsladkÃ½": 2203,
      "in": 2204,
      "ĠuÄįi": 2205,
      "Ġokam": 2206,
      "ĠstromÅ¯": 2207,
      "Ġtrp": 2208,
      "str": 2209,
      "hÃ½ch": 2210,
      "ĠmuÅ¾i": 2211,
      "Ġmile": 2212,
      "Ġkraje": 2213,
      "ĠsvÄĽÅ¾ÃŃ": 2214,
      "Ġvzdy": 2215,
      "Ġtvrd": 2216,
      "ĠÄįÃ¡": 2217,
      "kala": 2218,
      "ĠoheÅĪ": 2219,
      "Ġramen": 2220,
      "dky": 2221,
      "Ġman": 2222,
      "Ġlil": 2223,
      "ĠdobrÃ©": 2224,
      "Å¡ek": 2225,
      "ĠdÃ¡lky": 2226,
      "ĠmÃ½": 2227,
      "Ġruky": 2228,
      "ĠplnÃ©": 2229,
      "ĠkrÃ¡snÃ¡": 2230,
      "Ġruch": 2231,
      "ĠÅĻÃŃci": 2232,
      "ĠklidnÄĽ": 2233,
      "ĠpÄĽt": 2234,
      "ĠhledÃ¡": 2235,
      "ĠhnÃŃz": 2236,
      "ĠloÄı": 2237,
      "ĠzatÃŃm": 2238,
      "vec": 2239,
      "Ġkonec": 2240,
      "ĠzdrÃ¡": 2241,
      "Ġsnu": 2242,
      "ÅĻo": 2243,
      "ĠdobrÃ½": 2244,
      "dajÃŃ": 2245,
      "ĠklÃŃn": 2246,
      "Ġrak": 2247,
      "vad": 2248,
      "Ġal": 2249,
      "Ġzam": 2250,
      "Ġspi": 2251,
      "Ġprosto": 2252,
      "Ġtako": 2253,
      "ĠkrÃ¡ÄįÃŃ": 2254,
      "spoÅĪ": 2255,
      "ĠjarnÃŃ": 2256,
      "Ġrok": 2257,
      "ĠtÃ©to": 2258,
      "ĠmladÃ©": 2259,
      "Ġskle": 2260,
      "Ġtmy": 2261,
      "ĠchÅ¯": 2262,
      "ÅĻÃ¡s": 2263,
      "Ġvlasy": 2264,
      "ĠrÃ¡no": 2265,
      "ĠnadÄĽje": 2266,
      "ĠkÃ©Å¾": 2267,
      "Ġvti": 2268,
      "ÅĻÃŃt": 2269,
      "ĠnaÅĪ": 2270,
      "Ġdobro": 2271,
      "Ġsmys": 2272,
      "ĠsÃŃla": 2273,
      "lnÃŃ": 2274,
      "Ġpry": 2275,
      "neÅ¡": 2276,
      "ĠvyÅ¡": 2277,
      "Äįet": 2278,
      "sed": 2279,
      "ĠlidskÃ©": 2280,
      "ĠchceÅ¡": 2281,
      "Ġstesk": 2282,
      "Ġjakby": 2283,
      "AAXB": 2284,
      "ĠdÃ¡vÃ¡": 2285,
      "sÅ¯": 2286,
      "Ġotce": 2287,
      "ĠvÄĽÄįnÃ©": 2288,
      "Ġhlo": 2289,
      "ĠstrÃ¡Å¾": 2290,
      "Ġrty": 2291,
      "lÃ©t": 2292,
      "ĠÄįt": 2293,
      "ĠÅĻad": 2294,
      "ek": 2295,
      "dala": 2296,
      "Å¡ky": 2297,
      "Å¡nÃ©": 2298,
      "Ġnebyl": 2299,
      "ĠkÃ¡men": 2300,
      "ĠmuÅ¾e": 2301,
      "dat": 2302,
      "ĠdrahÃ¡": 2303,
      "Ġrost": 2304,
      "ĠmÃ¡me": 2305,
      "Ġsud": 2306,
      "prv": 2307,
      "ĠnemÄĽ": 2308,
      "Ġpravda": 2309,
      "Ġspa": 2310,
      "Ġzro": 2311,
      "ĠlÃ©ta": 2312,
      "kali": 2313,
      "ĠslyÅ¡el": 2314,
      "ĠtichÃ©": 2315,
      "tom": 2316,
      "ĠvÄĽtr": 2317,
      "Ġsled": 2318,
      "Ġnade": 2319,
      "zeÅĪ": 2320,
      "ĠrÃ¡ny": 2321,
      "ĠmilÃ©": 2322,
      "ĠjichÅ¾": 2323,
      "Ġspou": 2324,
      "ĠtisÃŃce": 2325,
      "ĠoltÃ¡": 2326,
      "ĠpÃ©": 2327,
      "ĠrÃ¡z": 2328,
      "dej": 2329,
      "Ġbrzy": 2330,
      "Ġhem": 2331,
      "Ġcest": 2332,
      "hnu": 2333,
      "Å¡ÃŃch": 2334,
      "Ġstvo": 2335,
      "ĠÄįernÃ½": 2336,
      "Ġvztek": 2337,
      "Ġnekone": 2338,
      "ĠaspoÅĪ": 2339,
      "ĠÅ¾eh": 2340,
      "Äįin": 2341,
      "ĠrytÃŃ": 2342,
      "Ġradosti": 2343,
      "ĠjÃŃmÅ¾": 2344,
      "Ġkar": 2345,
      "ĠÅĻeÄįi": 2346,
      "ĠmalÃ½": 2347,
      "Ġasi": 2348,
      "van": 2349,
      "ĠdruhÃ½": 2350,
      "ĠÄįin": 2351,
      "ĠzÃŃtra": 2352,
      "Ġpodzi": 2353,
      "losti": 2354,
      "ĠdrahÃ©": 2355,
      "Ġhrom": 2356,
      "Ġtento": 2357,
      "ĠtichÃ½": 2358,
      "ĠcÃŃtÃŃm": 2359,
      "ĠrÅ¯Å¾ÃŃ": 2360,
      "mr": 2361,
      "ĠmotÃ½": 2362,
      "Ġjazy": 2363,
      "ĠdlouhÃ©": 2364,
      "mÃ½": 2365,
      "Ġblanky": 2366,
      "Ġjinak": 2367,
      "Ġrodi": 2368,
      "ĠpÅĻede": 2369,
      "cel": 2370,
      "Ġtry": 2371,
      "ĠÅĻekl": 2372,
      "ĠÄįet": 2373,
      "ĠzdÃ¡lo": 2374,
      "noucÃŃ": 2375,
      "Ġchle": 2376,
      "ĠmÃŃru": 2377,
      "Ġano": 2378,
      "Ġdoko": 2379,
      "Ġznovu": 2380,
      "Ġjdu": 2381,
      "Å¡te": 2382,
      "ĠpoÅ¾eh": 2383,
      "Ġpovz": 2384,
      "ĠpÅĻÃŃliÅ¡": 2385,
      "kaz": 2386,
      "Ġsrdcem": 2387,
      "ĠpovÃŃ": 2388,
      "Ġnak": 2389,
      "Ġstromy": 2390,
      "klÃ¡": 2391,
      "Ġzach": 2392,
      "Ġprapo": 2393,
      "Ġmoji": 2394,
      "Ġrek": 2395,
      "ĠÅ¾alo": 2396,
      "rÃ¡ch": 2397,
      "snÃ©": 2398,
      "el": 2399,
      "Ġhar": 2400,
      "ĠvÄĽkÅ¯": 2401,
      "rnÃ¡": 2402,
      "Ġroste": 2403,
      "Ġjmen": 2404,
      "ĠmrÃ¡z": 2405,
      "Ġboje": 2406,
      "Ġnil": 2407,
      "nami": 2408,
      "Ġhas": 2409,
      "ĠmÄĽsto": 2410,
      "ĠvÄĽtÅ¡ÃŃ": 2411,
      "Ġdarmo": 2412,
      "Ġhloubi": 2413,
      "sle": 2414,
      "Ġcesta": 2415,
      "ĠvÃŃru": 2416,
      "ĠdÃŃvka": 2417,
      "kat": 2418,
      "ĠdobÄĽ": 2419,
      "Ġjiz": 2420,
      "Ġzmat": 2421,
      "ÅĻila": 2422,
      "ĠkrÃ¡snÃ½": 2423,
      "Ġprachu": 2424,
      "ĠlesÅ¯": 2425,
      "Ġzhas": 2426,
      "Ġdny": 2427,
      "ĠchodÃŃ": 2428,
      "sel": 2429,
      "tele": 2430,
      "Ġsbor": 2431,
      "Ġklad": 2432,
      "ĠzÃ¡ko": 2433,
      "ĠkvÃŃtÃŃ": 2434,
      "bnÃŃ": 2435,
      "Ġpov": 2436,
      "Ġvede": 2437,
      "ĠbratÅĻÃŃ": 2438,
      "Ġcti": 2439,
      "ec": 2440,
      "Ġplach": 2441,
      "tnÄĽ": 2442,
      "ĠkrÃ¡li": 2443,
      "ĠdÄĽdi": 2444,
      "ĠpÃ¡r": 2445,
      "ĠpryÄį": 2446,
      "Äįkou": 2447,
      "Ġzrakem": 2448,
      "pÃ½": 2449,
      "ĠdruhÃ©": 2450,
      "ĠÅĻil": 2451,
      "rnÃŃ": 2452,
      "Ġstal": 2453,
      "Ġmilosti": 2454,
      "ĠmÅ¾i": 2455,
      "ĠkteÅĻÃŃ": 2456,
      "brÃ¡": 2457,
      "Ġchvat": 2458,
      "ÄįÃ¡": 2459,
      "tnÃ½": 2460,
      "ĠzÅ¯sta": 2461,
      "lÃ©ho": 2462,
      "Ġstaro": 2463,
      "Ġrej": 2464,
      "vÃŃrÃ¡": 2465,
      "Ġvzne": 2466,
      "Ġonen": 2467,
      "ĠÄįasu": 2468,
      "ÄįnÃ¡": 2469,
      "ĠblÃŃz": 2470,
      "ĠvaÅ¡i": 2471,
      "ĠcÃŃtil": 2472,
      "dÃ¡m": 2473,
      "Ġsest": 2474,
      "Ġsad": 2475,
      "ĠnedÃ¡": 2476,
      "ĠbÃ¡snÃŃ": 2477,
      "ĠknÃŃÅ¾e": 2478,
      "Ġklet": 2479,
      "Ġtruch": 2480,
      "Ġmilen": 2481,
      "mat": 2482,
      "ĠvÅ¡ÃŃm": 2483,
      "ĠÅ¡umÃŃ": 2484,
      "ĠchvÄĽje": 2485,
      "ĠmajÃŃ": 2486,
      "ĠbÅĻehu": 2487,
      "livÄĽ": 2488,
      "Ġhrudi": 2489,
      "Ġhost": 2490,
      "ĠtenkrÃ¡t": 2491,
      "es": 2492,
      "Ġlesa": 2493,
      "vej": 2494,
      "ĠpÅĻÃŃÅ¡tÃŃ": 2495,
      "ĠzvlÃ¡": 2496,
      "Ġzni": 2497,
      "ĠpÃŃsni": 2498,
      "Ġset": 2499,
      "ĠlÃŃb": 2500,
      "ĠlistÃŃ": 2501,
      "ĠpÃ¡ni": 2502,
      "Ġokna": 2503,
      "Ġjestli": 2504,
      "Ġscho": 2505,
      "ĠvzÃ¡c": 2506,
      "Ġdve": 2507,
      "ĠblÃ½": 2508,
      "ĠbudeÅ¡": 2509,
      "ÅĻek": 2510,
      "ĠsÃŃlu": 2511,
      "Ġposud": 2512,
      "Ġpln": 2513,
      "Ġspas": 2514,
      "ĠdlaÅĪ": 2515,
      "tost": 2516,
      "Ġmysl": 2517,
      "Ġduchu": 2518,
      "tÃ¡m": 2519,
      "nala": 2520,
      "mys": 2521,
      "ĠÄıÃ¡": 2522,
      "lku": 2523,
      "Ġleb": 2524,
      "ĠvÅ¯kol": 2525,
      "ĠslyÅ¡ÃŃm": 2526,
      "ĠrÅ¯Å¾o": 2527,
      "ĠnÃ¡ruÄį": 2528,
      "Ġtouhou": 2529,
      "bit": 2530,
      "kÅ¯m": 2531,
      "Ġsme": 2532,
      "chal": 2533,
      "XAXABB": 2534,
      "Ġvp": 2535,
      "ĠmalÃ©": 2536,
      "her": 2537,
      "Ġsnem": 2538,
      "Ġnesly": 2539,
      "Ġdum": 2540,
      "ĠrÃ¡zem": 2541,
      "ĠnemÅ¯": 2542,
      "ĠÅĪa": 2543,
      "snÃ½": 2544,
      "Ġviz": 2545,
      "ĠvÅ¡emi": 2546,
      "ĠrÅ¯z": 2547,
      "ĠkrÃ¡se": 2548,
      "ĠsplÃ½": 2549,
      "ĠskrÃ¡ÅĪ": 2550,
      "nd": 2551,
      "ĠÅ¡a": 2552,
      "Ġskvost": 2553,
      "Ġsten": 2554,
      "ĠkonÄĽ": 2555,
      "ĠvÅ¯le": 2556,
      "ĠÅĪader": 2557,
      "Å¡lo": 2558,
      "ĠzachvÄĽ": 2559,
      "ĠvalÃŃ": 2560,
      "ĠznÄĽl": 2561,
      "Ġsva": 2562,
      "Ġmni": 2563,
      "Ġznamen": 2564,
      "Ġzapla": 2565,
      "ĠkrÃ¡le": 2566,
      "ĠjasnÃ©": 2567,
      "ĠokamÅ¾i": 2568,
      "ck": 2569,
      "Ġlese": 2570,
      "ĠsvÄĽtu": 2571,
      "Ġlidstva": 2572,
      "stÃ¡vÃ¡": 2573,
      "Ġzoufal": 2574,
      "ĠĠĊ": 2575,
      "ĠvÄĽÄįnÃ½": 2576,
      "ĠrozkoÅ¡": 2577,
      "Ġsma": 2578,
      "ĠzapomnÄĽ": 2579,
      "Ġzasta": 2580,
      "ĠpÃ½ch": 2581,
      "Ġpravdu": 2582,
      "rom": 2583,
      "Ġvenku": 2584,
      "Ġnevin": 2585,
      "Äįila": 2586,
      "Ġrozm": 2587,
      "bÃ½": 2588,
      "Ġbudouc": 2589,
      "Ġkoste": 2590,
      "mÃ¡ch": 2591,
      "Ġzadu": 2592,
      "ĠklonÃŃ": 2593,
      "ĠjmÃ©no": 2594,
      "jal": 2595,
      "ĠsvatÃ¡": 2596,
      "ÅĻenÃ©": 2597,
      "ĠoÄįÃŃch": 2598,
      "ĠvÄĽÅĻ": 2599,
      "Ġnas": 2600,
      "Ġlidem": 2601,
      "ĠzÃ¡hy": 2602,
      "ĠovÅ¡em": 2603,
      "Ġpramen": 2604,
      "Ġnechce": 2605,
      "Ġchal": 2606,
      "ĠdÃŃm": 2607,
      "Ġpoe": 2608,
      "pÅ¯": 2609,
      "ĠcÃŃl": 2610,
      "ĠpÅĻiÅ¡la": 2611,
      "ĠtÄĽÅ¾kÃ©": 2612,
      "klad": 2613,
      "Ġfran": 2614,
      "ĠvÃ½Å¡i": 2615,
      "chÃ¡ze": 2616,
      "Ġztracen": 2617,
      "ĠkrÅ¯": 2618,
      "Ġdala": 2619,
      "ĠplÃ¡Äįe": 2620,
      "vin": 2621,
      "Ġzdi": 2622,
      "kajÃŃ": 2623,
      "ĠrÃ©": 2624,
      "man": 2625,
      "Ġpodzim": 2626,
      "penÃŃ": 2627,
      "jÃŃt": 2628,
      "ĠdÄĽtÃŃ": 2629,
      "ĠdÅ¯vÄĽ": 2630,
      "Å¾ka": 2631,
      "dÃ¡nÃŃ": 2632,
      "Ġsladce": 2633,
      "klÃŃ": 2634,
      "Ġchyt": 2635,
      "ĠtÃ³": 2636,
      "zÃŃm": 2637,
      "ĠstÅ¯": 2638,
      "ĠchtÃŃ": 2639,
      "nosÅ¥": 2640,
      "Äįnou": 2641,
      "Ġmohl": 2642,
      "nÃ©mu": 2643,
      "Ġhrou": 2644,
      "ĠmodrÃ©": 2645,
      "Ġchra": 2646,
      "Ġnohy": 2647,
      "Ġnim": 2648,
      "cet": 2649,
      "hli": 2650,
      "Ġur": 2651,
      "ĠbÅĻÃŃ": 2652,
      "Ġspra": 2653,
      "Ġpokoj": 2654,
      "dl": 2655,
      "ĠdrahÃ½": 2656,
      "ĠmizÃŃ": 2657,
      "ĠkrÃ¡sa": 2658,
      "Ġboku": 2659,
      "ĠzÃ¡m": 2660,
      "jÃŃch": 2661,
      "ĠrÃ¡da": 2662,
      "ĠsmutnÄĽ": 2663,
      "ĠdÄĽla": 2664,
      "Ġzvon": 2665,
      "ĠÅ¡le": 2666,
      "ĠchtÄĽla": 2667,
      "ju": 2668,
      "XXAABB": 2669,
      "stvo": 2670,
      "ĠvÄĽz": 2671,
      "Ġpas": 2672,
      "ĠmladÃ¡": 2673,
      "Ġnout": 2674,
      "ĠsvÃ½mi": 2675,
      "rnou": 2676,
      "Äįem": 2677,
      "vuje": 2678,
      "Ġkone": 2679,
      "Ġbojo": 2680,
      "Ġdomu": 2681,
      "ĠskÅĻi": 2682,
      "Ġodpu": 2683,
      "ĠstarÃ½ch": 2684,
      "ĠzvonÃŃ": 2685,
      "dka": 2686,
      "ĠjejÃŃm": 2687,
      "ĠsrdcÃŃ": 2688,
      "lÃŃÅ¾ÃŃ": 2689,
      "Ġhad": 2690,
      "Ġzba": 2691,
      "ĠhrobÄĽ": 2692,
      "Ġrozho": 2693,
      "Ġprsa": 2694,
      "ĠmoÅ¾no": 2695,
      "ĠÄįeskÃ©": 2696,
      "ĠbouÅĻi": 2697,
      "Ġzka": 2698,
      "Ġlek": 2699,
      "Å¡le": 2700,
      "vce": 2701,
      "Ġzcela": 2702,
      "ĠdÅĻÃŃve": 2703,
      "ĠÃºtÄĽ": 2704,
      "ĠvzplÃ¡": 2705,
      "Å¡nÃ½": 2706,
      "Ġlam": 2707,
      "ĠnepÅĻÃ¡": 2708,
      "vet": 2709,
      "Ġvrcho": 2710,
      "Ġkruh": 2711,
      "Ġpohle": 2712,
      "Ġjino": 2713,
      "Ġjeze": 2714,
      "rÃ¡m": 2715,
      "Ġtmou": 2716,
      "ĠmÃ¡j": 2717,
      "ĠstÃ¡la": 2718,
      "bito": 2719,
      "Äįej": 2720,
      "lnÄĽ": 2721,
      "ĠÅ¾Ã¡dnÃ½": 2722,
      "ĠÅ¾enu": 2723,
      "Ġvlo": 2724,
      "Ġhlaho": 2725,
      "et": 2726,
      "Ġpravdy": 2727,
      "ĠÅĻas": 2728,
      "ĠvelkÃ¡": 2729,
      "vod": 2730,
      "ĠnepÅĻÃŃ": 2731,
      "cnÄĽ": 2732,
      "Ġmdlo": 2733,
      "ĠzlatÃ¡": 2734,
      "ĠchvÄĽl": 2735,
      "Ġled": 2736,
      "Ġdlo": 2737,
      "ĠmraÄį": 2738,
      "ĠmusÃŃm": 2739,
      "ĠkaÅ¾dou": 2740,
      "nÃ¡Å¡e": 2741,
      "ĠzÃ¡zrak": 2742,
      "ĠdennÄĽ": 2743,
      "dek": 2744,
      "vÃ¡t": 2745,
      "ĠvÃ¡mi": 2746,
      "Ġbil": 2747,
      "Ġom": 2748,
      "Ġtvr": 2749,
      "Ġbro": 2750,
      "ĠmÄĽnÃŃ": 2751,
      "ĠodpovÄĽ": 2752,
      "Ġkrou": 2753,
      "ĠpevnÄĽ": 2754,
      "boj": 2755,
      "stva": 2756,
      "ĠÃºdo": 2757,
      "Ġklu": 2758,
      "ĠbÅĻeh": 2759,
      "Ġpsa": 2760,
      "ĠjedinÃ½": 2761,
      "go": 2762,
      "Ġnec": 2763,
      "Ġsmutek": 2764,
      "ĠkrÅ¯pÄĽ": 2765,
      "Ġjsa": 2766,
      "ĠtouÅ¾ÃŃ": 2767,
      "Ġstk": 2768,
      "ĠbÄĽÅ¾ÃŃ": 2769,
      "ĠstejnÄĽ": 2770,
      "bnÃ©": 2771,
      "ĠvÃ½cho": 2772,
      "sled": 2773,
      "ĠtÃŃÅ¾": 2774,
      "Ġplane": 2775,
      "jÃ¡": 2776,
      "kot": 2777,
      "ĠslÃ¡vÄĽ": 2778,
      "Ġjo": 2779,
      "pÄĽl": 2780,
      "ĠnÃŃz": 2781,
      "ĠzÅĻe": 2782,
      "ĠpÅĻÃ¡tel": 2783,
      "ĠjednÃ©": 2784,
      "ĠskÃ½": 2785,
      "ĠnepÅĻi": 2786,
      "ja": 2787,
      "deme": 2788,
      "Ġprost": 2789,
      "zvu": 2790,
      "Ġpotu": 2791,
      "Ġpaprsk": 2792,
      "Ġhvo": 2793,
      "ĠÅĻeÄįÃŃ": 2794,
      "Ġvle": 2795,
      "Ġbije": 2796,
      "Å¾ila": 2797,
      "Ġmlado": 2798,
      "Ġpodle": 2799,
      "hÃ½m": 2800,
      "Ġstran": 2801,
      "hÃ¡m": 2802,
      "ĠbudÃŃ": 2803,
      "Ġpoho": 2804,
      "Ġteprv": 2805,
      "Ġjednu": 2806,
      "mem": 2807,
      "Ġzhy": 2808,
      "ĠneboÅ¥": 2809,
      "Ġlze": 2810,
      "ĠpÃ½": 2811,
      "Ġhan": 2812,
      "Ġsilou": 2813,
      "vÅ¡": 2814,
      "Ġhez": 2815,
      "ĠkvÄĽti": 2816,
      "kra": 2817,
      "Ġtemno": 2818,
      "Ġkali": 2819,
      "Ġkus": 2820,
      "ĠtÅĻetÃŃ": 2821,
      "ĠsluÅ¾": 2822,
      "ĠvzneÅ¡en": 2823,
      "ĠÅ¡Ã¡": 2824,
      "rce": 2825,
      "ĠdÃ©m": 2826,
      "ĠslÃ¡vu": 2827,
      "ĠzemÃŃ": 2828,
      "dlÃŃ": 2829,
      "ĠzÃ¡pa": 2830,
      "ĠmÃŃti": 2831,
      "ĠspÃŃÅ¡": 2832,
      "lav": 2833,
      "Ġzlata": 2834,
      "ĠdlouhÃ½": 2835,
      "ĠhÅĻbito": 2836,
      "bnÄĽ": 2837,
      "ĠÄįerven": 2838,
      "ĠnoÄįnÃŃ": 2839,
      "vÃ½mi": 2840,
      "Ġpol": 2841,
      "Ġmraky": 2842,
      "Ġzapad": 2843,
      "Ġtrou": 2844,
      "Ġnebylo": 2845,
      "ĠrudÃ©": 2846,
      "nak": 2847,
      "Ġsluch": 2848,
      "rku": 2849,
      "ĠÄįlovÄĽka": 2850,
      "snÃŃ": 2851,
      "ĠtÄĽle": 2852,
      "ĠptÃ¡ci": 2853,
      "nÄĽl": 2854,
      "ĠstavÃŃ": 2855,
      "ĠÅ¾ÃŃti": 2856,
      "Ġkdos": 2857,
      "ĠmalÃ¡": 2858,
      "lenÃ©": 2859,
      "Ġsami": 2860,
      "Ġpodiv": 2861,
      "Ġrozk": 2862,
      "ĠdÅĻe": 2863,
      "ĠvracÃŃ": 2864,
      "Ġspole": 2865,
      "Ġporo": 2866,
      "Ġzbu": 2867,
      "jas": 2868,
      "rky": 2869,
      "Ġvlh": 2870,
      "ÅĻÅ¯": 2871,
      "ĠvÅ¯li": 2872,
      "ĠnenÃ¡": 2873,
      "Ġprud": 2874,
      "las": 2875,
      "ĠzÃ¡vi": 2876,
      "ĠbÃŃlÃ½ch": 2877,
      "jÅ¡ÃŃm": 2878,
      "Ġjimi": 2879,
      "kovÃ©": 2880,
      "Ġkrokem": 2881,
      "cÅ¯m": 2882,
      "Ġholu": 2883,
      "tor": 2884,
      "Ġin": 2885,
      "ĠlÃŃbÃ¡": 2886,
      "ĠmlÄįÃŃ": 2887,
      "Ġvstal": 2888,
      "chou": 2889,
      "Ġspad": 2890,
      "stÃŃm": 2891,
      "Ġvzpo": 2892,
      "ĠvÄįera": 2893,
      "stvÃŃm": 2894,
      "ĠrtÅ¯": 2895,
      "Ġnechci": 2896,
      "Ġtva": 2897,
      "ĠknÄĽz": 2898,
      "19": 2899,
      "Ġvstou": 2900,
      "Ġhnu": 2901,
      "ĠhÃ¡j": 2902,
      "Ġhudba": 2903,
      "bli": 2904,
      "Ġau": 2905,
      "ĠÅĻeky": 2906,
      "Ġzrc": 2907,
      "ĠÄįty": 2908,
      "Ġmoci": 2909,
      "ĠÃºzko": 2910,
      "ĠÅĻÃŃÅ¡": 2911,
      "Ġvesele": 2912,
      "liÄį": 2913,
      "ĠkÅĻÃŃd": 2914,
      "ĠsklÃ¡nÃŃ": 2915,
      "dÄĽnÃŃ": 2916,
      "Ġhod": 2917,
      "Ġkost": 2918,
      "Ġmati": 2919,
      "Å¾em": 2920,
      "jednou": 2921,
      "ĠvÃŃr": 2922,
      "ĠnadÅ¡en": 2923,
      "Ġjdi": 2924,
      "Ġoch": 2925,
      "Ġnepro": 2926,
      "ĠkvÄĽtu": 2927,
      "vili": 2928,
      "Ġjal": 2929,
      "Ġdvou": 2930,
      "Ġvzdor": 2931,
      "Ġteh": 2932,
      "ĠbohatÃ½": 2933,
      "kne": 2934,
      "ĠskÃ©": 2935,
      "ĠpÅ¯lno": 2936,
      "teÄį": 2937,
      "dÃ¡ch": 2938,
      "ĠÅĪadra": 2939,
      "ĠvÃ¡c": 2940,
      "dili": 2941,
      "ĠÅ¡edi": 2942,
      "Ġskon": 2943,
      "ĠbledÃ¡": 2944,
      "Ġstrany": 2945,
      "ĠprostÅĻe": 2946,
      "ĠmÄĽst": 2947,
      "ĠbÃ½vÃ¡": 2948,
      "AAAX": 2949,
      "zku": 2950,
      "Ġsoum": 2951,
      "tno": 2952,
      "ĠtÃ¡hne": 2953,
      "ĠnÄĽjak": 2954,
      "ĠknÄĽÅ¾": 2955,
      "Ġbit": 2956,
      "eni": 2957,
      "Ġslovem": 2958,
      "ĠchrÃ¡mu": 2959,
      "liv": 2960,
      "Ġnesou": 2961,
      "Ġhochu": 2962,
      "Ġpes": 2963,
      "Ġsyna": 2964,
      "Ġvar": 2965,
      "ĠÄįist": 2966,
      "Ġuna": 2967,
      "Ġzku": 2968,
      "Ġdni": 2969,
      "Ġzab": 2970,
      "ĠvyÅ¡el": 2971,
      "ĠzpÃ¡": 2972,
      "tev": 2973,
      "ĠrÃ¡je": 2974,
      "pit": 2975,
      "dnÃ½ch": 2976,
      "ĠzÃ¡stup": 2977,
      "Ġvoda": 2978,
      "hÃ¡nÃŃ": 2979,
      "Ġnejs": 2980,
      "hlÃ¡": 2981,
      "us": 2982,
      "Ġtal": 2983,
      "slo": 2984,
      "Ġvznes": 2985,
      "ĠÅ¡tÃŃt": 2986,
      "Ġhradu": 2987,
      "Ġzlatem": 2988,
      "Å¡nÃŃ": 2989,
      "ĠkrÃ¡su": 2990,
      "tÃ½ch": 2991,
      "Ġlili": 2992,
      "lÃ©z": 2993,
      "ĠzlatÃ½ch": 2994,
      "ĠobrÃ¡": 2995,
      "vice": 2996,
      "Ġhlasy": 2997,
      "tala": 2998,
      "bÃ©": 2999,
      "ĠÄįaro": 3000,
      "Ġblesky": 3001,
      "ĠsÃ½": 3002,
      "Ġzrcad": 3003,
      "ĠzvedÃ¡": 3004,
      "ĠzdÄĽ": 3005,
      "ĠvÅ¯nÃŃ": 3006,
      "Ġrtech": 3007,
      "ĠÄįeskÃ½": 3008,
      "Ġkyne": 3009,
      "Ġsic": 3010,
      "ĠpamÄĽ": 3011,
      "ĠnÄĽkdo": 3012,
      "Ġzmo": 3013,
      "bnÃ½": 3014,
      "dali": 3015,
      "Ġnaslou": 3016,
      "ĠÅĻÃŃÅ¡e": 3017,
      "Ġhosti": 3018,
      "Ġnovou": 3019,
      "Ġblaha": 3020,
      "Ġklidu": 3021,
      "kÃ©ho": 3022,
      "Å¾Å¡ÃŃ": 3023,
      "ÅĻÃŃk": 3024,
      "ĠblÃŃÅ¾ÃŃ": 3025,
      "Ġide": 3026,
      "ĠlkÃ¡": 3027,
      "Ġmech": 3028,
      "Å¾enÃ©": 3029,
      "?!": 3030,
      "ĠsrÃ¡": 3031,
      "ĠÄįÃŃÅ¡": 3032,
      "Ġzle": 3033,
      "Ġchod": 3034,
      "sit": 3035,
      "raz": 3036,
      "ĠsmutnÃ©": 3037,
      "Å¡Å¥ast": 3038,
      "hly": 3039,
      "Ġkmet": 3040,
      "ĠpodÃ¡": 3041,
      "ĠbÃŃlou": 3042,
      "ĠdÃ¡lku": 3043,
      "ĠnÃ¡ch": 3044,
      "dÃŃÅ¡": 3045,
      "Ġjab": 3046,
      "jeÅ¡": 3047,
      "Ġtato": 3048,
      "Ġmlha": 3049,
      "jÃŃce": 3050,
      "Ġvypra": 3051,
      "Ġseve": 3052,
      "enÃ¡": 3053,
      "tvo": 3054,
      "Ġabych": 3055,
      "Ġkroky": 3056,
      "pem": 3057,
      "slu": 3058,
      "Ġnoha": 3059,
      "Ġdnem": 3060,
      "ĠvroucÃŃ": 3061,
      "bÅ¯": 3062,
      "ĠvÄĽn": 3063,
      "Ġposlou": 3064,
      "ĠpÅĻÃŃÅ¡e": 3065,
      "dku": 3066,
      "Ġkomu": 3067,
      "ĠpotÄĽ": 3068,
      "Ġpope": 3069,
      "domÃŃ": 3070,
      "ĠcestÄĽ": 3071,
      "Ġmrtvo": 3072,
      "ĠtÅĻÃ¡s": 3073,
      "ĠvisÃŃ": 3074,
      "Ġobli": 3075,
      "Ġvze": 3076,
      "ĠÃºsmÄĽvem": 3077,
      "Ġnebude": 3078,
      "Äįo": 3079,
      "Ġprobu": 3080,
      "ĠzÅĻÃŃt": 3081,
      "Ġvin": 3082,
      "ĠmÃŃsta": 3083,
      "Ġdali": 3084,
      "ĠcÃŃsaÅĻ": 3085,
      "lky": 3086,
      "ten": 3087,
      "ĠÄįasy": 3088,
      "ĠotÄįe": 3089,
      "ĠmrtvÃ©": 3090,
      "Ġznal": 3091,
      "vÄĽl": 3092,
      "ĠdÃ¡lce": 3093,
      "Ġpoc": 3094,
      "ĠzprÃ¡": 3095,
      "lka": 3096,
      "vÄĽd": 3097,
      "Ġpen": 3098,
      "ĠkÅĻik": 3099,
      "ĠpsÃ¡": 3100,
      "ĠmÄĽli": 3101,
      "Ġjit": 3102,
      "Ġpode": 3103,
      "vanÃ©": 3104,
      "ĠvÃŃry": 3105,
      "Ġplno": 3106,
      "Ġvola": 3107,
      "zna": 3108,
      "ĠvonÃŃ": 3109,
      "Ġvytr": 3110,
      "ĠblÃŃÅ¾e": 3111,
      "Ġtvor": 3112,
      "ĠskÅĻÃŃ": 3113,
      "ĠkÅĻesÅ¥": 3114,
      "ĠmyslÃŃm": 3115,
      "hÃ©m": 3116,
      "Ġluz": 3117,
      "ĠsmÃŃchu": 3118,
      "ĠpÃ¡nÄĽ": 3119,
      "rej": 3120,
      "ĠzvÄĽst": 3121,
      "ĠopuÅ¡tÄĽ": 3122,
      "ABXB": 3123,
      "nÄĽn": 3124,
      "Ġchlu": 3125,
      "Ġuvi": 3126,
      "ĠtÄĽÅ¾kÃ½": 3127,
      "ĠotÃ¡": 3128,
      "Ġtuto": 3129,
      "tÃ¡n": 3130,
      "ĠtvojÃŃ": 3131,
      "ĠhÅĻmÃŃ": 3132,
      "ĠvÃ¡Å¡nÃŃ": 3133,
      "Ġbyst": 3134,
      "ĠobjetÃŃ": 3135,
      "fi": 3136,
      "ĠtoÄįÃŃ": 3137,
      "XXAAXX": 3138,
      "Ġskr": 3139,
      "Ġzat": 3140,
      "nÄĽnÃŃ": 3141,
      "ĠjasnÃ½": 3142,
      "ĠnenÃ¡vi": 3143,
      "ĠsladkÃ¡": 3144,
      "ABABAX": 3145,
      "ĠandÄĽ": 3146,
      "nitÅĻ": 3147,
      "ĠÅ¡lech": 3148,
      "hnou": 3149,
      "ĠvidÄĽt": 3150,
      "ĠvÅĻa": 3151,
      "lenÃ½": 3152,
      "ĠnovÃ¡": 3153,
      "Ġpolib": 3154,
      "ĠslyÅ¡et": 3155,
      "ĠjevÃŃ": 3156,
      "ĠjinÃ½ch": 3157,
      "Ġsynu": 3158,
      "Ġrozu": 3159,
      "ĠklesÃ¡": 3160,
      "Ġbolesti": 3161,
      "ĠvdÄĽk": 3162,
      "ĠÅ¾ene": 3163,
      "Ġmlhy": 3164,
      "ĠkolÃ©b": 3165,
      "Ġkmit": 3166,
      "ĠvÃŃte": 3167,
      "Å¡it": 3168,
      "Ġkonce": 3169,
      "ĠÄįernÃ½ch": 3170,
      "Ġkolo": 3171,
      "Ġmilu": 3172,
      "Ġsvato": 3173,
      "Ġjat": 3174,
      "Ġvelkou": 3175,
      "Ġcizi": 3176,
      "ĠlÃŃto": 3177,
      "ĠohnÄĽm": 3178,
      "Ġsoumrak": 3179,
      "ctvÃŃ": 3180,
      "Ġsnes": 3181,
      "Ġpoch": 3182,
      "Ġlehce": 3183,
      "Ġvsi": 3184,
      "ĠnadÅ¡enÃŃ": 3185,
      "Ġdoba": 3186,
      "Ġroj": 3187,
      "ĠpÃ¡na": 3188,
      "Ġbohy": 3189,
      "Ġstav": 3190,
      "Ġstalo": 3191,
      "ĠvÅ¡a": 3192,
      "Ġluh": 3193,
      "ĠbledÃ©": 3194,
      "Ġjakoby": 3195,
      "Ġtichou": 3196,
      "ĠotcÅ¯": 3197,
      "ĠkoÅĻi": 3198,
      "Ġdokud": 3199,
      "ĠcÃŃrk": 3200,
      "ĠlÃŃci": 3201,
      "Äįer": 3202,
      "ĠhuÄįÃŃ": 3203,
      "ĠstÃ½": 3204,
      "ĠÄįernÃ¡": 3205,
      "livÃ½": 3206,
      "Ġhora": 3207,
      "Ġkl": 3208,
      "ĠkoÅĻen": 3209,
      "Ġvzduchu": 3210,
      "ĠpatÅĻÃŃ": 3211,
      "Ġslz": 3212,
      "ĠmnohÃ©": 3213,
      "Ġutr": 3214,
      "diÅ¾": 3215,
      "ĠlepÅ¡ÃŃ": 3216,
      "rka": 3217,
      "Ġvad": 3218,
      "ĠzlÃŃ": 3219,
      "Ġtk": 3220,
      "ĠtemnÃ©": 3221,
      "Ġtel": 3222,
      "ĠhrÅ¯zou": 3223,
      "Ġdaleko": 3224,
      "Ġproro": 3225,
      "Ġzlatou": 3226,
      "Ġhrdi": 3227,
      "hlu": 3228,
      "tvÃ¡": 3229,
      "XXABBA": 3230,
      "ĠsmÄĽle": 3231,
      "ĠvÅ¡emu": 3232,
      "ĠzpÃ¡tky": 3233,
      "Ġpoled": 3234,
      "pro": 3235,
      "ĠstaÅĻe": 3236,
      "AAXBBX": 3237,
      "ĠnejvÃŃ": 3238,
      "ĠveÅ¡": 3239,
      "ĠzÃŃrÃ¡": 3240,
      "Ġvrah": 3241,
      "ĠtichÃ¡": 3242,
      "ĠvraÅ¾": 3243,
      "ĠcÃ½": 3244,
      "ĠmÄĽj": 3245,
      "ĠtÃ¡bo": 3246,
      "ĠrannÃŃ": 3247,
      "Ġzpu": 3248,
      "ĠjasnÄĽ": 3249,
      "ĠnavÅ¾dy": 3250,
      "Ġbleskem": 3251,
      "hnÄĽ": 3252,
      "ĠdÄĽvÄįe": 3253,
      "Ġcosi": 3254,
      "ĠrÅ¯Å¾i": 3255,
      "chÅ¯": 3256,
      "ĠvÄĽci": 3257,
      "ĠpÅĻÃŃtel": 3258,
      "cÃ½": 3259,
      "Ġdouf": 3260,
      "ĠdobrÃ¡": 3261,
      "Ġctnost": 3262,
      "Ġztich": 3263,
      "Ġej": 3264,
      "ĠdÄĽje": 3265,
      "bem": 3266,
      "XXXAXA": 3267,
      "ĠdÃŃk": 3268,
      "cenÃŃ": 3269,
      "Ġtichu": 3270,
      "Ġkdesi": 3271,
      "Ġmed": 3272,
      "Ġchcem": 3273,
      "ĠÄįistÃ©": 3274,
      "ĠchlÃ©b": 3275,
      "kojen": 3276,
      "ĠÅĻekla": 3277,
      "ĠzdravÃŃ": 3278,
      "ĠzlÃ½": 3279,
      "ĠloÅ¾e": 3280,
      "Ġtlo": 3281,
      "Ġlev": 3282,
      "jÃŃmÃ¡": 3283,
      "Ġmatko": 3284,
      "lovÃ©": 3285,
      "han": 3286,
      "ĠpoÄįÃŃ": 3287,
      "Ġneroz": 3288,
      "ĠsmutnÃ½": 3289,
      "zra": 3290,
      "nikÃ¡": 3291,
      "ĠvÅ¡ecka": 3292,
      "ĠvolnÄĽ": 3293,
      "ĠvÃŃno": 3294,
      "Å¾enÃ½": 3295,
      "ĠÃºÅ¾": 3296,
      "Ġjel": 3297,
      "Ġosla": 3298,
      "Ġsnil": 3299,
      "Å¡to": 3300,
      "Ġmluvil": 3301,
      "Ġlidstvo": 3302,
      "Ġsmutku": 3303,
      "Ġpomoc": 3304,
      "Ġraj": 3305,
      "ĠÅĻÃ¡d": 3306,
      "Ġpochy": 3307,
      "Ġletu": 3308,
      "ĠkvÄĽtem": 3309,
      "Ġnikde": 3310,
      "ĠzlÃ©": 3311,
      "ĠpÅĻedu": 3312,
      "bÃ¡ch": 3313,
      "ĠtÄĽÅ¾ce": 3314,
      "ĠmrtvÃ½ch": 3315,
      "ÅĪte": 3316,
      "ĠrÃ¡nu": 3317,
      "hajÃŃ": 3318,
      "ĠohnÄĽ": 3319,
      "ĠpÅ¯va": 3320,
      "stupu": 3321,
      "Ġzdali": 3322,
      "Ġoblak": 3323,
      "tkem": 3324,
      "nali": 3325,
      "Ġdechem": 3326,
      "bel": 3327,
      "cenÃ©": 3328,
      "Ġzim": 3329,
      "ga": 3330,
      "rnÃ½ch": 3331,
      "rat": 3332,
      "padÃ¡": 3333,
      "ĠdÃŃvky": 3334,
      "dli": 3335,
      "ĠzÃ¡pad": 3336,
      "Ġbolu": 3337,
      "ĠjimÅ¾": 3338,
      "ĠpromÄĽ": 3339,
      "Äįiny": 3340,
      "ĠÅ¡iro": 3341,
      "Ġosa": 3342,
      "ĠvÅ¡ÃŃ": 3343,
      "ĠplÃ©": 3344,
      "ĠbratÅĻi": 3345,
      "ĠbÃ¡snÃŃk": 3346,
      "ĠmlÃ½": 3347,
      "Ġsluncem": 3348,
      "ĠvyprÃ¡": 3349,
      "Å¡o": 3350,
      "stat": 3351,
      "Ġunaven": 3352,
      "ĠhledÄĽl": 3353,
      "ĠrytÃŃÅĻ": 3354,
      "tÃ¡nÃŃ": 3355,
      "Äįa": 3356,
      "ĠvrÃ¡tÃŃ": 3357,
      "krÃ¡s": 3358,
      "Ġprahu": 3359,
      "ĠbÃ½val": 3360,
      "Ġkom": 3361,
      "ĠhÃ©": 3362,
      "Ġjeli": 3363,
      "Ġjakou": 3364,
      "chÃ©": 3365,
      "kovi": 3366,
      "ĠpamÃ¡": 3367,
      "ĠbÃ¡j": 3368,
      "lk": 3369,
      "Å¾nÃ©": 3370,
      "Ġkvetou": 3371,
      "ĠnÃ¡dher": 3372,
      "alu": 3373,
      "ĠmÃ¡te": 3374,
      "ĠbÄĽd": 3375,
      "ĠbloudÃŃ": 3376,
      "Å¾ky": 3377,
      "ĠneznÃ¡": 3378,
      "ĠsmÃ¡l": 3379,
      "Ġvet": 3380,
      "Ġvzpla": 3381,
      "Ġslune": 3382,
      "ĠhrdÄĽ": 3383,
      "Ġvzde": 3384,
      "ĠdÃŃlo": 3385,
      "ĠlÃŃp": 3386,
      "Ġvnu": 3387,
      "ĠnÃŃk": 3388,
      "XABAB": 3389,
      "Ġono": 3390,
      "ĠnemÄĽl": 3391,
      "zky": 3392,
      "ĠvÄĽÅĻÃŃ": 3393,
      "ĠtÅĻese": 3394,
      "ĠÅ¾as": 3395,
      "ĠdÅĻÃŃmÃ¡": 3396,
      "Ġnevz": 3397,
      "nÃŃkÅ¯": 3398,
      "Ġzraku": 3399,
      "nt": 3400,
      "ĠumÄĽnÃŃ": 3401,
      "Ġvlna": 3402,
      "ĠstÄĽny": 3403,
      "Ġstez": 3404,
      "stro": 3405,
      "Ġnaposled": 3406,
      "Ġznak": 3407,
      "Ġoce": 3408,
      "Ġsvatou": 3409,
      "ĠmocnÄĽ": 3410,
      "ĠzbraÅĪ": 3411,
      "ĠlidskÃ½": 3412,
      "zuje": 3413,
      "ĠbledÃ½": 3414,
      "udu": 3415,
      "ĠÅ¡ÃŃm": 3416,
      "Ġnitru": 3417,
      "ĠprovÃ¡": 3418,
      "ĠprosÃŃm": 3419,
      "ĠdÄĽcko": 3420,
      "ĠnemÅ¯Å¾e": 3421,
      "ĠcÃŃm": 3422,
      "ĠhalÃŃ": 3423,
      "rek": 3424,
      "ĠplÃ¡po": 3425,
      "Ġkouzel": 3426,
      "ĠÅĪadrech": 3427,
      "ĠÅ¾ebrÃ¡": 3428,
      "ĠpÅĻÃŃsa": 3429,
      "ĠvÅ¯ni": 3430,
      "ĠÅ¾enou": 3431,
      "Ġhluk": 3432,
      "Ġmatce": 3433,
      "nkou": 3434,
      "Ġdl": 3435,
      "ĠmÅĻÃŃ": 3436,
      "skem": 3437,
      "ĠrokÅ¯": 3438,
      "Ġjindy": 3439,
      "Ġca": 3440,
      "Ġnal": 3441,
      "Ġmaje": 3442,
      "Ġzvuky": 3443,
      "Ġostat": 3444,
      "pÄĽt": 3445,
      "Ġsvad": 3446,
      "nuly": 3447,
      "Ġdraho": 3448,
      "ĠkaÅ¾dÃ©m": 3449,
      "Ġrad": 3450,
      "vÃ¡ch": 3451,
      "Ġluny": 3452,
      "ĠnepÅĻe": 3453,
      "Ġzor": 3454,
      "ĠvaÅ¡ÃŃ": 3455,
      "Ġvelko": 3456,
      "nÅ¯m": 3457,
      "Ġhlav": 3458,
      "ĠradostÃŃ": 3459,
      "tat": 3460,
      "Ġplna": 3461,
      "ĠmlÄįky": 3462,
      "ĠtÄĽl": 3463,
      "Ġpanen": 3464,
      "ĠleÅ¾": 3465,
      "vÃ¡Å¡": 3466,
      "Ġnajde": 3467,
      "Ġjitra": 3468,
      "Ġvyvo": 3469,
      "Ġstane": 3470,
      "Ġber": 3471,
      "ĠdÃ½Å¡e": 3472,
      "Ġslovy": 3473,
      "ÅĪat": 3474,
      "ĠtÄĽÅ¾ko": 3475,
      "Ġvzduchem": 3476,
      "ĠklÃ¡Å¡te": 3477,
      "Ġpouta": 3478,
      "Ġzhou": 3479,
      "Ġmimo": 3480,
      "Ġmodra": 3481,
      "Äįkem": 3482,
      "Ġzar": 3483,
      "Ġneod": 3484,
      "ĠumÃŃrÃ¡": 3485,
      "Ġnero": 3486,
      "tili": 3487,
      "ĠvÃŃra": 3488,
      "Ġral": 3489,
      "ĠseÅĪ": 3490,
      "Ġbod": 3491,
      "ĠtemnÄĽ": 3492,
      "ĠpoznÃ¡": 3493,
      "Ġnach": 3494,
      "ĠsbÃŃ": 3495,
      "slav": 3496,
      "ĠupomÃŃ": 3497,
      "ĠjÃŃc": 3498,
      "ĠpÄĽknÄĽ": 3499,
      "voucÃŃ": 3500,
      "Ġopat": 3501,
      "sÃŃch": 3502,
      "ĠÅ¾Ã¡dnÃ©": 3503,
      "Ġstarou": 3504,
      "ĠtmavÃ©": 3505,
      "Ġdlu": 3506,
      "rÃ¡tÃŃ": 3507,
      "ĠuÅ¡": 3508,
      "Ġsladkou": 3509,
      "Ġspanil": 3510,
      "tnÃ¡": 3511,
      "Ġkoho": 3512,
      "ĠmocÃŃ": 3513,
      "ĠptÃ¡Äįe": 3514,
      "Ġzdvih": 3515,
      "ĠkoneÄįnÄĽ": 3516,
      "ĠpoÅ¾Ã¡": 3517,
      "Ġodkud": 3518,
      "Ġprst": 3519,
      "Ġlidi": 3520,
      "Ġvs": 3521,
      "Ġlodi": 3522,
      "Ġhraje": 3523,
      "ĠsmÄĽje": 3524,
      "ĠnaÅ¡el": 3525,
      "Ġprob": 3526,
      "ĠpozdÄĽ": 3527,
      "Äıte": 3528,
      "Ġvej": 3529,
      "ÄįnÃ½ch": 3530,
      "ĠnovÃ½ch": 3531,
      "ĠhrÃ¡l": 3532,
      "Ġhorou": 3533,
      "bec": 3534,
      "ĠbohÅ¯": 3535,
      "Ġklas": 3536,
      "ovÃ©": 3537,
      "vci": 3538,
      "ĠsvÄĽty": 3539,
      "chom": 3540,
      "Ġvelmi": 3541,
      "ĠvelikÃ½": 3542,
      "Ġane": 3543,
      "ĠÅĻem": 3544,
      "tnou": 3545,
      "ĠneÅ¡Å¥ast": 3546,
      "Ġdok": 3547,
      "Ġnebem": 3548,
      "ĠdÃŃvÄįÃŃ": 3549,
      "ĠhnÃ¡": 3550,
      "Ġkade": 3551,
      "vel": 3552,
      "ĠpÄĽl": 3553,
      "Ġchleba": 3554,
      "Ġbral": 3555,
      "ĠsnÄĽhu": 3556,
      "ĠztrÃ¡cÃŃ": 3557,
      "udil": 3558,
      "ĠjinÃŃ": 3559,
      "Ġplod": 3560,
      "ĠcitÅ¯": 3561,
      "kry": 3562,
      "blÃŃ": 3563,
      "ĠÄįel": 3564,
      "ĠpohÅĻ": 3565,
      "Ġstuden": 3566,
      "ĠÅ¾a": 3567,
      "Ġdro": 3568,
      "ĠbudiÅ¾": 3569,
      "peÅ¾": 3570,
      "ĠÅ¾ivotem": 3571,
      "Ġpoznal": 3572,
      "bila": 3573,
      "Ġskoro": 3574,
      "Ġbarev": 3575,
      "Ġneho": 3576,
      "ĠsÃŃÅĪ": 3577,
      "ĠvÃ¡Å¡nÄĽ": 3578,
      "Ġjazyk": 3579,
      "Ġchas": 3580,
      "nilo": 3581,
      "ÃŃme": 3582,
      "ĠvÃŃna": 3583,
      "ÅĻenÃ½": 3584,
      "ckÃ½ch": 3585,
      "Ã¡l": 3586,
      "hlÃ½": 3587,
      "ĠvrÃ¡til": 3588,
      "nese": 3589,
      "ĠpÅĻÃ¡nÃŃ": 3590,
      "ĠchÃ½lÃŃ": 3591,
      "Ġsnech": 3592,
      "ĠdnÃŃ": 3593,
      "ĠpoÅĻÃ¡": 3594,
      "Ġpoesi": 3595,
      "Ġcem": 3596,
      "ĠplÃ¡Å¡Å¥": 3597,
      "ĠdivnÃ©": 3598,
      "pila": 3599,
      "ĠmladÃŃ": 3600,
      "ĠvÃ©m": 3601,
      "Ġkos": 3602,
      "ĠvÄĽÅ¾e": 3603,
      "Ġpano": 3604,
      "ĠlesnÃŃ": 3605,
      "Ġbrou": 3606,
      "livÃ©": 3607,
      "Ġklen": 3608,
      "ĠdÃ¡ti": 3609,
      "ĠprÃ¡vo": 3610,
      "Ġzvony": 3611,
      "ĠdivÃ½": 3612,
      "ĠsmÄĽs": 3613,
      "Ġlesem": 3614,
      "ĠnÄĽkde": 3615,
      "Ġhroby": 3616,
      "ĠsvÄĽtÅ¯": 3617,
      "Ġpromlu": 3618,
      "Ġnesmr": 3619,
      "ĠplÃ¡l": 3620,
      "Ġpust": 3621,
      "Ġnemoc": 3622,
      "ĠzÃ¡vra": 3623,
      "kÃ¡n": 3624,
      "ĠposmÄĽ": 3625,
      "ĠhorÃ¡ch": 3626,
      "Ġmatku": 3627,
      "ĠveÄįera": 3628,
      "ĠzlÃ¡": 3629,
      "Ġhon": 3630,
      "Ġstranou": 3631,
      "ABC": 3632,
      "ĠplÃ¡Äįi": 3633,
      "Ġozdo": 3634,
      "viti": 3635,
      "vyÅ¡": 3636,
      "ĠmeÄįem": 3637,
      "ĠcÅ¯": 3638,
      "ckni": 3639,
      "Ġspraved": 3640,
      "ĠdÄĽji": 3641,
      "ĠtvÅ¯": 3642,
      "ĠslavnÃ½": 3643,
      "ĠpÅĻipra": 3644,
      "ĠvÅ¡ickni": 3645,
      "tÅĻÃŃ": 3646,
      "Ġzkou": 3647,
      "Ġmili": 3648,
      "ĠvÄĽÄįnosti": 3649,
      "Ġmari": 3650,
      "Ġholubi": 3651,
      "jme": 3652,
      "Ġoken": 3653,
      "ĠÄįnÃŃ": 3654,
      "Ġdom": 3655,
      "Ġrci": 3656,
      "covÃ©": 3657,
      "ĠÃºÅ¾as": 3658,
      "ĠjÃŃti": 3659,
      "Å¾ÃŃÅ¡": 3660,
      "bek": 3661,
      "Ġjan": 3662,
      "cenÃ½": 3663,
      "Ġvichr": 3664,
      "Ġmate": 3665,
      "ĠvidÃŃÅ¡": 3666,
      "Ġpozdrav": 3667,
      "hnul": 3668,
      "ĠÅĪÃ¡": 3669,
      "ĠnnÃ©": 3670,
      "zek": 3671,
      "ĠvÄĽtru": 3672,
      "Ġdobu": 3673,
      "ĠbolÃŃ": 3674,
      "ĠnemÃ¡m": 3675,
      "ĠtajemstvÃŃ": 3676,
      "mek": 3677,
      "Ġdavy": 3678,
      "gu": 3679,
      "Å¾nÄĽ": 3680,
      "ĠnechÃ¡": 3681,
      "Ġotci": 3682,
      "ĠmlÃ¡d": 3683,
      "ĠschvÃ¡": 3684,
      "ĠpravÃ½": 3685,
      "Ġdruhdy": 3686,
      "XABABX": 3687,
      "Å¾nÃ½": 3688,
      "ĠukÃ¡": 3689,
      "Ġprv": 3690,
      "Å¡enÃ©": 3691,
      "ĠhrÅ¯zy": 3692,
      "ĠzpÃŃval": 3693,
      "Ġukry": 3694,
      "hlo": 3695,
      "ĠsmrtÃŃ": 3696,
      "ĠvojÃ¡": 3697,
      "ĠÅ¡pat": 3698,
      "ĠkaÅ¾dÃ½m": 3699,
      "ĠvÄĽtvÃŃ": 3700,
      "udy": 3701,
      "Ġmrou": 3702,
      "ĠvzÃŃ": 3703,
      "Ġstem": 3704,
      "ĠmÄĽstÄĽ": 3705,
      "ĠvelkÃ½m": 3706,
      "Ġhym": 3707,
      "dÃ©": 3708,
      "nÄĽch": 3709,
      "dÃ¡l": 3710,
      "ĠsÃŃm": 3711,
      "telÃ©": 3712,
      "ĠkÅĻÃŃÅ¾e": 3713,
      "rajÃŃ": 3714,
      "ĠÅĻeka": 3715,
      "ĠrudÃ½": 3716,
      "ĠtÃŃÅ¾ÃŃ": 3717,
      "has": 3718,
      "Ġplnou": 3719,
      "Ġmusil": 3720,
      "ĠdÄĽj": 3721,
      "ÅĻad": 3722,
      "ĠmeÄįe": 3723,
      "Ġzima": 3724,
      "Ġobzor": 3725,
      "Ġvzru": 3726,
      "Ġprudce": 3727,
      "ĠvÅ¡ady": 3728,
      "benÃŃ": 3729,
      "nuv": 3730,
      "Ġkdybych": 3731,
      "kva": 3732,
      "Ġmramo": 3733,
      "Ġbudem": 3734,
      "ĠstÃŃnÅ¯": 3735,
      "kej": 3736,
      "vosti": 3737,
      "stej": 3738,
      "Ġfan": 3739,
      "ĠusmÃ¡": 3740,
      "Ġpoklad": 3741,
      "ezpe": 3742,
      "ĠsnÃ¡ch": 3743,
      "lej": 3744,
      "Ġspu": 3745,
      "ĠmÃ©mu": 3746,
      "Ġproudy": 3747,
      "Ġdceru": 3748,
      "ĠÃºt": 3749,
      "ĠtmÄĽ": 3750,
      "Ġnejsem": 3751,
      "Ġdlouhou": 3752,
      "ĠposlÃ©z": 3753,
      "Ġlisty": 3754,
      "Ġkristu": 3755,
      "Ġhmo": 3756,
      "ĠÃºdolÃŃ": 3757,
      "Ġchou": 3758,
      "Ġvine": 3759,
      "ĠoÄįima": 3760,
      "vÅ¡ak": 3761,
      "ĠnepÅĻÃ¡tel": 3762,
      "bro": 3763,
      "ĠtmÃ¡ch": 3764,
      "ĠstÅ¯j": 3765,
      "ĠzkÃ¡": 3766,
      "ĠhrÃ¡t": 3767,
      "ĠpÃ¡lÃŃ": 3768,
      "ĠtrÅ¯n": 3769,
      "ĠpodÃŃ": 3770,
      "ĠnÃ¡ruÄįÃŃ": 3771,
      "ĠnosÃŃ": 3772,
      "Ġkryje": 3773,
      "Ġstolu": 3774,
      "hnout": 3775,
      "ĠvÄĽnec": 3776,
      "ĠprostÅĻed": 3777,
      "ĠnnÃŃ": 3778,
      "Ġjitro": 3779,
      "lÃ©tÃ¡": 3780,
      "ĠkrÃ¡Äįel": 3781,
      "ĠÅĻetÄĽ": 3782,
      "ĠpÃŃt": 3783,
      "ĠsplÃ½vÃ¡": 3784,
      "ĠÅ¡pi": 3785,
      "Ġvzlet": 3786,
      "ĠstaÄįÃŃ": 3787,
      "ĠdlanÃŃ": 3788,
      "ĠspÄĽch": 3789,
      "dru": 3790,
      "ĠtajÃŃ": 3791,
      "Ġlaho": 3792,
      "ĠlidskÃ½ch": 3793,
      "Å¡ko": 3794,
      "ĠnÄĽmÃ½": 3795,
      "ĠptaÄįÃŃ": 3796,
      "Ġnapl": 3797,
      "mÃŃr": 3798,
      "ĠtemnÃ½": 3799,
      "Ġhlubin": 3800,
      "Ġzdr": 3801,
      "ĠslavnÃ©": 3802,
      "ĠsedÄĽl": 3803,
      "Ġvykou": 3804,
      "dovÃ©": 3805,
      "Ġkrvi": 3806,
      "Ġpropast": 3807,
      "ĠblÃŃzko": 3808,
      "Ġzapomen": 3809,
      "ĠtÃ©m": 3810,
      "sila": 3811,
      "Ġdosta": 3812,
      "ĠrodÃŃ": 3813,
      "vanÃ½": 3814,
      "ĠsprÃ¡": 3815,
      "ĠtvoÅĻÃŃ": 3816,
      "Ġplou": 3817,
      "Ġzacho": 3818,
      "ĠvÅ¯dce": 3819,
      "ĠvlasÅ¯": 3820,
      "Å¡a": 3821,
      "Ġhl": 3822,
      "Ġvzk": 3823,
      "Ġpadne": 3824,
      "Ġvzdych": 3825,
      "bat": 3826,
      "ĠskÃ¡la": 3827,
      "ĠvelkÃ½ch": 3828,
      "ĠavÅ¡ak": 3829,
      "ÄįnÃ½m": 3830,
      "ene": 3831,
      "koj": 3832,
      "ĠprÃ¡va": 3833,
      "ĠslzÃŃ": 3834,
      "Ġprapor": 3835,
      "Ġoni": 3836,
      "Ġtehdy": 3837,
      "jÃŃcÃŃm": 3838,
      "cuje": 3839,
      "ĠpalÃ¡": 3840,
      "Ġnesmrtel": 3841,
      "ĠjÃ¡so": 3842,
      "ĠdlouhÃ¡": 3843,
      "ĠduchÅ¯": 3844,
      "vÅ¯r": 3845,
      "pÃŃnÃ¡": 3846,
      "ĠlÃ©m": 3847,
      "ĠdÃŃval": 3848,
      "Ġvdo": 3849,
      "Ġtkli": 3850,
      "Ġkouzlo": 3851,
      "ĠstÅ¯l": 3852,
      "ĠbÄĽh": 3853,
      "rav": 3854,
      "Ġvane": 3855,
      "ĠnejvyÅ¡": 3856,
      "ĠsamÃ©": 3857,
      "Ġpouti": 3858,
      "ĠÄįervÃ¡n": 3859,
      "Ġtvoji": 3860,
      "Ġzmizel": 3861,
      "Ġzamy": 3862,
      "osti": 3863,
      "Ġbru": 3864,
      "tud": 3865,
      "ĠchladnÃ©": 3866,
      "pot": 3867,
      "ĠhnÄĽvu": 3868,
      "ĠÄįemu": 3869,
      "ge": 3870,
      "ĠslavnÄĽ": 3871,
      "ĠdÃ©Å¡Å¥": 3872,
      "?...": 3873,
      "Ġdly": 3874,
      "rÃ¡l": 3875,
      "ĠdlanÄĽ": 3876,
      "ĠspÃ¡t": 3877,
      "Ġvan": 3878,
      "ĠstraÅ¡": 3879,
      "Ġzbled": 3880,
      "Ġnebezpe": 3881,
      "bla": 3882,
      "Ġzaz": 3883,
      "ĠÄįasÅ¯": 3884,
      "ĠvznÄĽ": 3885,
      "Ġvzbu": 3886,
      "Å¾ili": 3887,
      "letÄĽ": 3888,
      "lÃ¡nÃŃ": 3889,
      "ĠzpÄĽvu": 3890,
      "kÅ¯v": 3891,
      "ĠkÅ¯ÅĪ": 3892,
      "ABA": 3893,
      "Ġkop": 3894,
      "ĠstaÅĻec": 3895,
      "ĠozvÄĽ": 3896,
      "Ġprokle": 3897,
      "ĠÅ¾alu": 3898,
      "Ġkolik": 3899,
      "ĠÅĻÃŃtÃŃ": 3900,
      "Ġvtip": 3901,
      "Ã¡n": 3902,
      "Ġzel": 3903,
      "ĠtrÃ¡vÄĽ": 3904,
      "ĠnÃŃch": 3905,
      "Ġhed": 3906,
      "ĠdrÅ¾ÃŃ": 3907,
      "ĠjinÃ¡": 3908,
      "ĠumÄĽ": 3909,
      "ĠvÄĽku": 3910,
      "Ġobrov": 3911,
      "lan": 3912,
      "Ġuti": 3913,
      "ĠÄįistÃ½": 3914,
      "ĠmocnÃ½": 3915,
      "ĠmotÃ½l": 3916,
      "Ġmas": 3917,
      "ĠÄįarov": 3918,
      "ĠÅ¡edÃ©": 3919,
      "ĠlÃŃbez": 3920,
      "ĠÅ¡t": 3921,
      "Ġstisk": 3922,
      "Ġvyr": 3923,
      "Ġvzte": 3924,
      "vede": 3925,
      "ĠtÄĽchto": 3926,
      "Ġvrat": 3927,
      "ĠdveÅĻÃŃ": 3928,
      "dnÃ½m": 3929,
      "ost": 3930,
      "Ġlok": 3931,
      "ĠdeÅ¡tÄĽ": 3932,
      "Ġplanou": 3933,
      "Ġpora": 3934,
      "Ġusta": 3935,
      "Ġvyje": 3936,
      "Ġslep": 3937,
      "ĠmyÅ¡lenky": 3938,
      "Ġnaho": 3939,
      "ĠspÃ¡nku": 3940,
      "ĠdivnÃ½": 3941,
      "ĠvÃ¡Å¾nÄĽ": 3942,
      "ĠhrÅ¯za": 3943,
      "Ġpovo": 3944,
      "ĠjemnÄĽ": 3945,
      "ĠÅ¾hou": 3946,
      "Å¾ela": 3947,
      "vky": 3948,
      "ĠÅ¾es": 3949,
      "Ġhledal": 3950,
      "kel": 3951,
      "ĠzÃ¡voj": 3952,
      "ĠvzrÅ¯": 3953,
      "ĠÅ¡eru": 3954,
      "vech": 3955,
      "ĠpravÃ©": 3956,
      "ĠvroucnÄĽ": 3957,
      "Ġtri": 3958,
      "ĠpÅĻÃŃval": 3959,
      "ĠkÅĻÃŃdel": 3960,
      "nily": 3961,
      "Ġpur": 3962,
      "Ġgo": 3963,
      "Ġucho": 3964,
      "Ġhoto": 3965,
      "Ġlaska": 3966,
      "vici": 3967,
      "ĠjÃ¡sa": 3968,
      "ĠznÃ¡Å¡": 3969,
      "ĠplÃŃ": 3970,
      "ĠkvÃ©": 3971,
      "Ġzvyk": 3972,
      "Ġtrest": 3973,
      "lep": 3974,
      "ĠstrÃ½": 3975,
      "Ġuza": 3976,
      "Ġkola": 3977,
      "ĠchovÃ¡": 3978,
      "ĠnadÄĽj": 3979,
      "Ġkrajem": 3980,
      "ĠvÄĽtve": 3981,
      "ĠstÅĻedu": 3982,
      "ĠhÃ¡je": 3983,
      "ĠchudÃ©": 3984,
      "ĠbÃŃdy": 3985,
      "ĠtÄĽÅ¾kÃ¡": 3986,
      "ĠnadÄĽjÃŃ": 3987,
      "ĠjeÅ¥": 3988,
      "Ġstopy": 3989,
      "Ġcel": 3990,
      "ĠrozechvÄĽ": 3991,
      "Äįte": 3992,
      "rie": 3993,
      "ĠÅ¾Ã¡dÃ¡": 3994,
      "Ġhbi": 3995,
      "Ġharf": 3996,
      "Ġlen": 3997,
      "ĠstÃ¡ti": 3998,
      "ĠvÃ¡Å¡ni": 3999,
      "Ġvzly": 4000,
      "Ġmohla": 4001,
      "ĠtÄĽlem": 4002,
      "vek": 4003,
      "Ġkout": 4004,
      "ĠvÃŃtÄĽzstvÃŃ": 4005,
      "ĠsvÄĽtel": 4006,
      "ĠsvÃŃrÃ¡": 4007,
      "ĠbratÅĻe": 4008,
      "hÃ¡ch": 4009,
      "Ġzaho": 4010,
      "Ġvrch": 4011,
      "ĠpÅĻiÅ¡li": 4012,
      "Ġbran": 4013,
      "Ġlabu": 4014,
      "ĠtrÅ¯nu": 4015,
      "cu": 4016,
      "ĠkÃ½m": 4017,
      "Äįili": 4018,
      "Ġgra": 4019,
      "dost": 4020,
      "ĠpÅĻelu": 4021,
      "ĠpÃ¡s": 4022,
      "rÃ½vÃ¡": 4023,
      "sÃ½": 4024,
      "lÃ¡k": 4025,
      "ĠvÄĽtrem": 4026,
      "ĠtÃ½ch": 4027,
      "Ġkarel": 4028,
      "ĠdÃ¡n": 4029,
      "Ġpomoci": 4030,
      "Å¡ly": 4031,
      "skal": 4032,
      "ĠtrÃ½": 4033,
      "ĠlÃ½ch": 4034,
      "Ġheb": 4035,
      "Ġtlum": 4036,
      "Å¾ku": 4037,
      "Äįce": 4038,
      "Ġpadla": 4039,
      "Ġzdroj": 4040,
      "ĠvaÅ¡ich": 4041,
      "ĠÄįar": 4042,
      "ĠnuÅ¾e": 4043,
      "Ġkvete": 4044,
      "ĠrÃ½m": 4045,
      "ĠtuÅ¡ÃŃ": 4046,
      "Ġodva": 4047,
      "ĠobÄĽÅ¥": 4048,
      "Ġduchem": 4049,
      "ĠzÅ¯stal": 4050,
      "chvÃ¡": 4051,
      "ĠrodnÃ©": 4052,
      "ĠdivÃ©": 4053,
      "Ġklade": 4054,
      "Ġtouze": 4055,
      "ĠzÃ¡ha": 4056,
      "Ġdnech": 4057,
      "ĠodpovÃŃ": 4058,
      "loudil": 4059,
      "Ġsam": 4060,
      "Ġznaven": 4061,
      "ĠbÃŃda": 4062,
      "Ġmali": 4063,
      "ĠpotÅĻe": 4064,
      "ĠbrÃ¡ny": 4065,
      "ĠsvÄĽd": 4066,
      "nÃŃci": 4067,
      "Ġskou": 4068,
      "ĠdivÃ¡": 4069,
      "ĠprÃ¡h": 4070,
      "Ġmilou": 4071,
      "ĠbdÃŃ": 4072,
      "ÄįkÃ¡": 4073,
      "Äįnosti": 4074,
      "ĠsvÅ¯": 4075,
      "ĠjednÃŃm": 4076,
      "chod": 4077,
      "Ġkrista": 4078,
      "ĠzdrÃ¡v": 4079,
      "lÃŃk": 4080,
      "ĠkrÃ¡sou": 4081,
      "ĠtÅĻpyt": 4082,
      "Ġvyko": 4083,
      "Ġtaky": 4084,
      "Ġlho": 4085,
      "ĠÅ¡lo": 4086,
      "Ġdrahou": 4087,
      "ĠvÃ½kÅĻik": 4088,
      "ĠdÃ½chÃ¡": 4089,
      "Ġhi": 4090,
      "ĠoÅ¾i": 4091,
      "Ġdotk": 4092,
      "ÅĻili": 4093,
      "Ġrve": 4094,
      "ĠloÅ¾i": 4095,
      "ĠzdaÅ¾": 4096,
      "krÃ¡te": 4097,
      "ĠusmÃŃvÃ¡": 4098,
      "ÅĪo": 4099,
      "ĠdÃ¡vnÃ½ch": 4100,
      "ĠzÃ¡kon": 4101,
      "lec": 4102,
      "ĠÅ¡pe": 4103,
      "kost": 4104,
      "Ġmem": 4105,
      "Ġhnal": 4106,
      "Ġnesta": 4107,
      "ĠlidskÃ¡": 4108,
      "Ġsat": 4109,
      "ĠkÅĻo": 4110,
      "Äįas": 4111,
      "ĠzdÃ¡l": 4112,
      "ĠosamÄĽ": 4113,
      "Ġjesti": 4114,
      "rozen": 4115,
      "nili": 4116,
      "ĠodvÃ¡": 4117,
      "Ġstromu": 4118,
      "ĠskÃ¡le": 4119,
      "ĠtÃ¡hnou": 4120,
      "Ġzahy": 4121,
      "Ġchlap": 4122,
      "Ġpodi": 4123,
      "ĠpracÃŃ": 4124,
      "ĠzÅĻÃŃÅ¡": 4125,
      "ĠvÄĽrnÄĽ": 4126,
      "ĠÅĻady": 4127,
      "ĠdvÃ©ÅĻe": 4128,
      "ĠjinÃ½m": 4129,
      "Ġvolal": 4130,
      "ĠtÄĽÅ¡ÃŃ": 4131,
      "ĠÅĻada": 4132,
      "ĠvichÅĻi": 4133,
      "ĠvÃ¡n": 4134,
      "Ġoknem": 4135,
      "ĠÅ¾elez": 4136,
      "ĠvznÃ¡Å¡ÃŃ": 4137,
      "Ġdavu": 4138,
      "ĠÄįernou": 4139,
      "ĠpÅĻil": 4140,
      "dÄĽti": 4141,
      "set": 4142,
      "ĠstÅĻÃŃbro": 4143,
      "ĠbÃ¡je": 4144,
      "jdu": 4145,
      "ĠÅ¾ert": 4146,
      "ĠmoÅĻem": 4147,
      "ĠÅ¾alÃ¡": 4148,
      "Ġpurpu": 4149,
      "Ġtyto": 4150,
      "ĠskrÃ½vÃ¡": 4151,
      "ĠokamÅ¾ik": 4152,
      "Ġhvozd": 4153,
      "Ġrosa": 4154,
      "ĠsvÄĽtlem": 4155,
      "ĠhÃ¡ji": 4156,
      "ĠkrÃ¡snou": 4157,
      "ĠpÃ¡nu": 4158,
      "Ġshas": 4159,
      "ĠvstÃ¡vÃ¡": 4160,
      "Ġpsal": 4161,
      "ĠkÃ¡ch": 4162,
      "ĠvelikÃ©": 4163,
      "Ġslast": 4164,
      "kov": 4165,
      "Äįela": 4166,
      "Ġradu": 4167,
      "Ġony": 4168,
      "Ġpop": 4169,
      "ĠpÅĻÃŃs": 4170,
      "ĠvÄĽÄįnÃ¡": 4171,
      "Ġmladi": 4172,
      "Ġsve": 4173,
      "ĠkterÃ½m": 4174,
      "ĠÃŃ": 4175,
      "ĠÅ¾ivÃ©": 4176,
      "ĠÅĻÃŃÅ¡i": 4177,
      "ĠdnÄĽ": 4178,
      "ĠmÃ¡ti": 4179,
      "Ġpri": 4180,
      "Ġdiva": 4181,
      "lejÅ¡ÃŃ": 4182,
      "ĠtuÅ¾": 4183,
      "ÄįenÃ©": 4184,
      "ĠchvÄĽla": 4185,
      "ĠvlÃ¡d": 4186,
      "ĠÄıas": 4187,
      "ĠdvÅ¯r": 4188,
      "nej": 4189,
      "ĠvÄĽÅ¾ÃŃ": 4190,
      "Ġbolem": 4191,
      "Ġplyne": 4192,
      "XABBA": 4193,
      "Ġluk": 4194,
      "Ġspokojen": 4195,
      "XABBAX": 4196,
      "ĠsedÃ¡": 4197,
      "Ġmuk": 4198,
      "Å¾et": 4199,
      "ĠkÃ¡Å¾e": 4200,
      "Ġdneska": 4201,
      "ĠnejvÃŃc": 4202,
      "tali": 4203,
      "ĠpÅĻÃŃrody": 4204,
      "kami": 4205,
      "ĠvnitÅĻ": 4206,
      "Ġsmutno": 4207,
      "ĠkÃ½vÃ¡": 4208,
      "Ġzlost": 4209,
      "it": 4210,
      "vak": 4211,
      "Ġner": 4212,
      "ĠplnÃ¡": 4213,
      "ĠmÃŃstÄĽ": 4214,
      "Ġpekel": 4215,
      "ĠmanÄĽ": 4216,
      "ĠsmutnÃ¡": 4217,
      "jÃŃcÃ½": 4218,
      "Ġstin": 4219,
      "vcÅ¯": 4220,
      "Ġdat": 4221,
      "Ġpusti": 4222,
      "Ġnepoz": 4223,
      "ĠmladÃ½ch": 4224,
      "zÃ¡ch": 4225,
      "ĠstoupÃ¡": 4226,
      "rad": 4227,
      "ĠvlÃ¡dne": 4228,
      "ĠmrtvÃ½": 4229,
      "Ġvry": 4230,
      "dilo": 4231,
      "ĠstÃ¡li": 4232,
      "ĠnechtÄĽ": 4233,
      "Ġzdro": 4234,
      "nulo": 4235,
      "ĠodmÄĽ": 4236,
      "Ġpanna": 4237,
      "ĠbÃŃdu": 4238,
      "Ġdcera": 4239,
      "Ġrodu": 4240,
      "Ġklobou": 4241,
      "ĠvÃ¡clav": 4242,
      "dovat": 4243,
      "pÃŃrÃ¡": 4244,
      "ĠchvÄĽjÃŃ": 4245,
      "Ġperly": 4246,
      "ĠkÃ½ch": 4247,
      "nut": 4248,
      "ĠkvÃŃlÃŃ": 4249,
      "ĠplnÃŃ": 4250,
      "ĠchladnÃ½": 4251,
      "jak": 4252,
      "ĠtatÃŃ": 4253,
      "ĠbolestÃŃ": 4254,
      "ÄįÅ¯": 4255,
      "ĠÃºto": 4256,
      "ĠletÄĽ": 4257,
      "ĠpÅĻines": 4258,
      "Ġdit": 4259,
      "ĠÄįase": 4260,
      "Ġmluvit": 4261,
      "Ġskali": 4262,
      "rovÃ©": 4263,
      "ĠdennÃŃ": 4264,
      "ĠchvÃŃlÃŃ": 4265,
      "Ġpokry": 4266,
      "ĠnazpÄĽt": 4267,
      "Ġprsty": 4268,
      "ĠcÃŃle": 4269,
      "ĠstÃ¡ÅĻÃŃ": 4270,
      "Ġpomalu": 4271,
      "Ġdli": 4272,
      "ĠjejÃŃch": 4273,
      "ÅĻenÃ¡": 4274,
      "Ġrosy": 4275,
      "Ġmistr": 4276,
      "ĠchudÃ¡": 4277,
      "ĠzlÃ½ch": 4278,
      "Ġstanul": 4279,
      "rnÃ½m": 4280,
      "ĠjÃ¡sÃ¡": 4281,
      "ĠpotÃ¡": 4282,
      "ĠÃºz": 4283,
      "ckÃ¡": 4284,
      "Ġsev": 4285,
      "Ġlest": 4286,
      "ĠÄįeho": 4287,
      "rovna": 4288,
      "ĠpÅĻÃŃmo": 4289,
      "Ġkruhu": 4290,
      "mÄĽt": 4291,
      "ĠÅ¡kle": 4292,
      "ĠvÅ¡udy": 4293,
      "ĠmuÅ¾Å¯": 4294,
      "nÄĽnÃ©": 4295,
      "Ġnitro": 4296,
      "mech": 4297,
      "ĠklÃŃnu": 4298,
      "ĠvÄĽnce": 4299,
      "ĠlÃ©pe": 4300,
      "Ġmyslil": 4301,
      "ĠzÃ¡padu": 4302,
      "Ġev": 4303,
      "Ġjede": 4304,
      "ĠlÃ¡n": 4305,
      "ĠrÃ¡mÄĽ": 4306,
      "ĠhnÃŃzdo": 4307,
      "Å¡eÅĪ": 4308,
      "ily": 4309,
      "hala": 4310,
      "Å¡enÃ½": 4311,
      "ĠdÃŃky": 4312,
      "Ġmnich": 4313,
      "Ġska": 4314,
      "ĠsÃŃnÄĽ": 4315,
      "ĠjedinÃ¡": 4316,
      "Ġjez": 4317,
      "Ġclo": 4318,
      "Ġrozpu": 4319,
      "ĠzpÄĽvy": 4320,
      "ĠrozkoÅ¡e": 4321,
      "Ġdumy": 4322,
      "ĠÄįekal": 4323,
      "ĠÅ¾itÃŃm": 4324,
      "ĠmnohÃ¡": 4325,
      "ĠutÃŃ": 4326,
      "Ġkot": 4327,
      "ĠpÃ¡nem": 4328,
      "ĠÄįinÃŃ": 4329,
      "Ġjinoch": 4330,
      "Ġkosti": 4331,
      "ĠskrÃ¡nÃŃ": 4332,
      "ĠpamÄĽti": 4333,
      "ĠkÃ©m": 4334,
      "ĠvzkÅĻik": 4335,
      "Ġnemlu": 4336,
      "ĠÅ¾enÄĽ": 4337,
      "Ġletem": 4338,
      "nÃŃku": 4339,
      "ĠubÃŃ": 4340,
      "vaje": 4341,
      "Ġnemoh": 4342,
      "ĠdomÃ¡": 4343,
      "ĠptÃ¡kÅ¯": 4344,
      "ĠmoÅĻ": 4345,
      "Ġnejsou": 4346,
      "ĠskrÃ¡nÄĽ": 4347,
      "rovi": 4348,
      "AAXXBB": 4349,
      "ĠÅ¾havÃ½": 4350,
      "lenÃ¡": 4351,
      "Ġbyt": 4352,
      "Ġtur": 4353,
      "chÃ¡ch": 4354,
      "ĠdlouhÃ½ch": 4355,
      "ĠzbranÄĽ": 4356,
      "Ġrostou": 4357,
      "ĠnÄĽko": 4358,
      "Ġpozor": 4359,
      "ĠtrÃ¡vy": 4360,
      "Ġzmize": 4361,
      "nuli": 4362,
      "Ġvida": 4363,
      "Å¡ila": 4364,
      "ĠmrakÅ¯": 4365,
      "ĠmÅ¾ik": 4366,
      "ĠÄįÃŃÅ¡e": 4367,
      "Ġpozo": 4368,
      "ĠstÅĻel": 4369,
      "Ġtoto": 4370,
      "Ġslzou": 4371,
      "ĠÅ¾havÃ©": 4372,
      "ĠÄįelem": 4373,
      "Ġlesku": 4374,
      "Ġpekla": 4375,
      "Ġztr": 4376,
      "bÃ¡m": 4377,
      "Ġzlou": 4378,
      "Ġtamo": 4379,
      "ĠprÃ¡zdno": 4380,
      "nutÃŃm": 4381,
      "cÃŃho": 4382,
      "ÄįkÅ¯": 4383,
      "ĠjiÅĻÃŃ": 4384,
      "Ġdub": 4385,
      "Å¾eb": 4386,
      "Ġhrdin": 4387,
      "Ġsvobody": 4388,
      "ĠprostÃ©": 4389,
      "ĠrÃ¡ji": 4390,
      "ĠradÄĽj": 4391,
      "Ġnetu": 4392,
      "ĠvÄĽdÄĽl": 4393,
      "Å¾ek": 4394,
      "ĠÄįistÃ¡": 4395,
      "ĠmarnÃ©": 4396,
      "ĠkrÃ¡tkÃ½": 4397,
      "Ġtopo": 4398,
      "ĠhonÃŃ": 4399,
      "Ġnutno": 4400,
      "ĠpÅ¯jde": 4401,
      "zenÃŃ": 4402,
      "nÃŃky": 4403,
      "ĠvÄĽÅ¾": 4404,
      "ĠobÄĽt": 4405,
      "ĠpÅĻÃŃteli": 4406,
      "ĠzvÃŃÅĻe": 4407,
      "Ġpoesie": 4408,
      "ĠpyÅ¡": 4409,
      "Ġdomov": 4410,
      "Ġobo": 4411,
      "ĠsvÄĽdomÃŃ": 4412,
      "ĠmÅ¯Å¾": 4413,
      "tan": 4414,
      "Ġdivy": 4415,
      "Ġdruhu": 4416,
      "Ġmiloval": 4417,
      "ĠmlÃ¡den": 4418,
      "ĠÅ¡Å¥asten": 4419,
      "Ġstruny": 4420,
      "krÃ¡snÄĽjÅ¡ÃŃ": 4421,
      "Ġevro": 4422,
      "rala": 4423,
      "Ġuse": 4424,
      "ĠvÃŃtÃ¡": 4425,
      "ĠhÃ¡zÃŃ": 4426,
      "ĠÄįtyÅĻi": 4427,
      "ĠneÅ¡tÄĽ": 4428,
      "klady": 4429,
      "lili": 4430,
      "ĠprchÃ¡": 4431,
      "ĠnejkrÃ¡snÄĽjÅ¡ÃŃ": 4432,
      "ĠnesmÄĽ": 4433,
      "ĠpÄĽst": 4434,
      "ĠkÅĻiv": 4435,
      "ĠjemuÅ¾": 4436,
      "ĠplÃ¡t": 4437,
      "ÅĻena": 4438,
      "Ġztratil": 4439,
      "ĠmÅĻe": 4440,
      "ĠonÃ©": 4441,
      "tilo": 4442,
      "Ġvot": 4443,
      "ĠstojÃŃm": 4444,
      "Ġpadl": 4445,
      "ĠjdeÅ¡": 4446,
      "Ġopoj": 4447,
      "Ġzaha": 4448,
      "ĠplÃ¡Äįem": 4449,
      "ĠzeÄı": 4450,
      "ĠtmavÃ½": 4451,
      "Ġut": 4452,
      "armo": 4453,
      "ĠkdeÅ¾": 4454,
      "ĠjakÃ½s": 4455,
      "dec": 4456,
      "ĠprosÃŃ": 4457,
      "Ġspal": 4458,
      "ĠkrÃ¡snÄĽ": 4459,
      "Ġmluv": 4460,
      "kl": 4461,
      "viny": 4462,
      "ĠÅ¡ÃŃp": 4463,
      "ĠplÃ¡ÅĪ": 4464,
      "Ġbarvy": 4465,
      "Ġstrachu": 4466,
      "Ġex": 4467,
      "ĠpÃ¡d": 4468,
      "ĠnaÅ¡em": 4469,
      "hovÃ©": 4470,
      "ĠletnÃŃ": 4471,
      "Ġobzoru": 4472,
      "ĠzvonÅ¯": 4473,
      "hlou": 4474,
      "ÅĻÃŃÅ¡": 4475,
      "Ġapo": 4476,
      "ĠzvÄĽÅĻ": 4477,
      "ĠÄįlovÄĽku": 4478,
      "ĠctÃŃ": 4479,
      "Ġhovor": 4480,
      "bar": 4481,
      "Ġpeklo": 4482,
      "ĠpoÅ¾ehnÃ¡nÃŃ": 4483,
      "Ġklesla": 4484,
      "najÃŃ": 4485,
      "ĠdivnÄĽ": 4486,
      "ĠÅ¡edÃ½": 4487,
      "ĠÃºc": 4488,
      "ĠÅ¡koda": 4489,
      "ĠlÃŃcÃŃ": 4490,
      "ĠnovÃ½m": 4491,
      "ĠvÃ¡bÃŃ": 4492,
      "ĠÅ¡tÄĽd": 4493,
      "Ġveleb": 4494,
      "Ġren": 4495,
      "ĠnejvÄĽt": 4496,
      "Ġjiskry": 4497,
      "ĠmyÅ¡lÃ©nky": 4498,
      "Ġzuby": 4499,
      "vla": 4500,
      "vÅ¡e": 4501,
      "lel": 4502,
      "ĠjeÅ¡": 4503,
      "luje": 4504,
      "ĠhrozÃŃ": 4505,
      "Ġlhostej": 4506,
      "tÅ¯m": 4507,
      "Ġkomo": 4508,
      "ĠvÃŃÅĻÃŃ": 4509,
      "ĠtichÃ©m": 4510,
      "Ġsloup": 4511,
      "Ġmor": 4512,
      "ĠdÃ¡Å¡": 4513,
      "Ġhlavi": 4514,
      "ĠdÃŃÅ¡": 4515,
      "Ġmalou": 4516,
      "Ġsmrtel": 4517,
      "rostÅĻed": 4518,
      "ĠvzpomÃŃnÃ¡m": 4519,
      "ĠvÃ¡Å¡eÅĪ": 4520,
      "ĠvraÅ¥": 4521,
      "Ġga": 4522,
      "ĠvrÃ¡t": 4523,
      "Ġobou": 4524,
      "ĠmÃ¡Å¥": 4525,
      "zÃŃch": 4526,
      "ĠvelikÃ¡": 4527,
      "Ġused": 4528,
      "ĠdÃŃl": 4529,
      "ĠpÄĽstÃŃ": 4530,
      "Ġbisku": 4531,
      "ĠzahrÃ¡": 4532,
      "ĠvÄĽrnÃ½": 4533,
      "Å¡u": 4534,
      "Ġbychom": 4535,
      "letu": 4536,
      "Ġhyne": 4537,
      "ĠbojovnÃŃ": 4538,
      "ĠvlasÅ¥": 4539,
      "ĠkÅĻÃŃdlem": 4540,
      "nÃŃka": 4541,
      "Ġmost": 4542,
      "ĠÅ¾ivÃ½": 4543,
      "ĠÅ¡ero": 4544,
      "ĠzrakÅ¯": 4545,
      "ĠkÅĻiÄįÃŃ": 4546,
      "ĠdlÃ¡": 4547,
      "tin": 4548,
      "Ġobe": 4549,
      "ĠÅĻÃŃkÃ¡": 4550,
      "ĠotvÃŃrÃ¡": 4551,
      "ĠcelÃ©m": 4552,
      "Ġletech": 4553,
      "ĠvlnÃŃ": 4554,
      "Ġdna": 4555,
      "Ġkor": 4556,
      "pec": 4557,
      "Ġtit": 4558,
      "ĠpoupÄĽ": 4559,
      "Ġkvet": 4560,
      "ĠodpusÅ¥": 4561,
      "ĠsnÃŃm": 4562,
      "ĠzaznÃŃ": 4563,
      "ĠbuÅ¡ÃŃ": 4564,
      "Ġpovin": 4565,
      "ĠpÅĻÃ¡l": 4566,
      "ĠnÃ¡dhe": 4567,
      "Ġrmu": 4568,
      "Ġrozma": 4569,
      "Ġdobrou": 4570,
      "Ġblaze": 4571,
      "Ġpoza": 4572,
      "Ġproudem": 4573,
      "ĠmyÅ¡le": 4574,
      "ĠjÃŃmÃ¡": 4575,
      "ĠtajnÄĽ": 4576,
      "Ġzma": 4577,
      "Ġhore": 4578,
      "Ġodtud": 4579,
      "ĠtÄĽÅ¾kou": 4580,
      "ĠodÄĽ": 4581,
      "ĠsmÃŃchem": 4582,
      "ĠspÄĽl": 4583,
      "Ġbrzo": 4584,
      "ĠpÅĻÃŃroda": 4585,
      "Ġmilio": 4586,
      "Ġvyk": 4587,
      "ĠÄįerno": 4588,
      "Ġnemohu": 4589,
      "ĠpÃŃsku": 4590,
      "neme": 4591,
      "pek": 4592,
      "ĠkorÃ¡": 4593,
      "Ġnebesa": 4594,
      "Ġsf": 4595,
      "vor": 4596,
      "Ġslunko": 4597,
      "ĠdÄĽtem": 4598,
      "Ġnaklo": 4599,
      "Ġjablo": 4600,
      "ĠÅ¡il": 4601,
      "ĠdÄĽvy": 4602,
      "Ġpel": 4603,
      "ĠverÅ¡": 4604,
      "ĠznamenÃŃ": 4605,
      "livÃ¡": 4606,
      "Ġuka": 4607,
      "Ġmladosti": 4608,
      "ĠrozlÃ©": 4609,
      "Ġpozved": 4610,
      "ÅĻily": 4611,
      "ĠcelÃ½m": 4612,
      "ĠhrabÄĽ": 4613,
      "ĠkeÅĻ": 4614,
      "ĠkrÄį": 4615,
      "ĠslzÃ¡ch": 4616,
      "ĠvstÃ¡": 4617,
      "Ġtech": 4618,
      "Äįina": 4619,
      "ĠpouÅ¡Å¥": 4620,
      "ĠhroznÃ½": 4621,
      "Ġdol": 4622,
      "Ġmechu": 4623,
      "Ġzdar": 4624,
      "ĠpojÃŃ": 4625,
      "ĠÅ¾u": 4626,
      "Ġvzala": 4627,
      "Ġcitu": 4628,
      "ĠplÃ¡nÃŃ": 4629,
      "Ġleskem": 4630,
      "ĠvÅ¡eli": 4631,
      "ĠvlnÃ¡ch": 4632,
      "ĠÄıÃ¡bel": 4633,
      "ĠzvuÄįÃŃ": 4634,
      "ĠdÄĽlÃ¡": 4635,
      "Ġstroj": 4636,
      "ĠpoutnÃŃk": 4637,
      "Ġkomnat": 4638,
      "ĠtvÃŃ": 4639,
      "ilÃŃ": 4640,
      "Ġorel": 4641,
      "Ġpob": 4642,
      "Ġracho": 4643,
      "ĠnoÅĻÃŃ": 4644,
      "Ġcity": 4645,
      "ĠsvatÃ½ch": 4646,
      "Ġsvobodu": 4647,
      "jdou": 4648,
      "ĠtÄĽmi": 4649,
      "ĠnechtÄĽl": 4650,
      "ĠmanÅ¾el": 4651,
      "Ġhladi": 4652,
      "mot": 4653,
      "Ġkup": 4654,
      "Ġluna": 4655,
      "ĠplaÅ¡e": 4656,
      "ĠÅ¾Ã¡rem": 4657,
      "ĠzaÄįal": 4658,
      "ĠcÃŃli": 4659,
      "Ġohrom": 4660,
      "nicÃŃ": 4661,
      "lÃŃÅ¡": 4662,
      "ĠsmrÅ¥": 4663,
      "ĠpastÃ½": 4664,
      "Ġstan": 4665,
      "Ġzbro": 4666,
      "ĠdÄĽva": 4667,
      "ĠbÄĽlost": 4668,
      "Ġnecha": 4669,
      "ĠhrÅ¯z": 4670,
      "ÅĪÅ¯": 4671,
      "ĠvÄĽÄįnou": 4672,
      "jeme": 4673,
      "skne": 4674,
      "ĠÄįerst": 4675,
      "ĠnÃ¡rodu": 4676,
      "ĠhnutÃŃ": 4677,
      "Ġvit": 4678,
      "zat": 4679,
      "rosti": 4680,
      "ĠcÃ¡": 4681,
      "Ġteskno": 4682,
      "zÃ½": 4683,
      "ĠleÅ¾el": 4684,
      "ĠskvÃŃ": 4685,
      "jÃŃÅ¾": 4686,
      "Ġsice": 4687,
      "Ġpanny": 4688,
      "Ġdaleka": 4689,
      "Ġzavo": 4690,
      "ĠpouÅ¥": 4691,
      "Ġchudo": 4692,
      "ÅĻenÃ½ch": 4693,
      "Ġzho": 4694,
      "raje": 4695,
      "ĠÅ¡va": 4696,
      "ĠvÃ¡nek": 4697,
      "ĠÅĻev": 4698,
      "ĠvÄįel": 4699,
      "Ġptal": 4700,
      "Ġsek": 4701,
      "Ġnau": 4702,
      "ĠvÄĽcÃŃ": 4703,
      "Ġvodo": 4704,
      "ĠnÃŃmÅ¾": 4705,
      "Ġslovan": 4706,
      "niti": 4707,
      "ĠdunÃŃ": 4708,
      "ĠrÃ¡di": 4709,
      "huje": 4710,
      "ĠÅ¡eptÃ¡": 4711,
      "ĠpovÄĽz": 4712,
      "ĠverÅ¡e": 4713,
      "Ġkristus": 4714,
      "ĠpÅĻis": 4715,
      "ĠÅ¾eno": 4716,
      "Ġtmu": 4717,
      "ĠdÃŃtky": 4718,
      "ĠstokrÃ¡t": 4719,
      "Ġhavra": 4720,
      "ÄįenÃ½": 4721,
      "ĠpravdÄĽ": 4722,
      "ĠbÃŃt": 4723,
      "Ġctnosti": 4724,
      "Ġpochyb": 4725,
      "Ġztu": 4726,
      "lala": 4727,
      "ĠhrdÃ©": 4728,
      "lÃ©d": 4729,
      "dalo": 4730,
      "stek": 4731,
      "Ġnesla": 4732,
      "ĠpozdnÃŃ": 4733,
      "ĠslyÅ¡ÃŃÅ¡": 4734,
      "Ġblankyt": 4735,
      "ĠbÃ©": 4736,
      "lÃ½mi": 4737,
      "Ġchvilku": 4738,
      "Å¯so": 4739,
      "Ġvysoko": 4740,
      "ĠkrÅ¯pÄĽj": 4741,
      "sat": 4742,
      "Ġbli": 4743,
      "ĠpÄĽnÃŃ": 4744,
      "ĠÅ¾Ã¡dnÃ¡": 4745,
      "ĠspÃ¡nek": 4746,
      "Ġusly": 4747,
      "Ġneji": 4748,
      "ĠsÃŃni": 4749,
      "ĠtrhÃ¡": 4750,
      "ĠjedinÃ©": 4751,
      "ĠÅ¥": 4752,
      "Å¡tÃŃm": 4753,
      "ĠhledÃŃm": 4754,
      "cou": 4755,
      "nati": 4756,
      "Ġnalez": 4757,
      "ĠpouÅ¡ti": 4758,
      "ter": 4759,
      "ÄįnÃ©m": 4760,
      "Ġchr": 4761,
      "Ġuko": 4762,
      "Ġjinou": 4763,
      "ĠmoÅ¾nÃ¡": 4764,
      "ĠmlÃ©": 4765,
      "Ġsouse": 4766,
      "ĠÃºzkost": 4767,
      "Ġnesko": 4768,
      "Ġnechal": 4769,
      "tily": 4770,
      "fe": 4771,
      "Ġak": 4772,
      "dÄĽji": 4773,
      "ĠpouÅ¡tÄĽ": 4774,
      "ĠvÄĽÄįnost": 4775,
      "Ġukru": 4776,
      "Ġnitra": 4777,
      "Ġspla": 4778,
      "ĠstÃŃnem": 4779,
      "is": 4780,
      "dum": 4781,
      "Ġmalo": 4782,
      "ĠĠĠ": 4783,
      "ĠpÅ¯jdu": 4784,
      "Ġticha": 4785,
      "ĠvÅ¡ednÃŃ": 4786,
      "ĠpustÃ©": 4787,
      "ĠzvÄĽda": 4788,
      "ĠhroznÃ©": 4789,
      "ĠnejvyÅ¡Å¡ÃŃ": 4790,
      "ena": 4791,
      "ĠnÃ¡ho": 4792,
      "Ġviny": 4793,
      "ĠpouÅ¡tÃŃ": 4794,
      "ĠjasnÃ¡": 4795,
      "Ġdon": 4796,
      "Ġkalich": 4797,
      "kaly": 4798,
      "Ġbor": 4799,
      "ĠneÅ¡tÄĽstÃŃ": 4800,
      "Ġobej": 4801,
      "ĠhrajÃŃ": 4802,
      "ĠÅ¡tÄĽstÃŃm": 4803,
      "Ġmladou": 4804,
      "ĠuprostÅĻed": 4805,
      "ĠzÅĻela": 4806,
      "Ġjinde": 4807,
      "ĠmnÃŃ": 4808,
      "Ġpohy": 4809,
      "cie": 4810,
      "ĠspÃŃcÃŃ": 4811,
      "ĠnÄĽme": 4812,
      "Ġbok": 4813,
      "Ġprahy": 4814,
      "ĠsamÃ½": 4815,
      "Ġpropasti": 4816,
      "telem": 4817,
      "Ġprocit": 4818,
      "novi": 4819,
      "Ġpetr": 4820,
      "ĠkterÃ½ch": 4821,
      "Ġkorunu": 4822,
      "nÄĽte": 4823,
      "Ġzrovna": 4824,
      "Ġbratra": 4825,
      "ĠdrobnÃ©": 4826,
      "gra": 4827,
      "ĠspÄĽchÃ¡": 4828,
      "mbo": 4829,
      "ĠzavÃ¡": 4830,
      "Ġsoused": 4831,
      "Ġzmar": 4832,
      "Ġvnad": 4833,
      "vlÃ¡": 4834,
      "ĠÄįeskÃ¡": 4835,
      "Ġnadarmo": 4836,
      "mÃ¡nÃŃ": 4837,
      "Ġchcete": 4838,
      "ĠpenÃŃ": 4839,
      "Ġslib": 4840,
      "ĠvÅ¯z": 4841,
      "venÃ©": 4842,
      "ĠlÅ¯nÄĽ": 4843,
      "ĠchystÃ¡": 4844,
      "Ġvojsko": 4845,
      "Ġhalu": 4846,
      "ĠvodÄĽ": 4847,
      "Ġzasmu": 4848,
      "Ġplameny": 4849,
      "jit": 4850,
      "Ġdel": 4851,
      "ĠsÃŃle": 4852,
      "Å¾ena": 4853,
      "ĠpoÄįal": 4854,
      "Ġvodou": 4855,
      "Ġpopel": 4856,
      "Ġtrud": 4857,
      "ĠzÃ¡ÅĻÃŃcÃŃ": 4858,
      "ĠzdÃŃ": 4859,
      "Ġminul": 4860,
      "ĠbrÃ¡nÃŃ": 4861,
      "nie": 4862,
      "ĠvlÃŃdnÄĽ": 4863,
      "ckou": 4864,
      "rci": 4865,
      "Ġazu": 4866,
      "Ġhry": 4867,
      "tej": 4868,
      "ĠnaÅĻÃŃ": 4869,
      "Ġnasta": 4870,
      "Ġskla": 4871,
      "ĠzlatÃ½m": 4872,
      "ĠvzpomÃŃnka": 4873,
      "ĠzelenÃ©": 4874,
      "Ġjednoho": 4875,
      "ĠcizÃŃch": 4876,
      "Äįnost": 4877,
      "Ġspor": 4878,
      "ĠÅ¾er": 4879,
      "Ġrozlo": 4880,
      "Ġosudu": 4881,
      "Ġsmysl": 4882,
      "jÃŃcÃŃch": 4883,
      "ĠtanÄįÃŃ": 4884,
      "Ġzval": 4885,
      "Ġge": 4886,
      "ĠhvÄĽzdi": 4887,
      "ĠoÅĻe": 4888,
      "nÄĽnÃ½": 4889,
      "ÅĪuje": 4890,
      "ĠÅ¾ivotÄĽ": 4891,
      "Ġtomto": 4892,
      "ĠvzdychÃ¡": 4893,
      "Ġvzdechy": 4894,
      "ĠÅ¡leh": 4895,
      "Ġbezpe": 4896,
      "Ġzvolal": 4897,
      "tÃ©ho": 4898,
      "Ġbratry": 4899,
      "pky": 4900,
      "Ġil": 4901,
      "Ġhledat": 4902,
      "ĠmÄĽsÃŃce": 4903,
      "ĠznÃ¡mÃ½": 4904,
      "vodu": 4905,
      "tÃ¡h": 4906,
      "ĠpospÃŃ": 4907,
      "ĠzpÃŃvat": 4908,
      "hr": 4909,
      "vic": 4910,
      "ĠslavÃŃk": 4911,
      "tce": 4912,
      "lily": 4913,
      "ĠvÅ¡echen": 4914,
      "Ġslzu": 4915,
      "ĠchudÃ½": 4916,
      "Ġrozmar": 4917,
      "Ġovo": 4918,
      "ĠposvÄĽ": 4919,
      "Ġpohledem": 4920,
      "Ġpozem": 4921,
      "Ġodho": 4922,
      "ĠkrÃ¡lem": 4923,
      "ĠkrÃ¡lÅ¯": 4924,
      "Ġtemnou": 4925,
      "pili": 4926,
      "ĠtÅĻpytÃŃ": 4927,
      "Ġarci": 4928,
      "Ġmiluje": 4929,
      "ĠtrÃ¡va": 4930,
      "ĠmÅ¯Å¾eÅ¡": 4931,
      "ĠdivÄĽ": 4932,
      "ĠvÅĻel": 4933,
      "Ġcu": 4934,
      "Ġvodu": 4935,
      "lena": 4936,
      "Ġpocti": 4937,
      "ĠbÅĻi": 4938,
      "ĠsrdcÃŃch": 4939,
      "ĠÅ¡est": 4940,
      "ĠchoÅ¥": 4941,
      "Ġhrst": 4942,
      "mil": 4943,
      "tovÃ©": 4944,
      "ĠÅ¾it": 4945,
      "ĠdruhÃ¡": 4946,
      "Ġw": 4947,
      "Ġvpad": 4948,
      "ĠneÃº": 4949,
      "ĠlÃ½m": 4950,
      "venÃ½": 4951,
      "Ġknihy": 4952,
      "ĠperutÃŃ": 4953,
      "Ġstech": 4954,
      "ĠneÅ¡": 4955,
      "skla": 4956,
      "ĠpohÃ¡r": 4957,
      "ĠÃºro": 4958,
      "pomÃŃnÃ¡": 4959,
      "Ġpne": 4960,
      "ĠchtÄĽli": 4961,
      "ĠskuteÄį": 4962,
      "Ġnajednou": 4963,
      "Ġstarost": 4964,
      "tne": 4965,
      "ĠnnÃ½": 4966,
      "ÄįkÃ¡ch": 4967,
      "ĠdomÄĽ": 4968,
      "ĠÄįervÃ¡": 4969,
      "ĠvÄĽrnÃ©": 4970,
      "Ġkouzlem": 4971,
      "nci": 4972,
      "lid": 4973,
      "ÅĻiti": 4974,
      "Ġnesl": 4975,
      "stoj": 4976,
      "Ġchodil": 4977,
      "ĠznÃ¡t": 4978,
      "fa": 4979,
      "dÃ¡vÃ¡": 4980,
      "ĠtÃ½m": 4981,
      "Ġjdem": 4982,
      "Ġvypu": 4983,
      "ĠÅĻit": 4984,
      "ÄįnÃŃm": 4985,
      "Ġzachy": 4986,
      "ĠzlatÃŃ": 4987,
      "ĠÄįert": 4988,
      "nÅ¯v": 4989,
      "Ġvkro": 4990,
      "Ġboh": 4991,
      "ĠrÃ¡m": 4992,
      "dÃ½": 4993,
      "Ġdrak": 4994,
      "Ġsoucit": 4995,
      "ĠhospodÃ¡": 4996,
      "tÃ©m": 4997,
      "Ġposel": 4998,
      "ĠzavÃŃ": 4999,
      "ĠstÃ¡r": 5000,
      "ĠÅ¡ÃŃji": 5001,
      "ĠbuÄıte": 5002,
      "ĠvpÅĻed": 5003,
      "Ġnerozu": 5004,
      "pnÄĽ": 5005,
      "Ġkne": 5006,
      "Ġdnu": 5007,
      "ĠsluÅ¡ÃŃ": 5008,
      "ĠvÅ¯d": 5009,
      "ĠmodlÃŃ": 5010,
      "ĠzbranÃŃ": 5011,
      "ĠmdlÃ½": 5012,
      "Ġshon": 5013,
      "ĠveÅ¡ke": 5014,
      "Ġkov": 5015,
      "Ġsluje": 5016,
      "fo": 5017,
      "Ġvedou": 5018,
      "Ġposlu": 5019,
      "les": 5020,
      "Ġjezd": 5021,
      "ĠhostÃŃ": 5022,
      "ĠpapeÅ¾": 5023,
      "AAAA": 5024,
      "Ġvlta": 5025,
      "ĠperuÅ¥": 5026,
      "ĠpÅ¯vab": 5027,
      "ĠplÃ©mÄĽ": 5028,
      "ĠpouhÃ½": 5029,
      "Ġude": 5030,
      "ĠvelÃŃ": 5031,
      "ĠvyÅ¡la": 5032,
      "Äįiti": 5033,
      "ĠmalÃŃ": 5034,
      "Ġpotok": 5035,
      "nkÃ©": 5036,
      "Ġlsti": 5037,
      "nÃ¡ct": 5038,
      "Ġlost": 5039,
      "ĠzaÅ¡e": 5040,
      "Ġroky": 5041,
      "Ġvinu": 5042,
      "hali": 5043,
      "pala": 5044,
      "ĠsmÄĽlÃ½": 5045,
      "ĠsamotÄĽ": 5046,
      "Ġjmeno": 5047,
      "ĠzapomnÄĽl": 5048,
      "ÅĻej": 5049,
      "ĠkonÃŃ": 5050,
      "AXABBX": 5051,
      "lko": 5052,
      "Ġvni": 5053,
      "Ġtuze": 5054,
      "ĠdÃ¡vnÃ©": 5055,
      "Ġbledou": 5056,
      "Ġmiluji": 5057,
      "Ã©mu": 5058,
      "Ġpoky": 5059,
      "Ġpravo": 5060,
      "ĠtÃ©mÄĽ": 5061,
      "ĠvÅ¯bec": 5062,
      "ĠschÃ½": 5063,
      "Ġpono": 5064,
      "ĠbojÃŃ": 5065,
      "ĠlÃŃbal": 5066,
      "ĠvzpomÃŃnÃ¡": 5067,
      "ren": 5068,
      "Ġproko": 5069,
      "ĠÅ¾ivotu": 5070,
      "ĠÅĻekne": 5071,
      "mal": 5072,
      "ĠrovnÄĽ": 5073,
      "ĠÅ¾eni": 5074,
      "nÃ¡Å¡el": 5075,
      "ĠpÃŃÅ¡e": 5076,
      "ĠpÅ¯du": 5077,
      "ĠsilnÃ½": 5078,
      "Ġvojska": 5079,
      "th": 5080,
      "Ġpraze": 5081,
      "ĠtvÃ©mu": 5082,
      "ĠdruÅ¾i": 5083,
      "ĠsvatÃ½m": 5084,
      "ĠsladkÃ½ch": 5085,
      "ĠkÅĻesÅ¥a": 5086,
      "ĠÅ¡erÃ©": 5087,
      "Ġmysti": 5088,
      "Ġplesu": 5089,
      "ĠÅ¡ly": 5090,
      "ĠhÅĻÃŃchu": 5091,
      "ĠhÅĻbe": 5092,
      "ĠvonnÃ½": 5093,
      "ĠobliÄįej": 5094,
      "Ġchti": 5095,
      "bÄĽh": 5096,
      "ĠzlatÃ©m": 5097,
      "ĠboÅ¾ÃŃm": 5098,
      "ĠvÄĽÅĻÃŃm": 5099,
      "Ġroztou": 5100,
      "Ġhodiny": 5101,
      "ĠklÃŃnÄĽ": 5102,
      "ĠnÃ¡mÄĽ": 5103,
      "Ġbabi": 5104,
      "chÃ¡zel": 5105,
      "Å¡et": 5106,
      "Ġmora": 5107,
      "vilo": 5108,
      "ĠsladkÃ½m": 5109,
      "ĠsmÄĽl": 5110,
      "sledy": 5111,
      "Ġtouhu": 5112,
      "Ġrady": 5113,
      "Ġproudu": 5114,
      "ĠdÄĽd": 5115,
      "ĠbÃŃlÃ©m": 5116,
      "Ġkvas": 5117,
      "ĠprvnÃŃm": 5118,
      "ĠzeleÅĪ": 5119,
      "Ġses": 5120,
      "ÅĻilo": 5121,
      "Ġmnohou": 5122,
      "ĠhnÄĽvem": 5123,
      "ĠkÅ¯m": 5124,
      "nÃ©st": 5125,
      "Ġbrachu": 5126,
      "ĠstÄĽn": 5127,
      "Ġhlahol": 5128,
      "Ġzad": 5129,
      "tkÅ¯": 5130,
      "Ġlicho": 5131,
      "ĠtÅĻesou": 5132,
      "Ġmoudrost": 5133,
      "rÄįÃŃ": 5134,
      "Ġsel": 5135,
      "ĠvznÃŃ": 5136,
      "Ġmist": 5137,
      "ĠÅ¾Ã¡ru": 5138,
      "ĠdneÅ¡nÃŃ": 5139,
      "ĠpÅĻemo": 5140,
      "ĠlÅ¾i": 5141,
      "kam": 5142,
      "milo": 5143,
      "tÃ¡ch": 5144,
      "ĠpolÃŃch": 5145,
      "Ġhospodi": 5146,
      "Ġule": 5147,
      "Ġjihu": 5148,
      "ĠbÃ¡l": 5149,
      "Ġhlasu": 5150,
      "ĠdvojÃŃ": 5151,
      "Ġsestry": 5152,
      "ĠzÃ¡mku": 5153,
      "Ġudi": 5154,
      "ĠvÃ½s": 5155,
      "ĠkoÅĻist": 5156,
      "nkem": 5157,
      "Ġbub": 5158,
      "ĠmodrÃ½": 5159,
      "ĠdÄĽjin": 5160,
      "Ġzen": 5161,
      "ĠbÅ¯": 5162,
      "ĠlÃ¡m": 5163,
      "ĠÄįlu": 5164,
      "ĠspatÅĻil": 5165,
      "Ġnaposledy": 5166,
      "ĠchraÅĪ": 5167,
      "ĠpÅĻÃŃk": 5168,
      "Ġslasti": 5169,
      "ĠtrpÄĽ": 5170,
      "Ġpoliti": 5171,
      "Ġmuka": 5172,
      "buje": 5173,
      "ĠodpoÄįi": 5174,
      "Ġbalva": 5175,
      "ĠvÄĽtrÅ¯": 5176,
      "Ġuzav": 5177,
      "ĠvÄĽtry": 5178,
      "mÃ¡m": 5179,
      "ĠÅ¾ÃŃm": 5180,
      "Ġroztr": 5181,
      "ĠnutÃŃ": 5182,
      "bili": 5183,
      "ĠzpÄĽvem": 5184,
      "Ġulic": 5185,
      "Ġslzami": 5186,
      "ĠpenÄĽ": 5187,
      "Ġrtem": 5188,
      "ĠzvlÃ¡Å¡t": 5189,
      "ĠÄįÃŃst": 5190,
      "ĠÄįerv": 5191,
      "Ġsvr": 5192,
      "ĠpapÃŃ": 5193,
      "ĠlÃŃba": 5194,
      "sili": 5195,
      "ĠkÅĻÃŃdlo": 5196,
      "ĠmraÄįna": 5197,
      "Ġdno": 5198,
      "ĠtichÃ½m": 5199,
      "razil": 5200,
      "Ġvedla": 5201,
      "ĠpÅĻedsta": 5202,
      "Å¾enou": 5203,
      "ĠvrhÃ¡": 5204,
      "Ġabys": 5205,
      "sklo": 5206,
      "Ġrozlou": 5207,
      "zdy": 5208,
      "Ġsal": 5209,
      "ĠÄįiny": 5210,
      "ĠvÄĽtÅĻÃŃk": 5211,
      "Ġzakle": 5212,
      "ĠtlaÄįÃŃ": 5213,
      "ĠnedÄĽ": 5214,
      "Ġpokud": 5215,
      "Ġvece": 5216,
      "ĠveÅ¡el": 5217,
      "Ġjednom": 5218,
      "ĠlÃ¡sko": 5219,
      "ĠzmÃŃrÃ¡": 5220,
      "Ġminulosti": 5221,
      "vedla": 5222,
      "Ġmrz": 5223,
      "ĠÅ¡vi": 5224,
      "ĠsvÄĽtlu": 5225,
      "snÃ¡": 5226,
      "ĠzÃ¡me": 5227,
      "chala": 5228,
      "ĠÅ¡Å¥astnÃ½": 5229,
      "Ġjiskra": 5230,
      "Ġkolena": 5231,
      "ĠnevÃ½": 5232,
      "Ġklasy": 5233,
      "ĠzvlÃ¡Å¡Å¥": 5234,
      "tnÃŃ": 5235,
      "Å¾ko": 5236,
      "jo": 5237,
      "ĠzaznÄĽ": 5238,
      "Ġbozi": 5239,
      "ĠhvÄĽzdÃ¡m": 5240,
      "Ġvedl": 5241,
      "ĠprostÃ½": 5242,
      "Ġlibo": 5243,
      "ĠskÃ½ch": 5244,
      "Ġgi": 5245,
      "try": 5246,
      "ĠÅ¡er": 5247,
      "ĠjejÃŃÅ¾": 5248,
      "ĠtvrdÃ©": 5249,
      "lenou": 5250,
      "ĠkrÃ¡snÃ½ch": 5251,
      "Ġzahrad": 5252,
      "Ġochra": 5253,
      "Ġstrachem": 5254,
      "Ġher": 5255,
      "ĠsleÄį": 5256,
      "mnÄĽl": 5257,
      "ĠmyÅ¡lenek": 5258,
      "ĠpoÅ¡": 5259,
      "ĠpÄĽje": 5260,
      "ĠjeÅ¾ÃŃ": 5261,
      "Ġhlado": 5262,
      "ĠÅ¡aty": 5263,
      "Ġhluboko": 5264,
      "ĠÅ¡o": 5265,
      "Ġmohy": 5266,
      "ĠpÅĻÃŃzrak": 5267,
      "stoupil": 5268,
      "Ġokno": 5269,
      "Ġhrdlo": 5270,
      "Ġdoktor": 5271,
      "Ġrtu": 5272,
      "chovÃ©": 5273,
      "ĠryzÃŃ": 5274,
      "Ġsladko": 5275,
      "ĠprÅ¯vod": 5276,
      "ckÃ½m": 5277,
      "ĠokÃ©": 5278,
      "Ġpovy": 5279,
      "Ġbyto": 5280,
      "ĠzÃ¡zra": 5281,
      "ĠkterÃ©m": 5282,
      "ĠpÄĽÅ¡i": 5283,
      "ĠnechaÅ¥": 5284,
      "ĠhÅĻÃ¡": 5285,
      "Ġpova": 5286,
      "Ġnat": 5287,
      "ĠÃºdy": 5288,
      "Ġkrbu": 5289,
      "Ġdechu": 5290,
      "ĠupÅĻÃŃm": 5291,
      "Å¾uje": 5292,
      "Ġlal": 5293,
      "Ġruchu": 5294,
      "ĠlÃŃst": 5295,
      "ĠbÄĽla": 5296,
      "Å¾enÃ¡": 5297,
      "Ġneob": 5298,
      "Ġknih": 5299,
      "nouc": 5300,
      "vinu": 5301,
      "Ġspjat": 5302,
      "ĠkaÅ¾dÃ©ho": 5303,
      "Ġpohr": 5304,
      "Ġkams": 5305,
      "ĠkolÃ©": 5306,
      "ĠveÄįernÃŃ": 5307,
      "Ġmrtev": 5308,
      "ĠjÃ¡sot": 5309,
      "ĠzvÃ¡": 5310,
      "menÄĽ": 5311,
      "Ġondy": 5312,
      "ĠhlubokÃ©": 5313,
      "ĠzvÃŃtÄĽ": 5314,
      "mÃŃm": 5315,
      "Ġzvad": 5316,
      "ĠopÃ¡": 5317,
      "ĠÅ¡era": 5318,
      "ĠtrpÃŃ": 5319,
      "ĠvÄĽÅ¡t": 5320,
      "ĠÄįÃŃÅ¡i": 5321,
      "ĠkrvavÃ©": 5322,
      "lilo": 5323,
      "ĠzÃ¡hu": 5324,
      "Ġvlnou": 5325,
      "ĠtratÃŃ": 5326,
      "Ġopusti": 5327,
      "bky": 5328,
      "Ġvnik": 5329,
      "die": 5330,
      "ĠstraÅ¡li": 5331,
      "Ġzbyl": 5332,
      "ĠhnÃŃzda": 5333,
      "Ġvzpomen": 5334,
      "ĠÅ¾houcÃŃ": 5335,
      "Ġoby": 5336,
      "sech": 5337,
      "ĠzpÅ¯so": 5338,
      "Ġsvitu": 5339,
      "Ġzkvet": 5340,
      "Ġknihu": 5341,
      "ĠodpovÄĽÄı": 5342,
      "razi": 5343,
      "Ġkoni": 5344,
      "Ġskrom": 5345,
      "ĠzÃ¡ba": 5346,
      "Ġkudy": 5347,
      "ĠvÃ©vo": 5348,
      "ĠhÅ¯l": 5349,
      "ĠdÃ©man": 5350,
      "ĠÅ¡en": 5351,
      "Ġdejte": 5352,
      "Ġjasu": 5353,
      "Ġpokro": 5354,
      "ĠjimiÅ¾": 5355,
      "vÃŃvÃ¡": 5356,
      "Ġvzty": 5357,
      "ĠÅ¡ÃŃÅĻÃŃ": 5358,
      "Ġsnadno": 5359,
      "ĠsmÄĽsi": 5360,
      "ĠblÃ½skÃ¡": 5361,
      "ĠtmÃŃ": 5362,
      "ĠmÄĽlo": 5363,
      "ĠposvÃ¡t": 5364,
      "ĠspÄĽje": 5365,
      "rovnÃ¡": 5366,
      "nÃ¡ÅĻ": 5367,
      "ĠmoÅĻÃŃ": 5368,
      "Ġkdosi": 5369,
      "cemi": 5370,
      "ĠpolÃŃbenÃŃ": 5371,
      "ĠnejvÄĽtÅ¡ÃŃ": 5372,
      "ĠnnÃ¡": 5373,
      "Ġdoz": 5374,
      "tÄĽjÅ¡ÃŃ": 5375,
      "ĠkovÃ¡": 5376,
      "Äįilo": 5377,
      "Ġvrh": 5378,
      "ĠspÃ¡sy": 5379,
      "ĠstrÃ¡ni": 5380,
      "ĠmusÃŃÅ¡": 5381,
      "ĠtesknÄĽ": 5382,
      "ĠjmÃ©na": 5383,
      "ĠoltÃ¡ÅĻ": 5384,
      "ron": 5385,
      "Ġniv": 5386,
      "Ġnesu": 5387,
      "Ġmarno": 5388,
      "Ġbyste": 5389,
      "Ġbudoucnost": 5390,
      "Ġpolem": 5391,
      "Ġbytost": 5392,
      "ĠÅ¾ele": 5393,
      "ĠpÅĻiÅ¡lo": 5394,
      "ĠkrutÃ½": 5395,
      "ĠrozkoÅ¡ÃŃ": 5396,
      "lnÃ©": 5397,
      "Ġneh": 5398,
      "Ġvidi": 5399,
      "ĠkÅĻiÅ¡Å¥": 5400,
      "Ġskryt": 5401,
      "ĠtÃ³n": 5402,
      "dno": 5403,
      "Ġleda": 5404,
      "Ġdeset": 5405,
      "moc": 5406,
      "ĠkÃ¡zal": 5407,
      "ĠkrokÅ¯": 5408,
      "ĠaniÅ¾": 5409,
      "ĠkÅĻesÅ¥an": 5410,
      "Å¾te": 5411,
      "ĠhovoÅĻÃŃ": 5412,
      "ABABBX": 5413,
      "mÃ¡n": 5414,
      "XAAXBB": 5415,
      "Ġtiskne": 5416,
      "tli": 5417,
      "ĠtkÃ¡": 5418,
      "Ġpor": 5419,
      "Ġjaksi": 5420,
      "Ġtok": 5421,
      "ĠnÄĽl": 5422,
      "diti": 5423,
      "ĠzbÄĽ": 5424,
      "Ġmatkou": 5425,
      "ĠsnÃŃt": 5426,
      "Ġvolnost": 5427,
      "Ġnos": 5428,
      "ĠspÅĻÃ¡": 5429,
      "Ġotcem": 5430,
      "ĠdivnÃ¡": 5431,
      "ie": 5432,
      "Ġzru": 5433,
      "ĠrdÃŃ": 5434,
      "Ġpraco": 5435,
      "ĠstaÅĻÃŃ": 5436,
      "ĠtÅĻikrÃ¡t": 5437,
      "vostÃŃ": 5438,
      "nika": 5439,
      "ĠÄįechÃ¡ch": 5440,
      "Ġranou": 5441,
      "ĠsÃ¡h": 5442,
      "dro": 5443,
      "Ġrosou": 5444,
      "bor": 5445,
      "Ġlidstvu": 5446,
      "ĠboÅ¾skÃ©": 5447,
      "ĠnepÅĻÃŃtel": 5448,
      "vÅ¡i": 5449,
      "Ġkme": 5450,
      "ĠsvÄĽtle": 5451,
      "bej": 5452,
      "Ġhrot": 5453,
      "Ġgeni": 5454,
      "ĠusmÄĽ": 5455,
      "ĠproudÃŃ": 5456,
      "Ġjist": 5457,
      "ĠnebesÅ¯m": 5458,
      "ĠskrÃ¡ni": 5459,
      "ĠslyÅ¡te": 5460,
      "Ġplen": 5461,
      "Ġbzu": 5462,
      "Ġdoj": 5463,
      "ĠdÃŃla": 5464,
      "Ġsvate": 5465,
      "pis": 5466,
      "ĠvzkÅĻÃŃ": 5467,
      "ĠnnÄĽ": 5468,
      "Ġtlou": 5469,
      "vÃŃÅ¡": 5470,
      "ĠjÃŃch": 5471,
      "ĠzÃ¡Å¡tÃŃ": 5472,
      "Ġkrov": 5473,
      "Ġroucho": 5474,
      "ĠvyÅ¡Å¡ÃŃ": 5475,
      "ĠÄįarodÄĽj": 5476,
      "21": 5477,
      "Ġsnou": 5478,
      "ĠzÅĻÃŃti": 5479,
      "ĠjunÃ¡": 5480,
      "Ġblesku": 5481,
      "ĠstrÃ¡nÃŃ": 5482,
      "ĠpyÅ¡nÄĽ": 5483,
      "zdÄĽ": 5484,
      "ĠpodÄĽ": 5485,
      "dÃ¡Å¡": 5486,
      "Ġpluje": 5487,
      "ĠpÄĽknÃ©": 5488,
      "Ġejhle": 5489,
      "Ġtaje": 5490,
      "Ġpravou": 5491,
      "ĠnÃ©st": 5492,
      "ĠmodrÃ½ch": 5493,
      "dlÃ©": 5494,
      "Ġsky": 5495,
      "ĠudÄĽ": 5496,
      "Ġlau": 5497,
      "ĠbÃŃlÃ½m": 5498,
      "dÄĽte": 5499,
      "Ġbes": 5500,
      "Ġdvak": 5501,
      "ĠstrojÃŃ": 5502,
      "Ġdvacet": 5503,
      "ĠhroznÃ¡": 5504,
      "Ġfau": 5505,
      "ĠÄįtve": 5506,
      "rnÃ©m": 5507,
      "Ġpovr": 5508,
      "ĠkÅĻÃŃÅ¾em": 5509,
      "ĠlesÃŃch": 5510,
      "Ġhlubiny": 5511,
      "Å¾u": 5512,
      "Å¡kou": 5513,
      "Ġonu": 5514,
      "ĠupÃŃ": 5515,
      "ĠletÄĽl": 5516,
      "Ġdruha": 5517,
      "ĠhrdÃ½": 5518,
      "Ġmsti": 5519,
      "lat": 5520,
      "Ġzast": 5521,
      "ĠuÄįen": 5522,
      "Ġpodve": 5523,
      "ĠpÅĻÃŃtom": 5524,
      "Ġjasnou": 5525,
      "Ġpruh": 5526,
      "Ġdcery": 5527,
      "vÄĽti": 5528,
      "Ġmelo": 5529,
      "Ġmlh": 5530,
      "ĠpÅĻÃ¡telÃ©": 5531,
      "ĠvonnÃ©": 5532,
      "ÅĪÃ¡": 5533,
      "Ġsvaty": 5534,
      "Ġgu": 5535,
      "zÅ¯": 5536,
      "Ġnnou": 5537,
      "Ġhni": 5538,
      "Ġkoli": 5539,
      "Ġniko": 5540,
      "ĠlÃ¡kÃ¡": 5541,
      "Ġsmy": 5542,
      "ĠsahÃ¡": 5543,
      "Ġsedm": 5544,
      "ĠÄıÃ¡b": 5545,
      "Ġaneb": 5546,
      "Ġkul": 5547,
      "Ġsoudu": 5548,
      "ĠÅ¡irÃ©": 5549,
      "Ġmih": 5550,
      "Ġodda": 5551,
      "kouz": 5552,
      "ĠplÃ¡ni": 5553,
      "ĠtÅĻÃ¡": 5554,
      "Ġnivy": 5555,
      "Ġmohlo": 5556,
      "Ġkriti": 5557,
      "Ġhudby": 5558,
      "lÃŃch": 5559,
      "ĠpÃŃlÃŃ": 5560,
      "ABX": 5561,
      "Ġpojednou": 5562,
      "ĠuÄįÃŃ": 5563,
      "ĠkypÃŃ": 5564,
      "ĠostatnÃŃ": 5565,
      "chodu": 5566,
      "Ġsouzvu": 5567,
      "Ġnepla": 5568,
      "ĠdrtÃŃ": 5569,
      "Ġzahrady": 5570,
      "ĠplatÃŃ": 5571,
      "Ġfra": 5572,
      "ĠozÃ¡": 5573,
      "ĠnadÄĽji": 5574,
      "Ġblud": 5575,
      "ĠzaplÃ¡": 5576,
      "Ġspasi": 5577,
      "ĠzachvÄĽl": 5578,
      "nkÃ¡ch": 5579,
      "snou": 5580,
      "Å¾stvÃŃ": 5581,
      "Ġopi": 5582,
      "voval": 5583,
      "ĠronÃŃ": 5584,
      "Ġvinou": 5585,
      "Ġhust": 5586,
      "ĠtÄĽÅ¾kÃ½ch": 5587,
      "ĠÅ¾ez": 5588,
      "Ġsyny": 5589,
      "Ġdary": 5590,
      "Ġkouzla": 5591,
      "lenÃ½ch": 5592,
      "vobo": 5593,
      "ĠblahÃ©": 5594,
      "Ġotco": 5595,
      "Ġpostavy": 5596,
      "Ġharmo": 5597,
      "ĠhlÃ©": 5598,
      "lin": 5599,
      "ĠlÃŃm": 5600,
      "ĠÄįeskÃ½ch": 5601,
      "ako": 5602,
      "bitÃŃ": 5603,
      "prvÃ©": 5604,
      "skutku": 5605,
      "ĠÅ¾alost": 5606,
      "Ġobloze": 5607,
      "ĠnÄĽkolik": 5608,
      "Ġvskutku": 5609,
      "Ġvzali": 5610,
      "vnÃŃk": 5611,
      "Ġtrav": 5612,
      "ĠznÄĽlo": 5613,
      "ĠzmizÃŃ": 5614,
      "Ġulici": 5615,
      "Ġslze": 5616,
      "ĠnÄĽhoÅ¾": 5617,
      "ĠhlÃ¡sÃ¡": 5618,
      "Ġcar": 5619,
      "Ġlety": 5620,
      "Ġproh": 5621,
      "ĠÅ¾ivoby": 5622,
      "kova": 5623,
      "ĠÅ¾ili": 5624,
      "ĠzÃ¡pal": 5625,
      "ber": 5626,
      "ĠtemnÃ½ch": 5627,
      "ĠzbÃ½vÃ¡": 5628,
      "ĠnÃ¡roda": 5629,
      "ĠÅ¾alem": 5630,
      "ĠvyÅ¡e": 5631,
      "ĠsÃŃtÄĽ": 5632,
      "ĠdÃ¡lnÃ©": 5633,
      "Ġdruhou": 5634,
      "Ġblahem": 5635,
      "ĠmlÃ¡de": 5636,
      "Ġpodob": 5637,
      "Ġbudoucnosti": 5638,
      "ĠnecÃŃ": 5639,
      "Ġporu": 5640,
      "Ġrozs": 5641,
      "Ġvaz": 5642,
      "Ġozval": 5643,
      "Ġpaprsky": 5644,
      "ĠhbitÄĽ": 5645,
      "Ġulo": 5646,
      "ĠnÄĽhy": 5647,
      "Ġdych": 5648,
      "ĠneustÃ¡": 5649,
      "ĠkalÃŃ": 5650,
      "ĠkÅĻeh": 5651,
      "ĠnenadÃ¡": 5652,
      "ĠtakÃ½": 5653,
      "ĠmÄĽstem": 5654,
      "ĠstÃ¡ly": 5655,
      "ĠzlatÄĽ": 5656,
      "ĠplÃ¡la": 5657,
      "ĠstranÄĽ": 5658,
      "Ġfilo": 5659,
      "ĠkvÃ©st": 5660,
      "Äįat": 5661,
      "ĠodvÄĽ": 5662,
      "zenÃ©": 5663,
      "Ġtanci": 5664,
      "lÃ¡m": 5665,
      "Ġcud": 5666,
      "ĠÅ¡pa": 5667,
      "rec": 5668,
      "stoup": 5669,
      "ĠznÄĽla": 5670,
      "Ġbas": 5671,
      "ĠpaÅĻÃŃ": 5672,
      "ĠbÅĻehy": 5673,
      "Ġzkr": 5674,
      "Ġbludi": 5675,
      "Ġskrz": 5676,
      "voj": 5677,
      "ĠvÅ¡ed": 5678,
      "Ġfor": 5679,
      "ĠdÃŃvku": 5680,
      "ĠkrÃ¡tce": 5681,
      "hlÃ©d": 5682,
      "ĠsmÃ¡t": 5683,
      "ĠkrouÅ¾ÃŃ": 5684,
      "hor": 5685,
      "Ġkan": 5686,
      "ĠsvÄĽtlÃ½": 5687,
      "ĠpuÄįÃŃ": 5688,
      "ĠspÃŃÅ¡e": 5689,
      "Ġsoudru": 5690,
      "ÅĻuje": 5691,
      "ĠodÅĻÃŃ": 5692,
      "ĠlÃ©to": 5693,
      "Ġbem": 5694,
      "ĠbrÃ¡t": 5695,
      "Ġzavz": 5696,
      "vÄĽla": 5697,
      "Ġvzhled": 5698,
      "vete": 5699,
      "ĠvÅ¡ecku": 5700,
      "ĠÅ¾lutÃ©": 5701,
      "lnÃ½": 5702,
      "ĠÄįit": 5703,
      "ĠtÄĽÅ¾kÃ½m": 5704,
      "Ġhouf": 5705,
      "prch": 5706,
      "Ġdostal": 5707,
      "Ġzmu": 5708,
      "Ġsply": 5709,
      "ĠcizÃŃm": 5710,
      "ĠdivÃ©m": 5711,
      "ĠbÄĽl": 5712,
      "Ġzbroj": 5713,
      "Å¾nÃ¡": 5714,
      "nÄĽla": 5715,
      "vedl": 5716,
      "ĠostrÃ½": 5717,
      "ĠÅ¡Å¥astnÄĽ": 5718,
      "bÅ¯h": 5719,
      "ot": 5720,
      "skÃ©mu": 5721,
      "Ġstarce": 5722,
      "ĠzvukÅ¯": 5723,
      "ĠodpoÄįÃŃ": 5724,
      "qu": 5725,
      "ĠzÃ¡pla": 5726,
      "ĠÅĻadu": 5727,
      "ĠzalÃ©": 5728,
      "kru": 5729,
      "liti": 5730,
      "ĠstrÃ¡nÄĽ": 5731,
      "ĠzoÅĻe": 5732,
      "ĠzahradÄĽ": 5733,
      "Ġsrde": 5734,
      "ĠfarÃ¡": 5735,
      "Ġsep": 5736,
      "ĠvÃŃnem": 5737,
      "Ġvav": 5738,
      "ĠvolnÃ½": 5739,
      "ĠkvÃŃtek": 5740,
      "ĠkÅĻÃŃdly": 5741,
      "Ġpoku": 5742,
      "ĠvodnÃŃ": 5743,
      "vujÃŃ": 5744,
      "Ġnejlep": 5745,
      "ĠhvÃŃ": 5746,
      "Ġholou": 5747,
      "Ġmohou": 5748,
      "ĠpilnÄĽ": 5749,
      "Ã¡Å¡": 5750,
      "Ġlit": 5751,
      "ĠnÃ¡ÅĻek": 5752,
      "ĠrÃ¡ko": 5753,
      "ĠslÃ¡vou": 5754,
      "ĠdÅ¯stoj": 5755,
      "Ġhudbou": 5756,
      "vnÃ©": 5757,
      "ĠpÅĻichÃ¡zÃŃ": 5758,
      "ĠslÃ½ch": 5759,
      "Ġsklonil": 5760,
      "Ġnapad": 5761,
      "Ġledo": 5762,
      "Ġhromu": 5763,
      "Ġokny": 5764,
      "ĠznÄĽly": 5765,
      "ĠdÄĽtstvÃŃ": 5766,
      "Ġzoufa": 5767,
      "ĠkrÃ¡lovstvÃŃ": 5768,
      "ĠpÅĻijdou": 5769,
      "Ġzhu": 5770,
      "Ġosi": 5771,
      "Ġlad": 5772,
      "Å¡ÃŃÅ¡": 5773,
      "Ġpusto": 5774,
      "ĠvzpomÃŃnky": 5775,
      "Ġhasne": 5776,
      "hej": 5777,
      "dÄĽly": 5778,
      "Ġmudr": 5779,
      "ĠotvÃŃ": 5780,
      "ÅĻenou": 5781,
      "ĠosvÄĽ": 5782,
      "natÃ©": 5783,
      "Ġkdybys": 5784,
      "Ġbloudil": 5785,
      "ĠumÄĽl": 5786,
      "toval": 5787,
      "ĠpohÅĻe": 5788,
      "ĠzdvihÃ¡": 5789,
      "ÅĪal": 5790,
      "tuje": 5791,
      "ĠÄįen": 5792,
      "jela": 5793,
      "ĠlaÅĪ": 5794,
      "ĠÅ¡ÃŃje": 5795,
      "Ġplny": 5796,
      "ĠvÃ½chodu": 5797,
      "ĠsnovÃ©": 5798,
      "ĠoÄįka": 5799,
      "ĠÅ¾o": 5800,
      "ĠpÅĻedc": 5801,
      "Ġblahu": 5802,
      "ĠmraÄįen": 5803,
      "Ġplody": 5804,
      "ĠmdlÃ©": 5805,
      "ĠmyÅ¡lenka": 5806,
      "ĠpestrÃ©": 5807,
      "jala": 5808,
      "kalo": 5809,
      "ÄįÃŃch": 5810,
      "Ġsuk": 5811,
      "Ġvlasten": 5812,
      "ĠtajnÃ©": 5813,
      "vÃ¡me": 5814,
      "Ġocho": 5815,
      "XAAA": 5816,
      "ĠkolÃŃ": 5817,
      "ĠtouÅ¾il": 5818,
      "Ġhus": 5819,
      "ĠlÃŃtÃ¡": 5820,
      "Ġpije": 5821,
      "ĠskÃ¡Äįe": 5822,
      "ĠstÅĻÃ¡": 5823,
      "Äįily": 5824,
      "ĠchrÃ¡nÃŃ": 5825,
      "ĠprospÄĽ": 5826,
      "ĠvzplÃ¡l": 5827,
      "ĠpohÃ¡d": 5828,
      "ĠslednÃŃ": 5829,
      "ĠmlÃ½n": 5830,
      "roval": 5831,
      "Ġvina": 5832,
      "Ġsedmi": 5833,
      "Ġmok": 5834,
      "ĠrozlÃŃ": 5835,
      "ĠkrvÃ¡": 5836,
      "Ġchaty": 5837,
      "lice": 5838,
      "cek": 5839,
      "Ġvzej": 5840,
      "Ġrozv": 5841,
      "Äįeji": 5842,
      "Ġsvojich": 5843,
      "Ġpokoje": 5844,
      "Ġnebyla": 5845,
      "Ġrozmil": 5846,
      "kynÄĽ": 5847,
      "ĠkoÄįÃ¡": 5848,
      "ĠvÄĽÅĻit": 5849,
      "Ġdlani": 5850,
      "Ġpravdou": 5851,
      "Ġnekli": 5852,
      "meÅĪ": 5853,
      "Ġpohro": 5854,
      "Ġzimy": 5855,
      "Ġpozdvi": 5856,
      "ĠvysokÃ©": 5857,
      "Ġramena": 5858,
      "nkÃ¡": 5859,
      "Ġvzrost": 5860,
      "ĠzÃ¡vÄĽ": 5861,
      "ĠÃºna": 5862,
      "ĠstÃ¡lo": 5863,
      "ĠmocnÃ©": 5864,
      "venÃŃ": 5865,
      "ĠpÅĻekva": 5866,
      "mÄĽla": 5867,
      "ĠbÃŃdnÃ½": 5868,
      "Ġjedinou": 5869,
      "ĠnevÃŃÅ¡": 5870,
      "chÃ¡m": 5871,
      "ĠzÃ¡stu": 5872,
      "ĠbÄĽlo": 5873,
      "Ġjsouc": 5874,
      "ĠsnivÃ©": 5875,
      "ĠvzÃŃt": 5876,
      "ĠÅ¾ivobytÃŃ": 5877,
      "desÃ¡": 5878,
      "ĠhoÅ¡i": 5879,
      "vÃ©tÃ¡": 5880,
      "ĠvidÄĽla": 5881,
      "Ġlos": 5882,
      "Ġfo": 5883,
      "ĠpÅ¯dy": 5884,
      "ĠzmÃ¡m": 5885,
      "Ġhrobem": 5886,
      "Ġlec": 5887,
      "Ġposlal": 5888,
      "ĠhÅĻÃŃÅ¡": 5889,
      "ĠstudÃ¡": 5890,
      "gy": 5891,
      "sud": 5892,
      "Ġbly": 5893,
      "Ġoblaky": 5894,
      "ajÃŃ": 5895,
      "blesk": 5896,
      "Ġvte": 5897,
      "Ġsmutnou": 5898,
      "Ġrakev": 5899,
      "ĠonÄĽch": 5900,
      "Ġih": 5901,
      "Ġoso": 5902,
      "Ġzlomen": 5903,
      "ĠhÅĻÃŃchy": 5904,
      "ĠzimÄĽ": 5905,
      "Ġjarem": 5906,
      "Å¾emi": 5907,
      "ĠjitÅĻ": 5908,
      "Ġprsten": 5909,
      "tÃŃÅ¡": 5910,
      "ĠÅ¾ila": 5911,
      "ster": 5912,
      "ĠhvÄĽzdami": 5913,
      "ĠpoÅĻÃ¡d": 5914,
      "ĠutÄĽ": 5915,
      "ĠÅ¾eÅĪ": 5916,
      "Ġlibu": 5917,
      "ĠdÃ©le": 5918,
      "ĠzimnÃŃ": 5919,
      "Ġoj": 5920,
      "nÃ¡c": 5921,
      "Äįinu": 5922,
      "tajen": 5923,
      "Ġlidskou": 5924,
      "Ġtly": 5925,
      "Ġzato": 5926,
      "ĠholÃ©": 5927,
      "ĠsadÄĽ": 5928,
      "Ġpoupat": 5929,
      "cenÃ¡": 5930,
      "Ġpud": 5931,
      "ĠkÅ¡ti": 5932,
      "Å¡lÃŃ": 5933,
      "Ġad": 5934,
      "rÃ¡Å¾ÃŃ": 5935,
      "vÄĽjÅ¡ÃŃ": 5936,
      "ĠoblÃ¡": 5937,
      "ĠdÄĽsÃŃ": 5938,
      "Å¾iti": 5939,
      "ĠmilÃŃ": 5940,
      "ĠhouÅ¡tÃŃ": 5941,
      "Ġblankytu": 5942,
      "kr": 5943,
      "Ġjisto": 5944,
      "Ġvypla": 5945,
      "lÃŃcÃŃ": 5946,
      "ĠnÃ¡v": 5947,
      "ĠÃºkol": 5948,
      "trem": 5949,
      "ĠlÃ©ka": 5950,
      "ĠznÃ¡mÃ©": 5951,
      "Ġrukama": 5952,
      "Å¾nou": 5953,
      "ĠpÅĻÃŃsnÄĽ": 5954,
      "ĠÅ¡ÃŃlen": 5955,
      "vily": 5956,
      "ĠstkvÃŃ": 5957,
      "Ġihned": 5958,
      "ĠmÄĽstu": 5959,
      "nÄĽjÅ¡ÃŃch": 5960,
      "Ġpokra": 5961,
      "zil": 5962,
      "ĠsklÃŃ": 5963,
      "Ġkres": 5964,
      "Ġmilovat": 5965,
      "ĠubohÃ©": 5966,
      "ĠzazpÃŃ": 5967,
      "Ġluhy": 5968,
      "ĠpustÃ½": 5969,
      "ĠchvÄĽnÃŃ": 5970,
      "ĠskÃ¡lu": 5971,
      "Ġseveru": 5972,
      "ĠuvÄĽ": 5973,
      "Ġleto": 5974,
      "Ġrato": 5975,
      "Ġskryl": 5976,
      "ĠdÄĽsnÃ½": 5977,
      "ĠkmitÃ¡": 5978,
      "ĠutrpenÃŃ": 5979,
      "ĠvnÄĽm": 5980,
      "Ġjedovat": 5981,
      "deÅĪ": 5982,
      "Ġvych": 5983,
      "ĠnÃ¡bo": 5984,
      "ĠpÃ¡dÃŃ": 5985,
      "Ġrysy": 5986,
      "ĠvlastnÄĽ": 5987,
      "ĠlistÅ¯": 5988,
      "ĠmyÅ¡lÃ©nek": 5989,
      "Ġjesen": 5990,
      "Ġpre": 5991,
      "ĠschÃ¡zÃŃ": 5992,
      "Ġhly": 5993,
      "Ġdomy": 5994,
      "Ġhodin": 5995,
      "sej": 5996,
      "ĠsnÄĽhem": 5997,
      "ĠhrobÅ¯": 5998,
      "taly": 5999,
      "volu": 6000,
      "ĠrtÅ¯m": 6001,
      "ĠÅ¾ivÃ¡": 6002,
      "Ġprcha": 6003,
      "ĠsÃŃc": 6004,
      "ĠplnÃ½m": 6005,
      "Ġskok": 6006,
      "ĠbujnÃ©": 6007,
      "ĠmyÅ¡lÃ©nka": 6008,
      "chne": 6009,
      "ĠuÅ¡i": 6010,
      "vanou": 6011,
      "ĠknÄĽÅ¾ÃŃ": 6012,
      "Ġsmysly": 6013,
      "Ġpoledne": 6014,
      "ĠssÃ¡": 6015,
      "ĠzÃ¡ho": 6016,
      "Ġnejsi": 6017,
      "Ġrety": 6018,
      "Ġpomsty": 6019,
      "ĠtuÅ¡ÃŃm": 6020,
      "ĠzÃ¡Å¡Å¥": 6021,
      "Ġslab": 6022,
      "ĠchrÃ¡my": 6023,
      "ĠzvlÃ¡Å¡tnÃŃ": 6024,
      "Ġpavu": 6025,
      "ĠstÃŃhÃ¡": 6026,
      "ĠznÃ¡te": 6027,
      "ĠhlubokÃ½": 6028,
      "ĠchvÃ¡tÃ¡": 6029,
      "Ġpoha": 6030,
      "ary": 6031,
      "ĠpÃ¡ry": 6032,
      "ĠplÃ¡ly": 6033,
      "ĠnapÅĻed": 6034,
      "ĠhedvÃ¡": 6035,
      "ĠvichÅĻice": 6036,
      "Ġmladist": 6037,
      "Ġhli": 6038,
      "Ġhoru": 6039,
      "byl": 6040,
      "vÃŃme": 6041,
      "ĠzoufalstvÃŃ": 6042,
      "ĠÅ¡lehÃ¡": 6043,
      "dÃ½ch": 6044,
      "ĠlhÃ¡": 6045,
      "ÅĻiv": 6046,
      "ĠÅ¡ele": 6047,
      "ĠÅ¡edÃ¡": 6048,
      "ĠotrÃ¡": 6049,
      "ĠdÃ¡my": 6050,
      "ĠzmÃŃtÃ¡": 6051,
      "Ġuva": 6052,
      "Ġjih": 6053,
      "ĠÅĻÃŃma": 6054,
      "ĠmaÄı": 6055,
      "Ġston": 6056,
      "ĠstarÃ©m": 6057,
      "ĠptÃ¡ka": 6058,
      "stÃ¡nÃŃ": 6059,
      "ĠsvÃŃtil": 6060,
      "Ġulice": 6061,
      "ĠbohatÃ½r": 6062,
      "ĠsrÃ¡z": 6063,
      "Ġuto": 6064,
      "ĠÅ¡tva": 6065,
      "Ġsiro": 6066,
      "ĠnaÅ¡eho": 6067,
      "Ġjisker": 6068,
      "ĠvtÄĽ": 6069,
      "Ġpopra": 6070,
      "XAABXB": 6071,
      "Ġdopro": 6072,
      "Ġmrav": 6073,
      "ĠdvakrÃ¡t": 6074,
      "ĠnelÃŃ": 6075,
      "Ġnehy": 6076,
      "ÅĻeli": 6077,
      "ĠobjÃŃm": 6078,
      "ĠslabÃ©": 6079,
      "ĠÅĻadou": 6080,
      "vka": 6081,
      "Ġdmou": 6082,
      "Ġrol": 6083,
      "ĠrtÃŃ": 6084,
      "ĠÅ¾ilÃ¡ch": 6085,
      "Ġzkad": 6086,
      "nÃ¡n": 6087,
      "Ġvysko": 6088,
      "Ġvzbou": 6089,
      "Ġsoko": 6090,
      "ĠbleskÅ¯": 6091,
      "Ġzpup": 6092,
      "chat": 6093,
      "ÅĻeje": 6094,
      "dosti": 6095,
      "Ġkyti": 6096,
      "ĠpÅĻemÃ½": 6097,
      "ĠskÅĻivan": 6098,
      "tiv": 6099,
      "Ġoblou": 6100,
      "ĠprvÃ½": 6101,
      "Ġjedem": 6102,
      "ĠdruzÃŃ": 6103,
      "ĠzdrÃ¡va": 6104,
      "ĠtakovÃ©": 6105,
      "ĠpomÃ¡": 6106,
      "ĠÅĻÃŃc": 6107,
      "ĠpÃ¡ny": 6108,
      "ĠvÄĽÄįnÃ½ch": 6109,
      "ĠprÃ¡zdnÃ©": 6110,
      "Ġstrun": 6111,
      "vanÃ¡": 6112,
      "dÃŃvÃ¡": 6113,
      "stane": 6114,
      "ĠpÅĻÃŃsta": 6115,
      "Ġryt": 6116,
      "Ġvesel": 6117,
      "Ġpluh": 6118,
      "ĠpodzimnÃŃ": 6119,
      "ĠÄįervÃ¡nkÅ¯": 6120,
      "Å¡lenÃŃ": 6121,
      "ĠslastÃŃ": 6122,
      "ĠvlastnÃŃm": 6123,
      "ĠkamenÃŃ": 6124,
      "ĠrÅ¯znÃ©": 6125,
      "Ġkvil": 6126,
      "ĠoÄį": 6127,
      "Ġdojem": 6128,
      "ĠlodÃŃ": 6129,
      "pÃŃÅ¡": 6130,
      "ĠoltÃ¡ÅĻi": 6131,
      "ĠmÅ¾ikem": 6132,
      "Ġovoce": 6133,
      "bled": 6134,
      "zka": 6135,
      "Ġjil": 6136,
      "letÄĽl": 6137,
      "Ġsval": 6138,
      "ĠÅ¡et": 6139,
      "ĠÅ¡erem": 6140,
      "ĠchtÄĽjÃŃ": 6141,
      "Ġshlu": 6142,
      "ĠvÃ¡lky": 6143,
      "Å¾nÃ½ch": 6144,
      "Ġoct": 6145,
      "nÄĽly": 6146,
      "Ġprok": 6147,
      "Ġskro": 6148,
      "ĠpravÃŃm": 6149,
      "Ġlidmi": 6150,
      "Ġobrazy": 6151,
      "ĠzelenÃ½": 6152,
      "Ġklesl": 6153,
      "ĠhÅĻÃŃchÅ¯": 6154,
      "ĠrÅ¯znÃ½ch": 6155,
      "Ġpohan": 6156,
      "Ġrce": 6157,
      "Ġmlze": 6158,
      "tÃ½m": 6159,
      "Ġsestra": 6160,
      "Ġat": 6161,
      "ĠbavÃŃ": 6162,
      "ĠtÅĻesk": 6163,
      "ĠÅ¡epce": 6164,
      "Ġbalvan": 6165,
      "ĠvavÅĻÃŃ": 6166,
      "zdu": 6167,
      "Ġah": 6168,
      "ĠruÄįky": 6169,
      "ĠburÃ¡": 6170,
      "titi": 6171,
      "Å¡tÄĽnÃŃ": 6172,
      "ĠsnÄĽm": 6173,
      "ĠsklÃ¡dÃ¡": 6174,
      "Ġvza": 6175,
      "Äįeli": 6176,
      "ĠobjÃŃmÃ¡": 6177,
      "ĠmlÄįenÃŃ": 6178,
      "Ġpaprs": 6179,
      "ĠneznÃ¡mÃ½": 6180,
      "Ġtvar": 6181,
      "ĠideÃ¡": 6182,
      "vrt": 6183,
      "Ġbezna": 6184,
      "slov": 6185,
      "ĠÅĻen": 6186,
      "ĠboÅĻÃŃ": 6187,
      "ĠÅ¡irÃ½": 6188,
      "ĠjejichÅ¾": 6189,
      "ĠprobÃŃ": 6190,
      "Ġvypl": 6191,
      "hlas": 6192,
      "ĠperutÄĽ": 6193,
      "Ġprostor": 6194,
      "Ġchceme": 6195,
      "jou": 6196,
      "rali": 6197,
      "Ġpoklady": 6198,
      "Ġodlesk": 6199,
      "ĠzdobÃŃ": 6200,
      "ĠbÃ©ÅĻe": 6201,
      "ĠpenÄĽz": 6202,
      "ĠvylÃŃ": 6203,
      "ĠbodÃ¡": 6204,
      "Ġpraha": 6205,
      "ĠpÅĻÃŃklad": 6206,
      "ĠpÃ¡nÅ¯": 6207,
      "razÃŃ": 6208,
      "Ġzanech": 6209,
      "ĠuvÃŃ": 6210,
      "ĠteÄįe": 6211,
      "Ġcig": 6212,
      "ĠstÃ¡do": 6213,
      "ĠnevidÄĽl": 6214,
      "Ġmoudrosti": 6215,
      "ĠpoÅ¾Ã¡r": 6216,
      "Ġratole": 6217,
      "Ġkorou": 6218,
      "ĠnohÃ¡m": 6219,
      "stala": 6220,
      "Ġumdle": 6221,
      "Ġrenal": 6222,
      "Ġnohu": 6223,
      "ĠmÃŃhÃ¡": 6224,
      "ĠkaÅ¾dÃ©mu": 6225,
      "ĠpÅ¯lnoc": 6226,
      "ĠpoprvÃ©": 6227,
      "nÃ©sti": 6228,
      "Ġoddech": 6229,
      "ĠbÄĽhu": 6230,
      "Å¾ily": 6231,
      "Ġout": 6232,
      "Å¡til": 6233,
      "Ġneje": 6234,
      "mÄĽly": 6235,
      "Ġhromo": 6236,
      "ĠsvatÃ©m": 6237,
      "ĠzahÅĻ": 6238,
      "Ġvno": 6239,
      "ĠchÅĻe": 6240,
      "Ġryk": 6241,
      "ĠhlasÅ¯": 6242,
      "stÃ¡ch": 6243,
      "Ġnepoko": 6244,
      "ĠvrÃ¡sky": 6245,
      "ĠnÅ¯Å¾": 6246,
      "dÅĻÃŃ": 6247,
      "Ġben": 6248,
      "ĠseÄį": 6249,
      "Ġpocit": 6250,
      "Ġlevo": 6251,
      "ĠpÃŃti": 6252,
      "Ġposly": 6253,
      "Ġnechte": 6254,
      "ĠvlÃ¡dy": 6255,
      "ĠtajemnÃ©": 6256,
      "ĠnÄĽÅ¾nÃ©": 6257,
      "Ġsatan": 6258,
      "Ġprova": 6259,
      "ĠnÄĽmÃ¡": 6260,
      "ĠlÃŃstek": 6261,
      "ĠpÅĻesvÄĽd": 6262,
      "ĠpoÄįne": 6263,
      "Ġvzdoru": 6264,
      "Ġvnady": 6265,
      "Ġvlek": 6266,
      "Äįuje": 6267,
      "Ġlov": 6268,
      "ĠpouhÃ©": 6269,
      "ĠslabÃ½": 6270,
      "Ġhrdla": 6271,
      "Ġplynou": 6272,
      "ptÃ¡": 6273,
      "ĠzaÄįÃŃ": 6274,
      "ĠhoÅĻi": 6275,
      "ĠkoutÄĽ": 6276,
      "ĠretÅ¯": 6277,
      "dlech": 6278,
      "ĠnevÃ¡": 6279,
      "Ġvysta": 6280,
      "ĠvojÃŃ": 6281,
      "ĠÅ¡ÃŃch": 6282,
      "ĠspoÄįÃŃ": 6283,
      "ĠzjevÃŃ": 6284,
      "Ġprince": 6285,
      "bral": 6286,
      "Ġkej": 6287,
      "Ġchech": 6288,
      "ĠuhlÃŃ": 6289,
      "ĠÅĻece": 6290,
      "ĠÅ¡ÃŃj": 6291,
      "Ġnejde": 6292,
      "ÅĻeny": 6293,
      "ĠchvÄĽj": 6294,
      "ĠchvÄĽlo": 6295,
      "Ġstup": 6296,
      "ĠdivokÃ©": 6297,
      "ĠdnovÃ©": 6298,
      "taj": 6299,
      "Ġnejen": 6300,
      "Ġohlas": 6301,
      "ĠchceÅ¡li": 6302,
      "ĠmajestÃ¡": 6303,
      "Ġdovo": 6304,
      "ĠvÃŃÄįka": 6305,
      "ÅĪu": 6306,
      "ĠÄįinu": 6307,
      "ĠmateÅĻ": 6308,
      "ÄįekÃ¡": 6309,
      "ĠhledÃ¡m": 6310,
      "ĠskalÃ¡ch": 6311,
      "ĠhÅĻbitov": 6312,
      "ĠpÅĻelud": 6313,
      "nÄįÃŃ": 6314,
      "Å¾at": 6315,
      "Ã½t": 6316,
      "mon": 6317,
      "Ġbah": 6318,
      "AXABXB": 6319,
      "ĠchtÄĽlo": 6320,
      "vracÃŃ": 6321,
      "ĠvesmÃŃr": 6322,
      "Ġstranu": 6323,
      "ĠvteÅĻi": 6324,
      "ÄįkÃ½": 6325,
      "ĠlÃ¡me": 6326,
      "ĠhladÃŃ": 6327,
      "Å¾eli": 6328,
      "tÃ¡ÅĻ": 6329,
      "ĠvrahÅ¯": 6330,
      "ĠdrÃ¡hy": 6331,
      "ĠdÅ¾": 6332,
      "Ġdopo": 6333,
      "Ġvyho": 6334,
      "ĠÄįechy": 6335,
      "ĠprvÃ©": 6336,
      "ĠposvÃ¡": 6337,
      "Ġslavnost": 6338,
      "Ġmraku": 6339,
      "ĠdÄĽtin": 6340,
      "sni": 6341,
      "Ġkly": 6342,
      "Å¾dÄĽ": 6343,
      "ĠmÅĻÃŃt": 6344,
      "ĠpÄĽsti": 6345,
      "ĠsvatÃ©ho": 6346,
      "ĠblaÅ¾ÃŃ": 6347,
      "ĠvzpomÃŃnek": 6348,
      "ĠmoudrÃ½": 6349,
      "ĠapoÅ¡to": 6350,
      "mbu": 6351,
      "zpÄĽ": 6352,
      "Ġhospody": 6353,
      "ĠÄįtvrt": 6354,
      "rny": 6355,
      "zne": 6356,
      "ĠsnÃ¡Å¡ÃŃ": 6357,
      "Å¡ce": 6358,
      "ĠjinÃ©ho": 6359,
      "Ġvyv": 6360,
      "Å¡ili": 6361,
      "ĠvÃ½kÅĻi": 6362,
      "ĠpohÃ¡dky": 6363,
      "ĠzlÃ½m": 6364,
      "mus": 6365,
      "Ġrozvi": 6366,
      "daje": 6367,
      "ĠzÃ¡dum": 6368,
      "ÄįinÄĽ": 6369,
      "Ġhluku": 6370,
      "ĠpÃ½cha": 6371,
      "ĠtmÃ¡m": 6372,
      "Ġpnou": 6373,
      "ĠdÃ¡no": 6374,
      "ĠÅ¾iva": 6375,
      "Ġnejdra": 6376,
      "ĠnÄĽmÃ©": 6377,
      "Ġzjevil": 6378,
      "ĠnÃ¡mÄĽstÃŃ": 6379,
      "ĠnabÃŃ": 6380,
      "rÃ¡nÃŃ": 6381,
      "nÄĽnou": 6382,
      "ĠdÄĽlÃŃ": 6383,
      "mÃŃra": 6384,
      "ĠkouÅĻ": 6385,
      "Ġzticha": 6386,
      "Ġlampy": 6387,
      "Ġprokop": 6388,
      "ĠptÃ¡m": 6389,
      "ĠseÅ¡": 6390,
      "Ġleta": 6391,
      "Ġrozka": 6392,
      "ĠtÃŃsnÃŃ": 6393,
      "ĠnebeskÃ©": 6394,
      "Ġpuk": 6395,
      "ĠkÃ½v": 6396,
      "ĠkrutÃ©": 6397,
      "ĠtkvÃŃ": 6398,
      "tas": 6399,
      "Ġter": 6400,
      "Ġpamat": 6401,
      "Ġhubi": 6402,
      "ĠÅ¡eptal": 6403,
      "ĠshÃ½": 6404,
      "lon": 6405,
      "ĠsrdÃ©": 6406,
      "Ġsos": 6407,
      "Ġzmaten": 6408,
      "staly": 6409,
      "Ġpobo": 6410,
      "ÅĻÃŃch": 6411,
      "tec": 6412,
      "ĠrodnÃ½": 6413,
      "ĠÅ¡ÃŃÅĻ": 6414,
      "Ġrevolu": 6415,
      "ĠnevÄĽdÄĽl": 6416,
      "Ġparku": 6417,
      "Ġminulost": 6418,
      "Ġzaji": 6419,
      "Ġcele": 6420,
      "Ġprs": 6421,
      "ĠmÃŃsÃŃ": 6422,
      "ĠslÃ¡b": 6423,
      "ĠradosÅ¥": 6424,
      "ĠkrÃ¡tkÃ©": 6425,
      "ĠpevnÃ½": 6426,
      "cÃ¡": 6427,
      "Ġrval": 6428,
      "ĠnÃ¡ÅĻ": 6429,
      "ĠvÃ¡le": 6430,
      "bami": 6431,
      "ĠvÅ¡echna": 6432,
      "ĠskoÄįÃŃ": 6433,
      "ÅĻemen": 6434,
      "Ġmladost": 6435,
      "lie": 6436,
      "lÃ¡n": 6437,
      "Ġvzor": 6438,
      "ĠlÃŃtost": 6439,
      "ĠrekÅ¯": 6440,
      "ĠÄįlovÄĽkem": 6441,
      "AXAXBB": 6442,
      "Ġhel": 6443,
      "Ġperla": 6444,
      "ĠzÃ¡dumÄįi": 6445,
      "vnÃ½": 6446,
      "Ġtka": 6447,
      "ÄįnÃŃch": 6448,
      "Ġroztom": 6449,
      "Ġskvr": 6450,
      "ĠÃºtro": 6451,
      "Ġposu": 6452,
      "Ġzbylo": 6453,
      "Ã¡nÃŃ": 6454,
      "Äįely": 6455,
      "Ġpravi": 6456,
      "Ġplakal": 6457,
      "ĠvÄĽÅĻte": 6458,
      "ĠpÃ½Å¡e": 6459,
      "Ġzkla": 6460,
      "ĠkacÃŃ": 6461,
      "ĠplnÃ½ch": 6462,
      "Ġmodro": 6463,
      "ĠstÅĻela": 6464,
      "ĠhvÄĽzdou": 6465,
      "Ġvesna": 6466,
      "ĠhleÄıte": 6467,
      "Ġvezmi": 6468,
      "Ġpovstal": 6469,
      "ĠposmÄĽch": 6470,
      "ĠmistÅĻe": 6471,
      "Ġokra": 6472,
      "ĠnovÃ©ho": 6473,
      "Ġzmatku": 6474,
      "gna": 6475,
      "ÅĻte": 6476,
      "Ġsocha": 6477,
      "ĠhledÄĽ": 6478,
      "ĠkÃ¡cÃŃ": 6479,
      "Äįena": 6480,
      "umf": 6481,
      "Ġdlel": 6482,
      "ĠkÅĻovÃŃ": 6483,
      "ĠposÃŃ": 6484,
      "Ġnasy": 6485,
      "ĠvÃ¡no": 6486,
      "ĠÅ¡ÃŃle": 6487,
      "ĠspÃ¡ti": 6488,
      "ĠhlÃ¡sÃŃ": 6489,
      "stupuje": 6490,
      "ĠvyÅ¡ehra": 6491,
      "Ġhrozi": 6492,
      "pce": 6493,
      "Ġvhod": 6494,
      "Å¾nÃŃ": 6495,
      "ÅĻely": 6496,
      "ĠkopÃŃ": 6497,
      "ĠniÅ¾": 6498,
      "ĠnemÅ¯Å¾": 6499,
      "Ġchalou": 6500,
      "roti": 6501,
      "Ġvyjde": 6502,
      "nutÃ©": 6503,
      "Ġvznik": 6504,
      "ĠskvoucÃŃ": 6505,
      "ĠÅ¾ÃŃzni": 6506,
      "Ġostro": 6507,
      "ĠdÄĽcka": 6508,
      "ĠÅ¾ebrÃ¡k": 6509,
      "Ġneli": 6510,
      "Ġpopla": 6511,
      "Ġdocela": 6512,
      "ĠÅĻÃŃdÃŃ": 6513,
      "ĠpÄĽti": 6514,
      "ĠdÃ½mu": 6515,
      "ĠkrvavÃ½": 6516,
      "ĠrovnÄĽÅ¾": 6517,
      "Ġnet": 6518,
      "Ġodv": 6519,
      "ĠdÄĽvu": 6520,
      "adil": 6521,
      "Ġryb": 6522,
      "ĠklidnÃ½": 6523,
      "ĠbÅĻehÅ¯": 6524,
      "Ġnedal": 6525,
      "ÅĻÃŃti": 6526,
      "ĠstÃ¡da": 6527,
      "Ġhroma": 6528,
      "ĠÄįernÃ½m": 6529,
      "Ġsouci": 6530,
      "Ġskokem": 6531,
      "ĠdÃŃvce": 6532,
      "ĠzboÅ¾nÄĽ": 6533,
      "Ġzrozen": 6534,
      "Ġmine": 6535,
      "ĠnovÃ©m": 6536,
      "ÄįeÅ¾": 6537,
      "ĠhradÄĽ": 6538,
      "zala": 6539,
      "ĠhouÅ¡ti": 6540,
      "ĠvrÃ¡z": 6541,
      "ĠteplÃ½": 6542,
      "novu": 6543,
      "ĠproklÃŃ": 6544,
      "jila": 6545,
      "ĠÃºtu": 6546,
      "ĠkleÄįÃŃ": 6547,
      "ĠhustÃ©": 6548,
      "ĠdruhÅ¯": 6549,
      "Ġjasno": 6550,
      "ĠjizbÄĽ": 6551,
      "ĠvznÄĽt": 6552,
      "bÃ½vÃ¡": 6553,
      "Ġprobou": 6554,
      "Ġslovu": 6555,
      "ĠsvÃŃtÃ¡": 6556,
      "ĠchvÄĽly": 6557,
      "ĠÃºsmÄĽvu": 6558,
      "Ġpokoji": 6559,
      "Ġmohli": 6560,
      "Ġhejno": 6561,
      "Ġzaml": 6562,
      "Ġmha": 6563,
      "ÅĪa": 6564,
      "mÃŃvÃ¡": 6565,
      "ĠÄįistou": 6566,
      "ĠzdvÃŃ": 6567,
      "ĠkrÃ¡lovna": 6568,
      "ĠstkvÄĽ": 6569,
      "Ġroztomil": 6570,
      "ĠjÅ¯": 6571,
      "ĠzavÄĽ": 6572,
      "Ġrozva": 6573,
      "Ġodpla": 6574,
      "Ġsrdcy": 6575,
      "Ġstole": 6576,
      "Ġtluk": 6577,
      "Ġhisto": 6578,
      "ĠcestÃ¡ch": 6579,
      "Ġperel": 6580,
      "ĠÄįinÅ¯": 6581,
      "pali": 6582,
      "AXB": 6583,
      "bÃ¡n": 6584,
      "ĠvÃŃme": 6585,
      "ABCABC": 6586,
      "tnÃ½ch": 6587,
      "jÃŃti": 6588,
      "Ġkopy": 6589,
      "ĠpÅĻehlu": 6590,
      "ĠpamÄĽt": 6591,
      "veÅĪ": 6592,
      "Ġhladem": 6593,
      "naly": 6594,
      "ĠslepÃ½": 6595,
      "ĠpoÄįÃ¡": 6596,
      "Ġhorami": 6597,
      "drÃ¡": 6598,
      "snÃ½ch": 6599,
      "Ġzjas": 6600,
      "Äįan": 6601,
      "loval": 6602,
      "teÄįnÃŃ": 6603,
      "Ġzloba": 6604,
      "hlÃ½m": 6605,
      "ĠtisÃŃci": 6606,
      "Ġkorouh": 6607,
      "Ġvdech": 6608,
      "Ġzahu": 6609,
      "stÃŃrÃ¡": 6610,
      "ĠhÃ¡v": 6611,
      "Ġhanu": 6612,
      "ĠvÅ¡emo": 6613,
      "ĠposlednÃŃm": 6614,
      "ĠzmÄĽnÃŃ": 6615,
      "ĠÄįekÃ¡m": 6616,
      "zli": 6617,
      "Ġri": 6618,
      "ĠpaÅ¾ÃŃ": 6619,
      "ĠstoletÃŃ": 6620,
      "ĠnedoÄįka": 6621,
      "Ġsoumraku": 6622,
      "Ġthe": 6623,
      "ĠjmÄĽnÃŃ": 6624,
      "ĠÅ¾ivÃŃ": 6625,
      "Ġspro": 6626,
      "ĠmÃ¡k": 6627,
      "Ġvoje": 6628,
      "ĠlÃŃpy": 6629,
      "Ġoblaka": 6630,
      "ĠvÃ¡Å¾nÃ½": 6631,
      "rÅ¯m": 6632,
      "lom": 6633,
      "ĠvlaÅ¡to": 6634,
      "Å¾enÃ½ch": 6635,
      "ĠmarnÃ¡": 6636,
      "Ġdrahoka": 6637,
      "pÃŃm": 6638,
      "pÄĽla": 6639,
      "ĠnÃ¡rodÅ¯": 6640,
      "ĠstÅĻÃŃbrnÃ©": 6641,
      "ĠjmÃ©nem": 6642,
      "Ġjsy": 6643,
      "don": 6644,
      "ĠplÃ¡lo": 6645,
      "ĠmrtvÃŃ": 6646,
      "ĠtuÅ¾eb": 6647,
      "ĠÅ¡epo": 6648,
      "ĠpodlÃ©": 6649,
      "ĠprÃ¡zdnÃ½": 6650,
      "ĠotevÅĻel": 6651,
      "Ġtriumf": 6652,
      "ĠkaÅ¡": 6653,
      "ĠobrÃ¡til": 6654,
      "Ġnemu": 6655,
      "Ġstrast": 6656,
      "mÅ¯Å¾e": 6657,
      "ĠvÃ¡cla": 6658,
      "ĠpÅĻipo": 6659,
      "ĠvÃ½Äįi": 6660,
      "Ġoprav": 6661,
      "Ġzakry": 6662,
      "ÄįkovÃ©": 6663,
      "Ġkonci": 6664,
      "ĠblÃ½ska": 6665,
      "vku": 6666,
      "ĠsnÅ¯m": 6667,
      "ĠzlÃ©ho": 6668,
      "ĠpomnÄĽ": 6669,
      "Å¾ilo": 6670,
      "Ġsymbo": 6671,
      "ĠklasÅ¯": 6672,
      "ĠbÃ¡snÄĽ": 6673,
      "ĠpovÄĽst": 6674,
      "ĠknÄĽÅ¾na": 6675,
      "ĠsnÃ¡Å¡e": 6676,
      "Ġkmo": 6677,
      "stvu": 6678,
      "Ġnevo": 6679,
      "ĠpoÅ¡e": 6680,
      "ĠvydÃ¡": 6681,
      "ari": 6682,
      "ĠlehkÃ½": 6683,
      "ĠdÄĽsnÃ©": 6684,
      "Ġteplo": 6685,
      "ĠchtÃŃt": 6686,
      "ĠcÃŃrkev": 6687,
      "ÄįkÃ©": 6688,
      "Ġroku": 6689,
      "ĠrubÃŃ": 6690,
      "Ġzdech": 6691,
      "ĠstarÅ¡ÃŃ": 6692,
      "ceni": 6693,
      "ĠdvoÅĻe": 6694,
      "ĠsmÃ¡la": 6695,
      "ĠzÃ¡po": 6696,
      "Ġodsou": 6697,
      "Ġkyp": 6698,
      "ĠpÄĽjÃŃ": 6699,
      "ĠmnoÅ¾stvÃŃ": 6700,
      "Ġtrosky": 6701,
      "ĠstÅĻÃŃbrem": 6702,
      "ĠpÅ¯lnoci": 6703,
      "Ġjdeme": 6704,
      "ĠmÄĽly": 6705,
      "ĠplachÃ½": 6706,
      "ĠblahÃ½": 6707,
      "piti": 6708,
      "ĠvÃ½chod": 6709,
      "Ġhezky": 6710,
      "ĠpamÄĽÅ¥": 6711,
      "ditel": 6712,
      "ĠhoupÃ¡": 6713,
      "benÃ©": 6714,
      "ĠbohynÄĽ": 6715,
      "Ġmuzi": 6716,
      "AXAXX": 6717,
      "ĠmrtvÃ¡": 6718,
      "nickÃ©": 6719,
      "ĠubohÃ½": 6720,
      "ĠspanÃŃ": 6721,
      "ĠplÃŃÅ¾ÃŃ": 6722,
      "ÅĻÃŃvÃ¡": 6723,
      "ĠvyklÃ¡": 6724,
      "Ġrozhod": 6725,
      "ĠzÃ¡slu": 6726,
      "ĠmÃ¡li": 6727,
      "ĠpÅĻedtu": 6728,
      "dÃŃme": 6729,
      "Ġkoruny": 6730,
      "ĠpevnÃ©": 6731,
      "ĠvzÃ¡cnÃ©": 6732,
      "Å¾iv": 6733,
      "ĠdÄĽtskÃ©": 6734,
      "ĠnenadÃ¡nÃŃ": 6735,
      "Ġfial": 6736,
      "ĠÅ¡av": 6737,
      "ĠpaprskÅ¯": 6738,
      "Ġkohou": 6739,
      "Ġstrasti": 6740,
      "Ġbere": 6741,
      "ĠsladkÃ©m": 6742,
      "ĠnÃ¡rody": 6743,
      "ĠpÅĻemÃŃ": 6744,
      "ĠsdÃŃ": 6745,
      "ĠdlÃ©": 6746,
      "nov": 6747,
      "ĠpÃ¡nbÅ¯h": 6748,
      "ĠzelenÃ¡": 6749,
      "ĠzboÅ¾ÃŃ": 6750,
      "ĠoltÃ¡ÅĻe": 6751,
      "ABACCB": 6752,
      "Ġbiskup": 6753,
      "ĠjeseÅĪ": 6754,
      "rami": 6755,
      "tisk": 6756,
      "ĠnÃ¡vra": 6757,
      "ĠlÃŃch": 6758,
      "Ġmet": 6759,
      "ĠbÅĻÃŃmÄĽ": 6760,
      "ca": 6761,
      "chla": 6762,
      "ABAAB": 6763,
      "ĠnaÅ¡ÃŃm": 6764,
      "lym": 6765,
      "Ġmuky": 6766,
      "ĠmnozÃŃ": 6767,
      "lÅ¯v": 6768,
      "ĠjakÃ©s": 6769,
      "ĠnekoneÄį": 6770,
      "ĠzvlÃ¡Å¡tÄĽ": 6771,
      "Ġhmy": 6772,
      "ĠnaÅ¡li": 6773,
      "vÃ¡nÃŃm": 6774,
      "jeli": 6775,
      "ĠtemnÃ¡": 6776,
      "ĠmalÃ½ch": 6777,
      "Ġzvuku": 6778,
      "ĠnÄĽkte": 6779,
      "Ġvzejde": 6780,
      "zar": 6781,
      "Ġada": 6782,
      "Ġposte": 6783,
      "ÅĻelo": 6784,
      "Ġuhas": 6785,
      "nova": 6786,
      "Ġrozpo": 6787,
      "Ġzasy": 6788,
      "Ġslabo": 6789,
      "ĠdravÃ½": 6790,
      "ĠsnivÃ¡": 6791,
      "Ġsedla": 6792,
      "skÃ½mi": 6793,
      "tovÃ¡nÃŃ": 6794,
      "ĠtÅ¯nÄĽ": 6795,
      "AAXBXB": 6796,
      "ĠzÃ¡mek": 6797,
      "ĠtÃ¡m": 6798,
      "Ġolym": 6799,
      "Ġnachem": 6800,
      "Ġmozo": 6801,
      "ĠtÄĽkÃ¡": 6802,
      "bech": 6803,
      "Ġstate": 6804,
      "ĠnedbÃ¡": 6805,
      "Ġhodina": 6806,
      "ĠtakovÃ½": 6807,
      "haly": 6808,
      "ĠÄįte": 6809,
      "ĠzaÅ¡el": 6810,
      "ĠvysÃŃ": 6811,
      "vyk": 6812,
      "ĠmÃŃst": 6813,
      "Ġstala": 6814,
      "sala": 6815,
      "ĠmÃ©nÄĽ": 6816,
      "ĠsmÃŃm": 6817,
      "pÃ¡n": 6818,
      "ĠchytÃ¡": 6819,
      "Ġtragi": 6820,
      "ĠtrÃ¡vu": 6821,
      "ĠÄįÃ¡st": 6822,
      "fÃŃ": 6823,
      "fÃ¡": 6824,
      "os": 6825,
      "Å¡kem": 6826,
      "Ã½val": 6827,
      "ĠonÄĽ": 6828,
      "ĠprochÃ¡": 6829,
      "sajÃŃ": 6830,
      "Ġer": 6831,
      "ĠbijÃŃ": 6832,
      "Ġmraz": 6833,
      "ĠhÅĻÃŃmÃ¡": 6834,
      "ĠveselÃ½": 6835,
      "ĠzÅĻeli": 6836,
      "ĠjdÄĽte": 6837,
      "Ġroje": 6838,
      "ĠneznÃ¡mÃ©": 6839,
      "ĠvstaÅĪ": 6840,
      "Ġzpola": 6841,
      "ĠkÅĻ": 6842,
      "dechu": 6843,
      "Ġvym": 6844,
      "Ġnebla": 6845,
      "ĠsynÅ¯": 6846,
      "nickÃ½": 6847,
      "Ġhudbu": 6848,
      "Ġdivoce": 6849,
      "ĠdivokÃ½": 6850,
      "ĠvzÃ¡cnÃ½": 6851,
      "ĠokamÅ¾iku": 6852,
      "vÅ¡ad": 6853,
      "ĠÅĪÃ¡dra": 6854,
      "ĠnevÃ½slov": 6855,
      "Ġshle": 6856,
      "mila": 6857,
      "ĠmarnÃ½": 6858,
      "ĠÅ¡uma": 6859,
      "ĠhorÅ¡ÃŃ": 6860,
      "Ġtmavou": 6861,
      "ĠznÃ¡ti": 6862,
      "Ġshr": 6863,
      "Ġvzplane": 6864,
      "ĠuÅ¡lech": 6865,
      "ĠhospodÃ¡ÅĻ": 6866,
      "ĠneÅĻe": 6867,
      "ĠÅ¡kol": 6868,
      "Ġvzpou": 6869,
      "ĠdÃ¡val": 6870,
      "ĠrozvÃ¡": 6871,
      "ĠzdÃ¡la": 6872,
      "ĠsvÃ¡tek": 6873,
      "Ġlehko": 6874,
      "ĠodeÅ¡el": 6875,
      "ĠnÄĽjÅ¾": 6876,
      "Ġjizby": 6877,
      "ĠspoleÄįnosti": 6878,
      "Ġmiliony": 6879,
      "Å¡Ã¡": 6880,
      "kuje": 6881,
      "Ġkane": 6882,
      "Ġrozez": 6883,
      "Ġzaslech": 6884,
      "ĠsÃŃÅ¥": 6885,
      "Ġjasem": 6886,
      "Ġspoj": 6887,
      "Ġkroku": 6888,
      "ĠzdÃ¡nÃŃ": 6889,
      "Ġmrazem": 6890,
      "ĠstÅĻed": 6891,
      "ĠstÅĻechy": 6892,
      "kÃ½mi": 6893,
      "ĠpohÃ¡dka": 6894,
      "ĠboÅ¾stvÃŃ": 6895,
      "ĠÅ¡koly": 6896,
      "Ġlip": 6897,
      "ĠÄįeskou": 6898,
      "ĠÃºkry": 6899,
      "ĠplaÅ¡ÃŃ": 6900,
      "Ġtemna": 6901,
      "Ġel": 6902,
      "ĠstrÃ¡ÅĪ": 6903,
      "ĠobÄĽti": 6904,
      "ĠsvobodÄĽ": 6905,
      "Ġopustil": 6906,
      "ĠbdÄĽ": 6907,
      "Ġjek": 6908,
      "ĠdusÃŃ": 6909,
      "ĠrudÃ¡": 6910,
      "ĠpÅĻÃŃtele": 6911,
      "Å¡enÃ¡": 6912,
      "Ġtrap": 6913,
      "ĠpalÃ¡c": 6914,
      "ĠcÃŃrkve": 6915,
      "Ġroh": 6916,
      "Ġvzcho": 6917,
      "ĠrumÄĽ": 6918,
      "ĠrybnÃŃ": 6919,
      "ĠjasnÃ½m": 6920,
      "Ġtrysk": 6921,
      "bnou": 6922,
      "nan": 6923,
      "Ġlehou": 6924,
      "Ġpronik": 6925,
      "ĠmÄĽÅ¡Å¥": 6926,
      "Ġnouze": 6927,
      "Ġplam": 6928,
      "kladu": 6929,
      "ĠmuÅ¾em": 6930,
      "ĠradostnÄĽ": 6931,
      "ĠdrÃ¡hu": 6932,
      "ĠveÅ¡k": 6933,
      "ĠvodopÃ¡": 6934,
      "ĠzasmuÅ¡il": 6935,
      "Ġzne": 6936,
      "ĠuchvÃ¡": 6937,
      "Å¥te": 6938,
      "ĠlÃŃnÄĽ": 6939,
      "ĠviÄı": 6940,
      "bala": 6941,
      "ĠnevÄĽÅĻÃŃ": 6942,
      "ĠskalnÃŃ": 6943,
      "ĠtvrdÃ½": 6944,
      "ĠnÄĽn": 6945,
      "duje": 6946,
      "ĠÅ¾iÅ¾ka": 6947,
      "Ġstarci": 6948,
      "ĠkrutÄĽ": 6949,
      "Ġkniha": 6950,
      "ĠmÄĽkce": 6951,
      "Ġjezera": 6952,
      "Ġsata": 6953,
      "XXAXAX": 6954,
      "XAXAXA": 6955,
      "Ġrus": 6956,
      "ĠÃºtra": 6957,
      "ĠdÄĽvÄįÃ¡": 6958,
      "ĠbohÅ¯m": 6959,
      "tiny": 6960,
      "Ġobec": 6961,
      "ĠsvÃŃce": 6962,
      "ĠtesknÃ©": 6963,
      "Ġzbude": 6964,
      "rÃ½mi": 6965,
      "Ġcvr": 6966,
      "ĠzapÃ¡": 6967,
      "Ġdoli": 6968,
      "Å¡tÄĽm": 6969,
      "ĠkÅĻÃŃÅ¾i": 6970,
      "ĠmocnÃ¡": 6971,
      "ĠslavnÃ½ch": 6972,
      "Ġpevnou": 6973,
      "AXAXXX": 6974,
      "bÅĻe": 6975,
      "ĠmÅĻel": 6976,
      "Ġprosil": 6977,
      "ĠnÃ¡po": 6978,
      "ĠroznÃŃ": 6979,
      "ĠvlastnÃŃch": 6980,
      "Ġodpor": 6981,
      "ĠctÄĽ": 6982,
      "lumen": 6983,
      "ĠhoÅĻem": 6984,
      "ĠpÅĻiz": 6985,
      "Ġpek": 6986,
      "Ġklek": 6987,
      "ĠtmavÃ¡": 6988,
      "ĠsvÃ¡r": 6989,
      "Ġvezme": 6990,
      "ĠandÄĽlÃ©": 6991,
      "ĠpÅĻen": 6992,
      "ĠstatnÃ½": 6993,
      "ĠovÄĽ": 6994,
      "ĠÅ¡ve": 6995,
      "ĠbÃŃdÄĽ": 6996,
      "ĠjaÅĻe": 6997,
      "ĠplesÃ¡": 6998,
      "ĠspÄĽÅ¡": 6999,
      "Ġzil": 7000,
      "ĠzanÃŃ": 7001,
      "Ġche": 7002,
      "ĠbÃŃdnÃ©": 7003,
      "Ġshro": 7004,
      "Ġlampa": 7005,
      "dati": 7006,
      "lÃŃp": 7007,
      "Ġdruhy": 7008,
      "ĠstraÅ¡nÃ½": 7009,
      "ĠchrÃ¡mÄĽ": 7010,
      "ckÃ©ho": 7011,
      "ĠzrÃ¡d": 7012,
      "ĠusmÃ¡l": 7013,
      "ĠtovÃ¡": 7014,
      "kolem": 7015,
      "Ġtuch": 7016,
      "Ġsadu": 7017,
      "Ġsul": 7018,
      "Ġnepokoj": 7019,
      "zenÃ½": 7020,
      "Ġcenu": 7021,
      "ĠpohleÄı": 7022,
      "chi": 7023,
      "Ġstil": 7024,
      "ĠvzlÃ©t": 7025,
      "ĠÅ¾ijÃŃ": 7026,
      "kÃ¡zal": 7027,
      "ĠzÃŃral": 7028,
      "ĠÅ¡ik": 7029,
      "Ġklidem": 7030,
      "cena": 7031,
      "ĠmÄĽkkÃ½": 7032,
      "Ġobloha": 7033,
      "Ġvstoupil": 7034,
      "ĠrÃ©m": 7035,
      "Ġlide": 7036,
      "Ġobdi": 7037,
      "Ġdek": 7038,
      "ĠsmÃ½": 7039,
      "Ġfu": 7040,
      "ÅĻenÃ½m": 7041,
      "ĠnevdÄĽ": 7042,
      "ĠpropastÃŃ": 7043,
      "ĠmraÄįno": 7044,
      "ĠpÅĻÃ¡telstvÃŃ": 7045,
      "ĠvleÄįe": 7046,
      "stroj": 7047,
      "dale": 7048,
      "Ġgro": 7049,
      "Ġzoufalo": 7050,
      "Ġoblohou": 7051,
      "pÃ©": 7052,
      "Ġoli": 7053,
      "Äįeho": 7054,
      "ĠoblÃ©": 7055,
      "ĠzÃ¡ro": 7056,
      "mÄĽlo": 7057,
      "Ġpranic": 7058,
      "ĠÃºstech": 7059,
      "ĠtÃ½Å¾": 7060,
      "ĠÅĻekli": 7061,
      "ĠostÅĻÃŃ": 7062,
      "ĠsnivÃ½": 7063,
      "ĠmdlÃ¡": 7064,
      "ĠpsanÃŃ": 7065,
      "ĠpsÃ¡t": 7066,
      "ĠklÃ¡Å¡ter": 7067,
      "Ġanebo": 7068,
      "Ġokouz": 7069,
      "Ġbur": 7070,
      "ĠbÃ¡znÃŃ": 7071,
      "Ġpustil": 7072,
      "ĠmnoÅ¾ÃŃ": 7073,
      "Å¡eni": 7074,
      "ĠzhlÃŃ": 7075,
      "Ġzastavil": 7076,
      "ĠtÃ³ny": 7077,
      "Ġcou": 7078,
      "ĠlÅ¾ÃŃ": 7079,
      "ĠhodÃŃ": 7080,
      "ĠpÅĻip": 7081,
      "ĠpravÃ¡": 7082,
      "ĠÅ¡eÅĻÃŃ": 7083,
      "Ġsluha": 7084,
      "Ġklene": 7085,
      "ĠveselÃŃ": 7086,
      "zla": 7087,
      "ĠdotÃ½": 7088,
      "cii": 7089,
      "Ġobry": 7090,
      "Ġrat": 7091,
      "ĠmocnÃ½m": 7092,
      "Ġpit": 7093,
      "ĠjemnÃ©": 7094,
      "ĠpestrÃ½": 7095,
      "Ġroman": 7096,
      "Ġhonem": 7097,
      "Ġrvou": 7098,
      "Ġkovo": 7099,
      "ĠmÄĽÅĻÃŃ": 7100,
      "ĠpeÅĻÃŃ": 7101,
      "ĠvÄĽÄįnÃ½m": 7102,
      "ĠdlaÅ¾": 7103,
      "ĠzuÅĻi": 7104,
      "Ġvstala": 7105,
      "liÄįky": 7106,
      "Ġuho": 7107,
      "ĠvybÃŃ": 7108,
      "Ġvyrost": 7109,
      "ĠtrÄįÃŃ": 7110,
      "cenou": 7111,
      "ĠvlÃ¡dce": 7112,
      "Ġvous": 7113,
      "Ġpluk": 7114,
      "Ġkapky": 7115,
      "ĠlkÃ¡nÃŃ": 7116,
      "Ġhodil": 7117,
      "ĠtuÅ¥": 7118,
      "Ġmuce": 7119,
      "ĠdÃŃtko": 7120,
      "Ġvlaje": 7121,
      "gan": 7122,
      "ĠdlÃ½": 7123,
      "Ġutk": 7124,
      "Ġmukou": 7125,
      "ĠnejdÅĻÃŃ": 7126,
      "ĠmodrÃ¡": 7127,
      "ĠtÃ¡bor": 7128,
      "Ġklobouk": 7129,
      "ĠbÅĻit": 7130,
      "ĠjakÃ½m": 7131,
      "Ġhody": 7132,
      "ĠvÄĽÅ¾i": 7133,
      "Ġvzo": 7134,
      "ĠmaliÄį": 7135,
      "ĠlÃ©k": 7136,
      "ĠvÄĽrnÃ¡": 7137,
      "ĠbujnÃ½": 7138,
      "ĠzalÃŃ": 7139,
      "Ġzapomenu": 7140,
      "ĠslÃ©t": 7141,
      "Ġpli": 7142,
      "ĠvyÅ¡li": 7143,
      "ĠruÄįe": 7144,
      "ĠkouÅĻÃŃ": 7145,
      "ĠÅ¡irÃ©m": 7146,
      "ĠÃºsvi": 7147,
      "Ġroucha": 7148,
      "bnÃ¡": 7149,
      "Ġ!": 7150,
      "ĠlekÃ¡": 7151,
      "doval": 7152,
      "Ġsnahy": 7153,
      "ĠozÃ½vÃ¡": 7154,
      "ÃŃch": 7155,
      "ĠÅ¡al": 7156,
      "Ġduma": 7157,
      "Ġcizo": 7158,
      "Ġzpi": 7159,
      "ĠpohlÃŃ": 7160,
      "Ġmilos": 7161,
      "ĠdÃŃvÃ¡m": 7162,
      "Ġvyslo": 7163,
      "Ġprovo": 7164,
      "Ġskrov": 7165,
      "ĠstarÃ½m": 7166,
      "ĠmÄĽkkÃ©": 7167,
      "ĠtvÅ¯rÄįÃŃ": 7168,
      "ĠnejlepÅ¡ÃŃ": 7169,
      "Ġznik": 7170,
      "Ġam": 7171,
      "nÄĽt": 7172,
      "ĠchvÄĽt": 7173,
      "ĠÅ¾ÃŃzeÅĪ": 7174,
      "Ġnemys": 7175,
      "ĠdobrÃ½ch": 7176,
      "ĠtmavÃ½ch": 7177,
      "ĠlÅ¯Å¾ko": 7178,
      "Ġvesny": 7179,
      "Ġtajemnou": 7180,
      "ĠzaÅ¡lÃ½ch": 7181,
      "Ġrozumu": 7182,
      "nÃŃkem": 7183,
      "nÄĽna": 7184,
      "Ġdop": 7185,
      "ĠuvÃ¡": 7186,
      "Ġtane": 7187,
      "ĠkabÃ¡": 7188,
      "ĠprÃ¡vem": 7189,
      "ĠhlasnÄĽ": 7190,
      "AABXB": 7191,
      "jemi": 7192,
      "Ġopou": 7193,
      "cÅ¯v": 7194,
      "ĠhvÄĽzdnÃ©": 7195,
      "ĠpamÃ¡tku": 7196,
      "cestÃŃ": 7197,
      "Ġuc": 7198,
      "ĠmuÄįÃŃ": 7199,
      "Ġpravila": 7200,
      "Ġmrazi": 7201,
      "ĠvolÃ¡m": 7202,
      "ĠobÄĽtÃŃ": 7203,
      "ĠstÅĻÃŃbrnÃ½": 7204,
      "Ġkostela": 7205,
      "Ġlilie": 7206,
      "Ġrcete": 7207,
      "ĠsbÄĽ": 7208,
      "Ġvozy": 7209,
      "ĠÅ¡erÃ½": 7210,
      "ĠdrahÃ½ch": 7211,
      "ĠsuchÃ©": 7212,
      "ĠpÅ¯dÄĽ": 7213,
      "Ġjun": 7214,
      "Ġvstane": 7215,
      "koliv": 7216,
      "ĠpalÃ¡ce": 7217,
      "ĠsvatebnÃŃ": 7218,
      "Ġana": 7219,
      "Ġhocha": 7220,
      "ĠruÅ¡ÃŃ": 7221,
      "Ġflo": 7222,
      "ĠpokolenÃŃ": 7223,
      "ĠumÅĻel": 7224,
      "Ġsever": 7225,
      "ĠvzÃŃti": 7226,
      "ĠÅĻetÄĽz": 7227,
      "ĠjasnÃ½ch": 7228,
      "ĠzÅĻÃŃdka": 7229,
      "Ġdarem": 7230,
      "Ġsloupy": 7231,
      "ĠskrÃ½Å¡": 7232,
      "hlÃŃÅ¾ÃŃ": 7233,
      "Ġchalu": 7234,
      "ĠmroucÃŃ": 7235,
      "ÅĻka": 7236,
      "Ġhol": 7237,
      "stin": 7238,
      "talo": 7239,
      "ĠzemÅĻel": 7240,
      "ĠjeÅ¾to": 7241,
      "Ġref": 7242,
      "ĠstraÅ¡nÃ©": 7243,
      "Ġmiluj": 7244,
      "Ġvlno": 7245,
      "ĠÅ¡Å¥astnÃ©": 7246,
      "Ġdobrodru": 7247,
      "ĠkvÄĽtiny": 7248,
      "ĠzkuÅ¡en": 7249,
      "gen": 7250,
      "Ġpropad": 7251,
      "ĠpÅĻÃŃko": 7252,
      "ĠpÅĻedce": 7253,
      "Ġheslo": 7254,
      "ĠsnÃ¡": 7255,
      "Ġtoli": 7256,
      "Å¥at": 7257,
      "ĠtiÅ¡": 7258,
      "Ġvzma": 7259,
      "Ġhladu": 7260,
      "ĠjenÅ¾to": 7261,
      "chali": 7262,
      "ĠhorkÃ©": 7263,
      "Ġchladnou": 7264,
      "Ġdvoj": 7265,
      "ĠjiskÅĻÃŃ": 7266,
      "ĠzachrÃ¡": 7267,
      "Ġzdroje": 7268,
      "ĠnÅ¯m": 7269,
      "ĠopÃŃ": 7270,
      "Ġuvad": 7271,
      "ĠvÄĽno": 7272,
      "Ġnebudu": 7273,
      "Ġkladi": 7274,
      "ĠbrÃ¡na": 7275,
      "ĠbystÅĻi": 7276,
      "ĠmlÃ¡deÅ¾": 7277,
      "Ġnehle": 7278,
      "Ġvysla": 7279,
      "Ġrozbi": 7280,
      "Ġpavou": 7281,
      "ĠkrÃ¡lo": 7282,
      "ĠtÃŃseÅĪ": 7283,
      "ĠdlouhÃ½m": 7284,
      "ĠmrÃ¡ko": 7285,
      "ĠsÃŃmÄĽ": 7286,
      "Ġem": 7287,
      "Ġpose": 7288,
      "ĠÅ¾aly": 7289,
      "lÃ¡ch": 7290,
      "Ġkapi": 7291,
      "ĠvÃŃnek": 7292,
      "vedu": 7293,
      "Ġjala": 7294,
      "ĠchuÄı": 7295,
      "Å¾eno": 7296,
      "vena": 7297,
      "Å¡ena": 7298,
      "Ġpolibek": 7299,
      "tna": 7300,
      "Ġsej": 7301,
      "ruje": 7302,
      "ĠbÄĽlÃ¡": 7303,
      "ĠbÃ¡znÄĽ": 7304,
      "Ġpivo": 7305,
      "ĠbolesÅ¥": 7306,
      "ĠslavnÃ¡": 7307,
      "vrh": 7308,
      "Ġvichrem": 7309,
      "Ġceny": 7310,
      "ĠÅ¾ehnÃ¡": 7311,
      "Ġkletba": 7312,
      "ĠzÃ¡stupy": 7313,
      "Ġrez": 7314,
      "ĠmetÃ¡": 7315,
      "ĠsloÅ¾il": 7316,
      "ĠbÃ¡jÃŃ": 7317,
      "ĠchuÅ¥": 7318,
      "Ġbet": 7319,
      "Ġsup": 7320,
      "ĠsnÄĽho": 7321,
      "ĠspÄĽchu": 7322,
      "ĠsedlÃ¡k": 7323,
      "ĠznaÄįÃŃ": 7324,
      "ĠblÃ¡ho": 7325,
      "ĠpÅĻijÄı": 7326,
      "ĠzapomnÄĽnÃŃ": 7327,
      "Ġpohledu": 7328,
      "ĠzamyÅ¡le": 7329,
      "Ġcitem": 7330,
      "ĠpotkÃ¡": 7331,
      "ĠsedlÃ¡": 7332,
      "ĠhvÃŃz": 7333,
      "Ġhvi": 7334,
      "star": 7335,
      "Ġzabo": 7336,
      "ĠvodÃŃ": 7337,
      "Ġpych": 7338,
      "ĠnahoÅĻe": 7339,
      "vÃ¡na": 7340,
      "ĠstÃ¡vÃ¡": 7341,
      "Ġneznal": 7342,
      "Ġgene": 7343,
      "ĠsnÄĽti": 7344,
      "ĠdÅĻÃŃma": 7345,
      "Ġvolnosti": 7346,
      "Ġmrakem": 7347,
      "ĠnÄĽmec": 7348,
      "ĠjitÅĻnÃŃ": 7349,
      "hro": 7350,
      "mpe": 7351,
      "Ġmojich": 7352,
      "ĠkvÄĽtech": 7353,
      "jÃ¡k": 7354,
      "kati": 7355,
      "Ġdoho": 7356,
      "Ġdoly": 7357,
      "mund": 7358,
      "mit": 7359,
      "Äįeno": 7360,
      "ĠsilnÄĽ": 7361,
      "ĠdÃ¡vnÃ½": 7362,
      "ĠokolÃŃ": 7363,
      "ĠlÅ¯no": 7364,
      "ĠkvÃŃtÃŃm": 7365,
      "ĠulicÃŃch": 7366,
      "Ġfrancou": 7367,
      "ABACBC": 7368,
      "ĠzaÅ¡ep": 7369,
      "ĠfarÃ¡ÅĻ": 7370,
      "Ġjesky": 7371,
      "Ġtec": 7372,
      "ĠmÃ¡je": 7373,
      "ĠspÄĽchal": 7374,
      "ĠpÄĽknÃ½": 7375,
      "ĠpoÅ¾ehnÃ¡": 7376,
      "Ġneskonal": 7377,
      "Ġmhou": 7378,
      "ABABXB": 7379,
      "Ġsklen": 7380,
      "ĠbezdÄĽ": 7381,
      "ĠnÃ©sti": 7382,
      "Ġsady": 7383,
      "Ġluhu": 7384,
      "Ġkousek": 7385,
      "cenÃ½ch": 7386,
      "Ġmlhou": 7387,
      "Ġumlk": 7388,
      "Ġvezdy": 7389,
      "Ġkletby": 7390,
      "ĠpastÃ½ÅĻ": 7391,
      "ĠmaÄıar": 7392,
      "ĠzabÃŃ": 7393,
      "ĠvyrÅ¯": 7394,
      "ĠkoÅ¡": 7395,
      "ĠpÅĻeje": 7396,
      "ĠÄįernÃ©m": 7397,
      "ĠplÃ¡nÄĽ": 7398,
      "ĠnÃ¡sil": 7399,
      "ĠmilovÃ¡nÃŃ": 7400,
      "ĠspÃ¡su": 7401,
      "ĠkrutÃ¡": 7402,
      "Ġdcero": 7403,
      "ĠtÅ¯ÅĪ": 7404,
      "ĠmoudÅĻe": 7405,
      "ĠÅĻasy": 7406,
      "Ġposa": 7407,
      "ladÅ¡ÃŃ": 7408,
      "ĠdeÅ¡ti": 7409,
      "Ġlupen": 7410,
      "ĠvÃ½smÄĽ": 7411,
      "Ġzvou": 7412,
      "Ġhat": 7413,
      "ĠosvÄĽt": 7414,
      "ÄįenÃ¡": 7415,
      "ĠsilnÃ©": 7416,
      "Ġnepohnu": 7417,
      "ĠteplÃ©": 7418,
      "ĠzaÅ¡u": 7419,
      "Ġpolibky": 7420,
      "ĠnejdraÅ¾Å¡ÃŃ": 7421,
      "dlem": 7422,
      "Ġschy": 7423,
      "ĠniÄįem": 7424,
      "ĠdÃŃtek": 7425,
      "ĠpÃŃsek": 7426,
      "Ġvlak": 7427,
      "Ġhromy": 7428,
      "ĠtrnÃŃ": 7429,
      "ĠhlubinÃ¡ch": 7430,
      "ĠdrobnÃ½ch": 7431,
      "ĠsbÃŃrÃ¡": 7432,
      "dÅĻi": 7433,
      "ĠnahÃ¡": 7434,
      "Ġtichem": 7435,
      "ĠpÅĻej": 7436,
      "danÃ©": 7437,
      "Ġodve": 7438,
      "Ġrada": 7439,
      "ĠbÄĽs": 7440,
      "ÅĻeno": 7441,
      "ĠpohnutÃŃ": 7442,
      "ĠkvÄĽte": 7443,
      "Ġzava": 7444,
      "ĠpraÅ¾": 7445,
      "ĠpÅĻÃŃsnÃ½": 7446,
      "ĠmÃŃÅĻÃŃ": 7447,
      "ĠtÃ¡hla": 7448,
      "chajÃŃ": 7449,
      "ĠjarÃ½": 7450,
      "ĠhedbÃ¡": 7451,
      "clo": 7452,
      "pka": 7453,
      "ĠsÅ¯m": 7454,
      "Ġiro": 7455,
      "Ġbudeme": 7456,
      "Ġpodal": 7457,
      "ĠdobÃ¡ch": 7458,
      "ĠÅ¾havÃ¡": 7459,
      "Ġkameny": 7460,
      "ĠhojnÄĽ": 7461,
      "ĠskvÄĽlÃ½": 7462,
      "ĠsluneÄįnÃŃ": 7463,
      "Ġdluh": 7464,
      "ĠverÅ¡Å¯": 7465,
      "vnitÅĻ": 7466,
      "Ã©l": 7467,
      "Ġprokla": 7468,
      "ĠvyÄįÃŃ": 7469,
      "Å¥Ã¡": 7470,
      "ĠdÄĽlo": 7471,
      "ĠdobrÃ½m": 7472,
      "Ġleskne": 7473,
      "ĠstvoÅĻil": 7474,
      "mrt": 7475,
      "ĠsÅĪat": 7476,
      "naje": 7477,
      "kosti": 7478,
      "ĠtulÃŃ": 7479,
      "ĠrozvÃŃ": 7480,
      "Ġske": 7481,
      "ĠpaÅ¾e": 7482,
      "ĠzloÄįin": 7483,
      "ĠdÃŃvko": 7484,
      "Ġstatky": 7485,
      "ĠÄįtenÃ¡": 7486,
      "Å¾no": 7487,
      "nÄĽnÃ¡": 7488,
      "tiÅ¾": 7489,
      "Ġsig": 7490,
      "ĠdÃŃlu": 7491,
      "ĠcÃŃtit": 7492,
      "Ġreka": 7493,
      "Ġzloby": 7494,
      "Ġuply": 7495,
      "Ġsboru": 7496,
      "ĠzaÄįne": 7497,
      "Ġrozply": 7498,
      "ĠmstÃŃ": 7499,
      "land": 7500,
      "Ġpodu": 7501,
      "ĠnachÃ½": 7502,
      "vÄĽtÅĻÃŃ": 7503,
      "Ġkleno": 7504,
      "ĠĠĠĊ": 7505,
      "ĠumÅĻÃŃt": 7506,
      "ĠzbabÄĽ": 7507,
      "pne": 7508,
      "Ġsje": 7509,
      "Ġudat": 7510,
      "Ġpropu": 7511,
      "Ġnovo": 7512,
      "ĠvÃŃla": 7513,
      "Ġrozkaz": 7514,
      "ĠmÃ¡ji": 7515,
      "ĠÅĻÃŃd": 7516,
      "ĠpÅĻedkÅ¯": 7517,
      "ret": 7518,
      "ĠpustÃ¡": 7519,
      "Ġchudi": 7520,
      "Ġtvojich": 7521,
      "ĠstÄĽÅ¾ÃŃ": 7522,
      "Ġplamenem": 7523,
      "ĠmÄĽsÃŃci": 7524,
      "ĠslouÅ¾ÃŃ": 7525,
      "ĠuklÃ¡": 7526,
      "Ġzbyla": 7527,
      "ĠspanilÃ¡": 7528,
      "ĠnedÅ¯": 7529,
      "vami": 7530,
      "ĠÅ¡ek": 7531,
      "ĠvÃ½so": 7532,
      "Ġsluchu": 7533,
      "ĠdÃ¡lnÃ½ch": 7534,
      "Ġvlk": 7535,
      "ĠkÅĻÃŃdlech": 7536,
      "ĠklidnÃ©": 7537,
      "ĠpÃ½chou": 7538,
      "ĠzÃ¡vist": 7539,
      "ĠsnoubÃŃ": 7540,
      "mar": 7541,
      "ĠtlÃŃ": 7542,
      "Ġjina": 7543,
      "ĠvÄĽdÄĽt": 7544,
      "Ġmozku": 7545,
      "Ġstanu": 7546,
      "Ġpospo": 7547,
      "ĠÅĻekni": 7548,
      "Ġbledne": 7549,
      "ĠnevrÃ¡tÃŃ": 7550,
      "Ġvizte": 7551,
      "ĠchuÄıas": 7552,
      "pÅĻi": 7553,
      "Ġzko": 7554,
      "ĠneÄįi": 7555,
      "Ġnastal": 7556,
      "ĠnÄĽhu": 7557,
      "Ġtakou": 7558,
      "ĠdÃŃvat": 7559,
      "Ġanti": 7560,
      "Ġhousle": 7561,
      "ĠnÃ¡rodnÃŃ": 7562,
      "skot": 7563,
      "Ġpaty": 7564,
      "ĠveselÃ©": 7565,
      "ĠÅ¡Å¥astni": 7566,
      "Ġchrab": 7567,
      "ĠkoÅĻeny": 7568,
      "dnÃ©ho": 7569,
      "dovi": 7570,
      "ĠrubÃ¡": 7571,
      "ĠpÅĻim": 7572,
      "Å¡ilo": 7573,
      "ĠsvÄĽÅ¾e": 7574,
      "ĠrÅ¯Å¾ovÃ©": 7575,
      "leÅ¥": 7576,
      "ĠkomÃŃ": 7577,
      "ĠfrÃ¡": 7578,
      "ĠmilÃ©ho": 7579,
      "ĠptÃ¡Äįek": 7580,
      "ĠsnÄĽtÃŃ": 7581,
      "ĠbojÅ¯": 7582,
      "ĠvÄįely": 7583,
      "Ġnedba": 7584,
      "rz": 7585,
      "chvat": 7586,
      "ĠzaÅ¡la": 7587,
      "Ġvypo": 7588,
      "ĠkoÅĻÃŃ": 7589,
      "ĠpÅĻeko": 7590,
      "ĠvÃ¡hÃ¡": 7591,
      "ĠslunÃ©": 7592,
      "ĠchorÃ©": 7593,
      "ĠzpÃŃvajÃŃ": 7594,
      "ĠrudÃ½m": 7595,
      "ĠzrÃ¡dce": 7596,
      "ĠdÄĽlat": 7597,
      "!!": 7598,
      "svit": 7599,
      "pajÃŃ": 7600,
      "chÃ¡zÃŃm": 7601,
      "Ġzvukem": 7602,
      "jdeÅ¡": 7603,
      "Ġtrub": 7604,
      "Ġneur": 7605,
      "Ġzraje": 7606,
      "Ġptact": 7607,
      "AAABB": 7608,
      "cÃ©": 7609,
      "ĠveÄı": 7610,
      "ĠvztÃ½": 7611,
      "Ġboky": 7612,
      "Ġdivou": 7613,
      "ĠbÄĽlou": 7614,
      "Ġsamy": 7615,
      "Ġlup": 7616,
      "Ġresi": 7617,
      "Ġhluch": 7618,
      "ĠsterÃ©": 7619,
      "Ġokovy": 7620,
      "ĠbrÃ¡nu": 7621,
      "Ġkryl": 7622,
      "ĠpoÅ¾ehna": 7623,
      "Ġchasa": 7624,
      "pku": 7625,
      "ĠnahÃ©": 7626,
      "Ġzadr": 7627,
      "ĠvÄĽdomÃŃ": 7628,
      "Ġmozek": 7629,
      "Ġodk": 7630,
      "ĠfÃ¡": 7631,
      "penÃ©": 7632,
      "Ġznich": 7633,
      "hrÃ¡": 7634,
      "ĠvznÃ¡Å¡e": 7635,
      "ĠvlÃŃdnÃ½": 7636,
      "bÅ¡ÃŃ": 7637,
      "tlo": 7638,
      "vÃ¡no": 7639,
      "vaÅ¥": 7640,
      "Ġtahy": 7641,
      "Äįinou": 7642,
      "ĠstaletÃŃ": 7643,
      "zdra": 7644,
      "trp": 7645,
      "Å¡enÄĽ": 7646,
      "prve": 7647,
      "Ġhloubky": 7648,
      "ĠmyslÃŃÅ¡": 7649,
      "Ġvrchol": 7650,
      "ĠkolÃ©bky": 7651,
      "Ġvnuk": 7652,
      "ĠnebezpeÄįÃŃ": 7653,
      "prÃ¡": 7654,
      "ĠP": 7655,
      "ĠmÅ¡i": 7656,
      "ĠvÄĽjÃŃ": 7657,
      "ĠÅ¾ivou": 7658,
      "Ġsynem": 7659,
      "Ġfe": 7660,
      "ĠpÄĽv": 7661,
      "ĠpoÄįkej": 7662,
      "ĠjakÃ¡s": 7663,
      "nkÃ½": 7664,
      "Ã¡jem": 7665,
      "out": 7666,
      "ĠvidÄĽli": 7667,
      "Ġnemi": 7668,
      "Ġposlech": 7669,
      "Ġtrh": 7670,
      "Ġdivnou": 7671,
      "beni": 7672,
      "ĠhlÃŃdÃ¡": 7673,
      "Ġholubice": 7674,
      "ĠholÃ¡": 7675,
      "Ġvzdal": 7676,
      "Ġpast": 7677,
      "ÄįÃŃÅ¡": 7678,
      "Ġprale": 7679,
      "ĠmÃŃjÃŃ": 7680,
      "Ġdivem": 7681,
      "Ġhrady": 7682,
      "Å¡enÃ½ch": 7683,
      "Ġpadlo": 7684,
      "ĠjedenkrÃ¡t": 7685,
      "ĠoblakÅ¯": 7686,
      "Ġmrzu": 7687,
      "ĠnemÃ¡Å¡": 7688,
      "ĠdokonÃ¡": 7689,
      "Ġchvatem": 7690,
      "Ġnevinnosti": 7691,
      "ĠzmÃ¡": 7692,
      "Ġjedu": 7693,
      "ato": 7694,
      "ĠÄįej": 7695,
      "ĠkrajÅ¯": 7696,
      "ĠchvÃ¡lÃŃ": 7697,
      "rozenÃŃ": 7698,
      "ĠzkamenÄĽ": 7699,
      "ĠnajdeÅ¡": 7700,
      "ĠvzrÅ¯stÃ¡": 7701,
      "Ġvzadu": 7702,
      "dÄĽje": 7703,
      "ĠrozÅ¾": 7704,
      "ĠdivÃ½m": 7705,
      "Ġchoti": 7706,
      "Ġpohla": 7707,
      "Ġvraha": 7708,
      "ĠdÅ¯kaz": 7709,
      "ĠzÃ¡vod": 7710,
      "ĠplachÃ©": 7711,
      "Ġudiven": 7712,
      "zdÃŃ": 7713,
      "lali": 7714,
      "ĠveÅ¡la": 7715,
      "voÅĻÃŃ": 7716,
      "Ġpacho": 7717,
      "ĠÅĻeku": 7718,
      "Ġmami": 7719,
      "Ġsoudce": 7720,
      "ĠkrÃ¡snÄĽjÅ¡ÃŃ": 7721,
      "ĠtichÃ½ch": 7722,
      "ĠloupeÅ¾": 7723,
      "ĠhrÃ¡la": 7724,
      "Ġnemohou": 7725,
      "ĠvÅĻele": 7726,
      "Ġkriste": 7727,
      "trÃ¡": 7728,
      "Ġzva": 7729,
      "XXXXAA": 7730,
      "Ġlije": 7731,
      "ĠÄįisto": 7732,
      "ĠkeÅĻi": 7733,
      "Ġopil": 7734,
      "Ġzmatek": 7735,
      "pak": 7736,
      "Ġsmilo": 7737,
      "ĠzÃ½": 7738,
      "Ġleck": 7739,
      "Ġprose": 7740,
      "vejte": 7741,
      "ĠzeÅĪ": 7742,
      "ĠvÃ½ho": 7743,
      "Ġdivu": 7744,
      "ĠplnÃ©m": 7745,
      "ĠvÅ¯lÃŃ": 7746,
      "ĠpukÃ¡": 7747,
      "ĠmodrÃ½m": 7748,
      "ĠÄįlovÄĽÄįen": 7749,
      "ĠhrÃ¡z": 7750,
      "ĠzulÃŃ": 7751,
      "ĠjednotvÃ¡": 7752,
      "ĠstejnÃ©": 7753,
      "Ġsestro": 7754,
      "ĠvojÃ¡k": 7755,
      "ĠuÅ¡lechtil": 7756,
      "hni": 7757,
      "ĠÅ¡ku": 7758,
      "Ġpronika": 7759,
      "Ġobsa": 7760,
      "ĠdeÅ¡": 7761,
      "ĠsÃŃnÃŃ": 7762,
      "ĠkaÅ¾di": 7763,
      "ĠchutÄĽ": 7764,
      "ĠsÃ¡l": 7765,
      "Ġzvedne": 7766,
      "zda": 7767,
      "Ġrodnou": 7768,
      "ĠtiÅ¡i": 7769,
      "Ġprin": 7770,
      "ĠcizÃ¡": 7771,
      "Ġstavu": 7772,
      "ĠstraÅ¡nÄĽ": 7773,
      "Ġslunka": 7774,
      "ĠvÅĻelÃ©": 7775,
      "ĠvdÄĽÄįnÄĽ": 7776,
      "Ġrakvi": 7777,
      "ĠoÄįÃŃm": 7778,
      "Ġponu": 7779,
      "Ġvydal": 7780,
      "ĠnÄĽhou": 7781,
      "ver": 7782,
      "stoupÃŃ": 7783,
      "ĠstÅĻely": 7784,
      "ĠspÃŃnÃ¡": 7785,
      "Ġrostla": 7786,
      "ĠnenÃ¡vist": 7787,
      "ĠzaznÄĽl": 7788,
      "slÃŃ": 7789,
      "ĠrojÃŃ": 7790,
      "toma": 7791,
      "Ġlom": 7792,
      "ĠsÃŃtÃŃ": 7793,
      "ĠprÃ¡vu": 7794,
      "ĠpÄĽvec": 7795,
      "Ġmrtvou": 7796,
      "Ġpochod": 7797,
      "ĠveÅ¡ker": 7798,
      "hlÃ½ch": 7799,
      "Ġsmo": 7800,
      "Ġpso": 7801,
      "Ġtohle": 7802,
      "ĠvÄĽÄı": 7803,
      "ĠskÅĻe": 7804,
      "ĠÃºko": 7805,
      "ĠtouÅ¾ÃŃm": 7806,
      "Ġbranou": 7807,
      "rii": 7808,
      "ĠhrÅ¯zu": 7809,
      "ĠvesmÃŃ": 7810,
      "ĠÅ¡tÃŃty": 7811,
      "Ġpostava": 7812,
      "Ġpase": 7813,
      "ĠdÃ³": 7814,
      "ĠjeÅ¾ÃŃÅ¡": 7815,
      "rati": 7816,
      "Ġstva": 7817,
      "lostÃŃ": 7818,
      "Ġchar": 7819,
      "ĠnÃŃtÃŃ": 7820,
      "ĠtÃŃÅ¡": 7821,
      "Ġdoubra": 7822,
      "Ġzik": 7823,
      "ĠÅĻadÄĽ": 7824,
      "volnÄĽ": 7825,
      "ĠvÄĽÅĻil": 7826,
      "nuje": 7827,
      "ĠpodÃ©l": 7828,
      "bilo": 7829,
      "ĠrÅ¯st": 7830,
      "ĠrÅ¯Å¾emi": 7831,
      "ĠvÄĽÄįna": 7832,
      "ĠkÃ½s": 7833,
      "ĠdrÃ¡Å¾": 7834,
      "ĠcÃŃtÃŃÅ¡": 7835,
      "ĠpÅĻÃŃÅ¡tÃŃch": 7836,
      "Ġvzlyk": 7837,
      "ĠkÅĻiÅ¡Å¥Ã¡": 7838,
      "ĠshromÃ¡": 7839,
      "ĠdbÃ¡": 7840,
      "Ġnecho": 7841,
      "ĠchÃ¡m": 7842,
      "ĠprÃ¡v": 7843,
      "Ġanto": 7844,
      "Ġzmije": 7845,
      "ĠÄįechÅ¯": 7846,
      "tina": 7847,
      "ĠvÃŃsky": 7848,
      "dÃŃte": 7849,
      "Ġdin": 7850,
      "ĠsvÄĽto": 7851,
      "Ġkruhy": 7852,
      "plnÃ©": 7853,
      "br": 7854,
      "vavÄĽ": 7855,
      "Ġnico": 7856,
      "ledne": 7857,
      "ĠuÄįitel": 7858,
      "22": 7859,
      "ĠvzÅĪat": 7860,
      "Ġpape": 7861,
      "bych": 7862,
      "ĠbÃ¡zeÅĪ": 7863,
      "Ġohla": 7864,
      "Ġzmlk": 7865,
      "Ġuml": 7866,
      "ĠpalÄįi": 7867,
      "Ġvedli": 7868,
      "ĠkvapÃŃ": 7869,
      "ĠokamÅ¾enÃŃ": 7870,
      "ĠpÃ½chu": 7871,
      "ĠvnÃŃ": 7872,
      "Ġpsi": 7873,
      "ĠzadÃŃ": 7874,
      "ĠÅ¡kÅ¯": 7875,
      "Ġvec": 7876,
      "Ġkama": 7877,
      "lout": 7878,
      "ĠdeÅ¡Å¥": 7879,
      "Ġlucy": 7880,
      "ĠmilÃ½m": 7881,
      "ĠkÅĻiku": 7882,
      "ĠpyÅ¡nÃ½": 7883,
      "ĠznÃŃt": 7884,
      "Ġvypro": 7885,
      "ĠzvÃŃÅĻ": 7886,
      "ĠvÅĻava": 7887,
      "ĠdomÃ¡cÃŃ": 7888,
      "ovi": 7889,
      "tkou": 7890,
      "ĠvdÃ¡l": 7891,
      "Ġzry": 7892,
      "ĠhÃ©m": 7893,
      "Ġumu": 7894,
      "nus": 7895,
      "ĠvÃŃÅĻe": 7896,
      "ĠptÃ¡ky": 7897,
      "Ġvrouc": 7898,
      "ĠÅ¾lutÃ½": 7899,
      "Ġdokola": 7900,
      "Ġvadne": 7901,
      "ĠhoroucÃŃ": 7902,
      "Ġdojat": 7903,
      "ĠrozpÃ¡": 7904,
      "ĠÃºdÄĽl": 7905,
      "ĠrybÃ¡": 7906,
      "Ġhranice": 7907,
      "Ġknize": 7908,
      "ĠvÄĽzenÃŃ": 7909,
      "Ġskrze": 7910,
      "ĠbdÄĽl": 7911,
      "Ġzane": 7912,
      "ĠÅ¡edou": 7913,
      "Ġsyt": 7914,
      "Ġdlouze": 7915,
      "Ġsrp": 7916,
      "ĠblÃŃzku": 7917,
      "Ġsno": 7918,
      "Ġpomys": 7919,
      "skat": 7920,
      "Ġmuse": 7921,
      "Ġzpra": 7922,
      "ĠsnÄĽhy": 7923,
      "cÃŃmi": 7924,
      "ĠzaÅ¡lÃ©": 7925,
      "ĠznamenÃ¡": 7926,
      "ĠdÃ¡me": 7927,
      "Ġuleh": 7928,
      "Ġuprch": 7929,
      "ĠrvÃ¡t": 7930,
      "ĠhravÄĽ": 7931,
      "Ġvrab": 7932,
      "ĠsuchÃ½": 7933,
      "ĠdÅĻÃŃme": 7934,
      "Ġmocnou": 7935,
      "ĠvÃŃtÄĽznÄĽ": 7936,
      "Ġblouzni": 7937,
      "Ġzvedl": 7938,
      "brat": 7939,
      "ĠuÄįinil": 7940,
      "Ġklou": 7941,
      "ĠsedÃŃm": 7942,
      "ĠuÅ¾ÃŃ": 7943,
      "Ġrovi": 7944,
      "Ġkynul": 7945,
      "ĠnaÅ¡im": 7946,
      "Ġotrok": 7947,
      "Ġoblohy": 7948,
      "Ġkmeny": 7949,
      "ĠdeÅ¡tÄĽm": 7950,
      "ĠvnitÅĻnÃŃ": 7951,
      "ĠnÃ¡hodou": 7952,
      "AABXBX": 7953,
      "BA": 7954,
      "Ġneve": 7955,
      "Ġpola": 7956,
      "ĠvyvÃ¡": 7957,
      "Ġduje": 7958,
      "ĠpÅĻivÃ¡": 7959,
      "ĠpouhÃ¡": 7960,
      "ĠhvÄĽzdu": 7961,
      "cos": 7962,
      "Ġzbloudil": 7963,
      "dily": 7964,
      "ĠtÅĻÃŃÅ¡tÃŃ": 7965,
      "Ġlebky": 7966,
      "ĠÅ¡lechet": 7967,
      "Ġloktech": 7968,
      "ur": 7969,
      "Ġneto": 7970,
      "Ġzatra": 7971,
      "ĠchlÃ¡": 7972,
      "ĠprostÄĽ": 7973,
      "Ġvycho": 7974,
      "Ġmini": 7975,
      "Ġprachem": 7976,
      "Ġdalo": 7977,
      "ĠtÃ¡Å¾e": 7978,
      "Ġtemnu": 7979,
      "ĠveÄįeru": 7980,
      "Ġhloupo": 7981,
      "Ġrozep": 7982,
      "ĠstÅĻÃŃbra": 7983,
      "Ġrmut": 7984,
      "bas": 7985,
      "budil": 7986,
      "the": 7987,
      "vetla": 7988,
      "ĠdlouhÃ©m": 7989,
      "ĠostrÃ©": 7990,
      "ĠpovÅ¾dy": 7991,
      "ĠodpovÃŃdÃ¡": 7992,
      "livou": 7993,
      "ĠhostÃ©": 7994,
      "Ġkara": 7995,
      "ĠvidÄĽti": 7996,
      "Ġkolkolem": 7997,
      "ĠklÃŃÄį": 7998,
      "ĠlÅ¯na": 7999,
      "Ġklesne": 8000,
      "Ġchmury": 8001,
      "Ġvpra": 8002,
      "Ġzdu": 8003,
      "ĠzpomÃŃ": 8004,
      "Ġzavr": 8005,
      "ĠhodnÄĽ": 8006,
      "Ġrab": 8007,
      "ĠmÃŃÅĪ": 8008,
      "tri": 8009,
      "ĠvÅ¡echnÄĽch": 8010,
      "ĠosvÃŃ": 8011,
      "Ġmraven": 8012,
      "ĠobracÃŃ": 8013,
      "Ġbarbar": 8014,
      "Ġosudem": 8015,
      "ĠbohatstvÃŃ": 8016,
      "lce": 8017,
      "Ġust": 8018,
      "ĠtÄĽsnÄĽ": 8019,
      "ĠÄįasnÄĽ": 8020,
      "Ġnesli": 8021,
      "ĠhÅĻÃŃchem": 8022,
      "ĠvÄĽrnou": 8023,
      "Ġzelena": 8024,
      "Ġvysch": 8025,
      "ĠbludnÃ©": 8026,
      "ĠluznÃ©": 8027,
      "smÃ¡": 8028,
      "Äįata": 8029,
      "XXXAAX": 8030,
      "dÄĽlo": 8031,
      "ĠvÅ¡ecek": 8032,
      "Ġsprost": 8033,
      "ĠrÃ¡ch": 8034,
      "Ġkras": 8035,
      "ĠhvÄĽzdnÃ½": 8036,
      "ĠchladnÃ¡": 8037,
      "Ġsnila": 8038,
      "ĠpÃ©ro": 8039,
      "ĠzachvÄĽla": 8040,
      "ĠvlhkÃ©": 8041,
      "ĠÅ¾ol": 8042,
      "Ġaf": 8043,
      "vÃŃtÃ¡": 8044,
      "ĠrozdÃŃ": 8045,
      "ĠpÃŃÅ¡Å¥": 8046,
      "douc": 8047,
      "ĠvalnÃ©": 8048,
      "Ġostrov": 8049,
      "ĠtajemnÃ½": 8050,
      "fy": 8051,
      "plo": 8052,
      "Ġsvla": 8053,
      "ĠusÃŃ": 8054,
      "Ġuchy": 8055,
      "Ġrtoma": 8056,
      "Ġtanec": 8057,
      "Ġsit": 8058,
      "ĠÅ¾ÃŃznÃŃ": 8059,
      "ĠdÄĽtskÃ½ch": 8060,
      "ĠjemnÃ½": 8061,
      "Ġsvoboda": 8062,
      "Ġzvyku": 8063,
      "ĠpestrÃ½ch": 8064,
      "Ġrodiny": 8065,
      "chÃ¡zejÃŃ": 8066,
      "ĠvzpomnÄĽl": 8067,
      "Ġhrdina": 8068,
      "Ġvztekem": 8069,
      "ĠÄįervÃ¡nky": 8070,
      "Ġkapra": 8071,
      "Ġrudou": 8072,
      "ĠÅ¡epot": 8073,
      "pÄĽtÃŃ": 8074,
      "Ġnepra": 8075,
      "Ġhynou": 8076,
      "Ġzkro": 8077,
      "Ġopojen": 8078,
      "ĠmatiÄįko": 8079,
      "ĠnadÅ¡enÃŃm": 8080,
      "ĠlabuÅ¥": 8081,
      "ĠkamarÃ¡": 8082,
      "ble": 8083,
      "rag": 8084,
      "ĠponÃŃ": 8085,
      "lÃ¡Å¡": 8086,
      "Ġhostem": 8087,
      "ĠtÄĽs": 8088,
      "ĠpÅĻivi": 8089,
      "Ġrys": 8090,
      "pÄĽnÃŃ": 8091,
      "ĠsvÄĽti": 8092,
      "ĠnavÅ¡tÃŃ": 8093,
      "Ġnaproti": 8094,
      "ĠknÃ¡m": 8095,
      "Ġledu": 8096,
      "Ġtaji": 8097,
      "Ġmoder": 8098,
      "ĠtuÅ¡il": 8099,
      "Äįeje": 8100,
      "ĠÅ¾ivÃ½ch": 8101,
      "Ġplav": 8102,
      "Ġtravou": 8103,
      "ĠdÄĽsnÃ¡": 8104,
      "Ġplachty": 8105,
      "ĠkrÅ¯pÄĽje": 8106,
      "ĠchudÃ¡k": 8107,
      "blou": 8108,
      "ĠvchÃ¡zÃŃ": 8109,
      "ĠpolnÃŃ": 8110,
      "ĠvÄĽsÃŃ": 8111,
      "Ġskvo": 8112,
      "ĠÅ¾ivÄĽ": 8113,
      "ĠpÃ¡du": 8114,
      "ĠhledÄĽt": 8115,
      "ĠveÄįerem": 8116,
      "ĠchladnÄĽ": 8117,
      "Ġpoklo": 8118,
      "Ġkalu": 8119,
      "ĠhoÅĻce": 8120,
      "ĠnÃŃzkÃ©": 8121,
      "ĠkvÄĽtin": 8122,
      "ckÃ©m": 8123,
      "Ġvje": 8124,
      "Ġnna": 8125,
      "Ġposk": 8126,
      "Ġleje": 8127,
      "ĠberÃ¡": 8128,
      "ĠskoÄįil": 8129,
      "ĠboÅ¾skÃ½": 8130,
      "Ġhovoru": 8131,
      "Ġzamra": 8132,
      "ĠmatiÄįka": 8133,
      "ĠpsÃ¡no": 8134,
      "Ġvzruch": 8135,
      "ĠpovÃŃm": 8136,
      "ĠpÅĻiÅ¡ly": 8137,
      "ĠtÃŃÅ¾e": 8138,
      "Ġdere": 8139,
      "Ġsype": 8140,
      "ĠhvÄĽzdo": 8141,
      "ĠzvÄĽsti": 8142,
      "Ġsamoty": 8143,
      "ĠkonÄįÃŃ": 8144,
      "ĠhÅ¯ry": 8145,
      "ĠnekoneÄįnÃ©": 8146,
      "ĠleknÃŃ": 8147,
      "Ġpsy": 8148,
      "Å¾nÃ½m": 8149,
      "ĠnetÅĻe": 8150,
      "ĠkrÃ¡ÄįÃŃm": 8151,
      "Ġvost": 8152,
      "Ġdvora": 8153,
      "ĠspatÅĻÃŃ": 8154,
      "Ġmodlitby": 8155,
      "par": 8156,
      "rmu": 8157,
      "Ġveta": 8158,
      "Ġlada": 8159,
      "ĠbÃ¡seÅĪ": 8160,
      "ĠstÅĻechu": 8161,
      "ĠjedinÄĽ": 8162,
      "ĠrudÃ½ch": 8163,
      "AXXB": 8164,
      "ĠmÄĽkkÃ¡": 8165,
      "ĠblaÅ¾enosti": 8166,
      "ĠsmyslÅ¯": 8167,
      "ĠzmÃ¡men": 8168,
      "ĠnÃ¡vÅ¡tÄĽ": 8169,
      "paly": 8170,
      "Ġjene": 8171,
      "ĠÅ¡ka": 8172,
      "ĠleÅ¥": 8173,
      "Ġkoj": 8174,
      "Ġmistra": 8175,
      "Ġmedu": 8176,
      "nesl": 8177,
      "ĠhustÃ½": 8178,
      "rÅ¯v": 8179,
      "ĠrÅ¯Å¾en": 8180,
      "ĠpoznÃ¡nÃŃ": 8181,
      "ĠspÃ¡r": 8182,
      "ĠuboÅ¾Ã¡": 8183,
      "ĠzÅ¯stane": 8184,
      "ĠradÅ¡": 8185,
      "Ġfiloso": 8186,
      "Ġtone": 8187,
      "nalo": 8188,
      "Ġkrej": 8189,
      "ĠchutÃŃ": 8190,
      "ĠhÅĻeje": 8191,
      "Ġprobudil": 8192,
      "rnÃ©ho": 8193,
      "lis": 8194,
      "Ġstrou": 8195,
      "Ġdoved": 8196,
      "ĠdoznÄĽ": 8197,
      "vajÃŃcÃŃ": 8198,
      "Ġmeze": 8199,
      "ĠstÅĻech": 8200,
      "ĠÅ¡Å¥Ã¡": 8201,
      "Ġstatek": 8202,
      "Ġnejsme": 8203,
      "lnost": 8204,
      "Ġodo": 8205,
      "ĠnedÄĽli": 8206,
      "ĠvyÅĻ": 8207,
      "Ġvyno": 8208,
      "Ġbudo": 8209,
      "tavÃ½": 8210,
      "Ġstop": 8211,
      "ĠsmÄĽlÃ©": 8212,
      "ĠkÅĻikem": 8213,
      "Ġpovzdech": 8214,
      "ĠnejvÃŃce": 8215,
      "ĠÅ¡klebÃŃ": 8216,
      "Ġmilosrd": 8217,
      "bnÃ½ch": 8218,
      "ĠnamÃ¡": 8219,
      "Ġdomek": 8220,
      "ÄįÃŃs": 8221,
      "Å¡enÃŃm": 8222,
      "zujÃŃ": 8223,
      "ĠtÃ©mÄĽÅĻ": 8224,
      "Ġrenald": 8225,
      "lkÅ¯": 8226,
      "raÅ¾en": 8227,
      "Ġpoo": 8228,
      "ĠdoÅ¡el": 8229,
      "Ġmus": 8230,
      "ĠpravÄĽ": 8231,
      "taje": 8232,
      "Ġnejkra": 8233,
      "ĠhluÄįnÄĽ": 8234,
      "ĠtrpÄĽl": 8235,
      "Ġsmutkem": 8236,
      "Ġpadal": 8237,
      "ĠblÃ¡z": 8238,
      "ĠbujnÄĽ": 8239,
      "ĠzavÅĻel": 8240,
      "Ġkladou": 8241,
      "ĠpoÄįÃŃnÃ¡": 8242,
      "Ġresigna": 8243,
      "ĠslÃ©": 8244,
      "Ġvt": 8245,
      "Ġab": 8246,
      "ÄįnÃ©ho": 8247,
      "nÄĽjÃŃ": 8248,
      "Ġdosa": 8249,
      "Ġmon": 8250,
      "ĠdÃŃvek": 8251,
      "hÃ¡Äį": 8252,
      "ĠvelkÃ©m": 8253,
      "zoval": 8254,
      "Ġzvedla": 8255,
      "Ġsouzvuk": 8256,
      "ĠpoÄįe": 8257,
      "ĠleÅ¾e": 8258,
      "Ġobna": 8259,
      "ĠÃºbÄĽ": 8260,
      "ĠÅ¡ÃŃpy": 8261,
      "ĠtouÅ¾e": 8262,
      "ĠsvojÃŃm": 8263,
      "Ġmrtvol": 8264,
      "ĠtÃ½den": 8265,
      "Ġtrudu": 8266,
      "ĠznÃ¡me": 8267,
      "Ġzvl": 8268,
      "Ġhospodin": 8269,
      "ĠubohÃ¡": 8270,
      "ĠmÃ¡jo": 8271,
      "Ġrozkvet": 8272,
      "Ġnesa": 8273,
      "Ġcvi": 8274,
      "nÃŃÅ¡": 8275,
      "Ġzask": 8276,
      "vajÃŃc": 8277,
      "Ġvyjas": 8278,
      "ĠnÄĽha": 8279,
      "ĠniÄįeho": 8280,
      "ĠspoÄįi": 8281,
      "ĠlouÄįÃŃ": 8282,
      "ĠvolnÃ©": 8283,
      "Ġodevz": 8284,
      "Ġmodlitbou": 8285,
      "Ġnaro": 8286,
      "ĠustÃ¡nÃŃ": 8287,
      "ĠvÄĽtev": 8288,
      "Ġmoj": 8289,
      "vÃ©st": 8290,
      "Ġjedle": 8291,
      "ĠchorÃ½": 8292,
      "ĠdrazÃŃ": 8293,
      "chan": 8294,
      "Ġmodli": 8295,
      "Ġgar": 8296,
      "zali": 8297,
      "benÃ½": 8298,
      "ĠdÄĽtskÃ½": 8299,
      "ĠtvÅ¯rce": 8300,
      "ĠzvÄĽt": 8301,
      "ĠÄįekajÃŃ": 8302,
      "zela": 8303,
      "ĠvÃ½stra": 8304,
      "ĠstÃ¡lÃ½": 8305,
      "Ġzjevy": 8306,
      "ĠchÃ¡pe": 8307,
      "ĠprÃ½Å¡tÃŃ": 8308,
      "ĠpojÄıte": 8309,
      "tati": 8310,
      "Å¡kÃ¡": 8311,
      "lekÃ¡": 8312,
      "Ġchlou": 8313,
      "Ġduhy": 8314,
      "ĠmÃ¡lem": 8315,
      "Ġchoro": 8316,
      "Ġvrata": 8317,
      "ĠpÅ¯da": 8318,
      "ĠdceÅĻi": 8319,
      "ĠvÃ¡Å¾nÃ©": 8320,
      "ĠkvÃ©sti": 8321,
      "ĠkolikrÃ¡t": 8322,
      "Ġuh": 8323,
      "Å¾ejÃŃ": 8324,
      "Ġmag": 8325,
      "Ġobrazem": 8326,
      "ĠknÄĽze": 8327,
      "ĠchvÃ¡la": 8328,
      "ĠÄįekat": 8329,
      "gie": 8330,
      "ĠvlÃ©": 8331,
      "ĠvsÃŃ": 8332,
      "Ġhodo": 8333,
      "Ġkadi": 8334,
      "ĠnocÃŃch": 8335,
      "ĠvÃŃly": 8336,
      "dan": 8337,
      "dami": 8338,
      "Ġpodla": 8339,
      "ĠÄįÃŃhÃ¡": 8340,
      "pÃ¡ch": 8341,
      "Äįenou": 8342,
      "ĠpÅ¯jdem": 8343,
      "ĠÅ¾alosti": 8344,
      "Ġhnus": 8345,
      "Ġhotov": 8346,
      "ĠosamÄĽlÃ½": 8347,
      "Ġlkal": 8348,
      "ĠnÃ¡pad": 8349,
      "Ġobr": 8350,
      "ĠhlavnÃŃ": 8351,
      "ĠpÅĻÃŃbu": 8352,
      "Ġvladi": 8353,
      "ĠsmÄĽr": 8354,
      "ĠandÄĽla": 8355,
      "ĠstrÃ¡Å¾e": 8356,
      "Ġzora": 8357,
      "ĠtluÄįe": 8358,
      "ĠlehkÃ©": 8359,
      "ĠpÅĻÃŃrodÄĽ": 8360,
      "ĠzÅ¯staÅĪ": 8361,
      "ĠÅ¡ÃŃlenstvÃŃ": 8362,
      "uji": 8363,
      "Ġvho": 8364,
      "chej": 8365,
      "ĠstvÃŃm": 8366,
      "Ġkobe": 8367,
      "Ġodpou": 8368,
      "ĠdajÃŃ": 8369,
      "ĠsamÃ¡": 8370,
      "ĠdobÅĻÃŃ": 8371,
      "ĠpÃŃsmo": 8372,
      "Äįkami": 8373,
      "ĠschÅ¯": 8374,
      "Ġmilence": 8375,
      "Ġplout": 8376,
      "Å¾kou": 8377,
      "cejÃŃ": 8378,
      "ĠÅ¡pÃŃ": 8379,
      "voru": 8380,
      "ĠvÄĽje": 8381,
      "ĠpospÄĽ": 8382,
      "ĠkeÅĻe": 8383,
      "Ġoknech": 8384,
      "tÃ©Å¾": 8385,
      "Ġstesku": 8386,
      "ĠzvÄĽsÅ¥": 8387,
      "ĠkvÃŃtky": 8388,
      "ĠvÅĻes": 8389,
      "ĠneustÃ¡le": 8390,
      "Ġvku": 8391,
      "ĠÃºpÃŃ": 8392,
      "Ġzemdle": 8393,
      "Ġkre": 8394,
      "ĠplazÃŃ": 8395,
      "Ġmodrou": 8396,
      "Ġstudu": 8397,
      "ĠhrÅ¯ze": 8398,
      "ĠtajnÃ½": 8399,
      "ĠskvÄĽlÃ©": 8400,
      "Ġsmarag": 8401,
      "ĠpÃ½chy": 8402,
      "ĠÅ¥u": 8403,
      "Ġchoval": 8404,
      "ĠmlÄįel": 8405,
      "ĠhrdÃ¡": 8406,
      "ĠdobrÃ©ho": 8407,
      "Ġkostel": 8408,
      "ĠkadeÅĻ": 8409,
      "daly": 8410,
      "teÄįnÄĽ": 8411,
      "Äįiv": 8412,
      "ĠÅĻekou": 8413,
      "Ġsluj": 8414,
      "Ġonde": 8415,
      "Ġglo": 8416,
      "Ġang": 8417,
      "Ġmrtva": 8418,
      "coval": 8419,
      "ĠlÅ¯Å¾ku": 8420,
      "plnÃ½": 8421,
      "Ġpostav": 8422,
      "Ġzvykem": 8423,
      "ĠkvetoucÃŃ": 8424,
      "ĠÅ¾alÃ¡ÅĻ": 8425,
      "ĠhÅĻbet": 8426,
      "Ġptactvo": 8427,
      "ĠnetopÃ½": 8428,
      "kly": 8429,
      "tivÄĽ": 8430,
      "ĠhoÅĻel": 8431,
      "ĠnÃ¡do": 8432,
      "ĠbujÃŃ": 8433,
      "ĠhromÅ¯": 8434,
      "Ġkoutku": 8435,
      "ĠsvornÄĽ": 8436,
      "ĠokÅĻÃŃ": 8437,
      "Ġoknu": 8438,
      "Ġokolo": 8439,
      "Ġprosby": 8440,
      "Ġdomova": 8441,
      "Ġstarosti": 8442,
      "hdy": 8443,
      "Ġmdle": 8444,
      "Ã©r": 8445,
      "Ġposko": 8446,
      "Ġpohod": 8447,
      "ĠvÄĽdo": 8448,
      "Ġduhu": 8449,
      "ĠnÃ¡pÄĽ": 8450,
      "ĠniÄįÃŃ": 8451,
      "dÃ¡n": 8452,
      "ĠÅ¾id": 8453,
      "ĠlÃ¡ny": 8454,
      "ĠpÅĻÃŃjem": 8455,
      "Ġpustou": 8456,
      "zena": 8457,
      "ĠzuÅĻÃŃ": 8458,
      "ĠtÃ¡hly": 8459,
      "ĠvÃŃtÄĽznÃ½": 8460,
      "ĠnÄĽÅ¾nÄĽ": 8461,
      "ĠdruhÃ©ho": 8462,
      "ĠmladÃŃk": 8463,
      "Ġhvizd": 8464,
      "dni": 8465,
      "ĠseÅ¡li": 8466,
      "Ġnaj": 8467,
      "ĠzajÃ¡": 8468,
      "ĠnÃ¡la": 8469,
      "ĠobilÃŃ": 8470,
      "Ġnebu": 8471,
      "ĠtÃŃsni": 8472,
      "ĠslunÃŃ": 8473,
      "ĠÄįÃŃch": 8474,
      "Ġnejmi": 8475,
      "Ġhude": 8476,
      "Ġshnil": 8477,
      "Ġdomovu": 8478,
      "ĠstrÃ¡Å¾ce": 8479,
      "ĠstÅ¯nÄĽ": 8480,
      "Ġjinam": 8481,
      "raly": 8482,
      "ĠtotiÅ¾": 8483,
      "dol": 8484,
      "ĠceliÄį": 8485,
      "Ġrozle": 8486,
      "Ġtyra": 8487,
      "mor": 8488,
      "silo": 8489,
      "ĠtrvÃ¡": 8490,
      "ĠvÄĽrnÃ½ch": 8491,
      "ĠdÄĽtmi": 8492,
      "ĠrozkoÅ¡i": 8493,
      "Ġbalvany": 8494,
      "Ġidy": 8495,
      "Äįelo": 8496,
      "ĠÅ¾ivÃ½m": 8497,
      "Ġkusy": 8498,
      "ĠÄįili": 8499,
      "skÃ¡ch": 8500,
      "Ġnemohl": 8501,
      "ĠpsÃŃ": 8502,
      "leno": 8503,
      "Ġoc": 8504,
      "ĠpotÅ¯": 8505,
      "Ġrosu": 8506,
      "stÃ¡r": 8507,
      "ĠnimiÅ¾": 8508,
      "Ġouzko": 8509,
      "klÃ¡dÃ¡": 8510,
      "ĠnevinnÃ©": 8511,
      "AC": 8512,
      "Ġtlesk": 8513,
      "ĠorÃ¡": 8514,
      "Ġnetr": 8515,
      "ruÅ¡ÃŃ": 8516,
      "ĠpromÄĽnÃŃ": 8517,
      "dÄĽlÃ¡": 8518,
      "ĠdÃ¡na": 8519,
      "ĠnezmÄĽ": 8520,
      "Ġmnohem": 8521,
      "ÄįenÃ½ch": 8522,
      "ĠzlobÄĽ": 8523,
      "Ġpia": 8524,
      "ĠpyÅ¡nÃ©": 8525,
      "jatÃ©": 8526,
      "ĠzoufalÃ½": 8527,
      "Ġpoti": 8528,
      "ĠchlÃ©": 8529,
      "ĠvykÅĻik": 8530,
      "ĠvztÃ¡": 8531,
      "ĠÃºÄį": 8532,
      "Ġjedni": 8533,
      "syl": 8534,
      "Ġzvonek": 8535,
      "ĠkvÃŃtko": 8536,
      "ĠveselÃ¡": 8537,
      "Ġpasu": 8538,
      "ĠumÃŃrÃ¡nÃŃ": 8539,
      "Ġillu": 8540,
      "ĠnejdÅĻÃŃv": 8541,
      "Å¡nou": 8542,
      "Ġnesk": 8543,
      "ĠpoÅ¾ÃŃ": 8544,
      "jetÃŃ": 8545,
      "Ġpropas": 8546,
      "ĠbÃ¡zni": 8547,
      "Ġdrah": 8548,
      "Ġberou": 8549,
      "Ġmyslit": 8550,
      "ĠspÃ¡sa": 8551,
      "ĠvÃŃtÄĽzÃŃ": 8552,
      "ĠvrÃ¡tit": 8553,
      "AXXX": 8554,
      "Ġkrajiny": 8555,
      "ĠzdravÃ½": 8556,
      "Ġsteskem": 8557,
      "ĠotcÅ¯v": 8558,
      "ĠodpoÄįÃŃvÃ¡": 8559,
      "ABAABX": 8560,
      "Ġton": 8561,
      "Ġroland": 8562,
      "ĠnoÄįnÃŃm": 8563,
      "Ġhlase": 8564,
      "Ġjedou": 8565,
      "Ġstromech": 8566,
      "Ġzlosti": 8567,
      "ĠvlÃ¡da": 8568,
      "ĠhrÃ¡m": 8569,
      "Ġskutky": 8570,
      "ĠpÅĻijmi": 8571,
      "ĠnenadÃ¡le": 8572,
      "Ġsoucitu": 8573,
      "nskÃ©": 8574,
      "tvÃŃ": 8575,
      "ĠtuhÃ½": 8576,
      "ĠtuhÃ©": 8577,
      "Ġrozev": 8578,
      "Ġpana": 8579,
      "Ġsplet": 8580,
      "Ġprstem": 8581,
      "ĠbÃ¡z": 8582,
      "Ġhes": 8583,
      "Ġhero": 8584,
      "ĠsnivÄĽ": 8585,
      "ĠhoÅĻkÃ½": 8586,
      "ĠÄįinÅ¯m": 8587,
      "leti": 8588,
      "rovat": 8589,
      "Ġnai": 8590,
      "Ġzahle": 8591,
      "ĠholÃŃ": 8592,
      "Ġlite": 8593,
      "ĠnÃ¡hlÃ½": 8594,
      "Ġpara": 8595,
      "ĠzÃ¡klad": 8596,
      "ĠsyÄįÃŃ": 8597,
      "ĠlukÃ¡ch": 8598,
      "ĠmilÃ½ch": 8599,
      "Ġvrchu": 8600,
      "ĠstrmÃŃ": 8601,
      "ĠdvÄĽma": 8602,
      "ĠandÄĽlÅ¯": 8603,
      "Ġchladu": 8604,
      "ĠzajistÃ©": 8605,
      "Ġnny": 8606,
      "Ġdlem": 8607,
      "ĠoÅĻ": 8608,
      "Ġlech": 8609,
      "Ġsvitem": 8610,
      "Ġhroznou": 8611,
      "ĠÅ¡atÄĽ": 8612,
      "ĠhlubokÃ¡": 8613,
      "ĠbratrÅ¯": 8614,
      "ĠchmurnÃ½": 8615,
      "Ġzmoc": 8616,
      "Ġhavran": 8617,
      "Ġotcov": 8618,
      "tru": 8619,
      "Ġpost": 8620,
      "ĠzamÄĽ": 8621,
      "Ġtor": 8622,
      "ĠpronikÃ¡": 8623,
      "ĠbohovÃ©": 8624,
      "Ġluka": 8625,
      "Ġklec": 8626,
      "Ġneuz": 8627,
      "ĠÅ¡tÃŃhlÃ©": 8628,
      "Ġpomoz": 8629,
      "ĠÅ¾ezlo": 8630,
      "aN": 8631,
      "ĠnahÃ½": 8632,
      "ĠNaN": 8633,
      "nÄĽnÃ½ch": 8634,
      "ĠrobÄĽ": 8635,
      "Ġprop": 8636,
      "Ġkotou": 8637,
      "Ġcet": 8638,
      "ĠvÃŃrem": 8639,
      "Ġnebud": 8640,
      "Ġusnul": 8641,
      "ĠvolnÃ½m": 8642,
      "ĠtÅĻicet": 8643,
      "ĠzmÄĽna": 8644,
      "ĠpÅĻemys": 8645,
      "ĠnevlÃŃ": 8646,
      "ĠÅ¾ivlÅ¯": 8647,
      "Ġprostoru": 8648,
      "ĠblÃŃzka": 8649,
      "ĠlÃŃbat": 8650,
      "ĠbÅĻÃŃzy": 8651,
      "lovi": 8652,
      "Ġvozu": 8653,
      "Ġnespo": 8654,
      "Ġsvor": 8655,
      "ĠÅ¾Ã¡dosti": 8656,
      "Ġvrahy": 8657,
      "ĠdruhÃ½m": 8658,
      "Ġstatku": 8659,
      "ĠblÃ¡zen": 8660,
      "ĠhlÃŃny": 8661,
      "anÃ©": 8662,
      "ĠvÄĽdÃŃ": 8663,
      "vÃ©mu": 8664,
      "Ġinu": 8665,
      "Ġlako": 8666,
      "ĠvÄĽÄįnÃ©ho": 8667,
      "ĠÅĻÅ¯": 8668,
      "ĠdivnÃ½ch": 8669,
      "ĠbudoucÃŃ": 8670,
      "Ġtlukou": 8671,
      "ĠmodlitbÄĽ": 8672,
      "Ġhromem": 8673,
      "ĠskÅĻivÃ¡n": 8674,
      "ĠtuÅ¾by": 8675,
      "ctva": 8676,
      "Ġvrak": 8677,
      "Ġjho": 8678,
      "Ġken": 8679,
      "ĠoÅĻi": 8680,
      "Ġchvo": 8681,
      "ĠvÄĽzÃŃ": 8682,
      "Ġrozli": 8683,
      "Ġrozpa": 8684,
      "ĠprvnÄĽ": 8685,
      "vÄĽtil": 8686,
      "Ġslovech": 8687,
      "Ġstromo": 8688,
      "Ġvracel": 8689,
      "ĠÅĻve": 8690,
      "Ġspojen": 8691,
      "zeno": 8692,
      "Ġpoklid": 8693,
      "ĠostÅĻe": 8694,
      "Ġzml": 8695,
      "ĠmoudrÃ©": 8696,
      "Ġvysly": 8697,
      "ĠÅ¡edÃ½ch": 8698,
      "Ġpovinnost": 8699,
      "bÃŃm": 8700,
      "Ġzabu": 8701,
      "ĠbystÅĻe": 8702,
      "ĠÅ¡ar": 8703,
      "ria": 8704,
      "ĠbÅĻeÄį": 8705,
      "ĠtisÃŃckrÃ¡t": 8706,
      "Ġpochmu": 8707,
      "ĠpustÃ½ch": 8708,
      "Ġmly": 8709,
      "rova": 8710,
      "ĠlÃŃpa": 8711,
      "ĠdivÃŃ": 8712,
      "Ġbel": 8713,
      "Ġpozve": 8714,
      "ĠÅ¾havÃ½ch": 8715,
      "Ġzbytky": 8716,
      "ĠdÅĻevÄĽ": 8717,
      "ÃŃnÃ¡": 8718,
      "Ġcnost": 8719,
      "ĠuÄįil": 8720,
      "ĠpÅĻijÃŃt": 8721,
      "ĠdaÅĪ": 8722,
      "Ġsochy": 8723,
      "Ġsmuten": 8724,
      "Ġkamsi": 8725,
      "ĠotevÃŃrÃ¡": 8726,
      "ĠhrÃ¡ly": 8727,
      "Ġzpod": 8728,
      "ĠvÃŃtej": 8729,
      "ĠsvÄĽdÄįÃŃ": 8730,
      "ĠÄįlun": 8731,
      "ĠÅ¾ilo": 8732,
      "ĠzÃ¡da": 8733,
      "ĠprÅ¡ÃŃ": 8734,
      "ĠsvÄĽtlÃ©": 8735,
      "ĠzpÃŃvÃ¡m": 8736,
      "Ġtroj": 8737,
      "ĠdalekÃ©": 8738,
      "ĠpenÃŃz": 8739,
      "tnÃ½m": 8740,
      "Å¡nÃ¡": 8741,
      "leni": 8742,
      "ÅĻik": 8743,
      "vovat": 8744,
      "luv": 8745,
      "ĠvÃŃrou": 8746,
      "ĠvÃŃdal": 8747,
      "Ġrozpla": 8748,
      "ÄįÃŃk": 8749,
      "AAXXXX": 8750,
      "Ġdruzi": 8751,
      "Ġspolku": 8752,
      "Ġeh": 8753,
      "ĠspÄĽjÃŃ": 8754,
      "ĠvÄĽrnost": 8755,
      "ĠblÃ¡to": 8756,
      "ĠhloÅ¾ÃŃ": 8757,
      "ĠpotÄĽÅ¡enÃŃ": 8758,
      "ĠpolibkÅ¯": 8759,
      "Ġvzteku": 8760,
      "ĠpobÃŃ": 8761,
      "ĠbolÅ¯": 8762,
      "ĠdÃ¡lek": 8763,
      "cÃŃtil": 8764,
      "zet": 8765,
      "Ġbyls": 8766,
      "biti": 8767,
      "ĠpÄĽny": 8768,
      "ĠjasmÃŃ": 8769,
      "Ġpromluvil": 8770,
      "ĠlÃŃstky": 8771,
      "desÃ¡t": 8772,
      "Ġcheru": 8773,
      "ÅĻelÃ©": 8774,
      "ĠhoÅ¡ÃŃ": 8775,
      "ĠstrastÃŃ": 8776,
      "ĠbiÄį": 8777,
      "ĠzpÄĽvÃ¡": 8778,
      "Ġskutku": 8779,
      "ĠzÃ¡pasu": 8780,
      "ĠvkrÃ¡": 8781,
      "Å¡uje": 8782,
      "Ġrohu": 8783,
      "ĠnÄĽkam": 8784,
      "Ġtudy": 8785,
      "ĠpÅĻetr": 8786,
      "hujÃŃ": 8787,
      "pej": 8788,
      "Ġosm": 8789,
      "ĠchtÄĽly": 8790,
      "ĠmrtvÃ½m": 8791,
      "ĠznÄĽnÃŃ": 8792,
      "ĠÅ¾havou": 8793,
      "ĠvzdechÅ¯": 8794,
      "Ġmodlitba": 8795,
      "Ġschop": 8796,
      "Ġfrancie": 8797,
      "ĠzÅĻej": 8798,
      "ĠpropasÅ¥": 8799,
      "zkou": 8800,
      "Ġvbo": 8801,
      "ĠnaÅ¡la": 8802,
      "Ġnavra": 8803,
      "ĠcenÃŃ": 8804,
      "ĠvlastÃŃ": 8805,
      "ĠÅ¡irÃ¡": 8806,
      "Ġzvonky": 8807,
      "ĠsÃ©": 8808,
      "Å¡len": 8809,
      "nutÃ½": 8810,
      "Ġnosil": 8811,
      "stila": 8812,
      "Ġvlada": 8813,
      "ĠnebeskÃ½": 8814,
      "Ġchor": 8815,
      "ĠhoÅĻkÃ©": 8816,
      "Ġdokonal": 8817,
      "ĠlkÃ¡t": 8818,
      "Ġzoufale": 8819,
      "ĠvlnobitÃŃ": 8820,
      "nenÃ¡": 8821,
      "Ġnedej": 8822,
      "Ġpomi": 8823,
      "Ġducho": 8824,
      "ĠvzpÃŃnÃ¡": 8825,
      "are": 8826,
      "Ġsokol": 8827,
      "ĠpusÅ¥": 8828,
      "veno": 8829,
      "ĠtÃŃmto": 8830,
      "padne": 8831,
      "Ġvelikou": 8832,
      "ĠvyhlÃŃ": 8833,
      "ĠÃºtÄĽchu": 8834,
      "ĠstÃ½skÃ¡": 8835,
      "Ġnachu": 8836,
      "ĠdosÃ¡": 8837,
      "tosti": 8838,
      "ĠÃºle": 8839,
      "ĠvÃ½zna": 8840,
      "Ġtouto": 8841,
      "ĠkvÄĽtnÃ©": 8842,
      "Ġsnah": 8843,
      "ĠklekÃ¡nÃŃ": 8844,
      "ĠoknÄĽ": 8845,
      "Ġlouky": 8846,
      "ĠstÅĻevÃŃ": 8847,
      "nÃŃkÅ¯m": 8848,
      "Ġzove": 8849,
      "ĠkalnÃ©": 8850,
      "ĠchvÃ¡ly": 8851,
      "ĠneslyÅ¡ÃŃ": 8852,
      "ĠodÅĻÃŃkÃ¡nÃŃ": 8853,
      "ĠoÄįekÃ¡": 8854,
      "ĠtÄĽÅ¡il": 8855,
      "Ġvor": 8856,
      "ĠvÃ½bo": 8857,
      "ĠvÃ½slu": 8858,
      "Ġdruhem": 8859,
      "ĠpÄĽn": 8860,
      "ĠplnÄĽ": 8861,
      "ĠchorÃ¡": 8862,
      "Ġdrav": 8863,
      "Å¾enÃ½m": 8864,
      "pÄĽje": 8865,
      "Ġhane": 8866,
      "Ġstrop": 8867,
      "ĠjarnÃŃm": 8868,
      "ĠnedÃ¡v": 8869,
      "ĠzastavÃŃ": 8870,
      "aje": 8871,
      "Ġki": 8872,
      "emi": 8873,
      "Ġstrak": 8874,
      "ĠrodnÃ¡": 8875,
      "ĠdÄĽdÅ¯": 8876,
      "Ġnejra": 8877,
      "ĠstraÅ¡ÃŃ": 8878,
      "Ġvlnami": 8879,
      "ĠpudÃŃ": 8880,
      "Ġtrne": 8881,
      "ĠsvÄĽtÃŃ": 8882,
      "ĠsnÄĽt": 8883,
      "ĠneumÃŃ": 8884,
      "ĠÅ¡Å¥astna": 8885,
      "ĠlesklÃ©": 8886,
      "Ġvichru": 8887,
      "ĠsrÅ¡ÃŃ": 8888,
      "Ġtvrdou": 8889,
      "ABAXXB": 8890,
      "Ġpoce": 8891,
      "ĠniÄįÃŃm": 8892,
      "Ġsnaha": 8893,
      "ĠslunnÃ½": 8894,
      "Ġostru": 8895,
      "ĠprÅ¯vodu": 8896,
      "Ġzrcadlo": 8897,
      "eÅ¡": 8898,
      "tly": 8899,
      "ĠzatÃŃ": 8900,
      "stit": 8901,
      "Ġpaho": 8902,
      "ĠzÃ¡blesk": 8903,
      "ĠpÅĻÃŃzeÅĪ": 8904,
      "ĠpÃ¡tra": 8905,
      "ĠnejlÃŃp": 8906,
      "Å¾eny": 8907,
      "ÄįenÃŃm": 8908,
      "ĠspÃ¡d": 8909,
      "ĠhroznÄĽ": 8910,
      "Ġbitvy": 8911,
      "bce": 8912,
      "ĠpÃ³": 8913,
      "tickÃ©": 8914,
      "Ġzej": 8915,
      "ÅĻÃ¡n": 8916,
      "Ġstopu": 8917,
      "ĠsvÃŃjÃŃ": 8918,
      "ĠmuÅ¾nÄĽ": 8919,
      "Ġtaju": 8920,
      "Ġdokto": 8921,
      "ĠozvÄĽna": 8922,
      "Ġutich": 8923,
      "dly": 8924,
      "dnÃ©m": 8925,
      "ĠvÄĽstÃŃ": 8926,
      "ĠdumÃ¡ch": 8927,
      "ĠvzpÃŃ": 8928,
      "Ġoddechu": 8929,
      "ĠmeÄįi": 8930,
      "ĠpohlÃ©": 8931,
      "Ġozve": 8932,
      "Ġzaku": 8933,
      "cÃŃmu": 8934,
      "ĠznÄĽjÃŃ": 8935,
      "ĠÅ¾havÃ½m": 8936,
      "ĠupÅĻÃŃ": 8937,
      "Ġmdloby": 8938,
      "ĠkorÃ¡b": 8939,
      "ĠpoÄįÃ¡tku": 8940,
      "Ġfrancouz": 8941,
      "ĠnedÅ¯vÄĽ": 8942,
      "mel": 8943,
      "Ġpodpo": 8944,
      "ĠbÃŃdnÄĽ": 8945,
      "ĠtrÃ¡vÃŃ": 8946,
      "Ġdvoru": 8947,
      "Ġzabloudil": 8948,
      "ĠpenÃŃze": 8949,
      "hi": 8950,
      "pati": 8951,
      "Ġpem": 8952,
      "ĠneÅĻek": 8953,
      "Ġveden": 8954,
      "Ġrohy": 8955,
      "Ġnezna": 8956,
      "Ġbed": 8957,
      "ĠptÃ¡t": 8958,
      "Å¡enou": 8959,
      "Ġplesem": 8960,
      "ĠhrudÃŃ": 8961,
      "Ġzisk": 8962,
      "Ġzrady": 8963,
      "ĠpÅĻijal": 8964,
      "ĠdruÅ¾ky": 8965,
      "ĠdveÅĻe": 8966,
      "Ġzaduma": 8967,
      "ĠlÃ©kaÅĻ": 8968,
      "ĠovÄĽn": 8969,
      "Ġhnul": 8970,
      "aku": 8971,
      "Ġzajde": 8972,
      "ĠnÃŃÅ¾e": 8973,
      "Ġprostou": 8974,
      "Ġtakhle": 8975,
      "ĠzasvÄĽ": 8976,
      "ĠstarÃ©ho": 8977,
      "Ġchuti": 8978,
      "ĠkÅ¯Å¾e": 8979,
      "ĠzmÄĽny": 8980,
      "ĠsklonÃŃ": 8981,
      "Ġvyhas": 8982,
      "ĠhnÃ¡t": 8983,
      "Ġjezdec": 8984,
      "Ġmelodi": 8985,
      "rko": 8986,
      "Ġonom": 8987,
      "livÃ½m": 8988,
      "ĠnÄĽmÄĽ": 8989,
      "Ġplatno": 8990,
      "Ġstolem": 8991,
      "Ġdobou": 8992,
      "Ġbrali": 8993,
      "ĠÅ¡ibeni": 8994,
      "ĠprotoÅ¾": 8995,
      "Ġchvilkou": 8996,
      "ĠzboÅ¾nÃ©": 8997,
      "ĠÃºtÄĽchy": 8998,
      "Ġpodep": 8999,
      "Ġzmizela": 9000,
      "Ġodhodla": 9001,
      "!?": 9002,
      "Ġocel": 9003,
      "ĠstÅĻem": 9004,
      "ĠbytÃŃ": 9005,
      "ĠpÅĻeÅ¡el": 9006,
      "ĠspÅĻe": 9007,
      "venÃ¡": 9008,
      "ĠznÃ¡mo": 9009,
      "ĠpokornÄĽ": 9010,
      "Ġhluboce": 9011,
      "ĠsluÅ¾bÄĽ": 9012,
      "Ġmramoru": 9013,
      "ĠspÅĻÃ¡dÃ¡": 9014,
      "Ġope": 9015,
      "Ġnest": 9016,
      "ĠvÄĽdy": 9017,
      "ĠsplÃ¡": 9018,
      "ĠvaÅ¡em": 9019,
      "Ġsmil": 9020,
      "ĠtÃ¡ch": 9021,
      "ĠnesÄįÃŃs": 9022,
      "ĠpozdÄĽj": 9023,
      "ĠsilnÃ¡": 9024,
      "ĠsÃ¡lÃ¡": 9025,
      "ĠvÄĽrnÃ½m": 9026,
      "ĠznajÃŃ": 9027,
      "ĠzmÄĽnil": 9028,
      "ĠneznÃ¡mÃ½ch": 9029,
      "Ġjezero": 9030,
      "ĠluznÃ½": 9031,
      "Ġztrnu": 9032,
      "ĠÅ¡veho": 9033,
      "Ġoto": 9034,
      "ĠnestÃ¡": 9035,
      "Ġpoda": 9036,
      "jet": 9037,
      "Ġvzta": 9038,
      "ĠvÃŃÅ¾e": 9039,
      "dÃ¡v": 9040,
      "ĠpadajÃŃ": 9041,
      "valu": 9042,
      "ĠÄįÃŃsti": 9043,
      "ĠhledÄĽla": 9044,
      "res": 9045,
      "Ġpohrd": 9046,
      "ĠloubÃŃ": 9047,
      "ĠhÃ½ÅĻÃŃ": 9048,
      "ĠulicÃŃ": 9049,
      "Ġpospolu": 9050,
      "nicky": 9051,
      "Ġobjal": 9052,
      "ĠmÃ¡to": 9053,
      "Ġdan": 9054,
      "ĠpÄĽvce": 9055,
      "ĠlÃ©tÄĽ": 9056,
      "ĠmlhÃ¡ch": 9057,
      "ĠdÃŃvÄįi": 9058,
      "ĠhrÃ¡ti": 9059,
      "ĠplujÃŃ": 9060,
      "Ġzbor": 9061,
      "ĠslouÅ¾it": 9062,
      "Ġjizbu": 9063,
      "ĠvloÅ¾il": 9064,
      "Ġdivadlo": 9065,
      "ĠstinnÃ©": 9066,
      "Ġkultu": 9067,
      "cujÃŃ": 9068,
      "eny": 9069,
      "ĠzapadÃ¡": 9070,
      "ĠbokÅ¯": 9071,
      "ĠjÃŃst": 9072,
      "ĠcÃŃlem": 9073,
      "Ġpouste": 9074,
      "pech": 9075,
      "ĠzÅĻÃŃtel": 9076,
      "ĠsmutnÃ½ch": 9077,
      "ĠspÄĽla": 9078,
      "ĠstejnÃ½": 9079,
      "ĠhoÅĻÃŃcÃŃ": 9080,
      "Ġrakve": 9081,
      "Ġbytosti": 9082,
      "ĠhvÃŃzdÃ¡": 9083,
      "Ġdojde": 9084,
      "niku": 9085,
      "ĠtiÅ¡ÃŃ": 9086,
      "ĠvÄĽda": 9087,
      "Ġobro": 9088,
      "Ġobno": 9089,
      "ĠdÄĽku": 9090,
      "ĠpÅĻiv": 9091,
      "ĠsÃŃdlo": 9092,
      "Ġfer": 9093,
      "Ġchytil": 9094,
      "hneÅ¡": 9095,
      "ĠbrÃ¡nÄĽ": 9096,
      "Ġstrh": 9097,
      "ĠvelkÃ©ho": 9098,
      "ĠdÃ½chal": 9099,
      "Ġrevoluce": 9100,
      "Ġkata": 9101,
      "ĠdvÃŃ": 9102,
      "Ġnedale": 9103,
      "ĠuÅ¾i": 9104,
      "ĠnÃŃÅ¾ÃŃ": 9105,
      "Ġkomi": 9106,
      "dajÃŃcÃŃ": 9107,
      "ĠpraskÃ¡": 9108,
      "Ġjaru": 9109,
      "Ġpurk": 9110,
      "ĠÅ¡umu": 9111,
      "ĠmlÃ¡zÃŃ": 9112,
      "ĠnevÄĽstu": 9113,
      "Ġprchla": 9114,
      "mysl": 9115,
      "Ġhanby": 9116,
      "ĠpodivnÃ½": 9117,
      "ĠrajskÃ©": 9118,
      "ĠdoprovÃ¡": 9119,
      "ĠzapomÃŃnÃ¡": 9120,
      "Ġchru": 9121,
      "ĠjakÃ½ch": 9122,
      "ĠurÃ¡": 9123,
      "novÃ½": 9124,
      "ĠkozÃ¡": 9125,
      "ĠskÃ½m": 9126,
      "lÃ½vÃ¡": 9127,
      "ĠÅ¾ÃŃly": 9128,
      "Ġhukot": 9129,
      "ĠzÅĻÃŃme": 9130,
      "Ġskoku": 9131,
      "ĠsluncÃŃ": 9132,
      "Ġpokli": 9133,
      "ĠklÃŃna": 9134,
      "ĠschrÃ¡": 9135,
      "ĠvÄĽtvÃŃch": 9136,
      "ĠzdvÃŃhÃ¡": 9137,
      "Ġoha": 9138,
      "Ġtoku": 9139,
      "tesk": 9140,
      "Ġvesla": 9141,
      "ĠpÅĻekÃ¡": 9142,
      "ĠroztÅĻÃŃ": 9143,
      "ĠkrÃ¡m": 9144,
      "ceno": 9145,
      "Ġtram": 9146,
      "Ġnapsal": 9147,
      "ĠchÅ¯zi": 9148,
      "ĠstenÃ¡": 9149,
      "Ġzch": 9150,
      "Ġstvol": 9151,
      "Ġroce": 9152,
      "Ġlich": 9153,
      "Ġvzbudil": 9154,
      "ĠranÃŃ": 9155,
      "Ġzaslou": 9156,
      "ĠstÃ¡lÃ©m": 9157,
      "ĠflÃ©t": 9158,
      "ĠpÄĽna": 9159,
      "panÃ©": 9160,
      "ĠmodrÃ©m": 9161,
      "Ġvran": 9162,
      "rio": 9163,
      "ĠjarnÃŃch": 9164,
      "Ġpluky": 9165,
      "ÄįÃŃme": 9166,
      "ĠbolnÄĽ": 9167,
      "ĠotevÅĻe": 9168,
      "Ġbratrem": 9169,
      "ĠcÃŃsaÅĻi": 9170,
      "Ġzhyne": 9171,
      "Ġharfy": 9172,
      "mnÃŃ": 9173,
      "Ġzalo": 9174,
      "Ġustr": 9175,
      "ĠproÄįeÅ¾": 9176,
      "ĠkonÃ¡": 9177,
      "....": 9178,
      "Ġlila": 9179,
      "ĠÄįekala": 9180,
      "ĠrudÄĽ": 9181,
      "Ġkrb": 9182,
      "ĠÅ¡ÃŃÅ¡": 9183,
      "Ġmlat": 9184,
      "Ġvelice": 9185,
      "Ġjemnou": 9186,
      "Ġkardi": 9187,
      "Ġdrozd": 9188,
      "ĠÅ¡patnÄĽ": 9189,
      "ĠmlÃ¡denec": 9190,
      "leny": 9191,
      "Ġis": 9192,
      "Ġrozer": 9193,
      "ĠpeÅĻe": 9194,
      "Ġfri": 9195,
      "ĠpÅ¯li": 9196,
      "Ġokla": 9197,
      "ĠmocnÃ½ch": 9198,
      "Ġkristo": 9199,
      "ĠdÄĽsnÄĽ": 9200,
      "bily": 9201,
      "Ġfili": 9202,
      "ĠbÃ¡snÃŃka": 9203,
      "ĠnaslouchÃ¡": 9204,
      "ĠÅ¡pina": 9205,
      "Ġnejisto": 9206,
      "23": 9207,
      "ĠvÄĽkem": 9208,
      "ĠmÃŃval": 9209,
      "ĠplanoucÃŃ": 9210,
      "Ġnechat": 9211,
      "Ġnemohla": 9212,
      "ĠjedinÃ½m": 9213,
      "ĠshlÃŃ": 9214,
      "ĠchudÃ½ch": 9215,
      "Ġrostl": 9216,
      "ĠÅ¾enich": 9217,
      "ĠobyÄįej": 9218,
      "lÅ¯m": 9219,
[...]
