{
  "version": "1.0",
  "truncation": null,
  "padding": null,
  "added_tokens": [
    {
      "id": 0,
      "content": "<|EOS|>",
      "single_word": false,
      "lstrip": false,
      "rstrip": false,
      "normalized": false,
      "special": true
    },
    {
      "id": 1,
      "content": "<|PAD|>",
      "single_word": false,
      "lstrip": false,
      "rstrip": false,
      "normalized": false,
      "special": true
    },
    {
      "id": 2,
      "content": "<|UNK|>",
      "single_word": false,
      "lstrip": false,
      "rstrip": false,
      "normalized": false,
      "special": true
    }
  ],
  "normalizer": null,
  "pre_tokenizer": {
    "type": "ByteLevel",
    "add_prefix_space": false,
    "trim_offsets": true,
    "use_regex": true
  },
  "post_processor": {
    "type": "ByteLevel",
    "add_prefix_space": true,
    "trim_offsets": false,
    "use_regex": true
  },
  "decoder": {
    "type": "ByteLevel",
    "add_prefix_space": true,
    "trim_offsets": true,
    "use_regex": true
  },
  "model": {
    "type": "BPE",
    "dropout": null,
    "unk_token": null,
    "continuing_subword_prefix": null,
    "end_of_word_suffix": null,
    "fuse_unk": false,
    "byte_fallback": false,
    "vocab": {
      "<|EOS|>": 0,
      "<|PAD|>": 1,
      "<|UNK|>": 2,
      "!": 3,
      "#": 4,
      ",": 5,
      ".": 6,
      "0": 7,
      "1": 8,
      "2": 9,
      "3": 10,
      "4": 11,
      "5": 12,
      "6": 13,
      "7": 14,
      "8": 15,
      "9": 16,
      "?": 17,
      "A": 18,
      "B": 19,
      "C": 20,
      "D": 21,
      "H": 22,
      "J": 23,
      "N": 24,
      "P": 25,
      "T": 26,
      "X": 27,
      "Y": 28,
      "a": 29,
      "b": 30,
      "c": 31,
      "d": 32,
      "e": 33,
      "f": 34,
      "g": 35,
      "h": 36,
      "i": 37,
      "j": 38,
      "k": 39,
      "l": 40,
      "m": 41,
      "n": 42,
      "o": 43,
      "p": 44,
      "q": 45,
      "r": 46,
      "s": 47,
      "t": 48,
      "u": 49,
      "v": 50,
      "w": 51,
      "x": 52,
      "y": 53,
      "z": 54,
      "¡": 55,
      "¤": 56,
      "¥": 57,
      "©": 58,
      "¯": 59,
      "³": 60,
      "¶": 61,
      "º": 62,
      "¼": 63,
      "½": 64,
      "¾": 65,
      "Ã": 66,
      "Ä": 67,
      "Å": 68,
      "Ċ": 69,
      "Ġ": 70,
      "Ī": 71,
      "į": 72,
      "ı": 73,
      "Ļ": 74,
      "Ľ": 75,
      "Ń": 76,
      "Ġ#": 77,
      "Ġn": 78,
      "Ġs": 79,
      "Ġv": 80,
      "ÃŃ": 81,
      "Ġt": 82,
      "Ġk": 83,
      "Ã¡": 84,
      "Ġ1": 85,
      "Ġd": 86,
      "Ġj": 87,
      "Ġl": 88,
      "Ġp": 89,
      "Ġm": 90,
      "ÄĽ": 91,
      "ĠÅ": 92,
      "Ġz": 93,
      "Ġc": 94,
      "Ġb": 95,
      "Ġh": 96,
      "Ã½": 97,
      "Ã©": 98,
      "ou": 99,
      "Ġr": 100,
      "Ġst": 101,
      "Ġa": 102,
      "Ġje": 103,
      "Äį": 104,
      "Ġ10": 105,
      "Ġ8": 106,
      "Ġse": 107,
      "Ġ11": 108,
      "Ġne": 109,
      "ÅĻ": 110,
      "ch": 111,
      "Å¾": 112,
      "Ġna": 113,
      "ĠÅ¾": 114,
      "ĠÅ¡": 115,
      "ĠÄį": 116,
      "Å¯": 117,
      "Ġch": 118,
      "Ġo": 119,
      "ĠnÃŃ": 120,
      "Å¡": 121,
      "la": 122,
      "Ġpo": 123,
      "em": 124,
      "ra": 125,
      "XX": 126,
      "Ġle": 127,
      "ak": 128,
      "Ġko": 129,
      "Ġce": 130,
      "ĠÅĻ": 131,
      "Ġho": 132,
      "Ġsv": 133,
      "Ġli": 134,
      "AB": 135,
      "ĠnÄĽ": 136,
      "Ġ9": 137,
      "ro": 138,
      "Ġte": 139,
      "Ġti": 140,
      "Ġla": 141,
      "Ġza": 142,
      "Ġto": 143,
      "Ġdo": 144,
      "Ġka": 145,
      "le": 146,
      "ĠnÃ¡": 147,
      "ĠnÃ½": 148,
      "ĠÅ¾e": 149,
      "Ġby": 150,
      "Ġji": 151,
      "ĠjÃŃ": 152,
      "rÃ¡": 153,
      "Ġmi": 154,
      "Ġno": 155,
      "Ġ19": 156,
      "Ġ7": 157,
      "ÅĻe": 158,
      "ĠnÃ©": 159,
      "st": 160,
      "Ġta": 161,
      "Ġva": 162,
      "Ġve": 163,
      "Ġky": 164,
      "Ġni": 165,
      "Ġku": 166,
      "ĠvÃ¡": 167,
      "Ġro": 168,
      "Ġsl": 169,
      "Ġu": 170,
      "Ġlo": 171,
      "Ġkd": 172,
      "ĠtÄĽ": 173,
      "ĠvÄĽ": 174,
      "ĠtÃŃ": 175,
      "Ġde": 176,
      "ĠÅ¡e": 177,
      "ĠvÅ¡": 178,
      "ĠÄįe": 179,
      "Ġsk": 180,
      "Ġdu": 181,
      "Ġvy": 182,
      "Ġmu": 183,
      "Ġ6": 184,
      "Ġvo": 185,
      "ĠvÃŃ": 186,
      "ÅĻÃŃ": 187,
      "Ġ12": 188,
      "Ġnou": 189,
      "ĠdÄĽ": 190,
      "Ġmo": 191,
      "Ġjak": 192,
      "ĠdÃŃ": 193,
      "Ġci": 194,
      "Ġjs": 195,
      "Ġ18": 196,
      "Ġtv": 197,
      "ĠdÃ¡": 198,
      "Ġze": 199,
      "ĠcÃŃ": 200,
      "Ġtu": 201,
      "Ġpa": 202,
      "Ġme": 203,
      "Ġnu": 204,
      "Ġda": 205,
      "Ġja": 206,
      "il": 207,
      "ĠmÄĽ": 208,
      "Ġru": 209,
      "Ġbo": 210,
      "Ġpro": 211,
      "Ġvz": 212,
      "Ġny": 213,
      "Ġma": 214,
      "ĠÅ¡ÃŃ": 215,
      "Ġbe": 216,
      "ĠAB": 217,
      "Ã½ch": 218,
      "Ġsta": 219,
      "00": 220,
      "ĠÄįÃŃ": 221,
      "Ġ1900": 222,
      "Ġsp": 223,
      "ĠÅĻe": 224,
      "ne": 225,
      "Ġjen": 226,
      "Å¥": 227,
      "ĠmÃ¡": 228,
      "XXXX": 229,
      "ĠlÃŃ": 230,
      "Ġvi": 231,
      "vÄĽ": 232,
      "Ġdi": 233,
      "lo": 234,
      "XA": 235,
      "Ġly": 236,
      "Ġ13": 237,
      "Ġsti": 238,
      "Ġty": 239,
      "Ġra": 240,
      "Ġco": 241,
      "ĠpÅĻe": 242,
      "ĠlÃ¡": 243,
      "Ġsi": 244,
      "ÅĻi": 245,
      "Ġdy": 246,
      "ĠkÃ¡": 247,
      "lÃ¡": 248,
      "ĠÅĻÃŃ": 249,
      "Ġkdy": 250,
      "ĠÅ¾i": 251,
      "Ġbu": 252,
      "ĠÅ¾ÃŃ": 253,
      "Ġi": 254,
      "li": 255,
      "ĠABAB": 256,
      "Ġsn": 257,
      "ru": 258,
      "ĠÄįi": 259,
      "ĠrÃ¡": 260,
      "ĠvÃ½": 261,
      "ĠvÅ¡e": 262,
      "Ġzd": 263,
      "ĠA": 264,
      "Ġsm": 265,
      "80": 266,
      "Ġ1880": 267,
      "ĠmÃŃ": 268,
      "ĠstÃŃ": 269,
      "ĠbÄĽ": 270,
      "Ġha": 271,
      "20": 272,
      "Ġzv": 273,
      "Ġhla": 274,
      "ĠXXXX": 275,
      "ĠvÃ©": 276,
      "lu": 277,
      "ĠsÃŃ": 278,
      "ĠkrÃ¡": 279,
      "nÄĽ": 280,
      "ĠsvÄĽ": 281,
      "ĠtÃ¡": 282,
      "Ġtak": 283,
      "Ã½m": 284,
      "Äı": 285,
      "Ġsa": 286,
      "ĠÃ": 287,
      "Ġkou": 288,
      "ĠzÃ¡": 289,
      "Ġ1920": 290,
      "Ġjsem": 291,
      "Ġba": 292,
      "ĠÅ¡i": 293,
      "ÅĪ": 294,
      "ĠtÃ©": 295,
      "ĠkÃ©": 296,
      "Ġlu": 297,
      "lÃŃ": 298,
      "ĠlÃ©": 299,
      "Ġpe": 300,
      "ĠpÅĻi": 301,
      "Ġsy": 302,
      "Ġhu": 303,
      "Ġhle": 304,
      "Ġpr": 305,
      "ĠkdyÅ¾": 306,
      "Ġmy": 307,
      "Ġtr": 308,
      "vÃŃ": 309,
      "Ġkr": 310,
      "Ġvs": 311,
      "Å¯j": 312,
      "ĠjÃ¡": 313,
      "rd": 314,
      "Ġvt": 315,
      "Ġ5": 316,
      "ĠAAB": 317,
      "Ġchu": 318,
      "Ġpra": 319,
      "Ġvu": 320,
      "ĠpÃŃ": 321,
      "ĠkÅ¯": 322,
      "Ġod": 323,
      "Ġvp": 324,
      "ĠnÃ½ch": 325,
      "ĠsvÃ©": 326,
      "Ġsla": 327,
      "Ġzp": 328,
      "ĠhÃ¡": 329,
      "Ġzn": 330,
      "Ġsu": 331,
      "ĠÅĻi": 332,
      "ĠzÃŃ": 333,
      "Ġcho": 334,
      "ĠvÅ¡ak": 335,
      "Ġry": 336,
      "ĠXA": 337,
      "ĠbÃŃ": 338,
      "Ġroz": 339,
      "Ġkem": 340,
      "lou": 341,
      "Ġsto": 342,
      "ĠstÃ¡": 343,
      "ĠkÃ½": 344,
      "ĠpÃ¡": 345,
      "Ġten": 346,
      "Ġkde": 347,
      "Ġval": 348,
      "al": 349,
      "ĠAABB": 350,
      "ĠlÃ½": 351,
      "Ġtam": 352,
      "te": 353,
      "Ġhy": 354,
      "Ġso": 355,
      "Ġf": 356,
      "ĠpÄĽ": 357,
      "Ġsrd": 358,
      "Ġbi": 359,
      "ĠjiÅ¾": 360,
      "40": 361,
      "Ġste": 362,
      "Ġvd": 363,
      "ĠsÃ¡": 364,
      "ĠÃº": 365,
      "Ġre": 366,
      "ĠÄįa": 367,
      "Ġbyl": 368,
      "Ġtou": 369,
      "lÃ©": 370,
      "ĠpÅĻÃŃ": 371,
      "ĠXAXA": 372,
      "Ġtem": 373,
      "Ġnad": 374,
      "ĠjeÅ¾": 375,
      "ĠnÃ½m": 376,
      "ĠvÅ¾": 377,
      "Ġpu": 378,
      "Ġslu": 379,
      "no": 380,
      "Ġdou": 381,
      "Ġbou": 382,
      "ĠmÃ©": 383,
      "Ġpla": 384,
      "Ġlem": 385,
      "tÄĽ": 386,
      "dy": 387,
      "Ġe": 388,
      "ĠnÃŃm": 389,
      "Ġvla": 390,
      "Ġvou": 391,
      "ĠtÃ½": 392,
      "Ġcha": 393,
      "Ġbra": 394,
      "ĠdÃ©": 395,
      "ĠbÃ¡": 396,
      "nÃŃ": 397,
      "Ġkla": 398,
      "Ġden": 399,
      "ĠdÃ½": 400,
      "Ġzas": 401,
      "Ġzra": 402,
      "ĠlÃ¡s": 403,
      "Ġslo": 404,
      "CC": 405,
      "Ġvk": 406,
      "ĠkvÄĽ": 407,
      "Ġzm": 408,
      "Ġkte": 409,
      "Ġzb": 410,
      "Ġpak": 411,
      "Ġpl": 412,
      "Ġg": 413,
      "Ġdra": 414,
      "Ġkdo": 415,
      "Ġhou": 416,
      "Ġbez": 417,
      "ĠvÅ¾dy": 418,
      "Ġkle": 419,
      "ĠÄįer": 420,
      "ad": 421,
      "Ġzi": 422,
      "Ġzla": 423,
      "Ġpod": 424,
      "Ġsou": 425,
      "ĠnÃ¡m": 426,
      "Ġhro": 427,
      "ĠchÃ¡": 428,
      "Ġ15": 429,
      "ĠjenÅ¾": 430,
      "Ġdv": 431,
      "Ġsem": 432,
      "Ġ14": 433,
      "Ġjich": 434,
      "Ġmne": 435,
      "Ġlou": 436,
      "ĠaÅ¾": 437,
      "ĠXXXXXX": 438,
      "Ġpou": 439,
      "60": 440,
      "me": 441,
      "ni": 442,
      "Ġjest": 443,
      "Å¯m": 444,
      "ĠtvÃ¡": 445,
      "ĠÃ³": 446,
      "ĠpÅĻed": 447,
      "Ġdla": 448,
      "ĠÅ¡el": 449,
      "ĠdÄĽl": 450,
      "Ġdne": 451,
      "Ġstu": 452,
      "ĠrÅ¯": 453,
      "Ġsle": 454,
      "Ġhr": 455,
      "Ġspo": 456,
      "ce": 457,
      "Ġ4": 458,
      "Ġjed": 459,
      "Ġkv": 460,
      "Ġhra": 461,
      "ĠprÃ¡": 462,
      "Ġpi": 463,
      "Ġchy": 464,
      "Ġvr": 465,
      "ĠteÄı": 466,
      "ĠjeÅ¡": 467,
      "Ġzt": 468,
      "Ġbla": 469,
      "ly": 470,
      "Ġdr": 471,
      "Ġzo": 472,
      "Ġvm": 473,
      "Ġke": 474,
      "Ġnn": 475,
      "Ġsvou": 476,
      "Ġsly": 477,
      "Ġsva": 478,
      "Ġstra": 479,
      "Ġ16": 480,
      "ĠplÃ¡": 481,
      "ĠrÃ©": 482,
      "ĠtÃŃm": 483,
      "ĠbÃ½": 484,
      "Ġvra": 485,
      "ĠskÃ©": 486,
      "ĠnÃ©m": 487,
      "ĠuÅ¾": 488,
      "ĠmÅ¯": 489,
      "je": 490,
      "Ġsvo": 491,
      "ĠkaÅ¾": 492,
      "Ġvzd": 493,
      "Ġ1940": 494,
      "Ġjej": 495,
      "Ġzu": 496,
      "ĠtÅĻe": 497,
      "Ġnem": 498,
      "Ġdem": 499,
      "Ġjsou": 500,
      "Ġbr": 501,
      "Ġkra": 502,
      "Ġdru": 503,
      "Ġvst": 504,
      "ĠtvÃ©": 505,
      "BA": 506,
      "Ġlid": 507,
      "Ġon": 508,
      "ĠmÅ¯j": 509,
      "Ġvh": 510,
      "Ġjsi": 511,
      "Ġzk": 512,
      "ĠvÅ¯": 513,
      "Ġhe": 514,
      "Ġble": 515,
      "Ġzem": 516,
      "Ġdal": 517,
      "Ġkli": 518,
      "vÄĽz": 519,
      "ĠvÅ¡ech": 520,
      "Ġjd": 521,
      "ĠrÃ½": 522,
      "ĠstÄĽ": 523,
      "ĠmnÄĽ": 524,
      "Ġvel": 525,
      "Ġvl": 526,
      "Ġsnad": 527,
      "Ġnech": 528,
      "Ġzy": 529,
      "ĠhvÄĽz": 530,
      "Ġzde": 531,
      "ĠstvÃŃ": 532,
      "ĠsvÄĽt": 533,
      "ĠÅ¾Ã¡": 534,
      "ĠhÃ½": 535,
      "Ġrou": 536,
      "Ġstr": 537,
      "Ġvb": 538,
      "ĠsÃ¡m": 539,
      "ĠABBA": 540,
      "lÃ½": 541,
      "Ġtvo": 542,
      "Ġjem": 543,
      "Ġpt": 544,
      "Ġzh": 545,
      "Ġstro": 546,
      "Ġbych": 547,
      "ĠneÅ¾": 548,
      "Ġslun": 549,
      "Ġnej": 550,
      "Ġdnes": 551,
      "Ġ1860": 552,
      "ÅĻÃ¡": 553,
      "ĠnÅ¯": 554,
      "Ġmra": 555,
      "ĠvÃ¡m": 556,
      "Ġmr": 557,
      "ĠsnÃŃ": 558,
      "ĠdÃ¡l": 559,
      "ĠtÅ¯": 560,
      "Ġ1840": 561,
      "Ġzvo": 562,
      "Ġtra": 563,
      "ĠvÅ¡ec": 564,
      "Ġkro": 565,
      "Ġmou": 566,
      "ĠchvÃŃ": 567,
      "ĠaÅ¥": 568,
      "ĠstÅĻe": 569,
      "ĠbÅ¯": 570,
      "Ġstv": 571,
      "Ġtil": 572,
      "Ġnost": 573,
      "ĠnÃ¡s": 574,
      "Ġkol": 575,
      "Ġsh": 576,
      "Ġdle": 577,
      "ĠcÃŃch": 578,
      "Ġpy": 579,
      "ĠAA": 580,
      "Ġtel": 581,
      "ĠzpÄĽ": 582,
      "Ġnul": 583,
      "ĠkrÃ¡s": 584,
      "ĠhÃ©": 585,
      "Ġvot": 586,
      "Ġdn": 587,
      "ĠkÅĻÃŃ": 588,
      "ut": 589,
      "Ġtro": 590,
      "Ġmla": 591,
      "Ġdlou": 592,
      "Ġchem": 593,
      "ĠvÄĽÄį": 594,
      "Ġob": 595,
      "Ġvzp": 596,
      "ĠchvÄĽ": 597,
      "Ġvat": 598,
      "Ġjsme": 599,
      "Ġstou": 600,
      "ĠmÄĽl": 601,
      "ĠzÅĻÃŃ": 602,
      "Ġrem": 603,
      "Ġhlu": 604,
      "Ġtm": 605,
      "ĠlÅ¯": 606,
      "Ġkam": 607,
      "Ġslad": 608,
      "sk": 609,
      "ĠdÅ¯": 610,
      "ĠznÃ¡": 611,
      "Ġneb": 612,
      "Ġsmr": 613,
      "Ġvil": 614,
      "ĠvÅĻe": 615,
      "ĠzdÃ¡": 616,
      "Ġnes": 617,
      "ĠptÃ¡": 618,
      "Ġmno": 619,
      "Ġnic": 620,
      "Ġtom": 621,
      "ĠchtÄĽ": 622,
      "Ġsli": 623,
      "Ġsty": 624,
      "ĠÅ¡tÄĽ": 625,
      "Ġjas": 626,
      "Ġnik": 627,
      "Ġvem": 628,
      "Ġdl": 629,
      "Ġjim": 630,
      "Ġmat": 631,
      "ĠslÃ¡": 632,
      "Ġhlas": 633,
      "Ġdil": 634,
      "ĠtÅĻÃŃ": 635,
      "ĠsvÃŃ": 636,
      "Ġml": 637,
      "Ġsil": 638,
      "Ġpoz": 639,
      "ĠbÅ¯h": 640,
      "ĠkvÄĽt": 641,
      "ĠvrÃ¡": 642,
      "Ġju": 643,
      "ĠvÃ½ch": 644,
      "ĠvÃŃc": 645,
      "Ġtla": 646,
      "Ġtek": 647,
      "ĠÄįas": 648,
      "Ġchv": 649,
      "Ġmen": 650,
      "ĠvÃŃm": 651,
      "nou": 652,
      "Ġklo": 653,
      "Ġnez": 654,
      "ĠskÃ¡": 655,
      "Äįe": 656,
      "ĠÅ¡le": 657,
      "ĠblÃŃ": 658,
      "Ġsud": 659,
      "Ġmlu": 660,
      "Ġzlo": 661,
      "Ġmoc": 662,
      "Ġspa": 663,
      "Ġzrak": 664,
      "ĠbÅĻe": 665,
      "Ġsen": 666,
      "sÅ¥": 667,
      "Ġzda": 668,
      "Ġdost": 669,
      "Ġks": 670,
      "Ġchla": 671,
      "ĠdÅĻÃŃ": 672,
      "ĠsvÅ¯j": 673,
      "Ġdiv": 674,
      "ĠÅ¾il": 675,
      "Ġsko": 676,
      "Ġvpo": 677,
      "ĠleÄį": 678,
      "Ġzve": 679,
      "Ġkre": 680,
      "nÃ¡": 681,
      "ĠXX": 682,
      "ĠbrÃ¡": 683,
      "Ġven": 684,
      "Ġsb": 685,
      "ĠsmÄĽ": 686,
      "ĠnÄĽj": 687,
      "Ġhne": 688,
      "ĠÄįek": 689,
      "ĠsmÃŃ": 690,
      "Ġvto": 691,
      "Ġnek": 692,
      "Ġple": 693,
      "ĠvlÃ¡": 694,
      "Ġdli": 695,
      "ĠkÃ½ch": 696,
      "ĠpÃŃs": 697,
      "Ã¡t": 698,
      "ĠpÅ¯": 699,
      "ĠtÃ©Å¾": 700,
      "ĠÄįlo": 701,
      "ĠtvÅ¯j": 702,
      "ĠvÃ½m": 703,
      "ĠskÃ½": 704,
      "ĠAABBCC": 705,
      "ĠÅ¡u": 706,
      "ĠÅ¾a": 707,
      "Ġmar": 708,
      "Ġhned": 709,
      "Ġtru": 710,
      "ĠkÅĻi": 711,
      "ĠkrÃ¡t": 712,
      "Ġan": 713,
      "ĠspÄĽ": 714,
      "ĠsvÃ½ch": 715,
      "ĠvnÄĽ": 716,
      "Ġsmut": 717,
      "ĠÅĪ": 718,
      "ĠstÃ©": 719,
      "ĠseÅĪ": 720,
      "Ġkal": 721,
      "Ġles": 722,
      "ĠAAXX": 723,
      "Ġchce": 724,
      "Ġlet": 725,
      "ĠsÅ¯": 726,
      "Ġdech": 727,
      "ĠÅ¡li": 728,
      "Ġach": 729,
      "Ġklid": 730,
      "Ãº": 731,
      "ĠmÃ¡m": 732,
      "Ġnoc": 733,
      "Ġskr": 734,
      "or": 735,
      "Ġcem": 736,
      "Ġzvu": 737,
      "ĠproÄį": 738,
      "ĠsnÄĽ": 739,
      "ĠhrÃ¡": 740,
      "ĠbuÄı": 741,
      "tÃŃ": 742,
      "ĠnÃ¡Å¡": 743,
      "Ġrod": 744,
      "Ġvle": 745,
      "ĠtÄĽch": 746,
      "ĠÄįÃŃm": 747,
      "Ġhem": 748,
      "ĠjÃŃm": 749,
      "ich": 750,
      "ĠnÃŃk": 751,
      "Ġnom": 752,
      "ĠvÃ¡s": 753,
      "ĠsvÃ½m": 754,
      "ĠvÄĽk": 755,
      "Ġsled": 756,
      "Ġnil": 757,
      "Ġri": 758,
      "ĠdÃŃm": 759,
      "ĠrÃ¡d": 760,
      "ĠÅ¡ÃŃm": 761,
      "Ġsvi": 762,
      "ĠpÅĻec": 763,
      "Ġkru": 764,
      "ĠtÄĽÅ¾": 765,
      "ĠÅ¡la": 766,
      "ĠcÅ¯": 767,
      "Ġkrev": 768,
      "Ġvni": 769,
      "ĠspÃŃ": 770,
      "ĠknÄĽ": 771,
      "ĠzvÄĽ": 772,
      "ĠslÃŃ": 773,
      "Ġdlo": 774,
      "Ã¡l": 775,
      "Ġnec": 776,
      "Ġsch": 777,
      "at": 778,
      "Ġvtom": 779,
      "Ġzje": 780,
      "Ġkry": 781,
      "Ġnout": 782,
      "ĠÅ¥": 783,
      "ĠpÅĻÃ¡": 784,
      "ĠvÃ¡Å¡": 785,
      "ĠnÃŃch": 786,
      "ci": 787,
      "nu": 788,
      "Ġkne": 789,
      "Ġot": 790,
      "ste": 791,
      "Ġhor": 792,
      "ĠÄįil": 793,
      "ĠzÅĻe": 794,
      "ĠznÃŃ": 795,
      "Ġjste": 796,
      "ĠhÅĻÃŃ": 797,
      "ĠbÃ½t": 798,
      "Ġpad": 799,
      "Ġfa": 800,
      "ĠzpÃŃ": 801,
      "ĠkÃ½m": 802,
      "Ġprv": 803,
      "Ġtva": 804,
      "ĠpÅĻes": 805,
      "ĠABABCC": 806,
      "ĠmÃ½": 807,
      "Ġprav": 808,
      "Ġdro": 809,
      "ĠÅ¾en": 810,
      "ĠvnÄĽm": 811,
      "Ġjde": 812,
      "ĠdÃ¡v": 813,
      "Ġbro": 814,
      "Ġslou": 815,
      "ĠnÄĽm": 816,
      "Ġkl": 817,
      "ĠÅĻil": 818,
      "Ġpil": 819,
      "ĠtÅĻi": 820,
      "Ġvlast": 821,
      "ĠspÃ¡": 822,
      "Ġzou": 823,
      "Ġvdu": 824,
      "Ġus": 825,
      "ĠstrÃ¡": 826,
      "Ġvol": 827,
      "ĠchÃ½": 828,
      "ĠstÅĻÃŃ": 829,
      "Ġvje": 830,
      "Ġnal": 831,
      "Ġhled": 832,
      "Ġslav": 833,
      "ĠmuÅ¾": 834,
      "Ġprou": 835,
      "Ġkm": 836,
      "Ġlen": 837,
      "AX": 838,
      "ĠskÃ½ch": 839,
      "Ġkp": 840,
      "Ġbes": 841,
      "ĠchtÄĽl": 842,
      "Ġdej": 843,
      "ĠvÄįe": 844,
      "as": 845,
      "AA": 846,
      "Ġduch": 847,
      "Ã©m": 848,
      "ĠdÃ¡m": 849,
      "Ġkve": 850,
      "ĠklÃŃ": 851,
      "Ġhl": 852,
      "ĠchrÃ¡": 853,
      "ĠkvÃŃ": 854,
      "Ġdva": 855,
      "ĠhÅ¯": 856,
      "Ġlil": 857,
      "Ġ3": 858,
      "Ġvsrd": 859,
      "ĠABABXX": 860,
      "ĠtvÃ¡ÅĻ": 861,
      "Ġhru": 862,
      "Ġvzpo": 863,
      "ĠmlÃ¡": 864,
      "ĠznÄĽ": 865,
      "Ġkt": 866,
      "Ġ1960": 867,
      "ĠÅ¡k": 868,
      "ĠpÄĽt": 869,
      "Ġtlo": 870,
      "ĠstÃ½": 871,
      "ar": 872,
      "Ġlost": 873,
      "ĠnÄĽk": 874,
      "ĠdÄĽt": 875,
      "ĠvÄĽr": 876,
      "ĠdÃŃv": 877,
      "ĠkrÃ¡l": 878,
      "ĠvÅ¾dyÅ¥": 879,
      "ĠpÃ¡n": 880,
      "ĠnÃ¡ch": 881,
      "Ġvne": 882,
      "ĠvzÃ¡": 883,
      "ĠtÃ½ch": 884,
      "Ġoh": 885,
      "ĠdeÅ¡": 886,
      "ĠvÃ©m": 887,
      "Ġ17": 888,
      "ĠlÃ½ch": 889,
      "Ġvod": 890,
      "ĠdlÃŃ": 891,
      "ĠhnÄĽ": 892,
      "ĠkÃ©m": 893,
      "ĠchÅ¯": 894,
      "ĠsvÃ¡": 895,
      "ĠtrÃ¡": 896,
      "Ġvzdu": 897,
      "Ġkni": 898,
      "Ġmnou": 899,
      "ĠsÃŃc": 900,
      "ĠcÃŃm": 901,
      "Ġkon": 902,
      "Ġrt": 903,
      "ĠmÃŃr": 904,
      "Ġcit": 905,
      "ĠtvÃŃ": 906,
      "ĠÅ¾el": 907,
      "ĠtvÃ½ch": 908,
      "vo": 909,
      "ĠstÃŃn": 910,
      "ĠÅĻÃ¡": 911,
      "Ġps": 912,
      "Ġstal": 913,
      "Ġchlad": 914,
      "ĠkÃ¡ch": 915,
      "Ġzna": 916,
      "ĠklÃ¡": 917,
      "vi": 918,
      "Ġtlu": 919,
      "ĠpÅĻij": 920,
      "ĠÅ¡a": 921,
      "ĠknÃŃ": 922,
      "ĠhlÃŃ": 923,
      "ha": 924,
      "ĠÅ¡Å¥": 925,
      "ech": 926,
      "ĠÅĻa": 927,
      "Ġtma": 928,
      "ast": 929,
      "ĠXXAA": 930,
      "ĠÅĻek": 931,
      "Ġblou": 932,
      "Ġvj": 933,
      "ĠvÅ¡em": 934,
      "ĠzÅ¯": 935,
      "ĠneÄį": 936,
      "ĠdrÃ¡": 937,
      "ĠtÅĻ": 938,
      "Ġchle": 939,
      "ĠjuÅ¾": 940,
      "Ġzel": 941,
      "ĠcoÅ¾": 942,
      "Ġzno": 943,
      "ĠÄįes": 944,
      "Ġplo": 945,
      "Ġsd": 946,
      "Ġvch": 947,
      "ĠneÅ¡": 948,
      "Ġpal": 949,
      "Ġhlou": 950,
      "Ġvno": 951,
      "ĠsvÃ©m": 952,
      "ĠmÃ½ch": 953,
      "Ġpom": 954,
      "CCB": 955,
      "ĠÅ¡tÃŃ": 956,
      "ĠaÄį": 957,
      "Ġstvo": 958,
      "Ġtal": 959,
      "ĠzpÄĽv": 960,
      "Ġct": 961,
      "Ġcy": 962,
      "ĠÄı": 963,
      "Ġrov": 964,
      "Ġ1820": 965,
      "ĠsmÃŃch": 966,
      "Ġzpo": 967,
      "Ġtys": 968,
      "Ġbys": 969,
      "ĠhÅĻ": 970,
      "ĠstÃ¡l": 971,
      "Ġsni": 972,
      "Ġsne": 973,
      "ve": 974,
      "ĠnnÃŃ": 975,
      "ĠAXA": 976,
      "ĠAABCCB": 977,
      "ĠpÃ½": 978,
      "ĠhlÃ©": 979,
      "ĠzrÃ¡": 980,
      "ABB": 981,
      "Ġleh": 982,
      "ĠvdÄĽ": 983,
      "Ġbal": 984,
      "vÃ¡": 985,
      "ĠvlÃŃ": 986,
      "ĠÅ¾eh": 987,
      "Ġchci": 988,
      "Ġtec": 989,
      "ĠjÃŃc": 990,
      "Ã³": 991,
      "Å¡Å¥": 992,
      "ĠvÃ¡n": 993,
      "na": 994,
      "ĠÃºs": 995,
      "Ġjo": 996,
      "ĠÅ¡p": 997,
      "Ġsmrt": 998,
      "ĠkÅĻe": 999,
      "Ġkz": 1000,
      "ĠvnÃŃ": 1001,
      "ĠdÃ½m": 1002,
      "Ġpan": 1003,
      "Ġhod": 1004,
      "ĠÅ¾al": 1005,
      "ĠlÃ©m": 1006,
      "ĠXAAX": 1007,
      "ĠhlÃ¡": 1008,
      "Ġpru": 1009,
      "ĠÄįem": 1010,
      "ĠnnÃ©": 1011,
      "ĠdvÄĽ": 1012,
      "Ġskou": 1013,
      "Ġbles": 1014,
      "Ġzle": 1015,
      "Ġstat": 1016,
      "Ġves": 1017,
      "ĠchvÃ¡": 1018,
      "ĠskrÃ¡": 1019,
      "Ġvbo": 1020,
      "Ġbil": 1021,
      "ĠhrÅ¯": 1022,
      "Ġzr": 1023,
      "Ġplu": 1024,
      "Ġsed": 1025,
      "Ġlek": 1026,
      "ĠzÃ¡ÅĻ": 1027,
      "Ġhrad": 1028,
      "ĠÅ¡ep": 1029,
      "Ġdce": 1030,
      "ĠvdÃ¡l": 1031,
      "Ġvro": 1032,
      "Ġtk": 1033,
      "Ġlest": 1034,
      "Ġdvo": 1035,
      "va": 1036,
      "Ġnit": 1037,
      "ĠlÃ½m": 1038,
      "ĠtÃ¡h": 1039,
      "ĠÅĪa": 1040,
      "ĠÅĻÃŃm": 1041,
      "Ġlik": 1042,
      "Ġvti": 1043,
      "Ġtes": 1044,
      "Ġlov": 1045,
      "Ġvza": 1046,
      "Ġstem": 1047,
      "ĠdÄĽj": 1048,
      "ĠzpÄĽt": 1049,
      "Ġmd": 1050,
      "Ġchal": 1051,
      "Ġboj": 1052,
      "ĠÄįel": 1053,
      "Ġchou": 1054,
      "Ġvoj": 1055,
      "Ġzbo": 1056,
      "Ġskry": 1057,
      "ĠzmÄĽ": 1058,
      "Ġy": 1059,
      "ĠvÅ¡u": 1060,
      "Ġmem": 1061,
      "Ġvzh": 1062,
      "Ġhlo": 1063,
      "Ġtvou": 1064,
      "Ġkdys": 1065,
      "Ġdar": 1066,
      "ĠzÅĻel": 1067,
      "ĠslyÅ¡": 1068,
      "Ġvrou": 1069,
      "Ġsr": 1070,
      "ĠdÅĻÃŃv": 1071,
      "Ġstej": 1072,
      "ĠÅ¾Ã¡d": 1073,
      "Ġkto": 1074,
      "Ġsvit": 1075,
      "Ġfi": 1076,
      "Ġvmo": 1077,
      "Ġtech": 1078,
      "ĠprÃ½": 1079,
      "Ġzro": 1080,
      "Ġcen": 1081,
      "ĠvÃŃÅ¡": 1082,
      "en": 1083,
      "Ġpev": 1084,
      "vÃ©": 1085,
      "Ġhroz": 1086,
      "Ġdly": 1087,
      "ĠhvÄĽzd": 1088,
      "Ġtry": 1089,
      "Ġkme": 1090,
      "ĠÅ¡Å¥ast": 1091,
      "Å¾i": 1092,
      "Ġman": 1093,
      "ĠmÅĻe": 1094,
      "ĠsnÃ¡": 1095,
      "Ġkraj": 1096,
      "ĠÅ¾Ã¡r": 1097,
      "ĠjÃŃt": 1098,
      "Ġsna": 1099,
      "Ġper": 1100,
      "ĠtÄĽz": 1101,
      "ĠsÃŃm": 1102,
      "Ġska": 1103,
      "ĠchÃ©": 1104,
      "Ġtit": 1105,
      "ĠtoÅ¥": 1106,
      "ĠmÃ¡Å¡": 1107,
      "ĠÅ¾o": 1108,
      "ĠkÅ¯m": 1109,
      "Ġpoj": 1110,
      "ĠsnÃŃm": 1111,
      "Ġjdou": 1112,
      "Ġral": 1113,
      "ĠkÃ¡m": 1114,
      "Ġvit": 1115,
      "Ġznich": 1116,
      "Ġkat": 1117,
      "ĠvtÃ©": 1118,
      "Ġth": 1119,
      "Ġvnich": 1120,
      "ĠnÄĽl": 1121,
      "ĠvÃº": 1122,
      "Ġvru": 1123,
      "ĠtrÅ¯": 1124,
      "Ġdit": 1125,
      "ĠÄįen": 1126,
      "Ġtan": 1127,
      "Ġkri": 1128,
      "ĠbÃ¡s": 1129,
      "Ġtl": 1130,
      "ĠvÅ¡ÃŃ": 1131,
      "Ġchod": 1132,
      "Ġcu": 1133,
      "ĠboÅ¾": 1134,
      "ĠdlÃ©": 1135,
      "Ġjm": 1136,
      "Ġzdo": 1137,
      "Ġzl": 1138,
      "Ġhrob": 1139,
      "ĠzvÃŃ": 1140,
      "Ġdat": 1141,
      "Ġlal": 1142,
      "ĠÅ¾ha": 1143,
      "Ġbar": 1144,
      "ĠtÃ©m": 1145,
      "ĠÅ¡ÃŃch": 1146,
      "ĠsnÅ¯": 1147,
      "Ġztra": 1148,
      "Ġca": 1149,
      "ĠrÃ½ch": 1150,
      "Ġply": 1151,
      "Ġstva": 1152,
      "ĠblÃ¡": 1153,
      "Ġvan": 1154,
      "ĠÅ¾ÃŃm": 1155,
      "ĠteÄį": 1156,
      "ĠÅ¡ich": 1157,
      "Ġzmi": 1158,
      "ĠÄįet": 1159,
      "Ġvpra": 1160,
      "Ġpot": 1161,
      "ej": 1162,
      "ĠprÃ¡z": 1163,
      "Ġmoh": 1164,
      "ĠÅ¡lÃ©": 1165,
      "mu": 1166,
      "ĠdÃŃÅ¡": 1167,
      "Ġok": 1168,
      "Ġhal": 1169,
      "Ġbem": 1170,
      "Ġ2": 1171,
      "Ġtvr": 1172,
      "Ġcos": 1173,
      "Ġvko": 1174,
      "ĠnechÅ¥": 1175,
      "Ġsyn": 1176,
      "Ġnich": 1177,
      "Ġzal": 1178,
      "Ġbol": 1179,
      "ĠmoÅ¾": 1180,
      "Ġsbo": 1181,
      "Ġtaj": 1182,
      "Ġskal": 1183,
      "Ġblu": 1184,
      "ĠtÄĽl": 1185,
      "ĠmÃŃn": 1186,
      "ĠblÃŃÅ¾": 1187,
      "Ġblo": 1188,
      "Ġzli": 1189,
      "ĠÄįin": 1190,
      "Ġvej": 1191,
      "ĠcÃ½": 1192,
      "Ġzby": 1193,
      "ĠÄįit": 1194,
      "ĠÄįt": 1195,
      "Ġbli": 1196,
      "Ġga": 1197,
      "Ġkb": 1198,
      "Ġvsta": 1199,
      "ĠsklÃ¡": 1200,
      "ĠtÃ½m": 1201,
      "ĠÅ¡il": 1202,
      "ĠsnÃŃh": 1203,
      "Ġret": 1204,
      "Ġdin": 1205,
      "ĠvnÃ¡": 1206,
      "Ġnen": 1207,
      "Ġzor": 1208,
      "Ġge": 1209,
      "ĠdÅ¯m": 1210,
      "Ġjis": 1211,
      "ĠmÃ½m": 1212,
      "Ġjar": 1213,
      "Ġhud": 1214,
      "ĠvÅ¾dyc": 1215,
      "ĠÅĻem": 1216,
      "ĠÅ¾li": 1217,
      "Ġsten": 1218,
      "Ġvdo": 1219,
      "Ġsklo": 1220,
      "ĠjÃŃÅ¾": 1221,
      "Ġchr": 1222,
      "Ġpov": 1223,
      "ĠvstÅĻÃŃ": 1224,
      "Ġstru": 1225,
      "ĠvÄĽt": 1226,
      "ĠvÃ½Å¡": 1227,
      "Ġkud": 1228,
      "Ġdruh": 1229,
      "ĠdlÃ¡": 1230,
      "ĠptÃ¡k": 1231,
      "Ġpoh": 1232,
      "ĠmÄĽv": 1233,
      "Ġver": 1234,
      "ĠhÅĻe": 1235,
      "ĠÄįÃ¡": 1236,
      "ĠÅ¡em": 1237,
      "ĠmÃŃt": 1238,
      "ĠjÃŃch": 1239,
      "Ġled": 1240,
      "Ġvsk": 1241,
      "ĠvtÄĽ": 1242,
      "ĠÅĻit": 1243,
      "Ġsny": 1244,
      "Ġleb": 1245,
      "Ġsel": 1246,
      "ĠzÅĻÃŃm": 1247,
      "rÃ¡z": 1248,
      "Ġvka": 1249,
      "Ġgi": 1250,
      "ĠjejÅ¾": 1251,
      "ĠstÅ¯": 1252,
      "ĠnnÃ½": 1253,
      "ĠjmÃ©": 1254,
      "Ġvzk": 1255,
      "Ġzne": 1256,
      "Ġkh": 1257,
      "Ġsek": 1258,
      "Ġzva": 1259,
      "Ġbraz": 1260,
      "Ġder": 1261,
      "ĠdÄĽs": 1262,
      "Ġvzne": 1263,
      "Ġzvol": 1264,
      "ĠÅ¾ÃŃt": 1265,
      "Ġstech": 1266,
      "ĠÅ¾it": 1267,
      "Ġzen": 1268,
      "ĠvstÅĻÃŃc": 1269,
      "ĠÅĻÃ¡d": 1270,
      "ĠnnÄĽ": 1271,
      "ĠÅ¡lo": 1272,
      "Ġsho": 1273,
      "ĠÄįÃŃch": 1274,
      "Ġlk": 1275,
      "ĠruÄį": 1276,
      "ja": 1277,
      "Ġjel": 1278,
      "Ġkmi": 1279,
      "Ġhli": 1280,
      "Ġjin": 1281,
      "ĠÅ¡ko": 1282,
      "Ġvzal": 1283,
      "ĠnuÅ¾": 1284,
      "Ġjal": 1285,
      "ĠdÃ½ch": 1286,
      "Ġvna": 1287,
      "ĠpÅ¯l": 1288,
      "Ġkdes": 1289,
      "ĠvÃ¡Å¾": 1290,
      "ĠXAXAXX": 1291,
      "Ġnev": 1292,
      "ĠstÃŃm": 1293,
      "Ġzvuk": 1294,
      "Ġvho": 1295,
      "er": 1296,
      "Ġor": 1297,
      "ĠdÄĽv": 1298,
      "Ġzjev": 1299,
      "Ġsku": 1300,
      "Ġas": 1301,
      "ĠvÄį": 1302,
      "Ġmrak": 1303,
      "Ġslov": 1304,
      "ĠvÅ¾i": 1305,
      "Ġvze": 1306,
      "ĠvsvÄĽ": 1307,
      "Ġdve": 1308,
      "Ġtis": 1309,
      "ĠsÃ½": 1310,
      "ĠnÄĽÅ¾": 1311,
      "Ġou": 1312,
      "Ġdel": 1313,
      "ĠpouÅ¡": 1314,
      "ĠpÄĽk": 1315,
      "Ġzved": 1316,
      "ĠAXAX": 1317,
      "ĠtÅĻÃ¡": 1318,
      "ĠhoÅ¾": 1319,
      "Ġzbra": 1320,
      "ĠzlÃ©": 1321,
      "Ġchra": 1322,
      "ĠknÃ¡": 1323,
      "ĠÅ¡len": 1324,
      "ĠpÅ¯j": 1325,
      "ĠmeÄį": 1326,
      "ĠjÅ¯": 1327,
      "ĠÅĻeÄį": 1328,
      "ĠsvÃ½": 1329,
      "Ġsmy": 1330,
      "ĠrÃ©m": 1331,
      "ĠtÄĽm": 1332,
      "ĠhleÄı": 1333,
      "Ġvlas": 1334,
      "Ġzdvi": 1335,
      "ĠÄįest": 1336,
      "ĠvlÃ¡d": 1337,
      "Ġkrok": 1338,
      "ĠhruÄı": 1339,
      "Ġkost": 1340,
      "Ġvpr": 1341,
      "Ġzvy": 1342,
      "Ġvzte": 1343,
      "Ġhej": 1344,
      "ĠÃŃ": 1345,
      "Ġstli": 1346,
      "Ġkot": 1347,
      "ĠpÃ©": 1348,
      "Ġpat": 1349,
      "Ġrek": 1350,
      "Ġvlo": 1351,
      "Ġnat": 1352,
      "ĠdÅĻe": 1353,
      "py": 1354,
      "ĠvzhÅ¯": 1355,
      "ĠhÅĻm": 1356,
      "Ġol": 1357,
      "Ġkva": 1358,
      "ĠÅ¡t": 1359,
      "ĠslÃ©": 1360,
      "ĠÅ¥a": 1361,
      "ĠtoÅ¾": 1362,
      "ĠÅ¡um": 1363,
      "ĠliÅ¡": 1364,
      "Ġpor": 1365,
      "ĠvÃ¡l": 1366,
      "ÅĪa": 1367,
      "Ġzdra": 1368,
      "Ġdob": 1369,
      "Ġlist": 1370,
      "ĠzlÃŃ": 1371,
      "Ġpar": 1372,
      "ĠtÅĻpy": 1373,
      "Ġkoj": 1374,
      "ĠkÅĻÃŃÅ¾": 1375,
      "Ġstup": 1376,
      "Ġum": 1377,
      "Ġproud": 1378,
      "Ġklad": 1379,
      "ĠrÃ½m": 1380,
      "ĠskrÃ½": 1381,
      "Ġaj": 1382,
      "Ġsal": 1383,
      "Ġzim": 1384,
      "Ġvzduch": 1385,
      "Ġgo": 1386,
      "ĠzmÃŃ": 1387,
      "Ġcel": 1388,
      "ĠvÄĽz": 1389,
      "Ġtre": 1390,
      "ĠdÃ©m": 1391,
      "Ġblesk": 1392,
      "bi": 1393,
      "ĠztrÃ¡": 1394,
      "ĠkÅĻik": 1395,
      "ĠÅ¾lu": 1396,
      "Ġnel": 1397,
      "ĠzÃ½": 1398,
      "Ġtle": 1399,
      "XB": 1400,
      "ĠvÅ¡ich": 1401,
      "ĠstÃ¡t": 1402,
      "Ġlej": 1403,
      "ÅĻa": 1404,
      "Ġhly": 1405,
      "Ġkles": 1406,
      "Ã¡m": 1407,
      "ĠbÃŃd": 1408,
      "Ġdlit": 1409,
      "ĠÅ¾iv": 1410,
      "ĠbÅĻÃŃ": 1411,
      "ABAB": 1412,
      "Ġrak": 1413,
      "Ġkze": 1414,
      "Ġsme": 1415,
      "ĠhoÅĻ": 1416,
      "ĠÅ¡ek": 1417,
      "ĠzvÃ¡": 1418,
      "Ġnav": 1419,
      "ĠkdoÅ¾": 1420,
      "Ġvli": 1421,
      "ĠvÄĽn": 1422,
      "Ġss": 1423,
      "Ġpout": 1424,
      "ĠskvÄĽ": 1425,
      "ĠprÅ¯": 1426,
      "Ġmal": 1427,
      "Ġhoj": 1428,
      "ĠskÃ½m": 1429,
      "Ġvpa": 1430,
      "Ġlas": 1431,
      "Ġfra": 1432,
      "Ġov": 1433,
      "Ġvslu": 1434,
      "Ġhnu": 1435,
      "Ġstil": 1436,
      "ĠheÅĪ": 1437,
      "ĠmÅĻÃŃ": 1438,
      "ĠtvÃ½m": 1439,
      "Ġset": 1440,
      "Ġnaj": 1441,
      "Ġsmu": 1442,
      "ĠÅĻen": 1443,
      "Ġstrom": 1444,
      "Ġbuj": 1445,
      "ĠpuÅ¡": 1446,
      "Ġal": 1447,
      "Ġples": 1448,
      "ĠnÄĽn": 1449,
      "ĠchlÃ©": 1450,
      "Ġspi": 1451,
      "Ġnno": 1452,
      "Ġhan": 1453,
      "ĠbÃ©": 1454,
      "Ġhlad": 1455,
      "Ġbd": 1456,
      "ĠbouÅĻ": 1457,
      "Ġskle": 1458,
      "ĠhÃ½ch": 1459,
      "ĠmÄĽk": 1460,
      "ĠknÃ¡m": 1461,
      "Ġtli": 1462,
      "Ġzka": 1463,
      "ĠÃ¡": 1464,
      "Ġdav": 1465,
      "ĠnaÄį": 1466,
      "ĠbrÃ½": 1467,
      "ĠdÃ¡t": 1468,
      "ĠdiÄį": 1469,
      "ĠvlÃŃd": 1470,
      "ĠstÅĻed": 1471,
      "ĠÅ¡en": 1472,
      "Ġchvil": 1473,
      "in": 1474,
      "ĠhnÄĽv": 1475,
      "ĠdnÃŃ": 1476,
      "ĠznÃ¡m": 1477,
      "ĠnÃŃÅ¾": 1478,
      "Ġrej": 1479,
      "Ġknu": 1480,
      "ĠhÃ¡d": 1481,
      "Ġvzdech": 1482,
      "Ġprud": 1483,
      "Ġhrom": 1484,
      "Ġvln": 1485,
      "Ġar": 1486,
      "Ġrok": 1487,
      "ĠnoÄį": 1488,
      "Ġpos": 1489,
      "Ġkly": 1490,
      "Ġknou": 1491,
      "nÃŃz": 1492,
      "Ġvec": 1493,
      "Ġstar": 1494,
      "Ġpol": 1495,
      "Ġprach": 1496,
      "Ġzaz": 1497,
      "ĠniÄį": 1498,
      "ĠvdÃ¡": 1499,
      "ĠnÅ¯m": 1500,
      "ĠpÄĽl": 1501,
      "ĠzeÅĪ": 1502,
      "Ġber": 1503,
      "ĠchvÄĽl": 1504,
      "ĠztÄĽ": 1505,
      "Ġpta": 1506,
      "ĠlÃŃm": 1507,
      "Ġdrob": 1508,
      "Ġsoud": 1509,
      "Ġvez": 1510,
      "Ġchmu": 1511,
      "Ġkso": 1512,
      "ĠvÅĻÃŃ": 1513,
      "Ġzni": 1514,
      "ĠvÅ¡i": 1515,
      "ĠmÃ©m": 1516,
      "Ġkno": 1517,
      "ĠÄįÃŃÅ¡": 1518,
      "ĠbrÃ©": 1519,
      "ĠdrÃ©": 1520,
      "Ġzce": 1521,
      "ĠpyÅ¡": 1522,
      "ĠkoÅ¡": 1523,
      "ABBX": 1524,
      "Ġher": 1525,
      "ĠÅ¡et": 1526,
      "ĠÅ¾u": 1527,
      "Ġvsv": 1528,
      "Ġdouc": 1529,
      "ĠvzdÃ¡": 1530,
      "Ġstrach": 1531,
      "ĠzdÃ¡l": 1532,
      "ĠvpÅĻe": 1533,
      "ĠblÃŃz": 1534,
      "ĠskÃ©m": 1535,
      "ĠzdrÃ¡": 1536,
      "Ġrel": 1537,
      "Ġnak": 1538,
      "Ġtly": 1539,
      "Ġctno": 1540,
      "ĠdruÅ¾": 1541,
      "vr": 1542,
      "Ġzvon": 1543,
      "ĠspoÅĪ": 1544,
      "Ġbor": 1545,
      "Ġfe": 1546,
      "ĠbyÅ¥": 1547,
      "ĠlÃŃc": 1548,
      "Å¯r": 1549,
      "Ġklam": 1550,
      "Ġstav": 1551,
      "Ġprs": 1552,
      "Ġdno": 1553,
      "Ġlit": 1554,
      "Ġzma": 1555,
      "ĠdvÃ©": 1556,
      "Ġzbu": 1557,
      "ĠvÄĽc": 1558,
      "ĠzboÅ¾": 1559,
      "Ġzru": 1560,
      "ĠÅ¡at": 1561,
      "Ġvzb": 1562,
      "ĠchrÃ¡m": 1563,
      "Ġtost": 1564,
      "ĠstrÃ½": 1565,
      "Ġned": 1566,
      "Ġtic": 1567,
      "Ġcet": 1568,
      "ĠkÃ©Å¾": 1569,
      "Ġvzdy": 1570,
      "Ġzmo": 1571,
      "ĠchceÅ¡": 1572,
      "ĠrÃ¡m": 1573,
      "ĠbÄĽd": 1574,
      "Ġvys": 1575,
      "ĠstraÅ¡": 1576,
      "Ġkpo": 1577,
      "Ġchat": 1578,
      "Ġdek": 1579,
      "Ġran": 1580,
      "Ġpry": 1581,
      "Ġnnou": 1582,
      "Ġvhro": 1583,
      "ĠliÄį": 1584,
      "Ġspra": 1585,
      "ĠjichÅ¾": 1586,
      "Ġben": 1587,
      "Ġtrp": 1588,
      "Ġpen": 1589,
      "Ġkej": 1590,
      "Ġved": 1591,
      "Ġter": 1592,
      "ĠvnÄĽmÅ¾": 1593,
      "rÅ¯": 1594,
      "ĠdÄĽc": 1595,
      "Ġtvor": 1596,
      "Ġskvo": 1597,
      "Ġrty": 1598,
      "ĠÅ¡lÃ©n": 1599,
      "Ġzum": 1600,
      "Ġzti": 1601,
      "Ġsma": 1602,
      "Ġbrou": 1603,
      "Ġkrou": 1604,
      "Ġspou": 1605,
      "Ġnut": 1606,
      "Ġjme": 1607,
      "Ġvzt": 1608,
      "ĠdnÅ¯": 1609,
      "ĠpojÄı": 1610,
      "ĠÅĻÃŃÅ¡": 1611,
      "ĠvstÃ¡": 1612,
      "ĠtÃŃÅ¡": 1613,
      "Ġur": 1614,
      "ĠzlÃ¡": 1615,
      "Ġtrem": 1616,
      "ĠnnÃ¡": 1617,
      "Ġzj": 1618,
      "BC": 1619,
      "ĠsvÄĽd": 1620,
      "ĠblÃ½": 1621,
      "Ġmech": 1622,
      "Ġzil": 1623,
      "ĠdÃ¡Å¡": 1624,
      "ĠvÄĽÅĻ": 1625,
      "ĠhÃ½m": 1626,
      "ĠnaÅĪ": 1627,
      "ĠdlÃ½": 1628,
      "ĠplÃ©": 1629,
      "ĠstrÃ¡Å¾": 1630,
      "et": 1631,
      "ĠÅ¾em": 1632,
      "Ġvzdor": 1633,
      "ĠjÃŃmÅ¾": 1634,
      "ĠnÃŃz": 1635,
      "Ġtin": 1636,
      "Ġlec": 1637,
      "Ġcest": 1638,
      "Ġjdu": 1639,
      "Ġsnu": 1640,
      "Ġruch": 1641,
      "ti": 1642,
      "Ġdum": 1643,
      "ĠloÄı": 1644,
      "Ġpit": 1645,
      "Ġvrh": 1646,
      "Ġsve": 1647,
      "Ġkov": 1648,
      "ĠpÅĻÃŃÅ¡": 1649,
      "Ġvad": 1650,
      "Ġmor": 1651,
      "Ġvin": 1652,
      "ĠmÄĽj": 1653,
      "Ġsit": 1654,
      "ĠtÃ¡m": 1655,
      "ĠzdÄĽ": 1656,
      "Ġbit": 1657,
      "Ġhat": 1658,
      "Ġhost": 1659,
      "ĠpÃ¡r": 1660,
      "Ġkn": 1661,
      "Ġzar": 1662,
      "Ġsky": 1663,
      "Ġ1800": 1664,
      "CBC": 1665,
      "ĠÃºz": 1666,
      "ĠÄįej": 1667,
      "ĠplÃ¡Äį": 1668,
      "Ġhrou": 1669,
      "Ġhoch": 1670,
      "ĠÅ¡ÃŃÅ¡": 1671,
      "zd": 1672,
      "Ġvsa": 1673,
      "Ġchl": 1674,
      "Ġdlem": 1675,
      "Ġbec": 1676,
      "ĠsmÃ¡": 1677,
      "Ġtor": 1678,
      "ĠtvÃ©m": 1679,
      "ĠzÃŃch": 1680,
      "ĠmraÄį": 1681,
      "Ġvpro": 1682,
      "Ġkar": 1683,
      "Ġhlav": 1684,
      "ĠdÃ¡n": 1685,
      "Ġmluv": 1686,
      "ĠmrÃ¡z": 1687,
      "ĠÅ¡ly": 1688,
      "ĠXXABAB": 1689,
      "ĠbÃ¡ch": 1690,
      "ĠhÅĻÃŃch": 1691,
      "ĠdÃŃt": 1692,
      "ĠpryÄį": 1693,
      "ĠÅĻÅ¯": 1694,
      "Ġpel": 1695,
      "ĠhnÃŃz": 1696,
      "ĠhÃ©m": 1697,
      "Ġvce": 1698,
      "Ġklet": 1699,
      "ĠtlÃ©": 1700,
      "Ġdny": 1701,
      "ĠpoÄį": 1702,
      "Ġnna": 1703,
      "ĠvtvÃ¡": 1704,
      "Ġmek": 1705,
      "ĠrÃ¡ch": 1706,
      "ĠznÄĽl": 1707,
      "Ġlez": 1708,
      "vou": 1709,
      "ĠpÅĻÃŃs": 1710,
      "Ġscho": 1711,
      "Ġcti": 1712,
      "Ġmil": 1713,
      "ĠÅ¾dy": 1714,
      "Ġbin": 1715,
      "Ġlin": 1716,
      "ĠhÃ¡m": 1717,
      "Ġzba": 1718,
      "ĠvsÃŃ": 1719,
      "ĠrÃ¡j": 1720,
      "Ġklu": 1721,
      "Ġkyt": 1722,
      "Ġsnem": 1723,
      "Ġstk": 1724,
      "Ġvyz": 1725,
      "ĠskÅĻi": 1726,
      "ĠABBACC": 1727,
      "Ġlh": 1728,
      "Ġvor": 1729,
      "Ġsbor": 1730,
      "Ġtov": 1731,
      "ĠÄįech": 1732,
      "Ġhar": 1733,
      "Ġpln": 1734,
      "Ġvta": 1735,
      "Ġhm": 1736,
      "ĠzrÃ¡d": 1737,
      "Ġvtu": 1738,
      "ĠzvlÃ¡": 1739,
      "Ġsra": 1740,
      "Ġsro": 1741,
      "ĠsÃ¡h": 1742,
      "ĠvraÅ¾": 1743,
      "Ġblud": 1744,
      "Ġkor": 1745,
      "ĠlÃŃch": 1746,
      "ĠsplÃ½": 1747,
      "Ġrat": 1748,
      "ĠtiÄį": 1749,
      "ĠÅ¡o": 1750,
      "ĠvÅĻel": 1751,
      "ĠviÄį": 1752,
      "ĠvÅ¡a": 1753,
      "ĠÅ¾ÃŃÅ¡": 1754,
      "Ġbral": 1755,
      "ĠvzÃ¡c": 1756,
      "Ġzdro": 1757,
      "Ġvrat": 1758,
      "Ġzdi": 1759,
      "ĠpÄĽv": 1760,
      "Ġviz": 1761,
      "Ġtrou": 1762,
      "Ġpem": 1763,
      "Ġlep": 1764,
      "ĠnÃ¡d": 1765,
      "ĠkrÅ¯": 1766,
      "Ġhas": 1767,
      "ĠdrÃ½": 1768,
      "ĠvÅĻa": 1769,
      "tÅĻ": 1770,
      "ĠnosÅ¥": 1771,
      "ĠstvÃŃm": 1772,
      "ĠvÅ¯d": 1773,
      "ĠAXAA": 1774,
      "ĠvÃŃr": 1775,
      "ĠXAABBX": 1776,
      "Ġkus": 1777,
      "Ġoz": 1778,
      "Ġblan": 1779,
      "ĠdÃ¡ch": 1780,
      "Ġmst": 1781,
      "Ġzto": 1782,
      "Ġgra": 1783,
      "Ġtrh": 1784,
      "ze": 1785,
      "ĠplÃŃ": 1786,
      "lad": 1787,
      "Ġzko": 1788,
      "Ġzdu": 1789,
      "ĠÄıÃ¡": 1790,
      "Ġtmy": 1791,
      "ĠvÅ¡ÃŃm": 1792,
      "ĠÅ¾h": 1793,
      "Ġgu": 1794,
      "ĠhlÃ½": 1795,
      "ĠtÃŃÅ¾": 1796,
      "ĠbiÄį": 1797,
      "Ġrad": 1798,
      "Ġvsm": 1799,
      "Ġvkra": 1800,
      "ĠcÅ¯m": 1801,
      "ĠÄįal": 1802,
      "ĠblÃ½s": 1803,
      "ĠvlÃ¡s": 1804,
      "ĠskrÃ¡ÅĪ": 1805,
      "ĠfÃ¡": 1806,
      "ĠtÃ³": 1807,
      "Ġzch": 1808,
      "Ġfran": 1809,
      "Ġjez": 1810,
      "ĠvkrÃ¡": 1811,
      "ĠspÃŃÅ¡": 1812,
      "ĠÅ¡Ã¡": 1813,
      "Ġken": 1814,
      "ĠchtÃŃ": 1815,
      "ĠcÃŃl": 1816,
      "Ġzval": 1817,
      "Ġvkr": 1818,
      "ĠsÅ¯m": 1819,
      "ĠzÃŃm": 1820,
      "Ġmni": 1821,
      "Ġfo": 1822,
      "Ġlesk": 1823,
      "Ġvji": 1824,
      "Ġpros": 1825,
      "Ġjil": 1826,
      "ĠdÃŃk": 1827,
      "Ġdlu": 1828,
      "ĠklÃ©": 1829,
      "ĠkrÃ½": 1830,
      "ĠrÅ¯z": 1831,
      "ĠvzplÃ¡": 1832,
      "Ġvzle": 1833,
      "ĠchÃ¡m": 1834,
      "Ġstran": 1835,
      "Ġskro": 1836,
      "ĠskÅĻÃŃ": 1837,
      "Ġtat": 1838,
      "Ġbyt": 1839,
      "ĠztÄĽch": 1840,
      "ĠAABCBC": 1841,
      "ĠÅ¡it": 1842,
      "Ġbod": 1843,
      "ĠdnÃ©": 1844,
      "ĠdvÃ¡": 1845,
      "Ġkbo": 1846,
      "Ġbled": 1847,
      "ĠkvÃ©": 1848,
      "ĠklÃŃn": 1849,
      "Ġhloub": 1850,
      "Ġvost": 1851,
      "Ġtev": 1852,
      "ĠvznÃ¡": 1853,
      "Ġvzde": 1854,
      "Ġtok": 1855,
      "Ġhol": 1856,
      "Ġzlou": 1857,
      "Ġlan": 1858,
      "Ġdot": 1859,
      "Ġbru": 1860,
      "ĠbÄĽh": 1861,
      "Ġvsp": 1862,
      "Ġlat": 1863,
      "Ġzhy": 1864,
      "Ġvroz": 1865,
      "Ġtri": 1866,
      "Å¡e": 1867,
      "Ġhad": 1868,
      "Ġtve": 1869,
      "Ġslil": 1870,
      "ĠsÃº": 1871,
      "ĠslÃŃm": 1872,
      "Ġsje": 1873,
      "ĠsvÃ¡t": 1874,
      "ĠmÅ¾i": 1875,
      "ĠvkaÅ¾": 1876,
      "led": 1877,
      "Ġvhlou": 1878,
      "Ġdrav": 1879,
      "Ġvn": 1880,
      "Ġtmou": 1881,
      "Ġplod": 1882,
      "ĠX": 1883,
      "Ġthe": 1884,
      "ĠÅ¡er": 1885,
      "ĠdlaÅĪ": 1886,
      "Ġos": 1887,
      "Ġlze": 1888,
      "Å¯d": 1889,
      "Ġstesk": 1890,
      "Ġkdos": 1891,
      "Ġpes": 1892,
      "Ġdni": 1893,
      "Ġzku": 1894,
      "Ġdrech": 1895,
      "lav": 1896,
      "ĠmÄĽst": 1897,
      "ĠsaÅĻ": 1898,
      "Ġkruh": 1899,
      "ĠzÃº": 1900,
      "Ġchli": 1901,
      "Ġkmo": 1902,
      "ĠlÃ¡ch": 1903,
      "ĠhÅĻbi": 1904,
      "Ġtrys": 1905,
      "Ġtich": 1906,
      "Ġjan": 1907,
      "ĠÅ¾er": 1908,
      "ĠÅĻad": 1909,
      "ĠvpÅĻed": 1910,
      "Ġluz": 1911,
      "Ġskvost": 1912,
      "Ġjsa": 1913,
      "Ġlam": 1914,
      "Ġjdi": 1915,
      "Ġblak": 1916,
      "ĠÄįÅ¯": 1917,
      "ĠlkÃ¡": 1918,
      "Ġx": 1919,
      "ĠnÃ¡c": 1920,
      "ĠzÅĻÃŃt": 1921,
      "ĠhrÃ¡l": 1922,
      "ĠstÅĻi": 1923,
      "Ġvtem": 1924,
      "Ġpsa": 1925,
      "Ġbel": 1926,
      "Ġau": 1927,
      "ĠboÅ¥": 1928,
      "Ġknim": 1929,
      "Ġin": 1930,
      "ÃŃt": 1931,
      "ĠvrÃ¡z": 1932,
      "ĠdÃŃl": 1933,
      "Ġvsi": 1934,
      "ĠhÅ¯m": 1935,
      "Ġmli": 1936,
      "Ġsic": 1937,
      "Ġsej": 1938,
      "ĠÄįu": 1939,
      "Ġvjed": 1940,
      "Ġzpu": 1941,
      "ĠÄįo": 1942,
      "Ġvnad": 1943,
      "Ġhez": 1944,
      "ĠvdÄĽÄį": 1945,
      "ĠvstÃŃ": 1946,
      "Ġpur": 1947,
      "ĠmlÄį": 1948,
      "Ġrost": 1949,
      "ĠAABBXX": 1950,
      "ĠvsvÃ©": 1951,
      "Ġvlh": 1952,
      "Ġjat": 1953,
      "Ġskon": 1954,
      "Ġdnem": 1955,
      "ĠvmÄĽ": 1956,
      "Å¾e": 1957,
      "ĠzprÃ¡": 1958,
      "Ġplou": 1959,
      "ĠsluÅ¾": 1960,
      "ĠtÅĻil": 1961,
      "vy": 1962,
      "ĠtÃ¡n": 1963,
      "ĠknÄĽz": 1964,
      "Ġvdi": 1965,
      "Ġrd": 1966,
      "ĠknÄĽÅ¾": 1967,
      "ĠbÅĻi": 1968,
      "Ġvstou": 1969,
      "ĠzvÄĽst": 1970,
      "ĠÅĻec": 1971,
      "Ġsad": 1972,
      "Ã¡ch": 1973,
      "ĠzlÃ½": 1974,
      "ĠkÅ¯v": 1975,
      "ĠpÄĽj": 1976,
      "ĠtÄĽj": 1977,
      "Ġvte": 1978,
      "Ġsno": 1979,
      "Ġtlou": 1980,
      "Ġdna": 1981,
      "ouÅ¡": 1982,
      "tech": 1983,
      "Ġvstal": 1984,
      "ĠmÅĻel": 1985,
      "Ġrtech": 1986,
      "Ġvtm": 1987,
      "ĠlÃ¡m": 1988,
      "ĠABBAXX": 1989,
      "ĠvÄĽÅ¡": 1990,
      "ĠpÃ¡d": 1991,
      "Ġchmur": 1992,
      "vÄĽt": 1993,
      "ĠchÃ©m": 1994,
      "ĠtÅĻpyt": 1995,
      "Ġtej": 1996,
      "Ġpli": 1997,
      "ĠsÃŃch": 1998,
      "Ġkan": 1999,
      "Ġzha": 2000,
      "ĠÅ¾as": 2001,
      "ĠÄįty": 2002,
      "Ġteh": 2003,
      "Ġvkou": 2004,
      "Ġlib": 2005,
      "Ġvmy": 2006,
      "Ġpas": 2007,
      "ĠvÃ½s": 2008,
      "ĠsbÃŃ": 2009,
      "ĠslÃ½": 2010,
      "Ġuz": 2011,
      "ĠÅ¡tÃŃt": 2012,
      "Ġtiv": 2013,
      "ĠvÅ¡ed": 2014,
      "Ġstla": 2015,
      "Ġbek": 2016,
      "Ġnny": 2017,
      "ĠAAXA": 2018,
      "Ġvse": 2019,
      "ĠrtÅ¯": 2020,
      "ĠoÄį": 2021,
      "Ġzvl": 2022,
      "Ġstes": 2023,
      "Ġmon": 2024,
      "ĠtÅ¯m": 2025,
      "Ġfr": 2026,
      "Ġhvo": 2027,
      "ĠdiÅ¾": 2028,
      "ABBA": 2029,
      "ĠzpÃ¡t": 2030,
      "ĠmÅ¯Å¾": 2031,
      "ĠtÃ¡ch": 2032,
      "Ġlla": 2033,
      "Ġvso": 2034,
      "Ġdvou": 2035,
      "ĠABABAB": 2036,
      "ĠvnÃŃÅ¾": 2037,
      "Ġvzbu": 2038,
      "Ġlev": 2039,
      "Ġbej": 2040,
      "Ġchva": 2041,
      "ĠlaÄį": 2042,
      "ĠzÄįe": 2043,
      "ĠkÃ¡n": 2044,
      "ĠstÃ©m": 2045,
      "ĠjvÃŃ": 2046,
      "Ġren": 2047,
      "Ġvry": 2048,
      "Ġzdvih": 2049,
      "Ġchlu": 2050,
      "Ġslech": 2051,
      "Ġzek": 2052,
      "ĠvpÅĻÃŃ": 2053,
      "Ġhon": 2054,
      "ĠhluÄį": 2055,
      "ĠvpÃŃ": 2056,
      "Ġlad": 2057,
      "ĠtÃ¡ÅĻ": 2058,
      "Ġkup": 2059,
      "Ġzbro": 2060,
      "ĠvsvÃ©m": 2061,
      "Ġvrouc": 2062,
      "Ġlic": 2063,
      "Ġfu": 2064,
      "Ġksrd": 2065,
      "Ġkmet": 2066,
      "ĠvÄįer": 2067,
      "Ġkaz": 2068,
      "ĠmÃ¡t": 2069,
      "ĠtvÃ½": 2070,
      "Ġfal": 2071,
      "ĠvdÄĽk": 2072,
      "ĠÅĪu": 2073,
      "Ġvnu": 2074,
      "ĠmlÃ¡d": 2075,
      "Ġmdlo": 2076,
      "ĠkvÃŃt": 2077,
      "Ġvzdo": 2078,
      "ĠÅ¾eb": 2079,
      "ĠtÃ½l": 2080,
      "Ġclo": 2081,
      "ĠhlÃ©d": 2082,
      "ĠÅĻÃŃch": 2083,
      "ĠniÅ¾": 2084,
      "Ġspu": 2085,
      "Ã¡n": 2086,
      "Ġbat": 2087,
      "ĠchlÃ©b": 2088,
      "ĠtÃŃch": 2089,
      "ĠbÃ¡m": 2090,
      "ĠÅ¾Å¯": 2091,
      "Ġrev": 2092,
      "Ġkev": 2093,
      "ĠlÃŃÄį": 2094,
      "ĠmÃŃm": 2095,
      "ĠplÃ½": 2096,
      "ĠXXA": 2097,
      "ĠtlÃ½": 2098,
      "ĠkÅĻes": 2099,
      "Ġtur": 2100,
      "ĠplÃ¡l": 2101,
      "Ġksm": 2102,
      "ĠÅ¾eÅ¡": 2103,
      "Ġnuv": 2104,
      "ĠklÃ½": 2105,
      "ĠvÄĽÄı": 2106,
      "Ġnaz": 2107,
      "ĠvplÃ¡": 2108,
      "Ġstry": 2109,
      "ĠnnÃ½ch": 2110,
      "Ġkvi": 2111,
      "ĠvyÅ¡": 2112,
      "Ġstvu": 2113,
      "ĠpÅĻej": 2114,
      "ĠrÃ¡z": 2115,
      "ĠsliÄį": 2116,
      "Ġspro": 2117,
      "ĠbÅĻeh": 2118,
      "ĠvtÄĽch": 2119,
      "ĠlÃŃp": 2120,
      "ĠbdÄĽ": 2121,
      "ĠkÅĻ": 2122,
      "ĠlÃ¡n": 2123,
      "ĠsmÃ¡l": 2124,
      "Ġkop": 2125,
      "Ġprch": 2126,
      "Ġcou": 2127,
      "Ġmoz": 2128,
      "Ġvet": 2129,
      "Ġchlo": 2130,
      "Ġnos": 2131,
      "BB": 2132,
      "ĠveÅ¡": 2133,
      "Ġvten": 2134,
      "Ġvhlu": 2135,
      "Ġchvat": 2136,
      "ĠvbÃŃ": 2137,
      "ĠtÃŃÅĻ": 2138,
      "Ġvyh": 2139,
      "Ġsmi": 2140,
      "Ġtrud": 2141,
      "Ġneh": 2142,
      "ĠvmÃ©": 2143,
      "ĠstaÅĪ": 2144,
      "ĠpÃŃt": 2145,
      "Ġztr": 2146,
      "ĠsÄįe": 2147,
      "ĠÅ¾ek": 2148,
      "Ġzvi": 2149,
      "Ġzyk": 2150,
      "Ġroj": 2151,
      "ĠsÃŃÅ¡": 2152,
      "Ġvzpla": 2153,
      "ĠpeÄį": 2154,
      "ĠvÃ¡ch": 2155,
      "Ġzat": 2156,
      "ĠkÄįe": 2157,
      "ĠstÅĻel": 2158,
      "ĠÅĪÃ¡": 2159,
      "Ġvslun": 2160,
      "ĠzÅĻÃŃÅ¡": 2161,
      "ĠtnÃŃ": 2162,
      "ĠÅ¾ik": 2163,
      "Ġdoj": 2164,
      "ĠÅ¡lech": 2165,
      "Ġmov": 2166,
      "Ġvhla": 2167,
      "ĠstÃ½ch": 2168,
      "ĠvraÅ¥": 2169,
      "Ġkel": 2170,
      "Ġrech": 2171,
      "ĠÅ¾ÃŃch": 2172,
      "Ġsnil": 2173,
      "ĠkÃ½s": 2174,
      "Ġdol": 2175,
      "Ġkap": 2176,
      "Ġej": 2177,
      "ĠÅ¥ast": 2178,
      "ĠmÅĻÃŃt": 2179,
      "ĠvklÃŃ": 2180,
      "ĠstÅ¯j": 2181,
      "Ġluh": 2182,
      "ĠÄįnÃŃ": 2183,
      "Ġklas": 2184,
      "Ġctnost": 2185,
      "Ġsot": 2186,
      "ĠstrÃ©": 2187,
      "ĠhrÃ¡t": 2188,
      "Ġpoc": 2189,
      "ĠvnichÅ¾": 2190,
      "ĠleÅ¾": 2191,
      "Ġtud": 2192,
      "ĠpÃ¡s": 2193,
      "ĠlÃ©b": 2194,
      "XXA": 2195,
      "Ġznal": 2196,
      "Ġsob": 2197,
      "Ġvple": 2198,
      "ĠvlÅ¯": 2199,
      "ĠtmÄĽ": 2200,
      "Ġpast": 2201,
      "Ġlech": 2202,
      "Ġkos": 2203,
      "Ġrci": 2204,
      "Ġmec": 2205,
      "ĠjimÅ¾": 2206,
      "ĠvzkÅĻi": 2207,
      "Ġzdr": 2208,
      "ĠdnÄĽ": 2209,
      "Ġkst": 2210,
      "ĠkvÃ¡m": 2211,
      "ĠcÃŃr": 2212,
      "ĠÄįte": 2213,
      "Ġchom": 2214,
      "Ġvech": 2215,
      "ĠhÅĻmÃŃ": 2216,
      "ĠmrÃ¡": 2217,
      "ĠzaÄį": 2218,
      "Ġnap": 2219,
      "ĠnÃ¡ÅĻ": 2220,
      "Ġtlem": 2221,
      "Ġsj": 2222,
      "ĠstÃ¡r": 2223,
      "ĠzÃ¡m": 2224,
      "Ġpec": 2225,
      "val": 2226,
      "Ġzpra": 2227,
      "Ġnli": 2228,
      "Ġstih": 2229,
      "ĠslÃ©z": 2230,
      "ĠzbraÅĪ": 2231,
      "Ġvml": 2232,
      "Ġvja": 2233,
      "Ġvpe": 2234,
      "Ġzhou": 2235,
      "ĠpohÅĻ": 2236,
      "Ġzlem": 2237,
      "BX": 2238,
      "ĠtÄĽs": 2239,
      "ĠpeÅ¾": 2240,
      "ĠÅ¾et": 2241,
      "ĠbÃ¡j": 2242,
      "rou": 2243,
      "Ġdom": 2244,
      "ĠmÄĽch": 2245,
      "Ġdb": 2246,
      "Ġzkve": 2247,
      "Ġvzm": 2248,
      "Ġlli": 2249,
      "ĠhÅĻÃ¡": 2250,
      "ĠzvlÃ¡Å¡": 2251,
      "Ġliv": 2252,
      "Ġzho": 2253,
      "Ġvek": 2254,
      "Ġpras": 2255,
      "Ġbl": 2256,
      "Ġvztek": 2257,
      "XABB": 2258,
      "Ġklen": 2259,
      "Ġhluk": 2260,
      "Ġjov": 2261,
      "ĠkÅ¡": 2262,
      "ĠprÃ¡h": 2263,
      "Ġvrah": 2264,
      "Ġvbou": 2265,
      "ĠplÃ¡t": 2266,
      "ĠdnÃ½": 2267,
      "ĠvÄĽst": 2268,
      "ĠztÃ©": 2269,
      "Ġmrou": 2270,
      "ĠvÅ¡ic": 2271,
      "ĠspÃ¡t": 2272,
      "Ġner": 2273,
      "Ġzml": 2274,
      "ĠmiÅ¾": 2275,
      "Ġkmen": 2276,
      "ĠsÃ©": 2277,
      "Ġsech": 2278,
      "ĠnÃŃÅ¡": 2279,
      "Ġdrs": 2280,
      "Ġsf": 2281,
      "ĠlÅ¯m": 2282,
      "Ġlos": 2283,
      "ĠbÃŃt": 2284,
      "ĠtrÃ½": 2285,
      "Ġvic": 2286,
      "ĠÅ¾ÃŃz": 2287,
      "ĠhnÃ¡": 2288,
      "Ġvar": 2289,
      "ĠvÅĪa": 2290,
      "Ġvzla": 2291,
      "Ġspal": 2292,
      "ĠtlÃ¡": 2293,
      "Ġdec": 2294,
      "ĠbdÃŃ": 2295,
      "Ġhbi": 2296,
      "ĠpoÅ¡": 2297,
      "Ġsvor": 2298,
      "Ġniv": 2299,
      "ĠnÄĽch": 2300,
      "Ġjiz": 2301,
      "ĠtÅĻÃ¡s": 2302,
      "ĠmÃ¡j": 2303,
      "ĠhÅĻÃŃÅ¡": 2304,
      "Ġraj": 2305,
      "Ġjvy": 2306,
      "ĠtÃŃs": 2307,
      "ur": 2308,
      "ĠÅĻo": 2309,
      "ĠlÃ¡t": 2310,
      "Ġvrch": 2311,
      "Ġche": 2312,
      "Ġstez": 2313,
      "ĠtÅĻÃŃÅ¡": 2314,
      "ĠspÄĽÅ¡": 2315,
      "ĠvÃŃÄį": 2316,
      "Ġvzru": 2317,
      "Ġhut": 2318,
      "Ġsluch": 2319,
      "Ġvkte": 2320,
      "ĠspÄĽl": 2321,
      "ĠznÃ¡s": 2322,
      "Ġvtv": 2323,
      "ĠspÄĽch": 2324,
      "ĠctÃŃ": 2325,
      "ĠchÃ½m": 2326,
      "ĠvrÃ¡s": 2327,
      "Ġvhru": 2328,
      "ĠsluÅ¡": 2329,
      "ĠblÃ¡z": 2330,
      "Ġdic": 2331,
      "Ġmih": 2332,
      "Ġhym": 2333,
      "ĠstÅĻÃ¡": 2334,
      "ĠmlÃ½": 2335,
      "Ġchyt": 2336,
      "Ġstrh": 2337,
      "ĠpusÅ¥": 2338,
      "ĠbÄĽÅ¥": 2339,
      "Ġfan": 2340,
      "Ġhi": 2341,
      "ĠlÃŃÅ¡": 2342,
      "ĠmÄĽt": 2343,
      "Ġw": 2344,
      "ĠzÃ¡Å¡": 2345,
      "ĠhÃ¡ch": 2346,
      "ĠÅ¡Å¥a": 2347,
      "ĠsprÃ¡": 2348,
      "ĠsmÄĽs": 2349,
      "to": 2350,
      "ĠjeÅ¥": 2351,
      "ĠABA": 2352,
      "Ġslal": 2353,
      "ĠÅ¡pat": 2354,
      "Ġdev": 2355,
      "Ġnach": 2356,
      "ĠXAXABB": 2357,
      "Ġdok": 2358,
      "Ġvyr": 2359,
      "Ġzlu": 2360,
      "Ġsmo": 2361,
      "Ġvbe": 2362,
      "ĠhÅĻmÄĽ": 2363,
      "Ġvlu": 2364,
      "Ġslz": 2365,
      "ĠdoÄį": 2366,
      "ĠvÄĽl": 2367,
      "ĠzvuÄį": 2368,
      "Ġzah": 2369,
      "Ġav": 2370,
      "ĠÅĪo": 2371,
      "ĠspÃ¡n": 2372,
      "Ġzkr": 2373,
      "ĠtrÅ¯n": 2374,
      "ĠÄįÃ¡t": 2375,
      "Ġkom": 2376,
      "Ġki": 2377,
      "Ġsple": 2378,
      "ĠjvyÅ¡": 2379,
      "Ġvprach": 2380,
      "ĠAXXA": 2381,
      "Ġluj": 2382,
      "ĠpÅĻÃŃm": 2383,
      "ĠtvÅ¯r": 2384,
      "Ġvmra": 2385,
      "ĠÅ¾es": 2386,
      "ĠreÄį": 2387,
      "ĠstÃ½m": 2388,
      "ĠvznÄĽ": 2389,
      "ĠzmÃ¡": 2390,
      "Ġskut": 2391,
      "ĠÅ¡ak": 2392,
      "ĠÃºst": 2393,
      "ĠdneÅ¡": 2394,
      "Ġ20": 2395,
      "ĠslÅ¯": 2396,
      "ĠkeÅĻ": 2397,
      "ĠcÃ¡": 2398,
      "ĠvÄĽj": 2399,
      "Ġzkou": 2400,
      "ĠvlÃ©": 2401,
      "Ġteb": 2402,
      "ĠmÄĽÅ¡": 2403,
      "Ġbran": 2404,
      "Ġplat": 2405,
      "Ġstan": 2406,
      "ĠpÅĻÃ¡l": 2407,
      "Ġrve": 2408,
      "Ġtkli": 2409,
      "ĠmoÅĻ": 2410,
      "Ġklou": 2411,
      "ĠdÃ©l": 2412,
      "Ġvmi": 2413,
      "ĠÅ¾to": 2414,
      "Ġjit": 2415,
      "ĠÅ¥an": 2416,
      "ĠdÃ©Å¡Å¥": 2417,
      "ĠzÃ¡ch": 2418,
      "Ġbrov": 2419,
      "ĠdlÃ½ch": 2420,
      "Ġstus": 2421,
      "Ġvzly": 2422,
      "Ġzhas": 2423,
      "Ġstic": 2424,
      "ĠznÃ¡Å¡": 2425,
      "Ġvyj": 2426,
      "ĠkÅ¯ÅĪ": 2427,
      "Ġbis": 2428,
      "Ġvda": 2429,
      "ĠvzrÅ¯": 2430,
      "ĠÅĻin": 2431,
      "nÃ©": 2432,
      "ĠvsnÄĽ": 2433,
      "Ġchot": 2434,
      "ĠchÃ¡ch": 2435,
      "Ġkmit": 2436,
      "ĠvpÅ¯": 2437,
      "Ġvtip": 2438,
      "Ġstm": 2439,
      "Ġplach": 2440,
      "ĠzkÃ¡": 2441,
      "ĠstÅ¯l": 2442,
      "ĠÄıas": 2443,
      "Ġvist": 2444,
      "ĠschvÃ¡": 2445,
      "Ġstud": 2446,
      "Ġzji": 2447,
      "Ġmas": 2448,
      "Ġvles": 2449,
      "ĠvtvÃ¡ÅĻ": 2450,
      "Ġmot": 2451,
      "Å¾ÃŃ": 2452,
      "ĠzdrÃ¡v": 2453,
      "Ġlst": 2454,
      "Ġstrou": 2455,
      "Ġlich": 2456,
      "Ġvsou": 2457,
      "Ġkout": 2458,
      "Ġspla": 2459,
      "Ġnoch": 2460,
      "Ġchyb": 2461,
      "ĠjvÃŃc": 2462,
      "an": 2463,
      "Ġvci": 2464,
      "Ġspat": 2465,
      "Ġzav": 2466,
      "ĠtuÅ¾": 2467,
      "ĠchraÅĪ": 2468,
      "ĠbÃ¡l": 2469,
      "ĠmnÃŃ": 2470,
      "Ġodv": 2471,
      "ĠÅ¡pi": 2472,
      "ĠkÃ¡Å¡": 2473,
      "Ġsat": 2474,
      "ĠvÃ¡b": 2475,
      "ĠtiÅ¡": 2476,
      "ĠpÃŃm": 2477,
      "ĠbrÃ¡z": 2478,
      "Ġel": 2479,
      "ĠchÅĻi": 2480,
      "ĠÅ¡in": 2481,
      "ĠhÃ¡j": 2482,
      "Ġchi": 2483,
      "Ġlle": 2484,
      "ĠsvÅ¯d": 2485,
      "Ġfor": 2486,
      "ĠsnÄĽÅ¾": 2487,
      "Ġkryl": 2488,
      "Ġryb": 2489,
      "Ġlis": 2490,
      "Ġhmo": 2491,
      "Ġmlou": 2492,
      "ĠmÃ¡l": 2493,
      "Ġzte": 2494,
      "ĠXXAABB": 2495,
      "ĠÅ¡eÅĪ": 2496,
      "ĠplÃ¡Å¡Å¥": 2497,
      "Ġvzlet": 2498,
      "Ġkje": 2499,
      "Ġmed": 2500,
      "Ġzja": 2501,
      "Ġstis": 2502,
      "ĠtlÃŃ": 2503,
      "ĠÅ¾hou": 2504,
      "Ġrec": 2505,
      "ĠAAXB": 2506,
      "Ġlho": 2507,
      "Ġprin": 2508,
      "ĠblÃ©": 2509,
      "Ġsvr": 2510,
      "Ġstek": 2511,
      "Ġkrov": 2512,
      "ĠsnÃŃt": 2513,
      "cÃŃ": 2514,
      "ĠvÄįas": 2515,
      "ĠdeÄį": 2516,
      "lun": 2517,
      "ĠjÃ¡k": 2518,
      "Ġchet": 2519,
      "Ġmost": 2520,
      "ĠschÃ¡": 2521,
      "ĠÅ¡lÃŃ": 2522,
      "Ġvob": 2523,
      "Ġfy": 2524,
      "ĠzdaÅ¾": 2525,
      "ĠdosÅ¥": 2526,
      "Ġtrest": 2527,
      "Ġmus": 2528,
      "Ġdan": 2529,
      "ĠvzlÃ©": 2530,
      "lÃ½ch": 2531,
      "ĠkÅ¾i": 2532,
      "ĠsÃŃÄį": 2533,
      "Ġslast": 2534,
      "Ġvme": 2535,
      "ĠÅ¾iÅ¾": 2536,
      "ĠÅ¡leh": 2537,
      "Ġpsal": 2538,
      "Ġhn": 2539,
      "Ġsan": 2540,
      "Ġdoz": 2541,
      "ĠdraÅ¾": 2542,
      "ĠnÃŃÄį": 2543,
      "ĠzlÃ½ch": 2544,
      "ĠpÃŃÅ¡": 2545,
      "Ġclav": 2546,
      "Ġtul": 2547,
      "Ġvkro": 2548,
      "Ġlel": 2549,
      "Ġlud": 2550,
      "Ġnov": 2551,
      "Ġvpou": 2552,
      "Ġzej": 2553,
      "Ġvab": 2554,
      "ĠÄįist": 2555,
      "Ġzlost": 2556,
      "Ġmuk": 2557,
      "Ġhvoz": 2558,
      "ĠÅĻÃŃc": 2559,
      "ĠjdeÅ¡": 2560,
      "Ġstroj": 2561,
      "Ġsha": 2562,
      "Ġchlap": 2563,
      "ĠklÃ¡Å¡": 2564,
      "ĠzdÃŃ": 2565,
      "ĠvzpÃŃ": 2566,
      "ĠtÃ¡z": 2567,
      "Ġnau": 2568,
      "ĠsrÃ¡": 2569,
      "ĠtÄĽn": 2570,
      "ĠÅ¡kle": 2571,
      "Ġztu": 2572,
      "ĠdrÃ½ch": 2573,
      "ĠchÃ½ch": 2574,
      "Ġdon": 2575,
      "Ġvpu": 2576,
      "Ġzpi": 2577,
      "Ġzhlu": 2578,
      "ĠstÄĽn": 2579,
      "Ġzmr": 2580,
      "ĠsdÄĽ": 2581,
      "Ġvaz": 2582,
      "ĠcÅ¯v": 2583,
      "Ġvzem": 2584,
      "Ġkul": 2585,
      "Ġvok": 2586,
      "Ġtlum": 2587,
      "ĠuÅ¡": 2588,
      "Ġbrat": 2589,
      "ĠÄıa": 2590,
      "Ġhna": 2591,
      "Ġvzro": 2592,
      "ĠnÃ©st": 2593,
      "Ġbur": 2594,
      "Ġdvi": 2595,
      "Ġnot": 2596,
      "ĠmÄĽr": 2597,
      "Ġpis": 2598,
      "ĠkÅĻiv": 2599,
      "ĠvhÃ¡": 2600,
      "Ġspe": 2601,
      "ĠnÅ¯v": 2602,
      "Ġvpla": 2603,
      "ĠzpÅ¯": 2604,
      "mou": 2605,
      "Ġskla": 2606,
      "ĠmÃ¡Å¥": 2607,
      "Ġstoj": 2608,
      "ĠvchrÃ¡": 2609,
      "ĠsÃºs": 2610,
      "Ġspor": 2611,
      "ĠskvÃŃ": 2612,
      "Ġer": 2613,
      "Ġvskut": 2614,
      "Ġhry": 2615,
      "Ġdrost": 2616,
      "ĠdvÅ¯r": 2617,
      "Ġcno": 2618,
      "ĠjvÄĽt": 2619,
      "ĠvÃŃs": 2620,
      "Ġkj": 2621,
      "ĠXXXA": 2622,
      "ĠnnÃ½m": 2623,
      "ĠmÃ¡n": 2624,
      "Ġsig": 2625,
      "Ġvsl": 2626,
      "Ġrus": 2627,
      "ĠtÅĻeÅ¡": 2628,
      "Ġnam": 2629,
      "ĠvmÃŃ": 2630,
      "Ġvzch": 2631,
      "ĠkvÃ½": 2632,
      "ĠÅ¡Å¯": 2633,
      "ĠduÅ¡": 2634,
      "ĠbÄĽl": 2635,
      "ĠhvÃŃ": 2636,
      "Ġvboj": 2637,
      "Ġjou": 2638,
      "ĠvnitÅĻ": 2639,
      "Ġvzni": 2640,
      "ĠplÃ¡Å¡": 2641,
      "ĠnÃ¡n": 2642,
      "Ġsnech": 2643,
      "Ġstit": 2644,
      "ĠjÃŃÅ¡": 2645,
      "ĠzvÄĽÅĻ": 2646,
      "ĠvÄĽÅ¾": 2647,
      "ĠzeÄı": 2648,
      "Ġvdla": 2649,
      "Ġskrom": 2650,
      "Ġut": 2651,
      "ĠzraÄį": 2652,
      "ĠkdeÅ¾": 2653,
      "ĠtÅĻÃŃm": 2654,
      "ĠpsÃ¡": 2655,
      "Ġspja": 2656,
      "Ġvkru": 2657,
      "Ġzed": 2658,
      "Ġkous": 2659,
      "ĠvÃŃk": 2660,
      "Ġprsk": 2661,
      "ĠvpÃŃs": 2662,
      "ĠvlasÅ¥": 2663,
      "Ġheb": 2664,
      "Ġmh": 2665,
      "Ġchc": 2666,
      "ĠvmÃ©m": 2667,
      "ĠÅĻu": 2668,
      "Ġgr": 2669,
      "Ġzhro": 2670,
      "Ġnnost": 2671,
      "Ġmnich": 2672,
      "ĠzbÃ½": 2673,
      "Ġvbu": 2674,
      "Ġspl": 2675,
      "Ġzdroj": 2676,
      "Ġtuj": 2677,
      "ĠnoÅ¾": 2678,
      "ĠpÄĽst": 2679,
      "Ġvbla": 2680,
      "Ġdnu": 2681,
      "Ġchol": 2682,
      "Ġmez": 2683,
      "Ġtka": 2684,
      "ĠÅ¡ÃŃp": 2685,
      "ĠksvÃ©": 2686,
      "ĠmeÅĪ": 2687,
      "ĠvbÄĽ": 2688,
      "Ġros": 2689,
      "Ġkho": 2690,
      "ĠbÃ¡t": 2691,
      "Ġkryt": 2692,
      "Ġzpr": 2693,
      "Ġmin": 2694,
      "ĠdÄĽd": 2695,
      "ĠsplÃ¡": 2696,
      "ĠÅ¾eÅĪ": 2697,
      "ĠlÅ¯Å¾": 2698,
      "Ġsdu": 2699,
      "ĠhÅĻeb": 2700,
      "Ġhnal": 2701,
      "ĠhrÅ¯z": 2702,
      "ĠsmrÅ¥": 2703,
      "Ġzet": 2704,
      "Ġznak": 2705,
      "Ġslib": 2706,
      "Ġzaj": 2707,
      "ĠÅĻist": 2708,
      "Ġshla": 2709,
      "Ġchej": 2710,
      "Ġzhlou": 2711,
      "ĠÅ¥Ã¡": 2712,
      "ĠÅĻev": 2713,
      "ĠmdlÃ½": 2714,
      "ĠhÃ¡r": 2715,
      "Ġvzra": 2716,
      "Ġdov": 2717,
      "Ġvlet": 2718,
      "Ġsce": 2719,
      "Ġchen": 2720,
      "ĠbÃ¡z": 2721,
      "ĠkÃº": 2722,
      "ĠÅ¡v": 2723,
      "Ġvku": 2724,
      "Ġkrut": 2725,
      "Ġses": 2726,
      "Ġvhod": 2727,
      "ĠÃ¡l": 2728,
      "ĠnÄĽmÅ¾": 2729,
      "ĠÄįar": 2730,
      "Ġvpod": 2731,
      "ĠÅ¡im": 2732,
      "Ġdnech": 2733,
      "ĠvnÃ¡s": 2734,
      "Ġstel": 2735,
      "ĠvtrÃ¡": 2736,
      "ĠznichÅ¾": 2737,
      "ĠsÃŃÅĪ": 2738,
      "ĠAAAX": 2739,
      "Ġzam": 2740,
      "ĠÅ¡vi": 2741,
      "Ġsse": 2742,
      "Ġlka": 2743,
      "ĠplÃ¡ÅĪ": 2744,
      "Ġpne": 2745,
      "Ġkvas": 2746,
      "ĠmÅ¾ik": 2747,
      "Ġker": 2748,
      "Ġptal": 2749,
      "ĠzbÄĽ": 2750,
      "ĠAX": 2751,
      "Ġstor": 2752,
      "Ġzrov": 2753,
      "ĠskÅĻe": 2754,
      "ĠmeÅ¡": 2755,
      "ĠlÃŃk": 2756,
      "ĠchÅĻe": 2757,
      "ĠzvÃ¡s": 2758,
      "ĠpÅĻ": 2759,
      "ĠvstÅĻe": 2760,
      "Ġdlech": 2761,
      "Ġchly": 2762,
      "ĠvrÅ¯": 2763,
      "Ġvsva": 2764,
      "ĠmdlÃ©": 2765,
      "Ġzdech": 2766,
      "Ġknul": 2767,
      "ĠsdÃŃ": 2768,
      "Ġsyl": 2769,
      "Ġslem": 2770,
      "ĠtÅĻÃŃs": 2771,
      "ĠruÅ¡": 2772,
      "Ġvcho": 2773,
      "ĠÅĻel": 2774,
      "Ġdvor": 2775,
      "ĠABABAX": 2776,
      "ĠleÅĪ": 2777,
      "Ġdub": 2778,
      "ĠviÅ¡": 2779,
      "ĠseÄį": 2780,
      "ĠÄįÃŃst": 2781,
      "ĠruÅ¥": 2782,
      "ĠlÃ¡Å¡": 2783,
      "Ġtros": 2784,
      "ĠvlaÅ¡": 2785,
      "ĠnnÃ©m": 2786,
      "Ġhni": 2787,
      "ĠrÃ¡l": 2788,
      "Ġvma": 2789,
      "ĠnoÅ¡": 2790,
      "Ġspas": 2791,
      "ĠvsvÄĽt": 2792,
      "ĠvÄįel": 2793,
      "ĠmlÃ©": 2794,
      "Ġzdar": 2795,
      "Ġsar": 2796,
      "Ġpre": 2797,
      "Ġblouz": 2798,
      "ĠvÅ¯z": 2799,
      "Ġspad": 2800,
      "ĠnÄĽz": 2801,
      "Ġhyb": 2802,
      "Ġjle": 2803,
      "Ġbly": 2804,
      "Ġhnus": 2805,
      "nd": 2806,
      "Ġksmr": 2807,
      "Ġchcem": 2808,
      "Ġvjich": 2809,
      "ĠvkvÄĽ": 2810,
      "ĠÄįert": 2811,
      "ĠbliÅ¾": 2812,
      "ĠchoÅ¥": 2813,
      "ĠtvÃ¡r": 2814,
      "Ġjdem": 2815,
      "Ġzmu": 2816,
      "ĠveÄı": 2817,
      "Ġprost": 2818,
      "ĠÅ¡lÃ¡": 2819,
      "ĠzkrÃ¡": 2820,
      "Ġzin": 2821,
      "Ġzer": 2822,
      "Ġston": 2823,
      "Ġtrav": 2824,
      "Ġjek": 2825,
      "ĠsleÄį": 2826,
      "ĠdÃ¡k": 2827,
      "Ġvpl": 2828,
      "Ġmrav": 2829,
      "ĠschÃ½": 2830,
      "ĠÅ¥u": 2831,
      "ĠstvÃ¡": 2832,
      "Ġrun": 2833,
      "ĠchaÅ¥": 2834,
      "ĠtÅ¯v": 2835,
      "Ġsvat": 2836,
      "ĠzhlÃŃ": 2837,
      "Ġshr": 2838,
      "ĠznÃ¡t": 2839,
      "ĠmÃŃÅ¡": 2840,
      "ĠvÃ¡r": 2841,
      "ĠspÅĻÃ¡": 2842,
      "ĠsmÄĽÅ¡": 2843,
      "Ġluk": 2844,
      "Ġzpod": 2845,
      "Ġnet": 2846,
      "Ġdry": 2847,
      "ĠdnÃ¡": 2848,
      "ĠtÃ½r": 2849,
      "Ġpek": 2850,
      "ĠXXABBA": 2851,
      "Ġzpa": 2852,
      "ĠknÃ©": 2853,
      "ĠhlÃŃd": 2854,
      "ĠpouÅ¥": 2855,
      "Ġjet": 2856,
      "Ġllo": 2857,
      "ĠvznÃŃ": 2858,
      "ĠÄįtvr": 2859,
      "ĠvÅ¯m": 2860,
      "Ġvran": 2861,
      "ĠXXAAXX": 2862,
      "Ġsloup": 2863,
      "ĠveÅĪ": 2864,
      "Ġdus": 2865,
      "Äįi": 2866,
      "Ġshle": 2867,
      "Ġslit": 2868,
      "ĠÅ¡var": 2869,
      "ĠtÅĻÃŃk": 2870,
      "Ġshon": 2871,
      "Ġzs": 2872,
      "Ġrol": 2873,
      "ĠdÅĻi": 2874,
      "Ġtvy": 2875,
      "Ġdych": 2876,
      "Ġvhloub": 2877,
      "Ġvslad": 2878,
      "Ġpnou": 2879,
      "ĠrÅ¯m": 2880,
      "ĠsmÄĽl": 2881,
      "ĠbÄĽs": 2882,
      "ĠdÄĽn": 2883,
      "Ġzhu": 2884,
      "Ġvtr": 2885,
      "ĠfÃŃ": 2886,
      "Ġhrst": 2887,
      "ĠvsnÃ¡": 2888,
      "Ġknout": 2889,
      "Ġbry": 2890,
      "Ġztem": 2891,
      "Ġgic": 2892,
      "ĠvsnÃ¡ch": 2893,
      "Ġvde": 2894,
      "Ġztm": 2895,
      "ĠlÃ¡Äį": 2896,
      "Ġdrou": 2897,
      "ĠÅ¡est": 2898,
      "Ġton": 2899,
      "Ġtvi": 2900,
      "Ġlsti": 2901,
      "Ġzvyk": 2902,
      "Ġsdru": 2903,
      "ĠnÃ¡ct": 2904,
      "Ġkams": 2905,
      "ĠkvÃ©st": 2906,
      "Ġvty": 2907,
      "ĠvÅ¾a": 2908,
      "Ġzit": 2909,
      "ĠjiÅ¡": 2910,
      "Ġplav": 2911,
      "ĠvzkÅĻik": 2912,
      "Ġzev": 2913,
      "Ġlok": 2914,
      "Ġchut": 2915,
      "ĠchlÃŃ": 2916,
      "Ġrto": 2917,
      "lÃŃz": 2918,
      "Ġsym": 2919,
      "ĠkÃ©n": 2920,
      "Ġtrap": 2921,
      "Ġvlid": 2922,
      "ĠvtmÃ¡ch": 2923,
      "Ġgy": 2924,
      "ĠÅĻli": 2925,
      "Ġptac": 2926,
      "Ġzbyl": 2927,
      "Ġkras": 2928,
      "Ġzry": 2929,
      "Ġdcer": 2930,
      "ĠpÃ¡ch": 2931,
      "Ġvid": 2932,
      "ĠzÃŃs": 2933,
      "Ġchti": 2934,
      "ĠdeÅĪ": 2935,
      "Ġklek": 2936,
      "Ġrtem": 2937,
      "ĠtvÄĽ": 2938,
      "ĠlÅ¯v": 2939,
      "Ġzhr": 2940,
      "ĠhÅ¯l": 2941,
      "Ġzmar": 2942,
      "ĠvzkÅĻÃŃ": 2943,
      "ĠhÅĻb": 2944,
      "Ġcla": 2945,
      "Ġsnou": 2946,
      "Ġbrem": 2947,
      "ĠvbÃ¡": 2948,
      "ĠÅ¡per": 2949,
      "ĠlesÅ¥": 2950,
      "ĠlÅ¾i": 2951,
      "Ġster": 2952,
      "ĠpÅĻel": 2953,
      "ĠchlÃ½": 2954,
      "ĠXXXAXA": 2955,
      "ĠhouÅ¡": 2956,
      "Ġllu": 2957,
      "Ġnan": 2958,
      "ĠvpÃ¡": 2959,
      "Ġdnou": 2960,
      "ĠbÄĽt": 2961,
      "Ġlom": 2962,
      "ĠvprÃ¡": 2963,
      "Ġrtu": 2964,
      "ĠXABAB": 2965,
      "ĠchÅ¯m": 2966,
      "ĠtrÃ½z": 2967,
      "Ġztich": 2968,
      "ĠÅ¡ve": 2969,
      "ĠraÄį": 2970,
      "Ġzble": 2971,
      "Ġvnoc": 2972,
      "ĠsmÃ¡t": 2973,
      "Ġryt": 2974,
      "Ġvkraj": 2975,
      "ĠdrÃ½m": 2976,
      "ĠÅĻas": 2977,
      "Ġnouc": 2978,
      "Ġbz": 2979,
      "Ġspol": 2980,
      "lÃ©d": 2981,
      "ĠkÅĻo": 2982,
      "ĠlÃŃt": 2983,
      "Ġmrz": 2984,
      "Ġzmra": 2985,
      "ĠvzduÅ¡": 2986,
      "Ġzblou": 2987,
      "ĠzvlÃ¡Å¡Å¥": 2988,
      "ĠrdÃŃ": 2989,
      "Ġcek": 2990,
      "ĠlÃŃst": 2991,
      "Ġzvou": 2992,
      "Ġvzty": 2993,
      "Ġvc": 2994,
      "nech": 2995,
      "ĠmÃ¡ch": 2996,
      "ĠstkvÄĽ": 2997,
      "Ġ21": 2998,
      "Ġzta": 2999,
      "ĠvklÃŃn": 3000,
      "ĠleÅ¥": 3001,
      "ĠzÃºst": 3002,
      "Ġhrot": 3003,
      "ĠsbÄĽ": 3004,
      "ĠdrÃ¡Å¾": 3005,
      "ĠÅ¡pa": 3006,
      "ĠtÃ³n": 3007,
      "ĠdÃŃc": 3008,
      "Ġkvo": 3009,
      "ĠtÅĻes": 3010,
      "Ġshlu": 3011,
      "ĠÅ¾d": 3012,
      "Ġkav": 3013,
      "Ġzep": 3014,
      "ĠvstaÅĪ": 3015,
      "Ġchor": 3016,
      "ĠvÃŃn": 3017,
      "ĠtkÃ¡": 3018,
      "ĠvÃ¡z": 3019,
      "ĠdÃ¡r": 3020,
      "Ġzmat": 3021,
      "Ġstl": 3022,
      "Ġzdob": 3023,
      "Ġzpup": 3024,
      "ĠÅ¡lÃ½ch": 3025,
      "Ġdlel": 3026,
      "Ġtep": 3027,
      "ĠÅ¡ad": 3028,
      "Ġvzor": 3029,
      "Ġtvar": 3030,
      "Ġtroc": 3031,
      "Ġvjas": 3032,
      "Ġchvo": 3033,
      "ĠdvÃŃ": 3034,
      "ĠvrÃ¡t": 3035,
      "Ġspr": 3036,
      "ĠzrÅ¯": 3037,
      "ĠteÅĻ": 3038,
      "Ġmit": 3039,
      "ABXB": 3040,
      "ĠbrÃ¡k": 3041,
      "ĠtmÃŃ": 3042,
      "ĠstÅ¯m": 3043,
      "Ġchru": 3044,
      "ĠpouÅ¡Å¥": 3045,
      "Ġsply": 3046,
      "ĠtlÃ½ch": 3047,
      "Ġnnu": 3048,
      "Ġsup": 3049,
      "ĠstÃ¡ch": 3050,
      "Ġpruh": 3051,
      "Ġhvi": 3052,
      "Ġcov": 3053,
      "Ġvkle": 3054,
      "ĠstrÅ¯": 3055,
      "Ġvznes": 3056,
      "qu": 3057,
      "Ġchlou": 3058,
      "Ġsc": 3059,
      "ĠXABABX": 3060,
      "Ġvhu": 3061,
      "ĠnichÅ¾": 3062,
      "Ġmsti": 3063,
      "Ġskryt": 3064,
      "Ġsvla": 3065,
      "Ġbech": 3066,
      "Ġvkli": 3067,
      "ĠbrÃ¡t": 3068,
      "ĠsÃ¡t": 3069,
      "Ġtos": 3070,
      "Ġpej": 3071,
      "Ġvstu": 3072,
      "Ġvmu": 3073,
      "ĠzÄįer": 3074,
      "ĠchvÄĽj": 3075,
      "ĠÅĪÅ¯": 3076,
      "Ġmlad": 3077,
      "ĠÄįÃ¡r": 3078,
      "ĠtmÃ¡ch": 3079,
      "Ġbzu": 3080,
      "Ġvzi": 3081,
      "ĠkÅĻeh": 3082,
      "Ġskvou": 3083,
      "ĠvztÃ¡": 3084,
      "ĠsnÃ¡ch": 3085,
      "Ġvhr": 3086,
      "Ġstly": 3087,
      "ĠchlÃ¡": 3088,
      "Ġqu": 3089,
      "Ġcud": 3090,
      "ĠnÄĽt": 3091,
      "ĠvchÃ¡": 3092,
      "ho": 3093,
      "ĠsmÃ½": 3094,
      "ĠkpÅĻe": 3095,
      "ĠvzÃŃt": 3096,
      "Ġvtou": 3097,
      "ĠsklÃŃ": 3098,
      "Ġvhrob": 3099,
      "ĠhvÃŃz": 3100,
      "Ġske": 3101,
      "Ġsep": 3102,
      "Ġbri": 3103,
      "Ġstoup": 3104,
      "Ġvzej": 3105,
      "ĠptÃ¡Äį": 3106,
      "Ġskrz": 3107,
      "ĠvchvÃŃ": 3108,
      "Ġcar": 3109,
      "Ġksp": 3110,
      "Ġvprou": 3111,
      "ĠzÃŃÅ¡": 3112,
      "Ġhlub": 3113,
      "Ġfri": 3114,
      "vÃ¡t": 3115,
      "ĠjlÃŃ": 3116,
      "ĠsÄį": 3117,
      "Ġkvil": 3118,
      "Ġrin": 3119,
      "ĠÃ¡n": 3120,
      "ĠpÅĻÃŃz": 3121,
      "Ġoc": 3122,
      "ĠdeÅ¾": 3123,
      "Ġsyt": 3124,
      "ĠkzÃ¡": 3125,
      "Ġzkla": 3126,
      "Ġgro": 3127,
      "Ġsnes": 3128,
      "ĠspÅĻe": 3129,
      "Ġknih": 3130,
      "ĠstkvÃŃ": 3131,
      "Ġmut": 3132,
      "Ġshro": 3133,
      "Ġfau": 3134,
      "ĠvzplÃ¡l": 3135,
      "jal": 3136,
      "ĠtÃ¡Å¡": 3137,
      "ĠvdÃŃ": 3138,
      "Ġjlep": 3139,
      "ĠpÅĻedc": 3140,
      "ĠtÄĽt": 3141,
      "ĠnÅ¯Å¾": 3142,
      "Ġkch": 3143,
      "Ġrob": 3144,
      "Ġdlil": 3145,
      "ĠviÄı": 3146,
      "Ġjih": 3147,
      "is": 3148,
      "ĠzvÃ½": 3149,
      "Ġstrun": 3150,
      "Ġstev": 3151,
      "ĠtÃ½Å¾": 3152,
      "Ġah": 3153,
      "Ġom": 3154,
      "ĠvÄĽd": 3155,
      "ĠnnÃŃm": 3156,
      "ĠlaÅĪ": 3157,
      "ĠXABBA": 3158,
      "Ġcin": 3159,
      "Ġdes": 3160,
      "Ġzjas": 3161,
      "ĠhrÃ¡d": 3162,
      "Ġbok": 3163,
      "Ġtisk": 3164,
      "ĠdÅ¾": 3165,
      "Ġtrs": 3166,
      "Ġzur": 3167,
      "Ġzkad": 3168,
      "Ġvbi": 3169,
      "ĠÄįeÅ¡": 3170,
      "Ġoj": 3171,
      "Ġzpro": 3172,
      "Ġskryl": 3173,
      "ĠÅ¥al": 3174,
      "Ġvden": 3175,
      "ĠmlÃ½n": 3176,
      "ĠÄįtve": 3177,
      "Ġak": 3178,
      "ĠktÃ©": 3179,
      "Ġsru": 3180,
      "ĠshlÃŃ": 3181,
      "ĠkcÃŃ": 3182,
      "Ġstrast": 3183,
      "Ġvsluch": 3184,
      "Ġsja": 3185,
      "ĠvÄįa": 3186,
      "ĠrÃ¡Å¡": 3187,
      "Ġrce": 3188,
      "ĠdÃ¡ÅĻ": 3189,
      "ĠtÃŃk": 3190,
      "ĠmrÅ¡": 3191,
      "Ġkok": 3192,
      "ĠrÃ¡n": 3193,
      "ĠmÃ¡k": 3194,
      "Ġvzpom": 3195,
      "Ġzbi": 3196,
      "ĠniÅ¡": 3197,
      "ĠmnoÅ¾": 3198,
      "ĠhlÃ½ch": 3199,
      "Ġraz": 3200,
      "ĠjmÄĽ": 3201,
      "ĠÅ¡tva": 3202,
      "Ġrva": 3203,
      "ĠvzÅĪa": 3204,
      "ĠtÅĻit": 3205,
      "ĠÅ¡ÃŃj": 3206,
      "ĠrÃ¡Å¾": 3207,
      "Ġjsouc": 3208,
      "Ġzbroj": 3209,
      "ĠÄįan": 3210,
      "Ġlup": 3211,
      "Ġsos": 3212,
      "ka": 3213,
      "ĠsnÄĽm": 3214,
      "mut": 3215,
      "ĠsprÃ¡v": 3216,
      "ĠzÃ¡Å¡Å¥": 3217,
      "ĠprÃ¡v": 3218,
      "ĠkoÄį": 3219,
      "Ġvzdych": 3220,
      "ĠnÃ¡k": 3221,
      "Ġbub": 3222,
      "Ġvzbou": 3223,
      "Ġchech": 3224,
      "Ġih": 3225,
      "ĠstÃ½s": 3226,
      "ĠmÄĽn": 3227,
      "ĠvaÅ¥": 3228,
      "ĠmÄĽÅ¥": 3229,
      "ĠstrÃ½ch": 3230,
      "ĠnÃ¡t": 3231,
      "Ġslep": 3232,
      "ĠdnÃ½ch": 3233,
      "ĠAAXBBX": 3234,
      "Ġtuch": 3235,
      "ĠvtvÃ©": 3236,
      "Ġnep": 3237,
      "ĠtkvÃŃ": 3238,
      "ĠtouÅ¾": 3239,
      "Ġtles": 3240,
      "Ġmle": 3241,
      "ĠbÃŃm": 3242,
      "ĠrtÃŃ": 3243,
      "Ġlon": 3244,
      "ĠpÃŃr": 3245,
      "Ġrmut": 3246,
      "ĠplaÄį": 3247,
      "ĠvpÄĽ": 3248,
      "ĠvnÄĽj": 3249,
      "ĠptÃ¡m": 3250,
      "ABX": 3251,
      "Ġsul": 3252,
      "Ġkrad": 3253,
      "ĠseÅ¡": 3254,
      "Ġhaj": 3255,
      "Ġkrot": 3256,
      "Ġskli": 3257,
      "Ġkpa": 3258,
      "Ġgan": 3259,
      "Ġpluh": 3260,
      "Ġvstra": 3261,
      "ĠsrÃ¡z": 3262,
      "ĠbrÃ½ch": 3263,
      "ĠmuÅ¡": 3264,
      "ĠvzÃŃ": 3265,
      "ĠÄįiÅĪ": 3266,
      "ĠÅ¡ed": 3267,
      "ĠzvrÃ¡": 3268,
      "ĠzlÃ½m": 3269,
      "Ġdmou": 3270,
      "Ġdam": 3271,
      "Ġmru": 3272,
      "ĠÅ¡al": 3273,
      "ĠkÅĻiÅ¡": 3274,
      "Ġvba": 3275,
      "ĠvpouÅ¡": 3276,
      "ĠstvÃ©": 3277,
      "ĠXABBAX": 3278,
      "Ġjra": 3279,
      "ĠÅ¾lou": 3280,
      "Ġnus": 3281,
      "ĠklÃ½ch": 3282,
      "ĠkrÄį": 3283,
      "ĠbÃ¡Å¡": 3284,
      "Ġstol": 3285,
      "ĠlaÅ¡": 3286,
      "Ġmis": 3287,
      "ĠzahÅĻ": 3288,
      "Ġpuk": 3289,
      "ĠznÃŃÅ¾": 3290,
      "ĠkÅ¡ti": 3291,
      "ĠslÃŃÅ¡": 3292,
      "ĠtmÃ¡m": 3293,
      "Ġvbez": 3294,
      "Ġprah": 3295,
      "ĠzkvÃ©": 3296,
      "ĠlosÅ¥": 3297,
      "ĠlÃ¡c": 3298,
      "Ġryk": 3299,
      "Ġban": 3300,
      "Ġvyp": 3301,
      "Ġpij": 3302,
      "ĠslÃ¡b": 3303,
      "ĠnÃ¡v": 3304,
      "ĠdlÃŃm": 3305,
      "Ġhoun": 3306,
      "ĠstrÃ½m": 3307,
      "Ġnas": 3308,
      "ĠnÃ¡l": 3309,
      "ĠtÅĻel": 3310,
      "ĠrdÄĽ": 3311,
      "ĠchtÃŃt": 3312,
      "ĠzÅĪa": 3313,
      "Ġjist": 3314,
      "Ġpych": 3315,
      "Ġsuk": 3316,
      "Ġmyl": 3317,
      "ĠshÃ½": 3318,
      "ĠvÃ©st": 3319,
      "ĠvtÄĽÅ¾": 3320,
      "Ġvzma": 3321,
      "Ġkdu": 3322,
      "ĠvtvÃ©m": 3323,
      "Ġzes": 3324,
      "ĠveÄį": 3325,
      "ĠjdÄĽ": 3326,
      "Ġmlk": 3327,
      "Ġvhra": 3328,
      "Ġkna": 3329,
      "Ġen": 3330,
      "ĠsmÃŃr": 3331,
      "Ġvzo": 3332,
      "ĠÄıte": 3333,
      "ĠkvÅ¯": 3334,
      "ĠksvÄĽ": 3335,
      "ĠhlÃ¡s": 3336,
      "ĠoÅ¡": 3337,
      "ĠkÃ¡t": 3338,
      "ĠdlÃ¡k": 3339,
      "Ġskvr": 3340,
      "ĠjeÄį": 3341,
      "ĠkÃ¡ÅĻ": 3342,
      "ĠchvÄĽt": 3343,
      "Å¡i": 3344,
      "Ġzpe": 3345,
      "ĠloÅ¾": 3346,
      "ĠdÅ¯v": 3347,
      "Ġrval": 3348,
      "ĠkouÅĻ": 3349,
      "Ġron": 3350,
      "ĠvaÄį": 3351,
      "ĠhlÃ½m": 3352,
      "ĠktÄĽ": 3353,
      "ros": 3354,
      "ĠtÃ¡l": 3355,
      "ĠÃºc": 3356,
      "ĠnÃŃmÅ¾": 3357,
      "Ġskok": 3358,
      "ĠvmÃ¡": 3359,
      "ĠsuÄı": 3360,
      "Ġnin": 3361,
      "ĠsÃ¡l": 3362,
      "Ġloup": 3363,
      "ĠmÃŃÅĪ": 3364,
      "ĠklÃŃÄį": 3365,
      "ĠvÄįi": 3366,
      "Ġkji": 3367,
      "Ġduj": 3368,
      "ĠhraÄį": 3369,
      "ĠdouÅ¡": 3370,
      "Ġvnej": 3371,
      "Ġnni": 3372,
      "Ġvsmut": 3373,
      "Ġzad": 3374,
      "ĠchuÅ¥": 3375,
      "Ġuc": 3376,
      "ĠpÅĻiz": 3377,
      "ĠpiÅ¡": 3378,
      "ĠÄįiv": 3379,
      "ĠvtÃŃ": 3380,
      "ĠmÄĽÅĻ": 3381,
      "ĠÅ¥o": 3382,
      "Ġzbyt": 3383,
      "Ġvzcho": 3384,
      "Ġkpra": 3385,
      "Ġvsmr": 3386,
      "Ġmha": 3387,
      "ĠÅ¡lÃ½": 3388,
      "ĠvzÃ½": 3389,
      "Ġstin": 3390,
      "ĠvÅ¾Ã¡": 3391,
      "ĠrtÅ¯m": 3392,
      "vÃ½": 3393,
      "ĠmdlÃ¡": 3394,
      "Ġlip": 3395,
      "ĠkÃ½v": 3396,
      "ĠzbÃŃ": 3397,
      "ĠchÃ¡Å¡": 3398,
      "ĠshÅ¯": 3399,
      "Ġtluk": 3400,
      "ĠÄįeÅ¾": 3401,
      "ĠzdvÃŃ": 3402,
      "Ġdral": 3403,
      "Ġvnik": 3404,
      "Ġchud": 3405,
      "ĠfrÃ¡": 3406,
      "Ġvble": 3407,
      "Ġser": 3408,
      "ĠjitÅĻ": 3409,
      "Ġmet": 3410,
      "ĠtÅĻesk": 3411,
      "Ġvoh": 3412,
      "Ġlym": 3413,
      "Ġvlak": 3414,
      "ĠvznÄĽt": 3415,
      "ĠdÃ©Äį": 3416,
      "ĠzkvÄĽ": 3417,
      "ĠvÅĻÃŃt": 3418,
      "Ġhvozd": 3419,
      "ry": 3420,
      "Ġtmu": 3421,
      "ĠsnÅ¯m": 3422,
      "Ġrvou": 3423,
      "ĠleÅ¡": 3424,
      "ĠlÃ¡k": 3425,
      "ĠkÃ©s": 3426,
      "ĠvzdÄĽ": 3427,
      "ĠvslÃ¡": 3428,
      "Ġvjiz": 3429,
      "ĠtÄĽÅ¡": 3430,
      "Ġsrov": 3431,
      "ĠpÅĻijÄı": 3432,
      "Ġchro": 3433,
      "ĠhÃ¡Å¡": 3434,
      "ÅĻad": 3435,
      "Ġvous": 3436,
      "Ġmraz": 3437,
      "ĠprÃ½Å¡": 3438,
      "Ġcvr": 3439,
      "Ġbouk": 3440,
      "Ġjsy": 3441,
      "ĠvlÃŃc": 3442,
      "Ġvzka": 3443,
      "Ġskrov": 3444,
      "ĠsvÃ¡r": 3445,
      "ĠknÃŃÅ¾": 3446,
      "ĠrÅ¯st": 3447,
      "Ġvre": 3448,
      "Ġdrem": 3449,
      "Ġtik": 3450,
      "ĠlÃ¡ÅĻ": 3451,
      "ĠÄįÃ¡st": 3452,
      "ĠvhruÄı": 3453,
      "Ġcer": 3454,
      "ĠjÃŃz": 3455,
      "Ġpluk": 3456,
      "ĠÄįnÄĽ": 3457,
      "ĠcÃ½ch": 3458,
      "ĠÅĻÃŃd": 3459,
      "ĠzpÅĻÃŃ": 3460,
      "ĠrouÅ¡": 3461,
      "ĠzÅĻÃŃd": 3462,
      "Ġzhoub": 3463,
      "Ġcez": 3464,
      "ĠdÄĽÄį": 3465,
      "ĠvmlÃ¡": 3466,
      "Ġtrub": 3467,
      "Ġvmou": 3468,
      "ĠlÃ©k": 3469,
      "Ġfer": 3470,
      "ĠshÃ¡": 3471,
      "ĠstmÃŃ": 3472,
      "ĠÃ©": 3473,
      "Ġkod": 3474,
      "Ġvpar": 3475,
      "ĠslÃ¡s": 3476,
      "Ġnai": 3477,
      "Ġstlo": 3478,
      "ĠÅ¡ku": 3479,
      "ĠpsÃ¡t": 3480,
      "ĠdiÅ¡": 3481,
      "ĠÅ¾ij": 3482,
      "Ġbas": 3483,
      "Ġbav": 3484,
      "Ġet": 3485,
      "Ġhnou": 3486,
      "ĠkprÃ¡": 3487,
      "Ġsvy": 3488,
      "ĠvÃŃt": 3489,
      "ĠvÅĻes": 3490,
      "Ġroh": 3491,
      "ĠÅĻÃ¡n": 3492,
      "Ġvos": 3493,
      "Ġpus": 3494,
      "Ġhmy": 3495,
      "Ġhel": 3496,
      "Ġlau": 3497,
      "Ġvkout": 3498,
      "Ġcech": 3499,
      "ĠkdÃŃ": 3500,
      "ĠpÅĻil": 3501,
      "ĠbrÃ½m": 3502,
      "Ġvzpou": 3503,
      "Ġvtma": 3504,
      "Ġkhro": 3505,
      "Ġstiv": 3506,
      "Ġplam": 3507,
      "ĠtiÅ¾": 3508,
      "Ġzpou": 3509,
      "ĠsÅĪ": 3510,
      "Ġhev": 3511,
      "Ġboun": 3512,
      "Ġkslun": 3513,
      "ĠdrÅ¾": 3514,
      "ĠlÅ¾ÃŃ": 3515,
      "ĠksmÃŃ": 3516,
      "ĠtvÃŃch": 3517,
      "Ġkvla": 3518,
      "ĠvkvÄĽt": 3519,
      "Ġmund": 3520,
      "Ġrab": 3521,
      "Ġfou": 3522,
      "Ġvplen": 3523,
      "Ġrot": 3524,
      "ĠrÃ¡ÅĻ": 3525,
      "Ġslek": 3526,
      "ĠsÅ¾e": 3527,
      "ĠnÃ¡Äį": 3528,
      "ĠhÃ¡v": 3529,
      "ĠctÄĽ": 3530,
      "ĠkÄįi": 3531,
      "Ġvoz": 3532,
      "Ġmlh": 3533,
      "ĠvklÃ¡": 3534,
      "ĠÅ¡tvÃ¡": 3535,
      "Ġlly": 3536,
      "Ġrys": 3537,
      "Ġam": 3538,
      "ĠnÃ©Äį": 3539,
      "ĠdÃ³": 3540,
      "Ġvcha": 3541,
      "ĠrÅ¯Å¾": 3542,
      "ĠspÅĻÃŃ": 3543,
      "ĠvprÃ¡z": 3544,
      "Ġfon": 3545,
      "ĠÄįiÅ¡": 3546,
      "Ġchan": 3547,
      "Ġcvi": 3548,
      "Ġsop": 3549,
      "Ġmej": 3550,
      "Ġvsnech": 3551,
      "Ġlout": 3552,
      "ĠsmÃŃm": 3553,
      "re": 3554,
      "ĠkaÅ¡": 3555,
      "ĠvÃ½z": 3556,
      "ĠÅ¾ert": 3557,
      "ĠsÃ¡ch": 3558,
      "ĠchÃ¡z": 3559,
      "ĠstÃ½ÅĻ": 3560,
      "ĠstÅĻ": 3561,
      "Ġdeb": 3562,
      "ĠÄįiÄį": 3563,
      "Ġvzhled": 3564,
      "ĠABC": 3565,
      "Ġzpla": 3566,
      "ĠstrÃ¡ÅĪ": 3567,
      "Ġkvap": 3568,
      "Ġzly": 3569,
      "ĠdÅ¾b": 3570,
      "Ġchrem": 3571,
      "ĠdeÅĻ": 3572,
      "ĠpÄĽn": 3573,
      "ĠpiÄį": 3574,
      "ĠbÃ¡n": 3575,
      "Ġdvoj": 3576,
      "ĠtÃŃc": 3577,
      "Ġvnes": 3578,
      "ĠstÃ¡n": 3579,
      "ĠlhÃ¡": 3580,
      "Ġstrov": 3581,
      "ĠhÅĻmo": 3582,
      "ĠvsvÃ½ch": 3583,
      "Ġgen": 3584,
      "ĠÅ¥te": 3585,
      "ĠÅ¾va": 3586,
      "ĠkaÅĻ": 3587,
      "ĠvhouÅ¡": 3588,
      "ĠlÃ©t": 3589,
      "Ġzbled": 3590,
      "ĠnitÅĻ": 3591,
      "ĠzlÃ¡s": 3592,
      "Ġvzlyk": 3593,
      "ĠvkrÃ¡t": 3594,
      "Ġpri": 3595,
      "Ġkvr": 3596,
      "Ġbre": 3597,
      "Ġtsk": 3598,
      "Ġnar": 3599,
      "Ġsroz": 3600,
      "Ġschy": 3601,
      "ĠzÄį": 3602,
      "Ġzlob": 3603,
      "ĠÅ¾iÄį": 3604,
      "Ġzvr": 3605,
      "ĠÅ¡ka": 3606,
      "Ġcle": 3607,
      "Ġshor": 3608,
      "Ġdluh": 3609,
      "Ġtar": 3610,
      "Ġvprav": 3611,
      "Ġtrok": 3612,
      "Ġzrn": 3613,
      "Ġzdlou": 3614,
      "ĠÅĻiÄį": 3615,
      "ĠznÃŃt": 3616,
      "ĠtuÄį": 3617,
      "ĠtuÅ¥": 3618,
      "ĠlÃŃÅĻ": 3619,
      "Ġmhou": 3620,
      "ĠdlÃ½m": 3621,
      "ĠkÃ¡s": 3622,
      "Ġvmla": 3623,
      "Ġjev": 3624,
      "ĠÅ¡kol": 3625,
      "ĠskrÃ½Å¡": 3626,
      "Ġflo": 3627,
      "ĠvznÃ©": 3628,
      "ĠkhvÄĽz": 3629,
      "ĠhÃ¡Äį": 3630,
      "ĠvsmÃŃ": 3631,
      "Ġmur": 3632,
      "Ġvhor": 3633,
      "Ġvnuk": 3634,
      "ĠvaÅ¾": 3635,
      "ĠvdÅ¯": 3636,
      "Ġvspo": 3637,
      "ĠvÅ¡tÄĽ": 3638,
      "ĠvlaÅ¾": 3639,
      "Ġstvem": 3640,
      "ĠtÅĻti": 3641,
      "Ġdrah": 3642,
      "ĠzvÅ¯": 3643,
      "Ġshni": 3644,
      "Ġplul": 3645,
      "Ġnis": 3646,
      "ĠmÅ¡i": 3647,
      "Ġzach": 3648,
      "ĠtÄĽr": 3649,
      "ĠzblÃŃz": 3650,
      "Ġvlk": 3651,
      "Ġsedm": 3652,
      "ĠÄįÃŃc": 3653,
      "Ġmer": 3654,
      "Ġzkro": 3655,
      "Ġdlesk": 3656,
      "ĠvztÃ½": 3657,
      "Ġzez": 3658,
      "ĠÄįap": 3659,
      "ĠsnÃ©": 3660,
      "ĠdrÃ©m": 3661,
      "ĠstmÄĽ": 3662,
      "ĠrvÃ¡t": 3663,
      "ĠzÃ¡k": 3664,
      "ĠstlÃ¡": 3665,
      "ĠhrÃ¡z": 3666,
      "ĠsÅĪa": 3667,
      "Ġpach": 3668,
      "Ġviv": 3669,
      "Ġjun": 3670,
      "ĠspouÅ¡": 3671,
      "Ġnah": 3672,
      "Ġdri": 3673,
      "Ġ22": 3674,
      "ĠvyÅĻ": 3675,
      "ĠvÃŃd": 3676,
      "Ġvzda": 3677,
      "ĠbÃ½m": 3678,
      "ĠnouÅ¥": 3679,
      "Ġsbra": 3680,
      "ĠpÅĻÃŃt": 3681,
      "ĠzmÃ©": 3682,
      "ĠspÄĽj": 3683,
      "ĠhÅĻÃŃÄį": 3684,
      "vÃ½m": 3685,
      "ĠÅĻve": 3686,
      "Ġdout": 3687,
      "Ġkrej": 3688,
      "Ġhos": 3689,
      "Ġbah": 3690,
      "Ġpiv": 3691,
      "ĠvnoÄį": 3692,
      "ĠvÃ¡k": 3693,
      "ĠÅĻÃŃk": 3694,
      "Ġzdy": 3695,
      "Ġplen": 3696,
      "ĠradÅ¡": 3697,
      "Ġtha": 3698,
      "Ġzik": 3699,
      "ĠmÃŃst": 3700,
      "Ġvchlad": 3701,
      "ĠmÃ¡Å¾": 3702,
      "ĠkmÄĽ": 3703,
      "Ġschu": 3704,
      "ĠbÅĻit": 3705,
      "ĠsÅĻÃŃ": 3706,
      "Ġdep": 3707,
      "Ġstop": 3708,
      "Ġat": 3709,
      "Ġmic": 3710,
      "Ġzbou": 3711,
      "ĠvztÃ¡h": 3712,
      "Ġvsu": 3713,
      "Ġvsled": 3714,
      "ĠbÃŃn": 3715,
      "Ġbyls": 3716,
      "ĠpÅĻa": 3717,
      "Ġsah": 3718,
      "Ġvrab": 3719,
      "Ġsok": 3720,
      "ĠdlaÅ¾": 3721,
      "ĠknÃ½": 3722,
      "Ġlvi": 3723,
      "ĠÅĻej": 3724,
      "Ġkvy": 3725,
      "ĠvmÃ½ch": 3726,
      "ĠÅ¡kÅ¯d": 3727,
      "ĠÄıar": 3728,
      "Ġchoun": 3729,
      "Ġprst": 3730,
      "ĠpÃ¡m": 3731,
      "vÃ½ch": 3732,
      "Ġsin": 3733,
      "ĠABB": 3734,
      "Ġvdru": 3735,
      "ĠtÅĻen": 3736,
      "ĠdÄĽk": 3737,
      "ĠAAAA": 3738,
      "ĠktÄĽm": 3739,
      "ĠvyÄį": 3740,
      "Ġgli": 3741,
      "ĠdvÃ¡b": 3742,
      "ĠtrÃ©": 3743,
      "Ġsvaz": 3744,
      "Ġtvol": 3745,
      "Ġzhor": 3746,
      "Ġplout": 3747,
      "Ġpech": 3748,
      "Ġbij": 3749,
      "Ġzkra": 3750,
      "ĠvzpÅĻÃŃ": 3751,
      "ĠtÄĽk": 3752,
      "ĠÄįou": 3753,
      "ĠsÃŃÅ¥": 3754,
      "ĠfÃ¡m": 3755,
      "ĠvÅĻen": 3756,
      "ĠAXABBX": 3757,
      "ĠpasÅ¥": 3758,
      "Ġrag": 3759,
      "nul": 3760,
      "ĠzÅ¡e": 3761,
      "ĠvnÄĽÅ¾": 3762,
      "Ġkyn": 3763,
      "Ġtho": 3764,
      "ĠrÅ¯v": 3765,
      "Ġem": 3766,
      "Ġvtis": 3767,
      "Ġvlou": 3768,
      "ĠbÃ½ch": 3769,
      "ĠcÃ½m": 3770,
      "Ġsval": 3771,
      "Ġuj": 3772,
      "Ġmoj": 3773,
      "Ġmam": 3774,
      "ĠÄįÃŃk": 3775,
      "ĠÅ¡iÄį": 3776,
      "Ġvdlou": 3777,
      "ĠÄįat": 3778,
      "ĠzÃ¡c": 3779,
      "ĠdliÄį": 3780,
      "ĠnÃŃc": 3781,
      "Ġzvla": 3782,
      "Ġvzruch": 3783,
      "ĠstÅĻech": 3784,
      "ĠABABBX": 3785,
      "Ġhus": 3786,
      "ĠvpÅ¯l": 3787,
      "ĠvÅĻi": 3788,
      "ĠsteÄį": 3789,
      "ĠvsÃŃÅĪ": 3790,
      "Ġspod": 3791,
      "ĠÄįlun": 3792,
      "Ġkob": 3793,
      "ĠteÅ¾": 3794,
      "ĠÅ¡ev": 3795,
      "ĠvspÄĽ": 3796,
      "Ġryl": 3797,
      "ĠzÅĻej": 3798,
      "Ġvsko": 3799,
      "ĠbÃ¡k": 3800,
      "Ġvprv": 3801,
      "ĠpÅĻen": 3802,
      "Ġvsen": 3803,
      "Ġzmoc": 3804,
      "ĠpeÅĪ": 3805,
      "ĠpsÃŃ": 3806,
      "ĠsÅ¡": 3807,
      "ĠvÅ¾e": 3808,
      "ĠspÃŃs": 3809,
      "Ġpso": 3810,
      "Ġstisk": 3811,
      "ĠbuÅ¥": 3812,
      "Ġrep": 3813,
      "ĠtrÅ¯m": 3814,
      "ĠvjÃŃ": 3815,
      "ĠÄįed": 3816,
      "ĠsmÄĽr": 3817,
      "Ġmdle": 3818,
      "Ġkpr": 3819,
      "ĠtvÃŃm": 3820,
      "Ġvkni": 3821,
      "ĠXAAXBB": 3822,
      "Ġsz": 3823,
      "Ġex": 3824,
      "Ġpsi": 3825,
      "ĠjlÃŃp": 3826,
      "ĠspÃ¡r": 3827,
      "Ġznej": 3828,
      "ĠzÅ¾": 3829,
      "Ġeh": 3830,
      "ĠÄįerv": 3831,
      "Ġlkal": 3832,
      "Ġbot": 3833,
      "Ġpsy": 3834,
      "ĠmrÃ¡Äį": 3835,
      "ĠXAAA": 3836,
      "Ġsvod": 3837,
      "Ġvstro": 3838,
      "ĠÅ¾in": 3839,
      "Ġglo": 3840,
      "Ġpic": 3841,
      "ĠschrÃ¡": 3842,
      "ĠceÅ¡": 3843,
      "Ġmos": 3844,
      "ĠrÃ¡b": 3845,
      "Ġvmr": 3846,
      "Ġdul": 3847,
      "Ġger": 3848,
      "Ġvlok": 3849,
      "ĠsmeÄį": 3850,
      "nÃ½": 3851,
      "ĠtÃŃh": 3852,
      "Ġssa": 3853,
      "Ġab": 3854,
      "ĠÅ¡ou": 3855,
      "Ġpust": 3856,
      "Ġvha": 3857,
      "ĠÅ¡ik": 3858,
      "ĠjÅ¯m": 3859,
      "Ġthu": 3860,
      "Ġvly": 3861,
      "ĠkÅĻep": 3862,
      "ĠÅ¾ol": 3863,
      "ĠzvÃ¡n": 3864,
      "ĠfÅ¯": 3865,
      "Ġzlil": 3866,
      "ĠÃ¡Å¡": 3867,
      "ĠhÅĻi": 3868,
      "Ġland": 3869,
      "Ġzleh": 3870,
      "ĠvsÃ¡": 3871,
      "Ġvnez": 3872,
      "ĠstvÅ¯": 3873,
      "Ġpyt": 3874,
      "Ġsdo": 3875,
      "ĠslÅ¯v": 3876,
      "Ġpost": 3877,
      "ĠptÃ¡t": 3878,
      "ĠÅ¾hnou": 3879,
      "Ġram": 3880,
      "Ġvtmu": 3881,
      "ĠÅ¡pÃŃ": 3882,
      "Ġvv": 3883,
      "ĠlkÃ¡t": 3884,
      "ĠhrÃ¡m": 3885,
      "ĠspÃ¡d": 3886,
      "ĠÅ¡Å¥Ã¡": 3887,
      "Ġtvu": 3888,
      "ĠjÃŃst": 3889,
      "Ġzvad": 3890,
      "Ġhoum": 3891,
      "ĠzkÅĻi": 3892,
      "ĠdaÅĪ": 3893,
      "ĠstiÄį": 3894,
      "Ġim": 3895,
      "Ġvslo": 3896,
      "Ġvtru": 3897,
      "ĠvtÃ¡": 3898,
      "ĠgÃ¡": 3899,
      "Ġsrp": 3900,
      "ĠÅ¡Ã¡r": 3901,
      "Ġmly": 3902,
      "Ġsji": 3903,
      "ĠhÅĻbet": 3904,
      "Ġhov": 3905,
      "ĠvhnÄĽ": 3906,
      "ĠcÃ©": 3907,
      "Ġric": 3908,
      "ĠÄįli": 3909,
      "Ġprot": 3910,
      "Ġzmd": 3911,
      "Ġcouz": 3912,
      "Ġcher": 3913,
      "Ġdrak": 3914,
      "ĠzvÄĽsÅ¥": 3915,
      "Ġpous": 3916,
      "Ġvdech": 3917,
      "Ġrouc": 3918,
      "Ġzvod": 3919,
      "Ġshas": 3920,
      "Ġdlen": 3921,
      "ĠbdÄĽl": 3922,
      "Ġksk": 3923,
      "ĠzaÅ¡": 3924,
      "ĠdvÃ¡Å¾": 3925,
      "Ġbab": 3926,
      "XAX": 3927,
      "Ġcnost": 3928,
      "Ġzhra": 3929,
      "Ġvznik": 3930,
      "ĠstlÃ©": 3931,
      "Ġklec": 3932,
      "Ġnald": 3933,
      "ĠsÅ¾": 3934,
      "ĠAAXXBB": 3935,
      "ĠhlÃ©m": 3936,
      "ĠdrÅ¯": 3937,
      "pÃŃ": 3938,
      "ĠtoÄį": 3939,
      "Ġnud": 3940,
      "Ġvzad": 3941,
      "Ġvpoz": 3942,
      "ĠvzchÃ¡": 3943,
      "yt": 3944,
      "ĠÄįÅ¯m": 3945,
      "ĠÅ¡ÃŃk": 3946,
      "ĠzmlÃ¡": 3947,
      "Ġmout": 3948,
      "Ġsliv": 3949,
      "Ġksou": 3950,
      "ĠtlÃ©m": 3951,
      "ĠÅ¾eÅ¥": 3952,
      "Ġsnah": 3953,
      "Ġchry": 3954,
      "ĠvÄįÃŃ": 3955,
      "ĠctnÃ©": 3956,
      "Ġzob": 3957,
      "Ġzjed": 3958,
      "ĠkmÃ©": 3959,
      "ĠpruÅ¾": 3960,
      "Ġzmlk": 3961,
      "Ġmag": 3962,
      "Ġhed": 3963,
      "Ġson": 3964,
      "ĠsÅ¾i": 3965,
      "ĠÅ¡ti": 3966,
      "Ġlha": 3967,
      "Ġzci": 3968,
      "Ġvzta": 3969,
      "ĠsfÃ©": 3970,
      "ĠliÅ¾": 3971,
      "Ġrub": 3972,
      "Ġtrn": 3973,
      "ĠvkÅĻe": 3974,
      "ĠvmÅ¾i": 3975,
      "ĠsnÄĽt": 3976,
      "Ġbyv": 3977,
      "Ġvzrak": 3978,
      "ĠlvÃŃ": 3979,
      "ĠÅ¾ra": 3980,
      "ĠztvÃ½ch": 3981,
      "ĠverÅ¡": 3982,
      "Ġfle": 3983,
      "Ġfej": 3984,
      "ĠvrÃ½": 3985,
      "ĠzlÅ¯": 3986,
      "ĠÅ¡piÄį": 3987,
      "ĠbÅĻeÄį": 3988,
      "Ġvlek": 3989,
      "ĠhnÃ¡t": 3990,
      "ĠvtvÃ½ch": 3991,
      "Ġmok": 3992,
      "ĠÅ¾id": 3993,
      "Ġstvol": 3994,
      "ĠcÃŃÅĻ": 3995,
      "ĠzdÅĻÃŃ": 3996,
      "Ġsluj": 3997,
      "Ġdaj": 3998,
      "Ġeu": 3999,
      "ĠmÅ¯r": 4000,
      "ĠstÃ¡h": 4001,
      "Ġschop": 4002,
      "ĠÅ¡va": 4003,
      "ĠflÃ©": 4004,
      "ĠuÄį": 4005,
      "ĠpÅĻeÄį": 4006,
      "Ġhrej": 4007,
      "ĠhoÄı": 4008,
      "ĠÅ¾Ã¡k": 4009,
      "cÅ¯": 4010,
      "Ġgar": 4011,
      "Ġloun": 4012,
      "Ġzhla": 4013,
      "ri": 4014,
      "ĠpÅ¯t": 4015,
      "ĠsÅ¯v": 4016,
      "ĠlÃŃn": 4017,
      "Ġhnul": 4018,
      "Ġoct": 4019,
      "ĠÅ¯": 4020,
      "ĠdaÅĻ": 4021,
      "ĠhÅĻbe": 4022,
      "Ġzpl": 4023,
      "ĠdÅ¯l": 4024,
      "ĠÅ¡ÅĪ": 4025,
      "Ġchval": 4026,
      "ĠhÅ¯ÅĻ": 4027,
      "Ġvjar": 4028,
      "ĠdlÃ©m": 4029,
      "ĠÃŃch": 4030,
      "ĠvdlaÅĪ": 4031,
      "Ġnaiv": 4032,
      "ĠtosÅ¥": 4033,
      "ĠtÃŃÄį": 4034,
      "ĠÄįÃŃt": 4035,
      "Ġzbor": 4036,
      "Ġtb": 4037,
      "ĠÅ¡els": 4038,
      "Ġvg": 4039,
      "Ġpja": 4040,
      "Ġvpad": 4041,
      "Ġbloud": 4042,
      "Ġchm": 4043,
      "ĠnuÅ¡": 4044,
      "Ġvzou": 4045,
      "Ġvsla": 4046,
      "Ġstrop": 4047,
      "Ġ23": 4048,
      "Ġvska": 4049,
      "Ġznik": 4050,
      "ĠkosÅ¥": 4051,
      "Ġzmy": 4052,
      "ny": 4053,
      "Ġsvra": 4054,
      "Ġbrav": 4055,
      "Ġbost": 4056,
      "ĠzpÅĻe": 4057,
      "ĠsÄįÃŃ": 4058,
      "kÃ¡": 4059,
      "Ġpoch": 4060,
      "ĠÅ¡lel": 4061,
      "ĠchlÃ½m": 4062,
      "Ġzkte": 4063,
      "Ġvchu": 4064,
      "ĠXAABXB": 4065,
      "ĠtrÃ¡v": 4066,
      "ĠstÅĻem": 4067,
      "ĠtkvÄĽ": 4068,
      "Ġkbla": 4069,
      "ĠvrÃ¡j": 4070,
      "ĠdÅ¡": 4071,
      "ĠÅ¾nÃŃ": 4072,
      "Ġrud": 4073,
      "ĠÅ¾ÃŃn": 4074,
      "Ġzdvo": 4075,
      "Ġup": 4076,
      "Ġboh": 4077,
      "Ġzbar": 4078,
      "Ġzisk": 4079,
      "Ġsklen": 4080,
      "Ġsfin": 4081,
      "ĠrÃ¡Äį": 4082,
      "ĠpÃ½ch": 4083,
      "ĠhÃ¡n": 4084,
      "Ġmlat": 4085,
      "ĠztvÃ©": 4086,
      "ĠkbÅĻe": 4087,
      "ĠdbÃ¡": 4088,
      "ĠÅ¾Å¯m": 4089,
      "ĠpleÅ¥": 4090,
      "Ġkrk": 4091,
      "Ġchop": 4092,
      "ĠnÃŃt": 4093,
      "Ġhout": 4094,
      "ĠklÃ¡s": 4095,
      "ĠÅ¡Ã¡t": 4096,
      "Ġtol": 4097,
      "ĠvÃ¡t": 4098,
      "ĠÅĻvou": 4099,
      "Ġskem": 4100,
      "ĠbÅĻÃŃz": 4101,
      "Ġchov": 4102,
      "ĠdrÅ¯m": 4103,
      "Ġkslu": 4104,
      "Ġfat": 4105,
      "Ġket": 4106,
      "ĠvtÃ½": 4107,
      "ĠkrÃ©": 4108,
      "Ġtet": 4109,
      "Ġouz": 4110,
      "Ġztmy": 4111,
      "Ġzf": 4112,
      "ĠzdÃ¡r": 4113,
      "Ġvsy": 4114,
      "Ġsor": 4115,
      "Ġsklon": 4116,
      "Ġklel": 4117,
      "ĠskÅĻek": 4118,
      "Ġseh": 4119,
      "ĠvtÅ¯": 4120,
      "ĠshlÃ©d": 4121,
      "ĠoÅĻ": 4122,
      "Ġhouf": 4123,
      "Ġtram": 4124,
      "Ġmes": 4125,
      "Ġbuz": 4126,
      "Ġjes": 4127,
      "ĠzÃ¡r": 4128,
      "ĠpÃ¡Å¾": 4129,
      "ĠdnÃ½m": 4130,
      "ĠzÃ©": 4131,
      "Ġmyr": 4132,
      "Ġkhla": 4133,
      "Ġvrhl": 4134,
      "ĠktvÃ©": 4135,
      "Ġment": 4136,
      "ĠkdÄĽ": 4137,
      "ĠstvÃ½": 4138,
      "Ġhrd": 4139,
      "ĠniÅ¥": 4140,
      "ĠbÄĽÅ¾": 4141,
      "es": 4142,
      "ĠstÄĽj": 4143,
      "Ġzven": 4144,
      "ĠmÃ³": 4145,
      "Ġzc": 4146,
      "Ġruj": 4147,
      "Ġsol": 4148,
      "ĠblÃ¡Äį": 4149,
      "ĠvzlÃ©t": 4150,
      "Ġjho": 4151,
      "ĠsplÃŃ": 4152,
      "Ġcim": 4153,
      "Ġsvel": 4154,
      "ĠtÃ½d": 4155,
      "ĠbÃ¡v": 4156,
      "Ġzrad": 4157,
      "Ġwa": 4158,
      "Ġdis": 4159,
      "Ġstvou": 4160,
      "ĠshvÄĽz": 4161,
      "Ġstyd": 4162,
      "ĠpÃ½r": 4163,
      "ĠÄįtu": 4164,
      "Ġkrb": 4165,
      "ĠhÅĻÃ¡t": 4166,
      "ĠvÃ½h": 4167,
      "ĠhÃ½Äį": 4168,
      "Ġtkal": 4169,
      "Ġnejv": 4170,
      "ĠbloÅĪ": 4171,
      "Ġgon": 4172,
      "ĠstÃ¡d": 4173,
      "ĠbylÅ¥": 4174,
      "Ġthy": 4175,
      "Ġchar": 4176,
      "Ġmnoh": 4177,
      "Ġvdol": 4178,
      "Ġdvih": 4179,
      "Ġsci": 4180,
      "Ġrum": 4181,
      "Ġhvizd": 4182,
      "ĠmÅĻi": 4183,
      "ĠmÅ¯m": 4184,
      "Ġmuch": 4185,
      "Ġvuj": 4186,
      "ĠkslÃ¡": 4187,
      "Ġxi": 4188,
      "ĠzÅ¾e": 4189,
      "ĠvÃ¡ÅĻ": 4190,
      "ĠskloÅĪ": 4191,
      "Ġnym": 4192,
      "Ġther": 4193,
      "ĠzÅ¾i": 4194,
      "Ġnoh": 4195,
      "Ġproz": 4196,
      "ĠcÃ¡r": 4197,
      "ĠpÅĻim": 4198,
      "ĠblaÄį": 4199,
      "ĠstaÅ¥": 4200,
      "Ġzroz": 4201,
      "ĠjvÃ½": 4202,
      "ĠbÅ¯m": 4203,
      "Ġosm": 4204,
      "Ġtrhl": 4205,
      "ĠvkrÃ¡s": 4206,
      "lÃ½m": 4207,
      "ĠÅ¥Ã¡t": 4208,
      "ĠkÅĻÃ¡": 4209,
      "ABC": 4210,
      "Ġbud": 4211,
      "Ġvklid": 4212,
      "Ġvzkaz": 4213,
      "ĠABCABC": 4214,
      "Ġzkru": 4215,
      "ĠrvÃ¡": 4216,
      "Ġvouk": 4217,
      "Ġkur": 4218,
      "ĠkrÃ¡m": 4219,
      "ĠbrÅ¯": 4220,
      "ĠkmÃŃ": 4221,
      "Ġkvet": 4222,
      "Ġcuj": 4223,
      "ĠÅ¡ÃŃc": 4224,
      "ĠstrÃ½c": 4225,
      "XXB": 4226,
      "ĠÅĻeh": 4227,
      "ĠkpÃ¡": 4228,
      "Ġvrod": 4229,
      "ĠvskrÃ¡": 4230,
      "ĠvÅĻÃŃn": 4231,
      "ĠhÅĻmot": 4232,
      "Ġuh": 4233,
      "ĠlÃ¡v": 4234,
      "ĠzvÃ¡t": 4235,
      "ĠschÅ¯": 4236,
      "Ġroc": 4237,
      "ĠpÃ¡t": 4238,
      "ĠchrÅ¯": 4239,
      "Ġuv": 4240,
      "ĠmstÃŃ": 4241,
      "XXX": 4242,
      "Ġzmla": 4243,
      "Ġvyl": 4244,
      "ĠshrÅ¯": 4245,
      "Ġmant": 4246,
      "Ġgol": 4247,
      "ĠÅ¡tvÃ¡n": 4248,
      "ĠÅĻk": 4249,
      "ĠpÅĻip": 4250,
      "ĠziÄį": 4251,
      "ĠstrÃ©m": 4252,
      "ĠvÅ¡ÃŃÅĻ": 4253,
      "ĠAXABXB": 4254,
      "Ġblys": 4255,
      "ĠtÃŃn": 4256,
      "ĠlouÄį": 4257,
      "Ġzok": 4258,
      "ĠbÃ¡ÅĪ": 4259,
      "Ġkrat": 4260,
      "ĠpÃ³": 4261,
      "Ġseb": 4262,
      "ĠÅĻÅ¯m": 4263,
      "Ġdos": 4264,
      "Ġvzdal": 4265,
      "ĠABACCB": 4266,
      "ĠÅ¡ar": 4267,
      "ĠvblÃ¡": 4268,
      "ĠpÃ½m": 4269,
      "Ġsez": 4270,
      "Ġmrt": 4271,
      "ĠstlÃ½": 4272,
      "ÅĻo": 4273,
      "Ġvpi": 4274,
      "ĠkvÄĽl": 4275,
      "ĠnnÃŃch": 4276,
      "ĠvbÃ¡z": 4277,
      "Ġdme": 4278,
      "ĠchoÄı": 4279,
      "ĠdveÅĻ": 4280,
      "Ġkdru": 4281,
      "ĠÅĻÃŃÅ¾": 4282,
      "ĠtnÄĽ": 4283,
      "Ġhve": 4284,
      "Ġruk": 4285,
      "Ġvchod": 4286,
      "ĠcvÃ¡": 4287,
      "Ġstlu": 4288,
      "ĠÅĻva": 4289,
      "ĠzÅ¡": 4290,
      "ĠÅ¡ej": 4291,
      "ĠÅĻez": 4292,
      "ĠpatÅĻ": 4293,
      "ĠlÃ¡z": 4294,
      "Ġbul": 4295,
      "ĠzÃ¡n": 4296,
      "Ġpte": 4297,
      "Ġzvra": 4298,
      "ĠvhnÃŃz": 4299,
      "ĠvzpÄĽ": 4300,
      "Ġsvist": 4301,
      "ĠcÃŃÅ¡": 4302,
      "ĠhnÃ¡n": 4303,
      "ĠmÃ¡Äį": 4304,
      "ĠÅ¾ÃŃc": 4305,
      "ĠluÄį": 4306,
      "Ġvsvo": 4307,
      "ĠÅĪÃ¡t": 4308,
      "ĠklÃ½m": 4309,
      "ĠÅ¡kr": 4310,
      "Ġvbuj": 4311,
      "ĠÅĻval": 4312,
      "ĠpÅĻev": 4313,
      "ĠdÅĻich": 4314,
      "ĠpraÅ¾": 4315,
      "Ġvdra": 4316,
      "Ġvkla": 4317,
      "Ġblah": 4318,
      "Ġtuh": 4319,
      "ĠbÃŃÅ¡": 4320,
      "Ġzdej": 4321,
      "ĠvÃºz": 4322,
      "Ġpon": 4323,
      "ĠÅĻÃŃÄį": 4324,
      "ĠvjÃ¡": 4325,
      "ĠvstÃŃn": 4326,
      "Ġhles": 4327,
      "ĠprÅ¡": 4328,
      "ĠmyÅ¡": 4329,
      "Ġdrc": 4330,
      "ĠtÅ¯ÅĪ": 4331,
      "Ġvkap": 4332,
      "Ġsbe": 4333,
      "Ġzol": 4334,
      "ĠmÃ¡ÅĻ": 4335,
      "Ġhub": 4336,
      "Ġvhe": 4337,
      "Ġvtan": 4338,
      "Ġhav": 4339,
      "ĠvrÅ¡": 4340,
      "ĠdeÅ¡Å¥": 4341,
      "ĠÄįesÅ¥": 4342,
      "Ġkvou": 4343,
      "ĠvkrÄį": 4344,
      "ĠÅ¾ed": 4345,
      "Ġkroz": 4346,
      "Ġsrn": 4347,
      "Ġtah": 4348,
      "Ġmod": 4349,
      "ĠjaÅĻ": 4350,
      "Ġbuch": 4351,
      "ĠvstrÃ¡": 4352,
      "Ġtrysk": 4353,
      "Ġzme": 4354,
      "Ġvleb": 4355,
      "ĠÅ¾ur": 4356,
      "Ġjmen": 4357,
      "Ġhyz": 4358,
      "ĠvÄįes": 4359,
      "ĠvÃºs": 4360,
      "ĠflÃ©t": 4361,
      "ĠjÃŃn": 4362,
      "Ġprac": 4363,
      "Ġvzpja": 4364,
      "Ġpop": 4365,
      "ĠplÃ¡n": 4366,
      "ĠplÃŃs": 4367,
      "ĠzkrÃ¡t": 4368,
      "Å¡ech": 4369,
      "Ġcep": 4370,
      "ĠmÅĻÃŃÅ¾": 4371,
      "ĠÅ¡kleb": 4372,
      "Ġgyp": 4373,
      "ĠproÅĪ": 4374,
      "Ġrav": 4375,
      "ĠzbÃ¡": 4376,
      "Ġkmat": 4377,
      "ĠchÃ¡n": 4378,
      "ĠlaÅ¥": 4379,
      "Ġnim": 4380,
      "ĠÅ¡lÃ¡p": 4381,
      "Ġproj": 4382,
      "ĠstrÃ¡n": 4383,
      "Ġsdi": 4384,
      "ĠtmÄĽl": 4385,
      "ĠzkaÅ¾": 4386,
      "Ġhnout": 4387,
      "pÄĽ": 4388,
      "ĠtyÄį": 4389,
      "Ġstre": 4390,
      "ĠslÃ¡v": 4391,
      "ĠdvÄĽd": 4392,
      "Ġchout": 4393,
      "ĠvchrÃ¡m": 4394,
      "Ġtum": 4395,
      "Ġbet": 4396,
      "Ġvbr": 4397,
      "Ġdba": 4398,
      "Ġdals": 4399,
      "Ġtroj": 4400,
      "ĠdÅĻev": 4401,
      "Ġkhra": 4402,
      "Ġhmyz": 4403,
      "ĠztmÄĽ": 4404,
      "Ġsai": 4405,
      "Ġschla": 4406,
      "ĠpÅĻÃ¡t": 4407,
      "ĠpÅ¡e": 4408,
      "Ġnuz": 4409,
      "ĠkÃ¡r": 4410,
      "ĠvhrÅ¯": 4411,
      "ĠptÃ¡Å¡": 4412,
      "Ġkbra": 4413,
      "ĠchlÃ½ch": 4414,
      "Ġnva": 4415,
      "ĠkaÄį": 4416,
      "Ġlob": 4417,
      "Ġris": 4418,
      "Ġvnic": 4419,
      "Ġzoun": 4420,
      "ĠskoÄį": 4421,
      "ĠchÅ¯v": 4422,
      "Ġhot": 4423,
      "ĠdoÅ¡": 4424,
      "Ġvzr": 4425,
      "ĠflÃŃ": 4426,
      "ĠplÅĪ": 4427,
      "Ġmrs": 4428,
      "ĠsviÅ¥": 4429,
      "Ġhloh": 4430,
      "ĠjakÅ¾": 4431,
      "ĠXAXAXA": 4432,
      "ĠkvÄĽÄį": 4433,
      "Ġpin": 4434,
      "ĠzlÃ©m": 4435,
      "Ġad": 4436,
      "Ġdor": 4437,
      "ĠpÃŃÄı": 4438,
      "ĠÅ¡pr": 4439,
      "ĠsÄįer": 4440,
      "ĠzvÅ¡e": 4441,
      "ĠÅĻiv": 4442,
      "ĠptÃ½": 4443,
      "ĠslÃ½ch": 4444,
      "ĠpsÅ¯": 4445,
      "ĠkÅĪa": 4446,
      "Ġcid": 4447,
      "Ġklep": 4448,
      "ĠÅ¡tÄĽp": 4449,
      "ĠtÃŃl": 4450,
      "Ġsis": 4451,
      "ĠslasÅ¥": 4452,
      "Ġzis": 4453,
      "Ġpud": 4454,
      "ĠdlÃŃÅ¡": 4455,
      "ĠvprÅ¯": 4456,
      "ĠblyÅ¡": 4457,
      "ĠÅĻat": 4458,
      "Ġslet": 4459,
      "Ġvrak": 4460,
      "Ġchme": 4461,
      "ĠsaÅĪ": 4462,
      "ĠpÅ¯m": 4463,
      "ĠteÅ¡": 4464,
      "ĠÅ¾at": 4465,
      "ĠsÃŃt": 4466,
      "Ġpark": 4467,
      "Ġzdep": 4468,
      "ĠsnÅ¯v": 4469,
      "ĠdluÅ¾": 4470,
      "lem": 4471,
      "Ġsvad": 4472,
      "Ġzub": 4473,
      "Ã¶": 4474,
      "Ġdur": 4475,
      "ĠlÃ©Äį": 4476,
      "Ġzoh": 4477,
      "Ġhluch": 4478,
      "dÄĽ": 4479,
      "ĠnÃŃn": 4480,
      "Ġvmd": 4481,
      "Ġkse": 4482,
      "ĠbÃ½Å¥": 4483,
      "ĠABACBC": 4484,
      "ĠAAXBXB": 4485,
      "ĠsdÄĽt": 4486,
      "Ġkuj": 4487,
      "Ġzplo": 4488,
      "ĠssÃ¡l": 4489,
      "Ġskep": 4490,
      "ĠvznÃ©st": 4491,
      "ĠsmÄĽj": 4492,
      "ĠbraÅĪ": 4493,
      "ĠvzdÃ¡t": 4494,
      "Ġvkom": 4495,
      "ĠpeÅ¡": 4496,
      "Ġrozv": 4497,
      "Ġplot": 4498,
      "Ġsmra": 4499,
      "ĠkÅ¾": 4500,
      "ĠfÃ©": 4501,
      "Ġvzhle": 4502,
      "ĠhÅĻmÄĽl": 4503,
      "ĠÄįlu": 4504,
      "ĠpÄĽsÅ¥": 4505,
      "ĠstÄĽÅ¾": 4506,
      "ĠkplÃ¡": 4507,
      "Ġmun": 4508,
      "Ġplem": 4509,
      "Ġzpoz": 4510,
      "ĠztÄĽÅ¾": 4511,
      "Ġtup": 4512,
      "ĠvblÃŃz": 4513,
      "ĠskaÅ¾": 4514,
      "Ġdak": 4515,
      "ĠÅ¡ÃŃÅĻ": 4516,
      "ĠÅ¾ÃŃr": 4517,
      "ĠABABXB": 4518,
      "ĠpraÅ¡": 4519,
      "Ġfro": 4520,
      "Ġklem": 4521,
      "ĠslÃ©t": 4522,
      "Ġvdiv": 4523,
      "Ġzpit": 4524,
      "mo": 4525,
      "nt": 4526,
      "Ġvbar": 4527,
      "ĠdceÅĻ": 4528,
      "Ġvkus": 4529,
      "Ġmzd": 4530,
      "ĠtÃ¡Å¾": 4531,
      "ĠrÃ©Å¾": 4532,
      "ĠvhvÄĽz": 4533,
      "ĠzdÃ¡v": 4534,
      "ĠvbouÅĻ": 4535,
      "Ġkaj": 4536,
      "ĠlÃ©z": 4537,
      "ĠksvÃ½m": 4538,
      "ĠkÄį": 4539,
      "Ġdci": 4540,
      "ĠÄįla": 4541,
      "Ġvbok": 4542,
      "Ġkja": 4543,
      "ĠABCC": 4544,
      "Ġhlup": 4545,
      "ĠhÅĻmÃŃt": 4546,
      "Ġsjed": 4547,
      "ĠXAA": 4548,
      "Ġzbla": 4549,
      "ĠchvÃŃl": 4550,
      "ĠvskÃ¡": 4551,
      "ĠÅ¾dÃ¡": 4552,
      "Ġlva": 4553,
      "Ġkrm": 4554,
      "Ġfek": 4555,
      "Ġvtak": 4556,
      "Ġplet": 4557,
      "Ġzre": 4558,
      "Ġsus": 4559,
      "ĠsnÃŃmÅ¾": 4560,
      "ĠstÅ¯v": 4561,
      "Ġjav": 4562,
      "Ġvjel": 4563,
      "ĠdÅ¾bÃ¡n": 4564,
      "ĠjvÃ½Å¡": 4565,
      "ĠÅĻÃŃz": 4566,
      "Ġsmat": 4567,
      "ĠÅ¥Ã¡l": 4568,
      "Ġkza": 4569,
      "ĠzvÅ¡ech": 4570,
      "Ġjda": 4571,
      "Ġchleb": 4572,
      "Ġchlum": 4573,
      "ĠbÃ©m": 4574,
      "Ġhop": 4575,
      "ĠskvÄĽl": 4576,
      "Ġvke": 4577,
      "ĠzkvÃŃ": 4578,
      "Ġjaks": 4579,
      "Ġdleh": 4580,
      "ĠÅ¡aÅ¡": 4581,
      "ĠlÅ¾e": 4582,
      "ĠÄįac": 4583,
      "Ġkpro": 4584,
      "ĠklÃ¡st": 4585,
      "ĠpÅĻem": 4586,
      "Ġvzdej": 4587,
      "ĠblÅ¯": 4588,
      "tÃ¡": 4589,
      "Ġvnou": 4590,
      "Ġlod": 4591,
      "ĠsrÅ¯": 4592,
      "Ġplic": 4593,
      "ĠzÃŃr": 4594,
      "Ġzbe": 4595,
      "ĠdÅ¯t": 4596,
      "Ġmdlou": 4597,
      "Ġzboj": 4598,
      "Ġzech": 4599,
      "ĠbeÅ¡": 4600,
      "Ġzpy": 4601,
      "ĠztÃ¡": 4602,
      "ĠsÅ¥": 4603,
      "ĠrÃ¡k": 4604,
      "ĠsnÃŃÅ¾": 4605,
      "Ġrmu": 4606,
      "Ġvzlo": 4607,
      "ĠstiÅ¥": 4608,
      "ĠÅ¾ne": 4609,
      "ĠznÄĽj": 4610,
      "ĠtrÃ¡m": 4611,
      "Ġgri": 4612,
      "ĠmÃ¡c": 4613,
      "ĠAABXB": 4614,
      "ĠdÅĻej": 4615,
      "ĠgÃ¡n": 4616,
      "Ġplec": 4617,
      "ĠzmÄĽÅ¥": 4618,
      "Ġpun": 4619,
      "Ġtrup": 4620,
      "ĠvsvÅ¯j": 4621,
      "ĠdiÅ¥": 4622,
      "Ġslan": 4623,
      "ĠzrÃ¡l": 4624,
      "ĠvzhlÃ©d": 4625,
      "Ġvmoc": 4626,
      "ĠvosÅ¥": 4627,
      "Ġbos": 4628,
      "Ġtrob": 4629,
      "ĠvsmÄĽ": 4630,
      "ĠvpÅĻÃŃÅ¡": 4631,
      "ĠzhÅ¯": 4632,
      "ĠchÅ¯d": 4633,
      "ĠsÃ½m": 4634,
      "ĠchÅĻad": 4635,
      "he": 4636,
      "Ġkum": 4637,
      "Ġtlesk": 4638,
      "Ġvslav": 4639,
      "ĠzrÃ½": 4640,
      "ĠmlÃ©Äį": 4641,
      "Ġsmlou": 4642,
      "ĠkÃ½Å¾": 4643,
      "ol": 4644,
      "ĠkvÃ¡": 4645,
      "Ġstrem": 4646,
      "ĠvtÄĽs": 4647,
      "Ġcva": 4648,
      "Ġproh": 4649,
      "Ġdent": 4650,
      "ĠsbÃ¡": 4651,
      "ĠÅ¡perk": 4652,
      "Ġsouc": 4653,
      "ĠtlÃ½m": 4654,
      "nÅ¯": 4655,
      "Ġsklad": 4656,
      "ĠhouÅ¡Å¥": 4657,
      "Ġztlu": 4658,
      "ĠzkÅĻÃŃ": 4659,
      "Ġdrozd": 4660,
      "Ġprut": 4661,
      "ĠtaÅ¾": 4662,
      "ĠstÃŃÅ¡": 4663,
      "Ġsre": 4664,
      "Ġvhroz": 4665,
      "ĠsvÃ¡l": 4666,
      "rud": 4667,
      "ĠmnÃŃÅ¡": 4668,
      "ĠkoÅ¾": 4669,
      "ĠmÃ¡v": 4670,
      "Ġvis": 4671,
      "ĠdÄĽls": 4672,
      "ĠzkouÅ¡": 4673,
      "Ġop": 4674,
      "Ġoch": 4675,
      "ĠvÄįem": 4676,
      "ĠvÃ½t": 4677,
      "Ġkrav": 4678,
      "Ġcval": 4679,
      "ĠÅ¡tÄĽr": 4680,
      "ĠvdÄĽs": 4681,
      "ĠscÃ©": 4682,
      "ĠsÅ¡e": 4683,
      "ĠlÃ³": 4684,
      "ĠhÅĻÃ¡l": 4685,
      "Ġput": 4686,
      "ĠsviÅ¡": 4687,
      "ĠmÃ©n": 4688,
      "Ġkrom": 4689,
      "Ġslid": 4690,
      "vat": 4691,
      "Ġsst": 4692,
      "Ġzkle": 4693,
      "ĠzaÅĪ": 4694,
      "Ġvsvou": 4695,
      "ĠzÅ¾ÃŃ": 4696,
      "Ġost": 4697,
      "Ġvyv": 4698,
      "ĠvdÅ¯m": 4699,
      "ĠÅ¾luÄį": 4700,
      "Ġvbles": 4701,
      "ĠÅ¡vÃ¡": 4702,
      "Ġrac": 4703,
      "ĠvkÃ¡": 4704,
      "Ġctil": 4705,
      "Ġthi": 4706,
      "Ġhil": 4707,
      "ĠvÅĻeÅ¡": 4708,
      "ĠÅ¾hne": 4709,
      "Ġvryl": 4710,
      "ĠzplÃ¡": 4711,
      "Ġvtes": 4712,
      "Ġshluk": 4713,
      "ĠsÃ¡n": 4714,
      "ĠjsouÅ¥": 4715,
      "ĠssÃ¡": 4716,
      "ĠzpÃ¡": 4717,
      "ĠzdÃ¡t": 4718,
      "Ġsvl": 4719,
      "Ġbaj": 4720,
      "Ġvsnu": 4721,
      "ĠdejÅ¾": 4722,
      "Ġdvod": 4723,
      "Ġvtaj": 4724,
      "Ġrdou": 4725,
      "Ġspek": 4726,
      "ĠzmÃ½ch": 4727,
      "ĠhrÃ¡ch": 4728,
      "ĠkÅ¾e": 4729,
      "Ġhraj": 4730,
      "Ġvzpjal": 4731,
      "ĠÄıme": 4732,
      "Ġvkon": 4733,
      "ĠvloÅ¾": 4734,
      "Ġzkaz": 4735,
      "Ġdbej": 4736,
      "Ġschou": 4737,
      "Ġbros": 4738,
      "ĠvspÃ¡n": 4739,
      "Ġvlaj": 4740,
      "ĠchÃ½Å¾": 4741,
      "ĠhruÅ¡": 4742,
      "Ġchlub": 4743,
      "ĠXXAXAX": 4744,
      "ĠkÅ¡tÄĽ": 4745,
      "ĠÅ¾lout": 4746,
      "vu": 4747,
      "ĠzvÄĽÄį": 4748,
      "ĠvdÄĽt": 4749,
      "Ġkluk": 4750,
      "ĠdlÃŃt": 4751,
      "ĠdrÃ¡ch": 4752,
      "Ġzsi": 4753,
      "ĠkÃ¡z": 4754,
      "Ġpuch": 4755,
      "ĠtÃ½n": 4756,
      "Ġtliv": 4757,
      "Ġgram": 4758,
      "ĠchtÃŃÄį": 4759,
      "ĠklÃ©m": 4760,
      "Ġxe": 4761,
      "ĠtaÅ¥": 4762,
      "ĠvzhlÃŃ": 4763,
      "Ġsof": 4764,
      "Ġfre": 4765,
      "ĠsÅĪat": 4766,
      "Ġzak": 4767,
      "Ġkma": 4768,
      "ĠÅ¡ke": 4769,
      "ĠvzrÅ¯st": 4770,
      "ĠsfÃ©r": 4771,
      "Ġlub": 4772,
      "Ġvojsk": 4773,
      "Ġvstup": 4774,
      "Ġknut": 4775,
      "ĠdaÄį": 4776,
      "Ġvky": 4777,
      "ĠzvÃŃÅ¡": 4778,
      "Ġvpy": 4779,
      "ĠvkÅĻi": 4780,
      "ĠbrÅ¾": 4781,
      "Ġzcha": 4782,
      "ĠstÅĻiÄį": 4783,
      "ĠsÅĪal": 4784,
      "Ġsyp": 4785,
      "Ġzple": 4786,
      "ĠtÅĻeb": 4787,
      "Ġzab": 4788,
      "ĠroÄį": 4789,
      "ĠvÅ¾ÃŃ": 4790,
      "ĠtÅĻek": 4791,
      "ĠÅ¡tÄĽt": 4792,
      "ĠvdÃ¡v": 4793,
      "Ġtus": 4794,
      "ĠtÅ¯Äį": 4795,
      "Ġcour": 4796,
      "Ġvym": 4797,
      "ĠÅĻÅ¯v": 4798,
      "Ġzan": 4799,
      "ĠchyÅ¥": 4800,
      "Ġvby": 4801,
      "ĠzchrÃ¡": 4802,
      "ĠdÄĽÅ¥": 4803,
      "ĠvpÃ½": 4804,
      "ĠbraÅ¥": 4805,
      "ĠvlÃ¡l": 4806,
      "Ġskyt": 4807,
      "Ġpst": 4808,
      "Ġloub": 4809,
      "ĠstuÅ¾": 4810,
      "ĠjeÄı": 4811,
      "Ġdrn": 4812,
      "ĠctÃŃt": 4813,
      "ĠÅĻet": 4814,
      "ĠbÃ¡ÅĻ": 4815,
      "ĠmdlÃ½m": 4816,
      "ĠÅ¾ou": 4817,
      "Ġvyk": 4818,
      "Ġis": 4819,
      "Ġktan": 4820,
      "ĠÅ¾la": 4821,
      "Ġvtros": 4822,
      "ĠhÃº": 4823,
      "ĠviÅĪ": 4824,
      "Ġsam": 4825,
      "ĠdnÃ©m": 4826,
      "Ġkstro": 4827,
      "Å¯l": 4828,
      "ĠchÃ¡s": 4829,
      "ĠÅ¡tkÃ¡": 4830,
      "Ġlvo": 4831,
      "ĠÅĻka": 4832,
      "ĠsmÃŃÅ¡": 4833,
      "ĠkpÅĻÃŃ": 4834,
      "vost": 4835,
      "ĠknimÅ¾": 4836,
      "ĠprÃ©": 4837,
      "ĠtÅĻu": 4838,
      "ĠsvlÃ©": 4839,
      "ĠmiÄį": 4840,
      "ĠbÄĽj": 4841,
      "ÅĪÃ¡": 4842,
      "Ġvals": 4843,
      "ĠpÅĻÃŃl": 4844,
      "Ġztros": 4845,
      "ĠtÅĻÃŃÄį": 4846,
      "Ġkmu": 4847,
      "ĠvklÃ¡Å¡": 4848,
      "ĠsnÃ©st": 4849,
      "Ġlar": 4850,
      "Ġvryt": 4851,
      "ĠkÅĻest": 4852,
      "Ġzvln": 4853,
      "ĠvÄĽsÅ¥": 4854,
      "Ã³r": 4855,
      "ĠAABXBX": 4856,
      "ĠjÃŃÅ¥": 4857,
      "ĠbrÃ¡c": 4858,
      "ĠzÅ¯m": 4859,
      "Ġslab": 4860,
      "ĠÅ¡eÅĻ": 4861,
      "Ġprob": 4862,
      "Ġvslou": 4863,
      "ĠchlÃ©m": 4864,
      "Ġsved": 4865,
      "Ġvzmat": 4866,
      "Ġvmdlo": 4867,
      "ĠvcÃŃ": 4868,
      "Ġpnu": 4869,
      "Ġzmdle": 4870,
      "Ġbed": 4871,
      "ĠvlÃ¡t": 4872,
      "ĠzmÅ¯": 4873,
      "ĠmlÅ¾": 4874,
      "ĠvspÃ¡": 4875,
      "ĠsnÃŃÅ¡": 4876,
      "ĠABAABX": 4877,
      "ĠvnÄĽjÅ¾": 4878,
      "ĠlpÃŃ": 4879,
      "Ġrra": 4880,
      "Ġae": 4881,
      "Ġpam": 4882,
      "Ġmel": 4883,
      "ĠsiÄį": 4884,
      "Ġvrb": 4885,
      "Ġchvi": 4886,
      "ĠXXXXAA": 4887,
      "ĠpÅĻis": 4888,
      "ĠsnaÅ¾": 4889,
      "ĠkÄįer": 4890,
      "Ġtch": 4891,
      "Ġjvo": 4892,
      "ĠÄįÃŃn": 4893,
      "ĠAXB": 4894,
      "Ġdroz": 4895,
      "ĠÅ¾uj": 4896,
      "ĠÄįtyÅĻ": 4897,
      "Ġvav": 4898,
      "ĠsÃ¡z": 4899,
      "ĠzhÅĻÃŃ": 4900,
      "Ġsble": 4901,
      "ĠspÄĽt": 4902,
      "Ġvskal": 4903,
      "oun": 4904,
      "ĠmaÅ¡": 4905,
      "Ġspy": 4906,
      "Ġvstru": 4907,
      "ĠsnÃŃl": 4908,
      "Ġumf": 4909,
      "ĠmÃŃch": 4910,
      "Ġvzmach": 4911,
      "Ġil": 4912,
      "ĠÄįÃŃl": 4913,
      "Ġzod": 4914,
      "Ġvsto": 4915,
      "ĠvbÅĻe": 4916,
      "Ġzpur": 4917,
      "ud": 4918,
      "ĠsplÃ©": 4919,
      "ĠzhvÄĽz": 4920,
      "Ġsbi": 4921,
      "ĠÅ¡af": 4922,
      "Ġfla": 4923,
      "Ġpluj": 4924,
      "ĠÅ¡tÃ¡": 4925,
      "ĠvbÄĽh": 4926,
      "ĠjÃ¡c": 4927,
      "Ġzmno": 4928,
      "Ġvzep": 4929,
      "ĠÅ¡tve": 4930,
      "Ġksto": 4931,
      "ma": 4932,
      "Ġes": 4933,
      "Ġvzky": 4934,
      "Ġsg": 4935,
      "Ġrych": 4936,
      "ĠtÅĻiv": 4937,
      "ĠvloÄį": 4938,
      "ĠviÅ¥": 4939,
      "ĠrÃ¡t": 4940,
      "Ġfil": 4941,
      "Ġdliv": 4942,
      "ĠzmÄĽn": 4943,
      "ĠtuÅ¡": 4944,
      "Ġvmar": 4945,
      "Ġchrt": 4946,
      "ĠÅ¡vih": 4947,
      "Ġvrej": 4948,
      "ĠskrÃ½t": 4949,
      "ĠvsluÅ¾": 4950,
      "Ġsvah": 4951,
      "Ġ24": 4952,
      "ĠvzbuÄı": 4953,
      "Ġvtvo": 4954,
      "ĠhÅ¯v": 4955,
      "Ġsvrh": 4956,
      "Ġsba": 4957,
      "Ġchlej": 4958,
      "Ġvstoup": 4959,
      "Ġptej": 4960,
      "ĠjlÃ©": 4961,
      "ĠÄįlÃ¡": 4962,
      "ĠkyÅĪ": 4963,
      "ĠvÃŃch": 4964,
      "ĠsÃŃd": 4965,
      "ĠzliÄį": 4966,
      "ĠAXAXBB": 4967,
      "Ġfaust": 4968,
      "Na": 4969,
      "ĠNa": 4970,
      "Ġsev": 4971,
      "Ġduh": 4972,
      "ĠNaN": 4973,
      "Ġck": 4974,
      "Ġzdou": 4975,
      "Ġrez": 4976,
      "ĠsvÃŃÄį": 4977,
      "ĠctnÃ½": 4978,
      "Ġsmek": 4979,
      "Ġgraf": 4980,
      "Ġvpev": 4981,
      "ĠsÅĻe": 4982,
      "Ġcr": 4983,
      "ĠvkÅĻo": 4984,
      "ĠÅĪal": 4985,
      "Ġsklep": 4986,
      "Ġtroud": 4987,
      "Ġvkruh": 4988,
      "Ġgil": 4989,
      "Ġzhru": 4990,
      "Ġvpos": 4991,
      "Ġlhal": 4992,
      "Ġvmech": 4993,
      "ĠÅ¾ej": 4994,
      "Ġprok": 4995,
      "Ġsplav": 4996,
      "ĠpÅĻeÅ¡": 4997,
      "ĠsÃ¡k": 4998,
      "ĠprÃ¡s": 4999,
      "ĠchtÄĽj": 5000,
      "Ġvblan": 5001,
      "Ġvas": 5002,
      "ĠsdÅ¯": 5003,
      "Ġprys": 5004,
      "ĠvÄĽÅ¥": 5005,
      "Ġzpom": 5006,
      "Ġzlid": 5007,
      "ĠvÅ¡tÃŃ": 5008,
      "ĠÄįast": 5009,
      "ĠvÅ¡um": 5010,
      "Ġssu": 5011,
      "ÃŃs": 5012,
      "ĠÅ¡lu": 5013,
      "ĠpÃ¡Å¡": 5014,
      "ĠvlÃ¡k": 5015,
      "Ġvhrad": 5016,
      "ÅĪal": 5017,
      "Ġprak": 5018,
      "ĠplaÅ¥": 5019,
      "Ġzoub": 5020,
      "ĠdrÃ¡t": 5021,
      "Ġstep": 5022,
      "ĠvzkÃ¡": 5023,
      "Ġfry": 5024,
      "ĠspuÅ¡": 5025,
      "Ġspjal": 5026,
      "ĠnÄĽjÅ¾": 5027,
      "ĠkspÃ¡n": 5028,
      "AC": 5029,
      "ĠmiÅĪ": 5030,
      "ĠpaÄį": 5031,
      "ĠvtÅĻe": 5032,
      "Ġbrod": 5033,
      "ĠsnÃ¡z": 5034,
      "Ġnve": 5035,
      "Ġsiv": 5036,
      "Ġvled": 5037,
      "ĠzdÅĻÃŃm": 5038,
      "ĠsÃ½ch": 5039,
      "Ġsef": 5040,
      "ĠÄįeÅ¥": 5041,
      "ĠkÃ¡Å¾": 5042,
      "Ġsnich": 5043,
      "ĠrÃ¡r": 5044,
      "ĠbouÄį": 5045,
      "ĠrÃ½Å¾": 5046,
      "Ġblouk": 5047,
      "Ġdbal": 5048,
      "Ġvzrost": 5049,
      "ĠpnÄĽ": 5050,
      "ĠbÃŃk": 5051,
      "ĠÅ¡ept": 5052,
      "ĠzlÃ¡t": 5053,
      "ĠkoÅĪ": 5054,
      "Ġkas": 5055,
      "Ġnon": 5056,
      "ĠztÃ½": 5057,
      "Ġvblu": 5058,
      "ĠsnÄĽÅ¥": 5059,
      "ĠvisÅ¥": 5060,
      "Ġklat": 5061,
      "ĠschvÄĽ": 5062,
      "Ġfar": 5063,
      "Ġvskry": 5064,
      "ĠdÅ¾bÃ¡": 5065,
      "ĠmÄĽls": 5066,
      "ĠsdÃŃl": 5067,
      "Ġsmou": 5068,
      "Ġsoum": 5069,
      "Ġztvr": 5070,
      "Ġsdra": 5071,
      "ĠABAXXB": 5072,
      "Ġtip": 5073,
      "Ġksva": 5074,
      "Ġvbah": 5075,
      "ĠzklÃŃ": 5076,
      "Ġzvlh": 5077,
      "Ġllah": 5078,
      "Ġhrud": 5079,
      "Ġmsty": 5080,
      "ĠsjÃŃ": 5081,
      "ĠvspÄĽch": 5082,
      "Ġkin": 5083,
      "Ġzg": 5084,
      "Ġjeh": 5085,
      "Ġstri": 5086,
      "ĠstÃŃs": 5087,
      "ĠzhnÄĽ": 5088,
      "ĠÅĻÃ¡s": 5089,
      "ĠzvÃ¡Å¾": 5090,
      "Ġbvy": 5091,
      "Ġnuj": 5092,
      "Ġstich": 5093,
      "Ġsjel": 5094,
      "Ġtav": 5095,
      "Ġznoj": 5096,
      "Ġkhru": 5097,
      "ĠtiÅ¥": 5098,
      "ĠÅ¾est": 5099,
      "ĠvÅ¾al": 5100,
      "ĠvpouÅ¡Å¥": 5101,
      "mi": 5102,
      "Ġkce": 5103,
      "ĠÅ¾b": 5104,
      "Ġzdru": 5105,
      "Ġvsny": 5106,
      "Ġvtlu": 5107,
      "ĠvkÅĻÃŃ": 5108,
      "Ġvmno": 5109,
      "ĠpÅ¯r": 5110,
      "ĠlstÃŃ": 5111,
      "Ġlnou": 5112,
      "ĠleÄı": 5113,
      "Ġces": 5114,
      "ĠÅĻisÅ¥": 5115,
      "Ġtrat": 5116,
      "ĠstÅĻen": 5117,
      "ĠzÄįÃŃ": 5118,
      "ĠÄįle": 5119,
      "ĠÅ¡ec": 5120,
      "ĠvoÄı": 5121,
      "Ġvmoz": 5122,
      "ĠuÅ¡t": 5123,
      "Ġvjezd": 5124,
      "Ġkut": 5125,
      "Ġir": 5126,
      "Ġvste": 5127,
      "Ġkta": 5128,
      "ĠvmÄĽk": 5129,
      "ĠtrÃ³": 5130,
      "ĠstÃ¡m": 5131,
      "Ġvbod": 5132,
      "ĠkrÃ½t": 5133,
      "ĠÅĻed": 5134,
      "ĠryÄį": 5135,
      "ĠchvÄĽn": 5136,
      "nil": 5137,
      "ĠdcÅ¯": 5138,
      "Ġklub": 5139,
      "Ġrmou": 5140,
      "ĠstvÄĽ": 5141,
      "Ġkord": 5142,
      "Ġnor": 5143,
      "ĠjsemÅ¥": 5144,
      "ĠzÃŃtÅĻ": 5145,
      "ĠmaÄį": 5146,
      "ĠzÃ¡j": 5147,
      "Ġgor": 5148,
      "ĠbrÃ©m": 5149,
      "ĠvnÃ¡d": 5150,
      "ĠzhoÅĻ": 5151,
      "Ġpjal": 5152,
      "ĠkÃ¡l": 5153,
      "Ġdre": 5154,
      "ĠvhÅĻÃŃ": 5155,
      "ĠchvÃŃt": 5156,
      "ĠknÃ½ch": 5157,
      "Ġprov": 5158,
      "Ġzran": 5159,
      "ĠvtmÄĽ": 5160,
      "Ġksta": 5161,
      "Ġbuk": 5162,
      "Ġzap": 5163,
      "ĠlÃ¡d": 5164,
      "Ġvplo": 5165,
      "Ġvrt": 5166,
      "Ġlv": 5167,
      "ĠnaÅ¥": 5168,
      "neÅ¡": 5169,
      "Ġvtra": 5170,
      "Ġvmat": 5171,
      "ĠztiÅ¡": 5172,
      "ĠplaÅ¡": 5173,
      "ĠchaÅĻ": 5174,
      "ĠkleÅ¡": 5175,
      "ĠvstÃ¡t": 5176,
      "Ġzlom": 5177,
      "Ġloz": 5178,
      "ĠtÃ©r": 5179,
      "ĠgÅ¯": 5180,
      "ĠzhÃ¡": 5181,
      "Ġzhled": 5182,
      "Ġtvrz": 5183,
      "Ġnne": 5184,
      "ĠzÄįi": 5185,
      "ĠprÃ¡l": 5186,
      "ĠÄįnÄĽl": 5187,
      "ĠÅĻech": 5188,
      "ĠvmÅ¯j": 5189,
      "Ġvhou": 5190,
      "Ġzhl": 5191,
      "Ġskot": 5192,
      "ĠABCCAB": 5193,
      "ĠÄįec": 5194,
      "Ġkleb": 5195,
      "Ġvbra": 5196,
      "ĠtÄĽp": 5197,
      "Ġzyl": 5198,
      "ĠzpÃŃs": 5199,
      "ĠvzÃ¡m": 5200,
      "ĠroÅ¡": 5201,
      "ĠpÃ¡l": 5202,
      "Ġsir": 5203,
      "Ġsmol": 5204,
      "ĠÅ¾da": 5205,
      "Ġvproud": 5206,
      "ĠliÅ¥": 5207,
      "Ġtron": 5208,
      "ĠkruÅ¡": 5209,
      "Ġmsta": 5210,
      "ĠXXXAAX": 5211,
      "Ġztro": 5212,
      "ĠblaÅ¾": 5213,
      "Ġlamp": 5214,
      "ĠvtÅ¯ÅĪ": 5215,
      "Ġvak": 5216,
      "ĠpÃŃc": 5217,
      "Ġbram": 5218,
      "ĠgÃ©": 5219,
      "ĠbÅĻes": 5220,
      "ĠfraÅ¡": 5221,
      "ĠvplÃŃ": 5222,
      "Ġvdou": 5223,
      "Ġshra": 5224,
      "Ġstoud": 5225,
      "ĠtÅĻÃŃÅ¡Å¥": 5226,
      "ĠstÃ½l": 5227,
      "Ġcyt": 5228,
      "ĠchÅĻest": 5229,
      "Ġlaur": 5230,
      "ĠsvÄĽÅ¥": 5231,
      "ĠprsÅ¥": 5232,
      "ĠtenÅ¥": 5233,
      "ĠprÃ¡t": 5234,
      "Ġsbla": 5235,
      "ĠkneÅ¡": 5236,
      "Ġblem": 5237,
      "Ã¼": 5238,
      "ÅĻas": 5239,
      "Ġdles": 5240,
      "Ġskost": 5241,
      "ĠtÅĻa": 5242,
      "ĠsÅ¾ÃŃ": 5243,
      "ĠtnÃ©": 5244,
      "ĠÅĻÃ¡t": 5245,
      "ĠlhÃ¡ÅĻ": 5246,
      "Ġtot": 5247,
      "ĠtoÅĪ": 5248,
      "ĠAAABBX": 5249,
      "ĠÅ¡ÅĪÅ¯": 5250,
      "ĠchÅĻ": 5251,
      "ĠbeÄį": 5252,
      "ĠzkÅĻe": 5253,
      "Ġvzkve": 5254,
      "ĠzÄįech": 5255,
      "Ġtvrd": 5256,
      "ĠpÃŃk": 5257,
      "ĠzhnÃŃz": 5258,
      "Ġsbu": 5259,
      "ĠvplÃ¡Äį": 5260,
      "Ġskte": 5261,
      "Ġbon": 5262,
      "Ġstvi": 5263,
      "Ġskrej": 5264,
      "Ġtknu": 5265,
      "Ġvsku": 5266,
      "ĠÅĪÃ¡k": 5267,
      "Ġhran": 5268,
      "Ġstret": 5269,
      "Ġtral": 5270,
      "ĠstvÃ½m": 5271,
      "ĠbrÃ¡n": 5272,
      "ĠskÅĻÃŃt": 5273,
      "ĠmnÃŃm": 5274,
      "ĠtoÅ¡": 5275,
      "Ġjab": 5276,
      "ĠvchÃ½": 5277,
      "Ġkzd": 5278,
      "ĠctÃŃm": 5279,
      "ĠvdÅ¯l": 5280,
      "jat": 5281,
      "Ġkai": 5282,
      "Ġlog": 5283,
      "ĠÅĻiÅ¥": 5284,
      "Ġvdnech": 5285,
      "Ġsluh": 5286,
      "ĠknÃ½m": 5287,
      "ĠpÅ¡": 5288,
      "ĠnÃ½ÅĻ": 5289,
      "Ġsod": 5290,
      "Ġkluz": 5291,
      "ĠÅ¾nÄĽ": 5292,
      "ĠÅ¡lou": 5293,
      "Ġzau": 5294,
      "ĠtouÄį": 5295,
      "ĠslÃ¡n": 5296,
      "Ġbron": 5297,
      "Ġmdlob": 5298,
      "ĠonÅ¥": 5299,
      "ĠÅ¡kÃ¡": 5300,
      "Ġfin": 5301,
      "Ġzbav": 5302,
      "ĠjÃŃÄį": 5303,
      "Ġvkal": 5304,
      "ĠvÅ¾Ã¡r": 5305,
      "ĠslÅ¯m": 5306,
      "ĠvÃŃÅ¾": 5307,
      "Ġjam": 5308,
      "ĠzÃŃk": 5309,
      "Ġtoul": 5310,
      "ĠzblÃ¡": 5311,
      "ĠABBAAB": 5312,
      "ĠtevÅĻ": 5313,
      "Ġstrhl": 5314,
      "Ġhviz": 5315,
      "Ġvsad": 5316,
      "Ġbiz": 5317,
      "ĠsviÅ¾": 5318,
      "ĠvzÃ¡ÅĻ": 5319,
      "ĠÅĻan": 5320,
      "ĠdlÃ¡m": 5321,
      "ĠmstÃŃt": 5322,
      "ĠÅ¡Ã¡k": 5323,
      "ĠgroÅ¡": 5324,
      "ĠmÃº": 5325,
      "Ġmnil": 5326,
      "Ġtim": 5327,
      "Ġtyr": 5328,
      "Ġbic": 5329,
      "ĠÃºÄį": 5330,
      "Ġzjich": 5331,
      "ĠdaÅ¥": 5332,
      "Ġvstr": 5333,
      "ĠÅ¡an": 5334,
      "Ġtman": 5335,
      "Ġvkri": 5336,
      "ĠzhlÃŃd": 5337,
      "Ġrh": 5338,
      "ĠroÅ¾": 5339,
      "Ġcis": 5340,
      "ĠzhouÅ¡": 5341,
      "Ġzmlh": 5342,
      "ĠcvrÄį": 5343,
      "Ġkres": 5344,
      "ĠÅ¾an": 5345,
      "ĠpÅĻÃ¡h": 5346,
      "Ġxan": 5347,
      "Ġrre": 5348,
      "Ġcej": 5349,
      "ĠvÅ¡er": 5350,
      "ĠtÃ©l": 5351,
      "ĠzhyÅĪ": 5352,
      "ĠÅĻiÄı": 5353,
      "Ġvzpru": 5354,
      "ĠslÃŃÄį": 5355,
      "ĠÄįtou": 5356,
      "ĠstrÃ½Äį": 5357,
      "ĠsÅ¾a": 5358,
      "Ġmau": 5359,
      "Ġras": 5360,
      "ĠlÃ¡r": 5361,
      "ĠvmÅ¾ik": 5362,
      "Ġtas": 5363,
      "Ġdas": 5364,
      "ĠkÅ¯l": 5365,
      "ĠvdÃ½": 5366,
      "Ġzhe": 5367,
      "ĠshlÃ©": 5368,
      "Ġvzim": 5369,
      "ĠvÅĪÃ¡": 5370,
      "Ġdm": 5371,
      "Ġlim": 5372,
      "Ġzlet": 5373,
      "Ġtky": 5374,
      "ĠztrÃ¡t": 5375,
      "Ġspit": 5376,
      "ĠsbÄĽh": 5377,
      "Ġvspol": 5378,
      "ABA": 5379,
      "ĠlÃŃh": 5380,
      "Ġzdat": 5381,
      "Ġtruj": 5382,
      "ĠsÅ¯l": 5383,
      "Ġznes": 5384,
      "ĠÅ¡tka": 5385,
      "ĠhnÃŃzd": 5386,
      "ĠvmraÄį": 5387,
      "Ġgre": 5388,
      "Ġdmu": 5389,
      "ĠslÃ½m": 5390,
      "ĠsmrÃ¡": 5391,
      "ĠtÃ¡t": 5392,
      "Ġvtvr": 5393,
      "Ġvper": 5394,
      "ĠdlÃ¡Å¾": 5395,
      "ĠskÅĻÃŃÅĪ": 5396,
      "Ġai": 5397,
      "Ġsklou": 5398,
      "Ġzeb": 5399,
      "Ġbum": 5400,
      "Ġmls": 5401,
      "Ġprus": 5402,
      "Ġzlen": 5403,
      "ĠvtÃŃs": 5404,
      "Ġcli": 5405,
      "ĠvÅ¡k": 5406,
      "ĠstvÃŃch": 5407,
      "ĠzrÃ¡t": 5408,
      "ĠthÃ©": 5409,
      "Ġstkvost": 5410,
      "Ġzhloub": 5411,
      "ĠkspÃ¡": 5412,
      "up": 5413,
      "Ġzdal": 5414,
      "Ġvus": 5415,
      "Ġfl": 5416,
      "ĠziÅ¡": 5417,
      "Ġzky": 5418,
      "Ġvleh": 5419,
      "Ġztre": 5420,
      "Ġdik": 5421,
      "ĠbÃ¡r": 5422,
      "Ġhen": 5423,
      "ĠvniÅ¾": 5424,
      "Ġschnou": 5425,
      "ĠchÃ½Å¡": 5426,
      "ĠvhoÅĻ": 5427,
      "Ġsjas": 5428,
      "Ġmzdu": 5429,
      "ĠvÅ¡p": 5430,
      "ĠÅ¾iÅ¥": 5431,
      "ĠkÅ¯r": 5432,
      "ĠvÅ¾ha": 5433,
      "ĠÄįtr": 5434,
      "Ġwe": 5435,
      "ĠvdeÅ¡": 5436,
      "Ġdsk": 5437,
      "rob": 5438,
      "ĠÅ¡las": 5439,
      "Ġvskle": 5440,
      "ĠbÅĻin": 5441,
      "ĠvÃ¡d": 5442,
      "Ġkroj": 5443,
      "Ġshrou": 5444,
      "ĠvlÃŃÄį": 5445,
      "ĠvÃºc": 5446,
      "Ġchvost": 5447,
      "ĠlÃ©zt": 5448,
      "ĠÃ¡t": 5449,
      "Ġkc": 5450,
      "Ġmaj": 5451,
      "ĠplÃ©m": 5452,
      "ĠXABB": 5453,
      "ĠÅ¡eÄı": 5454,
      "Ġgal": 5455,
      "Ġhrn": 5456,
      "ĠÅ¡let": 5457,
      "ĠdnÅ¯v": 5458,
      "ĠvadÅ¾": 5459,
      "Ġvples": 5460,
      "ĠÄįtvrt": 5461,
      "Ġski": 5462,
      "Ġvon": 5463,
      "Ġslok": 5464,
      "Ġspoj": 5465,
      "ĠkÅĻti": 5466,
      "ĠÅĻkou": 5467,
      "Ã¡r": 5468,
      "Ġjh": 5469,
      "Ġkoh": 5470,
      "ĠdÃ¡Å¾": 5471,
      "Ġchav": 5472,
      "Ġslez": 5473,
      "ĠvleÄį": 5474,
      "ĠdrÃ¡p": 5475,
      "Ġgur": 5476,
      "ĠpoÄı": 5477,
      "ĠjÃ¡Å¥": 5478,
      "ĠpÃ¡k": 5479,
      "Ġfem": 5480,
      "Ġhoust": 5481,
      "Ġkslo": 5482,
      "Ġvsed": 5483,
      "Ġprinc": 5484,
      "ĠvdÃŃl": 5485,
      "bo": 5486,
      "ĠtcÅ¯": 5487,
      "ĠkpÃŃs": 5488,
      "ĠktrÅ¯": 5489,
      "Ġzchla": 5490,
      "ĠzchvÃ¡": 5491,
      "ĠXAAXXX": 5492,
      "ĠpÃ©m": 5493,
      "ĠÄįiÅ¾": 5494,
      "Ġvsho": 5495,
      "ĠsbÅĻe": 5496,
      "Ġsde": 5497,
      "Ġsdce": 5498,
      "Ġpliv": 5499,
      "Ġrhyt": 5500,
      "Ġcas": 5501,
      "ĠÅ¡kod": 5502,
      "ĠstÅĻÃ¡s": 5503,
      "Ġbob": 5504,
      "ĠÅ¾Ã¡t": 5505,
      "ĠspÅĻeÅ¾": 5506,
      "ĠÅ¡ÃŃn": 5507,
      "Ġbam": 5508,
      "Ġdvr": 5509,
      "Ġspov": 5510,
      "Ġhma": 5511,
      "Ã¤": 5512,
      "ĠÄįme": 5513,
      "ran": 5514,
      "ĠmoÅĪ": 5515,
      "ĠmÃŃÄį": 5516,
      "Ġvbrz": 5517,
      "Ġlum": 5518,
      "Ġhuj": 5519,
      "ĠmlÃ¡Äı": 5520,
      "mur": 5521,
      "Ġcleh": 5522,
      "Ġlne": 5523,
      "Ġlap": 5524,
      "ĠvzÅĪal": 5525,
      "Ġsmil": 5526,
      "Ġvss": 5527,
      "ĠplÃ½ch": 5528,
      "Ġsvoj": 5529,
      "Ġbrouk": 5530,
      "Ġcon": 5531,
      "Ġhum": 5532,
      "Ġstot": 5533,
      "ĠrÃ©v": 5534,
      "Ġzuj": 5535,
      "ĠstvÃ½ch": 5536,
      "Ġsmla": 5537,
      "Ġvsr": 5538,
      "ĠÅĻic": 5539,
      "ĠbÃ¡Äį": 5540,
      "ĠABBAAX": 5541,
      "ĠÅ¡plou": 5542,
      "Ġtret": 5543,
      "ĠbrouÄį": 5544,
      "Ġhmot": 5545,
      "Ġsmlu": 5546,
      "Ġvstej": 5547,
      "voz": 5548,
      "Ġsry": 5549,
      "ĠvÄįlo": 5550,
      "Ġzcu": 5551,
      "ĠÄįÃ¡l": 5552,
      "Ġlus": 5553,
      "Ġblek": 5554,
      "Ġzlit": 5555,
      "Ġtric": 5556,
      "ĠABX": 5557,
      "ĠsÃºc": 5558,
      "ĠsvÅ¯": 5559,
      "ĠvdÃ½m": 5560,
      "Ġvdov": 5561,
      "ĠbdÃŃm": 5562,
      "Å¡ÃŃ": 5563,
      "ĠdnÅ¯m": 5564,
      "Ġzz": 5565,
      "Ġbus": 5566,
      "Ġpul": 5567,
      "ĠstÅĻeh": 5568,
      "ĠtÅĻÃ¡st": 5569,
      "ĠvrÅ¯z": 5570,
      "ĠspÅ¯": 5571,
      "ĠtÅĻej": 5572,
      "Ġtlak": 5573,
      "ĠÅ¾ab": 5574,
      "Ġtres": 5575,
      "ĠkÅĻt": 5576,
      "ĠbeÅĻ": 5577,
      "ĠpÅĻih": 5578,
      "Ġsun": 5579,
      "Ġslel": 5580,
      "Ġzhnu": 5581,
      "ĠschrÃ¡n": 5582,
      "ĠsvÅ¡e": 5583,
      "Ġvzmu": 5584,
      "ĠÅ¾ich": 5585,
      "Ġbrach": 5586,
      "ĠklÃŃÅĻ": 5587,
      "Ġvchva": 5588,
      "ĠchtÃŃc": 5589,
      "ĠÅ¾ÃŃk": 5590,
      "ĠvplÃ©": 5591,
      "ĠkleÄį": 5592,
      "Ġdlid": 5593,
      "ĠchÃ½n": 5594,
      "Ġfrak": 5595,
      "ĠvjichÅ¾": 5596,
      "Ġbrys": 5597,
      "ĠtkvÄĽl": 5598,
      "Ġrach": 5599,
      "Ġvlep": 5600,
      "ĠdnÃŃm": 5601,
      "ĠchmÃ½": 5602,
      "ĠksluÅ¾": 5603,
      "ĠstrasÅ¥": 5604,
      "Ġzkni": 5605,
      "Ġshl": 5606,
      "Ġnezv": 5607,
      "ĠzmÄĽk": 5608,
      "ĠlhÃ¡t": 5609,
      "ĠÅ¡ov": 5610,
      "Ġvmrak": 5611,
      "ĠdÃ³m": 5612,
      "ĠsÅ¥a": 5613,
      "ĠjÃŃÅĻ": 5614,
      "ĠblÃ½Å¡": 5615,
      "Ġskel": 5616,
      "ĠmuÅ¥": 5617,
      "ĠrÃ½n": 5618,
      "ĠvÅĻÃŃs": 5619,
      "ĠvlÅ¯Å¾": 5620,
      "Ġtran": 5621,
      "ĠshnÄĽ": 5622,
      "ĠtÅĻas": 5623,
      "ĠmdlÃŃ": 5624,
      "Ġprk": 5625,
      "ĠtrÄį": 5626,
      "Ġres": 5627,
      "Ġksa": 5628,
      "ĠhÅĻej": 5629,
      "ĠvzplÃ¡t": 5630,
      "ĠvplÃ¡Å¡Å¥": 5631,
      "ĠsbÃ¡z": 5632,
      "Ġkf": 5633,
      "ĠryÅ¡": 5634,
      "ĠkÃ½n": 5635,
      "Ġhyn": 5636,
      "Ġllen": 5637,
      "ĠvbÃ¡s": 5638,
      "ĠhÅĻiv": 5639,
      "ĠÄįiÅ¥": 5640,
      "Ġchyl": 5641,
      "Ġshled": 5642,
      "ĠnnÃŃk": 5643,
      "ĠÄįÃ¡p": 5644,
      "ĠÅ¡Å¯v": 5645,
      "Ġpau": 5646,
      "ĠpÅĻer": 5647,
      "ĠfÄĽ": 5648,
      "Ġvkar": 5649,
      "Ġhouk": 5650,
      "ĠanÅ¥": 5651,
      "Ġkvel": 5652,
      "ĠsÃ½c": 5653,
      "ĠAAAXBB": 5654,
      "ĠzÃ½m": 5655,
      "ĠbaÅ¡": 5656,
      "Ġvsvi": 5657,
      "Ġvlil": 5658,
      "ĠtroÅ¡": 5659,
      "Ġvrum": 5660,
      "ĠvtvÅ¯j": 5661,
      "ĠÅ¥uk": 5662,
      "ĠvÃ½r": 5663,
      "ĠkÅĻiÄį": 5664,
      "ĠklÅ¯": 5665,
      "ĠvzhlÃ©": 5666,
      "Ġnvi": 5667,
      "Ġmul": 5668,
      "ĠAABBBX": 5669,
      "Ġstuj": 5670,
      "Ġvkre": 5671,
      "nÃ½ch": 5672,
      "Ġsau": 5673,
      "Ġsov": 5674,
      "ĠkÅĻeÄį": 5675,
      "ĠzluÄį": 5676,
      "Ġlav": 5677,
      "Ġzast": 5678,
      "Ġchmel": 5679,
      "Ġlot": 5680,
      "CCA": 5681,
      "ĠmnÄĽl": 5682,
      "Ġstvy": 5683,
      "Ġvchla": 5684,
      "Ġhlod": 5685,
      "Ġzcest": 5686,
      "Ġzchu": 5687,
      "Ġzluk": 5688,
      "ĠABBCCA": 5689,
      "ĠzhvÄĽzd": 5690,
      "ym": 5691,
      "ĠÅ¡te": 5692,
      "ĠtaÅ¡": 5693,
      "ĠAABBAA": 5694,
      "Ġjuj": 5695,
      "Ġvzmar": 5696,
      "ĠvhÃ¡j": 5697,
      "Ġbim": 5698,
      "Ġspar": 5699,
      "AXB": 5700,
      "Ġzchy": 5701,
      "Ġhold": 5702,
      "ĠÅ¡lÃŃm": 5703,
      "Ġtai": 5704,
      "Ġvtvou": 5705,
      "ĠpÄĽÅ¡": 5706,
      "Ġmol": 5707,
      "ĠtnÃ½": 5708,
      "ÄıÃ¡": 5709,
      "Ġvpur": 5710,
      "BAX": 5711,
      "ĠÅ¡kra": 5712,
      "ĠhnÄĽt": 5713,
      "ĠstÃŃch": 5714,
      "ĠpÃŃch": 5715,
      "Ġvdar": 5716,
      "ĠtouÅ¡": 5717,
      "Ġzlat": 5718,
      "ĠchrlÃŃ": 5719,
      "ĠÅ¡etÅĻ": 5720,
      "ĠzprÃ¡v": 5721,
      "ĠzluÅ¡": 5722,
      "Ġvklen": 5723,
      "ĠvvÄĽ": 5724,
      "ĠrÅ¾": 5725,
      "ĠmdlÃ½ch": 5726,
      "ĠhoÅ¡": 5727,
      "Ġkrt": 5728,
      "Ġxu": 5729,
      "ĠstÅĻin": 5730,
      "Ġlymp": 5731,
      "ĠsvraÅ¡": 5732,
      "tÃ¡n": 5733,
      "ĠstlÃŃ": 5734,
      "Ġjec": 5735,
      "Ġvdr": 5736,
      "ĠbdÃŃt": 5737,
      "Ġztad": 5738,
      "ĠchvÃŃÅ¡": 5739,
      "Ġpyl": 5740,
      "ĠchvÄĽv": 5741,
      "Ġschva": 5742,
      "ĠsdÃŃv": 5743,
      "ĠÅ¡prÃ½m": 5744,
      "Ġvtla": 5745,
      "Ġvzdou": 5746,
      "Ġcym": 5747,
      "Ġvzav": 5748,
      "Ġspros": 5749,
      "Ġkoch": 5750,
      "Ġjic": 5751,
      "Ġzbr": 5752,
      "ĠrouÅ¾": 5753,
      "ĠslÃŃch": 5754,
      "ĠÄįÃ¡k": 5755,
      "ĠknÃ©m": 5756,
      "ĠtskÃ©": 5757,
      "ĠvÅ¡ad": 5758,
      "Ġspjat": 5759,
      "ĠstÃ¡v": 5760,
      "Ġslout": 5761,
      "Ġvpan": 5762,
      "ĠfÃŃr": 5763,
      "Ġryth": 5764,
      "Ġskra": 5765,
      "ĠstiÅ¾": 5766,
      "Ġstoh": 5767,
      "ĠvkÅ¯": 5768,
      "Ġvklu": 5769,
      "Ġzmou": 5770,
      "Ġvraj": 5771,
      "ĠpliÄį": 5772,
      "ĠkyÅ¾": 5773,
      "Ġsklem": 5774,
      "Ġmeh": 5775,
      "ĠÄįÃŃs": 5776,
      "Ġslat": 5777,
      "ĠdÃ½l": 5778,
      "ĠhÃ½n": 5779,
      "Ġkpe": 5780,
      "Ġvluz": 5781,
      "Ġkprav": 5782,
      "ĠnÃŃÅ¥": 5783,
      "Ġdlej": 5784,
      "Ġgis": 5785,
      "ĠvhluÄį": 5786,
      "ĠvpÅ¯t": 5787,
      "ĠvjÃŃÅ¾": 5788,
      "lÅ¯": 5789,
      "Ġdc": 5790,
      "Ġsvle": 5791,
      "Ġvlad": 5792,
      "ĠblÃŃÄį": 5793,
      "ĠdÅĻec": 5794,
      "Ġfes": 5795,
      "Ġzbuj": 5796,
      "ĠzdÄĽt": 5797,
      "tno": 5798,
      "Ġplaz": 5799,
      "ĠzmÃ½": 5800,
      "ĠstÅĻej": 5801,
      "ĠÄıoun": 5802,
      "Ġbert": 5803,
      "Ġzkvet": 5804,
      "ĠbÅĻad": 5805,
      "Ġrro": 5806,
      "ĠpaÅĪ": 5807,
      "Ġgou": 5808,
      "ĠstvÅ¯r": 5809,
      "ĠvÃ¡Äį": 5810,
      "ĠlÃ¡l": 5811,
      "ĠvlÃŃt": 5812,
      "ĠzvÃ¡Å¡": 5813,
      "ouÄį": 5814,
      "ĠrosÅ¥": 5815,
      "ĠdÄĽr": 5816,
      "Ġcir": 5817,
      "ĠbÃŃÄį": 5818,
      "Ġred": 5819,
      "Ġech": 5820,
      "Ġhrb": 5821,
      "ĠprÃ¡ch": 5822,
      "Ġprout": 5823,
      "ĠzbuÄı": 5824,
      "ĠÅĻku": 5825,
      "on": 5826,
      "Ġjor": 5827,
      "ĠsÃ¡Å¡": 5828,
      "Ġjom": 5829,
      "ĠsjÃ¡": 5830,
      "Ġwi": 5831,
      "ĠcÃ¡t": 5832,
      "Ġvklou": 5833,
      "ĠchvÃŃm": 5834,
      "Ġgot": 5835,
      "Ġkha": 5836,
      "Ġdag": 5837,
      "Ġvprud": 5838,
      "ĠAABBAX": 5839,
      "Ġsoch": 5840,
      "ĠvÅ¾lu": 5841,
      "Ġshu": 5842,
      "Ġchvy": 5843,
      "ĠboÅ¡": 5844,
      "Ġshe": 5845,
      "ĠslÃŃp": 5846,
      "ĠstrÃ¡z": 5847,
      "Ġsrb": 5848,
      "ĠÅ¡van": 5849,
      "Ġtval": 5850,
      "ÅĪu": 5851,
      "ĠvsvÃ¡": 5852,
      "Ġznu": 5853,
      "ĠtvÃ¡ch": 5854,
      "ĠbÅĻez": 5855,
      "ĠchtÄĽls": 5856,
      "ĠnnosÅ¥": 5857,
      "Ġsprav": 5858,
      "ĠÅ¡paÄį": 5859,
      "ĠrdÄĽl": 5860,
      "ĠÅ¡prÃ½": 5861,
      "Ġlaj": 5862,
      "Ġvul": 5863,
      "Ġgh": 5864,
      "Ġpravd": 5865,
      "Ġvchvat": 5866,
      "Ġges": 5867,
      "ĠsmyÄį": 5868,
      "Ġpsan": 5869,
      "ta": 5870,
      "ĠcÅ¾e": 5871,
      "Ġul": 5872,
      "ĠdÃŃÄį": 5873,
      "ĠdÃŃch": 5874,
      "ĠvpÅĻÃ¡": 5875,
      "Ġklest": 5876,
      "ĠtÅĻÃŃt": 5877,
      "ĠlkÃ¡m": 5878,
      "Ġspis": 5879,
      "Ġmhy": 5880,
      "ĠtviÄį": 5881,
      "ĠÄįtver": 5882,
      "ĠbÅ¯Å¾": 5883,
      "ĠpÅ¯st": 5884,
      "ĠAXAXXX": 5885,
      "ĠmÅĻeÅ¡": 5886,
      "ĠvsmÃŃch": 5887,
      "ĠÄįly": 5888,
      "ĠnÄĽv": 5889,
      "Ġbrun": 5890,
      "Ġvtrh": 5891,
      "ĠcÃº": 5892,
      "ĠbÄĽn": 5893,
      "Ġzon": 5894,
      "ĠzvÃŃd": 5895,
      "ĠdnÃŃch": 5896,
      "Ġztma": 5897,
      "ĠÅ¡vec": 5898,
      "ĠÄįk": 5899,
      "Ġmac": 5900,
      "ĠÅĻest": 5901,
      "ĠzhÅĻe": 5902,
      "ĠsbÄĽÅĻ": 5903,
      "ĠzÅĻi": 5904,
      "Ġkub": 5905,
      "ĠvchÅ¯": 5906,
      "Ġvsklo": 5907,
      "ĠfÃ¡d": 5908,
      "Ġvkrev": 5909,
      "ĠraÅ¥": 5910,
      "Ġbun": 5911,
      "Ġrit": 5912,
      "Ġmav": 5913,
      "Ġzpar": 5914,
      "ĠgrÃ¡": 5915,
      "ĠztvÃ¡": 5916,
      "ĠvmrÃ¡": 5917,
      "ĠrÃ½Äį": 5918,
      "ĠblÃŃn": 5919,
      "Ġkbe": 5920,
      "Ġdlal": 5921,
      "Ġtrum": 5922,
      "ĠÅĪÅ¯m": 5923,
      "Ġsda": 5924,
      "Ġstlal": 5925,
      "Ġryn": 5926,
      "ĠzhlÃ©d": 5927,
      "ĠkloÅĪ": 5928,
      "Ġsbur": 5929,
      "ĠplyÅĪ": 5930,
      "ĠjvÄĽ": 5931,
      "Ġlab": 5932,
      "ĠABBC": 5933,
      "Ġbrad": 5934,
      "ĠsloÅ¾": 5935,
      "ĠplÃ½m": 5936,
      "Ġhoup": 5937,
      "Ġzhrou": 5938,
      "ĠspÃŃm": 5939,
      "ĠABBCAC": 5940,
      "ĠtÃŃt": 5941,
      "ĠsmÃ½m": 5942,
      "Ġzvem": 5943,
      "ĠreÅ¾": 5944,
      "Ġmrl": 5945,
      "Ġcouv": 5946,
      "vÃ¡l": 5947,
      "ĠkaÅ¥": 5948,
      "Ġcot": 5949,
      "Ġslul": 5950,
      "ĠvÅ¯l": 5951,
      "ĠvboÅ¾": 5952,
      "ĠkdÃŃv": 5953,
      "Ġvsloup": 5954,
      "Ġoas": 5955,
      "ĠlÃŃb": 5956,
      "ĠvÅ¾er": 5957,
      "ĠslÃ¡d": 5958,
      "ĠÅ¥Å¯": 5959,
      "ĠznaÄį": 5960,
      "ĠÅ¡ach": 5961,
      "Ġvtmy": 5962,
      "Ġcert": 5963,
      "Ġtce": 5964,
      "ĠsptÃ¡": 5965,
      "ĠÄįich": 5966,
      "ĠpÅĻiÅ¡": 5967,
      "Ġklap": 5968,
      "Ġspon": 5969,
      "ĠslÃŃt": 5970,
      "ĠjÅ¯v": 5971,
      "ĠzjÃŃ": 5972,
      "ĠpÅĻez": 5973,
      "ĠplaÅĪ": 5974,
      "ĠvzdÃ½": 5975,
      "Ġklon": 5976,
      "ĠspleÅ¥": 5977,
      "ĠzÄįa": 5978,
      "Ġjep": 5979,
      "Ġjse": 5980,
      "ĠcÃŃp": 5981,
      "ĠlÃŃr": 5982,
      "ĠvÅ¡el": 5983,
      "Ġpuj": 5984,
      "ĠÅ¡pl": 5985,
      "ĠvsÃ¡z": 5986,
      "Ġtby": 5987,
      "ĠÄįpÃŃ": 5988,
      "Ġtoi": 5989,
      "Ġjiv": 5990,
      "ĠmÄĽÅĪ": 5991,
      "ĠmaÅĻ": 5992,
      "Ġsoh": 5993,
      "ĠÅ¡pe": 5994,
      "Ġ25": 5995,
      "ĠzÄįes": 5996,
      "Ġzvrh": 5997,
      "Ġvep": 5998,
      "Ġsles": 5999,
      "ĠctnÃ¡": 6000,
      "Ġfir": 6001,
      "Ġknouc": 6002,
      "Ġchvoj": 6003,
      "ĠhÃºt": 6004,
      "ĠhnÃŃ": 6005,
      "ĠsvÄĽÄį": 6006,
      "ĠstrÅ¾": 6007,
      "Ġkpom": 6008,
      "Ġvret": 6009,
      "Ġvhrou": 6010,
      "Ġbroj": 6011,
      "Ġvzho": 6012,
      "Ġzkon": 6013,
      "Ġsver": 6014,
      "Ġveh": 6015,
      "Ġduk": 6016,
      "ĠÃºÅ¡": 6017,
      "Ġvkme": 6018,
      "ĠhrsÅ¥": 6019,
      "Ġsvol": 6020,
      "Ġksy": 6021,
      "ĠÅ¡am": 6022,
      "Ġovz": 6023,
      "Ġvzbo": 6024,
      "Ġmstu": 6025,
      "ĠdÅ¡tÃŃ": 6026,
      "ĠÅĻeÅ¾": 6027,
      "ĠmÃ¡r": 6028,
      "Ġvjis": 6029,
      "ĠÅ¥Ã¡k": 6030,
      "Ġvplu": 6031,
      "ĠkvÅ¡e": 6032,
      "Ġvmh": 6033,
      "Ġzut": 6034,
      "ĠkÃ½ms": 6035,
      "Ġstkvou": 6036,
      "Ġlnu": 6037,
      "Ġzdor": 6038,
      "Ġchost": 6039,
      "Ġslon": 6040,
      "ĠrÃ½h": 6041,
      "ĠchÅĻtÃ¡n": 6042,
      "ĠbÃ³": 6043,
      "Ġvdrob": 6044,
      "hÅĻ": 6045,
      "ĠlpÄĽ": 6046,
      "Ġstlou": 6047,
      "Ġzvoj": 6048,
      "ĠÄįlÃ¡n": 6049,
      "Ġpsk": 6050,
      "Ġkdi": 6051,
      "ĠzÃŃd": 6052,
      "Ġlent": 6053,
      "Ġvtisk": 6054,
      "Ġclon": 6055,
      "ĠtskÃ½ch": 6056,
      "ĠÄįr": 6057,
      "Ġnij": 6058,
      "ĠpaÅ¾": 6059,
      "Ġvzno": 6060,
      "Ġzdla": 6061,
      "ĠtvÃ¡n": 6062,
      "Ġmour": 6063,
      "Ġvjem": 6064,
      "ĠdrÃ¡b": 6065,
      "Ġscvr": 6066,
      "Ġbvi": 6067,
      "Ġrri": 6068,
      "Ġzkus": 6069,
      "ĠXXAXXA": 6070,
      "Ġkjed": 6071,
      "ĠctÄĽn": 6072,
      "Ġnix": 6073,
      "Ġrop": 6074,
      "ĠdÃ½n": 6075,
      "Ġskrou": 6076,
      "ĠkbÃŃ": 6077,
      "ĠkÅ¡tic": 6078,
      "Ġvah": 6079,
      "Ġvir": 6080,
      "ĠhyÅĪ": 6081,
      "Ġbrak": 6082,
      "Ġsliz": 6083,
      "Ġumr": 6084,
      "ĠjÃ³": 6085,
      "Ġmlo": 6086,
      "ĠXAXX": 6087,
      "Ġvrz": 6088,
      "Ġklin": 6089,
      "Ġkpi": 6090,
      "Ġvbol": 6091,
      "ĠÅ¾hÃ¡": 6092,
      "Ġchel": 6093,
      "Ġvhud": 6094,
      "ĠzÅ¾en": 6095,
      "ĠÅ¾nec": 6096,
      "ÅĻem": 6097,
      "Ġlor": 6098,
      "Ġvyn": 6099,
      "Ġvyt": 6100,
      "ĠÅĻÃŃj": 6101,
      "Ġspos": 6102,
      "Ġztvo": 6103,
      "ĠsklÃ¡l": 6104,
      "Ġzmdlo": 6105,
      "ĠlÃŃs": 6106,
      "Ġvdvo": 6107,
      "ĠmÅ¯v": 6108,
      "ĠtlÅ¯": 6109,
      "Ġchrap": 6110,
      "Ġalp": 6111,
      "Ġxem": 6112,
      "ĠvmÃŃr": 6113,
      "ĠvskrÃ¡ÅĪ": 6114,
      "Ġkci": 6115,
      "ĠmÅ¡e": 6116,
      "ĠchÅĻÃŃ": 6117,
      "ĠdÃŃn": 6118,
      "Ġslin": 6119,
      "ĠÅ¡tu": 6120,
      "Ġtnou": 6121,
      "ĠÅ¡Ã¡l": 6122,
      "ĠdlÅ¯m": 6123,
      "ĠtÅĻÃŃc": 6124,
      "Ġksvo": 6125,
      "Ġschlad": 6126,
      "ĠkÅ¡e": 6127,
      "ĠboÄį": 6128,
      "ĠABAX": 6129,
      "ĠzdÅ¯": 6130,
      "Ġvsle": 6131,
      "ĠsvÃ©st": 6132,
      "ĠvdrÃ¡": 6133,
      "Ġvsti": 6134,
      "ĠvbrÃ¡": 6135,
      "Ġvzpur": 6136,
      "ĠÃŃm": 6137,
      "ĠvzmÃ¡": 6138,
      "Ġvsni": 6139,
      "ĠtÅĻech": 6140,
      "ĠvÅ¯v": 6141,
      "ĠknÄĽh": 6142,
      "Ġgest": 6143,
      "ĠvÅ¡im": 6144,
      "ĠstkÃ¡": 6145,
      "Ġmstou": 6146,
      "ĠstÅĻÃ¡b": 6147,
      "ĠsdÄĽc": 6148,
      "Ġhnizd": 6149,
      "ĠvdÃŃv": 6150,
      "ĠbuÅ¡": 6151,
      "Ġtrech": 6152,
      "Ġjli": 6153,
      "ĠÄįaj": 6154,
      "Ġkvra": 6155,
      "Ġkryj": 6156,
      "Ġtno": 6157,
      "Ġkk": 6158,
      "ĠmlÃŃ": 6159,
      "Ġsper": 6160,
      "Ġbrz": 6161,
      "Ġzkli": 6162,
      "Ġstvr": 6163,
      "ĠkoÅĻ": 6164,
      "ĠzeÅ¡": 6165,
      "Ġcop": 6166,
      "Ġvzpu": 6167,
      "ĠAAXBBB": 6168,
      "Ã¡s": 6169,
      "ĠstlÃ½ch": 6170,
      "ĠsaÄı": 6171,
      "ĠpuÄı": 6172,
      "Ġvpol": 6173,
      "Ġfis": 6174,
      "Ġvkost": 6175,
      "Ġvjih": 6176,
      "ĠbÅĻich": 6177,
      "ĠkÅ¡ÃŃ": 6178,
      "ĠsÄįa": 6179,
      "Ġmlej": 6180,
      "ĠvpÄĽk": 6181,
      "Ġzvlast": 6182,
      "Ġvvz": 6183,
      "Ġjhem": 6184,
      "Ġbva": 6185,
      "ĠchÅĻa": 6186,
      "Ġkrz": 6187,
      "ĠhouÄį": 6188,
      "Ġkvl": 6189,
      "ĠstÅĻÃŃm": 6190,
      "ĠvnÃŃz": 6191,
      "Ġvhoj": 6192,
      "Ġous": 6193,
      "ĠkrouÅ¾": 6194,
      "ĠXAB": 6195,
      "ĠsvlaÄį": 6196,
      "ĠzÅ¡ÃŃ": 6197,
      "ber": 6198,
      "Ġcre": 6199,
      "ĠvÅ¡at": 6200,
      "ĠzeÅ¥": 6201,
      "Ġprol": 6202,
      "ĠhlaÄı": 6203,
      "Ġthen": 6204,
      "ĠÅ¡lÃ©m": 6205,
      "Ġvluh": 6206,
      "ĠzkrÃ¡s": 6207,
      "ĠvcÃŃr": 6208,
      "Ġpnul": 6209,
      "ĠtrÅ¾": 6210,
      "ĠreÅ¡": 6211,
      "ĠvkvÃŃ": 6212,
      "Ġnals": 6213,
      "ĠtluÅ¡": 6214,
      "ĠÅ¡pet": 6215,
      "Ġvrov": 6216,
      "Ġchrou": 6217,
      "us": 6218,
      "Ġtne": 6219,
      "ĠllÃ¡": 6220,
      "Ã½z": 6221,
      "Ġjaj": 6222,
      "ĠkraÅ¡": 6223,
      "Ġschne": 6224,
      "ĠschvÃ¡l": 6225,
      "Ġkple": 6226,
      "Ġjrad": 6227,
      "Ġmir": 6228,
      "ĠsoÅ¡": 6229,
      "Ġbiv": 6230,
      "ĠhÅ¯d": 6231,
      "Ġvrop": 6232,
      "ĠblÃ½ch": 6233,
      "Ġpet": 6234,
      "Ġprej": 6235,
      "ĠjÃ¡ÅĻ": 6236,
      "Ġklop": 6237,
      "Ġvjev": 6238,
      "Ġkcha": 6239,
      "ĠseÄı": 6240,
      "Ġfen": 6241,
      "ĠstÅĻez": 6242,
      "ĠtmÃ¡": 6243,
      "Ġzmoh": 6244,
      "ĠzkÃ¡z": 6245,
      "Ġcp": 6246,
      "ĠpÅĻÃŃÄį": 6247,
      "Ġkti": 6248,
      "ĠÅ¾alm": 6249,
      "ĠprÃ½s": 6250,
      "ĠzniÄį": 6251,
      "Ġstka": 6252,
      "Ġsfinx": 6253,
      "ĠÅ¡eÅ¥": 6254,
      "ĠmÃŃÅ¥": 6255,
      "ĠsÃ¡d": 6256,
      "Ġdlec": 6257,
      "Ġdlet": 6258,
      "ĠÅ¡ust": 6259,
      "ĠtrÅ¯v": 6260,
      "Ġshod": 6261,
      "Ġvnach": 6262,
      "ĠplÃ©st": 6263,
      "ĠkstÃ¡": 6264,
      "ĠÅ¡Å¯m": 6265,
      "Ġpok": 6266,
      "Ġsvil": 6267,
      "ĠnÄĽh": 6268,
      "Ġzdna": 6269,
      "ĠkrÃ½ch": 6270,
      "Ġgla": 6271,
      "Ġvdus": 6272,
      "ĠkmÃ½m": 6273,
      "Ġkbu": 6274,
      "th": 6275,
      "Ġnum": 6276,
      "Ġgem": 6277,
      "ĠpiÅ¥": 6278,
      "Ġvlem": 6279,
      "Ġpse": 6280,
      "ĠÄįti": 6281,
      "ĠzmÃŃr": 6282,
      "ĠvcÃ¡": 6283,
      "ĠschÅ¯z": 6284,
      "ĠsjÃŃÅ¾": 6285,
      "ĠtnÃ¡": 6286,
      "ĠÅ¡ma": 6287,
      "ĠsÃŃk": 6288,
      "ĠtakÅĻ": 6289,
      "ĠvtÃ³": 6290,
      "Ġzvel": 6291,
      "ĠchrÃ¡n": 6292,
      "rÃ¡t": 6293,
      "Ġraf": 6294,
      "Ġstuh": 6295,
      "Ġskor": 6296,
      "ĠbrÃ¡zd": 6297,
      "Ġkspa": 6298,
      "ct": 6299,
      "ĠbÅĻa": 6300,
      "Ġbom": 6301,
      "Ġgru": 6302,
      "ĠAAXXXX": 6303,
      "Ġvlez": 6304,
      "Ġchri": 6305,
      "ĠnnÄĽj": 6306,
      "ĠdÅĻek": 6307,
      "Ġzprv": 6308,
      "Ġzdych": 6309,
      "ĠflÃŃk": 6310,
      "nÃ½m": 6311,
      "ĠÄįÃŃr": 6312,
      "Ġvut": 6313,
      "Ġbrlo": 6314,
      "Ġzkor": 6315,
      "ĠkliÄį": 6316,
      "ĠnebÅ¥": 6317,
      "ĠsblÃŃ": 6318,
      "ĠscÃŃ": 6319,
      "Ġdup": 6320,
      "ĠzdÃ½": 6321,
      "Ġdlost": 6322,
      "ĠzouÄį": 6323,
      "ĠvnÃ¡Å¡": 6324,
      "ĠvÅĻÃŃÅ¡": 6325,
      "ĠÅ¡ot": 6326,
      "ĠsÅ¾eh": 6327,
      "ĠvtÃ½l": 6328,
      "ĠXABBXA": 6329,
      "ĠhoÅĪ": 6330,
      "Ġdop": 6331,
      "Ġkdve": 6332,
      "ĠztÅĻe": 6333,
      "ĠstraÅ¾": 6334,
      "Ġcent": 6335,
      "ĠvloÄı": 6336,
      "ĠvÃ¡c": 6337,
      "Ġvps": 6338,
      "Ġdvy": 6339,
      "Ġtmav": 6340,
      "ĠÄıu": 6341,
      "ABBB": 6342,
      "Ġzrud": 6343,
      "Ġvco": 6344,
      "ĠkchrÃ¡": 6345,
      "ĠvÅ¡Å¥": 6346,
      "Ġdys": 6347,
      "ĠpÃ¡v": 6348,
      "Ġkvz": 6349,
      "Ġkpou": 6350,
      "ĠvneÅ¡": 6351,
      "ĠÄįuj": 6352,
      "Ġvsmrt": 6353,
      "Ã©st": 6354,
      "Ġvpal": 6355,
      "Ġplan": 6356,
      "Ġvhvoz": 6357,
      "Ġvils": 6358,
      "Ġtrut": 6359,
      "Ġvkan": 6360,
      "Ġznec": 6361,
      "Ġstlin": 6362,
      "Ġstliv": 6363,
      "Ġknuv": 6364,
      "Ġbrus": 6365,
      "ĠsbÃŃr": 6366,
      "Ġspur": 6367,
      "ĠstkvÄĽl": 6368,
      "ĠrÅ¾Ã¡": 6369,
      "Ġvzat": 6370,
      "ĠmÃ¡d": 6371,
      "Ġskles": 6372,
      "Ġtau": 6373,
      "Ġkda": 6374,
      "Ġsas": 6375,
      "ĠzmrÃ¡": 6376,
      "Ġtlan": 6377,
      "ĠÅ¾ils": 6378,
      "Ġsmet": 6379,
      "ĠssÃ¡t": 6380,
      "rÃ½": 6381,
      "ĠnÃ¡r": 6382,
      "Ġzper": 6383,
      "Ġzbil": 6384,
      "ĠlouÅ¡": 6385,
      "Ġbrej": 6386,
      "ĠstrÅ¯j": 6387,
      "ĠstyÄı": 6388,
      "Ġksl": 6389,
      "ĠzvÄĽn": 6390,
      "ĠktvÃ½m": 6391,
      "ĠterÄį": 6392,
      "Ġhno": 6393,
      "Ġrry": 6394,
      "Ġsthe": 6395,
      "ill": 6396,
      "ĠfÃ¡l": 6397,
      "ĠvbrÃ¡z": 6398,
      "ĠhluÅ¡": 6399,
      "ĠvstraÅ¡": 6400,
      "ĠzlÅ¯Å¾": 6401,
      "ĠdmÃ½": 6402,
      "ju": 6403,
      "Ġmid": 6404,
      "ĠciÅ¥": 6405,
      "ĠbeÅĪ": 6406,
      "Ġham": 6407,
      "ĠÅ¡iv": 6408,
      "Ġstov": 6409,
      "Ġchas": 6410,
      "ĠvÅĻesk": 6411,
      "Ġzles": 6412,
      "Ġmann": 6413,
      "ĠvÄįt": 6414,
      "Ġglic": 6415,
      "ĠjvÄĽr": 6416,
      "ky": 6417,
      "ĠÅ¾s": 6418,
      "Ġzac": 6419,
      "ĠznÄĽt": 6420,
      "ĠzÃ½ch": 6421,
      "ĠrÃ³": 6422,
      "Ġust": 6423,
      "ĠvoÅĪ": 6424,
      "Ġpror": 6425,
      "ĠtakÅ¾": 6426,
      "ĠprÃ¡m": 6427,
      "Ġrouch": 6428,
      "ĠzhÃ½": 6429,
      "ĠtÅĻÃŃd": 6430,
      "Ġzniv": 6431,
      "ĠvplÃ¡Å¡": 6432,
      "ĠdvÃŃÅĻ": 6433,
      "ĠzÅ¾eh": 6434,
      "ĠvÅĻÃ¡": 6435,
      "Ġskru": 6436,
      "Ġsml": 6437,
      "ĠzveÅ¡": 6438,
      "ĠmÃ½Å¾": 6439,
      "Ġpsem": 6440,
      "ĠdbÃ¡t": 6441,
      "ĠskvÃŃt": 6442,
      "ĠdÅ¡t": 6443,
      "ĠchÃ³r": 6444,
      "Ġkyj": 6445,
      "Ġodz": 6446,
      "Ġsum": 6447,
      "Ġdlas": 6448,
      "Ġzpout": 6449,
      "ĠkÅ¾a": 6450,
      "ĠÅ¡vÃ¡r": 6451,
      "ĠvzboÅ¾": 6452,
      "ĠÅ¡ÃŃÄį": 6453,
      "Ġbac": 6454,
      "ĠbÃ½k": 6455,
      "ĠsdÃŃt": 6456,
      "Ġvtrud": 6457,
      "Ġtoh": 6458,
      "Ġkad": 6459,
      "Ġkun": 6460,
      "Ġcil": 6461,
      "Ġvzu": 6462,
      "ĠzdÅĻe": 6463,
      "Ġzvat": 6464,
      "Ġtakt": 6465,
      "ĠvsnÃŃ": 6466,
      "ĠtÅĻÃŃn": 6467,
      "ĠstÅĻÃŃk": 6468,
      "ĠknÃŃm": 6469,
      "ĠzmÃŃn": 6470,
      "Ġtlej": 6471,
      "Ġvliv": 6472,
      "ĠÅĪuj": 6473,
      "ĠrtuÅ¥": 6474,
      "kal": 6475,
      "po": 6476,
      "ĠclÃ¡": 6477,
      "ĠloÅĪ": 6478,
      "ĠvsnÅ¯": 6479,
      "Ġzot": 6480,
      "Ġrik": 6481,
      "ĠvsÃŃÅ¥": 6482,
      "ĠtnÃŃm": 6483,
      "ĠvmuÅ¾": 6484,
      "ĠÅ¥ov": 6485,
      "Ġtci": 6486,
      "Ġvsbo": 6487,
      "Ġtkne": 6488,
      "ĠzÅĻels": 6489,
      "Ġvzed": 6490,
      "Ġsnub": 6491,
      "Ġsrub": 6492,
      "ic": 6493,
      "Ġvve": 6494,
      "ĠmÃŃc": 6495,
      "Ġziv": 6496,
      "ĠdrÅ¥": 6497,
      "Ġzhrd": 6498,
      "ĠstÅĻet": 6499,
      "Ġtils": 6500,
      "ĠsvÃ¡Å¡": 6501,
      "Ġskryj": 6502,
      "Ġoud": 6503,
      "Ġzcho": 6504,
      "lÃ¡d": 6505,
      "ĠhaÄį": 6506,
      "Ġstec": 6507,
      "Ġztou": 6508,
      "Ġnils": 6509,
      "ĠhlÅ¯": 6510,
      "ĠsvÃ¡Å¾": 6511,
      "Ġ26": 6512,
      "ĠflÃ³": 6513,
      "Ġsmej": 6514,
      "ĠkÃ½ÅĻ": 6515,
      "ĠvdÃ©": 6516,
      "Ġsvan": 6517,
      "ĠkliÄı": 6518,
      "Ġsbou": 6519,
      "Ġgerd": 6520,
      "Ġdvet": 6521,
      "ĠzlÃŃk": 6522,
      "ĠchmÅ¯": 6523,
      "Ġler": 6524,
      "Ġvzvu": 6525,
      "Ġknez": 6526,
      "ĠÅ¡tval": 6527,
      "ĠkviÄį": 6528,
      "Ġsplet": 6529,
      "Å¡em": 6530,
      "Ġkoz": 6531,
      "Ġlouk": 6532,
      "ĠAAA": 6533,
      "ĠzdÃ¡Å¡": 6534,
      "ĠÄįÃŃms": 6535,
      "ĠkzpÄĽ": 6536,
      "Ġfos": 6537,
      "ĠsplÃ¡ch": 6538,
      "Ġsprch": 6539,
      "Ġchnu": 6540,
      "Ġdesk": 6541,
      "Ġsplo": 6542,
      "ĠtÃ¡r": 6543,
      "ĠbaÅ¥": 6544,
      "ĠluÅ¡": 6545,
      "Ġbour": 6546,
      "ĠzvoÅĪ": 6547,
      "Ġzves": 6548,
      "ĠstÅĻÃŃÅ¡": 6549,
      "Ġvdom": 6550,
      "ĠzlÃŃh": 6551,
      "ĠvnuÄį": 6552,
      "ĠvzmÄĽ": 6553,
      "Ġmnul": 6554,
      "Ġkach": 6555,
      "ĠbeÅ¾": 6556,
      "ĠkrÃ¡st": 6557,
      "ĠÅ¡ij": 6558,
      "Ġpral": 6559,
      "ĠhÃ¡k": 6560,
      "ĠzÃŃv": 6561,
      "ĠbÅ¯v": 6562,
      "ĠzvÄĽt": 6563,
      "ĠschvÃŃ": 6564,
      "ĠdrosÅ¥": 6565,
      "ĠkpÅ¯l": 6566,
      "ĠÅ¡kvÃ¡": 6567,
      "Ġnevr": 6568,
      "ĠsmeÅ¥": 6569,
      "ĠvÅ¡Å¥ast": 6570,
      "Ġskni": 6571,
      "ĠraÄı": 6572,
      "ĠÅĻÃŃn": 6573,
      "Ġvsh": 6574,
      "ĠvpÅĻi": 6575,
      "Ġsub": 6576,
      "ĠgÃ¡t": 6577,
      "Ġzkrou": 6578,
      "Ġvzpa": 6579,
      "Ġvstav": 6580,
      "ĠvzkÅĻe": 6581,
      "Ġnerv": 6582,
      "Ġerb": 6583,
      "ĠvÅ¾Ã¡d": 6584,
      "lil": 6585,
      "ĠrÃ½t": 6586,
      "ĠkamÅ¾": 6587,
      "Ġzdum": 6588,
      "ĠstÅĻih": 6589,
      "ĠvpyÅ¡": 6590,
      "ĠsÄįi": 6591,
      "ĠmÅ¾ÃŃ": 6592,
      "ĠroÅĪ": 6593,
      "ĠloÅ¥": 6594,
      "ĠdÃŃÅ¾": 6595,
      "ĠdÃ¡Å¥": 6596,
      "ĠÅ¾iÅ¡": 6597,
      "ĠABABAA": 6598,
      "ĠprÃ½ch": 6599,
      "ĠvhlÃŃ": 6600,
      "Ġsrst": 6601,
      "Ġtop": 6602,
      "Ġmum": 6603,
      "ĠboÅĻ": 6604,
      "Ġmach": 6605,
      "Ġshou": 6606,
      "Ġvjes": 6607,
      "ĠÄįtyr": 6608,
      "ĠÅ¾Å¯v": 6609,
      "Ġvtri": 6610,
      "nem": 6611,
      "ĠsvlÃŃ": 6612,
      "ĠkdÃ¡": 6613,
      "Ġsur": 6614,
      "Ġchab": 6615,
      "ĠztÅ¯": 6616,
      "ĠvbdÄĽ": 6617,
      "ĠksnÄĽ": 6618,
      "Ġzrod": 6619,
      "ĠXABX": 6620,
      "Ġslits": 6621,
      "ĠÅ¡tÄĽrk": 6622,
      "Ġthic": 6623,
      "war": 6624,
      "ĠmnÃ¡": 6625,
      "ĠmÄĽs": 6626,
      "ĠpÅĻeh": 6627,
      "ĠAXX": 6628,
      "ĠlÃ©n": 6629,
      "ĠpÃ¡st": 6630,
      "ĠÅ¡to": 6631,
      "Ġfum": 6632,
      "Ġzsrd": 6633,
      "ll": 6634,
      "ĠhosÅ¥": 6635,
      "ĠspÃ½": 6636,
      "Ġvhar": 6637,
      "ĠzdÃ¡m": 6638,
      "Ġfrau": 6639,
      "Ġkant": 6640,
      "ĠkÅĻil": 6641,
      "ĠsÄįlo": 6642,
      "ĠsÅ¡ÃŃ": 6643,
      "ĠzbÅĻe": 6644,
      "BAC": 6645,
      "ĠvÅ¯t": 6646,
      "ĠstÅĻÃŃs": 6647,
      "ĠknÃŃr": 6648,
      "Ġzlep": 6649,
      "Ġchlil": 6650,
      "Ġvspa": 6651,
      "ĠABCBAC": 6652,
      "ĠÅ¾nÃŃch": 6653,
      "ĠhÃ³": 6654,
      "Å¡t": 6655,
      "Ġtaz": 6656,
      "ĠsprÃ¡z": 6657,
      "Ġfli": 6658,
      "ĠtraÅ¥": 6659,
      "Ġkrod": 6660,
      "ĠpÅ¯v": 6661,
      "Ġsdlou": 6662,
      "Ġtknou": 6663,
      "ĠvmoÅĻ": 6664,
      "ĠchlÃ©v": 6665,
      "ĠctnosÅ¥": 6666,
      "ĠÅĻuj": 6667,
      "Ġvtrp": 6668,
      "Ġvzchop": 6669,
      "ĠjÃŃk": 6670,
      "ĠmeÅ¾": 6671,
      "ĠvzÅĻÃŃ": 6672,
      "Ġbep": 6673,
      "ĠAABBXB": 6674,
      "Ġvklo": 6675,
      "Ġpik": 6676,
      "ĠstÄĽr": 6677,
      "Ġmoun": 6678,
      "ĠksÃŃ": 6679,
      "ĠÅ¥at": 6680,
      "Ġskan": 6681,
      "Ġznez": 6682,
      "Ġharf": 6683,
      "ĠkÄįlo": 6684,
      "Ġzbez": 6685,
      "Ġstam": 6686,
      "Ġsim": 6687,
      "ĠkÃ¡d": 6688,
      "ĠsteÅ¡": 6689,
      "Ġvdny": 6690,
      "Ġzblu": 6691,
      "ĠchyÅĪ": 6692,
      "ĠvÅĻeÄį": 6693,
      "ĠskÅĻip": 6694,
      "ĠÅ¡Å¥av": 6695,
      "Ġvdav": 6696,
      "Ġztuh": 6697,
      "Ġragd": 6698,
      "Ġnest": 6699,
      "Ġmast": 6700,
      "Ġstau": 6701,
      "ĠsiÅ¥": 6702,
      "Ġplyn": 6703,
      "Ġkpod": 6704,
      "ĠÅ¡Ã¡n": 6705,
      "ĠsdruÅ¾": 6706,
      "ld": 6707,
      "Ġdran": 6708,
      "ĠtÅĻiÄį": 6709,
      "ĠtkÃ¡m": 6710,
      "ĠlhÅ¯": 6711,
      "Ġschyl": 6712,
      "Ġbak": 6713,
      "Ġprz": 6714,
      "ĠzÃŃc": 6715,
      "Ġvhym": 6716,
      "Ġrous": 6717,
      "ĠksvÃ¡t": 6718,
      "ĠsnÄĽd": 6719,
      "Ġknej": 6720,
      "ĠdlÃ¡n": 6721,
      "Ġpnout": 6722,
      "ĠpokÅĻ": 6723,
      "ÅĻil": 6724,
      "Ġvex": 6725,
      "Ġkouk": 6726,
      "Ġsyc": 6727,
      "Ġvtrou": 6728,
      "Ġsloh": 6729,
      "Ġpodv": 6730,
      "Ġtlas": 6731,
      "Ġkret": 6732,
      "ĠvzkvÃ©": 6733,
      "ĠvÅ¡ik": 6734,
      "Ġknem": 6735,
      "Ġsfer": 6736,
      "Ġzjiz": 6737,
      "ĠvpÄĽst": 6738,
      "ck": 6739,
      "Ġvlach": 6740,
      "Ġvouz": 6741,
      "Ġstve": 6742,
      "Ġkzou": 6743,
      "ĠtnÃŃch": 6744,
      "Ġsjich": 6745,
      "ĠbdÃŃÅ¡": 6746,
      "ĠzblÃ¡z": 6747,
      "Ġph": 6748,
      "ĠÅ¡rou": 6749,
      "ĠÅ¾ec": 6750,
      "Ġlyp": 6751,
      "ĠÅ¡iÅ¡": 6752,
      "Ġvdal": 6753,
      "Ġvdum": 6754,
      "ĠÄįÃ¡sÅ¥": 6755,
      "ĠstÅĻil": 6756,
      "ĠkÅĻÃ¡l": 6757,
      "ĠvzpÄĽv": 6758,
      "Ġpni": 6759,
      "ĠÅ¾ÃŃÅ¥": 6760,
      "Ġzvin": 6761,
      "Ġvsil": 6762,
      "ĠbiÅ¥": 6763,
      "Ġvhan": 6764,
      "Ġsdr": 6765,
      "Ġxo": 6766,
      "Ġchcy": 6767,
      "ĠmodÅĻ": 6768,
      "Ġdvrh": 6769,
      "vor": 6770,
      "ĠsvÅ¡ÃŃ": 6771,
      "ĠkÃ¡Äį": 6772,
      "ĠrÃ¡c": 6773,
      "ĠbÃŃch": 6774,
      "ĠsvÃŃc": 6775,
      "ĠstrÃ¡m": 6776,
      "Ġxa": 6777,
      "Ġvskok": 6778,
      "Ġstle": 6779,
      "ĠÅ¡ip": 6780,
      "ĠstÅĻes": 6781,
      "Ġstoun": 6782,
      "ĠÅ¡lal": 6783,
      "ĠhlÃ¡v": 6784,
      "Ġzkom": 6785,
      "Ġvtry": 6786,
      "ĠvpÃ¡d": 6787,
      "ĠvdruÅ¾": 6788,
      "pa": 6789,
      "Ġzst": 6790,
      "Ġbvo": 6791,
      "ĠÅ¡eÅ¡": 6792,
      "ĠvÃŃÅ¥": 6793,
      "Ġrut": 6794,
      "ĠvtÅĻ": 6795,
      "ĠstÄĽch": 6796,
      "Ġkslav": 6797,
      "Ġktu": 6798,
      "Ġtryl": 6799,
      "Ġzliv": 6800,
      "ĠÅĻÃŃct": 6801,
      "ĠkchvÃ¡": 6802,
      "Ġsbles": 6803,
      "ĠlvÅ¯": 6804,
      "Ġnac": 6805,
      "ĠkÃ¡v": 6806,
      "ĠpÅĻiv": 6807,
      "ĠXAXB": 6808,
      "ĠlÃ½t": 6809,
      "ĠzbrÃ¡z": 6810,
      "Ġgno": 6811,
      "Ġbrv": 6812,
      "Ġzvet": 6813,
      "ĠkveÅ¥": 6814,
      "Ġzbran": 6815,
      "ĠÅ¾luÅ¥": 6816,
      "ĠzruÄį": 6817,
      "Ġchlip": 6818,
      "ĠblÃ©m": 6819,
      "Ġskvrn": 6820,
      "Ġfouk": 6821,
      "Ġjezd": 6822,
      "ĠÅ¾rou": 6823,
      "Ġlai": 6824,
      "ĠmaÅ¥": 6825,
      "Ġvtro": 6826,
      "Ġzty": 6827,
      "ĠzkÅ¯": 6828,
      "Ġtrouch": 6829,
      "Ġtlouk": 6830,
      "ĠvseÄį": 6831,
      "ĠvstÅĻed": 6832,
      "ĠchlÃŃp": 6833,
      "Ġfaun": 6834,
      "ĠshvÄĽzd": 6835,
      "Ġvheb": 6836,
      "zi": 6837,
      "ĠkuÄı": 6838,
      "ĠvoÅ¡": 6839,
      "ĠhÃ¡l": 6840,
      "ĠbÃŃc": 6841,
      "Ġvbal": 6842,
      "Ġksvat": 6843,
      "ĠpÅĻÃ¡n": 6844,
      "Ġcaj": 6845,
      "Ġvkry": 6846,
      "Ġllan": 6847,
      "ĠkskÃ¡": 6848,
      "ĠrÃŃ": 6849,
      "Ġnand": 6850,
      "Ġkain": 6851,
      "Ġdud": 6852,
      "ĠÄįis": 6853,
      "ĠsvÄĽn": 6854,
      "Ġsyk": 6855,
      "Ġhust": 6856,
      "Ġzvos": 6857,
      "Ġtrak": 6858,
      "Ġkmy": 6859,
      "ĠkbrÃ¡": 6860,
      "Ġkcho": 6861,
      "Ġpsot": 6862,
      "ĠÅ¡tÃ¡ÅĻ": 6863,
      "Ġii": 6864,
      "ĠABABBA": 6865,
      "ĠsoÅĪ": 6866,
      "Ġstrah": 6867,
      "ĠsdrÃ¡": 6868,
      "Ġvzbro": 6869,
      "Ġkpoz": 6870,
      "Ġzjem": 6871,
      "Ġvkrad": 6872,
      "ĠÄįÅ¯v": 6873,
      "Ġdolf": 6874,
      "ĠchlÃ¡d": 6875,
      "Ġlvem": 6876,
      "AAB": 6877,
      "ĠkÅĪu": 6878,
      "ĠbÅ¯j": 6879,
      "ĠAABAAB": 6880,
      "Ġzust": 6881,
      "ĠzÅĻÃŃc": 6882,
      "ĠspÃ¡Äį": 6883,
      "ĠthÅ¯": 6884,
      "Ġcus": 6885,
      "ĠbÅĻÃŃk": 6886,
      "Ġrant": 6887,
      "Ġlhou": 6888,
      "ĠkÅĻivd": 6889,
      "ĠkjÃŃ": 6890,
      "Ġjry": 6891,
      "rÃ¡m": 6892,
      "Ġkdnu": 6893,
      "ĠtÅĻev": 6894,
      "ĠhÃ½l": 6895,
      "Ġdils": 6896,
      "ĠtÅĻem": 6897,
      "Ġkba": 6898,
      "ĠÄįteÅ¡": 6899,
      "Ġvblud": 6900,
      "ĠÄįlen": 6901,
      "ĠvvÃ½": 6902,
      "ĠclÃ©": 6903,
      "Ġnoz": 6904,
      "ĠvaÅ¡": 6905,
      "Ġzeh": 6906,
      "Ġhuk": 6907,
      "Ġhup": 6908,
      "Ġtril": 6909,
      "Ġvsli": 6910,
      "Ġvpru": 6911,
      "Ġslup": 6912,
      "ĠvmlÃ½": 6913,
      "ĠslÃŃk": 6914,
      "Ġkmr": 6915,
      "Ġkzlo": 6916,
      "Ġchrp": 6917,
      "Ġkuds": 6918,
      "ĠpÅ¡en": 6919,
      "Ġchnou": 6920,
      "Ġrah": 6921,
      "ĠÅ¾ÃŃÅ¾": 6922,
      "Ġsav": 6923,
      "Ġsleh": 6924,
      "Ġstrej": 6925,
      "Ġye": 6926,
      "ĠstruÅ¾": 6927,
      "ĠshoÄı": 6928,
      "Ġvloh": 6929,
      "ĠÅ¡lÃ¡ÅĻ": 6930,
      "ĠkvoÄį": 6931,
      "tin": 6932,
      "ĠzatÅĻ": 6933,
      "XAA": 6934,
      "ĠtÃ¡Äį": 6935,
      "Ġbrk": 6936,
      "ĠzmÄĽst": 6937,
      "Ġzvrat": 6938,
      "ĠÄįmou": 6939,
      "Ġjir": 6940,
      "Ġuil": 6941,
      "Ġhouc": 6942,
      "Ġhral": 6943,
      "ĠkÃ©ms": 6944,
      "Ġzchlad": 6945,
      "ĠvbÃŃd": 6946,
      "ĠfÃŃn": 6947,
      "ĠhviÄį": 6948,
      "ĠstrÅ¯v": 6949,
      "Ġkyv": 6950,
      "ĠskÅ¯": 6951,
      "ĠvuÅ¡": 6952,
      "ĠvraÅ¡": 6953,
      "ĠouÅ¡": 6954,
      "ĠdÅĻel": 6955,
      "Ġxy": 6956,
      "Ġllas": 6957,
      "mÃŃ": 6958,
      "Ġjech": 6959,
      "ĠÅ¾ni": 6960,
      "ĠnÃ¡Å¥": 6961,
      "ĠstÃ¡Å¡": 6962,
      "Ġskop": 6963,
      "ĠspÃ¡s": 6964,
      "Ġsejn": 6965,
      "Ġklouz": 6966,
      "ĠÅ¯v": 6967,
      "Ġvoch": 6968,
      "Ġboch": 6969,
      "Ġdim": 6970,
      "Ġcom": 6971,
      "Ġsmar": 6972,
      "ĠpÄĽÅ¥": 6973,
      "ĠvdneÅ¡": 6974,
      "Ġvman": 6975,
      "Ġvchmur": 6976,
      "Ġya": 6977,
      "Ġlles": 6978,
      "ĠÅ¥uÅ¡": 6979,
      "Ġvcy": 6980,
      "Ġsprv": 6981,
      "ĠtskÃ½": 6982,
      "ĠABAXBX": 6983,
      "nut": 6984,
      "Ġjl": 6985,
      "ĠzÅĻa": 6986,
      "ĠÅ¡vÃ©": 6987,
      "ĠcÃŃt": 6988,
      "Ġvzvo": 6989,
      "liÅ¾": 6990,
      "Ġeo": 6991,
      "Ġkvar": 6992,
      "ĠzklÃ¡": 6993,
      "ĠklÃŃt": 6994,
      "ĠtÅĻtin": 6995,
      "Ġzpov": 6996,
      "ĠskrÃ¡s": 6997,
      "Ġjdouc": 6998,
      "Ġvkos": 6999,
      "ĠvskÅĻÃŃ": 7000,
      "Ġfrank": 7001,
      "ĠvjitÅĻ": 7002,
      "Ġfres": 7003,
      "Ġmlkl": 7004,
      "ĠszÃ¡": 7005,
      "hou": 7006,
      "vil": 7007,
      "Ġroch": 7008,
      "Ġloj": 7009,
      "ĠvtÃ©m": 7010,
      "ĠÃºl": 7011,
      "ĠkvÅ¡em": 7012,
      "ĠvstÄĽ": 7013,
      "ĠzkÅĻo": 7014,
      "Ġskri": 7015,
      "ĠhrÃ¡Äį": 7016,
      "ĠÅ¡kor": 7017,
      "Ġcan": 7018,
      "ĠÅ¾hnu": 7019,
      "ĠÅ¡kub": 7020,
      "dÄĽÄį": 7021,
      "ĠvzmuÅ¾": 7022,
      "Ġjha": 7023,
      "Å¾ou": 7024,
      "ĠvztÄĽ": 7025,
      "Ġzvil": 7026,
      "ĠvtÅĻÃŃ": 7027,
      "Ġzhle": 7028,
      "Ġshan": 7029,
      "ĠvÅĻev": 7030,
      "ĠkpÅ¯": 7031,
      "ĠzÅ¯v": 7032,
      "ĠzdÃŃch": 7033,
      "Ġthyr": 7034,
      "ĠXABAXB": 7035,
      "zdy": 7036,
      "ĠÅ¡ra": 7037,
      "Ġloh": 7038,
      "Ġdeh": 7039,
      "ĠÅ¡ÃŃt": 7040,
      "Äıa": 7041,
      "Ġchuj": 7042,
      "ĠpÃŃn": 7043,
      "ĠvdÅĻÃŃ": 7044,
      "ĠvdÃ¡t": 7045,
      "ĠmÃ©r": 7046,
      "ĠzhrÅ¯": 7047,
      "ĠstÅĻeÅ¾": 7048,
      "ĠÅĪat": 7049,
      "ĠhrÃ¡Å¡": 7050,
      "ĠvlÃŃk": 7051,
      "Ġsjez": 7052,
      "ĠzÅ¾a": 7053,
      "ĠvtÃ¡h": 7054,
      "ir": 7055,
      "Ġdrh": 7056,
      "Ġdnil": 7057,
      "Ġsmrk": 7058,
      "Ġfec": 7059,
      "ĠvsÃŃch": 7060,
      "ĠvraÅ¾d": 7061,
      "Ġvspou": 7062,
      "ĠzbÄĽÅĻ": 7063,
      "Ġsklid": 7064,
      "ĠsÅĻas": 7065,
      "ĠmoÅ¡": 7066,
      "Ġcor": 7067,
      "ĠsuÅ¡": 7068,
      "ĠvlÃ¡z": 7069,
      "ĠschÅ¯d": 7070,
      "Ġbils": 7071,
      "ĠkstrÃ¡": 7072,
      "Ġsze": 7073,
      "ÅĻbi": 7074,
      "ĠmaÅ¾": 7075,
      "ĠsmÃ©": 7076,
      "ĠAABXXB": 7077,
      "ĠspoÄį": 7078,
      "Ġbrech": 7079,
      "ĠstÅĻep": 7080,
      "ĠmÄĽlÅ¥": 7081,
      "Ġplev": 7082,
      "Ġant": 7083,
      "ĠvchvÄĽ": 7084,
      "ĠÅ¡ta": 7085,
      "Ġlant": 7086,
      "Ġllon": 7087,
      "Ġsstou": 7088,
      "ĠchÃ³": 7089,
      "Ġprod": 7090,
      "ĠdyÅĪ": 7091,
      "Ġprask": 7092,
      "Ġgle": 7093,
      "ĠÅĻils": 7094,
      "ĠÅ¾ov": 7095,
      "Ġthle": 7096,
      "Ġtlech": 7097,
      "ĠÅ¾ul": 7098,
      "ĠzdÄĽl": 7099,
      "ĠmniÅ¡": 7100,
      "ĠvpÅĻÃŃt": 7101,
      "ĠÅĻov": 7102,
      "ĠABCCBA": 7103,
      "ĠdÅ¡tÃ½": 7104,
      "ĠjiÅ¥": 7105,
      "Ġrai": 7106,
      "ĠstÃŃt": 7107,
      "ĠprÃ©m": 7108,
      "ĠstvÃ©m": 7109,
      "Ġvlej": 7110,
      "ĠtkÃ¡t": 7111,
      "ĠsnÃ¡ÅĻ": 7112,
      "Ġvklet": 7113,
      "Ġflex": 7114,
      "ĠdÅ¡ti": 7115,
      "ĠpnÃŃ": 7116,
      "Ġrhe": 7117,
      "ĠmÄĽÄı": 7118,
      "Ġsmno": 7119,
      "ĠsvÄĽÅĻ": 7120,
      "ĠstÅĻeÅĪ": 7121,
      "Ġschod": 7122,
      "Ġhnis": 7123,
      "ĠvÄįÃŃÅ¡": 7124,
      "ĠznÄĽjÅ¾": 7125,
      "ĠvmhÃ¡ch": 7126,
      "Ġmak": 7127,
      "Ġlif": 7128,
      "ĠkrÃ¡ch": 7129,
      "Ġvlam": 7130,
      "Ġstyk": 7131,
      "ĠblÃŃk": 7132,
      "ĠmÃ½t": 7133,
      "ĠÅ¡plÃŃ": 7134,
      "Ġknil": 7135,
      "Ġdotk": 7136,
      "ĠvlÃ©k": 7137,
      "ĠAAAABB": 7138,
      "zv": 7139,
      "Ġhin": 7140,
      "Ġchne": 7141,
      "Ġdez": 7142,
      "Ġtyl": 7143,
      "ĠÅ¡ir": 7144,
      "ĠpÅĻÃŃj": 7145,
      "Ġztla": 7146,
      "Ġstrp": 7147,
      "ĠvchlÃ©": 7148,
      "Ġkzla": 7149,
      "ĠzvÃŃm": 7150,
      "Ġvkam": 7151,
      "ĠvÄįin": 7152,
      "Ġfel": 7153,
      "ĠvspÃŃ": 7154,
      "ĠAAXAXA": 7155,
      "Ġvmih": 7156,
      "ĠmÃ³d": 7157,
      "Ġmzdy": 7158,
      "Ġvych": 7159,
      "ĠÅ¾ÃŃÄį": 7160,
      "ĠÅ¡iÅ¥": 7161,
      "Ġsost": 7162,
      "Ġhron": 7163,
      "Ġshud": 7164,
      "Ġmlas": 7165,
      "Ġvzpi": 7166,
      "ĠstÅĻÃŃd": 7167,
      "ĠstÅĻÃŃÅ¾": 7168,
      "ĠtrÃ¡k": 7169,
      "ĠÅĻÃ¡p": 7170,
      "ĠzlÃŃÄį": 7171,
      "ĠkÃºs": 7172,
      "ĠÅ¾hÃ¡ÅĻ": 7173,
      "Ġag": 7174,
      "ĠÅ¾vÃ½": 7175,
      "ĠoÅĪ": 7176,
      "ĠÄįep": 7177,
      "Ġtuc": 7178,
      "Ġsij": 7179,
      "Ġhul": 7180,
      "Ġef": 7181,
      "Ġvstes": 7182,
      "Ġdved": 7183,
      "Ġssrd": 7184,
      "Ġgun": 7185,
      "Ġhryz": 7186,
      "ĠABBABX": 7187,
      "ĠzmlÃ¡d": 7188,
      "ĠblÅ¯v": 7189,
      "ĠAXBBAX": 7190,
      "ĠjÃº": 7191,
      "ĠÅ¡lÃ½m": 7192,
      "Ġspil": 7193,
      "ĠpÅĻÃŃst": 7194,
      "Ġzraj": 7195,
      "Ġvkva": 7196,
      "Ġspoz": 7197,
      "ĠdloÅ¾": 7198,
      "ĠstruÄį": 7199,
      "ĠvzklÃŃ": 7200,
      "ĠsprÃ¡s": 7201,
      "Ġkjich": 7202,
      "Ġzbit": 7203,
      "ĠABCAC": 7204,
      "ĠABCACB": 7205,
      "ĠllÅ¯": 7206,
      "Ġlij": 7207,
      "Ġvest": 7208,
      "Ġkuch": 7209,
      "Ġskly": 7210,
      "ĠbÄĽr": 7211,
      "ĠbÃŃÅĻ": 7212,
      "Ġsteh": 7213,
      "Ġtrost": 7214,
      "Ġvros": 7215,
      "ĠÄįnÃŃt": 7216,
      "Ġmhla": 7217,
      "Ġvbit": 7218,
      "ĠlÅ¾eÅ¡": 7219,
      "Ġfred": 7220,
      "Ġnven": 7221,
      "ĠÅĻkouc": 7222,
      "ĠABXABX": 7223,
      "ĠÅĻal": 7224,
      "ĠdeÅ¥": 7225,
      "Ġbuv": 7226,
      "Ġig": 7227,
      "ĠzvÃ©": 7228,
      "ĠbaÅĻ": 7229,
      "ĠÃºd": 7230,
      "ĠvkrÅ¯": 7231,
      "Ġvbor": 7232,
      "Ġmrk": 7233,
      "ĠznÃ¡Å¥": 7234,
      "Ġschle": 7235,
      "Ġvchmu": 7236,
      "ĠzmÄĽt": 7237,
      "ĠvskrÃ½": 7238,
      "ĠsÃ½p": 7239,
      "ĠkrÃ½v": 7240,
      "ĠAXXAXX": 7241,
      "Ġtba": 7242,
      "Ġsblan": 7243,
      "Ġllou": 7244,
      "ouch": 7245,
      "Ġstak": 7246,
      "Ġdow": 7247,
      "ĠdÃ¡c": 7248,
      "Ġstaf": 7249,
      "ĠmÃŃl": 7250,
      "ĠmÃŃz": 7251,
      "Ġvply": 7252,
      "ĠÅĻid": 7253,
      "Ġec": 7254,
      "Ġzbru": 7255,
      "Ġscha": 7256,
      "ĠklÃ¡t": 7257,
      "ĠvruÄį": 7258,
      "ĠvÅĻÃŃm": 7259,
      "Ġzbur": 7260,
      "Ġchlup": 7261,
      "Ġkstra": 7262,
      "ĠvkÅĻÃŃÅ¾": 7263,
      "Ġvdrs": 7264,
      "ĠnaÅ¡": 7265,
      "Ġvau": 7266,
      "ÅĪat": 7267,
      "Ġpys": 7268,
      "Ġkryv": 7269,
      "ĠvzÃ¡Å¡": 7270,
      "Ġzpol": 7271,
      "ĠkzÃ¡m": 7272,
      "ĠchouÄį": 7273,
      "Ġvsvor": 7274,
      "ĠzjÃ¡": 7275,
      "Ġsrost": 7276,
      "ĠrvaÄį": 7277,
      "Ġksko": 7278,
      "ĠvÅ¡pi": 7279,
      "ĠvsnÃŃh": 7280,
      "Ġloch": 7281,
      "Ġdun": 7282,
      "ĠmuÄį": 7283,
      "ĠhaÅ¡": 7284,
      "ĠzbrÃ¡": 7285,
      "Ġdraz": 7286,
      "ĠprÃ¡Å¡": 7287,
      "Ġzke": 7288,
      "Ġvsoud": 7289,
      "ĠjradÅ¡": 7290,
      "Ġtwar": 7291,
      "ĠÅ¾eÅ¾": 7292,
      "ĠslÃ©m": 7293,
      "Ġvzas": 7294,
      "Ġhab": 7295,
      "Ġzprou": 7296,
      "Ġznou": 7297,
      "ĠgÃ¶": 7298,
      "Ġstur": 7299,
      "ĠrÃ½s": 7300,
      "ĠbÅĻev": 7301,
      "Ġpils": 7302,
      "Ġchals": 7303,
      "Ġkhr": 7304,
      "ĠÅ¡tkal": 7305,
      "ĠÄįov": 7306,
      "ĠzmuÅ¾": 7307,
      "Ġshroz": 7308,
      "ĠrtÃŃk": 7309,
      "Ġtc": 7310,
      "ĠzÅĻas": 7311,
      "Ġaet": 7312,
      "ĠÅ¾rÃ¡": 7313,
      "Ġskar": 7314,
      "Ġtuk": 7315,
      "ĠsvÄĽc": 7316,
      "ĠkdyÅ¾s": 7317,
      "ĠvsÃ¡l": 7318,
      "Ġvsmu": 7319,
      "Ġzpan": 7320,
      "ĠpÃ¡Äį": 7321,
      "Ġzmet": 7322,
      "Ġztru": 7323,
      "Ġzyv": 7324,
      "ĠpÃ½t": 7325,
      "Ġyo": 7326,
      "ĠkhÅĻÃŃ": 7327,
      "Ġklus": 7328,
      "ĠzprÃ¡ch": 7329,
      "Ġvga": 7330,
      "ĠkÅĻtu": 7331,
      "Ġnr": 7332,
      "Ġlisk": 7333,
      "Ġvzna": 7334,
      "ĠtyÅ¥": 7335,
      "Ġbard": 7336,
      "ĠtamÅ¥": 7337,
      "ĠÄįtla": 7338,
      "Ġvlov": 7339,
      "ĠÅ¡tvou": 7340,
      "ĠssvÃ½m": 7341,
      "Ġgran": 7342,
      "ĠkÅĻtÃŃ": 7343,
      "ĠvsnÄĽÅ¾": 7344,
      "Ġmhu": 7345,
      "Ġfric": 7346,
      "ĠshlÃŃd": 7347,
      "ĠcÃ©v": 7348,
      "Ġpstru": 7349,
      "ĠmÅ¾ou": 7350,
      "Ġchmou": 7351,
      "Ġted": 7352,
      "ĠslÃº": 7353,
      "ĠdÃ¡s": 7354,
      "Ġpai": 7355,
      "Ġvkyt": 7356,
      "Ġstrof": 7357,
      "ĠshÅĻÃŃ": 7358,
      "ĠvlÃ¡st": 7359,
      "Ġtrus": 7360,
      "ĠzÃ½s": 7361,
      "Ġvpros": 7362,
      "ĠvplÃ¡ÅĪ": 7363,
      "Ġvmet": 7364,
      "Ġvtre": 7365,
      "Ġvctno": 7366,
      "ĠAXBABX": 7367,
      "ĠvvÄĽÄį": 7368,
      "im": 7369,
      "ĠÅĻvÃ¡t": 7370,
      "ĠvoÄį": 7371,
      "ĠboÄı": 7372,
      "Ġlys": 7373,
      "ĠiÃŃ": 7374,
      "Ġsyr": 7375,
      "ĠjÃ¡n": 7376,
      "Ġvbro": 7377,
      "Ġklost": 7378,
      "Ġspan": 7379,
      "ĠstÃ½n": 7380,
      "ĠpsÃ¡n": 7381,
      "Ġsrou": 7382,
      "ĠvzplaÅĪ": 7383,
      "Ġstmou": 7384,
      "ĠzkÅĻik": 7385,
      "Ġbvaz": 7386,
      "ku": 7387,
      "ĠneÅ¥": 7388,
      "Ġsvrou": 7389,
      "Ġrup": 7390,
      "Ġie": 7391,
      "ĠsleÅ¥": 7392,
      "Ġklis": 7393,
      "Ġkpros": 7394,
      "Ġjon": 7395,
      "ĠÄįemÅ¾": 7396,
      "Ġvkob": 7397,
      "Ġzruch": 7398,
      "ĠABBXAX": 7399,
      "ĠzÅ¾u": 7400,
      "ĠchmÃº": 7401,
      "Ġpten": 7402,
      "un": 7403,
      "Ġmich": 7404,
      "ĠvÃŃl": 7405,
      "Ġdoup": 7406,
      "Ġbrah": 7407,
      "ĠgÃ³": 7408,
      "Ġvzdmu": 7409,
      "ĠsmÄĽt": 7410,
      "Ġvstan": 7411,
      "Ġsprost": 7412,
      "Ġzjis": 7413,
      "ĠvrÅ¯Å¾": 7414,
      "Ġnymf": 7415,
      "ĠÅ¡vÃ¡b": 7416,
      "ĠÅ¡tej": 7417,
      "ĠsvÅ¡ÃŃm": 7418,
      "ĠnoÅ¥": 7419,
      "Ġstaj": 7420,
      "ĠbÅĻeÅ¾": 7421,
      "Ġvpom": 7422,
      "ĠpleÅ¡": 7423,
      "Ġkplu": 7424,
      "Ġhrub": 7425,
      "ĠdrÃ¡n": 7426,
      "ĠÅ¡pal": 7427,
      "ĠÅ¾dyc": 7428,
      "Ġfyr": 7429,
      "Ġcvik": 7430,
      "Ġtbu": 7431,
      "Ġap": 7432,
      "rÃ¡d": 7433,
      "ĠstiÅ¡": 7434,
      "Ġed": 7435,
      "ĠgÅĻÃŃ": 7436,
      "Ġdven": 7437,
      "Ġknes": 7438,
      "ĠstÅĻÃŃt": 7439,
      "ĠtÅĻo": 7440,
      "Ġvnov": 7441,
      "ĠÄįems": 7442,
      "Ġfic": 7443,
      "ĠbÅĻÃŃÅ¡": 7444,
      "Ġvzbra": 7445,
      "Ġtroup": 7446,
      "ĠvbÃ¡j": 7447,
      "Ġkvoj": 7448,
      "vÅ¯r": 7449,
      "ĠtÃº": 7450,
      "Ġtest": 7451,
      "Ġmik": 7452,
      "Ġroic": 7453,
      "ĠkdÃ¡l": 7454,
      "Ġnoun": 7455,
      "Ġtvem": 7456,
      "Ġvik": 7457,
      "Ġslam": 7458,
      "ĠvÃŃmÅ¥": 7459,
      "Ġmde": 7460,
      "Ġcam": 7461,
      "Ġkbi": 7462,
      "Ġsmyl": 7463,
      "Ġzchat": 7464,
      "ĠskÅĻÃŃn": 7465,
      "Ġkis": 7466,
      "ĠchÅĻic": 7467,
      "Ġakt": 7468,
      "Ġthos": 7469,
      "ĠnoÅĻ": 7470,
      "Ġdai": 7471,
      "ĠÅ¾ic": 7472,
      "ĠvÅ¡ep": 7473,
      "ĠzÃŃn": 7474,
      "Ġfak": 7475,
      "ĠsÃ¡r": 7476,
      "Ġblas": 7477,
      "Ġzkme": 7478,
      "Ġtrov": 7479,
      "ĠzlosÅ¥": 7480,
      "ĠÄįÃŃmÅ¾": 7481,
      "Ġsvic": 7482,
      "ĠÅ¥ou": 7483,
      "ĠhlÃŃÅĻ": 7484,
      "ĠÄıo": 7485,
      "Ġkhe": 7486,
      "Ġsfa": 7487,
      "ĠtlÃŃt": 7488,
      "ĠzkvÃ©st": 7489,
      "ĠsÄįÃŃm": 7490,
      "Ġzmdlob": 7491,
      "Ġnrich": 7492,
      "Ġdch": 7493,
      "ÅĻu": 7494,
      "Ġdet": 7495,
      "ĠÅ¡ÃŃr": 7496,
      "Ġiem": 7497,
      "ĠsmlÃ¡": 7498,
      "ĠhaÅĪ": 7499,
      "Ġvsna": 7500,
      "ĠklaÄı": 7501,
      "ĠzkvÄĽt": 7502,
      "ĠzhlÃ©": 7503,
      "ĠkroÅ¥": 7504,
      "Ġdls": 7505,
      "Ġplej": 7506,
      "Ġfix": 7507,
      "ĠsÃºz": 7508,
      "Ġfun": 7509,
      "ĠsÄįel": 7510,
      "ĠzrÅ¯z": 7511,
      "Ġskliz": 7512,
      "Ġatd": 7513,
      "Ġzknih": 7514,
      "Ġvklub": 7515,
      "ĠXABXAB": 7516,
      "ĠmÅĪ": 7517,
      "ĠmÅ¾e": 7518,
      "ĠÅ¾re": 7519,
      "ĠÄįtÄĽ": 7520,
      "Ġvoc": 7521,
      "ĠpÅĻit": 7522,
      "ĠjÃ¡r": 7523,
      "Ġhyl": 7524,
      "skÃ©": 7525,
      "Ġbrost": 7526,
      "ĠklÃŃb": 7527,
      "ĠsÃ½Äį": 7528,
      "Ġhmat": 7529,
      "Ġzhyz": 7530,
      "ĠdbÃ¡m": 7531,
      "ĠtkÃ¡Å¡": 7532,
      "Ġchrop": 7533,
      "mÃ©": 7534,
      "ĠÅ¾le": 7535,
      "ĠnÃŃÅĻ": 7536,
      "Ġnir": 7537,
      "Ġich": 7538,
      "ĠzdÅĻi": 7539,
      "ĠbraÄį": 7540,
      "Ġdloud": 7541,
      "Ġusch": 7542,
      "ĠhrÅ¯Å¾": 7543,
      "ĠnÄĽls": 7544,
      "ĠvÃºt": 7545,
      "ĠbÅĻÃŃm": 7546,
      "Ġssy": 7547,
      "Ġfrain": 7548,
      "Ġzmok": 7549,
      "ĠskÅĻÃŃp": 7550,
      "Ġvcir": 7551,
      "Ġchrup": 7552,
      "ĠzkÅĻiÅ¡": 7553,
      "Ġvf": 7554,
      "Ġtnu": 7555,
      "ĠniÅ¡Å¥": 7556,
      "Ġkdvo": 7557,
      "Ġvur": 7558,
      "ĠbÅĻed": 7559,
      "ĠÄįils": 7560,
      "ĠkpÄĽ": 7561,
      "ĠAXAABB": 7562,
      "Ġkzb": 7563,
      "ĠsrsÅ¥": 7564,
      "ĠxÃŃ": 7565,
      "ĠsrÃ¡Å¾": 7566,
      "ĠÅ¾by": 7567,
      "ĠhnÃŃt": 7568,
      "ĠvÅĻad": 7569,
      "ĠstÅĻa": 7570,
      "Ġun": 7571,
      "Ġtvil": 7572,
      "ĠstÃŃh": 7573,
      "ĠzpouÅ¡": 7574,
      "Ġvdne": 7575,
      "Ġtrar": 7576,
      "Ġctnou": 7577,
      "Ġfik": 7578,
      "ĠsÃ½Å¡": 7579,
      "ĠzchÃ½": 7580,
      "ĠfrÃ©": 7581,
      "ĠspÅĻÃŃz": 7582,
      "Ġzfran": 7583,
      "ĠÅ¾neÄį": 7584,
      "ĠvbÅĻeh": 7585,
      "ĠAXXABB": 7586,
      "Ġdky": 7587,
      "ĠmÅĻem": 7588,
      "ĠdÃŃr": 7589,
      "ĠspÅ¯d": 7590,
      "Ġdyk": 7591,
      "ĠtÃ¡k": 7592,
      "ĠpraÄı": 7593,
      "Ġbezv": 7594,
      "ĠvÅĻed": 7595,
      "ĠvlÃ¡n": 7596,
      "Ġrim": 7597,
      "ĠctnÃ½ch": 7598,
      "Ġtryz": 7599,
      "Ġthem": 7600,
      "Ġthur": 7601,
      "Ġvkol": 7602,
      "Ġblom": 7603,
      "ĠkbÄĽ": 7604,
      "Ġtlit": 7605,
      "Ġvryb": 7606,
      "Ġkvit": 7607,
      "Ġkment": 7608,
      "ĠÅ¾dÃ¡m": 7609,
      "Ġkblan": 7610,
      "Ġsdiv": 7611,
      "Ġtchy": 7612,
      "Ġtme": 7613,
      "Ġlyr": 7614,
      "ĠÅĻÃŃp": 7615,
      "Ġzvar": 7616,
      "ĠsnÃŃc": 7617,
      "Ġpsu": 7618,
      "Ġzjar": 7619,
      "ĠvzleÅ¥": 7620,
      "ĠlkÃ¡Å¡": 7621,
      "ĠsdÄĽl": 7622,
      "ĠmdlÃ©m": 7623,
      "ĠshÃ½b": 7624,
      "Ġzfa": 7625,
      "Ġdoh": 7626,
      "ĠvÅ¡eÅĻ": 7627,
      "ĠAABABX": 7628,
      "ĠfÃ½": 7629,
      "ĠvÅ¾u": 7630,
      "ĠÅ¾Ã¡c": 7631,
      "Ġstrost": 7632,
      "ĠÅ¡tÄĽk": 7633,
      "Ġvpoh": 7634,
      "ĠpÃ½ÅĻ": 7635,
      "Ġvrub": 7636,
      "Ġbdi": 7637,
      "Ġkpoc": 7638,
      "ĠfÃ¡Å¡": 7639,
      "Ġllis": 7640,
      "Ġkhan": 7641,
      "ĠXAXXXA": 7642,
      "ĠztÅĻeÅ¡": 7643,
      "ĠsÃ©m": 7644,
      "ĠsÅ¡i": 7645,
      "ĠcÅ¾": 7646,
      "ĠvÃ¡Å¥": 7647,
      "Ġruf": 7648,
      "ĠtyÅĪ": 7649,
      "ĠAABBBB": 7650,
      "ĠbÃ¡c": 7651,
      "Ġzuz": 7652,
      "Ġvher": 7653,
      "Ġfac": 7654,
      "ĠklÅĪ": 7655,
      "ĠtrÃ¡ch": 7656,
      "Ġvchat": 7657,
      "ĠnauÄį": 7658,
      "ĠstlÃ¡t": 7659,
      "rt": 7660,
      "ĠtnÃ½ch": 7661,
      "Ġlvy": 7662,
      "ĠÅĻvÃ¡": 7663,
      "ĠnÄĽÅ¥": 7664,
      "lech": 7665,
      "ĠveÅ¾": 7666,
      "ĠspÃ©": 7667,
      "Ġvig": 7668,
      "ĠstÃŃk": 7669,
      "Ġsyv": 7670,
      "ĠzraÄı": 7671,
      "Ġtlach": 7672,
      "ĠbÅĻesk": 7673,
      "Ġsdnem": 7674,
      "Ġblin": 7675,
      "Ġalt": 7676,
      "Ġsvez": 7677,
      "Ġmstil": 7678,
      "ĠÅ¡ÅĪu": 7679,
      "ĠrvÃ¡n": 7680,
      "Ġnra": 7681,
      "ĠvÃ³": 7682,
      "ĠrÃº": 7683,
      "Ġist": 7684,
      "ĠjÃ¡Äį": 7685,
      "ĠvpÃ©": 7686,
      "Ġvdve": 7687,
      "Ġstrak": 7688,
      "ĠzÅĻÃŃÅ¥": 7689,
      "Ġtmo": 7690,
      "Ġvpov": 7691,
      "Ġschro": 7692,
      "Ġhls": 7693,
      "ĠÅĻÃ¡b": 7694,
      "Ġvju": 7695,
      "Ġznoz": 7696,
      "Ġzkap": 7697,
      "Ġvsma": 7698,
      "Ġtloust": 7699,
      "ĠvpÅĻÃŃs": 7700,
      "ĠvtvÅ¯r": 7701,
      "ĠfÃŃk": 7702,
      "Ġsvras": 7703,
      "Ġvhed": 7704,
      "Ġvychr": 7705,
      "Ġvvo": 7706,
      "Ġdz": 7707,
      "Ġmber": 7708,
      "Ġnok": 7709,
      "Ġsps": 7710,
      "Ġstig": 7711,
      "Ġit": 7712,
      "Ġzdmu": 7713,
      "luz": 7714,
      "ĠhuÄį": 7715,
      "Ġvsch": 7716,
      "Ġvpil": 7717,
      "Ġslap": 7718,
      "Ġzpor": 7719,
      "ĠbiÅĻ": 7720,
      "ĠÅĪan": 7721,
      "ĠjmÃŃ": 7722,
      "Ġkbou": 7723,
      "Ġstruh": 7724,
      "ĠshoÅĻ": 7725,
      "Ġchlit": 7726,
      "Ġgry": 7727,
      "ĠzbÄĽd": 7728,
      "Ġdmy": 7729,
      "Ġjro": 7730,
      "Ġllem": 7731,
      "Ġcra": 7732,
      "ĠÅ¡nÄĽ": 7733,
      "Ġzlad": 7734,
      "ĠztÅĻÃŃ": 7735,
      "ĠkeÅ¡": 7736,
      "Ġhet": 7737,
      "ĠzÅĻek": 7738,
      "ĠklÃŃc": 7739,
      "ĠhlouÄį": 7740,
      "ĠdvÄĽÄį": 7741,
      "ĠzvaÅ¾": 7742,
      "ĠvÄįar": 7743,
      "ĠfÃ¡ÅĻ": 7744,
      "ĠvmlÅ¾": 7745,
      "ĠsdÄĽs": 7746,
      "Ġtvic": 7747,
      "ĠvkÅĻiÅ¡": 7748,
      "ĠtchÃ¡n": 7749,
      "ĠvhouÅ¡Å¥": 7750,
      "Ġvtrys": 7751,
      "ĠÄįeÅĪ": 7752,
      "Ġsplu": 7753,
      "ĠsaÅ¥": 7754,
      "Ġlun": 7755,
      "ĠstrÅ¯m": 7756,
      "Ġshy": 7757,
      "Ġobzv": 7758,
      "ĠvrÃ¡m": 7759,
      "ĠklÃ¡l": 7760,
      "ĠzmÄĽÅĪ": 7761,
      "ĠblÃ¡h": 7762,
      "ĠkÅĻtÄĽ": 7763,
      "ĠkÅ¡i": 7764,
      "Ġwal": 7765,
      "Ġmlet": 7766,
      "ĠkskrÃ¡": 7767,
      "ĠXAAABB": 7768,
      "Ġvkmen": 7769,
      "zt": 7770,
      "ĠnÃ³": 7771,
      "ĠtnÃ½m": 7772,
      "Ġjla": 7773,
      "Ġcal": 7774,
      "Ġrich": 7775,
      "Ġrzi": 7776,
      "ĠÄįim": 7777,
      "Ġzdvou": 7778,
      "ĠzvÃ¡l": 7779,
      "Ġvum": 7780,
      "Ġvpta": 7781,
      "ĠshrÃ¡": 7782,
      "Ġslic": 7783,
      "ĠdÅĻÃŃk": 7784,
      "Ġkrist": 7785,
      "Ġzmiz": 7786,
      "Ġtlel": 7787,
      "Ġstkal": 7788,
      "ĠABAABB": 7789,
      "ĠÅ¡viÅ¾": 7790,
      "Ġent": 7791,
      "ĠÅ¡ÅĪÅ¯r": 7792,
      "ĠkÄįa": 7793,
      "Ġsaul": 7794,
      "Ġvvy": 7795,
      "ĠmÅ¡ÃŃ": 7796,
      "Ġril": 7797,
      "Ġveb": 7798,
      "ĠloÅ¡": 7799,
      "Ġvov": 7800,
      "ĠsvaÅ¾": 7801,
      "ĠtvoÅĻ": 7802,
      "ĠdÅĻÃŃn": 7803,
      "Ġkmla": 7804,
      "Ġzrou": 7805,
      "Ġvruch": 7806,
      "ĠkhrÃ¡m": 7807,
      "ĠkboÅ¾": 7808,
      "Ġzprz": 7809,
      "ĠÅ¡vÃ½": 7810,
      "Ġvvla": 7811,
      "Ġsbez": 7812,
      "ĠmÃ½Å¾Äı": 7813,
      "ĠvtÅĻpy": 7814,
      "ĠÅ¡lil": 7815,
      "ĠÄįpa": 7816,
      "Å¡ti": 7817,
      "ĠÅ¾ev": 7818,
      "Ġid": 7819,
      "ĠmÃŃs": 7820,
      "ĠhaÅ¥": 7821,
      "ĠvsÃ½": 7822,
      "ĠvÅ¾as": 7823,
      "Ġdour": 7824,
      "Ġvbur": 7825,
      "Ġzhlo": 7826,
      "Ġknit": 7827,
      "ĠsdÃ¡": 7828,
      "ĠstvoÅĻ": 7829,
      "ĠdvÄĽt": 7830,
      "ĠsrÅ¡": 7831,
      "Ġchrli": 7832,
      "ĠhliÄį": 7833,
      "Ġsjem": 7834,
      "ĠzkrÄį": 7835,
      "ĠÅ¡vest": 7836,
      "Ġscu": 7837,
      "ĠXABBAA": 7838,
      "ĠvssÃ¡": 7839,
      "Ġghis": 7840,
      "ĠclÃ©ÅĻ": 7841,
      "ĠÅ¡m": 7842,
      "ĠsvlÃ¡": 7843,
      "Ġvaj": 7844,
      "Ġmaur": 7845,
      "ĠpÅĻep": 7846,
      "ĠrÃ¡s": 7847,
      "ĠXAABBB": 7848,
      "Ġstos": 7849,
      "Ġgju": 7850,
      "Ġblat": 7851,
      "Ġzont": 7852,
      "Ġjuch": 7853,
      "ĠznÃŃz": 7854,
      "ĠÅ¡ky": 7855,
      "Ġfoi": 7856,
      "ĠÅ¾dÃ¡l": 7857,
      "Ġsvlast": 7858,
      "ko": 7859,
      "ĠnÃ¡z": 7860,
      "Ġvam": 7861,
      "ĠABCBC": 7862,
      "ĠlÃ¡j": 7863,
      "ĠzÃ¡z": 7864,
      "ĠsuÅĪ": 7865,
      "Ġzost": 7866,
      "Ġshru": 7867,
      "ĠslÃŃc": 7868,
      "ĠvÄįest": 7869,
      "ĠkhrÅ¯": 7870,
      "ĠmstÄĽ": 7871,
      "ĠdnÃ©ÅĻ": 7872,
      "ĠstÅĻik": 7873,
      "ĠzrÅ¯st": 7874,
      "ĠvdÃŃk": 7875,
      "Ġkvlast": 7876,
      "ĠflÃ³r": 7877,
      "ĠvÅĻÃ¡d": 7878,
      "ĠzklÃ¡Å¡": 7879,
      "ĠABCBCA": 7880,
      "ĠkÃ³": 7881,
      "ĠlÃº": 7882,
      "ĠrÅ¾e": 7883,
      "Ġboz": 7884,
      "Ġtlap": 7885,
      "ĠdÅĻÃŃm": 7886,
      "Ġkals": 7887,
      "ĠdlÃŃk": 7888,
      "ĠpsÅ¯m": 7889,
      "Ġsdvo": 7890,
      "ĠkhÃ¡": 7891,
      "ĠzlÃŃt": 7892,
      "Ġzchmur": 7893,
      "ĠbruÄį": 7894,
      "Ġzhroz": 7895,
      "ĠsvlÃ©k": 7896,
      "ĠcÅ¾es": 7897,
      "ĠbÃº": 7898,
      "Ġlac": 7899,
      "Ġjah": 7900,
      "ĠABXX": 7901,
      "ĠABABXA": 7902,
      "ĠÄįic": 7903,
      "Ġpraz": 7904,
      "ĠbiÅ¡": 7905,
      "ĠvbÅĻi": 7906,
      "ĠstÃ©n": 7907,
      "Ġkrup": 7908,
      "Ġtant": 7909,
      "Ġblic": 7910,
      "ĠrtÅ¯v": 7911,
      "Ġztaj": 7912,
      "Ġvpark": 7913,
      "ĠsÅ¡u": 7914,
      "ĠzpÅĻed": 7915,
      "Ġpav": 7916,
      "Ġkoun": 7917,
      "Ġvzdar": 7918,
      "ĠvhÅĻe": 7919,
      "Ġvhnu": 7920,
      "Ġhek": 7921,
      "Ġzhur": 7922,
      "ĠÅ¡lek": 7923,
      "Ġsby": 7924,
      "ĠmÃ¡mÅ¥": 7925,
      "ĠhlÃŃk": 7926,
      "ĠvÄįÃ¡": 7927,
      "Ġkpos": 7928,
      "ĠgrÃ©": 7929,
      "Ġmzda": 7930,
      "ĠcÃºn": 7931,
      "Ġssk": 7932,
      "ĠsÃ³": 7933,
      "Ġskme": 7934,
      "Ġvyc": 7935,
      "ĠhuÅ¾": 7936,
      "ĠstÃ¡j": 7937,
      "Ġgl": 7938,
      "ĠgÅĻi": 7939,
      "Ġhrk": 7940,
      "ĠznÃŃÅ¡": 7941,
      "Ġktvo": 7942,
      "Ġvzhou": 7943,
      "Ġblon": 7944,
      "Ġsklet": 7945,
      "Ġknost": 7946,
      "ĠkrÅ¯Äį": 7947,
      "Ġmont": 7948,
      "Ġscy": 7949,
      "Ġzpev": 7950,
      "Ġsaic": 7951,
      "Ġzblan": 7952,
      "mÄĽ": 7953,
      "si": 7954,
      "Ġkak": 7955,
      "ĠkÄıa": 7956,
      "ĠvaÅĻ": 7957,
      "ĠÅ¡ech": 7958,
      "Ġmoi": 7959,
      "ĠÅ¡ÃŃÅ¥": 7960,
      "Ġsut": 7961,
      "ĠfÃ³": 7962,
      "Ġlous": 7963,
      "Ġkes": 7964,
      "ĠnnÃ¡m": 7965,
      "Ġvzdra": 7966,
      "Ġvbyt": 7967,
      "Ġpty": 7968,
      "ĠschlÃŃ": 7969,
      "ĠprouÅ¾": 7970,
      "Ġtknul": 7971,
      "Ġgel": 7972,
      "Ġgin": 7973,
      "ĠvzdÃ¡n": 7974,
      "Ġhip": 7975,
      "ĠvpouÅ¥": 7976,
      "Ġkvol": 7977,
      "ĠspÅĻed": 7978,
      "Ġvplod": 7979,
      "Ġjluz": 7980,
      "Ġrl": 7981,
      "ĠrrÃ¡": 7982,
      "Ġkdce": 7983,
      "ĠABAA": 7984,
      "ĠbaÄį": 7985,
      "ĠlÃ©v": 7986,
      "ĠpÅĻiÅĻ": 7987,
      "Ġhun": 7988,
      "ĠhuÅ¡": 7989,
      "Ġchun": 7990,
      "ĠÃºÅ¾": 7991,
      "ĠdraÄį": 7992,
      "ĠheÅĻ": 7993,
      "ĠsmrÅ¡": 7994,
      "Ġksi": 7995,
      "Ġmars": 7996,
      "ĠdlÃ¡Å¡": 7997,
      "ĠblÃ½sk": 7998,
      "Ġfus": 7999,
      "Ġvslz": 8000,
      "Ġzevs": 8001,
      "Ġvca": 8002,
      "ĠABAAAB": 8003,
      "ĠkdÅ¯": 8004,
      "Ġzec": 8005,
      "ĠcÃŃn": 8006,
      "ĠspÅ¯l": 8007,
      "ĠsaÄį": 8008,
      "ĠvdnÅ¯": 8009,
      "ĠstraÅĪ": 8010,
      "Ġstals": 8011,
      "ĠssvÃ½": 8012,
      "ĠdvÃ©st": 8013,
      "Ġvysv": 8014,
      "Ġsnop": 8015,
      "Ġblb": 8016,
      "Ġkir": 8017,
      "Ġkjas": 8018,
      "ĠAXBA": 8019,
      "Ġgym": 8020,
      "ĠtkÃ¡ÅĪ": 8021,
      "it": 8022,
      "ĠÅ¡vÃŃ": 8023,
      "Å¯v": 8024,
      "ĠÅ¡lej": 8025,
      "Ġkslad": 8026,
      "ĠhrÃ¡Å¥": 8027,
      "ĠzÅĻev": 8028,
      "ĠdrÃ¡h": 8029,
      "Ġsnej": 8030,
      "Ġztrp": 8031,
      "ĠvlÃ©Äį": 8032,
      "ĠzÄįÃ¡": 8033,
      "Ġsza": 8034,
      "ĠvcÃŃl": 8035,
      "ĠÄįmel": 8036,
      "ĠklÅ¯Å¾": 8037,
      "ĠvzkÅĻek": 8038,
      "ĠÅ¾rout": 8039,
      "Ġcro": 8040,
      "Ġcri": 8041,
      "ĠhvÃ©": 8042,
      "ĠluÅ¾": 8043,
      "ĠpeÅĻ": 8044,
      "ĠprÃ³": 8045,
      "ĠzpÅĻÃ¡": 8046,
      "Ġsom": 8047,
      "Ġei": 8048,
      "Ġez": 8049,
      "Ġklej": 8050,
      "ĠstÅĻeÅ¡": 8051,
      "Ġfas": 8052,
      "ĠÅ¡tÃŃr": 8053,
      "ĠABAABA": 8054,
      "ĠblÃ©k": 8055,
      "Ġsvrch": 8056,
      "ĠÅ¡lÃŃÅ¡": 8057,
      "ĠvzlÃ©m": 8058,
      "Ġzga": 8059,
      "ĠXAXXAX": 8060,
      "Ġrr": 8061,
      "Ġcev": 8062,
      "ĠvÃ¡h": 8063,
      "Ġvosk": 8064,
      "Ġbov": 8065,
      "ĠproÅ¡": 8066,
      "ĠbuÅĪ": 8067,
      "Ġbach": 8068,
      "Ġdouch": 8069,
      "Ġvkmi": 8070,
      "Ġvhmo": 8071,
      "ĠAAXABB": 8072,
      "ĠÅ¡tÄĽj": 8073,
      "ĠÅ¡tÄĽv": 8074,
      "Ġtlam": 8075,
      "Ġbrot": 8076,
      "ĠklÃŃch": 8077,
      "ĠÅ¡krÃ¡": 8078,
      "ĠvzkvÄĽ": 8079,
      "ĠtresÅ¥": 8080,
      "ĠztÄĽs": 8081,
      "Ġtrik": 8082,
      "ĠhnÅ¯j": 8083,
      "ĠzdÃŃl": 8084,
      "ĠvbÄĽd": 8085,
      "ĠsmÃ½t": 8086,
      "ĠsklÃŃÄį": 8087,
      "Ġcvrli": 8088,
      "ĠÅ¾old": 8089,
      "ĠÅ¾ral": 8090,
      "Ġvslast": 8091,
      "ĠABXBAX": 8092,
      "ĠsÅĻa": 8093,
      "Ġmk": 8094,
      "ĠsknÄĽ": 8095,
      "Ġpaf": 8096,
      "ĠmeÅ¥": 8097,
      "Ġvstat": 8098,
      "ĠzyÄį": 8099,
      "Ġstvin": 8100,
      "Ġnuls": 8101,
      "Ġmens": 8102,
      "ĠhneÅ¡": 8103,
      "ĠschÅĻa": 8104,
      "ĠzpÃŃt": 8105,
      "ĠktÃ¡": 8106,
      "ĠÄıat": 8107,
      "Ġ27": 8108,
      "ĠÄįtem": 8109,
      "ĠpÅ¯jÄį": 8110,
      "ĠssvÄĽ": 8111,
      "ĠvtuÅ¾": 8112,
      "Ġchlic": 8113,
      "Ġvmlh": 8114,
      "Ġkchu": 8115,
      "ĠÅ¡Å¥Ã¡v": 8116,
      "ĠzÃ³": 8117,
      "ĠmiÅ¡": 8118,
      "Ġvtk": 8119,
      "Ġzmlad": 8120,
      "ĠvmÃ½": 8121,
      "ĠkroÄį": 8122,
      "Ġksu": 8123,
      "Ġhlem": 8124,
      "Ġktem": 8125,
      "ĠvÅĻÃŃj": 8126,
      "Ġrold": 8127,
      "ĠdÅ¾a": 8128,
      "Ġaeo": 8129,
      "ĠhoÅ¥": 8130,
      "ĠdÃ¡Äį": 8131,
      "ĠpaÅ¡": 8132,
      "Ġprom": 8133,
      "Ġlul": 8134,
      "ĠzÃŃt": 8135,
      "ĠvdÅĻe": 8136,
      "ĠzvÄĽr": 8137,
      "ĠmÃ½l": 8138,
      "Ġkmar": 8139,
      "ĠtluÄį": 8140,
      "ĠÅ¡pen": 8141,
      "Ġvrus": 8142,
      "Ġvkov": 8143,
      "ĠkhnÄĽ": 8144,
      "Ġkhor": 8145,
      "ĠzlÃ©t": 8146,
      "Ġssvou": 8147,
      "Ġzprav": 8148,
      "Ġchis": 8149,
      "ĠsÅ¾Ã¡": 8150,
      "Ġnard": 8151,
      "Ġkdra": 8152,
      "Ġtvat": 8153,
      "Ġpris": 8154,
      "Ġfech": 8155,
      "Ġdrich": 8156,
      "ĠAAABBB": 8157,
      "ĠvpoÄį": 8158,
      "ĠzvÄĽd": 8159,
      "ĠÅ¥me": 8160,
      "Ġkmra": 8161,
      "ĠvchlÃ¡d": 8162,
      "ĠzrÅ¯d": 8163,
      "ĠtÃ½mÅ¾": 8164,
      "Ġstruk": 8165,
      "ĠranÅ¾": 8166,
      "Ġkloub": 8167,
      "ĠsÅ¡a": 8168,
      "ĠdbÃ¡Å¡": 8169,
      "Ġtih": 8170,
      "ĠspÅĻi": 8171,
      "Ġplz": 8172,
      "Ġvzdro": 8173,
      "ĠzdeÅ¥": 8174,
      "ĠÅ¾Ã¡Äį": 8175,
      "ĠvlÃ¡Äį": 8176,
      "ĠÅ¡pu": 8177,
      "ĠsklÃ¡n": 8178,
      "Ġvsluj": 8179,
      "ĠÄįoÅ¡": 8180,
      "Ġfuj": 8181,
      "ĠcnosÅ¥": 8182,
      "Ġblysk": 8183,
      "Ġkspo": 8184,
      "Ġcvrk": 8185,
      "ĠtrÃ³n": 8186,
      "Ġkzdro": 8187,
      "Ġjhu": 8188,
      "ĠnaÅĻ": 8189,
      "ĠÅ¾vÃ¡": 8190,
      "ĠÅ¡lem": 8191,
      "ĠnÄĽd": 8192,
      "ĠsprÅ¯": 8193,
      "ĠbuÅ¾": 8194,
      "ĠkrÃ¡d": 8195,
      "ĠzmlÃ½": 8196,
      "ĠzbÅ¯j": 8197,
      "Ġdland": 8198,
      "ĠrÃ©s": 8199,
      "Ġkliv": 8200,
      "Ġksla": 8201,
      "ĠÅ¡uj": 8202,
      "ĠÅ¡lik": 8203,
      "ĠÅ¡pÃ¡s": 8204,
      "ĠÅĪav": 8205,
      "Ġthar": 8206,
      "ĠpÃ©r": 8207,
      "ĠhÅĻmi": 8208,
      "Ġploul": 8209,
      "ĠrdÃŃt": 8210,
      "ĠsproÅ¡": 8211,
      "ĠkÅĻÅ¯": 8212,
      "Ġchlost": 8213,
      "ĠtnÃŃk": 8214,
      "ĠABAAXB": 8215,
      "ĠhmoÅ¾": 8216,
      "ĠkjÃ¡": 8217,
      "Ġzse": 8218,
      "ĠzsvÃ©": 8219,
      "ĠdvÃŃk": 8220,
      "ĠABBABA": 8221,
      "ĠvhnÄĽv": 8222,
      "ĠstlÃ©m": 8223,
      "Ġspekt": 8224,
      "Ġsbuj": 8225,
      "ĠzÅĻad": 8226,
      "Ġdog": 8227,
      "Ġkau": 8228,
      "Ġrom": 8229,
      "Ġzdmi": 8230,
      "ĠtÃ¡c": 8231,
      "Ġflu": 8232,
      "ĠsÃ¡c": 8233,
      "Ġziz": 8234,
      "Ġvzpup": 8235,
      "Ġsils": 8236,
      "Ġplech": 8237,
      "ĠspÄĽÅ¾": 8238,
      "ĠhrÃ¡n": 8239,
      "ĠÄıouÄį": 8240,
      "Ġhlost": 8241,
      "ĠdlÃ¡ÅĻ": 8242,
      "ĠskvÄĽt": 8243,
      "ĠznÃ¡mÅ¥": 8244,
      "ĠvstÅĻet": 8245,
      "Ġpres": 8246,
      "Ġfron": 8247,
      "Ġfekt": 8248,
      "ĠsÅ¥al": 8249,
      "ĠvÅ¡ko": 8250,
      "Å¾b": 8251,
      "ĠzaÅ¾": 8252,
      "ĠvÅ¡ar": 8253,
      "ĠkÃ¡ÅĪ": 8254,
      "ĠvÅ¾en": 8255,
      "Ġgat": 8256,
      "ĠzoÄį": 8257,
      "ĠvlÅ¯m": 8258,
      "Ġzlok": 8259,
      "Ġvpoc": 8260,
      "Ġdlin": 8261,
      "Ġplos": 8262,
      "ĠÅ¡tÃŃp": 8263,
      "ĠchvÃ¡ÅĻ": 8264,
      "ĠzroÅ¾": 8265,
      "Ġtrep": 8266,
      "Ġbrouz": 8267,
      "Ġvcel": 8268,
      "ĠvpÅĻÃŃz": 8269,
      "Ġzbron": 8270,
      "ĠspusÅ¥": 8271,
      "Ġztrouch": 8272,
      "ĠXABABA": 8273,
      "hn": 8274,
      "ĠsÄıÃ¡": 8275,
      "ĠkdÃŃt": 8276,
      "ĠvÃŃÅĻ": 8277,
      "Ġcij": 8278,
      "ĠkrÃ¡p": 8279,
      "ĠsvÄĽr": 8280,
      "Ġsab": 8281,
      "ĠzprÃ¡z": 8282,
      "Ġryv": 8283,
      "ĠstÃ¡Å¥": 8284,
      "ĠsÃ¡Äį": 8285,
      "Ġdlan": 8286,
      "ĠzoÅ¡": 8287,
      "Ġjus": 8288,
      "ĠdÅĻÃŃt": 8289,
      "Ġsbar": 8290,
      "ĠdliÅ¡": 8291,
      "ĠÅ¥ouÄį": 8292,
      "ĠÄįtli": 8293,
      "ĠzmoÅĻ": 8294,
      "Ġsfi": 8295,
      "Ġsmoc": 8296,
      "ĠpÃ³l": 8297,
      "ĠpÅ¡t": 8298,
      "Ġzze": 8299,
      "ÅĻou": 8300,
      "ĠsvÅĻe": 8301,
      "ĠvzlÃŃ": 8302,
      "ĠÅĻep": 8303,
      "ĠzdnÅ¯": 8304,
      "ĠstÃŃc": 8305,
      "ĠbÄĽc": 8306,
      "Ġtaks": 8307,
      "Ġbau": 8308,
      "Ġkrs": 8309,
      "Ġzpil": 8310,
      "ĠvlaÄį": 8311,
      "ĠdÃ©n": 8312,
      "ĠhrÅĪ": 8313,
      "Ġchym": 8314,
      "ĠvhrÃ¡": 8315,
      "ĠchvÃ¡l": 8316,
      "ĠÅ¡uÅ¡": 8317,
      "Ġkves": 8318,
      "ĠvzÃ¡r": 8319,
      "Ġsnez": 8320,
      "ĠkbliÅ¾": 8321,
      "Ġvzals": 8322,
      "Ġberk": 8323,
      "Ġller": 8324,
      "ĠzpÅ¯l": 8325,
      "ĠsÅ¥at": 8326,
      "Ġvsklon": 8327,
      "ĠnÃº": 8328,
      "ĠbvÃ¡": 8329,
      "ĠseÅ¾": 8330,
      "ĠpoÅ¾": 8331,
      "Ġkdal": 8332,
      "ĠsknÃŃ": 8333,
      "Ġmai": 8334,
      "Ġsprou": 8335,
      "ĠlyÅĪ": 8336,
      "Ġzvrou": 8337,
      "ĠkÃ©t": 8338,
      "Ġzprud": 8339,
      "Ġfru": 8340,
      "Ġdrat": 8341,
      "Ġzov": 8342,
      "Ġzhmo": 8343,
      "Ġvdub": 8344,
      "Ġlils": 8345,
      "Ġplyt": 8346,
      "ĠtrÃ½s": 8347,
      "Ġwin": 8348,
      "Ġchic": 8349,
      "ĠsdÄĽv": 8350,
      "ĠvhÃ¡d": 8351,
      "Ġvdes": 8352,
      "ĠvztyÄį": 8353,
      "ĠsklÃŃn": 8354,
      "Ġvklam": 8355,
      "ĠsnichÅ¾": 8356,
      "ĠXAXBAB": 8357,
      "ĠdÃº": 8358,
      "ĠÅ¡Ã©": 8359,
      "Ġchnul": 8360,
      "Ġlix": 8361,
      "ĠkaÅĪ": 8362,
      "Ġmad": 8363,
      "ĠvÃ½sk": 8364,
      "Ġchaj": 8365,
      "Ġvmas": 8366,
      "Ġvhej": 8367,
      "ĠABBAXA": 8368,
      "Ġstros": 8369,
      "Ġsbal": 8370,
      "ĠvlÃ¡h": 8371,
      "Ġkrum": 8372,
      "Ġvner": 8373,
      "ĠdrÃ¡Äį": 8374,
      "Ġznov": 8375,
      "Ġzmij": 8376,
      "Ġvskvost": 8377,
      "Ġsmyk": 8378,
      "Ġsman": 8379,
      "Ġvspor": 8380,
      "ĠmÅ¾it": 8381,
      "Ġllic": 8382,
      "Ġvmraz": 8383,
      "Ġdcem": 8384,
      "ĠkvraÅ¾": 8385,
      "Ġtni": 8386,
      "Ġjve": 8387,
      "Ġdod": 8388,
      "ĠdoÅĪ": 8389,
      "Ġnop": 8390,
      "ĠtÃŃz": 8391,
      "ĠsmÅ¯": 8392,
      "ĠsÃŃr": 8393,
      "Ġslas": 8394,
      "Ġzpli": 8395,
      "louz": 8396,
      "ĠvkÅ¡ti": 8397,
      "ĠpouÄį": 8398,
      "ĠzpÄĽn": 8399,
      "ĠproÄįs": 8400,
      "ĠÅ¡tvÃ¡t": 8401,
      "ĠtliÄį": 8402,
      "Ġvztr": 8403,
      "Ġzbah": 8404,
      "Ġsfou": 8405,
      "ĠvhÃ¡v": 8406,
      "Ġfons": 8407,
      "Ġvsuk": 8408,
      "ĠsÅ¡tÄĽ": 8409,
      "Ġthyst": 8410,
      "ĠvsmÄĽs": 8411,
      "ĠvchÃ½Å¾": 8412,
      "ĠzjichÅ¾": 8413,
      "ĠkÅĻtem": 8414,
      "ĠmnÃ¡c": 8415,
      "Ġdzin": 8416,
      "mr": 8417,
      "Ġlbi": 8418,
      "Ġaz": 8419,
      "ĠÅ¾esÅ¥": 8420,
      "ĠboÅĪ": 8421,
      "ĠkrÃ½m": 8422,
      "Ġchus": 8423,
      "ĠznÃ©": 8424,
      "ĠstÃ¡k": 8425,
      "ĠvzdÃ¡m": 8426,
      "Ġkrop": 8427,
      "ĠspÄĽv": 8428,
      "Ġschlou": 8429,
      "Ġfai": 8430,
      "ĠdrÃ¡l": 8431,
      "Ġtlil": 8432,
      "ĠkhnÃŃz": 8433,
      "ĠvjaÅĻ": 8434,
      "ĠchlÃŃm": 8435,
      "ĠkÅ¾Ã¡": 8436,
      "ĠkÄįÃŃ": 8437,
      "ĠvkeÅĻ": 8438,
      "ĠrmuÅ¥": 8439,
      "ĠvÅ¾ÃŃz": 8440,
      "ĠgrÃ¡n": 8441,
      "Ġchroust": 8442,
      "ĠzcÃŃ": 8443,
      "ĠÅ¡mo": 8444,
      "ĠmÃ¡st": 8445,
      "Ġtyp": 8446,
      "ĠpÅĻet": 8447,
      "Ġbut": 8448,
      "ĠzÃ¡t": 8449,
      "Ġvsak": 8450,
      "Ġest": 8451,
      "Ġspom": 8452,
      "ĠvlÃ½": 8453,
      "ĠÅ¡leÅ¡": 8454,
      "ĠktvÃ¡": 8455,
      "ĠsboÅ¾": 8456,
      "Ġspin": 8457,
      "ĠptaÄį": 8458,
      "Ġsjezd": 8459,
      "Ġvplet": 8460,
      "ĠkÅ¡p": 8461,
      "ĠtlÃ¡k": 8462,
      "ĠstÅĻÃ¡st": 8463,
      "Ġfant": 8464,
      "ĠÅ¯m": 8465,
      "ĠchÅĻtÃ¡": 8466,
      "Ġsklouz": 8467,
      "ĠdskÃ©": 8468,
      "Ġtnost": 8469,
      "nÅ¯m": 8470,
      "Ġlvu": 8471,
      "ĠÄįpÄĽ": 8472,
      "Ġmah": 8473,
      "ĠstÃŃÅ¾": 8474,
      "Ġryh": 8475,
      "ĠfÅ¯m": 8476,
      "Ġplil": 8477,
      "ĠgrÅ¯": 8478,
      "ĠztÃŃ": 8479,
      "Ġzyz": 8480,
      "ĠstrÅĪ": 8481,
      "Ġmraj": 8482,
      "ĠsvÃŃt": 8483,
      "Ġjul": 8484,
      "ĠksÅĪat": 8485,
      "Ġvpor": 8486,
      "Ġschi": 8487,
      "Ġbrok": 8488,
      "ĠhruÅ¾": 8489,
      "Ġkzu": 8490,
      "Ġtknut": 8491,
      "ĠblÃ¡n": 8492,
      "Ġmohs": 8493,
      "Ġkby": 8494,
      "Ġssl": 8495,
      "ĠmÅĻÃŃÅ¥": 8496,
      "Ġsfe": 8497,
      "Ġwer": 8498,
      "Ġstma": 8499,
      "Ġojc": 8500,
      "Ġnnin": 8501,
      "ĠtrÃ©t": 8502,
      "ĠkmÃŃn": 8503,
      "Ġsge": 8504,
      "ĠckÃ½": 8505,
      "Ġnnen": 8506,
      "Ġkctno": 8507,
      "Ġvsrp": 8508,
      "Ġshlt": 8509,
      "Ġvklouz": 8510,
      "ĠvÄįty": 8511,
      "ĠjmÃŃn": 8512,
      "ĠvÅ¥": 8513,
      "ĠzÅĪal": 8514,
      "ĠposÅ¥": 8515,
      "Ġhof": 8516,
      "Ġtaur": 8517,
      "Ġio": 8518,
      "Ġboum": 8519,
      "Ġcham": 8520,
      "ĠdÃ½k": 8521,
      "ĠvknÃŃ": 8522,
      "ĠplÅ¯": 8523,
      "Ġzul": 8524,
      "Ġvhle": 8525,
      "ĠAAABAB": 8526,
      "Ġjud": 8527,
      "Ġschech": 8528,
      "Ġkml": 8529,
      "ĠtrÃ¡l": 8530,
      "Ġthor": 8531,
      "Ġhlin": 8532,
      "Ġtref": 8533,
      "Ġspik": 8534,
      "ĠvmÄĽst": 8535,
      "ĠkstÅĻe": 8536,
      "Ġkstar": 8537,
      "Ġmhly": 8538,
      "ĠzbÃ½t": 8539,
      "ĠkvyÅ¡": 8540,
      "Ġvsym": 8541,
      "ĠrvÃ¡Äį": 8542,
      "ĠvbÅĻez": 8543,
      "Ġdmul": 8544,
      "ĠzjÃŃc": 8545,
      "ĠsvlÃŃd": 8546,
      "Ġds": 8547,
      "ĠjÃ©": 8548,
      "Ġpf": 8549,
      "Ġleg": 8550,
      "ĠnÃ½Å¥": 8551,
      "Ġdir": 8552,
      "Ġtyk": 8553,
      "Ġmyk": 8554,
      "ĠvsvÃŃ": 8555,
      "ĠXAABBA": 8556,
      "Ġvdy": 8557,
      "Ġnadv": 8558,
      "ĠchÃ¡b": 8559,
      "ĠdÄĽlÅ¥": 8560,
      "Ġvraz": 8561,
      "Ġvhlo": 8562,
      "Ġvhlad": 8563,
      "Ġblech": 8564,
      "Ġzhni": 8565,
      "ĠjsmeÅ¥": 8566,
      "Ġtku": 8567,
      "ĠdlÃ©t": 8568,
      "ĠvnÃ¡ÅĻ": 8569,
      "Ġvskro": 8570,
      "Ġvsmy": 8571,
      "ĠsÄįet": 8572,
      "ĠsvrÅ¡": 8573,
      "ĠÄıau": 8574,
      "ĠzvÃ½h": 8575,
      "ĠspÅĻÃŃs": 8576,
      "Ġzfi": 8577,
      "ĠÅ¾bÃ¡n": 8578,
      "Ġvssu": 8579,
      "ĠpskÃ½ch": 8580,
      "Ġbve": 8581,
      "Ġac": 8582,
      "ĠÄįka": 8583,
      "lan": 8584,
      "Ġloi": 8585,
      "Ġjap": 8586,
      "ĠzdÃ½m": 8587,
      "ĠtakÅ¥": 8588,
      "Ġvtva": 8589,
      "ĠAABBAB": 8590,
      "ĠchaÄį": 8591,
      "Ġsouz": 8592,
      "ĠrÃ©n": 8593,
      "Ġvhi": 8594,
      "Ġstyl": 8595,
      "Ġstych": 8596,
      "ĠÅ¡lap": 8597,
      "ĠstÃ¡ls": 8598,
      "Ġkhu": 8599,
      "Ġkhlu": 8600,
      "Ġsraz": 8601,
      "ĠplÃŃÅĻ": 8602,
      "Ġjilm": 8603,
      "ĠchlÃŃk": 8604,
      "Ġlvic": 8605,
      "Ġtcho": 8606,
      "ĠvtÅĻes": 8607,
      "Ġvtrap": 8608,
      "Ġzklid": 8609,
      "Ġbrloh": 8610,
      "ĠABXXAB": 8611,
      "hu": 8612,
      "Ġvva": 8613,
      "Ġtna": 8614,
      "ĠjvÃ¡": 8615,
      "Ġsec": 8616,
      "ĠÅ¡ut": 8617,
      "ĠchÅĪa": 8618,
      "ĠvÄĽs": 8619,
      "Ġnys": 8620,
      "Ġzdve": 8621,
      "Ġlut": 8622,
      "Ġsuv": 8623,
      "Ġhyp": 8624,
      "ĠkvÄĽÅ¥": 8625,
      "ĠzmÃ¡t": 8626,
      "ĠsmÄĽv": 8627,
      "Ġkpu": 8628,
      "ĠmlÃ¡z": 8629,
      "ĠvtiÅ¡": 8630,
      "ĠÅ¡tÃ½": 8631,
      "Ġtlen": 8632,
      "ĠprÅ¯s": 8633,
      "Ġsju": 8634,
      "Ġdant": 8635,
      "ĠzbÄĽh": 8636,
      "ĠvtrÃ½z": 8637,
      "Ġchecht": 8638,
      "ĠpsÃŃk": 8639,
      "Ġflet": 8640,
      "ĠzbÃ¡s": 8641,
      "ĠspyÅ¡": 8642,
      "ĠzhnÃŃzd": 8643,
      "ĠvÅĻem": 8644,
      "Ġtut": 8645,
      "ĠvzÃº": 8646,
      "Ġkouc": 8647,
      "Ġsoj": 8648,
      "ĠziÅ¾": 8649,
      "Ġhrab": 8650,
      "BAA": 8651,
      "ĠzdaÅĻ": 8652,
      "Ġschlu": 8653,
      "ĠsdvÄĽ": 8654,
      "ĠbÅĻÃŃch": 8655,
      "Ġthes": 8656,
      "ĠkÅ¡u": 8657,
      "Ġspev": 8658,
      "Ġzryl": 8659,
      "ĠvtouÅ¾": 8660,
      "ĠzvraÅ¾": 8661,
      "ĠÅ¡roub": 8662,
      "hi": 8663,
      "Ġpho": 8664,
      "Ġrme": 8665,
      "Ġrvu": 8666,
      "ĠÅĻim": 8667,
      "ĠÅĻip": 8668,
      "ĠvdÃ³": 8669,
      "Ġslost": 8670,
      "Ġgas": 8671,
      "Ġpouz": 8672,
      "ĠtmÃŃt": 8673,
      "ĠzdÃ¡n": 8674,
      "Ġksli": 8675,
      "ĠÅĪou": 8676,
      "Ġdvar": 8677,
      "ĠtloÅ¡": 8678,
      "Ġvchvil": 8679,
      "Ġvhon": 8680,
      "ĠzlÃŃÅ¡": 8681,
      "ĠzÃ½c": 8682,
      "Ġvtur": 8683,
      "ĠvÅ¡ach": 8684,
      "ĠkstÄĽ": 8685,
      "Ġvbub": 8686,
      "ĠrdÃŃc": 8687,
      "Ġzvous": 8688,
      "ĠstlÃ½m": 8689,
      "Ġvmrz": 8690,
      "Ġmyrr": 8691,
      "ĠnimÅ¾": 8692,
      "ĠdcÃ©": 8693,
      "ĠdÅ¡tÃ½n": 8694,
      "ĠmÅĪou": 8695,
      "nÃ©m": 8696,
      "ĠjÃŃl": 8697,
      "Ġsklu": 8698,
      "Ġtun": 8699,
      "ĠÄįÃŃÅ¾": 8700,
      "Ġvij": 8701,
      "ĠÅ¡ic": 8702,
      "ĠvtrÅ¯": 8703,
      "ĠhÃ¡ÅĪ": 8704,
      "Ġvhlav": 8705,
      "Ġshlou": 8706,
      "ĠzlÅ¯m": 8707,
      "Ġvpras": 8708,
      "ĠcÃ½r": 8709,
      "ĠvskvÄĽ": 8710,
      "ĠÄıaur": 8711,
      "Ġclau": 8712,
      "Ġzcy": 8713,
      "ĠvstrÃ¡ÅĪ": 8714,
      "Ġvtlum": 8715,
      "ĠjseÅ¡": 8716,
      "Ġcpe": 8717,
      "ĠgÃ¶r": 8718,
      "ĠjiÅ¡Å¥": 8719,
      "ĠtaÄį": 8720,
      "ĠvÃŃz": 8721,
      "ĠdÃŃÅ¥": 8722,
      "ĠtuÄı": 8723,
      "ĠlyÅ¥": 8724,
      "ĠzdÅ¯l": 8725,
      "Ġkrem": 8726,
      "ĠXAXAAX": 8727,
      "Ġgha": 8728,
      "skÃ½": 8729,
      "ĠÅ¥li": 8730,
      "ĠzÅĻen": 8731,
      "ĠkpÅĻi": 8732,
      "Ã³p": 8733,
      "Ġzdom": 8734,
      "ĠvzkvÃŃ": 8735,
      "ĠdveÄı": 8736,
      "ĠzlÃŃch": 8737,
      "Ġgois": 8738,
      "Ġsrol": 8739,
      "Ġzdiv": 8740,
      "Ġwar": 8741,
      "Ġvplach": 8742,
      "ĠstkvÃŃt": 8743,
      "ĠzvÃ½z": 8744,
      "Ġzvrt": 8745,
      "ĠzkraÅ¥": 8746,
      "ĠÅ¾hnout": 8747,
      "ĠzÅ¡a": 8748,
      "ĠvhrÅ¯z": 8749,
      "Ġkfa": 8750,
      "ĠvtÃ©mÅ¾": 8751,
      "ĠjÅĻÃŃ": 8752,
      "Ġlb": 8753,
      "ĠcÃ³": 8754,
      "cho": 8755,
      "ĠÅ¾nou": 8756,
      "ĠÅ¡me": 8757,
      "Ġmud": 8758,
      "Ġtven": 8759,
      "ĠkvÅ¯d": 8760,
      "ĠskosÅ¥": 8761,
      "ĠkvÃŃch": 8762,
      "Ġvjho": 8763,
      "Ġyal": 8764,
      "ĠzvÃŃs": 8765,
      "ĠsvÃ½s": 8766,
      "Ġparr": 8767,
      "ĠvliÄį": 8768,
      "Ġvlist": 8769,
      "ĠsplÅĪ": 8770,
      "ĠskÅĻes": 8771,
      "ĠzÅ¡u": 8772,
      "ĠXABBBA": 8773,
      "Ġdvyk": 8774,
      "Ġvkvap": 8775,
      "ĠAXBAXB": 8776,
      "ĠvvÃŃ": 8777,
      "Ġtg": 8778,
      "ĠsvrÃ¡": 8779,
      "Ġsket": 8780,
      "Ġsug": 8781,
      "Ġvdvou": 8782,
      "ĠgÅ¯m": 8783,
      "Ġzos": 8784,
      "Ġvlesk": 8785,
      "Ġsche": 8786,
      "ĠdroÅ¾": 8787,
      "ĠstÅĻÃŃl": 8788,
      "ĠkmlÃ½": 8789,
      "Ġkver": 8790,
      "Ġktru": 8791,
      "Ġjmou": 8792,
      "ĠchrÅ¯m": 8793,
      "Ġzdus": 8794,
      "ĠzchÃ¡": 8795,
      "Ġkmoc": 8796,
      "Ġxal": 8797,
      "Ġtloun": 8798,
      "ĠvjÃŃz": 8799,
      "ĠcÃ©ÅĻ": 8800,
      "ĠÅ¡krt": 8801,
      "ĠvmdlÃ©": 8802,
      "ĠXAXBBA": 8803,
      "ĠÅ¡uth": 8804,
      "hy": 8805,
      "Ġts": 8806,
      "Ġmro": 8807,
      "ĠnÄĽs": 8808,
      "Ġkys": 8809,
      "ĠnuÅ¥": 8810,
      "Ġspnou": 8811,
      "ĠzdÃ©": 8812,
      "Ġkoust": 8813,
      "ĠtÃ©v": 8814,
      "ĠzpÅĻi": 8815,
      "Ġdvad": 8816,
      "Ġdlat": 8817,
      "Ġblast": 8818,
      "Ġrid": 8819,
      "ĠknÄĽn": 8820,
      "Ġkpl": 8821,
      "ĠtrÃ¡c": 8822,
      "Ġztrav": 8823,
      "Ġgai": 8824,
      "Ġzju": 8825,
      "ĠtÃ³m": 8826,
      "Ġspus": 8827,
      "Ġksmut": 8828,
      "Ġzmrz": 8829,
      "Ġfrid": 8830,
      "Ġrint": 8831,
      "ĠÅ¡kam": 8832,
      "Ġzkrot": 8833,
      "ĠsÅ¡k": 8834,
      "Ġzhrad": 8835,
      "Ġsvrhl": 8836,
      "ĠschvÄĽl": 8837,
      "Ġflin": 8838,
      "Ġuille": 8839,
      "Ġvhnus": 8840,
      "rr": 8841,
      "ĠvvÃ¡": 8842,
      "Ġpje": 8843,
      "ĠÅ¾lÃ¡": 8844,
      "Ġoi": 8845,
      "ĠsvdÄĽÄį": 8846,
      "ĠvoÅĻ": 8847,
      "ĠzeÄį": 8848,
      "Ġdad": 8849,
      "Ġvzje": 8850,
      "Ġsip": 8851,
      "ĠslaÅĻ": 8852,
      "ĠslaÄı": 8853,
      "Ġchon": 8854,
      "ĠvdvÅ¯r": 8855,
      "ĠvÅ¾hou": 8856,
      "ĠklaÅĪ": 8857,
      "nitÅĻ": 8858,
      "Ġvzdi": 8859,
      "ĠvhÅĻ": 8860,
      "ĠkÅĻÃŃÅ¡": 8861,
      "Ġchvu": 8862,
      "Ġkplo": 8863,
      "ĠvÄįet": 8864,
      "ĠhnÄĽd": 8865,
      "ĠsdÃ½": 8866,
      "ĠsmuÅ¾": 8867,
      "ĠstkÃ¡n": 8868,
      "ĠvÅ¡an": 8869,
      "Ġzdrob": 8870,
      "ĠsmiÅĻ": 8871,
      "ĠhÅĻmÄĽt": 8872,
      "Ġvklec": 8873,
      "Ġgend": 8874,
      "Ġkprv": 8875,
      "ĠzmeÅ¡": 8876,
      "ĠzbÃ¡z": 8877,
      "ĠÅ¾lab": 8878,
      "ĠkpÅ¯t": 8879,
      "Ġdvent": 8880,
      "ĠjrÅ¯": 8881,
      "ĠcmÃŃ": 8882,
      "ĠjiÄį": 8883,
      "Ġnuc": 8884,
      "Ġnyx": 8885,
      "ĠÅĻeÅ¡": 8886,
      "Ġies": 8887,
      "ĠpÄĽr": 8888,
      "Ġchard": 8889,
      "ĠslÃ¡t": 8890,
      "Ġkryp": 8891,
      "Ġtluc": 8892,
      "Ġzleb": 8893,
      "Ġkudr": 8894,
      "ĠsvÃ½Å¡": 8895,
      "ĠzmÃŃst": 8896,
      "ĠzlÃ¡z": 8897,
      "Ġzkost": 8898,
      "Ġsfor": 8899,
      "Ġsco": 8900,
      "ĠvhvÄĽzd": 8901,
      "Ġsvlh": 8902,
      "Ġkzda": 8903,
      "ĠvssÃ¡l": 8904,
      "Ġsvlek": 8905,
      "ĠmnÃ¡ct": 8906,
      "Ġtknout": 8907,
      "Ġjroz": 8908,
      "ĠpÅ¡tro": 8909,
      "Ġtst": 8910,
      "ĠÅ¡rÃ¡": 8911,
      "Ġpag": 8912,
      "ĠrÃ¡h": 8913,
      "Ġmys": 8914,
      "Ġvset": 8915,
      "lout": 8916,
      "ĠAABBBA": 8917,
      "ĠbraÅ¡": 8918,
      "Ġstul": 8919,
      "ĠkvlÃ¡": 8920,
      "Ġzyn": 8921,
      "Ġmlal": 8922,
      "Ġzver": 8923,
      "Ġotr": 8924,
      "ĠkmÃ¡": 8925,
      "Ġkpla": 8926,
      "ĠÅ¡kar": 8927,
      "Ġsdla": 8928,
      "Ġvchlu": 8929,
      "ĠÃ¡r": 8930,
      "ĠpÄĽls": 8931,
      "ĠvsaÄı": 8932,
      "ĠvnÃ©st": 8933,
      "Ġind": 8934,
      "Ġzpust": 8935,
      "Ġllin": 8936,
      "ĠkÅ¡a": 8937,
      "ĠsprÃ¡ch": 8938,
      "Ġbzuk": 8939,
      "Ġmlel": 8940,
      "ĠvpÄĽsÅ¥": 8941,
      "Ġkskut": 8942,
      "Ġvpsa": 8943,
      "ĠÅ¡vÃ©d": 8944,
      "lt": 8945,
      "yn": 8946,
      "Ġdt": 8947,
      "Ġmva": 8948,
      "Ġnais": 8949,
      "ĠkoÅ¥": 8950,
      "ĠceÅ¥": 8951,
      "Ġtex": 8952,
      "ĠvÃ¡p": 8953,
      "ĠroÄı": 8954,
      "Ġdut": 8955,
      "ĠABXA": 8956,
      "Ġspru": 8957,
      "Ġvsb": 8958,
      "Ġslar": 8959,
      "Ġkvin": 8960,
      "ĠchvÃŃc": 8961,
      "ĠkruÅ¾": 8962,
      "ĠvjÃŃt": 8963,
      "Ġsnim": 8964,
      "ĠÅ¾lic": 8965,
      "ĠpÃ©Äį": 8966,
      "Ġvlip": 8967,
      "ĠkpohÅĻ": 8968,
      "ĠzdÄĽv": 8969,
      "Ġclow": 8970,
      "ĠksmÄĽ": 8971,
      "Ġvhlas": 8972,
      "Ġgrem": 8973,
      "ĠpneÅ¡": 8974,
      "ĠÅ¡vej": 8975,
      "Ġvge": 8976,
      "Ġnnes": 8977,
      "ĠÄįku": 8978,
      "Ġvshro": 8979,
      "Ġvtroud": 8980,
      "ĠglÃ³": 8981,
      "Ġjlo": 8982,
      "ĠzÅ¡i": 8983,
      "ĠpÅĻeÄı": 8984,
      "ĠstÃŃÄį": 8985,
      "Ġhaf": 8986,
      "Ġtrej": 8987,
      "Ġkdek": 8988,
      "Ġkvzd": 8989,
      "Ġvsty": 8990,
      "Ġskre": 8991,
      "ĠkzÃŃ": 8992,
      "Ġyet": 8993,
      "Ġzals": 8994,
      "ĠÄįta": 8995,
      "Ġgos": 8996,
      "Ġsves": 8997,
      "Ġzten": 8998,
      "Ġscest": 8999,
      "ĠzhuÅ¡": 9000,
      "ĠkdÄĽc": 9001,
      "Ġzca": 9002,
      "Ġoasy": 9003,
      "Ġvmhu": 9004,
      "ĠjÃ³n": 9005,
      "cy": 9006,
      "ÄĽn": 9007,
      "ĠÅ¾rÃ¡t": 9008,
      "ĠkuÅ¡": 9009,
      "ĠAXXB": 9010,
      "Ġsap": 9011,
      "Ġryz": 9012,
      "ĠvdÅ¾b": 9013,
      "ĠhrÃ½z": 9014,
      "ĠplÃ¡ch": 9015,
      "Ġshlav": 9016,
      "Ġkven": 9017,
      "Ġtals": 9018,
      "ĠÅ¡pÃ¡": 9019,
      "Ġkzbo": 9020,
      "Ġcau": 9021,
      "ĠrÃ©mÅ¾": 9022,
      "Ġpoll": 9023,
      "Ġzruk": 9024,
      "Ġzarr": 9025,
      "ĠÅ¡os": 9026,
      "Ġvkrou": 9027,
      "ĠkÅĻou": 9028,
      "ĠslÅ¯Å¾": 9029,
      "Ġmass": 9030,
      "ĠvtrÃ¡v": 9031,
      "Ġkurs": 9032,
      "ĠkdruÅ¾": 9033,
      "Ġgypt": 9034,
      "Ġpstr": 9035,
      "Ġsmluv": 9036,
      "Ġvklus": 9037,
      "ĠXABABB": 9038,
      "ĠcÅ¾ech": 9039,
      "ĠmkrÃ¡t": 9040,
      "Ġzplic": 9041,
      "Ġrru": 9042,
      "Ġnoj": 9043,
      "Ġuo": 9044,
      "ĠtÄĽv": 9045,
      "ĠÄįÃŃÅĻ": 9046,
      "ĠviÅ¾": 9047,
      "Ġzdem": 9048,
      "Ġzpru": 9049,
      "ĠvalÅ¥": 9050,
      "ĠvouÅ¡": 9051,
      "ĠdvÃ¡l": 9052,
      "ĠztÃŃs": 9053,
      "Ġzkal": 9054,
      "Ġzhar": 9055,
      "ĠksnÅ¯m": 9056,
      "ĠÅĪouÄį": 9057,
      "ĠÅ¡lit": 9058,
      "ĠstrÃ¡t": 9059,
      "ĠktÅ¯": 9060,
      "Ġtkou": 9061,
      "ĠtkÃ¡n": 9062,
      "Ġcum": 9063,
      "Ġsbol": 9064,
      "Ġchran": 9065,
      "Ġpart": 9066,
      "Ġgog": 9067,
      "ĠzdÄĽr": 9068,
      "Ġzchlu": 9069,
      "ĠvmÄĽl": 9070,
      "ĠvpÅĻÃŃÄį": 9071,
      "ĠzjaÅĻ": 9072,
      "Ġhnut": 9073,
      "ĠskvÃŃÅ¡": 9074,
      "ĠÅ¾dÃ¡t": 9075,
      "Ġgent": 9076,
      "ĠvtÃ½Å¾": 9077,
      "Ġvklas": 9078,
      "ĠvchÃ½Å¡": 9079,
      "Ġwell": 9080,
      "ĠzhrÅ¯z": 9081,
      "Ġpstruh": 9082,
      "Ġnry": 9083,
      "Ġlve": 9084,
      "ĠnÃ©Å¥": 9085,
      "Ġmaz": 9086,
      "ĠmÃŃk": 9087,
      "ĠflÃ¡": 9088,
      "ĠchÃ¡Äį": 9089,
      "Ġslen": 9090,
      "ĠtlaÄį": 9091,
      "Ġkslou": 9092,
      "ĠdlÃŃc": 9093,
      "Ġkhar": 9094,
      "ĠzlÃŃm": 9095,
      "Ġberg": 9096,
      "ĠÅ¾erÄı": 9097,
      "ĠkÄįes": 9098,
      "Ġvpout": 9099,
      "ĠvbÄĽl": 9100,
      "Ġbrit": 9101,
      "ĠzÅ¾Ã¡": 9102,
      "Ġvztah": 9103,
      "Ġvsyp": 9104,
      "Ġsmrad": 9105,
      "ĠsmraÄį": 9106,
      "ĠkÅ¾er": 9107,
      "ĠvÅ¾ÃŃr": 9108,
      "ĠfÄĽr": 9109,
      "ĠvÄįtve": 9110,
      "Ġbrecht": 9111,
      "ĠzdÅĻim": 9112,
      "Ġmnu": 9113,
      "Ġcka": 9114,
      "Ġrho": 9115,
      "Ġaf": 9116,
      "ĠchÅĻÃ¡": 9117,
      "Ġsvz": 9118,
      "Ġcip": 9119,
      "ĠpaÅ¥": 9120,
      "Ġvzvy": 9121,
      "Ġbeg": 9122,
      "ĠkÅ¯st": 9123,
      "Ġdoub": 9124,
      "ĠdÃ©r": 9125,
      "Ġvkve": 9126,
      "Ġhous": 9127,
      "ĠABBAXB": 9128,
      "ĠAAABXB": 9129,
      "ĠÅ¡up": 9130,
      "Ġkls": 9131,
      "ĠkprÅ¯": 9132,
      "han": 9133,
      "ĠXXAAAX": 9134,
      "ĠctnÃ½m": 9135,
      "ĠvrouÅ¡": 9136,
      "Ġfij": 9137,
      "ĠthÄĽ": 9138,
      "Ġgov": 9139,
      "ĠplouÄį": 9140,
      "Ġvtep": 9141,
      "ĠzdrÅ¥": 9142,
      "Ġzhoj": 9143,
      "ĠtlÃŃch": 9144,
      "Ġvkrok": 9145,
      "Ġbryn": 9146,
      "ĠchlÃŃÅ¡": 9147,
      "ĠÅ¾dal": 9148,
      "Ġtskou": 9149,
      "Ġthan": 9150,
      "Ġszim": 9151,
      "ĠvrÃ½t": 9152,
      "ĠscÃ©n": 9153,
      "ĠvhrÃ¡ch": 9154,
      "Ġast": 9155,
      "ĠÅ¡Ã¡m": 9156,
      "Ġlast": 9157,
      "Ġdoch": 9158,
      "ĠkyÅĻ": 9159,
      "Ġvzj": 9160,
      "Ġvisk": 9161,
      "ĠhlaÅ¥": 9162,
      "ĠprÃ½m": 9163,
      "ĠAABABB": 9164,
      "Ġznad": 9165,
      "ĠvÅ¾ur": 9166,
      "Ġpum": 9167,
      "ĠkvÃ¡l": 9168,
      "Ġztle": 9169,
      "Ġzhvoz": 9170,
      "Ġtrop": 9171,
      "ĠvzpÅĻÃ¡": 9172,
      "Ġskol": 9173,
      "ĠsmÄĽst": 9174,
      "Ġzjes": 9175,
      "ĠkpÃ³": 9176,
      "ĠznoÄį": 9177,
      "ĠvdÄĽc": 9178,
      "Ġjohn": 9179,
      "Ġkzr": 9180,
      "ĠkzkÃ¡": 9181,
      "ĠtÃ©mÅ¾": 9182,
      "Ġcag": 9183,
      "Ġskald": 9184,
      "ĠsklÃ¡t": 9185,
      "Ġskul": 9186,
      "ĠvÄįlun": 9187,
      "ĠsÃ½r": 9188,
      "Ġstils": 9189,
      "Ġwo": 9190,
      "ĠzmÃ¡st": 9191,
      "ĠcÃ¡b": 9192,
      "ĠvdlaÅ¾": 9193,
      "Ġzmuk": 9194,
      "ĠzsvÃ½ch": 9195,
      "Ġnnic": 9196,
      "ĠstmÄĽl": 9197,
      "Ġnvent": 9198,
      "ĠpnÄĽl": 9199,
      "ĠthÃ©n": 9200,
      "ĠbÃ³v": 9201,
      "Ġvvzpo": 9202,
      "ĠÅ¡kvÃ¡r": 9203,
      "ĠcmÃŃr": 9204,
      "Ġclou": 9205,
      "ĠjesÅ¥": 9206,
      "Ġtoc": 9207,
      "Ġtoch": 9208,
      "leb": 9209,
      "Ġnold": 9210,
      "ĠtaÅĻ": 9211,
      "Ġnuch": 9212,
      "Ġbeh": 9213,
      "ĠkÃ¡p": 9214,
      "Ġpep": 9215,
      "ĠvsrÃ¡z": 9216,
      "Ġvuc": 9217,
      "Ġvdva": 9218,
      "Ġkdom": 9219,
      "Ġspoc": 9220,
      "ĠbrÅ¯m": 9221,
      "Ġvstrou": 9222,
      "ĠsvÃŃÅ¾": 9223,
      "ĠÅĻÃ¡k": 9224,
      "ĠÄıÃ¡l": 9225,
      "ĠvlÃŃp": 9226,
      "ĠkÅĻen": 9227,
      "Ġvrost": 9228,
      "ĠdlÃ¡Äį": 9229,
      "ĠvskÅĻe": 9230,
      "Ġssr": 9231,
      "Ġssou": 9232,
      "ĠztÄĽl": 9233,
      "Ġspras": 9234,
      "ĠzdÄĽs": 9235,
      "ĠzÃºz": 9236,
      "Ġxis": 9237,
      "Ġkstol": 9238,
      "ĠtlÃŃm": 9239,
      "ĠdÅ¾Ã¡r": 9240,
      "ĠvzÃ½t": 9241,
      "ĠAAAAAA": 9242,
      "Ġzmlkl": 9243,
      "Ġscim": 9244,
      "ĠzvÅ¡ed": 9245,
      "ĠzpyÅ¡": 9246,
      "ĠlpÄĽl": 9247,
      "ĠstÅĻap": 9248,
      "ĠdohÅĻ": 9249,
      "ĠÄįeb": 9250,
      "ĠmoÄį": 9251,
      "Ġsaz": 9252,
      "ĠtrÃ½ch": 9253,
      "ĠzpÃ½": 9254,
      "Ġsuc": 9255,
      "ĠAABBXA": 9256,
      "Ġtouc": 9257,
      "Ġmark": 9258,
      "Ġjob": 9259,
      "ĠzleÅ¥": 9260,
      "ĠthÅ¯m": 9261,
      "Ġgir": 9262,
      "Ġzdrav": 9263,
      "ĠknouÅ¥": 9264,
      "Ġdnin": 9265,
      "ĠklouÄį": 9266,
      "Ġztes": 9267,
      "Ġrinx": 9268,
      "Ġvstrach": 9269,
      "Ġzvrb": 9270,
      "ĠÅ¾bÃ¡": 9271,
      "Ġghi": 9272,
      "Ġvzvon": 9273,
      "kou": 9274,
      "Ġnber": 9275,
      "Ġdp": 9276,
      "Ġsth": 9277,
      "Ġlach": 9278,
      "ĠlÃŃv": 9279,
      "ĠlÃŃz": 9280,
      "Ġev": 9281,
      "ĠÄįerÅĪ": 9282,
      "ĠvmÅĻÃŃ": 9283,
      "ĠvhÅĻbi": 9284,
      "ĠkÅĻiÅ¾": 9285,
      "Ġschmu": 9286,
      "Ġtlup": 9287,
      "ĠXXAAXA": 9288,
      "Ġkbal": 9289,
      "ĠkbÃ¡s": 9290,
      "ĠÅ¾uÅ¾": 9291,
      "ĠmÄĽjÅ¾": 9292,
      "Ġgrand": 9293,
      "Ġzchmu": 9294,
      "Ġfranc": 9295,
      "ĠlstnÃ©": 9296,
      "ĠpreÄį": 9297,
      "Ġvcval": 9298,
      "Ġmyrt": 9299,
      "ĠkÅĻtil": 9300,
      "Ġtmel": 9301,
      "Ġsw": 9302,
      "Ġlak": 9303,
      "ĠÅ¾mo": 9304,
      "Ġchich": 9305,
      "ĠsvÄįe": 9306,
      "ĠnÃ½r": 9307,
      "ĠnouÄį": 9308,
      "Ġjaz": 9309,
      "Ġbesk": 9310,
      "ĠpÅĻeÅ¾": 9311,
      "ĠdyÅ¡": 9312,
      "ĠhaÅĻ": 9313,
      "ĠvÃ©zt": 9314,
      "ĠvÅ¾il": 9315,
      "Ġklac": 9316,
      "Ġzmen": 9317,
      "Ġglu": 9318,
      "ĠstÄĽs": 9319,
      "Ġvblouz": 9320,
      "Ġstouc": 9321,
      "ĠspÄĽk": 9322,
      "ĠÅ¥oun": 9323,
      "ĠznÄĽm": 9324,
      "ĠvlÃŃst": 9325,
      "Ġmand": 9326,
      "ĠÅ¡ils": 9327,
      "Ġget": 9328,
      "ĠÅ¡tast": 9329,
      "ĠrÃ½mÅ¾": 9330,
      "ĠfÃ¡r": 9331,
      "ĠfÃ¡Å¾": 9332,
      "Ġzhan": 9333,
      "ĠcheÅĪ": 9334,
      "Ġkult": 9335,
      "ĠÅ¥Ã¡c": 9336,
      "ĠAXABAB": 9337,
      "Ġglos": 9338,
      "ĠÅ¡ÅĪup": 9339,
      "ĠmÃ³n": 9340,
      "Ġgall": 9341,
      "Ġskiz": 9342,
      "ĠsdeÅ¡": 9343,
      "ĠtmÃ¡ÅĻ": 9344,
      "ĠvsliÄį": 9345,
      "vem": 9346,
      "Ġnri": 9347,
      "ĠnaÅ¾": 9348,
      "ĠÄįkÃ¡": 9349,
      "Ġmiv": 9350,
      "Ġmiz": 9351,
      "ĠtÄĽd": 9352,
      "ĠÅ¡iÅĻ": 9353,
      "Ġvdvor": 9354,
      "Ġdlak": 9355,
      "Ġhrat": 9356,
      "Ġnesv": 9357,
      "Ġklok": 9358,
      "ĠslÃŃd": 9359,
      "ĠtÅĻiÅ¥": 9360,
      "ĠdrÃ¡m": 9361,
      "Ġkzt": 9362,
      "Ġzlej": 9363,
      "Ġyer": 9364,
      "ĠsrÃ½": 9365,
      "Ġvspi": 9366,
      "Ġxer": 9367,
      "ĠkstÃŃ": 9368,
      "Ġkim": 9369,
      "ĠtlÃŃk": 9370,
      "ĠmhÃ¡ch": 9371,
      "Ġshlas": 9372,
      "ĠrdÃŃÅ¡": 9373,
      "ĠkspÄĽ": 9374,
      "Ġcink": 9375,
      "Ġvstrom": 9376,
      "Ġthus": 9377,
      "ĠvtÃ½d": 9378,
      "ĠzplÃ¡l": 9379,
      "ĠmlÃŃÄį": 9380,
      "ĠÄįmoud": 9381,
      "Ġstaff": 9382,
      "ĠjrÅ¯z": 9383,
      "Ġvvr": 9384,
      "ĠdÅ¾i": 9385,
      "ĠlaÅĻ": 9386,
      "Ġmist": 9387,
      "ĠvÅ¡o": 9388,
      "ĠvyÅ¥": 9389,
      "ĠÄįisÅ¥": 9390,
      "Ġvsar": 9391,
      "ĠstÄĽl": 9392,
      "lÃ½s": 9393,
      "ĠsbÅĻÃŃ": 9394,
      "Ġsber": 9395,
      "Ġschmi": 9396,
      "Ġkryb": 9397,
      "Ġvjez": 9398,
      "Ġdvard": 9399,
      "ĠklÃ¡n": 9400,
      "ĠjoÅ¡t": 9401,
      "ĠhlÃ¡Å¡": 9402,
      "ĠsnÃ¡d": 9403,
      "ĠvkaÅ¡": 9404,
      "Ġzkan": 9405,
      "ĠplÃŃÅ¡": 9406,
      "Ġgup": 9407,
      "Ġvhluk": 9408,
      "Ġkstu": 9409,
      "ĠvlÃ©t": 9410,
      "Ġzmrs": 9411,
      "Ġvcud": 9412,
      "Ġkpras": 9413,
      "ĠstlÃ¡n": 9414,
      "ĠvjÃŃc": 9415,
      "Ġvvl": 9416,
      "ĠllÃ¡r": 9417,
      "Ġvvel": 9418,
      "Ġdchnu": 9419,
      "ĠfÃ½r": 9420,
      "ĠkÅĻtÄĽn": 9421,
      "ĠvtÅĻpyt": 9422,
      "Ġtnul": 9423,
      "ĠjÅĻi": 9424,
      "ĠzÃ©m": 9425,
      "Ġbrd": 9426,
      "ĠÅ¾ÄıÃ¡": 9427,
      "Ġtir": 9428,
      "Ġmoch": 9429,
      "Ġrur": 9430,
      "ĠABXB": 9431,
      "Ġia": 9432,
      "Ġsmd": 9433,
      "ĠtÃ¡v": 9434,
      "Ġsain": 9435,
      "Ġhlej": 9436,
      "ĠpÃŃÅ¥": 9437,
      "ĠpiÅ¾": 9438,
      "ĠchyÅ¡": 9439,
      "Ġvrad": 9440,
      "Ġzhlav": 9441,
      "Ġmram": 9442,
      "Ġshar": 9443,
      "Ġksle": 9444,
      "ĠÅ¾aÄį": 9445,
      "ĠchÅ¯z": 9446,
      "ĠkzÅĻÃŃ": 9447,
      "Ġvkop": 9448,
      "Ġoul": 9449,
      "Ġrakt": 9450,
      "ĠÃ¡h": 9451,
      "ĠzÃºs": 9452,
      "ĠzpuÅ¡": 9453,
      "ĠÅĪÃ¡Äį": 9454,
      "Ġsjis": 9455,
      "ĠztuÄį": 9456,
      "Ġsport": 9457,
      "ĠvbÄĽs": 9458,
      "Ġzbles": 9459,
      "Ġkvost": 9460,
      "ĠzÄįlo": 9461,
      "ĠvÅ¾eÅĪ": 9462,
      "ĠkrÃ©t": 9463,
      "ĠvstrÃ¡Å¾": 9464,
      "Ġvbrlo": 9465,
      "ĠvnouÄį": 9466,
      "ĠAABXBB": 9467,
      "ĠtchÃ¡": 9468,
      "Ġshrad": 9469,
      "ĠvÅ¡ke": 9470,
      "ĠdskÃ½": 9471,
      "Ġrrot": 9472,
      "ĠzhÃ½Äį": 9473,
      "ĠvtÅĻÃŃÅ¡": 9474,
      "ĠfrÃ©n": 9475,
      "ĠÅ¡min": 9476,
      "ĠsÅĻi": 9477,
      "ĠvÅĻas": 9478,
      "Ġrill": 9479,
      "ĠnÃŃl": 9480,
      "ĠvÄĽch": 9481,
      "Ġjad": 9482,
      "ĠbosÅ¥": 9483,
      "ĠABABBB": 9484,
[...]
