{
  "version": "1.0",
  "truncation": null,
  "padding": null,
  "added_tokens": [
    {
      "id": 0,
      "content": "<|EOS|>",
      "single_word": false,
      "lstrip": false,
      "rstrip": false,
      "normalized": false,
      "special": true
    },
    {
      "id": 1,
      "content": "<|PAD|>",
      "single_word": false,
      "lstrip": false,
      "rstrip": false,
      "normalized": false,
      "special": true
    },
    {
      "id": 2,
      "content": "<|UNK|>",
      "single_word": false,
      "lstrip": false,
      "rstrip": false,
      "normalized": false,
      "special": true
    },
    {
      "id": 3,
      "content": "<|CLS|>",
      "single_word": false,
      "lstrip": false,
      "rstrip": false,
      "normalized": false,
      "special": true
    }
  ],
  "normalizer": null,
  "pre_tokenizer": {
    "type": "ByteLevel",
    "add_prefix_space": false,
    "trim_offsets": true,
    "use_regex": true
  },
  "post_processor": {
    "type": "RobertaProcessing",
    "sep": [
      "<|EOS|>",
      0
    ],
    "cls": [
      "<|CLS|>",
      3
    ],
    "trim_offsets": false,
    "add_prefix_space": false
  },
  "decoder": {
    "type": "ByteLevel",
    "add_prefix_space": true,
    "trim_offsets": true,
    "use_regex": true
  },
  "model": {
    "type": "BPE",
    "dropout": null,
    "unk_token": null,
    "continuing_subword_prefix": null,
    "end_of_word_suffix": null,
    "fuse_unk": false,
    "byte_fallback": false,
    "vocab": {
      "<|EOS|>": 0,
      "<|PAD|>": 1,
      "<|UNK|>": 2,
      "<|CLS|>": 3,
      "!": 4,
      "#": 5,
      "+": 6,
      ",": 7,
      ".": 8,
      "/": 9,
      "0": 10,
      "1": 11,
      "2": 12,
      "3": 13,
      "4": 14,
      "5": 15,
      "6": 16,
      "7": 17,
      "8": 18,
      "9": 19,
      "=": 20,
      "?": 21,
      "A": 22,
      "B": 23,
      "C": 24,
      "D": 25,
      "H": 26,
      "J": 27,
      "N": 28,
      "P": 29,
      "T": 30,
      "X": 31,
      "Y": 32,
      "`": 33,
      "a": 34,
      "b": 35,
      "c": 36,
      "d": 37,
      "e": 38,
      "f": 39,
      "g": 40,
      "h": 41,
      "i": 42,
      "j": 43,
      "k": 44,
      "l": 45,
      "m": 46,
      "n": 47,
      "o": 48,
      "p": 49,
      "q": 50,
      "r": 51,
      "s": 52,
      "t": 53,
      "u": 54,
      "v": 55,
      "w": 56,
      "x": 57,
      "y": 58,
      "z": 59,
      "¡": 60,
      "¢": 61,
      "¤": 62,
      "¥": 63,
      "¦": 64,
      "§": 65,
      "¨": 66,
      "©": 67,
      "ª": 68,
      "«": 69,
      "®": 70,
      "¯": 71,
      "²": 72,
      "³": 73,
      "´": 74,
      "¶": 75,
      "¹": 76,
      "º": 77,
      "»": 78,
      "¼": 79,
      "½": 80,
      "¾": 81,
      "Â": 82,
      "Ã": 83,
      "Ä": 84,
      "Å": 85,
      "Ï": 86,
      "â": 87,
      "Ċ": 88,
      "Ġ": 89,
      "Ģ": 90,
      "Ĥ": 91,
      "Ħ": 92,
      "ħ": 93,
      "ĩ": 94,
      "Ī": 95,
      "Ĭ": 96,
      "į": 97,
      "ı": 98,
      "Ĵ": 99,
      "ĵ": 100,
      "Ļ": 101,
      "ļ": 102,
      "Ľ": 103,
      "Ł": 104,
      "ł": 105,
      "Ń": 106,
      "Ġ#": 107,
      "ÃŃ": 108,
      "Ã¡": 109,
      "Ġs": 110,
      "Ġ1": 111,
      "Ġv": 112,
      "ÄĽ": 113,
      "Ġp": 114,
      "Ġj": 115,
      "Ġn": 116,
      "Ġt": 117,
      "Ġa": 118,
      "Å¾": 119,
      "ch": 120,
      "Ġz": 121,
      "Å¡": 122,
      "Ġk": 123,
      "Ã½": 124,
      "ÅĻ": 125,
      "Ġm": 126,
      "Ġo": 127,
      "Ã©": 128,
      "ou": 129,
      "Ġd": 130,
      "Äį": 131,
      "la": 132,
      "st": 133,
      "en": 134,
      "Ġb": 135,
      "Ġ10": 136,
      "Ġ8": 137,
      "Ġ11": 138,
      "em": 139,
      "Ġh": 140,
      "le": 141,
      "Ġse": 142,
      "Å¯": 143,
      "ro": 144,
      "ak": 145,
      "ra": 146,
      "li": 147,
      "Ġpo": 148,
      "Ġje": 149,
      "Ġne": 150,
      "nÃŃ": 151,
      "Ġna": 152,
      "XX": 153,
      "Ġu": 154,
      "Ġi": 155,
      "lo": 156,
      "rÃ¡": 157,
      "ce": 158,
      "ÅĻe": 159,
      "Ġe": 160,
      "nÄĽ": 161,
      "AB": 162,
      "Ġsv": 163,
      "Ġ9": 164,
      "Ġst": 165,
      "ĠÅ¾": 166,
      "ĠÃ¡": 167,
      "al": 168,
      "ÅĻÃŃ": 169,
      "Å¡e": 170,
      "sk": 171,
      "dy": 172,
      "ne": 173,
      "Ġza": 174,
      "Ġ19": 175,
      "Ġ7": 176,
      "ru": 177,
      "nÃ½": 178,
      "ti": 179,
      "Ġjak": 180,
      "ĠÃŃ": 181,
      "ho": 182,
      "lÃ¡": 183,
      "te": 184,
      "de": 185,
      "nÃ©": 186,
      "vÄĽ": 187,
      "ĠÄį": 188,
      "je": 189,
      "Ġdo": 190,
      "vÃ¡": 191,
      "Ġch": 192,
      "il": 193,
      "jÃŃ": 194,
      "Ġto": 195,
      "ĠÄĽ": 196,
      "na": 197,
      "lÃŃ": 198,
      "tÃŃ": 199,
      "no": 200,
      "lu": 201,
      "va": 202,
      "Ġc": 203,
      "Ġby": 204,
      "Ġ6": 205,
      "ky": 206,
      "nÃ¡": 207,
      "ku": 208,
      "ko": 209,
      "ÅĻi": 210,
      "Ġji": 211,
      "nou": 212,
      "vo": 213,
      "ka": 214,
      "vÃŃ": 215,
      "tÄĽ": 216,
      "Ġ12": 217,
      "ni": 218,
      "Ġjs": 219,
      "Ġve": 220,
      "Ġ18": 221,
      "ly": 222,
      "Ã½ch": 223,
      "Ġro": 224,
      "Ã¡m": 225,
      "..": 226,
      "ci": 227,
      "Å¡ÃŃ": 228,
      "nu": 229,
      "at": 230,
      "Ġpro": 231,
      "Ġr": 232,
      "Å¥": 233,
      "Ġjen": 234,
      "ĠAB": 235,
      "00": 236,
      "cÃŃ": 237,
      "Ã½m": 238,
      "Ġ1900": 239,
      "Ġle": 240,
      "ĠÅ¾e": 241,
      "vÃ©": 242,
      "do": 243,
      "XXXX": 244,
      "Ġko": 245,
      "XA": 246,
      "Ġho": 247,
      "dÄĽ": 248,
      "Ġ13": 249,
      "am": 250,
      "Ġvy": 251,
      "Ġvz": 252,
      "ny": 253,
      "dÃŃ": 254,
      "ĠÅ¡": 255,
      "Ġmo": 256,
      "du": 257,
      "lÃ©": 258,
      "sti": 259,
      "ÄįÃŃ": 260,
      "Ġkdy": 261,
      "po": 262,
      "ĠvÄĽ": 263,
      "Ġob": 264,
      "ĠABAB": 265,
      "ĠpÅĻe": 266,
      "Ġbo": 267,
      "Ġen": 268,
      "Ġtak": 269,
      "Ġco": 270,
      "mu": 271,
      "ar": 272,
      "to": 273,
      "Ġmi": 274,
      "dÃ¡": 275,
      "Å¾ÃŃ": 276,
      "ĠÃ": 277,
      "Ġdu": 278,
      "se": 279,
      "ĠA": 280,
      "kÃ¡": 281,
      "lou": 282,
      "80": 283,
      "Ġ1880": 284,
      "Äįe": 285,
      "di": 286,
      "ÅĪ": 287,
      "Å¾e": 288,
      "Ġmu": 289,
      "da": 290,
      "Ġtu": 291,
      "20": 292,
      "as": 293,
      "ĠvÃŃ": 294,
      "ĠvÅ¡": 295,
      "ĠvÅ¡e": 296,
      "Ġroz": 297,
      "ÄĽt": 298,
      "ĠXXXX": 299,
      "ji": 300,
      "Ġod": 301,
      "vi": 302,
      "Ġni": 303,
      "ĠnÃ¡": 304,
      "ĠtÄĽ": 305,
      "ve": 306,
      "Ġti": 307,
      "Äı": 308,
      "ĠÄįe": 309,
      "tÃ¡": 310,
      "Ġ1920": 311,
      "Ġjsem": 312,
      "Ġno": 313,
      "Ġte": 314,
      "Ġli": 315,
      "Ġsp": 316,
      "by": 317,
      "mÄĽ": 318,
      "rd": 319,
      "ry": 320,
      "mÃŃ": 321,
      "vu": 322,
      "me": 323,
      "ĠzÃ¡": 324,
      "ĠdÃ¡": 325,
      "be": 326,
      "Ġhla": 327,
      "ta": 328,
      "ĠÅ¾i": 329,
      "Ġpa": 330,
      "ĠnÄĽ": 331,
      "ze": 332,
      "Ġy": 333,
      "vy": 334,
      "Äįi": 335,
      "...": 336,
      "ĠkrÃ¡": 337,
      "mi": 338,
      "ĠkdyÅ¾": 339,
      "Ġbu": 340,
      "stÃŃ": 341,
      "ĠmÄĽ": 342,
      "ĠsvÃ©": 343,
      "Ġsk": 344,
      "ĠpÅĻi": 345,
      "Ġsi": 346,
      "enÃŃ": 347,
      "Å¡i": 348,
      "ĠmÃ¡": 349,
      "Å¯j": 350,
      "Ġru": 351,
      "Ġty": 352,
      "lÃ½": 353,
      "Ġ5": 354,
      "ĠAAB": 355,
      "ĠÃº": 356,
      "Ġsrd": 357,
      "sÃŃ": 358,
      "val": 359,
      "bo": 360,
      "Ġpra": 361,
      "ĠsvÄĽt": 362,
      "ĠjÃ¡": 363,
      "Ġjako": 364,
      "Ġta": 365,
      "Ġvo": 366,
      "Ġpr": 367,
      "ĠvÅ¡ak": 368,
      "tu": 369,
      "ĠXA": 370,
      "Ġou": 371,
      "ĠdÄĽ": 372,
      "ha": 373,
      "sta": 374,
      "nÃ½ch": 375,
      "Ġkde": 376,
      "vÃ½": 377,
      "Ġten": 378,
      "Ġce": 379,
      "kou": 380,
      "ĠnÃŃ": 381,
      "Ġka": 382,
      "bÄĽ": 383,
      "ez": 384,
      "ma": 385,
      "lad": 386,
      "kÅ¯": 387,
      "ĠAABB": 388,
      "vou": 389,
      "Ġtam": 390,
      "hu": 391,
      "lem": 392,
      "ĠlÃ¡": 393,
      "ĠvÃ¡": 394,
      "Ġvi": 395,
      "ty": 396,
      "zÃŃ": 397,
      "chu": 398,
      "ĠrÃ¡": 399,
      "ĠdÃŃ": 400,
      "ĠjiÅ¾": 401,
      "40": 402,
      "hÃ¡": 403,
      "kÃ©": 404,
      "hy": 405,
      "Ġkr": 406,
      "rak": 407,
      "led": 408,
      "Ġnad": 409,
      "Ġpod": 410,
      "ĠjÃŃ": 411,
      "Ġzem": 412,
      "kem": 413,
      "Ġjeho": 414,
      "ĠXAXA": 415,
      "mo": 416,
      "Å¡tÄĽ": 417,
      "ĠjeÅ¾": 418,
      "pÃŃ": 419,
      "ĠpÅĻÃŃ": 420,
      "Ġslu": 421,
      "sy": 422,
      "len": 423,
      "Ġbyl": 424,
      "su": 425,
      "Å¾i": 426,
      "Ġjed": 427,
      "Ġra": 428,
      "Ġzas": 429,
      "si": 430,
      "bu": 431,
      "Ġmy": 432,
      "bi": 433,
      "cho": 434,
      "Ġsrdce": 435,
      "ad": 436,
      "ĠtÃ©": 437,
      "nÃ½m": 438,
      "Ġvla": 439,
      "ĠÅ¡e": 440,
      "sa": 441,
      "ĠpÃ¡": 442,
      "Ġpe": 443,
      "rou": 444,
      "Å¾dy": 445,
      "dou": 446,
      "Ã©m": 447,
      "Ġsta": 448,
      "Ġkte": 449,
      "ĠstÃ¡": 450,
      "ĠlÃŃ": 451,
      "ĠmÃŃ": 452,
      "CC": 453,
      "kÃ½": 454,
      "ĠnÃ¡m": 455,
      "ĠlÃ¡sk": 456,
      "ĠpÃŃ": 457,
      "ĠkvÄĽ": 458,
      "ba": 459,
      "mÃ¡": 460,
      "men": 461,
      "Ġpak": 462,
      "Ġhro": 463,
      "ste": 464,
      "ĠaÅ¾": 465,
      "Ã©ho": 466,
      "Ġjest": 467,
      "ĠvÅ¾dy": 468,
      "Ġbez": 469,
      "pÄĽ": 470,
      "ĠjenÅ¾": 471,
      "zd": 472,
      "Ġlid": 473,
      "ĠÅĻe": 474,
      "ĠbÃŃ": 475,
      "Ġkdo": 476,
      "Ġ15": 477,
      "Ġtv": 478,
      "ĠpÅĻed": 479,
      "Ġze": 480,
      "my": 481,
      "rÃ½": 482,
      "Ġon": 483,
      "Ġdi": 484,
      "Ġ14": 485,
      "Ġmne": 486,
      "Ġpla": 487,
      "ĠtvÃ¡": 488,
      "Ġzla": 489,
      "Å¯m": 490,
      "ĠÃ³": 491,
      "Ġl": 492,
      "ĠXXXXXX": 493,
      "hou": 494,
      "Ġso": 495,
      "60": 496,
      "Ġhle": 497,
      "ÅĻÃ¡": 498,
      "ĠvÃ½": 499,
      "Ġdne": 500,
      "ĠÃ½": 501,
      "ĠÄįi": 502,
      "ej": 503,
      "ĠuÅ¾": 504,
      "ĠÅ¾ivo": 505,
      "tem": 506,
      "Ġnej": 507,
      "nce": 508,
      "Ġ4": 509,
      "ĠkaÅ¾": 510,
      "Ġslo": 511,
      "ĠmÃ©": 512,
      "Ġsna": 513,
      "ĠteÄı": 514,
      "ĠdÃ¡l": 515,
      "tr": 516,
      "ĠprÃ¡": 517,
      "Ġsvou": 518,
      "Ġnez": 519,
      "Ġpou": 520,
      "nem": 521,
      "ĠplÃ¡": 522,
      "sto": 523,
      "ĠÃ¡nÃŃ": 524,
      "Ġ16": 525,
      "Ġku": 526,
      "chÃ¡": 527,
      "ĠenÃŃ": 528,
      "ĠÄįer": 529,
      "tÃ½": 530,
      "ĠneÅ¾": 531,
      "pu": 532,
      "ĠÄįas": 533,
      "Ġtr": 534,
      "Ġsto": 535,
      "Ġnes": 536,
      "nÅ¯": 537,
      "Ġden": 538,
      "Ġma": 539,
      "Ġ1940": 540,
      "Ġtou": 541,
      "bÃŃ": 542,
      "Ġnem": 543,
      "Ġjej": 544,
      "Ġpos": 545,
      "Ġci": 546,
      "bou": 547,
      "ĠÅ¾en": 548,
      "Ġjsou": 549,
      "ĠvÅ¡ech": 550,
      "Ġot": 551,
      "tÃ©": 552,
      "Ġnebe": 553,
      "ĠmÅ¯j": 554,
      "Ġale": 555,
      "BA": 556,
      "dÄĽl": 557,
      "Ġsvo": 558,
      "ĠtvÃ©": 559,
      "Ġjsi": 560,
      "Ġoh": 561,
      "nÃ©m": 562,
      "Ġdob": 563,
      "rt": 564,
      "Ġf": 565,
      "skÃ©": 566,
      "Ġzrak": 567,
      "cha": 568,
      "pe": 569,
      "ĠnÃ¡s": 570,
      "nÃŃm": 571,
      "Ġsla": 572,
      "pa": 573,
      "Ġme": 574,
      "ĠhvÄĽ": 575,
      "ĠjejÃŃ": 576,
      "Ġdru": 577,
      "Ġem": 578,
      "ĠmnÄĽ": 579,
      "rÃ©": 580,
      "ĠstÃŃ": 581,
      "Ġbra": 582,
      "ĠjeÅ¡tÄĽ": 583,
      "Ġsnad": 584,
      "ĠpÄĽ": 585,
      "Ġed": 586,
      "ĠduÅ¡e": 587,
      "ĠÅĻÃŃ": 588,
      "stvÃŃ": 589,
      "Ġsy": 590,
      "vil": 591,
      "zy": 592,
      "Ġkra": 593,
      "ĠsÃŃ": 594,
      "jÅ¡ÃŃ": 595,
      "Ġvel": 596,
      "Å¡el": 597,
      "ĠtÃŃ": 598,
      "nost": 599,
      "Ġda": 600,
      "Ġad": 601,
      "Ġpl": 602,
      "ĠABBA": 603,
      "ĠcÃŃ": 604,
      "stu": 605,
      "re": 606,
      "ĠkaÅ¾d": 607,
      "Ġkle": 608,
      "Ġstra": 609,
      "ĠnÄĽm": 610,
      "ĠbÃ½": 611,
      "nul": 612,
      "pi": 613,
      "rÅ¯": 614,
      "vat": 615,
      "ĠkvÄĽt": 616,
      "Ġsm": 617,
      "Ġ1860": 618,
      "Ġtom": 619,
      "Ġmil": 620,
      "Ġsvat": 621,
      "Ġzde": 622,
      "Ġde": 623,
      "ĠsÃ¡m": 624,
      "ĠÃ©": 625,
      "Ġja": 626,
      "Ġvl": 627,
      "Ġbla": 628,
      "Ġlo": 629,
      "ĠbÄĽ": 630,
      "Ġ1840": 631,
      "ĠÅ¯": 632,
      "Ġan": 633,
      "Ġhra": 634,
      "ĠvÅ¯": 635,
      "til": 636,
      "ĠrÅ¯": 637,
      "ĠvÅ¡ec": 638,
      "Ġlu": 639,
      "ĠaÅ¥": 640,
      "Ġla": 641,
      "Ġstar": 642,
      "Ġnech": 643,
      "tel": 644,
      "Ġhu": 645,
      "Ġdra": 646,
      "Ġdnes": 647,
      "hÃ½": 648,
      "Ġpoh": 649,
      "ĠchvÃŃ": 650,
      "jem": 651,
      "Ġzd": 652,
      "Ġneb": 653,
      "ÅĻen": 654,
      "Ġpu": 655,
      "Ġcho": 656,
      "ĠoÄįi": 657,
      "tek": 658,
      "Ġva": 659,
      "Ġbude": 660,
      "Ġre": 661,
      "cÃŃch": 662,
      "Å¾en": 663,
      "Ġkam": 664,
      "tra": 665,
      "ĠAA": 666,
      "sÃ¡": 667,
      "Ġhlu": 668,
      "Ġsou": 669,
      "Ġry": 670,
      "ĠvÄĽÄį": 671,
      "pÃ¡": 672,
      "ĠÅ¾Ã¡": 673,
      "stÃ¡": 674,
      "ĠbÃ¡": 675,
      "ĠsvÄĽ": 676,
      "rem": 677,
      "Ġhlas": 678,
      "ĠduÅ¡i": 679,
      "Ġas": 680,
      "Ġsam": 681,
      "dem": 682,
      "py": 683,
      "chem": 684,
      "ĠkrÃ¡s": 685,
      "Ġjsme": 686,
      "Ġzvo": 687,
      "Ġmod": 688,
      "Ġjas": 689,
      "Ġsly": 690,
      "Ġjich": 691,
      "vÃ½ch": 692,
      "chy": 693,
      "Ġsl": 694,
      "Ġba": 695,
      "Ġpoz": 696,
      "ĠĊ": 697,
      "Ġslad": 698,
      "zi": 699,
      "sky": 700,
      "Ġsmu": 701,
      "bÃ¡": 702,
      "Äįka": 703,
      "ĠnenÃŃ": 704,
      "Ġvra": 705,
      "Ġkou": 706,
      "sÅ¥": 707,
      "ĠkÅĻÃŃ": 708,
      "tou": 709,
      "ĠÅ¾ivot": 710,
      "Ġstro": 711,
      "Ġbych": 712,
      "Ġdlou": 713,
      "cen": 714,
      "ĠvÃ¡m": 715,
      "Ġosti": 716,
      "vÃ½m": 717,
      "Ġmno": 718,
      "hle": 719,
      "Å¡tÃŃ": 720,
      "stÄĽ": 721,
      "vem": 722,
      "ven": 723,
      "ev": 724,
      "skÃ¡": 725,
      "ĠtÄĽch": 726,
      "ĠchtÄĽ": 727,
      "Ġspo": 728,
      "skÃ½": 729,
      "Å¯h": 730,
      "ĠÄįÃŃ": 731,
      "ĠobÄĽ": 732,
      "ĠÅ¡tÄĽ": 733,
      "Ġmat": 734,
      "nosti": 735,
      "Ġnich": 736,
      "Ġtvo": 737,
      "nil": 738,
      "Ġbou": 739,
      "Ġslunce": 740,
      "nÃ¡m": 741,
      "Ġkli": 742,
      "ĠptÃ¡": 743,
      "dla": 744,
      "snÃŃ": 745,
      "Ġjim": 746,
      "cem": 747,
      "ÅĻel": 748,
      "Ġbylo": 749,
      "ĠzÅĻÃŃ": 750,
      "Ġnep": 751,
      "Ġos": 752,
      "ÅĻil": 753,
      "stou": 754,
      "ĠsvÃ½m": 755,
      "Ġkro": 756,
      "ĠslÃ¡": 757,
      "Ġok": 758,
      "ĠsmÃŃ": 759,
      "Ġmou": 760,
      "Ġala": 761,
      "Ġml": 762,
      "ĠvÃŃc": 763,
      "ĠsvÅ¯j": 764,
      "ĠtÅĻe": 765,
      "tÃŃm": 766,
      "ĠoÄįÃŃ": 767,
      "Ġani": 768,
      "zu": 769,
      "ned": 770,
      "sku": 771,
      "rÃ¡t": 772,
      "vnÃŃ": 773,
      "lÅ¯": 774,
      "jich": 775,
      "mÅ¯": 776,
      "Ġmar": 777,
      "Ġop": 778,
      "ĠbÅ¯h": 779,
      "ri": 780,
      "Å¡en": 781,
      "Ġnik": 782,
      "lovÄĽ": 783,
      "ĠmÃ¡m": 784,
      "sud": 785,
      "Äįky": 786,
      "Äįek": 787,
      "sty": 788,
      "so": 789,
      "Ġsmut": 790,
      "ĠXX": 791,
      "ĠnÃŃm": 792,
      "hÃ©": 793,
      "ĠsmÄĽ": 794,
      "ĠlÃ¡sky": 795,
      "nal": 796,
      "Ġsen": 797,
      "Ġat": 798,
      "ĠsvÃ½ch": 799,
      "Ġbyla": 800,
      "snÄĽ": 801,
      "Ġmilo": 802,
      "Ġnu": 803,
      "Ġmys": 804,
      "nky": 805,
      "ĠtvÅ¯j": 806,
      "Ġkol": 807,
      "Ġila": 808,
      "Ġach": 809,
      "ĠblÃŃ": 810,
      "hla": 811,
      "Ġhned": 812,
      "ĠÄįlovÄĽ": 813,
      "Ġkla": 814,
      "Äįku": 815,
      "Ġtem": 816,
      "an": 817,
      "ĠAABBCC": 818,
      "ĠsvÃŃ": 819,
      "nÃ©ho": 820,
      "Ġg": 821,
      "dil": 822,
      "Ġost": 823,
      "ĠvÃ¡s": 824,
      "ĠsnÄĽ": 825,
      "Äįen": 826,
      "Ġvr": 827,
      "Ġnoc": 828,
      "tÅ¯": 829,
      "seÅĪ": 830,
      "lÃ½ch": 831,
      "ĠtÃ©Å¾": 832,
      "kla": 833,
      "ĠAAXX": 834,
      "ĠĠ": 835,
      "ĠajÃŃ": 836,
      "ĠtÃ¡": 837,
      "ĠsobÄĽ": 838,
      "za": 839,
      "kal": 840,
      "Ġkolem": 841,
      "ĠvÅ¡em": 842,
      "ĠÅ¡ÃŃ": 843,
      "Ġus": 844,
      "ĠtobÄĽ": 845,
      "ĠmÄĽl": 846,
      "ĠÄįa": 847,
      "Ġke": 848,
      "hne": 849,
      "ĠkaÅ¾dÃ½": 850,
      "ĠproÄį": 851,
      "Ġlet": 852,
      "Ġble": 853,
      "Å¡ÃŃm": 854,
      "Ġchu": 855,
      "ĠpÅ¯": 856,
      "Ġbe": 857,
      "Å¡Å¥": 858,
      "ĠzpÄĽ": 859,
      "lil": 860,
      "Ġzp": 861,
      "Ġaby": 862,
      "ĠzdÃ¡": 863,
      "ĠÅĻ": 864,
      "nek": 865,
      "ĠchvÄĽ": 866,
      "Ġrado": 867,
      "ĠtÄĽÅ¾": 868,
      "nout": 869,
      "Ġsem": 870,
      "ĠdÅĻÃŃ": 871,
      "ĠzemÄĽ": 872,
      "ĠÅ¾itÃŃ": 873,
      "Ġchce": 874,
      "dnÃ©": 875,
      "Äįil": 876,
      "ĠpÅĻes": 877,
      "Ġzda": 878,
      "cÅ¯": 879,
      "Ġtich": 880,
      "ĠÅ¡tÄĽstÃŃ": 881,
      "Ġpan": 882,
      "ĠpÅĻec": 883,
      "Ã½mi": 884,
      "ĠbuÄı": 885,
      "hÅ¯": 886,
      "Ġoko": 887,
      "ĠhvÄĽz": 888,
      "ĠÅ¾al": 889,
      "ĠspÃ¡": 890,
      "Ġmal": 891,
      "dce": 892,
      "ĠtÃŃm": 893,
      "ĠÄĽnÃŃ": 894,
      "Ġkrev": 895,
      "Ġjejich": 896,
      "Ġsrdci": 897,
      "dÃŃm": 898,
      "tky": 899,
      "skÃ½ch": 900,
      "ĠleÄį": 901,
      "ĠrÃ¡d": 902,
      "Ġmrt": 903,
      "Ġple": 904,
      "Ġruce": 905,
      "ÅĻem": 906,
      "ĠÃ©ho": 907,
      "Å¾il": 908,
      "Ġoz": 909,
      "ĠhÃ¡": 910,
      "ĠÅ¡u": 911,
      "Ġvlast": 912,
      "ĠvÅ¡ecko": 913,
      "hem": 914,
      "ĠsnÃŃ": 915,
      "Ġmoje": 916,
      "ska": 917,
      "Ġju": 918,
      "Ġzemi": 919,
      "ved": 920,
      "Ġsmr": 921,
      "Ġuje": 922,
      "om": 923,
      "ĠvÄĽt": 924,
      "co": 925,
      "Ġbi": 926,
      "ĠveÄįe": 927,
      "jde": 928,
      "Ġklid": 929,
      "pr": 930,
      "Ġhru": 931,
      "Ġnepo": 932,
      "Ġmra": 933,
      "Ġduch": 934,
      "ĠojÃŃ": 935,
      "kÃ½ch": 936,
      "Ġjste": 937,
      "ĠmuÅ¾": 938,
      "pomÃŃ": 939,
      "Ġdiv": 940,
      "Ġhor": 941,
      "Ġsko": 942,
      "ĠhvÄĽzd": 943,
      "ĠnaÅ¡e": 944,
      "sla": 945,
      "Ġdal": 946,
      "dech": 947,
      "pad": 948,
      "Ġha": 949,
      "Ġzlo": 950,
      "Ġzb": 951,
      "sou": 952,
      "Ġjenom": 953,
      "ĠvlÃ¡": 954,
      "Ġtebe": 955,
      "ĠABABCC": 956,
      "ĠtvÃ¡ÅĻ": 957,
      "Ġprou": 958,
      "Ġmoc": 959,
      "Ġote": 960,
      "pla": 961,
      "ĠnÃ¡Å¡": 962,
      "Ġkru": 963,
      "ĠÅ¾ÃŃ": 964,
      "Ġnoci": 965,
      "ĠnÃ¡ro": 966,
      "jÃŃcÃŃ": 967,
      "zo": 968,
      "Ġhr": 969,
      "ĠhÅĻÃŃ": 970,
      "Ġjem": 971,
      "ĠbÃ½t": 972,
      "ĠzpÃŃ": 973,
      "nÃ¡ch": 974,
      "Å¡li": 975,
      "dal": 976,
      "Ġali": 977,
      "Ġhlavu": 978,
      "Ġsu": 979,
      "ĠstÅĻe": 980,
      "Ġprav": 981,
      "nÃŃch": 982,
      "ĠÃŃvÃ¡": 983,
      "ĠspÄĽ": 984,
      "dnÃ½": 985,
      "Ġmez": 986,
      "Ġzah": 987,
      "nku": 988,
      "ĠÄĽla": 989,
      "Ġzvu": 990,
      "er": 991,
      "Ġles": 992,
      "ĠlÃ©": 993,
      "Ġny": 994,
      "Ġmlad": 995,
      "Ġsil": 996,
      "ĠmlÃ¡": 997,
      "ĠdÃ¡v": 998,
      "ĠÃºs": 999,
      "AX": 1000,
      "ĠchtÄĽl": 1001,
      "sko": 1002,
      "ast": 1003,
      "nka": 1004,
      "Ġjde": 1005,
      "ĠcelÃ½": 1006,
      "ĠchrÃ¡": 1007,
      "tku": 1008,
      "Ġmlu": 1009,
      "AA": 1010,
      "zen": 1011,
      "Ġnic": 1012,
      "ĠÅĻek": 1013,
      "Ġchy": 1014,
      "vÃŃm": 1015,
      "ĠÅ¡i": 1016,
      "vnÄĽ": 1017,
      "ĠaÄį": 1018,
      "ĠÃŃcÃŃ": 1019,
      "Ġobra": 1020,
      "ĠstrÃ¡": 1021,
      "ĠkÅĻi": 1022,
      "Ġ3": 1023,
      "ĠpÃŃseÅĪ": 1024,
      "uje": 1025,
      "ĠtakÃ©": 1026,
      "Ġzje": 1027,
      "Ġpad": 1028,
      "ĠABABXX": 1029,
      "Ġky": 1030,
      "Ġhlou": 1031,
      "ĠdÃŃv": 1032,
      "ĠdÃŃtÄĽ": 1033,
      "tal": 1034,
      "zem": 1035,
      "Ġneu": 1036,
      "Ġsvi": 1037,
      "ĠspÃŃ": 1038,
      "ĠsvÃ©m": 1039,
      "Ġslova": 1040,
      "ĠmoÅĻe": 1041,
      "Ġ1960": 1042,
      "Ġbole": 1043,
      "stal": 1044,
      "ĠstojÃŃ": 1045,
      "nÃŃk": 1046,
      "cky": 1047,
      "Ġnebo": 1048,
      "Ġchlad": 1049,
      "ĠÅĪ": 1050,
      "ĠchvÃŃli": 1051,
      "Ġboj": 1052,
      "hl": 1053,
      "ĠhnÄĽ": 1054,
      "dÃ©": 1055,
      "tva": 1056,
      "vÃ©m": 1057,
      "Ġtoho": 1058,
      "rnÄĽ": 1059,
      "ĠkrÃ¡l": 1060,
      "Ġov": 1061,
      "ĠmyÅ¡": 1062,
      "Ġven": 1063,
      "krÃ¡t": 1064,
      "ĠnÃ¡hle": 1065,
      "ĠvÅ¾dyÅ¥": 1066,
      "skou": 1067,
      "ĠmusÃŃ": 1068,
      "Ġtro": 1069,
      "Ġpok": 1070,
      "ĠnÄĽk": 1071,
      "ĠstÃŃn": 1072,
      "rnÃ©": 1073,
      "ĠlÃ¡ska": 1074,
      "Ġpi": 1075,
      "Ġum": 1076,
      "Ġ17": 1077,
      "sÃŃc": 1078,
      "ĠsvÃ©ho": 1079,
      "ĠÄįlovÄĽk": 1080,
      "ĠznÃ¡": 1081,
      "nci": 1082,
      "ĠvÃ¡Å¡": 1083,
      "Ġvzdu": 1084,
      "ĠskÃ¡": 1085,
      "ĠboÅ¾ÃŃ": 1086,
      "Ġtru": 1087,
      "Å¡la": 1088,
      "nec": 1089,
      "ÅĻÃŃm": 1090,
      "kÃ½m": 1091,
      "Ġmnou": 1092,
      "Äįko": 1093,
      "ĠnynÃŃ": 1094,
      "lÃ©m": 1095,
      "nÄĽl": 1096,
      "Ġmezi": 1097,
      "Ġjeden": 1098,
      "ĠzvÄĽ": 1099,
      "Å¡ti": 1100,
      "Ġmla": 1101,
      "ĠpÃ¡n": 1102,
      "ĠzÃŃ": 1103,
      "stÃ©": 1104,
      "Ġmrak": 1105,
      "ĠznÃŃ": 1106,
      "ĠÃŃtÃŃ": 1107,
      "tla": 1108,
      "lit": 1109,
      "Ġzase": 1110,
      "ĠklÃŃ": 1111,
      "ĠstÅĻÃŃ": 1112,
      "Ġbrat": 1113,
      "Ġebe": 1114,
      "ĠÃºsmÄĽ": 1115,
      "ĠkterÃ©": 1116,
      "ĠvrÃ¡": 1117,
      "jte": 1118,
      "Ġtma": 1119,
      "Å¯Å¾e": 1120,
      "ĠtiÅ¡e": 1121,
      "dnÃŃ": 1122,
      "Ġvol": 1123,
      "Ġol": 1124,
      "Ġela": 1125,
      "Ġane": 1126,
      "Ġstu": 1127,
      "ĠhrÃ¡": 1128,
      "ĠpÅĻÃ¡": 1129,
      "lek": 1130,
      "Ġoje": 1131,
      "ĠbÅĻe": 1132,
      "ĠkterÃ½": 1133,
      "Ġjednou": 1134,
      "ĠstÃ¡le": 1135,
      "ĠsvÄĽta": 1136,
      "Ġpoto": 1137,
      "rnÃ½": 1138,
      "Ġdech": 1139,
      "dnou": 1140,
      "Ġzo": 1141,
      "Ġdr": 1142,
      "ÄįnÄĽ": 1143,
      "ĠkvÃŃ": 1144,
      "tech": 1145,
      "Ġice": 1146,
      "Ġoku": 1147,
      "Ġhe": 1148,
      "ĠsvÃ¡": 1149,
      "ĠvÃŃce": 1150,
      "Ġona": 1151,
      "rost": 1152,
      "dlo": 1153,
      "lech": 1154,
      "ĠoÅĻe": 1155,
      "Ġili": 1156,
      "ouf": 1157,
      "Ġes": 1158,
      "ĠÅ¡Å¥": 1159,
      "Ġnemo": 1160,
      "Ġbled": 1161,
      "rov": 1162,
      "mou": 1163,
      "ĠXXAA": 1164,
      "ĠÃŃce": 1165,
      "ĠÅ¡el": 1166,
      "ÄįnÃŃ": 1167,
      "Ġhrob": 1168,
      "Ġjar": 1169,
      "dnÄĽ": 1170,
      "vit": 1171,
      "ĠzpÄĽv": 1172,
      "Ġposled": 1173,
      "Ġodpo": 1174,
      "ĠjuÅ¾": 1175,
      "ĠcoÅ¾": 1176,
      "ĠÃ¡vÃ¡": 1177,
      "lÃ½m": 1178,
      "pra": 1179,
      "Ġpoko": 1180,
      "Ġsebe": 1181,
      "Ġveli": 1182,
      "ĠÃŃti": 1183,
      "Ġved": 1184,
      "zel": 1185,
      "ĠsmÃŃch": 1186,
      "kÃ¡ch": 1187,
      "Ġosud": 1188,
      "Ġnebi": 1189,
      "Ġnen": 1190,
      "Ġste": 1191,
      "nes": 1192,
      "Ġar": 1193,
      "vala": 1194,
      "Ġnikdy": 1195,
      "ral": 1196,
      "Ġrukou": 1197,
      "dÅ¯": 1198,
      "CCB": 1199,
      "Ġzm": 1200,
      "stÃ½": 1201,
      "vra": 1202,
      "ĠtrÃ¡": 1203,
      "ĠhÅĻ": 1204,
      "ĠveÄįer": 1205,
      "vr": 1206,
      "Ġbudou": 1207,
      "ĠtvÃ½ch": 1208,
      "jÃŃc": 1209,
      "Ġjedno": 1210,
      "Ġjedi": 1211,
      "Ġ1820": 1212,
      "kÃ©m": 1213,
      "ĠnadÄĽ": 1214,
      "tka": 1215,
      "Ġkraj": 1216,
      "Ġdla": 1217,
      "Ġtomu": 1218,
      "mÃ©": 1219,
      "Ġplamen": 1220,
      "Ġnedo": 1221,
      "pal": 1222,
      "ĠvzpomÃŃ": 1223,
      "Ġtys": 1224,
      "Ġsle": 1225,
      "znÄĽ": 1226,
      "ĠumÃŃ": 1227,
      "Ġvoj": 1228,
      "ĠÃŃrÃ¡": 1229,
      "ĠhrÅ¯": 1230,
      "pil": 1231,
      "ĠnaÅ¡i": 1232,
      "Ã³": 1233,
      "Ġiny": 1234,
      "Ġvese": 1235,
      "Ġor": 1236,
      "Ġzi": 1237,
      "Ġsa": 1238,
      "ĠÄĽje": 1239,
      "Ġaly": 1240,
      "Ġova": 1241,
      "ĠÅ¡Å¥ast": 1242,
      "Ġves": 1243,
      "alÃŃ": 1244,
      "ĠAXA": 1245,
      "skem": 1246,
      "Ġdar": 1247,
      "ĠrÅ¯Å¾e": 1248,
      "ĠvÃŃtÄĽ": 1249,
      "Ġzno": 1250,
      "ĠovÃ©": 1251,
      "ĠAABCCB": 1252,
      "Ġkdyby": 1253,
      "Ġpom": 1254,
      "Ġpoli": 1255,
      "Ġzak": 1256,
      "ABB": 1257,
      "Ġin": 1258,
      "Ġlou": 1259,
      "Ġsmrt": 1260,
      "Ġemi": 1261,
      "Ġslav": 1262,
      "ĠnevÄĽ": 1263,
      "Ġup": 1264,
      "vz": 1265,
      "Ġpat": 1266,
      "ĠoÅĻÃŃ": 1267,
      "Ġena": 1268,
      "Ġchci": 1269,
      "ami": 1270,
      "ĠdÄĽti": 1271,
      "Äįel": 1272,
      "ĠdÄĽl": 1273,
      "ĠetÃŃ": 1274,
      "ÄįnÃ©": 1275,
      "ben": 1276,
      "ĠmÃ½ch": 1277,
      "ĠbÃŃlÃ©": 1278,
      "lik": 1279,
      "Ġdva": 1280,
      "ĠsÃ¡": 1281,
      "ĠnÃŃÅ¾": 1282,
      "ĠstÃ¡l": 1283,
      "ĠprvnÃŃ": 1284,
      "Ġoka": 1285,
      "ĠdÅ¯": 1286,
      "ĠbrÃ¡": 1287,
      "Ġhou": 1288,
      "nit": 1289,
      "Ġsmrti": 1290,
      "Ġpru": 1291,
      "Ġklo": 1292,
      "Ġnebes": 1293,
      "Ġzna": 1294,
      "Ġbar": 1295,
      "Ġhled": 1296,
      "ĠXAAX": 1297,
      "ĠzÃ¡ÅĻ": 1298,
      "Ġnevi": 1299,
      "ĠkÃ¡": 1300,
      "sil": 1301,
      "ĠenÃ©": 1302,
      "Ġhlavy": 1303,
      "ĠvÃŃm": 1304,
      "Ġsed": 1305,
      "Ġstr": 1306,
      "Ġsotva": 1307,
      "Ġady": 1308,
      "Ġokem": 1309,
      "Ġobla": 1310,
      "ĠdÃ¡le": 1311,
      "ĠcizÃŃ": 1312,
      "cÃŃm": 1313,
      "ĠskrÃ¡": 1314,
      "lal": 1315,
      "hal": 1316,
      "Ġskal": 1317,
      "den": 1318,
      "Ġdce": 1319,
      "Ġtlu": 1320,
      "Ġsh": 1321,
      "ct": 1322,
      "Ġel": 1323,
      "vali": 1324,
      "Ġleh": 1325,
      "Ġskry": 1326,
      "ĠknÄĽ": 1327,
      "ĠÄįÃŃm": 1328,
      "ĠavÃŃ": 1329,
      "ĠkterÃ¡": 1330,
      "ĠnovÃ©": 1331,
      "Ġode": 1332,
      "vÅ¯": 1333,
      "jen": 1334,
      "ĠpÅĻece": 1335,
      "ĠzpÄĽt": 1336,
      "nÄĽjÅ¡ÃŃ": 1337,
      "Ġproti": 1338,
      "ĠleÅ¾ÃŃ": 1339,
      "Ġoji": 1340,
      "let": 1341,
      "Ġsli": 1342,
      "Ġplo": 1343,
      "Ġruka": 1344,
      "Ġneo": 1345,
      "hat": 1346,
      "Ġele": 1347,
      "nice": 1348,
      "Ġticho": 1349,
      "Ġjemu": 1350,
      "vÃ¡nÃŃ": 1351,
      "Ġradost": 1352,
      "Ġhrd": 1353,
      "ĠutÃŃ": 1354,
      "ĠvolÃ¡": 1355,
      "lost": 1356,
      "vÃ¡m": 1357,
      "ĠletÃŃ": 1358,
      "Ġneby": 1359,
      "Ġpot": 1360,
      "Ġproto": 1361,
      "ĠÃ¡ti": 1362,
      "Ġruku": 1363,
      "lÃŃm": 1364,
      "Ġdvo": 1365,
      "Ġdruh": 1366,
      "ĠznÃ¡m": 1367,
      "ÅĻit": 1368,
      "Ġavy": 1369,
      "Ġpal": 1370,
      "kÃ¡m": 1371,
      "Ġzk": 1372,
      "Ġdost": 1373,
      "dÃ½": 1374,
      "Ġtaj": 1375,
      "Ġzh": 1376,
      "ĠÄĽti": 1377,
      "Ġtvoje": 1378,
      "ĠenÃ½": 1379,
      "nech": 1380,
      "Ġkdys": 1381,
      "ĠstarÃ½": 1382,
      "Ġbr": 1383,
      "Ġdlouho": 1384,
      "Ġtra": 1385,
      "Ġhroz": 1386,
      "lov": 1387,
      "Ġvlas": 1388,
      "pat": 1389,
      "Ġrozko": 1390,
      "Å¡enÃŃ": 1391,
      "Ġal": 1392,
      "Ġvlasti": 1393,
      "vÃ¡n": 1394,
      "ĠuÅ¡ÃŃ": 1395,
      "ĠmeÄį": 1396,
      "dnÃ¡": 1397,
      "ĠonÃŃ": 1398,
      "Ġuk": 1399,
      "ĠkÅĻe": 1400,
      "pl": 1401,
      "zÃ¡": 1402,
      "Ġaje": 1403,
      "ĠvÅ¡i": 1404,
      "tro": 1405,
      "Ġom": 1406,
      "Ġhlavou": 1407,
      "Ġzra": 1408,
      "ĠvidÃŃ": 1409,
      "ĠÅ¡tÃŃ": 1410,
      "ĠduÅ¡ÃŃ": 1411,
      "Ġplu": 1412,
      "Ġhy": 1413,
      "Ġzbo": 1414,
      "stÅĻÃŃ": 1415,
      "Å¡il": 1416,
      "pou": 1417,
      "nic": 1418,
      "Ġrych": 1419,
      "Ġeny": 1420,
      "znÃŃ": 1421,
      "Ġoval": 1422,
      "bil": 1423,
      "dÄĽt": 1424,
      "ĠdÃ¡vno": 1425,
      "Ġpozd": 1426,
      "Ġese": 1427,
      "chÅ¯": 1428,
      "Ġsamo": 1429,
      "ĠhvÄĽzdy": 1430,
      "Ġjin": 1431,
      "Ġpy": 1432,
      "Ġlesk": 1433,
      "Ġtesk": 1434,
      "ĠtoÅ¥": 1435,
      "ĠanÃŃ": 1436,
      "mys": 1437,
      "ĠprÃ½": 1438,
      "Ġati": 1439,
      "Ġami": 1440,
      "ĠdobÅĻe": 1441,
      "pen": 1442,
      "ĠboÅ¾e": 1443,
      "Ġpohled": 1444,
      "ĠÃ½vÃ¡": 1445,
      "Ġnimi": 1446,
      "stÅĻe": 1447,
      "ĠvÅĻe": 1448,
      "Ġjdou": 1449,
      "Ġmoh": 1450,
      "ĠostÃŃ": 1451,
      "Ġslou": 1452,
      "Ġroze": 1453,
      "ĠvÅ¡u": 1454,
      "Ġtajem": 1455,
      "ĠvdÄĽ": 1456,
      "ĠjÃŃm": 1457,
      "ĠzÃ¡ÅĻÃŃ": 1458,
      "Ġper": 1459,
      "Ġhlubo": 1460,
      "Ġkles": 1461,
      "ĠmÅ¯Å¾e": 1462,
      "Ġpane": 1463,
      "ĠÃ¡le": 1464,
      "ĠnÄĽj": 1465,
      "vÄĽt": 1466,
      "dit": 1467,
      "ĠÄĽstÃŃ": 1468,
      "ĠvÅ¡ecky": 1469,
      "Ġkri": 1470,
      "ĠdÅĻÃŃv": 1471,
      "ĠÄĽt": 1472,
      "Ġzelen": 1473,
      "ĠhledÃŃ": 1474,
      "ĠÄįasto": 1475,
      "Ġdej": 1476,
      "ĠzlatÃ©": 1477,
      "kli": 1478,
      "ĠsvÄĽtÄĽ": 1479,
      "Ġtvou": 1480,
      "ÄįnÃ½": 1481,
      "ĠposlednÃŃ": 1482,
      "Ġotec": 1483,
      "Ġer": 1484,
      "Ġsvoje": 1485,
      "Å¡em": 1486,
      "dne": 1487,
      "Ġtebou": 1488,
      "ĠvidÄĽl": 1489,
      "ĠÅ¾ivota": 1490,
      "ĠstÅĻÃŃb": 1491,
      "sem": 1492,
      "ĠÅ¡ep": 1493,
      "ĠstÄĽ": 1494,
      "chvÄĽ": 1495,
      "ĠsnÅ¯": 1496,
      "hlÃ©": 1497,
      "Ġcit": 1498,
      "Ġzapo": 1499,
      "Ġblou": 1500,
      "ĠcelÃ©": 1501,
      "ÄįÃŃm": 1502,
      "Ġilo": 1503,
      "Ġsti": 1504,
      "tnÃ©": 1505,
      "ĠÅ¾ena": 1506,
      "ĠkvÄĽty": 1507,
      "ĠolÃŃ": 1508,
      "Ġuli": 1509,
      "vost": 1510,
      "tÃ½ch": 1511,
      "ĠnÃ¡rod": 1512,
      "ĠprÃ¡zd": 1513,
      "Ġpam": 1514,
      "Ġadu": 1515,
      "Ġude": 1516,
      "ĠpohÃ¡": 1517,
      "ĠÅ¾ha": 1518,
      "Ġdale": 1519,
      "ĠtÅĻ": 1520,
      "ĠÃ¡na": 1521,
      "Ġaj": 1522,
      "nutÃŃ": 1523,
      "ĠÄįelo": 1524,
      "ĠpanÃŃ": 1525,
      "ĠkÅĻÃŃÅ¾": 1526,
      "kol": 1527,
      "ĠzmÄĽ": 1528,
      "el": 1529,
      "ĠÅ¡at": 1530,
      "Ġlidst": 1531,
      "ĠsvÃŃtÃŃ": 1532,
      "tko": 1533,
      "ĠsmÃ¡": 1534,
      "Ġvrou": 1535,
      "Ġztra": 1536,
      "um": 1537,
      "ĠtÅĻi": 1538,
      "Ġslun": 1539,
      "ĠtÄĽlo": 1540,
      "Ġoba": 1541,
      "chÃ¡zÃŃ": 1542,
      "Ġpole": 1543,
      "Ġbys": 1544,
      "ĠzÅ¯": 1545,
      "ĠdÄĽt": 1546,
      "ĠitÃŃ": 1547,
      "Ġ2": 1548,
      "ĠedÃ¡": 1549,
      "Å¾el": 1550,
      "Ġpoj": 1551,
      "Ġhud": 1552,
      "ĠpoÄį": 1553,
      "ĠuÅ¡i": 1554,
      "ĠslyÅ¡": 1555,
      "ĠÄĽlo": 1556,
      "Ġoci": 1557,
      "ĠnechÅ¥": 1558,
      "ĠÅĪad": 1559,
      "kne": 1560,
      "sal": 1561,
      "dÄĽla": 1562,
      "ĠlÃ¡sku": 1563,
      "lenÃŃ": 1564,
      "Ġlist": 1565,
      "Ġej": 1566,
      "Ġkry": 1567,
      "Å¯Å¾": 1568,
      "Ġzu": 1569,
      "ĠsvojÃŃ": 1570,
      "ĠlÃ¡skou": 1571,
      "stra": 1572,
      "ĠtÅĻeba": 1573,
      "ĠzÅĻel": 1574,
      "krÃ¡": 1575,
      "Ġavu": 1576,
      "ĠavÃ½": 1577,
      "kÅ¯m": 1578,
      "Ġpouze": 1579,
      "Ġsku": 1580,
      "ĠjakÃ½": 1581,
      "Ġzve": 1582,
      "kle": 1583,
      "ĠpÅ¯l": 1584,
      "Ġsvobo": 1585,
      "ĠsnÃŃh": 1586,
      "ĠchvÃŃle": 1587,
      "hnou": 1588,
      "Ġzt": 1589,
      "Ġkraji": 1590,
      "ÄįenÃŃ": 1591,
      "Ġsklo": 1592,
      "Ġpomo": 1593,
      "Ġlidu": 1594,
      "rÃ½ch": 1595,
      "Ġmnoho": 1596,
      "ĠÃŃli": 1597,
      "ĠchvÃ¡": 1598,
      "ĠnÄĽho": 1599,
      "cy": 1600,
      "chni": 1601,
      "Ġtady": 1602,
      "zko": 1603,
      "ĠsklÃ¡": 1604,
      "Ġzouf": 1605,
      "ĠbÃ½ti": 1606,
      "Ġzby": 1607,
      "Ġpotom": 1608,
      "ĠvelkÃ©": 1609,
      "Ġolu": 1610,
      "ĠsvÄĽtlo": 1611,
      "Ġsvit": 1612,
      "Ġdro": 1613,
      "ĠpÃŃsnÄĽ": 1614,
      "ĠpolÃŃ": 1615,
      "Ġsch": 1616,
      "Ġkni": 1617,
      "ĠbÃŃlÃ½": 1618,
      "Ġmoud": 1619,
      "Ġblu": 1620,
      "ĠÃ¡li": 1621,
      "Ġjisk": 1622,
      "ĠvÅ¾dycky": 1623,
      "ĠvÃ½Å¡": 1624,
      "ĠnovÃ½": 1625,
      "Ġije": 1626,
      "kÅĻi": 1627,
      "ĠkÃ½": 1628,
      "sni": 1629,
      "zou": 1630,
      "Ġhlava": 1631,
      "Ġsny": 1632,
      "ĠnÃ¡ru": 1633,
      "Ġoru": 1634,
      "pas": 1635,
      "sce": 1636,
      "Ġobraz": 1637,
      "tit": 1638,
      "ĠvelkÃ½": 1639,
      "Ġtedy": 1640,
      "ckÃ©": 1641,
      "ĠdrÃ¡": 1642,
      "ĠenÃ¡": 1643,
      "ĠhruÄı": 1644,
      "Ġhory": 1645,
      "Ġtep": 1646,
      "ĠÅ¾eny": 1647,
      "ĠblÃŃÅ¾": 1648,
      "Ġrou": 1649,
      "Ġici": 1650,
      "Ġvich": 1651,
      "Ġalo": 1652,
      "ĠbouÅĻ": 1653,
      "ĠdÃ¡li": 1654,
      "Ġprach": 1655,
      "Ġnevy": 1656,
      "Ġnese": 1657,
      "Ġsyn": 1658,
      "Ġkve": 1659,
      "ĠvlastnÃŃ": 1660,
      "Å¾nÄĽ": 1661,
      "Ġneza": 1662,
      "Ġslzy": 1663,
      "ĠÃŃci": 1664,
      "vajÃŃ": 1665,
      "Ġblesk": 1666,
      "ata": 1667,
      "bal": 1668,
      "ĠÅ¾Ã¡r": 1669,
      "ĠuÄįÃŃ": 1670,
      "ĠptÃ¡k": 1671,
      "Ġpar": 1672,
      "Ġzved": 1673,
      "ĠnÃ¡mi": 1674,
      "kud": 1675,
      "Ġav": 1676,
      "ala": 1677,
      "Ġet": 1678,
      "Ġnikdo": 1679,
      "div": 1680,
      "Ġavou": 1681,
      "ĠvÃŃtr": 1682,
      "Ġasy": 1683,
      "ĠvÃŃtÄĽz": 1684,
      "Ġzlato": 1685,
      "Ġsni": 1686,
      "din": 1687,
      "ĠÅ¡um": 1688,
      "Ġzjev": 1689,
      "Ġret": 1690,
      "ĠvÅ¡eho": 1691,
      "ĠblÃ¡": 1692,
      "Ġvzdo": 1693,
      "ĠsvatÃ½": 1694,
      "Ġuz": 1695,
      "Ġkrve": 1696,
      "ĠjejÅ¾": 1697,
      "Ġpapr": 1698,
      "Ġstej": 1699,
      "ĠopÄĽt": 1700,
      "ĠmarnÄĽ": 1701,
      "ĠvÄĽru": 1702,
      "Ġzmi": 1703,
      "ĠÃºsmÄĽv": 1704,
      "ĠjmÃ©": 1705,
      "rÃ½m": 1706,
      "Ġbolest": 1707,
      "Ġvys": 1708,
      "Ġvzal": 1709,
      "Ġmr": 1710,
      "Ġbol": 1711,
      "ĠmÃ¡Å¡": 1712,
      "dÃ¡m": 1713,
      "Ġdivo": 1714,
      "ĠvaÅ¡e": 1715,
      "ĠmyÅ¡len": 1716,
      "ĠstarÃ©": 1717,
      "Ġpocho": 1718,
      "Ġase": 1719,
      "or": 1720,
      "nostÃŃ": 1721,
      "Ġposta": 1722,
      "Ġzahra": 1723,
      "Ġcos": 1724,
      "Ġanou": 1725,
      "ĠhoÅĻÃŃ": 1726,
      "Äįit": 1727,
      "ĠdvÄĽ": 1728,
      "ĠvstÅĻÃŃ": 1729,
      "Ġboji": 1730,
      "lna": 1731,
      "ĠpadÃ¡": 1732,
      "Ġpolo": 1733,
      "spo": 1734,
      "Ġcestu": 1735,
      "ĠÅĻa": 1736,
      "bor": 1737,
      "ĠdÃ½m": 1738,
      "ĠvstÅĻÃŃc": 1739,
      "ĠbÃ¡snÃŃ": 1740,
      "Ġeli": 1741,
      "Ġmd": 1742,
      "Å¾o": 1743,
      "Å¾nÃ©": 1744,
      "Ġboha": 1745,
      "klo": 1746,
      "ĠkaÅ¾dÃ©": 1747,
      "ĠvÅ¡ude": 1748,
      "Ġily": 1749,
      "Ġut": 1750,
      "ĠnÄĽkdy": 1751,
      "Ġopu": 1752,
      "ĠmÃ¡lo": 1753,
      "ĠpÃŃsnÃŃ": 1754,
      "ĠdÃ©": 1755,
      "ĠÅĻÃ¡": 1756,
      "ĠdÄĽs": 1757,
      "ĠmÃ©ho": 1758,
      "stech": 1759,
      "ĠplÃ¡Äį": 1760,
      "ĠdÃ¡m": 1761,
      "ĠmrÃ¡": 1762,
      "Ġmatka": 1763,
      "ĠumÄĽ": 1764,
      "Ġodu": 1765,
      "sek": 1766,
      "ĠjistÄĽ": 1767,
      "ĠnuÅ¾": 1768,
      "ĠmilÃ½": 1769,
      "vrÃ¡": 1770,
      "ĠXAXAXX": 1771,
      "ĠnÄĽmu": 1772,
      "Ġiti": 1773,
      "ĠpÄĽk": 1774,
      "hÅ¯ru": 1775,
      "Ġhrad": 1776,
      "Ġkdes": 1777,
      "ĠrÃ¡na": 1778,
      "ĠoÅ¾ÃŃ": 1779,
      "ĠpÅĻem": 1780,
      "Ġbohu": 1781,
      "Ġotev": 1782,
      "alo": 1783,
      "ĠsvatÃ©": 1784,
      "ĠlidÃ©": 1785,
      "zal": 1786,
      "ĠmÃŃr": 1787,
      "ĠmÃŃt": 1788,
      "ĠdomÅ¯": 1789,
      "Å¡ka": 1790,
      "Ġinu": 1791,
      "ĠnemÃ¡": 1792,
      "Ġkouz": 1793,
      "Ġct": 1794,
      "stem": 1795,
      "ĠboÅ¾": 1796,
      "ĠÃ¡ly": 1797,
      "ĠzlatÃ½": 1798,
      "ĠmlÃ¡dÃŃ": 1799,
      "ĠÄĽÅ¾ÃŃ": 1800,
      "ĠÃŃÅ¾ÃŃ": 1801,
      "ĠvidÃŃm": 1802,
      "ĠpÅĻiÅ¡el": 1803,
      "ĠsÃŃly": 1804,
      "ĠzÅĻÃŃm": 1805,
      "ĠprÃ¡vÄĽ": 1806,
      "ĠzpÃŃvÃ¡": 1807,
      "ĠsvÄĽtla": 1808,
      "Ġkar": 1809,
      "ĠmÃŃsto": 1810,
      "ĠAXAX": 1811,
      "ckÃ½": 1812,
      "Ġjaro": 1813,
      "ĠkrÃ¡lov": 1814,
      "Ġvele": 1815,
      "Ġmilen": 1816,
      "ĠÃ¡la": 1817,
      "ĠpÅĻijde": 1818,
      "der": 1819,
      "bra": 1820,
      "ĠnÄĽmÅ¾": 1821,
      "Ġene": 1822,
      "tnÃŃ": 1823,
      "Ġkon": 1824,
      "Ġsama": 1825,
      "ĠpÅĻij": 1826,
      "ĠslÃ¡vy": 1827,
      "Ġsvoji": 1828,
      "ĠvÅ¡echno": 1829,
      "ĠandÄĽl": 1830,
      "Ġeho": 1831,
      "ĠmilÃ¡": 1832,
      "ĠhoÅĻe": 1833,
      "gi": 1834,
      "ĠnevÃŃ": 1835,
      "Ġran": 1836,
      "ĠprÃ¡ci": 1837,
      "ĠavÄĽ": 1838,
      "chal": 1839,
      "ĠneÅ¾li": 1840,
      "he": 1841,
      "nÃ½mi": 1842,
      "ĠtrÅ¯": 1843,
      "dÄĽj": 1844,
      "Ġbohat": 1845,
      "hra": 1846,
      "ĠkrÃ¡sy": 1847,
      "stil": 1848,
      "alu": 1849,
      "Ġbuj": 1850,
      "mem": 1851,
      "ĠstÃŃny": 1852,
      "Ġrychle": 1853,
      "Ġproud": 1854,
      "Ġzdvi": 1855,
      "Ġzr": 1856,
      "ĠuÅ¡e": 1857,
      "Ġspat": 1858,
      "ĠprÃ¡ce": 1859,
      "!...": 1860,
      "ĠtisÃŃ": 1861,
      "Ġsva": 1862,
      "plÃ¡": 1863,
      "Ġzbra": 1864,
      "ĠbouÅĻe": 1865,
      "Ġtrochu": 1866,
      "nat": 1867,
      "Ġfi": 1868,
      "skÃ½m": 1869,
      "ĠzÃ¡ÅĻi": 1870,
      "Ġody": 1871,
      "ĠnaÅ¡ÃŃ": 1872,
      "Ġolem": 1873,
      "Å¾eh": 1874,
      "Å¡nÄĽ": 1875,
      "ĠpovÄĽ": 1876,
      "Å¡ku": 1877,
      "ĠvÄĽÄįnÄĽ": 1878,
      "zni": 1879,
      "Å¾it": 1880,
      "Ġvzdech": 1881,
      "Ġenou": 1882,
      "ĠtÅĻpy": 1883,
      "dky": 1884,
      "ĠvzhÅ¯ru": 1885,
      "ĠodÃŃ": 1886,
      "Ġspolu": 1887,
      "ĠskrÃ½": 1888,
      "Ġina": 1889,
      "ĠvÄĽr": 1890,
      "ĠejÃŃ": 1891,
      "Ġhovo": 1892,
      "Ãº": 1893,
      "ĠmÃ½m": 1894,
      "Ġsr": 1895,
      "ĠdÄĽv": 1896,
      "ĠÄĽjÃŃ": 1897,
      "ĠkvÄĽtÅ¯": 1898,
      "ĠÅ¡ko": 1899,
      "skÃ©m": 1900,
      "Ġtolik": 1901,
      "stup": 1902,
      "Ġslovo": 1903,
      "Ġnapo": 1904,
      "ĠÄı": 1905,
      "Å¾Ã¡": 1906,
      "ĠznÄĽ": 1907,
      "Ġvod": 1908,
      "Ġbudu": 1909,
      "Ġoby": 1910,
      "Ġkrok": 1911,
      "Ġkoru": 1912,
      "Ġhospo": 1913,
      "Ġbyli": 1914,
      "Ġole": 1915,
      "ĠlidÃŃ": 1916,
      "ĠnesmÃŃ": 1917,
      "Ġnena": 1918,
      "ÅĻa": 1919,
      "Ġzvolna": 1920,
      "ĠÅ¾ÃŃt": 1921,
      "rech": 1922,
      "ĠknÃŃ": 1923,
      "Ġvzduch": 1924,
      "rÃ©m": 1925,
      "ĠzaÄį": 1926,
      "hlÃŃ": 1927,
      "ĠkrÃ¡t": 1928,
      "Ġzdra": 1929,
      "kl": 1930,
      "ĠtvÃ¡ÅĻe": 1931,
      "ĠÃºsta": 1932,
      "vlÃ¡": 1933,
      "ĠÃ¡zÃŃ": 1934,
      "ĠhlÃ¡": 1935,
      "skÃ©ho": 1936,
      "ĠjakÃ©": 1937,
      "ĠÃ¡me": 1938,
      "Ġblaho": 1939,
      "ĠÅĻeÄį": 1940,
      "chÃ½": 1941,
      "Ġomu": 1942,
      "Ġbyly": 1943,
      "ĠÅ¾lu": 1944,
      "ĠdolÅ¯": 1945,
      "Å¾nÃ½": 1946,
      "ĠtvÃ¡ÅĻÃŃ": 1947,
      "ĠohnÄĽ": 1948,
      "Ġval": 1949,
      "bky": 1950,
      "lku": 1951,
      "Ġvyp": 1952,
      "cko": 1953,
      "Ġasi": 1954,
      "Ġducha": 1955,
      "valy": 1956,
      "lky": 1957,
      "Ġmysli": 1958,
      "ĠzrÃ¡": 1959,
      "del": 1960,
      "ĠÅ¯Å¾e": 1961,
      "Ġopo": 1962,
      "vila": 1963,
      "ĠÄįekÃ¡": 1964,
      "Ġzraky": 1965,
      "XB": 1966,
      "ĠtvÃ¡ÅĻi": 1967,
      "Ġbeze": 1968,
      "Ġrozp": 1969,
      "ĠujÃŃ": 1970,
      "Å¡ky": 1971,
      "ĠvÅ¡ichni": 1972,
      "ĠvÄįe": 1973,
      "Ġnel": 1974,
      "ĠivÃ¡": 1975,
      "Ġaky": 1976,
      "Ġkrva": 1977,
      "ĠÃ¡ÅĻe": 1978,
      "Ġpros": 1979,
      "hod": 1980,
      "nula": 1981,
      "ĠoucÃŃ": 1982,
      "tila": 1983,
      "Ã¡c": 1984,
      "ĠmoÅ¾": 1985,
      "Ġtouhy": 1986,
      "ĠnichÅ¾": 1987,
      "ĠÅ¾il": 1988,
      "Ġstrom": 1989,
      "ĠÃ¡ÅĻÃŃ": 1990,
      "ĠÅ¾iv": 1991,
      "Ġuku": 1992,
      "Å¯v": 1993,
      "ĠzvÃŃ": 1994,
      "Ġdoby": 1995,
      "jat": 1996,
      "Ġbohem": 1997,
      "Ġez": 1998,
      "ĠpojÄı": 1999,
      "ĠlÃ¡sce": 2000,
      "Ġvon": 2001,
      "ĠtisÃŃc": 2002,
      "letÃŃ": 2003,
      "Ã¡men": 2004,
      "ABAB": 2005,
      "Ġples": 2006,
      "vÃ©ho": 2007,
      "Ġhoj": 2008,
      "ĠÃ½mi": 2009,
      "Ġsebou": 2010,
      "Ġelo": 2011,
      "Ġprsou": 2012,
      "Ġvlny": 2013,
      "ĠpÅ¯j": 2014,
      "ĠÃŃle": 2015,
      "ĠÄįernÃ©": 2016,
      "sÃŃm": 2017,
      "ĠidÃŃ": 2018,
      "ĠÄįest": 2019,
      "ĠmyÅ¡lÃ©": 2020,
      "ran": 2021,
      "ĠmÄĽsta": 2022,
      "ĠÄĽli": 2023,
      "Ġvyso": 2024,
      "ĠivÃ½": 2025,
      "bnÃ©": 2026,
      "Ġasu": 2027,
      "Ġzdo": 2028,
      "Ġhlubi": 2029,
      "Ġbratr": 2030,
      "Ġlesy": 2031,
      "Å¾ÃŃm": 2032,
      "Ġyla": 2033,
      "Ġoli": 2034,
      "Ġpodo": 2035,
      "ĠnocÃŃ": 2036,
      "ĠkdoÅ¾": 2037,
      "ĠvÅ¯nÄĽ": 2038,
      "ĠjinÃ©": 2039,
      "Ġobzo": 2040,
      "ĠnaÅ¡ich": 2041,
      "ĠanÃ©": 2042,
      "ĠslyÅ¡ÃŃ": 2043,
      "ĠmÄĽk": 2044,
      "ĠvlÃŃ": 2045,
      "ĠsladkÃ©": 2046,
      "tÅĻe": 2047,
      "jel": 2048,
      "ĠtÃ½": 2049,
      "ĠmÄĽsÃŃc": 2050,
      "Ġkamen": 2051,
      "Ġory": 2052,
      "ĠdÅ¯m": 2053,
      "ĠatÃ©": 2054,
      "Ġpil": 2055,
      "ĠtÅĻÃŃ": 2056,
      "ĠzmÃŃ": 2057,
      "Ġpev": 2058,
      "nÃ¡nÃŃ": 2059,
      "Ġdosud": 2060,
      "Ġznova": 2061,
      "Ġnebu": 2062,
      "Ġchmu": 2063,
      "Ġrov": 2064,
      "dila": 2065,
      "Ġmilost": 2066,
      "ĠkrÃ¡snÃ©": 2067,
      "Ġoce": 2068,
      "ĠpÅĻÃŃro": 2069,
      "tÄĽl": 2070,
      "ĠÃ¡lo": 2071,
      "Ġoj": 2072,
      "nici": 2073,
      "ĠatÃ½": 2074,
      "Ġchla": 2075,
      "teli": 2076,
      "Ġply": 2077,
      "ĠeÅ¾ÃŃ": 2078,
      "ĠtÄĽla": 2079,
      "Ġete": 2080,
      "Ġtakto": 2081,
      "Å¡ek": 2082,
      "ĠsvÄĽtem": 2083,
      "Å¾enÃŃ": 2084,
      "ĠvÄĽky": 2085,
      "ĠemÄĽ": 2086,
      "ĠÃŃval": 2087,
      "Ġstru": 2088,
      "ĠztrÃ¡": 2089,
      "bÃ½": 2090,
      "snÃ©": 2091,
      "Ġkmi": 2092,
      "ĠhoÅĻ": 2093,
      "ĠvzdÃ¡": 2094,
      "pÃ½": 2095,
      "Ġvyz": 2096,
      "dr": 2097,
      "Ġslov": 2098,
      "Ġchvil": 2099,
      "ĠhnÃŃ": 2100,
      "ĠklÃ¡": 2101,
      "Ġperu": 2102,
      "ĠcÃŃtÃŃ": 2103,
      "roj": 2104,
      "ĠchÃ½": 2105,
      "ĠprÅ¯": 2106,
      "ĠÃ¡ÅĻi": 2107,
      "ÅĻela": 2108,
      "ĠkÅĻÃŃdla": 2109,
      "vad": 2110,
      "rk": 2111,
      "Ġvna": 2112,
      "Ġnap": 2113,
      "Ġklen": 2114,
      "ĠusmÃŃ": 2115,
      "Ġpozdra": 2116,
      "ÅĻenÃŃ": 2117,
      "Ġsho": 2118,
      "Ġpropa": 2119,
      "ĠsedÃŃ": 2120,
      "ĠlÃŃc": 2121,
      "ĠÅ¡la": 2122,
      "ĠvÃ½Å¡e": 2123,
      "Ġinou": 2124,
      "Ġvody": 2125,
      "cela": 2126,
      "ĠadÃ¡": 2127,
      "zrak": 2128,
      "ĠÄįasem": 2129,
      "Å¡lo": 2130,
      "kat": 2131,
      "dat": 2132,
      "ĠchrÃ¡m": 2133,
      "ĠslyÅ¡e": 2134,
      "ĠÃ©mu": 2135,
      "ĠmojÃŃ": 2136,
      "Ġmodlit": 2137,
      "ĠlÃŃce": 2138,
      "ĠnaÄį": 2139,
      "nÃ¡Å¡ÃŃ": 2140,
      "ĠkrvÃŃ": 2141,
      "ĠmÃ©m": 2142,
      "hled": 2143,
      "tÃ¡m": 2144,
      "kÃ¡nÃŃ": 2145,
      "vec": 2146,
      "ĠÃ¡no": 2147,
      "Ġtre": 2148,
      "ĠneznÃ¡m": 2149,
      "ĠrÃ¡z": 2150,
      "ato": 2151,
      "ĠcelÃ¡": 2152,
      "Ġstat": 2153,
      "ĠsnÄĽnÃŃ": 2154,
      "Ġzti": 2155,
      "mÃ½": 2156,
      "ĠtoÅ¾": 2157,
      "Ġbal": 2158,
      "Å¡Å¡ÃŃ": 2159,
      "Ġeno": 2160,
      "ĠmÄĽsÃŃ": 2161,
      "ĠÃºst": 2162,
      "ĠÃŃme": 2163,
      "ĠtvÃ½m": 2164,
      "ĠkÅ¯": 2165,
      "Ġzvy": 2166,
      "Ġnero": 2167,
      "ĠmluvÃŃ": 2168,
      "dra": 2169,
      "Ġubo": 2170,
      "Ġzvuk": 2171,
      "ĠanÄĽ": 2172,
      "Ġdomo": 2173,
      "ĠvÃŃÅ¡": 2174,
      "Ġpta": 2175,
      "Ġotro": 2176,
      "ĠdÃ½ch": 2177,
      "nik": 2178,
      "ĠslavÃŃ": 2179,
      "Ġsoud": 2180,
      "aly": 2181,
      "ĠtÃ¡h": 2182,
      "zku": 2183,
      "nko": 2184,
      "novÃ©": 2185,
      "ĠhnÄĽv": 2186,
      "Ġobje": 2187,
      "zeÅĪ": 2188,
      "leh": 2189,
      "ĠÃ¡ni": 2190,
      "ĠmyslÃŃ": 2191,
      "Ġzav": 2192,
      "ĠstarÃ¡": 2193,
      "ĠÄĽly": 2194,
      "Ġtisk": 2195,
      "ĠslÃ¡va": 2196,
      "Ġjedna": 2197,
      "ĠalÃŃ": 2198,
      "ĠÅ¡a": 2199,
      "valo": 2200,
      "ĠjakÃ¡": 2201,
      "ĠatÃŃ": 2202,
      "Ġovi": 2203,
      "ĠÄįech": 2204,
      "lnÄĽ": 2205,
      "Ġhlad": 2206,
      "Ġohe": 2207,
      "vej": 2208,
      "Ġcesty": 2209,
      "lez": 2210,
      "vod": 2211,
      "Ġver": 2212,
      "ĠÅ¾ije": 2213,
      "Ġkva": 2214,
      "Ġnelze": 2215,
      "ĠblaÅ¾en": 2216,
      "ĠuÄįi": 2217,
      "Ġhej": 2218,
      "cit": 2219,
      "Äįkou": 2220,
      "Ġeje": 2221,
      "Ġotce": 2222,
      "Ġkterak": 2223,
      "ĠdÃŃvÃ¡": 2224,
      "ĠpravÃŃ": 2225,
      "ĠjinÃ½": 2226,
      "kone": 2227,
      "ĠmÄĽla": 2228,
      "Ġur": 2229,
      "ĠÄįele": 2230,
      "ĠÃ¡ny": 2231,
      "ĠbÃŃlÃ¡": 2232,
      "Ġprch": 2233,
      "ĠrÃ¡j": 2234,
      "Ġklam": 2235,
      "ÄįnÃ¡": 2236,
      "Ġmohu": 2237,
      "Ġcestou": 2238,
      "bnÃŃ": 2239,
      "lnÃŃ": 2240,
      "ĠhleÄı": 2241,
      "ĠoheÅĪ": 2242,
      "ĠtÄĽm": 2243,
      "on": 2244,
      "ĠÃ¡ci": 2245,
      "ĠovÃ¡": 2246,
      "nila": 2247,
      "ĠnÄĽco": 2248,
      "Ġslunci": 2249,
      "Ġjara": 2250,
      "Äįet": 2251,
      "ĠskvÄĽ": 2252,
      "rÃ¡ch": 2253,
      "ĠzÃ¡ÅĻe": 2254,
      "lila": 2255,
      "ABBX": 2256,
      "Ġzro": 2257,
      "Ġvsta": 2258,
      "Ġfa": 2259,
      "Ġkterou": 2260,
      "ĠÃŃnÃ¡": 2261,
      "ĠdÃ¡t": 2262,
      "Ġohni": 2263,
      "uj": 2264,
      "ĠovÃŃ": 2265,
      "Ġoblo": 2266,
      "ĠjÃŃÅ¾": 2267,
      "Ġmatky": 2268,
      "vati": 2269,
      "ĠmoÅĻi": 2270,
      "ĠhÅĻe": 2271,
      "Ġvez": 2272,
      "Ġhrobu": 2273,
      "kro": 2274,
      "Ġkdysi": 2275,
      "ĠÅ¾el": 2276,
      "ĠtvÃ©m": 2277,
      "Ġtouha": 2278,
      "Ġokam": 2279,
      "Ġovat": 2280,
      "Ġdole": 2281,
      "Ġdosti": 2282,
      "Ġvln": 2283,
      "str": 2284,
      "ĠklÃŃn": 2285,
      "et": 2286,
      "Ġvedle": 2287,
      "ĠÃ½Å¡e": 2288,
      "ĠplnÃ½": 2289,
      "ĠbÄĽda": 2290,
      "ĠjÃŃt": 2291,
      "ÅĻÃŃt": 2292,
      "Ġhodi": 2293,
      "ĠsvÃ©mu": 2294,
      "ĠaÄįÃŃ": 2295,
      "ĠvÅ¡echny": 2296,
      "ĠdÃ½": 2297,
      "sen": 2298,
      "ĠbouÅĻÃŃ": 2299,
      "Ġano": 2300,
      "dej": 2301,
      "ĠtvÃ©ho": 2302,
      "ĠedÃŃ": 2303,
      "hÃ½ch": 2304,
      "ĠnevÃŃm": 2305,
      "Ġdoma": 2306,
      "ÅĻed": 2307,
      "Ġkmen": 2308,
      "Ġnev": 2309,
      "Ġuce": 2310,
      "tajÃŃ": 2311,
      "ĠzÃ¡m": 2312,
      "Å¡nÃ©": 2313,
      "ĠbyÅ¥": 2314,
      "snÃ½": 2315,
      "ĠsladkÃ½": 2316,
      "Ġkap": 2317,
      "Ġspi": 2318,
      "Ġcelou": 2319,
      "ĠÄįela": 2320,
      "Ġnaz": 2321,
      "ĠzdrÃ¡": 2322,
      "ĠonÄĽ": 2323,
      "ujÃŃ": 2324,
      "mnÄĽ": 2325,
      "liÅ¡": 2326,
      "Ġstou": 2327,
      "ĠskÃ¡ly": 2328,
      "ĠnÃ¡d": 2329,
      "ĠmladÃ½": 2330,
      "Ġhlasem": 2331,
      "Ġ,": 2332,
      "ĠovÄĽ": 2333,
      "Ġminu": 2334,
      "ĠkÃ©": 2335,
      "Ġvzdy": 2336,
      "hnu": 2337,
      "ĠdnÅ¯": 2338,
      "ĠvÄĽc": 2339,
      "Äįem": 2340,
      "man": 2341,
      "Ġstrach": 2342,
      "neÅ¡": 2343,
      "sÅ¯": 2344,
      "ĠhlavÄĽ": 2345,
      "Ġdav": 2346,
      "ĠkaÅ¾dÃ¡": 2347,
      "Ġev": 2348,
      "ĠchceÅ¡": 2349,
      "met": 2350,
      "Ġely": 2351,
      "ĠcÃŃsa": 2352,
      "Ġrod": 2353,
      "Ġkonec": 2354,
      "ĠsvÄĽÅ¾ÃŃ": 2355,
      "ĠmnohÃ½": 2356,
      "ĠÃ¡tÃŃ": 2357,
      "ĠdvÃ©": 2358,
      "ĠodÄĽ": 2359,
      "Ġcest": 2360,
      "ĠÃ¡sky": 2361,
      "Ġsnu": 2362,
      "ĠstromÅ¯": 2363,
      "Ġnohou": 2364,
      "ec": 2365,
      "Ġpest": 2366,
      "ĠÃŃÅ¾e": 2367,
      "pÅ¡ÃŃ": 2368,
      "ĠoltÃ¡": 2369,
      "rnÃ¡": 2370,
      "Ġtmy": 2371,
      "ĠivÃ©": 2372,
      "koli": 2373,
      "ĠÃ¡te": 2374,
      "Ġzpo": 2375,
      "Ġera": 2376,
      "ĠstÃŃnu": 2377,
      "ĠlistÃŃ": 2378,
      "ĠklidnÄĽ": 2379,
      "Ġrty": 2380,
      "Ġvzne": 2381,
      "ĠkÃ©Å¾": 2382,
      "dÄĽli": 2383,
      "ĠdÃ¡lky": 2384,
      "Ġspa": 2385,
      "Ġkraje": 2386,
      "ĠÄĽjÅ¡ÃŃ": 2387,
      "ĠÃŃlÃŃ": 2388,
      "ĠzaÅ¡": 2389,
      "ĠÅĻÃŃci": 2390,
      "ĠloÄı": 2391,
      "ĠÃ¡cÃŃ": 2392,
      "Ġata": 2393,
      "ĠvÄĽÄįnÃ©": 2394,
      "Ġrak": 2395,
      "tru": 2396,
      "Ġylo": 2397,
      "ĠdÃ¡vÃ¡": 2398,
      "ĠhledÃ¡": 2399,
      "ĠoÅĻi": 2400,
      "poÅĪ": 2401,
      "lÃ©b": 2402,
      "ĠkrÃ¡ÄįÃŃ": 2403,
      "ĠnadÄĽje": 2404,
      "Ġruky": 2405,
      "ĠjehoÅ¾": 2406,
      "ĠÃŃtÄĽ": 2407,
      "van": 2408,
      "ĠkrÃ¡snÃ¡": 2409,
      "ĠmuÅ¾i": 2410,
      "Ġvyh": 2411,
      "mlu": 2412,
      "dajÃŃ": 2413,
      "cel": 2414,
      "Ġobu": 2415,
      "ĠvÄĽk": 2416,
      "Å¾ik": 2417,
      "ĠaspoÅĪ": 2418,
      "ĠhnÃŃz": 2419,
      "ĠÃ¡nÄĽ": 2420,
      "ĠlidskÃ©": 2421,
      "ĠjarnÃŃ": 2422,
      "dka": 2423,
      "ĠhlÃŃ": 2424,
      "ĠpÅĻÃŃÅ¡tÃŃ": 2425,
      "Ġramen": 2426,
      "Ġtako": 2427,
      "Ġohu": 2428,
      "ĠdobrÃ½": 2429,
      "dost": 2430,
      "kala": 2431,
      "ĠstÃ¡t": 2432,
      "Ġtvrd": 2433,
      "Ġchat": 2434,
      "Ġpravil": 2435,
      "ĠzÃ¡pas": 2436,
      "ĠplnÃ©": 2437,
      "Äįnou": 2438,
      "Ġpry": 2439,
      "ĠÃ¡dÃ¡": 2440,
      "dek": 2441,
      "ĠÄįÃ¡": 2442,
      "ĠsÃŃla": 2443,
      "Ġhloub": 2444,
      "ĠkÃ¡men": 2445,
      "ĠzatÃŃm": 2446,
      "BC": 2447,
      "ĠrÃ¡no": 2448,
      "Ġtrp": 2449,
      "ĠÃŃtÃ¡": 2450,
      "ĠotÃ¡": 2451,
      "Ġvlasy": 2452,
      "ÅĻo": 2453,
      "Ġuchu": 2454,
      "Ġvti": 2455,
      "Ġpout": 2456,
      "ĠtÃ©to": 2457,
      "Ġsmys": 2458,
      "ĠmladÃ©": 2459,
      "Ġruch": 2460,
      "Ġdobro": 2461,
      "Ġprosto": 2462,
      "ke": 2463,
      "Ġony": 2464,
      "Ġoni": 2465,
      "klÃ¡": 2466,
      "ĠinÄĽ": 2467,
      "pit": 2468,
      "Ġstvo": 2469,
      "Ġrok": 2470,
      "ĠnaÅĪ": 2471,
      "in": 2472,
      "prv": 2473,
      "ĠÃŃmÃ¡": 2474,
      "ĠmÃ¡me": 2475,
      "znÃ©": 2476,
      "ĠdrahÃ¡": 2477,
      "ja": 2478,
      "Å¡te": 2479,
      "Ġdle": 2480,
      "ĠzÃŃtra": 2481,
      "jÃŃm": 2482,
      "tost": 2483,
      "ĠÅĻad": 2484,
      "Ġasem": 2485,
      "ĠvÄĽtr": 2486,
      "Ġjakby": 2487,
      "ĠvÄĽtÅ¡ÃŃ": 2488,
      "ĠlÃ©ta": 2489,
      "cÃ½": 2490,
      "Ġrozum": 2491,
      "ĠÄįem": 2492,
      "ĠrÃ¡ny": 2493,
      "Ġnekone": 2494,
      "ĠnemÄĽ": 2495,
      "Äįin": 2496,
      "ĠtichÃ©": 2497,
      "Ġpravda": 2498,
      "Ġpodzi": 2499,
      "ĠslyÅ¡el": 2500,
      "Ġnav": 2501,
      "Ġhoch": 2502,
      "dala": 2503,
      "ĠrÅ¯Å¾ÃŃ": 2504,
      "ĠobrÃ¡": 2505,
      "mÄĽl": 2506,
      "ĠÄįt": 2507,
      "Ġjdu": 2508,
      "ĠÅ¾eh": 2509,
      "ĠomÅ¯": 2510,
      "Ġnade": 2511,
      "Ġnebyl": 2512,
      "Ġota": 2513,
      "ck": 2514,
      "kaz": 2515,
      "ĠoÄįÃŃch": 2516,
      "ĠÃŃru": 2517,
      "ĠavÃ©": 2518,
      "ĠzÅ¯sta": 2519,
      "ĠÄĽtem": 2520,
      "ĠpoÅ¾eh": 2521,
      "ĠpovÃŃ": 2522,
      "ĠjÃŃmÅ¾": 2523,
      "hli": 2524,
      "tnÃ½": 2525,
      "Ġany": 2526,
      "ĠtisÃŃce": 2527,
      "sel": 2528,
      "Ġzam": 2529,
      "Ġyne": 2530,
      "dku": 2531,
      "hÃ¡m": 2532,
      "ĠmuÅ¾e": 2533,
      "ĠpÅĻÃŃliÅ¡": 2534,
      "ĠusÃŃ": 2535,
      "ĠtichÃ½": 2536,
      "ĠjichÅ¾": 2537,
      "Ġjinak": 2538,
      "Ġkal": 2539,
      "ĠmotÃ½": 2540,
      "Ġznovu": 2541,
      "tele": 2542,
      "ĠhÅĻÃŃch": 2543,
      "Ġtan": 2544,
      "rnÃŃ": 2545,
      "Ġbrzy": 2546,
      "chou": 2547,
      "rÃ¡m": 2548,
      "Ġvztek": 2549,
      "Ġradosti": 2550,
      "Ġokna": 2551,
      "lka": 2552,
      "Ġ1800": 2553,
      "Ġman": 2554,
      "ĠÄĽtÃŃ": 2555,
      "tom": 2556,
      "ĠÄįernÃ½": 2557,
      "CBC": 2558,
      "stva": 2559,
      "Ġsrdcem": 2560,
      "Ġcha": 2561,
      "bit": 2562,
      "ĠzÃ¡vo": 2563,
      "ĠmilÃ©": 2564,
      "lÃ©t": 2565,
      "Ġned": 2566,
      "ĠmalÃ½": 2567,
      "ĠtÅĻÃ¡": 2568,
      "Ġspou": 2569,
      "ĠilÃ½": 2570,
      "ĠmrÃ¡z": 2571,
      "Ġzach": 2572,
      "Ġslz": 2573,
      "Å¾ky": 2574,
      "Ġtento": 2575,
      "ĠmÃŃru": 2576,
      "penÃŃ": 2577,
      "Ġzhas": 2578,
      "ĠdruhÃ½": 2579,
      "ĠvÄĽkÅ¯": 2580,
      "Ġdoko": 2581,
      "ĠpÄĽt": 2582,
      "Ġjazy": 2583,
      "Ġroste": 2584,
      "ĠkÅĻÃŃd": 2585,
      "Ġhar": 2586,
      "ÄįÃ¡": 2587,
      "Å¾ka": 2588,
      "ĠrytÃŃ": 2589,
      "Ġzlat": 2590,
      "ĠlÅ¯": 2591,
      "Ġprapo": 2592,
      "ĠchodÃŃ": 2593,
      "ĠÅĻeÄįi": 2594,
      "Ġpovz": 2595,
      "ĠkvÃŃtÃŃ": 2596,
      "kvÄĽ": 2597,
      "Ġeru": 2598,
      "ĠneznÃ¡": 2599,
      "Ġblanky": 2600,
      "ĠXXABAB": 2601,
      "Ġonu": 2602,
      "Ġmoji": 2603,
      "Ġep": 2604,
      "ĠelÃ½": 2605,
      "ĠolÃ¡": 2606,
      "rnou": 2607,
      "Ġeni": 2608,
      "Ġnapos": 2609,
      "ĠkrÃ¡snÃ½": 2610,
      "tnÄĽ": 2611,
      "Ġdny": 2612,
      "brÃ¡": 2613,
      "ĠbudeÅ¡": 2614,
      "Ġstromy": 2615,
      "Ġeh": 2616,
      "Äįej": 2617,
      "stvo": 2618,
      "nosÅ¥": 2619,
      "ĠpryÄį": 2620,
      "Ġboje": 2621,
      "Ġovu": 2622,
      "ĠpÃŃsni": 2623,
      "kali": 2624,
      "ĠÅĻekl": 2625,
      "Ġedu": 2626,
      "ĠdlaÅĪ": 2627,
      "Ġdarmo": 2628,
      "ctvÃŃ": 2629,
      "es": 2630,
      "Ġprachu": 2631,
      "Ġhloubi": 2632,
      "Ġjmen": 2633,
      "ĠkrÃ¡li": 2634,
      "Ġovo": 2635,
      "ju": 2636,
      "Ġovy": 2637,
      "ĠekÃ¡": 2638,
      "Ġvede": 2639,
      "Ġhas": 2640,
      "Ġouti": 2641,
      "ĠdlouhÃ©": 2642,
      "Ġuh": 2643,
      "ĠlesÅ¯": 2644,
      "Ġrost": 2645,
      "ĠchÃ¡": 2646,
      "dl": 2647,
      "ĠvÃŃru": 2648,
      "Ġrodi": 2649,
      "dli": 2650,
      "ĠhvÄĽzda": 2651,
      "Ġdou": 2652,
      "ĠkonÄĽ": 2653,
      "ĠÃ¡va": 2654,
      "ĠcÃŃtÃŃm": 2655,
      "ĠpÅĻede": 2656,
      "ĠÃŃte": 2657,
      "cet": 2658,
      "ĠzÃ¡ko": 2659,
      "Ã½vÃ¡": 2660,
      "Ġosu": 2661,
      "Ġrve": 2662,
      "ĠudÃŃ": 2663,
      "nami": 2664,
      "ĠchvÄĽje": 2665,
      "bnÃ½": 2666,
      "ĠdobÄĽ": 2667,
      "Ġtouhou": 2668,
      "Ġine": 2669,
      "losti": 2670,
      "ĠacÃŃ": 2671,
      "Å¯l": 2672,
      "ĠbratÅĻÃŃ": 2673,
      "ĠÄĽta": 2674,
      "ĠzdÃ¡lo": 2675,
      "ĠvaÅ¡i": 2676,
      "Ġonen": 2677,
      "ĠmajÃŃ": 2678,
      "rat": 2679,
      "ĠpÃ¡r": 2680,
      "Ġlze": 2681,
      "Ġsbor": 2682,
      "Ġcti": 2683,
      "Å¡nÃ½": 2684,
      "Ġau": 2685,
      "Ġjiz": 2686,
      "ĠdrahÃ©": 2687,
      "jal": 2688,
      "ĠÃŃly": 2689,
      "Ġoly": 2690,
      "ĠnedÃ¡": 2691,
      "Ġmilosti": 2692,
      "chÃ©": 2693,
      "Ġrej": 2694,
      "Ġit": 2695,
      "Ġklet": 2696,
      "Ġsnem": 2697,
      "ĠdÄĽdi": 2698,
      "mr": 2699,
      "ĠanÃ½": 2700,
      "ĠÅ¡umÃŃ": 2701,
      "ÅĻila": 2702,
      "ĠABBACC": 2703,
      "ĠÄįasu": 2704,
      "lÃ©ho": 2705,
      "ĠmÄĽsto": 2706,
      "Ġhrudi": 2707,
      "Ġcesta": 2708,
      "ĠvÅ¡ÃŃm": 2709,
      "Ġstaro": 2710,
      "dlÃŃ": 2711,
      "Ġtruch": 2712,
      "Ġzrakem": 2713,
      "ech": 2714,
      "ĠskrÃ¡ÅĪ": 2715,
      "ĠnÃ¡ruÄį": 2716,
      "esi": 2717,
      "Ġspas": 2718,
      "ĠsÃŃlu": 2719,
      "zil": 2720,
      "ĠilÃ¡": 2721,
      "ĠdÃŃvka": 2722,
      "Ġuka": 2723,
      "Ġdum": 2724,
      "ĠcÃŃtil": 2725,
      "Ġudu": 2726,
      "kÅĻik": 2727,
      "ĠknÃŃÅ¾e": 2728,
      "Ġsad": 2729,
      "Ġsme": 2730,
      "Ġsest": 2731,
      "Ġlesa": 2732,
      "ĠvÄĽÄįnÃ½": 2733,
      "lesk": 2734,
      "mÃ¡ch": 2735,
      "Ġpov": 2736,
      "ĠkteÅĻÃŃ": 2737,
      "Ġzbu": 2738,
      "Ġtla": 2739,
      "Ġposud": 2740,
      "Ġzapla": 2741,
      "Ġpln": 2742,
      "Ġnim": 2743,
      "Ġset": 2744,
      "ĠsplÃ½": 2745,
      "ĠopÃŃ": 2746,
      "Ġjestli": 2747,
      "klad": 2748,
      "ĠtenkrÃ¡t": 2749,
      "Ġnesly": 2750,
      "Ġil": 2751,
      "ĠÄıÃ¡": 2752,
      "noucÃŃ": 2753,
      "ĠÅ¡li": 2754,
      "Å¾Å¡ÃŃ": 2755,
      "Ġhost": 2756,
      "stÃ¡vÃ¡": 2757,
      "ĠcÃŃl": 2758,
      "Ġuse": 2759,
      "ĠbÅĻehu": 2760,
      "ĠdobrÃ©": 2761,
      "ĠÄįin": 2762,
      "ĠblÃ½": 2763,
      "ĠsvÄĽtu": 2764,
      "ĠvÅ¯le": 2765,
      "ĠatÃ¡": 2766,
      "Ġstesk": 2767,
      "ĠÃ¡Äįe": 2768,
      "ĠpÃ¡ni": 2769,
      "ĠrÃ¡zem": 2770,
      "stvÃŃm": 2771,
      "Ġchle": 2772,
      "ĠmalÃ©": 2773,
      "ĠzvlÃ¡": 2774,
      "Ġzap": 2775,
      "ĠÅĪa": 2776,
      "ĠkrÃ¡se": 2777,
      "ĠplÃ¡Äįe": 2778,
      "ĠvzÃ¡c": 2779,
      "ĠÅĪader": 2780,
      "ĠznÄĽl": 2781,
      "Ġmysl": 2782,
      "Ġdve": 2783,
      "Ġmrtvo": 2784,
      "vce": 2785,
      "zenÃŃ": 2786,
      "Ġlidstva": 2787,
      "ĠAXAA": 2788,
      "Ġskvost": 2789,
      "mnÃŃ": 2790,
      "ĠavÃ¡": 2791,
      "ĠovÃ½": 2792,
      "Ġscho": 2793,
      "Ġoho": 2794,
      "ĠXAABBX": 2795,
      "ĠrÅ¯Å¾o": 2796,
      "kve": 2797,
      "ĠÃ¡ÄįÃŃ": 2798,
      "Ġztracen": 2799,
      "ĠvÄĽÅĻ": 2800,
      "Ġduchu": 2801,
      "Ġcen": 2802,
      "Ġpravdu": 2803,
      "Ġnechce": 2804,
      "ÅĻÅ¯": 2805,
      "ĠizÃŃ": 2806,
      "ĠvÅ¯kol": 2807,
      "ĠjmÃ©no": 2808,
      "Ġprobu": 2809,
      "Ġzoufal": 2810,
      "Ġviz": 2811,
      "Å¾nÃ¡": 2812,
      "pÄĽl": 2813,
      "ĠvÅ¡emi": 2814,
      "Å¡t": 2815,
      "slo": 2816,
      "cnÄĽ": 2817,
      "ĠsvatÃ¡": 2818,
      "ĠzachvÄĽ": 2819,
      "Ġide": 2820,
      "Äįer": 2821,
      "Ġlese": 2822,
      "ĠslyÅ¡ÃŃm": 2823,
      "Ġlidem": 2824,
      "Ġvenku": 2825,
      "Ġmni": 2826,
      "ĠkrÅ¯": 2827,
      "Ġkoste": 2828,
      "ĠkrÃ¡le": 2829,
      "Ġsma": 2830,
      "ĠovÅ¡em": 2831,
      "ĠpÃ½ch": 2832,
      "ĠstrÃ¡Å¾": 2833,
      "las": 2834,
      "Ġzasta": 2835,
      "Ġporo": 2836,
      "vin": 2837,
      "ĠjasnÃ©": 2838,
      "dÃ½ch": 2839,
      "Ġhlo": 2840,
      "ĠÃŃÅ¡e": 2841,
      "ĠÃ¡vÄĽ": 2842,
      "Ġnevin": 2843,
      "Ġnak": 2844,
      "ĠklonÃŃ": 2845,
      "ĠvalÃŃ": 2846,
      "Ġuky": 2847,
      "pÅ¯": 2848,
      "deme": 2849,
      "Ġednou": 2850,
      "Ġzadu": 2851,
      "kot": 2852,
      "zvu": 2853,
      "Ġklad": 2854,
      "ĠvÃ½Å¡i": 2855,
      "ĠchtÃŃ": 2856,
      "Ġsladce": 2857,
      "cÅ¯m": 2858,
      "ĠÄĽle": 2859,
      "ĠslÃŃ": 2860,
      "ĠdÄĽtÃŃ": 2861,
      "ÅĻenÃ©": 2862,
      "jÃŃch": 2863,
      "ĠÃŃkÅ¯": 2864,
      "nouti": 2865,
      "ĠtÄĽÅ¾kÃ©": 2866,
      "ĠÃŃnu": 2867,
      "nala": 2868,
      "Å¡nÃŃ": 2869,
      "Ġbudouc": 2870,
      "ĠtÃ³": 2871,
      "ĠmizÃŃ": 2872,
      "rom": 2873,
      "jÃŃt": 2874,
      "Ġodpu": 2875,
      "ĠpÃ©": 2876,
      "ĠadÃŃ": 2877,
      "ĠhrobÄĽ": 2878,
      "ĠpÅĻiÅ¡la": 2879,
      "ĠouÅ¾ÃŃ": 2880,
      "knu": 2881,
      "Ġava": 2882,
      "enÃ¡": 2883,
      "Ġzvon": 2884,
      "Ġpokoj": 2885,
      "Ġnas": 2886,
      "ĠdÅ¯vÄĽ": 2887,
      "mÄĽnÃŃ": 2888,
      "ĠrÃ¡da": 2889,
      "us": 2890,
      "ĠzvonÃŃ": 2891,
      "Ġspra": 2892,
      "Ġslza": 2893,
      "ĠÃºtÄĽ": 2894,
      "ĠzÃ¡hy": 2895,
      "Äįila": 2896,
      "ĠsmutnÄĽ": 2897,
      "ĠenÄĽ": 2898,
      "klÃŃ": 2899,
      "Ġech": 2900,
      "ĠskÅĻi": 2901,
      "bem": 2902,
      "ĠvzplÃ¡": 2903,
      "ĠÄĽtu": 2904,
      "bnÄĽ": 2905,
      "zky": 2906,
      "ek": 2907,
      "Ġmohl": 2908,
      "Ġzdi": 2909,
      "Ġuna": 2910,
      "Ġhrou": 2911,
      "go": 2912,
      "ĠzÃ¡pa": 2913,
      "Ġnohy": 2914,
      "ĠÄĽlÃ½": 2915,
      "Ġchra": 2916,
      "ĠahÃ¡": 2917,
      "vÃŃrÃ¡": 2918,
      "dÃ¡nÃŃ": 2919,
      "chÃ¡ze": 2920,
      "ĠÄĽlÃ¡": 2921,
      "hly": 2922,
      "Ġdala": 2923,
      "ĠAABCBC": 2924,
      "ĠelÃ©": 2925,
      "ali": 2926,
      "ĠsrdcÃŃ": 2927,
      "bito": 2928,
      "ĠrozkoÅ¡": 2929,
      "ĠdrahÃ½": 2930,
      "kajÃŃ": 2931,
      "ĠsvÃ½mi": 2932,
      "ĠmoÅ¾no": 2933,
      "Ġtmou": 2934,
      "teÄį": 2935,
      "ĠÄįeskÃ©": 2936,
      "sit": 2937,
      "Ġzba": 2938,
      "Ã¡ch": 2939,
      "Ġouze": 2940,
      "ĠmÃ¡j": 2941,
      "hÃ½m": 2942,
      "livÄĽ": 2943,
      "ĠstarÃ½ch": 2944,
      "ĠnadÅ¡enÃŃ": 2945,
      "Ġled": 2946,
      "ĠeÅĻÃŃ": 2947,
      "Ġtry": 2948,
      "Ġchyt": 2949,
      "tor": 2950,
      "Ġpramen": 2951,
      "Ġboku": 2952,
      "ĠdÄĽla": 2953,
      "Ġoch": 2954,
      "bÅ¯": 2955,
      "Ġmdlo": 2956,
      "ĠÃ¡t": 2957,
      "Ġsmutek": 2958,
      "Ġsluch": 2959,
      "dÃ¡ch": 2960,
      "ĠdÅĻÃŃve": 2961,
      "ĠmladÃ¡": 2962,
      "Ġzhy": 2963,
      "hlÃ¡": 2964,
      "ĠchtÄĽla": 2965,
      "ĠÅ¡le": 2966,
      "Ġbojo": 2967,
      "Ġkone": 2968,
      "Ġetu": 2969,
      "ĠÅ¡ÃŃlen": 2970,
      "vuje": 2971,
      "Ġdomu": 2972,
      "Ġaty": 2973,
      "ĠbouÅĻi": 2974,
      "Ġpohle": 2975,
      "ĠtouÅ¾ÃŃ": 2976,
      "ĠÅ¾enu": 2977,
      "Ġprsa": 2978,
      "Ġhrom": 2979,
      "Ġkat": 2980,
      "Ġcy": 2981,
      "Ġrozho": 2982,
      "ĠodpovÄĽ": 2983,
      "ĠvÃ¡mi": 2984,
      "ĠkrÅ¯pÄĽ": 2985,
      "ĠzlatÃ¡": 2986,
      "ĠkrÃ¡sa": 2987,
      "Ġzcela": 2988,
      "Ġpravdy": 2989,
      "ĠzÃ¡zrak": 2990,
      "Ġrek": 2991,
      "Ġkruh": 2992,
      "Ġhlaho": 2993,
      "ĠnepÅĻÃ¡": 2994,
      "Ġasti": 2995,
      "Ġlam": 2996,
      "Ġtvr": 2997,
      "ĠÃ½ch": 2998,
      "ĠÅ¾Ã¡dnÃ½": 2999,
      "ĠÃ¡vy": 3000,
      "ĠnepÅĻÃŃ": 3001,
      "Ġono": 3002,
      "ĠjedinÃ½": 3003,
      "kej": 3004,
      "Ġbije": 3005,
      "ĠÃ¡lÃŃ": 3006,
      "ĠvelkÃ¡": 3007,
      "Ġvrcho": 3008,
      "ĠmÄĽnÃŃ": 3009,
      "Ġrozm": 3010,
      "ĠstejnÄĽ": 3011,
      "ĠX": 3012,
      "rku": 3013,
      "ĠpevnÄĽ": 3014,
      "ĠmodrÃ©": 3015,
      "ĠnepÅĻi": 3016,
      "Ġaku": 3017,
      "Ġys": 3018,
      "rky": 3019,
      "Ġhan": 3020,
      "ĠkaÅ¾dou": 3021,
      "ĠdennÄĽ": 3022,
      "Ġzni": 3023,
      "ÄįkÃ¡": 3024,
      "jÃ¡": 3025,
      "ĠspÃŃÅ¡": 3026,
      "ĠbÅĻeh": 3027,
      "?!": 3028,
      "ĠÅĻÃŃm": 3029,
      "ĠslÃ¡vÄĽ": 3030,
      "ĠzÅĻe": 3031,
      "lÃŃÅ¾ÃŃ": 3032,
      "bat": 3033,
      "lav": 3034,
      "Ġjeze": 3035,
      "ĠslÃ¡vu": 3036,
      "bÃ©": 3037,
      "Ġvlo": 3038,
      "Ġklu": 3039,
      "Ġpodiv": 3040,
      "Ġjednu": 3041,
      "Ġkali": 3042,
      "ĠjednÃ©": 3043,
      "ĠvracÃŃ": 3044,
      "Ġotu": 3045,
      "nÃ¡Å¡e": 3046,
      "Ġam": 3047,
      "Ġteprv": 3048,
      "Ġplane": 3049,
      "ĠhÅĻbito": 3050,
      "ĠÃºdo": 3051,
      "Ġesk": 3052,
      "Ġvstal": 3053,
      "tev": 3054,
      "znÃ¡": 3055,
      "ĠbÅĻÃŃ": 3056,
      "Ġoha": 3057,
      "ĠtÅĻetÃŃ": 3058,
      "ĠmraÄį": 3059,
      "lan": 3060,
      "Ġkdos": 3061,
      "vÃ¡t": 3062,
      "Ġnepro": 3063,
      "Ġpodle": 3064,
      "ĠpÅĻÃ¡tel": 3065,
      "Ġjino": 3066,
      "ĠzemÃŃ": 3067,
      "dÃŃÅ¡": 3068,
      "ĠmlÄįÃŃ": 3069,
      "Ġtemno": 3070,
      "Ġkrou": 3071,
      "ĠÅ¾ÃŃti": 3072,
      "ĠvÃ½ch": 3073,
      "ĠlepÅ¡ÃŃ": 3074,
      "ĠstÃ¡la": 3075,
      "snÃ¡": 3076,
      "dnÃ½ch": 3077,
      "Ġhad": 3078,
      "Ġhez": 3079,
      "Ġzapad": 3080,
      "ĠkvÄĽti": 3081,
      "ĠukÃ¡": 3082,
      "ĠtÃŃÅ¾": 3083,
      "ĠÃ¡val": 3084,
      "dci": 3085,
      "Ġudi": 3086,
      "ĠbÄĽÅ¾ÃŃ": 3087,
      "Ġjsa": 3088,
      "rce": 3089,
      "ĠÄįerven": 3090,
      "her": 3091,
      "ÅĻek": 3092,
      "bli": 3093,
      "ĠchvÄĽl": 3094,
      "ĠvÃ½cho": 3095,
      "ĠmÃŃti": 3096,
      "Ġoblak": 3097,
      "domÃŃ": 3098,
      "Ġmati": 3099,
      "ĠytÃŃ": 3100,
      "Ġpoho": 3101,
      "ĠÄĽji": 3102,
      "ĠptÃ¡ci": 3103,
      "Ġamen": 3104,
      "Ġidu": 3105,
      "pem": 3106,
      "zna": 3107,
      "ĠÅĻas": 3108,
      "ĠÄįaro": 3109,
      "ĠÅĻeÄįÃŃ": 3110,
      "Ġpsa": 3111,
      "Ġjdi": 3112,
      "eni": 3113,
      "Ġpotu": 3114,
      "ĠdlouhÃ½": 3115,
      "Ġhvo": 3116,
      "nÄĽn": 3117,
      "ĠÃ½ti": 3118,
      "Ġsami": 3119,
      "ĠstavÃŃ": 3120,
      "Ġspad": 3121,
      "Ġrdce": 3122,
      "ĠdruhÃ©": 3123,
      "ĠÄįlovÄĽka": 3124,
      "Ġast": 3125,
      "Ġola": 3126,
      "Å¡it": 3127,
      "ĠÃºzko": 3128,
      "ĠnoÄįnÃŃ": 3129,
      "ĠtÅ¯": 3130,
      "ĠÃ¡je": 3131,
      "Ġmraky": 3132,
      "Ġtrou": 3133,
      "ĠrudÃ©": 3134,
      "boj": 3135,
      "kvÃŃ": 3136,
      "ĠÅĻi": 3137,
      "Ġstran": 3138,
      "Ġjo": 3139,
      "ĠotÄįe": 3140,
      "ĠjejÃŃm": 3141,
      "Ġid": 3142,
      "Ġnebylo": 3143,
      "Ġsilou": 3144,
      "ĠadÄĽ": 3145,
      "ĠrtÅ¯": 3146,
      "ĠtÄĽle": 3147,
      "ĠnenÃ¡": 3148,
      "Ġzka": 3149,
      "Ġskr": 3150,
      "ĠzÃ¡vi": 3151,
      "ĠÅ¯nÄĽ": 3152,
      "ĠneboÅ¥": 3153,
      "Ġnechci": 3154,
      "lenÃ©": 3155,
      "ĠvzneÅ¡en": 3156,
      "ĠlÃŃbÃ¡": 3157,
      "Ġsled": 3158,
      "Ġvzpo": 3159,
      "ĠiÅ¡e": 3160,
      "Ġzlata": 3161,
      "Ġzrc": 3162,
      "Ġjimi": 3163,
      "ĠivÄĽ": 3164,
      "ĠÃ¡dÃŃ": 3165,
      "ĠkvÄĽtu": 3166,
      "Ġholu": 3167,
      "vÃ½mi": 3168,
      "ĠolÅ¯": 3169,
      "Å¾ila": 3170,
      "ĠsklÃ¡nÃŃ": 3171,
      "Ġbro": 3172,
      "ĠlkÃ¡": 3173,
      "ĠzpÃ¡": 3174,
      "ĠmalÃ¡": 3175,
      "Ġhnu": 3176,
      "ĠbÃŃlÃ½ch": 3177,
      "Ġmoci": 3178,
      "ĠAABBXX": 3179,
      "Ġrozu": 3180,
      "Ġspole": 3181,
      "Ġada": 3182,
      "Ġesy": 3183,
      "Ġhudba": 3184,
      "ĠvÅ¯li": 3185,
      "Ġukou": 3186,
      "ĠpÅ¯lno": 3187,
      "ĠvÄįera": 3188,
      "Ġvesele": 3189,
      "Ġkus": 3190,
      "ĠnÃŃz": 3191,
      "Ġdvou": 3192,
      "ĠbudÃŃ": 3193,
      "ĠhÃ¡j": 3194,
      "Ġrtech": 3195,
      "nak": 3196,
      "sÃŃch": 3197,
      "Ġvzdor": 3198,
      "tno": 3199,
      "Ġohou": 3200,
      "ĠalÃ½": 3201,
      "ĠtÃ¡hne": 3202,
      "ĠrÃ¡je": 3203,
      "ĠÅĻeky": 3204,
      "Ġprud": 3205,
      "ĠÅ¡Ã¡": 3206,
      "ĠeÄįÃŃ": 3207,
      "Ġskon": 3208,
      "ĠÅĪadra": 3209,
      "Ġsty": 3210,
      "fi": 3211,
      "ĠhÃ½": 3212,
      "tÃ¡n": 3213,
      "Ġpes": 3214,
      "ĠknÄĽz": 3215,
      "Ġhod": 3216,
      "ĠÄįty": 3217,
      "ĠblÃŃz": 3218,
      "Äįkem": 3219,
      "ĠÄįet": 3220,
      "rel": 3221,
      "Ġzmat": 3222,
      "ĠsmutnÃ©": 3223,
      "ĠdlÃŃ": 3224,
      "Ġsouse": 3225,
      "Ġvstou": 3226,
      "Ġlili": 3227,
      "ĠÄįist": 3228,
      "ĠbÃ½vÃ¡": 3229,
      "kra": 3230,
      "ĠvÃŃr": 3231,
      "Ġaji": 3232,
      "Ġleb": 3233,
      "Å¡ÃŃch": 3234,
      "cenÃŃ": 3235,
      "ĠÅ¡edi": 3236,
      "tat": 3237,
      "kovÃ©": 3238,
      "ĠuÅ¡": 3239,
      "ĠÃŃka": 3240,
      "ĠrtÃŃ": 3241,
      "Ġkrokem": 3242,
      "ĠkrÃ¡su": 3243,
      "jeÅ¡": 3244,
      "ĠABBAXX": 3245,
      "ĠÃŃny": 3246,
      "Ġsoum": 3247,
      "jas": 3248,
      "vili": 3249,
      "Ġhochu": 3250,
      "ĠmusÃŃm": 3251,
      "Ġzrcad": 3252,
      "Ġnesou": 3253,
      "Ġanu": 3254,
      "ĠbledÃ¡": 3255,
      "ĠbohatÃ½": 3256,
      "ĠnÄĽjak": 3257,
      "Ġnovou": 3258,
      "Ġvar": 3259,
      "Ġvle": 3260,
      "hnul": 3261,
      "Ġkyne": 3262,
      "hÃ¡nÃŃ": 3263,
      "Ġzaz": 3264,
      "Ġnejs": 3265,
      "ĠvÅ¯nÃŃ": 3266,
      "ĠnÄĽkdo": 3267,
      "ĠÄĽty": 3268,
      "Ġak": 3269,
      "ĠoÅ¾i": 3270,
      "lena": 3271,
      "Ġzku": 3272,
      "ĠzvedÃ¡": 3273,
      "ĠÃŃz": 3274,
      "Ġdnem": 3275,
      "ĠÅ¡tÃŃt": 3276,
      "Å¾nou": 3277,
      "dÄĽnÃŃ": 3278,
      "Ġteh": 3279,
      "Ġnebude": 3280,
      "Ġblaha": 3281,
      "hÃ©m": 3282,
      "ĠÃ¡mi": 3283,
      "rie": 3284,
      "bÃ¡ch": 3285,
      "Ġklidu": 3286,
      "ĠohnÄĽm": 3287,
      "ĠchrÃ¡mu": 3288,
      "ĠdÅĻe": 3289,
      "ĠmÄĽst": 3290,
      "lÃ©z": 3291,
      "Ġnaslou": 3292,
      "Ġsyna": 3293,
      "ĠÄįeskÃ½": 3294,
      "Ġlem": 3295,
      "Ġzlatem": 3296,
      "Ġsic": 3297,
      "Ġslovem": 3298,
      "ĠvonÃŃ": 3299,
      "ĠÄĽny": 3300,
      "ĠprostÅĻe": 3301,
      "Äįo": 3302,
      "ĠzlatÃ½ch": 3303,
      "jednou": 3304,
      "Ġkomu": 3305,
      "ĠblÃŃÅ¾ÃŃ": 3306,
      "ĠÅĻÃŃÅ¡e": 3307,
      "ĠdÃ¡lku": 3308,
      "dili": 3309,
      "Ġprost": 3310,
      "Ġvlh": 3311,
      "Ġuti": 3312,
      "Ġabych": 3313,
      "ĠzdÄĽ": 3314,
      "ĠhÅĻmÃŃ": 3315,
      "Ġpope": 3316,
      "rek": 3317,
      "ĠmrtvÃ©": 3318,
      "Ġblesky": 3319,
      "vice": 3320,
      "Ġdni": 3321,
      "Ġhlasy": 3322,
      "Ġedy": 3323,
      "ĠAAXA": 3324,
      "ĠÄĽlÃ©": 3325,
      "Ġstrany": 3326,
      "Ġzmo": 3327,
      "ĠsrÃ¡": 3328,
      "bÃ¡m": 3329,
      "ĠvÃ¡c": 3330,
      "Ġachu": 3331,
      "ĠbÃŃlou": 3332,
      "Ġoty": 3333,
      "ĠÃºsmÄĽvem": 3334,
      "Ġuhu": 3335,
      "Ġuvi": 3336,
      "ĠotcÅ¯": 3337,
      "ÅĪte": 3338,
      "ĠzÃ¡stup": 3339,
      "ĠvyÅ¡el": 3340,
      "ĠpÃ¡nÄĽ": 3341,
      "ĠvroucÃŃ": 3342,
      "ĠelÃŃ": 3343,
      "ĠÃŃku": 3344,
      "Ġposlou": 3345,
      "Å¡Å¥ast": 3346,
      "Ġhosti": 3347,
      "ĠzÅĻÃŃt": 3348,
      "dali": 3349,
      "Ġjab": 3350,
      "ĠpodÃ¡": 3351,
      "lel": 3352,
      "ĠpÅĻÃŃÅ¡e": 3353,
      "nÅ¯m": 3354,
      "ĠÃ¡nu": 3355,
      "ĠsluÅ¾": 3356,
      "ĠtvojÃŃ": 3357,
      "ĠpamÄĽ": 3358,
      "ABBA": 3359,
      "ĠobjetÃŃ": 3360,
      "ĠlesnÃŃ": 3361,
      "ĠÄĽz": 3362,
      "Ġzab": 3363,
      "Ġzle": 3364,
      "ĠvÃ¡l": 3365,
      "Ġana": 3366,
      "Å¾enÃ©": 3367,
      "vÄĽd": 3368,
      "Ġkroky": 3369,
      "ĠpotÄĽ": 3370,
      "ĠABABAB": 3371,
      "ĠmÄĽli": 3372,
      "ĠsmÃŃchu": 3373,
      "jme": 3374,
      "ĠaÅ¡e": 3375,
      "Ġohy": 3376,
      "tala": 3377,
      "Ġmali": 3378,
      "Ġhradu": 3379,
      "Ġvzbu": 3380,
      "benÃŃ": 3381,
      "ĠpsÃ¡": 3382,
      "Ġotci": 3383,
      "Ġtato": 3384,
      "ĠdÃ¡lce": 3385,
      "Ġdali": 3386,
      "hnout": 3387,
      "Ġede": 3388,
      "ĠÄįasy": 3389,
      "ĠopuÅ¡tÄĽ": 3390,
      "kÃ©ho": 3391,
      "ĠotÄĽ": 3392,
      "jÃŃce": 3393,
      "Äıte": 3394,
      "ĠvÃ©": 3395,
      "mnÄĽl": 3396,
      "Ġseve": 3397,
      "ĠslyÅ¡et": 3398,
      "ĠcestÄĽ": 3399,
      "ĠandÄĽ": 3400,
      "ĠsladkÃ¡": 3401,
      "ĠÃ½lÃŃ": 3402,
      "Ġoky": 3403,
      "ĠÅĻÃŃÅ¡": 3404,
      "Ġoken": 3405,
      "ten": 3406,
      "ĠklesÃ¡": 3407,
      "Ġvytr": 3408,
      "Ġbolesti": 3409,
      "Ġechu": 3410,
      "Ġvze": 3411,
      "ĠpÃŃs": 3412,
      "ckÃ½ch": 3413,
      "Ġpaprsk": 3414,
      "Ġkmet": 3415,
      "Ġobli": 3416,
      "Ġvola": 3417,
      "bel": 3418,
      "ĠtoÄįÃŃ": 3419,
      "Ġplno": 3420,
      "Ġmilu": 3421,
      "Ġvypra": 3422,
      "ĠnenÃ¡vi": 3423,
      "Ġvp": 3424,
      "Ġtva": 3425,
      "ĠvisÃŃ": 3426,
      "dosti": 3427,
      "ĠmyslÃŃm": 3428,
      "ĠvrÃ¡tÃŃ": 3429,
      "diÅ¾": 3430,
      "Ġpoc": 3431,
      "ĠeÅ¡tÄĽ": 3432,
      "ĠvÃŃry": 3433,
      "vanÃ©": 3434,
      "bek": 3435,
      "ĠmÃŃsta": 3436,
      "ĠzprÃ¡": 3437,
      "ĠvÃ¡Å¡nÃŃ": 3438,
      "ĠzpÃ¡tky": 3439,
      "Ġsten": 3440,
      "ĠzvÄĽst": 3441,
      "rka": 3442,
      "Ġobou": 3443,
      "ĠlÃŃto": 3444,
      "hlÃ½": 3445,
      "Ġpol": 3446,
      "Ġutr": 3447,
      "Ġtuto": 3448,
      "zek": 3449,
      "ĠnavÅ¾dy": 3450,
      "ĠvidÄĽt": 3451,
      "Ġcu": 3452,
      "ĠvdÄĽk": 3453,
      "rnÃ½ch": 3454,
      "ĠskÅĻÃŃ": 3455,
      "Ġiku": 3456,
      "nkou": 3457,
      "ĠnovÃ¡": 3458,
      "ĠnemÃ¡m": 3459,
      "ĠblÃŃÅ¾e": 3460,
      "Ġsynu": 3461,
      "Ġkonce": 3462,
      "ĠtÄĽÅ¾kÃ½": 3463,
      "Ġmlhy": 3464,
      "ĠjinÃ½ch": 3465,
      "Ġenu": 3466,
      "Ġcizi": 3467,
      "ĠcÃŃsaÅĻ": 3468,
      "Ġavil": 3469,
      "ĠvÅ¡emu": 3470,
      "Ġpode": 3471,
      "ĠevÃŃ": 3472,
      "Ġtichou": 3473,
      "Ġpek": 3474,
      "Å¾ÃŃÅ¡": 3475,
      "ĠiÄįky": 3476,
      "ĠvÅ¡a": 3477,
      "ĠÅ¾alo": 3478,
      "Ġluh": 3479,
      "Ġama": 3480,
      "zra": 3481,
      "ÄįnÃ½ch": 3482,
      "Ġznal": 3483,
      "ĠÃ¡da": 3484,
      "Ġchlu": 3485,
      "ĠchlÃ©b": 3486,
      "pÄĽt": 3487,
      "ĠvÅĻa": 3488,
      "Ġsoumrak": 3489,
      "ĠjasnÃ½": 3490,
      "ĠestÃŃ": 3491,
      "Ġtvor": 3492,
      "Ġadne": 3493,
      "ĠpÃ¡na": 3494,
      "Ġmed": 3495,
      "ĠnejvÃŃ": 3496,
      "ĠÄįernÃ½ch": 3497,
      "nitÅĻ": 3498,
      "Äįa": 3499,
      "ĠasÅ¯": 3500,
      "Ġkolo": 3501,
      "Ġvelkou": 3502,
      "Ġmatko": 3503,
      "jÃŃmÃ¡": 3504,
      "ĠkÅĻesÅ¥": 3505,
      "ĠsnÃ¡ch": 3506,
      "Ġchcem": 3507,
      "pro": 3508,
      "hlo": 3509,
      "ĠÄįernÃ¡": 3510,
      "ĠpatÅĻÃŃ": 3511,
      "Ġdokud": 3512,
      "ĠÃŃnÄĽ": 3513,
      "ĠlÃŃci": 3514,
      "Ġlehce": 3515,
      "Ġlad": 3516,
      "Ġjakoby": 3517,
      "Ġplach": 3518,
      "ĠÄĽte": 3519,
      "ĠÅ¾ene": 3520,
      "ĠÃŃlÃ½": 3521,
      "ĠvÃŃte": 3522,
      "ĠkoÅĻi": 3523,
      "ĠÅ¡lech": 3524,
      "ĠbledÃ©": 3525,
      "Ġroj": 3526,
      "Å¡ly": 3527,
      "ĠdÃŃk": 3528,
      "ĠXXA": 3529,
      "Ġivo": 3530,
      "tnou": 3531,
      "ĠlÃŃp": 3532,
      "ĠrÅ¯Å¾i": 3533,
      "ĠtmÃ¡ch": 3534,
      "Ġbohy": 3535,
      "Ġato": 3536,
      "hlu": 3537,
      "tne": 3538,
      "Ġeme": 3539,
      "Ġeti": 3540,
      "Ġvsi": 3541,
      "Ġosla": 3542,
      "ĠzlÃ¡": 3543,
      "ĠjevÃŃ": 3544,
      "Ġztich": 3545,
      "ĠcÃŃrk": 3546,
      "Å¾em": 3547,
      "ĠtichÃ¡": 3548,
      "ĠvraÅ¾": 3549,
      "Ġdoba": 3550,
      "ĠhuÄįÃŃ": 3551,
      "Ġproro": 3552,
      "ĠkoÅĻen": 3553,
      "ĠenÃ½ch": 3554,
      "ĠÃŃla": 3555,
      "ĠdÄĽvÄįe": 3556,
      "Ġdouf": 3557,
      "Ġsvato": 3558,
      "slu": 3559,
      "ĠÅ¾alu": 3560,
      "ĠmrtvÃ½ch": 3561,
      "Ġdaleko": 3562,
      "Ġsbo": 3563,
      "Ġsnech": 3564,
      "Ġvzduchu": 3565,
      "Ġhora": 3566,
      "Ġvrah": 3567,
      "ĠzdravÃŃ": 3568,
      "tkem": 3569,
      "Ġzlatou": 3570,
      "Ġbyst": 3571,
      "ĠvÃŃno": 3572,
      "Ġkost": 3573,
      "ĠokÅ¯": 3574,
      "Ġpoch": 3575,
      "Ġahy": 3576,
      "ĠÃºÅ¾": 3577,
      "ĠÃ¡nÃŃm": 3578,
      "Ġpoled": 3579,
      "Ġstalo": 3580,
      "esie": 3581,
      "liv": 3582,
      "Ġsnil": 3583,
      "Å¡to": 3584,
      "Ġety": 3585,
      "ĠÃ¡Å¾e": 3586,
      "Ġsklen": 3587,
      "ĠhrÅ¯zou": 3588,
      "Ġvet": 3589,
      "Ġkole": 3590,
      "kojen": 3591,
      "ĠednÃŃ": 3592,
      "ĠÃ¡tky": 3593,
      "ĠkvÄĽtem": 3594,
      "ĠdobrÃ¡": 3595,
      "ĠzlÃ½": 3596,
      "Ġzma": 3597,
      "ĠloÅ¾e": 3598,
      "Ġzpu": 3599,
      "ĠÄįÃŃÅ¡": 3600,
      "vÃ¡Å¡": 3601,
      "ĠsmÄĽle": 3602,
      "ĠÄįistÃ©": 3603,
      "vky": 3604,
      "livÃ½": 3605,
      "Ġkdesi": 3606,
      "Ġsmutku": 3607,
      "ĠstÃ©": 3608,
      "ĠvÅ¡ÃŃ": 3609,
      "ĠtemnÃ©": 3610,
      "ĠzÃŃrÃ¡": 3611,
      "Ġtichu": 3612,
      "ĠsmÃ¡l": 3613,
      "tÅĻÃŃ": 3614,
      "ĠpoÄįÃŃ": 3615,
      "ĠÃŃky": 3616,
      "kost": 3617,
      "Ġctnost": 3618,
      "ĠrannÃŃ": 3619,
      "ĠpÅĻÃŃtel": 3620,
      "ĠaÅ¡ÃŃ": 3621,
      "ĠzlÃ©": 3622,
      "Ġatky": 3623,
      "ĠÄĽna": 3624,
      "Ġobzor": 3625,
      "Ġoda": 3626,
      "ĠvÄĽci": 3627,
      "Ġbleskem": 3628,
      "padÃ¡": 3629,
      "ĠsmutnÃ½": 3630,
      "tnÃ¡": 3631,
      "ĠpÅĻedu": 3632,
      "ĠÄĽÅĻÃŃ": 3633,
      "ĠrÃ¡nu": 3634,
      "Ġmlha": 3635,
      "nikÃ¡": 3636,
      "Ġlidstvo": 3637,
      "ĠpromÄĽ": 3638,
      "Ġbolu": 3639,
      "Ġraj": 3640,
      "Ġsluncem": 3641,
      "Ġesa": 3642,
      "ĠÄĽtÅ¯": 3643,
      "Ġdechem": 3644,
      "ĠbÃ¡j": 3645,
      "ĠmÄĽj": 3646,
      "Ġslune": 3647,
      "ĠbloudÃŃ": 3648,
      "han": 3649,
      "Ġstal": 3650,
      "Ġvoda": 3651,
      "ĠjasnÄĽ": 3652,
      "Ġvzp": 3653,
      "ĠzÃ¡pad": 3654,
      "ĠÃ¡sy": 3655,
      "Ġpomoc": 3656,
      "Ġletu": 3657,
      "Ġstav": 3658,
      "Ġcosi": 3659,
      "Ġnaposled": 3660,
      "skne": 3661,
      "ĠvÅ¡ecka": 3662,
      "BB": 3663,
      "mal": 3664,
      "amÄĽ": 3665,
      "Ġvzde": 3666,
      "Ġmech": 3667,
      "ĠstaÅĻe": 3668,
      "Ġorem": 3669,
      "ĠtÄĽÅ¾ce": 3670,
      "Ġnevz": 3671,
      "Ġnikde": 3672,
      "ĠÅĻekla": 3673,
      "ĠoÅ¾e": 3674,
      "vÃ¡ch": 3675,
      "ĠdÄĽje": 3676,
      "ĠkÅĻik": 3677,
      "Ġstuden": 3678,
      "tvo": 3679,
      "ĠzlÃŃ": 3680,
      "ĠÃŃhÃ¡": 3681,
      "mek": 3682,
      "Ġhrdi": 3683,
      "Ġzdali": 3684,
      "ĠvÄĽÅĻÃŃ": 3685,
      "Ġesla": 3686,
      "Ġvnu": 3687,
      "ĠmÃ¡te": 3688,
      "hnÄĽ": 3689,
      "Ġsvad": 3690,
      "Ġvin": 3691,
      "ĠtÅĻese": 3692,
      "ĠbÄĽd": 3693,
      "Å¾enÃ½": 3694,
      "ĠvÅ¯ni": 3695,
      "Ġdrob": 3696,
      "Ġpochy": 3697,
      "ĠumÃŃrÃ¡": 3698,
      "Ġrci": 3699,
      "myÅ¡": 3700,
      "hajÃŃ": 3701,
      "ĠvolnÄĽ": 3702,
      "ĠdÃŃlo": 3703,
      "ĠosÃŃ": 3704,
      "Ġfra": 3705,
      "Ġvzpla": 3706,
      "Ġedne": 3707,
      "ĠjimÅ¾": 3708,
      "ÄįnÃ½m": 3709,
      "ĠpoznÃ¡": 3710,
      "vel": 3711,
      "menÃŃ": 3712,
      "lenÃ½": 3713,
      "Äįiny": 3714,
      "nÃ©mu": 3715,
      "ĠplÃ©": 3716,
      "Ġlev": 3717,
      "ckÃ¡": 3718,
      "Ġprahu": 3719,
      "Ġjal": 3720,
      "ĠbratÅĻi": 3721,
      "Ġkvetou": 3722,
      "lovÃ©": 3723,
      "stupu": 3724,
      "cenÃ©": 3725,
      "Ġneroz": 3726,
      "ĠpÅ¯va": 3727,
      "tili": 3728,
      "Ġpanen": 3729,
      "ĠpamÃ¡": 3730,
      "Ġskle": 3731,
      "tÃ¡nÃŃ": 3732,
      "lejÅ¡ÃŃ": 3733,
      "Ġjeli": 3734,
      "ĠÅ¡iro": 3735,
      "Ġvlna": 3736,
      "ĠdÅĻÃŃmÃ¡": 3737,
      "Ġitu": 3738,
      "ĠÅ¾ebrÃ¡": 3739,
      "ĠhalÃŃ": 3740,
      "ter": 3741,
      "ĠenÃŃm": 3742,
      "Äįce": 3743,
      "Ġmluvil": 3744,
      "ĠlidskÃ½": 3745,
      "ĠnemÅ¯Å¾e": 3746,
      "ĠvyprÃ¡": 3747,
      "ĠmnohÃ©": 3748,
      "dru": 3749,
      "ĠleÅ¾": 3750,
      "Ġznak": 3751,
      "ĠmlÃ½": 3752,
      "Ġatu": 3753,
      "Ġkom": 3754,
      "ĠdÃŃvky": 3755,
      "Ġebou": 3756,
      "Å¡ko": 3757,
      "ĠmÅĻÃŃ": 3758,
      "nali": 3759,
      "ĠbÃ¡snÃŃk": 3760,
      "Ġsvatou": 3761,
      "ĠzbraÅĪ": 3762,
      "mat": 3763,
      "ĠprosÃŃm": 3764,
      "Ġzat": 3765,
      "Ġjakou": 3766,
      "ĠocÃŃ": 3767,
      "Ġstane": 3768,
      "ĠbÃ½val": 3769,
      "ĠumÄĽnÃŃ": 3770,
      "ĠemnÄĽ": 3771,
      "ĠprovÃ¡": 3772,
      "Ġnajde": 3773,
      "Ġzraku": 3774,
      "ĠalÃ¡": 3775,
      "kÃ¡n": 3776,
      "kry": 3777,
      "sl": 3778,
      "ĠÅĪadrech": 3779,
      "ĠnepÅĻe": 3780,
      "vci": 3781,
      "ÅĻÃŃk": 3782,
      "Ġmatce": 3783,
      "Ġnitru": 3784,
      "Ġyje": 3785,
      "ĠvÄĽz": 3786,
      "Ġrad": 3787,
      "bec": 3788,
      "Ġkouzel": 3789,
      "Ġud": 3790,
      "Ġvyvo": 3791,
      "ĠhrdÄĽ": 3792,
      "ĠelÃ¡": 3793,
      "Ġjitra": 3794,
      "ĠvÃŃra": 3795,
      "ĠrytÃŃÅĻ": 3796,
      "Ġula": 3797,
      "ĠknÄĽÅ¾": 3798,
      "ĠÃ¡vu": 3799,
      "gu": 3800,
      "ĠdÄĽcko": 3801,
      "ĠnemÄĽl": 3802,
      "Ġdot": 3803,
      "ĠveÅ¡": 3804,
      "ĠztrÃ¡cÃŃ": 3805,
      "rÃ¡l": 3806,
      "Ġudy": 3807,
      "ĠplÃ¡po": 3808,
      "Ġunaven": 3809,
      "Ġomy": 3810,
      "ĠitÄĽ": 3811,
      "XXA": 3812,
      "Ġkoho": 3813,
      "ĠpÅĻÃŃsa": 3814,
      "Ġplna": 3815,
      "ĠnÃ¡dher": 3816,
      "vech": 3817,
      "znÃ½": 3818,
      "ĠÄĽvu": 3819,
      "Ġmodra": 3820,
      "ĠradostÃŃ": 3821,
      "ĠdÃ½Å¡e": 3822,
      "ĠkolÃ©": 3823,
      "Ġpouta": 3824,
      "Ġvad": 3825,
      "ĠmÅ¯Å¾": 3826,
      "Ġzhou": 3827,
      "ĠdruÅ¾": 3828,
      "zuje": 3829,
      "ĠÅ¾a": 3830,
      "stat": 3831,
      "Ġvzduchem": 3832,
      "ĠvaÅ¡ÃŃ": 3833,
      "kÅ¯v": 3834,
      "ĠbledÃ½": 3835,
      "ĠhledÄĽl": 3836,
      "ĠÅ¾enou": 3837,
      "Ġneod": 3838,
      "ĠÅ¡t": 3839,
      "ĠpozdÄĽ": 3840,
      "ĠtÄĽÅ¾ko": 3841,
      "vrÃ¡tÃŃ": 3842,
      "Ġnach": 3843,
      "ĠsvÄĽty": 3844,
      "chom": 3845,
      "ĠÅ¾Ã¡dnÃ©": 3846,
      "ĠmlÄįky": 3847,
      "Ġusta": 3848,
      "Ġsladkou": 3849,
      "ĠÃ©sti": 3850,
      "Ġpodzim": 3851,
      "ckni": 3852,
      "ĠbudiÅ¾": 3853,
      "telÃ©": 3854,
      "ĠvÄĽÄįnosti": 3855,
      "ĠsmÄĽje": 3856,
      "Ġklas": 3857,
      "asu": 3858,
      "ovÃ©": 3859,
      "pot": 3860,
      "ĠkaÅ¾dÃ©m": 3861,
      "Ġluny": 3862,
      "Å¡enÃ©": 3863,
      "ĠÄĽtÄĽ": 3864,
      "Ġmimo": 3865,
      "Ġodkud": 3866,
      "ĠupomÃŃ": 3867,
      "ĠrokÅ¯": 3868,
      "Ġmaje": 3869,
      "Ġchvat": 3870,
      "Ġeden": 3871,
      "tlo": 3872,
      "ĠlÃŃbe": 3873,
      "Ġly": 3874,
      "Ġprst": 3875,
      "Äįnost": 3876,
      "voucÃŃ": 3877,
      "ÅĻÃ¡d": 3878,
      "Ġzvuky": 3879,
      "Ġdraho": 3880,
      "Ġnebem": 3881,
      "Ġpozdrav": 3882,
      "Ġchleba": 3883,
      "kly": 3884,
      "Ġstarou": 3885,
      "Ġhluk": 3886,
      "Ġostat": 3887,
      "ĠstÄĽny": 3888,
      "ĠvÃ¡Å¡nÄĽ": 3889,
      "Ġplod": 3890,
      "Ã¡l": 3891,
      "ĠnovÃ½ch": 3892,
      "ĠpohÅĻ": 3893,
      "Ġbudem": 3894,
      "Ġnesmr": 3895,
      "Ġmari": 3896,
      "ene": 3897,
      "stro": 3898,
      "ĠptÃ¡Äįe": 3899,
      "ĠnaÅ¡el": 3900,
      "ĠklÃ¡Å¡te": 3901,
      "ĠdÃŃvÄįÃŃ": 3902,
      "ĠpÄĽknÄĽ": 3903,
      "Ġahu": 3904,
      "Ġstez": 3905,
      "Ġhraje": 3906,
      "BX": 3907,
      "Ġatou": 3908,
      "Ġslovy": 3909,
      "Ġzvony": 3910,
      "ĠsnÄĽhu": 3911,
      "ĠĠĠ": 3912,
      "ĠhrÃ¡l": 3913,
      "ĠÄĽku": 3914,
      "Ġadla": 3915,
      "Ġdosta": 3916,
      "peÅ¾": 3917,
      "Ġjindy": 3918,
      "rav": 3919,
      "ĠtemnÄĽ": 3920,
      "ĠÅ¾ivotem": 3921,
      "tly": 3922,
      "vek": 3923,
      "Ġaha": 3924,
      "Ġzdr": 3925,
      "ĠsbÃŃ": 3926,
      "Ġzar": 3927,
      "Ġlidi": 3928,
      "ĠpoÅ¾Ã¡": 3929,
      "Ġopat": 3930,
      "ĠtmavÃ©": 3931,
      "ĠjÃŃti": 3932,
      "ĠplÃ¡Äįi": 3933,
      "Ġdobu": 3934,
      "Ġhorou": 3935,
      "Ġhroby": 3936,
      "Ġemu": 3937,
      "ĠmocnÄĽ": 3938,
      "XABB": 3939,
      "ĠbohÅ¯": 3940,
      "Ġivou": 3941,
      "ĠdÃ¡ti": 3942,
      "ĠbolÃŃ": 3943,
      "ĠvÃŃna": 3944,
      "Ġece": 3945,
      "ĠtajemstvÃŃ": 3946,
      "Ġesu": 3947,
      "nkem": 3948,
      "Ġbod": 3949,
      "ĠmocÃŃ": 3950,
      "bila": 3951,
      "Ġozdo": 3952,
      "Ġber": 3953,
      "ĠnÃ©": 3954,
      "ĠhnÃ¡": 3955,
      "ĠjinÃŃ": 3956,
      "?...": 3957,
      "Ġjan": 3958,
      "ĠzÃ¡vra": 3959,
      "Ġlodi": 3960,
      "Ġzkve": 3961,
      "ĠcitÅ¯": 3962,
      "ĠneÅ¡Å¥ast": 3963,
      "Ġjazyk": 3964,
      "ĠÃ½m": 3965,
      "ĠubÃŃ": 3966,
      "ĠposmÄĽ": 3967,
      "ĠlÅ¯Å¾": 3968,
      "ĠnÄĽkde": 3969,
      "ĠchÃ½lÃŃ": 3970,
      "mÃŃr": 3971,
      "ĠspÃ¡t": 3972,
      "Ġhym": 3973,
      "ĠvzÃŃ": 3974,
      "Ġjat": 3975,
      "blÃŃ": 3976,
      "Ġmatku": 3977,
      "ĠprÃ¡vo": 3978,
      "Ġpoznal": 3979,
      "Ġpromlu": 3980,
      "ĠsÃŃÅĪ": 3981,
      "ot": 3982,
      "Ġspraved": 3983,
      "ĠkoneÄįnÄĽ": 3984,
      "ĠveÄįera": 3985,
      "ĠeÄįe": 3986,
      "Ġkos": 3987,
      "ĠsmrtÃŃ": 3988,
      "dnÃ½m": 3989,
      "stej": 3990,
      "Ġfran": 3991,
      "livÃ©": 3992,
      "ĠzpÃŃval": 3993,
      "ĠvelikÃ½": 3994,
      "Ġkade": 3995,
      "Ġbarev": 3996,
      "Å¡a": 3997,
      "ĠÃ¡se": 3998,
      "Ġeta": 3999,
      "ĠplÃ¡Å¡Å¥": 4000,
      "Ġzal": 4001,
      "ĠsvÄĽtÅ¯": 4002,
      "ĠdÄĽji": 4003,
      "nuly": 4004,
      "Ġholubi": 4005,
      "ĠpÃŃt": 4006,
      "Ġvelmi": 4007,
      "ĠpravÃ½": 4008,
      "ĠrÃ½": 4009,
      "ĠnÄĽÅ¾": 4010,
      "ĠkÅĻÃŃÅ¾e": 4011,
      "Ġvznes": 4012,
      "nese": 4013,
      "ĠpÅĻÃ¡nÃŃ": 4014,
      "tud": 4015,
      "ĠvÄĽtru": 4016,
      "ilÃŃ": 4017,
      "Ġskoro": 4018,
      "Ġkristu": 4019,
      "ĠhorÃ¡ch": 4020,
      "Ġunce": 4021,
      "Ġukry": 4022,
      "Ġnemoc": 4023,
      "Ġmate": 4024,
      "ĠsplÃ½vÃ¡": 4025,
      "bla": 4026,
      "Ġneho": 4027,
      "ĠÄįnÃŃ": 4028,
      "Ġpri": 4029,
      "ĠynÃŃ": 4030,
      "ÄįkÃ½": 4031,
      "ĠnechÃ¡": 4032,
      "ĠzapomnÄĽ": 4033,
      "ĠtvÅ¯": 4034,
      "ĠÃ¡Å¾ÃŃ": 4035,
      "ĠpÅĻipra": 4036,
      "pila": 4037,
      "Ġelem": 4038,
      "ÅĻenÃ½": 4039,
      "Ġnoha": 4040,
      "Ġmili": 4041,
      "Ġvichr": 4042,
      "Ġvzru": 4043,
      "Ġzapomen": 4044,
      "ĠmeÄįem": 4045,
      "lec": 4046,
      "ĠicÃŃ": 4047,
      "Ġmrou": 4048,
      "ĠdivÃ½": 4049,
      "Ġuhy": 4050,
      "ĠplÃ¡l": 4051,
      "sle": 4052,
      "Ġdlu": 4053,
      "nÄĽnÃŃ": 4054,
      "ĠstaÄįÃŃ": 4055,
      "Ġnecha": 4056,
      "Ġebi": 4057,
      "ĠvÄĽÅ¾e": 4058,
      "ĠilÃ©": 4059,
      "slav": 4060,
      "ĠpÅĻÃŃval": 4061,
      "ĠÅ¡pat": 4062,
      "ĠsmÄĽs": 4063,
      "ĠdivnÃ©": 4064,
      "ĠnÃ¡ruÄįÃŃ": 4065,
      "Ġnejvy": 4066,
      "ĠrudÃ½": 4067,
      "ĠmÃ©mu": 4068,
      "Ġchod": 4069,
      "Ġoc": 4070,
      "Ġhlav": 4071,
      "ĠslavnÃ½": 4072,
      "Äįte": 4073,
      "Ġzima": 4074,
      "ĠusmÃ¡": 4075,
      "ĠkaÅ¾dÃ½m": 4076,
      "kva": 4077,
      "kaly": 4078,
      "ĠhrÅ¯zy": 4079,
      "Ġbrou": 4080,
      "Ġazu": 4081,
      "Ġpovo": 4082,
      "viti": 4083,
      "Ġpust": 4084,
      "ĠvÅ¡ickni": 4085,
      "ĠpÃ¡lÃŃ": 4086,
      "hÃ¡ch": 4087,
      "kovi": 4088,
      "Ġkdybych": 4089,
      "ĠptaÄįÃŃ": 4090,
      "jdu": 4091,
      "ĠvÅ¡ady": 4092,
      "pÃ©": 4093,
      "ĠanÃ¡": 4094,
      "Ġvykou": 4095,
      "Ġpano": 4096,
      "Ġplnou": 4097,
      "Ġara": 4098,
      "ĠvidÃŃÅ¡": 4099,
      "Ġnesmrtel": 4100,
      "ÄįkÅ¯": 4101,
      "ÄįÅ¯": 4102,
      "Ġplen": 4103,
      "ĠvojÃ¡": 4104,
      "ĠstÃŃnÅ¯": 4105,
      "ĠvÄĽn": 4106,
      "cenÃ½": 4107,
      "Ġzkou": 4108,
      "koj": 4109,
      "ĠnosÃŃ": 4110,
      "Ġpadne": 4111,
      "ĠtmÄĽ": 4112,
      "zÃ½": 4113,
      "pce": 4114,
      "ĠmeÄįe": 4115,
      "Ġlesem": 4116,
      "ĠÅ¡pi": 4117,
      "Ġstranou": 4118,
      "ga": 4119,
      "ĠvÄĽtvÃŃ": 4120,
      "ĠhrÃ¡t": 4121,
      "ĠslzÃŃ": 4122,
      "ĠslavnÄĽ": 4123,
      "Ġdavy": 4124,
      "ĠschvÃ¡": 4125,
      "ĠtÃŃÅ¾ÃŃ": 4126,
      "ĠnÄĽmÃ½": 4127,
      "ĠÃ¡ji": 4128,
      "ĠÄĽvy": 4129,
      "ĠupÃŃ": 4130,
      "ĠÃŃseÅĪ": 4131,
      "ĠdÄĽc": 4132,
      "ĠrodÃŃ": 4133,
      "tÅĻ": 4134,
      "Ġjitro": 4135,
      "Ġdceru": 4136,
      "snÄĽjÅ¡ÃŃ": 4137,
      "ĠzÅ¯stal": 4138,
      "ĠtrÅ¯n": 4139,
      "ĠmladÃŃ": 4140,
      "ĠÅĻeka": 4141,
      "ĠosamÄĽ": 4142,
      "Ġpropast": 4143,
      "ĠobÄĽÅ¥": 4144,
      "Ġhmo": 4145,
      "Ġkrvi": 4146,
      "bro": 4147,
      "Ġdok": 4148,
      "ĠozvÄĽ": 4149,
      "Ġpoklad": 4150,
      "chod": 4151,
      "ĠzkÃ¡": 4152,
      "ĠABA": 4153,
      "zpe": 4154,
      "Ġplou": 4155,
      "ĠejÅ¡ÃŃ": 4156,
      "covÃ©": 4157,
      "ena": 4158,
      "ĠstÅ¯j": 4159,
      "Ġmusil": 4160,
      "ĠazÃŃ": 4161,
      "ĠdnÃŃ": 4162,
      "ĠlidskÃ½ch": 4163,
      "Ġuji": 4164,
      "ĠXAXABB": 4165,
      "Ġprudce": 4166,
      "Å¾et": 4167,
      "Ġnejsem": 4168,
      "ĠvÄĽnec": 4169,
      "ĠÅĪÃ¡": 4170,
      "Ġdruhdy": 4171,
      "ĠÃŃÅĻÃŃ": 4172,
      "lÃ©tÃ¡": 4173,
      "ĠspÄĽch": 4174,
      "osti": 4175,
      "Ġucho": 4176,
      "Ġosi": 4177,
      "Ġtvoji": 4178,
      "ĠÄĽk": 4179,
      "Ġbit": 4180,
      "ĠdlanÃŃ": 4181,
      "Ġmramo": 4182,
      "Ġkryje": 4183,
      "ĠnepÅĻÃ¡tel": 4184,
      "Ġspu": 4185,
      "ĠÅĻetÄĽ": 4186,
      "ĠposlÃ©z": 4187,
      "Ġochu": 4188,
      "rajÃŃ": 4189,
      "ĠÃŃsnÃŃ": 4190,
      "Ġvine": 4191,
      "nilo": 4192,
      "ĠtajÃŃ": 4193,
      "Ġulo": 4194,
      "snou": 4195,
      "ĠudÃ©": 4196,
      "lÃ¡ch": 4197,
      "ge": 4198,
      "vÅ¡e": 4199,
      "Ġproudy": 4200,
      "Ġca": 4201,
      "ĠtvoÅĻÃŃ": 4202,
      "ĠpodÃŃ": 4203,
      "Ġhlubin": 4204,
      "ĠeÄįi": 4205,
      "Ġzacho": 4206,
      "ÅĻad": 4207,
      "ĠmÄĽstÄĽ": 4208,
      "ĠslavnÃ©": 4209,
      "Ġkouzlo": 4210,
      "Å¡ak": 4211,
      "ĠvÅ¯dce": 4212,
      "ĠrÅ¯z": 4213,
      "Ġvzdych": 4214,
      "Ġnapl": 4215,
      "Ġlisty": 4216,
      "Ġprapor": 4217,
      "ĠitÃ¡": 4218,
      "ĠAXXA": 4219,
      "ĠblÃŃzko": 4220,
      "ĠÄįase": 4221,
      "ĠjÃ¡so": 4222,
      "Ġlaho": 4223,
      "ĠoÄįima": 4224,
      "ĠÃºdolÃŃ": 4225,
      "Ġdlouhou": 4226,
      "ĠduchÅ¯": 4227,
      "ĠkvÃ©": 4228,
      "dro": 4229,
      "Ġvane": 4230,
      "Ġpora": 4231,
      "Ġlok": 4232,
      "ĠvrÃ¡til": 4233,
      "cu": 4234,
      "Ġlen": 4235,
      "ĠvlasÅ¯": 4236,
      "Ġoknem": 4237,
      "Å¡enÃ½": 4238,
      "ĠdlouhÃ¡": 4239,
      "Ġzmizel": 4240,
      "skal": 4241,
      "sÃ½": 4242,
      "ĠtuÅ¡ÃŃ": 4243,
      "Ġatem": 4244,
      "ĠinÃ½": 4245,
      "asa": 4246,
      "ĠÄįervÃ¡n": 4247,
      "ĠÅĻÃŃtÃŃ": 4248,
      "ĠskÃ¡la": 4249,
      "vosti": 4250,
      "Ġpouti": 4251,
      "Ġ20": 4252,
      "ĠvznÄĽ": 4253,
      "ĠchladnÃ©": 4254,
      "ĠdlanÄĽ": 4255,
      "Ġtkli": 4256,
      "Ġeba": 4257,
      "Å¡o": 4258,
      "ĠÅ¾es": 4259,
      "ĠokÃ©": 4260,
      "ĠprÃ¡va": 4261,
      "ĠtemnÃ½": 4262,
      "die": 4263,
      "ĠzpÄĽvu": 4264,
      "ĠdÃ©Å¡Å¥": 4265,
      "ĠprostÅĻed": 4266,
      "Ġprokle": 4267,
      "Ġodil": 4268,
      "Ġyly": 4269,
      "ĠmÅ¾i": 4270,
      "cuje": 4271,
      "vede": 4272,
      "sila": 4273,
      "ĠatÅĻÃŃ": 4274,
      "Ġakem": 4275,
      "Ġvzlet": 4276,
      "ĠvÃŃtÄĽzstvÃŃ": 4277,
      "Ġhon": 4278,
      "ĠkrÃ¡Äįel": 4279,
      "ĠhnÄĽvu": 4280,
      "ĠÄįemu": 4281,
      "ĠsamÃ©": 4282,
      "skla": 4283,
      "vanÃ½": 4284,
      "ĠÄįistÃ½": 4285,
      "ĠvelkÃ½ch": 4286,
      "ĠmotÃ½l": 4287,
      "ĠatÄĽ": 4288,
      "enÄĽ": 4289,
      "Ġvtip": 4290,
      "Ġesti": 4291,
      "ĠjÃ¡sa": 4292,
      "ĠsprÃ¡": 4293,
      "letÄĽ": 4294,
      "ost": 4295,
      "Ġadou": 4296,
      "Ġovem": 4297,
      "zÃŃch": 4298,
      "Ġvou": 4299,
      "dni": 4300,
      "ĠavÅ¡ak": 4301,
      "Ġstolu": 4302,
      "Ã¡n": 4303,
      "ĠdÃŃval": 4304,
      "Ġnebezpe": 4305,
      "Å¡le": 4306,
      "ĠÃ¡hy": 4307,
      "ĠnadÄĽj": 4308,
      "ĠtrÃ¡vÄĽ": 4309,
      "zÃ¡ch": 4310,
      "pky": 4311,
      "ĠchudÃ©": 4312,
      "Ġtehdy": 4313,
      "ĠikÃ¡": 4314,
      "Ġbral": 4315,
      "Ġzbled": 4316,
      "Ġvzly": 4317,
      "Ġvzte": 4318,
      "rÃ©ho": 4319,
      "ÅĪat": 4320,
      "ĠmyÅ¡lenky": 4321,
      "dovÃ©": 4322,
      "ĠutÄĽ": 4323,
      "Ġkolik": 4324,
      "ĠÄįasÅ¯": 4325,
      "ĠdrÅ¾ÃŃ": 4326,
      "ĠpalÃ¡": 4327,
      "ĠjinÃ¡": 4328,
      "Ġkout": 4329,
      "ĠkÅĻÃŃdel": 4330,
      "ĠiÄįka": 4331,
      "Ġest": 4332,
      "Ġfan": 4333,
      "Ġzdvih": 4334,
      "Ġsnes": 4335,
      "ĠnadÄĽjÃŃ": 4336,
      "ĠdeÅ¡tÄĽ": 4337,
      "vÅ¯r": 4338,
      "ĠbdÃŃ": 4339,
      "ĠÃŃna": 4340,
      "ĠstraÅ¡": 4341,
      "Ġora": 4342,
      "ĠstÅ¯l": 4343,
      "ĠÃŃcÃŃch": 4344,
      "Ġtri": 4345,
      "ĠznÃ¡Å¡": 4346,
      "ony": 4347,
      "lÃ¡k": 4348,
      "ĠvelkÃ½m": 4349,
      "Å¾ili": 4350,
      "ĠaÅĻÃŃ": 4351,
      "Ġsve": 4352,
      "Ġzaho": 4353,
      "ĠÅ¡edÃ©": 4354,
      "ĠkÅ¯ÅĪ": 4355,
      "chÃ¡ch": 4356,
      "ĠzdrÃ¡v": 4357,
      "Ġstopy": 4358,
      "ĠbratÅĻe": 4359,
      "Ġvyr": 4360,
      "Ġtaky": 4361,
      "Ġnaho": 4362,
      "ĠvzrÅ¯": 4363,
      "ĠÅ¡eru": 4364,
      "Ġhed": 4365,
      "ĠznamenÃŃ": 4366,
      "ĠchovÃ¡": 4367,
      "ĠtÃ¡hnou": 4368,
      "ĠpÄĽl": 4369,
      "Ġtrest": 4370,
      "ĠspÃ¡nku": 4371,
      "nnÃ©": 4372,
      "dova": 4373,
      "Ġlho": 4374,
      "rnÃ½m": 4375,
      "Ġejte": 4376,
      "Ġhbi": 4377,
      "ĠÄĽtla": 4378,
      "ĠpravÃ©": 4379,
      "ĠjemnÄĽ": 4380,
      "ĠdveÅĻÃŃ": 4381,
      "Ġalu": 4382,
      "Ġhledal": 4383,
      "ĠvroucnÄĽ": 4384,
      "ĠtÄĽchto": 4385,
      "fa": 4386,
      "Ġoma": 4387,
      "Ġhoto": 4388,
      "Ġmohla": 4389,
      "Ġkvete": 4390,
      "Ġrti": 4391,
      "ĠvÄĽÄįnÃ¡": 4392,
      "Ġechem": 4393,
      "Ġprv": 4394,
      "ĠbÃŃdy": 4395,
      "ĠdÃ½chÃ¡": 4396,
      "ÄįkÃ¡ch": 4397,
      "mech": 4398,
      "Ġznaven": 4399,
      "kÅĻÃŃ": 4400,
      "Ġtouze": 4401,
      "ĠdivnÃ½": 4402,
      "Ġpekel": 4403,
      "Ġlaska": 4404,
      "ĠÅ¾hou": 4405,
      "nily": 4406,
      "ĠvÃ¡Å¡ni": 4407,
      "Ġbru": 4408,
      "Ġztr": 4409,
      "tli": 4410,
      "ĠhÅ¯": 4411,
      "ĠjeÅ¥": 4412,
      "Ġvyje": 4413,
      "ĠusmÃŃvÃ¡": 4414,
      "ĠpÅĻelu": 4415,
      "ĠÅ¾Ã¡dÃ¡": 4416,
      "Ġpomoci": 4417,
      "Ġzahy": 4418,
      "pÃŃnÃ¡": 4419,
      "ĠupÅĻÃŃm": 4420,
      "ĠzÃ¡voj": 4421,
      "ĠpÃ½": 4422,
      "Ġnesta": 4423,
      "ĠÅ¾as": 4424,
      "lÃŃk": 4425,
      "Ġytu": 4426,
      "rÃ½vÃ¡": 4427,
      "ĠnuÅ¾e": 4428,
      "ĠkrÃ¡sou": 4429,
      "nej": 4430,
      "ĠrozechvÄĽ": 4431,
      "ĠzÃ¡ha": 4432,
      "ĠtÄĽlem": 4433,
      "ĠÃ¡sÃ¡": 4434,
      "ĠtÄĽÅ¾kÃ¡": 4435,
      "tÅ¯m": 4436,
      "ĠÅĻÃ¡d": 4437,
      "ĠĠĊ": 4438,
      "ĠÃŃra": 4439,
      "ĠÃ½val": 4440,
      "Ġvelko": 4441,
      "jak": 4442,
      "Ġpadla": 4443,
      "Ġkrajem": 4444,
      "ĠstÃ¡ti": 4445,
      "Ġedla": 4446,
      "ĠsedÄĽl": 4447,
      "ĠmocnÃ½": 4448,
      "ĠvaÅ¡ich": 4449,
      "ĠvÄĽku": 4450,
      "ĠvÄĽtrem": 4451,
      "ĠvÄĽrnÄĽ": 4452,
      "Ġkola": 4453,
      "ĠtÄĽÅ¡ÃŃ": 4454,
      "ĠsvÃŃrÃ¡": 4455,
      "ĠvÃ¡Å¾nÄĽ": 4456,
      "ĠÃŃlÃ©": 4457,
      "ĠÃŃdÃ¡": 4458,
      "rpu": 4459,
      "ĠbÃŃda": 4460,
      "Ġplanou": 4461,
      "ĠplÃŃ": 4462,
      "Ġzdroj": 4463,
      "ĠsvÄĽtel": 4464,
      "dÃ½m": 4465,
      "set": 4466,
      "Ġjesti": 4467,
      "ĠnejkrÃ¡": 4468,
      "ĠbÄĽh": 4469,
      "lej": 4470,
      "ĠiÄįku": 4471,
      "ĠpÅĻiÅ¡li": 4472,
      "Ġkrista": 4473,
      "ĠÃ©tÃ¡": 4474,
      "Ġheb": 4475,
      "ĠjednÃŃm": 4476,
      "ĠvÄĽtve": 4477,
      "Ġduchem": 4478,
      "rovna": 4479,
      "Ġah": 4480,
      "ĠsvÄĽdomÃŃ": 4481,
      "ĠstaÅĻec": 4482,
      "lk": 4483,
      "Ġshas": 4484,
      "Ġuch": 4485,
      "Ġdrahou": 4486,
      "lÃ¡nÃŃ": 4487,
      "Ġobrov": 4488,
      "Ġslast": 4489,
      "Ġumu": 4490,
      "ĠhÃ¡je": 4491,
      "ĠtrÅ¯nu": 4492,
      "Ġklade": 4493,
      "Ġodva": 4494,
      "ĠtÅĻpyt": 4495,
      "ĠjinÃ½m": 4496,
      "ĠÃ¡ru": 4497,
      "Å¾ela": 4498,
      "Ġbran": 4499,
      "ĠdnÄĽ": 4500,
      "Ġecko": 4501,
      "ĠvznÃ¡Å¡ÃŃ": 4502,
      "ĠchÅ¯": 4503,
      "Ġvil": 4504,
      "Ġaze": 4505,
      "Ġdnech": 4506,
      "ĠstÅĻedu": 4507,
      "ĠXXAABB": 4508,
      "vici": 4509,
      "ĠlidskÃ¡": 4510,
      "ĠpotÅĻe": 4511,
      "ĠrodnÃ©": 4512,
      "vcÅ¯": 4513,
      "ĠÃŃdla": 4514,
      "ĠvÃ½kÅĻik": 4515,
      "Ġeji": 4516,
      "vnÃ©": 4517,
      "Ġista": 4518,
      "ÅĪo": 4519,
      "ĠtrÃ½": 4520,
      "ĠÃŃjÃŃ": 4521,
      "ĠskrÃ½vÃ¡": 4522,
      "ĠahÃ½": 4523,
      "Ġstromu": 4524,
      "rej": 4525,
      "Ġmilou": 4526,
      "ĠbrÃ¡ny": 4527,
      "Ġpsal": 4528,
      "ĠzamyÅ¡": 4529,
      "ĠÅ¾alÃ¡": 4530,
      "Ġvyko": 4531,
      "pek": 4532,
      "ĠvstÃ¡vÃ¡": 4533,
      "Å¡eÅĪ": 4534,
      "ĠodpovÃŃ": 4535,
      "nd": 4536,
      "ĠtÅĻÃ¡s": 4537,
      "ĠmoÅĻem": 4538,
      "ĠAAXB": 4539,
      "Äįili": 4540,
      "ĠÃ¡ska": 4541,
      "Ġrosa": 4542,
      "ĠstÅĻÃŃbro": 4543,
      "ĠprÃ¡h": 4544,
      "ĠzdaÅ¾": 4545,
      "lce": 4546,
      "Ã¡me": 4547,
      "ĠloÅ¾i": 4548,
      "ĠmrtvÃ½": 4549,
      "Ġosy": 4550,
      "ĠsvÅ¯": 4551,
      "ĠdivÃ©": 4552,
      "Ġlabu": 4553,
      "Ġsmutno": 4554,
      "ĠkvÃŃlÃŃ": 4555,
      "Ġbolem": 4556,
      "ĠÅĻÃŃÅ¡i": 4557,
      "Ġzdro": 4558,
      "Ġilou": 4559,
      "ĠodmÄĽ": 4560,
      "Ġtlum": 4561,
      "ĠnejvÃŃc": 4562,
      "Ġner": 4563,
      "Ġmuk": 4564,
      "Ġdneska": 4565,
      "ĠdÃ¡vnÃ½ch": 4566,
      "jdou": 4567,
      "Ġhnal": 4568,
      "nÃŃkÅ¯": 4569,
      "ĠesÃ¡": 4570,
      "Ġluk": 4571,
      "ĠmlÃ¡d": 4572,
      "ckou": 4573,
      "Ġeb": 4574,
      "Ġspokojen": 4575,
      "lÃŃch": 4576,
      "ĠdivÃ¡": 4577,
      "ĠenstvÃŃ": 4578,
      "ĠzÅĻÃŃÅ¡": 4579,
      "ĠkÃ½vÃ¡": 4580,
      "ĠzÃ¡kon": 4581,
      "Ġtyto": 4582,
      "Å¡u": 4583,
      "ĠodvÃ¡": 4584,
      "ĠÃºz": 4585,
      "lenou": 4586,
      "ĠvichÅĻi": 4587,
      "ĠÄįar": 4588,
      "ĠÅ¯ru": 4589,
      "Ġhi": 4590,
      "krÃ¡te": 4591,
      "Ġjel": 4592,
      "ĠmÅ¾ik": 4593,
      "ÅĻili": 4594,
      "dÄĽti": 4595,
      "vic": 4596,
      "Ġuchem": 4597,
      "ĠhÃ¡zÃŃ": 4598,
      "Ġapo": 4599,
      "ĠnejkrÃ¡snÄĽjÅ¡ÃŃ": 4600,
      "ĠkÅĻo": 4601,
      "Ġobe": 4602,
      "ĠtuÅ¾": 4603,
      "Ġovou": 4604,
      "Ġher": 4605,
      "ĠiÄįÃŃ": 4606,
      "vÄĽl": 4607,
      "ĠctÃŃ": 4608,
      "Ġvolal": 4609,
      "ĠsmutnÃ¡": 4610,
      "ĠnejvyÅ¡Å¡ÃŃ": 4611,
      "ĠakÅ¯": 4612,
      "Ġivy": 4613,
      "ĠmÃ¡ti": 4614,
      "ĠpÃ¡nu": 4615,
      "Ġucha": 4616,
      "Ġradu": 4617,
      "ĠÅ¾ivÃ©": 4618,
      "pÃŃm": 4619,
      "ĠkrÃ¡snou": 4620,
      "Ġzor": 4621,
      "Ġule": 4622,
      "ĠpracÃŃ": 4623,
      "ĠsvÄĽtlem": 4624,
      "Ġpolib": 4625,
      "Ġvrch": 4626,
      "ĠdvÃ©ÅĻe": 4627,
      "tan": 4628,
      "ĠkterÃ½m": 4629,
      "ĠbolestÃŃ": 4630,
      "ĠonÃ©": 4631,
      "ĠbÃŃdu": 4632,
      "ĠhrÅ¯za": 4633,
      "Ġperly": 4634,
      "ĠynÄĽ": 4635,
      "bar": 4636,
      "ĠÃ¡ry": 4637,
      "Ġpurpu": 4638,
      "ĠbÃ¡je": 4639,
      "ĠlÃ©pe": 4640,
      "Ġesku": 4641,
      "ĠjÃ¡sÃ¡": 4642,
      "moc": 4643,
      "ĠzdÃ¡l": 4644,
      "ĠchvÄĽla": 4645,
      "ĠÅĻady": 4646,
      "ĠÄįernou": 4647,
      "Äįela": 4648,
      "ĠpÃ¡s": 4649,
      "jit": 4650,
      "Ġhvozd": 4651,
      "ĠÅ¡pe": 4652,
      "Ġzlost": 4653,
      "Ġdom": 4654,
      "ĠÄĽnÃ©": 4655,
      "loudil": 4656,
      "ĠvelikÃ©": 4657,
      "Ġplyne": 4658,
      "Ġestu": 4659,
      "Ġrosy": 4660,
      "ĠkÃ¡Å¾e": 4661,
      "Å¾nÃ½ch": 4662,
      "ĠobÄĽt": 4663,
      "Ġdavu": 4664,
      "ĠchladnÃ½": 4665,
      "ĠokamÅ¾ik": 4666,
      "ĠsedÃ¡": 4667,
      "ĠÄĽru": 4668,
      "ĠdÄĽlÃ¡": 4669,
      "ĠstÃ¡ÅĻÃŃ": 4670,
      "ĠnechtÄĽ": 4671,
      "ĠÃºto": 4672,
      "ĠaÅ¾ÃŃ": 4673,
      "ĠoÄį": 4674,
      "ĠcÃŃle": 4675,
      "ĠÄįarov": 4676,
      "Ġaru": 4677,
      "rozen": 4678,
      "ĠyÅ¡ÃŃ": 4679,
      "ĠmladÃ½ch": 4680,
      "ĠpÄĽst": 4681,
      "ĠÅ¾elez": 4682,
      "ĠplnÃ¡": 4683,
      "ĠstoupÃ¡": 4684,
      "ÄįenÃ©": 4685,
      "ĠijÃŃ": 4686,
      "ĠÃŃlÃ¡": 4687,
      "ĠÅ¡kle": 4688,
      "Ġvrat": 4689,
      "Ġopil": 4690,
      "nuv": 4691,
      "Ġmladi": 4692,
      "Ġjede": 4693,
      "ĠÃŃkem": 4694,
      "ĠtatÃŃ": 4695,
      "ĠskÃ¡le": 4696,
      "rad": 4697,
      "ĠpÅĻÃŃrody": 4698,
      "ĠnazpÄĽt": 4699,
      "ĠetÃ¡": 4700,
      "ĠvÄĽÅ¾ÃŃ": 4701,
      "Ġvry": 4702,
      "ĠoÅ¾il": 4703,
      "Ġpekla": 4704,
      "ĠmÃŃstÄĽ": 4705,
      "ĠchudÃ¡": 4706,
      "ĠmanÄĽ": 4707,
      "Ġjez": 4708,
      "vak": 4709,
      "tily": 4710,
      "stek": 4711,
      "pec": 4712,
      "ĠjdeÅ¡": 4713,
      "Ġkarel": 4714,
      "vla": 4715,
      "ĠdÃŃky": 4716,
      "ol": 4717,
      "ĠuvÃŃ": 4718,
      "Ġslzou": 4719,
      "Ġumy": 4720,
      "ĠchvÄĽjÃŃ": 4721,
      "ĠdvÅ¯r": 4722,
      "ĠÅ¾itÃŃm": 4723,
      "Ġprsty": 4724,
      "ĠvlÃ¡dne": 4725,
      "Ġmluvit": 4726,
      "Ġnitro": 4727,
      "ĠradÄĽj": 4728,
      "vnÃŃk": 4729,
      "ĠplnÃŃ": 4730,
      "Ġdy": 4731,
      "Ġpusti": 4732,
      "Ġpoesie": 4733,
      "Ġzmize": 4734,
      "tali": 4735,
      "Ġpanna": 4736,
      "tÃ©m": 4737,
      "ĠÃŃral": 4738,
      "Å¾eb": 4739,
      "ĠrÃ¡ji": 4740,
      "ĠÄįÃŃÅ¡e": 4741,
      "Ġkosti": 4742,
      "ĠpotÃ¡": 4743,
      "Ġrodu": 4744,
      "ĠÃ¡til": 4745,
      "Ġdumy": 4746,
      "ĠplÃ¡t": 4747,
      "ĠzpÄĽvy": 4748,
      "ĠÃºc": 4749,
      "ĠdennÃŃ": 4750,
      "Ġklobou": 4751,
      "ĠstÃ¡li": 4752,
      "ĠmarnÃ©": 4753,
      "ĠprÃ¡zdno": 4754,
      "ĠzlÃ½ch": 4755,
      "ĠÄĽky": 4756,
      "Ġtur": 4757,
      "ĠjedinÃ¡": 4758,
      "Ġdcera": 4759,
      "ĠenÃ½m": 4760,
      "ĠÃ¡Å¡ÃŃ": 4761,
      "ĠÄįeho": 4762,
      "ĠjejÃŃch": 4763,
      "ĠopÃ¡": 4764,
      "ĠivÃŃ": 4765,
      "ĠÃŃtil": 4766,
      "ĠmoÅĻ": 4767,
      "Ġzlou": 4768,
      "ĠletÄĽ": 4769,
      "ĠÄįekal": 4770,
      "Ġopoj": 4771,
      "ĠÄįinÃŃ": 4772,
      "ÅĻenÃ¡": 4773,
      "ĠinÃ¡ch": 4774,
      "Ġmiloval": 4775,
      "Ġmistr": 4776,
      "Ġpokry": 4777,
      "ĠvnitÅĻ": 4778,
      "ĠhnÃŃzdo": 4779,
      "ĠklÃŃnu": 4780,
      "ĠtrÃ¡vy": 4781,
      "ĠpÅ¯jde": 4782,
      "Ġodtud": 4783,
      "Ġnejsou": 4784,
      "Ġpozor": 4785,
      "ĠmnohÃ¡": 4786,
      "ĠÅ¾havÃ©": 4787,
      "Ġex": 4788,
      "ĠÃºdy": 4789,
      "Ġpomalu": 4790,
      "ĠÃºÅ¾as": 4791,
      "ĠpoÅ¾ehnÃ¡nÃŃ": 4792,
      "dilo": 4793,
      "ĠÄĽchu": 4794,
      "ĠhonÃŃ": 4795,
      "vol": 4796,
      "Ġopi": 4797,
      "Ġgra": 4798,
      "Ġnemoh": 4799,
      "kami": 4800,
      "Ġrostou": 4801,
      "Ġnemlu": 4802,
      "tce": 4803,
      "ĠprchÃ¡": 4804,
      "Ġmluv": 4805,
      "ÅĻÃŃÅ¡": 4806,
      "ĠÄįistÃ¡": 4807,
      "ĠsÃ½": 4808,
      "ĠdÃ¡n": 4809,
      "Ġskali": 4810,
      "Ġuza": 4811,
      "ĠoÅ¾": 4812,
      "Ġpop": 4813,
      "nili": 4814,
      "ĠvÄĽnce": 4815,
      "Ġclo": 4816,
      "ĠÅ¡Å¥asten": 4817,
      "vor": 4818,
      "ĠÅ¾enÄĽ": 4819,
      "Ġrozpu": 4820,
      "Ġiky": 4821,
      "Ġzdar": 4822,
      "nkÃ©": 4823,
      "ĠÃ¡Äįi": 4824,
      "hala": 4825,
      "ĠÃŃÅĻe": 4826,
      "Ġletem": 4827,
      "ĠÅ¾er": 4828,
      "ĠÅ¡koda": 4829,
      "hro": 4830,
      "ĠvÅ¡udy": 4831,
      "ĠÅ¾havÃ½": 4832,
      "Ġstruny": 4833,
      "ĠpÅĻÃŃmo": 4834,
      "ĠpÃ¡nem": 4835,
      "Ġnutno": 4836,
      "Äįnosti": 4837,
      "ĠmuÅ¾Å¯": 4838,
      "ĠnesmÄĽ": 4839,
      "ĠptÃ¡kÅ¯": 4840,
      "ĠzÃ¡padu": 4841,
      "Ġpeklo": 4842,
      "ĠskrÃ¡nÃŃ": 4843,
      "ĠskrÃ¡nÄĽ": 4844,
      "Ġmnich": 4845,
      "ĠinÃ©": 4846,
      "Ġobo": 4847,
      "ĠzeÄı": 4848,
      "ĠmrakÅ¯": 4849,
      "ĠÃ¡sku": 4850,
      "ĠÅĻada": 4851,
      "Ġtopo": 4852,
      "tlÃ©": 4853,
      "rovÃ©": 4854,
      "ĠistÃŃ": 4855,
      "ĠkrÃ¡tkÃ½": 4856,
      "Ġzavo": 4857,
      "ĠvÃŃtÃ¡": 4858,
      "ĠrÃ¡mÄĽ": 4859,
      "Ġyli": 4860,
      "Ġvem": 4861,
      "ĠnÄĽko": 4862,
      "ĠrozkoÅ¡e": 4863,
      "cÃŃho": 4864,
      "Ġlhostej": 4865,
      "dec": 4866,
      "Ġmyslil": 4867,
      "ĠkonÃŃ": 4868,
      "ÄįnÃ©m": 4869,
      "Ġstanul": 4870,
      "Ġdomov": 4871,
      "ĠprosÃŃ": 4872,
      "ĠpamÄĽti": 4873,
      "Ġtoto": 4874,
      "armo": 4875,
      "ĠhrozÃŃ": 4876,
      "ĠXXXA": 4877,
      "Ġzmar": 4878,
      "jÃŃcÃŃm": 4879,
      "tvÃ¡": 4880,
      "kov": 4881,
      "ĠrÃ½m": 4882,
      "Ġkruhu": 4883,
      "kr": 4884,
      "ĠprostÃ©": 4885,
      "Ġsvobody": 4886,
      "ĠokamÅ¾i": 4887,
      "gra": 4888,
      "ĠÄįelem": 4889,
      "Ġzvyk": 4890,
      "ĠsvÄĽd": 4891,
      "ĠdlouhÃ½ch": 4892,
      "ĠplÃ¡Äįem": 4893,
      "ĠpÅĻÃŃteli": 4894,
      "ĠzvonÅ¯": 4895,
      "ĠvÄĽÅ¾": 4896,
      "ĠoudÃŃ": 4897,
      "ĠplÃ¡ÅĪ": 4898,
      "hlou": 4899,
      "Ġsf": 4900,
      "ĠnejvÄĽt": 4901,
      "Ġspal": 4902,
      "ĠodpusÅ¥": 4903,
      "Äįna": 4904,
      "ĠzbranÄĽ": 4905,
      "Ġlesku": 4906,
      "tilo": 4907,
      "Ġpadl": 4908,
      "Ġbarvy": 4909,
      "Ġnetu": 4910,
      "ĠpyÅ¡": 4911,
      "Ġdruhu": 4912,
      "ĠsÃŃnÄĽ": 4913,
      "ĠvÄĽdÄĽl": 4914,
      "ĠÄįlovÄĽku": 4915,
      "Ġivot": 4916,
      "Äįas": 4917,
      "ĠdivnÄĽ": 4918,
      "ĠneÅ¡tÄĽ": 4919,
      "ĠvÄĽrnÃ½": 4920,
      "Ġhyne": 4921,
      "nulo": 4922,
      "ĠkÅĻiv": 4923,
      "ĠzvÄĽÅĻ": 4924,
      "ĠvÃ¡clav": 4925,
      "alen": 4926,
      "ĠdomÃ¡": 4927,
      "Ġdobrou": 4928,
      "ĠpÄĽstÃŃ": 4929,
      "luje": 4930,
      "Ġvan": 4931,
      "ĠtmavÃ½": 4932,
      "ĠudÄĽ": 4933,
      "Ġbychom": 4934,
      "ĠvraÅ¥": 4935,
      "ĠzvÃŃÅĻe": 4936,
      "ĠÄįtyÅĻi": 4937,
      "ĠmÅĻe": 4938,
      "Ġdivy": 4939,
      "neme": 4940,
      "ĠÄĽhu": 4941,
      "ĠkdeÅ¾": 4942,
      "Ġstrachu": 4943,
      "ĠkÅĻiÄįÃŃ": 4944,
      "ĠmÃ½": 4945,
      "Ġstisk": 4946,
      "ĠvÃ¡Å¡eÅĪ": 4947,
      "lili": 4948,
      "lÃŃÅ¡": 4949,
      "ĠvlasÅ¥": 4950,
      "ĠumÄĽl": 4951,
      "Ġblaze": 4952,
      "jÃŃcÃ½": 4953,
      "ĠpolÃŃbenÃŃ": 4954,
      "ĠnovÃ½m": 4955,
      "ĠvÃ¡bÃŃ": 4956,
      "Å¡ila": 4957,
      "viny": 4958,
      "ĠÃ¡z": 4959,
      "asi": 4960,
      "ĠmlÃ¡den": 4961,
      "ĠjemuÅ¾": 4962,
      "Ġevro": 4963,
      "Ġtmu": 4964,
      "ĠnaÅ¡em": 4965,
      "ÅĪÅ¯": 4966,
      "Ġnemohu": 4967,
      "ĠtichÃ©m": 4968,
      "Ġence": 4969,
      "bÅ¯h": 4970,
      "ÅĻena": 4971,
      "Ġobzoru": 4972,
      "Ġzuby": 4973,
      "mon": 4974,
      "klady": 4975,
      "ĠkeÅĻ": 4976,
      "ĠalÃ©": 4977,
      "Ġmalou": 4978,
      "ĠmyÅ¡lÃ©nky": 4979,
      "vaje": 4980,
      "dle": 4981,
      "Ġrmu": 4982,
      "ĠmÃ¡Å¥": 4983,
      "Ġvida": 4984,
      "ĠletnÃŃ": 4985,
      "ĠzvuÄįÃŃ": 4986,
      "ĠslzÃ¡ch": 4987,
      "Ġsmrtel": 4988,
      "sat": 4989,
      "nie": 4990,
      "ĠyÅ¡el": 4991,
      "Ġik": 4992,
      "ĠzaznÃŃ": 4993,
      "trem": 4994,
      "ĠÅ¡ÃŃp": 4995,
      "ĠpovÄĽz": 4996,
      "Ġeku": 4997,
      "ĠjiÅĻÃŃ": 4998,
      "Ġmost": 4999,
      "ĠneÅ¡tÄĽstÃŃ": 5000,
      "ĠvyÅ¡Å¡ÃŃ": 5001,
      "ĠoubÃŃ": 5002,
      "Ġhrdin": 5003,
      "Ġorel": 5004,
      "ĠstÅĻÃ¡": 5005,
      "ĠbuÅ¡ÃŃ": 5006,
      "ĠpÅĻil": 5007,
      "hovÃ©": 5008,
      "Ġnebesa": 5009,
      "Ġulic": 5010,
      "Ġjinoch": 5011,
      "ĠuÅ¾i": 5012,
      "taly": 5013,
      "vl": 5014,
      "ĠÃŃsnÄĽ": 5015,
      "Ġhore": 5016,
      "Ġdub": 5017,
      "ĠposvÄĽ": 5018,
      "ĠvÃŃÅĻÃŃ": 5019,
      "ĠcelÃ©m": 5020,
      "Ġjiskry": 5021,
      "Ġvnad": 5022,
      "Ġkristus": 5023,
      "Ġsev": 5024,
      "ĠsmÃŃchem": 5025,
      "ĠcÃŃli": 5026,
      "ĠomÃŃ": 5027,
      "ĠlÃŃcÃŃ": 5028,
      "ĠzrakÅ¯": 5029,
      "Ġpozo": 5030,
      "Ġhovor": 5031,
      "ĠeÅĻe": 5032,
      "ĠÅ¾ivÃ½": 5033,
      "ĠpoupÄĽ": 5034,
      "ĠvÄĽÄįnost": 5035,
      "Ġsvobodu": 5036,
      "ĠÅĻÃŃkÃ¡": 5037,
      "Ġtamo": 5038,
      "ĠvÄĽÄįnou": 5039,
      "ĠdÄĽtem": 5040,
      "Ġove": 5041,
      "Ġbok": 5042,
      "ĠÅ¡ero": 5043,
      "ĠzahrÃ¡": 5044,
      "pnÄĽ": 5045,
      "Å¾ek": 5046,
      "ĠpouÅ¡tÃŃ": 5047,
      "ĠoltÃ¡ÅĻ": 5048,
      "Ġichu": 5049,
      "ĠpouÅ¡Å¥": 5050,
      "ĠdunÃŃ": 5051,
      "ĠkÅĻÃŃdlem": 5052,
      "dÃ¡l": 5053,
      "ĠaÅ¡i": 5054,
      "Ġesky": 5055,
      "ĠvlnÃŃ": 5056,
      "ĠvstÃ¡": 5057,
      "ĠplÃ¡nÃŃ": 5058,
      "dlen": 5059,
      "rostÅĻed": 5060,
      "rala": 5061,
      "ĠrÃ¡di": 5062,
      "ĠjakÃ½s": 5063,
      "Ġuny": 5064,
      "Ġhlavi": 5065,
      "Ġklesla": 5066,
      "cou": 5067,
      "ĠÃŃho": 5068,
      "ĠkolÃ©b": 5069,
      "hni": 5070,
      "ĠobÃŃ": 5071,
      "ĠÅ¡edÃ½": 5072,
      "ĠvlnÃ¡ch": 5073,
      "ĠvelikÃ¡": 5074,
      "ĠsmrÅ¥": 5075,
      "Ġbrzo": 5076,
      "Ġpodi": 5077,
      "Ġkmit": 5078,
      "Ġletech": 5079,
      "ĠkorÃ¡": 5080,
      "ĠnadÅ¡en": 5081,
      "Ġcitu": 5082,
      "ĠpÅĻÃ¡l": 5083,
      "Ġjablo": 5084,
      "lko": 5085,
      "ĠÃ¡tku": 5086,
      "ĠtÄĽmi": 5087,
      "Ġbisku": 5088,
      "Ġarci": 5089,
      "nuli": 5090,
      "ĠstokrÃ¡t": 5091,
      "Ġatku": 5092,
      "letu": 5093,
      "ĠÅ¾Ã¡rem": 5094,
      "ĠverÅ¡": 5095,
      "Ġznamen": 5096,
      "Ġslunko": 5097,
      "Å¾nÃŃ": 5098,
      "ĠÃŃÄįek": 5099,
      "ĠpojÃŃ": 5100,
      "telem": 5101,
      "ĠspÃŃcÃŃ": 5102,
      "Ġstud": 5103,
      "Ġsloup": 5104,
      "ĠtajnÄĽ": 5105,
      "ĠÃŃchu": 5106,
      "ĠjÃŃmÃ¡": 5107,
      "ĠÅ¡eptÃ¡": 5108,
      "ĠpÅ¯jdu": 5109,
      "fe": 5110,
      "ĠdÄĽj": 5111,
      "ĠkrÃ¡snÄĽ": 5112,
      "Ġslovan": 5113,
      "Ġpovin": 5114,
      "ĠnaÅĻÃŃ": 5115,
      "Ġhladi": 5116,
      "Ġpoza": 5117,
      "ĠpÅĻÃŃroda": 5118,
      "Ġchlap": 5119,
      "ĠpÃŃsku": 5120,
      "Ġztratil": 5121,
      "Ġmlh": 5122,
      "Ġvzala": 5123,
      "Ġmile": 5124,
      "ĠnoÅĻÃŃ": 5125,
      "Ġmladosti": 5126,
      "ĠÃŃvat": 5127,
      "ĠtÄĽl": 5128,
      "najÃŃ": 5129,
      "ĠtÄĽÅ¾kou": 5130,
      "Ġuko": 5131,
      "ĠÅ¾eno": 5132,
      "ĠÄıÃ¡bel": 5133,
      "ĠÃºzkost": 5134,
      "fy": 5135,
      "ĠrÃ©": 5136,
      "ĠÅ¾ert": 5137,
      "ĠhroznÃ½": 5138,
      "ĠnÃ¡dhe": 5139,
      "tej": 5140,
      "Ġrozma": 5141,
      "ÅĻily": 5142,
      "jeme": 5143,
      "Ġsra": 5144,
      "ĠodvÄĽ": 5145,
      "ĠcelÃ½m": 5146,
      "Ġmechu": 5147,
      "tin": 5148,
      "lÃ¡m": 5149,
      "ĠpravdÄĽ": 5150,
      "Ġimi": 5151,
      "ĠuÅ¾ÃŃ": 5152,
      "ĠnechtÄĽl": 5153,
      "ĠÄįerno": 5154,
      "Ġproudem": 5155,
      "Ġdaleka": 5156,
      "bnÃ¡": 5157,
      "Ġudou": 5158,
      "nÅ¯v": 5159,
      "Ġedem": 5160,
      "ĠtÃ¡bo": 5161,
      "ĠnÃ¡rodu": 5162,
      "Å¾ku": 5163,
      "ĠverÅ¡e": 5164,
      "Äįina": 5165,
      "ĠkrÅ¯pÄĽj": 5166,
      "ĠsvatÃ½ch": 5167,
      "ĠplaÅ¡e": 5168,
      "ĠvÃ½s": 5169,
      "tÃ¡ch": 5170,
      "ĠhrabÄĽ": 5171,
      "Ġleskem": 5172,
      "dÄĽji": 5173,
      "Ġysi": 5174,
      "ĠskvÃŃ": 5175,
      "Ġhavra": 5176,
      "ĠjedinÃ©": 5177,
      "ĠbÃŃt": 5178,
      "bnou": 5179,
      "ĠslyÅ¡ÃŃÅ¡": 5180,
      "ĠvÄĽcÃŃ": 5181,
      "ĠlÃŃbal": 5182,
      "Ġcity": 5183,
      "Ġynou": 5184,
      "Ġicha": 5185,
      "Ġchva": 5186,
      "Ġviny": 5187,
      "ĠÅ¡tÄĽstÃŃm": 5188,
      "Ġkalich": 5189,
      "Ġerou": 5190,
      "Ġetem": 5191,
      "ĠvzpomÃŃnÃ¡m": 5192,
      "lnÃ©": 5193,
      "mÃ¡m": 5194,
      "nt": 5195,
      "Ġuly": 5196,
      "enÃŃm": 5197,
      "ĠlÃ¡n": 5198,
      "mÃ¡n": 5199,
      "Ġteskno": 5200,
      "ĠvÅ¡eli": 5201,
      "Ġnaklo": 5202,
      "zÅ¯": 5203,
      "ĠvÅ¡ednÃŃ": 5204,
      "Ġticha": 5205,
      "kam": 5206,
      "ÅĻenÃ½ch": 5207,
      "ĠmoÅ¾nÃ¡": 5208,
      "ĠzavÃ¡": 5209,
      "Ġvodo": 5210,
      "ĠhledÃŃm": 5211,
      "ĠÄįerst": 5212,
      "Ġeka": 5213,
      "lnÃ½": 5214,
      "ĠinÃŃ": 5215,
      "Ġade": 5216,
      "Ġdoz": 5217,
      "ĠdÄĽvy": 5218,
      "Ġuto": 5219,
      "Ġnechal": 5220,
      "Ġist": 5221,
      "Ġjinou": 5222,
      "ĠrozlÃ©": 5223,
      "ĠpastÃ½": 5224,
      "ĠkrÄį": 5225,
      "Ġspla": 5226,
      "ĠpozdnÃŃ": 5227,
      "Ġmor": 5228,
      "mÃ¡nÃŃ": 5229,
      "ĠÅĻev": 5230,
      "ĠpÄĽnÃŃ": 5231,
      "Ġpozved": 5232,
      "ĠzÃ¡ÅĻÃŃcÃŃ": 5233,
      "Ġbyt": 5234,
      "Ġluna": 5235,
      "ĠAAAX": 5236,
      "ĠmnÃŃ": 5237,
      "Ġpob": 5238,
      "ĠÄĽsta": 5239,
      "ĠbÄĽlost": 5240,
      "ĠrdÃŃ": 5241,
      "Ġotem": 5242,
      "Ġnesko": 5243,
      "Ġekla": 5244,
      "ĠmodlÃŃ": 5245,
      "Ġusly": 5246,
      "ĠspÄĽl": 5247,
      "sech": 5248,
      "Ġchudo": 5249,
      "ĠvzpomÃŃnÃ¡": 5250,
      "Ġnitra": 5251,
      "Ġohrom": 5252,
      "ĠpouÅ¥": 5253,
      "ĠzpÃŃvat": 5254,
      "ĠcÃ¡": 5255,
      "ĠmanÅ¾el": 5256,
      "Ġskla": 5257,
      "Å¾dÃŃ": 5258,
      "Ġptal": 5259,
      "lala": 5260,
      "ĠstrÃ½": 5261,
      "ĠÅ¾Ã¡dnÃ¡": 5262,
      "ĠsamÃ½": 5263,
      "ĠvlÃ¡d": 5264,
      "ĠÄįeskÃ¡": 5265,
      "Ġracho": 5266,
      "ĠtrhÃ¡": 5267,
      "ĠmlÃ©": 5268,
      "ĠvÄĽrnÃ©": 5269,
      "Ġpropasti": 5270,
      "mil": 5271,
      "ĠÅ¾u": 5272,
      "huje": 5273,
      "ĠtanÄįÃŃ": 5274,
      "Ġsat": 5275,
      "chne": 5276,
      "ĠhrajÃŃ": 5277,
      "Ġctnosti": 5278,
      "ĠhnutÃŃ": 5279,
      "Ġycky": 5280,
      "Ġstan": 5281,
      "Ġnalez": 5282,
      "Ġeu": 5283,
      "ĠpÅĻis": 5284,
      "ĠnÃŃmÅ¾": 5285,
      "Ġchvilku": 5286,
      "ĠAX": 5287,
      "Ġpanny": 5288,
      "Ġzbro": 5289,
      "ĠmÅ¯Å¾eÅ¡": 5290,
      "Ġkor": 5291,
      "ĠhrdÃ©": 5292,
      "ĠvÃ¡nek": 5293,
      "ĠzavÃŃ": 5294,
      "ĠstÃŃnem": 5295,
      "ĠzaÄįal": 5296,
      "Ġnau": 5297,
      "ĠÃ¡my": 5298,
      "Ġoudy": 5299,
      "Ġmoudro": 5300,
      "Ġchcete": 5301,
      "Ġnesla": 5302,
      "Ġab": 5303,
      "Ġblankyt": 5304,
      "ren": 5305,
      "ĠpouÅ¡ti": 5306,
      "Ġvysoko": 5307,
      "ĠspÃ¡nek": 5308,
      "Ġsice": 5309,
      "ĠlnÃŃ": 5310,
      "Ġmalo": 5311,
      "Ġztu": 5312,
      "tÄĽjÅ¡ÃŃ": 5313,
      "Ġnadarmo": 5314,
      "rÄįÃŃ": 5315,
      "vka": 5316,
      "Å¯so": 5317,
      "fo": 5318,
      "chÃ¡m": 5319,
      "Ġdna": 5320,
      "Ġneji": 5321,
      "ĠpouÅ¡tÄĽ": 5322,
      "Ġis": 5323,
      "nÄĽte": 5324,
      "ĠÄıas": 5325,
      "nÃ¡ct": 5326,
      "ĠnÄĽme": 5327,
      "Ġadem": 5328,
      "ÄįnÃŃm": 5329,
      "Ġnou": 5330,
      "Ġhalu": 5331,
      "ĠvzpomÃŃnka": 5332,
      "ĠÄĽnou": 5333,
      "ĠdÃŃtky": 5334,
      "Ġukru": 5335,
      "ĠvlÃŃdnÄĽ": 5336,
      "Ġzrovna": 5337,
      "livÃ¡": 5338,
      "Ġkorunu": 5339,
      "ĠoupÃ¡": 5340,
      "Ġadlo": 5341,
      "nÄĽnÃ©": 5342,
      "mot": 5343,
      "ĠeÅĻi": 5344,
      "ĠÃ¡ce": 5345,
      "ĠABABAX": 5346,
      "Ġpel": 5347,
      "ĠhroznÃ©": 5348,
      "Ġenem": 5349,
      "Ġmladou": 5350,
      "ĠleÅ¾el": 5351,
      "dalo": 5352,
      "ĠzelenÃ©": 5353,
      "is": 5354,
      "ĠvÄįel": 5355,
      "ĠÃŃd": 5356,
      "ĠchystÃ¡": 5357,
      "Ġvypu": 5358,
      "ĠstÅĻel": 5359,
      "ĠkterÃ½ch": 5360,
      "ĠpÅĻichÃ¡zÃŃ": 5361,
      "ĠsrdcÃŃch": 5362,
      "Ġmiluje": 5363,
      "Ġge": 5364,
      "ĠhÃ¡ji": 5365,
      "ĠnÃ¡ho": 5366,
      "Ġhrst": 5367,
      "ĠpenÃŃ": 5368,
      "ĠÄĽlÃŃ": 5369,
      "ĠÅ¾eni": 5370,
      "Ġjinde": 5371,
      "Ġstroj": 5372,
      "ĠzvÄĽda": 5373,
      "Ġvodou": 5374,
      "Ġbratra": 5375,
      "ÄįenÃ½": 5376,
      "ĠhvÄĽzdi": 5377,
      "ĠlÃŃba": 5378,
      "Ġlil": 5379,
      "ĠÄĽtlo": 5380,
      "ĠlÅ¯nÄĽ": 5381,
      "Ġdol": 5382,
      "Ġlek": 5383,
      "hali": 5384,
      "ĠbrÃ¡nÃŃ": 5385,
      "ĠdrobnÃ©": 5386,
      "ĠmdlÃ½": 5387,
      "ĠmÄĽsÃŃce": 5388,
      "nkÃ¡ch": 5389,
      "pomÃŃnÃ¡": 5390,
      "ĠzlatÃ½m": 5391,
      "Ġjdem": 5392,
      "nicÃŃ": 5393,
      "Ġkomo": 5394,
      "ĠkrÃ¡lem": 5395,
      "ĠsÃŃni": 5396,
      "ĠspÄĽchÃ¡": 5397,
      "ĠbojÃŃ": 5398,
      "ĠzÃ¡Å¡tÃŃ": 5399,
      "ĠotvÃŃrÃ¡": 5400,
      "ĠpustÃ©": 5401,
      "ĠuprostÅĻed": 5402,
      "tice": 5403,
      "Ġsoucit": 5404,
      "Ġzoufa": 5405,
      "Ġrozmar": 5406,
      "Ġoste": 5407,
      "ĠÃ¡dy": 5408,
      "niti": 5409,
      "ĠdÄĽva": 5410,
      "ĠjasnÃ¡": 5411,
      "ĠsÃŃle": 5412,
      "ĠpoutnÃŃk": 5413,
      "Ġvzdechy": 5414,
      "Ġpochyb": 5415,
      "Ġprocit": 5416,
      "Ġminul": 5417,
      "ĠÅ¾ivotÄĽ": 5418,
      "Ġplameny": 5419,
      "ĠvzdychÃ¡": 5420,
      "dno": 5421,
      "ĠustÃ¡": 5422,
      "Ġeskem": 5423,
      "ĠÃ¡hne": 5424,
      "Ġprahy": 5425,
      "sklo": 5426,
      "Ġpetr": 5427,
      "Ġtomto": 5428,
      "ĠslavÃŃk": 5429,
      "ĠpÃ¡d": 5430,
      "Ġnasta": 5431,
      "ĠvÅ¯z": 5432,
      "Ġjednoho": 5433,
      "Ġpohy": 5434,
      "ĠskuteÄį": 5435,
      "ĠÄįervÃ¡": 5436,
      "Ġpopel": 5437,
      "ĠoÅĻil": 5438,
      "ĠÄįert": 5439,
      "Ġzho": 5440,
      "Ġhledat": 5441,
      "Ġpocti": 5442,
      "dÃ¡vÃ¡": 5443,
      "Ġynu": 5444,
      "ĠvÅ¡echen": 5445,
      "ĠchoÅ¥": 5446,
      "Ġosudu": 5447,
      "venÃ©": 5448,
      "Ġtemnou": 5449,
      "Ġbli": 5450,
      "ÅĻiti": 5451,
      "ĠtrÃ¡va": 5452,
      "ĠpospÃŃ": 5453,
      "Ġpolem": 5454,
      "tovÃ©": 5455,
      "ĠryzÃŃ": 5456,
      "ĠzaÅ¡e": 5457,
      "ĠÃºro": 5458,
      "ĠpoÄįal": 5459,
      "ĠÃŃÄįka": 5460,
      "ber": 5461,
      "ĠvzdÃ¡len": 5462,
      "ĠzdÃŃ": 5463,
      "ĠÅ¡va": 5464,
      "Ġokno": 5465,
      "ĠÅ¡tÄĽd": 5466,
      "ĠoÄįka": 5467,
      "Ġknihy": 5468,
      "ĠdruhÃ¡": 5469,
      "hrad": 5470,
      "lid": 5471,
      "dati": 5472,
      "nkÅ¯": 5473,
      "tkÅ¯": 5474,
      "Ġpohledem": 5475,
      "Ġap": 5476,
      "leÅĪ": 5477,
      "Ġvojsko": 5478,
      "ĠpohÃ¡r": 5479,
      "Ġahou": 5480,
      "Ġmysti": 5481,
      "Ġdrak": 5482,
      "ĠzÅĻela": 5483,
      "Ġdnu": 5484,
      "ĠbuÄıte": 5485,
      "ĠcizÃŃch": 5486,
      "ĠÅ¡est": 5487,
      "Ġbezpe": 5488,
      "jÃŃcÃŃch": 5489,
      "Ġslzu": 5490,
      "ble": 5491,
      "ĠvodÄĽ": 5492,
      "snÃ½ch": 5493,
      "Ġzasmu": 5494,
      "ĠneÃº": 5495,
      "ĠutÃ½": 5496,
      "ĠchudÃ½": 5497,
      "Ġek": 5498,
      "Ġspasi": 5499,
      "ĠÄĽnÃ½": 5500,
      "novi": 5501,
      "ĠÃºtro": 5502,
      "ĠzlatÃŃ": 5503,
      "Ġpozem": 5504,
      "ĠstojÃŃm": 5505,
      "ĠvÄĽÅĻÃŃm": 5506,
      "ĠznÃ¡mÃ½": 5507,
      "raje": 5508,
      "Ġzachy": 5509,
      "ĠschÃ½": 5510,
      "tÃ½m": 5511,
      "Ġkouzlem": 5512,
      "ĠÄĽsÃŃ": 5513,
      "ĠkrÃ¡lÅ¯": 5514,
      "ĠchtÄĽli": 5515,
      "ĠznÃ¡t": 5516,
      "Ġzahrad": 5517,
      "Ġvpad": 5518,
      "ĠbÅĻi": 5519,
      "Ġspor": 5520,
      "Ġsym": 5521,
      "vodu": 5522,
      "Ġvodu": 5523,
      "nÃ©st": 5524,
      "ĠzapomnÄĽl": 5525,
      "ĠtÅĻpytÃŃ": 5526,
      "Ġtouhu": 5527,
      "Ġbratry": 5528,
      "ĠdivÄĽ": 5529,
      "ĠpouhÃ½": 5530,
      "ĠÅĻekne": 5531,
      "ĠhÅĻÃŃchu": 5532,
      "Å¾nÃ½m": 5533,
      "Ġhry": 5534,
      "ÅĪuje": 5535,
      "Ġeky": 5536,
      "ĠosvÄĽ": 5537,
      "rovi": 5538,
      "byl": 5539,
      "Å¾ena": 5540,
      "dÃ¡Å¡": 5541,
      "ĠXXABBA": 5542,
      "vnÃ½": 5543,
      "Ġzvolal": 5544,
      "Ġnerozu": 5545,
      "ÅĻej": 5546,
      "Ġw": 5547,
      "ĠÄĽda": 5548,
      "Ġslib": 5549,
      "ĠÄĽvem": 5550,
      "Ġotcem": 5551,
      "ĠsluÅ¡ÃŃ": 5552,
      "Ġmiluji": 5553,
      "ledy": 5554,
      "Ġvinu": 5555,
      "Ġchr": 5556,
      "ĠlÃ¡sko": 5557,
      "ĠperutÃŃ": 5558,
      "Ġere": 5559,
      "ĠhostÃŃ": 5560,
      "ĠouÅ¡tÃŃ": 5561,
      "Ġshon": 5562,
      "ĠpoutnÃŃ": 5563,
      "ĠsladkÃ½ch": 5564,
      "ĠXXAAXX": 5565,
      "Ġhodiny": 5566,
      "Ġtuze": 5567,
      "ĠdomÄĽ": 5568,
      "ĠvÅ¯bec": 5569,
      "ĠplÃ©mÄĽ": 5570,
      "Ġroky": 5571,
      "ĠÅ¾ivotu": 5572,
      "ĠtvÃ©mu": 5573,
      "Ġknih": 5574,
      "nati": 5575,
      "Ġroztou": 5576,
      "Ġryt": 5577,
      "Ġga": 5578,
      "Ġsud": 5579,
      "ĠdÃ¡vnÃ©": 5580,
      "Å¡lÃŃ": 5581,
      "ĠasnÃ©": 5582,
      "ĠvelÃŃ": 5583,
      "Ġodho": 5584,
      "ĠpÃŃÅ¡e": 5585,
      "dlÃ©": 5586,
      "Ġpne": 5587,
      "ĠorÅ¯": 5588,
      "milo": 5589,
      "ĠtÃ©mÄĽ": 5590,
      "ĠvonnÃ½": 5591,
      "Ġspanil": 5592,
      "Ġdon": 5593,
      "pili": 5594,
      "Ġvedou": 5595,
      "Ġkov": 5596,
      "Ġrozlo": 5597,
      "ĠÃ¡nek": 5598,
      "Ġmoudrost": 5599,
      "ĠedÄĽl": 5600,
      "hej": 5601,
      "ĠsamotÄĽ": 5602,
      "lily": 5603,
      "stoj": 5604,
      "Ġposlu": 5605,
      "Ġstarost": 5606,
      "Ġetla": 5607,
      "Ġnesl": 5608,
      "Ġbrachu": 5609,
      "ĠtrpÃŃ": 5610,
      "ĠÅ¡ÃŃji": 5611,
      "ĠzbranÃŃ": 5612,
      "Ġchodil": 5613,
      "Ġbledou": 5614,
      "zdu": 5615,
      "ĠzmÃŃrÃ¡": 5616,
      "ĠvznÃŃ": 5617,
      "ĠbojovnÃŃ": 5618,
      "ĠÄįlu": 5619,
      "Ġouhy": 5620,
      "ĠperuÅ¥": 5621,
      "Ġlsti": 5622,
      "Ġplesu": 5623,
      "zdy": 5624,
      "Ġboh": 5625,
      "ĠzÃ¡pal": 5626,
      "ĠsvatÃ½m": 5627,
      "ĠhÅĻbe": 5628,
      "Ġjmeno": 5629,
      "Ġska": 5630,
      "Å¡kou": 5631,
      "Ġmora": 5632,
      "ĠdruÅ¾i": 5633,
      "venÃ½": 5634,
      "Äįiti": 5635,
      "ĠsilnÃ½": 5636,
      "chla": 5637,
      "ĠrovnÄĽ": 5638,
      "Ġsluje": 5639,
      "ĠmalÃŃ": 5640,
      "Ġbil": 5641,
      "Ġpotok": 5642,
      "ĠtÅĻesou": 5643,
      "Ġmrtev": 5644,
      "Ġpas": 5645,
      "Ġpoky": 5646,
      "Ġjednom": 5647,
      "Ġmuka": 5648,
      "Ġary": 5649,
      "ĠÃŃlu": 5650,
      "ĠstÃ¡r": 5651,
      "ĠÅ¾Ã¡ru": 5652,
      "ĠmodrÃ½": 5653,
      "ĠsmÄĽlÃ½": 5654,
      "ĠpÅ¯du": 5655,
      "ĠvyÅ¡la": 5656,
      "ĠÃºkol": 5657,
      "Ġsmysl": 5658,
      "ĠnedÄĽ": 5659,
      "Å¡et": 5660,
      "Ġdiva": 5661,
      "try": 5662,
      "pis": 5663,
      "jou": 5664,
      "zla": 5665,
      "Ġsvr": 5666,
      "Ġhospodi": 5667,
      "Ġvkro": 5668,
      "ĠvÅ¡echnÄĽ": 5669,
      "ĠchraÅĪ": 5670,
      "hr": 5671,
      "Ġhlasu": 5672,
      "Ġondy": 5673,
      "ĠvÄĽtry": 5674,
      "ĠÃŃÄįku": 5675,
      "Ġemnou": 5676,
      "ĠidÄĽl": 5677,
      "Ġouhou": 5678,
      "Ġslasti": 5679,
      "ĠÅ¡Å¥astnÃ½": 5680,
      "vÅ¡i": 5681,
      "ĠÃ¡ze": 5682,
      "Ġpravo": 5683,
      "Ġpraze": 5684,
      "ĠklÃŃnÄĽ": 5685,
      "Ġchti": 5686,
      "Ġbabi": 5687,
      "ĠsnÃ¡": 5688,
      "Ġses": 5689,
      "ĠpapeÅ¾": 5690,
      "ĠhvÄĽzdÃ¡m": 5691,
      "Ġnajednou": 5692,
      "ĠÃ¡dce": 5693,
      "bili": 5694,
      "ĠnutÃŃ": 5695,
      "ÄįkÃ©": 5696,
      "ĠvrhÃ¡": 5697,
      "ĠkoÅĻist": 5698,
      "ĠlÅ¾i": 5699,
      "Ġpono": 5700,
      "chÃ¡zel": 5701,
      "Ġvlta": 5702,
      "ckÃ½m": 5703,
      "ĠzlatÃ©m": 5704,
      "ĠobliÄįej": 5705,
      "ĠnejvÄĽtÅ¡ÃŃ": 5706,
      "zit": 5707,
      "ĠodpoÄįi": 5708,
      "ĠprvnÃŃm": 5709,
      "Äįno": 5710,
      "ĠtrpÄĽ": 5711,
      "ĠarÃ½": 5712,
      "ĠÅ¡lo": 5713,
      "ĠzeleÅĪ": 5714,
      "tosti": 5715,
      "ĠodpovÄĽÄı": 5716,
      "kvÃ©": 5717,
      "ĠadnÃ©": 5718,
      "ĠÄĽtÅ¡ÃŃ": 5719,
      "Ġrtem": 5720,
      "meÅĪ": 5721,
      "ĠbÃ¡l": 5722,
      "Ġabys": 5723,
      "nkÃ¡": 5724,
      "ĠÃ½skÃ¡": 5725,
      "Ġproudu": 5726,
      "Ġpokud": 5727,
      "Ġrozkve": 5728,
      "pala": 5729,
      "Ġopy": 5730,
      "ĠpÄĽje": 5731,
      "ĠsnÃŃt": 5732,
      "daly": 5733,
      "Ġzbyl": 5734,
      "qu": 5735,
      "ĠpolÃŃch": 5736,
      "Ġnaposledy": 5737,
      "nika": 5738,
      "ĠÄįerv": 5739,
      "Ġkams": 5740,
      "ĠhnÄĽvem": 5741,
      "ĠdvojÃŃ": 5742,
      "Å¾te": 5743,
      "Ġrady": 5744,
      "Ġslzami": 5745,
      "Ġobej": 5746,
      "Ġsladko": 5747,
      "ĠhospodÃ¡": 5748,
      "ĠÅ¡er": 5749,
      "ĠdneÅ¡nÃŃ": 5750,
      "ĠtlaÄįÃŃ": 5751,
      "Ġjihu": 5752,
      "Ġvojska": 5753,
      "Ġvzpomen": 5754,
      "Ġzakle": 5755,
      "ĠpÅĻemo": 5756,
      "ĠvÄĽtrÅ¯": 5757,
      "Ġenku": 5758,
      "Ġuzav": 5759,
      "Ġiva": 5760,
      "vilo": 5761,
      "ĠnÃ¡mÄĽ": 5762,
      "ĠzpÄĽvem": 5763,
      "ÅĻilo": 5764,
      "ĠbÃŃlÃ©m": 5765,
      "Ġkudy": 5766,
      "Ġminulosti": 5767,
      "ĠÄįÃŃst": 5768,
      "Ġroztr": 5769,
      "Ġklasy": 5770,
      "kop": 5771,
      "Ġlicho": 5772,
      "ĠtichÃ½m": 5773,
      "Ġhluboko": 5774,
      "Ġdejte": 5775,
      "ĠavÃ½m": 5776,
      "Ġzvad": 5777,
      "Ġrozlou": 5778,
      "buje": 5779,
      "tl": 5780,
      "ĠzbÄĽ": 5781,
      "ĠpapÃŃ": 5782,
      "Ġlny": 5783,
      "ĠovÃ½ch": 5784,
      "ĠmusÃŃÅ¡": 5785,
      "rovnÃ¡": 5786,
      "ĠinÃ¡": 5787,
      "ilÃ½": 5788,
      "Ġhrdlo": 5789,
      "stit": 5790,
      "Ġpohr": 5791,
      "Ġhlahol": 5792,
      "ĠsvÄĽtlu": 5793,
      "ĠkÅĻÃŃdlo": 5794,
      "Ġmarno": 5795,
      "stky": 5796,
      "Ġmnohou": 5797,
      "Ġtrud": 5798,
      "zlo": 5799,
      "ĠdÃŃl": 5800,
      "ĠtratÃŃ": 5801,
      "ĠXXXAXA": 5802,
      "Ġnesu": 5803,
      "Å¾enou": 5804,
      "ĠdÄĽjin": 5805,
      "Å¾u": 5806,
      "Ġrtu": 5807,
      "ĠmoÅĻÃŃ": 5808,
      "Ġjasu": 5809,
      "tÃ¡h": 5810,
      "ĠkrvavÃ©": 5811,
      "chat": 5812,
      "alou": 5813,
      "ĠÄĽÅ¾": 5814,
      "ĠvzkÅĻÃŃ": 5815,
      "Ġmohy": 5816,
      "ĠÃ¡men": 5817,
      "tec": 5818,
      "ĠpÅĻÃŃk": 5819,
      "ĠÃ©mÄĽ": 5820,
      "ĠtesknÄĽ": 5821,
      "Ġposel": 5822,
      "Ġbozi": 5823,
      "ĠkrÃ¡snÃ½ch": 5824,
      "Ġochra": 5825,
      "ĠoutÃŃ": 5826,
      "ĠÄįÃŃÅ¡i": 5827,
      "ĠspÃ¡sy": 5828,
      "ĠmraÄįna": 5829,
      "Ġlibo": 5830,
      "Ġbub": 5831,
      "ĠtkÃ¡": 5832,
      "Å¡tnÃŃ": 5833,
      "Ġpovy": 5834,
      "Ġmist": 5835,
      "ĠÄįiny": 5836,
      "ĠzmizÃŃ": 5837,
      "Ġvdo": 5838,
      "ĠtmÃŃ": 5839,
      "Ġodou": 5840,
      "ĠjmÃ©na": 5841,
      "rny": 5842,
      "Ġpohro": 5843,
      "Ġkolena": 5844,
      "ĠÅ¾houcÃŃ": 5845,
      "ĠvyÅ¡": 5846,
      "Ġhlado": 5847,
      "ĠzÃ¡mku": 5848,
      "Ġsestry": 5849,
      "Ġio": 5850,
      "Ġlau": 5851,
      "ĠzvÃŃtÄĽ": 5852,
      "Ġub": 5853,
      "Ã¡Å¡": 5854,
      "ĠXABAB": 5855,
      "ĠÄĽmi": 5856,
      "Ġbudoucnost": 5857,
      "ĠnevÃ½": 5858,
      "ĠrozkoÅ¡ÃŃ": 5859,
      "ĠmyÅ¡lenek": 5860,
      "Ġbalva": 5861,
      "rnÃ©m": 5862,
      "Ġsvitu": 5863,
      "Ġvolnost": 5864,
      "ĠÄĽkÅ¯": 5865,
      "Ġrosou": 5866,
      "Ġmas": 5867,
      "Ġhni": 5868,
      "ĠpÅĻines": 5869,
      "ĠveÄįernÃŃ": 5870,
      "ĠspatÅĻil": 5871,
      "ĠdÃ©man": 5872,
      "ĠtvrdÃ©": 5873,
      "ĠkÅĻesÅ¥a": 5874,
      "Ġedou": 5875,
      "ĠnechaÅ¥": 5876,
      "ĠsmÄĽl": 5877,
      "Ġskryt": 5878,
      "ĠblÃ½skÃ¡": 5879,
      "ĠdÄĽd": 5880,
      "chala": 5881,
      "Å¾enÃ¡": 5882,
      "ĠsmÃ¡t": 5883,
      "ĠitÃ©": 5884,
      "ĠÃ¡nku": 5885,
      "voj": 5886,
      "ĠojÃŃm": 5887,
      "Ġima": 5888,
      "ĠÅ¡erÃ©": 5889,
      "ĠtÃ³n": 5890,
      "ĠkterÃ©m": 5891,
      "nÃŃci": 5892,
      "vedla": 5893,
      "ĠpÅĻÃŃzrak": 5894,
      "Ġsnadno": 5895,
      "Ġjiskra": 5896,
      "ĠzÃ¡zra": 5897,
      "ĠmÄĽlo": 5898,
      "sili": 5899,
      "Ġosled": 5900,
      "ĠjÃ¡sot": 5901,
      "Ġjezd": 5902,
      "ĠozÃ¡": 5903,
      "Ġpokro": 5904,
      "Ġdos": 5905,
      "Ġbytost": 5906,
      "ĠedÃ©": 5907,
      "Ġstrachem": 5908,
      "Ġmatkou": 5909,
      "ĠpenÄĽ": 5910,
      "ĠmlÄįenÃŃ": 5911,
      "menÄĽ": 5912,
      "ĠzvlÃ¡Å¡Å¥": 5913,
      "ĠprostÃ½": 5914,
      "ĠvÄĽtÅĻÃŃk": 5915,
      "ĠarÃ¡": 5916,
      "Ġvzty": 5917,
      "Ġdechu": 5918,
      "Å¾dÄĽ": 5919,
      "Ã©mu": 5920,
      "ĠpoÅ¡": 5921,
      "Ġbyste": 5922,
      "Ġleda": 5923,
      "ĠspÄĽje": 5924,
      "ĠhouÅ¡tÃŃ": 5925,
      "ĠprÅ¯vod": 5926,
      "ĠouÅĻÃŃ": 5927,
      "Ġaneb": 5928,
      "tÃŃÅ¡": 5929,
      "ĠzÃ¡ba": 5930,
      "ĠÅ¡era": 5931,
      "ĠotvÃŃ": 5932,
      "ĠostrÃ½": 5933,
      "ĠesÅ¯": 5934,
      "ĠstkvÄĽ": 5935,
      "Ġspjat": 5936,
      "rec": 5937,
      "Ġlidstvu": 5938,
      "Ġ21": 5939,
      "ĠpÄĽÅ¡i": 5940,
      "ĠÅ¡aty": 5941,
      "ĠhÅĻÃ¡": 5942,
      "ĠÃ¡zal": 5943,
      "Ġgeni": 5944,
      "Ġjist": 5945,
      "ĠvÄĽÅ¡t": 5946,
      "Ġvlnou": 5947,
      "chovÃ©": 5948,
      "ĠjejÃŃÅ¾": 5949,
      "ĠhnÃŃzda": 5950,
      "Ġedal": 5951,
      "Ġokny": 5952,
      "Ġgi": 5953,
      "Ġokou": 5954,
      "Ġruchu": 5955,
      "ĠaniÅ¾": 5956,
      "ĠusmÄĽ": 5957,
      "ĠhlubokÃ©": 5958,
      "ĠjimiÅ¾": 5959,
      "cie": 5960,
      "ĠkrutÃ½": 5961,
      "Ġero": 5962,
      "ĠÄįechÃ¡ch": 5963,
      "ĠzÃ¡hu": 5964,
      "ĠstrojÃŃ": 5965,
      "ĠkÅĻesÅ¥an": 5966,
      "Ġkoni": 5967,
      "ĠspÅĻÃ¡": 5968,
      "ĠzpÅ¯so": 5969,
      "ĠstrÃ¡ni": 5970,
      "Å¾uje": 5971,
      "ĠÃŃÅ¡tÃŃ": 5972,
      "ĠÅ¡vi": 5973,
      "ĠkvÃ©st": 5974,
      "ĠhovoÅĻÃŃ": 5975,
      "os": 5976,
      "Å¡ad": 5977,
      "ĠpÅĻiÅ¡lo": 5978,
      "Ġtiskne": 5979,
      "zdÄĽ": 5980,
      "ĠhÅ¯l": 5981,
      "nÄĽnÃ½": 5982,
      "ĠÃŃnÃŃ": 5983,
      "Ġvedla": 5984,
      "ĠskrÃ¡ni": 5985,
      "Ã¡k": 5986,
      "ĠsvÄĽtle": 5987,
      "stoupil": 5988,
      "diti": 5989,
      "Ġmrz": 5990,
      "Å¡ÃŃÅ¡": 5991,
      "Ġkrbu": 5992,
      "Ġbor": 5993,
      "Ġmelo": 5994,
      "Ġknihu": 5995,
      "zvuk": 5996,
      "ĠÃ½chÃ¡": 5997,
      "ĠutrpenÃŃ": 5998,
      "ĠÅ¡leh": 5999,
      "ĠboÅ¾skÃ©": 6000,
      "nouc": 6001,
      "ĠkaÅ¾dÃ©ho": 6002,
      "ĠzaplÃ¡": 6003,
      "ĠsladkÃ½m": 6004,
      "jÃŃma": 6005,
      "Ġranou": 6006,
      "Ġniv": 6007,
      "Äįilo": 6008,
      "Ġvedl": 6009,
      "ĠstÄĽn": 6010,
      "ĠÃ¡hle": 6011,
      "Ġvidi": 6012,
      "cemi": 6013,
      "ĠdivnÃ¡": 6014,
      "dÄĽte": 6015,
      "ĠpÅĻedsta": 6016,
      "ĠzÅĻÃŃti": 6017,
      "lat": 6018,
      "rii": 6019,
      "ĠveÅ¡el": 6020,
      "Ġhrot": 6021,
      "ĠstraÅ¡li": 6022,
      "ĠovÃ½m": 6023,
      "Ġust": 6024,
      "Ġoso": 6025,
      "Ġtaje": 6026,
      "ĠlÃ¡kÃ¡": 6027,
      "Ġelou": 6028,
      "vÃŃÅ¡": 6029,
      "Ġpravou": 6030,
      "ĠtÅĻikrÃ¡t": 6031,
      "Ġidem": 6032,
      "ĠÅ¾ele": 6033,
      "Ġsoudu": 6034,
      "ĠajÃŃc": 6035,
      "Ġozval": 6036,
      "Ġskrom": 6037,
      "ĠzbÃ½vÃ¡": 6038,
      "Ġodda": 6039,
      "Ġkdosi": 6040,
      "ĠÅ¡ÃŃÅĻÃŃ": 6041,
      "ĠÄĽka": 6042,
      "ĠnemÅ¯Å¾": 6043,
      "ĠposvÃ¡t": 6044,
      "Ġsnou": 6045,
      "Ġpluje": 6046,
      "Ġzru": 6047,
      "nesla": 6048,
      "bÄĽh": 6049,
      "Ġneob": 6050,
      "Ġharmo": 6051,
      "Ġzval": 6052,
      "ĠplatÃŃ": 6053,
      "ĠkrokÅ¯": 6054,
      "kova": 6055,
      "ĠnepÅĻÃŃtel": 6056,
      "Ġbzu": 6057,
      "ĠuÄįe": 6058,
      "ĠistÃ¡": 6059,
      "Ġjaksi": 6060,
      "ĠdÃŃla": 6061,
      "Ġkoli": 6062,
      "ĠemÃŃ": 6063,
      "ABXB": 6064,
      "ĠsmÄĽsi": 6065,
      "Ġebes": 6066,
      "Ġroucho": 6067,
      "Ġsvate": 6068,
      "ĠproudÃŃ": 6069,
      "nÄįÃŃ": 6070,
      "ĠÄįekÃ¡m": 6071,
      "ĠÄįarodÄĽj": 6072,
      "ĠnÃ©st": 6073,
      "Ġkme": 6074,
      "vobo": 6075,
      "Ġniko": 6076,
      "ĠnadÄĽji": 6077,
      "lÃ©d": 6078,
      "ĠkÅĻiÅ¡Å¥": 6079,
      "Ġdeset": 6080,
      "ĠbÄĽla": 6081,
      "ĠodÅĻÃŃ": 6082,
      "ĠnebesÅ¯m": 6083,
      "Ġesem": 6084,
      "ĠkÃ¡zal": 6085,
      "Ġmohlo": 6086,
      "ĠuÅ¾e": 6087,
      "Ġspro": 6088,
      "Ġdruha": 6089,
      "ĠsahÃ¡": 6090,
      "ĠkrÃ¡lovstvÃŃ": 6091,
      "vostÃŃ": 6092,
      "Ġeslo": 6093,
      "ĠpÄĽknÃ©": 6094,
      "ĠhlÃ¡sÃ¡": 6095,
      "Ġblud": 6096,
      "lilo": 6097,
      "vÄĽjÅ¡ÃŃ": 6098,
      "ĠjunÃ¡": 6099,
      "Ġmsti": 6100,
      "ĠnavrÃ¡": 6101,
      "ĠmodrÃ½ch": 6102,
      "ĠkÅĻÃŃÅ¾em": 6103,
      "fu": 6104,
      "Ġvece": 6105,
      "dÃ©m": 6106,
      "Ġechy": 6107,
      "Ġdostal": 6108,
      "ĠpÅ¯vab": 6109,
      "ĠÄĽmu": 6110,
      "Ġren": 6111,
      "Ġpraco": 6112,
      "ĠnÃ¡roda": 6113,
      "Ġdno": 6114,
      "ĠpÅĻÃŃtom": 6115,
      "Ġuchy": 6116,
      "ĠslyÅ¡te": 6117,
      "ĠvÃ©vo": 6118,
      "Ġdoktor": 6119,
      "knul": 6120,
      "ĠpodÄĽ": 6121,
      "Ġnepla": 6122,
      "Ġoto": 6123,
      "ĠkovÃ¡": 6124,
      "Ġkvas": 6125,
      "hor": 6126,
      "ĠbÃŃlÃ½m": 6127,
      "stÃ¡ch": 6128,
      "Ġslze": 6129,
      "ĠveÅ¡ke": 6130,
      "ĠostatnÃŃ": 6131,
      "Ġhlubiny": 6132,
      "ĠÃ¡tko": 6133,
      "ĠpohÅĻe": 6134,
      "Ġbudoucnosti": 6135,
      "Ġdvak": 6136,
      "Ġdary": 6137,
      "gy": 6138,
      "ron": 6139,
      "ĠrtÅ¯m": 6140,
      "ĠznÄĽlo": 6141,
      "Ġpovr": 6142,
      "ĠneÅĻe": 6143,
      "Ġery": 6144,
      "ĠletÄĽl": 6145,
      "Ġrozvi": 6146,
      "ĠstaÅĻÃŃ": 6147,
      "ĠpÅĻÃ¡telÃ©": 6148,
      "Ġpruh": 6149,
      "Ġfau": 6150,
      "ĠXABABX": 6151,
      "ĠivÃ½m": 6152,
      "Ġlest": 6153,
      "ĠpÃŃlÃŃ": 6154,
      "Ġblesku": 6155,
      "Ġdoj": 6156,
      "ĠronÃŃ": 6157,
      "Ġotco": 6158,
      "vku": 6159,
      "ĠnecÃŃ": 6160,
      "ĠpÅĻijdou": 6161,
      "Ġehu": 6162,
      "Ġpodve": 6163,
      "ĠpyÅ¡nÄĽ": 6164,
      "Ġity": 6165,
      "chodu": 6166,
      "ĠlhÃ¡": 6167,
      "Ġhudby": 6168,
      "ĠhrdÃ½": 6169,
      "ĠhroznÃ¡": 6170,
      "haly": 6171,
      "ĠickÃ½": 6172,
      "Ġedl": 6173,
      "ĠtÄĽÅ¾kÃ½ch": 6174,
      "ĠstrÃ¡nÃŃ": 6175,
      "Ã©ÅĻe": 6176,
      "teÅĻi": 6177,
      "Ġledo": 6178,
      "ĠplÃ¡ni": 6179,
      "Ġblahem": 6180,
      "ĠchvÃŃlÃŃ": 6181,
      "ĠlesÃŃch": 6182,
      "ĠÄįeskÃ½ch": 6183,
      "Ġsply": 6184,
      "ĠÅ¾ili": 6185,
      "ĠnÄĽhy": 6186,
      "Ġkomna": 6187,
      "ĠisÃŃ": 6188,
      "bitÃŃ": 6189,
      "ĠÅ¾ivoby": 6190,
      "Ġjasnou": 6191,
      "sli": 6192,
      "skutku": 6193,
      "Ġslep": 6194,
      "ĠboÅ¾ÃŃm": 6195,
      "Ġbludi": 6196,
      "Å¡ce": 6197,
      "jil": 6198,
      "Ġvskutku": 6199,
      "Ġzast": 6200,
      "ĠÅ¾alem": 6201,
      "nÃ¡n": 6202,
      "ĠvonnÃ©": 6203,
      "Ġdruhou": 6204,
      "ĠkypÃŃ": 6205,
      "Ġpije": 6206,
      "Ġsedm": 6207,
      "znou": 6208,
      "ĠpuÄįÃŃ": 6209,
      "Ġneh": 6210,
      "ama": 6211,
      "ĠadkÃ½": 6212,
      "ÄįÃŃch": 6213,
      "Ġmih": 6214,
      "ÅĪa": 6215,
      "ĠytÃ¡": 6216,
      "ĠdrtÃŃ": 6217,
      "ĠÅ¾alost": 6218,
      "Ġuby": 6219,
      "ĠvÅ¡ed": 6220,
      "Ġvinou": 6221,
      "ĠmlÃ¡de": 6222,
      "Ġporu": 6223,
      "Ġhudbou": 6224,
      "Ġejhle": 6225,
      "ĠvzkÅĻik": 6226,
      "zenÃ©": 6227,
      "Ġalem": 6228,
      "stÃŃm": 6229,
      "Ġtanci": 6230,
      "Ġpaprsky": 6231,
      "Å¾stvÃŃ": 6232,
      "ĠbrÃ¡t": 6233,
      "kÃ½mi": 6234,
      "ĠÃŃkÃ¡": 6235,
      "Ġlety": 6236,
      "ĠÃ©ÅĻe": 6237,
      "ĠlÃ©to": 6238,
      "ĠpohÃ¡d": 6239,
      "bej": 6240,
      "Ġmilovat": 6241,
      "Ġzkr": 6242,
      "Ġzahrady": 6243,
      "Äįat": 6244,
      "Ġnos": 6245,
      "ĠzÃ¡vÄĽ": 6246,
      "ĠvzpomÃŃnky": 6247,
      "ĠkrouÅ¾ÃŃ": 6248,
      "Ġkul": 6249,
      "ĠÄįtve": 6250,
      "ĠnÄĽhoÅ¾": 6251,
      "Ġkouzla": 6252,
      "ĠÃŃry": 6253,
      "Ġnivy": 6254,
      "Ġdcery": 6255,
      "ĠÄĽmÃ½": 6256,
      "Ġmohou": 6257,
      "ĠsÃŃtÄĽ": 6258,
      "ĠkÅĻeh": 6259,
      "Ġobloze": 6260,
      "Ġvzali": 6261,
      "Ġrakev": 6262,
      "Ġhasne": 6263,
      "ĠvzÃŃt": 6264,
      "Ġih": 6265,
      "Ġzad": 6266,
      "nut": 6267,
      "ĠÃºstech": 6268,
      "Ġsvaty": 6269,
      "ĠzachvÄĽl": 6270,
      "ĠkalÃŃ": 6271,
      "ĠdÃ¡lnÃ©": 6272,
      "ĠvolnÃ½": 6273,
      "ĠÅ¾lutÃ©": 6274,
      "ĠjeÅ¾ÃŃ": 6275,
      "ĠkrvÃ¡": 6276,
      "dum": 6277,
      "ĠslÃ¡vou": 6278,
      "it": 6279,
      "ĠÃŃÅ¡i": 6280,
      "Ġproh": 6281,
      "ĠvÃŃnem": 6282,
      "ster": 6283,
      "ĠkrÃ¡tce": 6284,
      "Ġutek": 6285,
      "ĠistÃ©": 6286,
      "ĠvÄĽÅĻit": 6287,
      "ĠoÄįÃŃm": 6288,
      "ĠspÃŃÅ¡e": 6289,
      "ĠkvÃŃtek": 6290,
      "mus": 6291,
      "Ġohem": 6292,
      "hlas": 6293,
      "Ġkdybys": 6294,
      "ĠslednÃŃ": 6295,
      "ĠodÃ¡": 6296,
      "ĠuÄįen": 6297,
      "ĠÃ¡du": 6298,
      "Ġvzej": 6299,
      "lenÃ¡": 6300,
      "ĠvÅ¡ecku": 6301,
      "Ġfranci": 6302,
      "ĠmÄĽstem": 6303,
      "Ġfor": 6304,
      "ĠznÄĽla": 6305,
      "Ġerem": 6306,
      "ĠzlatÄĽ": 6307,
      "Ġkrov": 6308,
      "Ġdvacet": 6309,
      "ĠmdlÃ©": 6310,
      "Ġskro": 6311,
      "Ġvina": 6312,
      "Ġsyny": 6313,
      "Ġpoliti": 6314,
      "ĠneustÃ¡": 6315,
      "Ġulici": 6316,
      "Ġpojednou": 6317,
      "Ġplody": 6318,
      "stvu": 6319,
      "Ġoudu": 6320,
      "ĠÃ©ta": 6321,
      "lin": 6322,
      "ĠtakÃ½": 6323,
      "ĠzoÅĻe": 6324,
      "Ġskrz": 6325,
      "ĠoÄįil": 6326,
      "jdeÅ¡": 6327,
      "ĠhbitÄĽ": 6328,
      "ĠsvÄĽtlÃ½": 6329,
      "ĠnÄĽkolik": 6330,
      "Ġzmu": 6331,
      "ĠvyÅ¡e": 6332,
      "ĠkÅĻÃŃdly": 6333,
      "Ġjih": 6334,
      "toval": 6335,
      "skÃ©mu": 6336,
      "ĠpÅĻedc": 6337,
      "prvÃ©": 6338,
      "Ġpoku": 6339,
      "vÅĻÃŃ": 6340,
      "ĠuvÄĽ": 6341,
      "ĠÃºna": 6342,
      "tuje": 6343,
      "Ġjarem": 6344,
      "dcem": 6345,
      "ĠÃŃnem": 6346,
      "ĠouhÃ¡": 6347,
      "ĠplÃ¡la": 6348,
      "ĠnÃ¡ÅĻek": 6349,
      "Ġsoudru": 6350,
      "ĠsnovÃ©": 6351,
      "Äįan": 6352,
      "Ġzbroj": 6353,
      "pne": 6354,
      "Ġnejle": 6355,
      "ĠbÄĽl": 6356,
      "ĠzalÃ©": 6357,
      "eny": 6358,
      "ĠÃ¡tek": 6359,
      "Ġmudr": 6360,
      "asy": 6361,
      "Ġlos": 6362,
      "Ġnepoz": 6363,
      "Ġjedinou": 6364,
      "Ġkan": 6365,
      "ĠstÃ¡ly": 6366,
      "ĠchrÃ¡nÃŃ": 6367,
      "Ġkriti": 6368,
      "ÅĪal": 6369,
      "Ġcar": 6370,
      "Ġblahu": 6371,
      "ĠodpoÄįÃŃ": 6372,
      "ĠznÄĽly": 6373,
      "ĠÅ¡pa": 6374,
      "ĠrÃ¡ko": 6375,
      "Ġhust": 6376,
      "Ġzimy": 6377,
      "ĠstkvÃŃ": 6378,
      "Ġdlani": 6379,
      "ĠnevÃŃÅ¡": 6380,
      "ĠpaÅĻÃŃ": 6381,
      "ĠstrÃ¡nÄĽ": 6382,
      "ĠdÄĽtstvÃŃ": 6383,
      "ĠnÅ¯Å¾": 6384,
      "ĠÃ¡tka": 6385,
      "ĠbÅĻehy": 6386,
      "Ġpostavy": 6387,
      "Ġsrde": 6388,
      "kru": 6389,
      "Ġspani": 6390,
      "ĠorÃ¡": 6391,
      "Ġkup": 6392,
      "ĠadÃ½": 6393,
      "ĠvzplÃ¡l": 6394,
      "Ġhouf": 6395,
      "ĠilÃŃ": 6396,
      "Ġhrobem": 6397,
      "ĠzazpÃŃ": 6398,
      "ĠblahÃ©": 6399,
      "Ġocho": 6400,
      "cek": 6401,
      "Ġholou": 6402,
      "ĠvodnÃŃ": 6403,
      "ĠstranÄĽ": 6404,
      "Ġsmutnou": 6405,
      "ĠzÃ¡pla": 6406,
      "ĠzdrÃ¡va": 6407,
      "ĠzvukÅ¯": 6408,
      "voval": 6409,
      "Ġpravdou": 6410,
      "Ġchou": 6411,
      "Ġpoha": 6412,
      "pÃ¡n": 6413,
      "ĠnenadÃ¡": 6414,
      "Ġazy": 6415,
      "Ġzhu": 6416,
      "ĠlaÅĪ": 6417,
      "ĠhvÄĽzdami": 6418,
      "Ġfilo": 6419,
      "Ġrce": 6420,
      "ĠtouÅ¾il": 6421,
      "ĠtemnÃ½ch": 6422,
      "ĠhÅĻÃŃchy": 6423,
      "jala": 6424,
      "Ġnebyla": 6425,
      "Ġkvil": 6426,
      "ĠÄĽdÄĽl": 6427,
      "ĠlÃŃtÃ¡": 6428,
      "fÃ¡": 6429,
      "ĠbÃŃdnÃ½": 6430,
      "Å¾emi": 6431,
      "Ġuva": 6432,
      "Ġpusto": 6433,
      "ĠkolÃŃ": 6434,
      "asÃŃ": 6435,
      "pÃŃÅ¡": 6436,
      "ĠÃ¡dal": 6437,
      "vujÃŃ": 6438,
      "ĠÅĻadu": 6439,
      "ĠÄĽd": 6440,
      "Ġlidskou": 6441,
      "ĠmaÄı": 6442,
      "ĠÅ¡ÃŃje": 6443,
      "Äįily": 6444,
      "Ġzlomen": 6445,
      "Ġsklonil": 6446,
      "nnÃ½": 6447,
      "Ġuta": 6448,
      "ĠistÄĽ": 6449,
      "Ġhromu": 6450,
      "ĠzimÄĽ": 6451,
      "ĠÅ¾ivobytÃŃ": 6452,
      "ĠdÃŃm": 6453,
      "zka": 6454,
      "ĠitÃ½": 6455,
      "tiv": 6456,
      "jela": 6457,
      "Ġvypla": 6458,
      "ĠÃ½Å¡i": 6459,
      "Ġpokoje": 6460,
      "ĠmyÅ¡lenka": 6461,
      "ĠpoÅĻÃ¡d": 6462,
      "rÅ¯m": 6463,
      "Ġzara": 6464,
      "ĠdivÃ©m": 6465,
      "ĠXABBA": 6466,
      "ĠtajnÃ©": 6467,
      "ĠÃ¡sa": 6468,
      "ĠchvÄĽnÃŃ": 6469,
      "ĠprospÄĽ": 6470,
      "Ġrozs": 6471,
      "Ġrety": 6472,
      "ĠskÃ¡Äįe": 6473,
      "ĠzimnÃŃ": 6474,
      "Ã½t": 6475,
      "ÅĻiv": 6476,
      "ÅĻenou": 6477,
      "Ġsedmi": 6478,
      "Ġvlasten": 6479,
      "ĠmlÃ½n": 6480,
      "liti": 6481,
      "Ġnekli": 6482,
      "Ġzato": 6483,
      "ĠouhÃ½": 6484,
      "Ġsuk": 6485,
      "Ġvzrost": 6486,
      "ary": 6487,
      "Ġonil": 6488,
      "ĠmraÄįen": 6489,
      "ĠhÅĻÃŃÅ¡": 6490,
      "ĠzahradÄĽ": 6491,
      "Ġramena": 6492,
      "Ġile": 6493,
      "deÅĪ": 6494,
      "ĠdÃŃvku": 6495,
      "ĠÅ¾ivÃ¡": 6496,
      "ĠuhlÃŃ": 6497,
      "ĠsnivÃ©": 6498,
      "ĠschÃ¡zÃŃ": 6499,
      "Ġvzhled": 6500,
      "Ġvesel": 6501,
      "ĠkÅ¡ti": 6502,
      "nÃŃku": 6503,
      "natÃ©": 6504,
      "Ġoddech": 6505,
      "Äįeji": 6506,
      "ĠÅ¾ila": 6507,
      "Äįinu": 6508,
      "Ġprcha": 6509,
      "ĠonÅ¯": 6510,
      "Ġstarce": 6511,
      "lÃŃcÃŃ": 6512,
      "ĠÅ¡Å¥astnÄĽ": 6513,
      "ĠpilnÄĽ": 6514,
      "bral": 6515,
      "Ġnapad": 6516,
      "ĠpÅĻÃŃsta": 6517,
      "ĠvÃ½m": 6518,
      "Ġatil": 6519,
      "Ġskryl": 6520,
      "ÅĻuje": 6521,
      "Ġoze": 6522,
      "Ġnejsi": 6523,
      "Ġhus": 6524,
      "ĠdÅ¯stoj": 6525,
      "Ġarem": 6526,
      "Ġprale": 6527,
      "Ġrato": 6528,
      "ĠÅ¾eÅĪ": 6529,
      "ĠotrÃ¡": 6530,
      "Ġchoro": 6531,
      "ĠhÅĻÃŃchÅ¯": 6532,
      "desÃ¡": 6533,
      "ĠptÃ¡m": 6534,
      "nÃŃky": 6535,
      "ĠhrobÅ¯": 6536,
      "Ġbloudil": 6537,
      "ĠzdvihÃ¡": 6538,
      "Ġsmy": 6539,
      "Ġpova": 6540,
      "ĠÃŃnÅ¯": 6541,
      "Ġjisto": 6542,
      "dÄĽly": 6543,
      "mÄĽla": 6544,
      "Ġsvojich": 6545,
      "vedl": 6546,
      "ĠfarÃ¡": 6547,
      "ĠvÃ½chodu": 6548,
      "ĠhvÃŃ": 6549,
      "Ġpopra": 6550,
      "skÅ¯": 6551,
      "Ġvych": 6552,
      "ĠsklÃŃ": 6553,
      "ĠedÃ½": 6554,
      "Ġpomsty": 6555,
      "Ġdych": 6556,
      "venÃŃ": 6557,
      "ĠholÃ©": 6558,
      "Ġkres": 6559,
      "ĠchvÃ¡tÃ¡": 6560,
      "Ġnevo": 6561,
      "vÃŃvÃ¡": 6562,
      "Ġskok": 6563,
      "ĠdÃ¡Å¡": 6564,
      "stane": 6565,
      "ĠpÅ¯dy": 6566,
      "ĠÃ¡hla": 6567,
      "ĠkoÄįÃ¡": 6568,
      "Ġohla": 6569,
      "Ġplny": 6570,
      "Ġchaty": 6571,
      "ĠzÃ¡ho": 6572,
      "ĠsnÄĽhem": 6573,
      "slov": 6574,
      "Ġjesen": 6575,
      "rÃ¡Å¾ÃŃ": 6576,
      "Å¾iti": 6577,
      "ĠpÃ¡dÃŃ": 6578,
      "ĠastÃŃ": 6579,
      "ĠstÃ½": 6580,
      "ĠjitÅĻ": 6581,
      "ĠstÃ¡lo": 6582,
      "ĠpustÃ½": 6583,
      "Ġvaz": 6584,
      "ĠknÄĽÅ¾ÃŃ": 6585,
      "eno": 6586,
      "Ġmok": 6587,
      "lemi": 6588,
      "Ġjsouc": 6589,
      "Ġtrav": 6590,
      "ĠÃ¡kÅ¯": 6591,
      "ĠÄĽnÃ¡": 6592,
      "Ġvej": 6593,
      "nutÃŃm": 6594,
      "Ġhodin": 6595,
      "Ġpokra": 6596,
      "ĠonÄĽch": 6597,
      "vÄĽti": 6598,
      "ĠoblÃ¡": 6599,
      "ĠzÃ¡stu": 6600,
      "Ġohlas": 6601,
      "Ġzim": 6602,
      "Ġihned": 6603,
      "ptÃ¡": 6604,
      "Ġamy": 6605,
      "Å¡til": 6606,
      "ĠzÃ¡Å¡Å¥": 6607,
      "Ġpavu": 6608,
      "Ġzkad": 6609,
      "ĠvzkÅĻi": 6610,
      "Ġblankytu": 6611,
      "bÃ¡n": 6612,
      "ĠssÃ¡": 6613,
      "lon": 6614,
      "ilÃ©": 6615,
      "sej": 6616,
      "ĠÅ¡ele": 6617,
      "Ġbezna": 6618,
      "ĠmocnÃ©": 6619,
      "ĠznÃ¡mÃ©": 6620,
      "ĠÃ¡ky": 6621,
      "kalo": 6622,
      "ĠkmitÃ¡": 6623,
      "ĠskÅĻivan": 6624,
      "rci": 6625,
      "Ġtlou": 6626,
      "ĠebÃŃ": 6627,
      "ĠpÃŃti": 6628,
      "Ġoblaky": 6629,
      "ul": 6630,
      "Ġanul": 6631,
      "Ġitra": 6632,
      "volu": 6633,
      "Ġyku": 6634,
      "Ġsiro": 6635,
      "Ġpozdvi": 6636,
      "ĠlistÅ¯": 6637,
      "ĠpestrÃ©": 6638,
      "ĠutÃ©": 6639,
      "ĠvlastnÄĽ": 6640,
      "ĠÃŃcÃŃm": 6641,
      "ĠstudÃ¡": 6642,
      "ĠdÃ©le": 6643,
      "ĠiÅ¡tÄĽ": 6644,
      "Ġdopro": 6645,
      "Ġposlal": 6646,
      "ĠÅ¯li": 6647,
      "cenÃ¡": 6648,
      "ĠhoÅ¡i": 6649,
      "bin": 6650,
      "ĠÅ¡epce": 6651,
      "ĠprÃ¡zdnÃ©": 6652,
      "ĠpodzimnÃŃ": 6653,
      "ĠzvÃ¡": 6654,
      "Ġnehy": 6655,
      "ĠvlastnÃŃm": 6656,
      "ĠsadÄĽ": 6657,
      "ie": 6658,
      "vno": 6659,
      "ĠrozlÃŃ": 6660,
      "Ġlnou": 6661,
      "ĠzoufalstvÃŃ": 6662,
      "ĠÃ¡lky": 6663,
      "Ġsmysly": 6664,
      "jo": 6665,
      "ĠseÄį": 6666,
      "ĠptÃ¡ka": 6667,
      "ĠsvÃŃtil": 6668,
      "ĠvtÄĽ": 6669,
      "Ġvni": 6670,
      "ĠÃ¡su": 6671,
      "Ġleto": 6672,
      "ĠmÄĽstu": 6673,
      "ĠplnÃ½m": 6674,
      "ĠpÅĻÃŃsnÄĽ": 6675,
      "ĠnapÅĻed": 6676,
      "ĠoltÃ¡ÅĻi": 6677,
      "Ġim": 6678,
      "ÅĻeli": 6679,
      "ÅĻeje": 6680,
      "ĠkamenÃŃ": 6681,
      "Ġstrun": 6682,
      "ĠtakovÃ©": 6683,
      "ĠnÃ¡bo": 6684,
      "dÅĻÃŃ": 6685,
      "Ġrukama": 6686,
      "Ġpluh": 6687,
      "ĠvysokÃ©": 6688,
      "nÄĽla": 6689,
      "ĠÄĽsti": 6690,
      "Ġhoru": 6691,
      "ĠstÃŃhÃ¡": 6692,
      "vily": 6693,
      "ĠstarÃ©m": 6694,
      "ĠÅ¡lehÃ¡": 6695,
      "vanÃ¡": 6696,
      "ĠteÄįe": 6697,
      "ĠednÃ©": 6698,
      "ĠvÄĽÄįnÃ½ch": 6699,
      "ker": 6700,
      "ĠÃŃvÃ¡m": 6701,
      "ĠhlubokÃ½": 6702,
      "ÄįnÃŃch": 6703,
      "Ġtok": 6704,
      "ĠennÃŃ": 6705,
      "ĠmilÃŃ": 6706,
      "Ġluhy": 6707,
      "ĠzvlÃ¡Å¡tnÃŃ": 6708,
      "ĠpÅ¯lnoc": 6709,
      "ĠvichÅĻice": 6710,
      "Ġdojem": 6711,
      "ĠÃºt": 6712,
      "Ġjedem": 6713,
      "ĠÅ¡edÃ¡": 6714,
      "ĠskÃ¡lu": 6715,
      "Ġpoledne": 6716,
      "Ġohled": 6717,
      "ĠzboÅ¾": 6718,
      "Ġprince": 6719,
      "ĠvavÅĻÃŃ": 6720,
      "ĠhedvÃ¡": 6721,
      "cti": 6722,
      "vanou": 6723,
      "Ġnejde": 6724,
      "ĠslÃ½ch": 6725,
      "Ġovoce": 6726,
      "Ġsatan": 6727,
      "ĠoÅĻ": 6728,
      "ĠvidÄĽla": 6729,
      "ĠbÄĽlo": 6730,
      "ĠlÃ©ka": 6731,
      "ĠvesmÃŃr": 6732,
      "ĠdÄĽsnÃ½": 6733,
      "Ġzpup": 6734,
      "letÄĽl": 6735,
      "ĠivÃ½ch": 6736,
      "Å¥u": 6737,
      "hlÃŃÅ¾ÃŃ": 6738,
      "ĠmyÅ¡lÃ©nka": 6739,
      "roval": 6740,
      "Ġvypl": 6741,
      "ĠÄįervÃ¡nkÅ¯": 6742,
      "nÃŃka": 6743,
      "ĠpÅĻekva": 6744,
      "ĠbleskÅ¯": 6745,
      "ĠAAXBBX": 6746,
      "stila": 6747,
      "ĠprvÃ½": 6748,
      "Ġsoko": 6749,
      "vracÃŃ": 6750,
      "Ġseveru": 6751,
      "tÃ¡ÅĻ": 6752,
      "ĠdÄĽsÃŃ": 6753,
      "pÃŃrÃ¡": 6754,
      "ĠchceÅ¡li": 6755,
      "Ġbalvan": 6756,
      "ca": 6757,
      "ĠnelÃŃ": 6758,
      "titi": 6759,
      "ĠplÃ¡ly": 6760,
      "ĠslabÃ©": 6761,
      "tnÃ½ch": 6762,
      "ĠobjÃŃmÃ¡": 6763,
      "ĠnÃ¡v": 6764,
      "ĠpÃ¡ny": 6765,
      "ĠzdobÃŃ": 6766,
      "ĠideÃ¡": 6767,
      "Ġhubi": 6768,
      "ĠbavÃŃ": 6769,
      "Ġmlze": 6770,
      "ĠnaÅ¡eho": 6771,
      "ĠzmÃŃtÃ¡": 6772,
      "ako": 6773,
      "Ġgro": 6774,
      "ĠÄıÃ¡b": 6775,
      "Ġmladist": 6776,
      "Ġpose": 6777,
      "Ġvzbou": 6778,
      "ĠakÃ©": 6779,
      "ĠpoÅĻÃ¡": 6780,
      "ĠchtÄĽjÃŃ": 6781,
      "ĠpÅĻemÃ½": 6782,
      "Ġchceme": 6783,
      "nÃ©sti": 6784,
      "ĠÅ¡tva": 6785,
      "ĠÅĻÃŃma": 6786,
      "Ġrysy": 6787,
      "ĠneznÃ¡mÃ½": 6788,
      "Ġoblou": 6789,
      "Ġnoh": 6790,
      "Ġpoupat": 6791,
      "ĠtmÃ¡m": 6792,
      "Ġbly": 6793,
      "Ġpoe": 6794,
      "ĠiÅ¡ti": 6795,
      "Ġlibu": 6796,
      "Å¡tÄĽnÃŃ": 6797,
      "Ġvzdoru": 6798,
      "ĠmyÅ¡lÃ©nek": 6799,
      "ĠdvakrÃ¡t": 6800,
      "Ġazem": 6801,
      "ĠburÃ¡": 6802,
      "ĠslastÃŃ": 6803,
      "Ġsoused": 6804,
      "Ġratole": 6805,
      "Ġmam": 6806,
      "ĠpÃ¡ry": 6807,
      "ĠzboÅ¾nÄĽ": 6808,
      "Ġzticha": 6809,
      "zli": 6810,
      "ĠavÃ½ch": 6811,
      "ĠbÃ©ÅĻe": 6812,
      "ĠhoÅĻi": 6813,
      "ĠchrÃ¡my": 6814,
      "ĠtkvÃŃ": 6815,
      "Ġich": 6816,
      "ĠÅ¡erem": 6817,
      "Ġjisker": 6818,
      "Å¡kem": 6819,
      "ĠhladÃŃ": 6820,
      "ĠdruzÃŃ": 6821,
      "ĠsvatÃ©m": 6822,
      "Ġpaprs": 6823,
      "ÄįekÃ¡": 6824,
      "Ġshlu": 6825,
      "ĠpomÃ¡": 6826,
      "ĠpÅĻÃŃklad": 6827,
      "ĠretÅ¯": 6828,
      "Ġulice": 6829,
      "ĠdÃ¡my": 6830,
      "adil": 6831,
      "ĠvzpomÃŃnek": 6832,
      "Ġnohu": 6833,
      "Ġnechte": 6834,
      "Ġmoudrosti": 6835,
      "Ġadost": 6836,
      "Ġsestra": 6837,
      "ABX": 6838,
      "teÄįnÃŃ": 6839,
      "Ġdomy": 6840,
      "ĠhÅĻbitov": 6841,
      "ĠsnÃ¡Å¡ÃŃ": 6842,
      "Ġrol": 6843,
      "Ġvza": 6844,
      "Ġston": 6845,
      "ĠpÅĻesvÄĽd": 6846,
      "Ġnet": 6847,
      "nov": 6848,
      "ĠlodÃŃ": 6849,
      "Ġklesl": 6850,
      "raz": 6851,
      "lie": 6852,
      "Ġchech": 6853,
      "ĠboÅĻÃŃ": 6854,
      "ĠpohÃ¡dky": 6855,
      "ĠnÄĽmÃ¡": 6856,
      "Ġokra": 6857,
      "ĠhledÃ¡m": 6858,
      "ĠsklÃ¡dÃ¡": 6859,
      "ĠmÅ¾ikem": 6860,
      "ĠÅ¡ly": 6861,
      "pÄĽv": 6862,
      "ĠperutÄĽ": 6863,
      "gna": 6864,
      "Ġster": 6865,
      "ĠvÃ½kÅĻi": 6866,
      "Ġmrav": 6867,
      "Ġejich": 6868,
      "ĠrhÃ¡": 6869,
      "Ġlidmi": 6870,
      "ĠzjevÃŃ": 6871,
      "ĠbujnÃ©": 6872,
      "ĠvpÅĻed": 6873,
      "ĠpÅĻelud": 6874,
      "Ġutku": 6875,
      "Ġkorou": 6876,
      "Ġasne": 6877,
      "Ġpraha": 6878,
      "ĠsnÄĽm": 6879,
      "ĠÅĻadou": 6880,
      "zne": 6881,
      "ĠnohÃ¡m": 6882,
      "ĠujeÅ¡": 6883,
      "ĠznÃ¡te": 6884,
      "Ġvezmi": 6885,
      "ĠpÃ½cha": 6886,
      "ĠuÄįil": 6887,
      "ĠchÅĻe": 6888,
      "ĠÅĻÃŃc": 6889,
      "bÃ¡Å¡": 6890,
      "Ġprostor": 6891,
      "cka": 6892,
      "Ġudem": 6893,
      "Ġkop": 6894,
      "Ġdmou": 6895,
      "lÃ¡n": 6896,
      "ĠtÅĻesk": 6897,
      "Ġobrazy": 6898,
      "bce": 6899,
      "Ġoct": 6900,
      "ĠlÃ¡me": 6901,
      "Ġtat": 6902,
      "ÅĪu": 6903,
      "mÃŃvÃ¡": 6904,
      "ĠÅ¾ilÃ¡ch": 6905,
      "ĠlÃŃstek": 6906,
      "ĠmÃŃhÃ¡": 6907,
      "ĠchtÄĽlo": 6908,
      "ĠjinÃ©ho": 6909,
      "Ġrval": 6910,
      "Ġcig": 6911,
      "Ġuml": 6912,
      "ĠnevidÄĽl": 6913,
      "ĠcizÃŃm": 6914,
      "ĠbohatÃ½r": 6915,
      "Ġachem": 6916,
      "don": 6917,
      "ĠÄįechy": 6918,
      "ĠokÃ¡": 6919,
      "Ġprova": 6920,
      "ĠzÃ¡dum": 6921,
      "ĠspÃ¡ti": 6922,
      "ĠÅ¡irÃ½": 6923,
      "zdÃŃ": 6924,
      "ĠÃ¡hÃ¡": 6925,
      "ĠÅ¯nÃŃ": 6926,
      "Ġtvar": 6927,
      "Ġtrium": 6928,
      "ĠovÃ¡n": 6929,
      "ĠÅ¡o": 6930,
      "Ġadil": 6931,
      "ĠpoÄįne": 6932,
      "ĠetÄĽ": 6933,
      "bech": 6934,
      "ĠvÃ¡lky": 6935,
      "ĠstÃ¡do": 6936,
      "ĠzelenÃ½": 6937,
      "ĠpoÅ¾Ã¡r": 6938,
      "bÅ¡ÃŃ": 6939,
      "Äįuje": 6940,
      "ĠtÄĽÅ¾kÃ½m": 6941,
      "ĠtuÅ¡ÃŃm": 6942,
      "ĠkaÅ¾dÃ©mu": 6943,
      "Ġodve": 6944,
      "ĠÅ¡ÃŃj": 6945,
      "ĠzachrÃ¡": 6946,
      "ĠbodÃ¡": 6947,
      "ĠrÅ¯znÃ©": 6948,
      "ĠXABBAX": 6949,
      "ĠÃ¡dnÃ©": 6950,
      "ĠvrÃ¡sky": 6951,
      "Ġminulost": 6952,
      "Ġsep": 6953,
      "ĠiÅ¡ÃŃ": 6954,
      "ĠÅ¾iva": 6955,
      "Ġyna": 6956,
      "Ġplakal": 6957,
      "mÄĽly": 6958,
      "ĠsrdÃ©": 6959,
      "ĠÅ¡epo": 6960,
      "Ġopou": 6961,
      "ĠÄĽnÃŃm": 6962,
      "Ġvysko": 6963,
      "ĠrvÃŃ": 6964,
      "ĠruÄįky": 6965,
      "ĠÄįinu": 6966,
      "Ġlov": 6967,
      "Ġperla": 6968,
      "ĠzÃ¡dumÄįi": 6969,
      "Ġprs": 6970,
      "ĠÅĻece": 6971,
      "ĠkoutÄĽ": 6972,
      "ÄįÃŃÅ¡": 6973,
      "ĠpravÃŃm": 6974,
      "ĠnebeskÃ©": 6975,
      "ĠvrahÅ¯": 6976,
      "ĠchvÄĽlo": 6977,
      "ĠtajemnÃ©": 6978,
      "Ġvnady": 6979,
      "lÃ½mi": 6980,
      "ĠvteÅĻi": 6981,
      "Ġanem": 6982,
      "ĠouÅ¾il": 6983,
      "Å¾at": 6984,
      "ĠnÄĽÅ¾nÃ©": 6985,
      "dily": 6986,
      "skot": 6987,
      "ĠposvÃ¡": 6988,
      "Ġplynou": 6989,
      "ĠrozumÃŃ": 6990,
      "Ġzkla": 6991,
      "Ġzavz": 6992,
      "Ġouha": 6993,
      "Ġnejdra": 6994,
      "ĠmateÅĻ": 6995,
      "ĠrÅ¯znÃ½ch": 6996,
      "Ġpocit": 6997,
      "ĠzaÄįÃŃ": 6998,
      "Ġgu": 6999,
      "sly": 7000,
      "ĠzlÃ½m": 7001,
      "Ġhromo": 7002,
      "ĠvlÃ¡dy": 7003,
      "ĠskalÃ¡ch": 7004,
      "Ġzbylo": 7005,
      "ĠÅ¾ebrÃ¡k": 7006,
      "Ġvlek": 7007,
      "Ġpoklady": 7008,
      "ĠhlasÅ¯": 7009,
      "ĠkouÅĻ": 7010,
      "ĠÅ¾ÃŃzni": 7011,
      "Ġodem": 7012,
      "ĠzkvÃ©": 7013,
      "Ġdovo": 7014,
      "Ġvyho": 7015,
      "ĠodnÃŃ": 7016,
      "ĠnÄĽmÃ©": 7017,
      "ĠÅ¡ÃŃÅĻ": 7018,
      "ĠradosÅ¥": 7019,
      "Ġneje": 7020,
      "ĠpÃ¡nÅ¯": 7021,
      "Ġanti": 7022,
      "ĠchvÄĽj": 7023,
      "ĠÅ¡irÃ©": 7024,
      "mÃŃra": 7025,
      "ĠÄįlovÄĽkem": 7026,
      "Ġmraku": 7027,
      "ĠpevnÃ½": 7028,
      "ĠchtÃŃt": 7029,
      "ĠproklÃŃ": 7030,
      "ĠvÃŃÄįka": 7031,
      "ĠbÄĽhu": 7032,
      "Ġmladost": 7033,
      "ĠmajestÃ¡": 7034,
      "ĠpÄĽti": 7035,
      "Ġnepoko": 7036,
      "Ġvesna": 7037,
      "Ġmen": 7038,
      "Äįeli": 7039,
      "ĠvÅ¡echna": 7040,
      "ĠblaÅ¾ÃŃ": 7041,
      "ĠmrtvÃŃ": 7042,
      "ĠvylÃŃ": 7043,
      "Ġrozka": 7044,
      "Ġceli": 7045,
      "ĠkacÃŃ": 7046,
      "ĠsvatÃ©ho": 7047,
      "Ġhrdla": 7048,
      "ĠpÃ½Å¡e": 7049,
      "ĠvrÃ¡t": 7050,
      "ĠdnovÃ©": 7051,
      "ĠpoprvÃ©": 7052,
      "Ġnaro": 7053,
      "ĠuhÃ½": 7054,
      "Ġesty": 7055,
      "ĠmistÅĻe": 7056,
      "Äįely": 7057,
      "ÅĻeny": 7058,
      "ĠumÅĻel": 7059,
      "Ġvysta": 7060,
      "Ġsouci": 7061,
      "ĠposmÄĽch": 7062,
      "ĠshÃ½": 7063,
      "ĠsnÅ¯m": 7064,
      "ĠstoletÃŃ": 7065,
      "ÅĻely": 7066,
      "Ġzaji": 7067,
      "dÃ¡n": 7068,
      "Ġslavnost": 7069,
      "ĠkÃ¡cÃŃ": 7070,
      "ÅĻÃŃti": 7071,
      "ĠprobÃŃ": 7072,
      "stala": 7073,
      "ĠslabÃ½": 7074,
      "gie": 7075,
      "ĠdÃ¡no": 7076,
      "ĠprvÃ©": 7077,
      "Ġcele": 7078,
      "ĠohÃ½": 7079,
      "ĠkrvavÃ½": 7080,
      "ĠapoÅ¡to": 7081,
      "ÅĻte": 7082,
      "Ġpobo": 7083,
      "ĠÃ¡zel": 7084,
      "ĠÄįistou": 7085,
      "Ġrevolu": 7086,
      "ĠjejichÅ¾": 7087,
      "ĠdrÃ¡hy": 7088,
      "Ġpovstal": 7089,
      "ĠzahÅĻ": 7090,
      "Ġzanech": 7091,
      "Å¡ili": 7092,
      "ĠsÃ¡h": 7093,
      "ĠzmÄĽnÃŃ": 7094,
      "ÄįinÄĽ": 7095,
      "ĠvojÃŃ": 7096,
      "Ġmodro": 7097,
      "snÃ½m": 7098,
      "ĠnevÃ¡": 7099,
      "ĠvÃ¡no": 7100,
      "Ġfial": 7101,
      "ĠpenÄĽz": 7102,
      "zat": 7103,
      "ĠanÅ¯": 7104,
      "Ġkl": 7105,
      "ĠdÅ¾": 7106,
      "ĠbÃ¡snÄĽ": 7107,
      "ĠdivokÃ©": 7108,
      "Ġdopo": 7109,
      "mÅ¯Å¾e": 7110,
      "Ġleta": 7111,
      "ĠspoÄįÃŃ": 7112,
      "ĠÅ¡eptal": 7113,
      "Ġparku": 7114,
      "Ġnasy": 7115,
      "ĠdÄĽlÃŃ": 7116,
      "Ġhluku": 7117,
      "ĠklidnÃ½": 7118,
      "hlÃ½m": 7119,
      "Ġmohli": 7120,
      "emi": 7121,
      "Ġlevo": 7122,
      "piti": 7123,
      "ĠhvÄĽzdou": 7124,
      "Ġpopla": 7125,
      "ĠÃ¡lu": 7126,
      "Ġynul": 7127,
      "ĠskoÄįÃŃ": 7128,
      "ĠposÃŃ": 7129,
      "Ġesou": 7130,
      "ĠÃŃbÃ¡": 7131,
      "Ġslovu": 7132,
      "ĠatÃ½ch": 7133,
      "ĠkrutÃ©": 7134,
      "ĠkrÃ¡tkÃ©": 7135,
      "Ġjdeme": 7136,
      "Ġnedal": 7137,
      "Ġchalou": 7138,
      "Ġvystou": 7139,
      "Ġlip": 7140,
      "lÅ¯v": 7141,
      "ria": 7142,
      "Äįena": 7143,
      "Ġzbude": 7144,
      "ĠÃ¡dky": 7145,
      "Ġzahu": 7146,
      "Ġdocela": 7147,
      "kati": 7148,
      "veÅĪ": 7149,
      "ĠÅ¾ivÃŃ": 7150,
      "ĠtÃŃsnÃŃ": 7151,
      "ĠumÅĻÃŃt": 7152,
      "ĠaÅĻe": 7153,
      "ĠnabÃŃ": 7154,
      "ĠÃ¡nky": 7155,
      "Ġskvr": 7156,
      "Ġsos": 7157,
      "bÃ½vÃ¡": 7158,
      "ĠvÄĽÅĻte": 7159,
      "Ġneli": 7160,
      "Ġnemu": 7161,
      "Ġstranu": 7162,
      "ĠsvÃŃtÃ¡": 7163,
      "Ġsymbo": 7164,
      "ĠmÃŃsÃŃ": 7165,
      "ĠmoudrÃ½": 7166,
      "Ġrolan": 7167,
      "ĠpouhÃ©": 7168,
      "Ġesl": 7169,
      "Ġostro": 7170,
      "ĠnovÃ©ho": 7171,
      "ĠhlÃ¡sÃŃ": 7172,
      "zar": 7173,
      "ĠplnÃ½ch": 7174,
      "ĠnedoÄįka": 7175,
      "Ġlampy": 7176,
      "Ġnejen": 7177,
      "ĠhrÅ¯z": 7178,
      "ĠdÄĽcka": 7179,
      "kynÄĽ": 7180,
      "Ġryk": 7181,
      "Ġgo": 7182,
      "ĠpÃ¡nbÅ¯h": 7183,
      "ĠjmÃ©nem": 7184,
      "ĠnÃ¡mÄĽstÃŃ": 7185,
      "Ġolo": 7186,
      "ĠeÄįer": 7187,
      "ĠrodnÃ½": 7188,
      "Ġposly": 7189,
      "ĠÅĻÃŃdÃŃ": 7190,
      "ĠrekÅ¯": 7191,
      "slÃŃ": 7192,
      "ĠlÃŃtost": 7193,
      "ĠmrtvÃ¡": 7194,
      "ĠposlednÃŃm": 7195,
      "Ġzmatku": 7196,
      "ĠvznÄĽt": 7197,
      "Ġprobou": 7198,
      "Ġvzor": 7199,
      "ĠÃ¡ty": 7200,
      "ĠmocnÃ¡": 7201,
      "ĠvÃŃme": 7202,
      "ĠnovÃ©m": 7203,
      "ĠsmÃŃm": 7204,
      "Ġhisto": 7205,
      "Ġzloba": 7206,
      "ĠnevÄĽdÄĽl": 7207,
      "ĠhleÄıte": 7208,
      "ĠÄįinÅ¯": 7209,
      "ĠkrÃ¡lovna": 7210,
      "ĠvstaÅĪ": 7211,
      "Ġposu": 7212,
      "ĠÃºsmÄĽvu": 7213,
      "ĠbÅĻehÅ¯": 7214,
      "!!": 7215,
      "lice": 7216,
      "Ġperel": 7217,
      "Ġodpor": 7218,
      "Ġzaml": 7219,
      "ĠrovnÄĽÅ¾": 7220,
      "Ġace": 7221,
      "Ġzjas": 7222,
      "ĠsmÃ¡la": 7223,
      "Ġpor": 7224,
      "Ġhladem": 7225,
      "ĠvÅ¡emo": 7226,
      "dly": 7227,
      "Ġesta": 7228,
      "ĠpÅĻehlu": 7229,
      "daje": 7230,
      "ĠteplÃ½": 7231,
      "Ġhospody": 7232,
      "ÃŃch": 7233,
      "ĠÃ¡ka": 7234,
      "skat": 7235,
      "ĠÃŃnÃ¡m": 7236,
      "Ġkopy": 7237,
      "Ġmuzi": 7238,
      "Ġjasno": 7239,
      "Ġkmo": 7240,
      "rod": 7241,
      "ĠskvoucÃŃ": 7242,
      "Ġryb": 7243,
      "ĠubohÃ©": 7244,
      "Ġhejno": 7245,
      "ĠzadÃŃ": 7246,
      "Å¾iv": 7247,
      "Ġhudbu": 7248,
      "Ġvzejde": 7249,
      "ĠkopÃŃ": 7250,
      "Ġmine": 7251,
      "ĠvÃ¡le": 7252,
      "ĠÄįernÃ½m": 7253,
      "Ġpohan": 7254,
      "Ġecky": 7255,
      "ĠnejlepÅ¡ÃŃ": 7256,
      "Ã¡t": 7257,
      "ĠzavÄĽ": 7258,
      "Ġpokoji": 7259,
      "ĠslepÃ½": 7260,
      "Ġkorouh": 7261,
      "Å¥te": 7262,
      "Ġodpla": 7263,
      "ĠcestÃ¡ch": 7264,
      "ĠkrÃ¡snÄĽjÅ¡ÃŃ": 7265,
      "Ġteplo": 7266,
      "stupuje": 7267,
      "Ġvdech": 7268,
      "ĠzlÃ©ho": 7269,
      "ĠÃ¡zem": 7270,
      "ĠostÃ©": 7271,
      "zenÃ½": 7272,
      "Ġoblaka": 7273,
      "ĠkÅĻovÃŃ": 7274,
      "Ġshle": 7275,
      "Ġopa": 7276,
      "Ġekl": 7277,
      "nÄĽly": 7278,
      "ĠvÃ½Äįi": 7279,
      "Ġzjevil": 7280,
      "Ġenci": 7281,
      "ĠhustÃ©": 7282,
      "ĠÅĻem": 7283,
      "ĠÃŃtal": 7284,
      "ĠviÄı": 7285,
      "ĠstÃ¡da": 7286,
      "ĠsladkÃ©m": 7287,
      "Ġzasy": 7288,
      "ĠlÃŃpy": 7289,
      "Ġtluk": 7290,
      "Ġtragi": 7291,
      "ĠmdlÃ¡": 7292,
      "ĠvÃ¡cla": 7293,
      "pka": 7294,
      "Ġmha": 7295,
      "rali": 7296,
      "ĠjeÅ¾ÃŃÅ¡": 7297,
      "Å¾eli": 7298,
      "Ġodsou": 7299,
      "Ġrenal": 7300,
      "ÄįeÅ¾": 7301,
      "Ġkane": 7302,
      "ĠpÄĽjÃŃ": 7303,
      "ĠmarnÃ½": 7304,
      "ĠchvÄĽly": 7305,
      "ĠprÃ¡zdnÃ½": 7306,
      "ĠubohÃ½": 7307,
      "Ġprsten": 7308,
      "ĠozÃŃ": 7309,
      "ĠÃ¡lem": 7310,
      "Ġobec": 7311,
      "stÃŃrÃ¡": 7312,
      "Ġhezky": 7313,
      "ent": 7314,
      "ĠpamÄĽt": 7315,
      "ĠplÃŃÅ¾ÃŃ": 7316,
      "ĠÄĽno": 7317,
      "novu": 7318,
      "mila": 7319,
      "ĠmÄĽly": 7320,
      "ĠhouÅ¡ti": 7321,
      "Ġsel": 7322,
      "vÃ¡na": 7323,
      "Ġrvou": 7324,
      "zala": 7325,
      "ĠstÅĻela": 7326,
      "ĠtÅ¯nÄĽ": 7327,
      "Ġvzplane": 7328,
      "knout": 7329,
      "ari": 7330,
      "ĠmÃ¡k": 7331,
      "ĠplÃ¡lo": 7332,
      "ĠÄįtvr": 7333,
      "ĠpaprskÅ¯": 7334,
      "Ġpnou": 7335,
      "Å¾ily": 7336,
      "ĠnÃ¡rodÅ¯": 7337,
      "Ġhorami": 7338,
      "drÃ¡": 7339,
      "fÃŃ": 7340,
      "Ġika": 7341,
      "tovÃ¡nÃŃ": 7342,
      "ĠzÃ¡po": 7343,
      "Ġojem": 7344,
      "ĠerÃ©": 7345,
      "ĠdruhÅ¯": 7346,
      "Ġstrast": 7347,
      "ĠblahÃ½": 7348,
      "Å¾enÃ½ch": 7349,
      "ĠmarnÃ¡": 7350,
      "Ġoprav": 7351,
      "ĠsnivÃ¡": 7352,
      "Ġvhod": 7353,
      "Ġmozo": 7354,
      "ĠvlaÅ¡to": 7355,
      "ĠkleÄįÃŃ": 7356,
      "ĠspanÃŃ": 7357,
      "Ġsoumraku": 7358,
      "Ġkohou": 7359,
      "pÄĽla": 7360,
      "ĠzdvÃŃ": 7361,
      "Ġvrh": 7362,
      "ĠhÃ¡v": 7363,
      "ĠtisÃŃci": 7364,
      "ĠpÅ¯lnoci": 7365,
      "Ġfo": 7366,
      "ĠpotÄĽÅ¡enÃŃ": 7367,
      "ĠjmÄĽnÃŃ": 7368,
      "pali": 7369,
      "Ġadnou": 7370,
      "Ġzdech": 7371,
      "ĠpaÅ¾ÃŃ": 7372,
      "ĠklasÅ¯": 7373,
      "ĠbijÃŃ": 7374,
      "ĠinnÃ©": 7375,
      "cku": 7376,
      "trÃ¡": 7377,
      "ĠmÅĻÃŃt": 7378,
      "ĠpoÅ¡e": 7379,
      "Ġpre": 7380,
      "prch": 7381,
      "Ġaven": 7382,
      "ĠtuÅ¾eb": 7383,
      "ĠkaÅ¡": 7384,
      "ĠpohÃ¡dka": 7385,
      "ĠboÅ¾stvÃŃ": 7386,
      "ĠjeseÅĪ": 7387,
      "loval": 7388,
      "ÅĻelo": 7389,
      "ĠÃºtu": 7390,
      "Ġolym": 7391,
      "Ġsata": 7392,
      "ĠpÅĻipo": 7393,
      "ĠdÃŃvce": 7394,
      "ĠjdÄĽte": 7395,
      "chi": 7396,
      "Ġisk": 7397,
      "ĠrubÃŃ": 7398,
      "ĠdÄĽvu": 7399,
      "Ġhroma": 7400,
      "Ġnemy": 7401,
      "Ġstrasti": 7402,
      "Ġskokem": 7403,
      "ĠdÃ½mu": 7404,
      "ĠÄĽzdy": 7405,
      "svit": 7406,
      "nova": 7407,
      "ĠcÃŃrkev": 7408,
      "ÅĻÃŃch": 7409,
      "Ġvoje": 7410,
      "ĠhradÄĽ": 7411,
      "ĠchytÃ¡": 7412,
      "Ġtrosky": 7413,
      "ĠpovÄĽst": 7414,
      "ĠoltÃ¡ÅĻe": 7415,
      "Ġtka": 7416,
      "Ġslabo": 7417,
      "ĠtesknÃ©": 7418,
      "ĠvÃ½chod": 7419,
      "Ġ!": 7420,
      "Ġmuky": 7421,
      "ĠnÃ¡vra": 7422,
      "ĠzÃ¡slu": 7423,
      "ĠmnoÅ¾stvÃŃ": 7424,
      "ĠotevÅĻel": 7425,
      "ĠblÃ½ska": 7426,
      "ĠuhÅ¯": 7427,
      "benÃ©": 7428,
      "ĠjizbÄĽ": 7429,
      "pku": 7430,
      "Ġitem": 7431,
      "ĠoblÃ©": 7432,
      "Å¡tÄĽm": 7433,
      "ĠpÅĻedtu": 7434,
      "ĠstÅĻÃŃbrnÃ©": 7435,
      "jila": 7436,
      "ĠÄįte": 7437,
      "ĠhledÄĽ": 7438,
      "ĠpÄĽsti": 7439,
      "ĠdÄĽtskÃ©": 7440,
      "Ġdrahoka": 7441,
      "ĠsnÃ¡Å¡e": 7442,
      "Ġame": 7443,
      "jÃŃti": 7444,
      "Ġcvr": 7445,
      "ĠhorÅ¡ÃŃ": 7446,
      "ĠlehkÃ½": 7447,
      "Ġposte": 7448,
      "ĠnaÅ¡ÃŃm": 7449,
      "teÄįnÄĽ": 7450,
      "Ġprokop": 7451,
      "ĠslÃ¡b": 7452,
      "ĠhÅĻÃŃmÃ¡": 7453,
      "nan": 7454,
      "nÃ¡Å¡el": 7455,
      "Ġobry": 7456,
      "Ġrozbi": 7457,
      "Ġsple": 7458,
      "Ġpravi": 7459,
      "ĠplaÅ¡ÃŃ": 7460,
      "ĠpevnÃ©": 7461,
      "Ġjsy": 7462,
      "ĠvÄĽdomÃŃ": 7463,
      "Ġsocha": 7464,
      "ĠsvÃŃce": 7465,
      "ĠmalÃ½ch": 7466,
      "Ġvezme": 7467,
      "lkÅ¯": 7468,
      "tiny": 7469,
      "dii": 7470,
      "ÅĻÃ¡n": 7471,
      "ĠemnÃ©": 7472,
      "ĠstarÅ¡ÃŃ": 7473,
      "ĠpoÄįÃ¡": 7474,
      "ĠnejdraÅ¾Å¡ÃŃ": 7475,
      "Ġiv": 7476,
      "nuje": 7477,
      "ĠhoÅĻem": 7478,
      "ĠmÃ¡li": 7479,
      "ĠpodlÃ©": 7480,
      "Ġzvuku": 7481,
      "ĠstrÃ¡ÅĪ": 7482,
      "Ġovce": 7483,
      "ĠstÅĻÃŃbrem": 7484,
      "ĠpÅĻijÄı": 7485,
      "ĠdÄĽvÄįÃ¡": 7486,
      "ĠneznÃ¡mÃ©": 7487,
      "ĠbÅĻÃŃmÄĽ": 7488,
      "duje": 7489,
      "Ġplam": 7490,
      "Ġmiluj": 7491,
      "ĠpamÄĽÅ¥": 7492,
      "ĠukÅ¯": 7493,
      "tisk": 7494,
      "ĠÄįeskou": 7495,
      "ĠvÃ¡Å¾nÃ½": 7496,
      "ĠmÃ©nÄĽ": 7497,
      "Ġbere": 7498,
      "Ġanebo": 7499,
      "ĠmÄĽkce": 7500,
      "ĠusmÃ¡l": 7501,
      "skÃ½mi": 7502,
      "Ġatka": 7503,
      "ĠdÄĽsnÃ©": 7504,
      "hi": 7505,
      "Ġsval": 7506,
      "bnÃ½ch": 7507,
      "ĠÄĽlem": 7508,
      "ĠrozvÃ¡": 7509,
      "ĠÃºko": 7510,
      "Ġedli": 7511,
      "ĠtrÃ¡vu": 7512,
      "vÅ¡ad": 7513,
      "ĠplachÃ½": 7514,
      "ĠsdÃŃ": 7515,
      "ĠnaÅ¡li": 7516,
      "Ġihu": 7517,
      "dechu": 7518,
      "Ġprob": 7519,
      "Ġkonci": 7520,
      "Ġzakry": 7521,
      "Ġdivoce": 7522,
      "ĠzÅĻeli": 7523,
      "ÅĪÃ¡": 7524,
      "ĠodÅ¯": 7525,
      "ĠodlÃŃ": 7526,
      "ĠÅ¡av": 7527,
      "ĠkÅĻ": 7528,
      "ĠÃ¡mÃ½": 7529,
      "ĠspÄĽÅ¡": 7530,
      "ÄįkovÃ©": 7531,
      "nickÃ©": 7532,
      "Ġbiskup": 7533,
      "ĠeÄįek": 7534,
      "ĠÃŃnek": 7535,
      "lÃŃp": 7536,
      "ĠlÃ©k": 7537,
      "nickÃ½": 7538,
      "hnouti": 7539,
      "ĠbdÄĽ": 7540,
      "ĠmÃŃst": 7541,
      "ĠobÄĽti": 7542,
      "ĠsvÃ¡tek": 7543,
      "ĠhoupÃ¡": 7544,
      "bami": 7545,
      "Ġzta": 7546,
      "ily": 7547,
      "ditel": 7548,
      "Ġrozpo": 7549,
      "ĠzÃ¡mek": 7550,
      "ĠmÅ¯": 7551,
      "Ġhmy": 7552,
      "ĠhodÃŃ": 7553,
      "ĠrybnÃŃ": 7554,
      "Ġhanu": 7555,
      "Ġhodina": 7556,
      "ajÃŃ": 7557,
      "ĠÃŃtÃŃm": 7558,
      "Ġroku": 7559,
      "ĠrudÃ¡": 7560,
      "Å¾ilo": 7561,
      "ĠodeÅ¡el": 7562,
      "ceni": 7563,
      "ĠnÃ¡rody": 7564,
      "ĠÃ¡vÃ¡m": 7565,
      "Ġlehko": 7566,
      "Ã¡nÃŃ": 7567,
      "Ġsky": 7568,
      "Ġjasem": 7569,
      "ĠmnozÃŃ": 7570,
      "ĠdvoÅĻe": 7571,
      "nkÃ½": 7572,
      "Ġaf": 7573,
      "ĠÃ¡vÃŃ": 7574,
      "ĠvysÃŃ": 7575,
      "ĠnÃ¡ÅĻ": 7576,
      "Ġsrdcy": 7577,
      "ĠsÃŃÅ¥": 7578,
      "Ġenec": 7579,
      "Ġdlel": 7580,
      "ĠknÄĽÅ¾na": 7581,
      "Ġnouze": 7582,
      "ĠÃŃlo": 7583,
      "Ġstala": 7584,
      "ĠostÅĻÃŃ": 7585,
      "cÅ¯v": 7586,
      "ĠnÄĽjÅ¾": 7587,
      "ĠvzÃ¡cnÃ©": 7588,
      "Å¡kÃ¡": 7589,
      "Ġsedla": 7590,
      "Ġinky": 7591,
      "nÄĽt": 7592,
      "ĠpÅĻÃŃtele": 7593,
      "ĠsynÅ¯": 7594,
      "Ġkoruny": 7595,
      "Ġvypro": 7596,
      "dlem": 7597,
      "ĠanÃ½ch": 7598,
      "Ã½val": 7599,
      "Ġodo": 7600,
      "Ġrozhod": 7601,
      "Ġkroku": 7602,
      "Ġchud": 7603,
      "Ġopustil": 7604,
      "ĠtakovÃ½": 7605,
      "ĠpsÃ¡t": 7606,
      "chvÃ¡": 7607,
      "ĠvyklÃ¡": 7608,
      "ĠplesÃ¡": 7609,
      "Ġmrazem": 7610,
      "Ġshr": 7611,
      "tna": 7612,
      "Ġatek": 7613,
      "Ġnachem": 7614,
      "ĠerÃ¡": 7615,
      "ĠdravÃ½": 7616,
      "ĠvÄĽÄįnÃ½m": 7617,
      "ĠtÃ½Å¾": 7618,
      "tkou": 7619,
      "ĠÃŃcÃ½": 7620,
      "Ġtmavou": 7621,
      "ĠÃºtra": 7622,
      "ĠsvobodÄĽ": 7623,
      "ncem": 7624,
      "Ġevy": 7625,
      "ĠÃ¡zd": 7626,
      "ĠÅ¡uma": 7627,
      "ĠdivokÃ½": 7628,
      "ĠvzÃ¡cnÃ½": 7629,
      "ĠtÃ³ny": 7630,
      "ĠÃ¡skou": 7631,
      "ĠjasnÃ½m": 7632,
      "ĠzelenÃ¡": 7633,
      "Ġklene": 7634,
      "Ġroje": 7635,
      "ĠÃºkry": 7636,
      "naly": 7637,
      "ĠveselÃ½": 7638,
      "ĠandÄĽlÃ©": 7639,
      "Ġhrozi": 7640,
      "bÃŃm": 7641,
      "ĠzdÃ¡nÃŃ": 7642,
      "ĠpÅĻemÃŃ": 7643,
      "ĠmÄĽkkÃ½": 7644,
      "rami": 7645,
      "Ġvzpou": 7646,
      "ĠÅ¾iÅ¾ka": 7647,
      "Ġnebla": 7648,
      "ĠnevÄĽÅĻÃŃ": 7649,
      "nskÃ©": 7650,
      "ĠzaÅ¡el": 7651,
      "ĠkÅĻÃŃÅ¾i": 7652,
      "ĠtemnÃ¡": 7653,
      "Ġkyp": 7654,
      "ĠÅ¾ehnÃ¡": 7655,
      "Ġose": 7656,
      "ÅĻÃŃvÃ¡": 7657,
      "Ġrdci": 7658,
      "ĠnÃ¡po": 7659,
      "Ġzne": 7660,
      "Ġtuch": 7661,
      "ĠstaletÃŃ": 7662,
      "ĠlÃŃnÄĽ": 7663,
      "ĠznÃ¡ti": 7664,
      "ĠzboÅ¾ÃŃ": 7665,
      "ĠvodopÃ¡": 7666,
      "ĠdusÃŃ": 7667,
      "Ġhel": 7668,
      "Ġetou": 7669,
      "ĠenÃ©m": 7670,
      "ĠÅ¾ijÃŃ": 7671,
      "nÄĽjÅ¡ÃŃm": 7672,
      "Ġvstane": 7673,
      "Ġrcete": 7674,
      "ĠtÄĽkÃ¡": 7675,
      "ĠpravÃ¡": 7676,
      "Ġpranic": 7677,
      "ĠÃ¡mu": 7678,
      "ĠÃ¡snÃ©": 7679,
      "ĠstÅĻechy": 7680,
      "ĠnevdÄĽ": 7681,
      "ĠzvlÃ¡Å¡tÄĽ": 7682,
      "ĠideÃ¡l": 7683,
      "ĠbohynÄĽ": 7684,
      "nÄĽnou": 7685,
      "ĠÄĽdÃŃ": 7686,
      "ĠÄĽlou": 7687,
      "sajÃŃ": 7688,
      "Ġtemna": 7689,
      "ĠradostnÄĽ": 7690,
      "ĠveÅ¡ker": 7691,
      "ĠÅĪÃ¡dra": 7692,
      "gan": 7693,
      "ĠudÃ½": 7694,
      "ĠdÃ¡val": 7695,
      "ĠbÃŃdÄĽ": 7696,
      "Ġpuk": 7697,
      "ĠbÃ¡znÃŃ": 7698,
      "ĠpokolenÃŃ": 7699,
      "Ġnetr": 7700,
      "Ġuru": 7701,
      "ĠroznÃŃ": 7702,
      "Ġrozez": 7703,
      "ĠlkÃ¡nÃŃ": 7704,
      "Ġstole": 7705,
      "jÅ¡ÃŃm": 7706,
      "ladÅ¡ÃŃ": 7707,
      "ĠÅ¾ÃŃzeÅĪ": 7708,
      "ĠtmavÃ¡": 7709,
      "jeli": 7710,
      "Ġmukou": 7711,
      "ĠrumÄĽ": 7712,
      "Ġref": 7713,
      "Ġvyslo": 7714,
      "ĠÅ¡koly": 7715,
      "ĠtvrdÃ½": 7716,
      "Ġcenu": 7717,
      "ĠsnÃŃm": 7718,
      "Ġproz": 7719,
      "Å¥at": 7720,
      "Ġvyjde": 7721,
      "Å¡enÃ¡": 7722,
      "ĠpÅĻÃ¡telstvÃŃ": 7723,
      "mÄĽlo": 7724,
      "ĠvlastnÃŃch": 7725,
      "ĠmroucÃŃ": 7726,
      "bÅĻe": 7727,
      "ĠlnÃ½": 7728,
      "Ġkapky": 7729,
      "ĠpohleÄı": 7730,
      "plo": 7731,
      "pej": 7732,
      "Ġnehle": 7733,
      "Ġuho": 7734,
      "ĠzanÃŃ": 7735,
      "ĠdÃŃvÃ¡m": 7736,
      "ĠmuÅ¾em": 7737,
      "ĠbohÅ¯m": 7738,
      "Ġikem": 7739,
      "bala": 7740,
      "ĠveselÃŃ": 7741,
      "ĠdrÃ¡hu": 7742,
      "ĠnenadÃ¡nÃŃ": 7743,
      "Ġjizby": 7744,
      "Ġzaslech": 7745,
      "ĠsvÃ¡r": 7746,
      "Ġpevnou": 7747,
      "ĠspoleÄįnosti": 7748,
      "Ġolal": 7749,
      "out": 7750,
      "ĠpÅĻivi": 7751,
      "Ġklidem": 7752,
      "Ġpolibek": 7753,
      "ckÃ©ho": 7754,
      "ĠÃ¡snÄĽ": 7755,
      "ĠÃŃsÃŃ": 7756,
      "Ġhonem": 7757,
      "ĠodnÃ©": 7758,
      "Ġrus": 7759,
      "sala": 7760,
      "ĠzdÃ¡la": 7761,
      "ĠneumÃŃ": 7762,
      "Ġzpola": 7763,
      "ĠuÅ¡lech": 7764,
      "ĠvleÄįe": 7765,
      "ĠokamÅ¾iku": 7766,
      "ĠahÃ©": 7767,
      "ĠÃ¡nem": 7768,
      "ĠniÅ¾": 7769,
      "ĠÅ¡Å¥astnÃ©": 7770,
      "ĠpalÃ¡c": 7771,
      "Ġmiliony": 7772,
      "ĠnevÃ½slov": 7773,
      "Ġvzcho": 7774,
      "ĠÅĻekli": 7775,
      "ĠkÃ½v": 7776,
      "ĠovÄĽk": 7777,
      "Ġave": 7778,
      "Ġmuce": 7779,
      "Ġpustil": 7780,
      "Ġpolibky": 7781,
      "ĠvÄĽrnÃ¡": 7782,
      "Ġoblohou": 7783,
      "pak": 7784,
      "vÃ¡nÃŃm": 7785,
      "Äįeho": 7786,
      "ĠmÄĽÅĻÃŃ": 7787,
      "ĠsnivÃ½": 7788,
      "ĠjakÃ©s": 7789,
      "ĠcÃŃrkve": 7790,
      "Ġprosil": 7791,
      "mund": 7792,
      "ĠÅ¡eÅĻÃŃ": 7793,
      "bku": 7794,
      "Ġoudil": 7795,
      "Ġobloha": 7796,
      "Ġlampa": 7797,
      "Ġuvad": 7798,
      "zÃŃm": 7799,
      "Ġvlaje": 7800,
      "ĠvolÃ¡m": 7801,
      "ĠzalÃŃ": 7802,
      "ĠzapÃ¡": 7803,
      "Ġdrah": 7804,
      "ĠÄįechÅ¯": 7805,
      "ĠhorkÃ©": 7806,
      "ĠÅ¡ik": 7807,
      "Ġjezera": 7808,
      "ĠuchvÃ¡": 7809,
      "Ġvym": 7810,
      "Ġdoli": 7811,
      "ĠÅ¡ve": 7812,
      "Ġbudeme": 7813,
      "ĠmÄĽÅ¡Å¥": 7814,
      "ĠpropastÃŃ": 7815,
      "ĠvzlÃ©t": 7816,
      "Ġchladnou": 7817,
      "Ġheslo": 7818,
      "ĠdlaÅ¾": 7819,
      "ĠvÅĻel": 7820,
      "cestÃŃ": 7821,
      "ĠctÄĽ": 7822,
      "Ġlide": 7823,
      "ĠÃºpÃŃ": 7824,
      "Ġstarci": 7825,
      "kladu": 7826,
      "ĠchrÃ¡mÄĽ": 7827,
      "Ġzrozen": 7828,
      "ĠoÅ¡": 7829,
      "Ġbur": 7830,
      "ĠpeÅĻÃŃ": 7831,
      "Ġdruhy": 7832,
      "ĠÄĽÅ¡ÃŃ": 7833,
      "Ġlehou": 7834,
      "ĠlÅ¾ÃŃ": 7835,
      "ĠstraÅ¡nÃ½": 7836,
      "ĠjaÅĻe": 7837,
      "hlÃ©d": 7838,
      "ÅĻka": 7839,
      "ĠÅ¯ry": 7840,
      "jÃ¡k": 7841,
      "ĠpamÃ¡tku": 7842,
      "ĠzapomnÄĽnÃŃ": 7843,
      "Ġroh": 7844,
      "Ġkovo": 7845,
      "Ġlilie": 7846,
      "ĠzaÅ¡ep": 7847,
      "ĠuvÃ¡": 7848,
      "ĠichÃ¡": 7849,
      "Ġesi": 7850,
      "tati": 7851,
      "ĠbÃŃdnÃ©": 7852,
      "jemi": 7853,
      "Ġvstala": 7854,
      "Ġiro": 7855,
      "ĠÃ¡m": 7856,
      "Ġhody": 7857,
      "ĠnÄĽkte": 7858,
      "Ġkostela": 7859,
      "ckÃ©m": 7860,
      "Ġidy": 7861,
      "ĠmnoÅ¾ÃŃ": 7862,
      "Ġnepokoj": 7863,
      "ĠbolesÅ¥": 7864,
      "pouÅ¡tÃŃ": 7865,
      "ĠmÄĽkkÃ©": 7866,
      "Ġtrysk": 7867,
      "Ġura": 7868,
      "Ġita": 7869,
      "Ġduma": 7870,
      "cena": 7871,
      "cenou": 7872,
      "ĠpÅ¯dÄĽ": 7873,
      "ĠÅĻetÄĽz": 7874,
      "ĠsvatebnÃŃ": 7875,
      "ĠÅ¡kol": 7876,
      "Ġmilos": 7877,
      "ĠjemnÃ©": 7878,
      "ĠtvÅ¯rÄįÃŃ": 7879,
      "ice": 7880,
      "ĠnevrÃ¡tÃŃ": 7881,
      "Ġudce": 7882,
      "Ġinul": 7883,
      "ĠtÃ¡bor": 7884,
      "ĠÅ¾aly": 7885,
      "ĠzaÅ¡lÃ½ch": 7886,
      "ĠvzÃŃti": 7887,
      "ĠudÃ¡": 7888,
      "Ġeci": 7889,
      "ĠÃŃsni": 7890,
      "ĠmilovÃ¡nÃŃ": 7891,
      "Ġtajemnou": 7892,
      "ĠobrÃ¡til": 7893,
      "ĠmaÄıar": 7894,
      "chej": 7895,
      "ĠruÄįe": 7896,
      "Ġtane": 7897,
      "ĠkvÄĽtech": 7898,
      "ĠkrutÄĽ": 7899,
      "ĠÃ¡di": 7900,
      "ĠtovÃ¡": 7901,
      "lumen": 7902,
      "nus": 7903,
      "ĠsmÃ½": 7904,
      "Ġpamat": 7905,
      "stroj": 7906,
      "ĠvÄĽÅ¾i": 7907,
      "ĠnejdÅĻÃŃ": 7908,
      "Ġkletba": 7909,
      "ĠlÅ¯Å¾ko": 7910,
      "dnÃ©ho": 7911,
      "Ġprovo": 7912,
      "ĠlekÃ¡": 7913,
      "ĠkouÅĻÃŃ": 7914,
      "ĠslavnÃ½ch": 7915,
      "ĠpsanÃŃ": 7916,
      "Ġpropad": 7917,
      "Ġsnahy": 7918,
      "ĠstarÃ½m": 7919,
      "ĠhlasnÄĽ": 7920,
      "ĠobÄĽtÃŃ": 7921,
      "Ġstin": 7922,
      "ĠmraÄįno": 7923,
      "snÃ©m": 7924,
      "tiÅ¾": 7925,
      "Ġvzo": 7926,
      "Ġsluha": 7927,
      "ĠzmÃ¡men": 7928,
      "ĠskalnÃŃ": 7929,
      "sÃ¡m": 7930,
      "Å¾no": 7931,
      "ĠmodrÃ¡": 7932,
      "ĠtmavÃ½ch": 7933,
      "Ġvolnosti": 7934,
      "ĠslÃ©t": 7935,
      "ĠiÅ¡el": 7936,
      "ĠvÄĽno": 7937,
      "ĠÃ©no": 7938,
      "Ġanna": 7939,
      "Ġtrap": 7940,
      "ĠkvÄĽtiny": 7941,
      "ĠÅ¡al": 7942,
      "Ġpavou": 7943,
      "ĠruÅ¡ÃŃ": 7944,
      "ĠvodÃŃ": 7945,
      "ĠprÃ¡vem": 7946,
      "ĠdobrÃ½ch": 7947,
      "ĠsÃŃmÄĽ": 7948,
      "ÅĻeno": 7949,
      "ÅĻenÃ½m": 7950,
      "ĠstÅĻÃŃbrnÃ½": 7951,
      "Ġosty": 7952,
      "ĠÄĽcko": 7953,
      "volnÄĽ": 7954,
      "Ġtvojich": 7955,
      "cos": 7956,
      "Ġmrazi": 7957,
      "ĠhospodÃ¡ÅĻ": 7958,
      "blesk": 7959,
      "Ġhladu": 7960,
      "ĠÅ¡irÃ©m": 7961,
      "Ġzbyla": 7962,
      "Ġroucha": 7963,
      "Ġche": 7964,
      "ĠABC": 7965,
      "ĠvÃŃnek": 7966,
      "ĠzemÅĻel": 7967,
      "ĠpÅĻedce": 7968,
      "ĠskrÃ½Å¡": 7969,
      "ĠstatnÃ½": 7970,
      "Ġaci": 7971,
      "Ġmojich": 7972,
      "ĠmuÄįÃŃ": 7973,
      "ĠtrnÃŃ": 7974,
      "ĠzÃŃral": 7975,
      "Ġnebudu": 7976,
      "ĠÄĽstu": 7977,
      "ĠouÅĻe": 7978,
      "Ġvlno": 7979,
      "ĠsuchÃ©": 7980,
      "ĠÃºsvi": 7981,
      "ĠtÅ¯ÅĪ": 7982,
      "Ġrez": 7983,
      "ĠvlÃ¡dce": 7984,
      "ĠpestrÃ½": 7985,
      "ĠklÃ¡Å¡ter": 7986,
      "Å¥al": 7987,
      "Ġvyrost": 7988,
      "Ġcitem": 7989,
      "ĠdÅĻÃŃma": 7990,
      "ĠozÃ½vÃ¡": 7991,
      "ĠiÄįek": 7992,
      "ĠjakÃ½m": 7993,
      "ĠÃŃsta": 7994,
      "vaÅ¥": 7995,
      "ĠtrÄįÃŃ": 7996,
      "ĠhvÄĽzdnÃ©": 7997,
      "ĠstÅĻech": 7998,
      "ĠasÃŃ": 7999,
      "ĠunÃŃ": 8000,
      "kuje": 8001,
      "Ġlep": 8002,
      "ĠvybÃŃ": 8003,
      "ĠystÃ¡": 8004,
      "ĠspÃ¡su": 8005,
      "Ġsadu": 8006,
      "Ġvesny": 8007,
      "Ġzdroje": 8008,
      "ĠnahÃ¡": 8009,
      "Ġhodil": 8010,
      "vedu": 8011,
      "ĠdrahÃ½ch": 8012,
      "ĠpoÅ¾ehnÃ¡": 8013,
      "ĠdotÃ½": 8014,
      "Ġtoli": 8015,
      "Ġsul": 8016,
      "ĠzulÃŃ": 8017,
      "ĠÅ¡lechet": 8018,
      "enÃ©": 8019,
      "roti": 8020,
      "Ġpohla": 8021,
      "Ġmlhou": 8022,
      "ĠzhlÃŃ": 8023,
      "koliv": 8024,
      "Ġai": 8025,
      "Ġobdi": 8026,
      "ĠbujnÃ½": 8027,
      "Ġzastavil": 8028,
      "Ġklobouk": 8029,
      "ĠhvÃŃz": 8030,
      "ĠsbÄĽ": 8031,
      "talo": 8032,
      "ĠbÃ¡znÄĽ": 8033,
      "ĠsnÄĽho": 8034,
      "ĠzuÅĻi": 8035,
      "ĠblÃ¡ho": 8036,
      "Ġokouz": 8037,
      "ĠmlÃ¡deÅ¾": 8038,
      "Ġusy": 8039,
      "Ġisty": 8040,
      "Ġinku": 8041,
      "ĠmetÃ¡": 8042,
      "Ġbah": 8043,
      "Ġrozumu": 8044,
      "Ġvous": 8045,
      "ĠdÃŃtko": 8046,
      "Ġnemi": 8047,
      "Ġcizo": 8048,
      "ĠdlouhÃ½m": 8049,
      "Ġdarem": 8050,
      "ĠhlubinÃ¡ch": 8051,
      "Ġvstoupil": 8052,
      "ĠvÃ½smÄĽ": 8053,
      "lÅ¯m": 8054,
      "jet": 8055,
      "Ġchalu": 8056,
      "ĠÃºdÄĽl": 8057,
      "Ġresi": 8058,
      "vena": 8059,
      "ĠzÅĻÃŃdka": 8060,
      "ĠslouÅ¾ÃŃ": 8061,
      "ĠÄįÃ¡st": 8062,
      "Ġceny": 8063,
      "ĠnÃ©sti": 8064,
      "ĠcÃŃtit": 8065,
      "ĠbÄĽlÃ¡": 8066,
      "ĠÅ¡Å¥astni": 8067,
      "Ġusil": 8068,
      "ĠmocnÃ½m": 8069,
      "ĠlÅ¯no": 8070,
      "ĠulÃŃ": 8071,
      "ĠÅ¡erÃ½": 8072,
      "Ġshro": 8073,
      "ĠstÅ¯": 8074,
      "ĠbÃ¡jÃŃ": 8075,
      "ĠchuÄı": 8076,
      "nÄĽna": 8077,
      "ruje": 8078,
      "doval": 8079,
      "ĠpÅĻej": 8080,
      "leno": 8081,
      "Ġvlak": 8082,
      "ĠtÃŃseÅĪ": 8083,
      "Ġostem": 8084,
      "Ġvnik": 8085,
      "ĠÃ¡jÃŃ": 8086,
      "ĠÃŃmi": 8087,
      "Ġhocha": 8088,
      "Ġtichem": 8089,
      "Ġkletby": 8090,
      "Ġpohledu": 8091,
      "ĠmstÃŃ": 8092,
      "Ġhvi": 8093,
      "Ġitel": 8094,
      "ĠrozvÃŃ": 8095,
      "ĠkvÄĽte": 8096,
      "chajÃŃ": 8097,
      "ctvo": 8098,
      "ĠpotkÃ¡": 8099,
      "Ġvezdy": 8100,
      "Ġneskonal": 8101,
      "lÃ¡Å¡": 8102,
      "ĠbrÃ¡na": 8103,
      "Ġvzma": 8104,
      "ĠstÃ¡vÃ¡": 8105,
      "Ġkladi": 8106,
      "ĠsedlÃ¡k": 8107,
      "Ġdluh": 8108,
      "Ġthe": 8109,
      "Ġnastal": 8110,
      "Ġlna": 8111,
      "ĠsnÄĽti": 8112,
      "Ġzml": 8113,
      "Ġzamra": 8114,
      "pÅĻi": 8115,
      "Ġpodu": 8116,
      "ĠmÃ¡je": 8117,
      "ĠÄįernÃ©m": 8118,
      "ĠpohlÃŃ": 8119,
      "Å¾eno": 8120,
      "ĠsedlÃ¡": 8121,
      "Ġrozply": 8122,
      "ĠohÃ¡": 8123,
      "Ġzane": 8124,
      "Ġsup": 8125,
      "vnitÅĻ": 8126,
      "ĠbÅĻit": 8127,
      "ĠkabÃ¡": 8128,
      "Ġonem": 8129,
      "ĠstraÅ¡nÃ©": 8130,
      "Ġfrancou": 8131,
      "ĠnahoÅĻe": 8132,
      "Ġamo": 8133,
      "Ġmhou": 8134,
      "Ġrovi": 8135,
      "ĠvÄĽzenÃŃ": 8136,
      "ĠpÃŃsek": 8137,
      "ĠvÃ½so": 8138,
      "ĠmÄĽsÃŃci": 8139,
      "ĠhoroucÃŃ": 8140,
      "Ġevu": 8141,
      "ĠsloÅ¾il": 8142,
      "ĠdÃŃvko": 8143,
      "ĠkvÃŃtÃŃm": 8144,
      "Ġsever": 8145,
      "pÅĻe": 8146,
      "Ġposa": 8147,
      "ĠnÄĽhu": 8148,
      "ĠatÃ©m": 8149,
      "ĠjiskÅĻÃŃ": 8150,
      "Ġdobrodru": 8151,
      "ĠbystÅĻi": 8152,
      "Ġvelkole": 8153,
      "dÅĻi": 8154,
      "hlÃ½ch": 8155,
      "Ġdoho": 8156,
      "Ġenky": 8157,
      "ĠdeÅ¡ti": 8158,
      "ĠsvÄĽÅ¾e": 8159,
      "Ġpluk": 8160,
      "ĠpalÃ¡ce": 8161,
      "Ġvno": 8162,
      "Ġvysla": 8163,
      "ĠvyÅ¡li": 8164,
      "Ġrozva": 8165,
      "ĠkrÃ¡lo": 8166,
      "Ġske": 8167,
      "Å¡tÄĽn": 8168,
      "ĠjeÅ¾to": 8169,
      "ĠmÃŃÅĻÃŃ": 8170,
      "Äįeno": 8171,
      "ĠvdÄĽÄįnÄĽ": 8172,
      "dÃ¡me": 8173,
      "ĠdokonÃ¡": 8174,
      "Ġzabo": 8175,
      "ĠvyrÅ¯": 8176,
      "cenÃ½ch": 8177,
      "Ġveleb": 8178,
      "ĠjitÅĻnÃŃ": 8179,
      "ĠsnÄĽtÃŃ": 8180,
      "ĠokolÃŃ": 8181,
      "ĠspÄĽchal": 8182,
      "Ġsloupy": 8183,
      "ĠteplÃ©": 8184,
      "znÃ½ch": 8185,
      "voÅĻÃŃ": 8186,
      "Ġprokla": 8187,
      "ĠadÃ©": 8188,
      "Ġchudi": 8189,
      "clo": 8190,
      "ĠzabÃŃ": 8191,
      "Ġhromy": 8192,
      "ĠbezdÄĽ": 8193,
      "Ġhluch": 8194,
      "Ġmnoh": 8195,
      "ĠstÄĽÅ¾ÃŃ": 8196,
      "ĠpÄĽknÃ½": 8197,
      "ĠzaÅ¡u": 8198,
      "ĠniÄįem": 8199,
      "ĠplÃ¡nÄĽ": 8200,
      "Ġflo": 8201,
      "ĠfrÃ¡": 8202,
      "ĠvÄĽÄįna": 8203,
      "Ġoknech": 8204,
      "ĠspÄĽchu": 8205,
      "Ġpivo": 8206,
      "ĠznaÄįÃŃ": 8207,
      "ĠÅ¾havÃ¡": 8208,
      "ĠmrÃ¡ko": 8209,
      "ĠdrobnÃ½ch": 8210,
      "Ġvozy": 8211,
      "chali": 8212,
      "ĠdÃ¡vnÃ½": 8213,
      "Ġpych": 8214,
      "Ġpodob": 8215,
      "ĠsluneÄįnÃŃ": 8216,
      "jnÃ¡": 8217,
      "Ġpli": 8218,
      "ĠÃ¡d": 8219,
      "jezd": 8220,
      "ĠpÅĻeje": 8221,
      "ĠtulÃŃ": 8222,
      "Ġpravila": 8223,
      "zdra": 8224,
      "ĠotÅĻÃ¡": 8225,
      "ĠjasnÃ½ch": 8226,
      "Ġhrdli": 8227,
      "hradu": 8228,
      "ĠzÃ¡stupy": 8229,
      "Ġkapi": 8230,
      "ĠdÃŃlu": 8231,
      "Ġpokle": 8232,
      "Ġplamenem": 8233,
      "Ġleskne": 8234,
      "ĠmoudÅĻe": 8235,
      "ĠsbÃŃrÃ¡": 8236,
      "ĠpastÃ½ÅĻ": 8237,
      "ĠeÄįnÄĽ": 8238,
      "ĠtuÅ¥": 8239,
      "ĠmÃŃjÃŃ": 8240,
      "Å¡ena": 8241,
      "ĠzrÃ¡dce": 8242,
      "ĠnedbÃ¡": 8243,
      "ĠÅĻasy": 8244,
      "ĠzamyÅ¡len": 8245,
      "ĠdobrÃ½m": 8246,
      "ĠchvÄĽt": 8247,
      "ĠslavnÃ¡": 8248,
      "ĠmÃ¡ji": 8249,
      "ĠpustÃ¡": 8250,
      "Ġgene": 8251,
      "ÄįenÃ¡": 8252,
      "ĠchuÅ¥": 8253,
      "ĠzpÃŃvajÃŃ": 8254,
      "brat": 8255,
      "ĠvchÃ¡zÃŃ": 8256,
      "Ġhl": 8257,
      "ĠÃ¡sti": 8258,
      "ĠÄĽkem": 8259,
      "Ġrozli": 8260,
      "Ġysy": 8261,
      "vyk": 8262,
      "Ġnepohnu": 8263,
      "ĠÅĻekni": 8264,
      "Ġzavr": 8265,
      "ĠvÄĽdÄĽt": 8266,
      "ĠdÃŃvat": 8267,
      "ĠjÃŃz": 8268,
      "Ġneznal": 8269,
      "Ġjala": 8270,
      "Ġotrok": 8271,
      "ĠverÅ¡Å¯": 8272,
      "Ġudat": 8273,
      "ĠÃ¡ku": 8274,
      "ĠvyÄįÃŃ": 8275,
      "ver": 8276,
      "ĠjenÅ¾to": 8277,
      "Ġluhu": 8278,
      "ĠsilnÃ©": 8279,
      "Ġvichrem": 8280,
      "Ġrakvi": 8281,
      "ĠnebezpeÄįÃŃ": 8282,
      "cnost": 8283,
      "onÅ¯": 8284,
      "Ġdoly": 8285,
      "Ġmozek": 8286,
      "Ġkousek": 8287,
      "ĠkÅĻÃŃdlech": 8288,
      "Ġzadr": 8289,
      "ĠrÄįÃŃ": 8290,
      "Ġstop": 8291,
      "ĠcÃŃtÃŃÅ¡": 8292,
      "skvÄĽ": 8293,
      "ĠÃŃm": 8294,
      "ĠÃŃÄįko": 8295,
      "Ġprok": 8296,
      "ĠpaÅ¾e": 8297,
      "Ġslab": 8298,
      "ĠpukÃ¡": 8299,
      "Ġmrakem": 8300,
      "ĠprochÃ¡": 8301,
      "Ġfu": 8302,
      "ĠklidnÃ©": 8303,
      "ĠbrÃ¡nu": 8304,
      "Ġzko": 8305,
      "Å¡nÃ¡": 8306,
      "ĠveÄı": 8307,
      "dovi": 8308,
      "ĠkoÅĻÃŃ": 8309,
      "Å¡enÄĽ": 8310,
      "ĠnemÃ¡Å¡": 8311,
      "ĠpÅĻÃŃÅ¡tÃŃch": 8312,
      "Ġschy": 8313,
      "Ġpomys": 8314,
      "Ġpropu": 8315,
      "ĠannÃŃ": 8316,
      "Ġvraha": 8317,
      "ĠznÃŃt": 8318,
      "ĠuklÃ¡": 8319,
      "ĠkoÅĻeny": 8320,
      "ĠmÅ¡i": 8321,
      "ĠseÅ¡": 8322,
      "ĠeÄįnÃ©": 8323,
      "Ġsluchu": 8324,
      "Ġkniha": 8325,
      "ĠzbabÄĽ": 8326,
      "ĠsnoubÃŃ": 8327,
      "ĠnachÃ½": 8328,
      "Ġepi": 8329,
      "ĠdÃ¡lnÃ½ch": 8330,
      "Ġzraje": 8331,
      "Ġmozku": 8332,
      "Ġrozkaz": 8333,
      "Ġskou": 8334,
      "ĠpÅĻÃŃsnÃ½": 8335,
      "ĠvesmÃŃ": 8336,
      "ĠulicÃŃch": 8337,
      "ĠernÃ©": 8338,
      "ĠbojÅ¯": 8339,
      "Ġzvou": 8340,
      "ĠnedÅ¯": 8341,
      "ĠvÃŃla": 8342,
      "ĠpohnutÃŃ": 8343,
      "Ġdcero": 8344,
      "ĠzaÄįne": 8345,
      "hrÃ¡": 8346,
      "Ġsig": 8347,
      "Ġlup": 8348,
      "ĠznÃ¡mo": 8349,
      "Ġzvedne": 8350,
      "ĠhojnÄĽ": 8351,
      "ĠpÃ½chou": 8352,
      "ĠÃŃdal": 8353,
      "vÃ¡no": 8354,
      "Ġodlesk": 8355,
      "Ġoupil": 8356,
      "Ġblouzni": 8357,
      "ĠskvÄĽlÃ½": 8358,
      "ĠstvoÅĻil": 8359,
      "Ġelu": 8360,
      "ĠzaÅ¡la": 8361,
      "Ġsamy": 8362,
      "Ġstatky": 8363,
      "ĠokamÅ¾enÃŃ": 8364,
      "arÃ¡": 8365,
      "Ġinka": 8366,
      "ĠÄĽho": 8367,
      "Ġtakou": 8368,
      "kÃ¡zal": 8369,
      "ĠpraÅ¾": 8370,
      "ĠtÃ¡hla": 8371,
      "vÃ¡me": 8372,
      "naje": 8373,
      "kolem": 8374,
      "toma": 8375,
      "Ġdivem": 8376,
      "Ġreka": 8377,
      "ĠdÄĽlat": 8378,
      "ĠnajdeÅ¡": 8379,
      "Ġsmilo": 8380,
      "lali": 8381,
      "Ġuha": 8382,
      "Ġicho": 8383,
      "ĠidÃŃm": 8384,
      "Ġjina": 8385,
      "ĠpÅĻim": 8386,
      "Ġpodal": 8387,
      "Ġbledne": 8388,
      "ĠveselÃ©": 8389,
      "ĠzasmuÅ¡il": 8390,
      "ĠcÃ½": 8391,
      "Ġprod": 8392,
      "ĠholÃ¡": 8393,
      "ĠdÃŃtek": 8394,
      "Ġdivou": 8395,
      "ĠptÃ¡Äįek": 8396,
      "ĠspÃŃnÃ¡": 8397,
      "ĠÄįtenÃ¡": 8398,
      "ĠistÃ½": 8399,
      "Ġkot": 8400,
      "ĠnÄĽhou": 8401,
      "mÃ¡l": 8402,
      "pajÃŃ": 8403,
      "Ġvlk": 8404,
      "Ġsady": 8405,
      "ĠneÄįi": 8406,
      "ĠvztÃ½": 8407,
      "Ġanci": 8408,
      "ĠmyslÃŃÅ¡": 8409,
      "rz": 8410,
      "Ġjedu": 8411,
      "Ġzava": 8412,
      "ĠobilÃŃ": 8413,
      "Ġpospo": 8414,
      "Ġadce": 8415,
      "ĠrÅ¯st": 8416,
      "ĠstÅĻed": 8417,
      "Ġhloubky": 8418,
      "ĠmatiÄįko": 8419,
      "ĠzÃ¡vist": 8420,
      "Ġope": 8421,
      "Ġjesky": 8422,
      "ĠeÃ¡": 8423,
      "ĠÃŃtky": 8424,
      "ĠÄĽhy": 8425,
      "Ġprose": 8426,
      "pÃ¡ch": 8427,
      "Ġzloby": 8428,
      "Ġkriste": 8429,
      "ĠvlÃŃdnÃ½": 8430,
      "Ġnedba": 8431,
      "ĠzkamenÄĽ": 8432,
      "Ġsboru": 8433,
      "ĠvzrÅ¯stÃ¡": 8434,
      "Ġmami": 8435,
      "Ġjek": 8436,
      "ĠemÃ¡": 8437,
      "ĠchvÃ¡lÃŃ": 8438,
      "ĠpoÅ¾ehna": 8439,
      "ĠhedbÃ¡": 8440,
      "lnost": 8441,
      "ĠrvÃ¡t": 8442,
      "ĠvÄĽÅĻil": 8443,
      "danÃ©": 8444,
      "Ġoubi": 8445,
      "ĠkrutÃ¡": 8446,
      "ĠrÅ¯Å¾ovÃ©": 8447,
      "ĠtiÅ¡i": 8448,
      "ĠzÃ¡vod": 8449,
      "ĠychÃ¡": 8450,
      "ĠtichÃ½ch": 8451,
      "ĠvÅĻelÃ©": 8452,
      "Ġ22": 8453,
      "Ġholubice": 8454,
      "Å¾kou": 8455,
      "tina": 8456,
      "ĠslunÃ©": 8457,
      "ĠcizÃ¡": 8458,
      "ĠrÅ¯Å¾emi": 8459,
      "ĠdÅĻÃŃme": 8460,
      "Ġzvukem": 8461,
      "Ġneur": 8462,
      "Ġvypo": 8463,
      "ĠpÅĻeko": 8464,
      "Ġmrtvou": 8465,
      "ĠnenÃ¡vist": 8466,
      "ĠspanilÃ¡": 8467,
      "Ġzatra": 8468,
      "ĠvÃ¡hÃ¡": 8469,
      "ĠÅ¯stÃ¡": 8470,
      "Ġokovy": 8471,
      "Ġpaty": 8472,
      "Ġkameny": 8473,
      "Ġvizte": 8474,
      "Ġdem": 8475,
      "Ġia": 8476,
      "ĠÃŃzy": 8477,
      "dovat": 8478,
      "Ġlije": 8479,
      "Ġzik": 8480,
      "ĠstejnÃ©": 8481,
      "Ġzapomenu": 8482,
      "vami": 8483,
      "Ġtahy": 8484,
      "ĠdobÃ¡ch": 8485,
      "Ġpadlo": 8486,
      "ĠhlÃŃdÃ¡": 8487,
      "Ġnovo": 8488,
      "ĠskÅĻe": 8489,
      "ĠpoÄįkej": 8490,
      "Ġsmo": 8491,
      "bych": 8492,
      "Ġdlouze": 8493,
      "ĠjedenkrÃ¡t": 8494,
      "ĠkolÃ©bky": 8495,
      "cÃ©": 8496,
      "ĠÃ¡lÃ¡": 8497,
      "ĠkrajÅ¯": 8498,
      "ĠvÄįely": 8499,
      "Ġsestro": 8500,
      "ovi": 8501,
      "Ã¡jem": 8502,
      "Ġjedova": 8503,
      "ĠutÃ¡": 8504,
      "vejte": 8505,
      "Äįinou": 8506,
      "Ġhrady": 8507,
      "ĠoblakÅ¯": 8508,
      "ĠfarÃ¡ÅĻ": 8509,
      "ĠnÃŃtÃŃ": 8510,
      "Å¡enÃ½ch": 8511,
      "ĠhrÃ¡z": 8512,
      "sÅ¡ÃŃ": 8513,
      "ĠsterÃ©": 8514,
      "ĠdÅ¯kaz": 8515,
      "ĠdomÃ¡cÃŃ": 8516,
      "Ġaka": 8517,
      "ĠkomÃŃ": 8518,
      "Ġobro": 8519,
      "ĠzasvÄĽ": 8520,
      "tri": 8521,
      "Ġsynem": 8522,
      "ĠtÃŃsni": 8523,
      "Ġostrov": 8524,
      "ĠkaÅ¾di": 8525,
      "Ġang": 8526,
      "ĠptÃ¡ky": 8527,
      "Ġvadne": 8528,
      "Ã©l": 8529,
      "ĠÃ¡kÃ¡": 8530,
      "Ġrodnou": 8531,
      "ĠvznÃ¡Å¡e": 8532,
      "ĠpÅĻedkÅ¯": 8533,
      "Ġadly": 8534,
      "Ġnemohou": 8535,
      "ĠjednotvÃ¡": 8536,
      "prÃ¡": 8537,
      "ĠplachÃ©": 8538,
      "ĠÄįisto": 8539,
      "Ġjun": 8540,
      "ĠhrÃ¡la": 8541,
      "Ġocel": 8542,
      "Ġchasa": 8543,
      "Ġtohle": 8544,
      "Ġroman": 8545,
      "ĠrozÅ¾": 8546,
      "ĠÅ¾ivou": 8547,
      "ĠmodrÃ½m": 8548,
      "prve": 8549,
      "ĠidÃ©": 8550,
      "ĠÄĽstÄĽ": 8551,
      "Ġvyra": 8552,
      "ĠvÄĽjÃŃ": 8553,
      "Ġnit": 8554,
      "Ġdivnou": 8555,
      "ĠzmÃ¡": 8556,
      "ĠopÄĽ": 8557,
      "Ġnecho": 8558,
      "Ġobsa": 8559,
      "Ġyta": 8560,
      "Ġout": 8561,
      "ĠnÃ¡rodnÃŃ": 8562,
      "Ġuply": 8563,
      "Ġused": 8564,
      "lom": 8565,
      "Ġstanu": 8566,
      "ĠbÄĽlou": 8567,
      "skÃ¡ch": 8568,
      "ĠÄįlovÄĽÄįen": 8569,
      "Ġchvatem": 8570,
      "Ġito": 8571,
      "ĠÄįel": 8572,
      "ĠvÃ½ho": 8573,
      "zila": 8574,
      "ĠjarÃ½": 8575,
      "Ġvzdal": 8576,
      "Ġboky": 8577,
      "ĠdÄĽlo": 8578,
      "Ġkara": 8579,
      "ĠsÃŃtÃŃ": 8580,
      "Ġatce": 8581,
      "ĠhoÅĻce": 8582,
      "Ġchrab": 8583,
      "Ġpsi": 8584,
      "ĠvojÃ¡k": 8585,
      "ĠchorÃ©": 8586,
      "Ġpso": 8587,
      "Ġposlech": 8588,
      "Ġbranou": 8589,
      "Ġsno": 8590,
      "star": 8591,
      "Å¡ilo": 8592,
      "ĠhroznÄĽ": 8593,
      "ĠprÃ¡vu": 8594,
      "ĠvÅ¯lÃŃ": 8595,
      "ĠnevidÃŃ": 8596,
      "ĠdÃ¡me": 8597,
      "ĠradÅ¡": 8598,
      "mar": 8599,
      "enÃ½": 8600,
      "nÃŃÅ¡": 8601,
      "ĠÃ¡nÅ¯": 8602,
      "Ġrudou": 8603,
      "ĠkeÅĻi": 8604,
      "Ġillu": 8605,
      "Å¡nou": 8606,
      "Ġojen": 8607,
      "Ġupu": 8608,
      "ĠpÅĻip": 8609,
      "rÅ¯v": 8610,
      "ĠchutÄĽ": 8611,
      "ĠvÃŃtÄĽznÄĽ": 8612,
      "ĠeÄįku": 8613,
      "ĠÃ¡dku": 8614,
      "Å¥Ã¡": 8615,
      "Ġkyti": 8616,
      "Ġklesne": 8617,
      "Ġvzadu": 8618,
      "ĠetÅ¯": 8619,
      "Ġrada": 8620,
      "ĠplnÃ©m": 8621,
      "Ġnevinnosti": 8622,
      "ĠdlÃ¡": 8623,
      "Ġleck": 8624,
      "ĠrudÃ½m": 8625,
      "ĠtÅĻÃŃÅ¡tÃŃ": 8626,
      "ĠrvÃ¡": 8627,
      "ĠpÄĽvec": 8628,
      "ĠdeÅ¡Å¥": 8629,
      "Ġsoudce": 8630,
      "ĠzloÄįin": 8631,
      "Ġknize": 8632,
      "Ġmodlitby": 8633,
      "Ġvzlyk": 8634,
      "Ġjelen": 8635,
      "vavÄĽ": 8636,
      "Ġpacho": 8637,
      "ĠprÃ¡v": 8638,
      "ĠyzÃŃ": 8639,
      "Ġslunka": 8640,
      "ĠsuchÃ½": 8641,
      "ĠstÅĻely": 8642,
      "ĠvÅĻele": 8643,
      "ĠÅ¡kÅ¯": 8644,
      "Ġprachem": 8645,
      "Ġstavu": 8646,
      "Ġhranice": 8647,
      "Ġvzruch": 8648,
      "Ġzpi": 8649,
      "Ġhem": 8650,
      "ĠÃ¡Äįek": 8651,
      "ĠmilÃ©ho": 8652,
      "ĠhrÅ¯zu": 8653,
      "ĠnaÅ¡im": 8654,
      "penÃ©": 8655,
      "ĠznamenÃ¡": 8656,
      "Ġrtoma": 8657,
      "Ġpape": 8658,
      "Ġrab": 8659,
      "ĠÅĻeku": 8660,
      "ĠÅĻÃŃd": 8661,
      "Ġhloupo": 8662,
      "Ġdoubra": 8663,
      "ĠpÃ½chu": 8664,
      "Ġresigna": 8665,
      "lnou": 8666,
      "Ġzva": 8667,
      "ĠÃ¡mÄĽ": 8668,
      "Ġnico": 8669,
      "ĠpouhÃ¡": 8670,
      "ĠÅ¾ÃŃznÃŃ": 8671,
      "ĠinÃ¡m": 8672,
      "ĠÅ¡ka": 8673,
      "Ġmini": 8674,
      "Ġdivu": 8675,
      "Ġmrzu": 8676,
      "Ġskrze": 8677,
      "Ġzry": 8678,
      "Ġponu": 8679,
      "ĠbÄĽs": 8680,
      "ĠkvapÃŃ": 8681,
      "Ġloktech": 8682,
      "ĠvÃŃÅĻe": 8683,
      "bilo": 8684,
      "Ġrmut": 8685,
      "ĠstÅ¯nÄĽ": 8686,
      "ĠÃ¡dne": 8687,
      "dÄĽje": 8688,
      "ĠsÃŃnÃŃ": 8689,
      "ĠrybÃ¡": 8690,
      "Ġzpra": 8691,
      "ĠhvÄĽzdo": 8692,
      "ĠpyÅ¡nÃ½": 8693,
      "ĠpÃ©ro": 8694,
      "Ġpotr": 8695,
      "Ġpronika": 8696,
      "Ġduje": 8697,
      "ĠohÅ¯": 8698,
      "ĠpÅĻen": 8699,
      "Ġalil": 8700,
      "Ġekne": 8701,
      "ĠstraÅ¡nÄĽ": 8702,
      "ĠhvÄĽzdu": 8703,
      "Ġodevz": 8704,
      "ĠÅ¡tÃŃty": 8705,
      "ĠÅĻadÄĽ": 8706,
      "Ġzmatek": 8707,
      "lkem": 8708,
      "Ġuni": 8709,
      "Ġmuse": 8710,
      "ĠchladnÃ¡": 8711,
      "Ġzmije": 8712,
      "ĠzaÅ¡lÃ©": 8713,
      "ĠzkuÅ¡en": 8714,
      "vajÃŃcÃŃ": 8715,
      "ĠprostÄĽ": 8716,
      "ĠadÅ¯": 8717,
      "Ġstup": 8718,
      "ĠboÅ¾skÃ½": 8719,
      "Ġsrp": 8720,
      "ĠzÅ¯stane": 8721,
      "ĠkrÅ¯pÄĽje": 8722,
      "vlnÄĽ": 8723,
      "Ġneve": 8724,
      "Ġlebky": 8725,
      "ĠjakÃ¡s": 8726,
      "ĠABB": 8727,
      "ĠhodnÄĽ": 8728,
      "ĠsnÄĽhy": 8729,
      "ĠmatiÄįka": 8730,
      "ĠiÄįkou": 8731,
      "Ġhol": 8732,
      "Ġdalo": 8733,
      "ĠÅ¯le": 8734,
      "ĠbÃ¡zeÅĪ": 8735,
      "ĠlouÄįÃŃ": 8736,
      "Ġzdu": 8737,
      "ĠbdÄĽl": 8738,
      "ĠÄĽkÃ¡": 8739,
      "kosti": 8740,
      "ĠrojÃŃ": 8741,
      "ĠpÃ¡du": 8742,
      "ĠmilÃ½m": 8743,
      "ĠkamarÃ¡": 8744,
      "ĠAAAA": 8745,
      "vÄįe": 8746,
      "ĠickÃ©": 8747,
      "ĠveÅ¡la": 8748,
      "mit": 8749,
      "ĠÃºbÄĽ": 8750,
      "ĠsvÄĽto": 8751,
      "Ġkruhy": 8752,
      "Ġtrub": 8753,
      "vÄĽtÅĻÃŃ": 8754,
      "ĠÅ¾lutÃ½": 8755,
      "ĠÄįervÃ¡nky": 8756,
      "Ġuleh": 8757,
      "ĠÃ¡tu": 8758,
      "ret": 8759,
      "Ġtemnu": 8760,
      "ĠhvÄĽzdnÃ½": 8761,
      "ĠhÅĻÃŃchem": 8762,
      "Ġbarbar": 8763,
      "ĠzaznÄĽl": 8764,
      "ĠzvrÃ¡": 8765,
      "ĠsedÃŃm": 8766,
      "Ġskrov": 8767,
      "ĠmÃŃÅĪ": 8768,
      "Ġlada": 8769,
      "Ġsmutkem": 8770,
      "ĠÃ½ma": 8771,
      "ĠvÅ¡echnÄĽch": 8772,
      "ĠdivÃ½m": 8773,
      "Ġednu": 8774,
      "ĠpoznÃ¡nÃŃ": 8775,
      "ĠtÃ¡Å¾e": 8776,
      "br": 8777,
      "Ġobr": 8778,
      "ledne": 8779,
      "douc": 8780,
      "ĠpÅĻemy": 8781,
      "ĠleknÃŃ": 8782,
      "ĠlÃ½": 8783,
      "Ġenka": 8784,
      "Ġpase": 8785,
      "ĠdeÅ¡tÄĽm": 8786,
      "Ġpsy": 8787,
      "ĠurÃ¡": 8788,
      "ĠÃŃdÃŃ": 8789,
      "Ġmoder": 8790,
      "ĠpodÃ©l": 8791,
      "Ġanto": 8792,
      "Ġsamoty": 8793,
      "ĠpojÄıte": 8794,
      "Ġdokola": 8795,
      "Ġosudem": 8796,
      "ĠAXABBX": 8797,
      "ĠÄĽnu": 8798,
      "Ġcval": 8799,
      "Ġvydal": 8800,
      "ĠvztÃ¡": 8801,
      "Ġouho": 8802,
      "ĠÅ¡edou": 8803,
      "ĠostrÃ©": 8804,
      "Ġusnul": 8805,
      "ĠkÅĻiku": 8806,
      "Ġhousle": 8807,
      "ĠtajemnÃ½": 8808,
      "ĠpsÃ¡no": 8809,
      "ĠkÅĻiÅ¡Å¥Ã¡": 8810,
      "ĠdÃ³": 8811,
      "Ġunu": 8812,
      "lostÃŃ": 8813,
      "Ġsyt": 8814,
      "Ġrys": 8815,
      "ĠpalÄįi": 8816,
      "Ġsnila": 8817,
      "kvÄĽt": 8818,
      "Ġneda": 8819,
      "ĠnahÃ©": 8820,
      "Ġdop": 8821,
      "Ġtone": 8822,
      "Ġtanec": 8823,
      "Ġkynul": 8824,
      "ĠnekoneÄįnÃ©": 8825,
      "Ġkalu": 8826,
      "Ġoesie": 8827,
      "rati": 8828,
      "ĠÅ¾ivÃ½ch": 8829,
      "pÄĽtÃŃ": 8830,
      "ĠobracÃŃ": 8831,
      "ĠpÅ¯jdem": 8832,
      "ĠuÄįinil": 8833,
      "ur": 8834,
      "ĠnetÅĻe": 8835,
      "ĠÃŃdu": 8836,
      "Ġobna": 8837,
      "zet": 8838,
      "ĠvidÄĽli": 8839,
      "ĠrÅ¯Å¾en": 8840,
      "hneÅ¡": 8841,
      "ĠjemnÃ½": 8842,
      "ĠbudoucÃŃ": 8843,
      "Ġzkro": 8844,
      "ĠuÅ¡lechti": 8845,
      "rnost": 8846,
      "ĠÅ¾ol": 8847,
      "Ġrozdr": 8848,
      "ĠpÅĻivÃ¡": 8849,
      "ĠÅ¯Å¾ÃŃ": 8850,
      "Ġchoti": 8851,
      "ĠbÃ¡seÅĪ": 8852,
      "ĠtluÄįe": 8853,
      "Ġrostla": 8854,
      "ĠnejvÃŃce": 8855,
      "klen": 8856,
      "nskÃ½": 8857,
      "ĠpÅĻiÅ¡ly": 8858,
      "ĠoupÃŃ": 8859,
      "pÄĽnÃŃ": 8860,
      "ĠblÃŃzku": 8861,
      "ĠalnÃ©": 8862,
      "ĠvÅĻava": 8863,
      "ĠpoÄįÃŃnÃ¡": 8864,
      "ĠrÅ¾ÃŃ": 8865,
      "ĠÅ¡ku": 8866,
      "Ġnesli": 8867,
      "ĠostÅĻe": 8868,
      "ĠberÃ¡": 8869,
      "ĠveÄįeru": 8870,
      "Ġsvoboda": 8871,
      "ĠmÃ¡jo": 8872,
      "Ġsan": 8873,
      "Ġneto": 8874,
      "ĠustÃŃ": 8875,
      "ĠvyvÃ¡": 8876,
      "Ġobil": 8877,
      "Ġlupen": 8878,
      "Ġoblohy": 8879,
      "ĠkvÃ©sti": 8880,
      "ÄįkÃ¡m": 8881,
      "ĠÃ¡ta": 8882,
      "ĠÃºsty": 8883,
      "ĠtouÅ¾ÃŃm": 8884,
      "Ġsouzvuk": 8885,
      "Ġmodli": 8886,
      "Ġvedli": 8887,
      "Ġplout": 8888,
      "ĠchudÃ¡k": 8889,
      "vna": 8890,
      "Ġahem": 8891,
      "ĠspÃ¡r": 8892,
      "ĠbludnÃ©": 8893,
      "Ġvysch": 8894,
      "Ġpostava": 8895,
      "ĠodpovÃŃdÃ¡": 8896,
      "Ġakal": 8897,
      "livou": 8898,
      "ĠpÃŃÅ¡Å¥": 8899,
      "ĠÃ½ÅĻÃŃ": 8900,
      "Ġpoklo": 8901,
      "ĠbohatstvÃŃ": 8902,
      "chÃ¡zejÃŃ": 8903,
      "ĠnÃ¡hodou": 8904,
      "ĠzpomÃŃ": 8905,
      "ĠiÄįko": 8906,
      "ĠÃŃÅ¾i": 8907,
      "Ġtrudu": 8908,
      "ĠkvetoucÃŃ": 8909,
      "par": 8910,
      "ĠivÃ©m": 8911,
      "ĠÃ¡dnÃ½": 8912,
      "Ġcou": 8913,
      "ĠABABBX": 8914,
      "ĠtuÅ¡il": 8915,
      "plnÃ©": 8916,
      "ĠchvÃ¡la": 8917,
      "ĠÃ¡tkÃ½": 8918,
      "ĠÃºÄį": 8919,
      "ĠhledÄĽt": 8920,
      "Ġmet": 8921,
      "Ġtravou": 8922,
      "Ġzvyku": 8923,
      "ĠepÃ½": 8924,
      "ĠÃ¡rem": 8925,
      "Ġledu": 8926,
      "Ġvycho": 8927,
      "Ġpous": 8928,
      "ĠveÄįerem": 8929,
      "ĠdÄĽtskÃ½ch": 8930,
      "Ġzvedl": 8931,
      "ĠvÄĽrnou": 8932,
      "ĠzvÃŃÅĻ": 8933,
      "ĠuÄįitel": 8934,
      "Ġpovzdech": 8935,
      "rmu": 8936,
      "Ġpola": 8937,
      "Ġchar": 8938,
      "Ġroztom": 8939,
      "Ġmocnou": 8940,
      "Ġhynou": 8941,
      "ĠstÅĻÃŃbra": 8942,
      "ĠovÄĽÄı": 8943,
      "ĠpoÄįe": 8944,
      "Ġdojat": 8945,
      "Ġveta": 8946,
      "ĠrozdÃŃ": 8947,
      "ĠrozpÃ¡": 8948,
      "ĠrudÃ½ch": 8949,
      "ĠhravÄĽ": 8950,
      "ĠpohlÃ©": 8951,
      "Ġnejsme": 8952,
      "Å¡uje": 8953,
      "ĠvidÄĽti": 8954,
      "ĠpÅĻÃŃko": 8955,
      "Ġmeze": 8956,
      "ĠoznÃ¡": 8957,
      "ĠhrÃ¡m": 8958,
      "Ġarmo": 8959,
      "ĠkonÄįÃŃ": 8960,
      "ĠmÄĽkkÃ¡": 8961,
      "Ġmodlitbou": 8962,
      "ĠblaÅ¾enosti": 8963,
      "ĠovÃ©m": 8964,
      "ÄįnÃ©ho": 8965,
      "Ġsej": 8966,
      "ĠÃŃchem": 8967,
      "Ġleje": 8968,
      "ĠslunÃŃ": 8969,
      "Ġmag": 8970,
      "ĠtÃŃÅ¾e": 8971,
      "ĠÅ¡klebÃŃ": 8972,
      "ĠponÃŃ": 8973,
      "ĠpolnÃŃ": 8974,
      "ĠzÃ¡ro": 8975,
      "ĠluznÃ©": 8976,
      "ĠspoÄįi": 8977,
      "Ġchmury": 8978,
      "ĠotcÅ¯v": 8979,
      "mbu": 8980,
      "vnÃ½ch": 8981,
      "ĠutÃŃm": 8982,
      "Ġhostem": 8983,
      "Ġpadal": 8984,
      "Ġpodro": 8985,
      "ĠosvÃŃ": 8986,
      "ĠsÃ¡l": 8987,
      "Ġtriumf": 8988,
      "Ġmistra": 8989,
      "ĠvÃŃsky": 8990,
      "ĠÃºle": 8991,
      "Ġmrtva": 8992,
      "paly": 8993,
      "ĠzÅ¯staÅĪ": 8994,
      "ĠhÅ¯ry": 8995,
      "ĠtÃ©mÄĽÅĻ": 8996,
      "Ġsvla": 8997,
      "ĠsilnÄĽ": 8998,
      "ĠdÄĽtskÃ½": 8999,
      "ĠblÃ¡z": 9000,
      "Ġhospodin": 9001,
      "Ġkmeny": 9002,
      "ĠvÃ½stra": 9003,
      "ĠdobÅĻÃŃ": 9004,
      "Ġnepra": 9005,
      "Ġkolkolem": 9006,
      "Ġpochod": 9007,
      "ĠhÅĻeje": 9008,
      "ĠsmyslÅ¯": 9009,
      "blou": 9010,
      "ĠpsÃŃ": 9011,
      "ĠotÃŃ": 9012,
      "Äįata": 9013,
      "ĠleÅ¥": 9014,
      "Ġskvo": 9015,
      "ĠdÃŃvek": 9016,
      "Ġmedu": 9017,
      "ĠchladnÄĽ": 9018,
      "ĠzvÄĽsti": 9019,
      "Ġzelena": 9020,
      "vnou": 9021,
      "Ġposk": 9022,
      "tickÃ©": 9023,
      "Ġmoj": 9024,
      "Äįeje": 9025,
      "lenÃ½ch": 9026,
      "ĠÄįasnÄĽ": 9027,
      "ĠÅ¯dce": 9028,
      "Ġmraven": 9029,
      "ĠzpÃŃvÃ¡m": 9030,
      "ĠubohÃ¡": 9031,
      "ĠumÃŃrÃ¡nÃŃ": 9032,
      "Å¾ce": 9033,
      "nalo": 9034,
      "Ġych": 9035,
      "ĠjedinÄĽ": 9036,
      "Ġpomoz": 9037,
      "ĠvÃŃtÄĽznÃ½": 9038,
      "ĠÃ¡tce": 9039,
      "ĠvnitÅĻnÃŃ": 9040,
      "gen": 9041,
      "mrt": 9042,
      "ĠihÃ¡": 9043,
      "ĠÄįekajÃŃ": 9044,
      "Ġlkal": 9045,
      "Ġstesku": 9046,
      "ĠdÄĽsnÃ¡": 9047,
      "ĠpovÅ¾dy": 9048,
      "Ġaz": 9049,
      "Ġzahle": 9050,
      "ĠvÅ¡ecek": 9051,
      "ĠÄįekat": 9052,
      "ĠÅ¾id": 9053,
      "ĠlÃŃbat": 9054,
      "ĠpospÄĽ": 9055,
      "Ġlom": 9056,
      "ĠÄįÃŃhÃ¡": 9057,
      "ĠznÃ¡me": 9058,
      "ĠvÃŃtÄĽzÃŃ": 9059,
      "ĠspatÅĻÃŃ": 9060,
      "ĠuboÅ¾Ã¡": 9061,
      "ĠvlhkÃ©": 9062,
      "ĠÃ¡sce": 9063,
      "Ġjene": 9064,
      "ĠtiÅ¡": 9065,
      "Ġtaji": 9066,
      "Ġkapra": 9067,
      "Ġvrak": 9068,
      "ĠpovÃŃm": 9069,
      "nÄĽnÃ¡": 9070,
      "ĠÃŃni": 9071,
      "ĠvzÅĪat": 9072,
      "ĠandÄĽla": 9073,
      "Ġnedot": 9074,
      "Ġvztekem": 9075,
      "ĠdoÅ¡el": 9076,
      "Ġstatek": 9077,
      "Ġlucy": 9078,
      "ĠoknÄĽ": 9079,
      "Ġozve": 9080,
      "Ġnaproti": 9081,
      "ĠzachvÄĽla": 9082,
      "ĠvzpomnÄĽl": 9083,
      "ĠkolikrÃ¡t": 9084,
      "ĠaÅĻi": 9085,
      "ÄįnÃŃk": 9086,
      "ruÅ¡ÃŃ": 9087,
      "ĠdajÃŃ": 9088,
      "ĠhluÄįnÄĽ": 9089,
      "ĠshromÃ¡": 9090,
      "rÃ½mi": 9091,
      "ĠkÃ½m": 9092,
      "ĠtÄĽsnÄĽ": 9093,
      "ĠykÃ¡": 9094,
      "ĠchutÃŃ": 9095,
      "ĠstÅĻechu": 9096,
      "ĠtÃ½den": 9097,
      "ĠnavÅ¡tÃŃ": 9098,
      "ĠnÃŃzkÃ©": 9099,
      "ĠÅ¡pÃŃ": 9100,
      "dan": 9101,
      "ĠnocÃŃch": 9102,
      "Äįiv": 9103,
      "trp": 9104,
      "ĠvolnÃ©": 9105,
      "ĠXAAXBB": 9106,
      "lnÃ¡": 9107,
      "rÃ¡nÃŃ": 9108,
      "Ġeo": 9109,
      "Ġekou": 9110,
      "Ġdosa": 9111,
      "ĠnÄĽha": 9112,
      "ĠtrpÄĽl": 9113,
      "chan": 9114,
      "pech": 9115,
      "Ġoknu": 9116,
      "Ġzbloudil": 9117,
      "Ġmilence": 9118,
      "Ġfiloso": 9119,
      "nÄĽjÃŃ": 9120,
      "ĠhostÃ©": 9121,
      "Ġdere": 9122,
      "Ġstudu": 9123,
      "Ġsteskem": 9124,
      "Ġhovoru": 9125,
      "ĠkvÄĽtin": 9126,
      "ĠustÃ¡nÃŃ": 9127,
      "ĠniÄįeho": 9128,
      "Ġfe": 9129,
      "ĠsamÃ¡": 9130,
      "ĠskoÄįil": 9131,
      "ĠzlobÄĽ": 9132,
      "vrh": 9133,
      "tnÃ½m": 9134,
      "ĠavÃŃm": 9135,
      "Ġduhu": 9136,
      "Ġbet": 9137,
      "ĠhrÅ¯ze": 9138,
      "Ġkryl": 9139,
      "ĠvalnÃ©": 9140,
      "ĠpÃ½chy": 9141,
      "ĠÅ¡ÃŃlenstvÃŃ": 9142,
      "ĠnedÄĽli": 9143,
      "ĠvydÃ¡": 9144,
      "ĠvÄĽtev": 9145,
      "tavÃ½": 9146,
      "ĠXAAA": 9147,
      "Ġsluj": 9148,
      "ĠzavÅĻel": 9149,
      "ĠpromÄĽnÃŃ": 9150,
      "ĠdaÅĪ": 9151,
      "Ġklec": 9152,
      "Ġglo": 9153,
      "Ġzahalen": 9154,
      "Ġplachty": 9155,
      "Ġnesa": 9156,
      "Ġrosu": 9157,
      "Ġyto": 9158,
      "Ġhude": 9159,
      "Äįenou": 9160,
      "ĠkÅĻikem": 9161,
      "ĠlÅ¯na": 9162,
      "Ġkladou": 9163,
      "Ġuvil": 9164,
      "Ġeze": 9165,
      "ĠÃŃc": 9166,
      "ĠÃŃda": 9167,
      "Ġdoved": 9168,
      "Ġkrej": 9169,
      "ĠsmÄĽlÃ©": 9170,
      "Ġdomova": 9171,
      "ĠnadÅ¡enÃŃm": 9172,
      "ĠrozkvÃ©": 9173,
      "ĠtrvÃ¡": 9174,
      "hnej": 9175,
      "ĠlehkÃ©": 9176,
      "ĠchuÄıas": 9177,
      "ĠpÅĻÃŃrodÄĽ": 9178,
      "Ġavit": 9179,
      "Ġzvl": 9180,
      "cejÃŃ": 9181,
      "Ġekal": 9182,
      "ĠniÄįÃŃ": 9183,
      "ĠstÃ¡lÃ½": 9184,
      "Ġmodrou": 9185,
      "Ġudiven": 9186,
      "Ġonde": 9187,
      "ĠtouÅ¾e": 9188,
      "Äįkami": 9189,
      "tÅ¯v": 9190,
      "ĠpÅ¯da": 9191,
      "Ġdvora": 9192,
      "ĠÅ¾alÃ¡ÅĻ": 9193,
      "Ġodi": 9194,
      "Ġrozle": 9195,
      "ĠvÃ¡Å¾nÃ©": 9196,
      "ĠchorÃ½": 9197,
      "Ġzvonek": 9198,
      "ĠÅ¡Å¥Ã¡": 9199,
      "uji": 9200,
      "ĠvÄĽje": 9201,
      "Ġobce": 9202,
      "ĠvÃŃly": 9203,
      "Ġkadi": 9204,
      "ĠdlouhÃ©m": 9205,
      "Ġhvizd": 9206,
      "ĠvlÃ©": 9207,
      "ĠoÅĻem": 9208,
      "nÃŃkem": 9209,
      "Ġsype": 9210,
      "ĠknÄĽze": 9211,
      "ĠtajnÃ½": 9212,
      "Ġskutky": 9213,
      "ĠpestrÃ½ch": 9214,
      "ĠlabuÅ¥": 9215,
      "Ġmilosrd": 9216,
      "ĠÃŃrat": 9217,
      "dÄĽlÃ¡": 9218,
      "Ġrodiny": 9219,
      "ĠhÅĻbet": 9220,
      "Ġnedej": 9221,
      "Ġeva": 9222,
      "Ġodnes": 9223,
      "hÃ¡Äį": 9224,
      "Ġklek": 9225,
      "zujÃŃ": 9226,
      "ĠspÃ¡sa": 9227,
      "ĠvÅĻes": 9228,
      "ĠandÄĽlÅ¯": 9229,
      "rnÃ©ho": 9230,
      "nÃ¡ÅĻ": 9231,
      "ĠmÃ¡lem": 9232,
      "Ġkusy": 9233,
      "ĠstrÃ¡Å¾e": 9234,
      "ĠpomnÄĽ": 9235,
      "ĠsvojÃŃm": 9236,
      "ĠnamÃ¡": 9237,
      "Ġcnost": 9238,
      "Ġmyslit": 9239,
      "ĠprÃ½Å¡tÃŃ": 9240,
      "Ġklenu": 9241,
      "Ġhotov": 9242,
      "Ġsne": 9243,
      "ĠÃ¡ÅĻ": 9244,
      "ĠbÃŃdnÄĽ": 9245,
      "ĠÄįili": 9246,
      "tÃ©Å¾": 9247,
      "ĠvelkÃ©m": 9248,
      "Ġpustou": 9249,
      "Ġokolo": 9250,
      "ĠkvÃŃtko": 9251,
      "ĠchÃ¡pe": 9252,
      "ĠÃ¡cel": 9253,
      "Å¾eti": 9254,
      "Ġpodla": 9255,
      "Ġmnohem": 9256,
      "benÃ½": 9257,
      "Ġopojen": 9258,
      "ĠicÃŃch": 9259,
      "ĠplazÃŃ": 9260,
      "ĠsmÄĽr": 9261,
      "!?": 9262,
      "ÅĻmi": 9263,
[...]
