{
  "version": "1.0",
  "truncation": null,
  "padding": null,
  "added_tokens": [
    {
      "id": 0,
      "content": "<|endoftext|>",
      "single_word": false,
      "lstrip": false,
      "rstrip": false,
      "normalized": false,
      "special": true
    }
  ],
  "normalizer": null,
  "pre_tokenizer": {
    "type": "ByteLevel",
    "add_prefix_space": false,
    "trim_offsets": true,
    "use_regex": true
  },
  "post_processor": {
    "type": "ByteLevel",
    "add_prefix_space": true,
    "trim_offsets": false,
    "use_regex": true
  },
  "decoder": {
    "type": "ByteLevel",
    "add_prefix_space": true,
    "trim_offsets": true,
    "use_regex": true
  },
  "model": {
    "type": "BPE",
    "dropout": null,
    "unk_token": null,
    "continuing_subword_prefix": null,
    "end_of_word_suffix": null,
    "fuse_unk": false,
    "byte_fallback": false,
    "vocab": {
      "<|endoftext|>": 0,
      "!": 1,
      "#": 2,
      "+": 3,
      ",": 4,
      ".": 5,
      "0": 6,
      "1": 7,
      "2": 8,
      "3": 9,
      "4": 10,
      "5": 11,
      "6": 12,
      "7": 13,
      "8": 14,
      "9": 15,
      "=": 16,
      "?": 17,
      "A": 18,
      "B": 19,
      "C": 20,
      "D": 21,
      "E": 22,
      "F": 23,
      "G": 24,
      "H": 25,
      "J": 26,
      "N": 27,
      "T": 28,
      "X": 29,
      "Y": 30,
      "[": 31,
      "]": 32,
      "`": 33,
      "a": 34,
      "b": 35,
      "c": 36,
      "d": 37,
      "e": 38,
      "f": 39,
      "g": 40,
      "h": 41,
      "i": 42,
      "j": 43,
      "k": 44,
      "l": 45,
      "m": 46,
      "n": 47,
      "o": 48,
      "p": 49,
      "q": 50,
      "r": 51,
      "s": 52,
      "t": 53,
      "u": 54,
      "v": 55,
      "w": 56,
      "x": 57,
      "y": 58,
      "z": 59,
      "¡": 60,
      "¢": 61,
      "¤": 62,
      "¥": 63,
      "¦": 64,
      "§": 65,
      "¨": 66,
      "©": 67,
      "ª": 68,
      "«": 69,
      "®": 70,
      "¯": 71,
      "²": 72,
      "³": 73,
      "´": 74,
      "¶": 75,
      "º": 76,
      "»": 77,
      "¼": 78,
      "½": 79,
      "¾": 80,
      "Â": 81,
      "Ã": 82,
      "Ä": 83,
      "Å": 84,
      "Ï": 85,
      "â": 86,
      "Ċ": 87,
      "Ġ": 88,
      "Ģ": 89,
      "Ĥ": 90,
      "Ħ": 91,
      "ĩ": 92,
      "Ī": 93,
      "Ĭ": 94,
      "į": 95,
      "ı": 96,
      "Ĵ": 97,
      "ĵ": 98,
      "Ļ": 99,
      "ļ": 100,
      "Ľ": 101,
      "Ł": 102,
      "ł": 103,
      "Ń": 104,
      "Ġ#": 105,
      "ÃŃ": 106,
      "Ã¡": 107,
      "Ġs": 108,
      "Ġv": 109,
      "ÄĽ": 110,
      "Ġp": 111,
      "Ġn": 112,
      "Ġt": 113,
      "Ġj": 114,
      "Å¾": 115,
      "Ġz": 116,
      "ch": 117,
      "Ġa": 118,
      "Ġk": 119,
      "Å¡": 120,
      "Ã½": 121,
      "Ġm": 122,
      "ÅĻ": 123,
      "Ã©": 124,
      "Ġd": 125,
      "ou": 126,
      "Äį": 127,
      "la": 128,
      "Ġo": 129,
      "10": 130,
      "Ġb": 131,
      "en": 132,
      "Ġ1": 133,
      "11": 134,
      "st": 135,
      "em": 136,
      "AB": 137,
      "Ġh": 138,
      "XX": 139,
      "le": 140,
      "Ġse": 141,
      "Å¯": 142,
      "ro": 143,
      "ak": 144,
      "ra": 145,
      "li": 146,
      "Ġpo": 147,
      "Ġne": 148,
      "Ġje": 149,
      "Ġna": 150,
      "nÃŃ": 151,
      "Ġ18": 152,
      "Ġst": 153,
      "lo": 154,
      "rÃ¡": 155,
      "Ġu": 156,
      "ĠJ": 157,
      "ce": 158,
      "ÅĻe": 159,
      "Ġ19": 160,
      "nÄĽ": 161,
      "ĠÅ¾": 162,
      "Ġsv": 163,
      "al": 164,
      "ÅĻÃŃ": 165,
      "Ġi": 166,
      "Å¡e": 167,
      "dy": 168,
      "ĠT": 169,
      "Ġza": 170,
      "ne": 171,
      "ĠÄį": 172,
      "ru": 173,
      "il": 174,
      "Ġjak": 175,
      "ho": 176,
      "nÃ½": 177,
      "sk": 178,
      "Ġch": 179,
      "lÃ¡": 180,
      "nÃ©": 181,
      "te": 182,
      "ti": 183,
      "de": 184,
      "Ġe": 185,
      "ĠÃ¡": 186,
      "Ġdo": 187,
      "vÄĽ": 188,
      "je": 189,
      "XXXX": 190,
      "ÃŃm": 191,
      "Ġto": 192,
      "vÃ¡": 193,
      "Ġc": 194,
      "na": 195,
      "ABAB": 196,
      "jÃŃ": 197,
      "lu": 198,
      "no": 199,
      "lÃŃ": 200,
      "va": 201,
      "Ġby": 202,
      "ky": 203,
      "ku": 204,
      "12": 205,
      "XA": 206,
      "tÃŃ": 207,
      "ÅĻi": 208,
      "Ġji": 209,
      "ka": 210,
      "ĠÃŃ": 211,
      "ko": 212,
      "Ã¡m": 213,
      "vo": 214,
      "tÄĽ": 215,
      "Ġve": 216,
      "Ġr": 217,
      "ABB": 218,
      "Ã½ch": 219,
      "Ġro": 220,
      "ni": 221,
      "ly": 222,
      "ĠÅ¡": 223,
      "Ġjs": 224,
      "vÃŃ": 225,
      "nÃ¡": 226,
      "at": 227,
      "ci": 228,
      "Ġle": 229,
      "nou": 230,
      "Ġpro": 231,
      "nu": 232,
      "ĠÄĽ": 233,
      "Å¥": 234,
      "Ġjen": 235,
      "Ã½m": 236,
      "..": 237,
      "13": 238,
      "ĠÅ¾e": 239,
      "Ġ189": 240,
      "Ġko": 241,
      "ĠvÄĽ": 242,
      "vÃ©": 243,
      "Ġho": 244,
      "do": 245,
      "Ġvy": 246,
      "am": 247,
      "ny": 248,
      "Ġ188": 249,
      "cÃŃ": 250,
      "Ġmo": 251,
      "dÄĽ": 252,
      "lÃ©": 253,
      "du": 254,
      "Ġkdy": 255,
      "Å¡ÃŃ": 256,
      "Ġvz": 257,
      "po": 258,
      "Ġ190": 259,
      "Ġbo": 260,
      "ĠpÅĻe": 261,
      "ÄįÃŃ": 262,
      "Ġtak": 263,
      "Ġco": 264,
      "ar": 265,
      "Ġob": 266,
      "to": 267,
      "dÃŃ": 268,
      "mu": 269,
      "dÃ¡": 270,
      "kÃ¡": 271,
      "Ġmi": 272,
      "as": 273,
      "Ġdu": 274,
      "ĠÃ": 275,
      "lou": 276,
      "AABB": 277,
      "it": 278,
      "Ġtu": 279,
      "Ġmu": 280,
      "ĠvÅ¡": 281,
      "Å¾ÃŃ": 282,
      "Ġroz": 283,
      "ÅĪ": 284,
      "da": 285,
      "Å¾e": 286,
      "CC": 287,
      "ĠnÃ¡": 288,
      "se": 289,
      "enÃŃ": 290,
      "Äįe": 291,
      "ĠvÅ¡e": 292,
      "ĠtÄĽ": 293,
      "ĠÄįe": 294,
      "Ġte": 295,
      "Ġli": 296,
      "di": 297,
      "ji": 298,
      "ÄĽt": 299,
      "sti": 300,
      "Ġti": 301,
      "ĠvÃŃ": 302,
      "Äı": 303,
      "Ġni": 304,
      "Ġno": 305,
      "ve": 306,
      "Ġjsem": 307,
      "ĠnÄĽ": 308,
      "by": 309,
      "XAXA": 310,
      "ĠdÃ¡": 311,
      "ry": 312,
      "ĠzÃ¡": 313,
      "rd": 314,
      "Ġod": 315,
      "vu": 316,
      "tÃ¡": 317,
      "vi": 318,
      "Ġpa": 319,
      "mÄĽ": 320,
      "Ġhla": 321,
      "ta": 322,
      "be": 323,
      "Ġ192": 324,
      "Ġsp": 325,
      "vy": 326,
      "ĠÅ¾i": 327,
      "ĠN": 328,
      "ĠmÄĽ": 329,
      "ĠkdyÅ¾": 330,
      "Ġru": 331,
      "Ġsk": 332,
      "ze": 333,
      "mÃŃ": 334,
      "ĠkrÃ¡": 335,
      "Ġsi": 336,
      "Ġbu": 337,
      "ĠpÅĻi": 338,
      "ĠmÃ¡": 339,
      "ĠsvÃ©": 340,
      "Ġl": 341,
      "...": 342,
      "Å¯j": 343,
      "Äįi": 344,
      "Ġty": 345,
      "Ġvo": 346,
      "lÃ½": 347,
      "ĠdÄĽ": 348,
      "Å¡i": 349,
      "Ġsrd": 350,
      "mi": 351,
      "Ġjako": 352,
      "Ġta": 353,
      "ĠrÃ¡": 354,
      "bo": 355,
      "Ġpra": 356,
      "ĠjÃ¡": 357,
      "ĠÃº": 358,
      "me": 359,
      "XXXXXX": 360,
      "Ġpr": 361,
      "ĠvÅ¡ak": 362,
      "ĠvÃ¡": 363,
      "Ġten": 364,
      "Ã©m": 365,
      "ĠlÃ¡": 366,
      "ha": 367,
      "vÃ½": 368,
      "ĠsvÄĽt": 369,
      "Ġce": 370,
      "tu": 371,
      "Ġka": 372,
      "Ġkde": 373,
      "lad": 374,
      "Ġra": 375,
      "Ġ193": 376,
      "sÃŃ": 377,
      "ez": 378,
      "bÄĽ": 379,
      "Ġvi": 380,
      "Ġtam": 381,
      "hu": 382,
      "kÅ¯": 383,
      "ĠdÃŃ": 384,
      "ĠjiÅ¾": 385,
      "sta": 386,
      "nÃ½ch": 387,
      "Ġnad": 388,
      "ma": 389,
      "Ġzem": 390,
      "hy": 391,
      "ty": 392,
      "hÃ¡": 393,
      "stÃŃ": 394,
      "Ġ187": 395,
      "Ġpod": 396,
      "val": 397,
      "Ġen": 398,
      "Ġjeho": 399,
      "Ġy": 400,
      "zÃŃ": 401,
      "kou": 402,
      "Ġkr": 403,
      "led": 404,
      "ABC": 405,
      "ĠjeÅ¾": 406,
      "Ġbyl": 407,
      "ĠpÅĻÃŃ": 408,
      "ĠÅ¡e": 409,
      "Ġsta": 410,
      "sy": 411,
      "rak": 412,
      "Ġslu": 413,
      "mo": 414,
      "Ġjed": 415,
      "ĠnÃŃ": 416,
      "ĠlÃŃ": 417,
      "pÃŃ": 418,
      "Ġzas": 419,
      "vou": 420,
      "Ġmy": 421,
      "ĠÅĻe": 422,
      "bu": 423,
      "Å¡tÄĽ": 424,
      "ĠjÃŃ": 425,
      "kÃ©": 426,
      "su": 427,
      "ĠpÃ¡": 428,
      "len": 429,
      "ABBA": 430,
      "cho": 431,
      "ad": 432,
      "ĠtÃ©": 433,
      "Ġsrdce": 434,
      "Ġpe": 435,
      "lem": 436,
      "Ġkte": 437,
      "ĠnÃ¡m": 438,
      "sa": 439,
      "14": 440,
      "ĠstÃŃ": 441,
      "15": 442,
      "ĠmÃŃ": 443,
      "ĠstÃ¡": 444,
      "Ġvla": 445,
      "kÃ½": 446,
      "si": 447,
      "chu": 448,
      "Å¾dy": 449,
      "Ġze": 450,
      "ĠpÃŃ": 451,
      "ba": 452,
      "Ġlid": 453,
      "ĠlÃ¡sk": 454,
      "Å¾i": 455,
      "Ã©ho": 456,
      "Ġdi": 457,
      "rou": 458,
      "nÃ½m": 459,
      "Ġpak": 460,
      "bi": 461,
      "ĠjenÅ¾": 462,
      "Ġbez": 463,
      "Ġnou": 464,
      "ĠbÃŃ": 465,
      "kem": 466,
      "Å¯m": 467,
      "ĠpÅĻed": 468,
      "Ġnem": 469,
      "ĠvÅ¾dy": 470,
      "ĠĊ": 471,
      "rÃ½": 472,
      "Ġzla": 473,
      "Ġkdo": 474,
      "Ġla": 475,
      "my": 476,
      "XB": 477,
      "zd": 478,
      "Ġhro": 479,
      "Ġso": 480,
      "Ġmne": 481,
      "Ġpla": 482,
      "Ġdne": 483,
      "CD": 484,
      "pÄĽ": 485,
      "Ġhle": 486,
      "ĠÃ³": 487,
      "men": 488,
      "ĠaÅ¾": 489,
      "ej": 490,
      "Ġtou": 491,
      "ĠkvÄĽ": 492,
      "dou": 493,
      "Ġsti": 494,
      "ÅĻÃ¡": 495,
      "ĠvÃ½": 496,
      "Ġtv": 497,
      "ĠtvÃ¡": 498,
      "16": 499,
      "Ġnes": 500,
      "ĠÄįi": 501,
      "Ġjest": 502,
      "ste": 503,
      "Ġnej": 504,
      "ĠÅĻÃŃ": 505,
      "ĠÅ¾ivo": 506,
      "Ġslo": 507,
      "ĠkaÅ¾": 508,
      "Ġjej": 509,
      "ĠteÄı": 510,
      "ĠdÃ¡l": 511,
      "ĠÄįas": 512,
      "Ġden": 513,
      "rÅ¯": 514,
      "ĠmÃ©": 515,
      "Ġku": 516,
      "Ġon": 517,
      "Ġnez": 518,
      "an": 519,
      "Ġsto": 520,
      "AA": 521,
      "Ġpou": 522,
      "ĠprÃ¡": 523,
      "ĠÄįer": 524,
      "Ġsna": 525,
      "ĠuÅ¾": 526,
      "ĠÅ¾en": 527,
      "Ġkou": 528,
      "pu": 529,
      "sto": 530,
      "ĠneÅ¾": 531,
      "hou": 532,
      "Ġmil": 533,
      "Ġpos": 534,
      "Ġslun": 535,
      "mÃ¡": 536,
      "Ġsla": 537,
      "ĠplÃ¡": 538,
      "Ġdob": 539,
      "Ġf": 540,
      "rt": 541,
      "ĠmnÄĽ": 542,
      "ĠvÄĽt": 543,
      "ĠÃ¡nÃŃ": 544,
      "Ġnebe": 545,
      "Ġale": 546,
      "ĠmÅ¯j": 547,
      "Ġchu": 548,
      "bÃŃ": 549,
      "Ġsvo": 550,
      "nÅ¯": 551,
      "Ġme": 552,
      "Ġsvou": 553,
      "ĠpÄĽ": 554,
      "Ġtem": 555,
      "ĠenÃŃ": 556,
      "AABBCC": 557,
      "tÃ½": 558,
      "re": 559,
      "Ġjsi": 560,
      "rÃ©": 561,
      "ĠtvÃ©": 562,
      "Ġlu": 563,
      "ĠvÅ¡ech": 564,
      "Ġjsou": 565,
      "AABC": 566,
      "chÃ¡": 567,
      "Ġlo": 568,
      "ĠnÃ¡s": 569,
      "Ġdru": 570,
      "pe": 571,
      "ABCC": 572,
      "Ġma": 573,
      "tÃ©": 574,
      "ĠjeÅ¡tÄĽ": 575,
      "ĠsÃŃ": 576,
      "Ġsy": 577,
      "Ġvel": 578,
      "Ġre": 579,
      "pa": 580,
      "Ġbra": 581,
      "Ġde": 582,
      "bou": 583,
      "zy": 584,
      "nÃ©m": 585,
      "Ġpl": 586,
      "ĠnÄĽm": 587,
      "ĠduÅ¡e": 588,
      "tr": 589,
      "Ġda": 590,
      "ĠcÃŃ": 591,
      "Ġsou": 592,
      "Ġtom": 593,
      "skÃ©": 594,
      "ĠkaÅ¾d": 595,
      "dÄĽl": 596,
      "Ġkra": 597,
      "ĠbÄĽ": 598,
      "Ġval": 599,
      "ĠhvÄĽ": 600,
      "ĠjejÃŃ": 601,
      "Ġsvat": 602,
      "Ġzrak": 603,
      "ĠbÃ½": 604,
      "ĠnÃŃm": 605,
      "Ġvl": 606,
      "nem": 607,
      "nÃŃm": 608,
      "Ġsnad": 609,
      "Ġbla": 610,
      "Ġot": 611,
      "Ġzde": 612,
      "ĠsÃ¡m": 613,
      "Ġnech": 614,
      "hÃ½": 615,
      "ĠvÅ¯": 616,
      "ĠÃ½ch": 617,
      "Ġsm": 618,
      "ĠD": 619,
      "Ġry": 620,
      "Ġost": 621,
      "Ġstar": 622,
      "Ġkle": 623,
      "Ġdra": 624,
      "Ġhu": 625,
      "Ġsem": 626,
      "ĠrÅ¯": 627,
      "Ġstra": 628,
      "ĠÃ½": 629,
      "ÅĻen": 630,
      "ĠvÅ¡ec": 631,
      "Ġcho": 632,
      "Ġpoh": 633,
      "Ġhra": 634,
      "Ġoh": 635,
      "Ġ185": 636,
      "Ġneb": 637,
      "ĠaÅ¥": 638,
      "Ġpu": 639,
      "Ġ183": 640,
      "Ġbou": 641,
      "Ġkam": 642,
      "ĠbÃ¡": 643,
      "Å¾en": 644,
      "Å¡el": 645,
      "ĠÅ¡tÄĽ": 646,
      "ĠtÃ¡": 647,
      "ĠchvÃŃ": 648,
      "Ġnu": 649,
      "ĠvÃ¡m": 650,
      "ĠoÄįi": 651,
      "ĠÅ¾Ã¡": 652,
      "Ġ191": 653,
      "stu": 654,
      "vil": 655,
      "ĠkvÄĽt": 656,
      "ABABCC": 657,
      "Ġjas": 658,
      "ĠÅ¾ivot": 659,
      "Ġja": 660,
      "Ġsly": 661,
      "Ġ1896": 662,
      "ĠsvÄĽ": 663,
      "Ġ184": 664,
      "Ġhlu": 665,
      "Ġva": 666,
      "cha": 667,
      "tel": 668,
      "Ġ186": 669,
      "Ġbude": 670,
      "Ġsam": 671,
      "Ġzd": 672,
      "ĠduÅ¡i": 673,
      "nost": 674,
      "Ġtr": 675,
      "sÃ¡": 676,
      "ĠvÄĽÄį": 677,
      "pÃ¡": 678,
      "py": 679,
      "Ġmod": 680,
      "ĠÅĻ": 681,
      "til": 682,
      "Ġpoz": 683,
      "ĠkrÃ¡s": 684,
      "Ġsl": 685,
      "Ġjsme": 686,
      "nÃ¡m": 687,
      "Ġdlou": 688,
      "sÅ¥": 689,
      "Ġzvo": 690,
      "Ġba": 691,
      "Ġslad": 692,
      "Ġsmu": 693,
      "nul": 694,
      "ĠnenÃŃ": 695,
      "Ġmno": 696,
      "jem": 697,
      "Ġjich": 698,
      "Ġdnes": 699,
      "Ġ1883": 700,
      "Ã½mi": 701,
      "Ġmat": 702,
      "Ġstro": 703,
      "bÃ¡": 704,
      "Ġmou": 705,
      "pi": 706,
      "Ġbych": 707,
      "Ġvra": 708,
      "nosti": 709,
      "cen": 710,
      "ĠtÄĽch": 711,
      "ĠkÅĻÃŃ": 712,
      "ven": 713,
      "Ġspo": 714,
      "Ġhne": 715,
      "Ġslunce": 716,
      "zi": 717,
      "ĠobÄĽ": 718,
      "Ġtvo": 719,
      "Ġbylo": 720,
      "hle": 721,
      "ĠtÅĻe": 722,
      "Ġach": 723,
      "Å¯h": 724,
      "Ġjim": 725,
      "vat": 726,
      "Ġci": 727,
      "tra": 728,
      "Ġem": 729,
      "Ġlet": 730,
      "Ġnep": 731,
      "tek": 732,
      "dem": 733,
      "so": 734,
      "rem": 735,
      "ĠsnÄĽ": 736,
      "cÃŃch": 737,
      "vÃ½ch": 738,
      "stÃ¡": 739,
      "jÅ¡ÃŃ": 740,
      "Å¡en": 741,
      "ĠchtÄĽ": 742,
      "Ġala": 743,
      "Ġech": 744,
      "ABABCD": 745,
      "Ġml": 746,
      "stvÃŃ": 747,
      "ĠslÃ¡": 748,
      "ĠptÃ¡": 749,
      "ĠmÃ¡m": 750,
      "Ġmar": 751,
      "ĠÃ©": 752,
      "ĠvÃŃc": 753,
      "zu": 754,
      "ĠÅ¯": 755,
      "ĠtÃŃm": 756,
      "chy": 757,
      "Ġnik": 758,
      "Ġhlas": 759,
      "mÅ¯": 760,
      "Ġkol": 761,
      "Ġnich": 762,
      "Ġkli": 763,
      "lÅ¯": 764,
      "Ġ1906": 765,
      "Ġkro": 766,
      "hÃ©": 767,
      "lovÄĽ": 768,
      "Ġbe": 769,
      "ĠzÅĻÃŃ": 770,
      "Ġkla": 771,
      "Ġani": 772,
      "Ġg": 773,
      "Ġbyla": 774,
      "stou": 775,
      "ĠbÅ¯h": 776,
      "ĠsvÅ¯j": 777,
      "Ġsmut": 778,
      "vnÃŃ": 779,
      "Ġdal": 780,
      "Ġsen": 781,
      "skÃ½": 782,
      "stÄĽ": 783,
      "Ġmys": 784,
      "Ġles": 785,
      "ĠmÄĽl": 786,
      "ĠlÃ¡sky": 787,
      "cem": 788,
      "ev": 789,
      "Ġmilo": 790,
      "Ġila": 791,
      "nÃ©ho": 792,
      "dla": 793,
      "jich": 794,
      "krÃ¡": 795,
      "chem": 796,
      "ĠÄįlovÄĽ": 797,
      "ĠpÃŃs": 798,
      "ĠsmÄĽ": 799,
      "ĠoÄįÃŃ": 800,
      "Ġvou": 801,
      "Ġvr": 802,
      "Äįka": 803,
      "Ġ1899": 804,
      "ĠtÃŃ": 805,
      "ĠÅ¡ÃŃ": 806,
      "ÅĻel": 807,
      "Ġ1895": 808,
      "ĠsvÃŃ": 809,
      "Äįen": 810,
      "ĠvÃ¡s": 811,
      "ĠtÃ©Å¾": 812,
      "Ġnoc": 813,
      "nil": 814,
      "ĠsobÄĽ": 815,
      "Ġkolem": 816,
      "ĠÃŃch": 817,
      "Ġ1897": 818,
      "skÃ¡": 819,
      "ÅĻil": 820,
      "Ġke": 821,
      "Ġ1884": 822,
      "Ġan": 823,
      "ABCCB": 824,
      "za": 825,
      "vem": 826,
      "tou": 827,
      "Ġou": 828,
      "Ġjem": 829,
      "ĠtvÅ¯j": 830,
      "sud": 831,
      "nal": 832,
      "Ġhou": 833,
      "ĠzdÃ¡": 834,
      "tem": 835,
      "Ġzda": 836,
      "lesk": 837,
      "Ġmal": 838,
      "ĠblÃŃ": 839,
      "ĠpÅ¯": 840,
      "ĠkaÅ¾dÃ½": 841,
      "Ġop": 842,
      "ĠtobÄĽ": 843,
      "Å¡Å¥": 844,
      "ĠtÄĽÅ¾": 845,
      "Ġhned": 846,
      "ĠsvÃ½ch": 847,
      "ĠpÅĻes": 848,
      "ĠlÃ©": 849,
      "Ġaby": 850,
      "Ġrado": 851,
      "Ġkem": 852,
      "Ġok": 853,
      "ĠzemÄĽ": 854,
      "cÅ¯": 855,
      "ĠhÃ¡": 856,
      "dil": 857,
      "Ġpan": 858,
      "tÃŃm": 859,
      "ĠproÄį": 860,
      "Ġ1927": 861,
      "Ġchy": 862,
      "Ġdiv": 863,
      "Å¡ÃŃm": 864,
      "Å¡tÃŃ": 865,
      "Ġsu": 866,
      "ĠÅ¾itÃŃ": 867,
      "hla": 868,
      "hÅ¯": 869,
      "AABCCB": 870,
      "Ġmrt": 871,
      "ĠajÃŃ": 872,
      "ri": 873,
      "ĠsnÃŃ": 874,
      "Ġjejich": 875,
      "ĠÃ©ho": 876,
      "Ġsil": 877,
      "ĠskÃ¡": 878,
      "sty": 879,
      "ĠvÅ¡em": 880,
      "Ġju": 881,
      "Ġlou": 882,
      "ĠÅ¡u": 883,
      "ĠsmÃŃ": 884,
      "ĠdÅĻÃŃ": 885,
      "ĠÅĻek": 886,
      "Ġruce": 887,
      "ĠbuÄı": 888,
      "ĠÅ¾al": 889,
      "ĠÄĽnÃŃ": 890,
      "Ġtich": 891,
      "Ġdla": 892,
      "Ġ1901": 893,
      "ĠrÃ¡d": 894,
      "ĠleÄį": 895,
      "ĠchvÄĽ": 896,
      "ĠÄįa": 897,
      "pr": 898,
      "nky": 899,
      "Ġlem": 900,
      "tÅ¯": 901,
      "Ġoko": 902,
      "Ġchce": 903,
      "Ġsrdci": 904,
      "Ġus": 905,
      "co": 906,
      "vÃ½m": 907,
      "ĠsvÃ½m": 908,
      "Ġzemi": 909,
      "Ġmoc": 910,
      "Äįky": 911,
      "ĠveÄįe": 912,
      "ĠvÅ¡ecko": 913,
      "Ġmoje": 914,
      "ĠmuÅ¾": 915,
      "seÅĪ": 916,
      "Ġhor": 917,
      "Ġdce": 918,
      "Ġ1911": 919,
      "Ġnepo": 920,
      "ĠnÃ¡Å¡": 921,
      "Ġmra": 922,
      "Äįek": 923,
      "om": 924,
      "ĠhvÄĽz": 925,
      "Ġsmr": 926,
      "lÃ½ch": 927,
      "Ġ1889": 928,
      "Ġ1904": 929,
      "ĠzpÄĽ": 930,
      "Ġsko": 931,
      "Ġvlast": 932,
      "sla": 933,
      "Ġ1907": 934,
      "Ġprav": 935,
      "Ġ1900": 936,
      "ĠÅ¡el": 937,
      "pomÃŃ": 938,
      "ÅĻem": 939,
      "Ġpad": 940,
      "ĠnaÅ¡e": 941,
      "Ġhe": 942,
      "Ġ1885": 943,
      "ĠpÅĻec": 944,
      "dnÃ©": 945,
      "skÃ½ch": 946,
      "Ġuje": 947,
      "Ġzp": 948,
      "Ġzlo": 949,
      "Ġha": 950,
      "ĠspÃ¡": 951,
      "ĠÅ¡tÄĽstÃŃ": 952,
      "ĠÅ¾ÃŃ": 953,
      "Ġjste": 954,
      "ved": 955,
      "AXB": 956,
      "Ġhr": 957,
      "Ġstu": 958,
      "hne": 959,
      "Ġjenom": 960,
      "dÃ©": 961,
      "ĠnÃ¡ro": 962,
      "kal": 963,
      "kÃ½ch": 964,
      "Ġnoci": 965,
      "ĠĠ": 966,
      "Ġzb": 967,
      "Ġtebe": 968,
      "ĠvlÃ¡": 969,
      "Ġhlavu": 970,
      "Ġ1887": 971,
      "Ġote": 972,
      "Ġzah": 973,
      "ĠdÄĽl": 974,
      "Äįil": 975,
      "Ġple": 976,
      "Ġjde": 977,
      "zo": 978,
      "Ġmez": 979,
      "Ġhru": 980,
      "Ġ1892": 981,
      "lil": 982,
      "pad": 983,
      "pla": 984,
      "ÃŃme": 985,
      "ĠbÃ½t": 986,
      "Ġny": 987,
      "Ġnic": 988,
      "Ġdou": 989,
      "Ġcit": 990,
      "Ġmlad": 991,
      "nek": 992,
      "Ġkru": 993,
      "ĠÅ¡i": 994,
      "ĠÅĪ": 995,
      "ĠzpÃŃ": 996,
      "nÃŃch": 997,
      "Ġ1890": 998,
      "ĠdÃ¡v": 999,
      "Ġbi": 1000,
      "hem": 1001,
      "Ġprou": 1002,
      "sku": 1003,
      "kla": 1004,
      "Ġ1886": 1005,
      "jde": 1006,
      "ĠstÅĻe": 1007,
      "Äįku": 1008,
      "sky": 1009,
      "ĠÄįÃŃ": 1010,
      "Ġven": 1011,
      "Ġ1880": 1012,
      "ĠÄĽla": 1013,
      "Ġali": 1014,
      "dnÄĽ": 1015,
      "nout": 1016,
      "ĠojÃŃ": 1017,
      "nÃŃk": 1018,
      "Ġboj": 1019,
      "Ġnev": 1020,
      "ĠhvÄĽzd": 1021,
      "Ġ1910": 1022,
      "ast": 1023,
      "ĠcelÃ½": 1024,
      "Ġky": 1025,
      "Ġmlu": 1026,
      "uje": 1027,
      "ĠdÃŃv": 1028,
      "Ġ1902": 1029,
      "Ġduch": 1030,
      "ĠmlÃ¡": 1031,
      "Ġ182": 1032,
      "Å¡li": 1033,
      "Ġ1894": 1034,
      "ĠhÅĻÃŃ": 1035,
      "dnÃ½": 1036,
      "ĠÃºs": 1037,
      "Å¾il": 1038,
      "ĠtakÃ©": 1039,
      "Ġzvu": 1040,
      "Ġkrev": 1041,
      "vit": 1042,
      "sou": 1043,
      "zen": 1044,
      "Ġ1913": 1045,
      "ĠvÃ¡Å¡": 1046,
      "Ġslova": 1047,
      "ABCD": 1048,
      "Ġtro": 1049,
      "ĠdÃŃtÄĽ": 1050,
      "ĠkÅĻi": 1051,
      "Ġneu": 1052,
      "hl": 1053,
      "ĠspÄĽ": 1054,
      "Ġobra": 1055,
      "Ġblesk": 1056,
      "Ġste": 1057,
      "ĠpÃŃseÅĪ": 1058,
      "jÃŃcÃŃ": 1059,
      "ĠnÃ¡hle": 1060,
      "Ġnebo": 1061,
      "ĠchvÃŃli": 1062,
      "ĠmoÅĻe": 1063,
      "Ġ1898": 1064,
      "Ġas": 1065,
      "Ġhlou": 1066,
      "Ġbole": 1067,
      "ĠstrÃ¡": 1068,
      "Ġ1874": 1069,
      "Ġos": 1070,
      "Ġtoho": 1071,
      "ĠchrÃ¡": 1072,
      "ĠmyÅ¡": 1073,
      "ABBC": 1074,
      "Ġtru": 1075,
      "ska": 1076,
      "Ġ1937": 1077,
      "aly": 1078,
      "Ġved": 1079,
      "sko": 1080,
      "ĠznÃŃ": 1081,
      "ĠÃŃvÃ¡": 1082,
      "ĠvrÃ¡": 1083,
      "AC": 1084,
      "tva": 1085,
      "Ġpok": 1086,
      "ĠÃŃcÃŃ": 1087,
      "ĠtvÃ¡ÅĻ": 1088,
      "ĠnÄĽk": 1089,
      "Ġbrat": 1090,
      "ĠzÃŃ": 1091,
      "dech": 1092,
      "ĠvÅ¾dyÅ¥": 1093,
      "Ġsku": 1094,
      "nce": 1095,
      "jÃŃc": 1096,
      "vnÄĽ": 1097,
      "ĠchtÄĽl": 1098,
      "ĠvÃŃm": 1099,
      "BC": 1100,
      "ĠsvÃ©ho": 1101,
      "Ġzo": 1102,
      "Ġ1921": 1103,
      "ĠnynÃŃ": 1104,
      "dÃŃm": 1105,
      "ĠspÃŃ": 1106,
      "Ġmezi": 1107,
      "ĠÄįlovÄĽk": 1108,
      "Ġzje": 1109,
      "ĠhnÄĽ": 1110,
      "Ġmla": 1111,
      "Ġjeden": 1112,
      "ĠpÃ¡n": 1113,
      "Ġ1918": 1114,
      "17": 1115,
      "Ġvol": 1116,
      "ĠÅ¡tÃŃ": 1117,
      "ĠkterÃ©": 1118,
      "Ġ1930": 1119,
      "ĠsvÃ©m": 1120,
      "ĠlÃ¡ska": 1121,
      "ĠstÅĻÃŃ": 1122,
      "Ġ1882": 1123,
      "Ġzase": 1124,
      "Ġpi": 1125,
      "ĠkvÃŃ": 1126,
      "dÅ¯": 1127,
      "Ġ195": 1128,
      "ĠX": 1129,
      "Ġtma": 1130,
      "Ġela": 1131,
      "ĠkterÃ½": 1132,
      "Ġchlad": 1133,
      "Ġ1893": 1134,
      "Ġpoto": 1135,
      "Ġpat": 1136,
      "Ġjednou": 1137,
      "ĠjÃŃm": 1138,
      "ĠstÃ¡le": 1139,
      "Ġdr": 1140,
      "nÃ¡ch": 1141,
      "AX": 1142,
      "tky": 1143,
      "ĠsvÄĽta": 1144,
      "Ġoje": 1145,
      "ĠstojÃŃ": 1146,
      "Ġoz": 1147,
      "rnÄĽ": 1148,
      "ĠbÅĻe": 1149,
      "ĠÃŃtÃŃ": 1150,
      "dnÃŃ": 1151,
      "Å¯Å¾e": 1152,
      "ĠhrÃ¡": 1153,
      "ĠtiÅ¡e": 1154,
      "Ġ1905": 1155,
      "kÃ½m": 1156,
      "Ġice": 1157,
      "Ġoku": 1158,
      "Å¡la": 1159,
      "krÃ¡t": 1160,
      "Ġ1891": 1161,
      "rov": 1162,
      "ĠÃºsmÄĽ": 1163,
      "Ġnemo": 1164,
      "Ġrou": 1165,
      "ĠvÃŃce": 1166,
      "er": 1167,
      "Ġ1912": 1168,
      "Ġona": 1169,
      "ĠtisÃŃ": 1170,
      "ĠstÄĽ": 1171,
      "rost": 1172,
      "Ġvzdu": 1173,
      "dÃ½": 1174,
      "ĠjuÅ¾": 1175,
      "ĠoÅĻe": 1176,
      "ĠpÅĻÃ¡": 1177,
      "ĠkÃ¡": 1178,
      "dnou": 1179,
      "Ġjar": 1180,
      "Ġ1881": 1181,
      "ĠÃŃce": 1182,
      "Ġkal": 1183,
      "Ġnen": 1184,
      "Ġveli": 1185,
      "ĠbÃŃlÃ©": 1186,
      "ĠÅ¡Å¥": 1187,
      "Ġane": 1188,
      "pra": 1189,
      "Ġtra": 1190,
      "nku": 1191,
      "vala": 1192,
      "XAX": 1193,
      "Ġbled": 1194,
      "Ġodpo": 1195,
      "ĠsvÃ¡": 1196,
      "ĠcoÅ¾": 1197,
      "nka": 1198,
      "Ġklo": 1199,
      "vÃ©m": 1200,
      "ĠaÄį": 1201,
      "zem": 1202,
      "ĠznÃ¡m": 1203,
      "Ġsebe": 1204,
      "Ġrukou": 1205,
      "Ġpoko": 1206,
      "ĠtrÃ¡": 1207,
      "Ġ1903": 1208,
      "ĠzvÄĽ": 1209,
      "ĠÃ¡ch": 1210,
      "Ġsa": 1211,
      "Ġ1931": 1212,
      "Ġposled": 1213,
      "Ġ1908": 1214,
      "Ġpal": 1215,
      "Ġmrak": 1216,
      "znÄĽ": 1217,
      "Ġnebi": 1218,
      "Ġvoj": 1219,
      "ĠsÃ¡": 1220,
      "dce": 1221,
      "Ġest": 1222,
      "Ġ1926": 1223,
      "ĠÄįÃŃm": 1224,
      "ĠveÄįer": 1225,
      "stal": 1226,
      "ÅĻÃŃm": 1227,
      "ĠboÅ¾ÃŃ": 1228,
      "sl": 1229,
      "ĠÅ¾il": 1230,
      "Ġrak": 1231,
      "ĠkrÃ¡l": 1232,
      "dal": 1233,
      "lech": 1234,
      "Ġili": 1235,
      "Ġpot": 1236,
      "Ġiny": 1237,
      "Ġebe": 1238,
      "Ġnikdy": 1239,
      "Ġum": 1240,
      "Ġplamen": 1241,
      "ĠbrÃ¡": 1242,
      "Ġzi": 1243,
      "lit": 1244,
      "nec": 1245,
      "Ġaly": 1246,
      "skou": 1247,
      "stÃ©": 1248,
      "Ġdar": 1249,
      "Ġjedi": 1250,
      "ĠovÃ©": 1251,
      "Ġtomu": 1252,
      "lek": 1253,
      "ĠnaÅ¡i": 1254,
      "Ġvese": 1255,
      "Ġjedno": 1256,
      "Ġves": 1257,
      "ĠhrÅ¯": 1258,
      "Ġnedo": 1259,
      "ĠznÃ¡": 1260,
      "Ġsle": 1261,
      "ĠnadÄĽ": 1262,
      "ĠklÃŃ": 1263,
      "mÃ©": 1264,
      "Ġbudou": 1265,
      "Ġtys": 1266,
      "nÄĽjÅ¡ÃŃ": 1267,
      "ĠvzpomÃŃ": 1268,
      "Ġmnou": 1269,
      "Ġslav": 1270,
      "Ã³": 1271,
      "Ġzak": 1272,
      "Ġkdyby": 1273,
      "ĠutÃŃ": 1274,
      "ĠÃŃti": 1275,
      "Ġpom": 1276,
      "ÄįnÃŃ": 1277,
      "Äįko": 1278,
      "Ġsed": 1279,
      "ĠmÄĽsÃŃ": 1280,
      "Ġemi": 1281,
      "Ġzm": 1282,
      "ĠÄĽje": 1283,
      "ĠÅ¡Å¥ast": 1284,
      "Ġzno": 1285,
      "Ġena": 1286,
      "Ġpoli": 1287,
      "Ġhled": 1288,
      "ĠnevÄĽ": 1289,
      "ĠvÃŃtÄĽ": 1290,
      "Ġpov": 1291,
      "ben": 1292,
      "ĠrÅ¯Å¾e": 1293,
      "jÃŃm": 1294,
      "Ġzna": 1295,
      "den": 1296,
      "Ġhem": 1297,
      "Å¡ti": 1298,
      "Ġsli": 1299,
      "Ġova": 1300,
      "Ġdva": 1301,
      "Ġ1872": 1302,
      "rnÃ©": 1303,
      "ĠhÅĻ": 1304,
      "cky": 1305,
      "ĠdÄĽti": 1306,
      "Ġleh": 1307,
      "ĠnÃŃÅ¾": 1308,
      "tku": 1309,
      "ami": 1310,
      "ĠdÅ¯": 1311,
      "ĠstÃŃn": 1312,
      "ĠprvnÃŃ": 1313,
      "cÃŃm": 1314,
      "vra": 1315,
      "ĠzÃ¡ÅĻ": 1316,
      "Ġady": 1317,
      "ĠznÄĽ": 1318,
      "Ġnevi": 1319,
      "vÅ¯": 1320,
      "ĠenÃ©": 1321,
      "ĠÃ¡vÃ¡": 1322,
      "Ġbar": 1323,
      "Ġsotva": 1324,
      "Ġhlavy": 1325,
      "Ġ1928": 1326,
      "Ġnebes": 1327,
      "Ġhrob": 1328,
      "Ġkraj": 1329,
      "Ġstr": 1330,
      "rnÃ½": 1331,
      "ĠetÃŃ": 1332,
      "ÄįnÄĽ": 1333,
      "ĠoÅĻÃŃ": 1334,
      "tal": 1335,
      "stÃ½": 1336,
      "Ġoka": 1337,
      "Ġ1920": 1338,
      "ĠcelÃ©": 1339,
      "dlo": 1340,
      "ĠÃŃrÃ¡": 1341,
      "tech": 1342,
      "ĠumÃŃ": 1343,
      "Ġpros": 1344,
      "ĠkterÃ¡": 1345,
      "Ġtaj": 1346,
      "Ġsmrti": 1347,
      "vali": 1348,
      "pil": 1349,
      "ĠtvÃ½ch": 1350,
      "Ġpru": 1351,
      "ĠdÃ¡le": 1352,
      "Ġchci": 1353,
      "Ġlesk": 1354,
      "Ġ1875": 1355,
      "ĠnovÃ©": 1356,
      "ĠdÄĽt": 1357,
      "ĠmusÃŃ": 1358,
      "Ġjemu": 1359,
      "Ġdvo": 1360,
      "Ġproti": 1361,
      "ĠknÄĽ": 1362,
      "zel": 1363,
      "XAXAXB": 1364,
      "nice": 1365,
      "Ġhrd": 1366,
      "lik": 1367,
      "Ġneby": 1368,
      "kÃ¡ch": 1369,
      "ĠpÅĻece": 1370,
      "Ġruka": 1371,
      "Ġhy": 1372,
      "vÃ¡nÃŃ": 1373,
      "Ġnit": 1374,
      "ĠÅĻÃ¡": 1375,
      "ĠchÃ¡": 1376,
      "Ġneo": 1377,
      "Ġruku": 1378,
      "Ġbr": 1379,
      "Ġticho": 1380,
      "Ġsh": 1381,
      "lÃ½m": 1382,
      "ĠavÃŃ": 1383,
      "ĠvolÃ¡": 1384,
      "Ġradost": 1385,
      "Ġhroz": 1386,
      "mou": 1387,
      "Ġdlouho": 1388,
      "lov": 1389,
      "ĠenÃ½": 1390,
      "Ġavy": 1391,
      "jte": 1392,
      "Ġobla": 1393,
      "Ġsmrt": 1394,
      "zÃ¡": 1395,
      "Ġproto": 1396,
      "ĠstarÃ½": 1397,
      "Ġup": 1398,
      "ÅĻit": 1399,
      "ĠvÅ¡i": 1400,
      "Ġdem": 1401,
      "kÃ©m": 1402,
      "Ġpy": 1403,
      "ĠletÃŃ": 1404,
      "Ġtlu": 1405,
      "Ġ1922": 1406,
      "Ġdech": 1407,
      "ĠmeÄį": 1408,
      "Ġoji": 1409,
      "Ġele": 1410,
      "ĠleÅ¾ÃŃ": 1411,
      "hat": 1412,
      "Ġrozko": 1413,
      "pl": 1414,
      "Ġode": 1415,
      "Ġ1923": 1416,
      "Ġhlavou": 1417,
      "Ġjin": 1418,
      "Ġrych": 1419,
      "ĠdÃ¡m": 1420,
      "pen": 1421,
      "Ġvlasti": 1422,
      "Ġtvoje": 1423,
      "Ġplo": 1424,
      "Ġ1857": 1425,
      "ĠskrÃ¡": 1426,
      "ĠmÃ½ch": 1427,
      "ĠzpÄĽv": 1428,
      "Ġsky": 1429,
      "Ġaje": 1430,
      "Ġeny": 1431,
      "ĠkÅĻe": 1432,
      "Ġsvit": 1433,
      "Ġskry": 1434,
      "sÅ¯": 1435,
      "ĠÄĽti": 1436,
      "Ġcha": 1437,
      "ĠÃ¡ti": 1438,
      "nit": 1439,
      "Ġskal": 1440,
      "ĠprÃ½": 1441,
      "ĠduÅ¡ÃŃ": 1442,
      "ĠdÃ¡vno": 1443,
      "ĠnÄĽj": 1444,
      "Ġzra": 1445,
      "Ġmoh": 1446,
      "ĠnÃ½m": 1447,
      "Ġzbo": 1448,
      "nic": 1449,
      "Äįel": 1450,
      "Ġvat": 1451,
      "ĠtÅĻi": 1452,
      "ĠvidÃŃ": 1453,
      "ral": 1454,
      "vr": 1455,
      "ĠuÅ¡ÃŃ": 1456,
      "Ġpohled": 1457,
      "Ġosud": 1458,
      "ĠonÃŃ": 1459,
      "Ġled": 1460,
      "ĠÄįasto": 1461,
      "pal": 1462,
      "ĠcizÃŃ": 1463,
      "ĠvÅ¡u": 1464,
      "Ġsamo": 1465,
      "sil": 1466,
      "let": 1467,
      "ĠvÃ½m": 1468,
      "Ġpozd": 1469,
      "Ġzelen": 1470,
      "ĠbÃ¡s": 1471,
      "Ġroze": 1472,
      "Ġzh": 1473,
      "lal": 1474,
      "ĠvidÄĽl": 1475,
      "Ġhlubo": 1476,
      "ĠhvÄĽzdy": 1477,
      "ĠdobÅĻe": 1478,
      "vÃ¡m": 1479,
      "Ġzou": 1480,
      "alo": 1481,
      "Ġuch": 1482,
      "Ġnimi": 1483,
      "ĠanÃŃ": 1484,
      "um": 1485,
      "Ġdej": 1486,
      "ĠzÃ¡ÅĻÃŃ": 1487,
      "Ġdruh": 1488,
      "Ġtesk": 1489,
      "ĠzlatÃ©": 1490,
      "ĠtoÅ¥": 1491,
      "ĠstÅĻÃŃb": 1492,
      "Ġper": 1493,
      "Ġtajem": 1494,
      "Ġami": 1495,
      "sem": 1496,
      "ĠÃ¡le": 1497,
      "Ġhal": 1498,
      "Ġlas": 1499,
      "ĠboÅ¾e": 1500,
      "ĠvÅĻe": 1501,
      "Ġzk": 1502,
      "ĠsvÄĽtÄĽ": 1503,
      "Ġsvoje": 1504,
      "ĠvÅ¡ecky": 1505,
      "jen": 1506,
      "Ġkdys": 1507,
      "vÃŃm": 1508,
      "dnÃ¡": 1509,
      "stÅĻe": 1510,
      "pou": 1511,
      "AAXB": 1512,
      "ĠhledÃŃ": 1513,
      "Ġkri": 1514,
      "Ġpane": 1515,
      "Ġ1876": 1516,
      "Ġ1919": 1517,
      "Ġtla": 1518,
      "ĠmÅ¯Å¾e": 1519,
      "Ġsch": 1520,
      "Ġpil": 1521,
      "Ġslou": 1522,
      "Ġzt": 1523,
      "Ġ1932": 1524,
      "ĠÅ¾ena": 1525,
      "ÄįnÃ©": 1526,
      "Ġilo": 1527,
      "ĠÃ½vÃ¡": 1528,
      "Ġsni": 1529,
      "Ġadu": 1530,
      "ĠposlednÃŃ": 1531,
      "ran": 1532,
      "ĠÅ¾ivota": 1533,
      "Ġplu": 1534,
      "ĠtÅĻÃŃ": 1535,
      "ct": 1536,
      "Ġpam": 1537,
      "Ġran": 1538,
      "rÃ½ch": 1539,
      "ĠÃ¡na": 1540,
      "ĠtÃ¡h": 1541,
      "rob": 1542,
      "ĠÅ¡at": 1543,
      "Ġblou": 1544,
      "ĠÄįelo": 1545,
      "Ġ1888": 1546,
      "pat": 1547,
      "Ġuli": 1548,
      "Ġuk": 1549,
      "vÄĽt": 1550,
      "Ġotec": 1551,
      "dl": 1552,
      "ĠÅ¡ep": 1553,
      "Ġ196": 1554,
      "nutÃŃ": 1555,
      "ĠnÃ¡rod": 1556,
      "ĠÅ¾ha": 1557,
      "Ġese": 1558,
      "tka": 1559,
      "ÄįÃŃm": 1560,
      "ĠprÃ¡zd": 1561,
      "Ġzapo": 1562,
      "Ġzu": 1563,
      "Ġtebou": 1564,
      "ĠstÃ¡l": 1565,
      "ĠpanÃŃ": 1566,
      "cy": 1567,
      "Ġpole": 1568,
      "ĠkvÄĽty": 1569,
      "Ġkon": 1570,
      "Ġrem": 1571,
      "Å¡em": 1572,
      "Ġvil": 1573,
      "dÄĽla": 1574,
      "ala": 1575,
      "nes": 1576,
      "Ġlidst": 1577,
      "chvÄĽ": 1578,
      "Ġvrou": 1579,
      "ĠpoÄį": 1580,
      "CCD": 1581,
      "Ġati": 1582,
      "ĠpohÃ¡": 1583,
      "ĠsnÅ¯": 1584,
      "Ġoba": 1585,
      "ĠboÅ¾": 1586,
      "Ġhud": 1587,
      "ĠtÄĽlo": 1588,
      "Ġ1934": 1589,
      "Ġ1938": 1590,
      "ĠÄĽlo": 1591,
      "ĠtvÃŃ": 1592,
      "Ġklid": 1593,
      "ĠdrÃ¡": 1594,
      "ĠjakÃ½": 1595,
      "ĠÅĪad": 1596,
      "ĠzÅ¯": 1597,
      "ĠsvÃŃtÃŃ": 1598,
      "ĠavÃ½": 1599,
      "Ġtky": 1600,
      "Ġztra": 1601,
      "Ġkraji": 1602,
      "Ġdale": 1603,
      "ĠtÅĻeba": 1604,
      "Å¡il": 1605,
      "ĠchvÃŃle": 1606,
      "Ġmnoho": 1607,
      "Ġnek": 1608,
      "Ġavu": 1609,
      "Ġzve": 1610,
      "Ġbys": 1611,
      "ĠitÃŃ": 1612,
      "ĠsmÃŃch": 1613,
      "Å¯Å¾": 1614,
      "el": 1615,
      "ĠnechÅ¥": 1616,
      "ĠlÃ¡skou": 1617,
      "Ġsvobo": 1618,
      "Å¯v": 1619,
      "ĠdÄĽs": 1620,
      "Ġpouze": 1621,
      "kÃ¡m": 1622,
      "Ġlidu": 1623,
      "mnÄĽ": 1624,
      "ĠzmÄĽ": 1625,
      "Ġkry": 1626,
      "ĠÃŃm": 1627,
      "ĠedÃ¡": 1628,
      "ĠvelkÃ©": 1629,
      "Ġkni": 1630,
      "ĠpÅ¯l": 1631,
      "Å¡enÃŃ": 1632,
      "vÃ¡n": 1633,
      "ĠolÃŃ": 1634,
      "ĠlÃ¡sku": 1635,
      "ĠnÄĽho": 1636,
      "Ġjisk": 1637,
      "Ġsny": 1638,
      "Ġolu": 1639,
      "ĠpÄĽt": 1640,
      "Äįit": 1641,
      "Ġtady": 1642,
      "znÃŃ": 1643,
      "pas": 1644,
      "ĠuÄįÃŃ": 1645,
      "Ġtil": 1646,
      "ĠvdÄĽ": 1647,
      "ĠuÅ¡i": 1648,
      "Ġpotom": 1649,
      "ĠchvÃ¡": 1650,
      "ĠvÃ½Å¡": 1651,
      "Ġpomo": 1652,
      "Ġoci": 1653,
      "Ġmoud": 1654,
      "ĠsvÄĽtlo": 1655,
      "Ġ1914": 1656,
      "Ġned": 1657,
      "ĠkÃ½": 1658,
      "Ġvem": 1659,
      "Ġzouf": 1660,
      "ĠdÅĻÃŃv": 1661,
      "Ġpoj": 1662,
      "Ġvys": 1663,
      "ĠtÅĻ": 1664,
      "nech": 1665,
      "Ġude": 1666,
      "ĠvelkÃ½": 1667,
      "Ġvod": 1668,
      "ĠpolÃŃ": 1669,
      "Ġhory": 1670,
      "ĠnovÃ½": 1671,
      "ĠÃ¡li": 1672,
      "ĠbÃ½ti": 1673,
      "Ġtedy": 1674,
      "ĠbÃŃlÃ½": 1675,
      "Ġhlava": 1676,
      "kol": 1677,
      "ĠsklÃ¡": 1678,
      "Ġvich": 1679,
      "Ġkve": 1680,
      "ĠÅ¾eny": 1681,
      "Ġout": 1682,
      "Ġtvou": 1683,
      "ĠvÅ¾dycky": 1684,
      "Ġtep": 1685,
      "hlÃ©": 1686,
      "Ġsklo": 1687,
      "Ġret": 1688,
      "Ġsyn": 1689,
      "Ġska": 1690,
      "Ġoru": 1691,
      "Ġdost": 1692,
      "ĠÃŃli": 1693,
      "Ġ1878": 1694,
      "ĠpÃŃsnÄĽ": 1695,
      "Ġalo": 1696,
      "ĠdÃ¡li": 1697,
      "ĠÅ¾Ã¡r": 1698,
      "Ġzby": 1699,
      "ĠslyÅ¡": 1700,
      "vajÃŃ": 1701,
      "ĠÃŃci": 1702,
      "ĠnÃ¡ru": 1703,
      "Ġzlat": 1704,
      "Ġpar": 1705,
      "Ġici": 1706,
      "Ġjdou": 1707,
      "Ġnese": 1708,
      "Ġnevy": 1709,
      "Ġich": 1710,
      "zko": 1711,
      "Ġmr": 1712,
      "ĠvlastnÃŃ": 1713,
      "Ġposta": 1714,
      "Ġslzy": 1715,
      "Ġblu": 1716,
      "Ġnce": 1717,
      "Ġzlato": 1718,
      "Å¾el": 1719,
      "ĠdÃ½m": 1720,
      "ĠenÃ¡": 1721,
      "ĠvÄĽru": 1722,
      "Ġdivo": 1723,
      "stÅĻÃŃ": 1724,
      "rÃ½m": 1725,
      "Ġlist": 1726,
      "Å¾o": 1727,
      "ĠvÃŃtÄĽz": 1728,
      "ĠsvatÃ½": 1729,
      "ĠjejÅ¾": 1730,
      "ĠvÃŃtr": 1731,
      "ĠsvojÃŃ": 1732,
      "bil": 1733,
      "ĠvÃ¡Å¾": 1734,
      "ĠmÃ¡Å¡": 1735,
      "chni": 1736,
      "kud": 1737,
      "Ġneza": 1738,
      "Ġ1917": 1739,
      "Ġobraz": 1740,
      "ĠÅ¡um": 1741,
      "Ġpolo": 1742,
      "dÄĽt": 1743,
      "nostÃŃ": 1744,
      "Ġpapr": 1745,
      "Ġasy": 1746,
      "ĠmyÅ¡len": 1747,
      "Ġ1836": 1748,
      "Ġsty": 1749,
      "ĠbouÅĻ": 1750,
      "Ġkrve": 1751,
      "Ġbol": 1752,
      "Ġzahra": 1753,
      "Ġol": 1754,
      "ĠmarnÄĽ": 1755,
      "ĠvÅ¡eho": 1756,
      "ĠstarÃ©": 1757,
      "ĠopÄĽt": 1758,
      "Ġstej": 1759,
      "kÅĻi": 1760,
      "tla": 1761,
      "ĠjmÃ©": 1762,
      "chÃ¡zÃŃ": 1763,
      "ÄįnÃ½": 1764,
      "AXAX": 1765,
      "hal": 1766,
      "Ġcos": 1767,
      "Ġzmi": 1768,
      "Ġnikdo": 1769,
      "Ġ194": 1770,
      "spo": 1771,
      "ĠnÃ¡mi": 1772,
      "ata": 1773,
      "mit": 1774,
      "ÄįenÃŃ": 1775,
      "Ġ1859": 1776,
      "Ġije": 1777,
      "ĠvaÅ¡e": 1778,
      "ĠblÃ¡": 1779,
      "zou": 1780,
      "Ġuti": 1781,
      "ĠdvÄĽ": 1782,
      "Ġboji": 1783,
      "ĠÃ¡ly": 1784,
      "Ġcestu": 1785,
      "ĠrÃ¡z": 1786,
      "ĠvÅ¡ude": 1787,
      "Ġpocho": 1788,
      "Ġbolest": 1789,
      "ABBACC": 1790,
      "lna": 1791,
      "ĠpÅĻem": 1792,
      "ĠA": 1793,
      "Ġkar": 1794,
      "Ġily": 1795,
      "Ġmatka": 1796,
      "ĠmÃ¡lo": 1797,
      "Ġor": 1798,
      "ĠnÄĽkdy": 1799,
      "nik": 1800,
      "ĠnÄĽmu": 1801,
      "ĠkaÅ¾dÃ©": 1802,
      "ĠhoÅĻÃŃ": 1803,
      "stra": 1804,
      "ĠmÃ©ho": 1805,
      "Ġ1929": 1806,
      "ĠÅĻa": 1807,
      "ĠÄı": 1808,
      "Ġodu": 1809,
      "Ġmysl": 1810,
      "ĠzÅĻel": 1811,
      "ĠmilÃ½": 1812,
      "ĠpÄĽk": 1813,
      "tit": 1814,
      "div": 1815,
      "ĠkrÃ¡t": 1816,
      "ĠneznÃ¡m": 1817,
      "dne": 1818,
      "Ġ180": 1819,
      "hÅ¯ru": 1820,
      "ĠsvatÃ©": 1821,
      "Ġopu": 1822,
      "ĠsmÃ¡": 1823,
      "ĠrÃ¡na": 1824,
      "Ġvele": 1825,
      "Ġ1915": 1826,
      "vost": 1827,
      "ĠpadÃ¡": 1828,
      "ĠhlÃ¡": 1829,
      "ĠprÃ¡vÄĽ": 1830,
      "ĠmÃŃr": 1831,
      "Ġrok": 1832,
      "Ġotev": 1833,
      "Ġzav": 1834,
      "Ġ1909": 1835,
      "Ġov": 1836,
      "Ġbal": 1837,
      "ĠpÅĻiÅ¡el": 1838,
      "ĠvidÃŃm": 1839,
      "Ġboha": 1840,
      "Ġ1841": 1841,
      "ĠmÃŃt": 1842,
      "Ġase": 1843,
      "Ġtek": 1844,
      "ĠnuÅ¾": 1845,
      "Ġbuj": 1846,
      "or": 1847,
      "Ġaj": 1848,
      "sal": 1849,
      "Ġkouz": 1850,
      "ĠjistÄĽ": 1851,
      "Ġnul": 1852,
      "ĠdomÅ¯": 1853,
      "ĠlidÃ©": 1854,
      "tnÃ©": 1855,
      "ĠdnÃŃ": 1856,
      "ĠÃºsmÄĽv": 1857,
      "ĠdnÃ©": 1858,
      "he": 1859,
      "din": 1860,
      "Ġnav": 1861,
      "Ġbohu": 1862,
      "ĠmÃŃsto": 1863,
      "Ġvon": 1864,
      "Ġeho": 1865,
      "lenÃŃ": 1866,
      "ĠkrÃ¡lov": 1867,
      "ĠnÄĽmÅ¾": 1868,
      "ĠtrÅ¯": 1869,
      "Ġ1846": 1870,
      "ĠsÃŃly": 1871,
      "Ġbohat": 1872,
      "ĠnemÃ¡": 1873,
      "Ġiti": 1874,
      "nÃ½mi": 1875,
      "ĠzpÄĽt": 1876,
      "snÄĽ": 1877,
      "Ġvyh": 1878,
      "lÃ©m": 1879,
      "Ġsvoji": 1880,
      "ĠzlatÃ½": 1881,
      "Ġeli": 1882,
      "Ġzal": 1883,
      "ĠsvÄĽtla": 1884,
      "ĠÃ¡la": 1885,
      "ĠhoÅĻe": 1886,
      "Ġmen": 1887,
      "Ġmilen": 1888,
      "Ġsama": 1889,
      "ĠucÃŃ": 1890,
      "ĠmlÃ¡dÃŃ": 1891,
      "Ġinu": 1892,
      "Ġrychle": 1893,
      "ĠvÅ¡echno": 1894,
      "Ġfi": 1895,
      "ĠprÃ¡ci": 1896,
      "18": 1897,
      "Ġjaro": 1898,
      "sce": 1899,
      "ĠmilÃ¡": 1900,
      "ĠuÅ¡e": 1901,
      "Ġzv": 1902,
      "ĠstÃŃny": 1903,
      "ĠslÃ¡vy": 1904,
      "ĠÄĽÅ¾ÃŃ": 1905,
      "Ġvzdo": 1906,
      "ĠprÃ¡ce": 1907,
      "ABAA": 1908,
      "kÅ¯m": 1909,
      "ĠbouÅĻe": 1910,
      "AXBB": 1911,
      "ABCB": 1912,
      "ĠdÅ¯m": 1913,
      "ĠkrÃ¡sy": 1914,
      "Ġzved": 1915,
      "ĠkÅĻÃŃÅ¾": 1916,
      "ĠzÃ¡ÅĻi": 1917,
      "ĠneÅ¾li": 1918,
      "ĠpÅĻijde": 1919,
      "Ġtrochu": 1920,
      "ĠmÃ½m": 1921,
      "Ġ1879": 1922,
      "ABA": 1923,
      "Ġhovo": 1924,
      "Ġlad": 1925,
      "bit": 1926,
      "ĠÃŃÅ¾ÃŃ": 1927,
      "ĠÅ¡ko": 1928,
      "AABCBC": 1929,
      "Ġ1833": 1930,
      "Ġvyp": 1931,
      "kle": 1932,
      "ĠknÃŃ": 1933,
      "ĠnaÅ¡ÃŃ": 1934,
      "Ġody": 1935,
      "ĠavÄĽ": 1936,
      "ĠÅ¡la": 1937,
      "Å¾it": 1938,
      "Ġ1873": 1939,
      "ĠdÄĽv": 1940,
      "ĠvzhÅ¯ru": 1941,
      "ĠchÃ½": 1942,
      "ĠvÄĽr": 1943,
      "Ġ1924": 1944,
      "Ġsr": 1945,
      "Ġzr": 1946,
      "Ġtan": 1947,
      "tnÃŃ": 1948,
      "ĠzpÃŃvÃ¡": 1949,
      "ĠpÅĻij": 1950,
      "ckÃ©": 1951,
      "Ġhospo": 1952,
      "Ġbyli": 1953,
      "mÄĽnÃŃ": 1954,
      "Ġsva": 1955,
      "ĠlidÃŃ": 1956,
      "ĠpÃŃsnÃŃ": 1957,
      "ĠpovÄĽ": 1958,
      "ĠvÄįe": 1959,
      "lost": 1960,
      "ĠmoÅ¾": 1961,
      "ĠandÄĽl": 1962,
      "ĠjakÃ©": 1963,
      "der": 1964,
      "ĠtvÃ¡ÅĻe": 1965,
      "Ġspolu": 1966,
      "ĠnÄĽÅ¾": 1967,
      "Ġtal": 1968,
      "Å¾eh": 1969,
      "ĠÅĻeÄį": 1970,
      "Ġkoru": 1971,
      "ĠzaÄį": 1972,
      "skÃ©ho": 1973,
      "ĠnevÃŃ": 1974,
      "Ġzvolna": 1975,
      "Ġtku": 1976,
      "vila": 1977,
      "Ġbyly": 1978,
      "ĠtÃ½": 1979,
      "XAXB": 1980,
      "Ġnena": 1981,
      "Ġslovo": 1982,
      "Ġrozp": 1983,
      "ĠtvÃ¡ÅĻÃŃ": 1984,
      "valy": 1985,
      "Ġuku": 1986,
      "Ġnapo": 1987,
      "Ġina": 1988,
      "Ãº": 1989,
      "ĠkvÄĽtÅ¯": 1990,
      "dit": 1991,
      "Ġuz": 1992,
      "Ġzraky": 1993,
      "Ġmysli": 1994,
      "Ġrov": 1995,
      "ĠvÃŃÅ¡": 1996,
      "ĠtvÃ¡ÅĻi": 1997,
      "Ġct": 1998,
      "tk": 1999,
      "ĠkÃ¡m": 2000,
      "ĠplÃ¡Äį": 2001,
      "tila": 2002,
      "ĠÅ¾iv": 2003,
      "nat": 2004,
      "AXBC": 2005,
      "Ġtolik": 2006,
      "Ġblaho": 2007,
      "Ġducha": 2008,
      "stup": 2009,
      "Ġzdra": 2010,
      "ÅĻa": 2011,
      "ĠÅ¾el": 2012,
      "ĠvÄĽÄįnÄĽ": 2013,
      "nula": 2014,
      "Ġkles": 2015,
      "bor": 2016,
      "ĠdolÅ¯": 2017,
      "Ġomu": 2018,
      "ĠzrÃ¡": 2019,
      "ĠvÅ¡ichni": 2020,
      "Å¾Ã¡": 2021,
      "Ġkamen": 2022,
      "Ġaky": 2023,
      "Ġ1925": 2024,
      "ĠmÄĽsta": 2025,
      "Ġvyso": 2026,
      "ĠjÅ¡ÃŃ": 2027,
      "bra": 2028,
      "Ġbudu": 2029,
      "Ġbeze": 2030,
      "ĠÅ¾ÃŃt": 2031,
      "Ġdoby": 2032,
      "ĠhruÄı": 2033,
      "vÃ©ho": 2034,
      "Ġhoj": 2035,
      "Ġoby": 2036,
      "ĠnichÅ¾": 2037,
      "ĠÃ½mi": 2038,
      "ĠÅ¾lu": 2039,
      "Ġ1935": 2040,
      "rÃ©m": 2041,
      "ĠÃ¡ÅĻe": 2042,
      "Ġzbra": 2043,
      "ĠoÅ¾ÃŃ": 2044,
      "ĠskrÃ½": 2045,
      "ĠatÃ©": 2046,
      "ĠzÅĻÃŃm": 2047,
      "Ġnel": 2048,
      "ĠivÃ½": 2049,
      "Ġ1829": 2050,
      "ĠÅĻÃŃm": 2051,
      "ĠujÃŃ": 2052,
      "Ġsmy": 2053,
      "Ġsebou": 2054,
      "Ġpodo": 2055,
      "Ġopo": 2056,
      "ĠmyÅ¡lÃ©": 2057,
      "ĠÄįekÃ¡": 2058,
      "Ġprsou": 2059,
      "Ġkrva": 2060,
      "Ġlesy": 2061,
      "Ġprach": 2062,
      "ĠÄįku": 2063,
      "Ġdil": 2064,
      "Ġzdo": 2065,
      "ter": 2066,
      "ĠÃ¡me": 2067,
      "Ã¡me": 2068,
      "Ġzdvi": 2069,
      "Ġory": 2070,
      "dÄĽj": 2071,
      "ĠmÄĽk": 2072,
      "Ġvlny": 2073,
      "ĠtÅĻpy": 2074,
      "ĠÄįernÃ©": 2075,
      "!...": 2076,
      "stil": 2077,
      "ĠtisÃŃc": 2078,
      "ĠivÃ¡": 2079,
      "Ġasu": 2080,
      "ĠanÃ©": 2081,
      "ĠmrÃ¡": 2082,
      "ĠÄĽli": 2083,
      "ĠjinÃ©": 2084,
      "ĠÄĽjÃŃ": 2085,
      "Ġtouhy": 2086,
      "sek": 2087,
      "ĠnaÅ¡ich": 2088,
      "bal": 2089,
      "ĠodÃŃ": 2090,
      "ĠptÃ¡k": 2091,
      "Ġyla": 2092,
      "Ġkat": 2093,
      "ĠzvÃŃ": 2094,
      "AXX": 2095,
      "Ġmd": 2096,
      "stem": 2097,
      "Ġspat": 2098,
      "Ġelo": 2099,
      "nici": 2100,
      "ĠudÃŃ": 2101,
      "ĠkdoÅ¾": 2102,
      "Ġhlubi": 2103,
      "dila": 2104,
      "ĠklÃ¡": 2105,
      "Ġhrad": 2106,
      "Ġtakto": 2107,
      "ĠlÃ¡sce": 2108,
      "Ġkdes": 2109,
      "ĠsladkÃ©": 2110,
      "jat": 2111,
      "ĠblÃŃÅ¾": 2112,
      "ĠÃŃle": 2113,
      "ĠÃ¡zÃŃ": 2114,
      "Ġnap": 2115,
      "skÃ©m": 2116,
      "Ġvzp": 2117,
      "Ġpev": 2118,
      "Ġokem": 2119,
      "ÅĻela": 2120,
      "Ġhej": 2121,
      "Ġply": 2122,
      "Ġnku": 2123,
      "Ġstrom": 2124,
      "Ġvna": 2125,
      "ĠvlÃŃ": 2126,
      "Ġdosud": 2127,
      "ĠpÅĻÃŃro": 2128,
      "Ã¡c": 2129,
      "ĠÄįem": 2130,
      "Ġmilost": 2131,
      "gi": 2132,
      "Ġprch": 2133,
      "ĠnocÃŃ": 2134,
      "teli": 2135,
      "ĠÃ¡lo": 2136,
      "skÃ½m": 2137,
      "Å¡ka": 2138,
      "Ġcen": 2139,
      "Ġbohem": 2140,
      "ĠztrÃ¡": 2141,
      "ĠÃ¡ÅĻÃŃ": 2142,
      "ĠÅ¯Å¾e": 2143,
      "ĠvÄĽk": 2144,
      "tko": 2145,
      "zni": 2146,
      "Ġdle": 2147,
      "ĠmÄĽsÃŃc": 2148,
      "ĠÄįil": 2149,
      "ĠvÅ¯nÄĽ": 2150,
      "ĠkrÃ¡snÃ©": 2151,
      "ĠzmÃŃ": 2152,
      "bÃ½": 2153,
      "on": 2154,
      "ĠsnÃ¡": 2155,
      "ĠstÃ©": 2156,
      "ĠvÃ½Å¡e": 2157,
      "Ġchmu": 2158,
      "ĠtÄĽla": 2159,
      "ĠpÅ¯j": 2160,
      "Ġznova": 2161,
      "mÃ½": 2162,
      "ĠvÃ¡l": 2163,
      "Ġperu": 2164,
      "ĠsnÃŃh": 2165,
      "ĠÃ¡ÅĻi": 2166,
      "ĠslyÅ¡ÃŃ": 2167,
      "Ġzjev": 2168,
      "ĠsvÄĽtem": 2169,
      "Ġrod": 2170,
      "Ġklen": 2171,
      "Ġlil": 2172,
      "ĠohnÄĽ": 2173,
      "letÃŃ": 2174,
      "ĠejÃŃ": 2175,
      "ĠlÃŃc": 2176,
      "stech": 2177,
      "ĠprÅ¯": 2178,
      "Ġasi": 2179,
      "ĠÄįasem": 2180,
      "Ġstat": 2181,
      "ĠsedÃŃ": 2182,
      "zal": 2183,
      "ĠnesmÃŃ": 2184,
      "cela": 2185,
      "Ġnebu": 2186,
      "nÃ¡nÃŃ": 2187,
      "Ġkap": 2188,
      "Ġvody": 2189,
      "ĠnÃ¡d": 2190,
      "ĠkÅĻÃŃdla": 2191,
      "ĠatÃ½": 2192,
      "ĠÃ©mu": 2193,
      "ĠlÃŃce": 2194,
      "Å¡nÄĽ": 2195,
      "Ġchla": 2196,
      "ABCDCD": 2197,
      "ĠmÃ©m": 2198,
      "Ġzap": 2199,
      "ĠusmÃŃ": 2200,
      "Ġvyz": 2201,
      "Ġ1951": 2202,
      "ĠkÅ¯": 2203,
      "tÅĻe": 2204,
      "ĠhoÅĻ": 2205,
      "ĠvÄĽky": 2206,
      "ĠjakÃ¡": 2207,
      "Ġpropa": 2208,
      "chÅ¯": 2209,
      "Ġoli": 2210,
      "ĠhnÃŃ": 2211,
      "nila": 2212,
      "ĠpravÃŃ": 2213,
      "ABBCCD": 2214,
      "ĠÅ¡li": 2215,
      "ĠeÅ¾ÃŃ": 2216,
      "ĠslyÅ¡e": 2217,
      "roz": 2218,
      "rk": 2219,
      "novÃ©": 2220,
      "ĠcelÃ¡": 2221,
      "valo": 2222,
      "ĠjÃŃt": 2223,
      "Ġdrob": 2224,
      "ABABAB": 2225,
      "Ġobzo": 2226,
      "ĠnaÄį": 2227,
      "ĠÃ¡no": 2228,
      "ĠÄįek": 2229,
      "Ġpta": 2230,
      "ĠdÃ¡t": 2231,
      "ĠemÄĽ": 2232,
      "tro": 2233,
      "Ġuce": 2234,
      "Ġpozdra": 2235,
      "kÃ¡nÃŃ": 2236,
      "Ġole": 2237,
      "ĠÄįka": 2238,
      "ĠtÄĽm": 2239,
      "Ġvzal": 2240,
      "ĠÃ¡ni": 2241,
      "ĠkrvÃŃ": 2242,
      "Ġtat": 2243,
      "rech": 2244,
      "Ġkterak": 2245,
      "Ġvzne": 2246,
      "ĠÃºst": 2247,
      "Ġubo": 2248,
      "Ġdomo": 2249,
      "Ġar": 2250,
      "ĠzaÅ¡": 2251,
      "ĠÄĽly": 2252,
      "Ġmodlit": 2253,
      "ĠsnÄĽnÃŃ": 2254,
      "ĠnÃ©m": 2255,
      "Ġver": 2256,
      "Ġproud": 2257,
      "Ġobje": 2258,
      "ĠpojÄı": 2259,
      "ĠvstÅĻÃŃ": 2260,
      "ĠÅ¡a": 2261,
      "Ġstru": 2262,
      "ĠzÃ¡vo": 2263,
      "leh": 2264,
      "Ġlep": 2265,
      "ĠÄįele": 2266,
      "ĠtoÅ¾": 2267,
      "ĠmluvÃŃ": 2268,
      "kli": 2269,
      "ĠanÄĽ": 2270,
      "ĠstarÃ¡": 2271,
      "Ġjedna": 2272,
      "ĠÃ¡ny": 2273,
      "Ġete": 2274,
      "AAXX": 2275,
      "lila": 2276,
      "Ġkrok": 2277,
      "ĠidÃŃ": 2278,
      "klo": 2279,
      "Ġotro": 2280,
      "ĠmyslÃŃ": 2281,
      "Å¾ÃŃm": 2282,
      "Ġcesty": 2283,
      "ĠvstÅĻÃŃc": 2284,
      "del": 2285,
      "lez": 2286,
      "ĠvzdÃ¡": 2287,
      "ĠjinÃ½": 2288,
      "Ġtisk": 2289,
      "ĠslavÃŃ": 2290,
      "ĠzÃ¡pas": 2291,
      "Ġoce": 2292,
      "ĠblaÅ¾en": 2293,
      "Ġmohu": 2294,
      "Ġsnu": 2295,
      "dr": 2296,
      "hlÃŃ": 2297,
      "Ġudu": 2298,
      "hra": 2299,
      "Ġsho": 2300,
      "ĠÅ¾ije": 2301,
      "Ġkterou": 2302,
      "Ġkdysi": 2303,
      "ĠmÄĽla": 2304,
      "Å¡ku": 2305,
      "Ġkmit": 2306,
      "ĠdÃŃvÃ¡": 2307,
      "ali": 2308,
      "Ġoblo": 2309,
      "ĠÃ¡ci": 2310,
      "Ġzvy": 2311,
      "ĠÃŃme": 2312,
      "ĠnÄĽco": 2313,
      "ABBACD": 2314,
      "zrak": 2315,
      "Ġlam": 2316,
      "cit": 2317,
      "ĠalÃŃ": 2318,
      "lÃ©b": 2319,
      "Ġnky": 2320,
      "ĠzÃ¡ÅĻe": 2321,
      "ĠuÄįi": 2322,
      "Ġcestou": 2323,
      "Ġvedle": 2324,
      "ĠslÃ¡va": 2325,
      "Ġeje": 2326,
      "ĠjÃŃÅ¾": 2327,
      "Ġrad": 2328,
      "Ġfa": 2329,
      "Ġpest": 2330,
      "Ġnelze": 2331,
      "ĠdÃ½ch": 2332,
      "ujÃŃ": 2333,
      "Ġplach": 2334,
      "ĠcÃŃtÃŃ": 2335,
      "Ġdosti": 2336,
      "ĠzboÅ¾": 2337,
      "kone": 2338,
      "ĠpÄĽv": 2339,
      "Ġony": 2340,
      "mÄĽl": 2341,
      "ĠbÃŃlÃ¡": 2342,
      "ĠplnÃ½": 2343,
      "ÅĻenÃŃ": 2344,
      "jel": 2345,
      "mem": 2346,
      "Ġbratr": 2347,
      "Ġhloub": 2348,
      "Ġlen": 2349,
      "Ġjara": 2350,
      "ĠuÅ¾ÃŃ": 2351,
      "vati": 2352,
      "ĠvÅ¡echny": 2353,
      "Ġvln": 2354,
      "ĠÃ½Å¡e": 2355,
      "Å¾enÃŃ": 2356,
      "ĠatÃŃ": 2357,
      "Ġ1858": 2358,
      "uj": 2359,
      "Ġdole": 2360,
      "Ġmatky": 2361,
      "ĠsvÃ©mu": 2362,
      "ĠdÄĽc": 2363,
      "ĠbouÅĻÃŃ": 2364,
      "ĠmladÃ½": 2365,
      "ĠskÃ¡ly": 2366,
      "Ġble": 2367,
      "Ġohni": 2368,
      "Ġvez": 2369,
      "kro": 2370,
      "vad": 2371,
      "ĠskvÄĽ": 2372,
      "tÄĽl": 2373,
      "Ġslunci": 2374,
      "ĠmoÅĻi": 2375,
      "ĠrÃ¡j": 2376,
      "ke": 2377,
      "Ġdav": 2378,
      "kl": 2379,
      "pÃ½": 2380,
      "ĠdÃ½": 2381,
      "ĠvÄĽc": 2382,
      "liÅ¡": 2383,
      "Ġhodi": 2384,
      "Ġvzduch": 2385,
      "ĠcÃŃsa": 2386,
      "Ġtouha": 2387,
      "ĠÄįela": 2388,
      "Ġhlasem": 2389,
      "sen": 2390,
      "Ġzti": 2391,
      "vol": 2392,
      "Ġrozum": 2393,
      "Ġdoma": 2394,
      "Ġ,": 2395,
      "Ġnaz": 2396,
      "ĠmnohÃ½": 2397,
      "ĠÄįky": 2398,
      "Ġhrobu": 2399,
      "mlu": 2400,
      "ĠmojÃŃ": 2401,
      "ĠadÃ¡": 2402,
      "ĠovÃ¡": 2403,
      "dÄĽli": 2404,
      "ĠhÅĻe": 2405,
      "roj": 2406,
      "koli": 2407,
      "ĠtvÃ©ho": 2408,
      "hled": 2409,
      "ĠbÄĽda": 2410,
      "Ġnil": 2411,
      "Ġcelou": 2412,
      "ĠnevÃŃm": 2413,
      "Ġano": 2414,
      "ĠÃºsta": 2415,
      "ĠdvÃ©": 2416,
      "ckÃ½": 2417,
      "ĠdlÃŃ": 2418,
      "Ġohe": 2419,
      "hod": 2420,
      "nouti": 2421,
      "Ġnohou": 2422,
      "Ġrty": 2423,
      "Ġtvrd": 2424,
      "ĠhlavÄĽ": 2425,
      "str": 2426,
      "ĠhlÃŃ": 2427,
      "ĠedÃŃ": 2428,
      "ĠjehoÅ¾": 2429,
      "Ġ1837": 2430,
      "Ġman": 2431,
      "Ġchvil": 2432,
      "ĠkaÅ¾dÃ¡": 2433,
      "ĠovÃŃ": 2434,
      "Ġminu": 2435,
      "ĠbyÅ¥": 2436,
      "ĠvyÅ¡": 2437,
      "Ġpravil": 2438,
      "dky": 2439,
      "Ġstou": 2440,
      "Ġely": 2441,
      "AABBCD": 2442,
      "Ġ1844": 2443,
      "ĠstÃŃnu": 2444,
      "ĠsladkÃ½": 2445,
      "dra": 2446,
      "Ġsme": 2447,
      "Ġokam": 2448,
      "Ġhas": 2449,
      "ĠstromÅ¯": 2450,
      "Ġtrp": 2451,
      "Ġtmy": 2452,
      "Ġzpo": 2453,
      "hÃ½ch": 2454,
      "ĠmuÅ¾i": 2455,
      "Ġvsta": 2456,
      "Ġkraje": 2457,
      "ĠsvÄĽÅ¾ÃŃ": 2458,
      "nko": 2459,
      "ĠÃ¡te": 2460,
      "ĠÃŃnÃ¡": 2461,
      "XABB": 2462,
      "Ġkva": 2463,
      "Ġylo": 2464,
      "Ġzku": 2465,
      "ĠaÄįÃŃ": 2466,
      "ĠivÃ©": 2467,
      "in": 2468,
      "ĠÅĻad": 2469,
      "ĠoheÅĪ": 2470,
      "ĠdnÅ¯": 2471,
      "ĠklidnÄĽ": 2472,
      "Ġera": 2473,
      "Ġvlas": 2474,
      "Ġ1868": 2475,
      "Ġnak": 2476,
      "Ġramen": 2477,
      "sÃŃm": 2478,
      "ĠodÄĽ": 2479,
      "DD": 2480,
      "cÃ½": 2481,
      "ĠkÃ©": 2482,
      "ĠslÃŃ": 2483,
      "Å¡ek": 2484,
      "ĠdruÅ¾": 2485,
      "ĠdÃ¡lky": 2486,
      "Ġruky": 2487,
      "ĠplnÃ©": 2488,
      "Ġjdu": 2489,
      "ĠkrÃ¡snÃ¡": 2490,
      "ĠÅĻÃŃci": 2491,
      "Ġtry": 2492,
      "Ġeno": 2493,
      "Ġsoud": 2494,
      "Ã¡ch": 2495,
      "ĠloÄı": 2496,
      "ĠhledÃ¡": 2497,
      "Ġtre": 2498,
      "ĠzatÃŃm": 2499,
      "Ġata": 2500,
      "Ġkonec": 2501,
      "ĠhnÃŃz": 2502,
      "Ġvzdech": 2503,
      "ÅĻo": 2504,
      "ĠdobrÃ½": 2505,
      "dajÃŃ": 2506,
      "ĠdÃ¡vÃ¡": 2507,
      "ĠhleÄı": 2508,
      "ĠÅĻi": 2509,
      "tnÃ½": 2510,
      "Ġprosto": 2511,
      "Ġzka": 2512,
      "Ġtako": 2513,
      "ĠkrÃ¡ÄįÃŃ": 2514,
      "Ġ1863": 2515,
      "ec": 2516,
      "ĠjarnÃŃ": 2517,
      "Ġvzdy": 2518,
      "ĠÃŃÅ¾e": 2519,
      "ĠtÃ©to": 2520,
      "ĠmladÃ©": 2521,
      "ĠonÄĽ": 2522,
      "Ġtka": 2523,
      "ĠchÅ¯": 2524,
      "Ġvlasy": 2525,
      "ĠrÃ¡no": 2526,
      "ĠnadÄĽje": 2527,
      "vec": 2528,
      "ĠÅĻil": 2529,
      "Ġal": 2530,
      "Ġ1862": 2531,
      "ĠÄįÃ¡": 2532,
      "Ġohu": 2533,
      "ĠkÃ©Å¾": 2534,
      "ĠnaÅĪ": 2535,
      "Ġdobro": 2536,
      "ĠsÃŃla": 2537,
      "ĠÃ¡cÃŃ": 2538,
      "ĠlidskÃ©": 2539,
      "ĠlÃ©ta": 2540,
      "ĠÃŃtÄĽ": 2541,
      "Ġovi": 2542,
      "Ġjakby": 2543,
      "Ġchat": 2544,
      "ĠinÄĽ": 2545,
      "Ġobu": 2546,
      "Ġotce": 2547,
      "ĠvÄĽÄįnÃ©": 2548,
      "Ġany": 2549,
      "Ġkmen": 2550,
      "dala": 2551,
      "ĠtvÃ½m": 2552,
      "ten": 2553,
      "Å¡ky": 2554,
      "Ġrej": 2555,
      "Å¡nÃ©": 2556,
      "Ġnebyl": 2557,
      "ĠkÃ¡men": 2558,
      "ĠmuÅ¾e": 2559,
      "prv": 2560,
      "ĠtvÃ©m": 2561,
      "ĠdrahÃ¡": 2562,
      "tnÄĽ": 2563,
      "Ġdny": 2564,
      "Ġ1933": 2565,
      "ĠmÃ¡me": 2566,
      "ĠnemÄĽ": 2567,
      "Ġhlo": 2568,
      "ĠdnÄĽ": 2569,
      "mr": 2570,
      "Ġpravda": 2571,
      "ĠusÃŃ": 2572,
      "ĠslyÅ¡el": 2573,
      "ĠtichÃ©": 2574,
      "tajÃŃ": 2575,
      "ĠÃ¡nÄĽ": 2576,
      "snÃ©": 2577,
      "ĠÃŃru": 2578,
      "ĠÃ¡tÃŃ": 2579,
      "ĠÅ¾eh": 2580,
      "ĠpÃ¡r": 2581,
      "74": 2582,
      "Ġ1974": 2583,
      "ĠavÃ©": 2584,
      "Ġzro": 2585,
      "Ġnade": 2586,
      "Ġonu": 2587,
      "ĠÄįest": 2588,
      "zeÅĪ": 2589,
      "ĠrÃ¡ny": 2590,
      "ĠmilÃ©": 2591,
      "ĠjichÅ¾": 2592,
      "ĠtisÃŃce": 2593,
      "ĠoltÃ¡": 2594,
      "dat": 2595,
      "Ġbrzy": 2596,
      "ABAC": 2597,
      "Ġhod": 2598,
      "poÅĪ": 2599,
      "Ġslov": 2600,
      "ĠvÄĽtÅ¡ÃŃ": 2601,
      "Ġspou": 2602,
      "ĠÄįin": 2603,
      "tele": 2604,
      "ĠÄįernÃ½": 2605,
      "Ġnekone": 2606,
      "ĠÃŃlÃŃ": 2607,
      "ĠaspoÅĪ": 2608,
      "ĠÄįech": 2609,
      "ĠilÃ½": 2610,
      "mil": 2611,
      "ĠvÃ©m": 2612,
      "ĠrytÃŃ": 2613,
      "Ġradosti": 2614,
      "ĠjÃŃmÅ¾": 2615,
      "hnu": 2616,
      "Ġsud": 2617,
      "ĠÃŃmÃ¡": 2618,
      "ĠÅĻeÄįi": 2619,
      "ĠmalÃ½": 2620,
      "Ġslz": 2621,
      "ĠomÅ¯": 2622,
      "ĠÃ¡dÃ¡": 2623,
      "ĠdruhÃ½": 2624,
      "neÅ¡": 2625,
      "dej": 2626,
      "ĠzÃŃtra": 2627,
      "Ġpodzi": 2628,
      "ĠoÅĻi": 2629,
      "van": 2630,
      "Ġyne": 2631,
      "losti": 2632,
      "ĠzdrÃ¡": 2633,
      "Äįin": 2634,
      "Ġtento": 2635,
      "ĠtichÃ½": 2636,
      "ĠcÃŃtÃŃm": 2637,
      "ĠrÅ¯Å¾ÃŃ": 2638,
      "kala": 2639,
      "Å¯l": 2640,
      "ĠmotÃ½": 2641,
      "Ġrozk": 2642,
      "Ġlze": 2643,
      "Ġjazy": 2644,
      "Ġene": 2645,
      "ÅĻed": 2646,
      "Ġblanky": 2647,
      "Ġjinak": 2648,
      "Ġrodi": 2649,
      "ĠpÅĻede": 2650,
      "ĠlÅ¯": 2651,
      "ĠobrÃ¡": 2652,
      "ĠtÄĽl": 2653,
      "ĠÅĻekl": 2654,
      "Ġ1963": 2655,
      "ĠzÅ¯sta": 2656,
      "ĠzdÃ¡lo": 2657,
      "ĠmÃŃru": 2658,
      "Ġota": 2659,
      "Ġdoko": 2660,
      "Äįet": 2661,
      "Ġznovu": 2662,
      "ĠÃŃtÃ¡": 2663,
      "Ġpry": 2664,
      "ĠpoÅ¾eh": 2665,
      "noucÃŃ": 2666,
      "ĠpÅĻÃŃliÅ¡": 2667,
      "Ġsrdcem": 2668,
      "ĠpovÃŃ": 2669,
      "Ġhlad": 2670,
      "Ġ1916": 2671,
      "ĠvÄĽÅĻ": 2672,
      "Ġstromy": 2673,
      "Ġpovz": 2674,
      "XC": 2675,
      "Ġdni": 2676,
      "Ġzach": 2677,
      "Ġprapo": 2678,
      "ech": 2679,
      "Ġmoji": 2680,
      "19": 2681,
      "ĠÅ¾alo": 2682,
      "ĠvÄĽkÅ¯": 2683,
      "Ġhar": 2684,
      "Ġroste": 2685,
      "ĠkÅĻÃŃd": 2686,
      "bnÃŃ": 2687,
      "ĠkonÄĽ": 2688,
      "Ġboje": 2689,
      "Ġcti": 2690,
      "rÃ¡ch": 2691,
      "ĠelÃ½": 2692,
      "Ġovy": 2693,
      "ĠÅ¾it": 2694,
      "ĠdÃŃvka": 2695,
      "ĠskÃ½": 2696,
      "ck": 2697,
      "kat": 2698,
      "ĠmÄĽsto": 2699,
      "Ġdarmo": 2700,
      "ĠÄĽtÃŃ": 2701,
      "ĠdlouhÃ©": 2702,
      "Ġpol": 2703,
      "Ġset": 2704,
      "lÃ©t": 2705,
      "ĠvÃŃru": 2706,
      "ĠdobÄĽ": 2707,
      "Ġjiz": 2708,
      "sel": 2709,
      "Ġhloubi": 2710,
      "ÅĻila": 2711,
      "ĠkrÃ¡snÃ½": 2712,
      "ĠdÃ©": 2713,
      "Ġprachu": 2714,
      "ĠlesÅ¯": 2715,
      "Ġuze": 2716,
      "ĠchodÃŃ": 2717,
      "snÃ½": 2718,
      "ĠbÃ¡snÃŃ": 2719,
      "Ġvti": 2720,
      "Ġleb": 2721,
      "ĠzÃ¡ko": 2722,
      "Ġuka": 2723,
      "Ġeru": 2724,
      "Ġedu": 2725,
      "ĠkvÃŃtÃŃ": 2726,
      "Ġovu": 2727,
      "Ġosu": 2728,
      "ju": 2729,
      "nami": 2730,
      "ĠhvÄĽzda": 2731,
      "Ġvede": 2732,
      "ĠchrÃ¡m": 2733,
      "ĠbratÅĻÃŃ": 2734,
      "ĠÄĽta": 2735,
      "rnÃ¡": 2736,
      "ĠkrÃ¡li": 2737,
      "ĠdÄĽdi": 2738,
      "Äįkou": 2739,
      "Ġoly": 2740,
      "Ġrek": 2741,
      "Ġzrakem": 2742,
      "Ġnapos": 2743,
      "Ġsad": 2744,
      "brÃ¡": 2745,
      "Ġlek": 2746,
      "Ġrve": 2747,
      "Ġzvuk": 2748,
      "livÄĽ": 2749,
      "nÃ¡Å¡ÃŃ": 2750,
      "Ġmilosti": 2751,
      "ĠchceÅ¡": 2752,
      "ie": 2753,
      "ĠkteÅĻÃŃ": 2754,
      "lÃ©ho": 2755,
      "Ġzam": 2756,
      "ÄįÃ¡": 2757,
      "ĠanÃ½": 2758,
      "ĠhnÄĽv": 2759,
      "teÄį": 2760,
      "ĠdrahÃ©": 2761,
      "Ġstaro": 2762,
      "vÃŃrÃ¡": 2763,
      "ĠrÅ¯z": 2764,
      "Ġonen": 2765,
      "ĠÄįasu": 2766,
      "Ġuky": 2767,
      "zku": 2768,
      "ĠvaÅ¡i": 2769,
      "dÃ¡m": 2770,
      "ĠcÃŃtil": 2771,
      "ĠsnÃ©": 2772,
      "Ġsest": 2773,
      "ĠnedÃ¡": 2774,
      "ĠknÃŃÅ¾e": 2775,
      "Ġtruch": 2776,
      "AXAB": 2777,
      "ĠÅ¡umÃŃ": 2778,
      "Ġoch": 2779,
      "Ġraj": 2780,
      "ĠacÃŃ": 2781,
      "Ã½vÃ¡": 2782,
      "ĠchvÄĽje": 2783,
      "ĠÃŃly": 2784,
      "ĠmajÃŃ": 2785,
      "ĠbÅĻehu": 2786,
      "Ġjmen": 2787,
      "Ġhrudi": 2788,
      "Ġdum": 2789,
      "tost": 2790,
      "ĠtenkrÃ¡t": 2791,
      "ĠpÅĻÃŃÅ¡tÃŃ": 2792,
      "ĠpÃŃsni": 2793,
      "ĠÃŃte": 2794,
      "Ġlesa": 2795,
      "Å¡ÃŃch": 2796,
      "vej": 2797,
      "Ġine": 2798,
      "ĠlistÃŃ": 2799,
      "ÅĻÅ¯": 2800,
      "ĠpÃ¡ni": 2801,
      "Ġokna": 2802,
      "Ġjestli": 2803,
      "ĠvzÃ¡c": 2804,
      "ĠstrÃ¡Å¾": 2805,
      "kÅĻik": 2806,
      "ĠbudeÅ¡": 2807,
      "ĠvÅ¯kol": 2808,
      "Ġposud": 2809,
      "Ġcesta": 2810,
      "ĠsÃŃlu": 2811,
      "ĠubÃŃ": 2812,
      "Ġpln": 2813,
      "ja": 2814,
      "ĠÃ¡va": 2815,
      "chal": 2816,
      "ĠÄıÃ¡": 2817,
      "Ġduchu": 2818,
      "Ġrost": 2819,
      "ĠslyÅ¡ÃŃm": 2820,
      "Ġdve": 2821,
      "Ġ1835": 2822,
      "ĠnÃ¡ruÄį": 2823,
      "Ġtouhou": 2824,
      "ĠrÅ¯Å¾o": 2825,
      "ĠrÃ¡t": 2826,
      "chÃ½": 2827,
      "Ġnim": 2828,
      "ĠblÃ½": 2829,
      "ĠmalÃ©": 2830,
      "Ġscho": 2831,
      "Ġnesly": 2832,
      "ĠÄįet": 2833,
      "slo": 2834,
      "ĠovÃ½": 2835,
      "ĠdobrÃ©": 2836,
      "ĠrÃ¡zem": 2837,
      "nala": 2838,
      "Ġroj": 2839,
      "Ġsma": 2840,
      "Ġviz": 2841,
      "Ġvit": 2842,
      "ĠvÅ¡emi": 2843,
      "ĠÅĪa": 2844,
      "ĠkrÃ¡se": 2845,
      "ĠsplÃ½": 2846,
      "Ġuhy": 2847,
      "ĠskÃ©": 2848,
      "ĠilÃ¡": 2849,
      "Ġhoch": 2850,
      "ĠvÅ¯le": 2851,
      "Ġsne": 2852,
      "ĠotÃ¡": 2853,
      "ÅĻÃŃt": 2854,
      "ĠÅĪader": 2855,
      "Å¡lo": 2856,
      "ĠzachvÄĽ": 2857,
      "pÅ¯": 2858,
      "ĠvalÃŃ": 2859,
      "ĠukÃ¡": 2860,
      "Ġzapla": 2861,
      "ĠjasnÃ©": 2862,
      "Ġzbu": 2863,
      "ĠkrÃ¡le": 2864,
      "Ġlese": 2865,
      "ĠsvÄĽtu": 2866,
      "Ġzasta": 2867,
      "lku": 2868,
      "Ġuse": 2869,
      "Ġspi": 2870,
      "ĠekÃ¡": 2871,
      "Ġprobu": 2872,
      "Ġlidstva": 2873,
      "Ġzoufal": 2874,
      "ĠĠĊ": 2875,
      "skem": 2876,
      "stÃ¡vÃ¡": 2877,
      "ĠvÄĽÄįnÃ½": 2878,
      "ĠrozkoÅ¡": 2879,
      "ĠzvlÃ¡": 2880,
      "ĠzapomnÄĽ": 2881,
      "ĠpryÄį": 2882,
      "ÄįnÃ¡": 2883,
      "Ġpravdu": 2884,
      "Ġoho": 2885,
      "Ġpas": 2886,
      "Ġnas": 2887,
      "ĠpÃ©": 2888,
      "Ġvenku": 2889,
      "Ġnevin": 2890,
      "Ġom": 2891,
      "Äįila": 2892,
      "Ġkoste": 2893,
      "Ġuna": 2894,
      "tÃ¡m": 2895,
      "dek": 2896,
      "Ġzadu": 2897,
      "ĠcÃŃl": 2898,
      "Ġklet": 2899,
      "ĠklonÃŃ": 2900,
      "ĠjmÃ©no": 2901,
      "et": 2902,
      "ĠsvatÃ¡": 2903,
      "ÅĻenÃ©": 2904,
      "ĠoÄįÃŃch": 2905,
      "ĠokamÅ¾i": 2906,
      "Ġlidem": 2907,
      "Ġklam": 2908,
      "ĠzÃ¡hy": 2909,
      "ĠovÅ¡em": 2910,
      "Ġnechce": 2911,
      "Ġchle": 2912,
      "Ġbit": 2913,
      "ĠpÅĻiÅ¡la": 2914,
      "ĠtÄĽÅ¾kÃ©": 2915,
      "ĠrÃ¡l": 2916,
      "ĠpÃ½ch": 2917,
      "Ġbudouc": 2918,
      "ĠvÃ½Å¡i": 2919,
      "rom": 2920,
      "us": 2921,
      "ĠzdÄĽ": 2922,
      "ĠÃ¡Äįe": 2923,
      "ĠÃŃnu": 2924,
      "chÃ¡ze": 2925,
      "Ġztracen": 2926,
      "Ġzdi": 2927,
      "ĠmÅ¾i": 2928,
      "Ġples": 2929,
      "Ġdala": 2930,
      "Ġrozho": 2931,
      "ĠplÃ¡Äįe": 2932,
      "ĠkrÅ¯": 2933,
      "Ġpout": 2934,
      "Ġfran": 2935,
      "Ġkme": 2936,
      "ĠÃŃÅ¡e": 2937,
      "Ġstvo": 2938,
      "penÃŃ": 2939,
      "Ġtva": 2940,
      "ĠdÃŃm": 2941,
      "ĠdÄĽtÃŃ": 2942,
      "ĠdÅ¯vÄĽ": 2943,
      "ĠatÃ¡": 2944,
      "Ġpoho": 2945,
      "dÃ¡nÃŃ": 2946,
      "dka": 2947,
      "Ġava": 2948,
      "Ġspas": 2949,
      "Ġsladce": 2950,
      "Ġzni": 2951,
      "Ġral": 2952,
      "Ġovo": 2953,
      "vin": 2954,
      "ĠtÃ³": 2955,
      "ĠÃŃkÅ¯": 2956,
      "Ġmohl": 2957,
      "ĠÃ¡ÄįÃŃ": 2958,
      "DE": 2959,
      "Ġnohy": 2960,
      "Ġudy": 2961,
      "ĠÅĻas": 2962,
      "Ġoni": 2963,
      "rnÃŃ": 2964,
      "Ġur": 2965,
      "hli": 2966,
      "ĠÄĽlÃ½": 2967,
      "Ġzhas": 2968,
      "Ġpokoj": 2969,
      "ĠÅĻÃŃÅ¡": 2970,
      "ĠdrahÃ½": 2971,
      "ĠopÃŃ": 2972,
      "ĠmizÃŃ": 2973,
      "ĠvÄĽz": 2974,
      "klad": 2975,
      "ĠelÃ©": 2976,
      "Ġboku": 2977,
      "ĠzÃ¡m": 2978,
      "Ġspra": 2979,
      "Ġpodzim": 2980,
      "jÃŃch": 2981,
      "ĠrÃ¡da": 2982,
      "Ġstrach": 2983,
      "ĠsmutnÄĽ": 2984,
      "ĠdÄĽla": 2985,
      "dÃ½ch": 2986,
      "Ġvyk": 2987,
      "ĠchtÄĽla": 2988,
      "Ġaty": 2989,
      "ĠhÃ¡j": 2990,
      "Ġluh": 2991,
      "Ġrev": 2992,
      "stvo": 2993,
      "bnÃ©": 2994,
      "Ġvztek": 2995,
      "ĠmladÃ¡": 2996,
      "Ġmni": 2997,
      "ĠsvÃ½mi": 2998,
      "ĠÄĽtu": 2999,
      "vuje": 3000,
      "Ġodpu": 3001,
      "Ġkone": 3002,
      "Ġbojo": 3003,
      "Ġdomu": 3004,
      "ĠskÅĻi": 3005,
      "cet": 3006,
      "Ġhad": 3007,
      "Ġcky": 3008,
      "Ġpramen": 3009,
      "lenÃ©": 3010,
      "ĠstarÃ½ch": 3011,
      "ĠzvonÃŃ": 3012,
      "ĠmraÄį": 3013,
      "ĠvÅ¡ÃŃm": 3014,
      "Ġslza": 3015,
      "Äįem": 3016,
      "Ġhan": 3017,
      "ĠjejÃŃm": 3018,
      "lÃŃÅ¾ÃŃ": 3019,
      "ĠsrdcÃŃ": 3020,
      "ĠmoÅ¾no": 3021,
      "go": 3022,
      "alu": 3023,
      "jÃŃt": 3024,
      "bÅ¯": 3025,
      "ĠhrobÄĽ": 3026,
      "kajÃŃ": 3027,
      "her": 3028,
      "ĠrÃ¡m": 3029,
      "deme": 3030,
      "Ġnka": 3031,
      "ĠÄįeskÃ©": 3032,
      "Ġpoe": 3033,
      "Ġprsa": 3034,
      "ĠbouÅĻi": 3035,
      "ĠÄĽle": 3036,
      "cel": 3037,
      "Ġcy": 3038,
      "Ġzba": 3039,
      "ĠahÃ¡": 3040,
      "ĠizÃŃ": 3041,
      "Ġzcela": 3042,
      "ĠÃ¡vÄĽ": 3043,
      "ĠdÅĻÃŃve": 3044,
      "snÃŃ": 3045,
      "ĠÃºtÄĽ": 3046,
      "rnou": 3047,
      "Å¡nÃ½": 3048,
      "ĠrnÃ©": 3049,
      "ĠnepÅĻÃ¡": 3050,
      "Ġetu": 3051,
      "ĠhÃ½": 3052,
      "Ġpohle": 3053,
      "Ġvrcho": 3054,
      "ĠtÅĻÃ¡": 3055,
      "Ġjino": 3056,
      "cnÄĽ": 3057,
      "Ġhnu": 3058,
      "pit": 3059,
      "Ġjeze": 3060,
      "ĠÄįnÃŃ": 3061,
      "ĠadÃŃ": 3062,
      "ĠstÃ¡la": 3063,
      "bito": 3064,
      "Äįej": 3065,
      "ĠpevnÄĽ": 3066,
      "Ġly": 3067,
      "ĠÃ¡vy": 3068,
      "ĠÅ¾Ã¡dnÃ½": 3069,
      "ĠmÃ¡j": 3070,
      "Ġkus": 3071,
      "Ġdlo": 3072,
      "Ġbil": 3073,
      "ĠÅ¾enu": 3074,
      "Ġhlaho": 3075,
      "jal": 3076,
      "Ġpravdy": 3077,
      "ĠolÃ¡": 3078,
      "nosÅ¥": 3079,
      "ĠvelkÃ¡": 3080,
      "ĠsluÅ¾": 3081,
      "ĠzÅĻe": 3082,
      "ĠbÅĻÃŃ": 3083,
      "ĠzlatÃ¡": 3084,
      "ĠnepÅĻÃŃ": 3085,
      "ĠmodrÃ©": 3086,
      "ĠdnÃ½": 3087,
      "vod": 3088,
      "Ġin": 3089,
      "tor": 3090,
      "ĠkaÅ¾dou": 3091,
      "ĠavÃ¡": 3092,
      "ĠzÃ¡zrak": 3093,
      "ĠdennÄĽ": 3094,
      "slu": 3095,
      "raz": 3096,
      "ĠkrÃ¡sa": 3097,
      "dlÃŃ": 3098,
      "ĠÅ¡le": 3099,
      "ĠvÃ¡mi": 3100,
      "AAXA": 3101,
      "bÃ©": 3102,
      "dli": 3103,
      "ĠmÄĽnÃŃ": 3104,
      "Ġvar": 3105,
      "Ġchyt": 3106,
      "ĠodpovÄĽ": 3107,
      "ĠvÃ½ch": 3108,
      "Ġjal": 3109,
      "stva": 3110,
      "Ġnec": 3111,
      "ĠÃºdo": 3112,
      "ĠjedinÃ½": 3113,
      "Ġjsa": 3114,
      "Ġluk": 3115,
      "ĠÄĽlÃ¡": 3116,
      "vet": 3117,
      "Ġpsa": 3118,
      "Ġaku": 3119,
      "Ġsmutek": 3120,
      "ĠkrÅ¯pÄĽ": 3121,
      "ĠtouÅ¾ÃŃ": 3122,
      "ĠtnÃ©": 3123,
      "jÃ¡": 3124,
      "ABXB": 3125,
      "kot": 3126,
      "ĠbÄĽÅ¾ÃŃ": 3127,
      "ĠtÃŃÅ¾": 3128,
      "ĠstejnÄĽ": 3129,
      "Ġkrou": 3130,
      "XAXABB": 3131,
      "ĠÅĻel": 3132,
      "ĠvÃ½cho": 3133,
      "Ġplane": 3134,
      "Ġono": 3135,
      "ĠslÃ¡vÄĽ": 3136,
      "Ġeni": 3137,
      "zvu": 3138,
      "Ġchra": 3139,
      "Ġvlo": 3140,
      "Ġmdlo": 3141,
      "ĠnÃŃz": 3142,
      "ĠpÅĻÃ¡tel": 3143,
      "ĠjednÃ©": 3144,
      "Äįnou": 3145,
      "ĠnepÅĻi": 3146,
      "ÅĻek": 3147,
      "rÃ¡m": 3148,
      "Ġpotu": 3149,
      "ĠÅĻeÄįÃŃ": 3150,
      "pÄĽl": 3151,
      "es": 3152,
      "lÃŃm": 3153,
      "ĠÃ¡lÃŃ": 3154,
      "kaz": 3155,
      "Ġbije": 3156,
      "ĠklÃŃn": 3157,
      "Å¾ila": 3158,
      "Ġmlado": 3159,
      "Ġpodle": 3160,
      "hÃ½m": 3161,
      "ĠbudÃŃ": 3162,
      "Ġidu": 3163,
      "Ġotu": 3164,
      "Ġteprv": 3165,
      "Ġjednu": 3166,
      "Ġtemno": 3167,
      "ĠneboÅ¥": 3168,
      "ĠeÅĻÃŃ": 3169,
      "hÃ¡m": 3170,
      "Ġhez": 3171,
      "Ġsilou": 3172,
      "vÅ¡": 3173,
      "ĠadÄĽ": 3174,
      "ĠkvÄĽti": 3175,
      "Ġkali": 3176,
      "ĠtÅĻetÃŃ": 3177,
      "ĠÄįt": 3178,
      "Ġnal": 3179,
      "ĠlkÃ¡": 3180,
      "ĠvzneÅ¡en": 3181,
      "ĠÅ¡Ã¡": 3182,
      "ĠdÃ©m": 3183,
      "ĠslÃ¡vu": 3184,
      "ĠzemÃŃ": 3185,
      "ĠknÄĽÅ¾": 3186,
      "ĠenÄĽ": 3187,
      "ĠdruhÃ©": 3188,
      "Ġoha": 3189,
      "lan": 3190,
      "ĠmÃŃti": 3191,
      "Ġvlh": 3192,
      "Ġzlata": 3193,
      "ĠdlouhÃ½": 3194,
      "ĠhÅĻbito": 3195,
      "Ġtit": 3196,
      "bnÄĽ": 3197,
      "rce": 3198,
      "Ġklad": 3199,
      "ĠrtÅ¯": 3200,
      "ĠÄįerven": 3201,
      "Ġkne": 3202,
      "ĠnoÄįnÃŃ": 3203,
      "Ġmraky": 3204,
      "Ġklu": 3205,
      "ĠchtÃŃ": 3206,
      "Ġtvr": 3207,
      "ĠrudÃ©": 3208,
      "Ġnebylo": 3209,
      "Ġzhy": 3210,
      "ĠÄįlovÄĽka": 3211,
      "Ġudi": 3212,
      "ĠtÄĽle": 3213,
      "Ġsouse": 3214,
      "ĠptÃ¡ci": 3215,
      "Ġruch": 3216,
      "klÃŃ": 3217,
      "ĠstavÃŃ": 3218,
      "ĠÅ¾ÃŃti": 3219,
      "Ġzapad": 3220,
      "Ġ1865": 3221,
      "ĠmalÃ¡": 3222,
      "Ġpen": 3223,
      "Ġbro": 3224,
      "ĠÅ¡ÃŃlen": 3225,
      "Ġanu": 3226,
      "Ġhrou": 3227,
      "cla": 3228,
      "rku": 3229,
      "Ġskvost": 3230,
      "Ġjo": 3231,
      "Ġspole": 3232,
      "man": 3233,
      "ĠvracÃŃ": 3234,
      "Ġpodiv": 3235,
      "Ġsami": 3236,
      "Ġporo": 3237,
      "ĠÄįaro": 3238,
      "las": 3239,
      "ĠvÅ¯li": 3240,
      "lnÃŃ": 3241,
      "Ġjdi": 3242,
      "ĠnenÃ¡": 3243,
      "Ġprud": 3244,
      "ĠbÃŃlÃ½ch": 3245,
      "Ġjimi": 3246,
      "Ġkrokem": 3247,
      "kovÃ©": 3248,
      "Ġholu": 3249,
      "ĠlÃŃbÃ¡": 3250,
      "cÅ¯m": 3251,
      "rky": 3252,
      "Ġmati": 3253,
      "ĠmlÄįÃŃ": 3254,
      "Ġskr": 3255,
      "Ġnepro": 3256,
      "ĠtÅ¯": 3257,
      "chou": 3258,
      "Ġesy": 3259,
      "ĠvÄįera": 3260,
      "ĠÃ¡je": 3261,
      "ĠzÃ¡vi": 3262,
      "CCB": 3263,
      "Ġvzpo": 3264,
      "Ġnechci": 3265,
      "zÃŃm": 3266,
      "stvÃŃm": 3267,
      "ĠivÄĽ": 3268,
      "ĠÄįty": 3269,
      "bli": 3270,
      "Ġau": 3271,
      "jÅ¡ÃŃm": 3272,
      "ĠÅĻeky": 3273,
      "ĠblÃŃz": 3274,
      "Ġzrc": 3275,
      "Ġmoci": 3276,
      "ĠÃºzko": 3277,
      "Ġhudba": 3278,
      "ĠÃ½ti": 3279,
      "ĠsklÃ¡nÃŃ": 3280,
      "ĠvÃŃr": 3281,
      "Ġvesele": 3282,
      "jednou": 3283,
      "ĠalÃ½": 3284,
      "Ġsvi": 3285,
      "boj": 3286,
      "ĠnadÅ¡en": 3287,
      "jas": 3288,
      "ĠÃ¡dÃŃ": 3289,
      "Ġteh": 3290,
      "ĠkvÄĽtu": 3291,
      "ĠolÅ¯": 3292,
      "Ġ1869": 3293,
      "ĠÅ¯nÄĽ": 3294,
      "vili": 3295,
      "Ġzmat": 3296,
      "ĠÃŃka": 3297,
      "Ġada": 3298,
      "Ġide": 3299,
      "kne": 3300,
      "ĠbohatÃ½": 3301,
      "ĠpÅ¯lno": 3302,
      "dÃ¡ch": 3303,
      "ĠstÃ¡t": 3304,
      "Ġuhu": 3305,
      "ĠÅĪadra": 3306,
      "ĠiÅ¡e": 3307,
      "ĠvÃ¡ÅĻ": 3308,
      "Ġvstou": 3309,
      "dili": 3310,
      "ĠbÃ½vÃ¡": 3311,
      "tno": 3312,
      "ĠzÃ¡pa": 3313,
      "ĠbledÃ¡": 3314,
      "dku": 3315,
      "ĠvÄĽn": 3316,
      "Ġstrany": 3317,
      "mÃ¡ch": 3318,
      "ĠprostÅĻe": 3319,
      "dÄĽnÃŃ": 3320,
      "ĠÃŃny": 3321,
      "ĠtÃ¡hne": 3322,
      "ĠnÄĽjak": 3323,
      "Ġsoum": 3324,
      "lnÄĽ": 3325,
      "Ġhvo": 3326,
      "ĠÃ¡nu": 3327,
      "Ġkdos": 3328,
      "Ġslovem": 3329,
      "ĠchrÃ¡mu": 3330,
      "Ġola": 3331,
      "Ġvle": 3332,
      "Ġpes": 3333,
      "Ġnesou": 3334,
      "Ġjte": 3335,
      "Ġhochu": 3336,
      "Ġsyna": 3337,
      "ĠznÄĽl": 3338,
      "ĠmrÃ¡z": 3339,
      "ĠzpÃ¡": 3340,
      "Å¡nÃŃ": 3341,
      "liÄį": 3342,
      "ĠytÃŃ": 3343,
      "ĠÄĽny": 3344,
      "zna": 3345,
      "tev": 3346,
      "ĠdÅĻe": 3347,
      "ĠvyÅ¡el": 3348,
      "ĠrÃ¡je": 3349,
      "Å¡it": 3350,
      "hlÃ¡": 3351,
      "ĠzÃ¡stup": 3352,
      "hÃ¡nÃŃ": 3353,
      "Ġist": 3354,
      "ĠÄĽji": 3355,
      "Ġstk": 3356,
      "ĠrÃ½": 3357,
      "Ġpek": 3358,
      "ĠÅ¡edi": 3359,
      "Ġhradu": 3360,
      "Ġ1823": 3361,
      "Ġtce": 3362,
      "Ġzlatem": 3363,
      "ĠkrÃ¡su": 3364,
      "ĠupÃŃ": 3365,
      "Ġsbor": 3366,
      "Ġlili": 3367,
      "Ġnejs": 3368,
      "ĠzlatÃ½ch": 3369,
      "Ġedy": 3370,
      "vice": 3371,
      "Ġhlasy": 3372,
      "Ġspad": 3373,
      "ĠsmutnÃ©": 3374,
      "ĠdlaÅĪ": 3375,
      "Ġblesky": 3376,
      "ĠeÄįÃŃ": 3377,
      "Ġzrcad": 3378,
      "ĠzvedÃ¡": 3379,
      "ĠvÅ¯nÃŃ": 3380,
      "Ġtrou": 3381,
      "ĠÄįeskÃ½": 3382,
      "Ġkyne": 3383,
      "Ġsic": 3384,
      "Ġstesk": 3385,
      "ĠskrÃ¡ÅĪ": 3386,
      "ĠvzplÃ¡": 3387,
      "Å¡t": 3388,
      "ĠÅ¡ÃŃm": 3389,
      "lena": 3390,
      "Ġoty": 3391,
      "Ġprost": 3392,
      "ĠpamÄĽ": 3393,
      "Ġaji": 3394,
      "Ġdy": 3395,
      "dali": 3396,
      "ĠnÄĽkdo": 3397,
      "ĠÄĽty": 3398,
      "bnÃ½": 3399,
      "Ġnaslou": 3400,
      "ĠrtÃŃ": 3401,
      "ĠÅĻÃŃÅ¡e": 3402,
      "dnÃ½ch": 3403,
      "Ġnovou": 3404,
      "Ġklidu": 3405,
      "nÄĽl": 3406,
      "kÃ©ho": 3407,
      "Ġblaha": 3408,
      "ĠtÃŃn": 3409,
      "ĠÄįÃŃÅ¡": 3410,
      "Å¾Å¡ÃŃ": 3411,
      "ĠblÃŃÅ¾ÃŃ": 3412,
      "rel": 3413,
      "jÃŃce": 3414,
      "Ġvin": 3415,
      "Å¾enÃ©": 3416,
      "?!": 3417,
      "Ġrci": 3418,
      "Å¡Å¥ast": 3419,
      "ĠÄĽlÃ©": 3420,
      "Ġmrtvo": 3421,
      "ĠÃŃku": 3422,
      "hly": 3423,
      "ĠpodÃ¡": 3424,
      "ĠbÃŃlou": 3425,
      "ĠdÃ¡lku": 3426,
      "tÃ½ch": 3427,
      "Ġjab": 3428,
      "jeÅ¡": 3429,
      "Ġtato": 3430,
      "stÃŃm": 3431,
      "ACD": 3432,
      "Ġvypra": 3433,
      "tom": 3434,
      "Ġvola": 3435,
      "Ġseve": 3436,
      "ĠhÅĻÃŃch": 3437,
      "Ġhosti": 3438,
      "Ġabych": 3439,
      "Ġkroky": 3440,
      "vanÃ©": 3441,
      "ĠvÃ¡cla": 3442,
      "pem": 3443,
      "ĠvroucÃŃ": 3444,
      "Ġposlou": 3445,
      "ĠpÄĽl": 3446,
      "ĠpÅĻÃŃÅ¡e": 3447,
      "ĠzkÃ¡": 3448,
      "Ġzab": 3449,
      "Ġkomu": 3450,
      "ĠmusÃŃm": 3451,
      "ĠpotÄĽ": 3452,
      "Ġpope": 3453,
      "domÃŃ": 3454,
      "ĠcestÄĽ": 3455,
      "Ġosla": 3456,
      "ĠvisÃŃ": 3457,
      "sit": 3458,
      "Ġana": 3459,
      "Ġobli": 3460,
      "ĠÃºsmÄĽvem": 3461,
      "Ġhrom": 3462,
      "Ġnebude": 3463,
      "Äįo": 3464,
      "lÃ©z": 3465,
      "Ġvad": 3466,
      "Ġvze": 3467,
      "Ġcest": 3468,
      "Ġzle": 3469,
      "Ġcko": 3470,
      "ĠmÃŃsta": 3471,
      "Ġdali": 3472,
      "ĠcÃŃsaÅĻ": 3473,
      "ĠÄįasy": 3474,
      "ĠotÄįe": 3475,
      "ĠmrtvÃ©": 3476,
      "ĠÅĻÃŃc": 3477,
      "ĠaÅ¡e": 3478,
      "dÃŃÅ¡": 3479,
      "ĠdÃ¡lce": 3480,
      "ĠÃ¡mi": 3481,
      "Ġmed": 3482,
      "vÄĽd": 3483,
      "Ġtel": 3484,
      "Ġlov": 3485,
      "vÃ½mi": 3486,
      "ĠotÄĽ": 3487,
      "ĠmÄĽli": 3488,
      "Ġnci": 3489,
      "Ġjit": 3490,
      "Ġpode": 3491,
      "ĠvÃŃry": 3492,
      "Ġplno": 3493,
      "ĠvonÃŃ": 3494,
      "rat": 3495,
      "Ġzat": 3496,
      "tala": 3497,
      "Ġjel": 3498,
      "Ġvytr": 3499,
      "ĠblÃŃÅ¾e": 3500,
      "AE": 3501,
      "ĠkÅĻesÅ¥": 3502,
      "ĠsmÃŃchu": 3503,
      "ĠoÅ¾i": 3504,
      "ĠpÃ¡nÄĽ": 3505,
      "Ġohy": 3506,
      "ĠopuÅ¡tÄĽ": 3507,
      "ĠtÄĽÅ¾kÃ½": 3508,
      "lka": 3509,
      "Ġpoc": 3510,
      "Ġzmo": 3511,
      "Ġtuto": 3512,
      "Ġskon": 3513,
      "lky": 3514,
      "nÃ©mu": 3515,
      "ĠtvojÃŃ": 3516,
      "hÃ©m": 3517,
      "ĠzprÃ¡": 3518,
      "Ġoky": 3519,
      "ĠvÃ¡Å¡nÃŃ": 3520,
      "ĠobjetÃŃ": 3521,
      "ĠtoÄįÃŃ": 3522,
      "Ġluz": 3523,
      "ĠjasnÃ½": 3524,
      "ĠasÅ¯": 3525,
      "ĠnenÃ¡vi": 3526,
      "ĠsladkÃ¡": 3527,
      "Ġvet": 3528,
      "Ġzvon": 3529,
      "Ġvsi": 3530,
      "ÅĻÃŃk": 3531,
      "Ġbor": 3532,
      "Ġpaprsk": 3533,
      "ĠÃŃnÄĽ": 3534,
      "ĠandÄĽ": 3535,
      "ĠÅ¡lech": 3536,
      "ctvÃŃ": 3537,
      "ĠvidÄĽt": 3538,
      "ĠlÃ©m": 3539,
      "Ġuvi": 3540,
      "nÄĽn": 3541,
      "ĠnovÃ¡": 3542,
      "Ġpolib": 3543,
      "ĠslyÅ¡et": 3544,
      "ĠjevÃŃ": 3545,
      "Ġbyst": 3546,
      "ĠjinÃ½ch": 3547,
      "Ġsynu": 3548,
      "ABX": 3549,
      "ĠklesÃ¡": 3550,
      "Ġbolesti": 3551,
      "ĠvÅĻa": 3552,
      "ĠÅ¾ene": 3553,
      "Ġmlhy": 3554,
      "Ġhon": 3555,
      "zky": 3556,
      "ĠvÃŃte": 3557,
      "Ġkonce": 3558,
      "Ġvzbu": 3559,
      "ĠÄįernÃ½ch": 3560,
      "Ġkolo": 3561,
      "Ġmilu": 3562,
      "Ġsvato": 3563,
      "ĠmyslÃŃm": 3564,
      "ĠÄįist": 3565,
      "Ġvelkou": 3566,
      "enÃ¡": 3567,
      "ĠlÃŃto": 3568,
      "Ġcizi": 3569,
      "ĠohnÄĽm": 3570,
      "Ġsoumrak": 3571,
      "Å¡te": 3572,
      "Ġdvou": 3573,
      "nitÅĻ": 3574,
      "Ġjan": 3575,
      "eni": 3576,
      "Ġcu": 3577,
      "Ġlehce": 3578,
      "ĠvÃ©": 3579,
      "Ġesk": 3580,
      "vÃ¡t": 3581,
      "ĠnadÅ¡enÃŃ": 3582,
      "Ġtlo": 3583,
      "ĠpÃ¡na": 3584,
      "Ġbohy": 3585,
      "ĠvÅ¡a": 3586,
      "Ġstalo": 3587,
      "ĠbledÃ©": 3588,
      "Ġjat": 3589,
      "ĠskÅĻÃŃ": 3590,
      "Ġjakoby": 3591,
      "Ġtichou": 3592,
      "Ġdoba": 3593,
      "ĠotcÅ¯": 3594,
      "ĠkoÅĻi": 3595,
      "Ġruh": 3596,
      "Ġety": 3597,
      "Ġdokud": 3598,
      "ĠcÃŃrk": 3599,
      "ĠmÄĽj": 3600,
      "ĠlÃŃci": 3601,
      "Ġsklen": 3602,
      "ĠhuÄįÃŃ": 3603,
      "ĠÄįernÃ¡": 3604,
      "ĠsrÃ¡": 3605,
      "Ġsbo": 3606,
      "Ġpoch": 3607,
      "Ġutr": 3608,
      "Ġhora": 3609,
      "ĠÃ½lÃŃ": 3610,
      "ĠkoÅĻen": 3611,
      "Ġvzduchu": 3612,
      "ĠveÅ¡": 3613,
      "ĠpatÅĻÃŃ": 3614,
      "Ġzor": 3615,
      "ĠkÃ½m": 3616,
      "ĠlepÅ¡ÃŃ": 3617,
      "diÅ¾": 3618,
      "ĠtÃ¡l": 3619,
      "livÃ½": 3620,
      "Ġlev": 3621,
      "Ġrozu": 3622,
      "bat": 3623,
      "ĠtÃ©m": 3624,
      "Ġahy": 3625,
      "ĠtemnÃ©": 3626,
      "hnÄĽ": 3627,
      "Ġato": 3628,
      "vÄĽl": 3629,
      "ĠhrÅ¯zou": 3630,
      "Ġdaleko": 3631,
      "rka": 3632,
      "Ġproro": 3633,
      "Ġzlatou": 3634,
      "Ġhrdi": 3635,
      "ĠrnÃ½": 3636,
      "ĠsmÄĽle": 3637,
      "pro": 3638,
      "ĠvÅ¡emu": 3639,
      "ĠzpÃ¡tky": 3640,
      "Ġpoled": 3641,
      "Ġkole": 3642,
      "ĠstaÅĻe": 3643,
      "ĠnejvÃŃ": 3644,
      "ek": 3645,
      "ĠokÅ¯": 3646,
      "hnou": 3647,
      "ĠzÃŃrÃ¡": 3648,
      "ĠdÃŃk": 3649,
      "hlu": 3650,
      "ame": 3651,
      "Ġeti": 3652,
      "ĠÃŃlÃ½": 3653,
      "ĠtichÃ¡": 3654,
      "sly": 3655,
      "Ġama": 3656,
      "Ġzamy": 3657,
      "Ġede": 3658,
      "ABABAC": 3659,
      "ĠÃŃla": 3660,
      "ĠÃŃky": 3661,
      "ĠrannÃŃ": 3662,
      "ĠstÃ½": 3663,
      "ĠjasnÄĽ": 3664,
      "ĠnavÅ¾dy": 3665,
      "Ġbleskem": 3666,
      "ĠÃ¡da": 3667,
      "ĠbÅĻeh": 3668,
      "ĠdÄĽvÄįe": 3669,
      "Ġcosi": 3670,
      "Äįer": 3671,
      "ĠÄįel": 3672,
      "Ġzpu": 3673,
      "Ġej": 3674,
      "ĠrÅ¯Å¾i": 3675,
      "ĠvÄĽci": 3676,
      "Ġlky": 3677,
      "ĠpÅĻÃŃtel": 3678,
      "ĠdobrÃ¡": 3679,
      "Ġdouf": 3680,
      "ĠÅ¾alu": 3681,
      "Å¡o": 3682,
      "ĠlnÃ½": 3683,
      "ĠdÄĽje": 3684,
      "ĠvraÅ¾": 3685,
      "rnÃ½ch": 3686,
      "ĠzlÃ¡": 3687,
      "anil": 3688,
      "bem": 3689,
      "Ġiku": 3690,
      "Ġtichu": 3691,
      "Ġkdesi": 3692,
      "nak": 3693,
      "ĠelÃŃ": 3694,
      "ĠÄįistÃ©": 3695,
      "kojen": 3696,
      "ĠzdravÃŃ": 3697,
      "ĠzlÃ½": 3698,
      "Ġzma": 3699,
      "Ġchlu": 3700,
      "ĠloÅ¾e": 3701,
      "cenÃŃ": 3702,
      "ĠvÅ¡ÃŃ": 3703,
      "jÃŃmÃ¡": 3704,
      "Ġmatko": 3705,
      "ĠÄĽna": 3706,
      "lel": 3707,
      "ĠpoÄįÃŃ": 3708,
      "ĠsmutnÃ½": 3709,
      "ĠvÃŃno": 3710,
      "Ġenu": 3711,
      "ĠvÅ¡ecka": 3712,
      "Ġhost": 3713,
      "han": 3714,
      "ĠvolnÄĽ": 3715,
      "Ġchvat": 3716,
      "ĠkolÃ©b": 3717,
      "ĠÃºÅ¾": 3718,
      "tkem": 3719,
      "ĠÄĽzd": 3720,
      "Ġsled": 3721,
      "ĠÄįnÄĽ": 3722,
      "nikÃ¡": 3723,
      "Å¾enÃ½": 3724,
      "zra": 3725,
      "Ġstuden": 3726,
      "ĠlÃŃp": 3727,
      "Ġmlha": 3728,
      "Å¡to": 3729,
      "ĠevÃŃ": 3730,
      "Ġmluvil": 3731,
      "Ġlidstvo": 3732,
      "ĠÄĽte": 3733,
      "Ġsmutku": 3734,
      "Ġpomoc": 3735,
      "ĠpsÃ¡": 3736,
      "Ġpochy": 3737,
      "ĠÅĻÃ¡d": 3738,
      "vce": 3739,
      "ĠzlÃ©": 3740,
      "Ġletu": 3741,
      "ĠkvÄĽtem": 3742,
      "Ġnikde": 3743,
      "amÄĽ": 3744,
      "ĠpÅĻedu": 3745,
      "ĠtÄĽÅ¾ce": 3746,
      "ĠmrtvÃ½ch": 3747,
      "ÅĪte": 3748,
      "ĠrÃ¡nu": 3749,
      "hajÃŃ": 3750,
      "bÃ¡ch": 3751,
      "ĠpÅ¯va": 3752,
      "stupu": 3753,
      "krÃ¡s": 3754,
      "Ġzdali": 3755,
      "Ġzim": 3756,
      "Ġoblak": 3757,
      "Ġdechem": 3758,
      "cenÃ©": 3759,
      "Ġvnu": 3760,
      "Ġoda": 3761,
      "nali": 3762,
      "bel": 3763,
      "padÃ¡": 3764,
      "Ġeme": 3765,
      "ĠdÃŃvky": 3766,
      "ĠzÃ¡pad": 3767,
      "Ġbolu": 3768,
      "ĠpromÄĽ": 3769,
      "Äįiny": 3770,
      "ĠÅ¡iro": 3771,
      "Ġsluch": 3772,
      "ĠjimÅ¾": 3773,
      "ĠÅĻekla": 3774,
      "ĠnÃŃk": 3775,
      "ĠbratÅĻi": 3776,
      "Ġesa": 3777,
      "Ġsluncem": 3778,
      "ĠvyprÃ¡": 3779,
      "ĠaÅ¡ÃŃ": 3780,
      "ĠovÄĽ": 3781,
      "ĠÄĽtÅ¯": 3782,
      "ĠÃ¡sy": 3783,
      "ĠbÄĽd": 3784,
      "Ġunaven": 3785,
      "ĠhledÄĽl": 3786,
      "ĠbÃ¡j": 3787,
      "Ġvoda": 3788,
      "ĠrytÃŃÅĻ": 3789,
      "ĠlnÃ©": 3790,
      "ĠocÃŃ": 3791,
      "ĠvrÃ¡tÃŃ": 3792,
      "ĠzlÃŃ": 3793,
      "Ġprahu": 3794,
      "Ġula": 3795,
      "Ġkom": 3796,
      "ĠbÃ½val": 3797,
      "lenÃ½": 3798,
      "ĠknÄĽz": 3799,
      "ĠÅ¾as": 3800,
      "ĠspÃŃÅ¡": 3801,
      "venÃŃ": 3802,
      "Ġjeli": 3803,
      "lovÃ©": 3804,
      "ĠuÅ¡": 3805,
      "Ġjakou": 3806,
      "ĠmnohÃ©": 3807,
      "chÃ©": 3808,
      "tili": 3809,
      "Ġnero": 3810,
      "ĠpamÃ¡": 3811,
      "Å¾nÃ©": 3812,
      "Ġkvetou": 3813,
      "ĠbloudÃŃ": 3814,
      "fi": 3815,
      "ĠneznÃ¡": 3816,
      "Ġpust": 3817,
      "vÃ¡Å¡": 3818,
      "ĠmÃ¡te": 3819,
      "Ġslune": 3820,
      "ĠhrdÄĽ": 3821,
      "Ġdnu": 3822,
      "ĠdÃŃlo": 3823,
      "Ġvzde": 3824,
      "ĠnemÄĽl": 3825,
      "Ġneroz": 3826,
      "ĠÃŃhÃ¡": 3827,
      "ĠvÄĽÅĻÃŃ": 3828,
      "Ġbod": 3829,
      "ĠtÅĻese": 3830,
      "ĠÄįnÃ©": 3831,
      "ĠdÅĻÃŃmÃ¡": 3832,
      "Ġsnem": 3833,
      "Ġvlna": 3834,
      "Ġvzpla": 3835,
      "Ġzraku": 3836,
      "Ġvstal": 3837,
      "ĠumÄĽnÃŃ": 3838,
      "zuje": 3839,
      "ĠstÄĽny": 3840,
      "Ġrtech": 3841,
      "Ġdno": 3842,
      "Ġnaposled": 3843,
      "peÅ¾": 3844,
      "ĠleÅ¾": 3845,
      "Ġsvatou": 3846,
      "Ġ1843": 3847,
      "ĠmocnÄĽ": 3848,
      "ĠlidskÃ½": 3849,
      "kra": 3850,
      "Ġoud": 3851,
      "ĠbledÃ½": 3852,
      "Ġcem": 3853,
      "Ġnitru": 3854,
      "ĠplÃ©": 3855,
      "lin": 3856,
      "ĠprovÃ¡": 3857,
      "ĠnemÅ¯Å¾e": 3858,
      "ĠdÄĽcko": 3859,
      "Ġdna": 3860,
      "Ġchod": 3861,
      "ĠcÃŃm": 3862,
      "ĠhalÃŃ": 3863,
      "Ġkouzel": 3864,
      "ĠplÃ¡po": 3865,
      "telÃ©": 3866,
      "ĠÅĪadrech": 3867,
      "ĠÅ¾ebrÃ¡": 3868,
      "ĠpÅĻÃŃsa": 3869,
      "ĠvÅ¯ni": 3870,
      "Ã¡n": 3871,
      "ĠitÄĽ": 3872,
      "ĠÅ¾enou": 3873,
      "lep": 3874,
      "rek": 3875,
      "Ġmatce": 3876,
      "Ġchcem": 3877,
      "Å¡ko": 3878,
      "ĠrokÅ¯": 3879,
      "Ġjindy": 3880,
      "ĠÃ¡Å¾e": 3881,
      "tvo": 3882,
      "Ġmaje": 3883,
      "Ġzvuky": 3884,
      "ĠoÅ¾e": 3885,
      "ĠÄĽvu": 3886,
      "ĠÅ¡ti": 3887,
      "ĠÄĽÅĻÃŃ": 3888,
      "Ġdraho": 3889,
      "ĠbÃ¡snÃŃk": 3890,
      "ĠkaÅ¾dÃ©m": 3891,
      "ĠhÅĻmÃŃ": 3892,
      "ĠÃ¡vu": 3893,
      "Ġpouta": 3894,
      "ĠnepÅĻe": 3895,
      "pÄĽt": 3896,
      "Ġzar": 3897,
      "vÃ¡ch": 3898,
      "Ġluny": 3899,
      "Ġdok": 3900,
      "Ġvelko": 3901,
      "ĠvaÅ¡ÃŃ": 3902,
      "Ã¡l": 3903,
      "ĠradostÃŃ": 3904,
      "Ġplna": 3905,
      "ĠmlÄįky": 3906,
      "Ġpanen": 3907,
      "Ġneod": 3908,
      "Ġyje": 3909,
      "Å¾ka": 3910,
      "Ġnajde": 3911,
      "Ġjitra": 3912,
      "Ġstane": 3913,
      "Ġ1965": 3914,
      "ĠdÃ½Å¡e": 3915,
      "gu": 3916,
      "Ġvyvo": 3917,
      "Ġslovy": 3918,
      "Ġomy": 3919,
      "stro": 3920,
      "ĠtÄĽÅ¾ko": 3921,
      "Ġvzduchem": 3922,
      "Ġmimo": 3923,
      "ĠlnÃŃ": 3924,
      "Ġmodra": 3925,
      "Ġznal": 3926,
      "Ġber": 3927,
      "ĠsÃŃÅĪ": 3928,
      "ĠumÃŃrÃ¡": 3929,
      "Ġzhou": 3930,
      "nuly": 3931,
      "pot": 3932,
      "ĠmÄĽst": 3933,
      "ĠvÃŃra": 3934,
      "ĠÅĻem": 3935,
      "Äįkem": 3936,
      "ĠÄĽtÄĽ": 3937,
      "Ġrozm": 3938,
      "ĠseÅĪ": 3939,
      "ĠÄĽku": 3940,
      "Ġitu": 3941,
      "ĠtemnÄĽ": 3942,
      "ĠpoznÃ¡": 3943,
      "ĠprosÃŃm": 3944,
      "Ġ1832": 3945,
      "nÄĽnÃŃ": 3946,
      "Ġstez": 3947,
      "ĠchvÄĽl": 3948,
      "Ġvan": 3949,
      "Ġsvad": 3950,
      "ĠupomÃŃ": 3951,
      "Ġeta": 3952,
      "ĠjÃŃc": 3953,
      "ĠpÄĽknÄĽ": 3954,
      "tÃ¡nÃŃ": 3955,
      "voucÃŃ": 3956,
      "Ġkost": 3957,
      "ĠÅ¾Ã¡dnÃ©": 3958,
      "ĠsbÃŃ": 3959,
      "Ġstarou": 3960,
      "zek": 3961,
      "ĠtmavÃ©": 3962,
      "ĠlÃŃbe": 3963,
      "Ġtmou": 3964,
      "Ġspanil": 3965,
      "Ġsladkou": 3966,
      "livÃ©": 3967,
      "Ġkoho": 3968,
      "ĠmlÃ½": 3969,
      "ĠmocÃŃ": 3970,
      "ĠptÃ¡Äįe": 3971,
      "ĠkoneÄįnÄĽ": 3972,
      "AD": 3973,
      "ĠpoÅ¾Ã¡": 3974,
      "ĠelÃ¡": 3975,
      "Ġdosta": 3976,
      "Ġodkud": 3977,
      "Å¾ky": 3978,
      "Ġvp": 3979,
      "Ġlidi": 3980,
      "sÃŃch": 3981,
      "Ġlodi": 3982,
      "Ġhraje": 3983,
      "Ġemu": 3984,
      "ĠsmÄĽje": 3985,
      "Ġahu": 3986,
      "ĠnaÅ¡el": 3987,
      "ĠlÅ¯Å¾": 3988,
      "ĠpozdÄĽ": 3989,
      "Ġdobu": 3990,
      "Äıte": 3991,
      "ĠnovÃ½ch": 3992,
      "ĠmÅ¯Å¾": 3993,
      "ĠosÃŃ": 3994,
      "Ġvej": 3995,
      "Ġhorou": 3996,
      "ĠbohÅ¯": 3997,
      "Ġ1847": 3998,
      "ĠsvÄĽty": 3999,
      "chom": 4000,
      "Ġvelmi": 4001,
      "ĠvelikÃ½": 4002,
      "lk": 4003,
      "tnÃ¡": 4004,
      "Ġdnem": 4005,
      "tÃ¡n": 4006,
      "ĠneÅ¡Å¥ast": 4007,
      "Ġnebem": 4008,
      "ĠdÃŃvÄįÃŃ": 4009,
      "Ġkade": 4010,
      "Ġopat": 4011,
      "Ġchleba": 4012,
      "dru": 4013,
      "osti": 4014,
      "vel": 4015,
      "ĠsnÄĽhu": 4016,
      "ĠztrÃ¡cÃŃ": 4017,
      "lejÅ¡ÃŃ": 4018,
      "nÃ¡Å¡e": 4019,
      "bec": 4020,
      "Ġlku": 4021,
      "ĠtrÃ½": 4022,
      "ĠjinÃŃ": 4023,
      "Ġostat": 4024,
      "Ġkruh": 4025,
      "blÃŃ": 4026,
      "kry": 4027,
      "liv": 4028,
      "ĠynÃŃ": 4029,
      "ĠpohÅĻ": 4030,
      "ĠvÅ¯j": 4031,
      "Ġaha": 4032,
      "ĠutÄĽ": 4033,
      "ĠbudiÅ¾": 4034,
      "ĠÅ¾ivotem": 4035,
      "Ġpoznal": 4036,
      "nkou": 4037,
      "Ġskoro": 4038,
      "ĠÄĽst": 4039,
      "hnul": 4040,
      "ĠvÃ¡n": 4041,
      "pila": 4042,
      "hlÃ½": 4043,
      "ÄįnÃ½ch": 4044,
      "host": 4045,
      "ckÃ½ch": 4046,
      "bila": 4047,
      "ĠvÃ¡Å¡nÄĽ": 4048,
      "Ġjazyk": 4049,
      "Ġbarev": 4050,
      "ĠvÃŃna": 4051,
      "ÅĻenÃ½": 4052,
      "sÃ½": 4053,
      "ĠvrÃ¡til": 4054,
      "ĠpÅĻÃ¡nÃŃ": 4055,
      "ĠchÃ½lÃŃ": 4056,
      "Ġchas": 4057,
      "ĠpoÅĻÃ¡": 4058,
      "nilo": 4059,
      "ĠbÄĽh": 4060,
      "Ġpoesi": 4061,
      "ĠdivnÃ©": 4062,
      "ĠlesnÃŃ": 4063,
      "ĠmladÃŃ": 4064,
      "ĠvÄĽÅ¾e": 4065,
      "Ġpano": 4066,
      "tnou": 4067,
      "koj": 4068,
      "Ġkos": 4069,
      "Ġprst": 4070,
      "ĠdÃ¡ti": 4071,
      "ĠprÃ¡vo": 4072,
      "Ġstran": 4073,
      "Ġzvony": 4074,
      "ĠdivÃ½": 4075,
      "Ġlesem": 4076,
      "ĠnÄĽkde": 4077,
      "Ġhroby": 4078,
      "sle": 4079,
      "ĠsvÄĽtÅ¯": 4080,
      "Ġpromlu": 4081,
      "Ġnesmr": 4082,
      "Ġnemoc": 4083,
      "hlo": 4084,
      "ĠzÃ¡vra": 4085,
      "ĠposmÄĽ": 4086,
      "ĠÄĽch": 4087,
      "ĠhorÃ¡ch": 4088,
      "Ġmatku": 4089,
      "ĠtnÃ½": 4090,
      "Ġmate": 4091,
      "ĠveÄįera": 4092,
      "vyÅ¡": 4093,
      "Ġstranou": 4094,
      "Ġvzdor": 4095,
      "ĠplÃ¡Äįi": 4096,
      "Ġozdo": 4097,
      "Ġztich": 4098,
      "ovÃ©": 4099,
      "ĠilÃ©": 4100,
      "Ġece": 4101,
      "Ġnoha": 4102,
      "viti": 4103,
      "ĠpÅĻÃŃval": 4104,
      "ĠmeÄįem": 4105,
      "ĠmÅĻÃŃ": 4106,
      "ckni": 4107,
      "ĠdÄĽji": 4108,
      "ĠtvÅ¯": 4109,
      "ĠslavnÃ½": 4110,
      "Å¾nÄĽ": 4111,
      "ĠpÅĻipra": 4112,
      "ĠzÅĻÃŃt": 4113,
      "ĠvÅ¡ickni": 4114,
      "Ġspraved": 4115,
      "kÃ¡n": 4116,
      "tat": 4117,
      "Ġzkou": 4118,
      "Ġmili": 4119,
      "ĠvÄĽÄįnosti": 4120,
      "Ġholubi": 4121,
      "ĠrÃ½m": 4122,
      "Ġrud": 4123,
      "ot": 4124,
      "Ġoken": 4125,
      "rÃ¡tÃŃ": 4126,
      "Ġdom": 4127,
      "covÃ©": 4128,
      "ĠÃºÅ¾as": 4129,
      "ĠjÃŃti": 4130,
      "cenÃ½": 4131,
      "Ġvichr": 4132,
      "tÅĻÃŃ": 4133,
      "ĠlÃ½m": 4134,
      "ĠvidÃŃÅ¡": 4135,
      "ĠÅĪÃ¡": 4136,
      "hnout": 4137,
      "ĠuhÃ½": 4138,
      "bek": 4139,
      "ĠnnÃ©": 4140,
      "ĠdnÃ¡": 4141,
      "ĠokÃ©": 4142,
      "ĠvÄĽtru": 4143,
      "ĠÃ¡Å¾ÃŃ": 4144,
      "ĠkÃ©m": 4145,
      "Ġesu": 4146,
      "kali": 4147,
      "ĠbolÃŃ": 4148,
      "ĠicÃŃ": 4149,
      "ĠnemÃ¡m": 4150,
      "ĠtajemstvÃŃ": 4151,
      "ena": 4152,
      "Ġdavy": 4153,
      "Äįa": 4154,
      "Ġneho": 4155,
      "ĠnechÃ¡": 4156,
      "Ġotci": 4157,
      "ĠschvÃ¡": 4158,
      "ÄįÅ¯": 4159,
      "ĠpravÃ½": 4160,
      "kÅ¯v": 4161,
      "Ġdruhdy": 4162,
      "Å¾nÃ½": 4163,
      "Å¡enÃ©": 4164,
      "ĠhrÅ¯zy": 4165,
      "ĠnÃ¡dher": 4166,
      "ĠzpÃŃval": 4167,
      "Ġukry": 4168,
      "Ġkmet": 4169,
      "zÃ½": 4170,
      "Ġprv": 4171,
      "Ġtvor": 4172,
      "ĠsmrtÃŃ": 4173,
      "kaly": 4174,
      "ĠvojÃ¡": 4175,
      "ost": 4176,
      "ĠÃ¡se": 4177,
      "ĠslavnÄĽ": 4178,
      "ĠvÄĽtvÃŃ": 4179,
      "ĠkaÅ¾dÃ½m": 4180,
      "Å¡a": 4181,
      "ĠÅ¡pat": 4182,
      "ĠmÄĽstÄĽ": 4183,
      "Ġhym": 4184,
      "ĠsÃŃm": 4185,
      "ĠtmÄĽ": 4186,
      "rajÃŃ": 4187,
      "ĠdÄĽj": 4188,
      "ĠkÅĻÃŃÅ¾e": 4189,
      "ĠtÃŃÅ¾ÃŃ": 4190,
      "jme": 4191,
      "kej": 4192,
      "stat": 4193,
      "ĠrudÃ½": 4194,
      "ĠÃºt": 4195,
      "ĠÅĻeka": 4196,
      "ĠlaÅĪ": 4197,
      "Ġ1853": 4198,
      "Ġebi": 4199,
      "has": 4200,
      "mat": 4201,
      "mek": 4202,
      "Ġplnou": 4203,
      "Ġmusil": 4204,
      "Ġctnost": 4205,
      "ĠmeÄįe": 4206,
      "Ġobzor": 4207,
      "Ġbrou": 4208,
      "Ġzima": 4209,
      "Ġprudce": 4210,
      "ĠvÅ¡ady": 4211,
      "benÃŃ": 4212,
      "ĠÄĽvy": 4213,
      "Ġkdybych": 4214,
      "Ġmramo": 4215,
      "Ġnevz": 4216,
      "Ġbudem": 4217,
      "ĠstÃŃnÅ¯": 4218,
      "ĠpÃŃt": 4219,
      "vosti": 4220,
      "Å¾ÃŃÅ¡": 4221,
      "ĠusmÃ¡": 4222,
      "Ġpoklad": 4223,
      "zpe": 4224,
      "bÃ¡m": 4225,
      "ĠeÄįe": 4226,
      "ĠmÃ©mu": 4227,
      "Ġdceru": 4228,
      "Ġproudy": 4229,
      "nuv": 4230,
      "Ġspu": 4231,
      "Ġnejsem": 4232,
      "Ġdlouhou": 4233,
      "ABABC": 4234,
      "ĠposlÃ©z": 4235,
      "kva": 4236,
      "Ġlisty": 4237,
      "krÃ¡te": 4238,
      "Ġkristu": 4239,
      "ĠÃºdolÃŃ": 4240,
      "Ġvine": 4241,
      "lÃ¡nÃŃ": 4242,
      "ĠoÄįima": 4243,
      "vÅ¡ak": 4244,
      "Ġlok": 4245,
      "ĠnepÅĻÃ¡tel": 4246,
      "lec": 4247,
      "Ġuji": 4248,
      "Ġlaho": 4249,
      "ĠosamÄĽ": 4250,
      "Ġhmo": 4251,
      "ĠpÃ¡lÃŃ": 4252,
      "ĠtnÃ¡": 4253,
      "ĠpodÃŃ": 4254,
      "ĠeÄįi": 4255,
      "ĠlÃ¡n": 4256,
      "ĠnÃ¡ruÄįÃŃ": 4257,
      "ĠnosÃŃ": 4258,
      "ĠpÃ¡d": 4259,
      "Ġkryje": 4260,
      "ĠsplÃ½vÃ¡": 4261,
      "Ġstolu": 4262,
      "uk": 4263,
      "Ġatu": 4264,
      "ĠchlÃ©b": 4265,
      "ĠvÄĽnec": 4266,
      "ĠprostÅĻed": 4267,
      "ĠnnÃŃ": 4268,
      "Ġjitro": 4269,
      "lÃ©tÃ¡": 4270,
      "ĠkrÃ¡Äįel": 4271,
      "ĠÅĻetÄĽ": 4272,
      "bro": 4273,
      "ene": 4274,
      "Ġdro": 4275,
      "ĠÅ¡em": 4276,
      "ĠstaÄįÃŃ": 4277,
      "ĠdlanÃŃ": 4278,
      "Ġazu": 4279,
      "ĠumÄĽ": 4280,
      "ĠtajÃŃ": 4281,
      "ĠlidskÃ½ch": 4282,
      "ĠnÄĽmÃ½": 4283,
      "ĠptaÄįÃŃ": 4284,
      "Ġnapl": 4285,
      "Ġvzk": 4286,
      "ĠtemnÃ½": 4287,
      "Ġhlubin": 4288,
      "ÅĪat": 4289,
      "ĠslavnÃ©": 4290,
      "Ġule": 4291,
      "ĠsedÄĽl": 4292,
      "dova": 4293,
      "Ġvykou": 4294,
      "ĠvlasÅ¯": 4295,
      "ĠÃŃÅĻÃŃ": 4296,
      "dovÃ©": 4297,
      "Ġkrvi": 4298,
      "Ġpropast": 4299,
      "Ġstal": 4300,
      "Ġzdr": 4301,
      "ĠblÃŃzko": 4302,
      "Ġzapomen": 4303,
      "tvÃ¡": 4304,
      "Ġtk": 4305,
      "ĠrodÃŃ": 4306,
      "ĠnÄĽl": 4307,
      "ĠtvoÅĻÃŃ": 4308,
      "Ġzacho": 4309,
      "ĠvÅ¯dce": 4310,
      "Ġryt": 4311,
      "ĠsprÃ¡": 4312,
      "Ġpadne": 4313,
      "ĠskÃ¡la": 4314,
      "ĠvelkÃ½ch": 4315,
      "ĠavÅ¡ak": 4316,
      "rÃ©ho": 4317,
      "mÃŃr": 4318,
      "ĠprÃ¡va": 4319,
      "ĠslzÃŃ": 4320,
      "Ġprapor": 4321,
      "ĠudÃ©": 4322,
      "Ġtehdy": 4323,
      "ge": 4324,
      "jÃŃcÃŃm": 4325,
      "Ġ1956": 4326,
      "cuje": 4327,
      "znÃ¡": 4328,
      "sila": 4329,
      "ĠpalÃ¡": 4330,
      "Ġnesmrtel": 4331,
      "ĠjÃ¡so": 4332,
      "ĠdlouhÃ¡": 4333,
      "ÅĻad": 4334,
      "Ġca": 4335,
      "ĠduchÅ¯": 4336,
      "Ġosi": 4337,
      "Ġeba": 4338,
      "menÃŃ": 4339,
      "Ġulo": 4340,
      "ĠÃ¡hy": 4341,
      "ĠdÃŃval": 4342,
      "Ġkouzlo": 4343,
      "Ġtkli": 4344,
      "Ġara": 4345,
      "ga": 4346,
      "ĠnejvyÅ¡": 4347,
      "Ġvane": 4348,
      "ĠÅ¡tÃŃt": 4349,
      "ĠinÃ½": 4350,
      "ĠÄįko": 4351,
      "ĠÃ¡ji": 4352,
      "nily": 4353,
      "Ġkop": 4354,
      "Ġpouti": 4355,
      "ĠÄįervÃ¡n": 4356,
      "ĠsamÃ©": 4357,
      "Ġtvoji": 4358,
      "Ġzmizel": 4359,
      "ĠtnÄĽ": 4360,
      "Ġmrou": 4361,
      "rÃ¡l": 4362,
      "ĠkÅĻik": 4363,
      "ĠchladnÃ©": 4364,
      "ĠhnÄĽvu": 4365,
      "ĠÄįemu": 4366,
      "tud": 4367,
      "?...": 4368,
      "Ġdly": 4369,
      "ĠdlanÄĽ": 4370,
      "Ġnebezpe": 4371,
      "Ġvzte": 4372,
      "Ġyly": 4373,
      "ĠÄįasÅ¯": 4374,
      "Ġ1840": 4375,
      "ĠvelkÃ½m": 4376,
      "ĠstraÅ¡": 4377,
      "Ġzaz": 4378,
      "ĠrnÄĽ": 4379,
      "ĠanÃ¡": 4380,
      "ĠalÃ¡": 4381,
      "ĠzpÄĽvu": 4382,
      "ĠcitÅ¯": 4383,
      "ĠkÅ¯ÅĪ": 4384,
      "slav": 4385,
      "Ġhni": 4386,
      "ĠozvÄĽ": 4387,
      "20": 4388,
      "ĠnÃŃh": 4389,
      "ÄįnÃ½m": 4390,
      "vanÃ½": 4391,
      "ĠÅĻÃŃtÃŃ": 4392,
      "ĠpÃ½": 4393,
      "Å¾ili": 4394,
      "ĠtrÃ¡vÄĽ": 4395,
      "Ġad": 4396,
      "Ġobrov": 4397,
      "ĠdÃ¡n": 4398,
      "Ġhed": 4399,
      "ĠdrÅ¾ÃŃ": 4400,
      "ĠstaÅĻec": 4401,
      "ĠjinÃ¡": 4402,
      "ĠhnÃ¡": 4403,
      "ĠitÃ¡": 4404,
      "Ġzel": 4405,
      "Ġ1845": 4406,
      "bla": 4407,
      "ĠvÄĽku": 4408,
      "Ġvyr": 4409,
      "ĠÄįistÃ½": 4410,
      "ĠchovÃ¡": 4411,
      "ĠmocnÃ½": 4412,
      "ĠmotÃ½l": 4413,
      "ĠÃ½m": 4414,
      "ĠÅ¡edÃ©": 4415,
      "Ġdlu": 4416,
      "Ġ1830": 4417,
      "ĠsnÃ½": 4418,
      "Å¾em": 4419,
      "vede": 4420,
      "ACCD": 4421,
      "ĠtÄĽchto": 4422,
      "ĠatÄĽ": 4423,
      "nÃŃkÅ¯": 4424,
      "ĠdveÅĻÃŃ": 4425,
      "Ġprokle": 4426,
      "Ġjev": 4427,
      "Ġplanou": 4428,
      "ĠdeÅ¡tÄĽ": 4429,
      "Ġrob": 4430,
      "Ġrce": 4431,
      "Ġvyje": 4432,
      "Ġfan": 4433,
      "ĠmyÅ¡lenky": 4434,
      "ĠmnÃ©": 4435,
      "ĠdivnÃ½": 4436,
      "ĠspÃ¡nku": 4437,
      "ĠvÃ¡Å¾nÄĽ": 4438,
      "XABA": 4439,
      "ĠjÃ¡sa": 4440,
      "Ġpur": 4441,
      "ĠjemnÄĽ": 4442,
      "Ġznak": 4443,
      "Ġusta": 4444,
      "ĠazÃŃ": 4445,
      "Ġskle": 4446,
      "skal": 4447,
      "ĠÅ¾es": 4448,
      "Ġhledal": 4449,
      "ĠzÃ¡voj": 4450,
      "Å¾ela": 4451,
      "Ġmas": 4452,
      "ĠÅ¡eru": 4453,
      "cu": 4454,
      "ĠpravÃ©": 4455,
      "Ġcel": 4456,
      "Ġlaska": 4457,
      "ĠvroucnÄĽ": 4458,
      "ĠsnÃ¡ch": 4459,
      "Ġznamen": 4460,
      "vici": 4461,
      "ĠÅ¡pi": 4462,
      "Ġytu": 4463,
      "Ġvrah": 4464,
      "ĠkÅĻÃŃdel": 4465,
      "Ġpora": 4466,
      "Ġucho": 4467,
      "Ġhoto": 4468,
      "Ġsat": 4469,
      "vech": 4470,
      "ĠrozechvÄĽ": 4471,
      "Ġbru": 4472,
      "rav": 4473,
      "Ġpovo": 4474,
      "Ġkola": 4475,
      "ĠnadÄĽj": 4476,
      "ĠvÄĽtve": 4477,
      "Ġkrajem": 4478,
      "ĠstÅĻedu": 4479,
      "klÃ¡": 4480,
      "Ġnaho": 4481,
      "ĠchudÃ©": 4482,
      "ĠhÃ¡je": 4483,
      "pÃ©": 4484,
      "ĠbÃŃdy": 4485,
      "ĠtÄĽÅ¾kÃ¡": 4486,
      "ĠnadÄĽjÃŃ": 4487,
      "ĠjeÅ¥": 4488,
      "Ġstopy": 4489,
      "Äįte": 4490,
      "ĠÅ¾Ã¡dÃ¡": 4491,
      "XAXBXB": 4492,
      "ĠÅ¡ku": 4493,
      "ĠupÅĻÃŃm": 4494,
      "ĠstÃ¡ti": 4495,
      "ĠvÃ¡Å¡ni": 4496,
      "Ġora": 4497,
      "Ġnesta": 4498,
      "kami": 4499,
      "Ġmohla": 4500,
      "ĠtÄĽlem": 4501,
      "Ġpekel": 4502,
      "ĠÃŃna": 4503,
      "vek": 4504,
      "Ġmet": 4505,
      "ĠvÃŃtÄĽzstvÃŃ": 4506,
      "ĠsvÄĽtel": 4507,
      "ĠsvÃŃrÃ¡": 4508,
      "ĠbratÅĻe": 4509,
      "rÃ½vÃ¡": 4510,
      "Ġalu": 4511,
      "ĠmnÃŃ": 4512,
      "Ġzaho": 4513,
      "ĠpÅĻiÅ¡li": 4514,
      "ĠplÃŃ": 4515,
      "Ġlabu": 4516,
      "ĠtrÅ¯nu": 4517,
      "ĠÅ¾hou": 4518,
      "ĠvÄĽrnÄĽ": 4519,
      "Äįili": 4520,
      "pÃŃnÃ¡": 4521,
      "Ġharf": 4522,
      "ĠpÅĻelu": 4523,
      "dost": 4524,
      "ĠvÄĽtrem": 4525,
      "Ġtri": 4526,
      "ABAX": 4527,
      "Ġkarel": 4528,
      "Ġvzru": 4529,
      "Ġheb": 4530,
      "rovna": 4531,
      "Ġpomoci": 4532,
      "Å¡ly": 4533,
      "ĠuÅĻÃŃ": 4534,
      "84": 4535,
      "dnÃ½m": 4536,
      "vky": 4537,
      "Ġ1984": 4538,
      "ĠÃŃlÃ©": 4539,
      "Äįce": 4540,
      "ĠÄįar": 4541,
      "ÅĪo": 4542,
      "Ġpadla": 4543,
      "ĠvaÅ¡ich": 4544,
      "ĠnuÅ¾e": 4545,
      "Ġkvete": 4546,
      "Ġvzdych": 4547,
      "dro": 4548,
      "ĠtuÅ¡ÃŃ": 4549,
      "ĠobÄĽÅ¥": 4550,
      "Ġrti": 4551,
      "Ġduchem": 4552,
      "ĠzÅ¯stal": 4553,
      "ĠzÃ¡kon": 4554,
      "ĠrnÃŃ": 4555,
      "ĠrodnÃ©": 4556,
      "ĠdivÃ©": 4557,
      "Ġklade": 4558,
      "Ġtouze": 4559,
      "ĠzamyÅ¡": 4560,
      "ĠzÃ¡ha": 4561,
      "ĠodpovÃŃ": 4562,
      "Ġdotk": 4563,
      "loudil": 4564,
      "lenou": 4565,
      "Ġznaven": 4566,
      "letÄĽ": 4567,
      "Ġstav": 4568,
      "ĠpotÅĻe": 4569,
      "ĠbrÃ¡ny": 4570,
      "ĠaÅĻÃŃ": 4571,
      "ĠlÃŃÅ¾": 4572,
      "ĠusmÃŃvÃ¡": 4573,
      "ĠdivÃ¡": 4574,
      "Ġmilou": 4575,
      "ĠsvÅ¯": 4576,
      "Ġeji": 4577,
      "kov": 4578,
      "ĠjednÃŃm": 4579,
      "Ġkrista": 4580,
      "ÄįkÃ¡": 4581,
      "Ġ1860": 4582,
      "ĠkrÃ¡sou": 4583,
      "ĠtmÃ¡ch": 4584,
      "Ġvyko": 4585,
      "Ġtaky": 4586,
      "Ġodva": 4587,
      "ĠsvÄĽd": 4588,
      "ĠonÃ©": 4589,
      "Ġoma": 4590,
      "Ġdrahou": 4591,
      "Ġ1948": 4592,
      "ĠbÃŃda": 4593,
      "ĠtrÅ¯n": 4594,
      "ĠnÃ¡dhe": 4595,
      "ĠÅ¡lo": 4596,
      "lej": 4597,
      "Ġri": 4598,
      "ĠÅ¡ka": 4599,
      "ĠdÃ½chÃ¡": 4600,
      "ÅĻili": 4601,
      "ĠloÅ¾i": 4602,
      "ĠÃ¡sÃ¡": 4603,
      "ĠdÃ¡vnÃ½ch": 4604,
      "slÃŃ": 4605,
      "Ġtko": 4606,
      "Ġpodi": 4607,
      "ĠodvÃ¡": 4608,
      "Ġrat": 4609,
      "ĠÅĻec": 4610,
      "ĠtÃ¡t": 4611,
      "Ġhluk": 4612,
      "Ġmem": 4613,
      "Ġumu": 4614,
      "ĠlidskÃ¡": 4615,
      "AXXA": 4616,
      "ĠkÅĻo": 4617,
      "ĠhÅ¯": 4618,
      "rozen": 4619,
      "kost": 4620,
      "ĠynÄĽ": 4621,
      "Ġstromu": 4622,
      "ĠtÃ¡hnou": 4623,
      "Ġjesti": 4624,
      "Ġzahy": 4625,
      "rie": 4626,
      "Ġhi": 4627,
      "ĠuhÃ¡": 4628,
      "ĠÃŃra": 4629,
      "ĠÅ¾elez": 4630,
      "ĠpracÃŃ": 4631,
      "hÃ¡ch": 4632,
      "ĠskÃ¡le": 4633,
      "ĠÅĻady": 4634,
      "ĠdvÃ©ÅĻe": 4635,
      "ĠjinÃ½m": 4636,
      "Ġvolal": 4637,
      "ĠvÃ½kÅĻik": 4638,
      "ĠtuÅ¾": 4639,
      "ĠtÄĽÅ¡ÃŃ": 4640,
      "ĠzdaÅ¾": 4641,
      "Ġivy": 4642,
      "ĠvichÅĻi": 4643,
      "ĠskrÃ½vÃ¡": 4644,
      "Ġoknem": 4645,
      "ĠvzÃŃ": 4646,
      "ĠvznÃ¡Å¡ÃŃ": 4647,
      "ĠÄįernou": 4648,
      "Ġdavu": 4649,
      "sli": 4650,
      "ĠpÅĻil": 4651,
      "ĠakÅ¯": 4652,
      "ĠahÃ½": 4653,
      "ĠvzrÅ¯": 4654,
      "ĠstÅĻÃŃbro": 4655,
      "Ġbolem": 4656,
      "ĠbÃ¡je": 4657,
      "Ġzbled": 4658,
      "jdu": 4659,
      "ĠmoÅĻem": 4660,
      "ĠÃ©tÃ¡": 4661,
      "ĠÅ¾alÃ¡": 4662,
      "Ġ1805": 4663,
      "Ġpurpu": 4664,
      "Ġaze": 4665,
      "dÄĽti": 4666,
      "Ġtyto": 4667,
      "ĠÅ¯ru": 4668,
      "ĠhrÅ¯za": 4669,
      "ĠdÃ©Å¡Å¥": 4670,
      "ĠokamÅ¾ik": 4671,
      "ĠvstÃ¡vÃ¡": 4672,
      "ĠikÃ¡": 4673,
      "ĠsvÄĽtlem": 4674,
      "ĠkrÃ¡snou": 4675,
      "Ġpozdrav": 4676,
      "Ġkolik": 4677,
      "ĠpÃ¡nu": 4678,
      "Ġstisk": 4679,
      "chod": 4680,
      "Ġtur": 4681,
      "ĠvelikÃ©": 4682,
      "Ġsnil": 4683,
      "lid": 4684,
      "rÃ¡t": 4685,
      "Äįela": 4686,
      "Ġradu": 4687,
      "lÃ¡k": 4688,
      "set": 4689,
      "ĠvÄĽÄįnÃ¡": 4690,
      "Ġmladi": 4691,
      "ĠÃ¡ry": 4692,
      "ĠlnÄĽ": 4693,
      "kovi": 4694,
      "ĠkterÃ½m": 4695,
      "ĠÅ¾ivÃ©": 4696,
      "ĠÅĻÃŃÅ¡i": 4697,
      "ĠÃŃjÃŃ": 4698,
      "ĠmÃ¡ti": 4699,
      "Ġ1870": 4700,
      "Ġmech": 4701,
      "tily": 4702,
      "ÄįenÃ©": 4703,
      "ĠchvÄĽla": 4704,
      "ĠÄıas": 4705,
      "ĠkÃ½vÃ¡": 4706,
      "Ġuha": 4707,
      "ĠvÄĽÅ¾ÃŃ": 4708,
      "Ġmuk": 4709,
      "Ġ1864": 4710,
      "ĠzvÄĽst": 4711,
      "AABA": 4712,
      "Ġpit": 4713,
      "ĠbdÃŃ": 4714,
      "ĠplÃ¡Å¡Å¥": 4715,
      "Ġplyne": 4716,
      "ĠsÃ½": 4717,
      "ĠÄĽru": 4718,
      "Ġspokojen": 4719,
      "ĠsedÃ¡": 4720,
      "Å¾et": 4721,
      "Ġdneska": 4722,
      "ĠkÃ¡Å¾e": 4723,
      "ĠnejvÃŃc": 4724,
      "Ġrosa": 4725,
      "ĠpÅĻÃŃrody": 4726,
      "ĠaÅ¾ÃŃ": 4727,
      "Ġsve": 4728,
      "nili": 4729,
      "Ġsmutno": 4730,
      "ĠplnÃ¡": 4731,
      "ĠpoÅ¡": 4732,
      "ĠmÃŃstÄĽ": 4733,
      "ĠmanÄĽ": 4734,
      "ĠsmutnÃ¡": 4735,
      "jÃŃcÃ½": 4736,
      "ĠspoleÄį": 4737,
      "ĠÅ¡pe": 4738,
      "Ġspa": 4739,
      "Ġumy": 4740,
      "ĠmladÃ½ch": 4741,
      "zÃ¡ch": 4742,
      "ĠstoupÃ¡": 4743,
      "ĠÄĽnÃ©": 4744,
      "ĠvlÃ¡dne": 4745,
      "Ġpne": 4746,
      "rad": 4747,
      "ĠupÃ¡": 4748,
      "ĠmrtvÃ½": 4749,
      "ĠzbraÅĪ": 4750,
      "Ġpri": 4751,
      "Ġlal": 4752,
      "Ġplou": 4753,
      "ĠnÃ©": 4754,
      "dilo": 4755,
      "ĠstÃ¡li": 4756,
      "ĠnechtÄĽ": 4757,
      "Ġzdro": 4758,
      "vak": 4759,
      "ĠodmÄĽ": 4760,
      "Ġpanna": 4761,
      "ĠÄįnÃ½": 4762,
      "ĠpÅĻÃŃs": 4763,
      "ĠbÃŃdu": 4764,
      "Ġdcera": 4765,
      "Ġ1958": 4766,
      "Ġrodu": 4767,
      "Ġklobou": 4768,
      "ĠvÃ¡clav": 4769,
      "ĠchvÄĽjÃŃ": 4770,
      "ĠÄįarov": 4771,
      "Ġner": 4772,
      "ĠdÄĽlÃ¡": 4773,
      "ĠÃ©st": 4774,
      "Ġperly": 4775,
      "ĠkvÃŃlÃŃ": 4776,
      "ĠplnÃŃ": 4777,
      "ĠchladnÃ½": 4778,
      "jak": 4779,
      "Ġosy": 4780,
      "ĠtatÃŃ": 4781,
      "ameter": 4782,
      "nÅ¯m": 4783,
      "vro": 4784,
      "Ġdit": 4785,
      "ĠbolestÃŃ": 4786,
      "ĠÃºto": 4787,
      "ĠdennÃŃ": 4788,
      "ĠletÄĽ": 4789,
      "ĠÄįase": 4790,
      "Ġmluvit": 4791,
      "ĠÅĻada": 4792,
      "vÅ¡e": 4793,
      "ĠvnitÅĻ": 4794,
      "ĠpÃ¡s": 4795,
      "ĠchvÃŃlÃŃ": 4796,
      "Ġpokry": 4797,
      "ĠsmÃ¡l": 4798,
      "ĠnazpÄĽt": 4799,
      "lÃŃk": 4800,
      "Ġprsty": 4801,
      "ĠstÃ¡ÅĻÃŃ": 4802,
      "ĠcÃŃle": 4803,
      "Ġpomalu": 4804,
      "ĠÃŃdÃ¡": 4805,
      "ĠjejÃŃch": 4806,
      "Ġrosy": 4807,
      "nulo": 4808,
      "Ġmistr": 4809,
      "ĠchudÃ¡": 4810,
      "ÅĻenÃ¡": 4811,
      "mal": 4812,
      "Ġstanul": 4813,
      "ĠjÃ¡sÃ¡": 4814,
      "ĠpotÃ¡": 4815,
      "ĠÃºz": 4816,
      "ĠtnÃŃ": 4817,
      "Ġaru": 4818,
      "ĠÄįeho": 4819,
      "Ġoj": 4820,
      "AAAB": 4821,
      "tali": 4822,
      "ĠpÅĻÃŃmo": 4823,
      "Ġkruhu": 4824,
      "ĠmuÅ¾Å¯": 4825,
      "ĠvÅ¡udy": 4826,
      "Ġut": 4827,
      "ĠÃºdy": 4828,
      "ĠklÃŃnu": 4829,
      "Ġiky": 4830,
      "ĠvÄĽnce": 4831,
      "Ġmyslil": 4832,
      "ĠlÃ©pe": 4833,
      "Ġshas": 4834,
      "ĠzÃ¡padu": 4835,
      "Ġpop": 4836,
      "Ġjede": 4837,
      "Ġbyt": 4838,
      "ĠrÃ¡mÄĽ": 4839,
      "Ġnitro": 4840,
      "ĠhnÃŃzdo": 4841,
      "Ġdli": 4842,
      "rovÃ©": 4843,
      "Å¡eÅĪ": 4844,
      "ĠÃŃÅĻe": 4845,
      "ĠiÄįÃŃ": 4846,
      "hala": 4847,
      "Å¡enÃ½": 4848,
      "ĠzdÃŃ": 4849,
      "ĠdÃŃky": 4850,
      "rnÃ½m": 4851,
      "Ġuta": 4852,
      "ĠijÃŃ": 4853,
      "ĠsÃŃnÄĽ": 4854,
      "ĠjedinÃ¡": 4855,
      "Ġrozpu": 4856,
      "ĠzpÄĽvy": 4857,
      "ĠrozkoÅ¡e": 4858,
      "ĠmÃ½": 4859,
      "ĠvÄĽl": 4860,
      "Ġdumy": 4861,
      "ĠÄįekal": 4862,
      "ĠmnohÃ¡": 4863,
      "ĠÅ¾itÃŃm": 4864,
      "ĠstÅ¯l": 4865,
      "ĠpÃ¡nem": 4866,
      "ĠÄįinÃŃ": 4867,
      "Ġchlap": 4868,
      "Ġjinoch": 4869,
      "Ġuza": 4870,
      "ĠkonÃŃ": 4871,
      "Ġkosti": 4872,
      "ĠÅĻev": 4873,
      "ĠskrÃ¡nÃŃ": 4874,
      "ĠpamÄĽti": 4875,
      "Ġnemlu": 4876,
      "Ġvrch": 4877,
      "ĠÅ¾enÄĽ": 4878,
      "Ġletem": 4879,
      "Ġopoj": 4880,
      "vaje": 4881,
      "Ġspla": 4882,
      "Ġstin": 4883,
      "Ġnemoh": 4884,
      "zdy": 4885,
      "ĠdomÃ¡": 4886,
      "ĠmoÅĻ": 4887,
      "ĠptÃ¡kÅ¯": 4888,
      "Ġnejsou": 4889,
      "Ġgra": 4890,
      "ĠskrÃ¡nÄĽ": 4891,
      "Ġkot": 4892,
      "ĠÅ¾havÃ½": 4893,
      "ĠzbranÄĽ": 4894,
      "chÃ¡ch": 4895,
      "ĠdlouhÃ½ch": 4896,
      "Ġpor": 4897,
      "Ġrostou": 4898,
      "ĠtrÃ¡vy": 4899,
      "Ġzmize": 4900,
      "Ġobo": 4901,
      "Ġvida": 4902,
      "Ġpozo": 4903,
      "Ġpozor": 4904,
      "ĠmrakÅ¯": 4905,
      "ajÃŃ": 4906,
      "Ġsal": 4907,
      "ĠudÄĽ": 4908,
      "ĠÄįÃŃÅ¡e": 4909,
      "zÅ¯": 4910,
      "Ġtoto": 4911,
      "ĠÅ¾ert": 4912,
      "zenÃŃ": 4913,
      "Ġslzou": 4914,
      "Ġplod": 4915,
      "ĠÅ¾havÃ©": 4916,
      "hostej": 4917,
      "ĠdlÃ¡": 4918,
      "ĠÄįelem": 4919,
      "Ġlesku": 4920,
      "Ġpekla": 4921,
      "ĠtkÃ¡": 4922,
      "Ġex": 4923,
      "ĠÄĽky": 4924,
      "Ġztr": 4925,
      "ĠÃ¡ru": 4926,
      "Ġtamo": 4927,
      "ĠprÃ¡zdno": 4928,
      "cÃŃho": 4929,
      "Ġdub": 4930,
      "ĠjiÅĻÃŃ": 4931,
      "Å¡ila": 4932,
      "Ġpadl": 4933,
      "Ġhrdin": 4934,
      "Ġsvobody": 4935,
      "ĠprostÃ©": 4936,
      "ĠvÄĽÅ¾": 4937,
      "ĠrÃ¡ji": 4938,
      "ĠradÄĽj": 4939,
      "Ġnetu": 4940,
      "ĠvÄĽdÄĽl": 4941,
      "Ġlit": 4942,
      "ĠÄįistÃ¡": 4943,
      "ĠmarnÃ©": 4944,
      "ĠkrÃ¡tkÃ½": 4945,
      "Ġtopo": 4946,
      "ĠhonÃŃ": 4947,
      "ĠnÄĽko": 4948,
      "Ġnutno": 4949,
      "Ġ1946": 4950,
      "ĠpÅ¯jde": 4951,
      "DC": 4952,
      "pnÄĽ": 4953,
      "tilo": 4954,
      "Ġvzlet": 4955,
      "ĠobÄĽt": 4956,
      "ĠpÅĻÃŃteli": 4957,
      "ĠÅ¡ak": 4958,
      "ĠzvÃŃÅĻe": 4959,
      "Ġpoesie": 4960,
      "nuli": 4961,
      "viny": 4962,
      "ĠpyÅ¡": 4963,
      "Ġdomov": 4964,
      "ÄįkÅ¯": 4965,
      "ĠdÃŃÅ¡": 4966,
      "ckÃ¡": 4967,
      "ĠsvÄĽdomÃŃ": 4968,
      "ĠvdÄĽk": 4969,
      "ĠÃ¡Å¡ÃŃ": 4970,
      "nut": 4971,
      "Ġevro": 4972,
      "Ġdol": 4973,
      "Ġdivy": 4974,
      "Ġdruhu": 4975,
      "Ġmiloval": 4976,
      "ĠmlÃ¡den": 4977,
      "ĠÅ¡Å¥asten": 4978,
      "Ġstruny": 4979,
      "krÃ¡snÄĽjÅ¡ÃŃ": 4980,
      "nd": 4981,
      "ABCA": 4982,
      "ĠuvÃŃ": 4983,
      "ĠinÃ©": 4984,
      "ĠÅ¡kle": 4985,
      "ĠvÃŃtÃ¡": 4986,
      "ĠhÃ¡zÃŃ": 4987,
      "ĠÄįtyÅĻi": 4988,
      "Ġhce": 4989,
      "ĠneÅ¡tÄĽ": 4990,
      "ĠetÃ¡": 4991,
      "Ġclo": 4992,
      "klady": 4993,
      "ĠdÃ¡Å¡": 4994,
      "ĠprchÃ¡": 4995,
      "ĠzeÄı": 4996,
      "ĠnejkrÃ¡snÄĽjÅ¡ÃŃ": 4997,
      "ĠjemuÅ¾": 4998,
      "ÅĻena": 4999,
      "Ġvot": 5000,
      "ĠnesmÄĽ": 5001,
      "ĠplÃ¡Äįem": 5002,
      "Ġdat": 5003,
      "Ġzavo": 5004,
      "ĠtmavÃ½": 5005,
      "nej": 5006,
      "dec": 5007,
      "armo": 5008,
      "ĠÅ¡ÃŃp": 5009,
      "ĠjakÃ½s": 5010,
      "ĠprosÃŃ": 5011,
      "ÅĪÅ¯": 5012,
      "ĠkrÃ¡snÄĽ": 5013,
      "Ġsten": 5014,
      "Ġyli": 5015,
      "ABCCDD": 5016,
      "ĠÃŃlÃ¡": 5017,
      "Ġlhostej": 5018,
      "ĠkdeÅ¾": 5019,
      "Ġbarvy": 5020,
      "Ġeku": 5021,
      "ĠÄĽhu": 5022,
      "Ġstrachu": 5023,
      "Ġtmu": 5024,
      "Ġuby": 5025,
      "ĠivÃŃ": 5026,
      "rala": 5027,
      "Ġvzly": 5028,
      "Å¾eb": 5029,
      "rej": 5030,
      "ĠnaÅ¡em": 5031,
      "hovÃ©": 5032,
      "ĠletnÃŃ": 5033,
      "Ġobzoru": 5034,
      "Ġapo": 5035,
      "ĠzvonÅ¯": 5036,
      "ĠÃ¡Äįi": 5037,
      "ĠÅ¡t": 5038,
      "ĠvÄĽrnÃ½": 5039,
      "Ġmor": 5040,
      "Ġsev": 5041,
      "vic": 5042,
      "ĠÄįlovÄĽku": 5043,
      "ĠrnÃ¡": 5044,
      "Ġlka": 5045,
      "Ġpeklo": 5046,
      "ĠpoÅ¾ehnÃ¡nÃŃ": 5047,
      "Ġklesla": 5048,
      "ĠkÅĻiv": 5049,
      "vÅ¯r": 5050,
      "bar": 5051,
      "ĠÅ¡edÃ½": 5052,
      "ĠdivnÄĽ": 5053,
      "Ġhovor": 5054,
      "ĠmÅĻe": 5055,
      "ĠÃºc": 5056,
      "ĠÅ¡koda": 5057,
      "Ġzky": 5058,
      "livÃ¡": 5059,
      "ĠlÃŃcÃŃ": 5060,
      "vor": 5061,
      "Ġkor": 5062,
      "ĠvÃŃÅĻÃŃ": 5063,
      "ĠnovÃ½m": 5064,
      "ĠvÃ¡bÃŃ": 5065,
      "Ġlny": 5066,
      "mech": 5067,
      "ĠtÃ½m": 5068,
      "ĠckÃ½": 5069,
      "Ġmile": 5070,
      "ĠnejvÄĽt": 5071,
      "Ġgi": 5072,
      "Ġjiskry": 5073,
      "ĠmyÅ¡lÃ©nky": 5074,
      "ĠjeÅ¡": 5075,
      "ĠmÃ¡Å¥": 5076,
      "ĠlÃŃn": 5077,
      "Ġzuby": 5078,
      "vla": 5079,
      "ĠhrozÃŃ": 5080,
      "ĠeÅĻe": 5081,
      "Ġkomo": 5082,
      "zÃŃch": 5083,
      "ĠtichÃ©m": 5084,
      "luje": 5085,
      "ĠdÃŃl": 5086,
      "Ġmalou": 5087,
      "Ġsmrtel": 5088,
      "rostÅĻed": 5089,
      "ĠvzpomÃŃnÃ¡m": 5090,
      "ĠvznÄĽ": 5091,
      "ĠvÃ¡Å¡eÅĪ": 5092,
      "ĠÅ¥": 5093,
      "Ġuny": 5094,
      "Ġobou": 5095,
      "ĠvlÃ¡d": 5096,
      "ĠÃŃho": 5097,
      "ĠpÄĽstÃŃ": 5098,
      "ĠzahrÃ¡": 5099,
      "Ġbisku": 5100,
      "Ġuly": 5101,
      "Ġbychom": 5102,
      "Ġrtu": 5103,
      "ĠlÃŃm": 5104,
      "Ġobe": 5105,
      "ĠmlÃ¡d": 5106,
      "Ġhyne": 5107,
      "ĠbojovnÃŃ": 5108,
      "ĠkÅĻÃŃdlem": 5109,
      "nt": 5110,
      "ĠÅ¾ivÃ½": 5111,
      "ĠÅ¡ero": 5112,
      "ĠposvÄĽ": 5113,
      "ĠzrakÅ¯": 5114,
      "Ġstud": 5115,
      "Ġnach": 5116,
      "nutÃŃm": 5117,
      "ĠkÅĻiÄįÃŃ": 5118,
      "Äįas": 5119,
      "ĠÅĻÃŃkÃ¡": 5120,
      "ĠotvÃŃrÃ¡": 5121,
      "ĠcelÃ©m": 5122,
      "Ġjez": 5123,
      "Ġletech": 5124,
      "ĠvlnÃŃ": 5125,
      "letu": 5126,
      "Ġhlavi": 5127,
      "lenÃ¡": 5128,
      "pec": 5129,
      "ĠnoÅĻÃŃ": 5130,
      "ĠpoupÄĽ": 5131,
      "ĠÄįerno": 5132,
      "ĠodpusÅ¥": 5133,
      "Ġsnech": 5134,
      "ĠalÃ©": 5135,
      "ĠzaznÃŃ": 5136,
      "telem": 5137,
      "ĠbuÅ¡ÃŃ": 5138,
      "pek": 5139,
      "ĠkeÅĻ": 5140,
      "ĠtajnÄĽ": 5141,
      "ol": 5142,
      "Ġpovin": 5143,
      "ĠvelikÃ¡": 5144,
      "Ġbok": 5145,
      "Ġrozma": 5146,
      "Ġdobrou": 5147,
      "Ġblaze": 5148,
      "Ġproudem": 5149,
      "ĠjÃŃmÃ¡": 5150,
      "Ġhore": 5151,
      "Ġodtud": 5152,
      "ĠtÄĽÅ¾kou": 5153,
      "ĠesÃ¡": 5154,
      "ĠsmÃŃchem": 5155,
      "Ġbrzo": 5156,
      "Ġmilio": 5157,
      "lili": 5158,
      "ĠÅ¡il": 5159,
      "Ġlec": 5160,
      "Ġnemohu": 5161,
      "ĠpÅĻÃŃroda": 5162,
      "ĠpÃŃsku": 5163,
      "ĠÅĻit": 5164,
      "Ġdky": 5165,
      "ĠstÅ¯j": 5166,
      "Ġuho": 5167,
      "ĠkorÃ¡": 5168,
      "ĠkrÄį": 5169,
      "neme": 5170,
      "Ġslunko": 5171,
      "ĠdÄĽtem": 5172,
      "Ġnaklo": 5173,
      "Ġjablo": 5174,
      "ĠdÄĽvy": 5175,
      "Ġpel": 5176,
      "Ġnebesa": 5177,
      "Ġnesla": 5178,
      "ĠznamenÃŃ": 5179,
      "ĠneÅ¡": 5180,
      "ĠrozlÃ©": 5181,
      "Ġ1852": 5182,
      "Ġveleb": 5183,
      "Ġmladosti": 5184,
      "ÅĻily": 5185,
      "ĠznÃ¡Å¡": 5186,
      "Äįina": 5187,
      "ĠhrabÄĽ": 5188,
      "Ġpozved": 5189,
      "ily": 5190,
      "Ġysi": 5191,
      "ĠslzÃ¡ch": 5192,
      "nÄĽnÃ©": 5193,
      "ĠhroznÃ½": 5194,
      "nese": 5195,
      "Ġmechu": 5196,
      "Ġhvozd": 5197,
      "ĠpojÃŃ": 5198,
      "ĠrÃ©": 5199,
      "Ġpoza": 5200,
      "fe": 5201,
      "Ġzen": 5202,
      "Ġvzala": 5203,
      "ĠplÃ¡nÃŃ": 5204,
      "Ġleskem": 5205,
      "Ġuto": 5206,
      "ĠÅĻÃŃÅ¾": 5207,
      "ĠvlnÃ¡ch": 5208,
      "ĠÄıÃ¡bel": 5209,
      "ĠzvuÄįÃŃ": 5210,
      "najÃŃ": 5211,
      "ĠtÅ¡ÃŃ": 5212,
      "Ġak": 5213,
      "Ġorel": 5214,
      "ĠcelÃ½m": 5215,
      "Ġracho": 5216,
      "tin": 5217,
      "ĠsvatÃ½ch": 5218,
      "Ġcity": 5219,
      "Ġsvobodu": 5220,
      "jdou": 5221,
      "Ã½Å¡": 5222,
      "ĠtÄĽmi": 5223,
      "ĠodvÄĽ": 5224,
      "Ġluna": 5225,
      "ĠnechtÄĽl": 5226,
      "ĠmanÅ¾el": 5227,
      "Ġhlav": 5228,
      "Ġhladi": 5229,
      "ĠvÃ½s": 5230,
      "Ġztratil": 5231,
      "ĠÃ¡my": 5232,
      "ĠzdrÃ¡v": 5233,
      "ĠnaÅĻÃŃ": 5234,
      "ĠcÃ¡": 5235,
      "ĠplaÅ¡e": 5236,
      "Ġ1851": 5237,
      "ĠÅ¾Ã¡rem": 5238,
      "ĠzaÄįal": 5239,
      "ĠrdÃŃ": 5240,
      "Ġslast": 5241,
      "ĠcÃŃli": 5242,
      "Ġohrom": 5243,
      "Ġzvyk": 5244,
      "ĠpastÃ½": 5245,
      "ĠverÅ¡": 5246,
      "Ġvtip": 5247,
      "ĠdÄĽva": 5248,
      "ĠbÄĽlost": 5249,
      "ĠvÄĽÄįnou": 5250,
      "Ġklas": 5251,
      "ÅĻÃŃÅ¡": 5252,
      "skne": 5253,
      "ĠÄįerst": 5254,
      "Ġbran": 5255,
      "ĠnÃ¡rodu": 5256,
      "hlou": 5257,
      "ĠhnutÃŃ": 5258,
      "jeme": 5259,
      "ĠpapeÅ¾": 5260,
      "Ġteskno": 5261,
      "ĠleÅ¾el": 5262,
      "ĠhrÃ¡l": 5263,
      "Ġsice": 5264,
      "ĠbÃŃt": 5265,
      "Ġpanny": 5266,
      "Ġdaleka": 5267,
      "znÃ©": 5268,
      "Ġvno": 5269,
      "Å¾ek": 5270,
      "Ġchudo": 5271,
      "ÅĻenÃ½ch": 5272,
      "Ġpochyb": 5273,
      "Ġvry": 5274,
      "ĠhvÃŃ": 5275,
      "Ġdos": 5276,
      "Ġren": 5277,
      "ĠvÃ¡nek": 5278,
      "Ġzahal": 5279,
      "pky": 5280,
      "Ġpob": 5281,
      "ĠvÄĽcÃŃ": 5282,
      "Ġvodo": 5283,
      "ĠzdÃ¡l": 5284,
      "Ġzbro": 5285,
      "ĠnÃŃmÅ¾": 5286,
      "Ġslovan": 5287,
      "ĠctÃŃ": 5288,
      "ĠdunÃŃ": 5289,
      "ĠrÃ¡di": 5290,
      "huje": 5291,
      "Ġ1871": 5292,
      "Ġmari": 5293,
      "ĠÅ¡eptÃ¡": 5294,
      "ĠpovÄĽz": 5295,
      "ĠverÅ¡e": 5296,
      "Ġkristus": 5297,
      "ĠvnÄĽ": 5298,
      "raje": 5299,
      "ABBX": 5300,
      "ĠÅ¾eno": 5301,
      "Ġmlh": 5302,
      "nicÃŃ": 5303,
      "ĠdÃŃtky": 5304,
      "ĠstokrÃ¡t": 5305,
      "ÄįenÃ½": 5306,
      "ĠpravdÄĽ": 5307,
      "Ġhavra": 5308,
      "stek": 5309,
      "Ġnecha": 5310,
      "Ġctnosti": 5311,
      "Ġblankyt": 5312,
      "ĠuÅ¾i": 5313,
      "ĠhrdÃ©": 5314,
      "Ġzdy": 5315,
      "ĠpozdnÃŃ": 5316,
      "ĠslyÅ¡ÃŃÅ¡": 5317,
      "ĠkÅĻesÅ¥an": 5318,
      "Ġcitu": 5319,
      "Ġchvilku": 5320,
      "lala": 5321,
      "Å¯so": 5322,
      "dalo": 5323,
      "ĠplÃ¡l": 5324,
      "Ġvysoko": 5325,
      "ĠkrÅ¯pÄĽj": 5326,
      "ĠpÄĽnÃŃ": 5327,
      "ĠÅ¾Ã¡dnÃ¡": 5328,
      "Ġusly": 5329,
      "ĠspÃ¡nek": 5330,
      "CB": 5331,
      "Å¡u": 5332,
      "niti": 5333,
      "ĠsÃŃni": 5334,
      "ĠtrhÃ¡": 5335,
      "ĠjedinÃ©": 5336,
      "Å¡tÃŃm": 5337,
      "ĠhledÃŃm": 5338,
      "cou": 5339,
      "ĠzavÃ¡": 5340,
      "ĠpouÅ¡ti": 5341,
      "mÃ¡nÃŃ": 5342,
      "Ġzlost": 5343,
      "ĠÅ¾u": 5344,
      "vlÃ¡": 5345,
      "Ġbli": 5346,
      "Ġjinou": 5347,
      "Ġchud": 5348,
      "Ġpusti": 5349,
      "ĠmoÅ¾nÃ¡": 5350,
      "AXBCBC": 5351,
      "tl": 5352,
      "ĠmlÃ©": 5353,
      "nÃ¡ct": 5354,
      "Ġvrat": 5355,
      "Ġhex": 5356,
      "ĠÃºzkost": 5357,
      "ĠstrÃ½": 5358,
      "Ġnesko": 5359,
      "Ġnechal": 5360,
      "Ġ1861": 5361,
      "Ġsek": 5362,
      "ĠÅ¡va": 5363,
      "dÄĽji": 5364,
      "ĠpouÅ¡tÄĽ": 5365,
      "ĠvÄĽÄįnost": 5366,
      "ĠhÃ¡ji": 5367,
      "ĠzelenÃ©": 5368,
      "Ġukru": 5369,
      "ĠvnÃ©": 5370,
      "cie": 5371,
      "hali": 5372,
      "ĠstÃŃnem": 5373,
      "Ġdci": 5374,
      "ĠobÃŃ": 5375,
      "Ġzdroj": 5376,
      "ĠzÅĻÃŃÅ¡": 5377,
      "Ġneji": 5378,
      "Ġeka": 5379,
      "Ġmalo": 5380,
      "ĠĠĠ": 5381,
      "Ġsmysl": 5382,
      "ĠpÅ¯jdu": 5383,
      "ĠvÅ¡ednÃŃ": 5384,
      "Ġticha": 5385,
      "ĠpustÃ©": 5386,
      "ĠzvÄĽda": 5387,
      "Ġnitra": 5388,
      "ĠhroznÃ©": 5389,
      "Ġmoudro": 5390,
      "ĠnejvyÅ¡Å¡ÃŃ": 5391,
      "ĠnÃ¡ho": 5392,
      "Ġviny": 5393,
      "ĠpouÅ¡tÃŃ": 5394,
      "ĠjasnÃ¡": 5395,
      "Ġvypu": 5396,
      "Ġkalich": 5397,
      "fa": 5398,
      "ĠosÅ¥": 5399,
      "ĠvlÃŃdnÄĽ": 5400,
      "ĠneÅ¡tÄĽstÃŃ": 5401,
      "Ġhnal": 5402,
      "Ġobej": 5403,
      "ĠhrajÃŃ": 5404,
      "ĠÅ¡tÄĽstÃŃm": 5405,
      "Ġmladou": 5406,
      "ĠuprostÅĻed": 5407,
      "ĠzÅĻela": 5408,
      "ilÃŃ": 5409,
      "Ġher": 5410,
      "Ġjinde": 5411,
      "Ġpohy": 5412,
      "Ġnalez": 5413,
      "Ġdon": 5414,
      "ĠvÄĽrnÃ©": 5415,
      "ĠspÃŃcÃŃ": 5416,
      "ĠinÃŃ": 5417,
      "ĠnÄĽme": 5418,
      "Ġprahy": 5419,
      "ĠsamÃ½": 5420,
      "Ġpropasti": 5421,
      "Ġprocit": 5422,
      "ĠvÅ¡eli": 5423,
      "Ġimi": 5424,
      "ĠkterÃ½ch": 5425,
      "ĠvraÅ¥": 5426,
      "Ġkorunu": 5427,
      "ĠdvÅ¯r": 5428,
      "bÅ¯h": 5429,
      "Ġzrovna": 5430,
      "Ġbratra": 5431,
      "Ġmluv": 5432,
      "ĠdrobnÃ©": 5433,
      "gra": 5434,
      "ĠspÄĽchÃ¡": 5435,
      "Ġnau": 5436,
      "ĠÄįeskÃ¡": 5437,
      "Ġnadarmo": 5438,
      "Ġchcete": 5439,
      "ĠpenÃŃ": 5440,
      "nÄĽte": 5441,
      "ĠvÅ¯z": 5442,
      "venÃ©": 5443,
      "ĠlÅ¯nÄĽ": 5444,
      "ĠpoutnÃŃk": 5445,
      "ĠvstÃ¡": 5446,
      "ĠlÃ¡l": 5447,
      "ĠlÃŃba": 5448,
      "ĠmodlÃŃ": 5449,
      "ĠchystÃ¡": 5450,
      "Ġvojsko": 5451,
      "Ġhalu": 5452,
      "Ġztu": 5453,
      "Ġrmu": 5454,
      "tÃ¡ch": 5455,
      "Ġlna": 5456,
      "ĠvodÄĽ": 5457,
      "mot": 5458,
      "Ġzasmu": 5459,
      "Ġplameny": 5460,
      "ĠbrÃ¡nÃŃ": 5461,
      "AABX": 5462,
      "Ġnasta": 5463,
      "ĠstÅĻÃ¡": 5464,
      "ĠÃ¡dy": 5465,
      "Å¾ena": 5466,
      "ĠpoÄįal": 5467,
      "Ġvodou": 5468,
      "Ġhexameter": 5469,
      "ĠutÃ½": 5470,
      "ĠonÅ¯": 5471,
      "ĠzÃ¡ÅĻÃŃcÃŃ": 5472,
      "Ġminul": 5473,
      "Ġdel": 5474,
      "Ġtrest": 5475,
      "Ġpopel": 5476,
      "ĠskuteÄį": 5477,
      "ĠsÃŃle": 5478,
      "AXBCCB": 5479,
      "hni": 5480,
      "Ġpsal": 5481,
      "ĠomÃŃ": 5482,
      "Ġbral": 5483,
      "Ġjednoho": 5484,
      "ĠvzpomÃŃnka": 5485,
      "ĠcizÃŃch": 5486,
      "ĠzlatÃ½m": 5487,
      "Ġpolem": 5488,
      "pili": 5489,
      "ĠsmÄĽs": 5490,
      "Ġhry": 5491,
      "tice": 5492,
      "nie": 5493,
      "Ġrozlo": 5494,
      "Ġosudu": 5495,
      "vrÃ¡": 5496,
      "tej": 5497,
      "ĠtanÄįÃŃ": 5498,
      "ĠhlÃ©": 5499,
      "Ġjezd": 5500,
      "Ġkup": 5501,
      "ÅĪuje": 5502,
      "ĠÅ¾ivotÄĽ": 5503,
      "Ġtomto": 5504,
      "znÄĽl": 5505,
      "ĠvzdychÃ¡": 5506,
      "Ġvzdechy": 5507,
      "ÄįnÃ©m": 5508,
      "ĠvelÃŃ": 5509,
      "dÃ¡vÃ¡": 5510,
      "Ġbezpe": 5511,
      "Ġzvolal": 5512,
      "ĠhvÄĽzdi": 5513,
      "Ġbratry": 5514,
      "Ġade": 5515,
      "ĠmÄĽsÃŃce": 5516,
      "Ġhledat": 5517,
      "hr": 5518,
      "ĠÃ¡ce": 5519,
      "vodu": 5520,
      "ĠÄĽnÃ½": 5521,
      "ĠÅ¾er": 5522,
      "ĠznÃ¡mÃ½": 5523,
      "leÅĪ": 5524,
      "ĠlnÃ¡": 5525,
      "ĠpospÃŃ": 5526,
      "ĠtÃ¡bo": 5527,
      "dle": 5528,
      "Ġ1877": 5529,
      "ĠslavÃŃk": 5530,
      "ĠmÅ¾ik": 5531,
      "ĠchudÃ½": 5532,
      "ĠvÅ¡echen": 5533,
      "Ġslzu": 5534,
      "ĠzpÃŃvat": 5535,
      "Ġrozmar": 5536,
      "Ġuko": 5537,
      "Ġ1867": 5538,
      "Ġpohledem": 5539,
      "ckou": 5540,
      "ĠkolÃ©": 5541,
      "Ġpozem": 5542,
      "ĠkrÃ¡lem": 5543,
      "ĠkrÃ¡lÅ¯": 5544,
      "ĠvlasÅ¥": 5545,
      "stoj": 5546,
      "Ġtemnou": 5547,
      "ĠÅ¡tÄĽd": 5548,
      "ĠsmrÅ¥": 5549,
      "ĠtÅĻpytÃŃ": 5550,
      "Ġarci": 5551,
      "Ġmiluje": 5552,
      "Ġ1820": 5553,
      "ĠtrÃ¡va": 5554,
      "ĠmÅ¯Å¾eÅ¡": 5555,
      "ĠkvÃ©": 5556,
      "ĠdivÄĽ": 5557,
      "Ġvodu": 5558,
      "Ġstroj": 5559,
      "tovÃ©": 5560,
      "ĠstojÃŃm": 5561,
      "ĠosvÄĽ": 5562,
      "Ġpocti": 5563,
      "ĠÄĽlÃŃ": 5564,
      "ĠsrdcÃŃch": 5565,
      "AAAA": 5566,
      "ĠdruhÃ¡": 5567,
      "ĠneÃº": 5568,
      "venÃ½": 5569,
      "Ġknihy": 5570,
      "ĠperutÃŃ": 5571,
      "Ġplen": 5572,
      "ĠtvÅ¯r": 5573,
      "skla": 5574,
      "ĠpohÃ¡r": 5575,
      "Ġast": 5576,
      "dati": 5577,
      "ĠÃºro": 5578,
      "Ġlav": 5579,
      "pomÃŃnÃ¡": 5580,
      "Ġmnich": 5581,
      "Ġchr": 5582,
      "Ġdnech": 5583,
      "ĠchtÄĽli": 5584,
      "Ġzahrad": 5585,
      "BB": 5586,
      "Ġnajednou": 5587,
      "nati": 5588,
      "Ġkov": 5589,
      "Ġstarost": 5590,
      "ĠnnÃ½": 5591,
      "ĠdomÄĽ": 5592,
      "ĠÄįervÃ¡": 5593,
      "Ġga": 5594,
      "Ġkouzlem": 5595,
      "XAAB": 5596,
      "ÅĻiti": 5597,
      "Ġodho": 5598,
      "Ġnesl": 5599,
      "ĠpouÅ¡Å¥": 5600,
      "ĠpoutnÃŃ": 5601,
      "vci": 5602,
      "Ġchodil": 5603,
      "Ġeky": 5604,
      "Ġpetr": 5605,
      "Ġdiva": 5606,
      "Ġzachy": 5607,
      "ĠeÅĻi": 5608,
      "ĠzlatÃŃ": 5609,
      "Ġjme": 5610,
      "ÄįnÃŃm": 5611,
      "lily": 5612,
      "ledy": 5613,
      "Ġynu": 5614,
      "ĠtÃ¡k": 5615,
      "ĠhospodÃ¡": 5616,
      "dno": 5617,
      "Ġposel": 5618,
      "ĠzavÃŃ": 5619,
      "Ġ1936": 5620,
      "ĠÅ¡ÃŃji": 5621,
      "ĠbuÄıte": 5622,
      "ĠspÄĽch": 5623,
      "Ġnerozu": 5624,
      "is": 5625,
      "ĠsluÅ¡ÃŃ": 5626,
      "ĠvÅ¯d": 5627,
      "ĠzbranÃŃ": 5628,
      "lÃ¡m": 5629,
      "Ġskla": 5630,
      "Ġsluje": 5631,
      "fo": 5632,
      "sat": 5633,
      "Ġvedou": 5634,
      "Ġposlu": 5635,
      "ĠhostÃŃ": 5636,
      "Ġboh": 5637,
      "Ġmali": 5638,
      "Ġvlta": 5639,
      "ĠperuÅ¥": 5640,
      "ĠplÃ©mÄĽ": 5641,
      "ĠorÅ¯": 5642,
      "jÃŃÅ¾": 5643,
      "ĠpouhÃ½": 5644,
      "Ġsoucit": 5645,
      "nci": 5646,
      "ĠÅĻen": 5647,
      "Å¡et": 5648,
      "ĠvyÅ¡la": 5649,
      "Äįiti": 5650,
      "ĠmalÃŃ": 5651,
      "Ġpotok": 5652,
      "ĠpÅ¯vab": 5653,
      "nÃŃci": 5654,
      "Ġroky": 5655,
      "Ġvinu": 5656,
      "pala": 5657,
      "ĠsmÄĽlÃ½": 5658,
      "ĠjdeÅ¡": 5659,
      "ĠsamotÄĽ": 5660,
      "Ġjmeno": 5661,
      "ĠzapomnÄĽl": 5662,
      "tÃ©m": 5663,
      "Ġtuze": 5664,
      "ĠdÃ¡vnÃ©": 5665,
      "Ġbledou": 5666,
      "Ġmiluji": 5667,
      "Ġvkro": 5668,
      "ĠzbÄĽ": 5669,
      "Ġpoky": 5670,
      "ĠÃŃlu": 5671,
      "ĠrovnÄĽ": 5672,
      "ĠbojÃŃ": 5673,
      "Ġpravo": 5674,
      "ĠtÃ©mÄĽ": 5675,
      "ĠvÅ¯bec": 5676,
      "Ġ1856": 5677,
      "ĠschÃ½": 5678,
      "ĠtmÃŃ": 5679,
      "Ġzho": 5680,
      "Ġpono": 5681,
      "ÅĻej": 5682,
      "ĠzaÅ¡e": 5683,
      "Ġkoli": 5684,
      "ĠlÃŃbal": 5685,
      "ĠvzpomÃŃnÃ¡": 5686,
      "Ġproko": 5687,
      "ĠÅ¾ivotu": 5688,
      "ĠÅĻekne": 5689,
      "ĠÄĽsÃŃ": 5690,
      "ĠÅ¾eni": 5691,
      "Ã©mu": 5692,
      "ĠpÃŃÅ¡e": 5693,
      "lko": 5694,
      "Ġat": 5695,
      "novi": 5696,
      "ĠpÅ¯du": 5697,
      "ĠsilnÃ½": 5698,
      "Ġvojska": 5699,
      "nika": 5700,
      "Ġpraze": 5701,
      "ĠtvÃ©mu": 5702,
      "ĠdruÅ¾i": 5703,
      "ĠsvatÃ½m": 5704,
      "ĠsladkÃ½ch": 5705,
      "Ġmysti": 5706,
      "Ġplesu": 5707,
      "Ġzlou": 5708,
      "ĠbÅĻi": 5709,
      "ĠÅ¡ly": 5710,
      "Ġge": 5711,
      "ĠhÅĻÃŃchu": 5712,
      "ĠvonnÃ½": 5713,
      "ĠobliÄįej": 5714,
      "nÄĽnÃ½": 5715,
      "ĠÄĽda": 5716,
      "ĠboÅ¾ÃŃm": 5717,
      "ĠzlatÃ©m": 5718,
      "AXA": 5719,
      "ĠvÄĽÅĻÃŃm": 5720,
      "Ġroztou": 5721,
      "Ġhodiny": 5722,
      "ÄįkÃ¡ch": 5723,
      "ber": 5724,
      "ĠvÄĽtrÅ¯": 5725,
      "Ġsym": 5726,
      "ĠklÃŃnÄĽ": 5727,
      "ren": 5728,
      "ĠnÃ¡mÄĽ": 5729,
      "chÃ¡zel": 5730,
      "Ġbabi": 5731,
      "Ġmora": 5732,
      "Ġkout": 5733,
      "Ġtlum": 5734,
      "ABBCD": 5735,
      "ĠdÄĽd": 5736,
      "Ġtouhu": 5737,
      "ĠhÅ¯l": 5738,
      "ĠzÃ¡pal": 5739,
      "Ġrady": 5740,
      "Ġproudu": 5741,
      "Ġw": 5742,
      "Ġchti": 5743,
      "tosti": 5744,
      "ĠbÃŃlÃ©m": 5745,
      "ĠprvnÃŃm": 5746,
      "tÅ¯m": 5747,
      "ĠkÅ¯m": 5748,
      "ĠzeleÅĪ": 5749,
      "Ġ1962": 5750,
      "Ġhlahol": 5751,
      "ĠkoÅĻist": 5752,
      "ÅĻilo": 5753,
      "vilo": 5754,
      "Ġmnohou": 5755,
      "ĠhnÄĽvem": 5756,
      "ĠjeÅ¾ÃŃ": 5757,
      "Ġbrachu": 5758,
      "Ġhrst": 5759,
      "tce": 5760,
      "ĠnedÄĽ": 5761,
      "ĠruÄı": 5762,
      "Ġlicho": 5763,
      "Ġhlasu": 5764,
      "ĠtÅĻesou": 5765,
      "Ġmoudrost": 5766,
      "Ġsel": 5767,
      "jÃŃcÃŃch": 5768,
      "milo": 5769,
      "Ġses": 5770,
      "ĠuÅ¾e": 5771,
      "ĠvznÃŃ": 5772,
      "ĠdneÅ¡nÃŃ": 5773,
      "ĠÅ¾Ã¡ru": 5774,
      "ĠpÅĻemo": 5775,
      "Ġtne": 5776,
      "ĠarÃ½": 5777,
      "les": 5778,
      "ĠÅ¡er": 5779,
      "ĠbÃ¡l": 5780,
      "ĠpolÃŃch": 5781,
      "Ġhospodi": 5782,
      "Ġzad": 5783,
      "Ġjihu": 5784,
      "ĠvÅ¡echnÄĽ": 5785,
      "ĠdvojÃŃ": 5786,
      "Ġsestry": 5787,
      "ĠzÃ¡mku": 5788,
      "Ġlsti": 5789,
      "ĠlÅ¾i": 5790,
      "dlen": 5791,
      "Ġbub": 5792,
      "ĠmodrÃ½": 5793,
      "ĠdÄĽjin": 5794,
      "nkem": 5795,
      "tly": 5796,
      "zdu": 5797,
      "Ġsvr": 5798,
      "ĠyÅ¡ÃŃ": 5799,
      "ĠpouÅ¥": 5800,
      "ĠspatÅĻil": 5801,
      "Ġnaposledy": 5802,
      "ĠprÃ¡h": 5803,
      "Ġslasti": 5804,
      "ĠtrpÄĽ": 5805,
      "ĠnenadÃ¡": 5806,
      "ĠÅ¾ÃŃm": 5807,
      "Ġmuka": 5808,
      "buje": 5809,
      "ĠodpoÄįi": 5810,
      "Ġbalva": 5811,
      "Ġuzav": 5812,
      "ĠvÄĽtry": 5813,
      "ĠstÅ¯": 5814,
      "Ġroztr": 5815,
      "ĠpÅĻÃŃk": 5816,
      "ĠnutÃŃ": 5817,
      "ĠzpÄĽvem": 5818,
      "Ġulic": 5819,
      "Ġslzami": 5820,
      "ĠpenÄĽ": 5821,
      "Ġmist": 5822,
      "bili": 5823,
      "razil": 5824,
      "Ġvuk": 5825,
      "tÄĽjÅ¡ÃŃ": 5826,
      "tkÅ¯": 5827,
      "ĠpapÃŃ": 5828,
      "ĠkÅĻÃŃdlo": 5829,
      "ĠmraÄįna": 5830,
      "ĠtichÃ½m": 5831,
      "Ġvedla": 5832,
      "ĠpÅĻedsta": 5833,
      "Å¾enou": 5834,
      "Ġzdar": 5835,
      "ĠvrhÃ¡": 5836,
      "Ġabys": 5837,
      "Ġmrz": 5838,
      "dni": 5839,
      "Ġrozlou": 5840,
      "Ġpohr": 5841,
      "Ġvpad": 5842,
      "ĠÄįiny": 5843,
      "ĠvÄĽtÅĻÃŃk": 5844,
      "ĠtlaÄįÃŃ": 5845,
      "Ġdrahoka": 5846,
      "dlÃ©": 5847,
      "Ġpokud": 5848,
      "Ġvece": 5849,
      "ĠveÅ¡el": 5850,
      "Ġjednom": 5851,
      "ĠzmÃŃrÃ¡": 5852,
      "Ġminulosti": 5853,
      "znÃ½": 5854,
      "Ġove": 5855,
      "vedla": 5856,
      "ĠlÃ¡sko": 5857,
      "ĠsvÄĽtlu": 5858,
      "tne": 5859,
      "ĠzÃ¡me": 5860,
      "Ġary": 5861,
      "ĠÅ¡Å¥astnÃ½": 5862,
      "Ġjiskra": 5863,
      "Ġsf": 5864,
      "ĠnevÃ½": 5865,
      "Ġil": 5866,
      "sklo": 5867,
      "Ġklasy": 5868,
      "snÃ¡": 5869,
      "ul": 5870,
      "Ġkolena": 5871,
      "tan": 5872,
      "chala": 5873,
      "Ġbozi": 5874,
      "ĠhvÄĽzdÃ¡m": 5875,
      "Ġvedl": 5876,
      "Ġsloup": 5877,
      "Ġhat": 5878,
      "Ġiva": 5879,
      "ĠprostÃ½": 5880,
      "Ġniv": 5881,
      "Ġnos": 5882,
      "ĠÅĻÃŃt": 5883,
      "ABCBCD": 5884,
      "Ġzane": 5885,
      "Ġlibo": 5886,
      "ĠjejÃŃÅ¾": 5887,
      "ĠtvrdÃ©": 5888,
      "ĠopÃ¡": 5889,
      "ĠÅ¡ky": 5890,
      "ĠkrÃ¡snÃ½ch": 5891,
      "Ġochra": 5892,
      "ĠitÃ©": 5893,
      "Ġstrachem": 5894,
      "ĠsleÄį": 5895,
      "ĠmyÅ¡lenek": 5896,
      "Ġrozto": 5897,
      "ĠplÃ¡ÅĪ": 5898,
      "ĠpÄĽje": 5899,
      "ĠtÅĻpyt": 5900,
      "Ġdoktor": 5901,
      "try": 5902,
      "ĠedÃ©": 5903,
      "ĠveÄįernÃŃ": 5904,
      "Ġhluboko": 5905,
      "ĠÅ¡aty": 5906,
      "BX": 5907,
      "Ġmohy": 5908,
      "ÄįÃŃch": 5909,
      "ĠpÅĻÃŃzrak": 5910,
      "stoupil": 5911,
      "Ġokno": 5912,
      "Ġhrdlo": 5913,
      "chovÃ©": 5914,
      "ĠryzÃŃ": 5915,
      "ĠprÅ¯vod": 5916,
      "ĠzÃ¡zra": 5917,
      "ĠkterÃ©m": 5918,
      "ĠpÄĽÅ¡i": 5919,
      "Ġsladko": 5920,
      "ĠnechaÅ¥": 5921,
      "bky": 5922,
      "Ġzne": 5923,
      "Ġnat": 5924,
      "Ġkrbu": 5925,
      "Ġdechu": 5926,
      "Å¾uje": 5927,
      "Ġpovy": 5928,
      "Ġhlado": 5929,
      "Ġruchu": 5930,
      "ĠÅ¡erÃ©": 5931,
      "ĠlÃŃst": 5932,
      "ĠbÄĽla": 5933,
      "Å¾enÃ¡": 5934,
      "mÃŃm": 5935,
      "ĠkaÅ¾dÃ©ho": 5936,
      "Ġmrtev": 5937,
      "ĠjÃ¡sot": 5938,
      "Ġondy": 5939,
      "ĠhlubokÃ©": 5940,
      "ĠzvÃŃtÄĽ": 5941,
      "ĠÅ¡era": 5942,
      "ĠtrpÃŃ": 5943,
      "Ġpyt": 5944,
      "ĠÄĽkÅ¯": 5945,
      "Ġvznes": 5946,
      "ĠÄįÃŃÅ¡i": 5947,
      "ĠkrvavÃ©": 5948,
      "ĠÄĽmi": 5949,
      "ĠzÃ¡hu": 5950,
      "mÃ¡n": 5951,
      "Ġvlnou": 5952,
      "ĠtratÃŃ": 5953,
      "Ġima": 5954,
      "ĠÄįnÃ¡": 5955,
      "die": 5956,
      "ĠstraÅ¡li": 5957,
      "Ġzakle": 5958,
      "ĠhnÃŃzda": 5959,
      "Ġvzpomen": 5960,
      "ĠÅ¾houcÃŃ": 5961,
      "ĠdkÃ½": 5962,
      "sili": 5963,
      "ĠzpÅ¯so": 5964,
      "Ġsvitu": 5965,
      "Ġknihu": 5966,
      "ĠodpovÄĽÄı": 5967,
      "nÃŃky": 5968,
      "ĠzÃ¡ba": 5969,
      "Ġskrom": 5970,
      "Ġkudy": 5971,
      "Ġslib": 5972,
      "ĠdÃ©man": 5973,
      "Äįan": 5974,
      "ĠÅ¡en": 5975,
      "ĠÅ¡est": 5976,
      "Ġjasu": 5977,
      "ĠÃ©mÄĽ": 5978,
      "Ġpokro": 5979,
      "Ġdejte": 5980,
      "Ġzdvih": 5981,
      "ĠjimiÅ¾": 5982,
      "ĠvÃ©vo": 5983,
      "EE": 5984,
      "vÃŃÅ¡": 5985,
      "sech": 5986,
      "menÄĽ": 5987,
      "ĠÄįert": 5988,
      "Ġsnadno": 5989,
      "ĠsmÄĽsi": 5990,
      "ĠÅ¡ÃŃÅĻÃŃ": 5991,
      "ĠspÃ¡t": 5992,
      "ĠblÃ½skÃ¡": 5993,
      "Ġdku": 5994,
      "Ġnesu": 5995,
      "alou": 5996,
      "ĠesÅ¯": 5997,
      "kova": 5998,
      "ĠmÄĽlo": 5999,
      "ĠspÄĽje": 6000,
      "rovnÃ¡": 6001,
      "Ġtok": 6002,
      "ĠmoÅĻÃŃ": 6003,
      "Ġvzty": 6004,
      "Ġkdosi": 6005,
      "Ġkams": 6006,
      "Ġmarno": 6007,
      "cemi": 6008,
      "ĠpolÃŃbenÃŃ": 6009,
      "ĠnejvÄĽtÅ¡ÃŃ": 6010,
      "ĠkovÃ¡": 6011,
      "Äįilo": 6012,
      "ĠspÃ¡sy": 6013,
      "ĠstrÃ¡ni": 6014,
      "ĠmusÃŃÅ¡": 6015,
      "Ġneob": 6016,
      "ĠtesknÄĽ": 6017,
      "mnÄĽl": 6018,
      "ĠjmÃ©na": 6019,
      "ĠoltÃ¡ÅĻ": 6020,
      "ĠvzdÃ¡len": 6021,
      "zil": 6022,
      "ĠnnÃ¡": 6023,
      "Ġbyste": 6024,
      "Ġvinou": 6025,
      "Ġbudoucnost": 6026,
      "Ġbytost": 6027,
      "ĠpÅĻiÅ¡lo": 6028,
      "ĠkrutÃ½": 6029,
      "ĠrozkoÅ¡ÃŃ": 6030,
      "ĠtÃ³n": 6031,
      "Ġvdo": 6032,
      "Å¾u": 6033,
      "Å¡tnÃŃ": 6034,
      "Ġvidi": 6035,
      "ĠkÅĻiÅ¡Å¥": 6036,
      "Ġleda": 6037,
      "Ġspal": 6038,
      "Ġvaz": 6039,
      "ĠkrokÅ¯": 6040,
      "ĠaniÅ¾": 6041,
      "ĠkÃ¡zal": 6042,
      "ĠvnÃ½": 6043,
      "ĠstÅĻel": 6044,
      "Ġmih": 6045,
      "ĠhovoÅĻÃŃ": 6046,
      "ĠklÃ¡Å¡": 6047,
      "ĠveÅ¡ke": 6048,
      "Ġhly": 6049,
      "nÃŃku": 6050,
      "Ġtiskne": 6051,
      "os": 6052,
      "Å¾te": 6053,
      "Ġjaksi": 6054,
      "vÅ¡i": 6055,
      "diti": 6056,
      "Ġlau": 6057,
      "tlo": 6058,
      "ĠÅ¡vi": 6059,
      "Ġkoni": 6060,
      "Ġmatkou": 6061,
      "Ġvolnost": 6062,
      "ĠvÄĽÅ¡t": 6063,
      "Ġotcem": 6064,
      "ĠdivnÃ¡": 6065,
      "blesk": 6066,
      "Ġere": 6067,
      "ĠÅ¾ele": 6068,
      "ĠspÅĻÃ¡": 6069,
      "Ġpraco": 6070,
      "ĠstaÅĻÃŃ": 6071,
      "Ġdeset": 6072,
      "ĠzvÄĽÅĻ": 6073,
      "ĠtÅĻikrÃ¡t": 6074,
      "Ġopi": 6075,
      "lilo": 6076,
      "Ġneh": 6077,
      "vostÃŃ": 6078,
      "ĠÄįechÃ¡ch": 6079,
      "Ġvor": 6080,
      "Ġranou": 6081,
      "ĠposvÃ¡t": 6082,
      "rnÃ©m": 6083,
      "Ġrosou": 6084,
      "ĠÄĽmu": 6085,
      "ĠhrÃ¡t": 6086,
      "Ġlidstvu": 6087,
      "ĠboÅ¾skÃ©": 6088,
      "ĠnepÅĻÃŃtel": 6089,
      "Ġhbi": 6090,
      "ĠsvÄĽtle": 6091,
      "ĠsladkÃ½m": 6092,
      "ĠusmÄĽ": 6093,
      "ĠproudÃŃ": 6094,
      "Ġtly": 6095,
      "ĠÄįlu": 6096,
      "ĠnebesÅ¯m": 6097,
      "ĠskrÃ¡ni": 6098,
      "ĠslyÅ¡te": 6099,
      "Ġopy": 6100,
      "Ġedl": 6101,
      "ĠdÃŃla": 6102,
      "Ġsvate": 6103,
      "ĠvzkÅĻÃŃ": 6104,
      "ĠklÃ¡Å¡ter": 6105,
      "Ġdrak": 6106,
      "ĠzÃ¡Å¡tÃŃ": 6107,
      "Ġroucho": 6108,
      "ĠvyÅ¡Å¡ÃŃ": 6109,
      "ĠÄįarodÄĽj": 6110,
      "rÅ¯m": 6111,
      "sÃ©": 6112,
      "ĠnnÄĽ": 6113,
      "21": 6114,
      "zdÄĽ": 6115,
      "ĠzÅĻÃŃti": 6116,
      "ĠtÃŃt": 6117,
      "ĠjunÃ¡": 6118,
      "Ġblesku": 6119,
      "ĠstrÃ¡nÃŃ": 6120,
      "ĠpyÅ¡nÄĽ": 6121,
      "Ġsnou": 6122,
      "ĠpodÄĽ": 6123,
      "Ġ1839": 6124,
      "Ġpluje": 6125,
      "ĠpÄĽknÃ©": 6126,
      "Ġejhle": 6127,
      "Ġptal": 6128,
      "Ġery": 6129,
      "Ġtaje": 6130,
      "Ġpravou": 6131,
      "ĠmodrÃ½ch": 6132,
      "Ġvrh": 6133,
      "ĠbÃŃlÃ½m": 6134,
      "ĠÃŃnÃŃ": 6135,
      "dÄĽte": 6136,
      "ĠpÃŃlÃŃ": 6137,
      "Ġdvak": 6138,
      "Ġity": 6139,
      "ĠstrojÃŃ": 6140,
      "ĠhroznÃ¡": 6141,
      "ĠÄįtve": 6142,
      "ron": 6143,
      "dÃ¡Å¡": 6144,
      "ĠchoÅ¥": 6145,
      "Ġbes": 6146,
      "ĠkÅĻÃŃÅ¾em": 6147,
      "Ġbzu": 6148,
      "Ġehu": 6149,
      "ĠlesÃŃch": 6150,
      "Ġobro": 6151,
      "Ġ1950": 6152,
      "ĠpÅĻÃ¡l": 6153,
      "Ġhlubiny": 6154,
      "nkÃ©": 6155,
      "Å¡kou": 6156,
      "ĠuÄįe": 6157,
      "ĠletÄĽl": 6158,
      "Ġkul": 6159,
      "Ġpovr": 6160,
      "ĠhrdÃ½": 6161,
      "Ġkomna": 6162,
      "Ġvte": 6163,
      "Ġzru": 6164,
      "ĠuÄįen": 6165,
      "Ġpodve": 6166,
      "ĠpÅĻÃŃtom": 6167,
      "Ġdruha": 6168,
      "Ġjasnou": 6169,
      "Ġdcery": 6170,
      "ĠnavrÃ¡": 6171,
      "ĠÄįerv": 6172,
      "Ġmelo": 6173,
      "ĠpÅĻÃ¡telÃ©": 6174,
      "ĠvonnÃ©": 6175,
      "vnÃ©": 6176,
      "Ġmsti": 6177,
      "voj": 6178,
      "ÅĪÃ¡": 6179,
      "ĠÅĻed": 6180,
      "Ġsvaty": 6181,
      "ĠhÅĻbe": 6182,
      "ĠÄĽka": 6183,
      "Ġniko": 6184,
      "ĠlÃ¡kÃ¡": 6185,
      "Ġaneb": 6186,
      "ĠsahÃ¡": 6187,
      "ĠÄıÃ¡b": 6188,
      "ĠvÄįel": 6189,
      "ĠhÃ©m": 6190,
      "Ġsoudu": 6191,
      "Ġnepla": 6192,
      "AXBBCC": 6193,
      "Ġodda": 6194,
      "kouz": 6195,
      "ĠplÃ¡ni": 6196,
      "AXXB": 6197,
      "Ġnivy": 6198,
      "Ġmohlo": 6199,
      "Ġhudby": 6200,
      "Ġlce": 6201,
      "ĠpÄĽst": 6202,
      "zenÃ©": 6203,
      "Ġskali": 6204,
      "Ġfau": 6205,
      "ĠostatnÃŃ": 6206,
      "ĠzlÃ½ch": 6207,
      "Ġpojednou": 6208,
      "pis": 6209,
      "ĠkypÃŃ": 6210,
      "Ġdoj": 6211,
      "chodu": 6212,
      "Ġsouzvu": 6213,
      "Ġhli": 6214,
      "ĠvnÃŃ": 6215,
      "nÃŃka": 6216,
      "Ġzast": 6217,
      "ĠodÅĻÃŃ": 6218,
      "ABCCDE": 6219,
      "Ġhust": 6220,
      "ĠdrtÃŃ": 6221,
      "Ġzahrady": 6222,
      "ĠplatÃŃ": 6223,
      "ĠozÃ¡": 6224,
      "ĠnadÄĽji": 6225,
      "Ġdvacet": 6226,
      "ĠzaplÃ¡": 6227,
      "ĠzachvÄĽl": 6228,
      "Ġspasi": 6229,
      "Å¾stvÃŃ": 6230,
      "Ġ1812": 6231,
      "Ġdomy": 6232,
      "voval": 6233,
      "ĠronÃŃ": 6234,
      "ĠnemÅ¯Å¾": 6235,
      "vnÃŃk": 6236,
      "ĠtÄĽÅ¾kÃ½ch": 6237,
      "Ġ1822": 6238,
      "gy": 6239,
      "vz": 6240,
      "ĠÅ¾ez": 6241,
      "Ġsyny": 6242,
      "Ġdary": 6243,
      "Ġkouzla": 6244,
      "vobo": 6245,
      "ĠskvÃŃ": 6246,
      "ĠpÃ¡t": 6247,
      "Ġotco": 6248,
      "Ġpostavy": 6249,
      "Ġharmo": 6250,
      "lat": 6251,
      "ĠÄįeskÃ½ch": 6252,
      "Ġsce": 6253,
      "Ġspjat": 6254,
      "ĠpÅĻis": 6255,
      "bitÃŃ": 6256,
      "prvÃ©": 6257,
      "skutku": 6258,
      "ĠÅ¾alost": 6259,
      "ĠnÅ¯m": 6260,
      "enÃ½": 6261,
      "Ġdoz": 6262,
      "Ġobloze": 6263,
      "Ġvskutku": 6264,
      "hor": 6265,
      "Ġvzali": 6266,
      "moc": 6267,
      "ĠÃ©ÅĻe": 6268,
      "ĠznÄĽlo": 6269,
      "Ġzkvet": 6270,
      "Ġulici": 6271,
      "ĠzmizÃŃ": 6272,
      "fÃ¡": 6273,
      "qu": 6274,
      "snou": 6275,
      "nouc": 6276,
      "Å¡ÃŃÅ¡": 6277,
      "Ġslze": 6278,
      "ĠnÄĽhoÅ¾": 6279,
      "ĠhlÃ¡sÃ¡": 6280,
      "kÃ½mi": 6281,
      "vÄĽti": 6282,
      "Ġlety": 6283,
      "mysl": 6284,
      "ĠÅ¾ivoby": 6285,
      "rec": 6286,
      "Ġledo": 6287,
      "ĠÅ¾ili": 6288,
      "ĠtemnÃ½ch": 6289,
      "ĠÅ¾alem": 6290,
      "ĠnÃ¡roda": 6291,
      "ĠzbÃ½vÃ¡": 6292,
      "ĠisÃŃ": 6293,
      "lÃŃÅ¡": 6294,
      "ĠÃŃry": 6295,
      "ĠvyÅ¡e": 6296,
      "ĠdÃ¡lnÃ©": 6297,
      "ĠsÃŃtÄĽ": 6298,
      "Ġdruhou": 6299,
      "Ġblahem": 6300,
      "ĠmlÃ¡de": 6301,
      "Ġbudoucnosti": 6302,
      "Ġporu": 6303,
      "ĠnecÃŃ": 6304,
      "Ġcar": 6305,
      "Ġproh": 6306,
      "Ġozval": 6307,
      "Ġsedm": 6308,
      "Ġpaprsky": 6309,
      "ĠhbitÄĽ": 6310,
      "ĠvzkÅĻik": 6311,
      "ĠnÄĽhy": 6312,
      "Ġnepoz": 6313,
      "ĠneustÃ¡": 6314,
      "ĠkalÃŃ": 6315,
      "Ġslep": 6316,
      "ĠkÅĻeh": 6317,
      "ĠmdlÃ½": 6318,
      "ĠhÃ¡m": 6319,
      "ama": 6320,
      "ĠtakÃ½": 6321,
      "Ġrozmil": 6322,
      "ĠmÄĽstem": 6323,
      "Ġfra": 6324,
      "ĠbÄĽl": 6325,
      "Ã©ÅĻe": 6326,
      "ĠÄįit": 6327,
      "Ġmus": 6328,
      "ĠstÃ¡ly": 6329,
      "ĠzlatÄĽ": 6330,
      "ĠplÃ¡la": 6331,
      "ĠstranÄĽ": 6332,
      "Ġspoj": 6333,
      "Ġfilo": 6334,
      "Ġzvad": 6335,
      "Ġrom": 6336,
      "Ġtanci": 6337,
      "Ġero": 6338,
      "ĠznÄĽla": 6339,
      "ĠadÃ½": 6340,
      "Ġbas": 6341,
      "Ġmok": 6342,
      "ĠpaÅĻÃŃ": 6343,
      "ĠbÅĻehy": 6344,
      "Ġbludi": 6345,
      "tec": 6346,
      "natÃ©": 6347,
      "ĠÅ¡pa": 6348,
      "Ġmost": 6349,
      "ÅĪa": 6350,
      "ĠytÃ¡": 6351,
      "ĠdÃŃvku": 6352,
      "Ġzkr": 6353,
      "ĠkrÃ¡tce": 6354,
      "ĠkrouÅ¾ÃŃ": 6355,
      "ĠnÄĽkolik": 6356,
      "Ġbem": 6357,
      "ĠsvÄĽtlÃ½": 6358,
      "ĠpuÄįÃŃ": 6359,
      "ĠspÃŃÅ¡e": 6360,
      "ĠknÃŃÅ¾": 6361,
      "Ġpodob": 6362,
      "Ġsoudru": 6363,
      "ĠnekoneÄį": 6364,
      "ÅĻuje": 6365,
      "Ġkan": 6366,
      "nÅ¯v": 6367,
      "ĠlÃ©to": 6368,
      "prch": 6369,
      "Ġuva": 6370,
      "vÄĽla": 6371,
      "ĠvÅ¡ed": 6372,
      "vete": 6373,
      "ĠvÅ¡ecku": 6374,
      "stoup": 6375,
      "ĠÅ¾lutÃ©": 6376,
      "Ġzmu": 6377,
      "Ġdostal": 6378,
      "kynÄĽ": 6379,
      "boÅ¾": 6380,
      "ĠstÃ¡r": 6381,
      "Ġfor": 6382,
      "Ġkriti": 6383,
      "ĠdivÃ©m": 6384,
      "ĠcizÃŃm": 6385,
      "kr": 6386,
      "nkÃ¡ch": 6387,
      "lice": 6388,
      "ĠostrÃ½": 6389,
      "vedl": 6390,
      "ĠÅ¡Å¥astnÄĽ": 6391,
      "ĠÄĽmÃ½": 6392,
      "ĠÄįekÃ¡m": 6393,
      "skÃ©mu": 6394,
      "Ġstarce": 6395,
      "ĠsvÃŃtil": 6396,
      "ĠzvukÅ¯": 6397,
      "ĠodpoÄįÃŃ": 6398,
      "ĠzvlÃ¡Å¡Å¥": 6399,
      "Ġchou": 6400,
      "ĠzÃ¡pla": 6401,
      "ĠÅĻadu": 6402,
      "ĠzalÃ©": 6403,
      "Ġskrz": 6404,
      "svit": 6405,
      "tÃ¡h": 6406,
      "ĠÃ©ta": 6407,
      "ĠstrÃ¡nÄĽ": 6408,
      "ĠzoÅĻe": 6409,
      "ĠzahradÄĽ": 6410,
      "Ġsrde": 6411,
      "ĠfarÃ¡": 6412,
      "ĠÅ¡leh": 6413,
      "toval": 6414,
      "ĠvÃŃnem": 6415,
      "ĠvolnÃ½": 6416,
      "ĠkvÃŃtek": 6417,
      "ĠkÅĻÃŃdly": 6418,
      "Ġjdem": 6419,
      "Ġpoku": 6420,
      "vujÃŃ": 6421,
      "ĠvodnÃŃ": 6422,
      "Ġnejlep": 6423,
      "Ġgeni": 6424,
      "Ġpoliti": 6425,
      "lami": 6426,
      "ĠÃ¡du": 6427,
      "Ġholou": 6428,
      "Ġmohou": 6429,
      "ĠpilnÄĽ": 6430,
      "dÃ¡l": 6431,
      "ĠrÃ¡ko": 6432,
      "ĠslÃ¡vou": 6433,
      "ĠdÅ¯stoj": 6434,
      "Ġhudbou": 6435,
      "ĠvnÃ¡": 6436,
      "tÃŃÅ¡": 6437,
      "ĠnÃ¡ÅĻek": 6438,
      "ĠpÅĻichÃ¡zÃŃ": 6439,
      "ejte": 6440,
      "ĠemÃŃ": 6441,
      "Ġhouf": 6442,
      "Ġsklonil": 6443,
      "ĠumÄĽl": 6444,
      "ĠÃŃÅ¡i": 6445,
      "Ġhromu": 6446,
      "Ġokny": 6447,
      "ĠznÄĽly": 6448,
      "ĠdÄĽtstvÃŃ": 6449,
      "ĠkrÃ¡lovstvÃŃ": 6450,
      "ĠpÅĻijdou": 6451,
      "Ġpusto": 6452,
      "ĠsmÄĽl": 6453,
      "ĠvzpomÃŃnky": 6454,
      "Ġhasne": 6455,
      "Ġoso": 6456,
      "dÄĽly": 6457,
      "Ġmudr": 6458,
      "ĠotvÃŃ": 6459,
      "ÅĻenou": 6460,
      "Ġkdybys": 6461,
      "Ġbloudil": 6462,
      "vka": 6463,
      "Äįat": 6464,
      "Ġsply": 6465,
      "ĠdÄĽk": 6466,
      "Ġryl": 6467,
      "ĠpohÅĻe": 6468,
      "cenÃ¡": 6469,
      "ĠzdvihÃ¡": 6470,
      "ĠseÅ¡": 6471,
      "Ġnapad": 6472,
      "Ġvav": 6473,
      "ĠÄįen": 6474,
      "ary": 6475,
      "Ġplny": 6476,
      "ĠÅ¡ÃŃje": 6477,
      "Ġzoufa": 6478,
      "ĠvÃ½chodu": 6479,
      "slov": 6480,
      "ĠsnovÃ©": 6481,
      "ĠtÃ¡m": 6482,
      "ĠoÄįka": 6483,
      "eny": 6484,
      "jela": 6485,
      "Ġblahu": 6486,
      "Ġsuk": 6487,
      "ĠmraÄįen": 6488,
      "Ġplody": 6489,
      "ĠmyÅ¡lenka": 6490,
      "jala": 6491,
      "Ġsep": 6492,
      "ĠkolÃŃ": 6493,
      "Ġvlasten": 6494,
      "ĠtajnÃ©": 6495,
      "zka": 6496,
      "Ġzhu": 6497,
      "Ġocho": 6498,
      "ĠilÃŃ": 6499,
      "Ġjih": 6500,
      "ĠtouÅ¾il": 6501,
      "ĠlÃŃtÃ¡": 6502,
      "ĠblahÃ©": 6503,
      "ĠskÃ¡Äįe": 6504,
      "Ġpije": 6505,
      "Ġpova": 6506,
      "Äįily": 6507,
      "ĠchrÃ¡nÃŃ": 6508,
      "ĠprospÄĽ": 6509,
      "ĠÃºna": 6510,
      "Ġlos": 6511,
      "ĠpohÃ¡d": 6512,
      "ĠslednÃŃ": 6513,
      "cek": 6514,
      "Ġvina": 6515,
      "Ġsedmi": 6516,
      "ĠuvÄĽ": 6517,
      "ĠrozlÃŃ": 6518,
      "Ġlip": 6519,
      "ĠkrvÃ¡": 6520,
      "ĠspÄĽl": 6521,
      "Ġchaty": 6522,
      "ato": 6523,
      "Ġvzej": 6524,
      "Äįeji": 6525,
      "Ġsvojich": 6526,
      "Ġpokoje": 6527,
      "Ġzimy": 6528,
      "Ġvesel": 6529,
      "Ġnebyla": 6530,
      "vÃŃvÃ¡": 6531,
      "ĠkoÄįÃ¡": 6532,
      "ĠvÄĽÅĻit": 6533,
      "dum": 6534,
      "Ġdlani": 6535,
      "Ġpravdou": 6536,
      "Ġdych": 6537,
      "ĠaÅ¡i": 6538,
      "ĠitÃ½": 6539,
      "ĠzÃ¡vÄĽ": 6540,
      "vinu": 6541,
      "Ġpozdvi": 6542,
      "ĠvysokÃ©": 6543,
      "meÅĪ": 6544,
      "ĠstÃ¡lo": 6545,
      "ĠmocnÃ©": 6546,
      "Ġzdu": 6547,
      "ĠpÅĻekva": 6548,
      "mÄĽla": 6549,
      "ĠbÃŃdnÃ½": 6550,
      "ster": 6551,
      "Ġjedinou": 6552,
      "ĠnevÃŃÅ¡": 6553,
      "ĠkmitÃ¡": 6554,
      "Ġsnes": 6555,
      "chÃ¡m": 6556,
      "ĠzÃ¡stu": 6557,
      "Ġprcha": 6558,
      "ĠbÄĽlo": 6559,
      "ĠsnivÃ©": 6560,
      "ĠÅ¾ivobytÃŃ": 6561,
      "desÃ¡": 6562,
      "ĠedÃ½": 6563,
      "vÃ©tÃ¡": 6564,
      "ĠhoÅ¡i": 6565,
      "Ġvych": 6566,
      "tuje": 6567,
      "ĠvidÄĽla": 6568,
      "ĠpÅ¯dy": 6569,
      "ĠzmÃ¡m": 6570,
      "Ġhrobem": 6571,
      "Ġsatan": 6572,
      "ĠnÅ¯Å¾": 6573,
      "ĠÅ¾eÅĪ": 6574,
      "Ġposlal": 6575,
      "ĠstudÃ¡": 6576,
      "Ġoblaky": 6577,
      "ĠkÅĻesÅ¥a": 6578,
      "eno": 6579,
      "Ġ1806": 6580,
      "Ġramena": 6581,
      "enÃ©": 6582,
      "Ġsmutnou": 6583,
      "ĠinÃ¡": 6584,
      "ĠhÅĻÃŃchy": 6585,
      "Ġjarem": 6586,
      "ĠzimÄĽ": 6587,
      "ĠonÄĽch": 6588,
      "ĠjitÅĻ": 6589,
      "ĠutÃ©": 6590,
      "ĠÃŃkÃ¡": 6591,
      "Ġpre": 6592,
      "ĠhvÄĽzdami": 6593,
      "ĠpestrÃ©": 6594,
      "bral": 6595,
      "Ġlibu": 6596,
      "Ġyku": 6597,
      "ĠdÃ©le": 6598,
      "ĠzimnÃŃ": 6599,
      "Ġamy": 6600,
      "roval": 6601,
      "Äįinu": 6602,
      "ĠÅĻeh": 6603,
      "Ġlidskou": 6604,
      "Ġoze": 6605,
      "Ġzato": 6606,
      "ĠÃŃnÅ¯": 6607,
      "ĠholÃ©": 6608,
      "ĠsadÄĽ": 6609,
      "Ġrakev": 6610,
      "Å¾emi": 6611,
      "rÃ¡Å¾ÃŃ": 6612,
      "ĠoblÃ¡": 6613,
      "ĠdÄĽsÃŃ": 6614,
      "ĠmilÃŃ": 6615,
      "ĠhouÅ¡tÃŃ": 6616,
      "hned": 6617,
      "Ġblankytu": 6618,
      "Ġskro": 6619,
      "Ġile": 6620,
      "Ġjisto": 6621,
      "ĠleÅ¥": 6622,
      "Ġvypla": 6623,
      "ĠnÃ¡v": 6624,
      "ĠÃºkol": 6625,
      "ĠlÃ©ka": 6626,
      "ĠhÅĻÃŃÅ¡": 6627,
      "ĠznÃ¡mÃ©": 6628,
      "Ġrukama": 6629,
      "Ġsoused": 6630,
      "Ġihned": 6631,
      "lÃ¡dÃ¡": 6632,
      "ĠpÅĻÃŃsnÄĽ": 6633,
      "vily": 6634,
      "vnÃ½": 6635,
      "ĠarÃ¡": 6636,
      "ĠÃ¡kÅ¯": 6637,
      "ĠÃ¡sa": 6638,
      "ĠmÄĽstu": 6639,
      "bÄĽh": 6640,
      "Ġzlomen": 6641,
      "Ġpokra": 6642,
      "ÅĻiv": 6643,
      "ĠsklÃŃ": 6644,
      "ĠslÃ½ch": 6645,
      "Ġknih": 6646,
      "ĠpoÅĻÃ¡d": 6647,
      "ĠzazpÃŃ": 6648,
      "Å¾nÃ¡": 6649,
      "ĠÃ¡ky": 6650,
      "lÃŃcÃŃ": 6651,
      "Ġluhy": 6652,
      "Ġjsouc": 6653,
      "Ġklesl": 6654,
      "Ġpohro": 6655,
      "ĠpustÃ½": 6656,
      "Ġmilovat": 6657,
      "ĠskÃ¡lu": 6658,
      "ĠchvÄĽnÃŃ": 6659,
      "ĠsÃ¡h": 6660,
      "Ġseveru": 6661,
      "chne": 6662,
      "Ġleto": 6663,
      "Ġrato": 6664,
      "ĠdÄĽsnÃ½": 6665,
      "ĠutrpenÃŃ": 6666,
      "ABABBC": 6667,
      "ĠpÃ¡dÃŃ": 6668,
      "ĠpÅĻedc": 6669,
      "ĠplÃ¡t": 6670,
      "Ġrysy": 6671,
      "ĠvlastnÄĽ": 6672,
      "ĠlistÅ¯": 6673,
      "ĠmyÅ¡lÃ©nek": 6674,
      "Ġjesen": 6675,
      "ĠÄĽnÃ¡": 6676,
      "ĠlÃ¡t": 6677,
      "Ġdes": 6678,
      "Ġ1850": 6679,
      "Ġ1804": 6680,
      "ĠschÃ¡zÃŃ": 6681,
      "Ġbly": 6682,
      "Ġhodin": 6683,
      "ĠsnÄĽhem": 6684,
      "ĠhrobÅ¯": 6685,
      "ĠchraÅĪ": 6686,
      "ABABXX": 6687,
      "volu": 6688,
      "Ġprok": 6689,
      "ĠÅ¾ivÃ¡": 6690,
      "ĠvÃ½Äįit": 6691,
      "ĠsÃŃc": 6692,
      "ĠplnÃ½m": 6693,
      "ĠbujnÃ©": 6694,
      "ĠmyÅ¡lÃ©nka": 6695,
      "tÃ½m": 6696,
      "deÅĪ": 6697,
      "ĠknÄĽÅ¾ÃŃ": 6698,
      "Ġsmysly": 6699,
      "Ġpoledne": 6700,
      "Ġpoha": 6701,
      "vÄĽjÅ¡ÃŃ": 6702,
      "Ġnoh": 6703,
      "ĠnÄĽv": 6704,
      "ĠzÃ¡ho": 6705,
      "Ġnejsi": 6706,
      "Ġrety": 6707,
      "Ġpomsty": 6708,
      "Ã¡Å¡": 6709,
      "Ġvnik": 6710,
      "ĠokÃ¡": 6711,
      "ako": 6712,
      "ĠuvÃ¡": 6713,
      "ĠtuÅ¡ÃŃm": 6714,
      "Ġkres": 6715,
      "lemi": 6716,
      "ĠchrÃ¡my": 6717,
      "ĠzvlÃ¡Å¡tnÃŃ": 6718,
      "Ġtlou": 6719,
      "Ġter": 6720,
      "Ġpavu": 6721,
      "ĠstÃŃhÃ¡": 6722,
      "Ġ1959": 6723,
      "ĠznÃ¡te": 6724,
      "ĠhlubokÃ½": 6725,
      "ĠchvÃ¡tÃ¡": 6726,
      "ĠdlÃ½": 6727,
      "ĠpÃ¡ry": 6728,
      "Ġslab": 6729,
      "ĠplÃ¡ly": 6730,
      "ĠnapÅĻed": 6731,
      "ĠhedvÃ¡": 6732,
      "ĠvichÅĻice": 6733,
      "Ġmladist": 6734,
      "Ġhoru": 6735,
      "Ġsie": 6736,
      "Å¾iti": 6737,
      "ĠzoufalstvÃŃ": 6738,
      "ĠÅ¡lehÃ¡": 6739,
      "byl": 6740,
      "ĠÅ¡ele": 6741,
      "ĠÅ¡edÃ¡": 6742,
      "ĠotrÃ¡": 6743,
      "Ġzmar": 6744,
      "ĠdÃ¡my": 6745,
      "ĠzmÃŃtÃ¡": 6746,
      "ĠckÃ©": 6747,
      "ĠÅĻÃŃma": 6748,
      "ĠmaÄı": 6749,
      "ĠstarÃ©m": 6750,
      "stÃ¡nÃŃ": 6751,
      "ĠptÃ¡ka": 6752,
      "Ġulice": 6753,
      "vanÃ¡": 6754,
      "ĠÅ¡tva": 6755,
      "ĠvzpÃŃ": 6756,
      "sej": 6757,
      "Ġsiro": 6758,
      "ĠÃ½Å¡i": 6759,
      "ĠÅ¯li": 6760,
      "ĠnaÅ¡eho": 6761,
      "Ġjisker": 6762,
      "Ġpopra": 6763,
      "ĠulÃŃ": 6764,
      "ĠÃ¡lu": 6765,
      "Ġdopro": 6766,
      "ĠdvakrÃ¡t": 6767,
      "nkÃ¡": 6768,
      "ĠnelÃŃ": 6769,
      "Ġnehy": 6770,
      "ĠÃ¡su": 6771,
      "ĠobjÃŃm": 6772,
      "ĠslabÃ©": 6773,
      "ĠÅĻadou": 6774,
      "ĠseÄį": 6775,
      "ÅĻeli": 6776,
      "stila": 6777,
      "ĠÅ¾ilÃ¡ch": 6778,
      "zat": 6779,
      "Ġvysko": 6780,
      "Ġvzbou": 6781,
      "ĠbleskÅ¯": 6782,
      "Ġzpup": 6783,
      "bled": 6784,
      "ĠzvÃ¡": 6785,
      "ÅĻeje": 6786,
      "dosti": 6787,
      "ĠskÅĻivan": 6788,
      "ĠanÅ¯": 6789,
      "Ġoblou": 6790,
      "dÃŃl": 6791,
      "ĠprvÃ½": 6792,
      "Ġjedem": 6793,
      "ĠdruzÃŃ": 6794,
      "ĠtakovÃ©": 6795,
      "ĠzdrÃ¡va": 6796,
      "ĠpomÃ¡": 6797,
      "tiv": 6798,
      "ĠÃ¡ze": 6799,
      "ĠpÃ¡ny": 6800,
      "Ġtrh": 6801,
      "ĠvÄĽÄįnÃ½ch": 6802,
      "ĠprÃ¡zdnÃ©": 6803,
      "ĠpÅĻemÃ½Å¡": 6804,
      "stane": 6805,
      "ĠpÅĻÃŃsta": 6806,
      "ĠpodzimnÃŃ": 6807,
      "ĠÄįervÃ¡nkÅ¯": 6808,
      "Ġjil": 6809,
      "Ġzko": 6810,
      "letÄĽl": 6811,
      "vanou": 6812,
      "ĠslastÃŃ": 6813,
      "ĠdeÅ¡": 6814,
      "ĠkamenÃŃ": 6815,
      "ĠvlastnÃŃm": 6816,
      "ĠrÅ¯znÃ©": 6817,
      "Ġah": 6818,
      "ĠoÄį": 6819,
      "Ġoct": 6820,
      "titi": 6821,
      "Ġdojem": 6822,
      "ĠpÅĻines": 6823,
      "ĠlodÃŃ": 6824,
      "ĠoltÃ¡ÅĻi": 6825,
      "ĠmÅ¾ikem": 6826,
      "Ġovoce": 6827,
      "Ġrol": 6828,
      "ĠÅ¡erem": 6829,
      "ĠchtÄĽjÃŃ": 6830,
      "ĠvÃ¡lky": 6831,
      "ĠznÃ©": 6832,
      "ĠÄįte": 6833,
      "Ġlidmi": 6834,
      "ĠpravÃŃm": 6835,
      "ĠhÅĻÃŃchÅ¯": 6836,
      "Ġobrazy": 6837,
      "ĠrÅ¯znÃ½ch": 6838,
      "ĠjnÄĽ": 6839,
      "Ġpohan": 6840,
      "Ġmlze": 6841,
      "Ġsestra": 6842,
      "Ġvypl": 6843,
      "Ã¡t": 6844,
      "ĠpohlÃ©": 6845,
      "ĠbavÃŃ": 6846,
      "ĠÅ¡epce": 6847,
      "Ġbalvan": 6848,
      "Ġzkad": 6849,
      "ĠvavÅĻÃŃ": 6850,
      "Ġvce": 6851,
      "ĠvtÄĽ": 6852,
      "ĠneÅĻe": 6853,
      "Ġrolan": 6854,
      "ĠruÄįky": 6855,
      "ĠburÃ¡": 6856,
      "rÃ¡nÃŃ": 6857,
      "Å¡tÄĽnÃŃ": 6858,
      "ĠsklÃ¡dÃ¡": 6859,
      "ĠobjÃŃmÃ¡": 6860,
      "ĠmlÄįenÃŃ": 6861,
      "ĠtÄĽÅ¾kÃ½m": 6862,
      "AXABBC": 6863,
      "ĠneznÃ¡mÃ½": 6864,
      "ĠideÃ¡": 6865,
      "Ġvza": 6866,
      "Ġbezna": 6867,
      "ĠÅ¡o": 6868,
      "ĠboÅĻÃŃ": 6869,
      "Äįeli": 6870,
      "ĠÅ¡et": 6871,
      "ĠtÃ¡bor": 6872,
      "ĠjejichÅ¾": 6873,
      "ĠÅ¡irÃ½": 6874,
      "ĠbohatÃ½r": 6875,
      "ĠbÃ©ÅĻe": 6876,
      "ĠrvÃŃ": 6877,
      "ĠprobÃŃ": 6878,
      "ĠzelenÃ½": 6879,
      "Ġpaprs": 6880,
      "ĠperutÄĽ": 6881,
      "Ġprostor": 6882,
      "Ġchceme": 6883,
      "Ġkly": 6884,
      "ĠdlÃ©": 6885,
      "razÃŃ": 6886,
      "Ġpoklady": 6887,
      "Ġodlesk": 6888,
      "ĠzdobÃŃ": 6889,
      "ĠveÅ¡k": 6890,
      "Ġ1940": 6891,
      "ĠpenÄĽz": 6892,
      "ĠvylÃŃ": 6893,
      "ĠbodÃ¡": 6894,
      "Ġrozv": 6895,
      "ĠpÅĻÃŃklad": 6896,
      "ĠpÃ¡nÅ¯": 6897,
      "jou": 6898,
      "taly": 6899,
      "Ġton": 6900,
      "ĠteÄįe": 6901,
      "Ġspro": 6902,
      "Ġpraha": 6903,
      "ĠstÃ¡do": 6904,
      "Ġcig": 6905,
      "ĠnevidÄĽl": 6906,
      "Ġmoudrosti": 6907,
      "Ġratole": 6908,
      "ĠÅ¾dy": 6909,
      "Ġkorou": 6910,
      "ĠnohÃ¡m": 6911,
      "stala": 6912,
      "Ġtrud": 6913,
      "Ġrenal": 6914,
      "vrt": 6915,
      "Ġnohu": 6916,
      "pÃŃÅ¡": 6917,
      "ĠmÃŃhÃ¡": 6918,
      "ĠposvÃ¡": 6919,
      "ĠkaÅ¾dÃ©mu": 6920,
      "ĠpÅ¯lnoc": 6921,
      "tli": 6922,
      "ĠpoprvÃ©": 6923,
      "Ġoddech": 6924,
      "ĠbÄĽhu": 6925,
      "Å¾ily": 6926,
      "ĠklÃ¡Å¡te": 6927,
      "ĠpoÅ¾Ã¡r": 6928,
      "dÅĻÃŃ": 6929,
      "ĠakÃ©": 6930,
      "Ġneje": 6931,
      "mÄĽly": 6932,
      "Ġhromo": 6933,
      "Ġsoko": 6934,
      "ĠsvatÃ©m": 6935,
      "ĠzahÅĻ": 6936,
      "dÃŃme": 6937,
      "ĠÅ¡nÄĽ": 6938,
      "Ġryk": 6939,
      "stÃ¡ch": 6940,
      "ĠhlasÅ¯": 6941,
      "Ġgu": 6942,
      "Ġnepoko": 6943,
      "ĠvrÃ¡sky": 6944,
      "ĠmdlÃ©": 6945,
      "Ġpocit": 6946,
      "ĠÅ¾Å¡ÃŃ": 6947,
      "kati": 6948,
      "Ġlevo": 6949,
      "ĠpÃŃti": 6950,
      "Ġposly": 6951,
      "Ġnechte": 6952,
      "ĠvlÃ¡dy": 6953,
      "ĠÅ¡irÃ©": 6954,
      "ĠtajemnÃ©": 6955,
      "ĠnÄĽÅ¾nÃ©": 6956,
      "sni": 6957,
      "Ġkej": 6958,
      "liti": 6959,
      "Ġust": 6960,
      "ĠnÄĽmÃ¡": 6961,
      "Ġyna": 6962,
      "ĠlÃŃstek": 6963,
      "ĠÅ¡ÃŃj": 6964,
      "ĠpÅĻesvÄĽd": 6965,
      "ĠpoÄįne": 6966,
      "Ġvzdoru": 6967,
      "Ġvnady": 6968,
      "ABABCX": 6969,
      "Äįuje": 6970,
      "ĠÃ¡hÃ¡": 6971,
      "ĠlÃ¡me": 6972,
      "ĠvÃ½kÅĻi": 6973,
      "ĠslabÃ½": 6974,
      "Ġhrdla": 6975,
      "Ġplynou": 6976,
      "ptÃ¡": 6977,
      "Å¾dÄĽ": 6978,
      "ĠzaÄįÃŃ": 6979,
      "Ġrie": 6980,
      "ĠhoÅĻi": 6981,
      "Ġrozka": 6982,
      "ĠhladÃŃ": 6983,
      "ĠkoutÄĽ": 6984,
      "ĠretÅ¯": 6985,
      "ca": 6986,
      "ĠnevÃ¡": 6987,
      "Ġvysta": 6988,
      "ĠvojÃŃ": 6989,
      "ĠrÃ¡ÅĪ": 6990,
      "ĠspoÄįÃŃ": 6991,
      "ĠÅ¡ÃŃÅĻ": 6992,
      "ĠzjevÃŃ": 6993,
      "Ġprince": 6994,
      "ĠuhlÃŃ": 6995,
      "teÄįnÃŃ": 6996,
      "Ġprova": 6997,
      "ĠÅĻece": 6998,
      "Ġnejde": 6999,
      "ÅĻeny": 7000,
      "dily": 7001,
      "ĠchvÄĽlo": 7002,
      "ĠdivokÃ©": 7003,
      "ĠdnovÃ©": 7004,
      "lon": 7005,
      "ĠÅ¾ila": 7006,
      "Ġnejen": 7007,
      "Ġpoupat": 7008,
      "Ġohlas": 7009,
      "ĠchceÅ¡li": 7010,
      "Ġ1827": 7011,
      "ĠmajestÃ¡": 7012,
      "ĠpÅĻelud": 7013,
      "ĠvÃŃÄįka": 7014,
      "ĠÄįinu": 7015,
      "ĠmateÅĻ": 7016,
      "Å¾nou": 7017,
      "Ġben": 7018,
      "ÄįekÃ¡": 7019,
      "ĠhledÃ¡m": 7020,
      "ĠskalÃ¡ch": 7021,
      "ĠhÅĻbitov": 7022,
      "Ã¡nÃŃ": 7023,
      "ĠkÅ¡ti": 7024,
      "ĠukÅ¯": 7025,
      "ĠchtÄĽlo": 7026,
      "ĠvesmÃŃr": 7027,
      "nÄįÃŃ": 7028,
      "Ġstranu": 7029,
      "Ġgo": 7030,
      "ĠvteÅĻi": 7031,
      "ĠnÄĽt": 7032,
      "ÄįkÃ½": 7033,
      "Ġchech": 7034,
      "ÅĪu": 7035,
      "ĠnÃ¡ÅĻ": 7036,
      "ĠvrahÅ¯": 7037,
      "ĠÅ¯nÃŃ": 7038,
      "ĠdrÃ¡hy": 7039,
      "Ġdopo": 7040,
      "ĠÄįechy": 7041,
      "ĠprvÃ©": 7042,
      "piti": 7043,
      "Ġmraku": 7044,
      "Ġslavnost": 7045,
      "ĠdÄĽtin": 7046,
      "Ġzbyl": 7047,
      "Ġvnad": 7048,
      "rny": 7049,
      "Å¡ce": 7050,
      "ĠiÅ¡ÃŃ": 7051,
      "ĠÄįten": 7052,
      "ĠsvatÃ©ho": 7053,
      "ĠblaÅ¾ÃŃ": 7054,
      "Ġbet": 7055,
      "ĠvzpomÃŃnek": 7056,
      "ĠmoudrÃ½": 7057,
      "ĠapoÅ¡to": 7058,
      "zpÄĽ": 7059,
      "chat": 7060,
      "ĠuÅĻe": 7061,
      "ĠkaÅ¡": 7062,
      "Ġhospody": 7063,
      "Ġprokop": 7064,
      "zne": 7065,
      "Ġoto": 7066,
      "Ġekl": 7067,
      "ĠjinÃ©ho": 7068,
      "ĠrÄįÃŃ": 7069,
      "Å¾eli": 7070,
      "Å¡ili": 7071,
      "ĠmocnÃ¡": 7072,
      "ĠznÃ¡t": 7073,
      "ĠpohÃ¡dky": 7074,
      "Ġvyho": 7075,
      "daje": 7076,
      "ĠzÃ¡dum": 7077,
      "ÄįinÄĽ": 7078,
      "Ġstan": 7079,
      "Ġostro": 7080,
      "Ġhluku": 7081,
      "ĠpÃ½cha": 7082,
      "Å¡til": 7083,
      "ĠrozÅ¾": 7084,
      "ĠdÃ¡no": 7085,
      "ĠÅ¾iva": 7086,
      "tul": 7087,
      "Ġnejdra": 7088,
      "ĠnÄĽmÃ©": 7089,
      "Ġmodro": 7090,
      "ĠchvÄĽj": 7091,
      "Ġzjevil": 7092,
      "ĠnÃ¡mÄĽstÃŃ": 7093,
      "Ġposu": 7094,
      "ĠnabÃŃ": 7095,
      "ABABXC": 7096,
      "Ġleta": 7097,
      "ĠdÄĽlÃŃ": 7098,
      "ĠpouhÃ©": 7099,
      "Ġlampy": 7100,
      "Ġzticha": 7101,
      "Ġzanech": 7102,
      "Ġprs": 7103,
      "ĠnebeskÃ©": 7104,
      "ĠtÃŃsnÃŃ": 7105,
      "Ġhel": 7106,
      "ĠkrutÃ©": 7107,
      "ĠkÃ½v": 7108,
      "gna": 7109,
      "ĠhÅĻÃ¡": 7110,
      "Ġesl": 7111,
      "mÃŃra": 7112,
      "ĠlhÃ¡": 7113,
      "ĠÅ¾ÃŃzni": 7114,
      "ĠÅ¡eptal": 7115,
      "tas": 7116,
      "Ġame": 7117,
      "ĠÅ¾a": 7118,
      "lÃŃch": 7119,
      "Ġrku": 7120,
      "ĠsrdÃ©": 7121,
      "Ġsos": 7122,
      "hÃ½bÃ¡": 7123,
      "Ġhubi": 7124,
      "AAXBBC": 7125,
      "Ġace": 7126,
      "ĠebÃŃ": 7127,
      "ĠÃ¡ty": 7128,
      "ĠrodnÃ½": 7129,
      "Ġrevolu": 7130,
      "Ġryb": 7131,
      "ĠnevÄĽdÄĽl": 7132,
      "Ġparku": 7133,
      "Ġminulost": 7134,
      "ĠÄįtvrt": 7135,
      "ckÃ½m": 7136,
      "Ġnavra": 7137,
      "Ġzaji": 7138,
      "Ġcele": 7139,
      "ĠmÃŃsÃŃ": 7140,
      "Ġpuk": 7141,
      "ĠradosÅ¥": 7142,
      "Ġ1821": 7143,
      "ĠkrÃ¡tkÃ©": 7144,
      "ĠpevnÃ½": 7145,
      "ĠrÃ©m": 7146,
      "ĠvÅ¡echna": 7147,
      "ĠskoÄįÃŃ": 7148,
      "Ġmladost": 7149,
      "rali": 7150,
      "Ġpose": 7151,
      "Ġpomy": 7152,
      "ĠlÃŃtost": 7153,
      "ĠrekÅ¯": 7154,
      "ĠÄįlovÄĽkem": 7155,
      "Ġsmys": 7156,
      "ĠzÃ¡dumÄįi": 7157,
      "Ġsno": 7158,
      "Å¾nÃ½ch": 7159,
      "ÄįnÃŃch": 7160,
      "ABCCBD": 7161,
      "Ġvesna": 7162,
      "Ġzbylo": 7163,
      "Ġroztomil": 7164,
      "lie": 7165,
      "Äįely": 7166,
      "Ġpravi": 7167,
      "Ġplakal": 7168,
      "ĠklidnÃ½": 7169,
      "ĠvdÄĽÄį": 7170,
      "ĠvÄĽÅĻte": 7171,
      "ĠpÃ½Å¡e": 7172,
      "Ġzkla": 7173,
      "ĠkacÃŃ": 7174,
      "ĠplnÃ½ch": 7175,
      "ĠhvÄĽzdou": 7176,
      "Ġpovstal": 7177,
      "Ġvezmi": 7178,
      "ĠhleÄıte": 7179,
      "ĠposmÄĽch": 7180,
      "ĠmistÅĻe": 7181,
      "Ġych": 7182,
      "Ġokra": 7183,
      "ĠnovÃ©ho": 7184,
      "Ġshon": 7185,
      "Ġzmatku": 7186,
      "ÅĻte": 7187,
      "Ġvzrost": 7188,
      "ĠhledÄĽ": 7189,
      "Äįena": 7190,
      "ĠkÃ¡cÃŃ": 7191,
      "ĠkÅĻovÃŃ": 7192,
      "ĠposÃŃ": 7193,
      "Ġnasy": 7194,
      "ÅĻely": 7195,
      "ĠÃŃcÃ½": 7196,
      "ĠvÃ¡no": 7197,
      "Ġsouci": 7198,
      "ĠspÃ¡ti": 7199,
      "ĠhlÃ¡sÃŃ": 7200,
      "stupuje": 7201,
      "ĠvyÅ¡ehra": 7202,
      "staly": 7203,
      "Ġnet": 7204,
      "ĠniÅ¾": 7205,
      "ĠvÃ¡le": 7206,
      "Ġlat": 7207,
      "hro": 7208,
      "snÃ½ch": 7209,
      "Ġchalou": 7210,
      "ĠkopÃŃ": 7211,
      "Ġshlu": 7212,
      "Ġtrium": 7213,
      "pce": 7214,
      "ĠzadÃŃ": 7215,
      "kalo": 7216,
      "Ġvyjde": 7217,
      "ĠskvoucÃŃ": 7218,
      "ĠdÄĽcka": 7219,
      "ĠpoÅ¾ehnÃ¡": 7220,
      "ĠÅ¾ebrÃ¡k": 7221,
      "AXAXB": 7222,
      "Ġpopla": 7223,
      "Ġneli": 7224,
      "Ġdocela": 7225,
      "ĠÅĻÃŃdÃŃ": 7226,
      "zenÃ½": 7227,
      "AAXBBX": 7228,
      "ĠdÃ½mu": 7229,
      "ĠkrvavÃ½": 7230,
      "AXXX": 7231,
      "ĠrovnÄĽÅ¾": 7232,
      "ĠÃŃst": 7233,
      "nÃ¡c": 7234,
      "ĠdÄĽvu": 7235,
      "adil": 7236,
      "cÅ¯v": 7237,
      "ĠbÅĻehÅ¯": 7238,
      "Ġnedal": 7239,
      "ÅĻÃŃti": 7240,
      "mÃŃvÃ¡": 7241,
      "ĠstÃ¡da": 7242,
      "ĠÄįernÃ½m": 7243,
      "ĠpÄĽti": 7244,
      "Ġskokem": 7245,
      "ĠdÃŃvce": 7246,
      "ĠzboÅ¾nÄĽ": 7247,
      "BD": 7248,
      "tnÃ½ch": 7249,
      "Ġmine": 7250,
      "ÄįeÅ¾": 7251,
      "ĠnovÃ©m": 7252,
      "taj": 7253,
      "ĠhradÄĽ": 7254,
      "zala": 7255,
      "ĠhouÅ¡ti": 7256,
      "ĠteplÃ½": 7257,
      "the": 7258,
      "razi": 7259,
      "lÃ¡n": 7260,
      "ĠproklÃŃ": 7261,
      "jila": 7262,
      "Ġhroma": 7263,
      "ĠdruhÅ¯": 7264,
      "ĠkleÄįÃŃ": 7265,
      "ĠhustÃ©": 7266,
      "Ġjasno": 7267,
      "vitÃ©": 7268,
      "ĠnedoÄįka": 7269,
      "ĠjizbÄĽ": 7270,
      "Ã½t": 7271,
      "Ġnevo": 7272,
      "ĠÃŃbÃ¡": 7273,
      "ĠrhÃ¡": 7274,
      "Ġprobou": 7275,
      "tÃ¡ÅĻ": 7276,
      "Ġslovu": 7277,
      "ĠsvÃŃtÃ¡": 7278,
      "ĠchvÄĽly": 7279,
      "ĠÃºsmÄĽvu": 7280,
      "Ġpokoji": 7281,
      "Ġmohli": 7282,
      "Ġhejno": 7283,
      "ĠmlÃ½n": 7284,
      "kru": 7285,
      "Ġusy": 7286,
      "ĠÄįistou": 7287,
      "ĠkrÃ¡lovna": 7288,
      "lÃ½mi": 7289,
      "zli": 7290,
      "Ġzval": 7291,
      "ĠzavÄĽ": 7292,
      "Ġodpla": 7293,
      "Ġsrdcy": 7294,
      "ĠÃºtro": 7295,
      "Ġspor": 7296,
      "ĠsÃ¡l": 7297,
      "bÃ½vÃ¡": 7298,
      "Ġhisto": 7299,
      "ĠvÃŃme": 7300,
      "Ġuru": 7301,
      "novu": 7302,
      "mus": 7303,
      "ĠcestÃ¡ch": 7304,
      "Ġperel": 7305,
      "ĠÄįinÅ¯": 7306,
      "pali": 7307,
      "ĠzdvÃŃ": 7308,
      "ĠsnÃ¡Å¡ÃŃ": 7309,
      "bnou": 7310,
      "Ġkl": 7311,
      "Ġdovo": 7312,
      "Ġkopy": 7313,
      "ĠpÅĻehlu": 7314,
      "veÅĪ": 7315,
      "Ġhladem": 7316,
      "ĠklasÅ¯": 7317,
      "ĠslepÃ½": 7318,
      "ĠpamÄĽt": 7319,
      "Ġhorami": 7320,
      "Ġzjas": 7321,
      "loval": 7322,
      "Ġsval": 7323,
      "Ġsocha": 7324,
      "Ġzloba": 7325,
      "hlÃ½m": 7326,
      "ĠtisÃŃci": 7327,
      "Ġzahu": 7328,
      "Ġrav": 7329,
      "stÃŃrÃ¡": 7330,
      "ĠhÃ¡v": 7331,
      "ĠvÅ¡emo": 7332,
      "Ġhanu": 7333,
      "Ġzbroj": 7334,
      "ĠposlednÃŃm": 7335,
      "ĠzmÄĽnÃŃ": 7336,
      "ĠstkvÄĽ": 7337,
      "ĠpaÅ¾ÃŃ": 7338,
      "ĠstoletÃŃ": 7339,
      "ĠblÃ½ska": 7340,
      "Ġsoumraku": 7341,
      "Ġprsten": 7342,
      "gan": 7343,
      "jo": 7344,
      "ĠjmÄĽnÃŃ": 7345,
      "ĠÃ¡ka": 7346,
      "ĠÅ¾ivÃŃ": 7347,
      "ĠmÃ¡k": 7348,
      "Ġvoje": 7349,
      "ĠlÃŃpy": 7350,
      "Ġoblaka": 7351,
      "ĠvÃ¡Å¾nÃ½": 7352,
      "ĠohÃ½": 7353,
      "Ġbky": 7354,
      "Ġubi": 7355,
      "ĠerÃ©": 7356,
      "ĠvlaÅ¡to": 7357,
      "Å¾enÃ½ch": 7358,
      "ĠmarnÃ¡": 7359,
      "Ġmam": 7360,
      "stit": 7361,
      "tickÃ©": 7362,
      "Ġjsy": 7363,
      "pÄĽla": 7364,
      "hlas": 7365,
      "ĠnÃ¡rodÅ¯": 7366,
      "ĠhrÅ¯z": 7367,
      "ĠbÃ¡snÄĽ": 7368,
      "ĠstÅĻÃŃbrnÃ©": 7369,
      "ĠjmÃ©nem": 7370,
      "ĠubohÃ©": 7371,
      "don": 7372,
      "Ġvzhled": 7373,
      "ĠplÃ¡lo": 7374,
      "Ġfo": 7375,
      "ĠmrtvÃŃ": 7376,
      "pÃŃm": 7377,
      "ĠorÃ¡": 7378,
      "ĠtuÅ¾eb": 7379,
      "ĠpodlÃ©": 7380,
      "ABCABC": 7381,
      "ĠprÃ¡zdnÃ½": 7382,
      "ĠotevÅĻel": 7383,
      "mÅ¯Å¾e": 7384,
      "Ġblud": 7385,
      "Ġsit": 7386,
      "Ġnko": 7387,
      "ĠchÅĻe": 7388,
      "ĠpÅĻipo": 7389,
      "Ġoprav": 7390,
      "Ġzakry": 7391,
      "ÄįkovÃ©": 7392,
      "Ġkonci": 7393,
      "Ġkorouh": 7394,
      "ĠzlÃ©ho": 7395,
      "ÅĻÃŃvÃ¡": 7396,
      "ĠpovÄĽst": 7397,
      "ĠknÄĽÅ¾na": 7398,
      "Ġsymbo": 7399,
      "dly": 7400,
      "Ġmha": 7401,
      "stvu": 7402,
      "ĠpoÅ¡e": 7403,
      "Å¾ilo": 7404,
      "ĠlehkÃ½": 7405,
      "ĠpoÄįÃ¡": 7406,
      "ĠdÄĽsnÃ©": 7407,
      "Ġteplo": 7408,
      "Ġthe": 7409,
      "ÄįkÃ©": 7410,
      "Ġroku": 7411,
      "ĠvydÃ¡": 7412,
      "ĠrubÃŃ": 7413,
      "Ġstole": 7414,
      "ĠstarÅ¡ÃŃ": 7415,
      "ĠdvoÅĻe": 7416,
      "ĠsmÃ¡la": 7417,
      "ĠozÃŃ": 7418,
      "Ġbce": 7419,
      "nÄĽnou": 7420,
      "ĠzÃ¡po": 7421,
      "Ġodsou": 7422,
      "Ġskvr": 7423,
      "Ġnemu": 7424,
      "ĠpÄĽjÃŃ": 7425,
      "ĠmnoÅ¾stvÃŃ": 7426,
      "ceni": 7427,
      "Ġtrosky": 7428,
      "ĠstÅĻÃŃbrem": 7429,
      "ĠpÅ¯lnoci": 7430,
      "Ġjdeme": 7431,
      "ĠmÄĽly": 7432,
      "Ġnemy": 7433,
      "ĠblahÃ½": 7434,
      "ĠplachÃ½": 7435,
      "ĠvÃ½chod": 7436,
      "Ġhezky": 7437,
      "ĠpamÄĽÅ¥": 7438,
      "ĠodÃ¡": 7439,
      "tisk": 7440,
      "nov": 7441,
      "ditel": 7442,
      "ĠhoupÃ¡": 7443,
      "benÃ©": 7444,
      "Ġfial": 7445,
      "ĠbohynÄĽ": 7446,
      "ĠtkÃ½": 7447,
      "Ġmuzi": 7448,
      "ĠÅ¡epo": 7449,
      "Ġlup": 7450,
      "ĠmrtvÃ¡": 7451,
      "nickÃ©": 7452,
      "ĠubohÃ½": 7453,
      "ĠspanÃŃ": 7454,
      "ĠplÃŃÅ¾ÃŃ": 7455,
      "ĠzÃ¡slu": 7456,
      "vitÄĽ": 7457,
      "ĠmÃ¡li": 7458,
      "ĠpÅĻedtu": 7459,
      "Ġkoruny": 7460,
      "ĠpevnÃ©": 7461,
      "ĠvzÃ¡cnÃ©": 7462,
      "drÃ¡": 7463,
      "ĠuhÅ¯": 7464,
      "nÄĽla": 7465,
      "Ġihu": 7466,
      "ĠÃ¡mÃ½": 7467,
      "ĠdÄĽtskÃ©": 7468,
      "ĠnenadÃ¡nÃŃ": 7469,
      "ĠÅ¡av": 7470,
      "ĠpaprskÅ¯": 7471,
      "fy": 7472,
      "zdÃŃ": 7473,
      "nÃ¡Å¡el": 7474,
      "Ġkohou": 7475,
      "Ġlak": 7476,
      "Ġstrasti": 7477,
      "pÃ¡n": 7478,
      "ĠsladkÃ©m": 7479,
      "Ġbere": 7480,
      "ĠnÃ¡rody": 7481,
      "ĠpÅĻemÃŃ": 7482,
      "ĠÅ¾ehnÃ¡": 7483,
      "ÅĻelo": 7484,
      "vÃ¡nÃŃm": 7485,
      "ĠtuÅ¥": 7486,
      "ĠpÃŃÅ¡": 7487,
      "ĠpÃ¡nbÅ¯h": 7488,
      "ĠzboÅ¾ÃŃ": 7489,
      "ĠoltÃ¡ÅĻe": 7490,
      "Ġbiskup": 7491,
      "Ġpce": 7492,
      "ĠmÅ¯": 7493,
      "ĠjeseÅĪ": 7494,
      "tiny": 7495,
      "ĠvzkÅĻi": 7496,
      "ÅĪal": 7497,
      "ĠnÃ¡vra": 7498,
      "bej": 7499,
      "ĠbÅĻÃŃmÄĽ": 7500,
      "ĠnaÅ¡ÃŃm": 7501,
      "ĠÄĽno": 7502,
      "Ġmuky": 7503,
      "ĠnÄĽn": 7504,
      "ĠmnozÃŃ": 7505,
      "ĠnedbÃ¡": 7506,
      "ĠjakÃ©s": 7507,
      "ĠzvlÃ¡Å¡tÄĽ": 7508,
      "dnu": 7509,
      "ĠnaÅ¡li": 7510,
      "ÅĻÃŃch": 7511,
      "ĠtiÅ¡": 7512,
      "ĠtemnÃ¡": 7513,
      "ĠmalÃ½ch": 7514,
      "Ġzvuku": 7515,
      "Ġvzejde": 7516,
      "vku": 7517,
      "zar": 7518,
      "Å¾ku": 7519,
      "Ġkmo": 7520,
      "Å¡kem": 7521,
      "Ġuhas": 7522,
      "Ġzasy": 7523,
      "tovÃ¡nÃŃ": 7524,
      "Ġrozpo": 7525,
      "ĠraÅĪ": 7526,
      "Ġslabo": 7527,
      "ĠsÃŃÅ¥": 7528,
      "ĠdravÃ½": 7529,
      "ĠzelenÃ¡": 7530,
      "ĠsnivÃ¡": 7531,
      "Ġolo": 7532,
      "Ġsedla": 7533,
      "Ġposte": 7534,
      "skÃ½mi": 7535,
      "jÃŃti": 7536,
      "XAXX": 7537,
      "ĠodÅ¯": 7538,
      "ACAC": 7539,
      "ĠtÅ¯nÄĽ": 7540,
      "ĠzÃ¡mek": 7541,
      "fÃŃ": 7542,
      "Ġvku": 7543,
      "Ġnachem": 7544,
      "Ġmozo": 7545,
      "ĠtÄĽkÃ¡": 7546,
      "bech": 7547,
      "ĠÅ¾ik": 7548,
      "Å¾iv": 7549,
      "Ġhodina": 7550,
      "ĠtakovÃ½": 7551,
      "Ġolym": 7552,
      "ĠY": 7553,
      "Ġam": 7554,
      "ĠzaÅ¡el": 7555,
      "Ġroje": 7556,
      "ĠvysÃŃ": 7557,
      "Ġstala": 7558,
      "ĠmÃ©nÄĽ": 7559,
      "ĠpÄĽsti": 7560,
      "ĠchytÃ¡": 7561,
      "Ġtragi": 7562,
      "ĠtrÃ¡vu": 7563,
      "ABACCB": 7564,
      "Ã½val": 7565,
      "rami": 7566,
      "Ġevy": 7567,
      "nova": 7568,
      "ĠprochÃ¡": 7569,
      "ĠrozvÃ¡": 7570,
      "Ġhus": 7571,
      "ĠbijÃŃ": 7572,
      "ĠhÅĻÃŃmÃ¡": 7573,
      "ĠveselÃ½": 7574,
      "Ġpruh": 7575,
      "ĠzÅĻeli": 7576,
      "ĠjdÄĽte": 7577,
      "Ġlel": 7578,
      "sala": 7579,
      "ĠrybnÃŃ": 7580,
      "ĠneznÃ¡mÃ©": 7581,
      "Ġzpola": 7582,
      "Ġvas": 7583,
      "dechu": 7584,
      "ĠsynÅ¯": 7585,
      "Ġnebla": 7586,
      "Ġdvoj": 7587,
      "nickÃ½": 7588,
      "Ġhudbu": 7589,
      "Ġdivoce": 7590,
      "ĠdivokÃ½": 7591,
      "Ġzrozen": 7592,
      "ĠvzÃ¡cnÃ½": 7593,
      "ĠokamÅ¾iku": 7594,
      "vÅ¡ad": 7595,
      "ĠÅĪÃ¡dra": 7596,
      "ĠnevÃ½slov": 7597,
      "Ġuh": 7598,
      "Ġjist": 7599,
      "ABBB": 7600,
      "ĠmarnÃ½": 7601,
      "ĠÅ¡uma": 7602,
      "ĠhorÅ¡ÃŃ": 7603,
      "Ġtmavou": 7604,
      "ĠznÃ¡ti": 7605,
      "ĠuÅ¡lech": 7606,
      "Ġvzplane": 7607,
      "ĠhospodÃ¡ÅĻ": 7608,
      "ĠveÅ¡ker": 7609,
      "Å¾nÃŃ": 7610,
      "jeli": 7611,
      "Ġroh": 7612,
      "ĠdÃ¡val": 7613,
      "ĠzdÃ¡la": 7614,
      "Ġkyp": 7615,
      "ĠsvÃ¡tek": 7616,
      "ĠodeÅ¡el": 7617,
      "ĠnÄĽjÅ¾": 7618,
      "Ġjizby": 7619,
      "ĠspoleÄįnosti": 7620,
      "Ġmiliony": 7621,
      "Ġshle": 7622,
      "Ġ17": 7623,
      "Ġ1819": 7624,
      "kam": 7625,
      "Ġvzpou": 7626,
      "Ġrozez": 7627,
      "mila": 7628,
      "Ġkane": 7629,
      "Ġzaslech": 7630,
      "Ġjasem": 7631,
      "Ġkroku": 7632,
      "ĠzdÃ¡nÃŃ": 7633,
      "Ġmrazem": 7634,
      "ĠÅ¡ik": 7635,
      "ĠstÅĻechy": 7636,
      "Ġuml": 7637,
      "ĠpohÃ¡dka": 7638,
      "ĠboÅ¾stvÃŃ": 7639,
      "Ġ1807": 7640,
      "ĠÅ¡koly": 7641,
      "Å¡Ã¡": 7642,
      "ĠbdÄĽ": 7643,
      "ĠÄįeskou": 7644,
      "ĠÃºkry": 7645,
      "ĠplaÅ¡ÃŃ": 7646,
      "Ġtemna": 7647,
      "ĠsvobodÄĽ": 7648,
      "Ġopustil": 7649,
      "ÅĻka": 7650,
      "ĠdusÃŃ": 7651,
      "ĠrudÃ¡": 7652,
      "ĠpÅĻÃŃtele": 7653,
      "Å¡enÃ¡": 7654,
      "ĠpalÃ¡c": 7655,
      "Ġskryt": 7656,
      "ĠcÃŃrkve": 7657,
      "fu": 7658,
      "nan": 7659,
      "vyk": 7660,
      "ĠrumÄĽ": 7661,
      "ĠjasnÃ½m": 7662,
      "Ġlehko": 7663,
      "Ġjek": 7664,
      "ĠÅ¾nÄĽ": 7665,
      "Ġlehou": 7666,
      "ĠmÄĽÅ¡Å¥": 7667,
      "Ġdie": 7668,
      "Ġnouze": 7669,
      "ĠobÄĽti": 7670,
      "ĠsnÃŃt": 7671,
      "ĠmuÅ¾em": 7672,
      "kladu": 7673,
      "ĠÃºsvit": 7674,
      "Ġodpor": 7675,
      "ĠradostnÄĽ": 7676,
      "ĠdrÃ¡hu": 7677,
      "ĠvodopÃ¡": 7678,
      "ĠzasmuÅ¡il": 7679,
      "bami": 7680,
      "ĠdÅ¾": 7681,
      "ĠviÄı": 7682,
      "ĠlÃŃnÄĽ": 7683,
      "sajÃŃ": 7684,
      "bala": 7685,
      "ĠnevÄĽÅĻÃŃ": 7686,
      "ĠskalnÃŃ": 7687,
      "ĠuchvÃ¡": 7688,
      "ĠtvrdÃ½": 7689,
      "ĠÅ¾iÅ¾ka": 7690,
      "Ġstarci": 7691,
      "ĠÅ¯ry": 7692,
      "ĠkrutÄĽ": 7693,
      "ĠmÄĽkce": 7694,
      "Ġjezera": 7695,
      "ĠstkvÃŃ": 7696,
      "ĠÃºtra": 7697,
      "Ġhrot": 7698,
      "ĠlÃ©k": 7699,
      "Ġshr": 7700,
      "ĠdÄĽvÄįÃ¡": 7701,
      "Ġklene": 7702,
      "ĠbohÅ¯m": 7703,
      "Ġidy": 7704,
      "Ġobec": 7705,
      "CCA": 7706,
      "ĠsvÃŃce": 7707,
      "ĠtesknÃ©": 7708,
      "Ġzbude": 7709,
      "rÃ½mi": 7710,
      "ĠssÃ¡": 7711,
      "ĠzapÃ¡": 7712,
      "Ġtoli": 7713,
      "Ġvym": 7714,
      "Å¡tÄĽm": 7715,
      "ĠkÅĻÃŃÅ¾i": 7716,
      "ĠslavnÃ½ch": 7717,
      "Ġpevnou": 7718,
      "vcÅ¯": 7719,
      "chla": 7720,
      "ĠroznÃŃ": 7721,
      "ĠnÃ¡po": 7722,
      "ĠzÃ¡Å¡Å¥": 7723,
      "ĠvlastnÃŃch": 7724,
      "chvÃ¡": 7725,
      "Ġdoli": 7726,
      "ĠhoÅĻem": 7727,
      "Ġsul": 7728,
      "ĠtmavÃ¡": 7729,
      "Ġvezme": 7730,
      "ĠandÄĽlÃ©": 7731,
      "bÅĻe": 7732,
      "Ġupy": 7733,
      "Ġika": 7734,
      "Ġche": 7735,
      "kuje": 7736,
      "ĠstatnÃ½": 7737,
      "ĠÅ¡ve": 7738,
      "ĠÅ¡kÅ¯": 7739,
      "duje": 7740,
      "ĠbÃŃdÄĽ": 7741,
      "Ġhrozi": 7742,
      "ĠjaÅĻe": 7743,
      "naly": 7744,
      "ĠplesÃ¡": 7745,
      "Ġshro": 7746,
      "Ġzil": 7747,
      "ĠzanÃŃ": 7748,
      "ĠoblÃ©": 7749,
      "ĠbÃŃdnÃ©": 7750,
      "zdra": 7751,
      "teÄįnÄĽ": 7752,
      "Ġdruhy": 7753,
      "ĠstraÅ¡nÃ½": 7754,
      "ĠchrÃ¡mÄĽ": 7755,
      "Ġzaml": 7756,
      "ĠusmÃ¡l": 7757,
      "slil": 7758,
      "ĠudÃ½": 7759,
      "ĠtovÃ¡": 7760,
      "kolem": 7761,
      "Ġvzcho": 7762,
      "Ġ1939": 7763,
      "Ġnepokoj": 7764,
      "Ġsadu": 7765,
      "Ġcenu": 7766,
      "ĠobrÃ¡til": 7767,
      "ĠpohleÄı": 7768,
      "Ġvdech": 7769,
      "ĠÃ¡vÃŃ": 7770,
      "cii": 7771,
      "ĠÅ¾ijÃŃ": 7772,
      "ÅĻeno": 7773,
      "cena": 7774,
      "Ġklidem": 7775,
      "ĠzÃŃral": 7776,
      "ĠmÄĽkkÃ½": 7777,
      "Ġobloha": 7778,
      "Ġvstoupil": 7779,
      "hi": 7780,
      "ĠÃ¡mu": 7781,
      "ĠÃŃlo": 7782,
      "Ġobdi": 7783,
      "Ġlide": 7784,
      "ĠlÃ½": 7785,
      "ĠlÅ¾ÃŃ": 7786,
      "Ġdek": 7787,
      "ÅĻenÃ½m": 7788,
      "ĠnevdÄĽ": 7789,
      "ĠpropastÃŃ": 7790,
      "ĠmraÄįno": 7791,
      "ĠpÅĻÃ¡telstvÃŃ": 7792,
      "ĠvleÄįe": 7793,
      "lumen": 7794,
      "Ġzoufalo": 7795,
      "Ġoblohou": 7796,
      "ĠÄĽÅ¡ÃŃ": 7797,
      "Äįeho": 7798,
      "ĠzÃ¡ro": 7799,
      "mÄĽlo": 7800,
      "Ġpranic": 7801,
      "ĠÃºstech": 7802,
      "ĠostÅĻÃŃ": 7803,
      "ĠÅĻekli": 7804,
      "Ġanebo": 7805,
      "ĠsnivÃ½": 7806,
      "ĠtÃ½Å¾": 7807,
      "ĠpsanÃŃ": 7808,
      "ĠahÃ©": 7809,
      "Ġokouz": 7810,
      "ĠvÃ¡t": 7811,
      "ĠkouÅĻ": 7812,
      "Ġpustil": 7813,
      "ĠbÃ¡znÃŃ": 7814,
      "ĠmnoÅ¾ÃŃ": 7815,
      "Å¡eni": 7816,
      "ĠzrÃ¡d": 7817,
      "Ġzastavil": 7818,
      "ĠtÃ³ny": 7819,
      "ĠhodÃŃ": 7820,
      "ĠpravÃ¡": 7821,
      "ĠÅ¡eÅĻÃŃ": 7822,
      "lÅ¯v": 7823,
      "ĠveselÃŃ": 7824,
      "hÃ©ho": 7825,
      "zla": 7826,
      "ĠutÃ¡": 7827,
      "ĠdotÃ½": 7828,
      "Ġobry": 7829,
      "ĠÃºpÃŃ": 7830,
      "rÅ¯v": 7831,
      "ĠjemnÃ©": 7832,
      "ĠmocnÃ½m": 7833,
      "ĠnÄĽkte": 7834,
      "ĠpestrÃ½": 7835,
      "Ġroman": 7836,
      "Ġkovo": 7837,
      "Ġhonem": 7838,
      "ĠmÄĽÅĻÃŃ": 7839,
      "ĠpeÅĻÃŃ": 7840,
      "ĠvÄĽÄįnÃ½m": 7841,
      "ĠdlaÅ¾": 7842,
      "Ġvstala": 7843,
      "Ġhbit": 7844,
      "atÃ©": 7845,
      "Ġhol": 7846,
      "ĠvybÃŃ": 7847,
      "Ġsluha": 7848,
      "ĠtrÄįÃŃ": 7849,
      "cenou": 7850,
      "ĠvlÃ¡dce": 7851,
      "Ġkapky": 7852,
      "Ġer": 7853,
      "Ġmuce": 7854,
      "ĠlkÃ¡nÃŃ": 7855,
      "ĠdÃŃtko": 7856,
      "Ġvlaje": 7857,
      "ABCDDC": 7858,
      "Ġlampa": 7859,
      "stroj": 7860,
      "Ġvyrost": 7861,
      "Ġmukou": 7862,
      "Ġrozva": 7863,
      "Ġbur": 7864,
      "ĠnejdÅĻÃŃ": 7865,
      "ĠmodrÃ¡": 7866,
      "Ġtrap": 7867,
      "Ġklobouk": 7868,
      "ĠjakÃ½m": 7869,
      "Ġhody": 7870,
      "Ġvzo": 7871,
      "ĠmaliÄį": 7872,
      "Ġkrov": 7873,
      "ĠstÅĻela": 7874,
      "ĠbujnÃ½": 7875,
      "ĠzalÃŃ": 7876,
      "Ġvypro": 7877,
      "ĠvÄĽrnÃ¡": 7878,
      "ĠbÅĻit": 7879,
      "Ġdop": 7880,
      "Ġrtem": 7881,
      "ĠvyÅ¡li": 7882,
      "ĠruÄįe": 7883,
      "ĠkouÅĻÃŃ": 7884,
      "ĠÅ¡irÃ©m": 7885,
      "Ġroucha": 7886,
      "ĠdokonÃ¡": 7887,
      "ĠsvatebnÃŃ": 7888,
      "Ġ!": 7889,
      "ĠlekÃ¡": 7890,
      "Ġprovo": 7891,
      "doval": 7892,
      "Ġsnahy": 7893,
      "ĠozÃ½vÃ¡": 7894,
      "ĠzuÅĻi": 7895,
      "ĠtÅ¯m": 7896,
      "ĠaÅĻe": 7897,
      "ĠÅ¾nÃ©": 7898,
      "Ġcvr": 7899,
      "Ġrah": 7900,
      "ĠdÃŃvÃ¡m": 7901,
      "ĠÅĻÃŃv": 7902,
      "ĠpohlÃŃ": 7903,
      "ĠtÃŃÅ¡": 7904,
      "bnÃ¡": 7905,
      "Ġvlek": 7906,
      "ĠÅ¡al": 7907,
      "Ġvlno": 7908,
      "ĠstarÃ½m": 7909,
      "Ġmilos": 7910,
      "ĠmÄĽkkÃ©": 7911,
      "ĠnejlepÅ¡ÃŃ": 7912,
      "Ġodo": 7913,
      "ĠrtÅ¯m": 7914,
      "Ġduma": 7915,
      "ĠdobrÃ½ch": 7916,
      "ĠÅ¾ÃŃzeÅĪ": 7917,
      "ĠtmavÃ½ch": 7918,
      "Ġvesny": 7919,
      "Ġtajemnou": 7920,
      "ĠzaÅ¡lÃ½ch": 7921,
      "Ġrozumu": 7922,
      "ĠlÅ¯Å¾ko": 7923,
      "plo": 7924,
      "chi": 7925,
      "ĠvodÃŃ": 7926,
      "Ġtane": 7927,
      "ĠkabÃ¡": 7928,
      "ĠprÃ¡vem": 7929,
      "jemi": 7930,
      "Ġcizo": 7931,
      "ĠhlasnÄĽ": 7932,
      "Ġopou": 7933,
      "Ġzpit": 7934,
      "ĠhvÄĽzdnÃ©": 7935,
      "AEAE": 7936,
      "ĠpamÃ¡tku": 7937,
      "roti": 7938,
      "Ġuc": 7939,
      "ĠvÄĽÅ¾i": 7940,
      "ĠmuÄįÃŃ": 7941,
      "Ġtec": 7942,
      "Ġpravila": 7943,
      "ĠobÄĽtÃŃ": 7944,
      "ĠvolÃ¡m": 7945,
      "ĠstÅĻÃŃbrnÃ½": 7946,
      "Ġkostela": 7947,
      "Ġlilie": 7948,
      "Ġrcete": 7949,
      "Ġazy": 7950,
      "ĠkÅĻ": 7951,
      "ĠÅ¾nÃ¡": 7952,
      "ĠdÅĻÃŃma": 7953,
      "ĠÄįÃŃst": 7954,
      "ĠpokolenÃŃ": 7955,
      "pne": 7956,
      "Ġupu": 7957,
      "Ġvozy": 7958,
      "ĠÅ¡erÃ½": 7959,
      "ĠdrahÃ½ch": 7960,
      "ĠkrÃ¡snÄĽjÅ¡ÃŃ": 7961,
      "ĠpÅ¯dÄĽ": 7962,
      "ĠsuchÃ©": 7963,
      "Ġjun": 7964,
      "XAXABC": 7965,
      "koliv": 7966,
      "Ġvstane": 7967,
      "ĠpalÃ¡ce": 7968,
      "haly": 7969,
      "ruje": 7970,
      "ĠctÄĽ": 7971,
      "nutÃ©": 7972,
      "Ġhocha": 7973,
      "Ġlie": 7974,
      "ĠruÅ¡ÃŃ": 7975,
      "leno": 7976,
      "ĠstÄĽn": 7977,
      "ĠumÅĻel": 7978,
      "Ġprosil": 7979,
      "ĠÅĻetÄĽz": 7980,
      "ĠvzÃŃti": 7981,
      "tna": 7982,
      "Ġchalu": 7983,
      "ĠjasnÃ½ch": 7984,
      "ĠÃ©no": 7985,
      "ĠzÅĻÃŃdka": 7986,
      "Ġmrazi": 7987,
      "Ġdarem": 7988,
      "Ġsloupy": 7989,
      "hlÃŃÅ¾ÃŃ": 7990,
      "ĠmroucÃŃ": 7991,
      "Ġnehle": 7992,
      "stin": 7993,
      "ĠzemÅĻel": 7994,
      "ĠjeÅ¾to": 7995,
      "Ġmiluj": 7996,
      "ĠstraÅ¡nÃ©": 7997,
      "ĠÅ¡Å¥astnÃ©": 7998,
      "Ġstrun": 7999,
      "ĠzkuÅ¡en": 8000,
      "Ġdobrodru": 8001,
      "ĠkvÄĽtiny": 8002,
      "ĠpÅĻÃŃko": 8003,
      "ĠpÅĻedce": 8004,
      "Ġheslo": 8005,
      "hej": 8006,
      "nÄĽna": 8007,
      "lÃŃp": 8008,
      "ĠÃŃsÃŃ": 8009,
      "Ġlest": 8010,
      "Ġpropad": 8011,
      "ĠtÄĽn": 8012,
      "Ġhladu": 8013,
      "ĠjenÅ¾to": 8014,
      "Ġflo": 8015,
      "Ġref": 8016,
      "chali": 8017,
      "ĠhorkÃ©": 8018,
      "Ġchladnou": 8019,
      "ĠjiskÅĻÃŃ": 8020,
      "ĠzachrÃ¡": 8021,
      "ĠtÅ¯ÅĪ": 8022,
      "Ġzdroje": 8023,
      "out": 8024,
      "Ġprob": 8025,
      "ĠvÄĽno": 8026,
      "AABBXX": 8027,
      "Ġkladi": 8028,
      "ĠbrÃ¡na": 8029,
      "Ġnebudu": 8030,
      "Ġdys": 8031,
      "Ġsever": 8032,
      "ĠbystÅĻi": 8033,
      "ĠmlÃ¡deÅ¾": 8034,
      "Ġdka": 8035,
      "ĠÃ¡nÅ¯": 8036,
      "Ġvysla": 8037,
      "Ġpavou": 8038,
      "ĠdlouhÃ½m": 8039,
      "ĠtÃŃseÅĪ": 8040,
      "Ġpamat": 8041,
      "ĠsÃŃmÄĽ": 8042,
      "ÃŃch": 8043,
      "Ġpsy": 8044,
      "ĠjnÃ©": 8045,
      "vÃ¡na": 8046,
      "ĠvÃŃnek": 8047,
      "vedu": 8048,
      "ĠkrÃ¡lo": 8049,
      "mon": 8050,
      "ĠchuÄı": 8051,
      "Å¾eno": 8052,
      "Ġjala": 8053,
      "Ġbah": 8054,
      "vena": 8055,
      "Å¡ena": 8056,
      "ĠÅ¾aly": 8057,
      "Ġpolibek": 8058,
      "ĠzamyÅ¡len": 8059,
      "ĠmaÄıar": 8060,
      "Ġhodil": 8061,
      "ĠstÃ¡vÃ¡": 8062,
      "ĠbÄĽlÃ¡": 8063,
      "ĠbÃ¡znÄĽ": 8064,
      "Ġsup": 8065,
      "ĠbolesÅ¥": 8066,
      "Ġpivo": 8067,
      "Ġtrav": 8068,
      "ĠslavnÃ¡": 8069,
      "ĠsedlÃ¡": 8070,
      "Ġvichrem": 8071,
      "Ġceny": 8072,
      "Ġkletba": 8073,
      "ĠhvÃŃz": 8074,
      "ĠzÃ¡stupy": 8075,
      "Ġita": 8076,
      "Ġpronik": 8077,
      "XAXAXA": 8078,
      "ĠsloÅ¾il": 8079,
      "ĠmetÃ¡": 8080,
      "ĠbÃ¡jÃŃ": 8081,
      "ĠspÄĽchu": 8082,
      "ĠsedlÃ¡k": 8083,
      "ĠznaÄįÃŃ": 8084,
      "ĠÃŃmi": 8085,
      "ĠblÃ¡ho": 8086,
      "ĠzapomnÄĽnÃŃ": 8087,
      "Ġpohledu": 8088,
      "Ġsmo": 8089,
      "ĠtkÅ¯": 8090,
      "Ġsej": 8091,
      "ĠotÅĻÃ¡": 8092,
      "ĠsnÄĽho": 8093,
      "Ġgro": 8094,
      "Ġcitem": 8095,
      "ĠpotkÃ¡": 8096,
      "ĠvzÃŃt": 8097,
      "Ġaci": 8098,
      "Ġose": 8099,
      "ĠunÃŃ": 8100,
      "Ġzabo": 8101,
      "ĠnahoÅĻe": 8102,
      "AABCC": 8103,
      "Ġzavr": 8104,
      "Ġeci": 8105,
      "Ġneznal": 8106,
      "ĠsnÄĽti": 8107,
      "ĠslÃ¡b": 8108,
      "Ġgene": 8109,
      "Ġvolnosti": 8110,
      "Ġmrakem": 8111,
      "Ġvyslo": 8112,
      "ĠnÄĽmec": 8113,
      "ĠjitÅĻnÃŃ": 8114,
      "znou": 8115,
      "ĠsÅ¯m": 8116,
      "nesl": 8117,
      "ĠcÃ½": 8118,
      "Ġvec": 8119,
      "ĠÅ¡Å¡ÃŃ": 8120,
      "Ġmojich": 8121,
      "ĠkvÄĽtech": 8122,
      "ĠÅĻÃŃd": 8123,
      "Ġstrast": 8124,
      "ĠzhlÃŃ": 8125,
      "jÃ¡k": 8126,
      "ĠcÃŃrkev": 8127,
      "dlem": 8128,
      "Ġdoho": 8129,
      "Ġdoly": 8130,
      "ĠÅ¡kol": 8131,
      "Äįeno": 8132,
      "ĠsilnÄĽ": 8133,
      "ĠokolÃŃ": 8134,
      "ĠdÃ¡vnÃ½": 8135,
      "ĠkvÃŃtÃŃm": 8136,
      "ĠulicÃŃch": 8137,
      "ĠlÅ¯no": 8138,
      "Ġfrancou": 8139,
      "ĠzaÅ¡ep": 8140,
      "ĠfarÃ¡ÅĻ": 8141,
      "Å¡lÃŃ": 8142,
      "Ġjesky": 8143,
      "mund": 8144,
      "ĠmÃ¡je": 8145,
      "Ġskok": 8146,
      "ĠspÄĽchal": 8147,
      "ĠpÄĽknÃ½": 8148,
      "ĠmrÃ¡ko": 8149,
      "Ġneskonal": 8150,
      "ĠvzlÃ©t": 8151,
      "Ġrus": 8152,
      "ĠbezdÄĽ": 8153,
      "Ġkousek": 8154,
      "ĠplÃ¡nÄĽ": 8155,
      "Ġluhu": 8156,
      "cenÃ½ch": 8157,
      "Ġmlhou": 8158,
      "Ġsady": 8159,
      "Ġvezdy": 8160,
      "Ġkletby": 8161,
      "ĠnÃ©sti": 8162,
      "ĠpastÃ½ÅĻ": 8163,
      "ĠptÃ¡m": 8164,
      "Ġhl": 8165,
      "ĠzabÃŃ": 8166,
      "ĠvyrÅ¯": 8167,
      "ĠpÅĻeje": 8168,
      "ĠÄįernÃ©m": 8169,
      "ĠnÃ¡sil": 8170,
      "ĠmilovÃ¡nÃŃ": 8171,
      "Ġdcero": 8172,
      "ĠspÃ¡su": 8173,
      "ĠkrutÃ¡": 8174,
      "ĠmoudÅĻe": 8175,
      "ĠÅĻasy": 8176,
      "ladÅ¡ÃŃ": 8177,
      "Ġysy": 8178,
      "Ġlupen": 8179,
      "ĠdeÅ¡ti": 8180,
      "ĠvÃ½smÄĽ": 8181,
      "dÅĻi": 8182,
      "ĠadÃ©": 8183,
      "Ġiro": 8184,
      "dol": 8185,
      "ĠpÃŃsek": 8186,
      "ÄįenÃ¡": 8187,
      "ĠsilnÃ©": 8188,
      "Ġnepohnu": 8189,
      "ĠteplÃ©": 8190,
      "ABACBC": 8191,
      "Ġpolibky": 8192,
      "ĠnejdraÅ¾Å¡ÃŃ": 8193,
      "ĠudÃ¡": 8194,
      "ĠniÄįem": 8195,
      "ĠdÃŃtek": 8196,
      "ĠlÃŃt": 8197,
      "Ġhromy": 8198,
      "ĠtrnÃŃ": 8199,
      "bÃ¡n": 8200,
      "ĠhlubinÃ¡ch": 8201,
      "ĠdrobnÃ½ch": 8202,
      "ĠzaÅ¡u": 8203,
      "ĠsbÃŃrÃ¡": 8204,
      "XXAA": 8205,
      "Ġpodu": 8206,
      "ĠnahÃ¡": 8207,
      "Ġtichem": 8208,
      "Ġodve": 8209,
      "ĠkvÄĽte": 8210,
      "ĠpohnutÃŃ": 8211,
      "Ġmrav": 8212,
      "Ġnedba": 8213,
      "pka": 8214,
      "Ġhmy": 8215,
      "ĠÃ¡jÃŃ": 8216,
      "ĠnÄĽz": 8217,
      "Ġskou": 8218,
      "ĠpraÅ¾": 8219,
      "ĠpÅĻÃŃsnÃ½": 8220,
      "ĠmÃŃÅĻÃŃ": 8221,
      "ĠtÃ¡hla": 8222,
      "chajÃŃ": 8223,
      "ĠjarÃ½": 8224,
      "ĠhedbÃ¡": 8225,
      "clo": 8226,
      "ĠveÄı": 8227,
      "Ġbudeme": 8228,
      "Ġpodal": 8229,
      "ĠdobÃ¡ch": 8230,
      "ĠshlÃ©": 8231,
      "ĠÅ¾havÃ¡": 8232,
      "Ġkameny": 8233,
      "ĠhojnÄĽ": 8234,
      "ĠskvÄĽlÃ½": 8235,
      "ĠsluneÄįnÃŃ": 8236,
      "ĠverÅ¡Å¯": 8237,
      "vnitÅĻ": 8238,
      "lÃ¡ch": 8239,
      "ĠÃ¡di": 8240,
      "Ġprokla": 8241,
      "ĠvyÄįÃŃ": 8242,
      "danÃ©": 8243,
      "Ġske": 8244,
      "Ġsig": 8245,
      "ĠdobrÃ½m": 8246,
      "Ġleskne": 8247,
      "ĠstvoÅĻil": 8248,
      "tiÅ¾": 8249,
      "Ġcou": 8250,
      "ĠÄĽdÃŃ": 8251,
      "ĠtulÃŃ": 8252,
      "ĠrozvÃŃ": 8253,
      "ĠpaÅ¾e": 8254,
      "ĠdÄĽlo": 8255,
      "ĠzloÄįin": 8256,
      "ĠdÃŃvko": 8257,
      "Ġstatky": 8258,
      "Ġvrchol": 8259,
      "ĠÄįtenÃ¡": 8260,
      "ĠpÅĻim": 8261,
      "ĠdÃŃlu": 8262,
      "Ġreka": 8263,
      "ĠcÃŃtit": 8264,
      "Ġzloby": 8265,
      "ĠÅĻÃ¡s": 8266,
      "Ġuply": 8267,
      "Ġkniha": 8268,
      "ĠzaÄįne": 8269,
      "Ġrozply": 8270,
      "Ġsboru": 8271,
      "ĠnachÃ½": 8272,
      "Ġuvad": 8273,
      "naje": 8274,
      "vatu": 8275,
      "kosti": 8276,
      "Ġrez": 8277,
      "Ġpropu": 8278,
      "ĠklidnÃ©": 8279,
      "ĠĠĠĊ": 8280,
      "ĠumÅĻÃŃt": 8281,
      "ĠpÅĻijÄı": 8282,
      "ĠzbabÄĽ": 8283,
      "FF": 8284,
      "ĠasÃŃ": 8285,
      "Ġjedova": 8286,
      "Ġudat": 8287,
      "XAAX": 8288,
      "Å¥Ã¡": 8289,
      "Ġnovo": 8290,
      "ĠmÃ¡ji": 8291,
      "ĠpÅĻedkÅ¯": 8292,
      "Ġchudi": 8293,
      "ĠpustÃ¡": 8294,
      "Ġtvojich": 8295,
      "Ġgar": 8296,
      "ĠstÄĽÅ¾ÃŃ": 8297,
      "Ġplamenem": 8298,
      "ĠmÄĽsÃŃci": 8299,
      "ĠslouÅ¾ÃŃ": 8300,
      "Ġzbyla": 8301,
      "ĠspanilÃ¡": 8302,
      "Å¾no": 8303,
      "Ġznik": 8304,
      "ĠnedÅ¯": 8305,
      "ĠerÃ¡": 8306,
      "voÅĻÃŃ": 8307,
      "ĠÅ¡ek": 8308,
      "Ġsluchu": 8309,
      "ĠnÃŃt": 8310,
      "ĠvÃ½so": 8311,
      "ĠdÃ¡lnÃ½ch": 8312,
      "Ġvlk": 8313,
      "ĠkÅĻÃŃdlech": 8314,
      "ĠpÃ½chou": 8315,
      "ĠzÃ¡vist": 8316,
      "ĠsnoubÃŃ": 8317,
      "Ġsata": 8318,
      "leÅ¥": 8319,
      "vÃ¡me": 8320,
      "Ġjina": 8321,
      "ĠvÄĽdÄĽt": 8322,
      "Ġmozku": 8323,
      "Ġstanu": 8324,
      "Ġpospo": 8325,
      "ĠbÄĽs": 8326,
      "ĠÅĻekni": 8327,
      "ĠnevrÃ¡tÃŃ": 8328,
      "Ġbledne": 8329,
      "Ġvizte": 8330,
      "ĠvzplÃ¡l": 8331,
      "ĠchuÄıas": 8332,
      "mrt": 8333,
      "pÅĻi": 8334,
      "ĠneÄįi": 8335,
      "Ġjelen": 8336,
      "Ġnastal": 8337,
      "ĠÅ¾ky": 8338,
      "Ġtakou": 8339,
      "ĠnÄĽhu": 8340,
      "ĠnÃ¡rodnÃŃ": 8341,
      "Ġpaty": 8342,
      "ĠveselÃ©": 8343,
      "ĠÅ¡Å¥astni": 8344,
      "Ġchrab": 8345,
      "ĠkoÅĻeny": 8346,
      "Ã©l": 8347,
      "ĠdbÃ¡": 8348,
      "Ġdmou": 8349,
      "dovat": 8350,
      "Ġrozkaz": 8351,
      "ĠrubÃ¡": 8352,
      "Å¡ilo": 8353,
      "ĠsvÄĽÅ¾e": 8354,
      "ĠsmÃ¡t": 8355,
      "ĠÄįÃ¡st": 8356,
      "ĠrÅ¯Å¾ovÃ©": 8357,
      "dnÃ©ho": 8358,
      "hlÃ½ch": 8359,
      "Ġzava": 8360,
      "Ġchar": 8361,
      "ĠkomÃŃ": 8362,
      "Ġrozvi": 8363,
      "ĠdÃŃvat": 8364,
      "ĠmilÃ©ho": 8365,
      "ĠsnÄĽtÃŃ": 8366,
      "ĠptÃ¡Äįek": 8367,
      "ĠbojÅ¯": 8368,
      "ĠpÅĻemy": 8369,
      "ĠvÄįely": 8370,
      "star": 8371,
      "ABXX": 8372,
      "ĠzaÅ¡la": 8373,
      "tina": 8374,
      "ĠkoÅĻÃŃ": 8375,
      "Ġvypo": 8376,
      "ĠpÅĻeko": 8377,
      "ĠvÃŃla": 8378,
      "ĠvÃ¡hÃ¡": 8379,
      "ĠslunÃ©": 8380,
      "ĠzpÃŃvajÃŃ": 8381,
      "ĠzrÃ¡dce": 8382,
      "ĠdÄĽlat": 8383,
      "ĠrudÃ½m": 8384,
      "!!": 8385,
      "Ġodk": 8386,
      "Ġrada": 8387,
      "pajÃŃ": 8388,
      "jdeÅ¡": 8389,
      "Ġzvukem": 8390,
      "Ġneur": 8391,
      "skot": 8392,
      "AXABCB": 8393,
      "Ġzraje": 8394,
      "Ġblouzni": 8395,
      "Ġptact": 8396,
      "volnÄĽ": 8397,
      "ADD": 8398,
      "gen": 8399,
      "Ġpnou": 8400,
      "ĠnkÅ¯": 8401,
      "lom": 8402,
      "ĠvztÃ½": 8403,
      "Ġboky": 8404,
      "Ġdivou": 8405,
      "Ġresi": 8406,
      "ĠbÄĽlou": 8407,
      "Ġsamy": 8408,
      "Ġokovy": 8409,
      "ĠbrÃ¡nu": 8410,
      "ĠpoÅ¾ehna": 8411,
      "Ġchasa": 8412,
      "br": 8413,
      "pku": 8414,
      "Ġzva": 8415,
      "Ġzadr": 8416,
      "ĠÄįna": 8417,
      "Ġdor": 8418,
      "Ġtor": 8419,
      "ĠÃŃzy": 8420,
      "Ġprose": 8421,
      "ĠvÄĽdomÃŃ": 8422,
      "Ġmozek": 8423,
      "ĠfrÃ¡": 8424,
      "ĠsterÃ©": 8425,
      "penÃ©": 8426,
      "Ġskryl": 8427,
      "ĠvznÃ¡Å¡e": 8428,
      "Ġlom": 8429,
      "ĠtÅĻesk": 8430,
      "ĠvlÃŃdnÃ½": 8431,
      "ĠvstaÅĪ": 8432,
      "bÅ¡ÃŃ": 8433,
      "mÃ¡m": 8434,
      "prÃ¡": 8435,
      "nuje": 8436,
      "XAXAXX": 8437,
      "tati": 8438,
      "Äįinou": 8439,
      "Ġtahy": 8440,
      "ĠstaletÃŃ": 8441,
      "trp": 8442,
      "Å¡enÄĽ": 8443,
      "prve": 8444,
      "ĠmyslÃŃÅ¡": 8445,
      "Ġhloubky": 8446,
      "ĠkolÃ©bky": 8447,
      "ĠnebezpeÄįÃŃ": 8448,
      "Ġschy": 8449,
      "ĠslÃ©t": 8450,
      "ĠÄĽhy": 8451,
      "ĠvÄĽjÃŃ": 8452,
      "ĠÅ¾ivou": 8453,
      "Ġskrov": 8454,
      "ĠmÃ¡l": 8455,
      "Ġprale": 8456,
      "Ġsynem": 8457,
      "ĠpoÄįkej": 8458,
      "ĠjakÃ¡s": 8459,
      "slem": 8460,
      "ĠÃ¡tu": 8461,
      "ĠvidÄĽli": 8462,
      "Ġposlech": 8463,
      "Ġdivnou": 8464,
      "beni": 8465,
      "Ġpostava": 8466,
      "ĠhlÃŃdÃ¡": 8467,
      "Ġholubice": 8468,
      "ĠidÃ©": 8469,
      "Ġevu": 8470,
      "vÃ¡no": 8471,
      "Ġkoj": 8472,
      "ĠholÃ¡": 8473,
      "talo": 8474,
      "ĠmÃŃjÃŃ": 8475,
      "Ġdivem": 8476,
      "bilo": 8477,
      "Ġlud": 8478,
      "Ġhrady": 8479,
      "Å¡enÃ½ch": 8480,
      "Ġpadlo": 8481,
      "ĠjedenkrÃ¡t": 8482,
      "ĠoblakÅ¯": 8483,
      "Ġmrzu": 8484,
      "ĠnemÃ¡Å¡": 8485,
      "Ġnevinnosti": 8486,
      "Ġchvatem": 8487,
      "Ġaf": 8488,
      "Ġave": 8489,
      "Ġneda": 8490,
      "Ġjedu": 8491,
      "ĠetÅ¯": 8492,
      "ĠÃ¡ku": 8493,
      "Ġpronika": 8494,
      "ĠÄĽho": 8495,
      "Ġvznik": 8496,
      "kÃ¡zal": 8497,
      "ĠÄįej": 8498,
      "ĠpÅĻip": 8499,
      "ĠkrajÅ¯": 8500,
      "ĠchvÃ¡lÃŃ": 8501,
      "rozenÃŃ": 8502,
      "ĠzkamenÄĽ": 8503,
      "ĠnajdeÅ¡": 8504,
      "ĠvzrÅ¯stÃ¡": 8505,
      "Ġvzadu": 8506,
      "arÃ¡": 8507,
      "Ġvs": 8508,
      "Ġnemi": 8509,
      "Ġvraha": 8510,
      "ĠdivÃ½m": 8511,
      "ĠloupeÅ¾": 8512,
      "ĠdÅ¯kaz": 8513,
      "ĠzÃ¡vod": 8514,
      "ĠplachÃ©": 8515,
      "Ġudiven": 8516,
      "ĠsbÄĽ": 8517,
      "Ġpsi": 8518,
      "Ġmami": 8519,
      "Ġivo": 8520,
      "nesla": 8521,
      "ĠveÅ¡la": 8522,
      "ĠkoÅ¡": 8523,
      "ÄįÃŃÅ¡": 8524,
      "ĠvÃŃt": 8525,
      "Ġpacho": 8526,
      "ĠÅĻeku": 8527,
      "ĠhroznÄĽ": 8528,
      "Ġsoudce": 8529,
      "ĠemÃ¡": 8530,
      "ĠtichÃ½ch": 8531,
      "ĠhrÃ¡la": 8532,
      "Ġnemohou": 8533,
      "ĠvÅĻele": 8534,
      "Ġkriste": 8535,
      "vÄĽtÅĻÃŃ": 8536,
      "Ġkvas": 8537,
      "Ġtrysk": 8538,
      "Ġopa": 8539,
      "Ġlije": 8540,
      "ĠzasvÄĽ": 8541,
      "ĠÄįisto": 8542,
      "Ġchoti": 8543,
      "Ġvous": 8544,
      "ĠkeÅĻi": 8545,
      "Ġopil": 8546,
      "Ġzmatek": 8547,
      "ovi": 8548,
      "pak": 8549,
      "Ġsmilo": 8550,
      "ĠmÅ¡i": 8551,
      "lali": 8552,
      "ĠÃ¡mÄĽ": 8553,
      "vaÅ¥": 8554,
      "Ġleck": 8555,
      "dÄĽje": 8556,
      "Ġrozhod": 8557,
      "vejte": 8558,
      "Ġkre": 8559,
      "ĠzeÅĪ": 8560,
      "Ġdivu": 8561,
      "ĠplnÃ©m": 8562,
      "ĠvÅ¯lÃŃ": 8563,
      "ĠpukÃ¡": 8564,
      "ĠmodrÃ½m": 8565,
      "ĠÄįlovÄĽÄįen": 8566,
      "ĠjednotvÃ¡": 8567,
      "ĠzulÃŃ": 8568,
      "Ġnekli": 8569,
      "ĠstejnÃ©": 8570,
      "ckÃ©ho": 8571,
      "ĠvojÃ¡k": 8572,
      "ĠuÅ¡lechtil": 8573,
      "hrÃ¡": 8574,
      "chan": 8575,
      "toma": 8576,
      "Ġrozs": 8577,
      "ĠÅ¡ed": 8578,
      "ĠkaÅ¾di": 8579,
      "ĠchutÄĽ": 8580,
      "ĠsÃŃnÃŃ": 8581,
      "Ġzvedne": 8582,
      "Ġsestro": 8583,
      "ĠnÃ©st": 8584,
      "ĠtlÃŃ": 8585,
      "ĠopÄĽ": 8586,
      "Ġutk": 8587,
      "ĠÃ¡lÃ¡": 8588,
      "Ġrodnou": 8589,
      "Ġobsa": 8590,
      "ĠtiÅ¡i": 8591,
      "Ġstavu": 8592,
      "Ġslunka": 8593,
      "ĠstraÅ¡nÄĽ": 8594,
      "ĠcizÃ¡": 8595,
      "Ġrakvi": 8596,
      "ĠvÅĻelÃ©": 8597,
      "ĠvdÄĽÄįnÄĽ": 8598,
      "Ġtci": 8599,
      "ĠoÄįÃŃm": 8600,
      "Ġponu": 8601,
      "ĠurÃ¡": 8602,
      "ĠzaznÄĽl": 8603,
      "Ġvydal": 8604,
      "ĠnÄĽhou": 8605,
      "stoupÃŃ": 8606,
      "ĠstÅĻely": 8607,
      "ĠspÃŃnÃ¡": 8608,
      "Ġrostla": 8609,
      "ĠnenÃ¡vist": 8610,
      "ĠtkvÃŃ": 8611,
      "cÃ©": 8612,
      "Ġneve": 8613,
      "ĠrojÃŃ": 8614,
      "ĠskÅ¯": 8615,
      "ĠprÃ¡vu": 8616,
      "ĠpÄĽvec": 8617,
      "ĠsÃŃtÃŃ": 8618,
      "Ġmrtvou": 8619,
      "ĠÃ½ma": 8620,
      "ĠpÅĻen": 8621,
      "lekÃ¡": 8622,
      "Ġtohle": 8623,
      "ĠvÄĽÄı": 8624,
      "ĠÃºko": 8625,
      "ĠpodÃ©l": 8626,
      "Ġbranou": 8627,
      "ĠsvÄĽto": 8628,
      "rii": 8629,
      "ĠÅ¡tÃŃty": 8630,
      "ĠvesmÃŃ": 8631,
      "ĠhrÅ¯zu": 8632,
      "ĠzvrÃ¡": 8633,
      "Ġpase": 8634,
      "Ġsje": 8635,
      "leti": 8636,
      "lostÃŃ": 8637,
      "Ġvzor": 8638,
      "ĠnÃŃtÃŃ": 8639,
      "Ġdoubra": 8640,
      "Ġzik": 8641,
      "ĠÅĻadÄĽ": 8642,
      "Ġtas": 8643,
      "vami": 8644,
      "ĠvÄĽÅĻil": 8645,
      "ĠskÅĻe": 8646,
      "ĠrÅ¯Å¾emi": 8647,
      "Ġohla": 8648,
      "ĠvÄĽÄįna": 8649,
      "ĠcÃŃtÃŃÅ¡": 8650,
      "ĠpÅĻÃŃÅ¡tÃŃch": 8651,
      "ĠchtÃŃt": 8652,
      "ĠkÅĻiÅ¡Å¥Ã¡": 8653,
      "ĠshromÃ¡": 8654,
      "ĠbnÃ©": 8655,
      "ĠÄįechÅ¯": 8656,
      "ĠohÅ¯": 8657,
      "Ġanto": 8658,
      "Ġstup": 8659,
      "Ġzmije": 8660,
      "AXAA": 8661,
      "nÄĽly": 8662,
      "ĠÃ¡kÃ¡": 8663,
      "ĠhodnÄĽ": 8664,
      "Ġobr": 8665,
      "dÃŃte": 8666,
      "ĠvÃŃsky": 8667,
      "Ġdin": 8668,
      "anÅ¯": 8669,
      "Ġsyt": 8670,
      "Ġkruhy": 8671,
      "ĠkÃ½s": 8672,
      "ĠadÅ¯": 8673,
      "ĠdÃ³": 8674,
      "Ġban": 8675,
      "livou": 8676,
      "vavÄĽ": 8677,
      "Ġvyv": 8678,
      "Ġnico": 8679,
      "Ġprin": 8680,
      "ledne": 8681,
      "ĠuÄįitel": 8682,
      "ĠtvÅ¯rÄįÃŃ": 8683,
      "22": 8684,
      "ĠetÄĽ": 8685,
      "Ġmit": 8686,
      "bych": 8687,
      "ĠbÃ¡zeÅĪ": 8688,
      "ĠÅ¯le": 8689,
      "Ġvedli": 8690,
      "ĠpalÄįi": 8691,
      "plnÃ©": 8692,
      "ĠokamÅ¾enÃŃ": 8693,
      "ĠkvapÃŃ": 8694,
      "ĠpÃ½chu": 8695,
      "AADD": 8696,
      "ĠmilÃ½m": 8697,
      "Ġlucy": 8698,
      "ĠkÅĻiku": 8699,
      "ĠpyÅ¡nÃ½": 8700,
      "ĠzvÃŃÅĻ": 8701,
      "ĠvÅĻava": 8702,
      "ĠdomÃ¡cÃŃ": 8703,
      "Ġposa": 8704,
      "Ġrozbit": 8705,
      "ĠvÃŃÅĻe": 8706,
      "ĠptÃ¡ky": 8707,
      "tÃŃme": 8708,
      "Ġvrouc": 8709,
      "ĠÅ¾lutÃ½": 8710,
      "Ġdokola": 8711,
      "Ġvadne": 8712,
      "ĠhoroucÃŃ": 8713,
      "Ġesi": 8714,
      "ĠrozpÃ¡": 8715,
      "ĠÃºdÄĽl": 8716,
      "ĠlÃ¡d": 8717,
      "Ġyta": 8718,
      "Ġfe": 8719,
      "ĠrybÃ¡": 8720,
      "Ġhranice": 8721,
      "ĠvÃŃtÄĽznÄĽ": 8722,
      "Ġknize": 8723,
      "brat": 8724,
      "ĠvÄĽzenÃŃ": 8725,
      "Ġskrze": 8726,
      "Ġhymnu": 8727,
      "AAABB": 8728,
      "XXAX": 8729,
      "Ġnecho": 8730,
      "ĠpÅĻivÃ¡": 8731,
      "ĠÅ¡edou": 8732,
      "Ġlod": 8733,
      "ĠsmÃŃm": 8734,
      "Ġdlouze": 8735,
      "ĠblÃŃzku": 8736,
      "Ġsrp": 8737,
      "ĠtÅĻÃ¡s": 8738,
      "ĠzlÃ½m": 8739,
      "nÃŃkem": 8740,
      "Ġmuse": 8741,
      "ĠsnÄĽhy": 8742,
      "cÃŃmi": 8743,
      "ĠzaÅ¡lÃ©": 8744,
      "Ġkmeny": 8745,
      "ĠznamenÃ¡": 8746,
      "Ġuprch": 8747,
      "skat": 8748,
      "ĠÃ¡Å¡Å¥": 8749,
      "Ġrval": 8750,
      "vina": 8751,
      "Ġrab": 8752,
      "ĠhravÄĽ": 8753,
      "Ġvrab": 8754,
      "ĠsuchÃ½": 8755,
      "ĠdÅĻÃŃme": 8756,
      "Ġmocnou": 8757,
      "ĠdÃ¡me": 8758,
      "Ġzvedl": 8759,
      "ĠuÄįinil": 8760,
      "rnÃ©ho": 8761,
      "ĠsedÃŃm": 8762,
      "rati": 8763,
      "Ġunu": 8764,
      "ĠrvÃ¡": 8765,
      "Ġsprost": 8766,
      "Ġkynul": 8767,
      "ĠnaÅ¡im": 8768,
      "Ġpluh": 8769,
      "ĠdrÃ¡Å¾": 8770,
      "Ġotrok": 8771,
      "Ġoblohy": 8772,
      "ĠdeÅ¡tÄĽm": 8773,
      "ĠvnitÅĻnÃŃ": 8774,
      "ĠnÃ¡hodou": 8775,
      "mbu": 8776,
      "ĠnahÃ©": 8777,
      "Ġuleh": 8778,
      "ĠvyvÃ¡": 8779,
      "Ġduje": 8780,
      "ĠÅ¡epot": 8781,
      "ĠpouhÃ¡": 8782,
      "ĠchorÃ©": 8783,
      "cos": 8784,
      "ĠhvÄĽzdu": 8785,
      "Ġzbloudil": 8786,
      "ĠtÅĻÃŃÅ¡tÃŃ": 8787,
      "Ġlebky": 8788,
      "ACDD": 8789,
      "Ġloktech": 8790,
      "Ġneto": 8791,
      "Ġzatra": 8792,
      "Ġrky": 8793,
      "ĠprostÄĽ": 8794,
      "Ġvycho": 8795,
      "Ġmini": 8796,
      "Ġprachem": 8797,
      "Ġtemnu": 8798,
      "Ġdalo": 8799,
      "ĠtÃ¡Å¾e": 8800,
      "ĠveÄįeru": 8801,
      "Ġzpra": 8802,
      "Ġhloupo": 8803,
      "Ġzmr": 8804,
      "ĠstÅĻÃŃbra": 8805,
      "bas": 8806,
      "rci": 8807,
      "Ġsan": 8808,
      "ĠÃŃdÃŃ": 8809,
      "vetla": 8810,
      "Ġfu": 8811,
      "Ġklek": 8812,
      "ĠdlouhÃ©m": 8813,
      "ĠpovÅ¾dy": 8814,
      "ĠodpovÃŃdÃ¡": 8815,
      "Ġpola": 8816,
      "ĠhostÃ©": 8817,
      "Ġkara": 8818,
      "ĠvidÄĽti": 8819,
      "douc": 8820,
      "Ġrys": 8821,
      "Ġkolkolem": 8822,
      "Ġhousle": 8823,
      "Ġzelena": 8824,
      "Ġklesne": 8825,
      "Ġchmury": 8826,
      "AAXXBB": 8827,
      "ĠlÅ¯na": 8828,
      "ĠzpomÃŃ": 8829,
      "nÄĽt": 8830,
      "ĠzaÅ¥": 8831,
      "ĠvzÅĪat": 8832,
      "ĠmÄĽs": 8833,
      "ĠmÃŃÅĪ": 8834,
      "Ġmraven": 8835,
      "ĠobracÃŃ": 8836,
      "ĠosvÃŃ": 8837,
      "Ġbarbar": 8838,
      "Ġhrdli": 8839,
      "ĠbohatstvÃŃ": 8840,
      "Ġosudem": 8841,
      "ĠvÅ¡echnÄĽch": 8842,
      "ĠuhÃ©": 8843,
      "nÃ©st": 8844,
      "ĠepÃ½": 8845,
      "ĠtÄĽsnÄĽ": 8846,
      "Ġnie": 8847,
      "Ġnesli": 8848,
      "ĠÄįasnÄĽ": 8849,
      "ĠhÅĻÃŃchem": 8850,
      "Ġvysch": 8851,
      "Ġpostav": 8852,
      "ĠbludnÃ©": 8853,
      "ĠvÄĽrnou": 8854,
      "ĠluznÃ©": 8855,
      "smÃ¡": 8856,
      "ĠncÅ¯": 8857,
      "ĠzmÃ¡": 8858,
      "emi": 8859,
      "ĠÄĽnu": 8860,
      "ĠvÅ¡ecek": 8861,
      "ĠhvÄĽzdnÃ½": 8862,
      "ĠchladnÃ¡": 8863,
      "Ġodevz": 8864,
      "Ġsnila": 8865,
      "ĠzachvÄĽla": 8866,
      "ĠpÃ©ro": 8867,
      "ĠvlhkÃ©": 8868,
      "Ġzapomenu": 8869,
      "ĠÄįkÃ¡": 8870,
      "Ġdojat": 8871,
      "vÃŃtÃ¡": 8872,
      "ĠpÃŃÅ¡Å¥": 8873,
      "ĠvalnÃ©": 8874,
      "Ġostrov": 8875,
      "ĠtajemnÃ½": 8876,
      "ĠvyklÃ¡": 8877,
      "sÅ¡ÃŃ": 8878,
      "ĠvÅĻel": 8879,
      "Ġuchy": 8880,
      "ĠihÃ¡": 8881,
      "Ġrtoma": 8882,
      "dÄĽlo": 8883,
      "Ġtanec": 8884,
      "lenÃ½ch": 8885,
      "ĠjemnÃ½": 8886,
      "ĠÅ¾ÃŃznÃŃ": 8887,
      "ĠdÄĽtskÃ½ch": 8888,
      "Ġzvyku": 8889,
      "ĠpestrÃ½ch": 8890,
      "Ġrodiny": 8891,
      "chÃ¡zejÃŃ": 8892,
      "ĠvzpomnÄĽl": 8893,
      "Ġhrdina": 8894,
      "Ġvztekem": 8895,
      "ĠÄįervÃ¡nky": 8896,
      "daly": 8897,
      "Äįata": 8898,
      "Ġel": 8899,
      "Ġrudou": 8900,
      "Ġkapra": 8901,
      "Ġvih": 8902,
      "ĠkamarÃ¡": 8903,
      "Ġnepra": 8904,
      "ĠhvÄĽzdo": 8905,
      "Ġhynou": 8906,
      "Ġrozep": 8907,
      "Ġopojen": 8908,
      "ĠmatiÄįko": 8909,
      "ĠnadÅ¡enÃŃm": 8910,
      "ĠlabuÅ¥": 8911,
      "Ġzry": 8912,
      "ĠponÃŃ": 8913,
      "lÃ¡Å¡": 8914,
      "Ġhostem": 8915,
      "ĠtÄĽs": 8916,
      "Ġcet": 8917,
      "ĠdÃŃt": 8918,
      "ĠyzÃŃ": 8919,
      "ĠjÃŃz": 8920,
      "pÄĽnÃŃ": 8921,
      "pÄĽtÃŃ": 8922,
      "Ġmeze": 8923,
      "ÅĻemen": 8924,
      "ĠnavÅ¡tÃŃ": 8925,
      "Ġnaproti": 8926,
      "uji": 8927,
      "Ġledu": 8928,
      "ĠÄĽkÃ¡": 8929,
      "ĠtuÅ¡il": 8930,
      "Äįeje": 8931,
      "ĠÅ¾ivÃ½ch": 8932,
      "Ġtaji": 8933,
      "ĠÃ½ÅĻÃŃ": 8934,
      "Ġkyti": 8935,
      "Ġkalu": 8936,
      "Ġtravou": 8937,
      "Ġsvoboda": 8938,
      "ĠdÄĽsnÃ¡": 8939,
      "Ġplachty": 8940,
      "ĠkrÅ¯pÄĽje": 8941,
      "ĠvpÅĻed": 8942,
      "ĠchudÃ¡k": 8943,
      "ble": 8944,
      "blou": 8945,
      "ur": 8946,
      "Ġvni": 8947,
      "ĠvchÃ¡zÃŃ": 8948,
      "ĠvÄĽsÃŃ": 8949,
      "Ġmoder": 8950,
      "ĠnÃ¡bo": 8951,
      "ĠÅ¾ivÄĽ": 8952,
      "Ġskvo": 8953,
      "ĠpÃ¡du": 8954,
      "ĠhledÄĽt": 8955,
      "ĠveÄįerem": 8956,
      "Ġpoklo": 8957,
      "ĠchladnÄĽ": 8958,
      "ĠbrÃ¡t": 8959,
      "ĠhoÅĻce": 8960,
      "ĠpolnÃŃ": 8961,
      "ĠnÃŃzkÃ©": 8962,
      "ĠkvÄĽtin": 8963,
      "Ġkas": 8964,
      "Ġkvil": 8965,
      "Ġposk": 8966,
      "Ġsvla": 8967,
      "Ġleje": 8968,
      "ĠberÃ¡": 8969,
      "ĠskoÄįil": 8970,
      "Ġtrub": 8971,
      "ĠboÅ¾skÃ½": 8972,
      "Ġhovoru": 8973,
      "Ġklenu": 8974,
      "Ġzamra": 8975,
      "ĠmatiÄįka": 8976,
      "ĠpsÃ¡no": 8977,
      "Ġzte": 8978,
      "ĠÃ¡ta": 8979,
      "ĠpÅĻiÅ¡ly": 8980,
      "Ġplav": 8981,
      "Ġdere": 8982,
      "ĠtÃŃÅ¾e": 8983,
      "ĠpovÃŃm": 8984,
      "Ġsamoty": 8985,
      "ĠkonÄįÃŃ": 8986,
      "ĠnekoneÄįnÃ©": 8987,
      "ĠleknÃŃ": 8988,
      "ĠhÅ¯ry": 8989,
      "lce": 8990,
      "par": 8991,
      "ĠslÃ©": 8992,
      "Ġoc": 8993,
      "ĠnetÅĻe": 8994,
      "nÄĽnÃ¡": 8995,
      "ĠÃŃni": 8996,
      "ver": 8997,
      "Ġdvora": 8998,
      "ĠspatÅĻÃŃ": 8999,
      "ĠuboÅ¾Ã¡": 9000,
      "Ġmodlitby": 9001,
      "rmu": 9002,
      "ĠÃ¡lÅ¯": 9003,
      "Ġveta": 9004,
      "ĠrÅ¾ÃŃ": 9005,
      "ĠrudÃ½ch": 9006,
      "Ġlada": 9007,
      "ĠbÃ¡seÅĪ": 9008,
      "ĠstÅĻechu": 9009,
      "ĠzvÄĽsti": 9010,
      "ĠjedinÄĽ": 9011,
      "ĠmÄĽkkÃ¡": 9012,
      "ĠblaÅ¾enosti": 9013,
      "ĠnÃ¡vÅ¡tÄĽ": 9014,
      "ĠsmyslÅ¯": 9015,
      "paly": 9016,
      "Ġjene": 9017,
      "ĠvztÃ¡": 9018,
      "Ġmistra": 9019,
      "Ġston": 9020,
      "Ġmedu": 9021,
      "ĠdeÅ¡Å¥": 9022,
      "ĠhustÃ½": 9023,
      "ĠrÅ¯Å¾en": 9024,
      "Ġpohla": 9025,
      "ĠpoznÃ¡nÃŃ": 9026,
      "Ġpochod": 9027,
      "ĠzÅ¯stane": 9028,
      "Ġfiloso": 9029,
      "ĠokÃ½": 9030,
      "rag": 9031,
      "ĠÅ¾ol": 9032,
      "Ġtone": 9033,
      "Ġcka": 9034,
      "nalo": 9035,
      "ĠÃŃdu": 9036,
      "Ġrum": 9037,
      "ĠchutÃŃ": 9038,
      "ĠostrÃ©": 9039,
      "zujÃŃ": 9040,
      "ĠhÅĻeje": 9041,
      "ckÃ©m": 9042,
      "Ġnna": 9043,
      "ĠdkÃ¡": 9044,
      "vajÃŃcÃŃ": 9045,
      "Ġrmo": 9046,
      "Ġstatek": 9047,
      "Ġzmaten": 9048,
      "Ġnejsme": 9049,
      "Ġamo": 9050,
      "ĠnedÄĽli": 9051,
      "Ġrny": 9052,
      "ĠvyÅĻ": 9053,
      "Ġvyno": 9054,
      "ĠpÅĻivi": 9055,
      "ĠpÄĽj": 9056,
      "ĠsmÄĽlÃ©": 9057,
      "ĠkÅĻikem": 9058,
      "Ġzkro": 9059,
      "ĠmdlÃ¡": 9060,
      "Ġpovzdech": 9061,
      "Ġtvar": 9062,
      "ĠnejvÃŃce": 9063,
      "ĠÅ¡klebÃŃ": 9064,
      "Ġmilosrd": 9065,
      "bnÃ½ch": 9066,
      "ĠmnÃ½": 9067,
      "ĠpoÄįe": 9068,
      "ĠnamÃ¡": 9069,
      "Ġdomek": 9070,
      "Ġmon": 9071,
      "ĠvzhlÃ©": 9072,
      "Å¡enÃŃm": 9073,
      "ĠtÃ©mÄĽÅĻ": 9074,
      "Ġrenald": 9075,
      "ĠaÅĻi": 9076,
      "raÅ¾en": 9077,
      "ĠjeÅ¾ÃŃÅ¡": 9078,
      "Ġeva": 9079,
      "ĠdoÅ¡el": 9080,
      "ĠpravÄĽ": 9081,
      "ĠhluÄįnÄĽ": 9082,
      "ĠtrpÄĽl": 9083,
      "Ġsmutkem": 9084,
      "Ġpadal": 9085,
      "ĠzavÅĻel": 9086,
      "ĠbujnÄĽ": 9087,
      "Ġkladou": 9088,
      "ĠpoÄįÃŃnÃ¡": 9089,
      "Ġresigna": 9090,
      "ĠdÃŃvek": 9091,
      "hÃ¡Äį": 9092,
      "ĠtouÅ¾e": 9093,
      "ĠvelkÃ©m": 9094,
      "zoval": 9095,
      "Ġzvedla": 9096,
      "Ġsouzvuk": 9097,
      "Ġpso": 9098,
      "ĠmstÃŃ": 9099,
      "tickÃ½": 9100,
      "vajÃŃc": 9101,
      "ĠleÅ¾e": 9102,
      "Ġobna": 9103,
      "ĠÃºbÄĽ": 9104,
      "pÃ¡ch": 9105,
      "ĠÅ¡ÃŃpy": 9106,
      "Ġtrudu": 9107,
      "ĠznÃ¡me": 9108,
      "ĠblÃ¡z": 9109,
      "Ġhospodin": 9110,
      "ĠtÃ½den": 9111,
      "ĠubohÃ¡": 9112,
      "Ġrozkvet": 9113,
      "Ġzask": 9114,
      "Ġzapu": 9115,
      "dovi": 9116,
      "Ġvyjas": 9117,
      "ĠniÄįeho": 9118,
      "ĠnÄĽha": 9119,
      "Ġmodli": 9120,
      "ĠspoÄįi": 9121,
      "ĠlouÄįÃŃ": 9122,
      "ĠvolnÃ©": 9123,
      "AXBBCD": 9124,
      "Ġmodlitbou": 9125,
      "Ġused": 9126,
      "ĠmÃ¡jo": 9127,
      "Ġnesa": 9128,
      "Ġnaro": 9129,
      "ĠustÃ¡nÃŃ": 9130,
      "Ġdoved": 9131,
      "ĠvÄĽtev": 9132,
      "Ġmoj": 9133,
      "taje": 9134,
      "ĠÃºle": 9135,
      "ĠsvojÃŃm": 9136,
      "ĠdrazÃŃ": 9137,
      "ĠchorÃ½": 9138,
      "ĠsnÄĽm": 9139,
      "zali": 9140,
      "ĠstrÃ¡ÅĪ": 9141,
      "benÃ½": 9142,
      "ĠdÄĽtskÃ½": 9143,
      "ĠÃŃmÄĽ": 9144,
      "ĠtvÅ¯rce": 9145,
      "Ġab": 9146,
      "Ġdosa": 9147,
      "ĠÄįekajÃŃ": 9148,
      "zela": 9149,
      "ĠstÃ¡lÃ½": 9150,
      "ĠvÃ½stra": 9151,
      "Ġzjevy": 9152,
      "ĠprÃ½Å¡tÃŃ": 9153,
      "ĠpojÄıte": 9154,
      "ĠÅĻik": 9155,
      "ĠarÅ¯": 9156,
      "Ġmhou": 9157,
      "Ġim": 9158,
      "Ġelu": 9159,
      "Ġduhy": 9160,
      "ĠmÃ¡lem": 9161,
      "ĠtouÅ¾ÃŃm": 9162,
      "ĠpÅ¯da": 9163,
      "ĠdceÅĻi": 9164,
      "ĠvÃ¡Å¾nÃ©": 9165,
      "ĠkvÃ©sti": 9166,
      "ĠkolikrÃ¡t": 9167,
      "pÅĻe": 9168,
      "ent": 9169,
      "ĠÃŃÅ¾i": 9170,
      "Å¾ejÃŃ": 9171,
      "Ġobrazem": 9172,
      "ĠknÄĽze": 9173,
      "gie": 9174,
      "Ġhotov": 9175,
      "jit": 9176,
      "tnÃ½m": 9177,
      "Å¡kÃ¡": 9178,
      "Ġpoo": 9179,
      "ĠÅ¾nÃ½": 9180,
      "ĠÅ¾ka": 9181,
      "nÃ¡ÅĻ": 9182,
      "Ġhodo": 9183,
      "dÄĽlÃ¡": 9184,
      "Ġvzma": 9185,
      "dan": 9186,
      "ĠvÃŃly": 9187,
      "ĠnocÃŃch": 9188,
      "Ġkadi": 9189,
      "Ġpodla": 9190,
      "Ġsype": 9191,
      "Ġchoro": 9192,
      "Äįenou": 9193,
      "ĠÄįÃŃhÃ¡": 9194,
      "ĠÅ¡Å¥Ã¡": 9195,
      "ĠpÅ¯jdem": 9196,
      "ĠosamÄĽlÃ½": 9197,
      "Ġ178": 9198,
      "kly": 9199,
      "Ġaka": 9200,
      "atou": 9201,
      "ĠnÃ¡pad": 9202,
      "ĠhlavnÃŃ": 9203,
      "ĠpÅĻÃŃbu": 9204,
      "Ġvladi": 9205,
      "Ġvrata": 9206,
      "ĠandÄĽla": 9207,
      "ĠstrÃ¡Å¾e": 9208,
      "Ġzora": 9209,
      "nÄĽjÅ¡ÃŃch": 9210,
      "ĠlehkÃ©": 9211,
      "ĠtluÄįe": 9212,
      "ĠchvÃ¡la": 9213,
      "ĠpÅĻÃŃrodÄĽ": 9214,
      "ĠzÅ¯staÅĪ": 9215,
      "ĠÅ¡ÃŃlenstvÃŃ": 9216,
      "Ġnaj": 9217,
      "ÅĻÃŃd": 9218,
      "Ġodpou": 9219,
      "Ġyni": 9220,
      "ĠdobÅĻÃŃ": 9221,
      "Ġmag": 9222,
      "ĠdajÃŃ": 9223,
      "ĠsamÃ¡": 9224,
      "ĠpÃŃsmo": 9225,
      "Äįkami": 9226,
      "ACXC": 9227,
      "ĠschÅ¯": 9228,
      "Ġmilence": 9229,
      "Ġspravedl": 9230,
      "cejÃŃ": 9231,
      "ĠchlÃ¡": 9232,
      "voru": 9233,
      "ĠvÄĽje": 9234,
      "ĠÅ¾id": 9235,
      "Ġkrej": 9236,
      "ĠpospÄĽ": 9237,
      "ĠkeÅĻe": 9238,
      "Ġoknech": 9239,
      "zena": 9240,
      "Ġstesku": 9241,
      "ĠkvÃŃtky": 9242,
      "ĠkvÃ©st": 9243,
      "ĠneustÃ¡le": 9244,
      "Ġury": 9245,
      "ĠikÃ½": 9246,
      "ĠÅ¡pÃŃ": 9247,
      "lout": 9248,
      "ĠplazÃŃ": 9249,
      "Ġmodrou": 9250,
      "Ġstudu": 9251,
      "ĠhrÅ¯ze": 9252,
      "ĠtajnÃ½": 9253,
      "ĠskvÄĽlÃ©": 9254,
      "ĠÅ¾alosti": 9255,
      "Ġsmarag": 9256,
      "ĠpÃ½chy": 9257,
      "Ġvho": 9258,
      "Ġtle": 9259,
      "Ġvic": 9260,
      "ĠdobrÃ©ho": 9261,
      "ĠsvornÄĽ": 9262,
      "Ġsyl": 9263,
      "Ġchoval": 9264,
      "ĠmlÄįel": 9265,
      "Ġang": 9266,
      "ĠhrdÃ¡": 9267,
      "Ġkostel": 9268,
      "ĠkadeÅĻ": 9269,
      "Ġvky": 9270,
      "ĠÄįekat": 9271,
      "Äįiv": 9272,
      "ĠÅĻekou": 9273,
      "Ġonde": 9274,
      "Ġmrtva": 9275,
      "coval": 9276,
      "Ġzmlk": 9277,
      "plnÃ½": 9278,
      "vrh": 9279,
      "ĠsklonÃŃ": 9280,
      "Ġzvykem": 9281,
      "ĠkvetoucÃŃ": 9282,
      "ĠlÅ¯Å¾ku": 9283,
      "ĠÅ¾alÃ¡ÅĻ": 9284,
      "ĠstÅ¯nÄĽ": 9285,
      "Ġptactvo": 9286,
      "ĠnetopÃ½": 9287,
      "ĠotÃŃ": 9288,
      "lis": 9289,
      "Ġzabu": 9290,
      "tivÄĽ": 9291,
      "ĠhoÅĻel": 9292,
      "ĠnÃ¡do": 9293,
      "ĠbujÃŃ": 9294,
      "ĠhromÅ¯": 9295,
      "Ġkoutku": 9296,
      "tÃ©Å¾": 9297,
      "tri": 9298,
      "ĠÅ¯nu": 9299,
      "ĠÅ¯Å¾ÃŃ": 9300,
      "Ġoknu": 9301,
      "Ġokolo": 9302,
      "ĠdÅ¯l": 9303,
      "Ġprosby": 9304,
      "Ġdomova": 9305,
      "Ġstarosti": 9306,
      "hdy": 9307,
      "mar": 9308,
[...]
