{
  "version": "1.0",
  "truncation": null,
  "padding": null,
  "added_tokens": [
    {
      "id": 0,
      "content": "<|EOS|>",
      "single_word": false,
      "lstrip": false,
      "rstrip": false,
      "normalized": false,
      "special": true
    },
    {
      "id": 1,
      "content": "<|PAD|>",
      "single_word": false,
      "lstrip": false,
      "rstrip": false,
      "normalized": false,
      "special": true
    },
    {
      "id": 2,
      "content": "<|UNK|>",
      "single_word": false,
      "lstrip": false,
      "rstrip": false,
      "normalized": false,
      "special": true
    }
  ],
  "normalizer": null,
  "pre_tokenizer": {
    "type": "ByteLevel",
    "add_prefix_space": false,
    "trim_offsets": true,
    "use_regex": true
  },
  "post_processor": {
    "type": "ByteLevel",
    "add_prefix_space": true,
    "trim_offsets": false,
    "use_regex": true
  },
  "decoder": {
    "type": "ByteLevel",
    "add_prefix_space": true,
    "trim_offsets": true,
    "use_regex": true
  },
  "model": {
    "type": "BPE",
    "dropout": null,
    "unk_token": null,
    "continuing_subword_prefix": null,
    "end_of_word_suffix": null,
    "fuse_unk": false,
    "byte_fallback": false,
    "vocab": {
      "<|EOS|>": 0,
      "<|PAD|>": 1,
      "<|UNK|>": 2,
      "!": 3,
      "#": 4,
      "+": 5,
      ",": 6,
      ".": 7,
      "0": 8,
      "1": 9,
      "2": 10,
      "3": 11,
      "4": 12,
      "5": 13,
      "6": 14,
      "7": 15,
      "8": 16,
      "9": 17,
      "=": 18,
      "?": 19,
      "A": 20,
      "B": 21,
      "C": 22,
      "D": 23,
      "E": 24,
      "F": 25,
      "G": 26,
      "H": 27,
      "I": 28,
      "J": 29,
      "K": 30,
      "L": 31,
      "M": 32,
      "N": 33,
      "O": 34,
      "P": 35,
      "Q": 36,
      "R": 37,
      "S": 38,
      "T": 39,
      "U": 40,
      "V": 41,
      "W": 42,
      "X": 43,
      "Y": 44,
      "Z": 45,
      "`": 46,
      "a": 47,
      "b": 48,
      "c": 49,
      "d": 50,
      "e": 51,
      "f": 52,
      "g": 53,
      "h": 54,
      "i": 55,
      "j": 56,
      "k": 57,
      "l": 58,
      "m": 59,
      "n": 60,
      "o": 61,
      "p": 62,
      "q": 63,
      "r": 64,
      "s": 65,
      "t": 66,
      "u": 67,
      "v": 68,
      "w": 69,
      "x": 70,
      "y": 71,
      "z": 72,
      "¡": 73,
      "¢": 74,
      "¤": 75,
      "¥": 76,
      "¦": 77,
      "§": 78,
      "¨": 79,
      "©": 80,
      "ª": 81,
      "«": 82,
      "®": 83,
      "¯": 84,
      "²": 85,
      "³": 86,
      "´": 87,
      "¶": 88,
      "¹": 89,
      "º": 90,
      "»": 91,
      "¼": 92,
      "½": 93,
      "¾": 94,
      "Â": 95,
      "Ã": 96,
      "Ä": 97,
      "Å": 98,
      "Ï": 99,
      "â": 100,
      "Ċ": 101,
      "Ġ": 102,
      "Ģ": 103,
      "ģ": 104,
      "Ĥ": 105,
      "Ħ": 106,
      "Ĩ": 107,
      "ĩ": 108,
      "Ī": 109,
      "ī": 110,
      "Ĭ": 111,
      "Į": 112,
      "į": 113,
      "İ": 114,
      "ı": 115,
      "Ĵ": 116,
      "ĵ": 117,
      "ĸ": 118,
      "ĺ": 119,
      "Ļ": 120,
      "ļ": 121,
      "Ľ": 122,
      "ľ": 123,
      "Ŀ": 124,
      "Ł": 125,
      "ł": 126,
      "Ń": 127,
      "Ġ#": 128,
      "ÃŃ": 129,
      "Ã¡": 130,
      "Ġs": 131,
      "ÄĽ": 132,
      "Ġv": 133,
      "Ġp": 134,
      "Ġn": 135,
      "Ġt": 136,
      "Ġj": 137,
      "Å¾": 138,
      "ch": 139,
      "Å¡": 140,
      "Ġz": 141,
      "Ã½": 142,
      "ÅĻ": 143,
      "Ã©": 144,
      "Ġk": 145,
      "Ġa": 146,
      "Ġm": 147,
      "Ġd": 148,
      "ou": 149,
      "la": 150,
      "Äį": 151,
      "10": 152,
      "en": 153,
      "Ġ1": 154,
      "Ġo": 155,
      "st": 156,
      "Ġb": 157,
      "11": 158,
      "em": 159,
      "AB": 160,
      "XX": 161,
      "le": 162,
      "Ġh": 163,
      "Ġse": 164,
      "Å¯": 165,
      "ak": 166,
      "ro": 167,
      "ĠJ": 168,
      "ra": 169,
      "li": 170,
      "Ġ19": 171,
      "ĠT": 172,
      "nÃŃ": 173,
      "Ġpo": 174,
      "Ġje": 175,
      "Ġne": 176,
      "lo": 177,
      "Ġna": 178,
      "rÃ¡": 179,
      "Ġst": 180,
      "ce": 181,
      "ÅĻe": 182,
      "Ġu": 183,
      "nÄĽ": 184,
      "ĠÅ¾": 185,
      "Ġsv": 186,
      "al": 187,
      "ÅĻÃŃ": 188,
      "Ġ18": 189,
      "dy": 190,
      "Å¡e": 191,
      "il": 192,
      "ne": 193,
      "ru": 194,
      "Ġi": 195,
      "ho": 196,
      "00": 197,
      "nÃ½": 198,
      "Ġ1900": 199,
      "sk": 200,
      "Ġza": 201,
      "ĠÄį": 202,
      "nÃ©": 203,
      "ÄĽt": 204,
      "lÃ¡": 205,
      "de": 206,
      "Ġch": 207,
      "at": 208,
      "ĠÃ¡": 209,
      "ÃŃm": 210,
      "je": 211,
      "XXXX": 212,
      "Ġjak": 213,
      "Ġe": 214,
      "vÃ¡": 215,
      "ĠN": 216,
      "te": 217,
      "ABAB": 218,
      "Ġdo": 219,
      "jÃŃ": 220,
      "no": 221,
      "lu": 222,
      "lÃŃ": 223,
      "na": 224,
      "ky": 225,
      "Ġto": 226,
      "ku": 227,
      "ĠV": 228,
      "XA": 229,
      "ti": 230,
      "80": 231,
      "Ġ1880": 232,
      "ÅĻi": 233,
      "Ġby": 234,
      "ĠA": 235,
      "ĠÃŃ": 236,
      "ko": 237,
      "Ã¡m": 238,
      "ci": 239,
      "12": 240,
      "vo": 241,
      "ka": 242,
      "vÄĽ": 243,
      "20": 244,
      "tÃŃ": 245,
      "va": 246,
      "ABB": 247,
      "Ã½ch": 248,
      "Ġji": 249,
      "ni": 250,
      "vÃŃ": 251,
      "Ġr": 252,
      "tÄĽ": 253,
      "nÃ¡": 254,
      "ly": 255,
      "Ġve": 256,
      "Ġ1920": 257,
      "Ġro": 258,
      "ĠP": 259,
      "Ġjs": 260,
      "ĠÅ¡": 261,
      "Ġc": 262,
      "nou": 263,
      "nu": 264,
      "Å¥": 265,
      "Ã½m": 266,
      "..": 267,
      "Ġle": 268,
      "vÃ©": 269,
      "ĠS": 270,
      "do": 271,
      "am": 272,
      "Ġjen": 273,
      "Ġpro": 274,
      "13": 275,
      "ny": 276,
      "ĠÅ¾e": 277,
      "cÃŃ": 278,
      "Ġko": 279,
      "ĠK": 280,
      "ĠÄĽ": 281,
      "du": 282,
      "lÃ©": 283,
      "Ġho": 284,
      "Å¡ÃŃ": 285,
      "po": 286,
      "Ġvy": 287,
      "dÄĽ": 288,
      "Ġmo": 289,
      "ÄįÃŃ": 290,
      "Ġvz": 291,
      "ar": 292,
      "dÃŃ": 293,
      "to": 294,
      "as": 295,
      "mu": 296,
      "dÃ¡": 297,
      "kÃ¡": 298,
      "Ġob": 299,
      "ĠpÅĻe": 300,
      "ĠÃ": 301,
      "AABB": 302,
      "lou": 303,
      "40": 304,
      "di": 305,
      "Å¾ÃŃ": 306,
      "Ġkdy": 307,
      "ÅĪ": 308,
      "Å¾e": 309,
      "ĠM": 310,
      "CC": 311,
      "da": 312,
      "Ġdu": 313,
      "Ġmi": 314,
      "enÃŃ": 315,
      "Äįe": 316,
      "se": 317,
      "ĠB": 318,
      "ĠvÄĽ": 319,
      "ji": 320,
      "Ġmu": 321,
      "ĠZ": 322,
      "ĠD": 323,
      "vi": 324,
      "sti": 325,
      "Ġroz": 326,
      "Ġbo": 327,
      "ĠnÃ¡": 328,
      "Ġni": 329,
      "ĠtÄĽ": 330,
      "Äı": 331,
      "ve": 332,
      "Ġtak": 333,
      "Ġli": 334,
      "tÃ¡": 335,
      "ĠvÅ¡e": 336,
      "Ġti": 337,
      "by": 338,
      "XAXA": 339,
      "ry": 340,
      "Ġtu": 341,
      "rd": 342,
      "Ġco": 343,
      "vu": 344,
      "ĠÄįe": 345,
      "ĠvÃŃ": 346,
      "Ġno": 347,
      "Ġjsem": 348,
      "Ġte": 349,
      "ta": 350,
      "ĠdÃ¡": 351,
      "ĠnÄĽ": 352,
      "be": 353,
      "ĠzÃ¡": 354,
      "vy": 355,
      "Å¡i": 356,
      "mÄĽ": 357,
      "Äįi": 358,
      "Ġhla": 359,
      "ze": 360,
      "mÃŃ": 361,
      "ĠÅ¾i": 362,
      "Ġod": 363,
      "mi": 364,
      "Ġsp": 365,
      "Ġsk": 366,
      "ĠmÄĽ": 367,
      "Ġsi": 368,
      "Ġru": 369,
      "ĠvÅ¡": 370,
      "Ã©m": 371,
      "...": 372,
      "Å¯j": 373,
      "Ġl": 374,
      "ĠkrÃ¡": 375,
      "ĠsvÄĽt": 376,
      "Ġpa": 377,
      "bo": 378,
      "lÃ½": 379,
      "Ġbu": 380,
      "60": 381,
      "ĠpÅĻi": 382,
      "ĠmÃ¡": 383,
      "Ġvo": 384,
      "XXXXXX": 385,
      "Ġsrd": 386,
      "me": 387,
      "ĠrÃ¡": 388,
      "ĠÃº": 389,
      "ez": 390,
      "ĠkdyÅ¾": 391,
      "Ġpr": 392,
      "ĠO": 393,
      "ĠsvÃ©": 394,
      "vÃ½": 395,
      "Ġjako": 396,
      "ha": 397,
      "lad": 398,
      "ĠH": 399,
      "hu": 400,
      "sÃŃ": 401,
      "bÄĽ": 402,
      "Ġta": 403,
      "tu": 404,
      "Ġpra": 405,
      "Ġce": 406,
      "ĠlÃ¡": 407,
      "kÅ¯": 408,
      "ĠC": 409,
      "Ġ1940": 410,
      "Ġra": 411,
      "ĠdÄĽ": 412,
      "nÃ½ch": 413,
      "ĠvÃ¡": 414,
      "hy": 415,
      "sta": 416,
      "Ġvi": 417,
      "hÃ¡": 418,
      "stÃŃ": 419,
      "Ġten": 420,
      "Ġka": 421,
      "val": 422,
      "ad": 423,
      "Ġty": 424,
      "Ġen": 425,
      "ĠdÃŃ": 426,
      "vÄĽt": 427,
      "ma": 428,
      "ĠNe": 429,
      "Ġzem": 430,
      "led": 431,
      "zÃŃ": 432,
      "kou": 433,
      "Ġy": 434,
      "Ġkde": 435,
      "ABC": 436,
      "Ġtam": 437,
      "Ġjeho": 438,
      "Ġnad": 439,
      "ĠÅ": 440,
      "ĠjiÅ¾": 441,
      "ĠjeÅ¾": 442,
      "sy": 443,
      "rak": 444,
      "vou": 445,
      "pÃŃ": 446,
      "Ġpod": 447,
      "mo": 448,
      "si": 449,
      "ĠvÅ¡ak": 450,
      "ĠnÃŃ": 451,
      "ĠÅ¡e": 452,
      "ty": 453,
      "bu": 454,
      "ĠjÃ¡": 455,
      "ĠpÅĻÃŃ": 456,
      "su": 457,
      "kÃ©": 458,
      "Å¡tÄĽ": 459,
      "Ġ1860": 460,
      "Å¾i": 461,
      "len": 462,
      "ABBA": 463,
      "bi": 464,
      "cho": 465,
      "Ġbyl": 466,
      "re": 467,
      "ĠlÃŃ": 468,
      "Ġslu": 469,
      "ĠPo": 470,
      "Ġ1840": 471,
      "ĠjÃŃ": 472,
      "lem": 473,
      "Ġsta": 474,
      "sa": 475,
      "Ġjed": 476,
      "ĠtÃ©": 477,
      "rou": 478,
      "ĠÅĻe": 479,
      "Ġzas": 480,
      "Ġsrdce": 481,
      "ĠnÃ¡m": 482,
      "kÃ½": 483,
      "ĠstÃŃ": 484,
      "Å¾dy": 485,
      "chu": 486,
      "ĠstÃ¡": 487,
      "ba": 488,
      "Ġkte": 489,
      "Ã©ho": 490,
      "ĠmÃŃ": 491,
      "ĠJak": 492,
      "nÃ½m": 493,
      "ĠpÃŃ": 494,
      "ĠL": 495,
      "Ġpe": 496,
      "Ġmy": 497,
      "Ġnou": 498,
      "Ġdi": 499,
      "kem": 500,
      "Å¯m": 501,
      "rÃ½": 502,
      "ĠNa": 503,
      "Ġlid": 504,
      "ĠĊ": 505,
      "Ġvla": 506,
      "15": 507,
      "XB": 508,
      "ĠlÃ¡sk": 509,
      "zd": 510,
      "Ġze": 511,
      "my": 512,
      "14": 513,
      "CD": 514,
      "ĠbÃŃ": 515,
      "ĠjenÅ¾": 516,
      "ĠpÃ¡": 517,
      "Ġzla": 518,
      "an": 519,
      "men": 520,
      "ste": 521,
      "dou": 522,
      "Ġbez": 523,
      "rÅ¯": 524,
      "Ġmne": 525,
      "Ġhro": 526,
      "pÄĽ": 527,
      "Ġpla": 528,
      "Ġsti": 529,
      "ÅĻÃ¡": 530,
      "Ġnem": 531,
      "Ġtou": 532,
      "ĠJe": 533,
      "ĠpÅĻed": 534,
      "ĠkvÄĽt": 535,
      "Ġso": 536,
      "ĠvÃ½": 537,
      "Ġla": 538,
      "ĠR": 539,
      "Ġdne": 540,
      "Ġpak": 541,
      "Ġnes": 542,
      "ĠvÅ¾dy": 543,
      "AA": 544,
      "ĠtvÃ¡": 545,
      "Ġjej": 546,
      "ĠdÃ¡l": 547,
      "ĠÅ¾ivo": 548,
      "16": 549,
      "ej": 550,
      "pu": 551,
      "ĠÄįi": 552,
      "rt": 553,
      "sto": 554,
      "hou": 555,
      "Ġnej": 556,
      "ĠprÃ¡": 557,
      "Ġpou": 558,
      "ĠaÅ¾": 559,
      "ĠÄįas": 560,
      "Ġjest": 561,
      "ĠkaÅ¾": 562,
      "Ġsto": 563,
      "Ġslo": 564,
      "Ġkou": 565,
      "nÅ¯": 566,
      "ĠmÃ©": 567,
      "Ġden": 568,
      "mÃ¡": 569,
      "ĠvÄĽt": 570,
      "nce": 571,
      "ĠÅĻÃŃ": 572,
      "tÃ½": 573,
      "ĠÅ¾en": 574,
      "Ġtv": 575,
      "Ġnez": 576,
      "ĠÃ¡nÃŃ": 577,
      "vat": 578,
      "Ġci": 579,
      "bÃŃ": 580,
      "ĠplÃ¡": 581,
      "ĠenÃŃ": 582,
      "Ġku": 583,
      "AABBCC": 584,
      "rÃ©": 585,
      "Ġtem": 586,
      "Ġchu": 587,
      "ĠuÅ¾": 588,
      "ĠÄ": 589,
      "ĠÄįer": 590,
      "AABC": 591,
      "tÃ©": 592,
      "ĠCo": 593,
      "Ġnebe": 594,
      "Ġsvou": 595,
      "chÃ¡": 596,
      "ĠÄĮ": 597,
      "Ġsla": 598,
      "Ġsvo": 599,
      "ĠTo": 600,
      "Ġmil": 601,
      "pe": 602,
      "ABCC": 603,
      "Ġpos": 604,
      "nad": 605,
      "bou": 606,
      "ĠvÅ¡ech": 607,
      "tr": 608,
      "Ġkdo": 609,
      "ĠnÃ¡s": 610,
      "ĠpÄĽ": 611,
      "ĠmnÄĽ": 612,
      "Ġjsi": 613,
      "ĠsÃŃ": 614,
      "zy": 615,
      "nÃ©m": 616,
      "Ġhle": 617,
      "ĠneÅ¾": 618,
      "Ġdob": 619,
      "ĠmÅ¯j": 620,
      "Ġdru": 621,
      "pa": 622,
      "skÃ©": 623,
      "Ġme": 624,
      "Ġlo": 625,
      "dÄĽl": 626,
      "Ġtom": 627,
      "ĠteÄı": 628,
      "ĠÅ½": 629,
      "Ġre": 630,
      "Ġpl": 631,
      "Ġvel": 632,
      "Ġjsou": 633,
      "ĠÄĽt": 634,
      "nem": 635,
      "ĠnÃŃm": 636,
      "nÃŃm": 637,
      "Ġde": 638,
      "dÃ½": 639,
      "ĠduÅ¡e": 640,
      "hÃ½": 641,
      "ĠjeÅ¡tÄĽ": 642,
      "ĠnÄĽm": 643,
      "ĠÃ½ch": 644,
      "pi": 645,
      "Ġval": 646,
      "Ġkr": 647,
      "ĠTak": 648,
      "Ġsvat": 649,
      "Ġsou": 650,
      "Ġsy": 651,
      "ĠbÃ½": 652,
      "Ġbra": 653,
      "ĠjejÃŃ": 654,
      "ĠÃ½": 655,
      "Ġlu": 656,
      "ĠBo": 657,
      "ĠcÃŃ": 658,
      "ĠhvÄĽ": 659,
      "ÅĻen": 660,
      "Ġkra": 661,
      "Ġzrak": 662,
      "Ġost": 663,
      "cha": 664,
      "Ġda": 665,
      "Å¯Å¾e": 666,
      "ĠvÅ¯": 667,
      "Ġdra": 668,
      "Ġvl": 669,
      "Å¾en": 670,
      "ĠtvÃ©": 671,
      "Å¡el": 672,
      "Ġkle": 673,
      "ĠbÄĽ": 674,
      "Ġstar": 675,
      "Ġon": 676,
      "ĠÃĵ": 677,
      "ri": 678,
      "Ġstra": 679,
      "Ġsem": 680,
      "stu": 681,
      "ĠsÃ¡m": 682,
      "vil": 683,
      "ABABCC": 684,
      "Ġry": 685,
      "Ġbla": 686,
      "ĠchvÃŃ": 687,
      "Ġcho": 688,
      "tra": 689,
      "Ġhra": 690,
      "ĠU": 691,
      "Ġmat": 692,
      "Ġbou": 693,
      "hle": 694,
      "pÃ¡": 695,
      "ĠoÄįi": 696,
      "ĠvÅ¡ec": 697,
      "Ġpu": 698,
      "nost": 699,
      "sÃ¡": 700,
      "py": 701,
      "Ġot": 702,
      "ĠbÃ¡": 703,
      "Ġsm": 704,
      "ĠtÃ¡": 705,
      "ĠduÅ¡i": 706,
      "Ġjas": 707,
      "ĠKdy": 708,
      "Ġhlu": 709,
      "nÃ¡m": 710,
      "ĠÅĻ": 711,
      "ĠÅ¾ivot": 712,
      "sÅ¥": 713,
      "til": 714,
      "Ġbude": 715,
      "ĠÅ¡tÄĽ": 716,
      "Ġhu": 717,
      "ĠÅ¾Ã¡": 718,
      "nul": 719,
      "jem": 720,
      "ĠPro": 721,
      "Ġ1960": 722,
      "Ġoh": 723,
      "ĠJÃ¡": 724,
      "Ġmod": 725,
      "zi": 726,
      "bÃ¡": 727,
      "Å¡ak": 728,
      "Ã½mi": 729,
      "vÃ½ch": 730,
      "Ġsam": 731,
      "Ġzd": 732,
      "Ġsl": 733,
      "Ġf": 734,
      "Ġzvo": 735,
      "Ġjich": 736,
      "nosti": 737,
      "Ġslad": 738,
      "Ġjsme": 739,
      "Ġpoh": 740,
      "Ġdlou": 741,
      "cen": 742,
      "er": 743,
      "ĠkrÃ¡s": 744,
      "ĠvÄĽÄį": 745,
      "Ġpoz": 746,
      "ven": 747,
      "Ġale": 748,
      "ĠI": 749,
      "Ġzde": 750,
      "Ġsmu": 751,
      "Ġsnad": 752,
      "Ġkam": 753,
      "Å¯h": 754,
      "ĠDo": 755,
      "Ġbych": 756,
      "tel": 757,
      "ĠvÃ¡m": 758,
      "Ġneb": 759,
      "ĠkÅĻÃŃ": 760,
      "dem": 761,
      "Ġstro": 762,
      "jÅ¡ÃŃ": 763,
      "dÃ©": 764,
      "ĠtÄĽch": 765,
      "so": 766,
      "Ġtr": 767,
      "ĠTy": 768,
      "Ġva": 769,
      "Ġem": 770,
      "Ġmou": 771,
      "cÃŃch": 772,
      "stÃ¡": 773,
      "Ġspo": 774,
      "Å¡en": 775,
      "Ġjim": 776,
      "ĠdÄĽt": 777,
      "Ġlet": 778,
      "uÅ¾": 779,
      "ĠnenÃŃ": 780,
      "zu": 781,
      "ĠVÅ¡ak": 782,
      "Ġech": 783,
      "Ġmno": 784,
      "ABABCD": 785,
      "ĠZa": 786,
      "Ġala": 787,
      "stvÃŃ": 788,
      "chy": 789,
      "rem": 790,
      "ĠsnÄĽ": 791,
      "Ġja": 792,
      "Ġbylo": 793,
      "ĠÃ©": 794,
      "Ġsly": 795,
      "ĠtÅĻe": 796,
      "Ġvra": 797,
      "lÅ¯": 798,
      "Ġnich": 799,
      "ĠaÅ¥": 800,
      "hÃ©": 801,
      "Ġnech": 802,
      "lovÄĽ": 803,
      "Ġslunce": 804,
      "ĠTu": 805,
      "Ġhne": 806,
      "stou": 807,
      "vnÃŃ": 808,
      "ĠobÄĽ": 809,
      "ĠptÃ¡": 810,
      "skÃ½": 811,
      "stÄĽ": 812,
      "ĠvÃŃc": 813,
      "Ġtvo": 814,
      "cem": 815,
      "Ġma": 816,
      "mÅ¯": 817,
      "Ġkli": 818,
      "krÃ¡": 819,
      "Ġila": 820,
      "Ġhlas": 821,
      "tem": 822,
      "nÃ©ho": 823,
      "Ġkla": 824,
      "jich": 825,
      "Ġml": 826,
      "ĠJen": 827,
      "chem": 828,
      "Ġnep": 829,
      "dla": 830,
      "ĠtÃŃm": 831,
      "Ġkro": 832,
      "ĠsvÅ¯j": 833,
      "Ġdal": 834,
      "Ġdnes": 835,
      "ĠchtÄĽ": 836,
      "ĠoÄįÃŃ": 837,
      "Ġvou": 838,
      "ĠlÃ¡sky": 839,
      "ÅĻel": 840,
      "tek": 841,
      "Ġles": 842,
      "Äįen": 843,
      "tou": 844,
      "ĠtÃŃ": 845,
      "Ġbyla": 846,
      "Ġsen": 847,
      "nil": 848,
      "Äįka": 849,
      "Ġ1820": 850,
      "Ġnik": 851,
      "Ġsmut": 852,
      "ĠÃŃch": 853,
      "skÃ¡": 854,
      "ÅĻil": 855,
      "ĠpÃŃs": 856,
      "ĠmÄĽl": 857,
      "ĠsvÃŃ": 858,
      "tÃŃm": 859,
      "Ġil": 860,
      "ĠsmÄĽ": 861,
      "ĠÅ¡ÃŃ": 862,
      "ĠJi": 863,
      "ĠslÃ¡": 864,
      "vÃ½m": 865,
      "ĠzÅĻÃŃ": 866,
      "ĠsobÄĽ": 867,
      "ABCCB": 868,
      "Ġvr": 869,
      "vem": 870,
      "Ġmys": 871,
      "Ġkol": 872,
      "nal": 873,
      "sud": 874,
      "ĠmÃ¡m": 875,
      "lesk": 876,
      "Ġani": 877,
      "ĠÄįlovÄĽ": 878,
      "Å¡Å¥": 879,
      "ĠKdyÅ¾": 880,
      "za": 881,
      "hla": 882,
      "ĠtÃ©Å¾": 883,
      "Ġhou": 884,
      "Ġkem": 885,
      "cÅ¯": 886,
      "pÄĽt": 887,
      "ĠrÅ¯": 888,
      "Ġke": 889,
      "ĠVe": 890,
      "sou": 891,
      "ĠsvÃ½ch": 892,
      "ĠÅł": 893,
      "dil": 894,
      "Å¡ÃŃm": 895,
      "Ġkolem": 896,
      "kla": 897,
      "Å¡tÃŃ": 898,
      "Ġou": 899,
      "Ġjem": 900,
      "Ġmilo": 901,
      "ĠblÃŃ": 902,
      "ĠVy": 903,
      "hÅ¯": 904,
      "ĠpÅ¯": 905,
      "AABCCB": 906,
      "Ġba": 907,
      "ĠajÃŃ": 908,
      "ĠlÃ©": 909,
      "tÅ¯": 910,
      "ĠÅ¾itÃŃ": 911,
      "ĠÃ©ho": 912,
      "Ġmal": 913,
      "ĠtÄĽÅ¾": 914,
      "ĠzdÃ¡": 915,
      "sty": 916,
      "ĠÄĽnÃŃ": 917,
      "pr": 918,
      "Ġchy": 919,
      "Ġok": 920,
      "ĠzemÄĽ": 921,
      "nky": 922,
      "Ġdla": 923,
      "Ġjejich": 924,
      "ĠÃ³": 925,
      "Ġrado": 926,
      "Ġlem": 927,
      "om": 928,
      "Ġsil": 929,
      "ĠhÃ¡": 930,
      "Ġnu": 931,
      "Äįky": 932,
      "co": 933,
      "Ġruce": 934,
      "ĠvÃ¡s": 935,
      "ĠsnÃŃ": 936,
      "seÅĪ": 937,
      "Ġsrdci": 938,
      "ĠskÃ¡": 939,
      "Ġbi": 940,
      "pla": 941,
      "ĠÅ¾al": 942,
      "sla": 943,
      "Ġlou": 944,
      "Ġzemi": 945,
      "Ġmrt": 946,
      "Äįek": 947,
      "Ġnoc": 948,
      "ĠkaÅ¾dÃ½": 949,
      "ĠBy": 950,
      "lÃ½ch": 951,
      "Ġtich": 952,
      "ĠvÅ¡em": 953,
      "ĠÅ¯": 954,
      "ĠsmÃŃ": 955,
      "ĠpÅĻes": 956,
      "vÃŃm": 957,
      "ĠTe": 958,
      "ĠsvÃ½m": 959,
      "um": 960,
      "Ġmoje": 961,
      "pomÃŃ": 962,
      "Ġhned": 963,
      "Ġhor": 964,
      "ÅĻem": 965,
      "Ġdce": 966,
      "ĠchvÄĽ": 967,
      "Ġoko": 968,
      "skÃ½ch": 969,
      "Ġsu": 970,
      "Ġuje": 971,
      "Ġmra": 972,
      "ved": 973,
      "AXB": 974,
      "pad": 975,
      "kal": 976,
      "ĠveÄįe": 977,
      "ĠrÃ¡d": 978,
      "Ġmoc": 979,
      "hne": 980,
      "Ġbe": 981,
      "ĠdÅĻÃŃ": 982,
      "ĠÅ½e": 983,
      "zo": 984,
      "Ġdiv": 985,
      "kÃ½ch": 986,
      "ĠĠ": 987,
      "dnÃ©": 988,
      "ĠÄįa": 989,
      "sky": 990,
      "ĠhvÄĽz": 991,
      "ĠKo": 992,
      "Ġnepo": 993,
      "ĠspÃ¡": 994,
      "Ġus": 995,
      "Ġpad": 996,
      "Äįil": 997,
      "ĠzpÄĽ": 998,
      "Ġsko": 999,
      "ĠnÃ¡Å¡": 1000,
      "ĠnaÅ¡e": 1001,
      "ĠtvÅ¯j": 1002,
      "lil": 1003,
      "ĠÅ¾ÃŃ": 1004,
      "sku": 1005,
      "ĠvÅ¡ecko": 1006,
      "Ġsmr": 1007,
      "Ġkre": 1008,
      "ĠtobÄĽ": 1009,
      "Ġzlo": 1010,
      "ĠmuÅ¾": 1011,
      "Ġaby": 1012,
      "Ġnoci": 1013,
      "Ġvlast": 1014,
      "Ġhlavu": 1015,
      "ĠÅ¡tÄĽstÃŃ": 1016,
      "nek": 1017,
      "ĠRo": 1018,
      "Ġjste": 1019,
      "ĠHo": 1020,
      "ĠpÅĻec": 1021,
      "nÃŃch": 1022,
      "hem": 1023,
      "ast": 1024,
      "jde": 1025,
      "ska": 1026,
      "Ġchce": 1027,
      "ĠÅ¡el": 1028,
      "bra": 1029,
      "Ġhru": 1030,
      "Äįku": 1031,
      "Ġple": 1032,
      "ĠBÅ¯h": 1033,
      "ĠdÄĽl": 1034,
      "Ġdou": 1035,
      "ĠÅĪ": 1036,
      "ĠbÃ½t": 1037,
      "Ġstu": 1038,
      "ĠÄĽla": 1039,
      "nes": 1040,
      "ĠvlÃ¡": 1041,
      "dnÄĽ": 1042,
      "ĠÅ¡i": 1043,
      "nout": 1044,
      "ĠCh": 1045,
      "nÃŃk": 1046,
      "ĠojÃŃ": 1047,
      "Ġmar": 1048,
      "ĠnÃ¡ro": 1049,
      "Ġali": 1050,
      "Ġzah": 1051,
      "el": 1052,
      "ĠLe": 1053,
      "uje": 1054,
      "Ġmlad": 1055,
      "Å¡li": 1056,
      "Ġprou": 1057,
      "ech": 1058,
      "Ġkru": 1059,
      "pra": 1060,
      "ĠdÃ¡v": 1061,
      "dÃŃm": 1062,
      "Ġhr": 1063,
      "ati": 1064,
      "dnÃ½": 1065,
      "ĠzpÃŃ": 1066,
      "Ġmez": 1067,
      "Å¾il": 1068,
      "zen": 1069,
      "smÄĽ": 1070,
      "ĠhvÄĽzd": 1071,
      "ĠstÅĻe": 1072,
      "Ġjenom": 1073,
      "ABCD": 1074,
      "hl": 1075,
      "Ġpan": 1076,
      "ĠhÅĻÃŃ": 1077,
      "jÃŃcÃŃ": 1078,
      "ĠÄįÃŃ": 1079,
      "sko": 1080,
      "ĠKdo": 1081,
      "ĠcelÃ½": 1082,
      "Ġote": 1083,
      "Ġprav": 1084,
      "tva": 1085,
      "Ġjde": 1086,
      "Ġan": 1087,
      "ĠmlÃ¡": 1088,
      "ĠchvÃŃli": 1089,
      "Ġboj": 1090,
      "ABBC": 1091,
      "Ġky": 1092,
      "aly": 1093,
      "Ġny": 1094,
      "Ġzvu": 1095,
      "ĠÃŃvÃ¡": 1096,
      "ĠÅĻek": 1097,
      "Å¡ich": 1098,
      "AC": 1099,
      "ĠdÃŃv": 1100,
      "ĠpÃŃseÅĪ": 1101,
      "vnÄĽ": 1102,
      "ĠmoÅĻe": 1103,
      "Ġtebe": 1104,
      "ĠÃŃcÃŃ": 1105,
      "sem": 1106,
      "Ġhlou": 1107,
      "Ġmlu": 1108,
      "ĠbuÄı": 1109,
      "dech": 1110,
      "jÃŃc": 1111,
      "tky": 1112,
      "Ġblesk": 1113,
      "Ġobra": 1114,
      "ĠkÅĻi": 1115,
      "ĠstrÃ¡": 1116,
      "BC": 1117,
      "Ġven": 1118,
      "Ġkrev": 1119,
      "ĠtakÃ©": 1120,
      "Ġzda": 1121,
      "Ġslun": 1122,
      "ĠchrÃ¡": 1123,
      "Ġas": 1124,
      "Ġtoho": 1125,
      "Ġtro": 1126,
      "Ġnic": 1127,
      "ĠsvÄĽ": 1128,
      "Ġduch": 1129,
      "ĠspÄĽ": 1130,
      "ĠznÃŃ": 1131,
      "Ġsku": 1132,
      "ĠX": 1133,
      "17": 1134,
      "ĠvrÃ¡": 1135,
      "Ġg": 1136,
      "ĠsvÃ©ho": 1137,
      "Ġved": 1138,
      "ÃŃme": 1139,
      "ÅĻed": 1140,
      "ĠnÃ¡hle": 1141,
      "ĠsvÃ©m": 1142,
      "ĠzÃŃ": 1143,
      "Ġpok": 1144,
      "dnou": 1145,
      "ĠtvÃ¡ÅĻ": 1146,
      "Ġbole": 1147,
      "Ġtru": 1148,
      "ĠmyÅ¡": 1149,
      "ĠvÃ¡Å¡": 1150,
      "dÅ¯": 1151,
      "ĠÅ¡tÃŃ": 1152,
      "ĠKde": 1153,
      "Ġela": 1154,
      "Ġzo": 1155,
      "ÅĻÃŃm": 1156,
      "Ġpi": 1157,
      "Ġos": 1158,
      "nÃ¡ch": 1159,
      "AX": 1160,
      "ĠhnÄĽ": 1161,
      "kÃ½m": 1162,
      "Ġoje": 1163,
      "Ġach": 1164,
      "vÃ©m": 1165,
      "Ġneu": 1166,
      "ĠAle": 1167,
      "ĠÃŃtÃŃ": 1168,
      "ĠHle": 1169,
      "Ġzje": 1170,
      "Ġste": 1171,
      "ĠkvÃŃ": 1172,
      "Ġzase": 1173,
      "Ġbrat": 1174,
      "Ġice": 1175,
      "Å¡la": 1176,
      "krÃ¡t": 1177,
      "ĠsvÄĽta": 1178,
      "Ġslova": 1179,
      "Ġoku": 1180,
      "ĠkterÃ©": 1181,
      "ĠstÅĻÃŃ": 1182,
      "ĠnÄĽk": 1183,
      "rov": 1184,
      "nÄĽjÅ¡ÃŃ": 1185,
      "ĠstÃ¡le": 1186,
      "Ġmezi": 1187,
      "Ġpat": 1188,
      "sÃŃc": 1189,
      "ĠspÃŃ": 1190,
      "ĠF": 1191,
      "ĠÄįlovÄĽk": 1192,
      "Ġchlad": 1193,
      "rost": 1194,
      "Ġmla": 1195,
      "ĠhrÃ¡": 1196,
      "ĠÃŃce": 1197,
      "ĠdÃŃtÄĽ": 1198,
      "ĠoÅĻe": 1199,
      "ĠstÄĽ": 1200,
      "dnÃŃ": 1201,
      "ĠjÃŃm": 1202,
      "Ġzm": 1203,
      "tom": 1204,
      "pat": 1205,
      "ĠchtÄĽl": 1206,
      "nku": 1207,
      "ĠkterÃ½": 1208,
      "ĠbÅĻe": 1209,
      "Ġtma": 1210,
      "Ġjeden": 1211,
      "ĠÃºsmÄĽ": 1212,
      "XAX": 1213,
      "vala": 1214,
      "ĠtiÅ¡e": 1215,
      "zem": 1216,
      "ĠAch": 1217,
      "ĠTam": 1218,
      "nka": 1219,
      "Ġdr": 1220,
      "den": 1221,
      "Ġrou": 1222,
      "ĠOd": 1223,
      "Ġvol": 1224,
      "ĠVÅ¡e": 1225,
      "ĠvÃŃce": 1226,
      "Ġoz": 1227,
      "ĠÃ¡ch": 1228,
      "skou": 1229,
      "ĠnynÃŃ": 1230,
      "ĠstojÃŃ": 1231,
      "Ġjednou": 1232,
      "ena": 1233,
      "ĠPra": 1234,
      "ĠPÃ¡": 1235,
      "dce": 1236,
      "Ġkal": 1237,
      "Ġrukou": 1238,
      "rnÄĽ": 1239,
      "Ġsvi": 1240,
      "Ġest": 1241,
      "Ġnebi": 1242,
      "Ġsebe": 1243,
      "stal": 1244,
      "ĠleÄį": 1245,
      "nat": 1246,
      "ĠsvÃ¡": 1247,
      "ĠMo": 1248,
      "ĠtrÃ¡": 1249,
      "Ġbled": 1250,
      "lek": 1251,
      "lech": 1252,
      "pil": 1253,
      "dal": 1254,
      "Ġtra": 1255,
      "Ġklo": 1256,
      "ĠpÅĻÃ¡": 1257,
      "Ġiny": 1258,
      "ĠlÃ¡ska": 1259,
      "Ġebe": 1260,
      "lit": 1261,
      "nec": 1262,
      "Ġvzdu": 1263,
      "Ġaly": 1264,
      "stÃ©": 1265,
      "ĠbÃŃlÃ©": 1266,
      "ĠovÃ©": 1267,
      "tku": 1268,
      "Ġili": 1269,
      "ĠkÃ¡": 1270,
      "Ġha": 1271,
      "cky": 1272,
      "vra": 1273,
      "Ġnebo": 1274,
      "Ġane": 1275,
      "ĠE": 1276,
      "ĠvÃŃm": 1277,
      "nÄĽl": 1278,
      "Ġmrak": 1279,
      "ĠÅ¾il": 1280,
      "Ġhled": 1281,
      "Ġjar": 1282,
      "Äįko": 1283,
      "ĠTi": 1284,
      "ĠÅ¡Å¥": 1285,
      "Ġpoko": 1286,
      "vÅ¯": 1287,
      "vz": 1288,
      "ami": 1289,
      "vr": 1290,
      "Ġpal": 1291,
      "ĠklÃŃ": 1292,
      "ĠÃŃti": 1293,
      "mÃ©": 1294,
      "ĠOn": 1295,
      "Ġodpo": 1296,
      "ÄįnÃŃ": 1297,
      "Ġmnou": 1298,
      "vit": 1299,
      "Ġplamen": 1300,
      "ĠÅĺ": 1301,
      "ĠbrÃ¡": 1302,
      "jÃŃm": 1303,
      "ĠÄĽje": 1304,
      "Ġrak": 1305,
      "Ġnemo": 1306,
      "Ġena": 1307,
      "ĠutÃŃ": 1308,
      "Ġtomu": 1309,
      "Ġemi": 1310,
      "ĠBu": 1311,
      "Ġposled": 1312,
      "rnÃ©": 1313,
      "Å¡ti": 1314,
      "ĠproÄį": 1315,
      "Ġpot": 1316,
      "ÄįnÄĽ": 1317,
      "Ġova": 1318,
      "pou": 1319,
      "Ġhem": 1320,
      "ĠsÃ¡": 1321,
      "ĠveÄįer": 1322,
      "ĠPÅĻi": 1323,
      "Ġona": 1324,
      "ĠznÃ¡m": 1325,
      "Ġnedo": 1326,
      "ĠTen": 1327,
      "Ã³": 1328,
      "Ġnikdy": 1329,
      "dlo": 1330,
      "tal": 1331,
      "sil": 1332,
      "Ġbudou": 1333,
      "Ġady": 1334,
      "Ġpoli": 1335,
      "ĠenÃ©": 1336,
      "ĠÃ¡vÃ¡": 1337,
      "ĠVÃŃ": 1338,
      "ĠjuÅ¾": 1339,
      "Ġveli": 1340,
      "ĠnÃŃÅ¾": 1341,
      "ĠhrÅ¯": 1342,
      "Ġjedno": 1343,
      "cÃŃm": 1344,
      "Ġzno": 1345,
      "ĠnadÄĽ": 1346,
      "sl": 1347,
      "Ġjedi": 1348,
      "Ġsle": 1349,
      "rnÃ½": 1350,
      "ĠetÃŃ": 1351,
      "ĠSe": 1352,
      "ĠzvÄĽ": 1353,
      "tro": 1354,
      "ĠoÅĻÃŃ": 1355,
      "Ġvese": 1356,
      "Ġzak": 1357,
      "Ġzi": 1358,
      "ĠÃŃrÃ¡": 1359,
      "Ã¡c": 1360,
      "Ġhlavy": 1361,
      "ĠhÅĻ": 1362,
      "ĠPa": 1363,
      "vali": 1364,
      "Ġnebes": 1365,
      "ek": 1366,
      "ben": 1367,
      "ĠdÄĽti": 1368,
      "stÃ½": 1369,
      "Ġleh": 1370,
      "Ġvoj": 1371,
      "ĠznÃ¡": 1372,
      "ĠzÃ¡ÅĻ": 1373,
      "ĠrÅ¯Å¾e": 1374,
      "Ġzna": 1375,
      "jte": 1376,
      "ĠMy": 1377,
      "ĠÅ¡Å¥ast": 1378,
      "ĠvzpomÃŃ": 1379,
      "Ġsed": 1380,
      "Ġpom": 1381,
      "pl": 1382,
      "Ġslav": 1383,
      "Ġhrob": 1384,
      "Ġoka": 1385,
      "lik": 1386,
      "ĠTeÄı": 1387,
      "hat": 1388,
      "zel": 1389,
      "Ġsli": 1390,
      "XAXAXB": 1391,
      "nice": 1392,
      "kÃ¡ch": 1393,
      "ĠJako": 1394,
      "ĠcelÃ©": 1395,
      "vÃ¡nÃŃ": 1396,
      "Ġhroz": 1397,
      "ĠLi": 1398,
      "Ġum": 1399,
      "ĠÅ¡at": 1400,
      "ĠumÃŃ": 1401,
      "lov": 1402,
      "ĠÅ¡u": 1403,
      "hlÃ©": 1404,
      "ĠdÅ¯": 1405,
      "Ġlesk": 1406,
      "tÄĽz": 1407,
      "ĠavÃŃ": 1408,
      "alo": 1409,
      "mou": 1410,
      "ĠprvnÃŃ": 1411,
      "ĠMÃ¡": 1412,
      "Ġavy": 1413,
      "ĠenÃ½": 1414,
      "ĠdÃ¡le": 1415,
      "Ġdar": 1416,
      "ĠÅĻÃ¡": 1417,
      "let": 1418,
      "ĠstÃŃn": 1419,
      "Ġtaj": 1420,
      "ĠchÃ¡": 1421,
      "ÅĻit": 1422,
      "Ġruku": 1423,
      "Ġstr": 1424,
      "ĠVi": 1425,
      "Ġdvo": 1426,
      "kÃ©m": 1427,
      "ĠpÅĻece": 1428,
      "Ġsmrti": 1429,
      "Ġves": 1430,
      "Ġoji": 1431,
      "ĠVÄĽ": 1432,
      "ĠnevÄĽ": 1433,
      "ĠnovÃ©": 1434,
      "Ġhrd": 1435,
      "Ġzb": 1436,
      "Ġkraj": 1437,
      "ĠMi": 1438,
      "ĠkterÃ¡": 1439,
      "Ġruka": 1440,
      "Ġbar": 1441,
      "lÃ½m": 1442,
      "Ġele": 1443,
      "Ġnevi": 1444,
      "snÄĽ": 1445,
      "Ġhe": 1446,
      "ĠmusÃŃ": 1447,
      "ĠÄįÃŃm": 1448,
      "Ġdva": 1449,
      "sÅ¯": 1450,
      "ĠPak": 1451,
      "Ġdem": 1452,
      "Ġhlavou": 1453,
      "Ġaje": 1454,
      "Ġeny": 1455,
      "ĠG": 1456,
      "Ġsky": 1457,
      "ĠÄĽti": 1458,
      "pal": 1459,
      "Ġpru": 1460,
      "Å¡em": 1461,
      "ĠkrÃ¡l": 1462,
      "Ġobla": 1463,
      "ĠÃ¡ti": 1464,
      "ĠvolÃ¡": 1465,
      "nit": 1466,
      "ĠleÅ¾ÃŃ": 1467,
      "ĠskrÃ¡": 1468,
      "ĠnÃ½m": 1469,
      "nic": 1470,
      "Ġvat": 1471,
      "ĠmÃ½ch": 1472,
      "Äįel": 1473,
      "Ġneo": 1474,
      "Ġtlu": 1475,
      "ĠuÅ¡ÃŃ": 1476,
      "ĠonÃŃ": 1477,
      "ĠduÅ¡ÃŃ": 1478,
      "ĠletÃŃ": 1479,
      "Ġskry": 1480,
      "Ġradost": 1481,
      "ĠTa": 1482,
      "ĠknÄĽ": 1483,
      "hlÃŃ": 1484,
      "Ġplo": 1485,
      "Ġsa": 1486,
      "pen": 1487,
      "ĠdÃ¡m": 1488,
      "ĠVz": 1489,
      "ÄĽti": 1490,
      "dÄĽla": 1491,
      "ĠKrÃ¡": 1492,
      "ĠvÃ½m": 1493,
      "Ġskal": 1494,
      "vÃ¡m": 1495,
      "ĠNo": 1496,
      "Ġproti": 1497,
      "ĠaÄį": 1498,
      "Ġpy": 1499,
      "ĠanÃŃ": 1500,
      "Ġnimi": 1501,
      "Ġled": 1502,
      "ĠNi": 1503,
      "Ġuch": 1504,
      "Ġdech": 1505,
      "ĠmeÄį": 1506,
      "pas": 1507,
      "tka": 1508,
      "ÄįnÃ©": 1509,
      "ĠnÄĽj": 1510,
      "Ġzra": 1511,
      "ĠÃ¡le": 1512,
      "ĠprÃ½": 1513,
      "Ġlas": 1514,
      "Ġami": 1515,
      "ĠÄĮe": 1516,
      "has": 1517,
      "ĠstarÃ½": 1518,
      "ĠcizÃŃ": 1519,
      "ĠsvÄĽtÄĽ": 1520,
      "ĠzÃ¡ÅĻÃŃ": 1521,
      "ran": 1522,
      "Ġpohled": 1523,
      "Ġneby": 1524,
      "Ġrozko": 1525,
      "AAXB": 1526,
      "ouf": 1527,
      "ĠJiÅ¾": 1528,
      "ĠProÄį": 1529,
      "Ġdlouho": 1530,
      "Ġsotva": 1531,
      "kÅĻi": 1532,
      "Ġsvoje": 1533,
      "zÃ¡": 1534,
      "Ġzbo": 1535,
      "Ġmoh": 1536,
      "ĠzpÄĽv": 1537,
      "ĠvÅ¾dyÅ¥": 1538,
      "ĠtvÃ½ch": 1539,
      "ĠÃ½vÃ¡": 1540,
      "dnÃ¡": 1541,
      "Ġhal": 1542,
      "Ġilo": 1543,
      "jen": 1544,
      "ĠdÃ¡vno": 1545,
      "Ġhy": 1546,
      "Ġvlasti": 1547,
      "Ġadu": 1548,
      "dl": 1549,
      "Ġsna": 1550,
      "ĠÃ¡na": 1551,
      "Ġtla": 1552,
      "ĠzlatÃ©": 1553,
      "Å¯Å¾": 1554,
      "Ġcit": 1555,
      "trÃ¡": 1556,
      "nutÃŃ": 1557,
      "ĠhvÄĽzdy": 1558,
      "Ġsamo": 1559,
      "Ġtesk": 1560,
      "Ġese": 1561,
      "kli": 1562,
      "ÄįÃŃm": 1563,
      "Ġpozd": 1564,
      "Ġsni": 1565,
      "ĠvÅĻe": 1566,
      "ĠtÅĻÃŃ": 1567,
      "Ġode": 1568,
      "rob": 1569,
      "Ġhlubo": 1570,
      "ĠÄįelo": 1571,
      "snÃŃ": 1572,
      "cy": 1573,
      "Ġran": 1574,
      "Ġticho": 1575,
      "Ġdruh": 1576,
      "CCD": 1577,
      "zko": 1578,
      "Ġrych": 1579,
      "Ġzelen": 1580,
      "lal": 1581,
      "Ġati": 1582,
      "ct": 1583,
      "ĠMar": 1584,
      "Ġtajem": 1585,
      "ĠÅ¾ha": 1586,
      "ala": 1587,
      "Ġrem": 1588,
      "Ġuli": 1589,
      "Ġup": 1590,
      "Ġpil": 1591,
      "ĠÄĽlo": 1592,
      "ĠhledÃŃ": 1593,
      "ev": 1594,
      "ĠVÅ¾dy": 1595,
      "Ġbr": 1596,
      "ĠvÅ¡ecky": 1597,
      "Ġslou": 1598,
      "ĠvidÄĽl": 1599,
      "ĠvÅ¡u": 1600,
      "ĠavÃ½": 1601,
      "ĠprÃ¡zd": 1602,
      "ĠÅ¡ep": 1603,
      "Ġtky": 1604,
      "ĠtvÃŃ": 1605,
      "ĠkvÄĽty": 1606,
      "Å¡il": 1607,
      "Ġjin": 1608,
      "ĠmÅ¯Å¾e": 1609,
      "Ġper": 1610,
      "Ġavu": 1611,
      "Ġchci": 1612,
      "prÃ¡": 1613,
      "ĠpÃ¡n": 1614,
      "ĠÄįasto": 1615,
      "tech": 1616,
      "ĠÅ¾ivota": 1617,
      "ĠitÃŃ": 1618,
      "Ġpros": 1619,
      "ĠÅĪad": 1620,
      "Ġlidst": 1621,
      "ĠÅ½i": 1622,
      "ĠsvÃŃtÃŃ": 1623,
      "Ġcha": 1624,
      "Ġplu": 1625,
      "ĠsnÅ¯": 1626,
      "Ġblou": 1627,
      "Ġsch": 1628,
      "ĠÃŃm": 1629,
      "Ġ1800": 1630,
      "ĠedÃ¡": 1631,
      "ĠchvÃŃle": 1632,
      "Ġpam": 1633,
      "vÃ¡n": 1634,
      "Ġvrou": 1635,
      "Å¡enÃŃ": 1636,
      "ĠolÃŃ": 1637,
      "ĠÅ¾ena": 1638,
      "ĠDu": 1639,
      "Ġtvoje": 1640,
      "Ġolu": 1641,
      "ĠkÅĻe": 1642,
      "ĠnÃ¡rod": 1643,
      "znÄĽ": 1644,
      "ĠnÄĽho": 1645,
      "ĠdrÃ¡": 1646,
      "ĠBa": 1647,
      "et": 1648,
      "Ġkraji": 1649,
      "Ġpole": 1650,
      "rÃ½ch": 1651,
      "ĠpohÃ¡": 1652,
      "Ġzve": 1653,
      "ĠuÅ¡i": 1654,
      "ĠuÄįÃŃ": 1655,
      "Ġzk": 1656,
      "ĠKa": 1657,
      "Ġhud": 1658,
      "Ġtil": 1659,
      "tla": 1660,
      "Ġoci": 1661,
      "spo": 1662,
      "kÃ¡m": 1663,
      "ĠtÄĽlo": 1664,
      "Ġoba": 1665,
      "ĠdobÅĻe": 1666,
      "nech": 1667,
      "Ġvil": 1668,
      "Ġzapo": 1669,
      "kol": 1670,
      "ĠNad": 1671,
      "Ġbys": 1672,
      "ral": 1673,
      "ĠÃ¡li": 1674,
      "Ġkni": 1675,
      "Å¯v": 1676,
      "Ġpouze": 1677,
      "ĠtÅĻi": 1678,
      "Ġztra": 1679,
      "Ġosud": 1680,
      "Ġkdyby": 1681,
      "ĠvidÃŃ": 1682,
      "Ġsmrt": 1683,
      "ĠPÅĻe": 1684,
      "enÃ¡": 1685,
      "ĠposlednÃŃ": 1686,
      "ĠÃŃli": 1687,
      "ÄįnÃ½": 1688,
      "Ġoru": 1689,
      "Ġjemu": 1690,
      "Ġude": 1691,
      "Ġkon": 1692,
      "kle": 1693,
      "ĠtÅĻeba": 1694,
      "ĠvelkÃ©": 1695,
      "vajÃŃ": 1696,
      "ĠÃŃci": 1697,
      "ĠbÃ½ti": 1698,
      "lost": 1699,
      "ĠboÅ¾ÃŃ": 1700,
      "Ġzach": 1701,
      "ĠstÅĻÃŃb": 1702,
      "Ġici": 1703,
      "Ġvem": 1704,
      "ĠtÅĻ": 1705,
      "ĠdÃ¡li": 1706,
      "Ã½vÃ¡": 1707,
      "ĠpanÃŃ": 1708,
      "ĠsklÃ¡": 1709,
      "ĠstÃ¡l": 1710,
      "ĠlÃ¡skou": 1711,
      "Ġklid": 1712,
      "ĠvdÄĽ": 1713,
      "ĠAÅ¾": 1714,
      "ĠtÃ¡h": 1715,
      "ĠsmÃŃch": 1716,
      "ĠnÃ¡ru": 1717,
      "ĠpolÃŃ": 1718,
      "ĠlÃ¡sku": 1719,
      "hal": 1720,
      "Ġdale": 1721,
      "bil": 1722,
      "ĠzÅ¯": 1723,
      "Ġalo": 1724,
      "Ġich": 1725,
      "ĠpÄĽt": 1726,
      "mÄĽnÃŃ": 1727,
      "znÃŃ": 1728,
      "Ġtady": 1729,
      "Ġkdys": 1730,
      "Ġnce": 1731,
      "stÅĻÃŃ": 1732,
      "Ġout": 1733,
      "ĠbÃŃlÃ½": 1734,
      "Ġvod": 1735,
      "Ġret": 1736,
      "Å¾el": 1737,
      "ĠenÃ¡": 1738,
      "Ġzlat": 1739,
      "Ġjisk": 1740,
      "ĠvÃ½Å¡": 1741,
      "Ġska": 1742,
      "ĠTÄĽ": 1743,
      "ĠSnad": 1744,
      "ĠÅ¾eny": 1745,
      "kud": 1746,
      "ĠpÅ¯l": 1747,
      "ĠchvÃ¡": 1748,
      "nostÃŃ": 1749,
      "Ġkve": 1750,
      "ĠvÅ¾dycky": 1751,
      "ĠpoÄį": 1752,
      "ĠAÅ¥": 1753,
      "Ġzouf": 1754,
      "ĠsvojÃŃ": 1755,
      "Ġlidu": 1756,
      "ĠvÃŃtÄĽz": 1757,
      "Ġzu": 1758,
      "Ġasy": 1759,
      "Ġnese": 1760,
      "ĠÅ¡um": 1761,
      "vÃ©ho": 1762,
      "Ġsny": 1763,
      "Ġkry": 1764,
      "Ġsklo": 1765,
      "chÃ¡zÃŃ": 1766,
      "AXAX": 1767,
      "ĠnÃ¡mi": 1768,
      "ĠpÃŃsnÄĽ": 1769,
      "ĠznÄĽ": 1770,
      "Ġuk": 1771,
      "ata": 1772,
      "Ġtebou": 1773,
      "hled": 1774,
      "ĠsvÄĽtlo": 1775,
      "ĠvlastnÃŃ": 1776,
      "ÄįenÃŃ": 1777,
      "Ġtep": 1778,
      "rÃ½m": 1779,
      "Ġzby": 1780,
      "Ġije": 1781,
      "Ġkrve": 1782,
      "ĠdÃ½m": 1783,
      "Ġmnoho": 1784,
      "dÄĽt": 1785,
      "Å¾nÄĽ": 1786,
      "Ġvich": 1787,
      "lna": 1788,
      "ĠnovÃ½": 1789,
      "zou": 1790,
      "ĠÃ¡ly": 1791,
      "Ġproto": 1792,
      "Ġslzy": 1793,
      "Ġtedy": 1794,
      "Ġhlava": 1795,
      "ABBACC": 1796,
      "ĠZde": 1797,
      "ĠÅ¾Ã¡r": 1798,
      "stra": 1799,
      "Ġotec": 1800,
      "Å¾ÃŃm": 1801,
      "Ġily": 1802,
      "tÅĻe": 1803,
      "Ġblu": 1804,
      "Ġboji": 1805,
      "tnÃ©": 1806,
      "ĠvelkÃ½": 1807,
      "Ġzlato": 1808,
      "ĠrÃ¡z": 1809,
      "Ġpomo": 1810,
      "Ġsty": 1811,
      "ĠvÅ¡eho": 1812,
      "Ġstat": 1813,
      "ĠjejÅ¾": 1814,
      "Ġodu": 1815,
      "dne": 1816,
      "div": 1817,
      "Ġcestu": 1818,
      "Ġmoud": 1819,
      "Å¾o": 1820,
      "nik": 1821,
      "Ġposta": 1822,
      "Ġpolo": 1823,
      "ĠNÃ¡": 1824,
      "ĠnÄĽmu": 1825,
      "hÅ¯ru": 1826,
      "vost": 1827,
      "Ġobraz": 1828,
      "Ġpapr": 1829,
      "ĠbÅ¯h": 1830,
      "Ġmr": 1831,
      "ĠKri": 1832,
      "Ġbol": 1833,
      "Ġned": 1834,
      "Ġzahra": 1835,
      "Ġnevy": 1836,
      "Ġlist": 1837,
      "ĠVÃ¡": 1838,
      "ĠjmÃ©": 1839,
      "Ġhory": 1840,
      "dit": 1841,
      "Ġdivo": 1842,
      "ĠÅĻa": 1843,
      "ĠmÃ©ho": 1844,
      "ĠPod": 1845,
      "vrÃ¡": 1846,
      "Ġstej": 1847,
      "Ġdej": 1848,
      "ĠdÄĽs": 1849,
      "Ġase": 1850,
      "ĠstarÃ©": 1851,
      "ĠvÃŃtr": 1852,
      "ĠopÄĽt": 1853,
      "sal": 1854,
      "ĠbouÅĻ": 1855,
      "din": 1856,
      "Ġtek": 1857,
      "Ġnul": 1858,
      "Ġuti": 1859,
      "ĠrÃ¡na": 1860,
      "ĠdnÃ©": 1861,
      "Ġpocho": 1862,
      "ĠhoÅĻÃŃ": 1863,
      "tit": 1864,
      "Ġsvobo": 1865,
      "ĠLeÄį": 1866,
      "jÄı": 1867,
      "Ġneza": 1868,
      "ĠmyÅ¡len": 1869,
      "Ġeho": 1870,
      "Ġdost": 1871,
      "tÄĽl": 1872,
      "ĠnÄĽmÅ¾": 1873,
      "ĠdnÃŃ": 1874,
      "nÃ½mi": 1875,
      "Ġiti": 1876,
      "Ġsyn": 1877,
      "ĠpadÃ¡": 1878,
      "ĠsmÃ¡": 1879,
      "or": 1880,
      "Ġbohat": 1881,
      "ĠÃ¡la": 1882,
      "ĠkrÃ¡t": 1883,
      "ĠmÃŃt": 1884,
      "ĠNech": 1885,
      "ĠsÃŃly": 1886,
      "Ġzmi": 1887,
      "Ġbolest": 1888,
      "sce": 1889,
      "Ġpotom": 1890,
      "ĠByl": 1891,
      "ĠdÅĻÃŃv": 1892,
      "ĠucÃŃ": 1893,
      "vlÃ¡": 1894,
      "lÃ©m": 1895,
      "he": 1896,
      "ĠÄĽÅ¾ÃŃ": 1897,
      "ĠhlÃ¡": 1898,
      "ĠsvatÃ©": 1899,
      "lenÃŃ": 1900,
      "Ġsvoji": 1901,
      "ABAA": 1902,
      "ĠmÃ¡lo": 1903,
      "kÅ¯m": 1904,
      "ĠuÅ¡e": 1905,
      "ĠprÃ¡ci": 1906,
      "AXBB": 1907,
      "ĠvÄĽru": 1908,
      "ABCB": 1909,
      "ĠÃºsmÄĽv": 1910,
      "Ġvys": 1911,
      "ĠmÃ¡Å¡": 1912,
      "ĠdomÅ¯": 1913,
      "Ġkouz": 1914,
      "ĠZda": 1915,
      "ABA": 1916,
      "ĠblÃ¡": 1917,
      "ĠÃŃÅ¾ÃŃ": 1918,
      "ĠtrÅ¯": 1919,
      "AABCBC": 1920,
      "ĠkaÅ¾dÃ©": 1921,
      "Ġbuj": 1922,
      "ĠmilÃ½": 1923,
      "ĠÄı": 1924,
      "ĠavÄĽ": 1925,
      "Ġvon": 1926,
      "lÃŃm": 1927,
      "ĠprÃ¡vÄĽ": 1928,
      "in": 1929,
      "ĠvÅ¡ude": 1930,
      "ĠsvÄĽtla": 1931,
      "Ġeli": 1932,
      "Ġnikdo": 1933,
      "sÃŃce": 1934,
      "ĠmlÃ¡dÃŃ": 1935,
      "ĠzlatÃ½": 1936,
      "Ġzal": 1937,
      "ĠzÃ¡ÅĻi": 1938,
      "ĠzÅĻel": 1939,
      "Ġpar": 1940,
      "ĠnÄĽkdy": 1941,
      "Ġlad": 1942,
      "Ġopu": 1943,
      "ĠchÃ½": 1944,
      "ĠnaÅ¡ÃŃ": 1945,
      "Ġtvou": 1946,
      "ÅĻela": 1947,
      "ĠpÄĽk": 1948,
      "der": 1949,
      "ĠstÃŃny": 1950,
      "Ġjdou": 1951,
      "pÅ¯": 1952,
      "Å¾nÃ©": 1953,
      "ĠjakÃ½": 1954,
      "ĠsvatÃ½": 1955,
      "ĠAn": 1956,
      "Ġzved": 1957,
      "us": 1958,
      "ĠVo": 1959,
      "jat": 1960,
      "ĠMa": 1961,
      "tnÃŃ": 1962,
      "ĠlidÃŃ": 1963,
      "Å¾eh": 1964,
      "ĠCoÅ¾": 1965,
      "skÃ©ho": 1966,
      "ĠprÃ¡ce": 1967,
      "Ġtku": 1968,
      "vila": 1969,
      "pro": 1970,
      "ec": 1971,
      "XAXB": 1972,
      "ĠpÃŃsnÃŃ": 1973,
      "ĠÄįek": 1974,
      "Ġvzdo": 1975,
      "ĠNeÅ¾": 1976,
      "ĠzpÄĽt": 1977,
      "Ġody": 1978,
      "valy": 1979,
      "ĠBoÅ¾e": 1980,
      "ĠmÃ½m": 1981,
      "Ġotev": 1982,
      "ĠdvÄĽ": 1983,
      "Ġuku": 1984,
      "Ġina": 1985,
      "ĠneznÃ¡m": 1986,
      "ĠzpÃŃvÃ¡": 1987,
      "Ãº": 1988,
      "Ġmen": 1989,
      "ĠkaÅ¾d": 1990,
      "Ġzr": 1991,
      "ĠzmÄĽ": 1992,
      "Ġhovo": 1993,
      "ĠmÃŃr": 1994,
      "ĠmarnÄĽ": 1995,
      "Ġtal": 1996,
      "Ġtrochu": 1997,
      "Äįit": 1998,
      "AXBC": 1999,
      "ĠvidÃŃm": 2000,
      "ĠtvÃ¡ÅĻe": 2001,
      "ĠkvÄĽtÅ¯": 2002,
      "ĠtvÃ¡ÅĻÃŃ": 2003,
      "plÃ¡": 2004,
      "roz": 2005,
      "ĠbouÅĻe": 2006,
      "ĠkrÃ¡sy": 2007,
      "Ġspolu": 2008,
      "ĠnemÃ¡": 2009,
      "ĠjistÄĽ": 2010,
      "nula": 2011,
      "Ġsama": 2012,
      "ÅĻa": 2013,
      "hra": 2014,
      "Ġvele": 2015,
      "Ġomu": 2016,
      "Ġinu": 2017,
      "ĠpÅĻiÅ¡el": 2018,
      "Ġmatka": 2019,
      "Ã©Å¾": 2020,
      "ĠmÃŃsto": 2021,
      "Å¡ichni": 2022,
      "tk": 2023,
      "ĠlidÃ©": 2024,
      "ĠjÅ¡ÃŃ": 2025,
      "Ġaky": 2026,
      "ĠRoz": 2027,
      "ĠkÅĻÃŃÅ¾": 2028,
      "ĠtvÃ¡ÅĻi": 2029,
      "ĠnichÅ¾": 2030,
      "Ġzvolna": 2031,
      "ĠdÅ¯m": 2032,
      "ĠvÄĽr": 2033,
      "Ġzraky": 2034,
      "ĠÃ½mi": 2035,
      "dÄĽj": 2036,
      "on": 2037,
      "mr": 2038,
      "Ġroze": 2039,
      "bor": 2040,
      "ĠÃ¡ÅĻe": 2041,
      "ĠkÃ¡m": 2042,
      "ĠvÅ¡echno": 2043,
      "ĠoÅ¾ÃŃ": 2044,
      "Å¾Ã¡": 2045,
      "ĠatÃ©": 2046,
      "Ġtan": 2047,
      "ĠivÃ½": 2048,
      "Ġoby": 2049,
      "ĠujÃŃ": 2050,
      "Ġbyli": 2051,
      "Ġcos": 2052,
      "Ġprsou": 2053,
      "ĠÄįku": 2054,
      "Ġol": 2055,
      "ĠÃ¡me": 2056,
      "ĠdolÅ¯": 2057,
      "Ġdil": 2058,
      "Ġbyly": 2059,
      "Ġzdra": 2060,
      "klo": 2061,
      "rÃ©m": 2062,
      "ĠdÄĽv": 2063,
      "Ġslovo": 2064,
      "Ġory": 2065,
      "Ġsebou": 2066,
      "Ġkoru": 2067,
      "ĠÅĻeÄį": 2068,
      "ĠslÃ¡vy": 2069,
      "ĠVla": 2070,
      "18": 2071,
      "Ġprost": 2072,
      "ĠkrÃ¡lov": 2073,
      "!...": 2074,
      "ato": 2075,
      "Ġdoby": 2076,
      "Ġrov": 2077,
      "ĠpÅĻijde": 2078,
      "ĠivÃ¡": 2079,
      "sek": 2080,
      "ĠhruÄı": 2081,
      "ĠmÄĽsta": 2082,
      "ĠanÃ©": 2083,
      "Ġmysli": 2084,
      "stup": 2085,
      "Ġasu": 2086,
      "ĠÄĽli": 2087,
      "ĠmilÃ¡": 2088,
      "bal": 2089,
      "ĠÄĽjÃŃ": 2090,
      "ĠplÃ¡Äį": 2091,
      "Ġkles": 2092,
      "ĠÅ¾ÃŃt": 2093,
      "ĠÅ¡ko": 2094,
      "Ġnena": 2095,
      "ĠvÄįe": 2096,
      "ckÃ©": 2097,
      "Ġyla": 2098,
      "stem": 2099,
      "ĠskrÃ½": 2100,
      "tila": 2101,
      "AXX": 2102,
      "nici": 2103,
      "Ġbal": 2104,
      "ĠodÃŃ": 2105,
      "Ġuz": 2106,
      "ĠzrÃ¡": 2107,
      "dila": 2108,
      "ĠNÄĽ": 2109,
      "ĠudÃŃ": 2110,
      "ĠtÃ½": 2111,
      "Ġkamen": 2112,
      "ĠcoÅ¾": 2113,
      "tko": 2114,
      "ĠhoÅĻe": 2115,
      "ĠÃŃle": 2116,
      "ĠÃ¡zÃŃ": 2117,
      "Ġmilen": 2118,
      "Ġzdo": 2119,
      "Ġrychle": 2120,
      "skÃ©m": 2121,
      "Ġnku": 2122,
      "ĠknÃŃ": 2123,
      "ĠÅ¾lu": 2124,
      "Ġhlubi": 2125,
      "Ġbeze": 2126,
      "ĠnaÅ¡ich": 2127,
      "ĠtÅĻpy": 2128,
      "Ġlesy": 2129,
      "ĠzaÄį": 2130,
      "Ġelo": 2131,
      "ĠÃ¡lo": 2132,
      "Ġtouhy": 2133,
      "skÃ½m": 2134,
      "ĠmÄĽk": 2135,
      "ĠvÄĽÄįnÄĽ": 2136,
      "ĠÅ¯Å¾e": 2137,
      "ĠÃ¡ÅĻÃŃ": 2138,
      "Å¡te": 2139,
      "stil": 2140,
      "gi": 2141,
      "ĠvaÅ¡e": 2142,
      "Ġnek": 2143,
      "ĠneÅ¾li": 2144,
      "Ġsmy": 2145,
      "ĠboÅ¾": 2146,
      "ĠÄĮi": 2147,
      "Ġtolik": 2148,
      "Å¡ka": 2149,
      "kÃ¡nÃŃ": 2150,
      "ĠZÃ¡": 2151,
      "Ġct": 2152,
      "ĠnevÃŃ": 2153,
      "ĠTys": 2154,
      "dra": 2155,
      "nila": 2156,
      "Ġducha": 2157,
      "ĠlÃ¡sce": 2158,
      "Ġsr": 2159,
      "Ġzbra": 2160,
      "Ġvlny": 2161,
      "ĠÃ¡ÅĻi": 2162,
      "Ġzdvi": 2163,
      "ĠÅ¡la": 2164,
      "van": 2165,
      "Ġprach": 2166,
      "mem": 2167,
      "ĠstÃ©": 2168,
      "ĠÄįem": 2169,
      "ĠSly": 2170,
      "letÃŃ": 2171,
      "mÃ½": 2172,
      "ĠMÄĽ": 2173,
      "ĠÄįil": 2174,
      "ĠnocÃŃ": 2175,
      "ĠejÃŃ": 2176,
      "stech": 2177,
      "Å¡nÄĽ": 2178,
      "Ġor": 2179,
      "ĠztrÃ¡": 2180,
      "Ġlil": 2181,
      "Ġtys": 2182,
      "Ġblaho": 2183,
      "Ġbudu": 2184,
      "Ġkrva": 2185,
      "ĠvÃ½Å¡e": 2186,
      "ĠnechÅ¥": 2187,
      "teli": 2188,
      "ĠvÅ¡ichni": 2189,
      "Ġokem": 2190,
      "ĠÅ¾iv": 2191,
      "Ġopo": 2192,
      "ĠTvÃ©": 2193,
      "Ġrok": 2194,
      "cela": 2195,
      "ĠzmÃŃ": 2196,
      "Ġpev": 2197,
      "ĠjinÃ©": 2198,
      "Ġpodo": 2199,
      "Ġdosud": 2200,
      "ĠtÄĽla": 2201,
      "ĠatÃ½": 2202,
      "ĠÃ©mu": 2203,
      "nÃ¡nÃŃ": 2204,
      "ABCDCD": 2205,
      "ĠpÅĻem": 2206,
      "ĠvzhÅ¯ru": 2207,
      "ĠlÃŃc": 2208,
      "ĠvÅ¯nÄĽ": 2209,
      "ĠsladkÃ©": 2210,
      "ĠmÃ©m": 2211,
      "Ġnapo": 2212,
      "Ġchmu": 2213,
      "Ġvyso": 2214,
      "Å¾nÃ½": 2215,
      "ĠvlÃŃ": 2216,
      "lez": 2217,
      "ĠsvÄĽtem": 2218,
      "Ġpane": 2219,
      "ĠmyÅ¡lÃ©": 2220,
      "rk": 2221,
      "ĠSt": 2222,
      "Ġsvit": 2223,
      "lze": 2224,
      "ĠandÄĽl": 2225,
      "ABBCCD": 2226,
      "ĠeÅ¾ÃŃ": 2227,
      "ĠÄįernÃ©": 2228,
      "ĠohnÄĽ": 2229,
      "novÃ©": 2230,
      "valo": 2231,
      "ĠvÄĽk": 2232,
      "ABABAB": 2233,
      "Ġply": 2234,
      "ĠsnÃ¡": 2235,
      "Ġprch": 2236,
      "ĠÃ¡no": 2237,
      "ĠtisÃŃc": 2238,
      "ĠkÅĻÃŃdla": 2239,
      "ĠemÄĽ": 2240,
      "Ġuce": 2241,
      "kro": 2242,
      "pÃ½": 2243,
      "ĠÄįka": 2244,
      "ĠÄįekÃ¡": 2245,
      "Ġvody": 2246,
      "Ġznova": 2247,
      "ĠmrÃ¡": 2248,
      "zni": 2249,
      "ĠÃ¡ni": 2250,
      "ĠklÃ¡": 2251,
      "ĠhnÃŃ": 2252,
      "ĠPÃ¡n": 2253,
      "rech": 2254,
      "ĠzvÃŃ": 2255,
      "Ã¡l": 2256,
      "Ġpropa": 2257,
      "Ġklen": 2258,
      "ĠprÅ¯": 2259,
      "ĠlÃŃce": 2260,
      "ĠÃºst": 2261,
      "chÃ½": 2262,
      "ĠLu": 2263,
      "ĠdÃ¡t": 2264,
      "ĠvÃ¡l": 2265,
      "Ġpest": 2266,
      "ĠmoÅ¾": 2267,
      "ĠvÄĽky": 2268,
      "lila": 2269,
      "ĠÄĽly": 2270,
      "ĠblÃŃÅ¾": 2271,
      "ĠNeb": 2272,
      "ĠÅ¾el": 2273,
      "Ġdle": 2274,
      "leh": 2275,
      "ĠjÃŃt": 2276,
      "ĠanÄĽ": 2277,
      "ĠÃ¡ny": 2278,
      "Ġmd": 2279,
      "AAXX": 2280,
      "ĠsnÄĽnÃŃ": 2281,
      "ĠptÃ¡k": 2282,
      "Ġasi": 2283,
      "Ġete": 2284,
      "ĠidÃŃ": 2285,
      "Ġobzo": 2286,
      "dr": 2287,
      "ĠVÅ¾dyÅ¥": 2288,
      "stÅĻÃŃc": 2289,
      "ĠÄįele": 2290,
      "hod": 2291,
      "Ġkat": 2292,
      "Ġov": 2293,
      "ĠJa": 2294,
      "ĠHa": 2295,
      "del": 2296,
      "Ġchat": 2297,
      "Ġcen": 2298,
      "ĠkrÃ¡snÃ©": 2299,
      "Ġspat": 2300,
      "Ġnit": 2301,
      "ĠnaÅ¡i": 2302,
      "ĠusmÃŃ": 2303,
      "Ġrod": 2304,
      "Ġole": 2305,
      "Ġdrob": 2306,
      "Ġvyz": 2307,
      "ĠkrvÃŃ": 2308,
      "Å¡ku": 2309,
      "lÃ©b": 2310,
      "ĠhoÅĻ": 2311,
      "ĠsnÃŃh": 2312,
      "ĠmÄĽsÃŃc": 2313,
      "ĠPÅĻed": 2314,
      "uj": 2315,
      "Ġstru": 2316,
      "Ã¡me": 2317,
      "zal": 2318,
      "Ġudu": 2319,
      "Ġzjev": 2320,
      "Ġchla": 2321,
      "ĠpovÄĽ": 2322,
      "ĠÃ¡ci": 2323,
      "cit": 2324,
      "Ġdomo": 2325,
      "ĠÃŃme": 2326,
      "Ġsnu": 2327,
      "ABBACD": 2328,
      "zrak": 2329,
      "ĠÄįasem": 2330,
      "Ġobje": 2331,
      "ĠzÃ¡pas": 2332,
      "ĠcelÃ¡": 2333,
      "ĠalÃŃ": 2334,
      "ĠzÃ¡vo": 2335,
      "Ġnky": 2336,
      "Ġcesty": 2337,
      "ĠnÃ©m": 2338,
      "rom": 2339,
      "las": 2340,
      "Å¾it": 2341,
      "ĠsedÃŃ": 2342,
      "kone": 2343,
      "Ġpta": 2344,
      "Ġeje": 2345,
      "ĠtoÅ¥": 2346,
      "Ġhrad": 2347,
      "vÄĽl": 2348,
      "Ġmodlit": 2349,
      "mÄĽl": 2350,
      "ÅĻenÃŃ": 2351,
      "roj": 2352,
      "ĠDnes": 2353,
      "ali": 2354,
      "ĠJsem": 2355,
      "Ġkmi": 2356,
      "ĠnesmÃŃ": 2357,
      "vati": 2358,
      "jel": 2359,
      "vad": 2360,
      "Å¯l": 2361,
      "Å¾enÃŃ": 2362,
      "ĠdÃŃvÃ¡": 2363,
      "ujÃŃ": 2364,
      "Ġkdes": 2365,
      "Ġkdysi": 2366,
      "ĠÃ½Å¡e": 2367,
      "ĠatÃŃ": 2368,
      "Ġoce": 2369,
      "ĠÄĮech": 2370,
      "ĠvstÅĻÃŃc": 2371,
      "Ġtisk": 2372,
      "Ġpozdra": 2373,
      "ĠDÃŃ": 2374,
      "liÅ¡": 2375,
      "Ġzvy": 2376,
      "kl": 2377,
      "ĠdÃ½ch": 2378,
      "ĠÅ¾ije": 2379,
      "ĠNuÅ¾": 2380,
      "Ġjaro": 2381,
      "Å¡et": 2382,
      "ĠvÃŃÅ¡": 2383,
      "Ġ,": 2384,
      "Å¡lo": 2385,
      "Ġproud": 2386,
      "Ġoli": 2387,
      "ĠuÅ¾ÃŃ": 2388,
      "ĠzÃ¡ÅĻe": 2389,
      "ĠplnÃ½": 2390,
      "ĠmluvÃŃ": 2391,
      "snÃ©": 2392,
      "ĠmoÅĻi": 2393,
      "ĠÄįky": 2394,
      "Ġrozp": 2395,
      "Ġvzal": 2396,
      "ĠvzdÃ¡": 2397,
      "Ġcestou": 2398,
      "ĠpÄĽv": 2399,
      "ĠadÃ¡": 2400,
      "Ġvln": 2401,
      "dÄĽli": 2402,
      "ĠtÄĽm": 2403,
      "Ġperu": 2404,
      "ĠbouÅĻÃŃ": 2405,
      "ĠJest": 2406,
      "Ġhloub": 2407,
      "brÃ¡": 2408,
      "Ġony": 2409,
      "Ġmohu": 2410,
      "ĠRu": 2411,
      "ĠpÅ¯j": 2412,
      "ĠdÃ½": 2413,
      "ĠsvÃ©mu": 2414,
      "ĠAj": 2415,
      "ĠdÄĽc": 2416,
      "ĠovÃ¡": 2417,
      "ĠmojÃŃ": 2418,
      "Ġjara": 2419,
      "jal": 2420,
      "nouti": 2421,
      "eni": 2422,
      "Ġslunci": 2423,
      "ĠpÅĻÃŃro": 2424,
      "Ġhrobu": 2425,
      "Ġotro": 2426,
      "ĠKam": 2427,
      "Ġlam": 2428,
      "Ġfi": 2429,
      "vÅ¯j": 2430,
      "ĠedÃŃ": 2431,
      "ĠÄįela": 2432,
      "dky": 2433,
      "ĠVÃ¡m": 2434,
      "tajÃŃ": 2435,
      "Ġoblo": 2436,
      "Ġnohou": 2437,
      "vol": 2438,
      "ĠnÃ¡d": 2439,
      "ĠmÄĽla": 2440,
      "ĠPe": 2441,
      "ĠhlavÄĽ": 2442,
      "AABBCD": 2443,
      "Ġhlasem": 2444,
      "diny": 2445,
      "hnu": 2446,
      "ĠPan": 2447,
      "ĠovÃŃ": 2448,
      "ĠzÅĻÃŃm": 2449,
      "hÃ½ch": 2450,
      "ĠcÃŃtÃŃ": 2451,
      "Å¡ek": 2452,
      "ĠjÃŃÅ¾": 2453,
      "ĠstarÃ¡": 2454,
      "Ã¡ch": 2455,
      "ĠjakÃ©": 2456,
      "ĠstromÅ¯": 2457,
      "str": 2458,
      "ĠstÃŃnu": 2459,
      "cÃ½": 2460,
      "ĠskÃ¡ly": 2461,
      "ĠÃ¡te": 2462,
      "ĠÃŃnÃ¡": 2463,
      "XABB": 2464,
      "ĠjinÃ½": 2465,
      "Ġylo": 2466,
      "Ġkterou": 2467,
      "ĠdlÃŃ": 2468,
      "nko": 2469,
      "ĠaÄįÃŃ": 2470,
      "tnÃ½": 2471,
      "ĠivÃ©": 2472,
      "ĠzÃ¡m": 2473,
      "Ġble": 2474,
      "Ġsho": 2475,
      "Ġohni": 2476,
      "Ġely": 2477,
      "Ġkraje": 2478,
      "ĠNu": 2479,
      "ĠhÅĻe": 2480,
      "Ġlep": 2481,
      "Ġera": 2482,
      "Ġkrok": 2483,
      "losti": 2484,
      "Ġtouha": 2485,
      "DD": 2486,
      "mlu": 2487,
      "stÅĻe": 2488,
      "Ġkap": 2489,
      "ĠsvÄĽÅ¾ÃŃ": 2490,
      "ĠbÃŃlÃ¡": 2491,
      "ĠMu": 2492,
      "ĠnÄĽco": 2493,
      "Ġcelou": 2494,
      "Ġeno": 2495,
      "ĠdÃ¡lky": 2496,
      "Ġpoto": 2497,
      "Ġzav": 2498,
      "ĠÃºsta": 2499,
      "Ġrad": 2500,
      "ckÃ½": 2501,
      "ĠhlÃŃ": 2502,
      "ĠrÃ¡j": 2503,
      "koli": 2504,
      "Ġvedle": 2505,
      "Ġtmy": 2506,
      "Ġver": 2507,
      "Ġmilost": 2508,
      "ÅĻo": 2509,
      "ĠvÅ¡echny": 2510,
      "tnÄĽ": 2511,
      "Ġchvil": 2512,
      "ĠuÄįi": 2513,
      "Ġdole": 2514,
      "dajÃŃ": 2515,
      "Ġruky": 2516,
      "sÃŃm": 2517,
      "Ġata": 2518,
      "Ġstrom": 2519,
      "ĠvÄĽc": 2520,
      "Ġmatky": 2521,
      "ĠmyslÃŃ": 2522,
      "ĠNem": 2523,
      "Ġdosti": 2524,
      "ĠZas": 2525,
      "ĠÅĻÃŃci": 2526,
      "ĠsladkÃ½": 2527,
      "Ġtry": 2528,
      "Ġnil": 2529,
      "ĠkÅ¯": 2530,
      "ĠplnÃ©": 2531,
      "ĠodÄĽ": 2532,
      "ĠDÄĽ": 2533,
      "Ġvlas": 2534,
      "Ġsme": 2535,
      "ĠÃŃÅ¾e": 2536,
      "ĠÅ¡li": 2537,
      "chÅ¯": 2538,
      "Ġramen": 2539,
      "ĠBuÄı": 2540,
      "ĠhnÃŃz": 2541,
      "Ġstou": 2542,
      "vec": 2543,
      "ĠÅĻil": 2544,
      "Ġbratr": 2545,
      "ĠmladÃ½": 2546,
      "Ġokam": 2547,
      "ĠZe": 2548,
      "bude": 2549,
      "ĠdnÅ¯": 2550,
      "Ġohu": 2551,
      "ĠÅĻad": 2552,
      "ĠchÅ¯": 2553,
      "Ġubo": 2554,
      "ĠpravÃŃ": 2555,
      "ĠkÃ½": 2556,
      "ĠÃ¡cÃŃ": 2557,
      "Ġdav": 2558,
      "Ġrty": 2559,
      "ĠklidnÄĽ": 2560,
      "dat": 2561,
      "ĠdÃ¡vÃ¡": 2562,
      "snÃ½": 2563,
      "Ġzku": 2564,
      "ĠÃŃtÄĽ": 2565,
      "Ġtvrd": 2566,
      "ĠBohu": 2567,
      "ĠLÃ¡": 2568,
      "ĠinÄĽ": 2569,
      "ĠslavÃŃ": 2570,
      "Å¡ky": 2571,
      "Ġobu": 2572,
      "ĠtÃ©to": 2573,
      "Å¡nÃ©": 2574,
      "eÅĪ": 2575,
      "bÃ½": 2576,
      "Ġtka": 2577,
      "Ġany": 2578,
      "ĠslyÅ¡ÃŃ": 2579,
      "Ġzti": 2580,
      "armo": 2581,
      "prv": 2582,
      "stane": 2583,
      "Ġrozum": 2584,
      "ĠnaÅĪ": 2585,
      "ĠslÃŃ": 2586,
      "Ġnelze": 2587,
      "Ġprosto": 2588,
      "ĠcÃŃsa": 2589,
      "Ġvzne": 2590,
      "ĠSvÄĽt": 2591,
      "Ġdoma": 2592,
      "dala": 2593,
      "ĠblaÅ¾en": 2594,
      "Ġovi": 2595,
      "ĠÃ¡nÄĽ": 2596,
      "Ġzka": 2597,
      "ĠkrÃ¡ÄįÃŃ": 2598,
      "ke": 2599,
      "Ġsh": 2600,
      "Ġminu": 2601,
      "Ġnaz": 2602,
      "ĠÃŃru": 2603,
      "ĠskvÄĽ": 2604,
      "Ġkva": 2605,
      "dej": 2606,
      "ĠÃ¡tÃŃ": 2607,
      "klÃ¡": 2608,
      "ĠonÄĽ": 2609,
      "ĠhledÃ¡": 2610,
      "ĠavÃ©": 2611,
      "ĠzaÅ¡": 2612,
      "ĠBez": 2613,
      "Ġvlasy": 2614,
      "Ġjedna": 2615,
      "ĠoheÅĪ": 2616,
      "ĠKu": 2617,
      "ĠlidskÃ©": 2618,
      "Ġvez": 2619,
      "Ġpravil": 2620,
      "ĠjehoÅ¾": 2621,
      "ĠusÃŃ": 2622,
      "dina": 2623,
      "Ġnak": 2624,
      "Ġkterak": 2625,
      "Ġvzdech": 2626,
      "Ġonu": 2627,
      "ABAC": 2628,
      "ĠdvÃ©": 2629,
      "Ġzpo": 2630,
      "ĠmladÃ©": 2631,
      "Ġkmen": 2632,
      "ĠdnÄĽ": 2633,
      "Ġtre": 2634,
      "Ġnev": 2635,
      "sle": 2636,
      "ĠÃŃlÃŃ": 2637,
      "ĠKte": 2638,
      "rnÃŃ": 2639,
      "zeÅĪ": 2640,
      "Ġhej": 2641,
      "ĠilÃ½": 2642,
      "ĠvÃ©m": 2643,
      "sled": 2644,
      "ĠÃŃmÃ¡": 2645,
      "ĠsÃŃla": 2646,
      "ĠjarnÃŃ": 2647,
      "ĠdrahÃ¡": 2648,
      "ie": 2649,
      "ĠomÅ¯": 2650,
      "ĠÃ¡dÃ¡": 2651,
      "Ġrej": 2652,
      "Ġyne": 2653,
      "mnÄĽ": 2654,
      "Äįin": 2655,
      "ĠÅĻi": 2656,
      "ĠoÅĻi": 2657,
      "ĠmuÅ¾i": 2658,
      "lÃ©t": 2659,
      "ĠkÃ¡men": 2660,
      "ĠmuÅ¾e": 2661,
      "ĠtÄĽl": 2662,
      "ĠkdoÅ¾": 2663,
      "ĠoltÃ¡": 2664,
      "ĠvÄĽÄįnÃ©": 2665,
      "sel": 2666,
      "rÃ¡ch": 2667,
      "ĠkaÅ¾dÃ¡": 2668,
      "Äįet": 2669,
      "Ġene": 2670,
      "ĠÃŃtÃ¡": 2671,
      "Ġzro": 2672,
      "Ġsoud": 2673,
      "ĠrÅ¯Å¾ÃŃ": 2674,
      "kala": 2675,
      "noucÃŃ": 2676,
      "ĠKar": 2677,
      "ĠÅĻeÄįi": 2678,
      "XC": 2679,
      "ÄįnÃ¡": 2680,
      "Ġhlo": 2681,
      "ĠlÃ©ta": 2682,
      "rnÃ¡": 2683,
      "ĠMÅ¯j": 2684,
      "ĠrÃ¡ny": 2685,
      "ĠRa": 2686,
      "ĠvÄĽtÅ¡ÃŃ": 2687,
      "Ġhas": 2688,
      "ovÃ©": 2689,
      "ĠtichÃ©": 2690,
      "ck": 2691,
      "Ġsud": 2692,
      "bnÃŃ": 2693,
      "Ġkonec": 2694,
      "ĠTvÃ¡": 2695,
      "Ġman": 2696,
      "Ġop": 2697,
      "Ġnap": 2698,
      "ĠelÃ½": 2699,
      "Ġvzduch": 2700,
      "Ġovy": 2701,
      "Ġvzdy": 2702,
      "ĠSta": 2703,
      "Ġblanky": 2704,
      "Ġspou": 2705,
      "ĠÄĽtÃŃ": 2706,
      "ĠjichÅ¾": 2707,
      "ĠÅ¾eh": 2708,
      "ĠNej": 2709,
      "ĠmÃŃru": 2710,
      "Ġhloubi": 2711,
      "ĠskÃ½": 2712,
      "ĠloÄı": 2713,
      "Ġuze": 2714,
      "ĠkÅĻÃŃd": 2715,
      "ĠÄįÃ¡": 2716,
      "Ġslov": 2717,
      "ju": 2718,
      "ÅĻila": 2719,
      "Ġboje": 2720,
      "ĠkrÃ¡snÃ¡": 2721,
      "ĠdobÄĽ": 2722,
      "ĠvÄĽkÅ¯": 2723,
      "Ġnekone": 2724,
      "ĠnadÄĽje": 2725,
      "Ġeru": 2726,
      "Ġlen": 2727,
      "Ġprachu": 2728,
      "ĠlesÅ¯": 2729,
      "ĠSo": 2730,
      "Ġovu": 2731,
      "nÃ¡Å¡ÃŃ": 2732,
      "ĠtvÃ©ho": 2733,
      "Å¡Å¡ÃŃ": 2734,
      "dÃ¡m": 2735,
      "ĠÄįt": 2736,
      "ĠmnohÃ½": 2737,
      "ĠÄįin": 2738,
      "Ġedu": 2739,
      "ĠÄĽta": 2740,
      "ĠÅĺÃŃm": 2741,
      "lÃ©ho": 2742,
      "tele": 2743,
      "ĠmotÃ½": 2744,
      "ĠlÅ¯": 2745,
      "Äįkou": 2746,
      "Ġznovu": 2747,
      "slo": 2748,
      "Ġsrdcem": 2749,
      "kÅĻik": 2750,
      "vÃŃrÃ¡": 2751,
      "ĠSlo": 2752,
      "ĠdobrÃ½": 2753,
      "ĠMil": 2754,
      "ĠmalÃ½": 2755,
      "vin": 2756,
      "Ġota": 2757,
      "ĠVa": 2758,
      "ĠmilÃ©": 2759,
      "ĠBoÅ¾ÃŃ": 2760,
      "Ġradosti": 2761,
      "ĠvÃŃru": 2762,
      "Ġmoji": 2763,
      "Ġnav": 2764,
      "ĠpÅĻÃŃliÅ¡": 2765,
      "zku": 2766,
      "ĠtichÃ½": 2767,
      "ĠjÃŃmÅ¾": 2768,
      "Ġhod": 2769,
      "ĠanÃ½": 2770,
      "Ġjiz": 2771,
      "Ġleb": 2772,
      "ĠslyÅ¡el": 2773,
      "kat": 2774,
      "Ġdni": 2775,
      "Ġrve": 2776,
      "ĠrÃ¡no": 2777,
      "ĠPÅĻÃŃ": 2778,
      "Ġuky": 2779,
      "Ġzrakem": 2780,
      "ĠsnÃ©": 2781,
      "Ġdny": 2782,
      "Ġpovz": 2783,
      "ĠnemÄĽ": 2784,
      "Ġslz": 2785,
      "poÅĪ": 2786,
      "Ġprapo": 2787,
      "bit": 2788,
      "AXAB": 2789,
      "ĠtisÃŃce": 2790,
      "ĠÄįernÃ½": 2791,
      "ĠaspoÅĪ": 2792,
      "ĠacÃŃ": 2793,
      "ĠÅĻÃŃm": 2794,
      "ĠÃŃly": 2795,
      "Ġdobro": 2796,
      "ĠdlouhÃ©": 2797,
      "ĠkonÄĽ": 2798,
      "Ġnebyl": 2799,
      "Ġhrudi": 2800,
      "ĠpoÅ¾eh": 2801,
      "ĠkvÃŃtÃŃ": 2802,
      "Ġjazy": 2803,
      "ĠMnÄĽ": 2804,
      "ĠÃŃte": 2805,
      "ĠSlu": 2806,
      "kon": 2807,
      "Ġotce": 2808,
      "ÅĻÅ¯": 2809,
      "ĠbÅĻehu": 2810,
      "Ġlesa": 2811,
      "vej": 2812,
      "ĠÄįest": 2813,
      "ÅĻÃŃt": 2814,
      "Ġzmat": 2815,
      "chal": 2816,
      "Ġroste": 2817,
      "ĠchvÄĽje": 2818,
      "dost": 2819,
      "ĠobrÃ¡": 2820,
      "Ġstromy": 2821,
      "neÅ¡": 2822,
      "ĠÃ¡va": 2823,
      "Ġlek": 2824,
      "tost": 2825,
      "Ġpodzi": 2826,
      "ĠmÃ¡me": 2827,
      "ĠKaÅ¾": 2828,
      "ĠrytÃŃ": 2829,
      "ĠpovÃŃ": 2830,
      "ĠpÃ¡r": 2831,
      "Ġine": 2832,
      "livÄĽ": 2833,
      "her": 2834,
      "Ġuka": 2835,
      "ĠzÃŃtra": 2836,
      "ĠrÃ¡t": 2837,
      "ĠUÅ¾": 2838,
      "ĠchodÃŃ": 2839,
      "Ġvti": 2840,
      "Ġvede": 2841,
      "ĠrÅ¯z": 2842,
      "ĠnÃ¡ruÄį": 2843,
      "ĠJsou": 2844,
      "ĠÅ¾alo": 2845,
      "rat": 2846,
      "slu": 2847,
      "ĠovÃ½": 2848,
      "ĠTvÅ¯j": 2849,
      "ĠnevÃŃm": 2850,
      "Ġdum": 2851,
      "ĠLa": 2852,
      "ĠÅ¡umÃŃ": 2853,
      "ĠcÃŃtÃŃm": 2854,
      "ĠdrahÃ©": 2855,
      "nala": 2856,
      "Ġtouhou": 2857,
      "Ġdve": 2858,
      "dka": 2859,
      "Ġhlad": 2860,
      "Ġokna": 2861,
      "klad": 2862,
      "ader": 2863,
      "ĠlistÃŃ": 2864,
      "Ġuhy": 2865,
      "nami": 2866,
      "Ġlze": 2867,
      "ĠilÃ¡": 2868,
      "skem": 2869,
      "ÄįÃ¡": 2870,
      "Ġset": 2871,
      "ĠskÃ©": 2872,
      "ĠÄįasu": 2873,
      "Ġhoj": 2874,
      "dek": 2875,
      "ĠBoha": 2876,
      "ĠzdÃ¡lo": 2877,
      "Ġjinak": 2878,
      "ĠblÃ½": 2879,
      "ryÄį": 2880,
      "ĠsÃŃlu": 2881,
      "Ġnim": 2882,
      "ĠubÃŃ": 2883,
      "ĠsplÃ½": 2884,
      "ĠslÃ¡va": 2885,
      "ĠhvÄĽzda": 2886,
      "Ġlese": 2887,
      "Ġtrp": 2888,
      "lku": 2889,
      "ĠekÃ¡": 2890,
      "ĠpÅĻÃŃÅ¡tÃŃ": 2891,
      "Ġsad": 2892,
      "stÃ¡vÃ¡": 2893,
      "ĠÅĻekl": 2894,
      "ĠĠĊ": 2895,
      "ĠÅĪader": 2896,
      "ĠjakÃ¡": 2897,
      "ĠkrÃ¡snÃ½": 2898,
      "sen": 2899,
      "sly": 2900,
      "ĠpÃŃsni": 2901,
      "tÃ¡m": 2902,
      "ĠcÃŃtil": 2903,
      "Ġsma": 2904,
      "Ġonen": 2905,
      "ĠvÅ¡emi": 2906,
      "ĠvzÃ¡c": 2907,
      "ĠmajÃŃ": 2908,
      "ĠtvÃ©m": 2909,
      "Ġmysl": 2910,
      "Ġzam": 2911,
      "Ġtakto": 2912,
      "Ġraj": 2913,
      "lnÃŃ": 2914,
      "Äįem": 2915,
      "Ġbrzy": 2916,
      "ĠHu": 2917,
      "Ġplach": 2918,
      "ĠkrÃ¡se": 2919,
      "ĠdruhÃ½": 2920,
      "stvo": 2921,
      "Ġrost": 2922,
      "hli": 2923,
      "Ġposud": 2924,
      "ÅĻenÃ©": 2925,
      "ĠbÃ¡snÃŃ": 2926,
      "ĠoÄįÃŃch": 2927,
      "Äįnou": 2928,
      "Ġrek": 2929,
      "Ġoho": 2930,
      "ĠchrÃ¡m": 2931,
      "Äįila": 2932,
      "ĠvalÃŃ": 2933,
      "ĠmÄĽsto": 2934,
      "met": 2935,
      "ĠdÃ©": 2936,
      "ĠÄįet": 2937,
      "Ġscho": 2938,
      "lav": 2939,
      "Å¡nÃ½": 2940,
      "ĠrÃ¡l": 2941,
      "ĠSi": 2942,
      "Ġtruch": 2943,
      "Ġlidstva": 2944,
      "lenÃ©": 2945,
      "Ġtento": 2946,
      "ĠRÃ¡": 2947,
      "ĠhnÄĽv": 2948,
      "ĠnedÃ¡": 2949,
      "ĠÃ¡Äįe": 2950,
      "ĠÃŃnu": 2951,
      "ĠsvÄĽtu": 2952,
      "chÃ¡ze": 2953,
      "dÃ¡nÃŃ": 2954,
      "ĠkteÅĻÃŃ": 2955,
      "Ġsest": 2956,
      "Ġcesta": 2957,
      "Ġpln": 2958,
      "Ġjmen": 2959,
      "ĠklonÃŃ": 2960,
      "Ġnade": 2961,
      "Ġroj": 2962,
      "ĠkrÃ¡li": 2963,
      "ĠÃŃÅ¡e": 2964,
      "DE": 2965,
      "penÃŃ": 2966,
      "Ġduchu": 2967,
      "Å¡t": 2968,
      "ĠTobÄĽ": 2969,
      "rnou": 2970,
      "ĠvÃ½Å¡i": 2971,
      "ĠbudeÅ¡": 2972,
      "ĠdÃŃvka": 2973,
      "ĠSvat": 2974,
      "Ġhospo": 2975,
      "ĠatÃ¡": 2976,
      "ĠdruÅ¾": 2977,
      "Ġzvuk": 2978,
      "ĠNez": 2979,
      "Ġspi": 2980,
      "ĠrÃ¡zem": 2981,
      "Ġlidem": 2982,
      "ĠotÃ¡": 2983,
      "Ġral": 2984,
      "alu": 2985,
      "ja": 2986,
      "ĠÃŃkÅ¯": 2987,
      "ĠDi": 2988,
      "ĠmalÃ©": 2989,
      "ĠvÅ¯le": 2990,
      "ĠÃ¡ÄįÃŃ": 2991,
      "ĠkrÃ¡le": 2992,
      "slou": 2993,
      "ĠukÃ¡": 2994,
      "Ġava": 2995,
      "cnÄĽ": 2996,
      "sed": 2997,
      "ĠdÄĽtÃŃ": 2998,
      "rÃ¡m": 2999,
      "Ġudy": 3000,
      "ĠokamÅ¾i": 3001,
      "ĠjasnÃ©": 3002,
      "ĠbratÅĻÃŃ": 3003,
      "ĠÄĽlÃ½": 3004,
      "Ġvyh": 3005,
      "jÃŃch": 3006,
      "dÃŃÅ¡": 3007,
      "ĠpÃ©": 3008,
      "ĠpÅĻede": 3009,
      "Ġvit": 3010,
      "ĠÅĻas": 3011,
      "ĠtvÃ½m": 3012,
      "ĠToÅ¥": 3013,
      "Ġzoufal": 3014,
      "ĠOb": 3015,
      "jÃ¡": 3016,
      "Ġtva": 3017,
      "ĠzÃ¡hy": 3018,
      "Ġklam": 3019,
      "Ġmilosti": 3020,
      "ĠelÃ©": 3021,
      "Ġboku": 3022,
      "ĠpÃ½ch": 3023,
      "Ġchle": 3024,
      "Ġpas": 3025,
      "Ġkoste": 3026,
      "ĠrÅ¯Å¾o": 3027,
      "dÃ½ch": 3028,
      "ĠpÃ¡ni": 3029,
      "ĠopÃŃ": 3030,
      "ĠJeho": 3031,
      "Ġaty": 3032,
      "Ġklet": 3033,
      "ĠmÅ¾i": 3034,
      "Ġrev": 3035,
      "bnÃ©": 3036,
      "vuje": 3037,
      "ĠplÃ¡Äįe": 3038,
      "Ġples": 3039,
      "ĠÄĽtu": 3040,
      "ĠjmÃ©no": 3041,
      "Ġoch": 3042,
      "ĠcÃŃl": 3043,
      "deme": 3044,
      "Ġpov": 3045,
      "cet": 3046,
      "ĠbyÅ¥": 3047,
      "Ġstaro": 3048,
      "Ġcky": 3049,
      "Äįer": 3050,
      "Ġpravda": 3051,
      "cel": 3052,
      "ĠtÄĽÅ¾kÃ©": 3053,
      "mnÃŃ": 3054,
      "dlÃŃ": 3055,
      "jÃŃt": 3056,
      "ĠMat": 3057,
      "ĠÄıÃ¡": 3058,
      "ĠdÃŃm": 3059,
      "bÅ¯": 3060,
      "Ġzdi": 3061,
      "Ġar": 3062,
      "ĠhrobÄĽ": 3063,
      "Ġzadu": 3064,
      "kajÃŃ": 3065,
      "ĠrÃ¡m": 3066,
      "ĠbÄĽda": 3067,
      "Ġnka": 3068,
      "Ġdomu": 3069,
      "Ġztracen": 3070,
      "ĠÄĽle": 3071,
      "Ġovo": 3072,
      "Ġzni": 3073,
      "ĠizÃŃ": 3074,
      "Ġom": 3075,
      "ĠÃ¡vÄĽ": 3076,
      "Ġnohy": 3077,
      "ĠAby": 3078,
      "ĠmizÃŃ": 3079,
      "ĠÅĻÃŃÅ¡": 3080,
      "Ġzapla": 3081,
      "Ġluh": 3082,
      "ĠahÃ¡": 3083,
      "ĠtenkrÃ¡t": 3084,
      "ĠrnÃ©": 3085,
      "ĠsrdcÃŃ": 3086,
      "Ġpoho": 3087,
      "Ġpout": 3088,
      "stva": 3089,
      "Ġetu": 3090,
      "pit": 3091,
      "ĠsvÃ½mi": 3092,
      "Ġrozho": 3093,
      "Ġmohl": 3094,
      "Ġsladce": 3095,
      "ĠstarÃ½ch": 3096,
      "Ġdoko": 3097,
      "ĠadÃŃ": 3098,
      "bito": 3099,
      "Äįej": 3100,
      "ĠÃ¡vy": 3101,
      "ĠnÄĽÅ¾": 3102,
      "ĠknÃŃÅ¾e": 3103,
      "ĠkrÅ¯": 3104,
      "nosÅ¥": 3105,
      "Ġdlo": 3106,
      "Ġosu": 3107,
      "ĠslyÅ¡ÃŃm": 3108,
      "ĠjejÃŃm": 3109,
      "ĠolÃ¡": 3110,
      "Ġuna": 3111,
      "vod": 3112,
      "ĠSrd": 3113,
      "Ġdala": 3114,
      "Ġzcela": 3115,
      "ĠbouÅĻi": 3116,
      "ĠdnÃ½": 3117,
      "Ġprobu": 3118,
      "ĠdÄĽla": 3119,
      "Ġnesly": 3120,
      "nd": 3121,
      "ĠzvonÃŃ": 3122,
      "ĠBÄĽ": 3123,
      "ĠdobrÃ©": 3124,
      "Ġrozm": 3125,
      "go": 3126,
      "ĠavÃ¡": 3127,
      "Ġstvo": 3128,
      "ÅĻek": 3129,
      "ĠdrahÃ½": 3130,
      "vet": 3131,
      "ĠtÅĻÃ¡": 3132,
      "kot": 3133,
      "ĠpÅĻij": 3134,
      "AAXA": 3135,
      "ĠzdrÃ¡": 3136,
      "bÃ©": 3137,
      "ĠvÄĽÄįnÃ½": 3138,
      "Ġzasta": 3139,
      "ĠtÃ³": 3140,
      "ĠzatÃŃm": 3141,
      "Ġprsa": 3142,
      "Ġbil": 3143,
      "ĠvÅ¡ÃŃm": 3144,
      "pÄĽl": 3145,
      "Ġvztek": 3146,
      "ĠdÅ¯vÄĽ": 3147,
      "chou": 3148,
      "ĠÄĽlÃ¡": 3149,
      "ĠslyÅ¡": 3150,
      "Ġvenku": 3151,
      "klÃŃ": 3152,
      "Ġpramen": 3153,
      "ĠSy": 3154,
      "zvu": 3155,
      "ĠtnÃ©": 3156,
      "ABXB": 3157,
      "Ġnevin": 3158,
      "Ġju": 3159,
      "ĠÃºtÄĽ": 3160,
      "Ġpravdu": 3161,
      "ĠhÃ½": 3162,
      "Ã½cho": 3163,
      "XAXABB": 3164,
      "ĠÅĻel": 3165,
      "Ġaku": 3166,
      "Ġchvat": 3167,
      "hÃ½m": 3168,
      "Ġeni": 3169,
      "ĠvÅ¯kol": 3170,
      "ĠÄįnÃŃ": 3171,
      "Ġvrcho": 3172,
      "ĠKdyby": 3173,
      "ĠzvlÃ¡": 3174,
      "tno": 3175,
      "ĠmÄĽnÃŃ": 3176,
      "boj": 3177,
      "lenÃ½": 3178,
      "Ġbudouc": 3179,
      "ĠbÅĻÃŃ": 3180,
      "kaz": 3181,
      "ĠmladÃ¡": 3182,
      "Ġhnu": 3183,
      "ĠÃ¡lÃŃ": 3184,
      "stala": 3185,
      "ĠrÃ¡da": 3186,
      "Ġjakby": 3187,
      "ĠÅ¡le": 3188,
      "Ġnec": 3189,
      "ĠsvatÃ¡": 3190,
      "ĠtÃŃÅ¾": 3191,
      "Ġslza": 3192,
      "Ġbojo": 3193,
      "ĠeÅĻÃŃ": 3194,
      "hÃ¡m": 3195,
      "Ġotu": 3196,
      "ĠMe": 3197,
      "Ġur": 3198,
      "ĠjednÃ©": 3199,
      "Ġzhas": 3200,
      "Ġidu": 3201,
      "Ġjal": 3202,
      "Ġplane": 3203,
      "Ġjdu": 3204,
      "ĠvÄĽÅĻ": 3205,
      "Äıte": 3206,
      "Å¾ila": 3207,
      "ĠzlatÃ¡": 3208,
      "ĠklÃŃn": 3209,
      "Å¡ÃŃch": 3210,
      "Ġhlaho": 3211,
      "ĠÅ¾enu": 3212,
      "ĠÃºdo": 3213,
      "ĠzdÄĽ": 3214,
      "ĠadÄĽ": 3215,
      "Ġhad": 3216,
      "Ġmdlo": 3217,
      "ĠenÄĽ": 3218,
      "Ġbije": 3219,
      "ĠMÃŃ": 3220,
      "ĠslÃ¡vÄĽ": 3221,
      "ĠzÃ¡zrak": 3222,
      "ĠchtÄĽla": 3223,
      "Ġjeze": 3224,
      "Ġnal": 3225,
      "ĠZem": 3226,
      "Ġrozk": 3227,
      "ĠnÃŃz": 3228,
      "ĠsluÅ¾": 3229,
      "ĠkaÅ¾dou": 3230,
      "bnÄĽ": 3231,
      "ĠstejnÄĽ": 3232,
      "Ġoly": 3233,
      "ĠÅĻeÄįÃŃ": 3234,
      "Ġsilou": 3235,
      "ĠstÃ¡la": 3236,
      "Ġkus": 3237,
      "Ġsne": 3238,
      "ĠpevnÄĽ": 3239,
      "ĠtouÅ¾ÃŃ": 3240,
      "ĠmoÅ¾no": 3241,
      "Ġsva": 3242,
      "hnÄĽ": 3243,
      "Ġkne": 3244,
      "Ġoni": 3245,
      "ĠkrÅ¯pÄĽ": 3246,
      "ĠmodrÃ©": 3247,
      "Ġzba": 3248,
      "ĠmÄĽsÃŃ": 3249,
      "ĠpÅĻiÅ¡la": 3250,
      "ĠrozkoÅ¡": 3251,
      "zÃŃm": 3252,
      "ĠmraÄį": 3253,
      "ĠchceÅ¡": 3254,
      "Ġpoe": 3255,
      "ĠskÅĻi": 3256,
      "Ġpokoj": 3257,
      "ĠzemÃŃ": 3258,
      "Ġnechce": 3259,
      "ĠmÃŃti": 3260,
      "ĠzÅĻe": 3261,
      "Ġoha": 3262,
      "Ġpsa": 3263,
      "ĠrtÅ¯": 3264,
      "Ġkrou": 3265,
      "tor": 3266,
      "ĠbÃ¡s": 3267,
      "Å¡enÃ©": 3268,
      "ĠCe": 3269,
      "vÄĽd": 3270,
      "Ġspra": 3271,
      "ĠDob": 3272,
      "ĠJenÅ¾": 3273,
      "ĠvelkÃ¡": 3274,
      "slÃŃ": 3275,
      "ĠtÄĽle": 3276,
      "ĠnepÅĻÃ¡": 3277,
      "Ġvlo": 3278,
      "ĠdennÄĽ": 3279,
      "dili": 3280,
      "Ġvna": 3281,
      "Ġluk": 3282,
      "blÃŃ": 3283,
      "kovÃ©": 3284,
      "jÅ¡ÃŃm": 3285,
      "Ġklad": 3286,
      "Ġjsa": 3287,
      "liÄį": 3288,
      "kra": 3289,
      "Ġesy": 3290,
      "ĠÃ¡je": 3291,
      "cÅ¯m": 3292,
      "Ġsmutek": 3293,
      "Ġhoch": 3294,
      "CCB": 3295,
      "ĠdruhÃ©": 3296,
      "ĠhÅĻbito": 3297,
      "19": 3298,
      "Ġmni": 3299,
      "Ġanu": 3300,
      "stvÃŃm": 3301,
      "ĠivÄĽ": 3302,
      "ĠlkÃ¡": 3303,
      "ĠbÃŃlÃ½ch": 3304,
      "Ġtemno": 3305,
      "ĠÄĮer": 3306,
      "Ġpravdy": 3307,
      "bli": 3308,
      "rky": 3309,
      "Ġpotu": 3310,
      "ĠrudÃ©": 3311,
      "ĠbÄĽÅ¾ÃŃ": 3312,
      "Ġfa": 3313,
      "dosti": 3314,
      "Ġzlata": 3315,
      "ĠsmutnÄĽ": 3316,
      "ĠdlouhÃ½": 3317,
      "ĠÃ½ti": 3318,
      "Ġvlh": 3319,
      "Ġhan": 3320,
      "ĠpÅĻÃ¡tel": 3321,
      "jas": 3322,
      "Ġtvr": 3323,
      "Ġkrokem": 3324,
      "Ġmraky": 3325,
      "ĠstavÃŃ": 3326,
      "ĠalÃ½": 3327,
      "Ġudi": 3328,
      "jednou": 3329,
      "ĠÃ¡dÃŃ": 3330,
      "ĠnoÄįnÃŃ": 3331,
      "lnÄĽ": 3332,
      "ĠolÅ¯": 3333,
      "ĠptÃ¡ci": 3334,
      "ĠnepÅĻÃŃ": 3335,
      "ĠBla": 3336,
      "ĠÅ¾ÃŃti": 3337,
      "ĠvÃ½cho": 3338,
      "kÃ©ho": 3339,
      "ĠÅ¯nÄĽ": 3340,
      "ĠÄįeskÃ©": 3341,
      "Ġjednu": 3342,
      "vili": 3343,
      "ĠÃŃka": 3344,
      "Ġteprv": 3345,
      "ĠvÅ¯li": 3346,
      "ĠsklÃ¡nÃŃ": 3347,
      "ĠNoc": 3348,
      "Ġhrou": 3349,
      "ĠjedinÃ½": 3350,
      "Ġono": 3351,
      "ĠvracÃŃ": 3352,
      "ĠkvÄĽtu": 3353,
      "tÃ½ch": 3354,
      "dÃ¡ch": 3355,
      "ĠblÃŃz": 3356,
      "Ġuhu": 3357,
      "ĠdÃ©m": 3358,
      "ĠiÅ¡e": 3359,
      "ĠvÃ¡ÅĻ": 3360,
      "Ġskvost": 3361,
      "zna": 3362,
      "Ġjino": 3363,
      "Ġbit": 3364,
      "ĠVÃ¡c": 3365,
      "ĠDen": 3366,
      "ĠdÅĻÃŃve": 3367,
      "nak": 3368,
      "rce": 3369,
      "Ġly": 3370,
      "hlÃ¡": 3371,
      "Ġkali": 3372,
      "lka": 3373,
      "stat": 3374,
      "dÄĽnÃŃ": 3375,
      "teÄį": 3376,
      "ĠtoÅ¾": 3377,
      "ĠÃŃny": 3378,
      "mÃ¡ch": 3379,
      "Ġmoci": 3380,
      "Ġporo": 3381,
      "ĠPane": 3382,
      "ĠslÃ¡vu": 3383,
      "Ġzrc": 3384,
      "ĠÄįlovÄĽka": 3385,
      "hdy": 3386,
      "ĠÃ¡nu": 3387,
      "Ġjte": 3388,
      "Ġstrach": 3389,
      "ĠovÅ¡em": 3390,
      "vanÃ©": 3391,
      "lena": 3392,
      "ĠtÅ¯": 3393,
      "Ġola": 3394,
      "ĠobÄĽt": 3395,
      "ĠÅ¡a": 3396,
      "ĠytÃŃ": 3397,
      "dli": 3398,
      "tnou": 3399,
      "ĠÄĽny": 3400,
      "Å¡nÃŃ": 3401,
      "hÃ¡nÃŃ": 3402,
      "Ġhez": 3403,
      "tala": 3404,
      "Ġpodle": 3405,
      "Ġtat": 3406,
      "ĠÄĽji": 3407,
      "raz": 3408,
      "tvo": 3409,
      "Ġstrany": 3410,
      "ĠvÃŃr": 3411,
      "ĠmalÃ¡": 3412,
      "Ġtce": 3413,
      "ĠJeÅ¡tÄĽ": 3414,
      "Ġzapad": 3415,
      "ĠchrÃ¡mu": 3416,
      "Ġcti": 3417,
      "staÅĪ": 3418,
      "ĠSlÃ¡": 3419,
      "kne": 3420,
      "Ġada": 3421,
      "ĠplÃŃ": 3422,
      "Ġedy": 3423,
      "vice": 3424,
      "rku": 3425,
      "dali": 3426,
      "ĠÄįaro": 3427,
      "ĠchtÃŃ": 3428,
      "ĠeÄįÃŃ": 3429,
      "Ġruch": 3430,
      "ene": 3431,
      "ĠvÃ¡mi": 3432,
      "hly": 3433,
      "ĠÅ¡ÃŃm": 3434,
      "ĠstrÃ¡Å¾": 3435,
      "Å¾enÃ©": 3436,
      "ĠstÃ¡t": 3437,
      "tnÃ¡": 3438,
      "Ġholu": 3439,
      "ĠÄĽty": 3440,
      "vÃ½mi": 3441,
      "Ġaji": 3442,
      "Ġprud": 3443,
      "ĠÅĪadra": 3444,
      "bnÃ½": 3445,
      "ĠzlatÃ½ch": 3446,
      "ĠVÃ¡s": 3447,
      "Ġjimi": 3448,
      "ĠmÃ¡j": 3449,
      "Ġsami": 3450,
      "jeÅ¡": 3451,
      "ĠlÃŃbÃ¡": 3452,
      "ĠbohatÃ½": 3453,
      "dle": 3454,
      "ĠtÃŃn": 3455,
      "ĠzvedÃ¡": 3456,
      "ten": 3457,
      "Ġoty": 3458,
      "ĠodpovÄĽ": 3459,
      "rel": 3460,
      "Ġspole": 3461,
      "dku": 3462,
      "?!": 3463,
      "Å¾Å¡ÃŃ": 3464,
      "stÃŃm": 3465,
      "ĠrtÃŃ": 3466,
      "ĠzÃ¡pa": 3467,
      "ĠÅĻeky": 3468,
      "ĠbÃ½vÃ¡": 3469,
      "ĠhÃ¡j": 3470,
      "ĠÄĽlÃ©": 3471,
      "Ġklidu": 3472,
      "ĠnepÅĻi": 3473,
      "Å¡Å¥ast": 3474,
      "ĠSrdce": 3475,
      "jÃŃce": 3476,
      "ĠÃŃku": 3477,
      "ĠvÅ¯nÃŃ": 3478,
      "ĠrÃ¡je": 3479,
      "ĠÃºzko": 3480,
      "ĠdÃ¡lku": 3481,
      "Ġhudba": 3482,
      "ĠdÄĽdi": 3483,
      "ĠznÄĽl": 3484,
      "Ġbro": 3485,
      "Ġhradu": 3486,
      "ACD": 3487,
      "ĠOt": 3488,
      "hlu": 3489,
      "ĠÄĮas": 3490,
      "pem": 3491,
      "Ġhvo": 3492,
      "ĠvÄĽn": 3493,
      "ĠÅ¾Ã¡dnÃ½": 3494,
      "Ġvle": 3495,
      "ĠvÄĽz": 3496,
      "ĠÄįerven": 3497,
      "Ġvar": 3498,
      "ĠnenÃ¡": 3499,
      "ĠkrÃ¡sa": 3500,
      "Ġnesou": 3501,
      "ĠdÅĻe": 3502,
      "dnÃ½ch": 3503,
      "Ġzhy": 3504,
      "Å¡u": 3505,
      "ÅĻÃŃk": 3506,
      "sit": 3507,
      "Ġsoum": 3508,
      "domÃŃ": 3509,
      "Ġist": 3510,
      "Ġzap": 3511,
      "Ġblaha": 3512,
      "ĠvÅ¡i": 3513,
      "Ġzrcad": 3514,
      "Ġkyne": 3515,
      "ĠbledÃ¡": 3516,
      "Ġslovem": 3517,
      "vce": 3518,
      "ĠcestÄĽ": 3519,
      "Ġklu": 3520,
      "Ġpek": 3521,
      "ĠtÃ¡hne": 3522,
      "lky": 3523,
      "lÃ©z": 3524,
      "ĠupÃŃ": 3525,
      "ĠFran": 3526,
      "znÃ¡": 3527,
      "Ġcko": 3528,
      "ĠvzplÃ¡": 3529,
      "mnÄĽl": 3530,
      "ĠbudÃŃ": 3531,
      "ĠTvo": 3532,
      "ĠÃ¡mi": 3533,
      "tev": 3534,
      "Ġhlasy": 3535,
      "ĠdÃ¡lce": 3536,
      "ĠÅĻÃŃÅ¡e": 3537,
      "bat": 3538,
      "ĠdlaÅĪ": 3539,
      "jme": 3540,
      "ĠaÅ¡e": 3541,
      "Ġzlatem": 3542,
      "ĠÃºsmÄĽvem": 3543,
      "mrt": 3544,
      "Ġnci": 3545,
      "ĠMno": 3546,
      "ĠskrÃ¡ÅĪ": 3547,
      "ĠSÃ¡m": 3548,
      "ĠÅĻÃŃc": 3549,
      "Ġhochu": 3550,
      "AE": 3551,
      "ĠNebo": 3552,
      "ĠtÅĻetÃŃ": 3553,
      "sme": 3554,
      "ĠotÄĽ": 3555,
      "kry": 3556,
      "ĠpÅ¯lno": 3557,
      "Ġvstou": 3558,
      "Ġnovou": 3559,
      "Ġcy": 3560,
      "Ġkroky": 3561,
      "ĠHe": 3562,
      "man": 3563,
      "ĠpÄĽl": 3564,
      "Ġblesky": 3565,
      "ĠvroucÃŃ": 3566,
      "nÃ©mu": 3567,
      "Ġcest": 3568,
      "ĠmÃŃsta": 3569,
      "hÃ©m": 3570,
      "ĠblÃŃÅ¾ÃŃ": 3571,
      "Ġtrou": 3572,
      "Ġohy": 3573,
      "dÃ¡vÃ¡": 3574,
      "Ġoky": 3575,
      "ned": 3576,
      "ĠsmÃŃchu": 3577,
      "hnou": 3578,
      "Ġtel": 3579,
      "Ġspad": 3580,
      "chÃ©": 3581,
      "uk": 3582,
      "ĠvonÃŃ": 3583,
      "ĠÄįÃŃÅ¡": 3584,
      "ĠnadÅ¡en": 3585,
      "Ġide": 3586,
      "ĠzpÃ¡": 3587,
      "ĠÄįasy": 3588,
      "Ġvzpo": 3589,
      "ĠasÅ¯": 3590,
      "ĠÃŃnÄĽ": 3591,
      "ĠMÃ¡m": 3592,
      "ĠMÃ©": 3593,
      "ĠlÃ©m": 3594,
      "ĠpÅĻÃŃÅ¡e": 3595,
      "Ġzaz": 3596,
      "ĠÄįty": 3597,
      "ĠzkÃ¡": 3598,
      "ABX": 3599,
      "Ġstk": 3600,
      "ĠkrÃ¡su": 3601,
      "ĠvÃ¡Å¾": 3602,
      "ĠnaÄį": 3603,
      "Ġdarmo": 3604,
      "nÄĽn": 3605,
      "Ġvesele": 3606,
      "ĠAÄį": 3607,
      "ĠvÃŃry": 3608,
      "Ġstesk": 3609,
      "ĠbÃŃlou": 3610,
      "Ġnebylo": 3611,
      "ĠvÄįera": 3612,
      "Ġchra": 3613,
      "ĠvyÅ¡el": 3614,
      "ĠvÃ¡Å¡nÃŃ": 3615,
      "ĠvÅĻa": 3616,
      "Ġhosti": 3617,
      "Ġpohle": 3618,
      "rka": 3619,
      "zky": 3620,
      "ĠtoÄįÃŃ": 3621,
      "Å¾ÃŃÅ¡": 3622,
      "ĠKol": 3623,
      "nitÅĻ": 3624,
      "Ġpes": 3625,
      "tÃ¡n": 3626,
      "ĠobjetÃŃ": 3627,
      "Ġtlo": 3628,
      "Ġobli": 3629,
      "ctvÃŃ": 3630,
      "ĠvisÃŃ": 3631,
      "ĠLÃŃ": 3632,
      "Ġbohem": 3633,
      "Ġplno": 3634,
      "Ġesk": 3635,
      "Ġruh": 3636,
      "Ġety": 3637,
      "Ġkonce": 3638,
      "Ġpodiv": 3639,
      "Ġvet": 3640,
      "Ġodpu": 3641,
      "ĠÅ¡t": 3642,
      "ĠlÃŃci": 3643,
      "ĠÄįernÃ½ch": 3644,
      "Ġmrtvo": 3645,
      "ĠpojÄı": 3646,
      "ĠNenÃŃ": 3647,
      "ĠnÄĽjak": 3648,
      "diÅ¾": 3649,
      "Å¡it": 3650,
      "ĠÃ½lÃŃ": 3651,
      "ĠBohem": 3652,
      "ĠjinÃ½ch": 3653,
      "ĠsmutnÃ©": 3654,
      "Ġpaprsk": 3655,
      "ĠnÄĽkdo": 3656,
      "Ġvzduchu": 3657,
      "ĠmlÄįÃŃ": 3658,
      "Ġspas": 3659,
      "ĠtÃ¡l": 3660,
      "rnÃ½ch": 3661,
      "Ġvsi": 3662,
      "ĠpotÄĽ": 3663,
      "ĠCi": 3664,
      "ĠtÃ©m": 3665,
      "Ġahy": 3666,
      "stro": 3667,
      "ĠhÅĻÃŃch": 3668,
      "ĠblÃŃÅ¾e": 3669,
      "ĠsrÃ¡": 3670,
      "Ġsbor": 3671,
      "koj": 3672,
      "Ġvad": 3673,
      "ĠrnÃ½": 3674,
      "ĠmÄĽli": 3675,
      "Ġdvou": 3676,
      "ĠzprÃ¡": 3677,
      "ĠÅ¾ene": 3678,
      "Ġato": 3679,
      "Ġvze": 3680,
      "Ġhrom": 3681,
      "venÃŃ": 3682,
      "Ġpen": 3683,
      "Ġzmo": 3684,
      "ĠÄįist": 3685,
      "ĠokÅ¯": 3686,
      "ĠklesÃ¡": 3687,
      "Ġkone": 3688,
      "Å¾enÃ½": 3689,
      "ĠslyÅ¡et": 3690,
      "mat": 3691,
      "ĠjasnÃ½": 3692,
      "ĠtÄĽÅ¾kÃ½": 3693,
      "Ġede": 3694,
      "ĠÃŃlÃ½": 3695,
      "Ġsyna": 3696,
      "ABABAC": 3697,
      "ĠÃŃla": 3698,
      "ĠÃŃky": 3699,
      "Ġzor": 3700,
      "Ġjit": 3701,
      "ĠbledÃ©": 3702,
      "anil": 3703,
      "Ġjat": 3704,
      "Ġpolib": 3705,
      "Ġosla": 3706,
      "Ġpope": 3707,
      "ĠÃ¡da": 3708,
      "ĠÄįeskÃ½": 3709,
      "lep": 3710,
      "Ġvola": 3711,
      "ĠmrÃ¡z": 3712,
      "Äįo": 3713,
      "Ġeti": 3714,
      "ĠohnÄĽm": 3715,
      "vÃŃc": 3716,
      "snÃ¡": 3717,
      "Ġlky": 3718,
      "ĠtemnÃ©": 3719,
      "ĠÄįel": 3720,
      "ĠnadÅ¡enÃŃ": 3721,
      "zra": 3722,
      "livÃ½": 3723,
      "ĠlnÃ½": 3724,
      "ĠknÄĽÅ¾": 3725,
      "Ġbor": 3726,
      "Ġtako": 3727,
      "Ġvelkou": 3728,
      "ĠopuÅ¡tÄĽ": 3729,
      "Ġchyt": 3730,
      "ĠmrtvÃ©": 3731,
      "Ġiku": 3732,
      "bem": 3733,
      "ĠelÃŃ": 3734,
      "jÃŃmÃ¡": 3735,
      "Ġtichu": 3736,
      "ĠvidÄĽt": 3737,
      "Ġmlhy": 3738,
      "ĠkÃ½m": 3739,
      "Ġkar": 3740,
      "ĠlÃŃto": 3741,
      "Ġpoc": 3742,
      "tej": 3743,
      "rej": 3744,
      "Ġsoumrak": 3745,
      "ĠJsi": 3746,
      "Å¡a": 3747,
      "ĠÄĽna": 3748,
      "Ġvin": 3749,
      "Ġlehce": 3750,
      "Ġrodi": 3751,
      "nikÃ¡": 3752,
      "Ġlili": 3753,
      "ĠkoÅĻi": 3754,
      "ĠkoÅĻen": 3755,
      "ĠÃļ": 3756,
      "ĠsladkÃ¡": 3757,
      "han": 3758,
      "Ġnepro": 3759,
      "Ġzat": 3760,
      "Ġzlatou": 3761,
      "Ġdy": 3762,
      "tkem": 3763,
      "Ġseve": 3764,
      "Ġnaslou": 3765,
      "ĠÄĽzd": 3766,
      "Ġenu": 3767,
      "Ġsbo": 3768,
      "ĠzÃŃrÃ¡": 3769,
      "ĠmusÃŃm": 3770,
      "ĠloÅ¾e": 3771,
      "Ġdali": 3772,
      "cenÃ©": 3773,
      "ĠevÃŃ": 3774,
      "Ġano": 3775,
      "ĠJu": 3776,
      "ĠskÅĻÃŃ": 3777,
      "ĠrÃ½": 3778,
      "Ġkole": 3779,
      "ĠÄĽte": 3780,
      "uji": 3781,
      "fi": 3782,
      "Å¡to": 3783,
      "ĠJo": 3784,
      "Ġlov": 3785,
      "ĠpatÅĻÃŃ": 3786,
      "nÃ¡Å¡": 3787,
      "ĠNic": 3788,
      "Ġjel": 3789,
      "ĠÄįnÄĽ": 3790,
      "bel": 3791,
      "Ġletu": 3792,
      "hajÃŃ": 3793,
      "ĠdÄĽje": 3794,
      "bÃ¡ch": 3795,
      "ĠvÅ¡emu": 3796,
      "Ġbolesti": 3797,
      "ĠnenÃ¡vi": 3798,
      "stupu": 3799,
      "osti": 3800,
      "ĠvÄĽci": 3801,
      "ĠvÅ¡a": 3802,
      "Ġdoba": 3803,
      "Ġsklen": 3804,
      "ĠvÅ¡ÃŃ": 3805,
      "ĠPr": 3806,
      "Ġsic": 3807,
      "Ġzvon": 3808,
      "ĠpÅĻedu": 3809,
      "Äįiny": 3810,
      "lk": 3811,
      "ĠkolÃ©b": 3812,
      "blou": 3813,
      "ĠhuÄįÃŃ": 3814,
      "Ġoda": 3815,
      "Ġpoch": 3816,
      "ĠnÃŃk": 3817,
      "ĠaÅ¡ÃŃ": 3818,
      "kovi": 3819,
      "ĠnavÅ¾dy": 3820,
      "ĠstÃ½": 3821,
      "ĠrÃ¡nu": 3822,
      "Ġvytr": 3823,
      "Ġutr": 3824,
      "ĠÄĽtÅ¯": 3825,
      "ĠÅ¾alu": 3826,
      "Ġsled": 3827,
      "Ġvzbu": 3828,
      "ĠÃ¡sy": 3829,
      "Ġvypra": 3830,
      "Ġesa": 3831,
      "ĠrannÃŃ": 3832,
      "Ġbolu": 3833,
      "ĠzÃ¡vi": 3834,
      "ĠlnÃ©": 3835,
      "ĠOh": 3836,
      "Ġtichou": 3837,
      "ĠsmÄĽle": 3838,
      "ĠocÃŃ": 3839,
      "Ġuvi": 3840,
      "ĠÄįistÃ©": 3841,
      "ĠmrtvÃ½ch": 3842,
      "tÃ¡nÃŃ": 3843,
      "ĠzdravÃŃ": 3844,
      "ĠAni": 3845,
      "Ġkdesi": 3846,
      "ĠkvÄĽtem": 3847,
      "ĠbÅĻeh": 3848,
      "Ġsmutku": 3849,
      "nkou": 3850,
      "ĠnovÃ¡": 3851,
      "Ġzbu": 3852,
      "Ġula": 3853,
      "nali": 3854,
      "dno": 3855,
      "ĠcÃŃsaÅĻ": 3856,
      "Ġskon": 3857,
      "sli": 3858,
      "Ġstalo": 3859,
      "Ġbleskem": 3860,
      "ost": 3861,
      "ĠotcÅ¯": 3862,
      "ĠandÄĽ": 3863,
      "Ġoblak": 3864,
      "ĠÃŃhÃ¡": 3865,
      "ĠÃºÅ¾": 3866,
      "Ġdechem": 3867,
      "ĠjasnÄĽ": 3868,
      "ĠÄįnÃ©": 3869,
      "Ġtuto": 3870,
      "ĠÅ½ivo": 3871,
      "ĠlepÅ¡ÃŃ": 3872,
      "Ġproro": 3873,
      "ĠvraÅ¾": 3874,
      "Ġdnu": 3875,
      "Ġsluch": 3876,
      "zuje": 3877,
      "ĠpÅ¯va": 3878,
      "ĠovÄĽ": 3879,
      "volÃ¡": 3880,
      "Ġposlou": 3881,
      "Ġrtech": 3882,
      "ĠÅ¡ÃŃlen": 3883,
      "Ġama": 3884,
      "Ġpode": 3885,
      "ĠÅ¡lech": 3886,
      "Ġcizi": 3887,
      "ĠÅĻÃ¡d": 3888,
      "ĠSlyÅ¡": 3889,
      "Å¡le": 3890,
      "ĠkÃ©Å¾": 3891,
      "Ġzraku": 3892,
      "ĠoÅ¾i": 3893,
      "Ġhar": 3894,
      "ĠdÅĻÃŃmÃ¡": 3895,
      "ĠHospo": 3896,
      "ĠtichÃ¡": 3897,
      "ĠrÅ¯Å¾i": 3898,
      "ĠzÃ¡stup": 3899,
      "ĠTebe": 3900,
      "lovÃ©": 3901,
      "ĠhrÅ¯zou": 3902,
      "tat": 3903,
      "Ġpoled": 3904,
      "ĠcÃŃm": 3905,
      "rek": 3906,
      "Ġoud": 3907,
      "ĠzpÃ¡tky": 3908,
      "znÃ©": 3909,
      "Ġzpu": 3910,
      "Ġana": 3911,
      "Ġdno": 3912,
      "Ġcem": 3913,
      "Ġcosi": 3914,
      "ĠÅĪadrech": 3915,
      "Ġnitru": 3916,
      "ĠitÄĽ": 3917,
      "amÄĽ": 3918,
      "ĠDa": 3919,
      "Ġkolo": 3920,
      "Ġkom": 3921,
      "Ġdna": 3922,
      "ĠvÃŃno": 3923,
      "Ġmlha": 3924,
      "ĠÃ¡Å¾e": 3925,
      "ot": 3926,
      "ĠhalÃŃ": 3927,
      "ÅĻec": 3928,
      "ĠtÅĻese": 3929,
      "cenÃŃ": 3930,
      "ĠbÃ¡j": 3931,
      "ĠÄĽvu": 3932,
      "Ã¡n": 3933,
      "Ġtato": 3934,
      "ĠÄĽÅĻÃŃ": 3935,
      "ĠbÄĽd": 3936,
      "ĠvolnÄĽ": 3937,
      "ĠÃ¡vu": 3938,
      "ĠstÄĽny": 3939,
      "vÃ¡ch": 3940,
      "vobo": 3941,
      "Ġjab": 3942,
      "Ġzamy": 3943,
      "ĠbÃ½val": 3944,
      "ĠsmutnÃ½": 3945,
      "ĠkaÅ¾dÃ©m": 3946,
      "ĠÅ¡ti": 3947,
      "ĠpromÄĽ": 3948,
      "ĠdÃŃlo": 3949,
      "peÅ¾": 3950,
      "ĠBÃŃ": 3951,
      "Ġsluncem": 3952,
      "kojen": 3953,
      "ĠvÅ¡ecka": 3954,
      "ĠvyprÃ¡": 3955,
      "ĠrokÅ¯": 3956,
      "ĠvrÃ¡tÃŃ": 3957,
      "Ġvnu": 3958,
      "Å¾ka": 3959,
      "Ġmati": 3960,
      "Ġvzpla": 3961,
      "Ġyje": 3962,
      "ĠlidskÃ½": 3963,
      "AD": 3964,
      "ĠpsÃ¡": 3965,
      "ĠHla": 3966,
      "Ġeme": 3967,
      "ĠpamÃ¡": 3968,
      "ĠzlÃ½": 3969,
      "ĠJan": 3970,
      "nuly": 3971,
      "ĠhledÄĽl": 3972,
      "ĠoÅ¾e": 3973,
      "ĠlnÃŃ": 3974,
      "ĠProto": 3975,
      "rad": 3976,
      "ĠÅ¾enou": 3977,
      "ĠtÄĽÅ¾ce": 3978,
      "Ġlidstvo": 3979,
      "Ġvzde": 3980,
      "ĠzlÃ©": 3981,
      "Äįkem": 3982,
      "kost": 3983,
      "bec": 3984,
      "Ġbyst": 3985,
      "ĠÄĽtÄĽ": 3986,
      "ĠjimÅ¾": 3987,
      "ĠdÃ½Å¡e": 3988,
      "ĠzlÃŃ": 3989,
      "Ġboha": 3990,
      "Ġpochy": 3991,
      "Ġin": 3992,
      "ĠveÅ¡": 3993,
      "ĠHned": 3994,
      "ĠÄĽku": 3995,
      "ĠÅ¾as": 3996,
      "Ġitu": 3997,
      "Ġomy": 3998,
      "vÄĽz": 3999,
      "ĠpÅĻÃŃtel": 4000,
      "ĠdÄĽvÄįe": 4001,
      "ĠzlÃ¡": 4002,
      "ĠRy": 4003,
      "ĠvÅ¯ni": 4004,
      "ĠÅ¡iro": 4005,
      "ÄįnÃ½ch": 4006,
      "Ġkvetou": 4007,
      "Ġhost": 4008,
      "ÅĻÃŃÅ¡": 4009,
      "ĠboÅ¾e": 4010,
      "ĠdÄĽcko": 4011,
      "ĠjevÃŃ": 4012,
      "Ġeta": 4013,
      "ĠjÃŃc": 4014,
      "Ġsnem": 4015,
      "voucÃŃ": 4016,
      "Ġnechci": 4017,
      "ĠseÅĪ": 4018,
      "zek": 4019,
      "dru": 4020,
      "Ġvzp": 4021,
      "Ġmed": 4022,
      "Ġpomoc": 4023,
      "hlo": 4024,
      "ĠpryÄį": 4025,
      "sÃŃch": 4026,
      "ĠbledÃ½": 4027,
      "gu": 4028,
      "Ġmluvil": 4029,
      "ĠbloudÃŃ": 4030,
      "ĠnÃ¡dher": 4031,
      "sÃ½": 4032,
      "ĠelÃ¡": 4033,
      "ĠdÃŃt": 4034,
      "Ġplna": 4035,
      "ĠAl": 4036,
      "vÄĽti": 4037,
      "Ġjestli": 4038,
      "Å¡enÃ½": 4039,
      "Ġabych": 4040,
      "Ġslovy": 4041,
      "Ġemu": 4042,
      "Ġahu": 4043,
      "ĠzÃ¡pad": 4044,
      "Ġjitra": 4045,
      "Ġnebude": 4046,
      "Ġslune": 4047,
      "Ġpouta": 4048,
      "ĠpoÄįÃŃ": 4049,
      "ĠÅĻem": 4050,
      "ĠprostÅĻed": 4051,
      "ĠNaÄį": 4052,
      "ĠÄįernÃ¡": 4053,
      "ĠdÃŃvky": 4054,
      "hnul": 4055,
      "ĠmyslÃŃm": 4056,
      "ĠosÃŃ": 4057,
      "rajÃŃ": 4058,
      "ĠprovÃ¡": 4059,
      "ĠzboÅ¾": 4060,
      "liv": 4061,
      "chom": 4062,
      "pot": 4063,
      "Ġsvatou": 4064,
      "Ġvlna": 4065,
      "ĠhrdÄĽ": 4066,
      "hlÃ½": 4067,
      "lejÅ¡ÃŃ": 4068,
      "ĠplÃ¡po": 4069,
      "Ġlku": 4070,
      "Ġsynu": 4071,
      "nÄĽnÃŃ": 4072,
      "ĠmÄĽst": 4073,
      "ĠÅĻekla": 4074,
      "Ġstuden": 4075,
      "Ġzvuky": 4076,
      "ĠynÃŃ": 4077,
      "Ġkouzel": 4078,
      "ĠvÅ¯j": 4079,
      "vel": 4080,
      "ĠmocnÄĽ": 4081,
      "ĠJÃŃ": 4082,
      "ĠlÃŃp": 4083,
      "Ġskr": 4084,
      "ĠmÃ¡te": 4085,
      "bila": 4086,
      "bro": 4087,
      "ge": 4088,
      "ĠtvojÃŃ": 4089,
      "ĠklÃ¡Å¡te": 4090,
      "nilo": 4091,
      "ĠÄĽst": 4092,
      "pila": 4093,
      "Ġzhou": 4094,
      "tili": 4095,
      "vÄĽla": 4096,
      "ĠcitÅ¯": 4097,
      "Ġvzduchem": 4098,
      "Ġneroz": 4099,
      "ĠztrÃ¡cÃŃ": 4100,
      "kali": 4101,
      "Ġdouf": 4102,
      "ĠptÃ¡Äįe": 4103,
      "Å¡o": 4104,
      "Ġstane": 4105,
      "Ġluny": 4106,
      "ÅĻenÃ½": 4107,
      "Ġvoda": 4108,
      "ĠlÅ¯Å¾": 4109,
      "ĠchvÄĽl": 4110,
      "zÃ½": 4111,
      "ÅĪat": 4112,
      "ĠPojÄı": 4113,
      "ĠPÃ¡nÄĽ": 4114,
      "Å¡ly": 4115,
      "ĠsnÄĽhu": 4116,
      "ĠvÃ©": 4117,
      "ĠplÃ©": 4118,
      "Å¾ky": 4119,
      "ĠVÃŃm": 4120,
      "Ġbohy": 4121,
      "Ġunaven": 4122,
      "ĠupomÃŃ": 4123,
      "livÃ©": 4124,
      "Ġsvad": 4125,
      "ĠvÃ¡n": 4126,
      "ĠtmavÃ©": 4127,
      "ĠÅ¡Ã¡": 4128,
      "krÃ¡s": 4129,
      "ĠbratÅĻi": 4130,
      "ĠhÅĻmÃŃ": 4131,
      "ĠNechÅ¥": 4132,
      "ĠrytÃŃÅĻ": 4133,
      "ĠtemnÄĽ": 4134,
      "vky": 4135,
      "ĠradostÃŃ": 4136,
      "ĠchÃ½lÃŃ": 4137,
      "ĠnemÄĽl": 4138,
      "Ġstez": 4139,
      "ĠmocÃŃ": 4140,
      "cenÃ½": 4141,
      "Ġaha": 4142,
      "ĠvÃŃtÄĽ": 4143,
      "hnout": 4144,
      "Ġstarou": 4145,
      "ĠpoÅ¾Ã¡": 4146,
      "ĠÄĽch": 4147,
      "ĠnovÃ½ch": 4148,
      "Ġhraje": 4149,
      "ĠdÃŃvÄįÃŃ": 4150,
      "ĠtnÃ½": 4151,
      "rami": 4152,
      "lio": 4153,
      "lin": 4154,
      "ĠvÃŃna": 4155,
      "Ġece": 4156,
      "viti": 4157,
      "ĠilÃ©": 4158,
      "Ġsladkou": 4159,
      "ĠsmÄĽje": 4160,
      "ckni": 4161,
      "ĠÅ¾ebrÃ¡": 4162,
      "ĠsvÄĽtÅ¯": 4163,
      "ĠpÅĻÃ¡nÃŃ": 4164,
      "Ġnebem": 4165,
      "ĠsbÃŃ": 4166,
      "Äįnosti": 4167,
      "ĠChce": 4168,
      "Ġchleba": 4169,
      "ĠtrÃ½": 4170,
      "kÃ¡n": 4171,
      "Ġkdos": 4172,
      "Ġlodi": 4173,
      "Ġnevz": 4174,
      "bek": 4175,
      "Ġchod": 4176,
      "ĠStÃ¡": 4177,
      "ĠdÃ¡ti": 4178,
      "ĠsvÄĽty": 4179,
      "ĠmlÄįky": 4180,
      "vedl": 4181,
      "Ġbarev": 4182,
      "tud": 4183,
      "covÃ©": 4184,
      "Ġspanil": 4185,
      "ĠÅ¡edi": 4186,
      "ĠlÃ½m": 4187,
      "Ġkade": 4188,
      "ĠplÃ¡Äįi": 4189,
      "ĠposvÃ¡": 4190,
      "Ġnikde": 4191,
      "ĠumÃŃrÃ¡": 4192,
      "ĠnnÃ©": 4193,
      "ĠdnÃ¡": 4194,
      "Ġzle": 4195,
      "ÄįÅ¯": 4196,
      "ĠÃ¡Å¾ÃŃ": 4197,
      "ĠhorÃ¡ch": 4198,
      "Ġesu": 4199,
      "vÃ¡Å¡": 4200,
      "ĠvÃŃra": 4201,
      "ĠbÄĽh": 4202,
      "vrÃ¡tÃŃ": 4203,
      "ĠkÃ©m": 4204,
      "Ġhorou": 4205,
      "slav": 4206,
      "ĠmlÃ½": 4207,
      "ĠicÃŃ": 4208,
      "Ġbod": 4209,
      "ĠSlunce": 4210,
      "ĠuhÃ½": 4211,
      "ĠrÃ½m": 4212,
      "ĠleÅ¾": 4213,
      "ĠÅ½Ã¡": 4214,
      "ĠvÃ¡Å¡nÄĽ": 4215,
      "Ġrozech": 4216,
      "Ġhroby": 4217,
      "ĠveÄįera": 4218,
      "ĠnaÅ¡el": 4219,
      "ĠvÄĽÅ¾e": 4220,
      "Ġdobu": 4221,
      "ĠLid": 4222,
      "ĠmÅĻÃŃ": 4223,
      "kaly": 4224,
      "Ġnaposled": 4225,
      "ĠÃ¡se": 4226,
      "ĠVra": 4227,
      "Ġrozu": 4228,
      "Ġlidi": 4229,
      "ĠsÃŃÅĪ": 4230,
      "ĠDÃ¡": 4231,
      "Ġoken": 4232,
      "Ġchlu": 4233,
      "ĠvÄĽtvÃŃ": 4234,
      "ĠnepÅĻe": 4235,
      "Ġvp": 4236,
      "Ġnajde": 4237,
      "ĠÄĮÃŃm": 4238,
      "ĠmnohÃ©": 4239,
      "ĠnemÅ¯Å¾e": 4240,
      "Ġzar": 4241,
      "ĠpÅĻÃŃval": 4242,
      "ĠjÃŃti": 4243,
      "ĠKrÃ¡l": 4244,
      "Å¡ko": 4245,
      "Ġuse": 4246,
      "telÃ©": 4247,
      "kÅ¯v": 4248,
      "Ġmatce": 4249,
      "ĠspÃŃÅ¡": 4250,
      "Ġebi": 4251,
      "ĠvÄĽtru": 4252,
      "padÃ¡": 4253,
      "Ġlok": 4254,
      "ĠvrÃ¡til": 4255,
      "hr": 4256,
      "kva": 4257,
      "dro": 4258,
      "Ġdavy": 4259,
      "Ġopat": 4260,
      "Ġvelmi": 4261,
      "Ġkruh": 4262,
      "ĠpÅĻÃŃsa": 4263,
      "mrtel": 4264,
      "ĠÄĽvy": 4265,
      "ĠzÃ¡vra": 4266,
      "Ġmodra": 4267,
      "benÃŃ": 4268,
      "ckÃ½ch": 4269,
      "Ġvyp": 4270,
      "ĠpohÅĻ": 4271,
      "bÃ¡m": 4272,
      "Ġtmou": 4273,
      "ĠdobrÃ¡": 4274,
      "ĠtmÄĽ": 4275,
      "vosti": 4276,
      "mÃŃr": 4277,
      "ĠdivÃ½": 4278,
      "stej": 4279,
      "zpe": 4280,
      "ĠVl": 4281,
      "mek": 4282,
      "ĠtÃŃÅ¾ÃŃ": 4283,
      "lan": 4284,
      "Ġpodzim": 4285,
      "ĠumÄĽnÃŃ": 4286,
      "ĠeÄįe": 4287,
      "Ġviz": 4288,
      "Ġneod": 4289,
      "ÄįnÃ½m": 4290,
      "ĠokÃ©": 4291,
      "ABABC": 4292,
      "Ġlesem": 4293,
      "ĠbÃ¡snÃŃk": 4294,
      "Ġpust": 4295,
      "ĠmÄĽstÄĽ": 4296,
      "Ġprst": 4297,
      "ĠCÃŃ": 4298,
      "ĠstÃŃnÅ¯": 4299,
      "ĠcÃŃrk": 4300,
      "krÃ¡te": 4301,
      "ĠlesnÃŃ": 4302,
      "Äįa": 4303,
      "ĠkvÄĽti": 4304,
      "ĠKristu": 4305,
      "Ġchas": 4306,
      "ĠbohÅ¯": 4307,
      "ĠÃºÅ¾as": 4308,
      "ĠpravÃ½": 4309,
      "ĠdÃŃk": 4310,
      "Ġdraho": 4311,
      "rÃ©ho": 4312,
      "Ġznal": 4313,
      "ĠutÄĽ": 4314,
      "Ġpanen": 4315,
      "ĠeÄįi": 4316,
      "ĠlaÅĪ": 4317,
      "ĠtnÃ¡": 4318,
      "ĠÅ¾ivotem": 4319,
      "Ġdaleko": 4320,
      "Ġrud": 4321,
      "Ġskoro": 4322,
      "Ġplnou": 4323,
      "Ġhym": 4324,
      "nuv": 4325,
      "ĠzÅĻÃŃt": 4326,
      "ĠnÃ¡ruÄįÃŃ": 4327,
      "ĠnnÃŃ": 4328,
      "Ġcu": 4329,
      "lÃ©tÃ¡": 4330,
      "ĠÅĪÃ¡": 4331,
      "Ġatu": 4332,
      "ĠlÃŃbe": 4333,
      "ĠposmÄĽ": 4334,
      "ĠdÄĽji": 4335,
      "Ġuji": 4336,
      "ĠbolÃŃ": 4337,
      "ĠschvÃ¡": 4338,
      "ĠsplÃ½vÃ¡": 4339,
      "Ġdnem": 4340,
      "ĠKaÅ¾dÃ½": 4341,
      "Ġnoha": 4342,
      "ĠÅ¾Ã¡dnÃ©": 4343,
      "ĠnÄĽkde": 4344,
      "ĠsÃŃm": 4345,
      "nÃ¡Å¡e": 4346,
      "ĠpÃŃt": 4347,
      "ĠlidskÃ½ch": 4348,
      "Ġstolu": 4349,
      "ĠmÃ©mu": 4350,
      "Ġmramo": 4351,
      "ĠpÄĽknÄĽ": 4352,
      "Ġhlubin": 4353,
      "ĠmeÄįem": 4354,
      "ĠÃŃÅĻÃŃ": 4355,
      "ĠvÄĽÅĻÃŃ": 4356,
      "ĠkÅĻÃŃÅ¾e": 4357,
      "Ġjazyk": 4358,
      "ĠmÅ¯Å¾": 4359,
      "ĠSla": 4360,
      "dovÃ©": 4361,
      "Ġstran": 4362,
      "Ġstranou": 4363,
      "ĠzpÃŃval": 4364,
      "Ġprudce": 4365,
      "vÅ¡ak": 4366,
      "Ġmimo": 4367,
      "ĠdÄĽj": 4368,
      "Ġzvony": 4369,
      "ĠneboÅ¥": 4370,
      "vanÃ½": 4371,
      "ĠnÄĽl": 4372,
      "ĠdlanÃŃ": 4373,
      "ĠhrÅ¯zy": 4374,
      "ĠtajÃŃ": 4375,
      "Ġkrvi": 4376,
      "Ġazu": 4377,
      "ĠSto": 4378,
      "ĠrudÃ½": 4379,
      "sie": 4380,
      "sila": 4381,
      "ĠpÃ¡lÃŃ": 4382,
      "drÃ¡": 4383,
      "ĠknÄĽz": 4384,
      "Ġvzdor": 4385,
      "ĠudÃ©": 4386,
      "ĠlÃ¡n": 4387,
      "ĠmeÄįe": 4388,
      "jÃŃcÃŃm": 4389,
      "Ġkryje": 4390,
      "cuje": 4391,
      "Ġzkou": 4392,
      "Ġdruhdy": 4393,
      "Ġobzor": 4394,
      "ĠptaÄįÃŃ": 4395,
      "ĠvlasÅ¯": 4396,
      "Ġpoznal": 4397,
      "Ġeba": 4398,
      "Ġmusil": 4399,
      "ĠkaÅ¾dÃ½m": 4400,
      "ĠÃºdolÃŃ": 4401,
      "menÃŃ": 4402,
      "ĠÃ¡hy": 4403,
      "ĠjinÃŃ": 4404,
      "Ġvnad": 4405,
      "ÅĻad": 4406,
      "nily": 4407,
      "Ġholubi": 4408,
      "ĠinÃ½": 4409,
      "ĠÄįko": 4410,
      "ĠÃ¡ji": 4411,
      "ĠprÃ¡vo": 4412,
      "Ġtk": 4413,
      "ĠtnÄĽ": 4414,
      "ĠdivnÃ©": 4415,
      "Ġukry": 4416,
      "ĠrodÃŃ": 4417,
      "ĠPla": 4418,
      "Ġdlouhou": 4419,
      "ĠzapomnÄĽ": 4420,
      "kÅĻÃŃ": 4421,
      "Ġnero": 4422,
      "?...": 4423,
      "pÅĻe": 4424,
      "Ġdly": 4425,
      "emi": 4426,
      "ĠslavnÃ½": 4427,
      "jdu": 4428,
      "Ġprahu": 4429,
      "Ġmatku": 4430,
      "Ġvichr": 4431,
      "spÄĽ": 4432,
      "Ġdro": 4433,
      "Ġhodi": 4434,
      "ĠnosÃŃ": 4435,
      "ĠnÄĽmÃ½": 4436,
      "bla": 4437,
      "Ġstal": 4438,
      "Ġyly": 4439,
      "Ġkomu": 4440,
      "Ġneho": 4441,
      "Ġlev": 4442,
      "ĠsmrtÃŃ": 4443,
      "ĠrnÄĽ": 4444,
      "ĠpÅĻipra": 4445,
      "ĠduchÅ¯": 4446,
      "ĠhnÄĽvu": 4447,
      "Ġozdo": 4448,
      "Ġpropast": 4449,
      "ĠanÃ¡": 4450,
      "Ġjakou": 4451,
      "Ġkos": 4452,
      "ĠstaÄįÃŃ": 4453,
      "Ġtvor": 4454,
      "ĠÄįasÅ¯": 4455,
      "ĠvelkÃ½ch": 4456,
      "ĠosamÄĽ": 4457,
      "ĠdlanÄĽ": 4458,
      "ĠprosÃŃm": 4459,
      "Ġpromlu": 4460,
      "ĠpÃ¡d": 4461,
      "ĠtemnÃ½": 4462,
      "ĠnÃŃh": 4463,
      "Ġproudy": 4464,
      "Ġjindy": 4465,
      "lej": 4466,
      "ĠPÃŃ": 4467,
      "ĠpoÅĻÃ¡": 4468,
      "Ġmate": 4469,
      "Ġpoklad": 4470,
      "jak": 4471,
      "ĠkrÃ¡Äįel": 4472,
      "Å¾ili": 4473,
      "Ġpouti": 4474,
      "Ġryt": 4475,
      "ĠpozdÄĽ": 4476,
      "ĠmÄĽj": 4477,
      "kr": 4478,
      "ĠuÅ¡": 4479,
      "Ġzel": 4480,
      "ĠslavnÄĽ": 4481,
      "Ġulo": 4482,
      "ĠprÃ¡va": 4483,
      "ĠtrÃ¡vÄĽ": 4484,
      "ĠnechÃ¡": 4485,
      "kami": 4486,
      "Ġlisty": 4487,
      "ĠjÃ¡so": 4488,
      "znÃ½": 4489,
      "ĠÃ½m": 4490,
      "Ġtkli": 4491,
      "vede": 4492,
      "ĠsnÃ½": 4493,
      "ĠvÅ¡ady": 4494,
      "ACCD": 4495,
      "ĠpÃ½": 4496,
      "ĠslzÃŃ": 4497,
      "ĠatÄĽ": 4498,
      "les": 4499,
      "Ġvane": 4500,
      "Ġnemoc": 4501,
      "ĠtajemstvÃŃ": 4502,
      "ĠÅ¡pat": 4503,
      "kej": 4504,
      "ĠdveÅĻÃŃ": 4505,
      "Ġhni": 4506,
      "Ġpol": 4507,
      "Ġnapl": 4508,
      "ĠÅĻÃŃtÃŃ": 4509,
      "ĠAno": 4510,
      "Ġrci": 4511,
      "ĠSem": 4512,
      "ĠitÃ¡": 4513,
      "ĠpodÃŃ": 4514,
      "Ġchcem": 4515,
      "ĠdÃŃval": 4516,
      "Ġpadne": 4517,
      "ĠzpÄĽvu": 4518,
      "Ġztich": 4519,
      "ĠmnÃ©": 4520,
      "XABA": 4521,
      "lec": 4522,
      "rÃ¡l": 4523,
      "Ġprapor": 4524,
      "tne": 4525,
      "Ġhmo": 4526,
      "rÃ½vÃ¡": 4527,
      "ĠchladnÃ©": 4528,
      "ĠmladÃŃ": 4529,
      "ĠsedÄĽl": 4530,
      "ĠÅ¡em": 4531,
      "Ġkouzlo": 4532,
      "Ġkop": 4533,
      "Ġkost": 4534,
      "ĠÄįervÃ¡n": 4535,
      "ĠpalÃ¡": 4536,
      "ĠnepÅĻÃ¡tel": 4537,
      "rpu": 4538,
      "skal": 4539,
      "ĠazÃŃ": 4540,
      "ĠStra": 4541,
      "ĠoÄįima": 4542,
      "Ġrob": 4543,
      "ĠPi": 4544,
      "Ġlaho": 4545,
      "ĠvelkÃ½m": 4546,
      "Ġdceru": 4547,
      "Å¾ela": 4548,
      "ĠÅ¡eru": 4549,
      "Ġjev": 4550,
      "ĠsnÃ¡ch": 4551,
      "nÃŃkÅ¯": 4552,
      "Ġvykou": 4553,
      "Ġbohu": 4554,
      "Ġbudem": 4555,
      "ĠspÃ¡nku": 4556,
      "Ġytu": 4557,
      "ĠLo": 4558,
      "ĠdeÅ¡tÄĽ": 4559,
      "mil": 4560,
      "pÃ©": 4561,
      "ĠvÄĽnec": 4562,
      "vici": 4563,
      "ĠÅ¡edÃ©": 4564,
      "vech": 4565,
      "ĠÅ¡tÃŃt": 4566,
      "ĠpodÃ¡": 4567,
      "ĠneÅ¡Å¥ast": 4568,
      "ĠNik": 4569,
      "ĠStar": 4570,
      "ga": 4571,
      "ĠSam": 4572,
      "Äįili": 4573,
      "ĠtvoÅĻÃŃ": 4574,
      "Ġbrou": 4575,
      "Ġvine": 4576,
      "Ġotci": 4577,
      "ĠChci": 4578,
      "Äįte": 4579,
      "ĠÄįistÃ½": 4580,
      "XAXBXB": 4581,
      "cko": 4582,
      "ĠÅ¡pi": 4583,
      "Ġpano": 4584,
      "Ġvzte": 4585,
      "lenou": 4586,
      "ĠstÅĻedu": 4587,
      "ĠslavnÃ©": 4588,
      "Ġmatko": 4589,
      "ĠkÅĻÃŃdel": 4590,
      "ĠhnÃ¡": 4591,
      "ĠtÄĽchto": 4592,
      "ĠalÃ¡": 4593,
      "Ġosi": 4594,
      "ĠÃŃna": 4595,
      "vek": 4596,
      "ĠslyÅ¡e": 4597,
      "ĠNy": 4598,
      "ĠToÅ¾": 4599,
      "ĠjemnÄĽ": 4600,
      "Ġobrov": 4601,
      "Ġplanou": 4602,
      "Ġule": 4603,
      "Ġnesmrtel": 4604,
      "ĠsamÃ©": 4605,
      "Ġfan": 4606,
      "ĠÅĺe": 4607,
      "ĠmotÃ½l": 4608,
      "Ġjitro": 4609,
      "ĠdlouhÃ¡": 4610,
      "ĠblÃŃzko": 4611,
      "Ġprv": 4612,
      "ĠchovÃ¡": 4613,
      "ĠtÄĽÅ¾ko": 4614,
      "Ġalu": 4615,
      "ÅĪte": 4616,
      "Ġstopy": 4617,
      "ĠvÄĽku": 4618,
      "houcÃŃ": 4619,
      "ĠVel": 4620,
      "ABAX": 4621,
      "ĠKarel": 4622,
      "rozen": 4623,
      "ĠotÄįe": 4624,
      "ĠchlÃ©b": 4625,
      "ÅĪo": 4626,
      "ĠY": 4627,
      "ĠÃŃlÃ©": 4628,
      "Ġspu": 4629,
      "Ġjakoby": 4630,
      "Ġzdr": 4631,
      "ĠvÅ¯dce": 4632,
      "ĠvelikÃ½": 4633,
      "Ġhed": 4634,
      "hlÃŃÅ¾ÃŃ": 4635,
      "ĠMne": 4636,
      "Ġvstal": 4637,
      "ĠSvÃ©": 4638,
      "Ġkrajem": 4639,
      "au": 4640,
      "Ġvan": 4641,
      "ĠchudÃ©": 4642,
      "ĠskÃ¡la": 4643,
      "ĠdrÅ¾ÃŃ": 4644,
      "Ġrti": 4645,
      "ÅĻili": 4646,
      "ĠrnÃŃ": 4647,
      "Ġkoho": 4648,
      "ĠtrÅ¯nu": 4649,
      "ĠuÅĻÃŃ": 4650,
      "ĠpravÃ©": 4651,
      "ĠstÃ¡ti": 4652,
      "ĠvÄĽtve": 4653,
      "ĠzÃ¡voj": 4654,
      "Äįce": 4655,
      "Ġzima": 4656,
      "ÄįkÃ¡": 4657,
      "lid": 4658,
      "ĠjÃ¡sa": 4659,
      "ĠsvÃŃrÃ¡": 4660,
      "ĠaÅĻÃŃ": 4661,
      "Ġdlu": 4662,
      "ĠlÃŃÅ¾": 4663,
      "Ġnebezpe": 4664,
      "Ã¡k": 4665,
      "Ġtouze": 4666,
      "Ġzapomen": 4667,
      "Ġjeli": 4668,
      "ĠtmÃ¡ch": 4669,
      "Ġkola": 4670,
      "Å¡ÃŃÅ¡": 4671,
      "ĠsvÄĽtel": 4672,
      "Ġmaje": 4673,
      "Ġtit": 4674,
      "ĠKra": 4675,
      "Ġznak": 4676,
      "Ġcel": 4677,
      "Ġostat": 4678,
      "rci": 4679,
      "ĠonÃ©": 4680,
      "Ġhbi": 4681,
      "ĠKrista": 4682,
      "Ġoma": 4683,
      "ĠÃ¡sÃ¡": 4684,
      "ĠrodnÃ©": 4685,
      "rie": 4686,
      "Ġtko": 4687,
      "ĠloÅ¾i": 4688,
      "ĠtÃ¡t": 4689,
      "Ġeji": 4690,
      "ĠÅĻeka": 4691,
      "AXXA": 4692,
      "Ġdom": 4693,
      "ĠÅ¡ku": 4694,
      "ĠvÄĽÄįnosti": 4695,
      "ĠobÄĽÅ¥": 4696,
      "fa": 4697,
      "ĠBe": 4698,
      "ĠsprÃ¡": 4699,
      "ĠynÄĽ": 4700,
      "ĠvÄĽtrem": 4701,
      "ĠÄįemu": 4702,
      "ĠvÃ¡Å¾nÄĽ": 4703,
      "pÃŃnÃ¡": 4704,
      "ĠÃŃra": 4705,
      "hÃ¡ch": 4706,
      "ĠstraÅ¡": 4707,
      "ĠHoj": 4708,
      "ĠpÃ¡na": 4709,
      "Ġpekel": 4710,
      "Ġivy": 4711,
      "Ġzmizel": 4712,
      "ĠdÃ½chÃ¡": 4713,
      "ĠJde": 4714,
      "Äįela": 4715,
      "ĠtÄĽlem": 4716,
      "ĠdÃ¡vnÃ½ch": 4717,
      "ĠkÃ½vÃ¡": 4718,
      "Ġzacho": 4719,
      "jit": 4720,
      "ĠDej": 4721,
      "Ġvej": 4722,
      "Ġvzru": 4723,
      "Ġrat": 4724,
      "Ġdavu": 4725,
      "ĠakÅ¯": 4726,
      "ĠahÃ½": 4727,
      "dnÃ½m": 4728,
      "ĠÄįar": 4729,
      "Ġvyr": 4730,
      "Ġhledal": 4731,
      "ĠÃ©tÃ¡": 4732,
      "ĠusmÃ¡": 4733,
      "ĠÅ¯ru": 4734,
      "ĠkÅĻik": 4735,
      "ĠbrÃ¡ny": 4736,
      "Ġaze": 4737,
      "ĠbÃŃdy": 4738,
      "fe": 4739,
      "rÃ¡t": 4740,
      "chod": 4741,
      "Ġal": 4742,
      "set": 4743,
      "ĠpracÃŃ": 4744,
      "ĠuhÃ¡": 4745,
      "ĠsvÅ¯": 4746,
      "ĠdÃ¡n": 4747,
      "nulo": 4748,
      "Ġstromu": 4749,
      "ĠhÃ¡je": 4750,
      "Ġpomoci": 4751,
      "Ġnebu": 4752,
      "Ġmohla": 4753,
      "ĠdivÃ©": 4754,
      "Ġklade": 4755,
      "Å¾to": 4756,
      "ĠikÃ¡": 4757,
      "ĠzÃ¡ha": 4758,
      "lÃ¡k": 4759,
      "ĠpÅĻelu": 4760,
      "ĠnemÃ¡m": 4761,
      "Ġdrahou": 4762,
      "ĠnadÄĽj": 4763,
      "Ġctnost": 4764,
      "ĠkÅĻo": 4765,
      "Ġumu": 4766,
      "ĠnadÄĽjÃŃ": 4767,
      "ĠvroucnÄĽ": 4768,
      "ĠÃ¡ry": 4769,
      "ĠSmrt": 4770,
      "Ġhoto": 4771,
      "ĠvzrÅ¯": 4772,
      "ĠvÃ¡Å¡ni": 4773,
      "Ġvyvo": 4774,
      "Ġtaky": 4775,
      "tali": 4776,
      "Ġmilou": 4777,
      "ĠdivnÃ½": 4778,
      "Ġucho": 4779,
      "ĠlnÄĽ": 4780,
      "ĠÃŃjÃŃ": 4781,
      "vla": 4782,
      "ĠDru": 4783,
      "ÄįenÃ©": 4784,
      "hlÃ©d": 4785,
      "is": 4786,
      "Ġnejvy": 4787,
      "cu": 4788,
      "ĠJenom": 4789,
      "AABA": 4790,
      "Ġuha": 4791,
      "ĠjinÃ¡": 4792,
      "Ġprokle": 4793,
      "lenÃ¡": 4794,
      "venÃ©": 4795,
      "ĠozvÄĽ": 4796,
      "ĠzÅ¯stal": 4797,
      "bar": 4798,
      "nili": 4799,
      "ĠÄĽru": 4800,
      "Å¾et": 4801,
      "ĠskrÃ½vÃ¡": 4802,
      "luv": 4803,
      "ĠPÅĻes": 4804,
      "ĠumÄĽ": 4805,
      "ĠaÅ¾ÃŃ": 4806,
      "ĠmoÅĻem": 4807,
      "ĠvÄĽÅ¾ÃŃ": 4808,
      "ĠmocnÃ½": 4809,
      "ĠÅĻady": 4810,
      "Ġdotk": 4811,
      "ĠÅ¾Ã¡dÃ¡": 4812,
      "ĠKÃ©Å¾": 4813,
      "ĠCho": 4814,
      "ĠlidskÃ¡": 4815,
      "tily": 4816,
      "ĠvÅ¡ickni": 4817,
      "dilo": 4818,
      "ĠchvÄĽla": 4819,
      "jÃŃcÃ½": 4820,
      "nnÃ©": 4821,
      "Ġpora": 4822,
      "ĠvznÃ¡Å¡ÃŃ": 4823,
      "ĠdivÃ¡": 4824,
      "Ġvelko": 4825,
      "Ġora": 4826,
      "Ġpurpu": 4827,
      "zÃ¡ch": 4828,
      "Ġdokud": 4829,
      "ĠÄĽnÃ©": 4830,
      "dovat": 4831,
      "rnÃ½m": 4832,
      "ĠvzÃŃ": 4833,
      "ĠhleÄı": 4834,
      "Ġkvete": 4835,
      "ĠzamyÅ¡": 4836,
      "ĠÅ¾elez": 4837,
      "Ġlal": 4838,
      "vak": 4839,
      "Ġdat": 4840,
      "eny": 4841,
      "ĠtuÅ¾": 4842,
      "ĠbÃ¡je": 4843,
      "ĠÅ¾alÃ¡": 4844,
      "ĠupÅĻÃŃm": 4845,
      "ĠmyÅ¡lenky": 4846,
      "ĠÄįnÃ½": 4847,
      "kov": 4848,
      "Ġbolem": 4849,
      "tan": 4850,
      "eno": 4851,
      "ĠkrÃ¡sou": 4852,
      "Ġvrah": 4853,
      "Ġoknem": 4854,
      "ĠskÃ¡le": 4855,
      "ĠVÃ¡clav": 4856,
      "vro": 4857,
      "ĠVÃ½": 4858,
      "ĠbudiÅ¾": 4859,
      "ĠÃ©st": 4860,
      "ĠvzneÅ¡en": 4861,
      "Ġmuk": 4862,
      "ĠmÃŃstÄĽ": 4863,
      "Ġnejs": 4864,
      "ĠtÄĽÅ¾kÃ¡": 4865,
      "Ġznamen": 4866,
      "ĠupÃ¡": 4867,
      "ĠstaÅĻec": 4868,
      "Ġvzdych": 4869,
      "Ġmrou": 4870,
      "Ġumy": 4871,
      "Ġvdo": 4872,
      "ĠÅĻÃŃÅ¡i": 4873,
      "vÅ¡e": 4874,
      "Ġnaho": 4875,
      "ĠusmÃŃvÃ¡": 4876,
      "Ġhon": 4877,
      "ĠtisÃŃ": 4878,
      "ĠstoupÃ¡": 4879,
      "ĠvstÃ¡vÃ¡": 4880,
      "ÅĻÃŃv": 4881,
      "ĠsvÄĽd": 4882,
      "mal": 4883,
      "Ġvyje": 4884,
      "Ġkmet": 4885,
      "ĠÃŃdÃ¡": 4886,
      "ÅĻenÃ¡": 4887,
      "Ġzdro": 4888,
      "lÃŃk": 4889,
      "ĠvÃ½kÅĻik": 4890,
      "ĠmladÃ½ch": 4891,
      "ĠpotÅĻe": 4892,
      "ĠdvÃ©ÅĻe": 4893,
      "tli": 4894,
      "Ġpne": 4895,
      "Ġvolal": 4896,
      "Äįnost": 4897,
      "Ġdit": 4898,
      "ĠtÃ¡hnou": 4899,
      "ĠtnÃŃ": 4900,
      "Ġaru": 4901,
      "ĠodvÃ¡": 4902,
      "rovna": 4903,
      "Ġdok": 4904,
      "Ġrodu": 4905,
      "ĠÅ¾ivÃ©": 4906,
      "Ġodva": 4907,
      "AAAB": 4908,
      "vor": 4909,
      "Ġheb": 4910,
      "ĠkterÃ½m": 4911,
      "Ġlaska": 4912,
      "skne": 4913,
      "Ġzaho": 4914,
      "ĠjinÃ½m": 4915,
      "viny": 4916,
      "ĠjejÃŃch": 4917,
      "Å¡eÅĪ": 4918,
      "ĠzÃ¡ko": 4919,
      "ĠklÃŃnu": 4920,
      "Ġduchem": 4921,
      "Ġpadla": 4922,
      "ĠÄįase": 4923,
      "Ġkruhu": 4924,
      "Ġrosy": 4925,
      "ĠsvÄĽtlem": 4926,
      "tvÃ¡": 4927,
      "Ġplou": 4928,
      "rala": 4929,
      "ĠÃŃÅĻe": 4930,
      "Ġdli": 4931,
      "Ġiky": 4932,
      "ĠiÄįÃŃ": 4933,
      "hala": 4934,
      "Ġplyne": 4935,
      "rovÃ©": 4936,
      "ĠplnÃŃ": 4937,
      "ĠcÃŃle": 4938,
      "ĠchvÄĽjÃŃ": 4939,
      "ĠstÅĻÃŃbro": 4940,
      "ĠijÃŃ": 4941,
      "Ġodkud": 4942,
      "vÅ¯r": 4943,
      "ĠrozechvÄĽ": 4944,
      "nesl": 4945,
      "ĠvlÃ¡dne": 4946,
      "tec": 4947,
      "ĠvÄĽl": 4948,
      "ĠpÅĻiÅ¡li": 4949,
      "ĠplÃ¡Å¡Å¥": 4950,
      "ĠtrÅ¯n": 4951,
      "ĠpÅĻil": 4952,
      "Ġvzlet": 4953,
      "Ġtehdy": 4954,
      "Ġlabu": 4955,
      "Ġnejsem": 4956,
      "ĠkrÃ¡snou": 4957,
      "ĠdennÃŃ": 4958,
      "ĠTakto": 4959,
      "fy": 4960,
      "ĠPÄĽ": 4961,
      "ĠneznÃ¡": 4962,
      "ĠmanÄĽ": 4963,
      "ĠÄįernou": 4964,
      "ĠÅłtÄĽ": 4965,
      "ĠskrÃ¡nÃŃ": 4966,
      "vaje": 4967,
      "ĠÅ¡lo": 4968,
      "Ġprsty": 4969,
      "ĠchvÃŃlÃŃ": 4970,
      "ĠvÃŃtÄĽzstvÃŃ": 4971,
      "ĠdÄĽlÃ¡": 4972,
      "venÃ½": 4973,
      "ĠvaÅ¡ÃŃ": 4974,
      "Ġosy": 4975,
      "ĠnejvÃŃc": 4976,
      "Ġmluvit": 4977,
      "ĠkvÃŃlÃŃ": 4978,
      "Ġsve": 4979,
      "ĠvÄĽrnÄĽ": 4980,
      "ĠzÃ¡kon": 4981,
      "ĠpÃ¡s": 4982,
      "ĠsÃŃnÄĽ": 4983,
      "ĠpamÄĽti": 4984,
      "ĠVen": 4985,
      "ĠjednÃŃm": 4986,
      "chÃ¡ch": 4987,
      "Ġnitro": 4988,
      "ĠhnÃŃzdo": 4989,
      "Ġmem": 4990,
      "Ġdumy": 4991,
      "ĠbÃŃdu": 4992,
      "Ġnecha": 4993,
      "ĠplnÃ¡": 4994,
      "Ġzt": 4995,
      "Ġmas": 4996,
      "Ġrce": 4997,
      "ĠjÃ¡sÃ¡": 4998,
      "ĠtrÃ¡vy": 4999,
      "ĠÅĻada": 5000,
      "ĠÃºdy": 5001,
      "ĠÅĻec": 5002,
      "Ġzahy": 5003,
      "ÅĻice": 5004,
      "ĠposlÃ©z": 5005,
      "nÅ¯m": 5006,
      "ĠÅ¾itÃŃm": 5007,
      "ĠNes": 5008,
      "ĠstÃ¡li": 5009,
      "ĠptÃ¡kÅ¯": 5010,
      "ĠzvÄĽst": 5011,
      "pnÄĽ": 5012,
      "ĠÄĽky": 5013,
      "Ġzbled": 5014,
      "ĠskrÃ¡nÄĽ": 5015,
      "Ġperly": 5016,
      "ĠkÅĻesÅ¥": 5017,
      "ĠÃ¡ru": 5018,
      "nuli": 5019,
      "Å¡ila": 5020,
      "Ġara": 5021,
      "Ġber": 5022,
      "Ġmech": 5023,
      "ÄįkÅ¯": 5024,
      "ĠbdÃŃ": 5025,
      "Ġlesku": 5026,
      "ĠstÃ¡ÅĻÃŃ": 5027,
      "ĠJiÅĻÃŃ": 5028,
      "Ġpokry": 5029,
      "Ġsnil": 5030,
      "Ġsouse": 5031,
      "ĠmrakÅ¯": 5032,
      "DC": 5033,
      "jdou": 5034,
      "ĠMuÅ¾": 5035,
      "ĠdlouhÃ½ch": 5036,
      "ĠzdÃŃ": 5037,
      "Ġau": 5038,
      "ĠÅ¡ka": 5039,
      "ĠmuÅ¾Å¯": 5040,
      "ĠokamÅ¾ik": 5041,
      "ĠnÃ©": 5042,
      "ĠÄįarov": 5043,
      "ĠtuÅ¡ÃŃ": 5044,
      "ÄĽte": 5045,
      "ĠbolestÃŃ": 5046,
      "ĠÄįelem": 5047,
      "Ġradu": 5048,
      "pce": 5049,
      "Ġuta": 5050,
      "ĠÃ¡Å¡ÃŃ": 5051,
      "Ġbyt": 5052,
      "ĠkÅ¯ÅĪ": 5053,
      "ĠtkÃ¡": 5054,
      "ĠÄıas": 5055,
      "krÃ¡snÄĽjÅ¡ÃŃ": 5056,
      "ĠJsme": 5057,
      "ĠmoÅĻ": 5058,
      "ABCA": 5059,
      "ĠsmÃ¡l": 5060,
      "ĠinÃ©": 5061,
      "Ġletem": 5062,
      "klady": 5063,
      "Ġhce": 5064,
      "ĠTou": 5065,
      "ĠpotÃ¡": 5066,
      "ĠetÃ¡": 5067,
      "ĠÃºz": 5068,
      "zÅ¯": 5069,
      "ĠodmÄĽ": 5070,
      "Ġtvoji": 5071,
      "ĠzÃ¡padu": 5072,
      "hostej": 5073,
      "ĠÅ¡ak": 5074,
      "ÅĻena": 5075,
      "ĠÄįÃŃÅ¡e": 5076,
      "ĠNÄĽm": 5077,
      "Ġpozdrav": 5078,
      "ĠSotva": 5079,
      "ĠrÃ¡ji": 5080,
      "ĠrÃ¡mÄĽ": 5081,
      "Ġpusti": 5082,
      "rovi": 5083,
      "dec": 5084,
      "Ġvyko": 5085,
      "dÄĽlÃ¡": 5086,
      "Ġvot": 5087,
      "pky": 5088,
      "ĠdlÃ¡": 5089,
      "ĠprostÃ©": 5090,
      "ĠÃºto": 5091,
      "ĠtvÅ¯": 5092,
      "ĠvidÃŃÅ¡": 5093,
      "Ġshas": 5094,
      "ĠÅ¡pe": 5095,
      "ÅĪÅ¯": 5096,
      "Ġrozpu": 5097,
      "ĠÅ¾es": 5098,
      "Ġyli": 5099,
      "ĠÄĮa": 5100,
      "ABCCDD": 5101,
      "Ġklobou": 5102,
      "ĠÃŃlÃ¡": 5103,
      "cÃŃho": 5104,
      "Ġdneska": 5105,
      "ĠÅ¾enÄĽ": 5106,
      "letu": 5107,
      "Ġeku": 5108,
      "nut": 5109,
      "ĠÄĽhu": 5110,
      "dÄĽji": 5111,
      "Ġspa": 5112,
      "ĠNebe": 5113,
      "ĠhÅ¯": 5114,
      "ĠivÃŃ": 5115,
      "luje": 5116,
      "Ġpekla": 5117,
      "ĠvÄĽÄįnÃ¡": 5118,
      "Ġuby": 5119,
      "hovÃ©": 5120,
      "Ġrosa": 5121,
      "Ġkosti": 5122,
      "ĠÅ¾havÃ½": 5123,
      "Ġopoj": 5124,
      "tl": 5125,
      "ĠhonÃŃ": 5126,
      "ĠkÃ¡Å¾e": 5127,
      "ĠvnitÅĻ": 5128,
      "ĠÃ¡Äįi": 5129,
      "tÄĽla": 5130,
      "ĠSou": 5131,
      "Ġstav": 5132,
      "ĠPrav": 5133,
      "ĠÅ¾havÃ©": 5134,
      "ĠnuÅ¾": 5135,
      "Ġjesti": 5136,
      "pÄĽv": 5137,
      "Ġobzoru": 5138,
      "rÄįÃŃ": 5139,
      "ĠhÃ¡zÃŃ": 5140,
      "ĠzpÄĽvy": 5141,
      "Ġmladi": 5142,
      "Ġnemoh": 5143,
      "blesk": 5144,
      "zÃŃch": 5145,
      "ĠrnÃ¡": 5146,
      "ĠJakÃ½": 5147,
      "ĠnazpÄĽt": 5148,
      "hlou": 5149,
      "ĠzbranÄĽ": 5150,
      "tilo": 5151,
      "ĠchladnÃ½": 5152,
      "zenÃŃ": 5153,
      "ĠPu": 5154,
      "ĠÄįinÃŃ": 5155,
      "ĠNÃ¡m": 5156,
      "ĠÅ¾ert": 5157,
      "Ġdruhu": 5158,
      "Ġslzou": 5159,
      "bled": 5160,
      "ĠÄįekal": 5161,
      "rostÅĻed": 5162,
      "ĠVÅ¡ech": 5163,
      "ĠSmu": 5164,
      "ĠvÄĽnce": 5165,
      "ĠtmavÃ½": 5166,
      "lel": 5167,
      "ĠstÅ¯l": 5168,
      "ĠvÄĽÅ¾": 5169,
      "Ġlny": 5170,
      "ĠodpovÃŃ": 5171,
      "ĠsedÃ¡": 5172,
      "ĠuvÃŃ": 5173,
      "ĠckÃ½": 5174,
      "ĠMl": 5175,
      "Ġstanul": 5176,
      "ĠÅĻev": 5177,
      "Ġuza": 5178,
      "ĠlÃŃn": 5179,
      "ĠlÃŃcÃŃ": 5180,
      "ĠmrtvÃ½": 5181,
      "ĠprÃ¡zdno": 5182,
      "Ġvyk": 5183,
      "Ġstruny": 5184,
      "ĠeÅĻe": 5185,
      "ĠjeÅ¡": 5186,
      "Ġjdi": 5187,
      "Ġzky": 5188,
      "ĠnaÅ¡em": 5189,
      "Ġtopo": 5190,
      "ĠVÅ¯": 5191,
      "ĠbÃŃda": 5192,
      "Ġtmu": 5193,
      "ĠJuÅ¾": 5194,
      "Ġclo": 5195,
      "ĠVÅ¡ecko": 5196,
      "ĠvdÄĽk": 5197,
      "vno": 5198,
      "Ġtri": 5199,
      "stnÄĽ": 5200,
      "ĠTÃ¡": 5201,
      "ĠÃŃho": 5202,
      "ĠpÅĻÃŃmo": 5203,
      "ĠpyÅ¡": 5204,
      "ol": 5205,
      "ĠtÄĽÅ¡ÃŃ": 5206,
      "ĠlÃŃm": 5207,
      "pec": 5208,
      "ĠtichÃ©m": 5209,
      "Ġplod": 5210,
      "ĠLÃ¡ska": 5211,
      "Ġlit": 5212,
      "Ġhluk": 5213,
      "Ġdomov": 5214,
      "nej": 5215,
      "ĠÅ¡kle": 5216,
      "Å¾eb": 5217,
      "ĠdÃ¡Å¡": 5218,
      "Ġlka": 5219,
      "snou": 5220,
      "Ġrostou": 5221,
      "ĠvznÄĽ": 5222,
      "Ġvzly": 5223,
      "Ġskrom": 5224,
      "Ġstrachu": 5225,
      "ĠvaÅ¡ich": 5226,
      "ĠsmutnÃ¡": 5227,
      "prav": 5228,
      "nci": 5229,
      "nutÃŃm": 5230,
      "ĠvÃŃÅĻÃŃ": 5231,
      "ĠJej": 5232,
      "ĠzvonÅ¯": 5233,
      "ĠzbraÅĪ": 5234,
      "vka": 5235,
      "Ġaj": 5236,
      "Äįas": 5237,
      "mech": 5238,
      "ĠdÃŃÅ¡": 5239,
      "ĠÄįistÃ¡": 5240,
      "Ġrtu": 5241,
      "pek": 5242,
      "ĠbratÅĻe": 5243,
      "ĠcelÃ©m": 5244,
      "Ġbarvy": 5245,
      "tly": 5246,
      "Ġletech": 5247,
      "ĠkonÃŃ": 5248,
      "ĠkrÃ¡tkÃ½": 5249,
      "Ġsnech": 5250,
      "ĠEj": 5251,
      "ĠtÃ½m": 5252,
      "ily": 5253,
      "ĠvÃŃtÃ¡": 5254,
      "ĠdÃŃl": 5255,
      "ĠalÃ©": 5256,
      "ĠmÃ½": 5257,
      "Ġuny": 5258,
      "nese": 5259,
      "najÃŃ": 5260,
      "ĠpÅĻÃŃrody": 5261,
      "ĠzeÄı": 5262,
      "ĠesÃ¡": 5263,
      "Ġner": 5264,
      "ĠuÅ¾i": 5265,
      "skla": 5266,
      "ĠpoznÃ¡": 5267,
      "Ġpadl": 5268,
      "ĠdÃ©Å¡Å¥": 5269,
      "ĠzrakÅ¯": 5270,
      "ĠplÃ¡Äįem": 5271,
      "ĠPou": 5272,
      "byl": 5273,
      "ĠÅĻit": 5274,
      "Ġdky": 5275,
      "ĠsÃ½": 5276,
      "Ġzuby": 5277,
      "ĠNynÃŃ": 5278,
      "ckÃ¡": 5279,
      "ĠpÄĽstÃŃ": 5280,
      "neme": 5281,
      "ĠzvÃŃÅĻe": 5282,
      "ĠÃºc": 5283,
      "ĠÃºt": 5284,
      "ĠvelikÃ©": 5285,
      "ĠdomÃ¡": 5286,
      "ĠletnÃŃ": 5287,
      "ÅĻily": 5288,
      "ĠkÅĻÃŃdlem": 5289,
      "Ġbok": 5290,
      "ĠprchÃ¡": 5291,
      "ĠvlnÃŃ": 5292,
      "Ġspokojen": 5293,
      "ĠÄįlovÄĽku": 5294,
      "Ġysi": 5295,
      "ĠslzÃ¡ch": 5296,
      "Ġhovor": 5297,
      "chvÄĽ": 5298,
      "Äįina": 5299,
      "ĠÅ¡edÃ½": 5300,
      "Ġkri": 5301,
      "Ġklesla": 5302,
      "ĠZla": 5303,
      "Ġmechu": 5304,
      "ĠBÃ¡": 5305,
      "ĠÅ¾ivÃ½": 5306,
      "ĠbuÅ¡ÃŃ": 5307,
      "ĠmÃ¡ti": 5308,
      "Ġdivy": 5309,
      "ĠmÅĻe": 5310,
      "Ġobou": 5311,
      "ĠÅĻÃŃÅ¾": 5312,
      "loval": 5313,
      "ĠvÃ¡bÃŃ": 5314,
      "ĠvlnÃ¡ch": 5315,
      "Ġnen": 5316,
      "vÃŃÅ¡": 5317,
      "Ġnutno": 5318,
      "ĠvÄĽdÄĽl": 5319,
      "ĠplÃ¡nÃŃ": 5320,
      "ĠdÄĽtem": 5321,
      "ĠÅłe": 5322,
      "Ġmiloval": 5323,
      "ĠtÅ¡ÃŃ": 5324,
      "ĠÅ¡il": 5325,
      "Ġhrdin": 5326,
      "ĠnÃ¡dhe": 5327,
      "raje": 5328,
      "Ġtyto": 5329,
      "ĠtÄĽÅ¾kou": 5330,
      "ĠjÃŃmÃ¡": 5331,
      "Ġpomalu": 5332,
      "ĠDuch": 5333,
      "Ġlhostej": 5334,
      "vl": 5335,
      "ĠÃ¡my": 5336,
      "Ġcitu": 5337,
      "ĠpoÅ¾ehnÃ¡nÃŃ": 5338,
      "ĠÅ¥": 5339,
      "Å¾ek": 5340,
      "ĠchudÃ¡": 5341,
      "ĠjakÃ½s": 5342,
      "Ġsev": 5343,
      "Ġmalou": 5344,
      "ĠÅĺek": 5345,
      "ĠÅ¡Å¥asten": 5346,
      "Ġnetu": 5347,
      "ĠnoÅĻÃŃ": 5348,
      "ĠsmÃŃchem": 5349,
      "Ġsmrtel": 5350,
      "hni": 5351,
      "zat": 5352,
      "ĠpojÃŃ": 5353,
      "ĠDÃ¡l": 5354,
      "ĠmnÃŃ": 5355,
      "ĠneÅ¡tÄĽ": 5356,
      "ĠDlou": 5357,
      "Ġjiskry": 5358,
      "lili": 5359,
      "Ġobo": 5360,
      "ĠjedinÃ¡": 5361,
      "ĠhrozÃŃ": 5362,
      "ĠÅ¾Ã¡rem": 5363,
      "jeme": 5364,
      "ĠkoneÄįnÄĽ": 5365,
      "ĠhnutÃŃ": 5366,
      "mot": 5367,
      "Ġkomnat": 5368,
      "ĠzaznÃŃ": 5369,
      "ĠpÃŃsku": 5370,
      "ĠcÃŃli": 5371,
      "ĠlÃ©pe": 5372,
      "Ġsmutno": 5373,
      "Ġmyslil": 5374,
      "Ġleskem": 5375,
      "ĠpÅ¯jde": 5376,
      "sat": 5377,
      "Ġztr": 5378,
      "Ġpodi": 5379,
      "ĠkrÄį": 5380,
      "ÅĻenÃ½ch": 5381,
      "ĠvlÃ¡d": 5382,
      "Ġpoesie": 5383,
      "it": 5384,
      "ĠnovÃ½m": 5385,
      "ĠznamenÃŃ": 5386,
      "Ġnach": 5387,
      "Ġuho": 5388,
      "ĠvÄĽcÃŃ": 5389,
      "ĠZrak": 5390,
      "ĠrozkoÅ¡e": 5391,
      "ĠKvÄĽt": 5392,
      "ĠnesmÄĽ": 5393,
      "nicÃŃ": 5394,
      "ĠZat": 5395,
      "huje": 5396,
      "ABBX": 5397,
      "ĠvÃ¡Å¡eÅĪ": 5398,
      "Ġhyne": 5399,
      "Ġdaleka": 5400,
      "ĠKristus": 5401,
      "ĠvÄĽrnÃ½": 5402,
      "ÄįenÃ½": 5403,
      "Ġjinoch": 5404,
      "stek": 5405,
      "Ġdcera": 5406,
      "ĠhrÅ¯za": 5407,
      "Ġuly": 5408,
      "ĠcelÃ½m": 5409,
      "stav": 5410,
      "ĠkeÅĻ": 5411,
      "ĠSu": 5412,
      "mÃ¡nÃŃ": 5413,
      "Ġsal": 5414,
      "ĠÄĮlovÄĽ": 5415,
      "Ġvno": 5416,
      "Ġzdy": 5417,
      "CB": 5418,
      "Ġimi": 5419,
      "niti": 5420,
      "ary": 5421,
      "ĠnejkrÃ¡snÄĽjÅ¡ÃŃ": 5422,
      "ĠsÃŃni": 5423,
      "Ġpoza": 5424,
      "ĠmlÃ¡d": 5425,
      "ĠbojovnÃŃ": 5426,
      "ÄįnÃ©m": 5427,
      "Ġjede": 5428,
      "ĠzvuÄįÃŃ": 5429,
      "Ġpor": 5430,
      "Ġdol": 5431,
      "Ġrozma": 5432,
      "Ġpozo": 5433,
      "ĠzahrÃ¡": 5434,
      "ĠmnohÃ¡": 5435,
      "ĠBylo": 5436,
      "Ġproudem": 5437,
      "ter": 5438,
      "AXBCBC": 5439,
      "nt": 5440,
      "ĠOna": 5441,
      "hali": 5442,
      "ĠÅ¡ero": 5443,
      "ĠtajnÄĽ": 5444,
      "Ġzbro": 5445,
      "ĠplaÅ¡e": 5446,
      "ĠpÄĽnÃŃ": 5447,
      "ĠotvÃŃrÃ¡": 5448,
      "ĠkrÃ¡snÄĽ": 5449,
      "ĠdivnÄĽ": 5450,
      "Ġsek": 5451,
      "ĠpouÅ¡ti": 5452,
      "Å¾ena": 5453,
      "cou": 5454,
      "ĠhvÃŃ": 5455,
      "ĠvnÄĽ": 5456,
      "ĠvnÃ©": 5457,
      "ĠzavÃ¡": 5458,
      "ĠrdÃŃ": 5459,
      "Ġkomo": 5460,
      "ĠbÃŃt": 5461,
      "ĠkÅĻiv": 5462,
      "ĠkÅĻiÄįÃŃ": 5463,
      "dÄĽti": 5464,
      "Ġvry": 5465,
      "Ġhlav": 5466,
      "Å¾nÃ¡": 5467,
      "Ġex": 5468,
      "Ġeka": 5469,
      "Ġnejsou": 5470,
      "Ġcity": 5471,
      "ĠĠĠ": 5472,
      "Ġzdali": 5473,
      "fo": 5474,
      "Å¡tÃŃm": 5475,
      "Ġdci": 5476,
      "livÃ¡": 5477,
      "ĠvÅ¡udy": 5478,
      "Ġjablo": 5479,
      "Ġuto": 5480,
      "cie": 5481,
      "ĠnejvÄĽt": 5482,
      "Ã©mu": 5483,
      "jÃŃcÃŃch": 5484,
      "ĠsvatÃ½ch": 5485,
      "Ġvrat": 5486,
      "ĠhrÃ¡l": 5487,
      "ĠosÅ¥": 5488,
      "nÄĽnÃ©": 5489,
      "nÃ¡ct": 5490,
      "Ġvzala": 5491,
      "ĠkorÃ¡": 5492,
      "ĠzdÃ¡l": 5493,
      "ĠChtÄĽl": 5494,
      "Ġhat": 5495,
      "telem": 5496,
      "ĠdunÃŃ": 5497,
      "Ġnesla": 5498,
      "ĠvÄĽÄįnou": 5499,
      "ĠhroznÃ½": 5500,
      "Ġztratil": 5501,
      "dna": 5502,
      "ĠinÃŃ": 5503,
      "novi": 5504,
      "ĠleÅ¾el": 5505,
      "Ġobe": 5506,
      "ĠÅ¡eptÃ¡": 5507,
      "ĠverÅ¡e": 5508,
      "Ġblankyt": 5509,
      "Ġpovin": 5510,
      "Ġnesta": 5511,
      "dalo": 5512,
      "ĠpÃ¡nem": 5513,
      "Ġvrch": 5514,
      "tlo": 5515,
      "lala": 5516,
      "ĠplÃ¡l": 5517,
      "ĠNuÅ¾e": 5518,
      "jo": 5519,
      "kam": 5520,
      "Ġlec": 5521,
      "Ġchvilku": 5522,
      "ĠTvÃ½ch": 5523,
      "Ġhlavi": 5524,
      "Ġpel": 5525,
      "gra": 5526,
      "jÃŃÅ¾": 5527,
      "Ġmile": 5528,
      "ĠsvÄĽdomÃŃ": 5529,
      "ĠkrÅ¯pÄĽj": 5530,
      "Ġzma": 5531,
      "ĠneÅ¡": 5532,
      "Ġskle": 5533,
      "ĠdÄĽvy": 5534,
      "Ġhvozd": 5535,
      "ĠtÄĽmi": 5536,
      "ĠÄįerst": 5537,
      "ĠpustÃ©": 5538,
      "Ġpozor": 5539,
      "ĠÅ¡ÃŃp": 5540,
      "ĠspÃŃcÃŃ": 5541,
      "Ġzvyk": 5542,
      "Ġpochyb": 5543,
      "Ġklas": 5544,
      "Ġveleb": 5545,
      "Ġracho": 5546,
      "Ġpeklo": 5547,
      "ĠbÄĽlost": 5548,
      "ĠtatÃŃ": 5549,
      "ĠcÃ¡": 5550,
      "ĠobÃŃ": 5551,
      "ĠBra": 5552,
      "Ġticha": 5553,
      "Ġlna": 5554,
      "Ġviny": 5555,
      "AABX": 5556,
      "ĠÃ¡dy": 5557,
      "Ġtoto": 5558,
      "Ġbychom": 5559,
      "ĠrÃ©": 5560,
      "ĠPrÃ¡": 5561,
      "ĠradÄĽj": 5562,
      "ĠlÅ¯nÄĽ": 5563,
      "bÅĻe": 5564,
      "tÃ©m": 5565,
      "ĠmlÃ©": 5566,
      "ĠprosÃŃ": 5567,
      "Ġdub": 5568,
      "ĠvÃ¡nek": 5569,
      "ĠvaÅ¡i": 5570,
      "ĠVeli": 5571,
      "ĠonÅ¯": 5572,
      "ĠpapeÅ¾": 5573,
      "ĠÅĻÃŃkÃ¡": 5574,
      "ĠjemuÅ¾": 5575,
      "Ġmlh": 5576,
      "Ġmilio": 5577,
      "Ġnitra": 5578,
      "ĠlÃ¡l": 5579,
      "ĠDuÅ¡e": 5580,
      "Ġpropasti": 5581,
      "ĠÅ½ivot": 5582,
      "bÅ¯h": 5583,
      "Ġnesko": 5584,
      "Ġvodo": 5585,
      "AXBCCB": 5586,
      "Ġmladosti": 5587,
      "dlÃ©": 5588,
      "Ġjez": 5589,
      "tin": 5590,
      "nie": 5591,
      "ĠrozlÃ©": 5592,
      "ĠnÄĽko": 5593,
      "Ġnaklo": 5594,
      "Ġspla": 5595,
      "Ġpri": 5596,
      "ĠpouÅ¡tÃŃ": 5597,
      "pili": 5598,
      "Ġohrom": 5599,
      "ĠViz": 5600,
      "ĠmyÅ¡lÃ©nky": 5601,
      "ĠomÃŃ": 5602,
      "ĠEvro": 5603,
      "ĠverÅ¡": 5604,
      "ĠnejvyÅ¡Å¡ÃŃ": 5605,
      "Ġhnal": 5606,
      "ĠutÃ½": 5607,
      "ĠvyÅ¡Å¡ÃŃ": 5608,
      "pÃŃÅ¡": 5609,
      "ĠStÃŃ": 5610,
      "ÅĪuje": 5611,
      "ĠvodÄĽ": 5612,
      "ĠÅ¾ivotÄĽ": 5613,
      "ĠtrhÃ¡": 5614,
      "Ġnechal": 5615,
      "ĠpravdÄĽ": 5616,
      "Ġzmize": 5617,
      "ĠrÃ¡di": 5618,
      "Ġtomto": 5619,
      "Ġctnosti": 5620,
      "ĠnÃŃmÅ¾": 5621,
      "leÅĪ": 5622,
      "ĠÃ¡ce": 5623,
      "vodu": 5624,
      "ĠÄĽnÃ½": 5625,
      "ĠsÃŃle": 5626,
      "ĠsamÃ½": 5627,
      "ĠpozdnÃŃ": 5628,
      "ĠMou": 5629,
      "ĠstÃŃnem": 5630,
      "Ġkalich": 5631,
      "Äįna": 5632,
      "ĠnaÅĻÃŃ": 5633,
      "ĠÅ¾u": 5634,
      "ĠspÃ¡nek": 5635,
      "Ġpohy": 5636,
      "Ġsice": 5637,
      "ĠÅ¡tÄĽstÃŃm": 5638,
      "Ġzahal": 5639,
      "Ġmladou": 5640,
      "ĠhlÃ©": 5641,
      "ĠstÅĻÃ¡": 5642,
      "Ġdoz": 5643,
      "Ġhore": 5644,
      "ĠlnÃ¡": 5645,
      "ĠcizÃŃch": 5646,
      "tÅĻÃŃ": 5647,
      "ĠvÃŃte": 5648,
      "ĠBude": 5649,
      "Ġhalu": 5650,
      "ĠzachvÄĽ": 5651,
      "Ġjinou": 5652,
      "Ġrmu": 5653,
      "dÃ¡l": 5654,
      "ĠhÃ¡ji": 5655,
      "Ġbisku": 5656,
      "ĠmarnÃ©": 5657,
      "ĠvÅ¡ednÃŃ": 5658,
      "Ġvodou": 5659,
      "stoj": 5660,
      "ĠhrdÃ©": 5661,
      "ĠHleÄı": 5662,
      "Ġsmysl": 5663,
      "ĠJaro": 5664,
      "ĠzÅĻela": 5665,
      "ĠMari": 5666,
      "ĠzaÄįal": 5667,
      "ĠÄĽlÃŃ": 5668,
      "Ġstisk": 5669,
      "AAAA": 5670,
      "ĠzlatÃ½m": 5671,
      "ĠtanÄįÃŃ": 5672,
      "ÅĻiti": 5673,
      "ĠsrdcÃŃch": 5674,
      "moc": 5675,
      "Ġbral": 5676,
      "pÅ¯so": 5677,
      "tce": 5678,
      "ĠchystÃ¡": 5679,
      "Ġchud": 5680,
      "mÃŃm": 5681,
      "Ġzdroj": 5682,
      "ĠzÃ¡ÅĻÃŃcÃŃ": 5683,
      "ĠvlÃŃdnÄĽ": 5684,
      "Ġdnech": 5685,
      "pala": 5686,
      "BB": 5687,
      "ĠkvÃ©": 5688,
      "Ġmet": 5689,
      "ĠhrajÃŃ": 5690,
      "ĠnnÃ½": 5691,
      "ÄįkÃ¡ch": 5692,
      "vÃ¡r": 5693,
      "ĠÅ¾it": 5694,
      "ĠpÅĻÃŃteli": 5695,
      "ĠMora": 5696,
      "lko": 5697,
      "XAAB": 5698,
      "ĠctÃŃ": 5699,
      "Ġbratry": 5700,
      "Ġvtip": 5701,
      "pÅĻÃŃ": 5702,
      "ĠdomÄĽ": 5703,
      "ĠSa": 5704,
      "ĠkterÃ½ch": 5705,
      "Ġplameny": 5706,
      "Ġeky": 5707,
      "ĠnechtÄĽl": 5708,
      "ĠhroznÃ©": 5709,
      "Ġade": 5710,
      "Ġtamo": 5711,
      "ĠtÅĻpytÃŃ": 5712,
      "ĠdrobnÃ©": 5713,
      "svit": 5714,
      "ÄįnÃŃm": 5715,
      "ĠeÅĻi": 5716,
      "ĠbrÃ¡nÃŃ": 5717,
      "ĠvelikÃ¡": 5718,
      "plo": 5719,
      "Ġynu": 5720,
      "ĠnÃ¡rodu": 5721,
      "Ġvzdechy": 5722,
      "nati": 5723,
      "Ġlav": 5724,
      "Ġtemnou": 5725,
      "ĠÅ¡ÃŃji": 5726,
      "ĠTÅĻe": 5727,
      "Ġnebesa": 5728,
      "Ġusly": 5729,
      "ĠmÅ¾ik": 5730,
      "ĠkrÃ¡lÅ¯": 5731,
      "ĠkrÃ¡lem": 5732,
      "ĠJakÃ¡": 5733,
      "ĠzpÃŃvat": 5734,
      "Ġdobrou": 5735,
      "ĠznÃ¡mÃ½": 5736,
      "ĠÄıÃ¡bel": 5737,
      "ĠorÅ¯": 5738,
      "Ġneji": 5739,
      "Ġnalez": 5740,
      "ĠPÅĻem": 5741,
      "ĠÄįeho": 5742,
      "ĠjasnÃ¡": 5743,
      "ĠTicho": 5744,
      "ĠÅĻen": 5745,
      "ĠTÃŃm": 5746,
      "vic": 5747,
      "Äįiti": 5748,
      "Ġbratra": 5749,
      "ĠtÃ¡k": 5750,
      "Ġsvobodu": 5751,
      "ĠzvÃ¡": 5752,
      "nÃŃci": 5753,
      "ĠhostÃŃ": 5754,
      "ĠvÄĽrnÃ©": 5755,
      "ĠstokrÃ¡t": 5756,
      "Ġzrovna": 5757,
      "Ġodtud": 5758,
      "ĠdivÄĽ": 5759,
      "Ġhledat": 5760,
      "chÃ¡m": 5761,
      "ĠspÄĽchÃ¡": 5762,
      "ĠperutÃŃ": 5763,
      "ĠpastÃ½": 5764,
      "Ġvodu": 5765,
      "Ġpozem": 5766,
      "Ġplen": 5767,
      "ĠneÃº": 5768,
      "ĠÃŃlu": 5769,
      "Ġrozlo": 5770,
      "Ġsluje": 5771,
      "ĠRÃ¡d": 5772,
      "Å¾stvÃŃ": 5773,
      "Ġbli": 5774,
      "nÄĽte": 5775,
      "Ġobej": 5776,
      "Ġslzu": 5777,
      "Ġslunko": 5778,
      "Ġhavra": 5779,
      "ĠsamotÄĽ": 5780,
      "Ġkouzlem": 5781,
      "Ġzvolal": 5782,
      "Ġteskno": 5783,
      "ĠneÅ¡tÄĽstÃŃ": 5784,
      "Ġsten": 5785,
      "ĠÄĽsÃŃ": 5786,
      "lily": 5787,
      "lÃ¡nÃŃ": 5788,
      "Ġzahrad": 5789,
      "ĠÄįtyÅĻi": 5790,
      "vnÃ©": 5791,
      "kop": 5792,
      "ĠsluÅ¡ÃŃ": 5793,
      "Ġzasmu": 5794,
      "ĠvzpomÃŃnÃ¡m": 5795,
      "ĠKre": 5796,
      "ĠzlatÃŃ": 5797,
      "ĠsmÄĽs": 5798,
      "ĠzbranÃŃ": 5799,
      "nkem": 5800,
      "svi": 5801,
      "Ġast": 5802,
      "ĠÃºtro": 5803,
      "Ġchudo": 5804,
      "ĠmanÅ¾el": 5805,
      "Ġhry": 5806,
      "ÅĻilo": 5807,
      "ĠÅ¾er": 5808,
      "Ġknihy": 5809,
      "ĠÄĽda": 5810,
      "ari": 5811,
      "Ġminul": 5812,
      "ĠtrÃ¡va": 5813,
      "AXA": 5814,
      "jala": 5815,
      "lÃŃÅ¡": 5816,
      "Ġdel": 5817,
      "ĠMÄĽl": 5818,
      "ĠJestli": 5819,
      "ĠpenÃŃ": 5820,
      "Ġnesl": 5821,
      "ĠklÃŃnÄĽ": 5822,
      "Ġkorunu": 5823,
      "ĠplÃ©mÄĽ": 5824,
      "Ġjme": 5825,
      "Ã½t": 5826,
      "chÃ¡zel": 5827,
      "ĠvÅ¡echen": 5828,
      "ĠPraze": 5829,
      "ĠzlatÃ©m": 5830,
      "es": 5831,
      "vci": 5832,
      "ĠtÃ©mÄĽ": 5833,
      "bky": 5834,
      "Ġplesu": 5835,
      "ĠmlÃ¡den": 5836,
      "sledy": 5837,
      "ABBCD": 5838,
      "Ġmali": 5839,
      "ĠÃºro": 5840,
      "ĠKolem": 5841,
      "ĠperuÅ¥": 5842,
      "ĠpÅ¯vab": 5843,
      "tnÃ½ch": 5844,
      "alou": 5845,
      "Ġbezpe": 5846,
      "Ġbru": 5847,
      "vilo": 5848,
      "ĠpouÅ¡tÄĽ": 5849,
      "ĠzvÄĽda": 5850,
      "ĠBi": 5851,
      "stoupil": 5852,
      "ĠkÅ¯m": 5853,
      "razi": 5854,
      "ĠchudÃ½": 5855,
      "Ġslast": 5856,
      "pomÃŃnÃ¡": 5857,
      "pÅĻÃ¡": 5858,
      "Ġzachy": 5859,
      "Ġvypu": 5860,
      "Ġorel": 5861,
      "ĠpouÅ¡Å¥": 5862,
      "ĠVes": 5863,
      "ĠvzdychÃ¡": 5864,
      "ĠmÄĽsÃŃce": 5865,
      "ĠruÄı": 5866,
      "ĠbÃŃlÃ©m": 5867,
      "ĠpohÃ¡r": 5868,
      "ĠvonnÃ½": 5869,
      "dlen": 5870,
      "ĠuÅ¾e": 5871,
      "Ġvinu": 5872,
      "bral": 5873,
      "ĠdÃ¡vnÃ©": 5874,
      "Ġbledou": 5875,
      "Ġsvobody": 5876,
      "Ġtrest": 5877,
      "ĠpoutnÃŃk": 5878,
      "Ġpopel": 5879,
      "ĠarÃ½": 5880,
      "Ġher": 5881,
      "ĠÅ¾Ã¡ru": 5882,
      "Ġvojsko": 5883,
      "ĠpolÃŃch": 5884,
      "Ġri": 5885,
      "vedla": 5886,
      "ĠpÅ¯du": 5887,
      "ĠÅ¾ivotu": 5888,
      "ckou": 5889,
      "Ġtne": 5890,
      "ron": 5891,
      "ĠvÅ¡eli": 5892,
      "ĠvÄĽtrÅ¯": 5893,
      "ĠzbÄĽ": 5894,
      "ĠdÃŃtky": 5895,
      "ĠlÃŃbal": 5896,
      "Ġchodil": 5897,
      "ĠmÅ¯Å¾eÅ¡": 5898,
      "zdÄĽ": 5899,
      "ĠdvÅ¯r": 5900,
      "Ġkov": 5901,
      "ĠyÅ¡ÃŃ": 5902,
      "ĠÅ¾eno": 5903,
      "ĠÄįert": 5904,
      "ĠzÃ¡mku": 5905,
      "ĠVlta": 5906,
      "ĠvstÃ¡": 5907,
      "Ġpolem": 5908,
      "ĠÅ¾ÃŃm": 5909,
      "buje": 5910,
      "Ġztu": 5911,
      "ĠSvou": 5912,
      "Ġrady": 5913,
      "ĠhÅĻÃŃchu": 5914,
      "Ġjinde": 5915,
      "ĠschÃ½": 5916,
      "razil": 5917,
      "Å¡ep": 5918,
      "Ġtuze": 5919,
      "bili": 5920,
      "Ġzho": 5921,
      "ĠZi": 5922,
      "ĠsladkÃ½ch": 5923,
      "ĠNemo": 5924,
      "ĠvznÃŃ": 5925,
      "dÃ¡Å¡": 5926,
      "ĠpouhÃ½": 5927,
      "ĠpospÃŃ": 5928,
      "Ġproudu": 5929,
      "Ġkor": 5930,
      "Ġkolik": 5931,
      "Ġodho": 5932,
      "ĠdÃŃky": 5933,
      "Ġdiva": 5934,
      "Å¾enou": 5935,
      "ĠhvÄĽzdi": 5936,
      "Ġvojska": 5937,
      "Ġznaven": 5938,
      "Ġpocti": 5939,
      "Ġpravo": 5940,
      "ĠpÃŃÅ¡e": 5941,
      "Ġchcete": 5942,
      "ĠhledÃŃm": 5943,
      "ĠjedinÃ©": 5944,
      "Ġulic": 5945,
      "ĠTvoje": 5946,
      "ĠvyÅ¡": 5947,
      "ĠzeleÅĪ": 5948,
      "Ġkout": 5949,
      "ĠsmÄĽlÃ½": 5950,
      "ĠpoÄįal": 5951,
      "Ġvkro": 5952,
      "nÄĽnÃ½": 5953,
      "Ġjihu": 5954,
      "sklo": 5955,
      "ĠnÃ¡ho": 5956,
      "tÃ¡ch": 5957,
      "ezi": 5958,
      "stalo": 5959,
      "Ġjednom": 5960,
      "chala": 5961,
      "Ġgra": 5962,
      "Ġhlasu": 5963,
      "ĠÅ¡va": 5964,
      "Ġmuka": 5965,
      "ĠzelenÃ©": 5966,
      "ĠtmÃŃ": 5967,
      "ĠkolÃ©": 5968,
      "Ġroztou": 5969,
      "ĠchtÄĽli": 5970,
      "ĠprvnÃŃm": 5971,
      "nika": 5972,
      "ĠbojÃŃ": 5973,
      "ĠvÅ¯bec": 5974,
      "Ġmoudro": 5975,
      "zdy": 5976,
      "Ġzad": 5977,
      "Ġchti": 5978,
      "ĠÅłel": 5979,
      "jil": 5980,
      "Ġskla": 5981,
      "Ġsym": 5982,
      "ĠzÅĻÃŃÅ¡": 5983,
      "Ġpsal": 5984,
      "Ġzh": 5985,
      "Ġary": 5986,
      "ĠJdi": 5987,
      "Ġpono": 5988,
      "ĠBou": 5989,
      "ĠÅĻÃŃt": 5990,
      "ĠdruÅ¾i": 5991,
      "Å¾enÃ¡": 5992,
      "Ġpohledem": 5993,
      "ABCBCD": 5994,
      "tÅ¯m": 5995,
      "ĠTr": 5996,
      "ĠstÅ¯": 5997,
      "ĠvelÃŃ": 5998,
      "Ġvedou": 5999,
      "Ġkot": 6000,
      "ĠzÃ¡pal": 6001,
      "Ġslasti": 6002,
      "ĠsilnÃ½": 6003,
      "Ġstud": 6004,
      "Ġbalva": 6005,
      "ĠzmÃŃrÃ¡": 6006,
      "Ġchlap": 6007,
      "Ġjmeno": 6008,
      "ĠkÅĻesÅ¥an": 6009,
      "ĠzavÃŃ": 6010,
      "Ġtouhu": 6011,
      "ĠprÃ¡h": 6012,
      "ĠUm": 6013,
      "ĠÅ¾Ã¡dnÃ¡": 6014,
      "os": 6015,
      "ĠTat": 6016,
      "Ġnau": 6017,
      "ĠitÃ©": 6018,
      "tosti": 6019,
      "chovÃ©": 6020,
      "ĠskuteÄį": 6021,
      "sili": 6022,
      "ĠmodlÃŃ": 6023,
      "ĠnutÃŃ": 6024,
      "ĠkoÅĻist": 6025,
      "ĠTÅĻi": 6026,
      "Ġposel": 6027,
      "Ġchr": 6028,
      "Ġspraved": 6029,
      "BX": 6030,
      "Ã¡Å¡": 6031,
      "ĠkÅĻÃŃdlo": 6032,
      "Ġvpad": 6033,
      "ĠstrÃ½": 6034,
      "ĠStro": 6035,
      "Ġukru": 6036,
      "tkÅ¯": 6037,
      "ĠbÅĻi": 6038,
      "Ġkolena": 6039,
      "ĠkterÃ©m": 6040,
      "ĠtlaÄįÃŃ": 6041,
      "ĠrovnÄĽ": 6042,
      "Ġmysti": 6043,
      "ĠvrhÃ¡": 6044,
      "ĠhnÄĽvem": 6045,
      "Ġniv": 6046,
      "Ġpozved": 6047,
      "hÅ¯m": 6048,
      "ĠdneÅ¡nÃŃ": 6049,
      "Ġkrbu": 6050,
      "ĠsvatÃ½m": 6051,
      "Ġsoucit": 6052,
      "ĠpenÄĽ": 6053,
      "ĠedÃ©": 6054,
      "ĠzÃ¡stu": 6055,
      "bala": 6056,
      "Ġsestry": 6057,
      "Ġrto": 6058,
      "Ġbrachu": 6059,
      "Ġvysoko": 6060,
      "Ġvuk": 6061,
      "Ġvedla": 6062,
      "ĠhvÄĽzdÃ¡m": 6063,
      "rovnÃ¡": 6064,
      "Ġprocit": 6065,
      "ĠÄĽkÅ¯": 6066,
      "Ġruchu": 6067,
      "Ġklasy": 6068,
      "ĠdvojÃŃ": 6069,
      "ĠÄĽmi": 6070,
      "vete": 6071,
      "ĠpÅĻÃŃk": 6072,
      "mÃ¡n": 6073,
      "ĠdruhÃ¡": 6074,
      "ĠmodrÃ½": 6075,
      "nÃŃky": 6076,
      "ĠÄįnÃ¡": 6077,
      "ĠÅ¡ky": 6078,
      "ĠdÄĽva": 6079,
      "ĠÅ¡era": 6080,
      "ĠtÅĻesou": 6081,
      "ĠKdoÅ¾": 6082,
      "ĠÅĻekne": 6083,
      "ĠdkÃ½": 6084,
      "Ġima": 6085,
      "ama": 6086,
      "die": 6087,
      "cemi": 6088,
      "Ġsvitu": 6089,
      "Ġhlahol": 6090,
      "slil": 6091,
      "ĠDra": 6092,
      "Ġstarost": 6093,
      "ĠJakÃ©": 6094,
      "ĠkrÃ¡snÃ½ch": 6095,
      "Ġjednoho": 6096,
      "Äįan": 6097,
      "stky": 6098,
      "Ġsel": 6099,
      "sech": 6100,
      "ĠÄįervÃ¡": 6101,
      "Ġdechu": 6102,
      "ĠÃ©mÄĽ": 6103,
      "EE": 6104,
      "try": 6105,
      "diti": 6106,
      "ĠlÅ¾i": 6107,
      "ĠpapÃŃ": 6108,
      "jÅ¯": 6109,
      "lat": 6110,
      "Ġpovo": 6111,
      "Ġnat": 6112,
      "ĠÅ¾houcÃŃ": 6113,
      "ĠesÅ¯": 6114,
      "ĠnÃ¡mÄĽ": 6115,
      "ĠvlasÅ¥": 6116,
      "ĠryzÃŃ": 6117,
      "ĠtichÃ½m": 6118,
      "Ġnerozu": 6119,
      "Ġzlou": 6120,
      "Ġpoky": 6121,
      "ĠmÃ¡Å¥": 6122,
      "Ġjasu": 6123,
      "Ġvedl": 6124,
      "rva": 6125,
      "Ġdku": 6126,
      "ĠstojÃŃm": 6127,
      "ĠvÅ¯z": 6128,
      "Ġbrzo": 6129,
      "Äįilo": 6130,
      "Ġminulosti": 6131,
      "ĠnnÃ¡": 6132,
      "kova": 6133,
      "ĠKÅĻe": 6134,
      "ĠvyÅ¡la": 6135,
      "ĠÄįiny": 6136,
      "ĠvÄĽtry": 6137,
      "ĠvÅ¯d": 6138,
      "ĠstrÃ¡ni": 6139,
      "Ġpotok": 6140,
      "chne": 6141,
      "Ġmiluje": 6142,
      "Ġmnohou": 6143,
      "ĠobliÄįej": 6144,
      "Å¡tnÃŃ": 6145,
      "Ġzen": 6146,
      "ĠhÅ¯l": 6147,
      "Ġvznes": 6148,
      "ĠsvÄĽtlu": 6149,
      "mysl": 6150,
      "Å¾te": 6151,
      "ĠDva": 6152,
      "tul": 6153,
      "ĠÅ¡er": 6154,
      "Ġkdybych": 6155,
      "Ġses": 6156,
      "Ġjezd": 6157,
      "ĠprostÃ½": 6158,
      "stali": 6159,
      "menÄĽ": 6160,
      "ĠbÃ¡l": 6161,
      "ĠsmÄĽsi": 6162,
      "ĠmalÃŃ": 6163,
      "ĠhnÃŃzda": 6164,
      "ĠvnÃ½": 6165,
      "ĠopÃ¡": 6166,
      "ĠOsud": 6167,
      "ĠpouÅ¥": 6168,
      "ĠodpoÄįi": 6169,
      "Ġpoliti": 6170,
      "Ġhly": 6171,
      "ĠrvÃ¡": 6172,
      "Ġmohy": 6173,
      "Ġlsti": 6174,
      "ĠvzpomÃŃnka": 6175,
      "ĠblÃ½skÃ¡": 6176,
      "Ġuzav": 6177,
      "ÅĻÃŃch": 6178,
      "dÄĽje": 6179,
      "Ġvlnou": 6180,
      "rnÃ©m": 6181,
      "Ġvida": 6182,
      "ĠmyÅ¡lenek": 6183,
      "ĠspatÅĻil": 6184,
      "ĠdÄĽjin": 6185,
      "sni": 6186,
      "Ġhrdlo": 6187,
      "Ġove": 6188,
      "tÃŃÅ¡": 6189,
      "ĠÄįeskÃ¡": 6190,
      "ĠÅ¡erÃ©": 6191,
      "Ġposlu": 6192,
      "ĠspÃ¡sy": 6193,
      "ĠÅ¡aty": 6194,
      "ĠtvrdÃ©": 6195,
      "fu": 6196,
      "vÅ¡i": 6197,
      "Ġpovy": 6198,
      "Ġmalo": 6199,
      "Ġokno": 6200,
      "ĠzpÄĽvem": 6201,
      "ĠÄįÃŃÅ¡i": 6202,
      "Ġmrz": 6203,
      "enÃ©": 6204,
      "vostÃŃ": 6205,
      "ĠkrokÅ¯": 6206,
      "ĠzapomnÄĽl": 6207,
      "rÅ¯m": 6208,
      "ĠÅ¡ly": 6209,
      "kouz": 6210,
      "zdra": 6211,
      "ĠspÄĽje": 6212,
      "ĠÄĮechÃ¡ch": 6213,
      "ĠTÃ©Å¾": 6214,
      "ĠÄĽmu": 6215,
      "ĠpÄĽje": 6216,
      "Ġtly": 6217,
      "enÃ½": 6218,
      "Ġranou": 6219,
      "Ġblaze": 6220,
      "Ġpohr": 6221,
      "Ġpanna": 6222,
      "ĠskrÃ¡ni": 6223,
      "Ġknihu": 6224,
      "ĠmoÅ¾nÃ¡": 6225,
      "Ġedl": 6226,
      "Ġbub": 6227,
      "ĠtratÃŃ": 6228,
      "Ġopy": 6229,
      "ĠnevÃ½": 6230,
      "ĠzÃ¡ba": 6231,
      "Ġvaz": 6232,
      "ĠjÃ¡sot": 6233,
      "ĠnnÄĽ": 6234,
      "ĠspÅĻÃ¡": 6235,
      "ĠÅ¡ÃŃÅĻÃŃ": 6236,
      "ĠNÃ¡Å¡": 6237,
      "21": 6238,
      "Ġzne": 6239,
      "Ġzast": 6240,
      "Ġroztr": 6241,
      "Ġlicho": 6242,
      "ĠsvÄĽtle": 6243,
      "ĠpÅĻÃŃzrak": 6244,
      "ĠÅ¾eni": 6245,
      "ĠtÃŃt": 6246,
      "ĠpolÃŃbenÃŃ": 6247,
      "ĠVaÅ¡e": 6248,
      "ĠmraÄįna": 6249,
      "lilo": 6250,
      "ĠÅ¡en": 6251,
      "dÄĽly": 6252,
      "pis": 6253,
      "Ġluna": 6254,
      "Ġnaposledy": 6255,
      "ĠoltÃ¡ÅĻ": 6256,
      "sÃ©": 6257,
      "ĠByla": 6258,
      "Ġlidstvu": 6259,
      "Ġochra": 6260,
      "ĠÃŃnÃŃ": 6261,
      "Ġvzty": 6262,
      "ĠFi": 6263,
      "ĠnebesÅ¯m": 6264,
      "ĠjmÃ©na": 6265,
      "ĠdÃ©man": 6266,
      "Å¾uje": 6267,
      "Ġity": 6268,
      "ĠJeÅ¾": 6269,
      "Ġehu": 6270,
      "ĠAu": 6271,
      "ĠHÃ¡": 6272,
      "Ġvinou": 6273,
      "ĠstrÃ¡nÃŃ": 6274,
      "Ġtlum": 6275,
      "ĠpÅĻemo": 6276,
      "Ġbytost": 6277,
      "Ġrozlou": 6278,
      "Ġlibo": 6279,
      "ĠpoutnÃŃ": 6280,
      "Ġnemohu": 6281,
      "Ġneob": 6282,
      "Ġzdvih": 6283,
      "Å¾u": 6284,
      "ĠPryÄį": 6285,
      "ĠlesÃŃch": 6286,
      "ĠzÃ¡Å¡tÃŃ": 6287,
      "ĠHlu": 6288,
      "ĠdÃŃla": 6289,
      "ĠvÅ¡echnÄĽ": 6290,
      "Ġzim": 6291,
      "hrÃ¡": 6292,
      "ĠzpÅ¯so": 6293,
      "Ġrosou": 6294,
      "Ġmih": 6295,
      "ĠmÄĽlo": 6296,
      "ĠmodrÃ½ch": 6297,
      "Å¡kou": 6298,
      "nÃŃka": 6299,
      "Ġtok": 6300,
      "ĠzÃ¡zra": 6301,
      "ĠÅĻed": 6302,
      "Ġvrh": 6303,
      "ĠkÅĻiÅ¡Å¥": 6304,
      "Ġtiskne": 6305,
      "nkÃ©": 6306,
      "Ġhi": 6307,
      "ĠZdÃ¡": 6308,
      "Ġsladko": 6309,
      "dÄĽte": 6310,
      "ĠhÃ©m": 6311,
      "ĠuÄįe": 6312,
      "Ġmistr": 6313,
      "Ġnos": 6314,
      "ĠHy": 6315,
      "ĠdÄĽd": 6316,
      "ĠpÄĽÅ¡i": 6317,
      "Ġstrachem": 6318,
      "vnÃŃk": 6319,
      "ĠspÃ¡t": 6320,
      "ĠproudÃŃ": 6321,
      "ĠtesknÄĽ": 6322,
      "AXBBCC": 6323,
      "ĠprÅ¯vod": 6324,
      "ĠpÅ¯jdu": 6325,
      "pÅĻi": 6326,
      "ĠpoÅ¡": 6327,
      "ĠÄĽka": 6328,
      "ĠOtec": 6329,
      "ĠplÃ¡ni": 6330,
      "ĠzÅĻÃŃti": 6331,
      "AXXB": 6332,
      "vnÃ½": 6333,
      "Ġhlado": 6334,
      "Ġlce": 6335,
      "ĠNevÄĽ": 6336,
      "zenÃ©": 6337,
      "ale": 6338,
      "snÃ½ch": 6339,
      "Ġut": 6340,
      "Ġbozi": 6341,
      "skÃ©mu": 6342,
      "chodu": 6343,
      "ĠzdrÃ¡v": 6344,
      "chla": 6345,
      "ĠlÃ¡kÃ¡": 6346,
      "Ġjaksi": 6347,
      "ABCCDE": 6348,
      "stoup": 6349,
      "Ġblesku": 6350,
      "ĠslavÃŃk": 6351,
      "ilÃŃ": 6352,
      "Ġtaje": 6353,
      "ĠhrabÄĽ": 6354,
      "Ġpluje": 6355,
      "Ġvzpomen": 6356,
      "lest": 6357,
      "rok": 6358,
      "voval": 6359,
      "Ġhodiny": 6360,
      "Ġmelo": 6361,
      "hor": 6362,
      "Ġpodve": 6363,
      "ĠkrutÃ½": 6364,
      "ĠsahÃ¡": 6365,
      "Ġmrtev": 6366,
      "ĠpÃŃlÃŃ": 6367,
      "Ġzakle": 6368,
      "Ġhlubiny": 6369,
      "Ġkme": 6370,
      "voj": 6371,
      "Ġmor": 6372,
      "ĠZnÃ¡m": 6373,
      "Ġsoudu": 6374,
      "ĠhrÃ¡t": 6375,
      "ĠrozkoÅ¡ÃŃ": 6376,
      "ĠÃºzkost": 6377,
      "ÅĻte": 6378,
      "lami": 6379,
      "ĠOr": 6380,
      "bitÃŃ": 6381,
      "ĠvÄĽÄįnost": 6382,
      "ĠtÄĽÅ¾kÃ½ch": 6383,
      "prvÃ©": 6384,
      "skutku": 6385,
      "ĠodpovÄĽÄı": 6386,
      "ajÃŃ": 6387,
      "gy": 6388,
      "ĠnÅ¯m": 6389,
      "nova": 6390,
      "ĠveÅ¡el": 6391,
      "nÅ¯v": 6392,
      "ice": 6393,
      "taly": 6394,
      "Ġhli": 6395,
      "ĠJdu": 6396,
      "ĠHej": 6397,
      "ĠÃ©ÅĻe": 6398,
      "Ġbes": 6399,
      "ĠhovoÅĻÃŃ": 6400,
      "Äįno": 6401,
      "ber": 6402,
      "Ġvor": 6403,
      "Ġdruha": 6404,
      "ĠhÅĻbe": 6405,
      "Ġsloup": 6406,
      "ĠkrvavÃ©": 6407,
      "ĠvzdÃ¡len": 6408,
      "Ġobloze": 6409,
      "ĠplÃ¡ÅĪ": 6410,
      "ĠkypÃŃ": 6411,
      "Ġulici": 6412,
      "Ġsnou": 6413,
      "Ġspjat": 6414,
      "Ġjasnou": 6415,
      "vrÃ¡til": 6416,
      "ĠpÅĻÃŃroda": 6417,
      "kÃ½mi": 6418,
      "ĠisÃŃ": 6419,
      "ĠÃŃry": 6420,
      "ĠronÃŃ": 6421,
      "Ġpravou": 6422,
      "anÃ©": 6423,
      "ĠvnÃŃ": 6424,
      "Ġere": 6425,
      "Ġlety": 6426,
      "Ġmatkou": 6427,
      "ĠpohlÃŃ": 6428,
      "ĠtemnÃ½ch": 6429,
      "ĠstrojÃŃ": 6430,
      "zka": 6431,
      "ĠSmr": 6432,
      "ĠDarmo": 6433,
      "ĠzlÃ½ch": 6434,
      "ĠhÃ¡m": 6435,
      "ĠvÄĽÅ¡t": 6436,
      "bytÃŃ": 6437,
      "rec": 6438,
      "Ġsvaty": 6439,
      "Ġhust": 6440,
      "ĠVlast": 6441,
      "ĠtÃ³n": 6442,
      "Ã©ÅĻe": 6443,
      "Ġused": 6444,
      "Ġery": 6445,
      "ĠRe": 6446,
      "Ġmohlo": 6447,
      "ĠhlubokÃ©": 6448,
      "Ġsce": 6449,
      "Ġzkvet": 6450,
      "ĠzlatÄĽ": 6451,
      "ĠdÃ¡lnÃ©": 6452,
      "Ġsouzvu": 6453,
      "ĠPrahy": 6454,
      "Ġtanci": 6455,
      "slov": 6456,
      "ĠadÃ½": 6457,
      "aty": 6458,
      "ĠvÄĽtÅĻÃŃk": 6459,
      "ĠsÃŃtÄĽ": 6460,
      "ĠhospodÃ¡": 6461,
      "Ġpovr": 6462,
      "Ġsvr": 6463,
      "Ġnivy": 6464,
      "ĠytÃ¡": 6465,
      "ĠbÃŃlÃ½m": 6466,
      "Ġroucho": 6467,
      "ĠhbitÄĽ": 6468,
      "Ġiva": 6469,
      "ĠsladkÃ½m": 6470,
      "Ġkams": 6471,
      "ĠznÃ¡Å¡": 6472,
      "Ġptal": 6473,
      "ÅĻuje": 6474,
      "ĠJas": 6475,
      "nÃŃku": 6476,
      "ĠÄįerno": 6477,
      "ĠmusÃŃÅ¡": 6478,
      "Ġskali": 6479,
      "ĠznÄĽlo": 6480,
      "Ġbzu": 6481,
      "trem": 6482,
      "Ġsvato": 6483,
      "Ġblahem": 6484,
      "Ġotcem": 6485,
      "ĠozÃ¡": 6486,
      "ĠnÄĽhoÅ¾": 6487,
      "ĠvonnÃ©": 6488,
      "Ġhora": 6489,
      "ĠÄįit": 6490,
      "ĠÅ¾alem": 6491,
      "ĠkaÅ¾dÃ©ho": 6492,
      "Ġslzami": 6493,
      "tÃ½m": 6494,
      "atan": 6495,
      "kynÄĽ": 6496,
      "Ġrom": 6497,
      "ĠnÄĽhy": 6498,
      "ĠdivÃ©m": 6499,
      "ĠJeden": 6500,
      "ĠusmÄĽ": 6501,
      "ĠstÅĻel": 6502,
      "ĠAvÅ¡ak": 6503,
      "ĠkÃ¡zal": 6504,
      "ĠVÃŃc": 6505,
      "ĠzaplÃ¡": 6506,
      "nouc": 6507,
      "ĠÅ¾ez": 6508,
      "ĠÄĽmÃ½": 6509,
      "Ġpraco": 6510,
      "ĠplatÃŃ": 6511,
      "ĠplÃ¡la": 6512,
      "ĠstranÄĽ": 6513,
      "ĠzbÃ½vÃ¡": 6514,
      "Ġhudby": 6515,
      "Ġkouzla": 6516,
      "Ġopusti": 6517,
      "nkÃ¡ch": 6518,
      "ĠvÄįel": 6519,
      "Ġusta": 6520,
      "Ġsvate": 6521,
      "Ġdary": 6522,
      "ĠvnÃ¡": 6523,
      "ĠÅ¡vi": 6524,
      "tÃ¡h": 6525,
      "ĠÃ©ta": 6526,
      "chvÃ¡": 6527,
      "ÅĻiv": 6528,
      "ĠletÄĽl": 6529,
      "ÄįÃŃvÃ¡": 6530,
      "ĠJejÃŃ": 6531,
      "ĠÅ¡koda": 6532,
      "ĠAd": 6533,
      "Ġroky": 6534,
      "vujÃŃ": 6535,
      "ĠzÃ¡hu": 6536,
      "Ġodda": 6537,
      "ĠHr": 6538,
      "ĠÅĺÃŃ": 6539,
      "ĠnejvÄĽtÅ¡ÃŃ": 6540,
      "lice": 6541,
      "ĠÃ¡du": 6542,
      "Ġsyny": 6543,
      "ĠnÃ¡roda": 6544,
      "ĠkrouÅ¾ÃŃ": 6545,
      "hej": 6546,
      "Ġopi": 6547,
      "Ġkoni": 6548,
      "povÃŃ": 6549,
      "ĠhrdÃ½": 6550,
      "ĠznÄĽla": 6551,
      "ĠjunÃ¡": 6552,
      "Ġdomy": 6553,
      "Ġrozvi": 6554,
      "ĠsvÄĽtlÃ½": 6555,
      "ĠpÅĻÃŃtom": 6556,
      "ĠemÃŃ": 6557,
      "ĠkÅĻÃŃÅ¾em": 6558,
      "Ġosudu": 6559,
      "ĠBÄĽda": 6560,
      "Ġsf": 6561,
      "Ġvte": 6562,
      "jela": 6563,
      "ĠÃŃÅ¡i": 6564,
      "ÄįÃŃch": 6565,
      "Ġzdar": 6566,
      "ĠzvukÅ¯": 6567,
      "ĠzvÄĽÅĻ": 6568,
      "Ġmnich": 6569,
      "ĠTvou": 6570,
      "vÃŃvÃ¡": 6571,
      "ĠSlad": 6572,
      "ĠstÃ¡ly": 6573,
      "ĠsmrÅ¥": 6574,
      "Ġhrst": 6575,
      "ĠzahradÄĽ": 6576,
      "ĠhlÃ¡sÃ¡": 6577,
      "chat": 6578,
      "ÅĻenou": 6579,
      "natÃ©": 6580,
      "ĠÅ¡Å¥astnÃ½": 6581,
      "Ġzblou": 6582,
      "ĠÄįtve": 6583,
      "Ġbyste": 6584,
      "dily": 6585,
      "Ġpanny": 6586,
      "Ġozval": 6587,
      "Ġmoudrost": 6588,
      "ĠNÃ¡hle": 6589,
      "Ġzahrady": 6590,
      "mÄĽla": 6591,
      "Ġondy": 6592,
      "ĠpuÄįÃŃ": 6593,
      "ĠKdys": 6594,
      "Ġokny": 6595,
      "ĠMilo": 6596,
      "ĠveÅ¡ke": 6597,
      "ĠdÄĽk": 6598,
      "ĠkalÃŃ": 6599,
      "ĠkÅĻÃŃdly": 6600,
      "meÅĪ": 6601,
      "ĠtÃ¡bo": 6602,
      "ĠbÅĻehy": 6603,
      "ĠpyÅ¡nÄĽ": 6604,
      "ĠzmizÃŃ": 6605,
      "ĠÅ¾ele": 6606,
      "dum": 6607,
      "ĠmoÅĻÃŃ": 6608,
      "Ġdcery": 6609,
      "ĠtÃ¡m": 6610,
      "Ġbem": 6611,
      "ĠÄįlu": 6612,
      "tuje": 6613,
      "ĠcizÃŃm": 6614,
      "ĠCos": 6615,
      "ĠdÄĽtstvÃŃ": 6616,
      "ĠilÃŃ": 6617,
      "ĠÅĻadu": 6618,
      "boÅ¾": 6619,
      "Ġdruhou": 6620,
      "ĠtvÃ©mu": 6621,
      "ĠneustÃ¡": 6622,
      "Ġhluboko": 6623,
      "Ġak": 6624,
      "ĠÅ¾ili": 6625,
      "ĠodÅĻÃŃ": 6626,
      "ĠNepo": 6627,
      "Äįily": 6628,
      "ĠNÃ¡ro": 6629,
      "Ġbudoucnost": 6630,
      "Ġharmo": 6631,
      "ĠvÃŃnem": 6632,
      "ĠÄıÃ¡b": 6633,
      "Ġzru": 6634,
      "Ġvzali": 6635,
      "Ġkul": 6636,
      "Ġryl": 6637,
      "ĠrÅ¯Å¾": 6638,
      "ĠzoÅĻe": 6639,
      "ĠdrtÃŃ": 6640,
      "ĠuprostÅĻed": 6641,
      "cek": 6642,
      "ĠÅ¡leh": 6643,
      "ĠvÅ¡ed": 6644,
      "Ġblahu": 6645,
      "ĠÅ¡ÃŃje": 6646,
      "Ġkriti": 6647,
      "bnou": 6648,
      "dni": 6649,
      "volu": 6650,
      "Äįeji": 6651,
      "ĠTakÃ©": 6652,
      "vily": 6653,
      "Ġvlasten": 6654,
      "ĠzÃ¡pla": 6655,
      "Ġdlani": 6656,
      "ĠÄįarodÄĽj": 6657,
      "ĠjimiÅ¾": 6658,
      "Ġzvad": 6659,
      "ĠaÅ¡i": 6660,
      "ĠitÃ½": 6661,
      "Å¥te": 6662,
      "Ġkdosi": 6663,
      "Ġplny": 6664,
      "ĠnadÄĽji": 6665,
      "ĠznÄĽly": 6666,
      "Ġsnes": 6667,
      "Ġspal": 6668,
      "ĠPtÃ¡": 6669,
      "ster": 6670,
      "Ġbran": 6671,
      "ĠsvÃŃtil": 6672,
      "Ġvolnost": 6673,
      "ĠVÃ¡Å¡": 6674,
      "Ġdrak": 6675,
      "Ġubi": 6676,
      "Ġsply": 6677,
      "ĠpÄĽknÃ©": 6678,
      "desÃ¡": 6679,
      "ĠedÃ½": 6680,
      "vÃ©tÃ¡": 6681,
      "Ġhromu": 6682,
      "ĠstraÅ¡li": 6683,
      "cenÃ¡": 6684,
      "ĠtrpÃŃ": 6685,
      "ĠmraÄįen": 6686,
      "Ġabys": 6687,
      "ĠveÄįernÃŃ": 6688,
      "ĠzdvihÃ¡": 6689,
      "Ġbudoucnosti": 6690,
      "znou": 6691,
      "Ġnajednou": 6692,
      "ĠuÄįen": 6693,
      "Ġchou": 6694,
      "ĠZvo": 6695,
      "ĠchoÅ¥": 6696,
      "roval": 6697,
      "ĠstrÃ¡nÄĽ": 6698,
      "Ġplody": 6699,
      "ĠkÅĻeh": 6700,
      "ĠskvÃŃ": 6701,
      "Ġsvojich": 6702,
      "ĠpÅ¯dy": 6703,
      "vÃŃme": 6704,
      "Ġnepoz": 6705,
      "Ġchaty": 6706,
      "rÃ¡Å¾ÃŃ": 6707,
      "ĠChu": 6708,
      "Ġhrobem": 6709,
      "Ġhudbou": 6710,
      "ĠÅ¾lutÃ©": 6711,
      "ĠinÃ¡": 6712,
      "ĠtouÅ¾il": 6713,
      "ĠÃŃkÃ¡": 6714,
      "ĠCa": 6715,
      "ĠkvÃŃtek": 6716,
      "ĠzimÄĽ": 6717,
      "ĠslednÃŃ": 6718,
      "Ġnesu": 6719,
      "Äįinu": 6720,
      "Ġyku": 6721,
      "ĠhroznÃ¡": 6722,
      "ĠonÄĽch": 6723,
      "Ġhasne": 6724,
      "Ġamy": 6725,
      "lÃ¡m": 6726,
      "ĠOl": 6727,
      "ĠkrÃ¡tce": 6728,
      "Å¡lÃŃ": 6729,
      "deÅĪ": 6730,
      "ĠAr": 6731,
      "ĠÃŃnÅ¯": 6732,
      "ĠvÄĽÅĻit": 6733,
      "ĠdÃŃvku": 6734,
      "ĠchrÃ¡nÃŃ": 6735,
      "ĠsnivÃ©": 6736,
      "ĠtÅĻikrÃ¡t": 6737,
      "Ġoze": 6738,
      "Ġdoj": 6739,
      "vÄĽjÅ¡ÃŃ": 6740,
      "ĠjejÃŃÅ¾": 6741,
      "ĠbuÄıte": 6742,
      "ĠvojÃ¡": 6743,
      "Ġslib": 6744,
      "ĠsadÄĽ": 6745,
      "novu": 6746,
      "Ġmist": 6747,
      "bÄĽh": 6748,
      "Ġvskutku": 6749,
      "ĠmÄĽstem": 6750,
      "ĠpÄĽst": 6751,
      "Ġotco": 6752,
      "hned": 6753,
      "ĠnenadÃ¡": 6754,
      "Ġapo": 6755,
      "ÅĻej": 6756,
      "ĠutÃ©": 6757,
      "Ġile": 6758,
      "ĠMal": 6759,
      "ĠstÃ¡lo": 6760,
      "ĠkrvÃ¡": 6761,
      "Ġstarce": 6762,
      "ĠzalÃ©": 6763,
      "ĠZemÄĽ": 6764,
      "ĠÃ¡kÅ¯": 6765,
      "Ġsnadno": 6766,
      "Ġblankytu": 6767,
      "ĠÃ¡sa": 6768,
      "Ġkup": 6769,
      "ĠhouÅ¡tÃŃ": 6770,
      "ĠpÅĻÃ¡l": 6771,
      "Ġsklonil": 6772,
      "Ġzdu": 6773,
      "ĠÃ¡ky": 6774,
      "Ġledo": 6775,
      "ĠDe": 6776,
      "ĠPotom": 6777,
      "Ġdeset": 6778,
      "ĠostrÃ½": 6779,
      "ĠsmÄĽl": 6780,
      "Ġhrdi": 6781,
      "ĠNÄĽk": 6782,
      "ĠarÃ¡": 6783,
      "Ġdostal": 6784,
      "Ġmohou": 6785,
      "ĠvÄĽÅĻÃŃm": 6786,
      "ĠpÅĻiÅ¡lo": 6787,
      "ĠchvÄĽnÃŃ": 6788,
      "ĠhÅĻÃŃchy": 6789,
      "Ġpostavy": 6790,
      "ĠfarÃ¡": 6791,
      "ABABBC": 6792,
      "lÃŃcÃŃ": 6793,
      "pÃŃrÃ¡": 6794,
      "lemi": 6795,
      "ĠpoupÄĽ": 6796,
      "ĠbÄĽl": 6797,
      "Ġpaprsky": 6798,
      "Ġrozmar": 6799,
      "ĠKrev": 6800,
      "ĠÄĽnÃ¡": 6801,
      "ĠvzkÅĻÃŃ": 6802,
      "ĠrÃ¡ko": 6803,
      "ĠstaÅĻÃŃ": 6804,
      "Ġjarem": 6805,
      "vrt": 6806,
      "zar": 6807,
      "douc": 6808,
      "ĠtrpÄĽ": 6809,
      "Ġgeni": 6810,
      "ĠspÃŃÅ¡e": 6811,
      "ÅĻeli": 6812,
      "ĠumÄĽl": 6813,
      "ABABXX": 6814,
      "ĠSvobo": 6815,
      "ĠsklÃŃ": 6816,
      "ĠÃºna": 6817,
      "Ġpoupat": 6818,
      "ĠsÃŃc": 6819,
      "ĠsnovÃ©": 6820,
      "Ġzimy": 6821,
      "vÅĻÃŃ": 6822,
      "Ġnejlep": 6823,
      "ĠplÃ¡t": 6824,
      "Ġlos": 6825,
      "ĠotvÃŃ": 6826,
      "Ġramena": 6827,
      "ĠvÃ½chodu": 6828,
      "enal": 6829,
      "Ġmok": 6830,
      "ĠmÄĽstu": 6831,
      "ĠhvÄĽzdami": 6832,
      "ĠjdeÅ¡": 6833,
      "Ġpije": 6834,
      "ĠtÅĻpyt": 6835,
      "vakrÃ¡t": 6836,
      "liti": 6837,
      "Ġporu": 6838,
      "Ġleda": 6839,
      "Å¾iti": 6840,
      "ĠÅ¾ivobytÃŃ": 6841,
      "ĠblahÃ©": 6842,
      "ĠslÃ¡vou": 6843,
      "ĠlistÅ¯": 6844,
      "ĠdlÃ½": 6845,
      "letÄĽl": 6846,
      "Ġzablou": 6847,
      "ĠnÃ¡ÅĻek": 6848,
      "ĠnÄĽv": 6849,
      "Ġhladi": 6850,
      "mÃŃvÃ¡": 6851,
      "Ġlidskou": 6852,
      "ĠdivnÃ¡": 6853,
      "ĠstudÃ¡": 6854,
      "Ġmarno": 6855,
      "Ġpit": 6856,
      "Ġmost": 6857,
      "ĠMezi": 6858,
      "ĠspÄĽl": 6859,
      "ĠkmitÃ¡": 6860,
      "ĠnÅ¯Å¾": 6861,
      "Ġmsti": 6862,
      "povÄĽ": 6863,
      "ĠlÃ¡t": 6864,
      "ĠÅĻeh": 6865,
      "ĠposvÄĽ": 6866,
      "ĠByÅ¥": 6867,
      "ĠzmÃ¡m": 6868,
      "Ġarci": 6869,
      "ĠokÃ¡": 6870,
      "ĠckÃ©": 6871,
      "ĠKe": 6872,
      "ĠvodnÃŃ": 6873,
      "stÃ¡nÃŃ": 6874,
      "ĠlÃ©to": 6875,
      "ĠVÃŃÅ¡": 6876,
      "ĠtajnÃ©": 6877,
      "ĠjitÅĻ": 6878,
      "ĠutrpenÃŃ": 6879,
      "Å¾no": 6880,
      "bylo": 6881,
      "ĠÅ¡est": 6882,
      "ĠlÃŃtÃ¡": 6883,
      "ĠÃ½Å¡i": 6884,
      "ĠhrobÅ¯": 6885,
      "ĠslyÅ¡ÃŃÅ¡": 6886,
      "lie": 6887,
      "ĠÃ¡lu": 6888,
      "ĠnechtÄĽ": 6889,
      "ĠskÃ¡Äįe": 6890,
      "ĠÅ¯li": 6891,
      "Ġknih": 6892,
      "ĠSlÃ¡va": 6893,
      "Ġoso": 6894,
      "ĠÃ¡su": 6895,
      "dÃŃl": 6896,
      "diÄį": 6897,
      "ĠbÃŃdnÃ½": 6898,
      "Ġluhy": 6899,
      "ĠvÅ¡ecku": 6900,
      "ĠÅ¡tÄĽd": 6901,
      "hro": 6902,
      "ditel": 6903,
      "Ġrety": 6904,
      "Ġslze": 6905,
      "ĠsnÄĽhem": 6906,
      "ĠskÃ¡lu": 6907,
      "ĠÅ¾ilÃ¡ch": 6908,
      "ĠpestrÃ©": 6909,
      "ĠZatÃŃm": 6910,
      "Ġbly": 6911,
      "Ġnekli": 6912,
      "tiv": 6913,
      "pol": 6914,
      "sej": 6915,
      "ĠÄįeskÃ½ch": 6916,
      "Ġrysy": 6917,
      "Ġsuk": 6918,
      "Ġsoudru": 6919,
      "ĠholÃ©": 6920,
      "ĠHlas": 6921,
      "ĠplÃ¡ly": 6922,
      "Ġrakev": 6923,
      "Ġjisker": 6924,
      "ĠdÄĽsnÃ½": 6925,
      "chle": 6926,
      "Ġzmu": 6927,
      "ĠanÅ¯": 6928,
      "rali": 6929,
      "ĠNevÃŃm": 6930,
      "Ġpyt": 6931,
      "ĠostatnÃŃ": 6932,
      "ur": 6933,
      "ĠÃ¡ze": 6934,
      "Ġvzej": 6935,
      "Ġposlal": 6936,
      "ĠbleskÅ¯": 6937,
      "ĠpohÃ¡d": 6938,
      "ĠÃºkol": 6939,
      "ĠmlÃ¡de": 6940,
      "ĠdÅ¯stoj": 6941,
      "ĠVoj": 6942,
      "nkÃ¡": 6943,
      "razÃŃ": 6944,
      "ĠdeÅ¡": 6945,
      "ĠzmÃŃtÃ¡": 6946,
      "ĠÅ¡lehÃ¡": 6947,
      "ĠTÃ©": 6948,
      "Ġzavo": 6949,
      "Ġero": 6950,
      "Ġmilu": 6951,
      "ĠstarÃ©m": 6952,
      "ĠptÃ¡ka": 6953,
      "ĠznÃ¡mÃ©": 6954,
      "Ġjedinou": 6955,
      "ĠzimnÃŃ": 6956,
      "ĠÅ¡Å¥astnÄĽ": 6957,
      "ĠTÄĽÅ¾": 6958,
      "ĠstÅ¯j": 6959,
      "Ġjih": 6960,
      "ĠÅ¡tva": 6961,
      "ĠÅ¾eÅĪ": 6962,
      "Ġhodin": 6963,
      "Ġpavu": 6964,
      "ÅĻeny": 6965,
      "ĠpohÅĻe": 6966,
      "ĠosvÄĽt": 6967,
      "fÃ¡": 6968,
      "ĠznÃ©": 6969,
      "ĠulÃŃ": 6970,
      "Ġprcha": 6971,
      "ĠnemÅ¯Å¾": 6972,
      "Ġdes": 6973,
      "Ġsmutnou": 6974,
      "ĠvlastnÄĽ": 6975,
      "ĠsÃ¡h": 6976,
      "ĠpilnÄĽ": 6977,
      "ĠprospÄĽ": 6978,
      "ĠjnÄĽ": 6979,
      "Ġpoku": 6980,
      "ĠkoÄįÃ¡": 6981,
      "ĠstÃ¡r": 6982,
      "Ġmlze": 6983,
      "ĠmocnÃ©": 6984,
      "Ġpravdou": 6985,
      "ĠknÃŃÅ¾": 6986,
      "ĠoltÃ¡ÅĻi": 6987,
      "ĠhedvÃ¡": 6988,
      "Ġocho": 6989,
      "ĠnecÃŃ": 6990,
      "Ġvypla": 6991,
      "Äįeli": 6992,
      "ĠpÃ¡ry": 6993,
      "ĠplnÃ½m": 6994,
      "Ġoblaky": 6995,
      "ĠmdlÃ½": 6996,
      "ĠÅĻadou": 6997,
      "ĠschÃ¡zÃŃ": 6998,
      "ĠoÄįka": 6999,
      "Ġvece": 7000,
      "ĠotrÃ¡": 7001,
      "Ġbabi": 7002,
      "ĠvlastnÃŃm": 7003,
      "bÃ½vÃ¡": 7004,
      "ĠoblÃ¡": 7005,
      "mec": 7006,
      "ĠpÅĻedsta": 7007,
      "Ġsmysly": 7008,
      "ĠpÅĻekva": 7009,
      "ĠnÃ¡v": 7010,
      "Å¡tÄĽnÃŃ": 7011,
      "Ġstin": 7012,
      "Ġmilovat": 7013,
      "ĠdÃ©le": 7014,
      "jou": 7015,
      "Ġvce": 7016,
      "tisk": 7017,
      "ĠchrÃ¡my": 7018,
      "Ġge": 7019,
      "AXABBC": 7020,
      "ĠvysokÃ©": 7021,
      "ĠvzkÅĻik": 7022,
      "ĠhÅĻÃŃÅ¡": 7023,
      "ĠÅ¾ivÃ¡": 7024,
      "Ġpohro": 7025,
      "Ġpokra": 7026,
      "ĠknÄĽÅ¾ÃŃ": 7027,
      "ĠnepÅĻÃŃtel": 7028,
      "Ġtlou": 7029,
      "Ġuva": 7030,
      "titi": 7031,
      "vanou": 7032,
      "ĠrvÃŃ": 7033,
      "Ġrato": 7034,
      "ĠstÃŃhÃ¡": 7035,
      "ĠpÃ¡ny": 7036,
      "Ġpusto": 7037,
      "ĠrÅ¯znÃ½ch": 7038,
      "zne": 7039,
      "vanÃ¡": 7040,
      "milo": 7041,
      "ĠTebou": 7042,
      "Ġzmar": 7043,
      "Ġvesel": 7044,
      "Ġdvacet": 7045,
      "ĠzachvÄĽl": 7046,
      "ĠmyÅ¡lÃ©nek": 7047,
      "ĠPetr": 7048,
      "smÃ¡": 7049,
      "Ġzavz": 7050,
      "Ġholou": 7051,
      "Ġvina": 7052,
      "Ġnadarmo": 7053,
      "ĠlodÃŃ": 7054,
      "ĠpustÃ½": 7055,
      "dÃŃme": 7056,
      "ĠPaÅĻÃŃ": 7057,
      "Ġzhu": 7058,
      "ĠJdou": 7059,
      "ĠSl": 7060,
      "ĠSen": 7061,
      "Ġoblou": 7062,
      "Ġsie": 7063,
      "ĠÅ¡edÃ¡": 7064,
      "Ġkudy": 7065,
      "ĠslastÃŃ": 7066,
      "ĠhÅĻÃŃchÅ¯": 7067,
      "ĠLibu": 7068,
      "Ġbas": 7069,
      "ĠBr": 7070,
      "adil": 7071,
      "zala": 7072,
      "ĠvolnÃ½": 7073,
      "ĠvÃ¡lky": 7074,
      "ĠzvlÃ¡Å¡tnÃŃ": 7075,
      "ÄįnÃŃch": 7076,
      "ĠÅ¾dy": 7077,
      "ĠDÅĻÃŃv": 7078,
      "ĠtakÃ½": 7079,
      "ĠRenal": 7080,
      "ĠkamenÃŃ": 7081,
      "ĠprÃ¡zdnÃ©": 7082,
      "Ġseveru": 7083,
      "zdu": 7084,
      "Ġjisto": 7085,
      "Ġnoh": 7086,
      "bej": 7087,
      "mÄĽly": 7088,
      "Ġkan": 7089,
      "ĠÅ¡erem": 7090,
      "ĠpÅĻÃŃsnÄĽ": 7091,
      "Å¾ily": 7092,
      "ĠbujnÃ©": 7093,
      "ĠdlÃ©": 7094,
      "Ġjedovat": 7095,
      "ĠnohÃ¡m": 7096,
      "ĠHvÄĽz": 7097,
      "ĠsklÃ¡dÃ¡": 7098,
      "Ġbludi": 7099,
      "Ġsrde": 7100,
      "Ã½val": 7101,
      "ĠakÃ©": 7102,
      "Ġdopro": 7103,
      "ĠPos": 7104,
      "Ġklesl": 7105,
      "ĠvÄĽÄįnÃ½ch": 7106,
      "ĠnaÅ¡eho": 7107,
      "bnÃ¡": 7108,
      "stÃ¡ch": 7109,
      "ĠspÄĽch": 7110,
      "Ġpomsty": 7111,
      "ĠÅĺÃŃma": 7112,
      "ÄĽjÅ¡ÃŃ": 7113,
      "ĠÅ¾Å¡ÃŃ": 7114,
      "ĠÅ¡nÄĽ": 7115,
      "Ġlevo": 7116,
      "ĠHra": 7117,
      "Ġyna": 7118,
      "ĠpÃ¡dÃŃ": 7119,
      "Ġbezna": 7120,
      "ĠslabÃ©": 7121,
      "ĠÅ¡irÃ½": 7122,
      "ĠPraha": 7123,
      "Ġpokoje": 7124,
      "ĠvzpomÃŃnky": 7125,
      "ABABCX": 7126,
      "Ġdoktor": 7127,
      "Ġjil": 7128,
      "Äįuje": 7129,
      "ĠÃ¡hÃ¡": 7130,
      "Ġkoli": 7131,
      "ĠmÃŃhÃ¡": 7132,
      "Ġzlost": 7133,
      "Ġbloudil": 7134,
      "Å¾dÄĽ": 7135,
      "Äįat": 7136,
      "Ġdosta": 7137,
      "Ġprok": 7138,
      "ĠJakby": 7139,
      "Ġjsouc": 7140,
      "ĠvavÅĻÃŃ": 7141,
      "hlas": 7142,
      "ĠbavÃŃ": 7143,
      "ĠzoufalstvÃŃ": 7144,
      "zli": 7145,
      "Ġsep": 7146,
      "ĠobjÃŃm": 7147,
      "ĠruÄįky": 7148,
      "ĠrÃ¡ÅĪ": 7149,
      "Ġulice": 7150,
      "ĠzdobÃŃ": 7151,
      "Ġpokud": 7152,
      "Ġdojem": 7153,
      "ĠKy": 7154,
      "ĠrozlÃŃ": 7155,
      "pusÅ¥": 7156,
      "ĠkoutÄĽ": 7157,
      "ĠbÄĽhu": 7158,
      "Ġzlomen": 7159,
      "ĠhlubokÃ½": 7160,
      "ĠÄĮlovÄĽk": 7161,
      "nÄĽla": 7162,
      "ÄįinÄĽ": 7163,
      "ĠÅĻece": 7164,
      "ĠDost": 7165,
      "Ġsedm": 7166,
      "ĠkrÃ¡lovstvÃŃ": 7167,
      "ĠDobÅĻe": 7168,
      "ĠodpusÅ¥": 7169,
      "Ġoct": 7170,
      "rÃ¡nÃŃ": 7171,
      "Ġster": 7172,
      "Ġmudr": 7173,
      "ĠlÃ¡me": 7174,
      "ĠretÅ¯": 7175,
      "piti": 7176,
      "cÅ¯v": 7177,
      "ĠchvÃ¡tÃ¡": 7178,
      "Ġbalvan": 7179,
      "Ġvnik": 7180,
      "ĠuvÄĽ": 7181,
      "ÄįekÃ¡": 7182,
      "tÃ¡ÅĻ": 7183,
      "mÃŃra": 7184,
      "ĠburÃ¡": 7185,
      "ĠÅłi": 7186,
      "ĠtÄĽÅ¾kÃ½m": 7187,
      "ĠskalÃ¡ch": 7188,
      "ĠÅ¡epce": 7189,
      "ĠÅ¡lechet": 7190,
      "ĠukÅ¯": 7191,
      "ĠÄįen": 7192,
      "Ġvypl": 7193,
      "ĠzÃ¡vÄĽ": 7194,
      "ĠsvatÃ©m": 7195,
      "vracÃŃ": 7196,
      "ĠrÅ¯znÃ©": 7197,
      "ĠÄįervÃ¡nkÅ¯": 7198,
      "letÄĽ": 7199,
      "ĠPlÃ¡": 7200,
      "ĠhoÅ¡i": 7201,
      "Ġnohu": 7202,
      "Ġodlesk": 7203,
      "ĠhlasÅ¯": 7204,
      "Ġhrdla": 7205,
      "ĠdÃ¡my": 7206,
      "ĠNeboÅ¥": 7207,
      "ĠpenÄĽz": 7208,
      "ĠnÄĽt": 7209,
      "ĠMla": 7210,
      "ĠÅ¯nÃŃ": 7211,
      "Ġnepoko": 7212,
      "ĠzvlÃ¡Å¡Å¥": 7213,
      "Ġzko": 7214,
      "ĠSpo": 7215,
      "ĠhoÅĻi": 7216,
      "ĠOu": 7217,
      "ĠÅ¡ÃŃÅĻ": 7218,
      "ĠÄĮechy": 7219,
      "ĠperutÄĽ": 7220,
      "Ġnehy": 7221,
      "ĠiÅ¡ÃŃ": 7222,
      "ĠKou": 7223,
      "Ġvzbou": 7224,
      "Å¡ili": 7225,
      "Ġvnady": 7226,
      "pÃŃm": 7227,
      "tas": 7228,
      "ul": 7229,
      "ĠkÅ¡ti": 7230,
      "ĠÄįekÃ¡m": 7231,
      "vyk": 7232,
      "ĠdÄĽsÃŃ": 7233,
      "ĠpÃŃti": 7234,
      "Ġmiluji": 7235,
      "ĠchvÄĽlo": 7236,
      "Ġpohan": 7237,
      "Ġekl": 7238,
      "ĠrÄįÃŃ": 7239,
      "Äįely": 7240,
      "ĠstÃ¡do": 7241,
      "ĠslÃ½ch": 7242,
      "ĠvzpomÃŃnÃ¡": 7243,
      "ĠpoÅ¾Ã¡r": 7244,
      "ĠnÄĽkolik": 7245,
      "ĠseÄį": 7246,
      "ĠobjÃŃmÃ¡": 7247,
      "daje": 7248,
      "rouh": 7249,
      "ĠÅĻetÄĽ": 7250,
      "ĠpÃ¡nÅ¯": 7251,
      "Ġprostor": 7252,
      "ĠpÅĻijdou": 7253,
      "ĠzazpÃŃ": 7254,
      "ako": 7255,
      "ĠVal": 7256,
      "ĠÄĮÃŃ": 7257,
      "hÃ½bÃ¡": 7258,
      "Ġkyti": 7259,
      "Ġrukama": 7260,
      "ĠVol": 7261,
      "ĠboÅ¾skÃ©": 7262,
      "ruje": 7263,
      "ABABXC": 7264,
      "Å¾eli": 7265,
      "ĠnÄĽÅ¾nÃ©": 7266,
      "ĠlÃŃstek": 7267,
      "Ġslab": 7268,
      "ĠJich": 7269,
      "ĠvrÃ¡sky": 7270,
      "ĠJem": 7271,
      "lÃŃch": 7272,
      "ĠpÅĻines": 7273,
      "ĠpÄĽsti": 7274,
      "ĠvÃ©vo": 7275,
      "Ġpocit": 7276,
      "Ġpojednou": 7277,
      "ĠjeÅ¥": 7278,
      "ĠuÅĻe": 7279,
      "Å¡ehra": 7280,
      "Ġesl": 7281,
      "ĠprvÃ½": 7282,
      "ĠlÃ¡sko": 7283,
      "Ġhluku": 7284,
      "Ġfor": 7285,
      "ĠchtÄĽjÃŃ": 7286,
      "ĠlÃ©ka": 7287,
      "ĠdrÃ¡hy": 7288,
      "Ġpaprs": 7289,
      "Ġdejte": 7290,
      "Ġrozmil": 7291,
      "Ġzpup": 7292,
      "ptÃ¡": 7293,
      "Ġzou": 7294,
      "Ġkej": 7295,
      "Ġrku": 7296,
      "ĠkolÃŃ": 7297,
      "ĠbodÃ¡": 7298,
      "prch": 7299,
      "ĠzjevÃŃ": 7300,
      "Ġmraku": 7301,
      "AAXBBC": 7302,
      "Ġpozdvi": 7303,
      "ĠPÅĻec": 7304,
      "ĠskÅĻivan": 7305,
      "svÄĽt": 7306,
      "ĠÃ¡ty": 7307,
      "ĠebÃŃ": 7308,
      "ĠZÅĻÃŃm": 7309,
      "ĠboÅĻÃŃ": 7310,
      "ĠnÃ¡ÅĻ": 7311,
      "ĠÅ¡irÃ©": 7312,
      "staly": 7313,
      "ĠbÃ©ÅĻe": 7314,
      "ĠProkop": 7315,
      "kru": 7316,
      "Ġace": 7317,
      "Ġnapad": 7318,
      "ĠrÃ©m": 7319,
      "dÃŃte": 7320,
      "ĠvÃŃÄįka": 7321,
      "Ġzkad": 7322,
      "vku": 7323,
      "ĠseÅ¡": 7324,
      "Ġpova": 7325,
      "ÄįÃŃÅ¡": 7326,
      "Ġlidmi": 7327,
      "ĠpÃ¡nu": 7328,
      "Ġparku": 7329,
      "dumÄįi": 7330,
      "hÃ©ho": 7331,
      "Ġpoha": 7332,
      "ĠuvÃ¡": 7333,
      "Ġdos": 7334,
      "vÃŃce": 7335,
      "ĠnÄĽmÃ¡": 7336,
      "ĠÅ¾ila": 7337,
      "ĠÄįinu": 7338,
      "ĠtÃŃsnÃŃ": 7339,
      "ABCCBD": 7340,
      "Ġobrazy": 7341,
      "ĠdÄĽlÃŃ": 7342,
      "ĠÅ¡ÃŃj": 7343,
      "ĠÅłu": 7344,
      "ĠpÅĻÃ¡telÃ©": 7345,
      "ĠbohatÃ½r": 7346,
      "cti": 7347,
      "Ġstranu": 7348,
      "ĠvrahÅ¯": 7349,
      "Ġkly": 7350,
      "ĠhÅĻÃ¡": 7351,
      "ÅĻely": 7352,
      "Ġihned": 7353,
      "ĠzÃ¡ho": 7354,
      "ĠOÄįi": 7355,
      "Ġych": 7356,
      "Ġsoused": 7357,
      "ĠchvÄĽj": 7358,
      "jdeÅ¡": 7359,
      "ĠpamÄĽt": 7360,
      "ĠpÅĻelud": 7361,
      "Ġmladist": 7362,
      "ĠrodnÃ½": 7363,
      "Ġleto": 7364,
      "ĠteÄįe": 7365,
      "ĠCti": 7366,
      "Äįena": 7367,
      "ĠpÅĻesvÄĽd": 7368,
      "Ġtrud": 7369,
      "Ġplynou": 7370,
      "ĠpÃ½Å¡e": 7371,
      "ĠÃŃcÃ½": 7372,
      "kalo": 7373,
      "ĠprobÃŃ": 7374,
      "Ġslep": 7375,
      "stupuje": 7376,
      "gna": 7377,
      "rko": 7378,
      "ĠVÄĽt": 7379,
      "Ġlat": 7380,
      "ĠrekÅ¯": 7381,
      "ĠzboÅ¾nÄĽ": 7382,
      "ĠmÅ¾ikem": 7383,
      "ca": 7384,
      "ĠMaÄı": 7385,
      "Ġzmatku": 7386,
      "ĠpoÅĻÃ¡d": 7387,
      "AXAXB": 7388,
      "jeli": 7389,
      "ĠboÅ¾ÃŃm": 7390,
      "naly": 7391,
      "ĠvlÃ¡dy": 7392,
      "zenÃ½": 7393,
      "AAXBBX": 7394,
      "AXXX": 7395,
      "BD": 7396,
      "zil": 7397,
      "ĠnedÄĽ": 7398,
      "ĠÃŃst": 7399,
      "ĠpÅĻichÃ¡zÃŃ": 7400,
      "Ġnemlu": 7401,
      "pali": 7402,
      "ĠplnÃ½ch": 7403,
      "Å¡ce": 7404,
      "ĠnabÃŃ": 7405,
      "Ġoddech": 7406,
      "ĠvÃ½kÅĻi": 7407,
      "Ġzbylo": 7408,
      "Ġkmit": 7409,
      "ĠdÄĽcka": 7410,
      "Ġpoledne": 7411,
      "ĠKle": 7412,
      "ÄįeÅ¾": 7413,
      "jila": 7414,
      "ĠpravÃŃm": 7415,
      "ĠvidÄĽla": 7416,
      "ĠdruzÃŃ": 7417,
      "Ġzjevil": 7418,
      "ĠkÃ¡cÃŃ": 7419,
      "ĠÅ¡eptal": 7420,
      "Ġjiskra": 7421,
      "ĠmyÅ¡lÃ©nka": 7422,
      "ĠkÅĻovÃŃ": 7423,
      "ĠDlouho": 7424,
      "ĠvtÄĽ": 7425,
      "ĠdÃ¡no": 7426,
      "ĠnebeskÃ©": 7427,
      "Å¡enÃ¡": 7428,
      "tomil": 7429,
      "ĠjizbÄĽ": 7430,
      "ĠhÅĻbitov": 7431,
      "nskÃ©": 7432,
      "Ġzato": 7433,
      "ĠÃŃbÃ¡": 7434,
      "ĠrhÃ¡": 7435,
      "Ġprova": 7436,
      "ĠslabÃ½": 7437,
      "ĠdÃ½mu": 7438,
      "ĠmateÅĻ": 7439,
      "Ġust": 7440,
      "mila": 7441,
      "Å¾enÃ½ch": 7442,
      "ĠchtÄĽlo": 7443,
      "ĠjejichÅ¾": 7444,
      "ĠbÅĻehÅ¯": 7445,
      "ĠMyÅ¡": 7446,
      "ĠhlÃ¡sÃŃ": 7447,
      "bami": 7448,
      "Ġpoklady": 7449,
      "Ġvzrost": 7450,
      "ĠzÃ¡dumÄįi": 7451,
      "Ġsiro": 7452,
      "ĠprvÃ©": 7453,
      "Ġcig": 7454,
      "ĠmilÃŃ": 7455,
      "ĠspÃ¡ti": 7456,
      "ĠvichÅĻice": 7457,
      "Ġdych": 7458,
      "adu": 7459,
      "Ġsestra": 7460,
      "teÄįnÃŃ": 7461,
      "nuje": 7462,
      "mus": 7463,
      "ĠMrt": 7464,
      "veÅĪ": 7465,
      "ĠdruhÅ¯": 7466,
      "Ġryk": 7467,
      "ĠmlÄįenÃŃ": 7468,
      "ĠÃºsmÄĽvu": 7469,
      "ĠvzpomÃŃnek": 7470,
      "Ã¡t": 7471,
      "Ġuru": 7472,
      "ĠskvoucÃŃ": 7473,
      "ĠpouhÃ©": 7474,
      "ĠnÄĽmÃ©": 7475,
      "ĠznÃ¡t": 7476,
      "ĠpohÃ¡dky": 7477,
      "ĠtuÅ¡ÃŃm": 7478,
      "Ġpre": 7479,
      "hlÃ½m": 7480,
      "Ġpokoji": 7481,
      "kolem": 7482,
      "Ġrie": 7483,
      "Ġrol": 7484,
      "ĠBar": 7485,
      "ĠlhÃ¡": 7486,
      "Ġrav": 7487,
      "stÃŃrÃ¡": 7488,
      "Ġstan": 7489,
      "ĠÄįinÅ¯": 7490,
      "ĠhouÅ¡ti": 7491,
      "ĠpÃ½cha": 7492,
      "Ġovoce": 7493,
      "ĠnechaÅ¥": 7494,
      "gan": 7495,
      "stvu": 7496,
      "ĠneÅĻe": 7497,
      "ĠZu": 7498,
      "ĠcestÃ¡ch": 7499,
      "ĠdivokÃ©": 7500,
      "ren": 7501,
      "ĠW": 7502,
      "Å¾nou": 7503,
      "Ġpopra": 7504,
      "ĠÃ¡ka": 7505,
      "ĠhradÄĽ": 7506,
      "ceni": 7507,
      "Ġbky": 7508,
      "ĠTru": 7509,
      "Ġneh": 7510,
      "ÅĻelo": 7511,
      "ĠerÃ©": 7512,
      "ĠÅ¡o": 7513,
      "ĠÅ¾iva": 7514,
      "Ġspro": 7515,
      "ĠpaÅ¾ÃŃ": 7516,
      "Ġperel": 7517,
      "Ġsos": 7518,
      "ĠbÃ¡snÄĽ": 7519,
      "ĠpomÃ¡": 7520,
      "Ġproh": 7521,
      "Ġvyho": 7522,
      "ĠvylÃŃ": 7523,
      "Ġprs": 7524,
      "Ġjedem": 7525,
      "ĠklasÅ¯": 7526,
      "ĠVyÅ¡ehra": 7527,
      "ĠÅ¾ÃŃzni": 7528,
      "ĠtajemnÃ©": 7529,
      "Ġshon": 7530,
      "Ġzticha": 7531,
      "ĠKÅĻesÅ¥": 7532,
      "Ġton": 7533,
      "Ġhoru": 7534,
      "ĠstÃ¡da": 7535,
      "ĠplÃ¡lo": 7536,
      "ĠklidnÃ½": 7537,
      "ĠmyÅ¡lenka": 7538,
      "ĠpevnÃ½": 7539,
      "Ġlampy": 7540,
      "Ġhospody": 7541,
      "Ġusy": 7542,
      "ĠuhlÃŃ": 7543,
      "ĠVr": 7544,
      "Ġvych": 7545,
      "ABCABC": 7546,
      "ĠmÃŃsÃŃ": 7547,
      "Ġohlas": 7548,
      "ĠnevidÄĽl": 7549,
      "Å¡til": 7550,
      "ĠohÃ½": 7551,
      "Ġkopy": 7552,
      "Ġplakal": 7553,
      "ĠradosÅ¥": 7554,
      "ĠchvÄĽly": 7555,
      "Ġgi": 7556,
      "ĠposmÄĽch": 7557,
      "ĠvteÅĻi": 7558,
      "Ġnko": 7559,
      "nov": 7560,
      "nÃ¡n": 7561,
      "ĠKÃ½": 7562,
      "toval": 7563,
      "ĠpÅĻÃŃklad": 7564,
      "ĠProti": 7565,
      "ĠFau": 7566,
      "ÄįkovÃ©": 7567,
      "Ġkonci": 7568,
      "nÃ¡Å¡el": 7569,
      "Ġleta": 7570,
      "Ġsrdcy": 7571,
      "Å¾iv": 7572,
      "Å¾ilo": 7573,
      "ĠJednou": 7574,
      "Ġnejdra": 7575,
      "ĠÄįlovÄĽkem": 7576,
      "ĠkrutÃ©": 7577,
      "ĠVÃ¡cla": 7578,
      "Ġsoumraku": 7579,
      "pomen": 7580,
      "ĠtuÅ¾eb": 7581,
      "Ġmluv": 7582,
      "ĠMarnÄĽ": 7583,
      "Ġzbyl": 7584,
      "ĠkrÃ¡tkÃ©": 7585,
      "Ġdrahoka": 7586,
      "ĠnÃ¡mÄĽstÃŃ": 7587,
      "ckÃ½m": 7588,
      "Ġnejde": 7589,
      "Ġtrh": 7590,
      "Ġnebyla": 7591,
      "ĠmdlÃ©": 7592,
      "ĠpodzimnÃŃ": 7593,
      "ĠdnovÃ©": 7594,
      "Ġbce": 7595,
      "Ġnasy": 7596,
      "ĠÄįte": 7597,
      "ĠÄįernÃ½m": 7598,
      "ĠhvÄĽzdou": 7599,
      "ĠteplÃ½": 7600,
      "ĠnevÃŃÅ¡": 7601,
      "Ġsno": 7602,
      "ĠzaÄįÃŃ": 7603,
      "dÃ¡n": 7604,
      "ĠrozÅ¾": 7605,
      "ĠhladÃŃ": 7606,
      "ĠPoz": 7607,
      "dnÃ©ho": 7608,
      "ĠzmÄĽnÃŃ": 7609,
      "ĠniÅ¾": 7610,
      "ĠÄįistou": 7611,
      "benÃ©": 7612,
      "ĠtkÃ½": 7613,
      "vÃ¡nÃŃm": 7614,
      "Ġdocela": 7615,
      "ĠPat": 7616,
      "duch": 7617,
      "ĠpÅĻehlu": 7618,
      "Ġsouci": 7619,
      "ĠblaÅ¾ÃŃ": 7620,
      "ĠMoc": 7621,
      "ĠdvoÅĻe": 7622,
      "nickÃ©": 7623,
      "ĠneznÃ¡mÃ½": 7624,
      "ker": 7625,
      "Ġpopla": 7626,
      "ĠkovÃ¡": 7627,
      "ĠPosled": 7628,
      "ĠvraÅ¥": 7629,
      "Ġslavnost": 7630,
      "ĠMilost": 7631,
      "ĠpÅ¯lnoci": 7632,
      "ĠozÃŃ": 7633,
      "ĠuhÅ¯": 7634,
      "Ġsval": 7635,
      "Ġihu": 7636,
      "ĠÃ¡mÃ½": 7637,
      "Ġroku": 7638,
      "Ġter": 7639,
      "ĠÅ¡et": 7640,
      "Ġsocha": 7641,
      "ĠsvatÃ©ho": 7642,
      "ĠnenadÃ¡nÃŃ": 7643,
      "ĠSlovan": 7644,
      "ĠblÃ½ska": 7645,
      "ĠnelÃŃ": 7646,
      "don": 7647,
      "ĠÅĻetÄĽz": 7648,
      "Ġzloba": 7649,
      "ĠpÅĻemÃ½": 7650,
      "Å¡ad": 7651,
      "ĠpoprvÃ©": 7652,
      "Ġskvr": 7653,
      "Ġcele": 7654,
      "ĠkacÃŃ": 7655,
      "ĠSvatÃ½": 7656,
      "Ġpce": 7657,
      "Å¾nÃŃ": 7658,
      "dÄĽlo": 7659,
      "ÅĪal": 7660,
      "ĠJeÅ¾ÃŃÅ¡": 7661,
      "ĠhustÃ©": 7662,
      "Ġokra": 7663,
      "ĠzdaÅ¾": 7664,
      "ĠsnÃ¡Å¡ÃŃ": 7665,
      "slem": 7666,
      "ĠodÃ¡": 7667,
      "ĠchÅĻe": 7668,
      "ĠÄĽno": 7669,
      "ĠBal": 7670,
      "ĠnÄĽn": 7671,
      "ĠpÃŃÅ¡": 7672,
      "Ġstole": 7673,
      "ĠsladkÃ©m": 7674,
      "ĠTÄĽch": 7675,
      "Ġshlu": 7676,
      "ĠapoÅ¡to": 7677,
      "fÃŃ": 7678,
      "sala": 7679,
      "ĠbÄĽlo": 7680,
      "ĠhÃ¡v": 7681,
      "ĠdÄĽsnÃ©": 7682,
      "ĠÄĮasto": 7683,
      "ĠrovnÄĽÅ¾": 7684,
      "par": 7685,
      "ĠposÃŃ": 7686,
      "ĠPar": 7687,
      "ĠrozvÃ¡": 7688,
      "Ġhladem": 7689,
      "ĠÅ¡epo": 7690,
      "ĠÅĻÃŃdÃŃ": 7691,
      "pÃ¡n": 7692,
      "ĠnedoÄįka": 7693,
      "Ã¡nÃŃ": 7694,
      "skÃ½mi": 7695,
      "ĠzadÃŃ": 7696,
      "jÃŃti": 7697,
      "XAXX": 7698,
      "ĠodÅ¯": 7699,
      "ĠdÄĽvu": 7700,
      "ĠÄįerv": 7701,
      "lÅ¯v": 7702,
      "ĠsvÃŃtÃ¡": 7703,
      "ACAC": 7704,
      "pouÅ¡tÃŃ": 7705,
      "Ġskrz": 7706,
      "Ġprsten": 7707,
      "Ġsymbo": 7708,
      "chi": 7709,
      "Ġzkla": 7710,
      "ĠTro": 7711,
      "ÅĻeje": 7712,
      "ĠkopÃŃ": 7713,
      "bech": 7714,
      "ĠOko": 7715,
      "Ġlak": 7716,
      "Ġjasno": 7717,
      "Ġspor": 7718,
      "ĠmocnÃ¡": 7719,
      "Ġskokem": 7720,
      "Ġpokro": 7721,
      "ĠslepÃ½": 7722,
      "ĠvesmÃŃr": 7723,
      "ĠZdali": 7724,
      "ÄĽÅ¥": 7725,
      "ĠzavÄĽ": 7726,
      "Ġvoje": 7727,
      "ĠraÅĪ": 7728,
      "Ġzvuku": 7729,
      "ĠdÃŃvce": 7730,
      "ABACCB": 7731,
      "ĠnapÅĻed": 7732,
      "the": 7733,
      "ĠjinÃ©ho": 7734,
      "Ġmuky": 7735,
      "ĠÅ¾ik": 7736,
      "ĠlÃŃtost": 7737,
      "ĠstoletÃŃ": 7738,
      "ĠnÃ¡rodÅ¯": 7739,
      "ĠVidÃŃm": 7740,
      "ĠpoÄįÃ¡": 7741,
      "ĠjmÄĽnÃŃ": 7742,
      "ĠzlÃ©ho": 7743,
      "Ġnedal": 7744,
      "ĠletÄĽ": 7745,
      "ÅĪu": 7746,
      "leno": 7747,
      "ĠpÄĽjÃŃ": 7748,
      "ĠhledÃ¡m": 7749,
      "dechu": 7750,
      "Ġprobou": 7751,
      "Ġhorami": 7752,
      "ĠodvÄĽ": 7753,
      "ĠPom": 7754,
      "ĠdÄĽtskÃ©": 7755,
      "nickÃ½": 7756,
      "ĠpamÄĽÅ¥": 7757,
      "ABBB": 7758,
      "ĠvojÃŃ": 7759,
      "ĠHro": 7760,
      "ĠpohlÃ©": 7761,
      "nÄĽjÅ¡ÃŃch": 7762,
      "ĠtÅ¯nÄĽ": 7763,
      "zla": 7764,
      "Å¡kem": 7765,
      "Ġzval": 7766,
      "ÅĻka": 7767,
      "Ġkl": 7768,
      "nÄĽnou": 7769,
      "ĠvÃ¡le": 7770,
      "ĠskoÄįÃŃ": 7771,
      "ĠkrutÄĽ": 7772,
      "ĠtrÃ¡vu": 7773,
      "ĠstÅĻÃŃbrnÃ©": 7774,
      "ĠpevnÃ©": 7775,
      "Ġchceme": 7776,
      "ĠPad": 7777,
      "nutÃ©": 7778,
      "tovÃ¡nÃŃ": 7779,
      "ÅĪÃ¡": 7780,
      "Ġniko": 7781,
      "Ġjasem": 7782,
      "ĠhoupÃ¡": 7783,
      "ĠmalÃ½ch": 7784,
      "ĠsnivÃ¡": 7785,
      "ĠprÃ¡zdnÃ½": 7786,
      "ĠplÃŃÅ¾ÃŃ": 7787,
      "Ġtrium": 7788,
      "Ġvku": 7789,
      "Å¡tÄĽm": 7790,
      "Ġuko": 7791,
      "ĠsrdÃ©": 7792,
      "ĠvÃ¡Å¾nÃ½": 7793,
      "ĠpÅĻedc": 7794,
      "ĠsÃŃÅ¥": 7795,
      "ĠzdvÃŃ": 7796,
      "ĠsmÃ¡la": 7797,
      "Ġjizby": 7798,
      "ĠbÅĻÃŃmÄĽ": 7799,
      "ĠideÃ¡": 7800,
      "ĠstkvÄĽ": 7801,
      "ĠJar": 7802,
      "ĠzaÅ¡ep": 7803,
      "Ġroje": 7804,
      "Ġvysta": 7805,
      "ĠtÄĽkÃ¡": 7806,
      "ĠmÄĽly": 7807,
      "Ġhromo": 7808,
      "Ġteplo": 7809,
      "Ġmoudrosti": 7810,
      "Å¾em": 7811,
      "vÃ¡na": 7812,
      "Ġkorouh": 7813,
      "ver": 7814,
      "ĠnovÃ©m": 7815,
      "ĠmÃ¡k": 7816,
      "ĠÃºkry": 7817,
      "Ġkane": 7818,
      "Ġnejsi": 7819,
      "ĠsynÅ¯": 7820,
      "ĠrybnÃŃ": 7821,
      "kladu": 7822,
      "ĠzboÅ¾ÃŃ": 7823,
      "ĠoltÃ¡ÅĻe": 7824,
      "ĠvzÃ¡cnÃ©": 7825,
      "ĠSvato": 7826,
      "ĠokamÅ¾iku": 7827,
      "lÃ½mi": 7828,
      "Ġposu": 7829,
      "ĠBer": 7830,
      "mÄĽlo": 7831,
      "ĠrubÃŃ": 7832,
      "sajÃŃ": 7833,
      "Ġstrasti": 7834,
      "ĠchytÃ¡": 7835,
      "Ġbere": 7836,
      "ĠposlednÃŃm": 7837,
      "Ġmohli": 7838,
      "klÃ¡dÃ¡": 7839,
      "ĠnÃ¡vra": 7840,
      "ĠJeÅ¥": 7841,
      "pÄĽti": 7842,
      "ĠÅ¯ry": 7843,
      "ĠÅ½iÅ¾ka": 7844,
      "ĠSlova": 7845,
      "Ġvzplane": 7846,
      "ĠtisÃŃci": 7847,
      "ĠspanÃŃ": 7848,
      "th": 7849,
      "Ġvstane": 7850,
      "ĠlÃŃpy": 7851,
      "ĠzÅĻeli": 7852,
      "pne": 7853,
      "Ġzjas": 7854,
      "ĠpodÄĽ": 7855,
      "Ġchech": 7856,
      "Ġjsy": 7857,
      "ĠproklÃŃ": 7858,
      "CCA": 7859,
      "ĠvÅ¡echna": 7860,
      "ĠdravÃ½": 7861,
      "Ġpuk": 7862,
      "Ġmodro": 7863,
      "Ġkroku": 7864,
      "ĠznÃ¡ti": 7865,
      "ĠÅ¡koly": 7866,
      "ĠjakÃ©s": 7867,
      "ĠVlÃ¡": 7868,
      "Ġstala": 7869,
      "Ġhrozi": 7870,
      "ĠnÄĽjÅ¾": 7871,
      "Ġzpola": 7872,
      "ĠpaprskÅ¯": 7873,
      "kuje": 7874,
      "Ġrozka": 7875,
      "ĠsÃ¡l": 7876,
      "jÃ¡k": 7877,
      "Ġhisto": 7878,
      "ĠdÃ¡val": 7879,
      "Ġhubi": 7880,
      "ĠzahÅĻ": 7881,
      "ĠhÅĻÃŃmÃ¡": 7882,
      "Ġtmavou": 7883,
      "ĠdvakrÃ¡t": 7884,
      "ĠnaÅ¡ÃŃm": 7885,
      "Ġupy": 7886,
      "Ġdovo": 7887,
      "Ġmozo": 7888,
      "ĠÃºtra": 7889,
      "ĠpÅĻedtu": 7890,
      "ĠvÃ½Äįi": 7891,
      "Ġtemna": 7892,
      "Ġostro": 7893,
      "ĠkleÄįÃŃ": 7894,
      "Ġryb": 7895,
      "Ġzbroj": 7896,
      "ĠstÅĻÃŃbrem": 7897,
      "ĠpÄĽti": 7898,
      "Å¾ku": 7899,
      "Ġnachem": 7900,
      "tiny": 7901,
      "Ġodpla": 7902,
      "cena": 7903,
      "ĠZdaÅ¾": 7904,
      "dati": 7905,
      "Ġzil": 7906,
      "Ġzbude": 7907,
      "Ġoto": 7908,
      "ĠlÃŃnÄĽ": 7909,
      "Ġlup": 7910,
      "ĠzdÃ¡la": 7911,
      "Ġsedmi": 7912,
      "ĠnevÄĽdÄĽl": 7913,
      "Ġhejno": 7914,
      "Ġzrozen": 7915,
      "ĠÅ¾alost": 7916,
      "vÅ¡ad": 7917,
      "Ġjek": 7918,
      "ĠnevÃ¡": 7919,
      "lumen": 7920,
      "Ġlel": 7921,
      "Ġvysko": 7922,
      "ĠkÅĻÃŃÅ¾i": 7923,
      "ĠbijÃŃ": 7924,
      "Ġmrazem": 7925,
      "ĠstÅĻechy": 7926,
      "ĠchrÃ¡mÄĽ": 7927,
      "ĠdrÃ¡hu": 7928,
      "Ġprince": 7929,
      "nÃŃÅ¡": 7930,
      "Ġpomy": 7931,
      "ĠudÃ½": 7932,
      "ĠÅ¾nÄĽ": 7933,
      "ĠzÃ¡mek": 7934,
      "ĠÅ¾ebrÃ¡k": 7935,
      "dlem": 7936,
      "vcÅ¯": 7937,
      "ĠÃ¡vÃŃ": 7938,
      "cii": 7939,
      "ÅĻeno": 7940,
      "ĠVzpomÃŃ": 7941,
      "Ġvzdoru": 7942,
      "ĠÃ¡mu": 7943,
      "ĠÃŃlo": 7944,
      "ĠKnÄĽ": 7945,
      "ladÅ¡ÃŃ": 7946,
      "Ġdek": 7947,
      "ÅĻenÃ½m": 7948,
      "Ġklidem": 7949,
      "ĠzdÃ¡nÃŃ": 7950,
      "ĠsnÃŃt": 7951,
      "ĠslavnÃ½ch": 7952,
      "Ġhudbu": 7953,
      "ĠspoleÄįnosti": 7954,
      "pka": 7955,
      "snÃ½m": 7956,
      "ĠSk": 7957,
      "Ġvzpou": 7958,
      "Ġhouf": 7959,
      "Ġtrosky": 7960,
      "ĠlehkÃ½": 7961,
      "ĠotevÅĻel": 7962,
      "ĠkrvavÃ½": 7963,
      "Ġklene": 7964,
      "ĠpÅ¯lnoc": 7965,
      "stroj": 7966,
      "Ġposte": 7967,
      "ĠÄĽÅ¡ÃŃ": 7968,
      "Äįeho": 7969,
      "ĠÃºstech": 7970,
      "ĠmÃ©nÄĽ": 7971,
      "vena": 7972,
      "ĠpovÄĽz": 7973,
      "ĠÄįtvrt": 7974,
      "qu": 7975,
      "tnÃ½m": 7976,
      "ĠahÃ©": 7977,
      "ĠorÃ¡": 7978,
      "Ġodsou": 7979,
      "ĠOde": 7980,
      "ĠblahÃ½": 7981,
      "cenou": 7982,
      "ĠÅ¡ik": 7983,
      "Ġmladost": 7984,
      "ĠznÃ¡te": 7985,
      "ĠtesknÃ©": 7986,
      "Ġzaml": 7987,
      "Ġvzejde": 7988,
      "nÄįÃŃ": 7989,
      "nÄĽly": 7990,
      "ÅĻÃŃti": 7991,
      "ĠmuÅ¾em": 7992,
      "ĠpalÃ¡c": 7993,
      "Ġhezky": 7994,
      "Å¾nÃ½ch": 7995,
      "ĠutÃ¡": 7996,
      "Ġrozez": 7997,
      "ĠzÃ¡slu": 7998,
      "ĠplachÃ½": 7999,
      "Ġslovu": 8000,
      "Ġdruhy": 8001,
      "ĠjaÅĻe": 8002,
      "ĠsvÃ¡tek": 8003,
      "ĠpropastÃŃ": 8004,
      "Ġroztomil": 8005,
      "Ġkoruny": 8006,
      "ĠmÄĽkce": 8007,
      "Ġpodob": 8008,
      "Ġpovstal": 8009,
      "Ġshle": 8010,
      "ĠzanÃŃ": 8011,
      "vÃŃtÃŃ": 8012,
      "ĠvÃ¡t": 8013,
      "rÅ¯v": 8014,
      "ĠtemnÃ¡": 8015,
      "ĠsvÃŃce": 8016,
      "ĠjmÃ©nem": 8017,
      "Ġjezera": 8018,
      "ĠÅ¡av": 8019,
      "ĠzasmuÅ¡il": 8020,
      "ĠnevÃ½slov": 8021,
      "ÅĻÃŃvÃ¡": 8022,
      "ĠbÃŃdÄĽ": 8023,
      "ABCDDC": 8024,
      "Ġsadu": 8025,
      "ĠskalnÃŃ": 8026,
      "ĠpoÄįne": 8027,
      "Ġminulost": 8028,
      "haly": 8029,
      "ĠssÃ¡": 8030,
      "ÅĪa": 8031,
      "Ġmuce": 8032,
      "ĠChy": 8033,
      "chali": 8034,
      "ĠmrtvÃ¡": 8035,
      "ĠvlastnÃŃch": 8036,
      "ĠsnivÃ½": 8037,
      "ĠkaÅ¾dÃ©mu": 8038,
      "ĠHospodi": 8039,
      "ĠvodopÃ¡": 8040,
      "atÃ©": 8041,
      "doval": 8042,
      "ĠpeÅĻÃŃ": 8043,
      "ĠlÃ©k": 8044,
      "ĠnovÃ©ho": 8045,
      "ĠmoudrÃ½": 8046,
      "mÃ¡m": 8047,
      "Ġjist": 8048,
      "ĠÅ¡irÃ©m": 8049,
      "ĠzÃŃral": 8050,
      "Ġdivoce": 8051,
      "ĠvleÄįe": 8052,
      "ĠÅĪÃ¡dra": 8053,
      "Ġ!": 8054,
      "out": 8055,
      "ĠJste": 8056,
      "tickÃ©": 8057,
      "ĠÅ¾ivÃŃ": 8058,
      "ĠrudÃ¡": 8059,
      "ĠJeÅ¾ÃŃ": 8060,
      "ĠuchvÃ¡": 8061,
      "Ġjdem": 8062,
      "ĠaÅĻe": 8063,
      "ĠÅ¾nÃ©": 8064,
      "nesla": 8065,
      "Ġzasy": 8066,
      "ĠrumÄĽ": 8067,
      "ĠÃºpÃŃ": 8068,
      "Ġrah": 8069,
      "ĠÅĻÃŃv": 8070,
      "Ġnebla": 8071,
      "ĠtÃŃÅ¡": 8072,
      "Ġtragi": 8073,
      "Ġpruh": 8074,
      "Ġsedla": 8075,
      "ĠÅ¡kÅ¯": 8076,
      "ĠroznÃŃ": 8077,
      "ĠÃºsvi": 8078,
      "Ġslabo": 8079,
      "ĠdlaÅ¾": 8080,
      "Ġzakry": 8081,
      "ĠdivokÃ½": 8082,
      "Ġshr": 8083,
      "Ġvdech": 8084,
      "ĠvÃŃme": 8085,
      "Ġchalou": 8086,
      "ĠPru": 8087,
      "ĠobÄĽti": 8088,
      "ĠvÄĽÅ¾i": 8089,
      "Ġskryt": 8090,
      "ĠtÅ¯m": 8091,
      "Ġzaji": 8092,
      "ĠVÅ¡em": 8093,
      "ĠPl": 8094,
      "ĠdusÃŃ": 8095,
      "Ġmukou": 8096,
      "jemi": 8097,
      "Ġcenu": 8098,
      "AEAE": 8099,
      "ÃŃch": 8100,
      "ĠMlÃ¡": 8101,
      "ĠlÃ½": 8102,
      "ĠbÃ¡znÃŃ": 8103,
      "ĠsmÃ½": 8104,
      "ĠÅ¾nÃ¡": 8105,
      "voÅĻÃŃ": 8106,
      "ĠrtÅ¯m": 8107,
      "ĠlkÃ¡nÃŃ": 8108,
      "Ġstate": 8109,
      "Ġkostela": 8110,
      "arÃ¡": 8111,
      "ĠnaÅ¡li": 8112,
      "Ġprosil": 8113,
      "Ġnouze": 8114,
      "ĠvlaÅ¡to": 8115,
      "ĠÅłÅ¥": 8116,
      "XAXABC": 8117,
      "Ġodpor": 8118,
      "ĠmÄĽkkÃ½": 8119,
      "ĠSÃ¡": 8120,
      "ĠvysÃŃ": 8121,
      "Ġtec": 8122,
      "ĠbÃŃdnÃ©": 8123,
      "ĠzaÅ¡lÃ½ch": 8124,
      "ĠEjhle": 8125,
      "ĠTma": 8126,
      "ĠdotÃ½": 8127,
      "ĠhodÃŃ": 8128,
      "ĠtakovÃ©": 8129,
      "ĠOs": 8130,
      "Å¡ena": 8131,
      "ĠÃ©no": 8132,
      "ĠtvrdÃ½": 8133,
      "ĠuÅ¡lech": 8134,
      "Ġopil": 8135,
      "Ġneje": 8136,
      "Ġzahu": 8137,
      "dovi": 8138,
      "duje": 8139,
      "talo": 8140,
      "Ġvlaje": 8141,
      "ĠjasnÃ½m": 8142,
      "ĠveselÃ½": 8143,
      "ĠnevÄĽÅĻÃŃ": 8144,
      "Ġoblohou": 8145,
      "ĠtvÅ¯rÄįÃŃ": 8146,
      "nÄĽna": 8147,
      "kÃ¡zal": 8148,
      "ĠÅ¾ijÃŃ": 8149,
      "ĠmÄĽÅĻÃŃ": 8150,
      "ĠÅ¡eÅĻÃŃ": 8151,
      "ĠplaÅ¡ÃŃ": 8152,
      "Å¾eno": 8153,
      "Ġstarci": 8154,
      "Ġkrov": 8155,
      "Ġsnahy": 8156,
      "ĠsvobodÄĽ": 8157,
      "ĠpestrÃ½": 8158,
      "ĠpamÃ¡tku": 8159,
      "ĠmlÃ½n": 8160,
      "Ġazy": 8161,
      "ĠavÅ¡ak": 8162,
      "ĠÃŃsÃŃ": 8163,
      "ĠtÄĽn": 8164,
      "ĠvÃ¡no": 8165,
      "ĠostÅĻÃŃ": 8166,
      "ĠbÄĽla": 8167,
      "ĠmnoÅ¾ÃŃ": 8168,
      "ĠplesÃ¡": 8169,
      "ĠpovÄĽst": 8170,
      "ĠMatka": 8171,
      "pak": 8172,
      "znÃ½ch": 8173,
      "Ġolo": 8174,
      "vÄĽzd": 8175,
      "Ġobry": 8176,
      "AABBXX": 8177,
      "pÄĽla": 8178,
      "ĠstÄĽn": 8179,
      "ĠzelenÃ½": 8180,
      "Ġkapky": 8181,
      "Ġdys": 8182,
      "slÅ¯": 8183,
      "ĠdÅ¾": 8184,
      "Ġdka": 8185,
      "Ġben": 8186,
      "ĠÃ¡nÅ¯": 8187,
      "ĠSlav": 8188,
      "Ġvzhled": 8189,
      "ĠtrÄįÃŃ": 8190,
      "ĠpÅ¯dÄĽ": 8191,
      "ĠtmavÃ½ch": 8192,
      "Ġroucha": 8193,
      "ĠSed": 8194,
      "proti": 8195,
      "ĠpÅĻemÃŃ": 8196,
      "Ġzdroje": 8197,
      "ĠjnÃ©": 8198,
      "ĠlekÃ¡": 8199,
      "Ġvzo": 8200,
      "vedu": 8201,
      "ĠLÃ©": 8202,
      "ĠmrtvÃŃ": 8203,
      "Ġfial": 8204,
      "br": 8205,
      "tna": 8206,
      "ĠzaÅ¡el": 8207,
      "Ġkovo": 8208,
      "Ġmine": 8209,
      "Ġvlno": 8210,
      "ĠpohÃ¡dka": 8211,
      "ĠmÄĽkkÃ©": 8212,
      "ĠvzÃŃti": 8213,
      "ovi": 8214,
      "Ġoprav": 8215,
      "lestÃŃ": 8216,
      "ĠhoÅĻem": 8217,
      "ĠoblÃ©": 8218,
      "ĠBrat": 8219,
      "XAXAXA": 8220,
      "ĠlÃŃba": 8221,
      "ĠstarÃ½m": 8222,
      "ĠjasnÃ½ch": 8223,
      "ĠmnoÅ¾stvÃŃ": 8224,
      "ĠtmavÃ¡": 8225,
      "ĠÃŃmi": 8226,
      "Ġvyslo": 8227,
      "ĠvzÃ¡cnÃ½": 8228,
      "ĠmraÄįno": 8229,
      "pej": 8230,
      "ĠtkÅ¯": 8231,
      "Ġika": 8232,
      "Ġobdi": 8233,
      "ĠlÅ¾ÃŃ": 8234,
      "Ġhrot": 8235,
      "chajÃŃ": 8236,
      "ĠdrahÃ½ch": 8237,
      "bÃ¡Å¡": 8238,
      "ĠnÃ¡rody": 8239,
      "ĠunÃŃ": 8240,
      "Ġobec": 8241,
      "ĠMlu": 8242,
      "ĠBlÃŃ": 8243,
      "ĠruÅ¡ÃŃ": 8244,
      "ĠdobrÃ½ch": 8245,
      "ĠbÃ¡jÃŃ": 8246,
      "Äįeno": 8247,
      "ĠspÄĽchu": 8248,
      "ĠneznÃ¡mÃ©": 8249,
      "Ġpevnou": 8250,
      "AABCC": 8251,
      "Ġaci": 8252,
      "star": 8253,
      "Ġeci": 8254,
      "naje": 8255,
      "ĠzÃ¡ro": 8256,
      "ĠpravÃ¡": 8257,
      "ĠÅ¾ÃŃzeÅĪ": 8258,
      "ĠzÅ¯sta": 8259,
      "Ġblud": 8260,
      "Ġceny": 8261,
      "ĠpsanÃŃ": 8262,
      "ĠsÅ¯m": 8263,
      "Ġpop": 8264,
      "ĠÅ¡Å¡ÃŃ": 8265,
      "dol": 8266,
      "ledne": 8267,
      "ĠJedno": 8268,
      "ĠkouÅĻÃŃ": 8269,
      "ĠmetÃ¡": 8270,
      "ÄįenÃ¡": 8271,
      "ĠaniÅ¾": 8272,
      "ĠhorÅ¡ÃŃ": 8273,
      "ĠHon": 8274,
      "ĠveselÃŃ": 8275,
      "Ġshro": 8276,
      "Ġjdeme": 8277,
      "lÃŃp": 8278,
      "mund": 8279,
      "ĠzÃ¡Å¡Å¥": 8280,
      "ĠPoÄį": 8281,
      "cenÃ½ch": 8282,
      "ĠulicÃŃch": 8283,
      "ĠKraj": 8284,
      "Ġvlek": 8285,
      "land": 8286,
      "ĠbÅĻit": 8287,
      "ĠzapÃ¡": 8288,
      "Ġej": 8289,
      "ĠprochÃ¡": 8290,
      "ĠruÄįe": 8291,
      "ĠkvÄĽtech": 8292,
      "ĠÅ¾aly": 8293,
      "ĠhvÄĽzdnÃ©": 8294,
      "Ġchladnou": 8295,
      "ĠozÃ½vÃ¡": 8296,
      "Ġtajemnou": 8297,
      "Ġvezme": 8298,
      "Ġpohledu": 8299,
      "ĠklÃ¡Å¡ter": 8300,
      "ĠÅłtÄĽstÃŃ": 8301,
      "Ġroh": 8302,
      "ĠvÄĽno": 8303,
      "ĠkabÃ¡": 8304,
      "ĠÅ¡erÃ½": 8305,
      "ĠstarÅ¡ÃŃ": 8306,
      "ĠzelenÃ¡": 8307,
      "Ġsloupy": 8308,
      "Ġvstoupil": 8309,
      "Ġhody": 8310,
      "Ġmojich": 8311,
      "Ġlie": 8312,
      "ĠÄįeskou": 8313,
      "Ġhladu": 8314,
      "ĠvodÃŃ": 8315,
      "Ġpranic": 8316,
      "ĠpÅĻÃŃtele": 8317,
      "Ġtrav": 8318,
      "vrh": 8319,
      "ĠkÃ½v": 8320,
      "Ġzastavil": 8321,
      "ĠtÃ³ny": 8322,
      "ĠvÃ½chod": 8323,
      "ĠvybÃŃ": 8324,
      "Ġmuzi": 8325,
      "Ġtane": 8326,
      "Ġysy": 8327,
      "Ġsluha": 8328,
      "Ġpustil": 8329,
      "ĠmodrÃ¡": 8330,
      "bÃ¡n": 8331,
      "ĠBych": 8332,
      "ĠmocnÃ½m": 8333,
      "Ġnepokoj": 8334,
      "ĠznaÄįÃŃ": 8335,
      "ĠubohÃ©": 8336,
      "Ġzanech": 8337,
      "kosti": 8338,
      "Ġrtem": 8339,
      "Ġref": 8340,
      "ĠvÄĽÄįnÃ½m": 8341,
      "pouÅ¡tÄĽ": 8342,
      "ĠstatnÃ½": 8343,
      "ABACBC": 8344,
      "ĠÅĻasy": 8345,
      "ĠcÃŃrkve": 8346,
      "kati": 8347,
      "Ġkohou": 8348,
      "ĠKÃ¡": 8349,
      "Ġvypro": 8350,
      "ĠJedi": 8351,
      "Ġluhu": 8352,
      "ĠbÃ¡znÄĽ": 8353,
      "ĠradostnÄĽ": 8354,
      "ĠVzhÅ¯ru": 8355,
      "ĠhlubinÃ¡ch": 8356,
      "ĠSyn": 8357,
      "clo": 8358,
      "XXAA": 8359,
      "Ġita": 8360,
      "Ġdoli": 8361,
      "ĠSmÃŃ": 8362,
      "ĠSpas": 8363,
      "ĠvÃŃnek": 8364,
      "ĠsnÄĽti": 8365,
      "ĠmarnÃ½": 8366,
      "leko": 8367,
      "Ġupu": 8368,
      "ĠÃ¡jÃŃ": 8369,
      "ĠVÅ¡u": 8370,
      "vami": 8371,
      "danÃ©": 8372,
      "ĠZpÃŃ": 8373,
      "ĠnÄĽz": 8374,
      "ĠlÃŃt": 8375,
      "ĠstÃ¡vÃ¡": 8376,
      "ĠplÃ¡nÄĽ": 8377,
      "Ġjala": 8378,
      "ĠsuchÃ©": 8379,
      "ĠÄįÃŃst": 8380,
      "Ġmrakem": 8381,
      "ĠpokolenÃŃ": 8382,
      "Ġdarem": 8383,
      "ĠjiskÅĻÃŃ": 8384,
      "Ġvichrem": 8385,
      "ĠKterak": 8386,
      "Ġdobrodru": 8387,
      "ĠtÅ¯ÅĪ": 8388,
      "Ġneskonal": 8389,
      "ĠsvatebnÃŃ": 8390,
      "bilo": 8391,
      "Ġcitem": 8392,
      "ĠdobÃ¡ch": 8393,
      "ĠbÄĽlÃ¡": 8394,
      "ĠbujnÃ½": 8395,
      "Ġstrun": 8396,
      "ĠKdybych": 8397,
      "ĠlÅ¯Å¾ko": 8398,
      "ĠStÃŃn": 8399,
      "Ġbiskup": 8400,
      "lekÃ¡": 8401,
      "Ġuhas": 8402,
      "ĠÃ¡di": 8403,
      "vÃŃtÃ¡": 8404,
      "Ġpronik": 8405,
      "ĠkoÅ¡": 8406,
      "ĠvzkÅĻi": 8407,
      "vinu": 8408,
      "ĠÄįernÃ©m": 8409,
      "ĠdeÅ¡ti": 8410,
      "ĠtÃŃseÅĪ": 8411,
      "Ġzoufalo": 8412,
      "ĠobrÃ¡til": 8413,
      "ĠmroucÃŃ": 8414,
      "ĠPoslednÃŃ": 8415,
      "any": 8416,
      "ĠudÄĽ": 8417,
      "ĠÄĽdÃŃ": 8418,
      "Ġvym": 8419,
      "ĠÅĻÃŃd": 8420,
      "ĠhledÄĽ": 8421,
      "Ġopustil": 8422,
      "ĠdrobnÃ½ch": 8423,
      "ĠstkvÃŃ": 8424,
      "ĠnÃ©sti": 8425,
      "ĠhvÃŃz": 8426,
      "mar": 8427,
      "pku": 8428,
      "Ġokouz": 8429,
      "ĠdÃŃtko": 8430,
      "ĠsloÅ¾il": 8431,
      "ĠsnÄĽho": 8432,
      "ĠjemnÃ©": 8433,
      "ĠokolÃŃ": 8434,
      "Ġzloby": 8435,
      "ĠpalÃ¡ce": 8436,
      "lce": 8437,
      "ÄįnÃ©ho": 8438,
      "Äıas": 8439,
      "vÄĽtÅĻÃŃ": 8440,
      "Å¡enÃ½ch": 8441,
      "ĠmaliÄį": 8442,
      "ĠmilovÃ¡nÃŃ": 8443,
      "ĠĠĠĊ": 8444,
      "ĠRozu": 8445,
      "FF": 8446,
      "kvÄĽt": 8447,
      "vnitÅĻ": 8448,
      "Ġzta": 8449,
      "ĠasÃŃ": 8450,
      "Ġneli": 8451,
      "Ġdoly": 8452,
      "XAAX": 8453,
      "Ġpropad": 8454,
      "Ġduma": 8455,
      "ĠtulÃŃ": 8456,
      "Ġkladi": 8457,
      "Ġmrazi": 8458,
      "ĠbolesÅ¥": 8459,
      "ĠPÃ¡nu": 8460,
      "Ġoblaka": 8461,
      "ĠzuÅĻi": 8462,
      "ĠMnoho": 8463,
      "ĠzapomnÄĽnÃŃ": 8464,
      "ĠverÅ¡Å¯": 8465,
      "ble": 8466,
      "leÅ¥": 8467,
      "ĠerÃ¡": 8468,
      "ĠKru": 8469,
      "Ġhocha": 8470,
      "ĠnÃŃt": 8471,
      "ĠtÃ¡hla": 8472,
      "stoupÃŃ": 8473,
      "ĠkÅĻÃŃdlech": 8474,
      "rvÃ¡": 8475,
      "Ġlide": 8476,
      "Ġvozy": 8477,
      "ĠdÃŃlu": 8478,
      "trp": 8479,
      "ĠhlasnÄĽ": 8480,
      "ĠhorkÃ©": 8481,
      "ĠspÄĽchal": 8482,
      "hlÃŃÅ¾e": 8483,
      "ĠvÄĽrnÃ¡": 8484,
      "volnÄĽ": 8485,
      "ĠlÅ¯no": 8486,
      "Ġkletby": 8487,
      "ĠandÄĽlÃ©": 8488,
      "ĠvzÃŃt": 8489,
      "bÅ¡ÃŃ": 8490,
      "ĠÅ¾ky": 8491,
      "Ġhodil": 8492,
      "Ġsluchu": 8493,
      "ĠprÃ¡vem": 8494,
      "Å¡enÄĽ": 8495,
      "skot": 8496,
      "Ġleskne": 8497,
      "Ġsboru": 8498,
      "Ġpodu": 8499,
      "Ġnet": 8500,
      "ĠnahÃ¡": 8501,
      "bych": 8502,
      "ĠnÄĽhu": 8503,
      "ĠvÃ½smÄĽ": 8504,
      "ĠtrnÃŃ": 8505,
      "ĠTur": 8506,
      "Ġlehko": 8507,
      "ĠStojÃŃ": 8508,
      "Ġzabo": 8509,
      "vÃ¡me": 8510,
      "ĠmuÄįÃŃ": 8511,
      "Å¡ilo": 8512,
      "lenÃ½ch": 8513,
      "ĠdÃ¡lnÃ½ch": 8514,
      "Ġlupen": 8515,
      "ĠpohnutÃŃ": 8516,
      "ĠsnÄĽtÃŃ": 8517,
      "ĠbrÃ¡na": 8518,
      "ĠadÃ©": 8519,
      "Ġmam": 8520,
      "Ġopa": 8521,
      "ABXX": 8522,
      "Ġdopo": 8523,
      "tiÅ¾": 8524,
      "ĠÅ¡kol": 8525,
      "ĠSÃŃ": 8526,
      "ĠSmÄĽ": 8527,
      "Ġhodina": 8528,
      "ĠsilnÃ©": 8529,
      "Ġpaty": 8530,
      "Ġheslo": 8531,
      "ĠÅ¾havÃ¡": 8532,
      "Ġklobouk": 8533,
      "!!": 8534,
      "Ġutk": 8535,
      "Ġvec": 8536,
      "nus": 8537,
      "Ġmozku": 8538,
      "ĠDvÄĽ": 8539,
      "pajÃŃ": 8540,
      "ĠstraÅ¡nÃ½": 8541,
      "ĠdlouhÃ½m": 8542,
      "ĠvÅ¡emo": 8543,
      "ĠspÃ¡su": 8544,
      "AXABCB": 8545,
      "Ġtrap": 8546,
      "Ġsady": 8547,
      "ĠteplÃ©": 8548,
      "Ġmiliony": 8549,
      "ĠsnoubÃŃ": 8550,
      "ADD": 8551,
      "ĠnkÅ¯": 8552,
      "Ġiro": 8553,
      "Ġidy": 8554,
      "ĠpaÅ¾e": 8555,
      "Ġnejen": 8556,
      "ĠcÃŃtit": 8557,
      "Ġmlhou": 8558,
      "ĠsilnÄĽ": 8559,
      "ĠuklÃ¡": 8560,
      "Ġkameny": 8561,
      "ĠstvoÅĻil": 8562,
      "ĠjitÅĻnÃŃ": 8563,
      "sÃ¡m": 8564,
      "chni": 8565,
      "ĠjeseÅĪ": 8566,
      "lom": 8567,
      "lostÃŃ": 8568,
      "ĠÄįna": 8569,
      "ĠÃŃzy": 8570,
      "ĠvzlÃ©t": 8571,
      "asy": 8572,
      "ĠOj": 8573,
      "ĠdÃŃvat": 8574,
      "ĠstraÅ¡nÃ©": 8575,
      "ĠklidnÃ©": 8576,
      "ĠdÃ¡vnÃ½": 8577,
      "penÃ©": 8578,
      "ĠnevdÄĽ": 8579,
      "ĠStarÃ½": 8580,
      "ana": 8581,
      "ĠStÅĻe": 8582,
      "Ġcizo": 8583,
      "ĠotÅĻÃ¡": 8584,
      "ĠdÅĻÃŃma": 8585,
      "ĠzachrÃ¡": 8586,
      "ĠobÄĽtÃŃ": 8587,
      "ĠchraÅĪ": 8588,
      "ĠnejlepÅ¡ÃŃ": 8589,
      "nskÃ½": 8590,
      "rmu": 8591,
      "Ã©l": 8592,
      "Ġjesky": 8593,
      "Ġcvr": 8594,
      "Ġvyjde": 8595,
      "Ġlip": 8596,
      "XAXAXX": 8597,
      "Äįinou": 8598,
      "ĠÅ¡ek": 8599,
      "ĠvÃ½so": 8600,
      "prve": 8601,
      "ĠvlÃ¡dce": 8602,
      "ĠÅ¡Å¥astnÃ©": 8603,
      "Ġzraje": 8604,
      "Ġkletba": 8605,
      "srd": 8606,
      "Ġsmo": 8607,
      "Ġhl": 8608,
      "ĠnachÃ½": 8609,
      "ĠÄĽhy": 8610,
      "ĠvyrÅ¯": 8611,
      "Ġrozva": 8612,
      "ĠnÃ¡po": 8613,
      "zela": 8614,
      "ĠmÄĽÅ¡Å¥": 8615,
      "Ġzaslech": 8616,
      "tÃŃme": 8617,
      "Ġpolibek": 8618,
      "ĠzalÃŃ": 8619,
      "Ã¡jem": 8620,
      "ĠÃ¡tu": 8621,
      "Ġtichem": 8622,
      "Ġtahy": 8623,
      "Ġpravila": 8624,
      "ĠpÅĻÃŃsnÃ½": 8625,
      "ĠnÄĽkte": 8626,
      "ĠzÅ¯stane": 8627,
      "koliv": 8628,
      "ĠskvÄĽlÃ½": 8629,
      "ĠhedbÃ¡": 8630,
      "dnu": 8631,
      "aku": 8632,
      "ĠidÃ©": 8633,
      "ĠmÃŃÅĻÃŃ": 8634,
      "ĠRci": 8635,
      "ĠslÃ¡b": 8636,
      "ĠmrÃ¡ko": 8637,
      "Ġlampa": 8638,
      "ĠdÄĽlat": 8639,
      "ĠkolÃ©bky": 8640,
      "rnÃ©ho": 8641,
      "Ġvstala": 8642,
      "Ġhmy": 8643,
      "ĠÃ¡ku": 8644,
      "ĠetÅ¯": 8645,
      "tesk": 8646,
      "ÅĻik": 8647,
      "Ġlehou": 8648,
      "ĠÄĽho": 8649,
      "ĠpÅĻeje": 8650,
      "ĠbohÅ¯m": 8651,
      "ĠmÃ¡l": 8652,
      "ĠzemÅĻel": 8653,
      "Ġstanu": 8654,
      "ĠpÃŃsek": 8655,
      "Ġhroma": 8656,
      "Ġkousek": 8657,
      "ĠÅĻÃ¡s": 8658,
      "rozenÃŃ": 8659,
      "ĠCelÃ½": 8660,
      "nÃŃkem": 8661,
      "ĠrozvÃŃ": 8662,
      "Ġpavou": 8663,
      "ĠNeu": 8664,
      "ĠpÅĻedkÅ¯": 8665,
      "ĠzÃ¡vod": 8666,
      "Ġhloubky": 8667,
      "ĠKterÃ½": 8668,
      "ĠpoÅ¾ehnÃ¡": 8669,
      "ĠOtÄįe": 8670,
      "jnÃ¡": 8671,
      "nam": 8672,
      "Ġboky": 8673,
      "Ġprale": 8674,
      "ĠemÃ¡": 8675,
      "ĠVese": 8676,
      "Ġbah": 8677,
      "ĠkrajÅ¯": 8678,
      "ĠKriste": 8679,
      "ĠvÄįely": 8680,
      "ĠusmÃ¡l": 8681,
      "ĠudÃ¡": 8682,
      "vaÅ¥": 8683,
      "ĠniÄįem": 8684,
      "ĠDokud": 8685,
      "ĠtichÃ½ch": 8686,
      "ĠtÃ½Å¾": 8687,
      "Ġvezdy": 8688,
      "ĠvÄĽÅĻte": 8689,
      "ĠrudÃ½m": 8690,
      "ĠNikdy": 8691,
      "ĠÃ¡mÄĽ": 8692,
      "jev": 8693,
      "vejte": 8694,
      "ĠdÄĽlo": 8695,
      "ĠzeÅĪ": 8696,
      "Ġresi": 8697,
      "ĠmnozÃŃ": 8698,
      "ĠpotkÃ¡": 8699,
      "Ġstatky": 8700,
      "ĠmoudÅĻe": 8701,
      "lali": 8702,
      "ĠJez": 8703,
      "tÄĽjÅ¡ÃŃ": 8704,
      "ĠplnÃ©m": 8705,
      "Ġsup": 8706,
      "ĠkrutÃ¡": 8707,
      "Ġzbyla": 8708,
      "ĠfarÃ¡ÅĻ": 8709,
      "eru": 8710,
      "ĠsÅĪat": 8711,
      "Ġmha": 8712,
      "ĠÃ¡lÃ¡": 8713,
      "ĠdÃŃtek": 8714,
      "Ġpodal": 8715,
      "ĠkouÅĻ": 8716,
      "ĠkeÅĻi": 8717,
      "Ġgro": 8718,
      "ĠoblakÅ¯": 8719,
      "ĠvolÃ¡m": 8720,
      "Ġchvatem": 8721,
      "Ġvrchol": 8722,
      "ĠsluneÄįnÃŃ": 8723,
      "ĠsÃŃmÄĽ": 8724,
      "Ġtci": 8725,
      "Ġpoj": 8726,
      "Ġchalu": 8727,
      "Ġdon": 8728,
      "ĠÅ¡al": 8729,
      "ĠvÄĽdÄĽt": 8730,
      "vetla": 8731,
      "Ġsoko": 8732,
      "Ġnepla": 8733,
      "Ġgene": 8734,
      "ĠstÄĽÅ¾ÃŃ": 8735,
      "ĠbrÃ¡nu": 8736,
      "ĠsmÃ¡t": 8737,
      "ĠkrÃ¡lovna": 8738,
      "ĠpÃ½chou": 8739,
      "ĠsbÃŃrÃ¡": 8740,
      "cÃ©": 8741,
      "chan": 8742,
      "ĠvyÅ¡li": 8743,
      "ĠvÄĽdomÃŃ": 8744,
      "ĠÅ¾ivou": 8745,
      "ĠdobrÃ½m": 8746,
      "venÃ¡": 8747,
      "Ġstroj": 8748,
      "ĠstÅĻÃŃbrnÃ½": 8749,
      "ĠveÅ¡ker": 8750,
      "ĠÃ½ma": 8751,
      "lÃ¡ch": 8752,
      "ĠkomÃŃ": 8753,
      "ĠvyÄįÃŃ": 8754,
      "Ġvznik": 8755,
      "ĠvÄĽÄı": 8756,
      "rii": 8757,
      "ĠpustÃ¡": 8758,
      "zali": 8759,
      "Ġnepohnu": 8760,
      "ĠvzrÅ¯stÃ¡": 8761,
      "Ġvas": 8762,
      "Ġdmou": 8763,
      "skat": 8764,
      "ĠZÅĻÃŃ": 8765,
      "Ġhromy": 8766,
      "ĠmodrÃ½m": 8767,
      "ĠzÅĻÃŃdka": 8768,
      "ĠÅĻekli": 8769,
      "Ġpolibky": 8770,
      "ĠspanilÃ¡": 8771,
      "ĠZik": 8772,
      "Å¡nÃ¡": 8773,
      "ĠAh": 8774,
      "Ġrodnou": 8775,
      "ĠkoÅĻÃŃ": 8776,
      "Ġvzcho": 8777,
      "Ġrozkaz": 8778,
      "Ġlije": 8779,
      "ĠHrÅ¯": 8780,
      "ĠnÃŃtÃŃ": 8781,
      "ĠÅ¡ed": 8782,
      "Ġreka": 8783,
      "Ġneur": 8784,
      "ĠÅĻadÄĽ": 8785,
      "Ġrozply": 8786,
      "ĠÅłÅ¥ast": 8787,
      "rÃ½mi": 8788,
      "Ġad": 8789,
      "ĠbnÃ©": 8790,
      "ĠudÄĽla": 8791,
      "ĠvztÃ½": 8792,
      "ĠskÅ¯": 8793,
      "Ġdivem": 8794,
      "ĠohÅ¯": 8795,
      "Ġvraha": 8796,
      "Ġskok": 8797,
      "ĠbojÅ¯": 8798,
      "ĠsterÃ©": 8799,
      "ĠkvÃŃtÃŃm": 8800,
      "Ġskryl": 8801,
      "ĠvÅĻele": 8802,
      "ĠslouÅ¾ÃŃ": 8803,
      "ĠÄĮechÅ¯": 8804,
      "ĠLÃ¡sky": 8805,
      "ĠKterÃ¡": 8806,
      "ĠnebezpeÄįÃŃ": 8807,
      "AXAA": 8808,
      "ĠÃ¡kÃ¡": 8809,
      "vÃ¡no": 8810,
      "ĠrojÃŃ": 8811,
      "Ġhol": 8812,
      "ĠMus": 8813,
      "Ġdivou": 8814,
      "ĠpukÃ¡": 8815,
      "Ġmrav": 8816,
      "ĠsvÄĽÅ¾e": 8817,
      "plnÃ©": 8818,
      "ĠzkuÅ¡en": 8819,
      "Ġvezmi": 8820,
      "ĠÅ¾ehnÃ¡": 8821,
      "ĠmÄĽsÃŃci": 8822,
      "Ġlilie": 8823,
      "ĠkoÅĻeny": 8824,
      "ĠnejdraÅ¾Å¡ÃŃ": 8825,
      "ĠadÅ¯": 8826,
      "tina": 8827,
      "Ġvysla": 8828,
      "ĠtiÅ¡i": 8829,
      "ĠnÄĽhou": 8830,
      "ĠstaletÃŃ": 8831,
      "ĠfrÃ¡": 8832,
      "ĠhrÃ¡la": 8833,
      "Ġkniha": 8834,
      "heÅĪ": 8835,
      "ĠAndÄĽl": 8836,
      "ĠzaÄįne": 8837,
      "ĠvlÃŃdnÃ½": 8838,
      "ĠzvlÃ¡Å¡tÄĽ": 8839,
      "22": 8840,
      "gen": 8841,
      "pt": 8842,
      "ĠsbÄĽ": 8843,
      "Ġsej": 8844,
      "rati": 8845,
      "ĠnedÅ¯": 8846,
      "ĠetÄĽ": 8847,
      "ĠnÃ¡sil": 8848,
      "ĠsÃŃnÃŃ": 8849,
      "ĠÅ¯le": 8850,
      "Ġvolnosti": 8851,
      "ĠÅ¡Å¥astni": 8852,
      "ĠpÄĽknÃ½": 8853,
      "Ġzvedne": 8854,
      "ĠhlÃŃdÃ¡": 8855,
      "Ġschy": 8856,
      "ĠslÃ©t": 8857,
      "mÃŃru": 8858,
      "ĠkvÄĽte": 8859,
      "AADD": 8860,
      "Ġzvukem": 8861,
      "ĠVÃŃtÄĽz": 8862,
      "ĠVlasti": 8863,
      "ĠLucy": 8864,
      "ĠpÅĻÃ¡telstvÃŃ": 8865,
      "ĠknÄĽÅ¾na": 8866,
      "ĠmlÃ¡deÅ¾": 8867,
      "ĠZvu": 8868,
      "Ġstavu": 8869,
      "Ġdivu": 8870,
      "ĠdivÃ½m": 8871,
      "ĠkÅĻiku": 8872,
      "Ġbledne": 8873,
      "ĠslavnÃ¡": 8874,
      "ĠodeÅ¡el": 8875,
      "ĠPÅĻemy": 8876,
      "ĠzÃ¡stupy": 8877,
      "ki": 8878,
      "ĠnevrÃ¡tÃŃ": 8879,
      "Ġuvad": 8880,
      "Ġesi": 8881,
      "ĠPet": 8882,
      "ĠSpÃŃ": 8883,
      "ĠpÅĻim": 8884,
      "Ġyta": 8885,
      "ĠpodlÃ©": 8886,
      "brat": 8887,
      "Ġslunka": 8888,
      "Ġknize": 8889,
      "ĠNÃ¡s": 8890,
      "ĠAnto": 8891,
      "Ġtrysk": 8892,
      "ĠStÃ¡l": 8893,
      "ĠkÅĻiÅ¡Å¥Ã¡": 8894,
      "AAABB": 8895,
      "XXAX": 8896,
      "lesti": 8897,
      "ĠzabÃŃ": 8898,
      "ĠvÄĽjÃŃ": 8899,
      "ĠzÃ¡po": 8900,
      "Ġdin": 8901,
      "ĠsÃŃtÃŃ": 8902,
      "Ġbranou": 8903,
      "Ġhrady": 8904,
      "ĠslyÅ¡te": 8905,
      "ĠblÃŃzku": 8906,
      "Ġplamenem": 8907,
      "Ġrakvi": 8908,
      "Ġrozumu": 8909,
      "vlnÄĽ": 8910,
      "ĠneÄįi": 8911,
      "ate": 8912,
      "Ġvzadu": 8913,
      "ĠvÃŃsky": 8914,
      "Ġske": 8915,
      "Ġnejd": 8916,
      "ĠprÃ¡vu": 8917,
      "Ġpadlo": 8918,
      "Ġkruhy": 8919,
      "ĠumÅĻÃŃt": 8920,
      "ĠvzplÃ¡l": 8921,
      "hi": 8922,
      "Ġzva": 8923,
      "ĠÃ¡Å¡Å¥": 8924,
      "ĠÅ¡ve": 8925,
      "ĠZam": 8926,
      "ĠpÃ¡t": 8927,
      "Ġsamy": 8928,
      "vedli": 8929,
      "ĠjednotvÃ¡": 8930,
      "ĠzaÅ¡u": 8931,
      "ĠpÅĻÃŃÅ¡tÃŃch": 8932,
      "ĠkvÄĽtiny": 8933,
      "ĠtkvÃŃ": 8934,
      "ĠzamyÅ¡len": 8935,
      "ĠtlÃŃ": 8936,
      "Ġunu": 8937,
      "ĠÅĻeku": 8938,
      "ÅĻÃ¡d": 8939,
      "Ġneznal": 8940,
      "ĠvÅ¯lÃŃ": 8941,
      "Ġstrast": 8942,
      "Ġdivnou": 8943,
      "ĠhrÅ¯z": 8944,
      "ĠubohÃ½": 8945,
      "Ġrostla": 8946,
      "Ġvyhna": 8947,
      "Ġchasa": 8948,
      "ĠpastÃ½ÅĻ": 8949,
      "ĠhospodÃ¡ÅĻ": 8950,
      "bce": 8951,
      "rag": 8952,
      "Å¥Ã¡": 8953,
      "Ġvyrost": 8954,
      "ĠvÃ¡hÃ¡": 8955,
      "mon": 8956,
      "Ġdie": 8957,
      "ĠkvÄĽtin": 8958,
      "Ġdlouze": 8959,
      "ĠptÃ¡ky": 8960,
      "Ġstup": 8961,
      "Ġaneb": 8962,
      "ĠGa": 8963,
      "Ġzmije": 8964,
      "ĠzrÃ¡dce": 8965,
      "Ġfilo": 8966,
      "ĠPÅĻÃŃro": 8967,
      "ĠhojnÄĽ": 8968,
      "ACDD": 8969,
      "Ġloktech": 8970,
      "ĠMaÄıar": 8971,
      "hlÃ½ch": 8972,
      "ĠTvÃ½m": 8973,
      "Ġrky": 8974,
      "Ġlest": 8975,
      "Ġmozek": 8976,
      "ĠÃºdÄĽl": 8977,
      "Ġsynem": 8978,
      "Ġokovy": 8979,
      "padne": 8980,
      "ĠzloÄįin": 8981,
      "ĠPanÃŃ": 8982,
      "ĠzulÃŃ": 8983,
      "ĠzkamenÄĽ": 8984,
      "ĠptÃ¡m": 8985,
      "chra": 8986,
      "ĠmÅ¡i": 8987,
      "nÄĽt": 8988,
      "ĠÃŃdÃŃ": 8989,
      "ĠÄįej": 8990,
      "ĠdlouhÃ©m": 8991,
      "ĠveÄįeru": 8992,
      "Ġpase": 8993,
      "Å¡uje": 8994,
      "Ġodo": 8995,
      "ĠoÄįÃŃm": 8996,
      "ĠKÅĻÃŃ": 8997,
      "ĠZdrÃ¡": 8998,
      "Ġtakou": 8999,
      "ĠvÃŃÅĻe": 9000,
      "ĠObra": 9001,
      "ĠlÃ¡d": 9002,
      "ĠmÃŃjÃŃ": 9003,
      "ĠtÅĻÃŃÅ¡tÃŃ": 9004,
      "AAXXBB": 9005,
      "ĠpÃ½chu": 9006,
      "ĠtÅĻÃ¡s": 9007,
      "Ġchrab": 9008,
      "bas": 9009,
      "tkou": 9010,
      "Ġvni": 9011,
      "Ġpnou": 9012,
      "Ġzab": 9013,
      "nÃ©st": 9014,
      "Ġrval": 9015,
      "ĠMlad": 9016,
      "Ġskrov": 9017,
      "ĠmÄĽs": 9018,
      "ĠkrÃ¡lo": 9019,
      "Ġtemnu": 9020,
      "ĠhravÄĽ": 9021,
      "Ġkdybys": 9022,
      "Ġoblohy": 9023,
      "ĠvÄĽzenÃŃ": 9024,
      "ĠzaznÄĽl": 9025,
      "ĠnÃ©st": 9026,
      "ĠuhÃ©": 9027,
      "neb": 9028,
      "ĠepÃ½": 9029,
      "ÅĻin": 9030,
      "Ġprob": 9031,
      "Ġprachem": 9032,
      "ĠchuÄıas": 9033,
      "ĠpalÄįi": 9034,
      "ĠKrÃ¡lov": 9035,
      "ĠzvÃŃtÄĽ": 9036,
      "ĠokamÅ¾enÃŃ": 9037,
      "ĠvÅĻava": 9038,
      "Ġholubice": 9039,
      "ĠncÅ¯": 9040,
      "chej": 9041,
      "Ġdor": 9042,
      "Ġdoho": 9043,
      "Ġtor": 9044,
      "Ġtoli": 9045,
      "Ġproz": 9046,
      "ĠÄĽnu": 9047,
      "tovÃ©": 9048,
      "Ġduje": 9049,
      "stit": 9050,
      "Ġrozbi": 9051,
      "Ġskou": 9052,
      "Ġvous": 9053,
      "cos": 9054,
      "ĠKone": 9055,
      "ĠÅ¡tÃŃty": 9056,
      "ĠVÄĽru": 9057,
      "Ġkmeny": 9058,
      "ĠPravda": 9059,
      "zdÃŃ": 9060,
      "Ġvydal": 9061,
      "ĠmÃ¡je": 9062,
      "ĠÅ¡edou": 9063,
      "coval": 9064,
      "Ġmrtvou": 9065,
      "ĠmarnÃ¡": 9066,
      "ĠosvÄĽ": 9067,
      "cÃŃmi": 9068,
      "ĠVidÄĽl": 9069,
      "ĠdÄĽvÄįÃ¡": 9070,
      "Ġlebky": 9071,
      "Ġsever": 9072,
      "ĠdeÅ¡tÄĽm": 9073,
      "sÅ¡ÃŃ": 9074,
      "ĠihÃ¡": 9075,
      "ĠÄįkÃ¡": 9076,
      "ĠBlesk": 9077,
      "ĠsnÄĽhy": 9078,
      "Ġanebo": 9079,
      "ctvo": 9080,
      "ĠchvÃ¡lÃŃ": 9081,
      "Ġzvyku": 9082,
      "ĠpoÅ¾ehna": 9083,
      "chÃ¡zejÃŃ": 9084,
      "Äįata": 9085,
      "jetÃŃ": 9086,
      "Ġvih": 9087,
      "ĠzpÃŃvajÃŃ": 9088,
      "Ġpivo": 9089,
      "ĠumÅĻel": 9090,
      "ckÃ©ho": 9091,
      "Ġchmury": 9092,
      "ĠRychle": 9093,
      "ÄįkÃ½": 9094,
      "raÅ¾en": 9095,
      "livou": 9096,
      "ĠjakÃ½m": 9097,
      "ĠleÅ¥": 9098,
      "vina": 9099,
      "ĠdÃŃvÃ¡m": 9100,
      "ĠyzÃŃ": 9101,
      "Ġnepra": 9102,
      "pÄĽtÃŃ": 9103,
      "Ġzmatek": 9104,
      "ĠplachÃ©": 9105,
      "ĠPrvnÃŃ": 9106,
      "vskÃ©": 9107,
      "ĠÄĽkÃ¡": 9108,
      "ĠpÅĻeko": 9109,
      "Äįeje": 9110,
      "ĠvÄĽÅĻil": 9111,
      "Ġnemy": 9112,
      "ĠÃ½ÅĻÃŃ": 9113,
      "ĠptÃ¡Äįek": 9114,
      "ĠsuchÃ½": 9115,
      "Ġpoklo": 9116,
      "ĠveselÃ©": 9117,
      "vÃ©mu": 9118,
      "Ġnie": 9119,
      "tri": 9120,
      "ĠtÅĻesk": 9121,
      "ÅĻemen": 9122,
      "ĠhvÄĽzdnÃ½": 9123,
      "ĠstÅĻela": 9124,
      "ĠvÅĻelÃ©": 9125,
      "Ġblouzni": 9126,
      "ĠÅ¾lutÃ½": 9127,
      "ĠpestrÃ½ch": 9128,
      "ĠzaÅ¡lÃ©": 9129,
      "ĠjakÃ¡s": 9130,
      "ĠzbabÄĽ": 9131,
      "ĠdÃ³": 9132,
      "voru": 9133,
      "ame": 9134,
      "ĠpÃ¡du": 9135,
      "Å¡enÃŃm": 9136,
      "ĠPÃ¡na": 9137,
      "Ġuml": 9138,
      "jatÃ©": 9139,
      "ĠboÅ¾stvÃŃ": 9140,
      "ĠpÅĻen": 9141,
      "Å¡nou": 9142,
      "Ġnehle": 9143,
      "ĠÃ¡ta": 9144,
      "Ġca": 9145,
      "Ġhostem": 9146,
      "Ġvzor": 9147,
      "Ġrozhod": 9148,
      "Ġpospo": 9149,
      "ĠzrÃ¡d": 9150,
      "ĠzdrÃ¡va": 9151,
      "ĠuÅ¡lechtil": 9152,
      "ĠmÅ¯": 9153,
      "Ġjedu": 9154,
      "ĠÃŃni": 9155,
      "ĠrozpÃ¡": 9156,
      "Ġskvo": 9157,
      "Ġsit": 9158,
      "ĠÃºko": 9159,
      "Ġtaji": 9160,
      "ĠÄįlovÄĽÄįen": 9161,
      "ĠstÅĻÃŃbra": 9162,
      "ĠblÃ¡ho": 9163,
      "Ġobloha": 9164,
      "Ġkvas": 9165,
      "ĠbohynÄĽ": 9166,
      "ĠhÅ¯ry": 9167,
      "Ġrtoma": 9168,
      "zda": 9169,
      "Ġzpra": 9170,
      "ĠÃ¡lÅ¯": 9171,
      "nÃ¡ÅĻ": 9172,
      "ĠSvÅ¯j": 9173,
      "Ġobsa": 9174,
      "ĠHled": 9175,
      "ĠbÄĽs": 9176,
      "ĠdÄĽtskÃ½ch": 9177,
      "ĠstejnÃ©": 9178,
      "Ġvadne": 9179,
      "ĠChceÅ¡": 9180,
      "ĠhoroucÃŃ": 9181,
      "kly": 9182,
      "paly": 9183,
      "ĠdbÃ¡": 9184,
      "ĠpoÅ¡e": 9185,
      "Ġponu": 9186,
      "dan": 9187,
      "Ġmus": 9188,
      "ĠtiÅ¡": 9189,
      "ĠpÅĻiblÃŃ": 9190,
      "ĠbÄĽlou": 9191,
      "Ġpohla": 9192,
      "ĠsedlÃ¡": 9193,
      "ĠNeÅ¾li": 9194,
      "Ġhovoru": 9195,
      "ĠnadÅ¡enÃŃm": 9196,
      "ĠznamenÃ¡": 9197,
      "Ġzry": 9198,
      "ĠnahÃ©": 9199,
      "ĠÃŃdu": 9200,
      "lym": 9201,
      "Ġcka": 9202,
      "Ġledu": 9203,
      "ĠNaÅ¡e": 9204,
      "ĠÄįisto": 9205,
      "ĠchutÃŃ": 9206,
      "ĠluznÃ©": 9207,
      "zujÃŃ": 9208,
      "Ġzvedl": 9209,
      "ĠnajdeÅ¡": 9210,
      "Ġnna": 9211,
      "Ã©r": 9212,
      "ĠdkÃ¡": 9213,
      "ĠokÃ½": 9214,
      "vajÃŃcÃŃ": 9215,
      "Ġrmo": 9216,
      "Ġkok": 9217,
      "Ġpravi": 9218,
      "Ġnemu": 9219,
      "Ġnesli": 9220,
      "ĠpouhÃ¡": 9221,
      "Ġdere": 9222,
      "ĠstÅĻely": 9223,
      "ĠspÃŃnÃ¡": 9224,
      "ĠbludnÃ©": 9225,
      "ĠshromÃ¡": 9226,
      "Ġzava": 9227,
      "Ġevy": 9228,
      "Ġrny": 9229,
      "ĠskÅĻe": 9230,
      "Ġsyt": 9231,
      "ĠHory": 9232,
      "ĠstÅĻechu": 9233,
      "Ġtravou": 9234,
      "ĠdÃ¡me": 9235,
      "Ġsnila": 9236,
      "ĠmnÃ½": 9237,
      "ĠzaÅ¡la": 9238,
      "Ġmit": 9239,
      "ĠmistÅĻe": 9240,
      "ĠtÄĽsnÄĽ": 9241,
      "ĠpodÃ©l": 9242,
      "anÅ¯": 9243,
      "chÃ¡zÃŃm": 9244,
      "Ġlod": 9245,
      "ĠvalnÃ©": 9246,
      "Ġhranice": 9247,
      "ĠtÃŃÅ¾e": 9248,
      "Ġvedli": 9249,
      "Ġdvora": 9250,
      "ĠnekoneÄįnÃ©": 9251,
      "ĠtakovÃ½": 9252,
      "ĠmajestÃ¡": 9253,
      "ĠRenald": 9254,
      "ĠzmÃ¡": 9255,
      "ĠaÅĻi": 9256,
      "eme": 9257,
      "ĠnedÄĽli": 9258,
      "ĠveÅ¡la": 9259,
      "Ġpronika": 9260,
      "ĠholÃ¡": 9261,
      "ĠtuÅ¡il": 9262,
      "tavÃ½": 9263,
      "ĠrudÃ½ch": 9264,
      "ĠOlym": 9265,
      "hÃ¡Äį": 9266,
      "ĠstraÅ¡nÄĽ": 9267,
      "ĠchorÃ©": 9268,
      "ĠdÅĻÃŃme": 9269,
      "ĠhÅĻÃŃchem": 9270,
      "ĠjarÃ½": 9271,
      "ĠbrÃ¡t": 9272,
      "ĠzvÄĽsti": 9273,
      "ĠvojÃ¡k": 9274,
      "Ġposa": 9275,
      "ĠnavrÃ¡": 9276,
      "Ġsvla": 9277,
      "Ġzane": 9278,
      "Ġprokla": 9279,
      "taje": 9280,
      "ĠÅ¾ivÃ½ch": 9281,
      "Ġrudou": 9282,
      "Ġrada": 9283,
      "Ġmocnou": 9284,
      "zoval": 9285,
      "Ġdoubra": 9286,
      "Ġuply": 9287,
      "Ġvrouc": 9288,
      "ĠmÄĽkkÃ¡": 9289,
      "ĠvchÃ¡zÃŃ": 9290,
      "Ġpose": 9291,
      "Ġprose": 9292,
      "Ġobr": 9293,
      "ĠvÅ¡ecek": 9294,
      "Ġteh": 9295,
      "Ġrum": 9296,
      "Ġbudeme": 9297,
      "Ġtanec": 9298,
      "pÃ¡ch": 9299,
      "ĠkÅĻikem": 9300,
      "ĠsmyslÅ¯": 9301,
      "ĠuÄįinil": 9302,
      "ĠkÃ½s": 9303,
      "dly": 9304,
      "Ġnevo": 9305,
      "vajÃŃc": 9306,
      "ĠprostÄĽ": 9307,
      "ĠhodnÄĽ": 9308,
      "Ġrab": 9309,
      "ĠmilÃ½m": 9310,
      "Ġmeze": 9311,
      "Ġtrudu": 9312,
      "ĠchladnÃ¡": 9313,
      "ĠhrÅ¯zu": 9314,
      "ĠpyÅ¡nÃ½": 9315,
      "Ġhynou": 9316,
      "AXBBCD": 9317,
      "bnÃ½ch": 9318,
      "ĠvÅĻel": 9319,
      "ĠustÃ¡nÃŃ": 9320,
      "Ġzatra": 9321,
      "silo": 9322,
      "benÃ½": 9323,
      "ĠÃŃmÄĽ": 9324,
      "ĠpovÅ¾dy": 9325,
      "Ġnevinnosti": 9326,
      "ĠvnitÅĻnÃŃ": 9327,
      "ĠÅ¡klebÃŃ": 9328,
      "ncem": 9329,
      "Å¡Ã¡": 9330,
      "ĠzlÃ½m": 9331,
      "ĠÅ¾a": 9332,
      "atou": 9333,
      "ĠveÄı": 9334,
      "ĠhostÃ©": 9335,
      "Ġrozpa": 9336,
      "ĠpÅĻivÃ¡": 9337,
      "Ġkapra": 9338,
      "Ġston": 9339,
      "Äįenou": 9340,
      "ĠsmÄĽlÃ©": 9341,
      "ĠjemnÃ½": 9342,
      "Ġmrzu": 9343,
      "ĠnedbÃ¡": 9344,
      "Ġpochod": 9345,
      "ĠhÅĻeje": 9346,
      "ĠÅĻik": 9347,
      "ĠrÅ¯Å¾ovÃ©": 9348,
      "ĠvlhkÃ©": 9349,
      "tnost": 9350,
      "ĠarÅ¯": 9351,
      "liÄįky": 9352,
      "ĠurÃ¡": 9353,
[...]
