{
  "version": "1.0",
  "truncation": null,
  "padding": null,
  "added_tokens": [
    {
      "id": 0,
      "content": "<|EOS|>",
      "single_word": false,
      "lstrip": false,
      "rstrip": false,
      "normalized": false,
      "special": true
    },
    {
      "id": 1,
      "content": "<|PAD|>",
      "single_word": false,
      "lstrip": false,
      "rstrip": false,
      "normalized": false,
      "special": true
    },
    {
      "id": 2,
      "content": "<|UNK|>",
      "single_word": false,
      "lstrip": false,
      "rstrip": false,
      "normalized": false,
      "special": true
    }
  ],
  "normalizer": null,
  "pre_tokenizer": {
    "type": "ByteLevel",
    "add_prefix_space": false,
    "trim_offsets": true,
    "use_regex": true
  },
  "post_processor": {
    "type": "ByteLevel",
    "add_prefix_space": true,
    "trim_offsets": false,
    "use_regex": true
  },
  "decoder": {
    "type": "ByteLevel",
    "add_prefix_space": true,
    "trim_offsets": true,
    "use_regex": true
  },
  "model": {
    "type": "BPE",
    "dropout": null,
    "unk_token": null,
    "continuing_subword_prefix": null,
    "end_of_word_suffix": null,
    "fuse_unk": false,
    "byte_fallback": false,
    "vocab": {
      "<|EOS|>": 0,
      "<|PAD|>": 1,
      "<|UNK|>": 2,
      "!": 3,
      "\"": 4,
      "#": 5,
      "'": 6,
      "(": 7,
      ")": 8,
      "*": 9,
      "+": 10,
      ",": 11,
      "-": 12,
      ".": 13,
      "/": 14,
      "0": 15,
      "1": 16,
      "2": 17,
      "3": 18,
      "4": 19,
      "5": 20,
      "6": 21,
      "7": 22,
      "8": 23,
      "9": 24,
      ":": 25,
      ";": 26,
      "=": 27,
      "?": 28,
      "A": 29,
      "D": 30,
      "H": 31,
      "J": 32,
      "N": 33,
      "P": 34,
      "T": 35,
      "X": 36,
      "Y": 37,
      "[": 38,
      "]": 39,
      "_": 40,
      "`": 41,
      "a": 42,
      "b": 43,
      "c": 44,
      "d": 45,
      "e": 46,
      "f": 47,
      "g": 48,
      "h": 49,
      "i": 50,
      "j": 51,
      "k": 52,
      "l": 53,
      "m": 54,
      "n": 55,
      "o": 56,
      "p": 57,
      "q": 58,
      "r": 59,
      "s": 60,
      "t": 61,
      "u": 62,
      "v": 63,
      "w": 64,
      "x": 65,
      "y": 66,
      "z": 67,
      "¡": 68,
      "¢": 69,
      "¤": 70,
      "¥": 71,
      "¦": 72,
      "§": 73,
      "¨": 74,
      "©": 75,
      "ª": 76,
      "«": 77,
      "®": 78,
      "¯": 79,
      "²": 80,
      "³": 81,
      "´": 82,
      "¶": 83,
      "¹": 84,
      "º": 85,
      "»": 86,
      "¼": 87,
      "½": 88,
      "¾": 89,
      "Â": 90,
      "Ã": 91,
      "Ä": 92,
      "Å": 93,
      "Ï": 94,
      "â": 95,
      "Ċ": 96,
      "Ġ": 97,
      "Ģ": 98,
      "Ĥ": 99,
      "Ħ": 100,
      "ħ": 101,
      "ĩ": 102,
      "Ī": 103,
      "Ĭ": 104,
      "į": 105,
      "ı": 106,
      "Ĵ": 107,
      "ĵ": 108,
      "Ķ": 109,
      "ĺ": 110,
      "Ļ": 111,
      "ļ": 112,
      "Ľ": 113,
      "ľ": 114,
      "Ŀ": 115,
      "ŀ": 116,
      "Ł": 117,
      "ł": 118,
      "Ń": 119,
      "ÃŃ": 120,
      "Ã¡": 121,
      "Ġs": 122,
      "Ġv": 123,
      "ÄĽ": 124,
      "Ġp": 125,
      "Å¾": 126,
      "Ġn": 127,
      "ch": 128,
      "Ġt": 129,
      "Ġj": 130,
      "Å¡": 131,
      "Ġz": 132,
      "ÅĻ": 133,
      "Ã½": 134,
      "Ġm": 135,
      "Ã©": 136,
      "Ġk": 137,
      "ou": 138,
      "Ġd": 139,
      "Äį": 140,
      "la": 141,
      "st": 142,
      "en": 143,
      "Ġb": 144,
      "le": 145,
      "âĢ": 146,
      "ĊĊ": 147,
      "ro": 148,
      "ak": 149,
      "em": 150,
      "Ġh": 151,
      "Ġse": 152,
      "Å¯": 153,
      "ra": 154,
      "Ġo": 155,
      "li": 156,
      "Ġa": 157,
      "Ġpo": 158,
      "Ġje": 159,
      "rÃ¡": 160,
      "Ġne": 161,
      "lo": 162,
      "nÃŃ": 163,
      "ne": 164,
      "ÅĻe": 165,
      "ĠâĢ": 166,
      "ce": 167,
      "Ġna": 168,
      "nÄĽ": 169,
      "vÄĽ": 170,
      "na": 171,
      "ĠâĢĵ": 172,
      "Ġst": 173,
      "ÅĻÃŃ": 174,
      "Å¡e": 175,
      "va": 176,
      "dy": 177,
      "sk": 178,
      "je": 179,
      "ĠÅ¾": 180,
      "ho": 181,
      "lÃ¡": 182,
      "ru": 183,
      "te": 184,
      "de": 185,
      "nÃ½": 186,
      "ti": 187,
      "Ġza": 188,
      "vo": 189,
      "lu": 190,
      "po": 191,
      "nÃ©": 192,
      "no": 193,
      "vÃ¡": 194,
      "ko": 195,
      "lÃŃ": 196,
      "ka": 197,
      "Ġch": 198,
      "ĠÄį": 199,
      "ÅĻi": 200,
      "Ġdo": 201,
      "jÃŃ": 202,
      "vÃŃ": 203,
      "vÃ©": 204,
      "ni": 205,
      "Ġu": 206,
      "Ġto": 207,
      "..": 208,
      "nÃ¡": 209,
      "tÄĽ": 210,
      "do": 211,
      "tÃŃ": 212,
      "ly": 213,
      "Ġby": 214,
      "ci": 215,
      "ku": 216,
      "to": 217,
      "nou": 218,
      "ky": 219,
      "Ġjak": 220,
      "Ġji": 221,
      "Ã½ch": 222,
      "Ġro": 223,
      "Å¥": 224,
      "Ġjs": 225,
      "il": 226,
      "Å¾e": 227,
      "Ġve": 228,
      "Ã¡m": 229,
      "al": 230,
      "se": 231,
      "nu": 232,
      "cÃŃ": 233,
      "Å¡ÃŃ": 234,
      "co": 235,
      "ta": 236,
      "dÄĽ": 237,
      "by": 238,
      "Ã½m": 239,
      "ve": 240,
      "jak": 241,
      "Ġpro": 242,
      "Ġho": 243,
      "Ġmo": 244,
      "Ġko": 245,
      "âĢľ": 246,
      "ji": 247,
      "lÃ©": 248,
      "mu": 249,
      "Ġle": 250,
      "vi": 251,
      "da": 252,
      "du": 253,
      "ĠÅ¡": 254,
      "Ġvz": 255,
      "ĠvÄĽ": 256,
      "dÃŃ": 257,
      "Ġbo": 258,
      "Ġvy": 259,
      "ar": 260,
      "Ġmi": 261,
      "di": 262,
      "ÄįÃŃ": 263,
      "Ġr": 264,
      "as": 265,
      "Äįe": 266,
      "lou": 267,
      "ny": 268,
      "at": 269,
      "Ġdu": 270,
      "Ġjen": 271,
      "am": 272,
      "dÃ¡": 273,
      "vÄĽt": 274,
      "sti": 275,
      "ÅĪ": 276,
      "ĠpÅĻe": 277,
      "mÄĽ": 278,
      "...": 279,
      "rd": 280,
      "be": 281,
      "Ġmu": 282,
      "kÃ¡": 283,
      "Ġroz": 284,
      "Äı": 285,
      "vy": 286,
      "ĠtÄĽ": 287,
      "mÃŃ": 288,
      "ĠnÃ¡": 289,
      "ĠvÃŃ": 290,
      "Å¾ÃŃ": 291,
      "Ġti": 292,
      "Ġni": 293,
      "âĢŀ": 294,
      "ĠÅ¾e": 295,
      "mi": 296,
      "ĠÄįe": 297,
      "bo": 298,
      "Äįi": 299,
      "Ġno": 300,
      "me": 301,
      "tÃ¡": 302,
      "ĠvÅ¡e": 303,
      "vou": 304,
      "dyÅ¾": 305,
      "ĠÅ¾i": 306,
      "ze": 307,
      "Ġli": 308,
      "Ġjsem": 309,
      "enÃŃ": 310,
      "ĠzÃ¡": 311,
      "tu": 312,
      "ry": 313,
      "Ġpa": 314,
      "ĠnÄĽ": 315,
      "Ġi": 316,
      "Å¡i": 317,
      "Ġsp": 318,
      "ĠdÃ¡": 319,
      "Ġhla": 320,
      "bÄĽ": 321,
      "Ġtu": 322,
      "Ãº": 323,
      "Å¯j": 324,
      "Ġte": 325,
      "Ġtak": 326,
      "za": 327,
      "vu": 328,
      "Ġsrd": 329,
      "Å¡ak": 330,
      "ĠkrÃ¡": 331,
      "Ġru": 332,
      "ty": 333,
      "Ġbu": 334,
      "Ġsi": 335,
      "Ġod": 336,
      "ĠsvÃ©": 337,
      "ĠmÄĽ": 338,
      "Ġco": 339,
      "Ġob": 340,
      "sta": 341,
      "ha": 342,
      "stÃŃ": 343,
      "ĠpÅĻi": 344,
      "ĠdÄĽ": 345,
      "âĢĻ": 346,
      "ĠÃº": 347,
      "Ġpra": 348,
      "mo": 349,
      "sÃŃ": 350,
      "ma": 351,
      "Ġvo": 352,
      "bu": 353,
      "lad": 354,
      "Ġpr": 355,
      "Ġsk": 356,
      "jen": 357,
      "ĠmÃ¡": 358,
      "lÃ½": 359,
      "pÄĽ": 360,
      "Ġce": 361,
      "Ġka": 362,
      "pa": 363,
      "Ġta": 364,
      "nÃ½ch": 365,
      "ĠlÃ¡": 366,
      "ĠnÃŃ": 367,
      "kou": 368,
      "si": 369,
      "pÃŃ": 370,
      "kÃ©": 371,
      "vÃ½": 372,
      "ĠvÃ¡": 373,
      "hu": 374,
      "Å¾i": 375,
      "mÃ¡": 376,
      "Å¡tÄĽ": 377,
      "ĠdÃŃ": 378,
      "rak": 379,
      "ba": 380,
      "led": 381,
      "ez": 382,
      "cho": 383,
      "Ġjako": 384,
      "ĠsvÄĽt": 385,
      "Ġjeho": 386,
      "!âĢľ": 387,
      "len": 388,
      "Ġsv": 389,
      "re": 390,
      "ĠrÃ¡": 391,
      "pro": 392,
      "Ġvi": 393,
      "hÃ¡": 394,
      "bi": 395,
      "Ġzem": 396,
      "lem": 397,
      "my": 398,
      "hy": 399,
      "Ã³": 400,
      "ĠpÅĻÃŃ": 401,
      "val": 402,
      "zÃŃ": 403,
      "rou": 404,
      "Ġslu": 405,
      "Å¾dy": 406,
      "nad": 407,
      "chu": 408,
      "kÅ¯": 409,
      "sa": 410,
      "Ġsrdce": 411,
      "Ġten": 412,
      "Ġty": 413,
      "tak": 414,
      "Ġra": 415,
      "Ġjed": 416,
      "kdyÅ¾": 417,
      "ĠjÃŃ": 418,
      "dou": 419,
      "ĠlÃ¡sk": 420,
      "vat": 421,
      "su": 422,
      "nÃ½m": 423,
      "ĠpÃŃ": 424,
      "Ġpod": 425,
      "Ġpe": 426,
      "ste": 427,
      "Ġvla": 428,
      "kem": 429,
      "jÃ¡": 430,
      "sy": 431,
      "ĠtÃ©": 432,
      "Ġtam": 433,
      "ĠÅ¡e": 434,
      "ĠjiÅ¾": 435,
      "ĠpÃ¡": 436,
      "ĠlÃŃ": 437,
      "men": 438,
      "rÅ¯": 439,
      "vÅ¡ak": 440,
      "ĠkdyÅ¾": 441,
      "ĠmÃŃ": 442,
      "Ġsta": 443,
      "kÃ½": 444,
      "ĠbÃŃ": 445,
      "ĠnÃ¡m": 446,
      "Ã©m": 447,
      "nes": 448,
      "Ġnad": 449,
      "zd": 450,
      "Ġhro": 451,
      "rÃ½": 452,
      "ĠstÃ¡": 453,
      "ĠâĢŀ": 454,
      "Ġbyl": 455,
      "ĠjÃ¡": 456,
      "Ġzla": 457,
      "Ġpla": 458,
      "kde": 459,
      "Ġzas": 460,
      "hle": 461,
      "Ġlid": 462,
      "Ġmy": 463,
      "sto": 464,
      "ĠÅĻe": 465,
      "ÅĻÃ¡": 466,
      "Ġmne": 467,
      "Ġso": 468,
      "nem": 469,
      "ĠmÃ©": 470,
      "ĠÅ¾ivo": 471,
      "hou": 472,
      "pu": 473,
      "Ġdi": 474,
      "Ġtv": 475,
      "kdy": 476,
      "pe": 477,
      "pÅĻe": 478,
      "rt": 479,
      "Ġbez": 480,
      "ĠvÃ½": 481,
      "ĠvÅ¡ak": 482,
      "Ġkte": 483,
      "nce": 484,
      "ĠsvÄĽ": 485,
      "Ġma": 486,
      "Ġkde": 487,
      "skÃ©": 488,
      "ĠprÃ¡": 489,
      "Ġze": 490,
      "ĠtvÃ¡": 491,
      "Ġslo": 492,
      "tr": 493,
      "ĠkvÄĽt": 494,
      "nÅ¯": 495,
      "Ġpou": 496,
      "bou": 497,
      "Ġjest": 498,
      "bÃŃ": 499,
      "Ġkr": 500,
      "Ġc": 501,
      "chÃ¡": 502,
      "ĠpÅĻed": 503,
      "tÃ©": 504,
      "Ġnebe": 505,
      "Ġtou": 506,
      "Ġnej": 507,
      "ĠkaÅ¾": 508,
      "rÃ©": 509,
      "ĠplÃ¡": 510,
      "Ġsto": 511,
      "kdo": 512,
      "ĠÅ¾en": 513,
      "Ġsvo": 514,
      "pi": 515,
      "ĠdÃ¡l": 516,
      "ĠÄįi": 517,
      "ĠjeÅ¾": 518,
      "dÄĽl": 519,
      "od": 520,
      "ĠÄįer": 521,
      "krÃ¡": 522,
      "ĠjejÃŃ": 523,
      "Ġnes": 524,
      "ĠduÅ¡e": 525,
      "Ġva": 526,
      "cha": 527,
      "Ġci": 528,
      "Ġpak": 529,
      "pÃ¡": 530,
      "nÃ©m": 531,
      "Ġkdy": 532,
      "sem": 533,
      "ej": 534,
      "Ġjsi": 535,
      "nÃŃm": 536,
      "Å¯m": 537,
      "Ġnem": 538,
      "ĠtvÃ©": 539,
      "Ġpos": 540,
      "ĠpÄĽ": 541,
      "Ġku": 542,
      "Å¾en": 543,
      "ĠuÅ¾": 544,
      "Ġhle": 545,
      "ĠsÃŃ": 546,
      "Ġsla": 547,
      "Ġdob": 548,
      "Ġsvou": 549,
      "ĠvÅ¡ech": 550,
      "ale": 551,
      "Å¡el": 552,
      "Ġf": 553,
      "Ġtom": 554,
      "ĠhvÄĽ": 555,
      "ĠjeÅ¡tÄĽ": 556,
      "ĠÄįas": 557,
      ".âĢľ": 558,
      "ĠÅĻÃŃ": 559,
      "ĠnÄĽm": 560,
      "Ġvel": 561,
      "jeÅ¾": 562,
      "ĠnÃ¡s": 563,
      "ĠvÅ¾dy": 564,
      "stu": 565,
      "vz": 566,
      "Ġdru": 567,
      "tÃ½": 568,
      "Ġbra": 569,
      "Ġme": 570,
      "hla": 571,
      "tem": 572,
      "ĠcÃŃ": 573,
      "stÃ¡": 574,
      "Ġnez": 575,
      "Ġpl": 576,
      "ĠjenÅ¾": 577,
      "ĠstÃŃ": 578,
      "Ġkra": 579,
      "Ġjej": 580,
      "jem": 581,
      "Ġja": 582,
      "so": 583,
      "ĠvÅ¯": 584,
      "ĠmÅ¯j": 585,
      "Ġjsou": 586,
      "Ġsy": 587,
      "Ġbla": 588,
      "ĠduÅ¡i": 589,
      "vÅ¡e": 590,
      "zy": 591,
      "Ġdra": 592,
      "sou": 593,
      "ĠrÅ¯": 594,
      "Ġvl": 595,
      "Ġlo": 596,
      "Ġkle": 597,
      "tra": 598,
      "nost": 599,
      "ĠchvÃŃ": 600,
      "tel": 601,
      "ÅĻen": 602,
      "ten": 603,
      "Ġbude": 604,
      "Ġsm": 605,
      "dÃ½": 606,
      "aÅ¾": 607,
      "Ġkdo": 608,
      "Ġl": 609,
      "zi": 610,
      "ĠvÄĽÄį": 611,
      "nÃ¡m": 612,
      "ĠbÃ½": 613,
      "Ġzrak": 614,
      "jich": 615,
      "ad": 616,
      "Ġden": 617,
      "Ġstra": 618,
      "jÅ¡ÃŃ": 619,
      "roz": 620,
      "Ġstar": 621,
      "Ġhra": 622,
      "Ġla": 623,
      "stvÃŃ": 624,
      "Ġhu": 625,
      "vÃ½ch": 626,
      "Å¡em": 627,
      "ĠvÅ¡ec": 628,
      "hÃ½": 629,
      "Ġpu": 630,
      "Ġot": 631,
      "Ġlu": 632,
      "ĠtÃŃ": 633,
      "bÃ¡": 634,
      "lid": 635,
      "ven": 636,
      "tÃŃm": 637,
      "nul": 638,
      "vil": 639,
      "ĠbÄĽ": 640,
      "Ġhlu": 641,
      "Ġsou": 642,
      "tou": 643,
      "chy": 644,
      "vÃ½m": 645,
      "ĠÅ¾ivot": 646,
      "vÅ¾dy": 647,
      "Ġde": 648,
      "ĠbÃ¡": 649,
      "Ġmod": 650,
      "Ġslad": 651,
      "nosti": 652,
      "Ġsam": 653,
      "pÅĻi": 654,
      "jako": 655,
      "Ġsl": 656,
      "mut": 657,
      "cen": 658,
      "Ġzvo": 659,
      "sÃ¡": 660,
      "Ġtr": 661,
      "Ġry": 662,
      "tek": 663,
      "Ġre": 664,
      "an": 665,
      "dem": 666,
      "snÄĽ": 667,
      "py": 668,
      "til": 669,
      "ĠteÄı": 670,
      "pr": 671,
      "ĠmnÄĽ": 672,
      "ĠÅ¡tÄĽ": 673,
      "pra": 674,
      "snÃŃ": 675,
      "ĠÅ¾Ã¡": 676,
      "hne": 677,
      "cÃŃch": 678,
      "uÅ¾": 679,
      "Ġdlou": 680,
      "Ġkou": 681,
      "Ġjsme": 682,
      "Ġtvo": 683,
      "ĠkÅĻÃŃ": 684,
      "dla": 685,
      "sÅ¥": 686,
      "ĠnenÃŃ": 687,
      "Ġjas": 688,
      "Ġzd": 689,
      "Å¯h": 690,
      "Ġnich": 691,
      "pla": 692,
      "Ġstro": 693,
      "lovÄĽ": 694,
      "tam": 695,
      "Ġvra": 696,
      "Ġmat": 697,
      "ĠoÄįi": 698,
      "Ġspo": 699,
      "Ġslunce": 700,
      "stou": 701,
      "ĠneÅ¾": 702,
      "hÃ©": 703,
      "leÄį": 704,
      "ĠlÃ¡sky": 705,
      "stÄĽ": 706,
      "Ġbou": 707,
      "cem": 708,
      "ĠslÃ¡": 709,
      "Ġsvat": 710,
      "Ġbych": 711,
      "chem": 712,
      "skÃ½": 713,
      "Ġon": 714,
      "ĠvÃ¡m": 715,
      "on": 716,
      "Ġpoh": 717,
      "Ġmil": 718,
      "Äįka": 719,
      "skÃ¡": 720,
      "Ġbylo": 721,
      "vnÃŃ": 722,
      "rem": 723,
      "Ġjich": 724,
      "Å¡en": 725,
      "Ġcho": 726,
      "Ġda": 727,
      "jenÅ¾": 728,
      "Ġmno": 729,
      "Ġpoz": 730,
      "Ġml": 731,
      "ĠaÅ¾": 732,
      "jde": 733,
      "ĠtÄĽch": 734,
      "ĠzpÄĽ": 735,
      "ĠsÃ¡m": 736,
      "nÃ©ho": 737,
      "lesk": 738,
      "ĠptÃ¡": 739,
      "Ġoh": 740,
      "ri": 741,
      "nech": 742,
      "kla": 743,
      "dÃ©": 744,
      "ĠnÃŃm": 745,
      "sud": 746,
      "Å¡tÃŃ": 747,
      "vem": 748,
      "ĠsvÃŃ": 749,
      "ĠtÅĻe": 750,
      "zda": 751,
      "pak": 752,
      "Ġsnad": 753,
      "âĢĵ": 754,
      "ĠsobÄĽ": 755,
      "Ġsly": 756,
      "Ġjim": 757,
      "ÅĻÃŃm": 758,
      "ÅĻel": 759,
      "Ġsmut": 760,
      "Ġtem": 761,
      "Ġkro": 762,
      "ĠÅ¾itÃŃ": 763,
      "mÅ¯": 764,
      "Ġbyla": 765,
      "Äįer": 766,
      "ĠtobÄĽ": 767,
      "Ġnech": 768,
      "sla": 769,
      "ĠkrÃ¡s": 770,
      "Å¡Å¥": 771,
      "ĠÄįlovÄĽ": 772,
      "kal": 773,
      "zÃ¡": 774,
      "Ġmilo": 775,
      "ĠsnÄĽ": 776,
      "Ġmou": 777,
      "ĠsvÅ¯j": 778,
      "ĠchtÄĽ": 779,
      "Ġzde": 780,
      "bra": 781,
      "aÅ¥": 782,
      "neb": 783,
      "byl": 784,
      "ĠsmÄĽ": 785,
      "pod": 786,
      "Ġmar": 787,
      "jiÅ¾": 788,
      "seÅĪ": 789,
      "zu": 790,
      "den": 791,
      "Ġsrdci": 792,
      "sty": 793,
      "Äįen": 794,
      "smÄĽ": 795,
      "Ġkam": 796,
      "neÅ¾": 797,
      "Ġmys": 798,
      "Ġg": 799,
      "ĠÅ¡tÄĽstÃŃ": 800,
      "om": 801,
      "ĠzemÄĽ": 802,
      "Ġvr": 803,
      "ĠsvÃ½m": 804,
      "Ġkla": 805,
      "kte": 806,
      "mnÄĽ": 807,
      "ĠvÃ¡s": 808,
      "Ġdnes": 809,
      "nky": 810,
      "ĠvÄĽt": 811,
      "Äįek": 812,
      "Ġzemi": 813,
      "pomÃŃ": 814,
      "lÃ½ch": 815,
      "ĠÄįÃŃ": 816,
      "ĠsvÃ½ch": 817,
      "ĠsmÃŃ": 818,
      "ĠÅ¡ÃŃ": 819,
      "ÅĻem": 820,
      "Äįky": 821,
      "mÃ©": 822,
      "Å¡ÃŃm": 823,
      "ĠtÃ¡": 824,
      "ved": 825,
      "ĠblÃŃ": 826,
      "er": 827,
      "lÅ¯": 828,
      "Ġmoje": 829,
      "Ġjejich": 830,
      "Ġchu": 831,
      "ĠpÅ¯": 832,
      "ĠtÄĽÅ¾": 833,
      "Ġok": 834,
      "Ġruce": 835,
      "zo": 836,
      "hÅ¯": 837,
      "Ġmrt": 838,
      "ĠtvÅ¯j": 839,
      "nil": 840,
      "ĠvÃŃc": 841,
      "Ġtich": 842,
      "Ġha": 843,
      "Ġrado": 844,
      "Ġsmr": 845,
      "ska": 846,
      "Ġke": 847,
      "ĠchvÄĽ": 848,
      "dil": 849,
      "ĠÄįa": 850,
      "pad": 851,
      "Ġkolem": 852,
      "teÄı": 853,
      "vit": 854,
      "sku": 855,
      "zem": 856,
      "ĠspÃ¡": 857,
      "skÃ½ch": 858,
      "cÅ¯": 859,
      "Ġnoci": 860,
      "jÃŃcÃŃ": 861,
      "ĠvÅ¡em": 862,
      "nek": 863,
      "hem": 864,
      "Ġtebe": 865,
      "dÃŃm": 866,
      "sky": 867,
      "?âĢľ": 868,
      "um": 869,
      "ĠbÅ¯h": 870,
      "Ġbi": 871,
      "ĠkaÅ¾dÃ½": 872,
      "kam": 873,
      "kÃ½ch": 874,
      "Ġsva": 875,
      "Ġmra": 876,
      "ĠnaÅ¡e": 877,
      "kol": 878,
      "ĠmÃ¡m": 879,
      "dech": 880,
      "nout": 881,
      "ĠzdÃ¡": 882,
      "vÃŃm": 883,
      "Ġvlast": 884,
      "ĠhÃ¡": 885,
      "Ġe": 886,
      "Ġklid": 887,
      "rev": 888,
      "lil": 889,
      "Ġba": 890,
      "ĠtÃ©Å¾": 891,
      "Äįku": 892,
      "ĠvÅ¡ecko": 893,
      "hra": 894,
      "vnÄĽ": 895,
      "Ġhlavu": 896,
      "ast": 897,
      "Ġan": 898,
      "ÅĻil": 899,
      "ĠzpÃŃ": 900,
      "nal": 901,
      "Ġple": 902,
      "Ġbe": 903,
      "dnÃ©": 904,
      "sko": 905,
      "ned": 906,
      "Ġjste": 907,
      "Ġhru": 908,
      "Ġnepo": 909,
      "Ġchce": 910,
      "ĠÅĻ": 911,
      "Ġnoc": 912,
      "Ġale": 913,
      "ach": 914,
      "Ġsko": 915,
      "tÅ¯": 916,
      "Ġprav": 917,
      "Ġzlo": 918,
      "vra": 919,
      "ĠoÄįÃŃ": 920,
      "pÅĻed": 921,
      "ĠvlÃ¡": 922,
      "ĠpÃŃseÅĪ": 923,
      "kÃ½m": 924,
      "ĠmÄĽl": 925,
      "ĠdÅĻÃŃ": 926,
      "Ġhlas": 927,
      "ĠnÃ¡ro": 928,
      "nÃŃch": 929,
      "Ġsen": 930,
      "Ġjem": 931,
      "Ġpan": 932,
      "ĠdÃ¡v": 933,
      "pou": 934,
      "ĠmoÅĻe": 935,
      "Ġani": 936,
      "ĠstÅĻe": 937,
      "ĠlÃ©": 938,
      "bez": 939,
      "Äįil": 940,
      "spo": 941,
      "tva": 942,
      "Ġkru": 943,
      "ĠdÃŃtÄĽ": 944,
      "ĠcelÃ½": 945,
      "ĠhÅĻÃŃ": 946,
      "Å¡u": 947,
      "ĠpÅĻec": 948,
      "Ġmlad": 949,
      "nic": 950,
      "Å¡ich": 951,
      "Å¡la": 952,
      "ĠÅ¾ÃŃ": 953,
      "tky": 954,
      "Ġhor": 955,
      "Ġsu": 956,
      "ĠchvÃŃli": 957,
      "ĠmlÃ¡": 958,
      "ĠÅĪ": 959,
      "sly": 960,
      "Ġslun": 961,
      "Ġhlou": 962,
      "zde": 963,
      "dnou": 964,
      "pl": 965,
      "ĠhvÄĽz": 966,
      "ĠtÃŃm": 967,
      "dnÃ½": 968,
      "tÅĻe": 969,
      "Ġprou": 970,
      "Ġsem": 971,
      "vr": 972,
      "Å¾il": 973,
      "Ġslova": 974,
      "Ġlet": 975,
      "ĠÅ¡i": 976,
      "jsem": 977,
      "Ġny": 978,
      "ĠaÅ¥": 979,
      "dal": 980,
      "Ġhr": 981,
      "Ġote": 982,
      "Ġbole": 983,
      "Ġmoc": 984,
      "ĠstrÃ¡": 985,
      "Ġkol": 986,
      "ĠboÅ¾ÃŃ": 987,
      "Ġmlu": 988,
      "Ġoko": 989,
      "Ġjenom": 990,
      "ĠsvÃ©m": 991,
      "ĠsvÃ©ho": 992,
      "krÃ¡t": 993,
      "hl": 994,
      "ĠspÄĽ": 995,
      "mou": 996,
      "ĠvrÃ¡": 997,
      "Ġzvu": 998,
      "Ġky": 999,
      "ĠsnÃŃ": 1000,
      "Ġhned": 1001,
      "ĠtakÃ©": 1002,
      "snad": 1003,
      "Ġsil": 1004,
      "Ġtoho": 1005,
      "ĠzÅĻÃŃ": 1006,
      "ĠchrÃ¡": 1007,
      "dnÃŃ": 1008,
      "Ġchy": 1009,
      "ĠkÅĻi": 1010,
      "Ġsa": 1011,
      "Ġmez": 1012,
      "nÃ¡ch": 1013,
      "ĠmuÅ¾": 1014,
      "dce": 1015,
      "proÄį": 1016,
      "pat": 1017,
      "ĠdÃŃv": 1018,
      "kle": 1019,
      "ĠnÃ¡Å¡": 1020,
      "ĠpÅĻes": 1021,
      "Ġneb": 1022,
      "Ġneu": 1023,
      "pÅĻÃŃ": 1024,
      "Ġblesk": 1025,
      "Ġduch": 1026,
      "sÃŃc": 1027,
      "ĠsvÄĽta": 1028,
      "vÅ¯": 1029,
      "ĠstojÃŃ": 1030,
      "Ġmal": 1031,
      "ĠmusÃŃ": 1032,
      "Ġpi": 1033,
      "ĠhvÄĽzd": 1034,
      "ja": 1035,
      "Ġtro": 1036,
      "skou": 1037,
      "Å¯Å¾e": 1038,
      "ĠskÃ¡": 1039,
      "rov": 1040,
      "stÅĻe": 1041,
      "Ġobra": 1042,
      "ĠlÃ¡ska": 1043,
      "Ġkrev": 1044,
      "ĠtiÅ¡e": 1045,
      "stÃ©": 1046,
      "ĠÄįlovÄĽk": 1047,
      "dob": 1048,
      "ĠzÃŃ": 1049,
      "ĠbÃ½t": 1050,
      "ÄįÃŃm": 1051,
      "Ġzase": 1052,
      "nka": 1053,
      "ÄįnÃŃ": 1054,
      "nku": 1055,
      "pÄĽt": 1056,
      "ĠnÃ¡hle": 1057,
      "dne": 1058,
      "vÃ¡m": 1059,
      "Ġus": 1060,
      "Ġchlad": 1061,
      "slo": 1062,
      "ĠÃºsmÄĽ": 1063,
      "lit": 1064,
      "ĠÅĻek": 1065,
      "ĠkvÃŃ": 1066,
      "ĠrÃ¡d": 1067,
      "nec": 1068,
      "ĠvÃŃce": 1069,
      "ĠvÃ¡Å¡": 1070,
      "tom": 1071,
      "ouf": 1072,
      "Ġnebi": 1073,
      "ĠhnÄĽ": 1074,
      "ĠÅ¾a": 1075,
      "dlo": 1076,
      "rnÄĽ": 1077,
      "Ġtru": 1078,
      "vÃ©m": 1079,
      "âĢĻ,": 1080,
      "znÄĽ": 1081,
      "ĠstÃ¡le": 1082,
      "Ġdal": 1083,
      "stal": 1084,
      "cky": 1085,
      "sÅ¯": 1086,
      "vala": 1087,
      "Ġvol": 1088,
      "Ġsebe": 1089,
      "bych": 1090,
      "Ġjednou": 1091,
      "ĠhrÃ¡": 1092,
      "Äįko": 1093,
      "ĠtvÃ¡ÅĻ": 1094,
      "Å¡li": 1095,
      "Ġdiv": 1096,
      "ĠÃ³": 1097,
      "ke": 1098,
      "Ġzje": 1099,
      "Ã½mi": 1100,
      "lednÃŃ": 1101,
      "Ġjeden": 1102,
      "ĠmyÅ¡": 1103,
      "ĠnynÃŃ": 1104,
      "sl": 1105,
      "tro": 1106,
      "ĠbÅĻe": 1107,
      "ĠÅ¡Å¥": 1108,
      "ĠbÃŃlÃ©": 1109,
      "zen": 1110,
      "ÄįnÄĽ": 1111,
      "Ġtma": 1112,
      "jte": 1113,
      "ĠstÅĻÃŃ": 1114,
      "Ġmnou": 1115,
      "vÅ¾dyÅ¥": 1116,
      "dÅ¯": 1117,
      "lech": 1118,
      "Ġmla": 1119,
      "ĠklÃŃ": 1120,
      "Ġdr": 1121,
      "ĠspÃŃ": 1122,
      "stra": 1123,
      "tku": 1124,
      "Ġrukou": 1125,
      "plÃ¡": 1126,
      "ĠtrÃ¡": 1127,
      "Ġjar": 1128,
      "ĠpÅĻÃ¡": 1129,
      "Ġhe": 1130,
      "Ġjde": 1131,
      "Ġbled": 1132,
      "ĠchtÄĽl": 1133,
      "Ġzo": 1134,
      "prÃ¡": 1135,
      "ĠbuÄı": 1136,
      "pos": 1137,
      "Ġbudou": 1138,
      "zas": 1139,
      "stÃ½": 1140,
      "Ġpok": 1141,
      "Å¡ti": 1142,
      "Ġmezi": 1143,
      "Ġboj": 1144,
      "Ġdne": 1145,
      "ĠbrÃ¡": 1146,
      "Ġstu": 1147,
      "Ġnikdy": 1148,
      "Ġodpo": 1149,
      "pil": 1150,
      "Ġmrak": 1151,
      "nÃŃk": 1152,
      "jÃŃc": 1153,
      "ĠdÃ¡le": 1154,
      "ĠsvÃ¡": 1155,
      "ĠrÅ¯Å¾e": 1156,
      "Ã©ho": 1157,
      "sil": 1158,
      "Ġsmrti": 1159,
      "Ġtomu": 1160,
      "Ġplamen": 1161,
      "ĠnadÄĽ": 1162,
      "rnÃ©": 1163,
      "Ġvzdu": 1164,
      "Ġzi": 1165,
      "Ġzno": 1166,
      "Ġhrob": 1167,
      "stÅĻÃŃ": 1168,
      "Ġnen": 1169,
      "Ġnebes": 1170,
      "Ġbrat": 1171,
      "tka": 1172,
      "znÃŃ": 1173,
      "ĠÅ¡u": 1174,
      "Ġpoli": 1175,
      "ĠÅ¡Å¥ast": 1176,
      "Ġjedno": 1177,
      "tal": 1178,
      "ĠhrÅ¯": 1179,
      "rnÃ½": 1180,
      "dnÄĽ": 1181,
      "Ġnedo": 1182,
      "uje": 1183,
      "ob": 1184,
      "lik": 1185,
      "zel": 1186,
      "ĠveÄįer": 1187,
      "vali": 1188,
      "hlÃ©": 1189,
      "Ġdla": 1190,
      "Ġhlavy": 1191,
      "Ġlou": 1192,
      "kÅĻi": 1193,
      "ĠznÃ¡": 1194,
      "kÃ¡ch": 1195,
      "Ġnu": 1196,
      "Å¾Ã¡": 1197,
      "ĠdÄĽti": 1198,
      "Ġste": 1199,
      "Ġven": 1200,
      "ĠobÄĽ": 1201,
      "ĠhÅĻ": 1202,
      "slu": 1203,
      "znÃ¡": 1204,
      "ĠtvÃ½ch": 1205,
      "he": 1206,
      "vÃ¡nÃŃ": 1207,
      "Ġzm": 1208,
      "kÃ©m": 1209,
      "nice": 1210,
      "Ġnemo": 1211,
      "Ġnic": 1212,
      "Ġpoko": 1213,
      "ĠvÃŃtÄĽ": 1214,
      "ĠkterÃ©": 1215,
      "Ġzna": 1216,
      "tech": 1217,
      "tvÃ¡": 1218,
      "Ġos": 1219,
      "Ġbar": 1220,
      "dl": 1221,
      "zrak": 1222,
      "bÃ½": 1223,
      "aby": 1224,
      "has": 1225,
      "nej": 1226,
      "jÃŃm": 1227,
      "Ġveli": 1228,
      "dle": 1229,
      "Ġslav": 1230,
      "Ġzda": 1231,
      "svÃ©": 1232,
      "ĠcizÃŃ": 1233,
      "ĠznÃŃ": 1234,
      "rost": 1235,
      "ĠcelÃ©": 1236,
      "Ġklo": 1237,
      "dnes": 1238,
      "Ġjedi": 1239,
      "ĠnÃŃÅ¾": 1240,
      "hlÃŃ": 1241,
      "Å¡enÃŃ": 1242,
      "ĠkÃ¡": 1243,
      "lek": 1244,
      "ĠvzpomÃŃ": 1245,
      "chvÄĽ": 1246,
      "Ġpat": 1247,
      "ĠzvÄĽ": 1248,
      "vla": 1249,
      "Ġzak": 1250,
      "ĠpÅĻece": 1251,
      "ĠleÅ¾ÃŃ": 1252,
      "Ġtvoje": 1253,
      "div": 1254,
      "Ġhou": 1255,
      "ĠduÅ¡ÃŃ": 1256,
      "buÄı": 1257,
      "Ġoz": 1258,
      "ĠprvnÃŃ": 1259,
      "Ġvese": 1260,
      "rob": 1261,
      "Ġruku": 1262,
      "ĠnovÃ©": 1263,
      "nÄĽjÅ¡ÃŃ": 1264,
      "lost": 1265,
      "Ġost": 1266,
      "ĠsÃ¡": 1267,
      "dÄĽla": 1268,
      "ĠkterÃ½": 1269,
      "lÃŃm": 1270,
      "hat": 1271,
      "nit": 1272,
      ",âĢľ": 1273,
      "Ġvlasti": 1274,
      "Ġnimi": 1275,
      "ĠdÅ¯": 1276,
      "let": 1277,
      "jsou": 1278,
      "Ġhlavou": 1279,
      "cÃŃm": 1280,
      "ĠletÃŃ": 1281,
      "ct": 1282,
      "ĠmÃ½ch": 1283,
      "Äįel": 1284,
      "Ġpru": 1285,
      "Ġum": 1286,
      "ĠpÃ¡n": 1287,
      "trÃ¡": 1288,
      "pen": 1289,
      "kaÅ¾": 1290,
      "ĠnevÄĽ": 1291,
      "Ġruka": 1292,
      "Ġlesk": 1293,
      "Ġhrd": 1294,
      "jej": 1295,
      "vrÃ¡": 1296,
      "Ġskry": 1297,
      "Ġleh": 1298,
      "Ġzra": 1299,
      "ĠskrÃ¡": 1300,
      "Ġroze": 1301,
      "ĠvolÃ¡": 1302,
      "Ġtebou": 1303,
      "Ġobla": 1304,
      "ĠsvÄĽtÄĽ": 1305,
      "Ġona": 1306,
      "Ġdvo": 1307,
      "Ġnevi": 1308,
      "jest": 1309,
      "Ġdce": 1310,
      "Ġnebo": 1311,
      "bude": 1312,
      "Ġstr": 1313,
      "lÃ½m": 1314,
      "ĠstÃŃn": 1315,
      "Ġosud": 1316,
      "Ã¡me": 1317,
      "ĠhvÄĽzdy": 1318,
      "Ġhy": 1319,
      "Ġradost": 1320,
      "Ġtra": 1321,
      "ĠznÄĽ": 1322,
      "Ġticho": 1323,
      "ÄįnÃ©": 1324,
      "nutÃŃ": 1325,
      "Ġsli": 1326,
      "Ġplo": 1327,
      "dra": 1328,
      "Ġsvoje": 1329,
      "tÄĽl": 1330,
      "Ġsmrt": 1331,
      "Ġtesk": 1332,
      "ĠzlatÃ©": 1333,
      "sni": 1334,
      "ĠzÃ¡ÅĻÃŃ": 1335,
      "pal": 1336,
      "chÃ¡zÃŃ": 1337,
      "ĠÅ¾al": 1338,
      "ĠkvÄĽty": 1339,
      "Ġrozko": 1340,
      "Ġtaj": 1341,
      "ĠÅ¡el": 1342,
      "tla": 1343,
      "Ġsamo": 1344,
      "Äįa": 1345,
      "ĠdÃ¡vno": 1346,
      "Äįem": 1347,
      "ĠmÅ¯Å¾e": 1348,
      "kve": 1349,
      "dr": 1350,
      "str": 1351,
      "Ġkri": 1352,
      "coÅ¾": 1353,
      "ani": 1354,
      "Ġdar": 1355,
      "hled": 1356,
      "Ġzbo": 1357,
      "dej": 1358,
      "ĠkrÃ¡l": 1359,
      "svÄĽt": 1360,
      "Ġlidst": 1361,
      "dnÃ¡": 1362,
      "Ġpane": 1363,
      "ĠjuÅ¾": 1364,
      "ĠsvÃŃtÃŃ": 1365,
      "Ġtlu": 1366,
      "ĠstarÃ½": 1367,
      "ĠchvÃŃle": 1368,
      "mÄĽl": 1369,
      "Ġpozd": 1370,
      "kro": 1371,
      "hal": 1372,
      "Å¾el": 1373,
      "Ġkraj": 1374,
      "ĠknÄĽ": 1375,
      "ÅĻit": 1376,
      "ÄįenÃŃ": 1377,
      "ĠÅ¾ha": 1378,
      "ĠprÃ¡zd": 1379,
      "Ġdlouho": 1380,
      "pas": 1381,
      "Ġsle": 1382,
      "pÅ¯": 1383,
      "ami": 1384,
      "chle": 1385,
      "ĠkÅĻe": 1386,
      "ĠnÄĽho": 1387,
      "ĠÄįelo": 1388,
      "ben": 1389,
      "ĠzpÄĽv": 1390,
      "ĠÅĪad": 1391,
      "nak": 1392,
      "Ġper": 1393,
      "Ġdech": 1394,
      "ĠbÃ½ti": 1395,
      "Ġproti": 1396,
      "lal": 1397,
      "klo": 1398,
      "mÄĽnÃŃ": 1399,
      "ĠÅ¾ivota": 1400,
      "dru": 1401,
      "Ġpohled": 1402,
      "ĠÅĻa": 1403,
      "Ġsch": 1404,
      "kra": 1405,
      "ĠlÃ¡sku": 1406,
      "vlÃ¡": 1407,
      "ĠproÄį": 1408,
      "ĠÅ¡ep": 1409,
      "ĠtÄĽlo": 1410,
      "ĠpanÃŃ": 1411,
      "ĠvÅĻe": 1412,
      "Ġpouze": 1413,
      "ĠÅ¾ena": 1414,
      "ĠnÃ¡mi": 1415,
      "dÄĽt": 1416,
      "ĠnÃ¡ru": 1417,
      "sÃ¡m": 1418,
      "ĠsnÅ¯": 1419,
      "Ġhud": 1420,
      "vÅ¯j": 1421,
      "ĠnÃ¡rod": 1422,
      "lov": 1423,
      "Ġtajem": 1424,
      "Ġztra": 1425,
      "Ġslou": 1426,
      "Ġhlubo": 1427,
      "ĠvÅ¡ecky": 1428,
      "Ġpy": 1429,
      "vajÃŃ": 1430,
      "Ġzapo": 1431,
      "jÄı": 1432,
      "Ġsti": 1433,
      "tÃ½ch": 1434,
      "Ġpole": 1435,
      "bylo": 1436,
      "vol": 1437,
      "Ġbr": 1438,
      "ĠhledÃŃ": 1439,
      "stro": 1440,
      "ĠpohÃ¡": 1441,
      "ĠlÃ¡skou": 1442,
      "sen": 1443,
      "ĠdobÅĻe": 1444,
      "Ġplu": 1445,
      "ĠstÄĽ": 1446,
      "aÄį": 1447,
      "Ġpam": 1448,
      "Ġvrou": 1449,
      "kÃ¡m": 1450,
      "Ġkraji": 1451,
      "Ġdva": 1452,
      "ĠpÃŃsnÄĽ": 1453,
      "ĠÅ¡tÃŃ": 1454,
      "mlu": 1455,
      "srd": 1456,
      "Ġsku": 1457,
      "nci": 1458,
      "ĠdÃ¡li": 1459,
      "kud": 1460,
      "Ġhroz": 1461,
      "ĠpolÃŃ": 1462,
      "Ġblou": 1463,
      "ĠumÃŃ": 1464,
      "Ġlidu": 1465,
      "ĠvÅ¡u": 1466,
      "zko": 1467,
      "Ġsotva": 1468,
      "ĠvdÄĽ": 1469,
      "Ġdale": 1470,
      "ĠbÃŃlÃ½": 1471,
      "ĠdrÃ¡": 1472,
      "ĠprÃ½": 1473,
      "Ġtady": 1474,
      "Ġzelen": 1475,
      "Ġkrve": 1476,
      "ĠsklÃ¡": 1477,
      "Å¾o": 1478,
      "tit": 1479,
      "hned": 1480,
      "Ġmoh": 1481,
      "mar": 1482,
      "Ġzb": 1483,
      "zou": 1484,
      "Ġves": 1485,
      "moc": 1486,
      "ÄįnÃ½": 1487,
      "pÅĻÃ¡": 1488,
      "ĠboÅ¾e": 1489,
      "Ġode": 1490,
      "ĠvÅ¡eho": 1491,
      "kli": 1492,
      "Ġjemu": 1493,
      "ĠsmÃŃch": 1494,
      "mr": 1495,
      "ĠznÃ¡m": 1496,
      "ĠvÅ¾dycky": 1497,
      "Å¾nÄĽ": 1498,
      "letÃŃ": 1499,
      "ĠdÄĽl": 1500,
      "zla": 1501,
      "ĠÅ¾eny": 1502,
      "ĠsvÄĽtlo": 1503,
      "Å¾eh": 1504,
      "Ġzve": 1505,
      "ĠzÃ¡ÅĻ": 1506,
      "Ġsni": 1507,
      "dat": 1508,
      "Ġnese": 1509,
      "mÅ¯j": 1510,
      "Ġkry": 1511,
      "nostÃŃ": 1512,
      "ĠchvÃ¡": 1513,
      "ĠsvojÃŃ": 1514,
      "Ġneza": 1515,
      "vÃ¡n": 1516,
      "Å¡il": 1517,
      "ÅĻa": 1518,
      "dit": 1519,
      "nebo": 1520,
      "Ġboji": 1521,
      "ĠÄįasto": 1522,
      "zna": 1523,
      "ĠzÅ¯": 1524,
      "ĠvidÃŃ": 1525,
      "ĠpÃŃsnÃŃ": 1526,
      "ĠvidÄĽl": 1527,
      "sce": 1528,
      "Ġhory": 1529,
      "Ġslzy": 1530,
      "ĠvelkÃ©": 1531,
      "Å¯Å¾": 1532,
      "Ġsna": 1533,
      "Ġzouf": 1534,
      "Ġboha": 1535,
      "ĠvelkÃ½": 1536,
      "Ġtedy": 1537,
      "ĠkaÅ¾dÃ©": 1538,
      "Ġkni": 1539,
      "Ġzu": 1540,
      "ĠposlednÃŃ": 1541,
      "ĠnovÃ½": 1542,
      "ĠvlastnÃŃ": 1543,
      "Ġach": 1544,
      "Ġtvou": 1545,
      "Ġrou": 1546,
      "Ġvoj": 1547,
      "hÅ¯ru": 1548,
      "lÃ©m": 1549,
      "vost": 1550,
      "hnou": 1551,
      "ĠpadÃ¡": 1552,
      "ĠjmÃ©": 1553,
      "Ġchci": 1554,
      "Ġblu": 1555,
      "ĠblÃ¡": 1556,
      "ĠnÄĽmu": 1557,
      "ĠtÅĻ": 1558,
      "Ġsklo": 1559,
      "tnÃŃ": 1560,
      "ĠsmÃ¡": 1561,
      "Ġzlato": 1562,
      "svou": 1563,
      "ĠhoÅĻÃŃ": 1564,
      "ĠtÅĻeba": 1565,
      "!...": 1566,
      "Ġsvobo": 1567,
      "Ġhlava": 1568,
      "Ġjisk": 1569,
      "Ġcestu": 1570,
      "Ġaby": 1571,
      "bÅ¯h": 1572,
      "hlu": 1573,
      "kne": 1574,
      "ĠvÃŃtr": 1575,
      "tnÃ©": 1576,
      "ĠmÃ©ho": 1577,
      "ĠrÃ¡na": 1578,
      "ral": 1579,
      "Ġkve": 1580,
      "ĠvaÅ¡e": 1581,
      "ĠkterÃ¡": 1582,
      "ĠnÄĽmÅ¾": 1583,
      "ĠmlÃ¡dÃŃ": 1584,
      "Ġdruh": 1585,
      "ĠsÃŃly": 1586,
      "dost": 1587,
      "Ġvich": 1588,
      "Ġstej": 1589,
      "vÃŃc": 1590,
      "ĠzpÃŃvÃ¡": 1591,
      "lze": 1592,
      "ĠÃºsmÄĽv": 1593,
      "kÅ¯m": 1594,
      "or": 1595,
      "Ġpocho": 1596,
      "Ġbolest": 1597,
      "ckÃ©": 1598,
      "Ġnevy": 1599,
      "Ġpad": 1600,
      "ĠprÃ¡ci": 1601,
      "tko": 1602,
      "pÅĻes": 1603,
      "Ġpar": 1604,
      "ĠsvÄĽtla": 1605,
      "Ġol": 1606,
      "kr": 1607,
      "sal": 1608,
      "ĠdomÅ¯": 1609,
      "Ġsed": 1610,
      "ĠslÃ¡vy": 1611,
      "Ġzmi": 1612,
      "sÃŃce": 1613,
      "nÃ½mi": 1614,
      "ĠzmÄĽ": 1615,
      "cit": 1616,
      "din": 1617,
      "dÄĽj": 1618,
      "Ġpapr": 1619,
      "ĠstÅĻÃŃb": 1620,
      "Ġsvoji": 1621,
      "Ġzahra": 1622,
      "bil": 1623,
      "zni": 1624,
      "lna": 1625,
      "ĠstarÃ©": 1626,
      "Ġotec": 1627,
      "ĠpÅ¯l": 1628,
      "ĠzlatÃ½": 1629,
      "Ġskal": 1630,
      "Ġbohu": 1631,
      "ĠsvatÃ©": 1632,
      "ĠsvatÃ½": 1633,
      "stem": 1634,
      "ĠboÅ¾": 1635,
      "novÃ©": 1636,
      "Ġuli": 1637,
      "Ġobraz": 1638,
      "Ġpom": 1639,
      "Ġnikdo": 1640,
      "ĠhoÅĻe": 1641,
      "Ġy": 1642,
      "ĠbÃ¡snÃŃ": 1643,
      "Ġmnoho": 1644,
      "Ġor": 1645,
      "ĠkrÃ¡sy": 1646,
      "Ġbys": 1647,
      "kvÄĽt": 1648,
      "hr": 1649,
      "Ġmr": 1650,
      "ĠzÃ¡ÅĻi": 1651,
      "ĠnaÅ¡ÃŃ": 1652,
      "ĠvÄĽru": 1653,
      "Ġou": 1654,
      "Ġspolu": 1655,
      "Ġtep": 1656,
      "der": 1657,
      "Ġhled": 1658,
      "toÅ¥": 1659,
      "ĠkvÄĽtÅ¯": 1660,
      "Å¾nÃ©": 1661,
      "ĠmilÃ½": 1662,
      "mys": 1663,
      "ĠmÃ¡lo": 1664,
      "ĠbouÅĻ": 1665,
      "ĠopÄĽt": 1666,
      "ĠvÃŃtÄĽz": 1667,
      "ĠstÃŃny": 1668,
      "ĠdÄĽt": 1669,
      "gi": 1670,
      "ĠstÃ¡l": 1671,
      "mÃ¡m": 1672,
      "cko": 1673,
      "Ġbohem": 1674,
      "Ġpot": 1675,
      "vÅ¡em": 1676,
      "ÄįÃ¡": 1677,
      "ĠprÃ¡ce": 1678,
      "lenÃŃ": 1679,
      "ĠÅ¡at": 1680,
      "ĠjistÄĽ": 1681,
      "Äįit": 1682,
      "Ġpolo": 1683,
      "ĠlidÃ©": 1684,
      "Ġvzdo": 1685,
      "skÃ©ho": 1686,
      "ĠpÅĻijde": 1687,
      "klÃ¡": 1688,
      "ĠvÄĽÄįnÄĽ": 1689,
      "Äįera": 1690,
      "Ġtouhy": 1691,
      "Å¡ichni": 1692,
      "ĠprÃ¡vÄĽ": 1693,
      "kone": 1694,
      "ĠlidÃŃ": 1695,
      "nuÅ¾": 1696,
      "Ġproto": 1697,
      "ĠmilÃ¡": 1698,
      "ĠlÃ¡sce": 1699,
      "bal": 1700,
      "rÃ½ch": 1701,
      "dÃ¡l": 1702,
      "Ġpotom": 1703,
      "ĠvÃŃm": 1704,
      "ĠnemÃ¡": 1705,
      "Ġsama": 1706,
      "bor": 1707,
      "sek": 1708,
      "ĠÅĻÃ¡": 1709,
      "ĠtrÅ¯": 1710,
      "valy": 1711,
      "vila": 1712,
      "chÅ¯": 1713,
      "ĠnichÅ¾": 1714,
      "snÃ©": 1715,
      "Ġkdys": 1716,
      "Ġzr": 1717,
      "nula": 1718,
      "Ġkon": 1719,
      "leh": 1720,
      "Ġslovo": 1721,
      "Å¡ka": 1722,
      "Ġjaro": 1723,
      "hrÃ¡": 1724,
      "jas": 1725,
      "Ġzved": 1726,
      "Ġdivo": 1727,
      "ĠbouÅĻe": 1728,
      "Äįas": 1729,
      "vÃ©ho": 1730,
      "Ġles": 1731,
      "ĠmyÅ¡len": 1732,
      "chÃ½": 1733,
      "ĠnÄĽkdy": 1734,
      "kÃ¡nÃŃ": 1735,
      "tila": 1736,
      "Ġprsou": 1737,
      "ĠtvÃ¡ÅĻÃŃ": 1738,
      "Ġmoud": 1739,
      "jat": 1740,
      "losti": 1741,
      "luje": 1742,
      "Ġhlubi": 1743,
      "Ġkar": 1744,
      "mem": 1745,
      "ĠkrÃ¡t": 1746,
      "oh": 1747,
      "rÃ½m": 1748,
      "Ġjdou": 1749,
      "ĠvÅ¡ude": 1750,
      "Ġsebou": 1751,
      "snÃ½": 1752,
      "Ġotev": 1753,
      "noc": 1754,
      "Ġtrochu": 1755,
      "ĠmarnÄĽ": 1756,
      "Ġposta": 1757,
      "vÃŃÅ¡": 1758,
      "ĠzpÄĽt": 1759,
      "ĠnocÃŃ": 1760,
      "ĠpÅĻiÅ¡el": 1761,
      "Ġsvi": 1762,
      "ran": 1763,
      "ĠandÄĽl": 1764,
      "cy": 1765,
      "vl": 1766,
      "ĠdolÅ¯": 1767,
      "Ġdost": 1768,
      "ĠtvÃ¡ÅĻi": 1769,
      "Ġzdra": 1770,
      "Ġvele": 1771,
      "zÅĻÃŃ": 1772,
      "Ġbudu": 1773,
      "Å¡a": 1774,
      "Ġbol": 1775,
      "stup": 1776,
      "dÃ¡m": 1777,
      "Ġmatka": 1778,
      "sme": 1779,
      "Å¡et": 1780,
      "ĠvÄĽky": 1781,
      "ĠkÅĻÃŃÅ¾": 1782,
      "ĠtÅĻi": 1783,
      "jdou": 1784,
      "ĠtvÃ¡ÅĻe": 1785,
      "Ġzvolna": 1786,
      "bla": 1787,
      "skÃ½m": 1788,
      "ĠvÅ¯nÄĽ": 1789,
      "kry": 1790,
      "ĠzrÃ¡": 1791,
      "Ġzraky": 1792,
      "ĠpÄĽk": 1793,
      "Ġducha": 1794,
      "tys": 1795,
      "ĠnaÅ¡ich": 1796,
      "ĠztrÃ¡": 1797,
      "jed": 1798,
      "Å¾enÃŃ": 1799,
      "ÅĻenÃŃ": 1800,
      "Ġran": 1801,
      "Ġmilen": 1802,
      "spÄĽ": 1803,
      "ĠhlÃ¡": 1804,
      "ĠvÄĽr": 1805,
      "dila": 1806,
      "tru": 1807,
      "Å¡nÄĽ": 1808,
      "mÃŃr": 1809,
      "ĠdÅĻÃŃv": 1810,
      "ĠkÃ½": 1811,
      "Å¡te": 1812,
      "Ġhovo": 1813,
      "ĠvÅ¡echno": 1814,
      "ju": 1815,
      "nÃ¡Å¡ÃŃ": 1816,
      "srdce": 1817,
      "ĠsnÄĽnÃŃ": 1818,
      "ĠdÃ©": 1819,
      "Ġoku": 1820,
      "skÃ©m": 1821,
      "Ġbyli": 1822,
      "ĠkrÃ¡lov": 1823,
      "ĠmÄĽk": 1824,
      "Ġpropa": 1825,
      "Ġbohat": 1826,
      "ÅĻek": 1827,
      "Å¾nÃ½": 1828,
      "stech": 1829,
      "Ġbyly": 1830,
      "ĠtÄĽla": 1831,
      "Ġska": 1832,
      "stÅĻÃŃc": 1833,
      "ĠjakÃ½": 1834,
      "ĠskrÃ½": 1835,
      "Ġvlny": 1836,
      "ĠhruÄı": 1837,
      "cela": 1838,
      "Ġbeze": 1839,
      "ĠÅ¡ko": 1840,
      "zlo": 1841,
      "ĠpÅĻem": 1842,
      "rÃ¡z": 1843,
      "ĠÄįekÃ¡": 1844,
      "Ġsny": 1845,
      "Ġbuj": 1846,
      "Ġtolik": 1847,
      "ĠÅ¾lu": 1848,
      "Ġvon": 1849,
      "ĠkvÄĽ": 1850,
      "Ġprach": 1851,
      "ĠvÃ½Å¡e": 1852,
      "Ġmysli": 1853,
      "ĠmÄĽsta": 1854,
      "ĠsvÄĽtem": 1855,
      "hlas": 1856,
      "rech": 1857,
      "ĠmoÅ¾": 1858,
      "Ġlesy": 1859,
      "Ã¡men": 1860,
      "Ġfi": 1861,
      "zvu": 1862,
      "ĠmÃŃsto": 1863,
      "nik": 1864,
      "Ġblaho": 1865,
      "liÅ¡": 1866,
      "Ġct": 1867,
      "tajÃŃ": 1868,
      "man": 1869,
      "Ġznova": 1870,
      "Å¡ku": 1871,
      "jel": 1872,
      "Ġkoru": 1873,
      "vel": 1874,
      "dli": 1875,
      "Ġopu": 1876,
      "ĠnÄĽj": 1877,
      "Ġrychle": 1878,
      "ĠsladkÃ©": 1879,
      "del": 1880,
      "Å¾ÃŃm": 1881,
      "ĠÄįernÃ©": 1882,
      "ĠmÃ¡Å¡": 1883,
      "ĠknÃŃ": 1884,
      "mil": 1885,
      "zal": 1886,
      "stil": 1887,
      "ĠkÅĻÃŃdla": 1888,
      "ĠtÅĻpy": 1889,
      "ĠÄįÃŃm": 1890,
      "lÃ©b": 1891,
      "Ġvody": 1892,
      "Ġslunci": 1893,
      "ĠvlÃŃ": 1894,
      "ot": 1895,
      "nici": 1896,
      "Ġsr": 1897,
      "Ġkrva": 1898,
      "hnu": 1899,
      "Ġdosud": 1900,
      "ĠjinÃ©": 1901,
      "nÃ¡nÃŃ": 1902,
      "ĠhoÅĻ": 1903,
      "aj": 1904,
      "ĠvzhÅ¯ru": 1905,
      "Ġlist": 1906,
      "nÄĽm": 1907,
      "mat": 1908,
      "Ġcit": 1909,
      "Ġobzo": 1910,
      "Ġkamen": 1911,
      "ĠvidÃŃm": 1912,
      "Ġhrobu": 1913,
      "ĠÄı": 1914,
      "vÃ¡Å¡": 1915,
      "Ġas": 1916,
      "mne": 1917,
      "ĠzmÃŃ": 1918,
      "van": 1919,
      "Ġzbra": 1920,
      "vati": 1921,
      "ĠmoÅĻi": 1922,
      "stane": 1923,
      "ĠlÃŃce": 1924,
      "ĠjÃŃm": 1925,
      "Ġpev": 1926,
      "sÃŃm": 1927,
      "ĠkrÃ¡snÃ©": 1928,
      "ĠmÄĽsÃŃc": 1929,
      "Ġopo": 1930,
      "valo": 1931,
      "ĠtÅĻÃŃ": 1932,
      "nko": 1933,
      "Ġdoby": 1934,
      "ĠchÃ½": 1935,
      "Ġjara": 1936,
      "ĠhnÃŃ": 1937,
      "Å¾it": 1938,
      "ĠvÅ¡ichni": 1939,
      "Ġklen": 1940,
      "ĠdÃ½m": 1941,
      "ĠkrvÃŃ": 1942,
      "Ġzdvi": 1943,
      "tich": 1944,
      "ĠÅ¾Ã¡r": 1945,
      "Ġchmu": 1946,
      "Ġstru": 1947,
      "myÅ¡": 1948,
      "Ġcesty": 1949,
      "Å¡lo": 1950,
      "ptÃ¡": 1951,
      "Ġju": 1952,
      "Ġnena": 1953,
      "ĠzÅĻel": 1954,
      "Ġkli": 1955,
      "ĠcÃŃtÃŃ": 1956,
      "ĠdvÄĽ": 1957,
      "Ġdej": 1958,
      "Ġdomo": 1959,
      "Ġcha": 1960,
      "pan": 1961,
      "nechÅ¥": 1962,
      "koli": 1963,
      "kÅĻik": 1964,
      "ÅĻela": 1965,
      "Ġokem": 1966,
      "nila": 1967,
      "jsi": 1968,
      "ĠusmÃŃ": 1969,
      "jal": 1970,
      "rÃ©m": 1971,
      "vÅ¡ech": 1972,
      "ĠhvÄĽzda": 1973,
      "fi": 1974,
      "Ġhospo": 1975,
      "ĠpÅ¯j": 1976,
      "Ġprch": 1977,
      "ĠÅ¾ije": 1978,
      "ĠnaÅ¡i": 1979,
      "ĠpovÄĽ": 1980,
      "Ġoba": 1981,
      "mrt": 1982,
      "ĠtisÃŃc": 1983,
      "ml": 1984,
      "ĠvÃ½Å¡": 1985,
      "ĠÄįele": 1986,
      "vod": 1987,
      "hod": 1988,
      "Ġhrad": 1989,
      "ĠmÃ©m": 1990,
      "toÅ¾": 1991,
      "dÃ½m": 1992,
      "mno": 1993,
      "ĠmojÃŃ": 1994,
      "ĠdÃ½ch": 1995,
      "ĠdÄĽv": 1996,
      "ĠprÅ¯": 1997,
      "Ġperu": 1998,
      "blÃŃ": 1999,
      "Ġply": 2000,
      "Ġmodlit": 2001,
      "ĠÅ¡um": 2002,
      "ĠcelÃ¡": 2003,
      "ĠtvÃ©ho": 2004,
      "Ġobje": 2005,
      "Ġspat": 2006,
      "Ġpozdra": 2007,
      "Ġsvit": 2008,
      "nat": 2009,
      "Ġchla": 2010,
      "duch": 2011,
      "Ġsmu": 2012,
      "Ġmatky": 2013,
      "ĠmÃŃr": 2014,
      "ĠklÃ¡": 2015,
      "ĠmÃŃt": 2016,
      "lila": 2017,
      "ckÃ½": 2018,
      "Ġbal": 2019,
      "ĠvzdÃ¡": 2020,
      "ĠzÃ¡ÅĻe": 2021,
      "Ġkdyby": 2022,
      "jdu": 2023,
      "ĠsvÃ©mu": 2024,
      "Ġcestou": 2025,
      "kÅĻÃŃ": 2026,
      "ĠzvÃŃ": 2027,
      "ĠpoÄį": 2028,
      "ĠmÄĽla": 2029,
      "tvÃ©": 2030,
      "prv": 2031,
      "jÃŃÅ¾": 2032,
      "Ġver": 2033,
      "ĠÄįasem": 2034,
      "ĠhlavÄĽ": 2035,
      "ĠsnÃŃh": 2036,
      "Ġrov": 2037,
      "Ġtouha": 2038,
      "ĠtvÃ©m": 2039,
      "dÅĻÃŃ": 2040,
      "us": 2041,
      "Ġsho": 2042,
      "ĠbÃŃlÃ¡": 2043,
      "ĠmÃ½m": 2044,
      "ĠdÃ½": 2045,
      "Ġvza": 2046,
      "âĢĻ.": 2047,
      "byla": 2048,
      "ĠÄįela": 2049,
      "Ġkdysi": 2050,
      "Ġmilost": 2051,
      "Å¡ek": 2052,
      "ĠdÃ¡lky": 2053,
      "Ġhloub": 2054,
      "tk": 2055,
      "ĠtÃ½": 2056,
      "ĠmeÄį": 2057,
      "diny": 2058,
      "nÃ¡Å¡": 2059,
      "ĠsladkÃ½": 2060,
      "âĢĺ": 2061,
      "pÅ¡ÃŃ": 2062,
      "Ġpta": 2063,
      "Ġzvy": 2064,
      "ĠstromÅ¯": 2065,
      "lÃ©t": 2066,
      "dajÃŃ": 2067,
      "ĠpÅĻÃŃro": 2068,
      "Ġneo": 2069,
      "ĠÃºsta": 2070,
      "dÄĽli": 2071,
      "Ġnohou": 2072,
      "jeÅ¡tÄĽ": 2073,
      "ĠdÃŃvÃ¡": 2074,
      "Ġtisk": 2075,
      "ĠstÃŃnu": 2076,
      "Ġzjev": 2077,
      "hÃ½ch": 2078,
      "ĠÅĻÃŃci": 2079,
      "ĠbouÅĻÃŃ": 2080,
      "chce": 2081,
      "Äįet": 2082,
      "ĠptÃ¡k": 2083,
      "boj": 2084,
      "brÃ¡": 2085,
      "dala": 2086,
      "hro": 2087,
      "dÃŃÅ¡": 2088,
      "Ġdrob": 2089,
      "Ġstat": 2090,
      "vad": 2091,
      "ĠlistÃŃ": 2092,
      "ĠneznÃ¡m": 2093,
      "zpÃŃ": 2094,
      "tÄĽch": 2095,
      "sed": 2096,
      "sel": 2097,
      "Ġrak": 2098,
      "Ġotro": 2099,
      "ĠskvÄĽ": 2100,
      "ĠplnÃ½": 2101,
      "ĠÅ¾iv": 2102,
      "Ġnelze": 2103,
      "Äįin": 2104,
      "Ġkraje": 2105,
      "ĠmyÅ¡lÃ©": 2106,
      "penÃŃ": 2107,
      "vej": 2108,
      "ĠvÄĽÄįnÃ©": 2109,
      "Å¯v": 2110,
      "ĠsvÄĽÅ¾ÃŃ": 2111,
      "Ġruky": 2112,
      "kat": 2113,
      "Ġhlasem": 2114,
      "pÃ½": 2115,
      "ĠnevÃŃ": 2116,
      "ev": 2117,
      "Ġkles": 2118,
      "Ġdole": 2119,
      "Ġkonec": 2120,
      "ĠblÃŃÅ¾": 2121,
      "ĠstarÃ¡": 2122,
      "ĠlidskÃ©": 2123,
      "vec": 2124,
      "Ġkap": 2125,
      "tvo": 2126,
      "Ġsyn": 2127,
      "ĠÅ¡a": 2128,
      "star": 2129,
      "ĠskÃ¡ly": 2130,
      "Ã¡c": 2131,
      "Ġmohu": 2132,
      "Ġkmi": 2133,
      "ĠhÅĻe": 2134,
      "jÃŃt": 2135,
      "Ġvyso": 2136,
      "ĠjinÃ½": 2137,
      "Ġret": 2138,
      "kru": 2139,
      "ÅĻo": 2140,
      "ĠdÃ¡m": 2141,
      "ĠrÅ¯Å¾ÃŃ": 2142,
      "rÃ¡m": 2143,
      "ĠklidnÄĽ": 2144,
      "slou": 2145,
      "ĠslÃ¡va": 2146,
      "ĠmyslÃŃ": 2147,
      "Ġdoma": 2148,
      "zeÅĪ": 2149,
      "ĠnÄĽco": 2150,
      "lez": 2151,
      "Å¡Å¥ast": 2152,
      "Å¡Å¡ÃŃ": 2153,
      "Ġoblo": 2154,
      "tele": 2155,
      "ĠblaÅ¾en": 2156,
      "Å¡ky": 2157,
      "voj": 2158,
      "Ġvzal": 2159,
      "dky": 2160,
      "ĠslavÃŃ": 2161,
      "Ġpal": 2162,
      "Å¡nÃ©": 2163,
      "kala": 2164,
      "tev": 2165,
      "Ġble": 2166,
      "Ġcelou": 2167,
      "lÃ©ho": 2168,
      "svÄĽ": 2169,
      "Ġchod": 2170,
      "mnÃŃ": 2171,
      "Ġdosti": 2172,
      "teli": 2173,
      "ĠkÃ¡men": 2174,
      "nÅ¯m": 2175,
      "Ġminu": 2176,
      "ĠÃºst": 2177,
      "ĠdrahÃ¡": 2178,
      "tnÃ½": 2179,
      "spoÅĪ": 2180,
      "hnÄĽ": 2181,
      "ĠzÃ¡pas": 2182,
      "ĠsÃŃla": 2183,
      "zku": 2184,
      "klÃŃ": 2185,
      "ĠmluvÃŃ": 2186,
      "ĠoltÃ¡": 2187,
      "ĠhlÃŃ": 2188,
      "Ġokam": 2189,
      "jim": 2190,
      "ĠtÃ©to": 2191,
      "cel": 2192,
      "dina": 2193,
      "vin": 2194,
      "Ġtre": 2195,
      "Ġpoto": 2196,
      "Ġchvil": 2197,
      "ĠvstÅĻÃŃc": 2198,
      "ĠkrÃ¡ÄįÃŃ": 2199,
      "ĠhledÃ¡": 2200,
      "Ġohe": 2201,
      "dlÃŃ": 2202,
      "tost": 2203,
      "jeho": 2204,
      "Ġvzdech": 2205,
      "Ġramen": 2206,
      "chci": 2207,
      "ĠvÄĽkÅ¯": 2208,
      "ĠkÅ¯": 2209,
      "ĠÄįem": 2210,
      "lku": 2211,
      "Ġohni": 2212,
      "Ġpomo": 2213,
      "Ġnekone": 2214,
      "ĠvÅ¡echny": 2215,
      "chal": 2216,
      "ĠzÃ¡pa": 2217,
      "Ġstrom": 2218,
      "ĠrÃ¡ny": 2219,
      "ĠoheÅĪ": 2220,
      "ĠslyÅ¡ÃŃ": 2221,
      "ĠnÃ¡d": 2222,
      "ĠlÃ©ta": 2223,
      "ĠjarnÃŃ": 2224,
      "ĠpÅĻÃŃliÅ¡": 2225,
      "hli": 2226,
      "Ġobe": 2227,
      "ĠvÄĽtÅ¡ÃŃ": 2228,
      "Ġar": 2229,
      "Ġstou": 2230,
      "jednou": 2231,
      "tvÅ¯j": 2232,
      "Ġvlasy": 2233,
      "hor": 2234,
      "ĠÅ¾ÃŃt": 2235,
      "jnÄĽ": 2236,
      "Ġkva": 2237,
      "Ġasi": 2238,
      "Å¾ivo": 2239,
      "ĠmÃŃru": 2240,
      "ĠcÃŃsa": 2241,
      "Ġhloubi": 2242,
      "vce": 2243,
      "ĠsedÃŃ": 2244,
      "Ġtmy": 2245,
      "Ġtouhou": 2246,
      "ĠzaÄį": 2247,
      "ĠnadÄĽje": 2248,
      "Ġsmy": 2249,
      "Ġtvrd": 2250,
      "dÃ½ch": 2251,
      "kon": 2252,
      "ĠlÅ¯": 2253,
      "klad": 2254,
      "Ġval": 2255,
      "ĠkvÃŃtÃŃ": 2256,
      "Äįkou": 2257,
      "Ġproud": 2258,
      "stÅĻed": 2259,
      "ĠchceÅ¡": 2260,
      "Ġznovu": 2261,
      "ĠdÃ¡vÃ¡": 2262,
      "ĠlesÅ¯": 2263,
      "Ġprachu": 2264,
      "Ġubo": 2265,
      "ĠplnÃ©": 2266,
      "dar": 2267,
      "ĠzÃŃtra": 2268,
      "kaÅ¾dÃ½": 2269,
      "rÃ¡ch": 2270,
      "bnÃŃ": 2271,
      "ĠpÅĻÃŃÅ¡tÃŃ": 2272,
      "ĠmladÃ½": 2273,
      "Ġprosto": 2274,
      "Ġsnu": 2275,
      "ĠtichÃ©": 2276,
      "deme": 2277,
      "Ġvzdy": 2278,
      "Ġjedna": 2279,
      "Ġsrdcem": 2280,
      "ĠaspoÅĪ": 2281,
      "jenom": 2282,
      "ĠpoÅ¾eh": 2283,
      "tÃ©Å¾": 2284,
      "Ġkrok": 2285,
      "ÄįnÃ¡": 2286,
      "ĠmladÃ©": 2287,
      "jme": 2288,
      "Ġhrudi": 2289,
      "snÃ¡": 2290,
      "ĠÄįest": 2291,
      "Ġboje": 2292,
      "Ġchat": 2293,
      "ĠtichÃ½": 2294,
      "lky": 2295,
      "Ġfa": 2296,
      "Ġvedle": 2297,
      "in": 2298,
      "ĠnÃ¡ruÄį": 2299,
      "ĠdobrÃ©": 2300,
      "tan": 2301,
      "tÃ¡m": 2302,
      "ĠtvÃ½m": 2303,
      "ĠÅĻeÄį": 2304,
      "ĠdrahÃ©": 2305,
      "ĠdobÄĽ": 2306,
      "Ġup": 2307,
      "pÅĻec": 2308,
      "âĢŀâĢŀ": 2309,
      "jsme": 2310,
      "lenÃ©": 2311,
      "ĠchvÄĽje": 2312,
      "el": 2313,
      "ĠpÃŃsni": 2314,
      "stÃ¡vÃ¡": 2315,
      "cu": 2316,
      "mrak": 2317,
      "kolem": 2318,
      "ĠjakÃ©": 2319,
      "ĠjejÅ¾": 2320,
      "dosti": 2321,
      "ĠuÄįi": 2322,
      "Ġpodzi": 2323,
      "Ġdobro": 2324,
      "chvÃ¡": 2325,
      "ĠrÃ¡no": 2326,
      "ÅĻila": 2327,
      "ĠneÅ¾li": 2328,
      "stvo": 2329,
      "kvÃŃ": 2330,
      "Ġkmen": 2331,
      "ader": 2332,
      "ĠvÃŃru": 2333,
      "Ġlesa": 2334,
      "ryÄį": 2335,
      "ĠoÄįÃŃch": 2336,
      "volÃ¡": 2337,
      "ĠÅĻeÄįi": 2338,
      "kaz": 2339,
      "zra": 2340,
      "ĠaÄį": 2341,
      "ĠmuÅ¾i": 2342,
      "her": 2343,
      "trem": 2344,
      "nenÃŃ": 2345,
      "ĠkrÃ¡snÃ¡": 2346,
      "ĠhrobÄĽ": 2347,
      "ĠdobrÃ½": 2348,
      "Ġhar": 2349,
      "kterÃ©": 2350,
      "ĠmÃ¡me": 2351,
      "Ġvlas": 2352,
      "ĠbudeÅ¡": 2353,
      "ĠcoÅ¾": 2354,
      "neÅ¡": 2355,
      "vÄĽz": 2356,
      "Ġblanky": 2357,
      "lka": 2358,
      "tnÄĽ": 2359,
      "ĠmuÅ¾e": 2360,
      "Ġnaz": 2361,
      "Ġneroz": 2362,
      "noucÃŃ": 2363,
      "kterÃ½": 2364,
      "ĠmalÃ½": 2365,
      "Ġsme": 2366,
      "ĠdlouhÃ©": 2367,
      "Ġpil": 2368,
      "Ġmoji": 2369,
      "Ġzav": 2370,
      "ĠkrÃ¡se": 2371,
      "ĠÅ¾il": 2372,
      "kdyby": 2373,
      "Ġdou": 2374,
      "ĠsplÃ½": 2375,
      "skem": 2376,
      "ĠsvÄĽtu": 2377,
      "ĠÄįasu": 2378,
      "Ġslov": 2379,
      "ĠpovÃŃ": 2380,
      "Ġlidstva": 2381,
      "ĠrÃ¡j": 2382,
      "slav": 2383,
      "Ġradosti": 2384,
      "ĠÅĪader": 2385,
      "ĠplÃ¡Äįe": 2386,
      "Ġvln": 2387,
      "ĠmilÃ©": 2388,
      "ĠsÃŃlu": 2389,
      "ĠkrÃ¡li": 2390,
      "Ġroste": 2391,
      "ĠmotÃ½": 2392,
      "ĠbÅĻehu": 2393,
      "ĠkÅĻÃŃd": 2394,
      "dek": 2395,
      "Ġpravil": 2396,
      "zpÄĽ": 2397,
      "ĠchÃ¡": 2398,
      "ĠslyÅ¡el": 2399,
      "Ġlese": 2400,
      "bito": 2401,
      "Å¡ko": 2402,
      "nouti": 2403,
      "ĠkrÃ¡snÃ½": 2404,
      "ĠplÃ¡Äį": 2405,
      "Ġvede": 2406,
      "ĠnemÄĽ": 2407,
      "ĠnesmÃŃ": 2408,
      "Ġcos": 2409,
      "Ġcesta": 2410,
      "Ġnev": 2411,
      "ÅĻÃŃt": 2412,
      "jÃŃch": 2413,
      "teÄį": 2414,
      "ĠvÅ¯le": 2415,
      "ĠzÅĻÃŃm": 2416,
      "vÃŃrÃ¡": 2417,
      "ĠÄįÃ¡": 2418,
      "ĠmajÃŃ": 2419,
      "sle": 2420,
      "ĠkaÅ¾dÃ¡": 2421,
      "Ġspou": 2422,
      "ĠpamÄĽ": 2423,
      "ĠÄįernÃ½": 2424,
      "Ġdve": 2425,
      "ĠleÄį": 2426,
      "Ġvod": 2427,
      "ĠvÃ½Å¡i": 2428,
      "ĠzdrÃ¡": 2429,
      "Ġpravda": 2430,
      "hly": 2431,
      "Ġjiz": 2432,
      "rej": 2433,
      "Å¡nÃ½": 2434,
      "Ġotce": 2435,
      "Ġzrakem": 2436,
      "rÃ¡d": 2437,
      "dlou": 2438,
      "rnÃ¡": 2439,
      "ĠnevÃŃm": 2440,
      "ĠrÃ¡z": 2441,
      "Ġpoe": 2442,
      "slyÅ¡": 2443,
      "Ġzby": 2444,
      "Ġspas": 2445,
      "tÅĻi": 2446,
      "Ġokna": 2447,
      "dÃ©m": 2448,
      "Ġvez": 2449,
      "ÅĻenÃ©": 2450,
      "Ġchle": 2451,
      "ĠÅ¡la": 2452,
      "Ġnim": 2453,
      "ĠvÄĽÄįnÃ½": 2454,
      "hleÄı": 2455,
      "Ġpovz": 2456,
      "Ġstromy": 2457,
      "ĠdÄĽtÃŃ": 2458,
      "ĠpravÃŃ": 2459,
      "hlÃ¡": 2460,
      "Ġzdo": 2461,
      "ĠcÃŃtÃŃm": 2462,
      "ĠpÃ½ch": 2463,
      "cos": 2464,
      "Ġcen": 2465,
      "Ġnebyl": 2466,
      "Äįila": 2467,
      "Ġprapo": 2468,
      "Ġtan": 2469,
      "ĠÅ¡umÃŃ": 2470,
      "Ġkdes": 2471,
      "ovÃ©": 2472,
      "roj": 2473,
      "neÅ¡en": 2474,
      "Ġvti": 2475,
      "Ġklet": 2476,
      "dÃ¡nÃŃ": 2477,
      "ĠbÄĽda": 2478,
      "ech": 2479,
      "Ġal": 2480,
      "blou": 2481,
      "dka": 2482,
      "spÃŃ": 2483,
      "lnÃŃ": 2484,
      "Ġduchu": 2485,
      "rÅ¯pÄĽ": 2486,
      "ĠjmÃ©no": 2487,
      "nese": 2488,
      "ĠsrdcÃŃ": 2489,
      "Å¾ik": 2490,
      "nami": 2491,
      "rnÃŃ": 2492,
      "kajÃŃ": 2493,
      "ĠmnohÃ½": 2494,
      "ĠmalÃ©": 2495,
      "kni": 2496,
      "lenÃ½": 2497,
      "Ġkal": 2498,
      "hna": 2499,
      "Ġjinak": 2500,
      "Ġhlad": 2501,
      "Ġtakto": 2502,
      "ĠbratÅĻÃŃ": 2503,
      "ĠklonÃŃ": 2504,
      "nez": 2505,
      "ĠblÃ½": 2506,
      "Ġtento": 2507,
      "Ġlidem": 2508,
      "Ġnapos": 2509,
      "Ġjazy": 2510,
      "ĠzvonÃŃ": 2511,
      "ĠzapomnÄĽ": 2512,
      "prav": 2513,
      "Ġztracen": 2514,
      "ĠnedÃ¡": 2515,
      "jeÅ¡": 2516,
      "Ġrty": 2517,
      "ĠdruhÃ©": 2518,
      "cet": 2519,
      "ĠchodÃŃ": 2520,
      "ĠmÄĽsto": 2521,
      "stat": 2522,
      "pit": 2523,
      "ĠvÅ¡emi": 2524,
      "Ġhas": 2525,
      "Ġposud": 2526,
      "bit": 2527,
      "Ġmilosti": 2528,
      "ĠÄįech": 2529,
      "Ġplach": 2530,
      "ĠâĢĵâĢľ": 2531,
      "ĠcÃŃtil": 2532,
      "Ġmilu": 2533,
      "Ġjin": 2534,
      "Ġman": 2535,
      "Å¾ky": 2536,
      "ĠveÄįe": 2537,
      "Ġsma": 2538,
      "ĠrytÃŃ": 2539,
      "Ġbudouc": 2540,
      "Å¾Å¡ÃŃ": 2541,
      "chÃ¡ze": 2542,
      "dnÃ½ch": 2543,
      "?!": 2544,
      "ĠkrÃ¡le": 2545,
      "Ġstvo": 2546,
      "Ġrozp": 2547,
      "Ġtla": 2548,
      "ĠmizÃŃ": 2549,
      "staÅĪ": 2550,
      "ĠÅĻekl": 2551,
      "Ġboku": 2552,
      "ĠvÃ¡mi": 2553,
      "ĠchrÃ¡m": 2554,
      "ec": 2555,
      "Ġjmen": 2556,
      "ĠsvÃ½mi": 2557,
      "ĠzaÅ¡": 2558,
      "Ġpravdu": 2559,
      "Ġklam": 2560,
      "Ġsladce": 2561,
      "ĠrÃ¡zem": 2562,
      "Ġpros": 2563,
      "ĠÄıÃ¡": 2564,
      "stva": 2565,
      "Ġspi": 2566,
      "Äįnou": 2567,
      "Ġrozum": 2568,
      "Ġuz": 2569,
      "slad": 2570,
      "ĠdnÅ¯": 2571,
      "ĠslÃ¡vÄĽ": 2572,
      "Ġsmutek": 2573,
      "livÄĽ": 2574,
      "Ġdala": 2575,
      "Ġtrp": 2576,
      "hÃ½m": 2577,
      "ĠdÅ¯m": 2578,
      "Ġvzduch": 2579,
      "ĠbouÅĻi": 2580,
      "Å¾ka": 2581,
      "Ġcti": 2582,
      "ĠnaÅĪ": 2583,
      "Ġkoste": 2584,
      "ĠhnÄĽv": 2585,
      "Ġleb": 2586,
      "ĠtÄĽm": 2587,
      "ĠpÃ¡ni": 2588,
      "snÄĽjÅ¡ÃŃ": 2589,
      "Ġdomu": 2590,
      "Ġslz": 2591,
      "Ġbrzy": 2592,
      "rom": 2593,
      "Ġkterou": 2594,
      "naÄį": 2595,
      "ĠvzÃ¡c": 2596,
      "met": 2597,
      "Ġvys": 2598,
      "ĠdruhÃ½": 2599,
      "ĠloÄı": 2600,
      "blesk": 2601,
      "pojÄı": 2602,
      "nosÅ¥": 2603,
      "Ġmysl": 2604,
      "Ġzpo": 2605,
      "ĠstarÃ½ch": 2606,
      "stala": 2607,
      "ĠvalÃŃ": 2608,
      "et": 2609,
      "ĠdvÃ©": 2610,
      "lan": 2611,
      "ĠtisÃŃce": 2612,
      "Ġscho": 2613,
      "hÃ¡m": 2614,
      "tÅĻÃŃ": 2615,
      "bli": 2616,
      "cnÄĽ": 2617,
      "ĠknÃŃÅ¾e": 2618,
      "Ġzapla": 2619,
      "ĠkonÄĽ": 2620,
      "proto": 2621,
      "krÃ¡l": 2622,
      "ĠsvatÃ¡": 2623,
      "ĠpÃ©": 2624,
      "Ġdoko": 2625,
      "ĠdÃ¡t": 2626,
      "Ġslza": 2627,
      "ĠjasnÃ©": 2628,
      "ĠÅ¾ÃŃti": 2629,
      "ĠnÄĽÅ¾": 2630,
      "ĠjednÃ©": 2631,
      "ĠmoÅ¾no": 2632,
      "ĠtÅĻÃ¡": 2633,
      "kÃ©Å¾": 2634,
      "Ġzhas": 2635,
      "Ġhej": 2636,
      "mÃ¡ch": 2637,
      "kterÃ¡": 2638,
      "...âĢľ": 2639,
      "go": 2640,
      "ĠzÃ¡hy": 2641,
      "ĠrÃ¡da": 2642,
      "ĠkdoÅ¾": 2643,
      "domÃŃ": 2644,
      "zdÃ¡": 2645,
      "Ġhlo": 2646,
      "kot": 2647,
      "ĠhÅĻbito": 2648,
      "Ġspa": 2649,
      "ĠzemÃŃ": 2650,
      "chra": 2651,
      "Ġmdlo": 2652,
      "Ġzlat": 2653,
      "ĠrozkoÅ¡": 2654,
      "Ġonen": 2655,
      "enÃ¡": 2656,
      "ĠdrahÃ½": 2657,
      "dlÃ©": 2658,
      "eni": 2659,
      "ĠtÄĽÅ¾kÃ©": 2660,
      "Ġbije": 2661,
      "Ġmohl": 2662,
      "darmo": 2663,
      "ĠÄįeskÃ©": 2664,
      "ĠmÄĽnÃŃ": 2665,
      "ĠklÃŃn": 2666,
      "rce": 2667,
      "chvÃŃ": 2668,
      "padÃ¡": 2669,
      "Å¾ÃŃÅ¡": 2670,
      "Ġnohy": 2671,
      "Ġpravdy": 2672,
      "umÃŃ": 2673,
      "Ġzadu": 2674,
      "Ġvenku": 2675,
      "Ġplane": 2676,
      "vÃ½mi": 2677,
      "ĠvracÃŃ": 2678,
      "ĠlÃŃc": 2679,
      "ĠslÃ¡vu": 2680,
      "ĠkrÅ¯pÄĽ": 2681,
      "Ġrost": 2682,
      "ĠzdÃ¡lo": 2683,
      "jejÅ¾": 2684,
      "Ġpout": 2685,
      "pÃ¡n": 2686,
      "ĠÅ¾enu": 2687,
      "ĠmÃŃti": 2688,
      "svÅ¯j": 2689,
      "Å¾a": 2690,
      "ĠdÄĽla": 2691,
      "Ġpramen": 2692,
      "muÅ¾": 2693,
      "vuje": 2694,
      "ĠjÃŃt": 2695,
      "ĠkvÄĽtu": 2696,
      "ĠtenkrÃ¡t": 2697,
      "Ġzcela": 2698,
      "krev": 2699,
      "Ġset": 2700,
      "kvet": 2701,
      "ple": 2702,
      "Å¾ila": 2703,
      "lena": 2704,
      "tor": 2705,
      "hlo": 2706,
      "klid": 2707,
      "Ġprsa": 2708,
      "Ġspra": 2709,
      "ĠvÅ¡ÃŃm": 2710,
      "Ġtry": 2711,
      "Ġnade": 2712,
      "jÃŃce": 2713,
      "ĠnechÅ¥": 2714,
      "enÃŃm": 2715,
      "ĠmodrÃ©": 2716,
      "ĠdÃŃvka": 2717,
      "ĠzlatÃ¡": 2718,
      "tno": 2719,
      "ĠÅ¡le": 2720,
      "ĠsklÃ¡nÃŃ": 2721,
      "ĠzÃ¡zrak": 2722,
      "Ġnesly": 2723,
      "cti": 2724,
      "Ġkterak": 2725,
      "cÅ¯m": 2726,
      "nÃ©mu": 2727,
      "kvÄĽ": 2728,
      "ĠzachvÄĽ": 2729,
      "Ġposled": 2730,
      "ĠslÃŃ": 2731,
      "Ġbratr": 2732,
      "Ġnechce": 2733,
      "cad": 2734,
      "ĠtÃ³": 2735,
      "ĠtÄĽle": 2736,
      "ĠslyÅ¡ÃŃm": 2737,
      "Ġvrcho": 2738,
      "Å¡t": 2739,
      "Ġkali": 2740,
      "pot": 2741,
      "Ġples": 2742,
      "Ġzvuk": 2743,
      "ĠptÃ¡ci": 2744,
      "ĠjehoÅ¾": 2745,
      "ĠrÃ¡je": 2746,
      "ĠnadÅ¡enÃŃ": 2747,
      "ĠjejÃŃm": 2748,
      "Ġvztek": 2749,
      "Ġtruch": 2750,
      "juÅ¾": 2751,
      "chtÄĽl": 2752,
      "ĠvÅ¾dyÅ¥": 2753,
      "hni": 2754,
      "per": 2755,
      "ĠzÃ¡m": 2756,
      "Ġmoci": 2757,
      "ĠkrÃ¡sa": 2758,
      "ĠrÅ¯Å¾o": 2759,
      "jakÃ½": 2760,
      "ĠvÄĽc": 2761,
      "stvÃŃm": 2762,
      "ĠdÅ¯vÄĽ": 2763,
      "Ġzhy": 2764,
      "Ġteprv": 2765,
      "Ġnevin": 2766,
      "Ġhlaho": 2767,
      "Ġtemno": 2768,
      "bÃ©": 2769,
      "ĠrudÃ©": 2770,
      "ĠchtÄĽla": 2771,
      "ĠstejnÄĽ": 2772,
      "ĠvÃ½ch": 2773,
      "Ġstaro": 2774,
      "Ġjednu": 2775,
      "sam": 2776,
      "Ġhan": 2777,
      "Ġzoufal": 2778,
      "pÃ¡tky": 2779,
      "Ġprobu": 2780,
      "Ġoka": 2781,
      "ĠpÅĻede": 2782,
      "hÃ¡nÃŃ": 2783,
      "ĠÅĻeÄįÃŃ": 2784,
      "ena": 2785,
      "Ġzba": 2786,
      "lÃ¡ch": 2787,
      "ĠneznÃ¡": 2788,
      "ĠdlouhÃ½": 2789,
      "Ġur": 2790,
      "ĠobrÃ¡": 2791,
      "ĠpÅĻiÅ¡la": 2792,
      "ĠvelkÃ¡": 2793,
      "ĠjakÃ¡": 2794,
      "ĠmÄĽsÃŃ": 2795,
      "ĠzatÃŃm": 2796,
      "dali": 2797,
      "ĠbÃŃlÃ½ch": 2798,
      "ĠmladÃ¡": 2799,
      "dva": 2800,
      "ĠtÅ¯": 2801,
      "ĠvÅ¯kol": 2802,
      "Ġbojo": 2803,
      "Ġnak": 2804,
      "dÄĽnÃŃ": 2805,
      "ĠrÅ¯z": 2806,
      "Ġrok": 2807,
      "ĠvÅ¯li": 2808,
      "ĠdÃ¡lku": 2809,
      "nÄĽn": 2810,
      "ĠpÃ¡nÄĽ": 2811,
      "dÃ¡ch": 2812,
      "rel": 2813,
      "nÄĽl": 2814,
      "ĠnoÄįnÃŃ": 2815,
      "smut": 2816,
      "Ġjeze": 2817,
      "ĠodpovÄĽ": 2818,
      "zka": 2819,
      "ĠvonÃŃ": 2820,
      "Ġmraky": 2821,
      "ĠvÃŃÅ¡": 2822,
      "Å¡tÄĽstÃŃ": 2823,
      "dÅĻÃŃv": 2824,
      "Ġlam": 2825,
      "kÃ©ho": 2826,
      "ĠmraÄį": 2827,
      "rnou": 2828,
      "ĠÃºdo": 2829,
      "Ġklidu": 2830,
      "kej": 2831,
      "ĠtoÅ¥": 2832,
      "Äįej": 2833,
      "Ġklad": 2834,
      "ÅĻÅ¯": 2835,
      "Ġzasta": 2836,
      "vili": 2837,
      "ĠdennÄĽ": 2838,
      "Ġosu": 2839,
      "pÄĽl": 2840,
      "rci": 2841,
      "dili": 2842,
      "ĠpevnÄĽ": 2843,
      "Ġcy": 2844,
      "Å¡nÃŃ": 2845,
      "ĠÅĻeky": 2846,
      "vÅ¡ecko": 2847,
      "zvo": 2848,
      "Ġnepro": 2849,
      "ĠobjetÃŃ": 2850,
      "svÃ½m": 2851,
      "ĠlepÅ¡ÃŃ": 2852,
      "Ġsami": 2853,
      "ĠtouÅ¾ÃŃ": 2854,
      "Ġtys": 2855,
      "Ġzdi": 2856,
      "ĠkaÅ¾dou": 2857,
      "ĠdÅĻÃŃve": 2858,
      "cla": 2859,
      "Ġpoho": 2860,
      "Ġtvr": 2861,
      "Ġzro": 2862,
      "ĠnepÅĻi": 2863,
      "dku": 2864,
      "Ġhrou": 2865,
      "ĠnepÅĻÃŃ": 2866,
      "ĠtvojÃŃ": 2867,
      "Ġsilou": 2868,
      "ĠskÅĻi": 2869,
      "ĠstÃ¡la": 2870,
      "Ġblaha": 2871,
      "Ġkrou": 2872,
      "ĠsmÃŃchu": 2873,
      "ĠsmutnÄĽ": 2874,
      "ĠtÃ¡hne": 2875,
      "ĠÃºtÄĽ": 2876,
      "sit": 2877,
      "Ġzlata": 2878,
      "bat": 2879,
      "jÃŃmÃ¡": 2880,
      "vice": 2881,
      "ĠvÅ¯nÃŃ": 2882,
      "ĠslyÅ¡": 2883,
      "Ġvlo": 2884,
      "diÅ¾": 2885,
      "ĠzvedÃ¡": 2886,
      "ĠpÅĻÃ¡tel": 2887,
      "pem": 2888,
      "liÄį": 2889,
      "ĠÅĻÃŃÅ¡e": 2890,
      "ĠkrÃ¡su": 2891,
      "Å¾enÃ©": 2892,
      "bÅ¯": 2893,
      "Ġzni": 2894,
      "ĠbÅĻÃŃ": 2895,
      "ĠmlÄįÃŃ": 2896,
      "ĠchrÃ¡mu": 2897,
      "ĠÅĪadra": 2898,
      "Ġpsa": 2899,
      "vidÃŃ": 2900,
      "ĠdÃ¡lce": 2901,
      "ĠbÄĽÅ¾ÃŃ": 2902,
      "ĠÄįlovÄĽka": 2903,
      "Ġkyne": 2904,
      "tala": 2905,
      "rek": 2906,
      "mÃ½": 2907,
      "Å¡it": 2908,
      "Ġide": 2909,
      "hdy": 2910,
      "ĠplÃŃ": 2911,
      "ĠkvÄĽti": 2912,
      "dvÄĽ": 2913,
      "Ġpope": 2914,
      "ĠvÄĽk": 2915,
      "lel": 2916,
      "dÄĽti": 2917,
      "hlou": 2918,
      "Ġsoud": 2919,
      "svo": 2920,
      "ĠzÅĻe": 2921,
      "amÄĽ": 2922,
      "ĠnÃŃz": 2923,
      "ĠnepÅĻÃ¡": 2924,
      "proti": 2925,
      "lÃ©z": 2926,
      "Ġpotu": 2927,
      "ĠÃºsmÄĽvem": 2928,
      "hÅĻ": 2929,
      "ĠzlatÃ½ch": 2930,
      "ĠÅĻi": 2931,
      "Ġdny": 2932,
      "ĠnenÃ¡": 2933,
      "Å¯l": 2934,
      "han": 2935,
      "Ġkrokem": 2936,
      "mra": 2937,
      "ĠjedinÃ½": 2938,
      "vrÃ¡tÃŃ": 2939,
      "ĠmalÃ¡": 2940,
      "svit": 2941,
      "ĠvzplÃ¡": 2942,
      "Ġcest": 2943,
      "Ġhudba": 2944,
      "tnou": 2945,
      "ĠhÃ½": 2946,
      "ĠbÃ½vÃ¡": 2947,
      "kovÃ©": 2948,
      "Ġhez": 2949,
      "Ġdum": 2950,
      "ĠstrÃ¡Å¾": 2951,
      "Ġrod": 2952,
      "ĠÄįasy": 2953,
      "Ġzrcad": 2954,
      "Ġhochu": 2955,
      "ĠcestÄĽ": 2956,
      "dro": 2957,
      "hej": 2958,
      "Å¡ly": 2959,
      "Ġin": 2960,
      "jdi": 2961,
      "sÃ½": 2962,
      "Ġkolo": 2963,
      "Ġlili": 2964,
      "ĠbudÃŃ": 2965,
      "ĠtÅĻetÃŃ": 2966,
      "plo": 2967,
      "ĠÅ¾el": 2968,
      "ĠstÃ¡t": 2969,
      "Ġzmat": 2970,
      "ĠvrÃ¡tÃŃ": 2971,
      "ctvÃŃ": 2972,
      "slÃ¡": 2973,
      "Ġklu": 2974,
      "Ġnovou": 2975,
      "ĠlÃŃbÃ¡": 2976,
      "Ġstrany": 2977,
      "Ġmni": 2978,
      "Ġholu": 2979,
      "tat": 2980,
      "vede": 2981,
      "Ġpest": 2982,
      "Ġsyna": 2983,
      "Å¡ÃŃch": 2984,
      "Ġbro": 2985,
      "ĠstavÃŃ": 2986,
      "ĠsmutnÃ©": 2987,
      "Ġkouz": 2988,
      "kl": 2989,
      "sli": 2990,
      "Ġzka": 2991,
      "ĠvroucÃŃ": 2992,
      "zÅ¯": 2993,
      "Ġkroky": 2994,
      "ĠrtÅ¯": 2995,
      "Ġskvost": 2996,
      "ĠÃºzko": 2997,
      "ĠmrtvÃ½ch": 2998,
      "ĠhnÃŃz": 2999,
      "nebe": 3000,
      "veÄįer": 3001,
      "chou": 3002,
      "ĠÅĻÃŃm": 3003,
      "ĠlÃŃci": 3004,
      "Ġprud": 3005,
      "ĠbledÃ¡": 3006,
      "Ġvlh": 3007,
      "kva": 3008,
      "Ġkonce": 3009,
      "Ġhnu": 3010,
      "venÃ©": 3011,
      "Ġpokoj": 3012,
      "ĠÄįt": 3013,
      "ĠpalÃ¡": 3014,
      "Ġspad": 3015,
      "ĠzpÃ¡tky": 3016,
      "ĠÄįistÃ©": 3017,
      "Ġrtech": 3018,
      "ĠbÃŃlou": 3019,
      "ĠvÃ¡Å¡nÃŃ": 3020,
      "bar": 3021,
      "pomen": 3022,
      "Ġvoda": 3023,
      "ĠmusÃŃm": 3024,
      "slÃŃ": 3025,
      "ĠblÃŃÅ¾ÃŃ": 3026,
      "tnÃ¡": 3027,
      "sotva": 3028,
      "kvÃ©": 3029,
      "milo": 3030,
      "ĠÄįaro": 3031,
      "kojen": 3032,
      "byÅ¥": 3033,
      "hnul": 3034,
      "Ġsty": 3035,
      "bnÄĽ": 3036,
      "ĠtoÄįÃŃ": 3037,
      "Ġhlasy": 3038,
      "Ġtrou": 3039,
      "Ġhvo": 3040,
      "Ġrozho": 3041,
      "ĠklesÃ¡": 3042,
      "fa": 3043,
      "ĠÅ¾alu": 3044,
      "ĠÅ¾eh": 3045,
      "pusÅ¥": 3046,
      "ĠhÅĻÃŃch": 3047,
      "hlÃ½": 3048,
      "ĠvÃŃry": 3049,
      "Ġpodo": 3050,
      "tÄĽÅ¾": 3051,
      "Ġpaprsk": 3052,
      "ĠÅ¡Ã¡": 3053,
      "ĠcÃŃl": 3054,
      "Ġstrach": 3055,
      "ĠÅ¾Ã¡dnÃ½": 3056,
      "ĠvÄįera": 3057,
      "ĠÄįeskÃ½": 3058,
      "Ġslovem": 3059,
      "ĠmrtvÃ©": 3060,
      "Äįo": 3061,
      "ĠovÅ¡em": 3062,
      "ost": 3063,
      "bel": 3064,
      "ĠnavÅ¾dy": 3065,
      "kost": 3066,
      "Å¾Ã¡r": 3067,
      "Ġhradu": 3068,
      "zvÄĽ": 3069,
      "Ġono": 3070,
      "ĠlesnÃŃ": 3071,
      "smÃŃ": 3072,
      "vanÃ©": 3073,
      "ĠmÃŃsta": 3074,
      "Ġblesky": 3075,
      "ĠdlaÅĪ": 3076,
      "Ġdali": 3077,
      "ĠvÅ¡emu": 3078,
      "lej": 3079,
      "Ġsest": 3080,
      "ĠbohatÃ½": 3081,
      "ĠjinÃ½ch": 3082,
      "ĠvÅĻa": 3083,
      "Ġjino": 3084,
      "Ġdav": 3085,
      "Ġmrtvo": 3086,
      "Ġstesk": 3087,
      "ĠdÄĽdi": 3088,
      "ĠspoleÄį": 3089,
      "bÃ½vÃ¡": 3090,
      "ĠnÄĽkdo": 3091,
      "bem": 3092,
      "tÅĻ": 3093,
      "Ġsad": 3094,
      "liv": 3095,
      "ĠdÄĽs": 3096,
      "bÃ¡ch": 3097,
      "bled": 3098,
      "Ġhosti": 3099,
      "ĠkteÅĻÃŃ": 3100,
      "ĠloÅ¾e": 3101,
      "Ġvzduchu": 3102,
      "hnout": 3103,
      "nÄĽnÃŃ": 3104,
      "ĠchtÃŃ": 3105,
      "ĠpÅĻedu": 3106,
      "livÃ½": 3107,
      "ĠsladkÃ¡": 3108,
      "jdeÅ¡": 3109,
      "ĠslyÅ¡et": 3110,
      "tÃ¡n": 3111,
      "Ġtichu": 3112,
      "ĠzÃ¡vi": 3113,
      "vzpomÃŃ": 3114,
      "Ġpolib": 3115,
      "nikÃ¡": 3116,
      "Å¾nÃ¡": 3117,
      "rÅ¯m": 3118,
      "raz": 3119,
      "Ġbolu": 3120,
      "ĠmÄĽli": 3121,
      "ĠÅĻas": 3122,
      "Ġletu": 3123,
      "lenÃ¡": 3124,
      "mrtel": 3125,
      "nala": 3126,
      "sie": 3127,
      "Ġjo": 3128,
      "Ġzlatem": 3129,
      "ĠÄįernÃ½ch": 3130,
      "Å¾enÃ½": 3131,
      "ĠpÃ¡na": 3132,
      "ene": 3133,
      "nitÅĻ": 3134,
      "ĠvisÃŃ": 3135,
      "Ġpodle": 3136,
      "hÃ©m": 3137,
      "vese": 3138,
      "lÃ©tÃ¡": 3139,
      "Ġnesou": 3140,
      "tlu": 3141,
      "Ġsmutku": 3142,
      "ĠopuÅ¡tÄĽ": 3143,
      "ĠvzneÅ¡en": 3144,
      "ĠsluÅ¾": 3145,
      "Ġbolesti": 3146,
      "Äįiny": 3147,
      "ĠkvÄĽtem": 3148,
      "zÅĻÃŃm": 3149,
      "Ġpomoc": 3150,
      "ĠrÃ¡nu": 3151,
      "dÃ¡vÃ¡": 3152,
      "Ġhoch": 3153,
      "ĠlÃŃto": 3154,
      "Ġmlhy": 3155,
      "bnÃ©": 3156,
      "cÃ½": 3157,
      "cenÃ©": 3158,
      "ĠpojÄı": 3159,
      "Ġsoumrak": 3160,
      "rat": 3161,
      "pomnÄĽ": 3162,
      "koj": 3163,
      "Äįela": 3164,
      "ÄįlovÄĽ": 3165,
      "Ġrej": 3166,
      "cenÃŃ": 3167,
      "Ġau": 3168,
      "ĠskrÃ¡ÅĪ": 3169,
      "Ġseve": 3170,
      "Ġutr": 3171,
      "zenÃŃ": 3172,
      "Å¾em": 3173,
      "ĠmrÃ¡z": 3174,
      "hoj": 3175,
      "ĠzvlÃ¡": 3176,
      "Ġdarmo": 3177,
      "hajÃŃ": 3178,
      "ĠpatÅĻÃŃ": 3179,
      "Ġruch": 3180,
      "ĠrÅ¯Å¾i": 3181,
      "slunce": 3182,
      "lejÅ¡ÃŃ": 3183,
      "ĠtÅĻese": 3184,
      "Ġchra": 3185,
      "ĠohnÄĽm": 3186,
      "ĠzdravÃŃ": 3187,
      "ĠvidÄĽt": 3188,
      "fe": 3189,
      "chrÃ¡": 3190,
      "ĠzprÃ¡": 3191,
      "nÃ¡s": 3192,
      "ĠpÅĻÃŃÅ¡e": 3193,
      "knÄĽ": 3194,
      "les": 3195,
      "dlÃ¡": 3196,
      "ĠÄįty": 3197,
      "ĠvyÅ¡el": 3198,
      "Ġmati": 3199,
      "Ġvelkou": 3200,
      "chÃ©": 3201,
      "jakÃ©": 3202,
      "ĠkoÅĻi": 3203,
      "ĠvÄĽci": 3204,
      "Ġprahu": 3205,
      "Ġzma": 3206,
      "ĠÅ¾ene": 3207,
      "ĠblÃŃÅ¾e": 3208,
      "nkou": 3209,
      "lovÃ©": 3210,
      "Ġoblak": 3211,
      "ĠvÃŃno": 3212,
      "ĠvÅ¯ni": 3213,
      "Ġskon": 3214,
      "Ġzku": 3215,
      "Ġsynu": 3216,
      "ĠbledÃ©": 3217,
      "rku": 3218,
      "ĠdÅĻe": 3219,
      "Ġdvou": 3220,
      "Ġned": 3221,
      "ĠdÃŃlo": 3222,
      "Ġdechem": 3223,
      "ĠÅĪadrech": 3224,
      "vedl": 3225,
      "ĠztrÃ¡cÃŃ": 3226,
      "Ġak": 3227,
      "Ġvstou": 3228,
      "Ġuna": 3229,
      "nÃ¡Å¡e": 3230,
      "kdys": 3231,
      "slyÅ¡ÃŃ": 3232,
      "ĠpotÄĽ": 3233,
      "ĠmÃ¡j": 3234,
      "Ġvze": 3235,
      "stupu": 3236,
      "Ġcu": 3237,
      "ĠvraÅ¾": 3238,
      "ĠcÃŃr": 3239,
      "Ġvzde": 3240,
      "ĠlidskÃ½": 3241,
      "Ġzvon": 3242,
      "Ġnitru": 3243,
      "Ġsbo": 3244,
      "tne": 3245,
      "vky": 3246,
      "Ã½vÃ¡": 3247,
      "Ġobli": 3248,
      "ĠtÄĽÅ¾kÃ½": 3249,
      "Ġlidstvo": 3250,
      "rnÃ½ch": 3251,
      "ĠÅ¡li": 3252,
      "mezi": 3253,
      "Ġkdesi": 3254,
      "tec": 3255,
      "duÅ¡e": 3256,
      "ĠohnÄĽ": 3257,
      "ĠvÅ¡i": 3258,
      "ĠjasnÃ½": 3259,
      "Ġzapad": 3260,
      "ĠtichÃ¡": 3261,
      "chom": 3262,
      "venÃ½": 3263,
      "ĠvÅ¡a": 3264,
      "Ġjitra": 3265,
      "bec": 3266,
      "zek": 3267,
      "Ġzlatou": 3268,
      "Ġmatko": 3269,
      "hÅ¯m": 3270,
      "Ġplno": 3271,
      "ĠvÄĽÄįnosti": 3272,
      "Ġsluncem": 3273,
      "ĠumÃŃrÃ¡": 3274,
      "Ġhora": 3275,
      "ĠdÅĻÃŃmÃ¡": 3276,
      "Ġlehce": 3277,
      "ano": 3278,
      "ĠpÃ¡r": 3279,
      "ĠstÃ©": 3280,
      "tili": 3281,
      "Ġproro": 3282,
      "ĠotcÅ¯": 3283,
      "Ġtuto": 3284,
      "ĠdÄĽje": 3285,
      "Ġnap": 3286,
      "Å¡to": 3287,
      "ĠkoÅĻen": 3288,
      "sÃŃch": 3289,
      "ge": 3290,
      "ona": 3291,
      "Äįte": 3292,
      "Äįkem": 3293,
      "Ġdoba": 3294,
      "dÄĽji": 3295,
      "rozen": 3296,
      "ĠzÃŃrÃ¡": 3297,
      "Ġpodiv": 3298,
      "bila": 3299,
      "Ġzraku": 3300,
      "Ġchvat": 3301,
      "Ġcizi": 3302,
      "ĠhalÃŃ": 3303,
      "tkem": 3304,
      "Ġsluch": 3305,
      "Ġnebylo": 3306,
      "zav": 3307,
      "ĠplÃ¡Äįi": 3308,
      "ĠdÃ½Å¡e": 3309,
      "Ġraj": 3310,
      "ĠpÃŃs": 3311,
      "br": 3312,
      "Ġpol": 3313,
      "Ġpln": 3314,
      "Ġlze": 3315,
      "bro": 3316,
      "Ġvar": 3317,
      "ĠrannÃŃ": 3318,
      "bÃ¡m": 3319,
      "ÅĻad": 3320,
      "Ġsnem": 3321,
      "Ġbohy": 3322,
      "jeden": 3323,
      "ĠskÅĻÃŃ": 3324,
      "ĠjÃŃti": 3325,
      "Äıte": 3326,
      "letÄĽ": 3327,
      "ĠotÃ¡": 3328,
      "ĠÄįist": 3329,
      "Ġvytr": 3330,
      "ĠnovÃ¡": 3331,
      "ĠandÄĽ": 3332,
      "pÃ©": 3333,
      "kali": 3334,
      "veli": 3335,
      "zdra": 3336,
      "ĠtemnÃ©": 3337,
      "benÃŃ": 3338,
      "ĠvÄĽÅĻÃŃ": 3339,
      "asu": 3340,
      "Ġvola": 3341,
      "nÃ¡ro": 3342,
      "jin": 3343,
      "Ġhad": 3344,
      "rka": 3345,
      "vci": 3346,
      "bnÃ½": 3347,
      "gu": 3348,
      "ĠbolÃŃ": 3349,
      "jÃŃmÅ¾": 3350,
      "chlad": 3351,
      "voucÃŃ": 3352,
      "ĠmÃ¡te": 3353,
      "ĠkaÅ¾dÃ©m": 3354,
      "Ġmlha": 3355,
      "ĠpsÃ¡": 3356,
      "Ġporo": 3357,
      "ĠsmutnÃ½": 3358,
      "Ġspani": 3359,
      "bek": 3360,
      "zky": 3361,
      "telÃ©": 3362,
      "ĠhuÄįÃŃ": 3363,
      "ĠcÃŃsaÅĻ": 3364,
      "ĠzdÄĽ": 3365,
      "Ġosla": 3366,
      "ÅĪa": 3367,
      "ĠdÃ¡ti": 3368,
      "ĠsvÄĽty": 3369,
      "tej": 3370,
      "Ġstalo": 3371,
      "roucÃŃ": 3372,
      "Ġpouta": 3373,
      "ĠhrÅ¯zou": 3374,
      "ter": 3375,
      "diÄį": 3376,
      "ĠpÄĽt": 3377,
      "ĠdÄĽvÄįe": 3378,
      "ĠrokÅ¯": 3379,
      "nuly": 3380,
      "Ġstane": 3381,
      "Ġjdu": 3382,
      "zuje": 3383,
      "Ġnechci": 3384,
      "ĠsnÄĽhu": 3385,
      "ĠvÃ¡Å¡nÄĽ": 3386,
      "Ġmatce": 3387,
      "Ġhroby": 3388,
      "ĠsplÃ½vÃ¡": 3389,
      "Ġkat": 3390,
      "ĠpromÄĽ": 3391,
      "Ġnebem": 3392,
      "ĠdÄĽcko": 3393,
      "kdoÅ¾": 3394,
      "?...": 3395,
      "Ġsvatou": 3396,
      "ĠznÄĽl": 3397,
      "Ġchleba": 3398,
      "Ġzpu": 3399,
      "lec": 3400,
      "Ġtichou": 3401,
      "venÃŃ": 3402,
      "Ġbleskem": 3403,
      "ĠvÃŃra": 3404,
      "vidÄĽl": 3405,
      "Ġkom": 3406,
      "Ġvzpla": 3407,
      "ĠjasnÄĽ": 3408,
      "rky": 3409,
      "livÃ©": 3410,
      "lÃŃÅ¡": 3411,
      "ĠnÃ¡ruÄįÃŃ": 3412,
      "ĠmrÃ¡": 3413,
      "ĠotÄįe": 3414,
      "Ġhoj": 3415,
      "ĠvÃŃna": 3416,
      "Ġluny": 3417,
      "Ġjimi": 3418,
      "ĠpÅĻÃŃtel": 3419,
      "Ġpodzim": 3420,
      "Ġzhou": 3421,
      "Ġtato": 3422,
      "Å¡enÃ©": 3423,
      "ĠÅ¾ebrÃ¡": 3424,
      "pila": 3425,
      "Ġtva": 3426,
      "ĠkolÃ©b": 3427,
      "tvÃ¡ÅĻ": 3428,
      "ckÃ½ch": 3429,
      "dÃ¡v": 3430,
      "blo": 3431,
      "dlÃ½": 3432,
      "stej": 3433,
      "ĠhorÃ¡ch": 3434,
      "ĠnovÃ½ch": 3435,
      "lenou": 3436,
      "nevÄĽ": 3437,
      "ĠÄįernÃ¡": 3438,
      "stÃ¡l": 3439,
      "ĠbÃ¡snÃŃk": 3440,
      "Ġdouf": 3441,
      "Ġom": 3442,
      "ĠsvÄĽtÅ¯": 3443,
      "Ġchlu": 3444,
      "tÄĽz": 3445,
      "ĠÅ¾enou": 3446,
      "krÃ¡snÄĽjÅ¡ÃŃ": 3447,
      "Ġprokle": 3448,
      "ĠvÄĽÅĻ": 3449,
      "poz": 3450,
      "ĠveÄįera": 3451,
      "ĠvÅ¡ÃŃ": 3452,
      "Ġslune": 3453,
      "Ġvlna": 3454,
      "Ġoken": 3455,
      "ĠÅ¡lech": 3456,
      "ĠplÃ¡po": 3457,
      "ĠbloudÃŃ": 3458,
      "Ġhrom": 3459,
      "Ġkost": 3460,
      "Å¾ena": 3461,
      "cenÃ½": 3462,
      "ĠvolnÄĽ": 3463,
      "Ġvsi": 3464,
      "Ġpadne": 3465,
      "ĠptÃ¡Äįe": 3466,
      "ĠtÄĽÅ¾ce": 3467,
      "ĠmÅĻÃŃ": 3468,
      "Ġneod": 3469,
      "ĠbohÅ¯": 3470,
      "ĠvÄĽtru": 3471,
      "Ġvzduchem": 3472,
      "ĠkÅĻÃŃÅ¾e": 3473,
      "ĠblÃŃz": 3474,
      "ĠdÃŃvÄįÃŃ": 3475,
      "Ġjsa": 3476,
      "kÃ¡n": 3477,
      "dnÃ½m": 3478,
      "Ġdle": 3479,
      "ĠcitÅ¯": 3480,
      "Ġsladkou": 3481,
      "Ġzvony": 3482,
      "Ġpochy": 3483,
      "tÃ¡nÃŃ": 3484,
      "Å¡le": 3485,
      "Ġzbu": 3486,
      "jÃŃcÃŃch": 3487,
      "Ġkrvi": 3488,
      "ĠpÅ¯va": 3489,
      "bÅĻe": 3490,
      "Ġpov": 3491,
      "sklo": 3492,
      "ĠmyslÃŃm": 3493,
      "lin": 3494,
      "ĠÄįet": 3495,
      "ĠsmÄĽje": 3496,
      "ĠchÃ½lÃŃ": 3497,
      "ÅĻec": 3498,
      "Å¡ep": 3499,
      "Ġslovy": 3500,
      "ĠchvÄĽl": 3501,
      "vlast": 3502,
      "hÅĻÃŃ": 3503,
      "jedi": 3504,
      "neÅ¾li": 3505,
      "chla": 3506,
      "Ġhost": 3507,
      "ĠmÃ©mu": 3508,
      "ĠvaÅ¡ÃŃ": 3509,
      "Ġplna": 3510,
      "jichÅ¾": 3511,
      "ĠhÃ¡j": 3512,
      "Ġvnad": 3513,
      "set": 3514,
      "Äįili": 3515,
      "lio": 3516,
      "Ġnaslou": 3517,
      "ÅĻenÃ½": 3518,
      "Ġoce": 3519,
      "ĠlkÃ¡": 3520,
      "ĠbledÃ½": 3521,
      "ÄįnÃ½ch": 3522,
      "Ġhym": 3523,
      "ĠpoÄįÃŃ": 3524,
      "Ġpur": 3525,
      "ÅĻÃŃk": 3526,
      "ĠprosÃŃm": 3527,
      "mek": 3528,
      "ĠsmÄĽle": 3529,
      "ĠplÃ©": 3530,
      "ĠvÅ¡ecka": 3531,
      "ĠpamÃ¡": 3532,
      "Ġcosi": 3533,
      "kouz": 3534,
      "ĠstaÄįÃŃ": 3535,
      "ĠnÄĽmÃ½": 3536,
      "ĠstÃŃnÅ¯": 3537,
      "ĠtmavÃ©": 3538,
      "ĠknÄĽÅ¾": 3539,
      "ckni": 3540,
      "viti": 3541,
      "Ġzti": 3542,
      "ĠlÅ¯Å¾": 3543,
      "tud": 3544,
      "Ġhraje": 3545,
      "Ġvesele": 3546,
      "ĠupomÃŃ": 3547,
      "ĠpravÃ½": 3548,
      "ĠsmrtÃŃ": 3549,
      "Ġnaposled": 3550,
      "Ġber": 3551,
      "Ġano": 3552,
      "ĠzÃ¡vra": 3553,
      "Ġlodi": 3554,
      "ĠnaÅ¡el": 3555,
      "vÃ¡ch": 3556,
      "ĠmocÃŃ": 3557,
      "Ġbudem": 3558,
      "ĠlidskÃ½ch": 3559,
      "Ġkvetou": 3560,
      "vidÃŃm": 3561,
      "ĠpohÅĻ": 3562,
      "tÅĻeba": 3563,
      "ĠstÄĽny": 3564,
      "ĠtmÃ¡ch": 3565,
      "Ġstez": 3566,
      "Ġluz": 3567,
      "ĠtemnÄĽ": 3568,
      "Å¾u": 3569,
      "vÃ¡t": 3570,
      "jakÃ¡": 3571,
      "dÃ¡Å¡": 3572,
      "ĠvÃ¡l": 3573,
      "ĠzÃ¡pad": 3574,
      "ĠzÃ¡stup": 3575,
      "menÃŃ": 3576,
      "vÄĽl": 3577,
      "ĠÅĻekla": 3578,
      "ĠzpÃŃval": 3579,
      "ĠumÄĽnÃŃ": 3580,
      "Ġvyz": 3581,
      "ĠdobrÃ¡": 3582,
      "ĠchudÃ©": 3583,
      "ĠpÅĻÃ¡nÃŃ": 3584,
      "Ġvnu": 3585,
      "hlÃŃÅ¾ÃŃ": 3586,
      "Ġlidi": 3587,
      "ĠvÄĽtvÃŃ": 3588,
      "ĠklÃ¡Å¡te": 3589,
      "Ġbarev": 3590,
      "Ġkristu": 3591,
      "Ġsbor": 3592,
      "ĠvÃ©": 3593,
      "Ġvle": 3594,
      "sila": 3595,
      "Ġposlou": 3596,
      "ĠhÅĻmÃŃ": 3597,
      "myÅ¡len": 3598,
      "Ġprost": 3599,
      "Ġvznes": 3600,
      "stÃŃn": 3601,
      "ĠposmÄĽ": 3602,
      "ĠjichÅ¾": 3603,
      "Ġhlubin": 3604,
      "Ġpropast": 3605,
      "ĠbyÅ¥": 3606,
      "Ġtako": 3607,
      "ĠÃºÅ¾": 3608,
      "ĠpÃ¡lÃŃ": 3609,
      "Ġzvuky": 3610,
      "ĠdruÅ¾": 3611,
      "Ġmatku": 3612,
      "Ġly": 3613,
      "ĠjÃŃÅ¾": 3614,
      "ĠdlanÃŃ": 3615,
      "ga": 3616,
      "kovi": 3617,
      "Ġstarou": 3618,
      "Ġvet": 3619,
      "Ġvypra": 3620,
      "mod": 3621,
      "ĠnepÅĻe": 3622,
      "âĢľ,": 3623,
      "Ġpode": 3624,
      "ĠdÄĽc": 3625,
      "Ġvzbu": 3626,
      "ĠmnohÃ©": 3627,
      "ĠptaÄįÃŃ": 3628,
      "dni": 3629,
      "Ġnesmrtel": 3630,
      "ĠzlÃŃ": 3631,
      "bole": 3632,
      "ĠhrÅ¯zy": 3633,
      "ĠbratÅĻi": 3634,
      "Ġdobu": 3635,
      "ĠtÃŃÅ¾ÃŃ": 3636,
      "Ġdraho": 3637,
      "Ġpanen": 3638,
      "nÄĽch": 3639,
      "Ġled": 3640,
      "ĠÅ¾Ã¡dnÃ©": 3641,
      "zpÄĽv": 3642,
      "ĠdlanÄĽ": 3643,
      "rÃ½vÃ¡": 3644,
      "ĠnemÄĽl": 3645,
      "Ġztich": 3646,
      "vyÅ¡Å¡ÃŃ": 3647,
      "ĠvÃ¡cla": 3648,
      "ĠduchÅ¯": 3649,
      "daly": 3650,
      "ĠvyprÃ¡": 3651,
      "peÅ¾": 3652,
      "Ġstran": 3653,
      "ĠdÃŃvky": 3654,
      "ĠkÅĻesÅ¥": 3655,
      "sny": 3656,
      "ÅĻÃ¡d": 3657,
      "bÃŃrÃ¡": 3658,
      "Ġmodra": 3659,
      "Ġkouzel": 3660,
      "svat": 3661,
      "ĠrodÃŃ": 3662,
      "ĠvÄĽÅ¾e": 3663,
      "ĠmÄĽst": 3664,
      "Ġpouti": 3665,
      "Ġfra": 3666,
      "neboÅ¥": 3667,
      "Ġhodi": 3668,
      "Å¾ili": 3669,
      "Ġvna": 3670,
      "ĠÅ¾ivotem": 3671,
      "ĠslzÃŃ": 3672,
      "Ġdavy": 3673,
      "kel": 3674,
      "ĠÅ¡edi": 3675,
      "Ġobzor": 3676,
      "Ġrozu": 3677,
      "Ġjakby": 3678,
      "Ġzdr": 3679,
      "ĠmlÄįky": 3680,
      "Ġkryje": 3681,
      "covÃ©": 3682,
      "kÅ¯v": 3683,
      "ĠtvÅ¯": 3684,
      "krÃ¡te": 3685,
      "osti": 3686,
      "smrt": 3687,
      "ÄįnÃ½m": 3688,
      "jejÃŃ": 3689,
      "ĠvlasÅ¯": 3690,
      "ĠtmÄĽ": 3691,
      "ĠtuÅ¡ÃŃ": 3692,
      "Ġvane": 3693,
      "ĠhledÄĽl": 3694,
      "ĠzpÄĽvu": 3695,
      "ĠnosÃŃ": 3696,
      "nemo": 3697,
      "vÅ¡i": 3698,
      "ĠtajÃŃ": 3699,
      "ĠÅĻÃŃtÃŃ": 3700,
      "rovna": 3701,
      "ĠosamÄĽ": 3702,
      "ĠtrÃ¡vÄĽ": 3703,
      "Ġtouze": 3704,
      "Ġkouzlo": 3705,
      "cuje": 3706,
      "ĠjevÃŃ": 3707,
      "ĠdivÃ½": 3708,
      "Ġca": 3709,
      "ĠÄįin": 3710,
      "Ġdni": 3711,
      "ĠÄįase": 3712,
      "ĠprÃ¡vo": 3713,
      "Ġrych": 3714,
      "Ġlad": 3715,
      "ĠzlÃ©": 3716,
      "skal": 3717,
      "ĠmÄĽstÄĽ": 3718,
      "oÄįi": 3719,
      "ĠprovÃ¡": 3720,
      "ĠmeÄįe": 3721,
      "Ġplnou": 3722,
      "ĠrudÃ½": 3723,
      "Ġtvoji": 3724,
      "ĠhnÄĽvu": 3725,
      "Ġnebude": 3726,
      "Ġjitro": 3727,
      "Ġrek": 3728,
      "ĠkÅĻÃŃdel": 3729,
      "mal": 3730,
      "Ġnikde": 3731,
      "ĠnÄĽkde": 3732,
      "Ġprst": 3733,
      "takÃ©": 3734,
      "mÅ¯Å¾e": 3735,
      "ĠhrdÄĽ": 3736,
      "Ġpohle": 3737,
      "Ġnoha": 3738,
      "bys": 3739,
      "Ġkade": 3740,
      "ĠpÅĻÃŃsa": 3741,
      "ĠtajemstvÃŃ": 3742,
      "mech": 3743,
      "ĠmocnÄĽ": 3744,
      "Ġnevz": 3745,
      "vanÃ½": 3746,
      "Ã¡ch": 3747,
      "ĠsnÃ¡ch": 3748,
      "ĠÅ¡eru": 3749,
      "ĠtvoÅĻÃŃ": 3750,
      "Ġmramo": 3751,
      "ĠrytÃŃÅĻ": 3752,
      "Å¡o": 3753,
      "ĠschvÃ¡": 3754,
      "Ġ(": 3755,
      "Ġpust": 3756,
      "Ġtkli": 3757,
      "vek": 3758,
      "ĠjÃ¡so": 3759,
      "svÃŃ": 3760,
      "Ġhmo": 3761,
      "asa": 3762,
      "Ġlisty": 3763,
      "Å¡enÃ½": 3764,
      "ĠÅ¡iro": 3765,
      "Ġdnem": 3766,
      "Ġneho": 3767,
      "ĠchladnÃ©": 3768,
      "ĠpryÄį": 3769,
      "Ġvine": 3770,
      "Ġmaje": 3771,
      "Ġprudce": 3772,
      "Ġholubi": 3773,
      "ĠÅ¡pi": 3774,
      "ĠÅ¡edÃ©": 3775,
      "ĠÄįasÅ¯": 3776,
      "zvuk": 3777,
      "ĠdÃ½chÃ¡": 3778,
      "ĠzkÃ¡": 3779,
      "pÃŃnÃ¡": 3780,
      "ĠprÃ¡va": 3781,
      "ĠmlÃ½": 3782,
      "neu": 3783,
      "ĠradostÃŃ": 3784,
      "Ġkomu": 3785,
      "jit": 3786,
      "ĠmeÄįem": 3787,
      "Ġotci": 3788,
      "Ġnep": 3789,
      "Ġjazyk": 3790,
      "ol": 3791,
      "ÅĪte": 3792,
      "ĠÄįistÃ½": 3793,
      "chod": 3794,
      "zÃ¡ch": 3795,
      "zÅĻel": 3796,
      "skne": 3797,
      "ĠjinÃŃ": 3798,
      "Ġvin": 3799,
      "stojÃŃ": 3800,
      "Ġtmou": 3801,
      "Ġpromlu": 3802,
      "ĠvelkÃ½m": 3803,
      "ÅĪat": 3804,
      "ĠÅ¡ÃŃlen": 3805,
      "ĠnÃ¡dher": 3806,
      "stÅĻi": 3807,
      "Ġsklen": 3808,
      "Ġtaky": 3809,
      "Ġmluvil": 3810,
      "Ġuse": 3811,
      "Ġzapomen": 3812,
      "vosti": 3813,
      "Ġlesem": 3814,
      "kdes": 3815,
      "dovÃ©": 3816,
      "boÅ¾e": 3817,
      "viz": 3818,
      "houcÃŃ": 3819,
      "prou": 3820,
      "snou": 3821,
      "Ġzar": 3822,
      "Ġchcem": 3823,
      "ĠspÃ¡nku": 3824,
      "ĠvÅ¡ady": 3825,
      "rajÃŃ": 3826,
      "hÃ¡ch": 3827,
      "ĠdeÅ¡tÄĽ": 3828,
      "ĠtÄĽÅ¾ko": 3829,
      "ĠdveÅĻÃŃ": 3830,
      "ĠÃºdolÃŃ": 3831,
      "plu": 3832,
      "Ġvzte": 3833,
      "Å¾iv": 3834,
      "ĠvaÅ¡ich": 3835,
      "Ġkruh": 3836,
      "povÃŃ": 3837,
      "Ġstuden": 3838,
      "Ġstopy": 3839,
      "ĠuÅ¡": 3840,
      "Ġsnes": 3841,
      "nÃŃkÅ¯": 3842,
      "bÃ½t": 3843,
      "povÄĽ": 3844,
      "dÄĽlÃ¡": 3845,
      "Ġzle": 3846,
      "nÄĽnÃ©": 3847,
      "ĠobÄĽÅ¥": 3848,
      "Ġskoro": 3849,
      "Ġmimo": 3850,
      "ÅĪo": 3851,
      "ĠÅĻeka": 3852,
      "ĠkaÅ¾dÃ½m": 3853,
      "ĠvÅ¯dce": 3854,
      "Ġpoklad": 3855,
      "kraj": 3856,
      "ĠnemÅ¯Å¾e": 3857,
      "ĠvelkÃ½ch": 3858,
      "prch": 3859,
      "ĠÅĪÃ¡": 3860,
      "Ġstolu": 3861,
      "rie": 3862,
      "Ġdruhdy": 3863,
      "vech": 3864,
      "Ġsvato": 3865,
      "Ġzima": 3866,
      "Ġstranou": 3867,
      "budu": 3868,
      "ĠbÃŃdy": 3869,
      "Ġvelmi": 3870,
      "vka": 3871,
      "ĠdlÃŃ": 3872,
      "nilo": 3873,
      "ĠvÄĽn": 3874,
      "ĠÅ¡pat": 3875,
      "ĠbÃ¡j": 3876,
      "lili": 3877,
      "Ġpodob": 3878,
      "lÃ¡ska": 3879,
      "Ġvichr": 3880,
      "rad": 3881,
      "ĠdlouhÃ¡": 3882,
      "Ġproudy": 3883,
      "ĠnechÃ¡": 3884,
      "poslednÃŃ": 3885,
      "Å¾ivot": 3886,
      "ĠchlÃ©b": 3887,
      "ĠnadÄĽj": 3888,
      "pce": 3889,
      "ĠzlÃ¡": 3890,
      "jakby": 3891,
      "Ġdlouhou": 3892,
      "ĠblÃŃzko": 3893,
      "ĠvrÃ¡til": 3894,
      "ĠmotÃ½l": 3895,
      "vola": 3896,
      "ĠprostÅĻed": 3897,
      "ĠvÄĽnec": 3898,
      "!âĢľâĢľ": 3899,
      "ĠvÄĽÄįnÃ¡": 3900,
      "hvÄĽ": 3901,
      "zat": 3902,
      "ĠÅĻÃŃÅ¡i": 3903,
      "ĠtemnÃ½": 3904,
      "ĠskÃ¡la": 3905,
      "rz": 3906,
      "ĠveÅ¡": 3907,
      "Ġmate": 3908,
      "Ġstromu": 3909,
      "lÃŃk": 3910,
      "ĠstÃ¡ti": 3911,
      "Ġzmizel": 3912,
      "kolik": 3913,
      "ĠvÃŃr": 3914,
      "Ġvzdor": 3915,
      "ĠjemnÄĽ": 3916,
      "dale": 3917,
      "ĠsvÃŃrÃ¡": 3918,
      "ĠmÅ¯Å¾": 3919,
      "Ġtvor": 3920,
      "Ġkrista": 3921,
      "Ġpomoci": 3922,
      "ĠtÄĽchto": 3923,
      "ĠslavnÃ©": 3924,
      "Äįely": 3925,
      "ek": 3926,
      "ĠnemÃ¡m": 3927,
      "ĠpÄĽknÄĽ": 3928,
      "Å¾et": 3929,
      "ĠdÃŃval": 3930,
      "Ġpes": 3931,
      "Ġnemoc": 3932,
      "Ġrosy": 3933,
      "Ġved": 3934,
      "ĠtÄĽlem": 3935,
      "ĠrÃ¡ji": 3936,
      "ĠtrÅ¯nu": 3937,
      "Ġpoma": 3938,
      "ledne": 3939,
      "ĠkrÃ¡sou": 3940,
      "ĠslavnÄĽ": 3941,
      "ĠloÅ¾i": 3942,
      "Ġmari": 3943,
      "ĠpodÃŃ": 3944,
      "jeÅ¥": 3945,
      "tali": 3946,
      "Ġkus": 3947,
      "Ġpoznal": 3948,
      "ĠrÃ½": 3949,
      "znÃ¡m": 3950,
      "Ġstal": 3951,
      "hlubo": 3952,
      "ĠÄįemu": 3953,
      "ĠÄįervÃ¡n": 3954,
      "ĠslavnÃ½": 3955,
      "ĠjÃŃmÅ¾": 3956,
      "ĠpravÃ©": 3957,
      "Ġpri": 3958,
      "mÃ¡nÃŃ": 3959,
      "ĠjÃ¡sa": 3960,
      "Ġkola": 3961,
      "ĠnaÄį": 3962,
      "Ġmusil": 3963,
      "ĠbudiÅ¾": 3964,
      "Ġdceru": 3965,
      "Ġprapor": 3966,
      "svi": 3967,
      "try": 3968,
      "Ġpekla": 3969,
      "Ġnebez": 3970,
      "ĠrozechvÄĽ": 3971,
      "ĠvÃŃtÄĽzstvÃŃ": 3972,
      "neme": 3973,
      "Ġkrajem": 3974,
      "Ġdrahou": 3975,
      "prostÅĻed": 3976,
      "Ġkvete": 3977,
      "lÃ¡k": 3978,
      "Å¾ela": 3979,
      "Ġvzru": 3980,
      "ckÃ¡": 3981,
      "Ġskle": 3982,
      "znÄĽl": 3983,
      "Ġkole": 3984,
      "Ġplanou": 3985,
      "ĠdivnÃ©": 3986,
      "ĠskrÃ½vÃ¡": 3987,
      "Ġhbi": 3988,
      "Å¡eÅĪ": 3989,
      "koho": 3990,
      "vici": 3991,
      "hala": 3992,
      "ĠstÅĻedu": 3993,
      "ĠkÃ½vÃ¡": 3994,
      "Ġbrou": 3995,
      "Ġpano": 3996,
      "ĠkrÃ¡Äįel": 3997,
      "ĠbÃ½val": 3998,
      "Ġpozdrav": 3999,
      "tma": 4000,
      "vÃŃce": 4001,
      "ĠmoÅĻem": 4002,
      "ĠpÅĻelu": 4003,
      "ĠzÃ¡vo": 4004,
      "kÅĻe": 4005,
      "mlad": 4006,
      "ĠmÅ¾i": 4007,
      "Ġnapl": 4008,
      "ÅĻili": 4009,
      "Ġukry": 4010,
      "jste": 4011,
      "Ġmohla": 4012,
      "ĠnadÄĽjÃŃ": 4013,
      "Ġnebezpe": 4014,
      "vcÅ¯": 4015,
      "ÄįkÃ¡": 4016,
      "Ġtri": 4017,
      "ĠspÃŃÅ¡": 4018,
      "ĠpÃ½": 4019,
      "Ġzkou": 4020,
      "ĠchÅ¯": 4021,
      "ĠvÄĽtrem": 4022,
      "mysl": 4023,
      "ĠbÃŃda": 4024,
      "ĠbÃŃdu": 4025,
      "ĠcÃŃle": 4026,
      "nnÃ©": 4027,
      "Ã¡l": 4028,
      "enÄĽ": 4029,
      "skla": 4030,
      "Ġrad": 4031,
      "ĠsvÄĽtel": 4032,
      "ĠdÃ¡vnÃ½ch": 4033,
      "Å¡nÃ¡": 4034,
      "kov": 4035,
      "ĠvzÃŃ": 4036,
      "ĠzÃ¡ha": 4037,
      "ĠchovÃ¡": 4038,
      "ĠzÃ¡voj": 4039,
      "ĠnepÅĻÃ¡tel": 4040,
      "Ġbolem": 4041,
      "mÃ¡Å¡": 4042,
      "Ġkdos": 4043,
      "ĠjÃ¡sÃ¡": 4044,
      "Ġzdro": 4045,
      "ĠÅ¾alÃ¡": 4046,
      "ply": 4047,
      "Ġkone": 4048,
      "vak": 4049,
      "Ġpora": 4050,
      "ĠknÄĽz": 4051,
      "ĠzlÃ½": 4052,
      "Ġzacho": 4053,
      "kterak": 4054,
      "ĠzboÅ¾": 4055,
      "ĠÅ¡tÃŃt": 4056,
      "mÃ¡l": 4057,
      "ĠÄįerven": 4058,
      "smu": 4059,
      "ĠoÄįima": 4060,
      "ĠzÅ¯stal": 4061,
      "Äįce": 4062,
      "ĠvaÅ¡i": 4063,
      "ĠbrÃ¡ny": 4064,
      "ĠvstÃ¡vÃ¡": 4065,
      "divo": 4066,
      "ĠÅ¾itÃŃm": 4067,
      "ĠlidskÃ¡": 4068,
      "stÃ¡le": 4069,
      "Ġlaho": 4070,
      "ĠvÄĽku": 4071,
      "Ġdumy": 4072,
      "ĠchvÄĽla": 4073,
      "Ġheb": 4074,
      "ĠozvÄĽ": 4075,
      "oko": 4076,
      "Ġrodi": 4077,
      "ÄįÃŃÅ¡": 4078,
      "ĠvÃ½kÅĻik": 4079,
      "Ġjestli": 4080,
      "ĠpÅ¯lno": 4081,
      "Ġsnech": 4082,
      "ĠumÄĽ": 4083,
      "nynÃŃ": 4084,
      "ĠkvÃŃlÃŃ": 4085,
      "ĠtrÃ¡vy": 4086,
      "mla": 4087,
      "nkem": 4088,
      "pru": 4089,
      "nily": 4090,
      "ĠrodnÃ©": 4091,
      "chÃ¡ch": 4092,
      "Ġctnost": 4093,
      "ode": 4094,
      "svÃ½ch": 4095,
      "ĠneÅ¡Å¥ast": 4096,
      "milu": 4097,
      "boÅ¾": 4098,
      "ĠmÃŃstÄĽ": 4099,
      "Ġzahy": 4100,
      "nulo": 4101,
      "Ġduchem": 4102,
      "ĠsmÃ¡l": 4103,
      "Ġdavu": 4104,
      "ĠtrÃ½": 4105,
      "nali": 4106,
      "pÃŃrÃ¡": 4107,
      "ĠsamÃ©": 4108,
      "ĠhÃ¡je": 4109,
      "Ġzmo": 4110,
      "kaly": 4111,
      "Ġkoho": 4112,
      "ĠpÅĻipra": 4113,
      "ĠvÃ¡Å¾": 4114,
      "Ġfan": 4115,
      "Ġmilou": 4116,
      "ĠÄįÃŃÅ¡e": 4117,
      "tily": 4118,
      "nili": 4119,
      "ĠsprÃ¡": 4120,
      "zÃŃch": 4121,
      "ĠstÃ¡ÅĻÃŃ": 4122,
      "Ġpoesie": 4123,
      "Ġopat": 4124,
      "ĠvzrÅ¯": 4125,
      "Ġfran": 4126,
      "ĠbÅĻeh": 4127,
      "ĠnenÃ¡vi": 4128,
      "ĠdnÄĽ": 4129,
      "pusti": 4130,
      "Ġklade": 4131,
      "ĠklÃŃnu": 4132,
      "ĠusmÃŃvÃ¡": 4133,
      "kly": 4134,
      "sva": 4135,
      "Ġjat": 4136,
      "Ġrosa": 4137,
      "vÄĽtÅ¡ÃŃ": 4138,
      "Ġnitro": 4139,
      "Ġodva": 4140,
      "ĠpÃ¡nu": 4141,
      "ĠÅĻÃŃÅ¡": 4142,
      "ĠpozdÄĽ": 4143,
      "ĠvznÃ¡Å¡ÃŃ": 4144,
      "Ġlho": 4145,
      "ur": 4146,
      "ĠkÅĻo": 4147,
      "Ġjindy": 4148,
      "ĠpracÃŃ": 4149,
      "ÄįenÃ©": 4150,
      "Ġhledal": 4151,
      "rty": 4152,
      "nepo": 4153,
      "dum": 4154,
      "ĠhÃ¡zÃŃ": 4155,
      "jedno": 4156,
      "Ġplou": 4157,
      "Ġdlu": 4158,
      "hoÅĻe": 4159,
      "ĠvÄĽÅ¾ÃŃ": 4160,
      "ÅĻenÃ¡": 4161,
      "ĠvroucnÄĽ": 4162,
      "ĠjinÃ¡": 4163,
      "Ġhod": 4164,
      "stav": 4165,
      "pky": 4166,
      "ĠtÄĽÅ¡ÃŃ": 4167,
      "Ġvelko": 4168,
      "ĠzÅĻÃŃt": 4169,
      "ĠdrÅ¾ÃŃ": 4170,
      "potom": 4171,
      "ĠvelikÃ½": 4172,
      "Ġkre": 4173,
      "pustÃŃ": 4174,
      "ĠtÃ¡hnou": 4175,
      "Ġkosti": 4176,
      "ĠmladÃŃ": 4177,
      "hÅĻe": 4178,
      "Ġznak": 4179,
      "ĠvÄĽtve": 4180,
      "Ġucho": 4181,
      "ĠslzÃ¡ch": 4182,
      "Ġdaleko": 4183,
      "ĠjinÃ½m": 4184,
      "chtÄĽ": 4185,
      "ĠdivÃ©": 4186,
      "ĠtÃŃÅ¾": 4187,
      "os": 4188,
      "Ġpadla": 4189,
      "Ġspu": 4190,
      "tÃ©ho": 4191,
      "ĠnejvÃŃc": 4192,
      "ĠmrtvÃ½": 4193,
      "ĠprostÃ©": 4194,
      "ĠzÃ¡kon": 4195,
      "Ġrodu": 4196,
      "ĠodmÄĽ": 4197,
      "ĠjejÃŃch": 4198,
      "ĠmladÃ½ch": 4199,
      "Ġshas": 4200,
      "ĠnÃ©": 4201,
      "ĠmÃ¡ti": 4202,
      "puÅ¡tÄĽ": 4203,
      "ĠcÃŃli": 4204,
      "ĠprÃ¡zdno": 4205,
      "Å¡nou": 4206,
      "komu": 4207,
      "Ġvyko": 4208,
      "mati": 4209,
      "Ġnejsem": 4210,
      "Ġdneska": 4211,
      "Ġhoto": 4212,
      "ĠsvÅ¯": 4213,
      "ĠskÃ¡le": 4214,
      "ĠhÅ¯": 4215,
      "mon": 4216,
      "ĠÅĻad": 4217,
      "obra": 4218,
      "dilo": 4219,
      "vnÃŃm": 4220,
      "ĠÅ¾ivÃ©": 4221,
      "Ġvdo": 4222,
      "ĠzahrÃ¡": 4223,
      "cÃŃtÃŃ": 4224,
      "vez": 4225,
      "viny": 4226,
      "ĠtuÅ¾": 4227,
      "ĠlÃŃp": 4228,
      "ĠskrÃ¡nÃŃ": 4229,
      "ĠmoÅĻ": 4230,
      "Ġprsty": 4231,
      "ĠbratÅĻe": 4232,
      "ĠslyÅ¡e": 4233,
      "Ġmluvit": 4234,
      "Ġplyne": 4235,
      "vor": 4236,
      "Ġvzly": 4237,
      "gra": 4238,
      "ÄįkÅ¯": 4239,
      "Ġspla": 4240,
      "ĠdivnÃ½": 4241,
      "ĠÅĻady": 4242,
      "tli": 4243,
      "ĠdÄĽlÃ¡": 4244,
      "Ġstruny": 4245,
      "Ġpurpu": 4246,
      "ĠhnÃ¡": 4247,
      "Ġbit": 4248,
      "Ġperly": 4249,
      "ĠpoÅ¾ehnÃ¡nÃŃ": 4250,
      "budou": 4251,
      "ĠdennÃŃ": 4252,
      "Ġslzou": 4253,
      "ĠstoupÃ¡": 4254,
      "cou": 4255,
      "pryÄį": 4256,
      "ujÃŃ": 4257,
      "ĠsvÄĽtlem": 4258,
      "ĠzpÄĽvy": 4259,
      "ĠtichÃ©m": 4260,
      "ĠmrakÅ¯": 4261,
      "ĠvÅ¡ickni": 4262,
      "takto": 4263,
      "ĠchvÃŃlÃŃ": 4264,
      "ĠtÄĽÅ¾kÃ¡": 4265,
      "jÃŃcÃŃm": 4266,
      "ĠdvÃ©ÅĻe": 4267,
      "rÃ¡Å¾ÃŃ": 4268,
      "lÃŃp": 4269,
      "stalo": 4270,
      "ĠkrÃ¡snou": 4271,
      "rovnÃ¡": 4272,
      "ĠhonÃŃ": 4273,
      "Ġlaska": 4274,
      "ĠbÃ¡je": 4275,
      "ĠptÃ¡kÅ¯": 4276,
      "Ġhed": 4277,
      "knu": 4278,
      "ĠpÅĻÃŃval": 4279,
      "ĠpoupÄĽ": 4280,
      "ĠplnÃŃ": 4281,
      "ĠvÃ½cho": 4282,
      "zÃ½": 4283,
      "tilo": 4284,
      "ĠzÃ¡ko": 4285,
      "ĠlÃŃbez": 4286,
      "ĠsvÄĽd": 4287,
      "tuje": 4288,
      "ĠÅ¾enÄĽ": 4289,
      "ĠvÃ¡Å¡ni": 4290,
      "ĠupÅĻÃŃm": 4291,
      "Ġjesti": 4292,
      "pÃŃm": 4293,
      "ĠvlÃ¡dne": 4294,
      "ĠvojÃ¡": 4295,
      "ĠskrÃ¡nÄĽ": 4296,
      "Ġjakou": 4297,
      "Ġpekel": 4298,
      "Ġoknem": 4299,
      "ĠhnÃŃzdo": 4300,
      "vÄĽd": 4301,
      "ĠjednÃŃm": 4302,
      "ĠdivÃ¡": 4303,
      "ĠÄįistÃ¡": 4304,
      "ĠÅ¾havÃ©": 4305,
      "Ġbru": 4306,
      "Ġhi": 4307,
      "Å¡ila": 4308,
      "ĠvlnÃ¡ch": 4309,
      "ĠzvonÅ¯": 4310,
      "Ġspokojen": 4311,
      "ĠtrÅ¯n": 4312,
      "Ġsnil": 4313,
      "Ġlesku": 4314,
      "ĠÅ¾alo": 4315,
      "pol": 4316,
      "ĠukÃ¡": 4317,
      "ĠpÃ¡nem": 4318,
      "ĠmanÄĽ": 4319,
      "ĠcelÃ©m": 4320,
      "ĠzÃ¡padu": 4321,
      "Ġvstal": 4322,
      "Ġzat": 4323,
      "ĠchladnÃ½": 4324,
      "ĠpamÄĽti": 4325,
      "ĠplÃ¡nÃŃ": 4326,
      "ĠkÃ¡Å¾e": 4327,
      "Ġsten": 4328,
      "ĠÄįernou": 4329,
      "rovÃ©": 4330,
      "ĠbolestÃŃ": 4331,
      "ĠmocnÃ½": 4332,
      "ĠvÄĽrnÄĽ": 4333,
      "ĠvÃ¡Å¾nÄĽ": 4334,
      "pnÄĽ": 4335,
      "rÄįÃŃ": 4336,
      "bol": 4337,
      "Ġkruhu": 4338,
      "ĠÅ¾havÃ½": 4339,
      "Ġobzoru": 4340,
      "ĠÅ¡kle": 4341,
      "ĠnejvyÅ¡Å¡ÃŃ": 4342,
      "ĠposlÃ©z": 4343,
      "Ġmiloval": 4344,
      "ĠspÃŃcÃŃ": 4345,
      "Å¾eb": 4346,
      "Ġletem": 4347,
      "Ġvyr": 4348,
      "ĠÄįinÃŃ": 4349,
      "ĠpÄĽstÃŃ": 4350,
      "pek": 4351,
      "jeme": 4352,
      "ÅĻena": 4353,
      "ĠokamÅ¾i": 4354,
      "Ġvolal": 4355,
      "dÄĽje": 4356,
      "tÃ½m": 4357,
      "Ġoni": 4358,
      "Ġostat": 4359,
      "marnÄĽ": 4360,
      "zak": 4361,
      "chmu": 4362,
      "taj": 4363,
      "ĠpÅĻiÅ¡li": 4364,
      "ĠprchÃ¡": 4365,
      "stek": 4366,
      "ĠtisÃŃ": 4367,
      "Ġticha": 4368,
      "ĠkÅĻik": 4369,
      "ĠkrÃ¡tkÃ½": 4370,
      "chÃ¡m": 4371,
      "tÄĽm": 4372,
      "klady": 4373,
      "ĠsmutnÃ¡": 4374,
      "ĠstÅĻÃŃbro": 4375,
      "Ġher": 4376,
      "Ġtehdy": 4377,
      "Ġviny": 4378,
      "ĠzrakÅ¯": 4379,
      "Ġstrachu": 4380,
      "Ġzoufa": 4381,
      "hovÃ©": 4382,
      "ĠÄįelem": 4383,
      "leno": 4384,
      "ĠdlouhÃ½ch": 4385,
      "ĠtmavÃ½": 4386,
      "knÃŃ": 4387,
      "rovi": 4388,
      "ÄįekÃ¡": 4389,
      "Ġtyto": 4390,
      "menÃ¡": 4391,
      "Ġclo": 4392,
      "Ġhyne": 4393,
      "nd": 4394,
      "Ġradu": 4395,
      "ĠhleÄı": 4396,
      "ĠmuÅ¾Å¯": 4397,
      "ĠkvÃ©": 4398,
      "ĠvÄĽnce": 4399,
      "ĠvÃŃtÃ¡": 4400,
      "ĠsvÄĽdomÃŃ": 4401,
      "jakoby": 4402,
      "ĠpravdÄĽ": 4403,
      "ĠÄįekal": 4404,
      "ĠlÃŃcÃŃ": 4405,
      "ĠplnÃ¡": 4406,
      "ĠÅĻada": 4407,
      "sat": 4408,
      "ubo": 4409,
      "Ġner": 4410,
      "mÄĽla": 4411,
      "Ġdaleka": 4412,
      "hoÅĻÃŃ": 4413,
      "telem": 4414,
      "tajem": 4415,
      "Ġletech": 4416,
      "ber": 4417,
      "Ġpeklo": 4418,
      "ĠvÄĽÄįnost": 4419,
      "Ġnutno": 4420,
      "ĠbuÅ¡ÃŃ": 4421,
      "Ġsic": 4422,
      "ĠvznÄĽ": 4423,
      "ĠstÃ¡li": 4424,
      "pÅ¯so": 4425,
      "Ġdomov": 4426,
      "ĠprosÃŃ": 4427,
      "ĠÃºc": 4428,
      "ĠplÃ¡Äįem": 4429,
      "Ġpusti": 4430,
      "ĠÅ¾Ã¡rem": 4431,
      "drÃ¡": 4432,
      "tlo": 4433,
      "ĠnejkrÃ¡snÄĽjÅ¡ÃŃ": 4434,
      "ĠsÃŃnÄĽ": 4435,
      "vÅ¯r": 4436,
      "Ġbarvy": 4437,
      "ĠsedÄĽl": 4438,
      "ĠnoÅĻÃŃ": 4439,
      "Ġviz": 4440,
      "ĠnazpÄĽt": 4441,
      "jo": 4442,
      "vedla": 4443,
      "Ġdruhu": 4444,
      "slov": 4445,
      "Ġvou": 4446,
      "rala": 4447,
      "par": 4448,
      "strÃ¡": 4449,
      "ÅĻice": 4450,
      "ĠvÄĽÄįnou": 4451,
      "Ġony": 4452,
      "ĠstaÅĻec": 4453,
      "ÅĻenÃ½ch": 4454,
      "abych": 4455,
      "Ġdom": 4456,
      "ĠdÄĽtem": 4457,
      "Ġcitu": 4458,
      "Ġmechu": 4459,
      "ĠzvuÄįÃŃ": 4460,
      "Ġnemoh": 4461,
      "ĠvÃ¡Å¡eÅĪ": 4462,
      "ĠchvÄĽjÃŃ": 4463,
      "ĠvÄĽcÃŃ": 4464,
      "Ġnitra": 4465,
      "ĠsmÃŃchem": 4466,
      "krva": 4467,
      "ĠokamÅ¾ik": 4468,
      "ĠsrdcÃŃch": 4469,
      "Ġobou": 4470,
      "ĠpÃŃsku": 4471,
      "rnÃ½m": 4472,
      "Äįina": 4473,
      "ĠzpÃŃvat": 4474,
      "ĠpÅĻÃŃrody": 4475,
      "tovÃ©": 4476,
      "ĠlÃ©pe": 4477,
      "jala": 4478,
      "ĠodvÃ¡": 4479,
      "chala": 4480,
      "ĠvdÄĽk": 4481,
      "ĠnaÅ¡em": 4482,
      "ĠhrozÃŃ": 4483,
      "ĠpÅ¯jde": 4484,
      "vaje": 4485,
      "ĠÅ¾ert": 4486,
      "avÅ¡ak": 4487,
      "don": 4488,
      "tly": 4489,
      "tÃ©m": 4490,
      "tesk": 4491,
      "nuÅ¾e": 4492,
      "jestli": 4493,
      "hvÄĽz": 4494,
      "prÃ½": 4495,
      "Ġpadl": 4496,
      "ĠrÃ¡di": 4497,
      "radost": 4498,
      "ĠvÃŃÅĻÃŃ": 4499,
      "ĠrÃ¡mÄĽ": 4500,
      "Ġstav": 4501,
      "hru": 4502,
      "Ġluh": 4503,
      "kami": 4504,
      "Ġrostou": 4505,
      "ĠhrÅ¯za": 4506,
      "Ġkalich": 4507,
      "pec": 4508,
      "ĠpÄĽnÃŃ": 4509,
      "Ġlabu": 4510,
      "ĠpoznÃ¡": 4511,
      "ĠchudÃ¡": 4512,
      "Ġzuby": 4513,
      "nie": 4514,
      "dokud": 4515,
      "ĠdunÃŃ": 4516,
      "ĠsÃŃÅĪ": 4517,
      "ĠÅ¡tÄĽstÃŃm": 4518,
      "ĠÅ¡Å¥asten": 4519,
      "Ġjal": 4520,
      "ĠverÅ¡e": 4521,
      "ĠpotÃ¡": 4522,
      "Ġjede": 4523,
      "ĠÄįlovÄĽku": 4524,
      "kaÅ¾dÃ©": 4525,
      "pÅ¯j": 4526,
      "Ġvyje": 4527,
      "tÃ¡ch": 4528,
      "dobÅĻe": 4529,
      "ĠznamenÃŃ": 4530,
      "ĠkÅĻÃŃdlem": 4531,
      "Ġdivy": 4532,
      "Ġsmutno": 4533,
      "kterou": 4534,
      "ĠÄįÃŃÅ¡": 4535,
      "Å¾ek": 4536,
      "huje": 4537,
      "ĠvlnÃŃ": 4538,
      "hlÃ©d": 4539,
      "ĠmÅ¯Å¾eÅ¡": 4540,
      "ĠkrÅ¯pÄĽj": 4541,
      "Ġkristus": 4542,
      "tÅ¯m": 4543,
      "ĠÅ¾ivÃ½": 4544,
      "Ġmech": 4545,
      "ĠbÄĽd": 4546,
      "ĠmarnÃ©": 4547,
      "ĠkÅĻiÄįÃŃ": 4548,
      "ĠsvatÃ½ch": 4549,
      "ĠsedÃ¡": 4550,
      "Ġpoza": 4551,
      "ĠvÄĽrnÃ½": 4552,
      "Ġpropasti": 4553,
      "ckou": 4554,
      "tce": 4555,
      "ĠpodÃ¡": 4556,
      "taly": 4557,
      "Ġvyvo": 4558,
      "Ã¡n": 4559,
      "vinu": 4560,
      "ĠzvÄĽst": 4561,
      "Ġhon": 4562,
      "Ġlev": 4563,
      "Ġvzlet": 4564,
      "ĠplÃ¡Å¡Å¥": 4565,
      "ĠÅ¾eno": 4566,
      "ĠmyÅ¡lenky": 4567,
      "chceÅ¡": 4568,
      "Ġznal": 4569,
      "ĠtÄĽmi": 4570,
      "ĠvÅ¡ednÃŃ": 4571,
      "ÄįlovÄĽk": 4572,
      "Ġdiva": 4573,
      "Ġdcera": 4574,
      "ĠkonÃŃ": 4575,
      "Ġchcete": 4576,
      "ĠzbranÄĽ": 4577,
      "tisk": 4578,
      "vodu": 4579,
      "dalo": 4580,
      "ĠÃºto": 4581,
      "ĠÅ¾Ã¡dÃ¡": 4582,
      "Ġex": 4583,
      "fo": 4584,
      "ĠonÃ©": 4585,
      "ĠÅ¾as": 4586,
      "ÅĻiti": 4587,
      "niti": 4588,
      "ĠnovÃ½m": 4589,
      "ĠpouÅ¡ti": 4590,
      "ĠletnÃŃ": 4591,
      "Ġdro": 4592,
      "ĠdivnÄĽ": 4593,
      "zÃ¡ÅĻ": 4594,
      "Ġgra": 4595,
      "Ġmalou": 4596,
      "ĠÅ¡eptÃ¡": 4597,
      "ĠbdÃŃ": 4598,
      "vÃ¡s": 4599,
      "ÅĪÅ¯": 4600,
      "ĠpojÃŃ": 4601,
      "hali": 4602,
      "ĠÅ¾ivotÄĽ": 4603,
      "dati": 4604,
      "Ġtomto": 4605,
      "Ġsvobodu": 4606,
      "ĠzvÃŃÅĻe": 4607,
      "ĠhnutÃŃ": 4608,
      "ĠkrÃ¡lem": 4609,
      "ĠvÃ¡bÃŃ": 4610,
      "ĠvidÃŃÅ¡": 4611,
      "ĠlÅ¯nÄĽ": 4612,
      "tÄĽjÅ¡ÃŃ": 4613,
      "ĠradÄĽj": 4614,
      "ĠkÃ©": 4615,
      "livÃ¡": 4616,
      "ĠvyÅ¡Å¡ÃŃ": 4617,
      "jÃŃcÃ½": 4618,
      "ÅĻÃŃÅ¡": 4619,
      "ĠjÃŃmÃ¡": 4620,
      "kmi": 4621,
      "zje": 4622,
      "Ġnapo": 4623,
      "ĠÅ¡ero": 4624,
      "ĠposvÄĽ": 4625,
      "bky": 4626,
      "Ġkarel": 4627,
      "tice": 4628,
      "ĠkÅĻiv": 4629,
      "Ġpopel": 4630,
      "rÃ¡t": 4631,
      "celÃ½": 4632,
      "ĠletÄĽ": 4633,
      "zar": 4634,
      "Ġplen": 4635,
      "Å¡tÃŃm": 4636,
      "ĠnÃŃmÅ¾": 4637,
      "Ġleskem": 4638,
      "Ġopoj": 4639,
      "tosti": 4640,
      "Ġrve": 4641,
      "bej": 4642,
      "ĠvÃŃte": 4643,
      "ĠsÃŃle": 4644,
      "Ġslast": 4645,
      "zdÄĽ": 4646,
      "Ġjinou": 4647,
      "ĠpÅĻÃŃmo": 4648,
      "bral": 4649,
      "Ġpokry": 4650,
      "ĠodpovÃŃ": 4651,
      "ĠzbraÅĪ": 4652,
      "ĠmÃ½": 4653,
      "ĠzaznÃŃ": 4654,
      "sech": 4655,
      "ĠhroznÃ½": 4656,
      "ver": 4657,
      "Ġplod": 4658,
      "Ġztratil": 4659,
      "ĠkorÃ¡": 4660,
      "musÃŃ": 4661,
      "ĠvÄĽdÄĽl": 4662,
      "ĠÃºz": 4663,
      "Ġstanul": 4664,
      "ĠryzÃŃ": 4665,
      "ĠhrÃ¡l": 4666,
      "ĠvnitÅĻ": 4667,
      "ĠstÅ¯l": 4668,
      "ĠcelÃ½m": 4669,
      "Ġnesla": 4670,
      "fy": 4671,
      "Ġkmet": 4672,
      "ĠplaÅ¡e": 4673,
      "ĠpustÃ©": 4674,
      "Ġga": 4675,
      "Ġvry": 4676,
      "Ġdy": 4677,
      "dav": 4678,
      "ĠdÃŃk": 4679,
      "Ġklobou": 4680,
      "die": 4681,
      "Å¾enou": 4682,
      "Ġklesla": 4683,
      "Ġjiskry": 4684,
      "Ġvzala": 4685,
      "ĠmÅ¾ik": 4686,
      "nÄĽnÃ½": 4687,
      "ĠÃºt": 4688,
      "Ġcity": 4689,
      "ĠdnÃŃ": 4690,
      "Ġmora": 4691,
      "dÃ¡le": 4692,
      "lepÅ¡ÃŃ": 4693,
      "ĠmÄĽj": 4694,
      "ĠÄįar": 4695,
      "dovat": 4696,
      "Ġjednom": 4697,
      "Ġprahy": 4698,
      "Ġctnosti": 4699,
      "tin": 4700,
      "cÃŃho": 4701,
      "Ġvodo": 4702,
      "bÄĽda": 4703,
      "Ġvodou": 4704,
      "pili": 4705,
      "Ġjablo": 4706,
      "Ġpozor": 4707,
      "ĠhÅĻÃŃchu": 4708,
      "Ġhovor": 4709,
      "pomnÄĽl": 4710,
      "Ġsmrtel": 4711,
      "ĠspÃ¡t": 4712,
      "leÅĪ": 4713,
      "dÃŃvÃ¡": 4714,
      "ĠnÃ¡dhe": 4715,
      "Ġ,": 4716,
      "Ġdok": 4717,
      "ĠpozdnÃŃ": 4718,
      "najÃŃ": 4719,
      "dily": 4720,
      "ĠpouÅ¡tÃŃ": 4721,
      "ledy": 4722,
      "ĠsÃŃni": 4723,
      "ĠhrajÃŃ": 4724,
      "ĠrozkoÅ¡e": 4725,
      "ĠsÃ½": 4726,
      "liÅ¾": 4727,
      "Ġroj": 4728,
      "Ġbran": 4729,
      "Ġpanna": 4730,
      "Ġzbro": 4731,
      "Ġzbled": 4732,
      "ÄįkÃ¡ch": 4733,
      "Ġobo": 4734,
      "Ġvykou": 4735,
      "Ġobrov": 4736,
      "Ġnebesa": 4737,
      "ĠnesmÄĽ": 4738,
      "ĠsamÃ½": 4739,
      "ĠpotÅĻe": 4740,
      "Ġhluk": 4741,
      "hrd": 4742,
      "vÅĻe": 4743,
      "Ã©mu": 4744,
      "ĠleÅ¾": 4745,
      "ĠÅ¡edÃ½": 4746,
      "ĠzlatÃŃ": 4747,
      "ĠzmÃŃrÃ¡": 4748,
      "ĠneÅ¡tÄĽstÃŃ": 4749,
      "ĠÃºÅ¾as": 4750,
      "Å¡at": 4751,
      "ĠnaÅĻÃŃ": 4752,
      "bili": 4753,
      "Ġnechal": 4754,
      "ĠchystÃ¡": 4755,
      "ĠbojovnÃŃ": 4756,
      "ĠkÃ©Å¾": 4757,
      "Ġvil": 4758,
      "Ġnou": 4759,
      "nuv": 4760,
      "Ġnejsou": 4761,
      "lko": 4762,
      "nikdy": 4763,
      "ĠvÄĽrnÃ©": 4764,
      "ĠnÄĽjak": 4765,
      "ĠhÃ¡ji": 4766,
      "vÄĽÅĻ": 4767,
      "Ġztr": 4768,
      "zela": 4769,
      "Ġtemnou": 4770,
      "hrad": 4771,
      "ĠverÅ¡": 4772,
      "Ġklas": 4773,
      "Ġsmysl": 4774,
      "jdem": 4775,
      "naÅ¡e": 4776,
      "novi": 4777,
      "Ġrozma": 4778,
      "ĠpÃŃt": 4779,
      "pustil": 4780,
      "ĠmnohÃ¡": 4781,
      "ĠmlÃ¡d": 4782,
      "ĠpolÃŃbenÃŃ": 4783,
      "Ġchvilku": 4784,
      "Ġdnech": 4785,
      "toho": 4786,
      "Äįeho": 4787,
      "Ġmladosti": 4788,
      "hvÄĽzd": 4789,
      "ĠtvÃ©mu": 4790,
      "ĠtÄĽÅ¾kou": 4791,
      "Ġhalu": 4792,
      "svobo": 4793,
      "ĠÅĻÃŃkÃ¡": 4794,
      "ĠtÃ¡bo": 4795,
      "ĠspÃ¡nek": 4796,
      "Ġproudem": 4797,
      "ĠvÅ¡udy": 4798,
      "ĠmlÃ©": 4799,
      "Ġazu": 4800,
      "ĠstokrÃ¡t": 4801,
      "ĠÅ¾Ã¡ru": 4802,
      "ĠvlÃ¡d": 4803,
      "ĠhvÄĽzdÃ¡m": 4804,
      "ĠutÃŃ": 4805,
      "pala": 4806,
      "chaÅ¥": 4807,
      "Ġdobrou": 4808,
      "Äįasto": 4809,
      "ĠskuteÄį": 4810,
      "ĠdomÄĽ": 4811,
      "ÅĪuje": 4812,
      "ĠkrÄį": 4813,
      "Ġpovin": 4814,
      "nova": 4815,
      "vÃ¡r": 4816,
      "ĠÄįnÃŃ": 4817,
      "ĠbojÃŃ": 4818,
      "ĠsluÅ¡ÃŃ": 4819,
      "ĠstÃŃnem": 4820,
      "Ġtmu": 4821,
      "ĠstÅĻÃ¡": 4822,
      "ĠdÃŃky": 4823,
      "ÄįenÃ½": 4824,
      "ĠbrÃ¡nÃŃ": 4825,
      "Ġblankyt": 4826,
      "fu": 4827,
      "Ġnajde": 4828,
      "ĠkrÃ¡snÄĽ": 4829,
      "stavÃŃ": 4830,
      "ĠvodÄĽ": 4831,
      "Ġmalo": 4832,
      "ĠsamotÄĽ": 4833,
      "ĠvlÃŃdnÄĽ": 4834,
      "starÃ½": 4835,
      "novÃ½": 4836,
      "Ġmuka": 4837,
      "vÃ½Å¡": 4838,
      "ĠkterÃ½m": 4839,
      "Ġhore": 4840,
      "Ġsym": 4841,
      "Ġsoucit": 4842,
      "ĠtrÃ¡va": 4843,
      "Ġknihy": 4844,
      "dny": 4845,
      "zpÄĽt": 4846,
      "Ġnetu": 4847,
      "vic": 4848,
      "ĠkrÃ¡lÅ¯": 4849,
      "ret": 4850,
      "Ġvinu": 4851,
      "ĠnadÅ¡en": 4852,
      "ĠÅ¾ivotu": 4853,
      "dlouho": 4854,
      "ĠÄįeskÃ¡": 4855,
      "Ġvzdych": 4856,
      "hi": 4857,
      "Ġmile": 4858,
      "ÅĪÃ¡": 4859,
      "ĠpouhÃ½": 4860,
      "ĠctÃŃ": 4861,
      "pis": 4862,
      "Ġge": 4863,
      "Ġvzdechy": 4864,
      "ÄįÅ¯": 4865,
      "lily": 4866,
      "ĠÄįerst": 4867,
      "ÄįnÃŃm": 4868,
      "Ġplesu": 4869,
      "Ġmrtev": 4870,
      "ÄįnÃ©m": 4871,
      "ĠzavÃ¡": 4872,
      "Ġtoto": 4873,
      "nÃ¡ct": 4874,
      "ĠpouÅ¡tÄĽ": 4875,
      "Ġtouhu": 4876,
      "vzduch": 4877,
      "Ġsvobody": 4878,
      "ticho": 4879,
      "ĠdÄĽvy": 4880,
      "ĠmodlÃŃ": 4881,
      "Ġvrat": 4882,
      "ĠÄıÃ¡bel": 4883,
      "ĠsnÃ¡": 4884,
      "list": 4885,
      "Äįiti": 4886,
      "ĠtrhÃ¡": 4887,
      "ĠhrdÃ©": 4888,
      "Ġhledat": 4889,
      "Ġhavra": 4890,
      "pÅ¯l": 4891,
      "ĠvstÃ¡": 4892,
      "kÃ½mi": 4893,
      "Ġpanny": 4894,
      "ĠcizÃŃch": 4895,
      "Ġpochyb": 4896,
      "Ġmistr": 4897,
      "Ġzlost": 4898,
      "Ġmladou": 4899,
      "ĠtajnÄĽ": 4900,
      "ĠschÃ½": 4901,
      "ĠmÅĻe": 4902,
      "razi": 4903,
      "Ġnach": 4904,
      "ĠhrabÄĽ": 4905,
      "Ġvrch": 4906,
      "ĠhroznÃ©": 4907,
      "mlÃ¡": 4908,
      "Ġhlav": 4909,
      "nÅ¯v": 4910,
      "Ġryt": 4911,
      "Ġjasu": 4912,
      "ĠklÃŃnÄĽ": 4913,
      "ĠjakÃ½s": 4914,
      "ĠhostÃŃ": 4915,
      "ĠodvÄĽ": 4916,
      "lenÃ½ch": 4917,
      "ĠplÃ©mÄĽ": 4918,
      "vro": 4919,
      "ĠkterÃ½ch": 4920,
      "Ġslasti": 4921,
      "Ġbratra": 4922,
      "ĠvelikÃ©": 4923,
      "ĠvonnÃ½": 4924,
      "Ġkouzlem": 4925,
      "Ġhvozd": 4926,
      "vÅ¡u": 4927,
      "nÃ¡hle": 4928,
      "ĠÅ¡ÃŃji": 4929,
      "hoÅĻ": 4930,
      "dÄĽv": 4931,
      "Ġmilio": 4932,
      "ĠnÃ¡rodu": 4933,
      "pne": 4934,
      "ĠrÃ©": 4935,
      "tul": 4936,
      "Ġbrachu": 4937,
      "padne": 4938,
      "ĠjedinÃ¡": 4939,
      "ĠznÃ¡mÃ½": 4940,
      "ĠzlatÃ½m": 4941,
      "ĠlÃŃbal": 4942,
      "chÃ¡zel": 4943,
      "Ġmyslil": 4944,
      "ĠpolÃŃch": 4945,
      "ĠdomÃ¡": 4946,
      "toval": 4947,
      "ĠvznÃŃ": 4948,
      "Ġpraze": 4949,
      "buje": 4950,
      "padla": 4951,
      "poli": 4952,
      "ĠmoÅĻÃŃ": 4953,
      "Ġhlasu": 4954,
      "zatÃŃm": 4955,
      "Ġvrah": 4956,
      "Ġspasi": 4957,
      "Ġunaven": 4958,
      "ĠdÄĽjin": 4959,
      "ĠpÅĻÃŃteli": 4960,
      "ĠsladkÃ½ch": 4961,
      "ĠpÅ¯jdu": 4962,
      "Ġroky": 4963,
      "Ġkomo": 4964,
      "Ġodtud": 4965,
      "mÃ¡n": 4966,
      "ĠtÃ©mÄĽ": 4967,
      "Ġnemlu": 4968,
      "Ġbychom": 4969,
      "Å¾enÃ¡": 4970,
      "ĠpoutnÃŃk": 4971,
      "ble": 4972,
      "Ġjan": 4973,
      "ĠspÃ¡sy": 4974,
      "ĠzlatÃ©m": 4975,
      "vÃ¡nek": 4976,
      "Ġminul": 4977,
      "ĠtrpÃŃ": 4978,
      "vrÃ¡til": 4979,
      "ĠpohÃ¡r": 4980,
      "ĠtÅĻpytÃŃ": 4981,
      "Ġvtip": 4982,
      "dÅ¯m": 4983,
      "vilo": 4984,
      "ĠmÄĽsÃŃce": 4985,
      "sili": 4986,
      "syn": 4987,
      "Ġmysti": 4988,
      "Ġbisku": 4989,
      "ĠzÃ¡ÅĻÃŃcÃŃ": 4990,
      "Ġpomalu": 4991,
      "Ġsluje": 4992,
      "Ġbratry": 4993,
      "Ġjihu": 4994,
      "Ġvodu": 4995,
      "Ġsvitu": 4996,
      "Ġsled": 4997,
      "kus": 4998,
      "dÄĽte": 4999,
      "ĠvÄĽz": 5000,
      "Ġteskno": 5001,
      "Ġroztou": 5002,
      "ĠchtÄĽli": 5003,
      "vracÃŃ": 5004,
      "Ġslunko": 5005,
      "Ġorel": 5006,
      "nika": 5007,
      "Ġznaven": 5008,
      "Ġjinoch": 5009,
      "ĠleÅ¾el": 5010,
      "ĠvÃ¡nek": 5011,
      "leni": 5012,
      "menÄĽ": 5013,
      "ĠnechtÄĽl": 5014,
      "Ġulic": 5015,
      "razil": 5016,
      "letÄĽl": 5017,
      "ĠÅ¡erÃ©": 5018,
      "ĠzdÃ¡l": 5019,
      "cÃŃtil": 5020,
      "Ġmiluje": 5021,
      "kdos": 5022,
      "ĠvÄĽtrÅ¯": 5023,
      "ĠvzdychÃ¡": 5024,
      "Ġjdi": 5025,
      "ÅĻilo": 5026,
      "ÅĻily": 5027,
      "nicÃŃ": 5028,
      "Äįinu": 5029,
      "ĠdÃ¡vnÃ©": 5030,
      "Ġtrest": 5031,
      "Ġzaml": 5032,
      "ĠvÅ¯bec": 5033,
      "ĠpÅ¯du": 5034,
      "ĠneÃº": 5035,
      "dÃŃl": 5036,
      "ĠrÃ½m": 5037,
      "ĠÅ¾elez": 5038,
      "ĠdivÄĽ": 5039,
      "Ġmatkou": 5040,
      "ĠÅĻekne": 5041,
      "ĠzbranÃŃ": 5042,
      "Ġspraved": 5043,
      "Ġneji": 5044,
      "ĠtatÃŃ": 5045,
      "ĠpÃŃÅ¡e": 5046,
      "Ġhrdin": 5047,
      "Ġminulosti": 5048,
      "ĠodpovÄĽÄı": 5049,
      "tkÅ¯": 5050,
      "letu": 5051,
      "vidÃŃÅ¡": 5052,
      "Ġbral": 5053,
      "Ġblaze": 5054,
      "ĠotvÃŃrÃ¡": 5055,
      "diti": 5056,
      "ĠhledÃŃm": 5057,
      "Ġbledou": 5058,
      "ĠoÅĻe": 5059,
      "bytÃŃ": 5060,
      "ĠÄįechÃ¡ch": 5061,
      "Ġskla": 5062,
      "Ġslzu": 5063,
      "ĠvÄĽtry": 5064,
      "lk": 5065,
      "nÃŃku": 5066,
      "dÄĽly": 5067,
      "staÄįÃŃ": 5068,
      "bala": 5069,
      "Ġracho": 5070,
      "ĠpÄĽje": 5071,
      "prvnÃŃ": 5072,
      "ĠnutÃŃ": 5073,
      "),": 5074,
      "qu": 5075,
      "snÃ½ch": 5076,
      "Ġokno": 5077,
      "ĠzaÄįal": 5078,
      "ĠplÃ¡l": 5079,
      "Ġpozem": 5080,
      "Ġproudu": 5081,
      "ĠvelikÃ¡": 5082,
      "ĠskrÃ¡ni": 5083,
      "Ġstisk": 5084,
      "Ġzdob": 5085,
      "raje": 5086,
      "nÃŃci": 5087,
      "Ġkor": 5088,
      "mÃŃvÃ¡": 5089,
      "ĠÃºtro": 5090,
      "ĠdÃŃl": 5091,
      "ĠlÃ¡sko": 5092,
      "ĠkterÃ©m": 5093,
      "zdy": 5094,
      "Ġpohy": 5095,
      "nikdo": 5096,
      "ĠsvÄĽtle": 5097,
      "provÃ¡": 5098,
      "Ġluna": 5099,
      "Ġsouse": 5100,
      "ĠjasnÃ¡": 5101,
      "Ġpohr": 5102,
      "ĠnechtÄĽ": 5103,
      "ĠspÄĽchÃ¡": 5104,
      "ĠhrÅ¯z": 5105,
      "ĠzdrÃ¡v": 5106,
      "ĠÄįÃŃÅ¡i": 5107,
      "ĠkoÅĻist": 5108,
      "Ġrady": 5109,
      "ĠvÅ¡echen": 5110,
      "ĠsmÄĽlÃ½": 5111,
      "ĠmlÃ¡de": 5112,
      "ĠtratÃŃ": 5113,
      "Ġmoudro": 5114,
      "Ġzvyk": 5115,
      "Ġspro": 5116,
      "ĠbÃŃlÃ©m": 5117,
      "Ġnau": 5118,
      "ĠkolÃ©": 5119,
      "ĠtanÄįÃŃ": 5120,
      "Ġnaklo": 5121,
      "es": 5122,
      "chat": 5123,
      "Ġzachy": 5124,
      "ĠÄįert": 5125,
      "Ġnesl": 5126,
      "ĠvrhÃ¡": 5127,
      "kvete": 5128,
      "ĠkoneÄįnÄĽ": 5129,
      "ĠzeleÅĪ": 5130,
      "ĠpouÅ¡Å¥": 5131,
      "ĠsvatÃ½m": 5132,
      "ĠblÃ½skÃ¡": 5133,
      "ĠoltÃ¡ÅĻ": 5134,
      "ĠtlaÄįÃŃ": 5135,
      "jÃŃma": 5136,
      "skÃ©mu": 5137,
      "ĠmodrÃ½": 5138,
      "Ġmlh": 5139,
      "Ġevro": 5140,
      "ĠkÅ¯ÅĪ": 5141,
      "Ġztu": 5142,
      "eno": 5143,
      "ĠvelÃŃ": 5144,
      "ĠbÄĽlost": 5145,
      "ptÃ¡k": 5146,
      "sÃ©": 5147,
      "tkÃ¡": 5148,
      "uj": 5149,
      "ĠpenÃŃ": 5150,
      "Ġzrovna": 5151,
      "mÃŃsto": 5152,
      "tÃ¡h": 5153,
      "Ġpravo": 5154,
      "Ġlidstvu": 5155,
      "ĠzmizÃŃ": 5156,
      "ĠperuÅ¥": 5157,
      "Ġrozmar": 5158,
      "Ġmelo": 5159,
      "Ġhrdlo": 5160,
      "ĠutrpenÃŃ": 5161,
      "ĠbÅĻi": 5162,
      "ĠÄįerno": 5163,
      "ĠchudÃ½": 5164,
      "Ġchyt": 5165,
      "ĠpÅ¯vab": 5166,
      "nuli": 5167,
      "Ġklasy": 5168,
      "ĠstrÃ¡ni": 5169,
      "ĠjedinÃ©": 5170,
      "Ġvojsko": 5171,
      "ĠpoÄįal": 5172,
      "dÅĻe": 5173,
      "zrÃ¡": 5174,
      "âĢĿ": 5175,
      "vily": 5176,
      "stali": 5177,
      "Ġplameny": 5178,
      "ĠÃºzkost": 5179,
      "kvÃ©tÃ¡": 5180,
      "vÅĻÃŃ": 5181,
      "Ġzasmu": 5182,
      "Ġsoudu": 5183,
      "pomÃŃnÃ¡": 5184,
      "pouÅ¡tÄĽ": 5185,
      "ĠÄįtyÅĻi": 5186,
      "kova": 5187,
      "kynÄĽ": 5188,
      "asy": 5189,
      "ĠÃºro": 5190,
      "ĠÅ¡era": 5191,
      "ĠplatÃŃ": 5192,
      "ĠÄįarov": 5193,
      "tvou": 5194,
      "Å¡Ã¡": 5195,
      "Ġabych": 5196,
      "Ġpodi": 5197,
      "nÃŃky": 5198,
      "kop": 5199,
      "bÄĽh": 5200,
      "Ġtuze": 5201,
      "ĠpÅĻines": 5202,
      "ĠÅ¾eni": 5203,
      "Ġdechu": 5204,
      "ĠjmÃ©na": 5205,
      "lala": 5206,
      "ĠzavÃŃ": 5207,
      "poÄį": 5208,
      "ĠdÃŃtky": 5209,
      "chovÃ©": 5210,
      "ĠposvÃ¡": 5211,
      "ĠkrÃ¡snÃ½ch": 5212,
      "Ġjmeno": 5213,
      "ĠzbÃ½vÃ¡": 5214,
      "teÅĻi": 5215,
      "Ġbytost": 5216,
      "Äįilo": 5217,
      "zdaÅ¾": 5218,
      "ĠsilnÃ½": 5219,
      "ĠmoÅ¾nÃ¡": 5220,
      "ĠzÃ¡mku": 5221,
      "jmu": 5222,
      "mÃ½ch": 5223,
      "ĠzÅĻela": 5224,
      "Ġnesko": 5225,
      "Ġkolena": 5226,
      "ĠvÅ¡eli": 5227,
      "ĠprvnÃŃm": 5228,
      "Ġkout": 5229,
      "Ġslovan": 5230,
      "ĠspÄĽje": 5231,
      "Ġpocti": 5232,
      "âĢľ.": 5233,
      "pÃ¡r": 5234,
      "Å¡tnÃŃ": 5235,
      "novu": 5236,
      "Ġtopo": 5237,
      "cemi": 5238,
      "ĠperutÃŃ": 5239,
      "ĠnÄĽme": 5240,
      "Ġranou": 5241,
      "Ġzdroj": 5242,
      "ĠmlÃ¡den": 5243,
      "ĠvzpomÃŃnÃ¡m": 5244,
      "ĠdÃ©Å¡Å¥": 5245,
      "hroz": 5246,
      "ĠÅ¾houcÃŃ": 5247,
      "Ġrosou": 5248,
      "ĠcÃ¡": 5249,
      "Ġsud": 5250,
      "nutÃŃm": 5251,
      "milÃ¡": 5252,
      "Ġsice": 5253,
      "ĠprÃ¡h": 5254,
      "ĠtesknÄĽ": 5255,
      "druh": 5256,
      "Ġmoudrost": 5257,
      "ĠÄįiny": 5258,
      "jimÅ¾": 5259,
      "zam": 5260,
      "Ġovo": 5261,
      "ĠstojÃŃm": 5262,
      "Ġvkro": 5263,
      "ĠpastÃ½": 5264,
      "Ġhlavi": 5265,
      "Ġruchu": 5266,
      "ĠdruÅ¾i": 5267,
      "ĠstrojÃŃ": 5268,
      "ĠsbÃŃ": 5269,
      "stky": 5270,
      "roste": 5271,
      "volu": 5272,
      "vyk": 5273,
      "ĠÄįeho": 5274,
      "hledÃŃ": 5275,
      "Ġbezpe": 5276,
      "ĠhnÃŃzda": 5277,
      "mnoho": 5278,
      "Ġukru": 5279,
      "Ġmohy": 5280,
      "meÅĪ": 5281,
      "ĠhrÃ¡t": 5282,
      "Ġosudu": 5283,
      "nt": 5284,
      "nkÃ¡ch": 5285,
      "Ġochra": 5286,
      "ĠzÃ¡Å¡tÃŃ": 5287,
      "chodu": 5288,
      "Ġzvolal": 5289,
      "kteÅĻÃŃ": 5290,
      "ĠdvojÃŃ": 5291,
      "Ġchlap": 5292,
      "hnal": 5293,
      "Ġzt": 5294,
      "ĠÅ¾u": 5295,
      "Ġchti": 5296,
      "Å¥te": 5297,
      "Ġprocit": 5298,
      "Ġbozi": 5299,
      "ĠvodnÃŃ": 5300,
      "ster": 5301,
      "ĠÅĻÃ¡d": 5302,
      "Ġrakev": 5303,
      "lilo": 5304,
      "ĠnÃ¡ho": 5305,
      "bitÃŃ": 5306,
      "Ġkrbu": 5307,
      "ĠzÅĻÃŃti": 5308,
      "hrob": 5309,
      "ĠvzkÅĻÃŃ": 5310,
      "ĠlÃ¡kÃ¡": 5311,
      "Ġmali": 5312,
      "ĠÅ¾Ã¡dnÃ¡": 5313,
      "skutku": 5314,
      "ĠprÅ¯vod": 5315,
      "ĠdrobnÃ©": 5316,
      "Ġharmo": 5317,
      "blÃ¡": 5318,
      "Ġaj": 5319,
      "kosti": 5320,
      "Ġvedou": 5321,
      "Ġrci": 5322,
      "ĠpapeÅ¾": 5323,
      "Ġtaje": 5324,
      "Ġvlnou": 5325,
      "ĠhnÄĽvem": 5326,
      "Ġzkvet": 5327,
      "stoj": 5328,
      "Ġzahrad": 5329,
      "zne": 5330,
      "ĠsleÄį": 5331,
      "nÃ©st": 5332,
      "Ġmuk": 5333,
      "ĠsvÄĽtlu": 5334,
      "Ġpetr": 5335,
      "ĠnebesÅ¯m": 5336,
      "leÅ¾ÃŃ": 5337,
      "nevÃŃm": 5338,
      "Ġdotk": 5339,
      "nut": 5340,
      "Ġtanci": 5341,
      "ĠmlÄįenÃŃ": 5342,
      "ĠtÅĻesou": 5343,
      "ĠdneÅ¡nÃŃ": 5344,
      "Ã¡Å¡": 5345,
      "Ġop": 5346,
      "ĠvÄĽÅĻit": 5347,
      "Ġodkud": 5348,
      "ĠÃºdy": 5349,
      "ĠdÃŃla": 5350,
      "prvÃ©": 5351,
      "Ġkorunu": 5352,
      "ĠvÃ½chod": 5353,
      "Å¾no": 5354,
      "Å¡ad": 5355,
      "ĠvÄĽÅ¡t": 5356,
      "ĠÅ¾ele": 5357,
      "ĠvÅ¯d": 5358,
      "vÅ¡ecky": 5359,
      "Å¡Å¥Ã¡": 5360,
      "ĠtichÃ½m": 5361,
      "vÄĽjÅ¡ÃŃ": 5362,
      "ĠspÅĻÃ¡": 5363,
      "ĠpÄĽl": 5364,
      "Ġvolnost": 5365,
      "Ġpsal": 5366,
      "Ġkos": 5367,
      "!âĢĺ": 5368,
      "Ġopi": 5369,
      "ĠrovnÄĽ": 5370,
      "ĠtrpÄĽ": 5371,
      "ĠznÃ¡Å¡": 5372,
      "Ġvzpomen": 5373,
      "ĠpapÃŃ": 5374,
      "ĠnÄĽhy": 5375,
      "ĠmÄĽlo": 5376,
      "zemÄĽ": 5377,
      "ĠmanÅ¾el": 5378,
      "ĠvÃ¡clav": 5379,
      "Å¡nÃ½ch": 5380,
      "nÃŃÅ¡": 5381,
      "Ġnalez": 5382,
      "Ġhorou": 5383,
      "Ġkoni": 5384,
      "ĠpÃŃlÃŃ": 5385,
      "ĠvlasÅ¥": 5386,
      "ĠplÃ¡ni": 5387,
      "ĠmodrÃ½ch": 5388,
      "lÃŃbÃ¡": 5389,
      "Ġotcem": 5390,
      "Ġluk": 5391,
      "Ġjarem": 5392,
      "Ġbudoucnosti": 5393,
      "roze": 5394,
      "nedo": 5395,
      "Ġlibo": 5396,
      "Ġpozo": 5397,
      "pouÅ¡tÃŃ": 5398,
      "Ġjinde": 5399,
      "ĠjÃ¡sot": 5400,
      "vostÃŃ": 5401,
      "ĠÅ¡per": 5402,
      "Äįeli": 5403,
      "ĠzÃ¡stu": 5404,
      "ĠÅ¡ÃŃp": 5405,
      "Ġsestry": 5406,
      "ca": 5407,
      "Å¾ÃŃt": 5408,
      "ĠnesmÃŃr": 5409,
      "jedna": 5410,
      "ĠnekoneÄį": 5411,
      "ĠzapomnÄĽl": 5412,
      "tna": 5413,
      "ĠdvÅ¯r": 5414,
      "vnÃŃk": 5415,
      "ĠboÅ¾ÃŃm": 5416,
      "ĠÅ¡Å¥astnÃ½": 5417,
      "Ġdlani": 5418,
      "Ġpluje": 5419,
      "Ġknihu": 5420,
      "Ġvojska": 5421,
      "Ġhlahol": 5422,
      "mlou": 5423,
      "ĠtoÅ¾": 5424,
      "Ġlety": 5425,
      "Äįest": 5426,
      "rychle": 5427,
      "ĠpÅĻÃŃzrak": 5428,
      "ĠpÃ¡s": 5429,
      "ĠkÅĻÃŃdlo": 5430,
      "ĠkrokÅ¯": 5431,
      "Ġmilovat": 5432,
      "Å¡kou": 5433,
      "Ġneob": 5434,
      "ĠsahÃ¡": 5435,
      "ĠnÄĽhoÅ¾": 5436,
      "nkÃ©": 5437,
      "Ġzlou": 5438,
      "nouc": 5439,
      "ĠzÃ¡ba": 5440,
      "haly": 5441,
      "ĠpouÅ¥": 5442,
      "ĠmyÅ¡lÃ©nky": 5443,
      "Ã½Å¡": 5444,
      "Ġpolem": 5445,
      "Ġposel": 5446,
      "ĠlesÃŃch": 5447,
      "ĠrozlÃ©": 5448,
      "vyso": 5449,
      "kdeÅ¾": 5450,
      "ĠpospÃŃ": 5451,
      "rozko": 5452,
      "pravÃŃ": 5453,
      "ĠÅ¡aty": 5454,
      "Ġnaposledy": 5455,
      "Ġrozlo": 5456,
      "ĠhvÄĽzdi": 5457,
      "Ġzmar": 5458,
      "Ġhodiny": 5459,
      "ÄįÃŃch": 5460,
      "stoupil": 5461,
      "ĠtÄĽÅ¾kÃ½ch": 5462,
      "Ġw": 5463,
      "Ġtur": 5464,
      "Ġhudbou": 5465,
      "Ġkomna": 5466,
      "Å¾stvÃŃ": 5467,
      "out": 5468,
      "Ġchr": 5469,
      "ĠÄįil": 5470,
      "Ġrozlou": 5471,
      "Ġodho": 5472,
      "Ġmarno": 5473,
      "Ġhrobem": 5474,
      "ĠzelenÃ©": 5475,
      "Ġhlubiny": 5476,
      "Ġveleb": 5477,
      "ĠslavÃŃk": 5478,
      "ĠmraÄįna": 5479,
      "jela": 5480,
      "Ġuzav": 5481,
      "Ġlec": 5482,
      "ĠkrutÃ½": 5483,
      "ĠÅ¡koda": 5484,
      "Ġtiskne": 5485,
      "chi": 5486,
      "Ġbok": 5487,
      "Ġrtu": 5488,
      "ĠvÅ¡ed": 5489,
      "Ġjednoho": 5490,
      "Ġmohlo": 5491,
      "tnÃ½ch": 5492,
      "ĠjiÅĻÃŃ": 5493,
      "Ġzakle": 5494,
      "ĠznÄĽlo": 5495,
      "ĠhlÃ¡sÃ¡": 5496,
      "pÅĻem": 5497,
      "ĠzÃ¡me": 5498,
      "lami": 5499,
      "Å¾iti": 5500,
      "Ġzimy": 5501,
      "Ġdary": 5502,
      "Ġsnou": 5503,
      "ĠchvÄĽnÃŃ": 5504,
      "Ġnemohu": 5505,
      "Ġobloze": 5506,
      "Ġpoky": 5507,
      "ĠronÃŃ": 5508,
      "ĠzÃ¡vÄĽ": 5509,
      "Ġpravou": 5510,
      "ĠnÃ¡mÄĽ": 5511,
      "ĠsÃŃtÄĽ": 5512,
      "Ġlsti": 5513,
      "ĠlÅ¾i": 5514,
      "ĠzimÄĽ": 5515,
      "ĠrozkoÅ¡ÃŃ": 5516,
      "Ġhasne": 5517,
      "Å¾emi": 5518,
      "Ġpas": 5519,
      "Ġkme": 5520,
      ".âĢľâĢľ": 5521,
      "ĠdruhÃ¡": 5522,
      "Ġblahem": 5523,
      "ĠstrÃ¡nÃŃ": 5524,
      "ÅĻÃŃcÃŃ": 5525,
      "Ġmor": 5526,
      "ÄįÃŃvÃ¡": 5527,
      "mÃ¡la": 5528,
      "ĠzpÄĽvem": 5529,
      "ĠzoÅĻe": 5530,
      "ĠtvrdÃ©": 5531,
      "pjat": 5532,
      "ĠopÃ¡": 5533,
      "ĠnevÃ½": 5534,
      "desÃ¡": 5535,
      "tiny": 5536,
      "ĠvyÅ¡": 5537,
      "Ġblahu": 5538,
      "ĠdÃ©man": 5539,
      "Ġbalva": 5540,
      "Ã©ÅĻe": 5541,
      "Ġhni": 5542,
      "Ġhlado": 5543,
      "Ġdruha": 5544,
      "ĠsmrÅ¥": 5545,
      "Ġplody": 5546,
      "Ġpotok": 5547,
      "Ġbudoucnost": 5548,
      "Ġlhostej": 5549,
      "sej": 5550,
      "ĠÅ¾ili": 5551,
      "ĠsmÄĽsi": 5552,
      "blÃŃÅ¾": 5553,
      "ĠslednÃŃ": 5554,
      "razÃŃ": 5555,
      "ĠvÄĽÅĻÃŃm": 5556,
      "Ġroztr": 5557,
      "ĠdÃ¡lnÃ©": 5558,
      "chajÃŃ": 5559,
      "ĠproudÃŃ": 5560,
      "ĠmusÃŃÅ¡": 5561,
      "Ġbrzo": 5562,
      "ĠmyÅ¡lenek": 5563,
      "ĠÄįlu": 5564,
      "Ġlil": 5565,
      "ĠkrvÃ¡": 5566,
      "Ġposlu": 5567,
      "jehoÅ¾": 5568,
      "daleko": 5569,
      "gy": 5570,
      "eny": 5571,
      "ĠoÅ¾i": 5572,
      "kalo": 5573,
      "ĠjimÅ¾": 5574,
      "otec": 5575,
      "spi": 5576,
      "zdu": 5577,
      "Å¾te": 5578,
      "Ġdna": 5579,
      "Ġvzty": 5580,
      "Ġvina": 5581,
      "Ġrety": 5582,
      "Ġroucho": 5583,
      "Ġmas": 5584,
      "vanou": 5585,
      "tole": 5586,
      "Ġhudby": 5587,
      "Ġchodil": 5588,
      "smr": 5589,
      "Ġonu": 5590,
      "Ġpestr": 5591,
      "ĠnejvÄĽtÅ¡ÃŃ": 5592,
      "ĠÅ¾alem": 5593,
      "stroj": 5594,
      "jou": 5595,
      "ron": 5596,
      "Ġnesu": 5597,
      "vele": 5598,
      "ĠprostÃ½": 5599,
      "Ġstarost": 5600,
      "ĠpuÄįÃŃ": 5601,
      "Ġblesku": 5602,
      "Ġopusti": 5603,
      "gna": 5604,
      "ĠsrÃ¡": 5605,
      "Ġdrak": 5606,
      "lÃŃcÃŃ": 5607,
      "ĠpÃŃti": 5608,
      "mena": 5609,
      "ĠmalÃŃ": 5610,
      "krvÃ¡": 5611,
      "Ġdnu": 5612,
      "tisÃŃc": 5613,
      "Ġusta": 5614,
      "Ġodda": 5615,
      "krÃ¡lov": 5616,
      "zpÃŃvÃ¡": 5617,
      "ĠpenÄĽ": 5618,
      "stru": 5619,
      "teÄįnÃŃ": 5620,
      "chali": 5621,
      "Ġkdybych": 5622,
      "ĠblahÃ©": 5623,
      "Ġpije": 5624,
      "ĠdÄĽtstvÃŃ": 5625,
      "nÄĽla": 5626,
      "Ġvedla": 5627,
      "Ġvedl": 5628,
      "ĠvzkÅĻik": 5629,
      "zdvi": 5630,
      "ĠzlatÄĽ": 5631,
      "ĠbÄĽh": 5632,
      "ĠhÅĻÃŃchy": 5633,
      "vnÃ½": 5634,
      "tajen": 5635,
      "ĠvyÅ¡la": 5636,
      "ĠvÃŃnem": 5637,
      "sic": 5638,
      "vzdy": 5639,
      "Ġvlta": 5640,
      "ĠodpoÄįi": 5641,
      "ĠhrobÅ¯": 5642,
      "Ġulici": 5643,
      "ĠÅ¡va": 5644,
      "ĠdÃ¡n": 5645,
      "Ġgi": 5646,
      "ĠznÄĽla": 5647,
      "Ġskali": 5648,
      "vku": 5649,
      "Å¾uje": 5650,
      "Ġhry": 5651,
      "nÃŃka": 5652,
      "ĠodÅĻÃŃ": 5653,
      "ĠmÄĽstem": 5654,
      "rec": 5655,
      "stÃ¡nÃŃ": 5656,
      "ÅĻeny": 5657,
      "ĠÅ¡ÃŃÅĻÃŃ": 5658,
      "ĠbuÄıte": 5659,
      "Ġpova": 5660,
      "ĠdrtÃŃ": 5661,
      "ĠstkvÄĽ": 5662,
      "ĠusmÄĽ": 5663,
      "jisk": 5664,
      "mÃŃt": 5665,
      "âĢĻ:": 5666,
      "cenÃ¡": 5667,
      "Ġokny": 5668,
      "ĠboÅ¾skÃ©": 5669,
      "Ġnivy": 5670,
      "moje": 5671,
      "Ġkouzla": 5672,
      "ĠlÃ©to": 5673,
      "ĠzÅĻÃŃÅ¡": 5674,
      "ĠnadÄĽji": 5675,
      "Ġzdar": 5676,
      "klÃ¡dÃ¡": 5677,
      "Ġjaksi": 5678,
      "Ġsply": 5679,
      "ĠdÄĽva": 5680,
      "Ġvinou": 5681,
      "Ġzor": 5682,
      "Ġjiskra": 5683,
      "ĠobliÄįej": 5684,
      "nÃ©sti": 5685,
      "Ġtamo": 5686,
      "ejhle": 5687,
      "Ġmnohou": 5688,
      "Ġjel": 5689,
      "ĠzeÄı": 5690,
      "ĠslÃ¡vou": 5691,
      "ĠhÅĻbe": 5692,
      "ĠvzpomÃŃnka": 5693,
      "Å¾al": 5694,
      "ĠzdÃŃ": 5695,
      "ĠokÃ©": 5696,
      "Äįeji": 5697,
      "ĠÄįeskÃ½ch": 5698,
      "ĠpÅĻijdou": 5699,
      "ĠoltÃ¡ÅĻi": 5700,
      "cÃ¡": 5701,
      "ĠzlÃ½ch": 5702,
      "ÅĻuje": 5703,
      "dinu": 5704,
      "ĠsvÄĽtlÃ½": 5705,
      "Ġsvr": 5706,
      "ĠzvukÅ¯": 5707,
      "ĠkrÃ¡tce": 5708,
      "ĠkrÃ¡lovstvÃŃ": 5709,
      "mÄĽly": 5710,
      "Äįily": 5711,
      "zala": 5712,
      "tako": 5713,
      "ĠstÃ¡r": 5714,
      "Ġbezna": 5715,
      "ĠsladkÃ½m": 5716,
      "ĠhÅĻÃŃchÅ¯": 5717,
      "ĠkvÃŃtek": 5718,
      "ĠslyÅ¡ÃŃÅ¡": 5719,
      "vÄĽti": 5720,
      "dejte": 5721,
      "ÅĻenou": 5722,
      "Ġstrachem": 5723,
      "Ġpokro": 5724,
      "ĠkÅĻeh": 5725,
      "Ġpohledem": 5726,
      "ĠkrvavÃ©": 5727,
      "ĠspatÅĻil": 5728,
      "otev": 5729,
      "ul": 5730,
      "ĠsnovÃ©": 5731,
      "ĠnÃ¡ÅĻek": 5732,
      "vujÃŃ": 5733,
      "ĠÃºna": 5734,
      "Ġjasnou": 5735,
      "ĠsmÄĽs": 5736,
      "ĠpÅĻÃŃroda": 5737,
      "Ġapo": 5738,
      "ĠzÃ¡hu": 5739,
      "Ġlidskou": 5740,
      "ĠpÄĽst": 5741,
      "ĠstranÄĽ": 5742,
      "ĠÅ¡ÃŃje": 5743,
      "hrou": 5744,
      "Ġat": 5745,
      "Ġude": 5746,
      "Ġmohou": 5747,
      "ama": 5748,
      "ĠdÄĽj": 5749,
      "ĠÅ¾ivobytÃŃ": 5750,
      "ĠplÃ¡la": 5751,
      "ĠÅ¡irÃ©": 5752,
      "Ġhrst": 5753,
      "ĠkÅĻÃŃÅ¾em": 5754,
      "vrt": 5755,
      "Ġzvad": 5756,
      "natÃ©": 5757,
      "alou": 5758,
      "Ġdub": 5759,
      "ĠtÃ¡h": 5760,
      "zenÃ©": 5761,
      "obÄĽ": 5762,
      "Ġvem": 5763,
      "Ġzam": 5764,
      "ĠÅ¡pa": 5765,
      "Ġsmutnou": 5766,
      "hrÅ¯": 5767,
      "liti": 5768,
      "Ġvzej": 5769,
      "ĠpÅĻÃŃtom": 5770,
      "ĠpohÅĻe": 5771,
      "myÅ¡lÃ©": 5772,
      "ĠkrouÅ¾ÃŃ": 5773,
      "pohÃ¡": 5774,
      "ĠuÄįÃŃ": 5775,
      "dist": 5776,
      "Ġlicho": 5777,
      "Ġohrom": 5778,
      "Ġgeni": 5779,
      "emi": 5780,
      "ĠstÅĻel": 5781,
      "lÃ¡m": 5782,
      "titi": 5783,
      "vÃ¡nky": 5784,
      "Ġkan": 5785,
      "ĠbÃŃlÃ½m": 5786,
      "ĠdivÃ©m": 5787,
      "zkou": 5788,
      "ĠhoÅĻi": 5789,
      "mÃŃra": 5790,
      "Ġpravdou": 5791,
      "ĠhbitÄĽ": 5792,
      "Ġkolik": 5793,
      "Ġskrom": 5794,
      "ĠbÃŃdnÃ½": 5795,
      "Å¾eny": 5796,
      "Ġfor": 5797,
      "ĠsnivÃ©": 5798,
      "ĠkÅĻÃŃdly": 5799,
      "Ġpovr": 5800,
      "vÄĽru": 5801,
      "ĠstÅ¯j": 5802,
      "Ġuto": 5803,
      "ĠpÅĻichÃ¡zÃŃ": 5804,
      "Ġzblou": 5805,
      "ĠhvÄĽzdami": 5806,
      "Ġvskutku": 5807,
      "Ġmsti": 5808,
      "ĠletÄĽl": 5809,
      "tÃ¡ÅĻ": 5810,
      "ĠÅ¾ivÃ¡": 5811,
      "ĠpÅĻiÅ¡lo": 5812,
      "ĠskvÃŃ": 5813,
      "Ġsvojich": 5814,
      "ĠmraÄįen": 5815,
      "ĠstrÃ¡nÄĽ": 5816,
      "Ġtrud": 5817,
      "Ġzdvih": 5818,
      "Ġblankytu": 5819,
      "utÃŃ": 5820,
      "ĠzpÅ¯so": 5821,
      "ĠpÄĽÅ¡i": 5822,
      "Ġdruhou": 5823,
      "Ġpozved": 5824,
      "ĠvlastnÃŃm": 5825,
      "Ġpomsty": 5826,
      "cek": 5827,
      "nÄĽte": 5828,
      "ĠretÅ¯": 5829,
      "ĠsvatÃ©m": 5830,
      "ĠkeÅĻ": 5831,
      "Ġozdo": 5832,
      "ĠÅĻadu": 5833,
      "ala": 5834,
      "Ġoby": 5835,
      "Ġhodin": 5836,
      "Ġsyny": 5837,
      "ĠstarÃ©m": 5838,
      "ĠzahradÄĽ": 5839,
      "lice": 5840,
      "ruce": 5841,
      "ĠpoutnÃŃ": 5842,
      "Ġsvaty": 5843,
      "ĠlistÅ¯": 5844,
      "ĠzbÄĽ": 5845,
      "Ġjezd": 5846,
      "ĠstrÃ½": 5847,
      "tickÃ©": 5848,
      "ĠrÃ¡ko": 5849,
      "Ġsladko": 5850,
      "Ġmlze": 5851,
      "ĠspÃ¡ti": 5852,
      "ĠjdeÅ¡": 5853,
      "ĠhrdÃ½": 5854,
      "spÃŃÅ¡": 5855,
      "dumÄįi": 5856,
      "Å¡nÃ½m": 5857,
      "Ġzru": 5858,
      "ĠzaplÃ¡": 5859,
      "ves": 5860,
      "Ġbub": 5861,
      "vzhÅ¯ru": 5862,
      "ĠbÅĻehy": 5863,
      "Ġsloup": 5864,
      "vÅ¡echno": 5865,
      "vnÃ©": 5866,
      "dÃ¡n": 5867,
      "ÅĪu": 5868,
      "staly": 5869,
      "ĠtemnÃ½ch": 5870,
      "ĠpÅ¯dy": 5871,
      "ĠkÃ¡zal": 5872,
      "milen": 5873,
      "Ġvzali": 5874,
      "ÄįnÃŃch": 5875,
      "Ġbzu": 5876,
      "ĠvÄĽÅ¾": 5877,
      "odkud": 5878,
      "Ġnemi": 5879,
      "ĠsadÄĽ": 5880,
      "plÃŃ": 5881,
      "Ġhromu": 5882,
      "trp": 5883,
      "Ġnepoko": 5884,
      "ĠvolnÃ½": 5885,
      "ĠznÄĽly": 5886,
      "Ġil": 5887,
      "Ġjesen": 5888,
      "Äįelo": 5889,
      "mÃ¡lo": 5890,
      "ĠpohÃ¡d": 5891,
      "ĠÅ¾lutÃ©": 5892,
      "ĠvonnÃ©": 5893,
      "Ġneskona": 5894,
      "Ġdokud": 5895,
      "pane": 5896,
      "ĠkypÃŃ": 5897,
      "volnÄĽ": 5898,
      "Ġchaty": 5899,
      "zvlÃ¡": 5900,
      "Ġhnal": 5901,
      "Ġudi": 5902,
      "ĠprospÄĽ": 5903,
      "jistÄĽ": 5904,
      "ÄįÃŃcÃŃ": 5905,
      "ĠnÃ¡roda": 5906,
      "plnÃ©": 5907,
      "ĠhouÅ¡tÃŃ": 5908,
      "ĠkmitÃ¡": 5909,
      "ĠvÄįel": 5910,
      "Ġptal": 5911,
      "ĠtÄĽl": 5912,
      "ĠpaÅĻÃŃ": 5913,
      "ĠnemÅ¯Å¾": 5914,
      "ĠchoÅ¥": 5915,
      "ĠchrÃ¡nÃŃ": 5916,
      "ĠpÅĻÃ¡l": 5917,
      "Ġzticha": 5918,
      "Ġsev": 5919,
      "ĠjeÅ¾ÃŃ": 5920,
      "Ġledo": 5921,
      "Ġren": 5922,
      "Ġspal": 5923,
      "ĠhroznÃ¡": 5924,
      "ĠkÅĻesÅ¥an": 5925,
      "chne": 5926,
      "tisÃŃce": 5927,
      "ĠptÃ¡ka": 5928,
      "ĠprÃ¡zdnÃ©": 5929,
      "Å¾ku": 5930,
      "ĠuÅ¡i": 5931,
      "Ġhoru": 5932,
      "ĠlÃŃtÃ¡": 5933,
      "ĠstÃ¡ly": 5934,
      "Ġslze": 5935,
      "ĠpÄĽknÃ©": 5936,
      "ĠhovoÅĻÃŃ": 5937,
      "vakrÃ¡t": 5938,
      "ĠvÃ½chodu": 5939,
      "krÃ½": 5940,
      "mni": 5941,
      "ĠschÃ¡zÃŃ": 5942,
      "Äįat": 5943,
      "tobÄĽ": 5944,
      "ĠteÄįe": 5945,
      "Ġkdosi": 5946,
      "ĠpustÃ½": 5947,
      "Ġzahrady": 5948,
      "chti": 5949,
      "ĠnohÃ¡m": 5950,
      "mor": 5951,
      "Ġskr": 5952,
      "Å¾ily": 5953,
      "!!": 5954,
      "jan": 5955,
      "ĠtmÃŃ": 5956,
      "Ġzbyl": 5957,
      "Ġnav": 5958,
      "hovo": 5959,
      "Ġdostal": 5960,
      "ĠholÃ©": 5961,
      "ĠmÄĽstu": 5962,
      "ĠzvÄĽÅĻ": 5963,
      "draÅ¾Å¡ÃŃ": 5964,
      "vÅ¡ude": 5965,
      "fÃ¡": 5966,
      "chtÃŃ": 5967,
      "Ġdol": 5968,
      "mila": 5969,
      "ĠÅ¾iva": 5970,
      "ĠzÃ¡pla": 5971,
      "ĠotvÃŃ": 5972,
      "ĠsnÄĽhem": 5973,
      "jar": 5974,
      "Ġporu": 5975,
      "neza": 5976,
      "jÃŃti": 5977,
      "Ġulo": 5978,
      "ĠzÃ¡zra": 5979,
      "pÅĻel": 5980,
      "ĠplÃ¡ÅĪ": 5981,
      "ĠveÅ¡ke": 5982,
      "bÅ¡ÃŃ": 5983,
      "nkÃ¡": 5984,
      "deÅĪ": 5985,
      "Ġstroj": 5986,
      "ĠvlastnÄĽ": 5987,
      "ĠvzpomÃŃnÃ¡": 5988,
      "Ġmost": 5989,
      "kÃ¡zal": 5990,
      "Ġspjat": 5991,
      "ĠsklÃŃ": 5992,
      "ĠvÄĽÄįnÃ½ch": 5993,
      "hÃ½bÃ¡": 5994,
      "padlo": 5995,
      "bolest": 5996,
      "is": 5997,
      "ĠpoÅ¾Ã¡": 5998,
      "nade": 5999,
      "nati": 6000,
      "jeli": 6001,
      "stÃ¡ch": 6002,
      "Ġondy": 6003,
      "strach": 6004,
      "Ġdcery": 6005,
      "duje": 6006,
      "ĠÅ¡tva": 6007,
      "mÄĽlo": 6008,
      "Ġnohu": 6009,
      "Ġpavu": 6010,
      "Ġvida": 6011,
      "ĠbÃŃt": 6012,
      "Ġotco": 6013,
      "ĠchvÃ¡tÃ¡": 6014,
      "Ġramena": 6015,
      "Ġfranci": 6016,
      "vÄĽn": 6017,
      "ĠubÃŃ": 6018,
      "ĠÄįerv": 6019,
      "Ġsnadno": 6020,
      "ĠknÄĽÅ¾ÃŃ": 6021,
      "matka": 6022,
      "kri": 6023,
      "ĠzvÃ¡": 6024,
      "Ġzbude": 6025,
      "vanÃ¡": 6026,
      "Ġnejde": 6027,
      "ĠbleskÅ¯": 6028,
      "ĠÅ¡epce": 6029,
      "ĠÄįarodÄĽj": 6030,
      "ĠpÃ½Å¡e": 6031,
      "lÃ½mi": 6032,
      "ĠpoÅ¡": 6033,
      "ditel": 6034,
      "bohat": 6035,
      "ĠotrÃ¡": 6036,
      "slyÅ¡el": 6037,
      "ĠtajnÃ©": 6038,
      "ĠvesmÃŃr": 6039,
      "Ġzbylo": 6040,
      "nov": 6041,
      "ĠÅ¡lo": 6042,
      "ĠÅĻece": 6043,
      "stÃ¡t": 6044,
      "ĠhlubokÃ©": 6045,
      "Ġpokle": 6046,
      "ruka": 6047,
      "vobo": 6048,
      "poko": 6049,
      "ĠrdÃŃ": 6050,
      "ÄįinÄĽ": 6051,
      "ĠzÃ¡ho": 6052,
      "Ġskro": 6053,
      "Ġratole": 6054,
      "ĠÅ¡ele": 6055,
      "ĠskÃ¡lu": 6056,
      "Ġvzdoru": 6057,
      "Å¾ha": 6058,
      "ĠÅ¾er": 6059,
      "ĠdÄĽsÃŃ": 6060,
      "kdybych": 6061,
      "ĠplÃ¡ly": 6062,
      "ĠÅĻÃŃma": 6063,
      "ĠkoutÄĽ": 6064,
      "ĠkamenÃŃ": 6065,
      "ĠostrÃ½": 6066,
      "Ġbludi": 6067,
      "ĠtÅĻikrÃ¡t": 6068,
      "jmi": 6069,
      "ĠkÅ¡ti": 6070,
      "tiÅ¡e": 6071,
      "ĠveÅ¡el": 6072,
      "Ġpraco": 6073,
      "ĠvÄĽtÅĻÃŃk": 6074,
      "ĠzimnÃŃ": 6075,
      "Ġpokoje": 6076,
      "ĠskalÃ¡ch": 6077,
      "ĠpÃ½cha": 6078,
      "ĠpÅĻelud": 6079,
      "znal": 6080,
      "Ġpne": 6081,
      "lie": 6082,
      "hoch": 6083,
      "Ġule": 6084,
      "Ġbod": 6085,
      "ĠnÄĽmÃ¡": 6086,
      "ĠstÃ¡lo": 6087,
      "ĠspÃŃÅ¡e": 6088,
      "ĠjunÃ¡": 6089,
      "ckÃ½m": 6090,
      "ĠjitÅĻ": 6091,
      "Ġslib": 6092,
      "Ġsklonil": 6093,
      "smÃŃch": 6094,
      "roval": 6095,
      "nÄĽly": 6096,
      "ĠstÃ½": 6097,
      "ĠsmÄĽl": 6098,
      "stÅĻÃŃb": 6099,
      "ĠideÃ¡": 6100,
      "ana": 6101,
      "vÄįÃŃ": 6102,
      "ĠlÃ¡me": 6103,
      "ĠstÃŃhÃ¡": 6104,
      "ĠvÅ¡ecku": 6105,
      "Ġseveru": 6106,
      "!)": 6107,
      "nnÃ½": 6108,
      "svÃ¡": 6109,
      "voval": 6110,
      "Ġbyste": 6111,
      "meÄį": 6112,
      "panÃŃ": 6113,
      "ĠpÃ¡dÃŃ": 6114,
      "ĠtouÅ¾il": 6115,
      "ĠÄįinu": 6116,
      "zdali": 6117,
      "plnÃ½": 6118,
      "blu": 6119,
      "vlÃŃ": 6120,
      "ent": 6121,
      "skvÄĽ": 6122,
      "ĠÃºkol": 6123,
      "ĠpÄĽsti": 6124,
      "Ġmodro": 6125,
      "brat": 6126,
      "ĠzvÄĽda": 6127,
      "Ġozval": 6128,
      "ĠznÃ¡mÃ©": 6129,
      "ĠtÅĻpyt": 6130,
      "rnÃ©m": 6131,
      "ĠzÃ¡dumÄįi": 6132,
      "ĠpÃ¡ny": 6133,
      "zdrÃ¡": 6134,
      "ĠchorÃ¡": 6135,
      "Ġmraku": 6136,
      "ĠonÄĽch": 6137,
      "loval": 6138,
      "tovÃ¡nÃŃ": 6139,
      "Ġjisto": 6140,
      "Ġpre": 6141,
      "ĠÅ¡erem": 6142,
      "ĠÅĻetÄĽ": 6143,
      "ĠsvÃŃtil": 6144,
      "ĠspÄĽch": 6145,
      "ĠzdvihÃ¡": 6146,
      "Ġsmysly": 6147,
      "clo": 6148,
      "ker": 6149,
      "Å¾nÃ½ch": 6150,
      "nÄĽnou": 6151,
      "Ġuva": 6152,
      "ĠpÃ¡ry": 6153,
      "ĠmÃŃhÃ¡": 6154,
      "vzal": 6155,
      "Ġsvate": 6156,
      "ĠhÅĻÃ¡": 6157,
      "ĠvavÅĻÃŃ": 6158,
      "ĠsklÃ¡dÃ¡": 6159,
      "dÃ¡vno": 6160,
      "dlen": 6161,
      "vstÅĻÃŃc": 6162,
      "Ġosi": 6163,
      "Ġbyt": 6164,
      "Ġplakal": 6165,
      "ĠdivnÃ¡": 6166,
      "ĠpestrÃ©": 6167,
      "Å¾nou": 6168,
      "kati": 6169,
      "Ġdojem": 6170,
      "vÃŃtÄĽz": 6171,
      "veÅĪ": 6172,
      "Ġvypla": 6173,
      "Å¾eno": 6174,
      "ĠbavÃŃ": 6175,
      "ĠskÃ¡Äįe": 6176,
      "Ġparku": 6177,
      "Ġslzami": 6178,
      "vnitÅĻ": 6179,
      "zdÃŃ": 6180,
      "stvu": 6181,
      "ĠhvÃŃ": 6182,
      "Ġpoha": 6183,
      "nevy": 6184,
      "ĠupÃŃ": 6185,
      "Ġmudr": 6186,
      "ĠÅ¾ilÃ¡ch": 6187,
      "ĠprvÃ½": 6188,
      "chovÃ¡": 6189,
      "Ġnejsi": 6190,
      "ĠÅ¡lehÃ¡": 6191,
      "Ġpono": 6192,
      "nÄĽkdy": 6193,
      "ĠkalÃŃ": 6194,
      "Ġvan": 6195,
      "Ġpusto": 6196,
      "ĠvrahÅ¯": 6197,
      "Ġbalvan": 6198,
      "Ġprostor": 6199,
      "jmou": 6200,
      "oj": 6201,
      "oz": 6202,
      "podiv": 6203,
      "pÃŃseÅĪ": 6204,
      "ĠlodÃŃ": 6205,
      "Ġhust": 6206,
      "Ġsatan": 6207,
      "Ġjedinou": 6208,
      "ĠhospodÃ¡": 6209,
      "ĠvÃ½m": 6210,
      "Ġtlou": 6211,
      "ĠzmÄĽnÃŃ": 6212,
      "Ġzast": 6213,
      "Å¡ÃŃÅ¡": 6214,
      "Ġlem": 6215,
      "Ġluhy": 6216,
      "ĠsladkÃ©m": 6217,
      "ĠchvÄĽlo": 6218,
      "ĠpyÅ¡nÄĽ": 6219,
      "ĠkaÅ¾dÃ©ho": 6220,
      "ĠpÅ¯lnoc": 6221,
      "ĠzoufalstvÃŃ": 6222,
      "Ġvnady": 6223,
      "nÃ¡n": 6224,
      "Å¡ili": 6225,
      "ĠÅ¡edÃ¡": 6226,
      "ĠpÄĽti": 6227,
      "Ġrysy": 6228,
      "ĠÅ¡irÃ½": 6229,
      "ĠhÅĻbitov": 6230,
      "ĠbÃ©ÅĻe": 6231,
      "Ġodlesk": 6232,
      "ĠslastÃŃ": 6233,
      "ĠÅ¾alost": 6234,
      "ĠzjevÃŃ": 6235,
      "Ġtrium": 6236,
      "ah": 6237,
      "lkÃ¡": 6238,
      "Ġpovo": 6239,
      "tomu": 6240,
      "ĠnovÃ©m": 6241,
      "pali": 6242,
      "ĠlÃŃstek": 6243,
      "stoupÃŃ": 6244,
      "Ġknih": 6245,
      "zÅĻÃŃÅ¡": 6246,
      "ĠdÃ©le": 6247,
      "Ġpopra": 6248,
      "starÃ¡": 6249,
      "Ġcele": 6250,
      "ĠmÃŃsÃŃ": 6251,
      "ÅĻeme": 6252,
      "Ġstud": 6253,
      "pjal": 6254,
      "ĠsnÃ¡Å¡ÃŃ": 6255,
      "Å¾at": 6256,
      "Ġuko": 6257,
      "Ġvypl": 6258,
      "stÃŃrÃ¡": 6259,
      "Ġstarce": 6260,
      "Ġdno": 6261,
      "Äįuje": 6262,
      "Ġuti": 6263,
      "ĠÄįinÅ¯": 6264,
      "ĠbÄĽhu": 6265,
      "ĠveÄįernÃŃ": 6266,
      "strom": 6267,
      "Å¾ivota": 6268,
      "ĠÅ¡vi": 6269,
      "Ġkane": 6270,
      "ceni": 6271,
      "ĠpÅĻesvÄĽd": 6272,
      "Ġpokra": 6273,
      "ĠzmÃŃtÃ¡": 6274,
      "ĠtÅ¯nÄĽ": 6275,
      "Ġsmys": 6276,
      "voda": 6277,
      "veden": 6278,
      "Ġprova": 6279,
      "piti": 6280,
      "Ġostro": 6281,
      "Ġvysoko": 6282,
      "ĠzachvÄĽl": 6283,
      "Ġmnich": 6284,
      "ĠdÄĽcka": 6285,
      "Ġvstane": 6286,
      "byli": 6287,
      "Ġkonci": 6288,
      "ĠÅ¾ila": 6289,
      "ĠdÄĽsnÃ½": 6290,
      "mot": 6291,
      "ĠnÄĽmÃ©": 6292,
      "ĠpohlÃŃ": 6293,
      "ĠhlasÅ¯": 6294,
      "ĠÅ¡Å¥astnÄĽ": 6295,
      "ĠdrÃ¡hy": 6296,
      "Ġdejte": 6297,
      "slÃ¡va": 6298,
      "fÃŃ": 6299,
      "ĠozÃ¡": 6300,
      "ĠpoÅ¾Ã¡r": 6301,
      "nebude": 6302,
      "vedu": 6303,
      "ĠpÅĻÃŃklad": 6304,
      "ĠlÃŃba": 6305,
      "ĠslabÃ©": 6306,
      "ĠÄįlovÄĽkem": 6307,
      "Ġkriti": 6308,
      "Ġmiluji": 6309,
      "Ġzmatku": 6310,
      "ĠposmÄĽch": 6311,
      "har": 6312,
      "spÃ¡": 6313,
      "lostÃŃ": 6314,
      "lÃ¡nÃŃ": 6315,
      "lÃŃt": 6316,
      "ĠuhlÃŃ": 6317,
      "Ġhluku": 6318,
      "ĠbÅĻehÅ¯": 6319,
      "Ġjisker": 6320,
      "leÅ¥": 6321,
      "Ġdomy": 6322,
      "dÃŃtÄĽ": 6323,
      "bouzÃŃ": 6324,
      "ĠplnÃ½m": 6325,
      "ĠzvlÃ¡Å¡tnÃŃ": 6326,
      "ĠrtÃŃ": 6327,
      "ĠtakÃ½": 6328,
      "ĠvÃ¡lky": 6329,
      "ĠÅ¡est": 6330,
      "ĠstoletÃŃ": 6331,
      "vena": 6332,
      "Ġarci": 6333,
      "ĠÅ¾ebrÃ¡k": 6334,
      "Å¡ce": 6335,
      "Ġzhu": 6336,
      "Ġbly": 6337,
      "dÄĽn": 6338,
      "bech": 6339,
      "Äıar": 6340,
      "ĠdÃ¡no": 6341,
      "ĠcestÃ¡ch": 6342,
      "ĠstÃ¡do": 6343,
      "ĠchtÄĽlo": 6344,
      "ĠchrÃ¡my": 6345,
      "ĠcizÃŃm": 6346,
      "ĠkÃ¡cÃŃ": 6347,
      "Ġhudbu": 6348,
      "ĠzdobÃŃ": 6349,
      "svatÃ½": 6350,
      "mÃ½m": 6351,
      "ĠmdlÃ½": 6352,
      "Ġzablou": 6353,
      "poj": 6354,
      "Ġvypu": 6355,
      "ĠburÃ¡": 6356,
      "ĠÃºstech": 6357,
      "ĠÄįistou": 6358,
      "Ġlok": 6359,
      "Ġzvl": 6360,
      "nÄĽna": 6361,
      "pohled": 6362,
      "ĠuvÃŃ": 6363,
      "ĠodpusÅ¥": 6364,
      "Ġlidmi": 6365,
      "Å¾enÃ½ch": 6366,
      "ÅĻÃŃmal": 6367,
      "ĠdÃŃvku": 6368,
      "Ġpokoji": 6369,
      "kaÅ¾dÃ¡": 6370,
      "ĠpÅĻemo": 6371,
      "ĠnepÅĻÃŃtel": 6372,
      "naly": 6373,
      "ĠpÅĻÃŃsnÄĽ": 6374,
      "ĠnebeskÃ©": 6375,
      "Ġklesl": 6376,
      "ĠvrÃ¡sky": 6377,
      "nÄĽjÅ¡ÃŃm": 6378,
      "Ġzpup": 6379,
      "dvÃ©": 6380,
      "dol": 6381,
      "sadil": 6382,
      "Ġperel": 6383,
      "ĠpÃ¡nÅ¯": 6384,
      "Ġkul": 6385,
      "Ġsouci": 6386,
      "ĠbÃ¡snÄĽ": 6387,
      "ĠÃºsmÄĽvu": 6388,
      "hlÃŃÅ¾e": 6389,
      "Ġhrdla": 6390,
      "nenÃ¡": 6391,
      "sr": 6392,
      "Ġshle": 6393,
      "nesu": 6394,
      "kuje": 6395,
      "mÄĽj": 6396,
      "ĠtesknÃ©": 6397,
      "ĠhlÃ¡sÃŃ": 6398,
      ".)": 6399,
      "ĠnuÅ¾": 6400,
      "Ġzho": 6401,
      "Ġpoch": 6402,
      "dechu": 6403,
      "Ġchou": 6404,
      "Ġrevolu": 6405,
      "Ġvesel": 6406,
      "ĠzboÅ¾nÄĽ": 6407,
      "ĠÅĻadou": 6408,
      "ĠÄıas": 6409,
      "Ġlevo": 6410,
      "ĠdÄĽlÃŃ": 6411,
      "ĠvÃ½kÅĻi": 6412,
      "Ġposlal": 6413,
      "ĠrekÅ¯": 6414,
      "slyÅ¡e": 6415,
      "krok": 6416,
      "ĠpevnÃ½": 6417,
      "pka": 6418,
      "rami": 6419,
      "ĠpoÅĻÃ¡d": 6420,
      "lÃ¡sky": 6421,
      "ĠkoÄįÃ¡": 6422,
      "ĠobjÃŃmÃ¡": 6423,
      "ĠÅ¡epo": 6424,
      "ĠbÄĽla": 6425,
      "ĠklidnÃ½": 6426,
      "ĠsnivÃ¡": 6427,
      "Ġpaprs": 6428,
      "Ġkmit": 6429,
      "novÃ¡": 6430,
      "Ġuka": 6431,
      "ĠumÄĽl": 6432,
      "dostÃŃ": 6433,
      "budÃŃ": 6434,
      "Ġplny": 6435,
      "ĠhustÃ©": 6436,
      "ĠsvÃŃtÃ¡": 6437,
      "ĠvlÃ¡dy": 6438,
      "ĠpÅĻÃ¡telÃ©": 6439,
      "milÃ½": 6440,
      "ĠpÅ¯lnoci": 6441,
      "vÅ¡ad": 6442,
      "ĠzlÃ©ho": 6443,
      "loÄı": 6444,
      "teÄįnÄĽ": 6445,
      "Å¥u": 6446,
      "ĠboÅĻÃŃ": 6447,
      "ĠvÃŃÄįka": 6448,
      "ĠhladÃŃ": 6449,
      "nesly": 6450,
      "ĠpouhÃ©": 6451,
      "Ġdeset": 6452,
      "ĠklasÅ¯": 6453,
      "ĠspanÃŃ": 6454,
      "stupuje": 6455,
      "klen": 6456,
      "ren": 6457,
      "tvÃ½ch": 6458,
      "Ġpocit": 6459,
      "jede": 6460,
      "ĠuvÄĽ": 6461,
      "ĠchtÄĽjÃŃ": 6462,
      "Äįena": 6463,
      "pln": 6464,
      "ĠhlubokÃ½": 6465,
      "ĠdÃ¡my": 6466,
      "ĠÄįervÃ¡nkÅ¯": 6467,
      "hÅĻÃ¡": 6468,
      "Ġster": 6469,
      "ĠÄįechy": 6470,
      "Ġjedem": 6471,
      "Ġslovu": 6472,
      "Ġstranu": 6473,
      "ĠmocnÃ©": 6474,
      "Ġpoliti": 6475,
      "Ġvesna": 6476,
      "ĠfarÃ¡": 6477,
      "Ġkl": 6478,
      "ĠpodÄĽ": 6479,
      "Ġpovy": 6480,
      "Ġnehy": 6481,
      "ĠzamyÅ¡": 6482,
      "lym": 6483,
      "bouÅĻ": 6484,
      "bÃŃlÃ©": 6485,
      "ĠstraÅ¡li": 6486,
      "plamen": 6487,
      "Å¡Å¥a": 6488,
      "ĠjemuÅ¾": 6489,
      "ĠsmÃ¡la": 6490,
      "Ġsedmi": 6491,
      "ĠpovÄĽz": 6492,
      "Ġplynou": 6493,
      "Ġzmu": 6494,
      "ÅĻte": 6495,
      "Ġholou": 6496,
      "Ġmluv": 6497,
      "znÃ¡Å¡": 6498,
      "Ġsrde": 6499,
      "mnohÃ½": 6500,
      "Ġvzplane": 6501,
      "vstal": 6502,
      "rali": 6503,
      "ĠoÄįka": 6504,
      "byly": 6505,
      "ĠÅ¡er": 6506,
      "Ġtlum": 6507,
      "ĠskÅĻivan": 6508,
      "Ġnedal": 6509,
      "skÃ½mi": 6510,
      "Å¡tÄĽm": 6511,
      "Ġhubi": 6512,
      "Ġsoused": 6513,
      "Ġzloba": 6514,
      "ĠhvÄĽzdou": 6515,
      "ĠvzpomÃŃnek": 6516,
      "tkou": 6517,
      "ĠnevÃŃÅ¡": 6518,
      "jÃ¡k": 6519,
      "ĠtÃŃsnÃŃ": 6520,
      "jaro": 6521,
      "ĠpohÃ¡dky": 6522,
      "dno": 6523,
      "snÃ½m": 6524,
      "zÅĻe": 6525,
      "Ġkoli": 6526,
      "Ġkorou": 6527,
      "ĠvyÅ¡e": 6528,
      "ĠmilÃŃ": 6529,
      "slavÃŃ": 6530,
      "nickÃ½": 6531,
      "ĠobÄĽt": 6532,
      "dly": 6533,
      "Ġoct": 6534,
      "Ġpoc": 6535,
      "Ġleto": 6536,
      "ĠplÃ¡lo": 6537,
      "koru": 6538,
      "Ġmuky": 6539,
      "ĠruÄįky": 6540,
      "Ġoblou": 6541,
      "Ġskvr": 6542,
      "mÃ¡hÃ¡": 6543,
      "sala": 6544,
      "ĠÅĻev": 6545,
      "ĠmrtvÃŃ": 6546,
      "Ġmraz": 6547,
      "Ġoblaky": 6548,
      "ĠvtÄĽ": 6549,
      "Å¡kem": 6550,
      "Ġpoledne": 6551,
      "Ġzahal": 6552,
      "stoup": 6553,
      "ĠsvÃŃce": 6554,
      "ĠnaÅ¡eho": 6555,
      "mluv": 6556,
      "ĠhedvÃ¡": 6557,
      "ĠmroucÃŃ": 6558,
      "jila": 6559,
      "ĠnÃ¡v": 6560,
      "Ġlibu": 6561,
      "ĠnedoÄįka": 6562,
      "Ġslep": 6563,
      "Ġpaprsky": 6564,
      "proud": 6565,
      "Ġchceme": 6566,
      "zouf": 6567,
      "ÅĻÃŃch": 6568,
      "zase": 6569,
      "Ġkata": 6570,
      "pouta": 6571,
      "Ġzvuku": 6572,
      "Ġmladost": 6573,
      "Ġbloudil": 6574,
      "ĠpilnÄĽ": 6575,
      "Ġsoumraku": 6576,
      "ÅĻka": 6577,
      "Ġoso": 6578,
      "Ġvzrost": 6579,
      "ĠÄįekÃ¡m": 6580,
      "tri": 6581,
      "ĠlkÃ¡nÃŃ": 6582,
      "ĠnÄĽjÅ¾": 6583,
      "Ã¡nÃŃ": 6584,
      "Ġjdeme": 6585,
      "noÄįnÃŃ": 6586,
      "ĠmistÅĻe": 6587,
      "Ġmukou": 6588,
      "ĠpaÅ¾ÃŃ": 6589,
      "ĠtuÅ¾eb": 6590,
      "moh": 6591,
      "ĠpÄĽjÃŃ": 6592,
      "ĠboÅ¾stvÃŃ": 6593,
      "ĠrÅ¯znÃ½ch": 6594,
      "Ġvzejde": 6595,
      "ÄįeÅ¾": 6596,
      "ĠnÄĽÅ¾nÃ©": 6597,
      "ĠradosÅ¥": 6598,
      "Ġmohli": 6599,
      "ĠsmÃ¡t": 6600,
      "ĠperutÄĽ": 6601,
      "ĠnÃ¡mÄĽstÃŃ": 6602,
      "dnÃ©ho": 6603,
      "Ġocho": 6604,
      "ÅĻeÄį": 6605,
      "cestÃŃ": 6606,
      "nÃ¡Å¡el": 6607,
      "ĠrodnÃ½": 6608,
      "Ġkov": 6609,
      "Ġoddech": 6610,
      "ĠprvÃ©": 6611,
      "Ġpel": 6612,
      "Ġkudy": 6613,
      "ĠplnÃ½ch": 6614,
      "ĠblaÅ¾ÃŃ": 6615,
      "ĠspÄĽl": 6616,
      "!...âĢľ": 6617,
      "Ġteplo": 6618,
      "ĠkrÃ¡tkÃ©": 6619,
      "ĠbujnÃ©": 6620,
      "Ġfilo": 6621,
      "ĠkÅĻovÃŃ": 6622,
      "Ġhisto": 6623,
      "ĠostatnÃŃ": 6624,
      "ĠtkÃ¡": 6625,
      "Å¡til": 6626,
      "Ġmrou": 6627,
      "ĠjinÃ©ho": 6628,
      "dÄĽlo": 6629,
      "ĠhoÅ¡i": 6630,
      "ĠrtÅ¯m": 6631,
      "Äıas": 6632,
      "papr": 6633,
      "sajÃŃ": 6634,
      "Ġcar": 6635,
      "ĠÅĻÃŃdÃŃ": 6636,
      "hlavu": 6637,
      "Ġstrasti": 6638,
      "vraÅ¥": 6639,
      "heÅĪ": 6640,
      "Ġdvacet": 6641,
      "Ġmrz": 6642,
      "ĠkvÄĽtech": 6643,
      "hlad": 6644,
      "Ġvpad": 6645,
      "ĠonÄĽ": 6646,
      "Ġpoku": 6647,
      "ÃºsmÄĽ": 6648,
      "ĠmÄĽly": 6649,
      "ĠkÅĻÃŃÅ¾i": 6650,
      "Ġjasem": 6651,
      "vraÅ¾": 6652,
      "ĠkrutÃ©": 6653,
      "ĠÅ¾ÃŃzni": 6654,
      "Ġhouf": 6655,
      "Å¯nÄĽ": 6656,
      "Ġposte": 6657,
      "Ġpopla": 6658,
      "Ġvyslo": 6659,
      "jemi": 6660,
      "ĠchvÄĽly": 6661,
      "ĠbijÃŃ": 6662,
      "hradu": 6663,
      "ĠbohatÃ½r": 6664,
      "ĠzachrÃ¡": 6665,
      "ĠplÃ¡t": 6666,
      "ĠslÃ½ch": 6667,
      "ĠtÄĽÅ¾kÃ½m": 6668,
      "nickÃ©": 6669,
      "ĠmalÃ½ch": 6670,
      "ĠtrÃ¡vu": 6671,
      "ĠstudÃ¡": 6672,
      "ĠvdÄĽÄį": 6673,
      "Ġhorami": 6674,
      "ajÃŃ": 6675,
      "gan": 6676,
      "ĠÄįeskou": 6677,
      "Ġstan": 6678,
      "snÃŃh": 6679,
      "ĠchytÃ¡": 6680,
      "ĠtÃ³ny": 6681,
      "ĠplÃŃÅ¾ÃŃ": 6682,
      "slyÅ¡ÃŃÅ¡": 6683,
      "bka": 6684,
      "vÅ¡ÃŃ": 6685,
      "Äįan": 6686,
      "daje": 6687,
      "Ġmuce": 6688,
      "Ġnoh": 6689,
      "Ġmed": 6690,
      "ĠhradÄĽ": 6691,
      "Ġbabi": 6692,
      "ĠznÃ¡t": 6693,
      "Ġshon": 6694,
      "Ġlampy": 6695,
      "Ġsestra": 6696,
      "vÃŃtÄĽ": 6697,
      "ĠuÄįen": 6698,
      "Ġkopy": 6699,
      "Ġpraha": 6700,
      "ĠskvoucÃŃ": 6701,
      "ĠbÃŃdÄĽ": 6702,
      "ĠvÅ¯z": 6703,
      "Ġtvojich": 6704,
      "ĠvraÅ¥": 6705,
      "ĠvzpomÃŃnky": 6706,
      "ĠumÅĻÃŃt": 6707,
      "sna": 6708,
      "Ġnaho": 6709,
      "lÃŃch": 6710,
      "tÃŃÅ¡": 6711,
      "Ġsiro": 6712,
      "krÃ¡snÃ¡": 6713,
      "ĠslabÃ½": 6714,
      "ĠmilovÃ¡nÃŃ": 6715,
      "zor": 6716,
      "ĠhouÅ¡ti": 6717,
      "hnouti": 6718,
      "ĠjizbÄĽ": 6719,
      "pravdu": 6720,
      "ĠapoÅ¡to": 6721,
      "plou": 6722,
      "zmi": 6723,
      "Å¾lu": 6724,
      "Ġolym": 6725,
      "ĠpeÅĻe": 6726,
      "ĠlÃŃpy": 6727,
      "bÃ¡Å¡": 6728,
      "kev": 6729,
      "bami": 6730,
      "dlem": 6731,
      "Ġkmo": 6732,
      "nÃŃho": 6733,
      "tebe": 6734,
      "Ġzato": 6735,
      "ĠstÃ¡da": 6736,
      "ĠpÅĻedc": 6737,
      "bÃ¡snÃŃ": 6738,
      "cenou": 6739,
      "posled": 6740,
      "ĠteplÃ½": 6741,
      "Ġmoudrosti": 6742,
      "ĠpenÄĽz": 6743,
      "ÅĪal": 6744,
      "stavil": 6745,
      "ĠstaÅĻÃŃ": 6746,
      "krÃ¡snÃ©": 6747,
      "ĠmrtvÃ¡": 6748,
      "ĠskoÄįÃŃ": 6749,
      "dÅ¯vÄĽ": 6750,
      "ĠÅ¡eptal": 6751,
      "Ġchech": 6752,
      "Ġleta": 6753,
      "Å¾ilo": 6754,
      "ĠbÃ¡znÃŃ": 6755,
      "cena": 6756,
      "Ġvlasten": 6757,
      "ĠmÄĽkce": 6758,
      "ĠmÄĽkkÃ½": 6759,
      "ĠoltÃ¡ÅĻe": 6760,
      "enÃ©": 6761,
      "povÄĽz": 6762,
      "Ġrolan": 6763,
      "ĠtuÅ¡ÃŃm": 6764,
      "ĠlÃ¡n": 6765,
      "ĠsynÅ¯": 6766,
      "venÃ¡": 6767,
      "ĠbÄĽlo": 6768,
      "Ġokra": 6769,
      "hlÃ½m": 6770,
      "zenÃ½": 6771,
      "ĠsvÃ¡tek": 6772,
      "ĠzvÃŃtÄĽ": 6773,
      "ĠzdrÃ¡va": 6774,
      "Ġovoce": 6775,
      "vdÄĽ": 6776,
      "Ġhladem": 6777,
      "ĠpravÃŃm": 6778,
      "Ġkroku": 6779,
      "Ġklidem": 6780,
      "Ġpostavy": 6781,
      "Ġkostela": 6782,
      "ĠposlednÃŃm": 6783,
      "it": 6784,
      "Ġzkla": 6785,
      "pomeÅĪ": 6786,
      "dÄĽjÃŃ": 6787,
      "Ġrozvi": 6788,
      "Ġcig": 6789,
      "ĠdruhÅ¯": 6790,
      "ĠvÄĽÄįna": 6791,
      "Ġresi": 6792,
      "Ġpohro": 6793,
      "ĠpÅ¯dÄĽ": 6794,
      "ĠzapomnÄĽnÃŃ": 6795,
      "Ġprsten": 6796,
      "ĠrovnÄĽÅ¾": 6797,
      "ie": 6798,
      "ĠdnovÃ©": 6799,
      "Ġnebyla": 6800,
      "Ġmojich": 6801,
      "ĠrozumÃŃ": 6802,
      "rÅ¯Å¾e": 6803,
      "ĠhÅĻÃŃmÃ¡": 6804,
      "Ġfau": 6805,
      "ĠrÅ¯znÃ©": 6806,
      "ĠbÅĻÃŃmÄĽ": 6807,
      "ali": 6808,
      "Ġmen": 6809,
      "lat": 6810,
      "Ġnepla": 6811,
      "ĠnaÅ¡ÃŃm": 6812,
      "Ġdocela": 6813,
      "mÄĽt": 6814,
      "ĠnÃ¡vra": 6815,
      "Ġlokte": 6816,
      "Ġgu": 6817,
      "ĠplesÃ¡": 6818,
      "ĠdvoÅĻe": 6819,
      "myslil": 6820,
      "ĠotevÅĻe": 6821,
      "Ġklene": 6822,
      "ĠpaprskÅ¯": 6823,
      "ĠjmÄĽnÃŃ": 6824,
      "Ġohlas": 6825,
      "Ġnadarmo": 6826,
      "Ġlau": 6827,
      "Ġjasno": 6828,
      "Å¡enÃ¡": 6829,
      "ĠslepÃ½": 6830,
      "koneÄįnÄĽ": 6831,
      "ĠblÃ½ska": 6832,
      "klu": 6833,
      "Ġvni": 6834,
      "ĠvÃŃme": 6835,
      "ĠlÃ©ka": 6836,
      "Ġchladnou": 6837,
      "ÄįkovÃ©": 6838,
      "ĠpÃ¡nbÅ¯h": 6839,
      "ĠprÃ¡zdnÃ½": 6840,
      "ĠhlubinÃ¡ch": 6841,
      "ĠdÃ½mu": 6842,
      "au": 6843,
      "Ġnasy": 6844,
      "nÄĽnÃ¡": 6845,
      "kan": 6846,
      "ĠutÄĽ": 6847,
      "ĠproklÃŃ": 6848,
      "ĠÅ¡o": 6849,
      "dÃŃk": 6850,
      "ĠpÃ¡d": 6851,
      "Ġulice": 6852,
      "aneb": 6853,
      "ÅĻiv": 6854,
      "sedÃŃ": 6855,
      "ĠhoÅĻem": 6856,
      "Ġvyhna": 6857,
      "Ġiro": 6858,
      "ĠoblÃ¡": 6859,
      "pÅĻede": 6860,
      "Ġslabo": 6861,
      "hlava": 6862,
      "vlas": 6863,
      "ĠneboÅ¥": 6864,
      "ĠmÅ¾ikem": 6865,
      "Ġov": 6866,
      "ĠbodÃ¡": 6867,
      "Ġhromo": 6868,
      "ĠdruzÃŃ": 6869,
      "ĠsvatÃ©ho": 6870,
      "lÅ¯v": 6871,
      "ĠÅ¾ÃŃzeÅĪ": 6872,
      "ĠnevidÄĽl": 6873,
      "ĠsvobodÄĽ": 6874,
      "Ġcenu": 6875,
      "nÃ¡rod": 6876,
      "ĠpoÄįÃ¡": 6877,
      "ĠneÅĻe": 6878,
      "Ġroje": 6879,
      "ĠniÅ¾": 6880,
      "nesou": 6881,
      "ĠbÃ¡l": 6882,
      "ĠÅ¡ÃŃÅĻ": 6883,
      "cÅ¯v": 6884,
      "ĠÅ¾aly": 6885,
      "Ġpoklid": 6886,
      "ĠpamÄĽÅ¥": 6887,
      "ĠvzÃŃti": 6888,
      "ice": 6889,
      "Å¡lÃŃ": 6890,
      "Å¡um": 6891,
      "Ġrol": 6892,
      "Ġleda": 6893,
      "ĠpÅĻekva": 6894,
      "ĠÅ¾ijÃŃ": 6895,
      "ĠvÄĽÄįnÃ½m": 6896,
      "cenÃ½ch": 6897,
      "Ġtemna": 6898,
      "ĠzdÃ¡nÃŃ": 6899,
      "ĠhledÃ¡m": 6900,
      "ĠdÄĽtskÃ©": 6901,
      "the": 6902,
      "vÃŃte": 6903,
      "tolik": 6904,
      "Ġrmut": 6905,
      "ĠdÄĽsnÃ©": 6906,
      "ĠmÃ¡Å¥": 6907,
      "ĠjejÃŃÅ¾": 6908,
      "jÅ¡ÃŃm": 6909,
      "ĠrybnÃŃ": 6910,
      "kladu": 6911,
      "Ġbere": 6912,
      "ĠsnÃŃt": 6913,
      "ĠchrÃ¡mÄĽ": 6914,
      "ĠdlaÅ¾": 6915,
      "ĠzÅĻeli": 6916,
      "pta": 6917,
      "ĠnedÄĽ": 6918,
      "tiv": 6919,
      "Å¥at": 6920,
      "ĠkacÃŃ": 6921,
      "ĠÄįernÃ½m": 6922,
      "Ġmrazem": 6923,
      "ĠhÅ¯l": 6924,
      "ĠkopÃŃ": 6925,
      "pÄĽla": 6926,
      "ĠmateÅĻ": 6927,
      "ĠvteÅĻi": 6928,
      "Å¥Ã¡": 6929,
      "ĠdusÃŃ": 6930,
      "ĠnÄĽhu": 6931,
      "ĠlÃŃnÄĽ": 6932,
      "vzdo": 6933,
      "ĠtrnÃŃ": 6934,
      "ĠvÅ¡emo": 6935,
      "Ġtmavou": 6936,
      "ĠznÃ¡ti": 6937,
      "ĠvleÄįe": 6938,
      "Ġnajednou": 6939,
      "ruje": 6940,
      "ĠzanÃŃ": 6941,
      "stavu": 6942,
      "Ġvoje": 6943,
      "ĠdravÃ½": 6944,
      "Ġsata": 6945,
      "ĠÅ¡koly": 6946,
      "Ġjizby": 6947,
      "Ġprince": 6948,
      "Ġdoktor": 6949,
      "zle": 6950,
      "Ġzad": 6951,
      "Ġvece": 6952,
      "ĠnÃ¡ÅĻ": 6953,
      "vedli": 6954,
      "kolenÃŃ": 6955,
      "skoÄįÃŃ": 6956,
      "Ġtragi": 6957,
      "aniÅ¾": 6958,
      "ĠdrÃ¡hu": 6959,
      "Ġzmize": 6960,
      "ĠpoÄįne": 6961,
      "Ġkapky": 6962,
      "ĠhodÃŃ": 6963,
      "vich": 6964,
      "duÅ¡i": 6965,
      "mala": 6966,
      "Ġlos": 6967,
      "ĠsnÄĽtÃŃ": 6968,
      "ĠkrvavÃ½": 6969,
      "ĠvysokÃ©": 6970,
      "Ġminulost": 6971,
      "ĠkÅĻesÅ¥a": 6972,
      "Ġnouze": 6973,
      "dvo": 6974,
      "ĠchÅĻe": 6975,
      "mund": 6976,
      "ĠvÄĽÅ¾i": 6977,
      "Ġmine": 6978,
      "Ġvlaje": 6979,
      "ĠvÃ½so": 6980,
      "stÃ¡r": 6981,
      "ĠblahÃ½": 6982,
      "Å¡enÄĽ": 6983,
      "Ġrenal": 6984,
      "ztra": 6985,
      "Ġshlu": 6986,
      "ĠmdlÃ©": 6987,
      "lom": 6988,
      "toma": 6989,
      "Ġrce": 6990,
      "vÄĽtÅĻÃŃ": 6991,
      "ĠrudÃ¡": 6992,
      "nesl": 6993,
      "ĠplaÅ¡ÃŃ": 6994,
      "Ġcitem": 6995,
      "pÅĻiÅ¡el": 6996,
      "Ġzdroje": 6997,
      "ĠokamÅ¾iku": 6998,
      "psal": 6999,
      "Ġprcha": 7000,
      "ĠpeÅĻÃŃ": 7001,
      "pej": 7002,
      "Ġvlno": 7003,
      "ĠmarnÃ½": 7004,
      "ĠvlastnÃŃch": 7005,
      "ĠnÃ¡rodÅ¯": 7006,
      "ĠÅ¡Å¥astnÃ©": 7007,
      "ĠvichÅĻice": 7008,
      "Ġsedm": 7009,
      "ĠpropastÃŃ": 7010,
      "ĠnÃ©sti": 7011,
      "zjev": 7012,
      "Ġzasy": 7013,
      "lujÃŃ": 7014,
      "pole": 7015,
      "Ġvzpou": 7016,
      "ĠvÃ½Äįi": 7017,
      "ĠjaÅĻe": 7018,
      "ĠlhÃ¡": 7019,
      "ĠbÃ¡znÄĽ": 7020,
      "ĠÅ¡irÃ©m": 7021,
      "Ġtrosky": 7022,
      "Ġslavnost": 7023,
      "ĠpevnÃ©": 7024,
      "ĠrubÃŃ": 7025,
      "stanou": 7026,
      "ĠpravÃ¡": 7027,
      "Ġsoko": 7028,
      "Ġsocha": 7029,
      "ĠÄįernÃ©m": 7030,
      "Ġvaz": 7031,
      "rozu": 7032,
      "Ġzjevil": 7033,
      "ĠtmavÃ½ch": 7034,
      "ĠzaÅ¡lÃ½ch": 7035,
      "ĠtvÅ¯rÄįÃŃ": 7036,
      "Ġopak": 7037,
      "livou": 7038,
      "ĠÅ¡leh": 7039,
      "ĠÄįechÅ¯": 7040,
      "Ġstala": 7041,
      "nesla": 7042,
      "nechci": 7043,
      "Ġheslo": 7044,
      "ĠhoupÃ¡": 7045,
      "Ġhluboko": 7046,
      "ĠsnivÃ½": 7047,
      "ĠpodzimnÃŃ": 7048,
      "Ġvezme": 7049,
      "Ġhejno": 7050,
      "ĠspoleÄįnosti": 7051,
      "ĠpamÃ¡tku": 7052,
      "ĠzÃ¡mek": 7053,
      "Ġzjas": 7054,
      "Ġzbyla": 7055,
      "ĠpoÅĻÃ¡": 7056,
      "Ġjist": 7057,
      "ĠvÄĽdomÃŃ": 7058,
      "ĠrozlÃŃ": 7059,
      "Ġihned": 7060,
      "Ġodsou": 7061,
      "ĠlÃŃtost": 7062,
      "ĠplachÃ½": 7063,
      "volna": 7064,
      "ĠjmÃ©nem": 7065,
      "ĠneznÃ¡mÃ½": 7066,
      "Ġrakvi": 7067,
      "ĠpotÄĽÅ¡enÃŃ": 7068,
      "ĠvodopÃ¡": 7069,
      "Ġsky": 7070,
      "Ġrozvl": 7071,
      "ĠÅ¾ivÃŃ": 7072,
      "bÃŃm": 7073,
      "Ġpuk": 7074,
      "ĠbÃ¡jÃŃ": 7075,
      "pÅĻijde": 7076,
      "ĠbolesÅ¥": 7077,
      "ĠzboÅ¾ÃŃ": 7078,
      "ĠnenadÃ¡nÃŃ": 7079,
      "Ġneklid": 7080,
      "Ġnachem": 7081,
      "cÃŃtÃŃm": 7082,
      "Ġhody": 7083,
      "ĠlekÃ¡": 7084,
      "ĠrozvÃ¡": 7085,
      "milost": 7086,
      "zali": 7087,
      "Ġdruhy": 7088,
      "ĠchvÄĽj": 7089,
      "ĠspÃ¡su": 7090,
      "ĠhorkÃ©": 7091,
      "ĠmyÅ¡lÃ©nek": 7092,
      "Ġceny": 7093,
      "ĠtÃ³n": 7094,
      "nskÃ©": 7095,
      "ĠtÄĽkÃ¡": 7096,
      "Ġhladu": 7097,
      "Ġodpla": 7098,
      "ĠdÃŃlu": 7099,
      "ĠÅ¡eÅĻÃŃ": 7100,
      "skot": 7101,
      "slyÅ¡ÃŃm": 7102,
      "ĠmuÅ¾em": 7103,
      "Ġsnahy": 7104,
      "lce": 7105,
      "tina": 7106,
      "Ġroku": 7107,
      "Ġmozo": 7108,
      "ĠzÃ¡slu": 7109,
      "ĠmÄĽÅĻÃŃ": 7110,
      "Ġjakoby": 7111,
      "ÅĻenÃ½m": 7112,
      "tenÃ¡": 7113,
      "ĠpukÃ¡": 7114,
      "Ġskokem": 7115,
      "Ġoblohou": 7116,
      "ĠlÅ¯no": 7117,
      "tvÃŃ": 7118,
      "Ġpoklady": 7119,
      "ĠzaÄįÃŃ": 7120,
      "Ġzahu": 7121,
      "Ġdot": 7122,
      "ĠuklÃ¡": 7123,
      "Ġsrdcy": 7124,
      "ĠÃºkry": 7125,
      "ĠstÅĻechy": 7126,
      "ĠneumÃŃ": 7127,
      "pÅĻÃŃro": 7128,
      "ĠtajemnÃ©": 7129,
      "ĠpÅĻÃŃÅ¡tÃŃch": 7130,
      "ĠnapÅĻed": 7131,
      "ĠzavÄĽ": 7132,
      "Ġrozka": 7133,
      "Ġrozbi": 7134,
      "ĠdÃ¡val": 7135,
      "âĢĻ!": 7136,
      "stejnÄĽ": 7137,
      "ĠcÃŃtit": 7138,
      "ĠpohlÃ©": 7139,
      "ĠsnÄĽti": 7140,
      "ĠkÅĻÃŃdlech": 7141,
      "*)": 7142,
      "tre": 7143,
      "uprostÅĻed": 7144,
      "nesmÃŃ": 7145,
      "ĠÅĻetÄĽz": 7146,
      "ÅĻeno": 7147,
      "ĠosvÄĽ": 7148,
      "ĠmÅ¯": 7149,
      "Ġpojednou": 7150,
      "ĠjeseÅĪ": 7151,
      "jakou": 7152,
      "lÃ©vÃ¡": 7153,
      "mÃŃru": 7154,
      "ĠstaletÃŃ": 7155,
      "ĠmÃ©nÄĽ": 7156,
      "Ġdlouze": 7157,
      "ĠÅ¡Å¥astni": 7158,
      "ĠobÄĽti": 7159,
      "Ġzdali": 7160,
      "Ġpozdvi": 7161,
      "ĠmÄĽkkÃ©": 7162,
      "ĠvzÃ¡cnÃ©": 7163,
      "hÅĻmÃŃ": 7164,
      "Ġhymnu": 7165,
      "vrd": 7166,
      "ĠposÃŃ": 7167,
      "ĠjeÅ¾ÃŃÅ¡": 7168,
      "ĠstÅ¯nÄĽ": 7169,
      "ĠvojÃŃ": 7170,
      "ĠvÅ¡echna": 7171,
      "ĠdrahÃ½ch": 7172,
      "ĠzdvÃŃ": 7173,
      "Ġstin": 7174,
      "ovi": 7175,
      "Ġzko": 7176,
      "Ġsedla": 7177,
      "Ġpohan": 7178,
      "volal": 7179,
      "danÃ©": 7180,
      "Ġtichem": 7181,
      "ĠpÅĻÃŃk": 7182,
      "ĠpÅĻÃŃtele": 7183,
      "ĠpÅĻedtu": 7184,
      "ĠdeÅ¡ti": 7185,
      "ĠdÃŃvce": 7186,
      "Ġstrun": 7187,
      "Ġhospody": 7188,
      "oba": 7189,
      "Ġjsy": 7190,
      "ari": 7191,
      "Ġpranic": 7192,
      "Ġprs": 7193,
      "ĠmnoÅ¾stvÃŃ": 7194,
      "Äįeno": 7195,
      "Ġhrdi": 7196,
      "ĠtmavÃ¡": 7197,
      "ĠdÅ¯stoj": 7198,
      "ĠlehkÃ½": 7199,
      "kvetla": 7200,
      "ĠpovÄĽst": 7201,
      "sÅ¡ÃŃ": 7202,
      "ĠvÄįe": 7203,
      "Ġsel": 7204,
      "Ġdon": 7205,
      "andÄĽl": 7206,
      "ĠmocnÃ¡": 7207,
      "ĠhvÄĽzdnÃ©": 7208,
      "Ġmladist": 7209,
      "ĠzmÃ¡men": 7210,
      "Ġvstala": 7211,
      "ĠdvakrÃ¡t": 7212,
      "rod": 7213,
      "doval": 7214,
      "jimi": 7215,
      "ĠjasnÃ½m": 7216,
      "ĠubohÃ©": 7217,
      "Ġkletby": 7218,
      "Ġdrahoka": 7219,
      "nkÅ¯": 7220,
      "Ġlen": 7221,
      "nÄĽt": 7222,
      "hospo": 7223,
      "ĠÅ¡al": 7224,
      "ĠbohÅ¯m": 7225,
      "Ġmist": 7226,
      "ĠmuÄįÃŃ": 7227,
      "ĠvÃŃnek": 7228,
      "ĠdÃ¡Å¡": 7229,
      "ĠdÃ¡lnÃ½ch": 7230,
      "Ġkup": 7231,
      "obla": 7232,
      "ĠvÄĽrnÃ¡": 7233,
      "Ġhezky": 7234,
      "ĠÄįtve": 7235,
      "ĠcÃŃrkve": 7236,
      "ĠlÅ¯Å¾ko": 7237,
      "Ġresigna": 7238,
      "ĠnahÃ¡": 7239,
      "por": 7240,
      "talo": 7241,
      "ĠroznÃŃ": 7242,
      "ĠruÅ¡ÃŃ": 7243,
      "Ġhrozi": 7244,
      "ĠfrÃ¡": 7245,
      "ĠtÃŃseÅĪ": 7246,
      "ĠbojÅ¯": 7247,
      "Ġzraje": 7248,
      "ĠmÄĽsÃŃci": 7249,
      "Ġjezera": 7250,
      "ĠÅ¾ehnÃ¡": 7251,
      "ĠptÃ¡m": 7252,
      "Ġzva": 7253,
      "ĠnelÃŃ": 7254,
      "ĠudÄĽla": 7255,
      "lÃ©mu": 7256,
      "ĠvÃ¡Å¾nÃ½": 7257,
      "Ġhroma": 7258,
      "ĠnejdraÅ¾Å¡ÃŃ": 7259,
      "Ġgro": 7260,
      "prÃ¡zd": 7261,
      "ĠnevÄĽdÄĽl": 7262,
      "Ġpohledu": 7263,
      "ĠsrÃ¡z": 7264,
      "ĠpomnÄĽ": 7265,
      "ĠvÄĽno": 7266,
      "Ġspl": 7267,
      "Ġhladi": 7268,
      "ĠsrdÃ©": 7269,
      "vzdech": 7270,
      "ĠtÃŃsni": 7271,
      "ĠspÄĽchu": 7272,
      "Ġrukama": 7273,
      "kÅĻÃŃÅ¾": 7274,
      "Ġkletba": 7275,
      "jsa": 7276,
      "ĠnaÅ¡li": 7277,
      "dolÃ¡": 7278,
      "ĠÃºsvi": 7279,
      "pajÃŃ": 7280,
      "ĠmetÃ¡": 7281,
      "prve": 7282,
      "ĠznÃ¡te": 7283,
      "ÃŃch": 7284,
      "ĠnÄĽkolik": 7285,
      "Ġsluchu": 7286,
      "Ġvraha": 7287,
      "Ġgo": 7288,
      "ĠhorÅ¡ÃŃ": 7289,
      "Ġobrazy": 7290,
      "ĠÅ¡uma": 7291,
      "ĠumÅĻel": 7292,
      "ĠslouÅ¾ÃŃ": 7293,
      "Ġblud": 7294,
      "ĠnebezpeÄįÃŃ": 7295,
      "bnou": 7296,
      "Ġvdech": 7297,
      "vaÅ¥": 7298,
      "vÃ¡nÃŃm": 7299,
      "Ġmozku": 7300,
      "Ġkohou": 7301,
      "Ġvyho": 7302,
      "Ġrozva": 7303,
      "Ġrozpa": 7304,
      "Ġniv": 7305,
      "ĠzÃ¡vod": 7306,
      "Ġtane": 7307,
      "rÅ¯v": 7308,
      "Ġstole": 7309,
      "Ġluhu": 7310,
      "ĠmnoÅ¾ÃŃ": 7311,
      "Ġmlhou": 7312,
      "Ġsadu": 7313,
      "Ġzvedne": 7314,
      "ĠÅĻasy": 7315,
      "ĠverÅ¡Å¯": 7316,
      "bnÃ¡": 7317,
      "enÃ½": 7318,
      "rodi": 7319,
      "Ġpoled": 7320,
      "skry": 7321,
      "vejte": 7322,
      "Ġhodil": 7323,
      "ĠpÅĻil": 7324,
      "ĠplÃ¡nÄĽ": 7325,
      "ĠokolÃŃ": 7326,
      "hlÃŃd": 7327,
      "Ġroucha": 7328,
      "ĠpoÅ¾ehnÃ¡": 7329,
      "kvi": 7330,
      "zil": 7331,
      "ĠpokolenÃŃ": 7332,
      "Ġjeli": 7333,
      "ĠnevrÃ¡tÃŃ": 7334,
      "cie": 7335,
      "Äįeje": 7336,
      "ĠÃºtra": 7337,
      "Ġske": 7338,
      "ĠmÃ¡ji": 7339,
      "ĠtichÃ½ch": 7340,
      "myslÃŃ": 7341,
      "Ġhloubky": 7342,
      "cÃ©": 7343,
      "pku": 7344,
      "Ġpodu": 7345,
      "ĠkolÃŃ": 7346,
      "Ġmuzi": 7347,
      "ĠpÃŃsek": 7348,
      "pravil": 7349,
      "Ġleskne": 7350,
      "Ġvesny": 7351,
      "ĠmoudrÃ½": 7352,
      "ĠtvrdÃ½": 7353,
      "ĠssÃ¡": 7354,
      "Ġzval": 7355,
      "nÃŃkem": 7356,
      "Ġbyst": 7357,
      "ĠkovÃ¡": 7358,
      "Ġvzo": 7359,
      "ĠvodÃŃ": 7360,
      "ĠmÃŃjÃŃ": 7361,
      "lidÃ©": 7362,
      "slova": 7363,
      "Ġodpor": 7364,
      "ĠzelenÃ½": 7365,
      "Ġzpola": 7366,
      "ĠtÅĻÃ¡s": 7367,
      "ĠsnoubÃŃ": 7368,
      "fÃ©": 7369,
      "vÅ¡ichni": 7370,
      "Å¾bÃ¡": 7371,
      "ĠâĢĵ:": 7372,
      "tiÅ¾": 7373,
      "Ġchalou": 7374,
      "ĠÅ¡ve": 7375,
      "ĠstÃ¡vÃ¡": 7376,
      "Ġcvr": 7377,
      "ĠdobrÃ½ch": 7378,
      "ÄįenÃ¡": 7379,
      "ĠbrÃ¡nu": 7380,
      "ĠslavnÃ½ch": 7381,
      "ĠnovÃ©ho": 7382,
      "ckÃ©ho": 7383,
      "hrÃ¡l": 7384,
      "ĠneznÃ¡mÃ©": 7385,
      "ĠnevdÄĽ": 7386,
      "ĠÅĪÃ¡dra": 7387,
      "skat": 7388,
      "Ġzaha": 7389,
      "stanu": 7390,
      "ĠdÃŃvat": 7391,
      "rii": 7392,
      "plÃ¡Äį": 7393,
      "ĠvzÃ¡cnÃ½": 7394,
      "vesele": 7395,
      "ĠtisÃŃci": 7396,
      "Ã¡jem": 7397,
      "Ġvlek": 7398,
      "jejich": 7399,
      "ĠzaÅ¡ep": 7400,
      "Ġbor": 7401,
      "ĠbÃŃdnÃ©": 7402,
      "ĠvÃ½smÄĽ": 7403,
      "ĠbÄĽlÃ¡": 7404,
      "ĠkrajÅ¯": 7405,
      "neznÃ¡m": 7406,
      "ĠpsanÃŃ": 7407,
      "Ã½t": 7408,
      "vami": 7409,
      "ĠzÃ¡pal": 7410,
      "ĠzemÅĻel": 7411,
      "ĠkleÄįÃŃ": 7412,
      "ĠlaÅĪ": 7413,
      "ÅĻemen": 7414,
      "Ġnebla": 7415,
      "lechti": 7416,
      "Ġtrav": 7417,
      "chvÃŃvÃ¡": 7418,
      "Äįinou": 7419,
      "ĠnÄĽhou": 7420,
      "ĠsÃŃmÄĽ": 7421,
      "Ġfu": 7422,
      "ĠzÃŃral": 7423,
      "ĠulicÃŃch": 7424,
      "fin": 7425,
      "ĠvzÃŃt": 7426,
      "Ġbiskup": 7427,
      "bas": 7428,
      "chni": 7429,
      "ĠÅ¾iÅ¾ka": 7430,
      "ĠdÄĽvu": 7431,
      "ĠnÃŃtÃŃ": 7432,
      "ĠptÃ¡ky": 7433,
      "ĠÄįÃŃst": 7434,
      "skoÄįil": 7435,
      "Ġodevz": 7436,
      "Ġknize": 7437,
      "ĠstÅĻÃŃbrem": 7438,
      "koliv": 7439,
      "ĠzkamenÄĽ": 7440,
      "ĠÄįtvrt": 7441,
      "ckÃ©m": 7442,
      "Ġshr": 7443,
      "posud": 7444,
      "vina": 7445,
      "Ġfo": 7446,
      "ĠstarÃ½m": 7447,
      "ĠzdÃ¡la": 7448,
      "ĠklidnÃ©": 7449,
      "Å¾Ã¡dnÃ½": 7450,
      "ĠveselÃŃ": 7451,
      "ĠteplÃ©": 7452,
      "ĠdrobnÃ½ch": 7453,
      "Ġlampa": 7454,
      "fer": 7455,
      "ĠnevÃ¡": 7456,
      "vatu": 7457,
      "polÃŃ": 7458,
      "Ġche": 7459,
      "ĠvÄĽdÄĽt": 7460,
      "Ġvyjde": 7461,
      "Ġlije": 7462,
      "Ġlide": 7463,
      "ĠmÃ¡je": 7464,
      "zÃŃm": 7465,
      "ĠpÃ¡du": 7466,
      "rÃ©ho": 7467,
      "pÃ¡ch": 7468,
      "Ġspor": 7469,
      "ĠbrÃ¡na": 7470,
      "Ġpolibek": 7471,
      "ĠstÄĽÅ¾ÃŃ": 7472,
      "Ġvezdy": 7473,
      "ĠdÄĽlat": 7474,
      "ĠvzrÅ¯stÃ¡": 7475,
      "nÄįÃŃ": 7476,
      "vrou": 7477,
      "eme": 7478,
      "polo": 7479,
      "tovat": 7480,
      "Ġsluha": 7481,
      "ĠprÃ¡vem": 7482,
      "ĠtemnÃ¡": 7483,
      "ĠjemnÃ©": 7484,
      "ĠÅ¾havÃ¡": 7485,
      "ĠmyÅ¡lenka": 7486,
      "zÅĻÃŃt": 7487,
      "ĠkvÃ©st": 7488,
      "pam": 7489,
      "Ġjdem": 7490,
      "host": 7491,
      "Ġzatra": 7492,
      "dÃ¡t": 7493,
      "ĠtiÅ¡i": 7494,
      "ĠmÃŃÅĻÃŃ": 7495,
      "ĠdÅĻÃŃme": 7496,
      "Ġvolnosti": 7497,
      "Ġzbroj": 7498,
      "ĠotevÅĻel": 7499,
      "Ġpevnou": 7500,
      "ĠvzdÃ¡len": 7501,
      "ĠsluneÄįnÃŃ": 7502,
      "Ġloktech": 7503,
      "blÃ½": 7504,
      "ok": 7505,
      "stÅ¯j": 7506,
      "Ġdoly": 7507,
      "Ġrozez": 7508,
      "Ġobry": 7509,
      "Ġstarci": 7510,
      "ĠpustÃ¡": 7511,
      "Ġbet": 7512,
      "ĠvlÃ¡dce": 7513,
      "ĠstÅĻela": 7514,
      "poslou": 7515,
      "Ġozdob": 7516,
      "mluvil": 7517,
      "ĠvlÃŃdnÃ½": 7518,
      "ĠmyÅ¡lÃ©nka": 7519,
      "ĠokamÅ¾enÃŃ": 7520,
      "ĠumÃŃrÃ¡nÃŃ": 7521,
      "zli": 7522,
      "Ġzpi": 7523,
      "Ġmam": 7524,
      "ĠstkvÃŃ": 7525,
      "vajÃŃcÃŃ": 7526,
      "ĠkaÅ¡": 7527,
      "Å¾eni": 7528,
      "Å¡enÃ½ch": 7529,
      "vrh": 7530,
      "ĠobÄĽtÃŃ": 7531,
      "Ġrozply": 7532,
      "smutnÄĽ": 7533,
      "Ġfanta": 7534,
      "osud": 7535,
      "ÅĻÃŃti": 7536,
      "jistÃ©": 7537,
      "ĠÅ¡erÃ½": 7538,
      "ĠsvÄĽÅ¾e": 7539,
      "Ġchudo": 7540,
      "Ġzloby": 7541,
      "Ġstup": 7542,
      "ĠdivokÃ©": 7543,
      "ĠkvÄĽte": 7544,
      "ĠmrÃ¡ko": 7545,
      "ĠkvÃ©sti": 7546,
      "ĠkÅĻ": 7547,
      "ĠnabÃŃ": 7548,
      "valu": 7549,
      "jezd": 7550,
      "ĠhoroucÃŃ": 7551,
      "Ġrozkaz": 7552,
      "Ġrudou": 7553,
      "ĠdÄĽd": 7554,
      "ĠskÅĻe": 7555,
      "ĠvidÄĽla": 7556,
      "bilo": 7557,
      "ĠpodveÄįer": 7558,
      "Ġdivem": 7559,
      "rozenÃŃ": 7560,
      "ĠdlouhÃ½m": 7561,
      "vedle": 7562,
      "Ġmrakem": 7563,
      "ĠvolÃ¡m": 7564,
      "Ġtrap": 7565,
      "Ġdarem": 7566,
      "tl": 7567,
      "Ġvno": 7568,
      "rok": 7569,
      "nam": 7570,
      "tati": 7571,
      "Ġlest": 7572,
      "Ġrtoma": 7573,
      "ĠpaÅ¾e": 7574,
      "hledÃ¡": 7575,
      "ĠsuchÃ©": 7576,
      "keÅĻ": 7577,
      "ĠpohÃ¡dka": 7578,
      "ĠnevÃ½slov": 7579,
      "Ġtka": 7580,
      "ĠopÃŃ": 7581,
      "Ġada": 7582,
      "ĠzaÅ¡el": 7583,
      "Ġmozek": 7584,
      "lÃ©tla": 7585,
      "Ġjala": 7586,
      "Ġlada": 7587,
      "Ġhude": 7588,
      "hneÅ¡": 7589,
      "ĠjasnÃ½ch": 7590,
      "ĠtÃ¡hla": 7591,
      "Ġpaty": 7592,
      "gie": 7593,
      "ĠjakÃ©s": 7594,
      "ĠmraÄįno": 7595,
      "ĠpestrÃ½": 7596,
      "ĠchraÅĪ": 7597,
      "Ġsboru": 7598,
      "Ġposu": 7599,
      "jetÃŃ": 7600,
      "Ġuho": 7601,
      "ĠuchvÃ¡": 7602,
      "ĠvÄĽÅĻil": 7603,
      "ĠtulÃŃ": 7604,
      "Ġtahy": 7605,
      "ĠdobÃ¡ch": 7606,
      "Ġstrast": 7607,
      "ĠmodrÃ¡": 7608,
      "Ġzlomen": 7609,
      "ĠznaÄįÃŃ": 7610,
      "jmen": 7611,
      "Ġses": 7612,
      "pomo": 7613,
      "Ġrodnou": 7614,
      "rych": 7615,
      "Ġhromy": 7616,
      "ĠbÄĽl": 7617,
      "ĠkeÅĻi": 7618,
      "kles": 7619,
      "Ġtrudu": 7620,
      "ĠpÃ½chou": 7621,
      "ĠkolÃ©bky": 7622,
      "vstaÅĪ": 7623,
      "ĠpoprvÃ©": 7624,
      "ĠhlasnÄĽ": 7625,
      "Ġdivou": 7626,
      "ĠprÃ¡vu": 7627,
      "Ġsynem": 7628,
      "ĠskvÄĽlÃ½": 7629,
      "ĠstvoÅĻil": 7630,
      "Å¡kÃ¡": 7631,
      "Ġdoli": 7632,
      "ĠÅ¾ivou": 7633,
      "ĠzÃ¡Å¡Å¥": 7634,
      "ĠdÃŃm": 7635,
      "ĠsilnÃ©": 7636,
      "dnÃŃk": 7637,
      ".âĢĺ": 7638,
      "jinak": 7639,
      "dÃŃval": 7640,
      "Ġnos": 7641,
      "ĠrumÄĽ": 7642,
      "pÄĽtÃŃ": 7643,
      "rÅ¯Å¾o": 7644,
      "pÅĻece": 7645,
      "ĠsÃŃtÃŃ": 7646,
      "Ġtemnu": 7647,
      "ĠÅĻekli": 7648,
      "Ġsloupy": 7649,
      "ĠzrÃ¡dce": 7650,
      "Ġkoruny": 7651,
      "Ġpovstal": 7652,
      "Ġbil": 7653,
      "Ġhodina": 7654,
      "Ġvadne": 7655,
      "ĠpohnutÃŃ": 7656,
      "Ġmrav": 7657,
      "ĠdÃ¡vnÃ½": 7658,
      "ĠoblakÅ¯": 7659,
      "ĠzÅ¯stane": 7660,
      "Ġfial": 7661,
      "Ġobec": 7662,
      "Ġpolibky": 7663,
      "ĠcÃŃrkev": 7664,
      "'s": 7665,
      "Ġshni": 7666,
      "Ġsmilo": 7667,
      "Ġjedovat": 7668,
      "Ġused": 7669,
      "Å¥al": 7670,
      "ĠprochÃ¡": 7671,
      "ĠvysÃŃ": 7672,
      "Ġbur": 7673,
      "ĠsloÅ¾il": 7674,
      "ĠnejlepÅ¡ÃŃ": 7675,
      "Ġbranou": 7676,
      "ĠstraÅ¡nÃ½": 7677,
      "Ġhanu": 7678,
      "Ġtajemnou": 7679,
      "ĠtÅĻÃŃÅ¡tÃŃ": 7680,
      "ĠhlÃŃdÃ¡": 7681,
      "samo": 7682,
      "ĠpalÃ¡c": 7683,
      "dÅĻi": 7684,
      "ĠvchÃ¡zÃŃ": 7685,
      "Ġhl": 7686,
      "ĠdotÃ½": 7687,
      "Ġduje": 7688,
      "ĠrozvÃŃ": 7689,
      "Ġrozpu": 7690,
      "ĠvÃŃÅĻe": 7691,
      "ĠâĢŀâĢŀ": 7692,
      "ĠplnÃ©m": 7693,
      "ĠkvÃŃtÃŃm": 7694,
      "ĠspÃŃnÃ¡": 7695,
      "Ġstesku": 7696,
      "Ġdivoce": 7697,
      "vle": 7698,
      "ĠnÅ¯Å¾": 7699,
      "nelze": 7700,
      "Ġumu": 7701,
      "âĢĻ;": 7702,
      "Ġprachem": 7703,
      "ĠstraÅ¡nÃ©": 7704,
      "Ġreka": 7705,
      "ĠznamenÃ¡": 7706,
      "ĠosvÄĽt": 7707,
      "Ġlehko": 7708,
      "ĠvdÄĽÄįnÄĽ": 7709,
      "Ġkniha": 7710,
      "ĠpÃ½chu": 7711,
      "Ġvrchol": 7712,
      "skÅĻi": 7713,
      "ĠkoÅĻÃŃ": 7714,
      "Ġrtem": 7715,
      "Å¡ilo": 7716,
      "ĠÃºdÄĽl": 7717,
      "Ġpustil": 7718,
      "Ġzim": 7719,
      "hel": 7720,
      "ĠdivokÃ½": 7721,
      "ĠbujnÃ½": 7722,
      "Ġchvatem": 7723,
      "ĠklÃ¡Å¡ter": 7724,
      "Ġholubice": 7725,
      "snÃ©m": 7726,
      "Ġdovo": 7727,
      "ĠvzlÃ©t": 7728,
      "milejÅ¡ÃŃ": 7729,
      "Ġodve": 7730,
      "pÃŃÅ¡": 7731,
      "Ġslab": 7732,
      "Ġflo": 7733,
      "ĠmedvÄĽ": 7734,
      "ĠÅ¡tÄĽd": 7735,
      "Ġsmutkem": 7736,
      "ĠnÃ¡rody": 7737,
      "ĠdÃ¡lek": 7738,
      "Ġzakry": 7739,
      "ctvo": 7740,
      "ĠÅĻadÄĽ": 7741,
      "ĠnÃ©st": 7742,
      "Ġsmo": 7743,
      "vÄĽÄįnÄĽ": 7744,
      "pozdra": 7745,
      "nuje": 7746,
      "ĠvyÄįÃŃ": 7747,
      "ĠpÅĻÃŃsnÃ½": 7748,
      "ĠoÄįÃŃm": 7749,
      "ĠkrutÄĽ": 7750,
      "ĠvÅĻelÃ©": 7751,
      "ĠdrÃ¡Å¾": 7752,
      "Ġlebky": 7753,
      "Ġsever": 7754,
      "ĠmlÃ¡deÅ¾": 7755,
      "psa": 7756,
      "lon": 7757,
      "vÃŃme": 7758,
      "nÃ¡c": 7759,
      "dovi": 7760,
      "taje": 7761,
      "Ġvzhled": 7762,
      "ĠtrÄįÃŃ": 7763,
      "Å¡ena": 7764,
      "zÃ¡ÅĻÃŃ": 7765,
      "ĠzlobÄĽ": 7766,
      "Ġzvukem": 7767,
      "Ġvezmi": 7768,
      "chÃ¡zejÃŃ": 7769,
      "Ġrozumu": 7770,
      "for": 7771,
      "Ã½val": 7772,
      "Ġpavou": 7773,
      "Ġhrady": 7774,
      "Ġkousek": 7775,
      "ĠmnozÃŃ": 7776,
      "ĠsnÄĽho": 7777,
      "Ġgene": 7778,
      "Ġmrtvou": 7779,
      "Ġnepohnu": 7780,
      "ĠhrÃ¡la": 7781,
      "Ġbledne": 7782,
      "ĠboÅ¾skÃ½": 7783,
      "chej": 7784,
      "jet": 7785,
      "Ġuhas": 7786,
      "Å¾eli": 7787,
      "ĠnocÃŃch": 7788,
      "Ġkalu": 7789,
      "Ġstavu": 7790,
      "ĠstarÅ¡ÃŃ": 7791,
      "ĠhÅĻÃŃchem": 7792,
      "ĠsuchÃ½": 7793,
      "ĠhvÄĽzdnÃ½": 7794,
      "ĠhoÅĻce": 7795,
      "ĠvÄĽÅĻte": 7796,
      "hlÃ½ch": 7797,
      "ncem": 7798,
      "Ġjedu": 7799,
      "ĠnachÃ½": 7800,
      "Å¡eti": 7801,
      "Ġtone": 7802,
      "Ġvesni": 7803,
      "Ġprosil": 7804,
      "Ġledu": 7805,
      "Ġduma": 7806,
      "ĠvÃŃla": 7807,
      "pÄĽv": 7808,
      "Ġnemu": 7809,
      "ĠslÃ¡b": 7810,
      "Ġsteskem": 7811,
      "Äįata": 7812,
      "ĠskalnÃŃ": 7813,
      "ĠpotkÃ¡": 7814,
      "ĠzaÄįne": 7815,
      "snÅ¯": 7816,
      "ĠseÅ¡": 7817,
      "rati": 7818,
      "Ġobi": 7819,
      "ĠdÄĽlo": 7820,
      "ĠÃºko": 7821,
      "nemÃ¡": 7822,
      "ĠmaÄıar": 7823,
      "ĠpouhÃ¡": 7824,
      "Ġcizo": 7825,
      "hlaho": 7826,
      "ĠvÅ¯lÃŃ": 7827,
      "Ġsouzvuk": 7828,
      "ĠmodrÃ½m": 7829,
      "Ġkrov": 7830,
      "ĠtÃ¡bor": 7831,
      "ĠspÄĽchal": 7832,
      "Ġsady": 7833,
      "Ġhel": 7834,
      "Ġzik": 7835,
      "Ġhousle": 7836,
      "penÃ©": 7837,
      "Ġchalu": 7838,
      "Ġzvyku": 7839,
      "Ġstatky": 7840,
      "ĠveÄįeru": 7841,
      "Ġlilie": 7842,
      "ĠandÄĽlÃ©": 7843,
      "Ġvelkole": 7844,
      "vskÃ©": 7845,
      "ĠvÄįely": 7846,
      "Ġmih": 7847,
      "ĠniÄįem": 7848,
      "ĠÅ¾ivÃ½ch": 7849,
      "buj": 7850,
      "Å¾ije": 7851,
      "ĠdÃŃtek": 7852,
      "Ġhrot": 7853,
      "ĠdobrÃ½m": 7854,
      "ĠhrÅ¯ze": 7855,
      "Ġskryl": 7856,
      "ĠnemÃ¡Å¡": 7857,
      "ĠhÅ¯ry": 7858,
      "bce": 7859,
      "trou": 7860,
      "tnÃ½m": 7861,
      "vnou": 7862,
      "Ġzrozen": 7863,
      "Ġpohla": 7864,
      "Ġboky": 7865,
      "zet": 7866,
      "Ġpadlo": 7867,
      "ĠkrÃ¡snÄĽjÅ¡ÃŃ": 7868,
      "pÄĽnÃŃ": 7869,
      "ĠdÃŃvÃ¡m": 7870,
      "ĠÅĻeku": 7871,
      "chan": 7872,
      "brzy": 7873,
      "spat": 7874,
      "tlou": 7875,
      "ĠnavrÃ¡": 7876,
      "skak": 7877,
      "pokud": 7878,
      "ton": 7879,
      "Ġjih": 7880,
      "Ġhocha": 7881,
      "Ġkovo": 7882,
      "mus": 7883,
      "dan": 7884,
      "budem": 7885,
      "lÃ½vÃ¡": 7886,
      "ĠvÃ¡hÃ¡": 7887,
      "douc": 7888,
      "ĠlÃŃbat": 7889,
      "Ġstanu": 7890,
      "pel": 7891,
      "jemu": 7892,
      "veno": 7893,
      "Ġsamy": 7894,
      "ĠblÃŃzku": 7895,
      "ĠÅ¾ÃŃznÃŃ": 7896,
      "Ġneur": 7897,
      "ĠozÃ½vÃ¡": 7898,
      "ĠdÃ¡me": 7899,
      "lÃ¡skou": 7900,
      "Ġzavz": 7901,
      "ĠustÃ¡nÃŃ": 7902,
      "ĠveÅĻe": 7903,
      "lÃ©pe": 7904,
      "odpusÅ¥": 7905,
      "ĠkÅĻiku": 7906,
      "budeÅ¡": 7907,
      "zlatÃ©": 7908,
      "Ġzmije": 7909,
      "ĠstÅĻÃŃbrnÃ©": 7910,
      "sladÅ¡ÃŃ": 7911,
      "ĠpsÃ¡no": 7912,
      "Ġthe": 7913,
      "Ġokouz": 7914,
      "ruÅ¡ÃŃ": 7915,
      "Ġlep": 7916,
      "ĠÅ¡kÅ¯": 7917,
      "aty": 7918,
      "bur": 7919,
      "pÄĽk": 7920,
      "paly": 7921,
      "Å¾ene": 7922,
      "ĠÄįlovÄĽÄįen": 7923,
      "ĠÅ¡ÃŃj": 7924,
      "padl": 7925,
      "Ġmrazi": 7926,
      "Ġskryt": 7927,
      "myslÃŃm": 7928,
      "ÄįÃ¡tko": 7929,
      "ĠpÃ½chy": 7930,
      "ĠpÃ©ro": 7931,
      "ĠdokonÃ¡": 7932,
      "ĠmlÃ½n": 7933,
      "ĠsbÃŃrÃ¡": 7934,
      "Ġoli": 7935,
      "Ġprale": 7936,
      "syl": 7937,
      "Ġjsouc": 7938,
      "ĠchorÃ©": 7939,
      "Ġoknech": 7940,
      "Å¡umÃŃ": 7941,
      "Ġhloupo": 7942,
      "starÃ©": 7943,
      "cejÃŃ": 7944,
      "vÃŃtr": 7945,
      "Ġuvi": 7946,
      "ĠprostÄĽ": 7947,
      "Äįkami": 7948,
      "ĠptÃ¡Äįek": 7949,
      "ĠveselÃ½": 7950,
      "Ġoblaka": 7951,
      "ĠvÅĻele": 7952,
      "Ġsnila": 7953,
      "Ġvichrem": 7954,
      "bÅĻeÅ¾ÃŃ": 7955,
      "bÅĻÃŃ": 7956,
      "ĠlÃ½": 7957,
      "naslou": 7958,
      "ĠpÅĻeje": 7959,
      "ĠÅ¾eÅĪ": 7960,
      "ĠtakovÃ©": 7961,
      "ĠrudÃ½ch": 7962,
      "Ġvozy": 7963,
      "rÅ¯stÃ¡": 7964,
      "Äįenou": 7965,
      "slz": 7966,
      "ĠkrÃ¡lovna": 7967,
      "ĠmÄĽkkÃ¡": 7968,
      "ĠhloÅ¾ÃŃ": 7969,
      "ĠpalÃ¡ce": 7970,
      "skÅ¯": 7971,
      "hon": 7972,
      "Ġchar": 7973,
      "ĠbÃ¡seÅĪ": 7974,
      "ĠmarnÃ¡": 7975,
      "Ġsamoty": 7976,
      "Ġkriste": 7977,
      "ĠtluÄįe": 7978,
      "Ġblouzni": 7979,
      "ĠblÃ¡ho": 7980,
      "ĠstejnÃ©": 7981,
      "ĠpoÅ¾ehna": 7982,
      "Å¡koda": 7983,
      "ĠjitÅĻnÃŃ": 7984,
      "Ġrcete": 7985,
      "dlu": 7986,
      "ĠdÅ¾bÃ¡": 7987,
      "ĠnajdeÅ¡": 7988,
      "vÃ¡na": 7989,
      "ĠholÃ¡": 7990,
      "Ġlip": 7991,
      "Ġsple": 7992,
      "ĠpÅĻedkÅ¯": 7993,
      "ĠtÃŃÅ¾e": 7994,
      "ĠokÅĻÃŃ": 7995,
      "ĠhvÄĽzdu": 7996,
      "ĠusmÃ¡l": 7997,
      "ĠbudoucÃŃ": 7998,
      "ĠjednotvÃ¡": 7999,
      "Ġtravou": 8000,
      "Ġklesne": 8001,
      "ĠnekoneÄįnÃ©": 8002,
      "ĠnenÃ¡vist": 8003,
      "puÅ¡tÄĽnÃŃ": 8004,
      "bku": 8005,
      "nÄĽjÃŃ": 8006,
      "ĠrojÃŃ": 8007,
      "ĠvÄĽzenÃŃ": 8008,
      "Ġpadal": 8009,
      "biti": 8010,
      "Ġdalo": 8011,
      "podle": 8012,
      "ĠchutÃŃ": 8013,
      "Ġstudu": 8014,
      "svÄĽtlo": 8015,
      "ĠstÄĽn": 8016,
      "ĠmoudÅĻe": 8017,
      "ĠzaÅ¡lÃ©": 8018,
      "sama": 8019,
      "ĠnahÃ©": 8020,
      "tavÃ½": 8021,
      "ĠvzÅĪat": 8022,
      "Ġduhu": 8023,
      "Ġnico": 8024,
      "Ġpape": 8025,
      "zaÄį": 8026,
      "ĠoblÃ©": 8027,
      "sily": 8028,
      "ĠvlaÅ¡to": 8029,
      "ĠchladnÃ¡": 8030,
      "zeno": 8031,
      "slunÃŃ": 8032,
      "ĠvÃŃtÄĽzÃŃ": 8033,
      "ĠzvÄĽsti": 8034,
      "Ġchladu": 8035,
      "ĠblaÅ¾enosti": 8036,
      "Ġdoubra": 8037,
      "chraÅĪ": 8038,
      "ĠpÅĻÃ¡telstvÃŃ": 8039,
      "ĠbÅĻit": 8040,
      "ĠostÅĻÃŃ": 8041,
      "ĠâĢĵ!": 8042,
      "ĠzalÃŃ": 8043,
      "coval": 8044,
      "ĠÅ¡t": 8045,
      "ĠÅ¡pÃŃ": 8046,
      "bohu": 8047,
      "ĠkabÃ¡": 8048,
      "ĠsÃŃnÃŃ": 8049,
      "ĠjejichÅ¾": 8050,
      "zemi": 8051,
      "Ġkruhy": 8052,
      "ĠbrÃ¡t": 8053,
      "ĠpÅĻemÃŃ": 8054,
      "hruÄı": 8055,
      "ĠzasmuÅ¡il": 8056,
      "krÃ½vÃ¡": 8057,
      "vÅ¡ÃŃm": 8058,
      "vody": 8059,
      "dÄĽnÃ©": 8060,
      "Ġhostem": 8061,
      "Ġvzcho": 8062,
      "ĠdÄĽji": 8063,
      "Ġpravila": 8064,
      "Ġskou": 8065,
      "skÃ¡ch": 8066,
      "Ġvrh": 8067,
      "ĠkrutÃ¡": 8068,
      "Ġplamenem": 8069,
      "ĠÅ¡tÃŃty": 8070,
      "ĠzuÅĻi": 8071,
      "ĠnaÅ¡im": 8072,
      "dlÃ½ch": 8073,
      "nkÃ½": 8074,
      "che": 8075,
      "Å¡edi": 8076,
      "mÄĽsÃŃc": 8077,
      "mÃ¡Å¾": 8078,
      "ĠpoznÃ¡nÃŃ": 8079,
      "Ġrakve": 8080,
      "ĠdeÅ¡tÄĽm": 8081,
      "inu": 8082,
      "Ġjesky": 8083,
      "Ġnesk": 8084,
      "Ġvej": 8085,
      "ĠpromÄĽnÃŃ": 8086,
      "dami": 8087,
      "ĠÅ¡kol": 8088,
      "ĠÄįekat": 8089,
      "pati": 8090,
      "res": 8091,
      "Ġpodal": 8092,
      "ĠzasvÄĽ": 8093,
      "ĠmocnÃ½m": 8094,
      "ĠdÃŃvko": 8095,
      "benÃ©": 8096,
      "ĠdÄĽtskÃ½": 8097,
      "ĠhÅĻeje": 8098,
      "ĠhlÃŃny": 8099,
      "ĠvzdechÅ¯": 8100,
      "ĠknÄĽÅ¾na": 8101,
      "tvÃ½m": 8102,
      "ÃŃnÃ¡": 8103,
      "Ġsestro": 8104,
      "Ġohla": 8105,
      "ĠnedÄĽli": 8106,
      "nechaÅ¥": 8107,
      "nÄĽji": 8108,
      "Ġleje": 8109,
      "ĠvztÃ¡": 8110,
      "ĠvztÃ½": 8111,
      "ĠÃºbÄĽ": 8112,
      "Ġkapi": 8113,
      "Ġtanec": 8114,
      "ĠhledÄĽt": 8115,
      "ĠlukÃ¡ch": 8116,
      "Ġstromech": 8117,
      "Ġkama": 8118,
      "ĠstÅĻely": 8119,
      "Ġpruh": 8120,
      "ĠpÄĽknÃ½": 8121,
      "ÅĻekl": 8122,
      "Ġdomova": 8123,
      "ĠsmyslÅ¯": 8124,
      "ĠjdÄĽte": 8125,
      "ĠmnÃŃ": 8126,
      "rodil": 8127,
      "vÃ¡l": 8128,
      "vÃ¡no": 8129,
      "nÃ¡ÅĻ": 8130,
      "Ġprob": 8131,
      "Ġhonem": 8132,
      "Ġtakou": 8133,
      "ĠhroznÄĽ": 8134,
      "ĠmaliÄį": 8135,
      "ĠsnÄĽhy": 8136,
      "abys": 8137,
      "ĠdÅ¯kaz": 8138,
      "ĠbludnÃ©": 8139,
      "blaho": 8140,
      "ĠbohynÄĽ": 8141,
      "Ġfrancou": 8142,
      "ĠÅ¡klebÃŃ": 8143,
      "ĠsvatebnÃŃ": 8144,
      "snu": 8145,
      "ĠslÃ©t": 8146,
      "Ġshro": 8147,
      "Ġpso": 8148,
      "lidu": 8149,
      "ĠzapÃ¡": 8150,
      "....": 8151,
      "Äįech": 8152,
      "ĠdÃŃvek": 8153,
      "ĠdajÃŃ": 8154,
      "ĠÄįÃŃhÃ¡": 8155,
      "ĠjemnÃ½": 8156,
      "Ġslunka": 8157,
      "Ġkvas": 8158,
      "ĠobrÃ¡til": 8159,
      "Ġosudem": 8160,
      "znÃ©": 8161,
      "Å¾nÃ½m": 8162,
      "rag": 8163,
      "Ġpose": 8164,
      "vÃ©mu": 8165,
      "Ġprokla": 8166,
      "danou": 8167,
      "moÅĻe": 8168,
      "hÃ¡Äį": 8169,
      "Ġdivu": 8170,
      "ĠsvojÃŃm": 8171,
      "ĠÄįisto": 8172,
      "hlav": 8173,
      "Ġnepozna": 8174,
      "Å¡uje": 8175,
      "ĠsterÃ©": 8176,
      "ĠodeÅ¡el": 8177,
      "ĠdÄĽtmi": 8178,
      "ĠdÄĽtskÃ½ch": 8179,
      "dÅĻÃŃve": 8180,
      "ĠkoÅĻeny": 8181,
      "ĠspanilÃ¡": 8182,
      "ĠtkvÃŃ": 8183,
      "ĠmstÃŃ": 8184,
      "Ġdmou": 8185,
      "nebylo": 8186,
      "naje": 8187,
      "Ġzava": 8188,
      "vzÃ¡c": 8189,
      "prach": 8190,
      "Ġmyslit": 8191,
      "Ġmrtva": 8192,
      "ĠhvÄĽzdo": 8193,
      "Ġpochod": 8194,
      "ĠplachÃ©": 8195,
      "bru": 8196,
      "voru": 8197,
      "ĠbystÅĻi": 8198,
      "ĠdÃŃtko": 8199,
      "Ġzaslech": 8200,
      "ĠÅĻÃŃc": 8201,
      "ĠÅĻÃŃd": 8202,
      "Ġmeze": 8203,
      "Ġlov": 8204,
      "ĠmilÃ½m": 8205,
      "ĠstÅĻechu": 8206,
      "ĠpÅĻÃŃrodÄĽ": 8207,
      "Ġoblohy": 8208,
      "vlastnÃŃ": 8209,
      "ĠhedbÃ¡": 8210,
      "ovÅ¡em": 8211,
      "ĠdlÃ¡": 8212,
      "Ġzaho": 8213,
      "Ġprose": 8214,
      "kÃ¡Å¾e": 8215,
      "majÃŃ": 8216,
      "ĠcenÃŃ": 8217,
      "ĠpÅĻedsta": 8218,
      "nechce": 8219,
      "ĠkÅĻikem": 8220,
      "Ġchmury": 8221,
      "ĠvÅĻava": 8222,
      "ĠvojÃ¡k": 8223,
      "ĠpastÃ½ÅĻ": 8224,
      "drob": 8225,
      "klou": 8226,
      "sno": 8227,
      "Ġosl": 8228,
      "loÅ¾il": 8229,
      "ĠzaÅ¡la": 8230,
      "ĠzamyÅ¡len": 8231,
      "tostÃŃ": 8232,
      "ĠbolÅ¯": 8233,
      "Ġskvo": 8234,
      "Ġkara": 8235,
      "Ġrab": 8236,
      "ĠpodlÃ©": 8237,
      "Ġpoupat": 8238,
      "ĠbÃ¡zeÅĪ": 8239,
      "ĠtrpÄĽl": 8240,
      "ÄįenÃ½ch": 8241,
      "ĠhrÅ¯zu": 8242,
      "ĠstÅĻÃŃbrnÃ½": 8243,
      "ĠzrÃ¡d": 8244,
      "ĠubohÃ½": 8245,
      "ĠtuÅ¾by": 8246,
      "hez": 8247,
      "vze": 8248,
      "ĠsbÄĽ": 8249,
      "Ġschy": 8250,
      "Ġzpra": 8251,
      "ĠpÅĻeko": 8252,
      "ĠkrÃ¡lo": 8253,
      "Ġkusy": 8254,
      "Ġhranice": 8255,
      "tomil": 8256,
      "spÄĽl": 8257,
      "Ġkameny": 8258,
      "ĠÄıÃ¡b": 8259,
      "ĠkvÄĽtin": 8260,
      "ĠluznÃ©": 8261,
      "ĠpustÃ½ch": 8262,
      "Ġklobouk": 8263,
      "jmÃ©": 8264,
      "Ġpola": 8265,
      "Ġchasa": 8266,
      "Ġprokop": 8267,
      "mÄĽst": 8268,
      "ĠtuÅ¡il": 8269,
      "Ġtaji": 8270,
      "mÃ¡Å¥": 8271,
      "zdr": 8272,
      "Ġpustou": 8273,
      "Ġkoutku": 8274,
      "Ġdivnou": 8275,
      "ĠnevÄĽÅĻÃŃ": 8276,
      "Ġdvora": 8277,
      "Ġhynou": 8278,
      "Ġotrok": 8279,
      "ĠzbabÄĽ": 8280,
      "ĠtÃ©mÄĽÅĻ": 8281,
      "ĠnÄĽmec": 8282,
      "jdeme": 8283,
      "Ġkvil": 8284,
      "ĠbdÄĽ": 8285,
      "nÄĽnÃ½ch": 8286,
      "vÄĽla": 8287,
      "ĠuvÃ¡": 8288,
      "Ġuvad": 8289,
      "tÄĽlo": 8290,
      "ĠvÄĽsÃŃ": 8291,
      "Äįist": 8292,
      "silo": 8293,
      "ĠÅĻekou": 8294,
      "ĠvelkÃ©m": 8295,
      "ĠtrvÃ¡": 8296,
      "ĠvrÃ¡tit": 8297,
      "ĠzÅĻÃŃdka": 8298,
      "kvetou": 8299,
      "ĠvzplÃ¡l": 8300,
      "Ġvstoupil": 8301,
      "Ġtriumf": 8302,
      "Ġsoucitu": 8303,
      "nskÃ½": 8304,
      "ÅĻeli": 8305,
      "Ġzadr": 8306,
      "Ġzamra": 8307,
      "posta": 8308,
      "topÃ½": 8309,
      "veÄįe": 8310,
      "Ġmistra": 8311,
      "Ġhlase": 8312,
      "stesk": 8313,
      "ĠÅ¡edou": 8314,
      "ĠstÃ¡lÃ½": 8315,
      "ĠrÅ¯Å¾emi": 8316,
      "Ġlupen": 8317,
      "zujÃŃ": 8318,
      "ĠspÃ¡sa": 8319,
      "vnÄĽjÅ¡ÃŃ": 8320,
      "Ġkyti": 8321,
      "zena": 8322,
      "ĠstÅĻÃŃbra": 8323,
      "dlÃ½m": 8324,
      "ĠslavnÃ¡": 8325,
      "Ġzastavil": 8326,
      "zve": 8327,
      "ĠbliÅ¾": 8328,
      "Ġposa": 8329,
      "Ġzane": 8330,
      "polu": 8331,
      "Ġroman": 8332,
      "Ġmok": 8333,
      "ĠÅ¡ly": 8334,
      "ĠtouÅ¾ÃŃm": 8335,
      "Å¾enÃ½m": 8336,
      "ĠdobÅĻÃŃ": 8337,
      "ĠhravÄĽ": 8338,
      "ĠbÃ¡zni": 8339,
      "Ġmodrou": 8340,
      "ĠmrtvÃ½m": 8341,
      "ĠzpÃŃvajÃŃ": 8342,
      "ĠsnÅ¯m": 8343,
      "ĠblÃ¡to": 8344,
      "ĠtÃ½den": 8345,
      "ĠzÃ¡pasu": 8346,
      "ĠkvÄĽtiny": 8347,
      "Ġzmatek": 8348,
      "nena": 8349,
      "Ġhmy": 8350,
      "Ġrosu": 8351,
      "mÄĽsÃŃ": 8352,
      "Ġpase": 8353,
      "ĠÄįinÅ¯m": 8354,
      "Ġmedu": 8355,
      "ĠotÅĻÃ¡": 8356,
      "Ġhluch": 8357,
      "ĠmlhÃ¡ch": 8358,
      "ĠslyÅ¡te": 8359,
      "druhÃ½": 8360,
      "Ġvrouc": 8361,
      "Ġskutky": 8362,
      "Ġhovoru": 8363,
      "Ġmodlitby": 8364,
      "ĠmodlitbÄĽ": 8365,
      "ĠstatnÃ½": 8366,
      "ĠzÃ¡vist": 8367,
      "Ġzanech": 8368,
      "dova": 8369,
      "divem": 8370,
      "ĠÅ¾es": 8371,
      "ĠnÄĽha": 8372,
      "ĠvÅ¡echnÄĽch": 8373,
      "Ġzlosti": 8374,
      "jaly": 8375,
      "ĠchvÃ¡lÃŃ": 8376,
      "hvÄĽzdy": 8377,
      "Ġillu": 8378,
      "osu": 8379,
      "lÃ¡sku": 8380,
      "vedou": 8381,
      "ĠkomÃŃ": 8382,
      "ĠvÃŃly": 8383,
      "ĠvÃŃrou": 8384,
      "Ġdere": 8385,
      "zoval": 8386,
      "Ġskok": 8387,
      "Ġbarbar": 8388,
      "pasÅ¥": 8389,
      "Ġskutku": 8390,
      "Ġnevinnosti": 8391,
      "Ġmiliony": 8392,
      "ken": 8393,
      "Ġhal": 8394,
      "Ġduhy": 8395,
      "temnÄĽ": 8396,
      "Ġjaru": 8397,
      "nicky": 8398,
      "ĠvolnÃ©": 8399,
      "ĠznÃ¡mo": 8400,
      "ĠzelenÃ¡": 8401,
      "ĠblÃ¡z": 8402,
      "ĠÅ¾lutÃ½": 8403,
      "ĠcÃŃtÃŃÅ¡": 8404,
      "bojo": 8405,
      "Ġkmeny": 8406,
      "zkad": 8407,
      "modlit": 8408,
      "dnu": 8409,
      "rnost": 8410,
      "ĠrobÄĽ": 8411,
      "Ġkop": 8412,
      "ĠÅ¾ehna": 8413,
      "Ġbudeme": 8414,
      "bÃŃlÃ½": 8415,
      "krÃ¡snÃ½": 8416,
      "ĠpÄĽvec": 8417,
      "zit": 8418,
      "ĠstraÅ¡nÄĽ": 8419,
      "Ġzvonky": 8420,
      "Ġvrahy": 8421,
      "Ġkams": 8422,
      "ĠandÄĽla": 8423,
      "Ġtlukou": 8424,
      "pÅĻÃ¡tel": 8425,
      "Ġtrysk": 8426,
      "ĠÅ¾alÃ¡ÅĻ": 8427,
      "ony": 8428,
      "sse": 8429,
      "ĠmÅ¡i": 8430,
      "ĠponÃŃ": 8431,
      "ĠusÃŃ": 8432,
      "Å¾es": 8433,
      "ĠvyÅ¡li": 8434,
      "mÄĽli": 8435,
      "ĠzÃ¡da": 8436,
      "ĠrudÃ½m": 8437,
      "ĠÃºpÃŃ": 8438,
      "ĠhromÅ¯": 8439,
      "ĠcizÃ¡": 8440,
      "ĠpÄĽv": 8441,
      "Ġsoudru": 8442,
      "Ġokovy": 8443,
      "ĠpyÅ¡nÃ½": 8444,
      "ĠvalnÃ©": 8445,
      "gen": 8446,
      "Ġvnik": 8447,
      "ÄįkÃ½": 8448,
      "Ġpor": 8449,
      "poÅĪ": 8450,
      "tok": 8451,
      "ĠleknÃŃ": 8452,
      "Ġrozdr": 8453,
      "ĠpÅĻijÃŃt": 8454,
      "Ġplakat": 8455,
      "Ġnesli": 8456,
      "hnej": 8457,
      "ĠkouÅĻÃŃ": 8458,
      "ĠchorÃ½": 8459,
      "ĠsmutnÃ½ch": 8460,
      "ĠznÄĽnÃŃ": 8461,
      "Ġzelena": 8462,
      "ĠvichÅĻi": 8463,
      "Ġdomovu": 8464,
      "ĠchtÃŃt": 8465,
      "chcem": 8466,
      "ÄįnÃ©ho": 8467,
      "ĠpolnÃŃ": 8468,
      "Ġnai": 8469,
      "ĠhojnÄĽ": 8470,
      "ĠÅ¡tvÃ¡": 8471,
      "Ġvzbou": 8472,
      "boÅ¾ÃŃ": 8473,
      "boha": 8474,
      "ĠdÄĽsnÃ¡": 8475,
      "Ġrada": 8476,
      "ĠplazÃŃ": 8477,
      "Ġplatno": 8478,
      "Ġvrata": 8479,
      "Ġzml": 8480,
      "Ġopustil": 8481,
      "tÅĻpy": 8482,
      "ĠzÃ¡stupy": 8483,
      "zlÃŃ": 8484,
      "Ġsan": 8485,
      "ĠseÄį": 8486,
      "ĠÄįte": 8487,
      "ĠnÃ¡bo": 8488,
      "Ġnovo": 8489,
      "myl": 8490,
      "ĠnejvÃŃce": 8491,
      "Ġsoudce": 8492,
      "Ġzdech": 8493,
      "ĠoknÄĽ": 8494,
      "ĠzloÄįin": 8495,
      "ĠkÅĻiÅ¡Å¥Ã¡": 8496,
      "Ġpivo": 8497,
      "ĠklÃŃna": 8498,
      "Ġzove": 8499,
      "ĠlouÄįÃŃ": 8500,
      "ĠnimiÅ¾": 8501,
      "ĠkrÅ¯pÄĽje": 8502,
      "Ġkladou": 8503,
      "ĠnÃŃzkÃ©": 8504,
      "ĠodÅĻÃŃkÃ¡nÃŃ": 8505,
      "ĠfarÃ¡ÅĻ": 8506,
      "jil": 8507,
      "uÄįi": 8508,
      "Ġopa": 8509,
      "net": 8510,
      "vajÃŃc": 8511,
      "ĠzabÃŃ": 8512,
      "ĠzaznÄĽl": 8513,
      "Ġvedli": 8514,
      "tar": 8515,
      "Ġrozhod": 8516,
      "ĠvodÃ¡ch": 8517,
      "ĠpÅĻÃŃko": 8518,
      "Ġstatek": 8519,
      "Ġneznal": 8520,
      "Ġpozve": 8521,
      "Ġmrtvol": 8522,
      "Ġsul": 8523,
      "Ġkynul": 8524,
      "ĠjarÃ½": 8525,
      "ĠprÃ½Å¡tÃŃ": 8526,
      "ĠchvÃ¡la": 8527,
      "ĠlÅ¯na": 8528,
      "ĠtÅ¯ÅĪ": 8529,
      "jimiÅ¾": 8530,
      "knul": 8531,
      "otro": 8532,
      "pÅĻÃŃm": 8533,
      "ĠzlÃ½m": 8534,
      "Äįty": 8535,
      "ĠzazpÃŃ": 8536,
      "pocho": 8537,
      "Ġvysla": 8538,
      "bolÃŃ": 8539,
      "ĠruÄįe": 8540,
      "budiÅ¾": 8541,
      "ĠhledÄĽ": 8542,
      "ĠzpÃŃvÃ¡m": 8543,
      "ĠsklonÃŃ": 8544,
      "ĠkonÄįÃŃ": 8545,
      "ĠhoÅĻkÃ©": 8546,
      "Ġvzadu": 8547,
      "Ġrostla": 8548,
      "ĠmÃ¡jo": 8549,
      "Ġzdu": 8550,
      "Ġtoli": 8551,
      "ĠhodnÄĽ": 8552,
      "Ġvzma": 8553,
      "ĠvÄĽstÃŃ": 8554,
      "aspoÅĪ": 8555,
      "ĠvÃŃsky": 8556,
      "ĠranÃŃ": 8557,
      "ĠdivÃ½m": 8558,
      "vÅ¾dycky": 8559,
      "ĠspoÄįi": 8560,
      "ĠslunnÃ½": 8561,
      "hlÃ©dne": 8562,
      "ĠznÃ¡me": 8563,
      "ĠkaÅ¾dÃ©mu": 8564,
      "tvor": 8565,
      "ĠÅ¡atÄĽ": 8566,
      "ĠstÃ½skÃ¡": 8567,
      "Ġpasu": 8568,
      "skrz": 8569,
      "Ġdosa": 8570,
      "Ġdojat": 8571,
      "ĠbytÃŃ": 8572,
      "Ġsig": 8573,
      "ĠvÃ¡Å¾nÃ©": 8574,
      "chodÃŃ": 8575,
      "ĠÅ¡epot": 8576,
      "ĠbezdÄĽ": 8577,
      "jemuÅ¾": 8578,
      "ĠdlouhÃ©m": 8579,
      "ĠtÅĻesk": 8580,
      "ĠvÄĽrnou": 8581,
      "Ġzhyne": 8582,
      "ĠvlhkÃ©": 8583,
      "miluj": 8584,
      "bci": 8585,
      "rÃ½mi": 8586,
      "snil": 8587,
      "celÃ©": 8588,
      "ĠstenÃ¡": 8589,
      "noÅ¡": 8590,
      "Ġtok": 8591,
      "Ġveta": 8592,
      "Ġjene": 8593,
      "mÄĽlÃ©": 8594,
      "ĠdÃ¡na": 8595,
      "ĠlÃ¡ny": 8596,
      "ĠctÄĽ": 8597,
      "ĠplnÄĽ": 8598,
      "trochu": 8599,
      "desÃ¡t": 8600,
      "pte": 8601,
      "sar": 8602,
      "ĠorÃ¡": 8603,
      "nadarmo": 8604,
      "lÃ¡n": 8605,
      "Ġpronika": 8606,
      "ĠhoÅĻel": 8607,
      "Ġskrov": 8608,
      "Ġkapra": 8609,
      "ĠlÅ¾ÃŃ": 8610,
      "ĠstraÅ¡ÃŃ": 8611,
      "Ġchoval": 8612,
      "Ġglo": 8613,
      "ĠtÃ¡Å¾e": 8614,
      "ĠkvÃŃtko": 8615,
      "Ġzrady": 8616,
      "ĠknÄĽze": 8617,
      "ĠÅ¾havÃ½ch": 8618,
      "ĠkvapÃŃ": 8619,
      "ĠuÄįinil": 8620,
      "ĠrÅ¯Å¾ovÃ©": 8621,
      "letÄĽla": 8622,
      "ĠvÄĽtvÃŃch": 8623,
      "hnÃŃ": 8624,
      "ĠveÅ¡la": 8625,
      "ĠpropasÅ¥": 8626,
      "ĠÅ¡Å¥astna": 8627,
      "ĠostrÃ©": 8628,
      "ĠschÅ¯": 8629,
      "ĠpÅĻemÃ½Å¡": 8630,
      "ĠpamÄĽt": 8631,
      "ĠosamÄĽlÃ½": 8632,
      "Ġmelodi": 8633,
      "ĠvlnobitÃŃ": 8634,
      "valÃŃ": 8635,
      "skrÃ¡": 8636,
      "dole": 8637,
      "nutÃ©": 8638,
      "ĠvÄĽje": 8639,
      "ĠvÄĽjÃŃ": 8640,
      "ĠvÄĽtev": 8641,
      "Ġvypro": 8642,
      "ĠÄįekajÃŃ": 8643,
      "ĠÅ¾ilo": 8644,
      "Ġtyra": 8645,
      "Ġmag": 8646,
      "Ġkamsi": 8647,
      "ĠpÅ¯da": 8648,
      "ĠÅ¡iben": 8649,
      "ĠstrÃ¡Å¾e": 8650,
      "ĠhrÃ¡ti": 8651,
      "ĠrozkoÅ¡i": 8652,
      "ĠschrÃ¡": 8653,
      "ĠzdravÃ½": 8654,
      "ĠvÄĽrnÃ½ch": 8655,
      "kÃ¡me": 8656,
      "raly": 8657,
      "ĠoÄįekÃ¡": 8658,
      "ĠvylÃŃ": 8659,
      "ĠpÅĻiblÃŃ": 8660,
      "panÃ©": 8661,
      "Ġsvla": 8662,
      "ĠspojÃŃ": 8663,
      "ĠblÃŃzka": 8664,
      "dobrÃ½": 8665,
      "ĠchladnÄĽ": 8666,
      "Ġzjevy": 8667,
      "Ġdcero": 8668,
      "ĠtajnÃ½": 8669,
      "Ġprostoru": 8670,
      "Ġvysch": 8671,
      "ĠlÅ¯Å¾ku": 8672,
      "eÅ¡": 8673,
      "pti": 8674,
      "sbor": 8675,
      "Ġbli": 8676,
      "nÄĽco": 8677,
      "ruch": 8678,
      "dÄĽlÃŃ": 8679,
      "vinÄĽ": 8680,
      "Ġvzor": 8681,
      "Ġvym": 8682,
      "Ġrval": 8683,
      "ÄıÃ¡": 8684,
      "ĠnÄĽkam": 8685,
      "sina": 8686,
      "Ġzvonek": 8687,
      "Å¡eni": 8688,
      "Ġchoro": 8689,
      "ĠspÄĽjÃŃ": 8690,
      "ĠlehkÃ©": 8691,
      "Ġdvoj": 8692,
      "Ġmodlitbou": 8693,
      "ostat": 8694,
      "ĠpÅĻen": 8695,
      "ĠmdlÃ¡": 8696,
      "radÄĽj": 8697,
      "poru": 8698,
      "nii": 8699,
      "nikne": 8700,
      "doma": 8701,
      "Ġhodo": 8702,
      "ĠvÄĽzÃŃ": 8703,
      "ĠnÃ¡la": 8704,
      "Ġoddechu": 8705,
      "Ġobsa": 8706,
      "Ġmoudr": 8707,
      "ĠsmÄĽlÃ©": 8708,
      "ĠkeÅĻe": 8709,
      "ĠjedenkrÃ¡t": 8710,
      "chvÄĽl": 8711,
      "Ġzvedl": 8712,
      "ĠveÄįerem": 8713,
      "cka": 8714,
      "dÃ¡me": 8715,
      "Ġsno": 8716,
      "ÅĻmi": 8717,
      "ĠkÅ¯Å¾e": 8718,
      "dajÃŃcÃŃ": 8719,
      "ĠÃºpa": 8720,
      "ĠmÃŃst": 8721,
      "ĠmlÄįel": 8722,
      "Ġplesem": 8723,
      "slyÅ¡te": 8724,
      "Ġmilence": 8725,
      "ĠpÅ¯jdem": 8726,
      "Ġpovzdech": 8727,
      "Ġmdloby": 8728,
      "hluboko": 8729,
      "Ġhotov": 8730,
      "ĠdomÃ¡cÃŃ": 8731,
      "car": 8732,
      "Å¾lou": 8733,
      "Ġpokud": 8734,
      "hody": 8735,
      "viÄįka": 8736,
      "Äıa": 8737,
      "ĠbujÃŃ": 8738,
      "ĠÃºle": 8739,
      "ĠbÃŃti": 8740,
      "ĠbÃŃdnÄĽ": 8741,
      "Ġston": 8742,
      "Ġnemy": 8743,
      "ĠÄįÃŃsti": 8744,
      "Ġmocnou": 8745,
      "hledal": 8746,
      "Ġhluboka": 8747,
      "ĠsnivÄĽ": 8748,
      "Ġvztekem": 8749,
      "ĠdÃ³": 8750,
      "rovat": 8751,
      "Ġam": 8752,
      "ĠpoÄįa": 8753,
      "Ġust": 8754,
      "Ġvydal": 8755,
      "ĠnÄĽÅ¾nÄĽ": 8756,
      "ĠvÃ¡leÄį": 8757,
      "hujÃŃ": 8758,
      "Ġpodla": 8759,
      "ĠposvÃ¡t": 8760,
      "Å¡enou": 8761,
      "Ġchoti": 8762,
      "Ġmnohem": 8763,
      "ĠchutÄĽ": 8764,
      "ĠsvatÃŃ": 8765,
      "Ġnepokoj": 8766,
      "milÃ©": 8767,
      "jedinÃ½": 8768,
      "fra": 8769,
      "Å¡no": 8770,
      "Ġzajde": 8771,
      "Å¾eÅĪ": 8772,
      "ĠvydÃ¡": 8773,
      "ĠdumÃ¡ch": 8774,
      "ĠtuhÃ½": 8775,
      "Ġteh": 8776,
      "ĠpÅĻivi": 8777,
      "Ġvozu": 8778,
      "saÅĻ": 8779,
      "ĠvÃ½stra": 8780,
      "Ġcou": 8781,
      "ĠnejlÃŃp": 8782,
      "pily": 8783,
      "ĠpÄĽny": 8784,
      "ĠtÃ¡hly": 8785,
      "ĠchuÄıas": 8786,
      "ĠpÅ¯li": 8787,
      "plÃ¡Äįe": 8788,
      "ĠprÅ¯vodu": 8789,
      "Ġtvrdou": 8790,
      "ĠÃºtÄĽchu": 8791,
      "ĠuÅ¡lechti": 8792,
      "Ġmak": 8793,
      "Ã©l": 8794,
      "Ġtohle": 8795,
      "byt": 8796,
      "dÃ¡k": 8797,
      "zapla": 8798,
      "Ġtance": 8799,
      "Ġjedle": 8800,
      "ĠsvÄĽtÃŃ": 8801,
      "Ġdruhem": 8802,
      "Ġanti": 8803,
      "ÄįnÃŃk": 8804,
      "ĠhoÅĻkÃ½": 8805,
      "ĠveÅ¡ker": 8806,
      "Äįu": 8807,
      "Ġaf": 8808,
      "domo": 8809,
      "ĠholÃ½": 8810,
      "Ġvyzna": 8811,
      "Äįeti": 8812,
      "ĠpÅĻiÅ¡ly": 8813,
      "ĠskÃ½": 8814,
      "Ġkanou": 8815,
      "ĠÅ¡edÃ½ch": 8816,
      "tÃ½Å¾": 8817,
      "ĠstrastÃŃ": 8818,
      "ceno": 8819,
      "Ġoknu": 8820,
      "ĠÅ¾alosti": 8821,
      "ĠnevidÃŃ": 8822,
      "Ġpamat": 8823,
      "Ġkrajiny": 8824,
      "mluvÃŃ": 8825,
      "ĠvÃŃtÄĽznÃ½": 8826,
      "vÅ¡echny": 8827,
      "ĠskvÄĽlÃ©": 8828,
      "vti": 8829,
      "ĠpÃ³": 8830,
      "stÅĻel": 8831,
      "ĠstmÃŃvÃ¡": 8832,
      "ĠvÃŃÅ¾e": 8833,
      "mile": 8834,
      "Ġlila": 8835,
      "ĠmeÄįi": 8836,
      "dÃ©Å¡Å¥": 8837,
      "ĠzÅĻÃŃtel": 8838,
      "ĠjarnÃŃch": 8839,
      "ĠsedlÃ¡": 8840,
      "ĠzmÄĽny": 8841,
      "Ġkdybys": 8842,
      "knÄĽz": 8843,
      "ĠpestrÃ½ch": 8844,
      "ctva": 8845,
      "dnÃ©m": 8846,
      "ĠsedÃŃm": 8847,
      "Ġnastal": 8848,
      "tichu": 8849,
      "ĠdoÅ¡el": 8850,
      "jista": 8851,
      "daÅĻÃŃ": 8852,
      "ĠvyznÃ¡": 8853,
      "Ġrozkvet": 8854,
      "ĠvÅ¡ecek": 8855,
      "ĠkouÅĻ": 8856,
      "moud": 8857,
      "ĠÅ¡Å¥Ã¡": 8858,
      "ĠznÄĽjÃŃ": 8859,
      "ĠÅ¾havou": 8860,
      "Ġsmuten": 8861,
      "Ġstatku": 8862,
      "ĠkalnÃ©": 8863,
      "Ġvzdechem": 8864,
      "ĠrajskÃ©": 8865,
      "ĠpenÃŃz": 8866,
      "!?": 8867,
      "Å¾nÃŃ": 8868,
      "Å¡nÃ©m": 8869,
      "Ġnachu": 8870,
      "Ġchvo": 8871,
      "Äįiv": 8872,
      "Ġpast": 8873,
      "ĠnÄĽmÄĽ": 8874,
      "ĠprvnÄĽ": 8875,
      "Ġskrz": 8876,
      "bajÃŃ": 8877,
      "Ġstopu": 8878,
      "Ġsype": 8879,
      "ĠdrazÃŃ": 8880,
      "bÃ¡k": 8881,
      "Ġperla": 8882,
      "ĠchvÃ¡ly": 8883,
      "ĠdruhÃ½m": 8884,
      "Ġout": 8885,
      "ĠandÄĽlÅ¯": 8886,
      "ĠÅ¾ivlÅ¯": 8887,
      "pravda": 8888,
      "Ġspravedl": 8889,
      "Ġvzteku": 8890,
      "nstvÃŃ": 8891,
      "psÃ¡": 8892,
      "spa": 8893,
      "ĠvpÅĻed": 8894,
      "Ġzkro": 8895,
      "Ġdem": 8896,
      "ĠoÅĻi": 8897,
      "Ġjelen": 8898,
      "Ġuleh": 8899,
      "davÄĽ": 8900,
      "mohu": 8901,
      "ĠvlastÃŃ": 8902,
      "kams": 8903,
      "ĠlÃ©k": 8904,
      "ĠsluncÃŃ": 8905,
      "ĠÅ¡umu": 8906,
      "Ġlouky": 8907,
      "ĠztratÃŃ": 8908,
      "ĠchÃ¡pe": 8909,
      "Ġplachty": 8910,
      "ĠÃºtÄĽchy": 8911,
      "ĠÅ¡ÃŃlenstvÃŃ": 8912,
      "pli": 8913,
      "rajÃŃcÃŃ": 8914,
      "ĠpomÃ¡": 8915,
      "rÃ¡no": 8916,
      "Ġjinam": 8917,
      "Ġvysta": 8918,
      "Ġrvou": 8919,
      "ĠrozpÃ¡": 8920,
      "ĠtÄĽsnÄĽ": 8921,
      "modra": 8922,
      "ĠmÃ¡lem": 8923,
      "ĠvaÅ¡em": 8924,
      "Ġcim": 8925,
      "ĠstÃŃnech": 8926,
      "jÅ¡ÃŃch": 8927,
      "Ġmodli": 8928,
      "pÅĻijÄı": 8929,
      "Ġnechte": 8930,
      "ĠhrÃ¡ly": 8931,
      "ĠbrÃ¡nÄĽ": 8932,
      "hlÃ©m": 8933,
      "ĠchudÃ¡k": 8934,
      "dnem": 8935,
      "jenÃŃ": 8936,
      "krou": 8937,
      "ĠvÅĻel": 8938,
      "Ġvhod": 8939,
      "Ġpsy": 8940,
      "ĠmÅĻÃŃt": 8941,
      "nalo": 8942,
      "novou": 8943,
      "Ġchlou": 8944,
      "ĠniÄįÃŃ": 8945,
      "ĠrÃ¡nÄĽ": 8946,
      "ĠmilÃ½ch": 8947,
      "ĠsvÃŃjÃŃ": 8948,
      "ĠodpoÄįÃŃvÃ¡": 8949,
      "ĠveselÃ©": 8950,
      "ĠzavÅĻel": 8951,
      "ĠpolibkÅ¯": 8952,
      "ĠspÅĻÃ¡dÃ¡": 8953,
      "ĠobilÃŃ": 8954,
      "',": 8955,
      "ĠvkrÃ¡": 8956,
      "Ġpoce": 8957,
      "Ġuchy": 8958,
      "ĠholÃŃ": 8959,
      "ĠhostÃ©": 8960,
      "ĠÅ¡ka": 8961,
      "ĠvzpÃŃnÃ¡": 8962,
      "ĠÅ¾ezlo": 8963,
      "ĠzÃ¡clo": 8964,
      "ĠtuÅ¡enÃŃ": 8965,
      "hud": 8966,
      "bily": 8967,
      "vzdu": 8968,
      "Ġspolku": 8969,
      "ĠÅ¡ÃŃlÃŃ": 8970,
      "ĠberÃ¡": 8971,
      "Ġhrdle": 8972,
      "ĠchvÃ¡le": 8973,
      "Ġabys": 8974,
      "ĠzmÄĽna": 8975,
      "ĠpÅĻemy": 8976,
      "ĠneznÃ¡mÃ½ch": 8977,
      "ĠpalÄįi": 8978,
      "Ġzbytky": 8979,
      "ĠnetopÃ½": 8980,
      "ĠnoÄįnÃŃm": 8981,
      "Å¡iti": 8982,
      "Ġobr": 8983,
      "Ġplav": 8984,
      "ĠsÃŃÅ¥": 8985,
      "zdec": 8986,
      "prÃ¡vÄĽ": 8987,
      "nÄĽjÅ¡ÃŃch": 8988,
      "ĠdceÅĻi": 8989,
      "Ġzvykem": 8990,
      "ĠjakÃ¡s": 8991,
      "ĠstÃ©nÃ¡": 8992,
      "ĠtvÅ¯rce": 8993,
      "ĠkadeÅĻ": 8994,
      "Ġpnou": 8995,
      "Ġopil": 8996,
      "ĠuprostÅĻed": 8997,
      "Å¾eti": 8998,
      "ĠvzkÅĻi": 8999,
      "tujÃŃ": 9000,
      "ĠcÃŃlem": 9001,
      "ĠhrudÃŃ": 9002,
      "ĠlÃ©tÄĽ": 9003,
      "ĠjedinÄĽ": 9004,
      "ĠskrytÄĽ": 9005,
      "ĠradostnÄĽ": 9006,
      "ĠplujÃŃ": 9007,
      "ĠdvÄĽma": 9008,
      "Ġtvar": 9009,
      "Ġfiloso": 9010,
      "sami": 9011,
      "Ġzmoc": 9012,
      "lekÃ¡": 9013,
      "jevÃŃ": 9014,
      "teÄįnÃ½": 9015,
      "vÃ¡me": 9016,
      "Ġdoj": 9017,
      "Ġutk": 9018,
      "dovÄĽ": 9019,
      "ĠprobÃŃ": 9020,
      "Ġkot": 9021,
      "jinÃ½": 9022,
      "Ġvyrost": 9023,
      "ĠtiÅ¡ÃŃ": 9024,
      "ĠsvÄĽtlÃ©": 9025,
      "ĠsmÃŃm": 9026,
      "ĠÅ¡ÃŃpy": 9027,
      "ĠhrdÃ¡": 9028,
      "Ġhero": 9029,
      "Ġpoklo": 9030,
      "Ġozve": 9031,
      "Ġskryla": 9032,
      "ĠslitovÃ¡nÃŃ": 9033,
      "Ġpluh": 9034,
      "ĠchmurnÃ½": 9035,
      "Ġuply": 9036,
      "ĠpsÃ¡t": 9037,
      "ĠzvÄĽt": 9038,
      "Ġponu": 9039,
      "Ġpomi": 9040,
      "Ġnesa": 9041,
      "ĠÅ¾ol": 9042,
      "poÄįÃŃ": 9043,
      "kotem": 9044,
      "ĠchlÃ¡": 9045,
      "Ġmoj": 9046,
      "ĠvyvÃ¡": 9047,
      "ĠpÅĻijÄı": 9048,
      "Ġkadi": 9049,
      "Ġslovech": 9050,
      "Ġnechat": 9051,
      "slzy": 9052,
      "Ġopojen": 9053,
      "ĠnadÅ¡enÃŃm": 9054,
      "ĠchÅ¯zi": 9055,
      "plÃ©": 9056,
      "Ġvho": 9057,
      "ĠovÃŃ": 9058,
      "muÅ¾i": 9059,
      "ĠlÃŃst": 9060,
      "ĠhluÄįnÄĽ": 9061,
      "ĠloubÃŃ": 9062,
      "ĠloupeÅ¾": 9063,
      "ĠzboÅ¾nÃ©": 9064,
      "znam": 9065,
      "ĠstejnÃ½": 9066,
      "Ġsvitem": 9067,
      "Ġhanby": 9068,
      "ĠstrÃ¡Å¾ce": 9069,
      "ĠhvÃŃzdÃ¡": 9070,
      "slem": 9071,
      "trÅ¯": 9072,
      "Å¾kou": 9073,
      "rovÃ½": 9074,
      "Ġpotka": 9075,
      "ĠpohleÄı": 9076,
      "Ġnero": 9077,
      "ĠÄįtenÃ¡": 9078,
      "Ġtoku": 9079,
      "ĠpÅĻivÃŃ": 9080,
      "ÅĻÃ¡n": 9081,
      "Ġcnosti": 9082,
      "ĠpÅĻedce": 9083,
      "ĠmlÃ¡zÃŃ": 9084,
      "Ġzora": 9085,
      "Ġzvedla": 9086,
      "ĠblÃ¡zen": 9087,
      "ĠmilujÃŃcÃŃ": 9088,
      "Ġprosby": 9089,
      "Ġrevoluce": 9090,
      "ĠpoÄįÃ¡tku": 9091,
      "ctÃŃ": 9092,
      "lkem": 9093,
      "sra": 9094,
      "vna": 9095,
      "Ġsval": 9096,
      "rova": 9097,
      "ĠodÄĽ": 9098,
      "liÄįky": 9099,
      "Ġrodiny": 9100,
      "amen": 9101,
      "starost": 9102,
      "ĠcÃ½": 9103,
      "Ġdruzi": 9104,
      "ĠmezÃŃ": 9105,
      "Ġusnul": 9106,
      "ĠtlumÃŃ": 9107,
      "ĠspatÅĻÃŃ": 9108,
      "ĠuÄįitel": 9109,
      "Ġsmarag": 9110,
      "ĠbÅĻÃŃzy": 9111,
      "ĠprovÃ¡zÃŃ": 9112,
      "Ġhem": 9113,
      "Ġsedne": 9114,
      "ĠovÄĽn": 9115,
      "Ġnajdu": 9116,
      "ĠkrÃ¡tko": 9117,
      "Ġpravi": 9118,
      "ĠslunÃŃ": 9119,
      "Ġsochy": 9120,
      "Ġbrali": 9121,
      "Ġjab": 9122,
      "ĠdeÅ¡Å¥": 9123,
      "ĠmilÃ©ho": 9124,
      "ĠsvÃŃtÃ¡nÃŃ": 9125,
      "Ġvrchu": 9126,
      "ĠhÃ¡v": 9127,
      "ĠÅ¡irÃ¡": 9128,
      "ĠboÅ¾ÃŃch": 9129,
      "ĠsnÃŃti": 9130,
      "Ġsnaha": 9131,
      "Ġzoufale": 9132,
      "ĠsedlÃ¡k": 9133,
      "ĠtÃ³nÅ¯": 9134,
      "ĠtÅ¯ni": 9135,
      "ĠodpovÃŃdÃ¡": 9136,
      "brou": 9137,
      "Ġtat": 9138,
      "Äįnost": 9139,
      "Ġnepra": 9140,
      "Ġnebudu": 9141,
      "vary": 9142,
      "lÃŃc": 9143,
      "Ġkotou": 9144,
      "Ġmini": 9145,
      "ĠnÃ¡pad": 9146,
      "Ġter": 9147,
      "ĠbÃŃdou": 9148,
      "ĠstÃ¡lÃ©m": 9149,
      "peru": 9150,
      "pÃ¡na": 9151,
      "ria": 9152,
      "Ġchuti": 9153,
      "ĠspÄĽla": 9154,
      "ĠbÅĻeÄį": 9155,
      "ĠÅ¾havÃ½m": 9156,
      "ĠbÃ¡snÃŃka": 9157,
      "Ġdokola": 9158,
      "ĠlÃŃtosti": 9159,
      "ĠzvlÃ¡Å¡tÄĽ": 9160,
      "Ġbitvy": 9161,
      "mÃ¡me": 9162,
      "Ġpli": 9163,
      "ĠostÅĻe": 9164,
      "dec": 9165,
      "ĠdoprovÃ¡": 9166,
      "ĠÅ¡ar": 9167,
      "...!": 9168,
      "ĠzÃ¡blesk": 9169,
      "ĠmÃ¡k": 9170,
      "ĠzemskÃ©": 9171,
      "ĠlÃŃstky": 9172,
      "ĠpÄĽvce": 9173,
      "ĠsmÃ½": 9174,
      "ĠvÄĽÄįnÃ©m": 9175,
      "Ġchudou": 9176,
      "ĠneustÃ¡le": 9177,
      "hlÃ©dl": 9178,
      "Ġmrzu": 9179,
      "ĠotcÅ¯v": 9180,
      "Ġhmoty": 9181,
      "Ġhavran": 9182,
      "ĠnechaÅ¥": 9183,
      "ĠnaÅ¡la": 9184,
      "ĠnahoÅĻe": 9185,
      "Ġroli": 9186,
      "Ġvesla": 9187,
      "ĠhorÃ¡m": 9188,
      "ĠvzpÃŃ": 9189,
      "ĠbokÅ¯": 9190,
      "ÄįÃŃk": 9191,
      "ĠniÄįÃŃm": 9192,
      "ĠÅ¾ivÄĽ": 9193,
      "Ġobna": 9194,
      "ĠpodÃ©l": 9195,
      "menÃ½": 9196,
      "ĠmodrÃ©m": 9197,
      "Ġmraven": 9198,
      "ĠdivnÃ½ch": 9199,
      "ĠtajemnÃ½": 9200,
      "jÃŃÅ¾dÃŃ": 9201,
      "Ġdobrodru": 9202,
      "ĠdveÅĻe": 9203,
      "Ġstarosti": 9204,
      "ĠzastavÃŃ": 9205,
      "ĠjimiÅ¾": 9206,
      "ĠkvetoucÃŃ": 9207,
      "ĠshromÃ¡Å¾": 9208,
      "Ġdan": 9209,
      "radÄĽji": 9210,
      "kajÃŃcÃŃ": 9211,
      "Ġdobou": 9212,
      "mÄĽlÃ½": 9213,
      "ĠnÄĽÅ¾nÃ½": 9214,
      "chor": 9215,
      "ĠpÅĻÃŃzeÅĪ": 9216,
      "ĠjasmÃŃ": 9217,
      "Ġeden": 9218,
      "ĠstrÃ¡Å¾ÃŃ": 9219,
      "ĠobracÃŃ": 9220,
      "Ġobrazem": 9221,
      "Ġnemohou": 9222,
      "ĠslouÅ¾it": 9223,
      "ĠzmÄĽnil": 9224,
      "otÄįe": 9225,
      "ĠmyslÃŃÅ¡": 9226,
      "Ġjizbu": 9227,
      "ĠzoufalÃ½": 9228,
      "Ġzdroji": 9229,
      "ĠsvÄĽdÄįÃŃ": 9230,
      "ĠsmilovÃ¡nÃŃ": 9231,
      "fou": 9232,
      "Ġmha": 9233,
      "Ġnepod": 9234,
      "neo": 9235,
      "dechem": 9236,
      "Ġchvatu": 9237,
      "ĠvÄĽnci": 9238,
      "ĠnÃŃÅ¾ÃŃ": 9239,
      "pech": 9240,
      "ĠsvÄĽte": 9241,
      "bÃŃlÃ¡": 9242,
      "Ġstolem": 9243,
      "ĠsvornÄĽ": 9244,
      "ĠÄįasnÄĽ": 9245,
      "ĠnezmÄĽ": 9246,
      "Ġskoku": 9247,
      "ĠsilnÄĽ": 9248,
      "ĠpyÅ¡nÃ©": 9249,
      "Ġvichru": 9250,
      "ĠtvrdÄĽ": 9251,
      "ĠideÃ¡l": 9252,
      "ĠmatiÄįko": 9253,
      "ĠzkuÅ¡en": 9254,
      "ĠzÃ¡vrati": 9255,
      "Ġmramor": 9256,
      "Ġmramoru": 9257,
      "ĠvnitÅĻnÃŃ": 9258,
      "ĠnavÅ¡tÃŃ": 9259,
      "ĠhospodÃ¡ÅĻ": 9260,
      "Ġrenald": 9261,
      "oÄį": 9262,
      "Ġtas": 9263,
      "ĠzpomÃŃ": 9264,
      "vodÃŃ": 9265,
      "Ġutich": 9266,
[...]
