{
  "version": "1.0",
  "truncation": null,
  "padding": null,
  "added_tokens": [
    {
      "id": 0,
      "content": "<|EOS|>",
      "single_word": false,
      "lstrip": false,
      "rstrip": false,
      "normalized": false,
      "special": true
    },
    {
      "id": 1,
      "content": "<|PAD|>",
      "single_word": false,
      "lstrip": false,
      "rstrip": false,
      "normalized": false,
      "special": true
    },
    {
      "id": 2,
      "content": "<|UNK|>",
      "single_word": false,
      "lstrip": false,
      "rstrip": false,
      "normalized": false,
      "special": true
    }
  ],
  "normalizer": null,
  "pre_tokenizer": {
    "type": "ByteLevel",
    "add_prefix_space": false,
    "trim_offsets": true,
    "use_regex": true
  },
  "post_processor": {
    "type": "ByteLevel",
    "add_prefix_space": true,
    "trim_offsets": false,
    "use_regex": true
  },
  "decoder": {
    "type": "ByteLevel",
    "add_prefix_space": true,
    "trim_offsets": true,
    "use_regex": true
  },
  "model": {
    "type": "BPE",
    "dropout": null,
    "unk_token": null,
    "continuing_subword_prefix": null,
    "end_of_word_suffix": null,
    "fuse_unk": false,
    "byte_fallback": false,
    "vocab": {
      "<|EOS|>": 0,
      "<|PAD|>": 1,
      "<|UNK|>": 2,
      "!": 3,
      "\"": 4,
      "#": 5,
      "'": 6,
      "(": 7,
      ")": 8,
      "*": 9,
      "+": 10,
      ",": 11,
      "-": 12,
      ".": 13,
      "/": 14,
      "0": 15,
      "1": 16,
      "2": 17,
      "3": 18,
      "4": 19,
      "5": 20,
      "6": 21,
      "7": 22,
      "8": 23,
      "9": 24,
      ":": 25,
      ";": 26,
      "=": 27,
      "?": 28,
      "A": 29,
      "B": 30,
      "C": 31,
      "D": 32,
      "E": 33,
      "F": 34,
      "G": 35,
      "H": 36,
      "I": 37,
      "J": 38,
      "K": 39,
      "L": 40,
      "M": 41,
      "N": 42,
      "O": 43,
      "P": 44,
      "Q": 45,
      "R": 46,
      "S": 47,
      "T": 48,
      "U": 49,
      "V": 50,
      "W": 51,
      "X": 52,
      "Y": 53,
      "Z": 54,
      "[": 55,
      "]": 56,
      "_": 57,
      "`": 58,
      "a": 59,
      "b": 60,
      "c": 61,
      "d": 62,
      "e": 63,
      "f": 64,
      "g": 65,
      "h": 66,
      "i": 67,
      "j": 68,
      "k": 69,
      "l": 70,
      "m": 71,
      "n": 72,
      "o": 73,
      "p": 74,
      "q": 75,
      "r": 76,
      "s": 77,
      "t": 78,
      "u": 79,
      "v": 80,
      "w": 81,
      "x": 82,
      "y": 83,
      "z": 84,
      "¡": 85,
      "¢": 86,
      "¤": 87,
      "¥": 88,
      "¦": 89,
      "§": 90,
      "¨": 91,
      "©": 92,
      "ª": 93,
      "«": 94,
      "®": 95,
      "¯": 96,
      "²": 97,
      "³": 98,
      "´": 99,
      "¶": 100,
      "¹": 101,
      "º": 102,
      "»": 103,
      "¼": 104,
      "½": 105,
      "¾": 106,
      "Â": 107,
      "Ã": 108,
      "Ä": 109,
      "Å": 110,
      "Ï": 111,
      "â": 112,
      "Ċ": 113,
      "Ġ": 114,
      "Ģ": 115,
      "ģ": 116,
      "Ĥ": 117,
      "Ħ": 118,
      "ħ": 119,
      "Ĩ": 120,
      "ĩ": 121,
      "Ī": 122,
      "ī": 123,
      "Ĭ": 124,
      "Į": 125,
      "į": 126,
      "İ": 127,
      "ı": 128,
      "Ĵ": 129,
      "ĵ": 130,
      "Ķ": 131,
      "ĸ": 132,
      "ĺ": 133,
      "Ļ": 134,
      "ļ": 135,
      "Ľ": 136,
      "ľ": 137,
      "Ŀ": 138,
      "ŀ": 139,
      "Ł": 140,
      "ł": 141,
      "Ń": 142,
      "ÃŃ": 143,
      "Ã¡": 144,
      "Ġs": 145,
      "ÄĽ": 146,
      "Ġv": 147,
      "Ġp": 148,
      "Å¾": 149,
      "Ġn": 150,
      "ch": 151,
      "Ġj": 152,
      "Å¡": 153,
      "Ġt": 154,
      "Ġz": 155,
      "ÅĻ": 156,
      "Ã½": 157,
      "Ã©": 158,
      "Ġm": 159,
      "ou": 160,
      "Ġk": 161,
      "Ġd": 162,
      "Äį": 163,
      "la": 164,
      "st": 165,
      "en": 166,
      "Ġb": 167,
      "âĢ": 168,
      "le": 169,
      "ĊĊ": 170,
      "ak": 171,
      "em": 172,
      "ro": 173,
      "Ġse": 174,
      "Ġh": 175,
      "Å¯": 176,
      "ra": 177,
      "Ġo": 178,
      "li": 179,
      "Ġa": 180,
      "Ġpo": 181,
      "rÃ¡": 182,
      "Ġje": 183,
      "nÃŃ": 184,
      "lo": 185,
      "Ġne": 186,
      "ÅĻe": 187,
      "ĠâĢ": 188,
      "ce": 189,
      "nÄĽ": 190,
      "Ġna": 191,
      "vÄĽ": 192,
      "ĠâĢĵ": 193,
      "ne": 194,
      "Ġst": 195,
      "ÅĻÃŃ": 196,
      "va": 197,
      "Å¡e": 198,
      "na": 199,
      "dy": 200,
      "sk": 201,
      "ĠÅ¾": 202,
      "lÃ¡": 203,
      "ho": 204,
      "ru": 205,
      "nÃ½": 206,
      "de": 207,
      "je": 208,
      "te": 209,
      "Ġza": 210,
      "ti": 211,
      "vo": 212,
      "lu": 213,
      "nÃ©": 214,
      "no": 215,
      "vÃ¡": 216,
      "lÃŃ": 217,
      "ÅĻi": 218,
      "Ġch": 219,
      "jÃŃ": 220,
      "ko": 221,
      "ka": 222,
      "vÃ©": 223,
      "Ġdo": 224,
      "vÃŃ": 225,
      "ni": 226,
      "Ġu": 227,
      "ĠÄį": 228,
      "..": 229,
      "Ġto": 230,
      "tÄĽ": 231,
      "nÃ¡": 232,
      "po": 233,
      "tÃŃ": 234,
      "ly": 235,
      "do": 236,
      "Ġby": 237,
      "ci": 238,
      "nou": 239,
      "ku": 240,
      "ky": 241,
      "Ã½ch": 242,
      "Ġjak": 243,
      "Ġji": 244,
      "Å¥": 245,
      "Ã¡m": 246,
      "Ġjs": 247,
      "il": 248,
      "Ġro": 249,
      "al": 250,
      "Ġve": 251,
      "ÃŃm": 252,
      "to": 253,
      "se": 254,
      "nu": 255,
      "Å¾e": 256,
      "am": 257,
      "cÃŃ": 258,
      "dÄĽ": 259,
      "Ã½m": 260,
      "ĠÅ¡": 261,
      "at": 262,
      "Ġpro": 263,
      "âĢľ": 264,
      "lÃ©": 265,
      "Ġho": 266,
      "by": 267,
      "ar": 268,
      "Ġmo": 269,
      "Ġko": 270,
      "Ġle": 271,
      "Ġvz": 272,
      "vÄĽt": 273,
      "ve": 274,
      "ĠvÄĽ": 275,
      "du": 276,
      "mu": 277,
      "vi": 278,
      "Ġvy": 279,
      "as": 280,
      "di": 281,
      "ji": 282,
      "Ġmi": 283,
      "Å¡ÃŃ": 284,
      "co": 285,
      "lou": 286,
      "ny": 287,
      "Ġdu": 288,
      "Ġr": 289,
      "Ġjen": 290,
      "Äįe": 291,
      "sti": 292,
      "dÃ¡": 293,
      "da": 294,
      "ÅĪ": 295,
      "ĠpÅĻe": 296,
      "ÄįÃŃ": 297,
      "rd": 298,
      "...": 299,
      "kÃ¡": 300,
      "dÃŃ": 301,
      "Äı": 302,
      "Ġbo": 303,
      "Ġroz": 304,
      "Ġmu": 305,
      "mÄĽ": 306,
      "be": 307,
      "jak": 308,
      "ĠnÃ¡": 309,
      "ta": 310,
      "ĠtÄĽ": 311,
      "âĢŀ": 312,
      "ĠÅ¾e": 313,
      "tÃ¡": 314,
      "Ġni": 315,
      "vou": 316,
      "dyÅ¾": 317,
      "Ġti": 318,
      "mÃŃ": 319,
      "ĠvÅ¡e": 320,
      "Ġno": 321,
      "Ġjsem": 322,
      "Äįi": 323,
      "Å¾ÃŃ": 324,
      "ze": 325,
      "ĠÅ¾i": 326,
      "ĠzÃ¡": 327,
      "vy": 328,
      "ĠvÃŃ": 329,
      "bo": 330,
      "Ġli": 331,
      "ry": 332,
      "Å¡i": 333,
      "ĠdÃ¡": 334,
      "ĠnÄĽ": 335,
      "Ġsp": 336,
      "Ġhla": 337,
      "ĠÄįe": 338,
      "mi": 339,
      "Ġob": 340,
      "enÃŃ": 341,
      "Å¯j": 342,
      "ĠÃ": 343,
      "me": 344,
      "vu": 345,
      "Ġi": 346,
      "Ġsrd": 347,
      "Å¡ak": 348,
      "Ġtak": 349,
      "Ġtu": 350,
      "Ġpa": 351,
      "ĠkrÃ¡": 352,
      "Ġte": 353,
      "Ġru": 354,
      "Ġod": 355,
      "ĠsvÃ©": 356,
      "Ġbu": 357,
      "ĠmÄĽ": 358,
      "Ġsi": 359,
      "tu": 360,
      "bÄĽ": 361,
      "âĢĻ": 362,
      "ĠÃº": 363,
      "ĠdÄĽ": 364,
      "ĠpÅĻi": 365,
      "Ġco": 366,
      "sta": 367,
      "ha": 368,
      "lad": 369,
      "Ġpr": 370,
      "Ġvo": 371,
      "Ġsk": 372,
      "stÃŃ": 373,
      "ĠsvÄĽt": 374,
      "ez": 375,
      "lÃ½": 376,
      "Ġpra": 377,
      "ma": 378,
      "nÃ½ch": 379,
      "ĠmÃ¡": 380,
      "mo": 381,
      "Ġce": 382,
      "pÄĽ": 383,
      "ĠlÃ¡": 384,
      "kou": 385,
      "sÃŃ": 386,
      "Ġta": 387,
      "Ne": 388,
      "si": 389,
      "bu": 390,
      "Ġka": 391,
      "led": 392,
      "ty": 393,
      "za": 394,
      "kÃ©": 395,
      "vÃ½": 396,
      "hu": 397,
      "pa": 398,
      "pÃŃ": 399,
      "rak": 400,
      "Å¡tÄĽ": 401,
      "len": 402,
      "!âĢľ": 403,
      "ĠdÃŃ": 404,
      "Ġjako": 405,
      "Ġsv": 406,
      "cho": 407,
      "ĠrÃ¡": 408,
      "ĠT": 409,
      "Ġjeho": 410,
      "Å¾i": 411,
      "re": 412,
      "lem": 413,
      "hÃ¡": 414,
      "ĠB": 415,
      "bi": 416,
      "hy": 417,
      "Ġzem": 418,
      "ĠvÃ¡": 419,
      "val": 420,
      "Ġvi": 421,
      "ĠP": 422,
      "rou": 423,
      "Å¾dy": 424,
      "ĠpÅĻÃŃ": 425,
      "kÅ¯": 426,
      "ba": 427,
      "Ġslu": 428,
      "Ġsrdce": 429,
      "chu": 430,
      "ĠV": 431,
      "Na": 432,
      "sa": 433,
      "Ġten": 434,
      "jen": 435,
      "zÃŃ": 436,
      "dou": 437,
      "mÃ¡": 438,
      "Ġjed": 439,
      "Ġra": 440,
      "vat": 441,
      "nÃ½m": 442,
      "Ġty": 443,
      "su": 444,
      "ĠlÃ¡sk": 445,
      "nad": 446,
      "Jak": 447,
      "Ġpod": 448,
      "ĠpÃŃ": 449,
      "kem": 450,
      "ste": 451,
      "my": 452,
      "ĠtÃ©": 453,
      "ĠnÃŃ": 454,
      "Po": 455,
      "ĠÅ¡e": 456,
      "men": 457,
      "Ġtam": 458,
      "ĠjiÅ¾": 459,
      "ĠlÃŃ": 460,
      "sy": 461,
      "Ġnad": 462,
      "ĠS": 463,
      "Ã©m": 464,
      "ĠkdyÅ¾": 465,
      "Ġvla": 466,
      "ĠnÃ¡m": 467,
      "zd": 468,
      "rÃ½": 469,
      "Ġsta": 470,
      "ĠmÃŃ": 471,
      "ĠâĢŀ": 472,
      "rÅ¯": 473,
      "kÃ½": 474,
      "ĠstÃ¡": 475,
      "Ġhro": 476,
      "ĠbÃŃ": 477,
      "Ġpe": 478,
      "Je": 479,
      "Ġbyl": 480,
      "Ġzla": 481,
      "ĠjÃŃ": 482,
      "nes": 483,
      "Ġpla": 484,
      "Ġzas": 485,
      "Ġlid": 486,
      "ÅĻÃ¡": 487,
      "ĠjÃ¡": 488,
      "Ġmy": 489,
      "Ġmne": 490,
      "ĠmÃ©": 491,
      "hou": 492,
      "ĠÅĻe": 493,
      "sto": 494,
      "ĠM": 495,
      "ĠÅ¾ivo": 496,
      "an": 497,
      "rt": 498,
      "Ġso": 499,
      "Ġdi": 500,
      "pu": 501,
      "Ġbez": 502,
      "ĠvÃ½": 503,
      "ĠpÃ¡": 504,
      "Ġkte": 505,
      "nce": 506,
      "skÃ©": 507,
      "ĠprÃ¡": 508,
      "pe": 509,
      "Ġkde": 510,
      "ĠkvÄĽt": 511,
      "ĠK": 512,
      "Ġpou": 513,
      "Ġze": 514,
      "tr": 515,
      "Å¯m": 516,
      "ĠvÅ¡ak": 517,
      "Ġjest": 518,
      "pro": 519,
      "ĠtvÃ¡": 520,
      "vÃ½ch": 521,
      "bou": 522,
      "nem": 523,
      "chÃ¡": 524,
      "Co": 525,
      "ĠA": 526,
      "ÄĮ": 527,
      "ĠpÅĻed": 528,
      "Ġnebe": 529,
      "rÃ©": 530,
      "Ġtou": 531,
      "Ġslo": 532,
      "ĠkaÅ¾": 533,
      "Ġnej": 534,
      "ĠplÃ¡": 535,
      "bÃŃ": 536,
      "Ġsto": 537,
      "kdyÅ¾": 538,
      "ĠÅ¾en": 539,
      "ĠdÃ¡l": 540,
      "tÃ©": 541,
      "kdy": 542,
      "ĠjeÅ¾": 543,
      "Ġsvo": 544,
      "pi": 545,
      "ej": 546,
      "Å½": 547,
      "ĠÄįi": 548,
      "dÄĽl": 549,
      "Ġnes": 550,
      "ĠduÅ¡e": 551,
      "ĠjejÃŃ": 552,
      "hle": 553,
      "ad": 554,
      "nÃ©m": 555,
      "ĠÄįer": 556,
      "kde": 557,
      "Ġc": 558,
      "nÃŃm": 559,
      "Ġpak": 560,
      "Ġkdy": 561,
      "Ġci": 562,
      "cha": 563,
      "Ġpos": 564,
      "Ġjsi": 565,
      "ĠpÄĽ": 566,
      "sem": 567,
      "Ġnem": 568,
      "ri": 569,
      "nÅ¯": 570,
      "ĠuÅ¾": 571,
      "Ġsvou": 572,
      "ĠvÅ¡ech": 573,
      "Ġtom": 574,
      ".âĢľ": 575,
      "Å¾en": 576,
      "Ġdob": 577,
      "ĠhvÄĽ": 578,
      "ĠjeÅ¡tÄĽ": 579,
      "ĠsÃŃ": 580,
      "Ġsla": 581,
      "ĠnÃ¡s": 582,
      "Ġku": 583,
      "vÃ½m": 584,
      "Å¡el": 585,
      "ĠÄįas": 586,
      "Ġdru": 587,
      "tÃ½": 588,
      "tra": 589,
      "Ġma": 590,
      "stu": 591,
      "Ġvel": 592,
      "ĠvÅ¡": 593,
      "pÃ¡": 594,
      "ĠvÅ¾dy": 595,
      "pÅĻe": 596,
      "tem": 597,
      "ĠjenÅ¾": 598,
      "jeÅ¾": 599,
      "ĠnÄĽm": 600,
      "Ġpl": 601,
      "Ġbra": 602,
      "ĠstÃŃ": 603,
      "Ġjej": 604,
      "ĠcÃŃ": 605,
      "Ġnez": 606,
      "Ġkr": 607,
      "ÅĻen": 608,
      "ĠvÅ¯": 609,
      "Ġkra": 610,
      "Tak": 611,
      "ĠduÅ¡i": 612,
      "zy": 613,
      "ĠmÅ¯j": 614,
      "nost": 615,
      "Ġjsou": 616,
      "Ġdra": 617,
      "jem": 618,
      "ĠchvÃŃ": 619,
      "tel": 620,
      "ĠrÅ¯": 621,
      "Ġkle": 622,
      "To": 623,
      "dÃ½": 624,
      "ech": 625,
      "Ġbude": 626,
      "sou": 627,
      "od": 628,
      "Ġbla": 629,
      "ĠbÃ½": 630,
      "stÃ¡": 631,
      "ĠtvÃ©": 632,
      "Ġda": 633,
      "Ġzrak": 634,
      "Ġsy": 635,
      "Ãĵ": 636,
      "Ġvl": 637,
      "ĠJ": 638,
      "Ġlo": 639,
      "Ġhle": 640,
      "stvÃŃ": 641,
      "hla": 642,
      "Ġl": 643,
      "uÅ¾": 644,
      "Ġden": 645,
      "krÃ¡": 646,
      "Ġstar": 647,
      "ĠÅĻÃŃ": 648,
      "Ġstra": 649,
      "Ġsm": 650,
      "hÃ½": 651,
      "Ġva": 652,
      "ĠvÅ¡ec": 653,
      "ĠsvÄĽ": 654,
      "ĠvÄĽÄį": 655,
      "vÅ¡ak": 656,
      "Ġhra": 657,
      "zi": 658,
      "jich": 659,
      "so": 660,
      "nul": 661,
      "Ġpu": 662,
      "nÃ¡m": 663,
      "Ġkdo": 664,
      "ven": 665,
      "vil": 666,
      "dem": 667,
      "jÃ¡": 668,
      "mut": 669,
      "Ġhlu": 670,
      "tak": 671,
      "Za": 672,
      "Ġsou": 673,
      "ĠH": 674,
      "bÃ¡": 675,
      "cen": 676,
      "Ġot": 677,
      "nosti": 678,
      "Ġslad": 679,
      "Ġmod": 680,
      "vÅ¯j": 681,
      "Ġme": 682,
      "ĠÅ¾ivot": 683,
      "Ġsl": 684,
      "Ġsam": 685,
      "ĠbÃ¡": 686,
      "tÃŃm": 687,
      "aÅ¾": 688,
      "Ġzd": 689,
      "Ġzvo": 690,
      "ĠbÄĽ": 691,
      "Ġhu": 692,
      "tek": 693,
      "tou": 694,
      "sÃ¡": 695,
      "til": 696,
      "Do": 697,
      "ĠBo": 698,
      "py": 699,
      "Ġla": 700,
      "snÄĽ": 701,
      "Ġry": 702,
      "jÅ¡ÃŃ": 703,
      "cÃŃch": 704,
      "ĠmnÄĽ": 705,
      "Ġdlou": 706,
      "ĠÅ¾Ã¡": 707,
      "Ġkou": 708,
      "Ġjsme": 709,
      "sÅ¥": 710,
      "ĠkÅĻÃŃ": 711,
      "er": 712,
      "Ġja": 713,
      "Å¯h": 714,
      "Ġnich": 715,
      "ĠteÄı": 716,
      "Ġjas": 717,
      "Ġre": 718,
      "snÃŃ": 719,
      "ĠÅ¡tÄĽ": 720,
      "JÃ¡": 721,
      "lovÄĽ": 722,
      "dla": 723,
      "chy": 724,
      "ĠnenÃŃ": 725,
      "Ġlu": 726,
      "Å¡en": 727,
      "Ġstro": 728,
      "lid": 729,
      "ĠoÄįi": 730,
      "Ġf": 731,
      "vz": 732,
      "Ġspo": 733,
      "Pro": 734,
      "stou": 735,
      "hÃ©": 736,
      "Ġtr": 737,
      "cem": 738,
      "Ġpoh": 739,
      "Ġvra": 740,
      "Ġbych": 741,
      "Äįka": 742,
      "ĠneÅ¾": 743,
      "skÃ½": 744,
      "stÄĽ": 745,
      "zu": 746,
      "ĠlÃ¡sky": 747,
      "Ġbou": 748,
      "Ġslunce": 749,
      "vnÃŃ": 750,
      "Ġbylo": 751,
      "pla": 752,
      "Ġjich": 753,
      "skÃ¡": 754,
      "Ġsvat": 755,
      "Ġmil": 756,
      "kdo": 757,
      "ned": 758,
      "Ġtvo": 759,
      "Ġmat": 760,
      "pr": 761,
      "Ġmno": 762,
      "ĠtÄĽch": 763,
      "Ġpoz": 764,
      "rem": 765,
      "ĠzpÄĽ": 766,
      "nÃ©ho": 767,
      "VÅ¡ak": 768,
      "Ġml": 769,
      "ĠaÅ¾": 770,
      "dÃ©": 771,
      "ĠsÃ¡m": 772,
      "lesk": 773,
      "ĠptÃ¡": 774,
      "Äįen": 775,
      "ĠslÃ¡": 776,
      "ĠnÃŃm": 777,
      "Ġcho": 778,
      "Ġsmut": 779,
      "sud": 780,
      "Ġon": 781,
      "vem": 782,
      "Ġoh": 783,
      "ĠsvÃŃ": 784,
      "âĢĵ": 785,
      "ÅĻel": 786,
      "Ty": 787,
      "Å¡tÃŃ": 788,
      "kla": 789,
      "ĠtÅĻe": 790,
      "ĠsobÄĽ": 791,
      "Ġjim": 792,
      "Å¡ÃŃm": 793,
      "Jen": 794,
      "ĠL": 795,
      "pra": 796,
      "Ġtem": 797,
      "ÅĻÃŃm": 798,
      "ĠÅ¾itÃŃ": 799,
      "Ġbyla": 800,
      "kal": 801,
      "Ġkro": 802,
      "ĠkrÃ¡s": 803,
      "Ġsly": 804,
      "om": 805,
      "ĠsnÄĽ": 806,
      "ĠsvÅ¯j": 807,
      "jde": 808,
      "ĠÄįlovÄĽ": 809,
      "ĠchtÄĽ": 810,
      "Ġmou": 811,
      "seÅĪ": 812,
      "Ġsnad": 813,
      "Åł": 814,
      "ĠsmÄĽ": 815,
      "mÅ¯": 816,
      "Ġsrdci": 817,
      "Ġnech": 818,
      "Ã³": 819,
      "ĠvÃ¡m": 820,
      "sty": 821,
      "Å¡Å¥": 822,
      "Ġzde": 823,
      "Ġmys": 824,
      "vÅ¾dy": 825,
      "smÄĽ": 826,
      "Ġmilo": 827,
      "jenÅ¾": 828,
      "ved": 829,
      "ĠsvÃ½m": 830,
      "chem": 831,
      "nky": 832,
      "vÅ¡e": 833,
      "lÃ½ch": 834,
      "Ġvr": 835,
      "Ġkla": 836,
      "Ġkam": 837,
      "roz": 838,
      "pomÃŃ": 839,
      "ĠvÄĽt": 840,
      "ĠzemÄĽ": 841,
      "Äįky": 842,
      "ten": 843,
      "KdyÅ¾": 844,
      "Ġzemi": 845,
      "Äįek": 846,
      "ĠsvÃ½ch": 847,
      "ĠÅ¡ÃŃ": 848,
      "Äįer": 849,
      "ÅĻem": 850,
      "Ġdnes": 851,
      "bra": 852,
      "ĠblÃŃ": 853,
      "ska": 854,
      "lÅ¯": 855,
      "Tu": 856,
      "sla": 857,
      "Ġjejich": 858,
      "ĠO": 859,
      "Ġmoje": 860,
      "zo": 861,
      "Ġruce": 862,
      "ĠpÅ¯": 863,
      "Ġchu": 864,
      "Ġok": 865,
      "nil": 866,
      "ĠtÄĽÅ¾": 867,
      "ĠhvÄĽz": 868,
      "hÅ¯": 869,
      "Ġmrt": 870,
      "ĠvÃŃc": 871,
      "Ġtich": 872,
      "ĠtÃ¡": 873,
      "ĠchvÄĽ": 874,
      "ĠsmÃŃ": 875,
      "dil": 876,
      "vit": 877,
      "jako": 878,
      "sky": 879,
      "Ġke": 880,
      "Ġrado": 881,
      "Ġkolem": 882,
      "skÃ½ch": 883,
      "Å½e": 884,
      "ĠÅ¡tÄĽstÃŃ": 885,
      "cÅ¯": 886,
      "sku": 887,
      "pad": 888,
      "ĠspÃ¡": 889,
      "ĠÄįa": 890,
      "ĠtobÄĽ": 891,
      "hem": 892,
      "?âĢľ": 893,
      "Ġnoci": 894,
      "on": 895,
      "zÃ¡": 896,
      "hne": 897,
      "ĠvÅ¡em": 898,
      "ast": 899,
      "kÃ½ch": 900,
      "Ġsmr": 901,
      "nek": 902,
      "ĠZ": 903,
      "Ġmra": 904,
      "ĠkaÅ¾dÃ½": 905,
      "ĠvÃ¡s": 906,
      "nout": 907,
      "ĠnaÅ¡e": 908,
      "Äįku": 909,
      "pÅĻi": 910,
      "ĠzdÃ¡": 911,
      "rev": 912,
      "lil": 913,
      "ĠmÃ¡m": 914,
      "ĠtÃ©Å¾": 915,
      "vnÄĽ": 916,
      "Ġnepo": 917,
      "um": 918,
      "Ġvlast": 919,
      "Ġhlavu": 920,
      "Ch": 921,
      "ĠvÅ¡ecko": 922,
      "ĠR": 923,
      "Ġbi": 924,
      "ÅĻil": 925,
      "dech": 926,
      "den": 927,
      "vr": 928,
      "ĠhÃ¡": 929,
      "nal": 930,
      "ĠzpÃŃ": 931,
      "dnÃ©": 932,
      "ĠtvÅ¯j": 933,
      "By": 934,
      "Ġple": 935,
      "leÄį": 936,
      "ĠÄĮ": 937,
      "Ji": 938,
      "Ġsva": 939,
      "ĠN": 940,
      "ale": 941,
      "ĠÅĻ": 942,
      "tÅ¯": 943,
      "Vy": 944,
      "Ġhru": 945,
      "sko": 946,
      "dÃŃm": 947,
      "Ġjste": 948,
      "Ġsko": 949,
      "Ġklid": 950,
      "Ġchce": 951,
      "mÃ©": 952,
      "ĠD": 953,
      "Ġzlo": 954,
      "nech": 955,
      "kÃ½m": 956,
      "Ġha": 957,
      "hra": 958,
      "nÃŃch": 959,
      "ĠpÃŃseÅĪ": 960,
      "Ġnoc": 961,
      "zem": 962,
      "Ġtebe": 963,
      "jÃŃcÃŃ": 964,
      "ĠdÅĻÃŃ": 965,
      "Ġhlas": 966,
      "neb": 967,
      "ĠvlÃ¡": 968,
      "kte": 969,
      "ĠmÄĽl": 970,
      "ĠnÃ¡ro": 971,
      "ĠdÃ¡v": 972,
      "Ve": 973,
      "ĠmoÅĻe": 974,
      "Äįil": 975,
      "Ġjem": 976,
      "tva": 977,
      "Ġmar": 978,
      "Ġsen": 979,
      "tam": 980,
      "ĠlÃ©": 981,
      "Ġde": 982,
      "ĠpÅĻec": 983,
      "Å¡ich": 984,
      "ĠhÅĻÃŃ": 985,
      "ĠcelÃ½": 986,
      "tky": 987,
      "Ġprav": 988,
      "ĠdÃŃtÄĽ": 989,
      "mnÄĽ": 990,
      "ĠstÅĻe": 991,
      "Ġmlad": 992,
      "Ġani": 993,
      "ĠchvÃŃli": 994,
      "ĠÅ¾ÃŃ": 995,
      "byl": 996,
      "ĠÅĪ": 997,
      "vÃŃm": 998,
      "ĠoÄįÃŃ": 999,
      "Ġkru": 1000,
      "spo": 1001,
      "Ġhor": 1002,
      "kol": 1003,
      "ĠmlÃ¡": 1004,
      "Ġhlou": 1005,
      "Å¯Å¾e": 1006,
      "Ġslun": 1007,
      "ĠhvÄĽzd": 1008,
      "dnÃ½": 1009,
      "ĠtÃŃm": 1010,
      "Ġprou": 1011,
      "Kdo": 1012,
      "Ġus": 1013,
      "Ġba": 1014,
      "Ġsem": 1015,
      "Å¾il": 1016,
      "vÅ¯": 1017,
      "Å¡la": 1018,
      "dnou": 1019,
      "vra": 1020,
      "Ġlet": 1021,
      "tÅĻe": 1022,
      "Ġmoc": 1023,
      "ĠstrÃ¡": 1024,
      "Ġoko": 1025,
      "hl": 1026,
      "ĠsvÃ©m": 1027,
      "Ġhr": 1028,
      "ĠtÃŃ": 1029,
      "neÅ¾": 1030,
      "Ġale": 1031,
      "ĠsvÃ©ho": 1032,
      "Ġzvu": 1033,
      "dal": 1034,
      "cÃŃm": 1035,
      "ĠspÄĽ": 1036,
      "Ġny": 1037,
      "Ġmlu": 1038,
      "Ġsu": 1039,
      "ĠsnÃŃ": 1040,
      "ĠvrÃ¡": 1041,
      "ĠchrÃ¡": 1042,
      "krÃ¡t": 1043,
      "Ġtoho": 1044,
      "ĠÅ¡i": 1045,
      "pou": 1046,
      "ĠtakÃ©": 1047,
      "ĠzÅĻÃŃ": 1048,
      "Ġbole": 1049,
      "Ġjenom": 1050,
      "Ġsil": 1051,
      "nÃ¡ch": 1052,
      "pl": 1053,
      "Ġhned": 1054,
      "pat": 1055,
      "Ġchy": 1056,
      "Ġkol": 1057,
      "Ġmez": 1058,
      "Ġbe": 1059,
      "dnÃŃ": 1060,
      "ĠkÅĻi": 1061,
      "Ġote": 1062,
      "ĠaÅ¥": 1063,
      "ĠdÃŃv": 1064,
      "Ġky": 1065,
      "ĠpÅĻes": 1066,
      "ĠmuÅ¾": 1067,
      "sÃŃc": 1068,
      "aÅ¥": 1069,
      "vÃ©m": 1070,
      "dce": 1071,
      "ĠnÃ¡Å¡": 1072,
      "Ġblesk": 1073,
      "ĠsvÄĽta": 1074,
      "ĠstojÃŃ": 1075,
      "cky": 1076,
      "ĠÄįÃŃ": 1077,
      "skou": 1078,
      "Ġpan": 1079,
      "tro": 1080,
      "Ġneb": 1081,
      "Te": 1082,
      "ouf": 1083,
      "stÃ©": 1084,
      "Ġneu": 1085,
      "pod": 1086,
      "Ġobra": 1087,
      "ĠtiÅ¡e": 1088,
      "kam": 1089,
      "ĠbÃ½t": 1090,
      "Ġkrev": 1091,
      "Ġduch": 1092,
      "ĠskÃ¡": 1093,
      "nka": 1094,
      "Ġzase": 1095,
      "Ġmal": 1096,
      "nku": 1097,
      "ÄįÃŃm": 1098,
      "Le": 1099,
      "ÄįnÃŃ": 1100,
      "Ġslova": 1101,
      "dlo": 1102,
      "lit": 1103,
      "ĠzÃŃ": 1104,
      "ĠÄįlovÄĽk": 1105,
      "rov": 1106,
      "Ġchlad": 1107,
      "ĠkvÃŃ": 1108,
      "ĠÃºsmÄĽ": 1109,
      "ĠvÃŃce": 1110,
      "tom": 1111,
      "ĠnÃ¡hle": 1112,
      "nec": 1113,
      "el": 1114,
      "pÄĽt": 1115,
      "znÄĽ": 1116,
      "Ġan": 1117,
      "Kde": 1118,
      "Ġtro": 1119,
      "Ġnebi": 1120,
      "jiÅ¾": 1121,
      "Ġpok": 1122,
      "stÅĻe": 1123,
      "rnÄĽ": 1124,
      "mou": 1125,
      "ĠlÃ¡ska": 1126,
      "âĢĻ,": 1127,
      "ĠrÃ¡d": 1128,
      "ĠhnÄĽ": 1129,
      "ĠÅĻek": 1130,
      "pak": 1131,
      "ĠÅ¾a": 1132,
      "sÅ¯": 1133,
      "stal": 1134,
      "ĠstÃ¡le": 1135,
      "ena": 1136,
      "Ġdal": 1137,
      "vala": 1138,
      "Äįko": 1139,
      "Ġtru": 1140,
      "PÅĻe": 1141,
      "Ġsebe": 1142,
      "ĠhrÃ¡": 1143,
      "ĠtvÃ¡ÅĻ": 1144,
      "Ġjednou": 1145,
      "lednÃŃ": 1146,
      "Ġg": 1147,
      "Ġdiv": 1148,
      "Ko": 1149,
      "ÄįnÄĽ": 1150,
      "Ġzje": 1151,
      "Ġjeden": 1152,
      "ĠmyÅ¡": 1153,
      "lÃ½m": 1154,
      "Ġmnou": 1155,
      "lech": 1156,
      "ĠÅ¡Å¥": 1157,
      "lek": 1158,
      "tku": 1159,
      "ĠstÅĻÃŃ": 1160,
      "ĠklÃŃ": 1161,
      "Ġtma": 1162,
      "ĠnynÃŃ": 1163,
      "ĠvÃ¡Å¡": 1164,
      "ĠbÅĻe": 1165,
      "Ġdr": 1166,
      "Ġrukou": 1167,
      "Ġpi": 1168,
      "uje": 1169,
      "ami": 1170,
      "Ġos": 1171,
      "nic": 1172,
      "Ġpad": 1173,
      "ĠBÅ¯h": 1174,
      "ĠtrÃ¡": 1175,
      "Ġmla": 1176,
      "vÃ¡m": 1177,
      "Ġvol": 1178,
      "jte": 1179,
      "Ach": 1180,
      "ĠpÅĻÃ¡": 1181,
      "lÃ©m": 1182,
      "ĠspÃŃ": 1183,
      "Å¡li": 1184,
      "Ġbled": 1185,
      "Ã©ho": 1186,
      "Å¡em": 1187,
      "Å¡ti": 1188,
      "Åĺ": 1189,
      "zen": 1190,
      "Ġbudou": 1191,
      "nÃŃk": 1192,
      "Ġdech": 1193,
      "ĠchtÄĽl": 1194,
      "Tam": 1195,
      "Ġjde": 1196,
      "Ġmezi": 1197,
      "dÅ¯": 1198,
      "bych": 1199,
      "Ġdne": 1200,
      "Ġboj": 1201,
      "VÅ¡e": 1202,
      "jÃŃc": 1203,
      "Ale": 1204,
      "Ġodpo": 1205,
      "Ġmrak": 1206,
      "ĠbrÃ¡": 1207,
      "Ġstu": 1208,
      "stÃ½": 1209,
      "Ġzo": 1210,
      "Ġtomu": 1211,
      "Od": 1212,
      "Ġplamen": 1213,
      "Ġnikdy": 1214,
      "ĠsvÃ¡": 1215,
      "Ġjar": 1216,
      "Hle": 1217,
      "ĠrÅ¯Å¾e": 1218,
      "rnÃ©": 1219,
      "Ãº": 1220,
      "pil": 1221,
      "Ġhrob": 1222,
      "Ġvzdu": 1223,
      "dnÄĽ": 1224,
      "ĠbuÄı": 1225,
      "ĠnadÄĽ": 1226,
      "Ġnebes": 1227,
      "Ġzno": 1228,
      "tal": 1229,
      "lik": 1230,
      "tka": 1231,
      "Ġpoli": 1232,
      "rnÃ½": 1233,
      "mys": 1234,
      "ĠÅ¡Å¥ast": 1235,
      "Ġnedo": 1236,
      "Ġbrat": 1237,
      "kle": 1238,
      "lov": 1239,
      "sil": 1240,
      "Ġjedno": 1241,
      "ben": 1242,
      "Ro": 1243,
      "vali": 1244,
      "zel": 1245,
      "kÃ¡ch": 1246,
      "Ġost": 1247,
      "ĠhrÅ¯": 1248,
      "Ġhlavy": 1249,
      "Ġdla": 1250,
      "ĠveÄįer": 1251,
      "plÃ¡": 1252,
      "ĠdÄĽti": 1253,
      "Ġsmrti": 1254,
      "vÃ¡nÃŃ": 1255,
      "ĠznÃ¡": 1256,
      "ĠhÅĻ": 1257,
      "kÃ©m": 1258,
      "ĠobÄĽ": 1259,
      "pÅĻed": 1260,
      "nice": 1261,
      "dle": 1262,
      "ja": 1263,
      "bez": 1264,
      "ĠJe": 1265,
      "Ġzm": 1266,
      "Ġlou": 1267,
      "kÅĻi": 1268,
      "tech": 1269,
      "ĠkterÃ©": 1270,
      "Ġpoko": 1271,
      "Ġzna": 1272,
      "ĠdÃ¡le": 1273,
      "znÃŃ": 1274,
      "Ġste": 1275,
      "Ġnemo": 1276,
      "lost": 1277,
      "prÃ¡": 1278,
      "Ten": 1279,
      "pÅĻÃŃ": 1280,
      "ĠC": 1281,
      "ĠznÃŃ": 1282,
      "ĠnÃŃÅ¾": 1283,
      "ĠvÃŃtÄĽ": 1284,
      "rost": 1285,
      "has": 1286,
      "PÅĻi": 1287,
      "hlÃ©": 1288,
      "ĠbÃŃlÃ©": 1289,
      "Ġjedi": 1290,
      "Ġklo": 1291,
      "hlÃŃ": 1292,
      "ĠÅ¡u": 1293,
      "Ġzi": 1294,
      "Ġnic": 1295,
      "Ġoz": 1296,
      "ĠzvÄĽ": 1297,
      "ĠpÅĻece": 1298,
      "Ġslav": 1299,
      "Ġpat": 1300,
      "Ġzak": 1301,
      "stra": 1302,
      "Ġhled": 1303,
      "ĠvzpomÃŃ": 1304,
      "trÃ¡": 1305,
      "ĠduÅ¡ÃŃ": 1306,
      "Jako": 1307,
      "ĠmusÃŃ": 1308,
      "Ġhou": 1309,
      "Ã½mi": 1310,
      "Ġvese": 1311,
      "ude": 1312,
      "hat": 1313,
      "jÃŃm": 1314,
      "Ġruku": 1315,
      "ĠprvnÃŃ": 1316,
      "nit": 1317,
      "Ġnu": 1318,
      "lÃŃm": 1319,
      "ĠkÃ¡": 1320,
      "ĠNe": 1321,
      "ĠkterÃ½": 1322,
      ",âĢľ": 1323,
      "sÃŃm": 1324,
      "boÅ¾": 1325,
      "TeÄı": 1326,
      "jsem": 1327,
      "My": 1328,
      "Ġven": 1329,
      "Ġnimi": 1330,
      "ĠnovÃ©": 1331,
      "Ġzb": 1332,
      "dÄĽla": 1333,
      "zda": 1334,
      "Ġhlavou": 1335,
      "Ġum": 1336,
      "ĠmÃ½ch": 1337,
      "Äįel": 1338,
      "ĠletÃŃ": 1339,
      "Ġveli": 1340,
      "Ġhrd": 1341,
      "ĠleÅ¾ÃŃ": 1342,
      "Ġbar": 1343,
      "ĠdÅ¯": 1344,
      "et": 1345,
      "stÅĻÃŃ": 1346,
      "tla": 1347,
      "Ġlesk": 1348,
      "ĠF": 1349,
      "pen": 1350,
      "Ġskry": 1351,
      "Ġruka": 1352,
      "ĠsvÄĽtÄĽ": 1353,
      "On": 1354,
      "ĠskrÃ¡": 1355,
      "rob": 1356,
      "ĠPÃ¡": 1357,
      "Ġleh": 1358,
      "Ġzra": 1359,
      "Ġobla": 1360,
      "ĠvolÃ¡": 1361,
      "ĠnevÄĽ": 1362,
      "Ġsa": 1363,
      "pas": 1364,
      "Pak": 1365,
      "Ã¡me": 1366,
      "Ġdvo": 1367,
      "Ġnevi": 1368,
      "ĠstÃŃn": 1369,
      "ĠÃ³": 1370,
      "ÄįnÃ©": 1371,
      "Ġdce": 1372,
      "Ġvlasti": 1373,
      "tÄĽl": 1374,
      "Ġhroz": 1375,
      "dne": 1376,
      "Ho": 1377,
      "ĠsÃ¡": 1378,
      "Ġpru": 1379,
      "ĠtvÃ½ch": 1380,
      "nutÃŃ": 1381,
      "ĠznÄĽ": 1382,
      "Ġstr": 1383,
      "ĠhvÄĽzdy": 1384,
      "Ġradost": 1385,
      "MÃ¡": 1386,
      "hled": 1387,
      "Ġplo": 1388,
      "Ġsvoje": 1389,
      "ct": 1390,
      "ĠzÃ¡ÅĻÃŃ": 1391,
      "ĠcizÃŃ": 1392,
      "Ġtesk": 1393,
      "Ġtra": 1394,
      "zrak": 1395,
      "Ġona": 1396,
      "Ġsli": 1397,
      "Ġsle": 1398,
      "ĠzlatÃ©": 1399,
      "ĠkvÄĽty": 1400,
      "Å½i": 1401,
      "Ġtaj": 1402,
      "sni": 1403,
      "ĠTo": 1404,
      "Ġrozko": 1405,
      "ĠÅ¾al": 1406,
      "in": 1407,
      "pos": 1408,
      "ĠdÃ¡vno": 1409,
      "ĠmÅ¯Å¾e": 1410,
      "Äįem": 1411,
      "dnÃ¡": 1412,
      "ĠÅ¡el": 1413,
      "VÄĽ": 1414,
      "Ġsamo": 1415,
      "ĠsvÃŃtÃŃ": 1416,
      "zko": 1417,
      "pal": 1418,
      "ĠchvÃŃle": 1419,
      "Ġticho": 1420,
      "Ġtlu": 1421,
      "Ġkraj": 1422,
      "Ta": 1423,
      "Ġlidst": 1424,
      "Ġpozd": 1425,
      "ÅĻit": 1426,
      "ĠjuÅ¾": 1427,
      "Ġtvoje": 1428,
      "ĠstarÃ½": 1429,
      "teÄı": 1430,
      "Ġdar": 1431,
      "ĠÅ¾ha": 1432,
      "div": 1433,
      "ĠprÃ¡zd": 1434,
      "ProÄį": 1435,
      "Å¡enÃŃ": 1436,
      "he": 1437,
      "let": 1438,
      "Ġdlouho": 1439,
      "hal": 1440,
      "kve": 1441,
      "Se": 1442,
      "ĠkrÃ¡l": 1443,
      "ĠknÄĽ": 1444,
      "klo": 1445,
      "ĠÄįelo": 1446,
      "ĠÅĪad": 1447,
      "Ġe": 1448,
      "Å¾ÃŃm": 1449,
      "ĠnÄĽho": 1450,
      "ĠzpÄĽv": 1451,
      "chle": 1452,
      "lal": 1453,
      "ĠbÃ½ti": 1454,
      "vÃ¡n": 1455,
      "vrÃ¡": 1456,
      "Ġhe": 1457,
      "dob": 1458,
      "Ã½vÃ¡": 1459,
      "Ġproti": 1460,
      "mr": 1461,
      "Å¯Å¾": 1462,
      "ran": 1463,
      "Ġhy": 1464,
      "Ġpohled": 1465,
      "ĠnÃ¡mi": 1466,
      "mÄĽnÃŃ": 1467,
      "Nad": 1468,
      "nÄĽjÅ¡ÃŃ": 1469,
      "vajÃŃ": 1470,
      "ĠvÅĻe": 1471,
      "ĠnÃ¡ru": 1472,
      "ĠÅ¡ep": 1473,
      "ĠlÃ¡sku": 1474,
      "Ġnebo": 1475,
      "ĠÅĻa": 1476,
      "ĠcelÃ©": 1477,
      "Ġsch": 1478,
      "zde": 1479,
      "Bo": 1480,
      "dÄĽt": 1481,
      "Ġtebou": 1482,
      "Ġhud": 1483,
      "rÃ½ch": 1484,
      "ĠtÄĽlo": 1485,
      "Ġpouze": 1486,
      "slo": 1487,
      "ĠÅ¾ivota": 1488,
      "ĠboÅ¾ÃŃ": 1489,
      "Ã¡c": 1490,
      "ĠvÅ¡ecky": 1491,
      "jÄı": 1492,
      "Ġztra": 1493,
      "vÃ©ho": 1494,
      "Ġslou": 1495,
      "ĠnÃ¡rod": 1496,
      "ĠÅ¾ena": 1497,
      "Ġhlubo": 1498,
      "ĠG": 1499,
      "nak": 1500,
      "or": 1501,
      "tÃ½ch": 1502,
      "kro": 1503,
      "Bu": 1504,
      "dra": 1505,
      "JiÅ¾": 1506,
      "Ġzapo": 1507,
      "Ġper": 1508,
      "ke": 1509,
      "ĠstÄĽ": 1510,
      "Ġosud": 1511,
      "lna": 1512,
      "Ġvrou": 1513,
      "ĠpohÃ¡": 1514,
      "Ġkraji": 1515,
      "Ġode": 1516,
      "ĠlÃ¡skou": 1517,
      "Ġtajem": 1518,
      "Ġplu": 1519,
      "ĠdÃ¡li": 1520,
      "kÃ¡m": 1521,
      "kud": 1522,
      "Ġpole": 1523,
      "Ġpam": 1524,
      "ĠÅ¡tÃŃ": 1525,
      "ata": 1526,
      "ĠPo": 1527,
      "ĠpolÃŃ": 1528,
      "Å¾el": 1529,
      "ÄįnÃ½": 1530,
      "Ġpy": 1531,
      "ĠdobÅĻe": 1532,
      "Ġsku": 1533,
      "ĠvdÄĽ": 1534,
      "Ġdva": 1535,
      "ĠhledÃŃ": 1536,
      "ĠpanÃŃ": 1537,
      "jej": 1538,
      "ĠpÃŃsnÄĽ": 1539,
      "AÅ¾": 1540,
      "Ġblou": 1541,
      "ĠsklÃ¡": 1542,
      "ĠjÃŃm": 1543,
      "Ġkrve": 1544,
      "chÃ¡zÃŃ": 1545,
      "ĠkÅĻe": 1546,
      "tit": 1547,
      "ĠprÃ½": 1548,
      "ĠbÃŃlÃ½": 1549,
      "svÃ©": 1550,
      "ĠE": 1551,
      "Ġbr": 1552,
      "ĠdrÃ¡": 1553,
      "Ġsmrt": 1554,
      "Ġtady": 1555,
      "ÄįenÃŃ": 1556,
      "zou": 1557,
      "Ġdale": 1558,
      "Ġsotva": 1559,
      "Ġzda": 1560,
      "kli": 1561,
      "znÃ¡": 1562,
      "Ġmoh": 1563,
      "Ġzelen": 1564,
      "ĠvÅ¾dycky": 1565,
      "VÅ¾dy": 1566,
      "nostÃŃ": 1567,
      "vlÃ¡": 1568,
      "Ġsni": 1569,
      "ĠdÄĽl": 1570,
      "ĠsmÃŃch": 1571,
      "bude": 1572,
      "zas": 1573,
      "Ġnese": 1574,
      "ĠvÅ¡eho": 1575,
      "ĠÅ¾eny": 1576,
      "pÅ¯": 1577,
      "ĠzÃ¡ÅĻ": 1578,
      "rÃ½m": 1579,
      "ĠchvÃ¡": 1580,
      "ob": 1581,
      "dit": 1582,
      "Å¡il": 1583,
      "ĠsvojÃŃ": 1584,
      "Å¾Ã¡": 1585,
      "ĠznÃ¡m": 1586,
      "Kdy": 1587,
      "Ġboji": 1588,
      "sce": 1589,
      "ĠÅł": 1590,
      "Ġlidu": 1591,
      "Ġslzy": 1592,
      "ĠumÃŃ": 1593,
      "Ġjemu": 1594,
      "ĠpÃŃsnÃŃ": 1595,
      "Ġneza": 1596,
      "Ġsna": 1597,
      "Vz": 1598,
      "chvÄĽ": 1599,
      "ĠtÅĻ": 1600,
      "ĠzÅ¯": 1601,
      "Ġzve": 1602,
      "ĠkaÅ¾dÃ©": 1603,
      "ĠvidÄĽl": 1604,
      "hnou": 1605,
      "AÅ¥": 1606,
      "ĠÄįasto": 1607,
      "hÅ¯ru": 1608,
      "ĠvlastnÃŃ": 1609,
      "Vi": 1610,
      "ĠvelkÃ©": 1611,
      "dl": 1612,
      "ĠsvÄĽtlo": 1613,
      "Ġzouf": 1614,
      "vost": 1615,
      "Ġkni": 1616,
      "Å¾o": 1617,
      "mÄĽl": 1618,
      "VÃŃ": 1619,
      "Å¾eh": 1620,
      "ĠpadÃ¡": 1621,
      "KrÃ¡": 1622,
      "ĠposlednÃŃ": 1623,
      "ĠPra": 1624,
      "aby": 1625,
      "Ġtedy": 1626,
      "ĠsnÅ¯": 1627,
      "enÃ¡": 1628,
      "ĠjmÃ©": 1629,
      "!...": 1630,
      "Ġsklo": 1631,
      "ĠsmÃ¡": 1632,
      "Ġpomo": 1633,
      "ĠhoÅĻÃŃ": 1634,
      "Ġcestu": 1635,
      "ĠnovÃ½": 1636,
      "ral": 1637,
      "Ġrou": 1638,
      "Ġblu": 1639,
      "ĠtÅĻeba": 1640,
      "vÅ¾dyÅ¥": 1641,
      "Ġzlato": 1642,
      "ĠmÃ©ho": 1643,
      "ĠnÄĽmu": 1644,
      "Ġkry": 1645,
      "ĠpoÄį": 1646,
      "snad": 1647,
      "Ġkve": 1648,
      "Ġaby": 1649,
      "ĠnÄĽmÅ¾": 1650,
      "ĠkterÃ¡": 1651,
      "kne": 1652,
      "ĠrÃ¡na": 1653,
      "letÃŃ": 1654,
      "ĠblÃ¡": 1655,
      "ĠsÃŃly": 1656,
      "Ġhlava": 1657,
      "Ġdruh": 1658,
      "ĠvÃŃm": 1659,
      "ĠproÄį": 1660,
      "tnÃŃ": 1661,
      "kÅ¯m": 1662,
      "ĠzpÃŃvÃ¡": 1663,
      "Ġjisk": 1664,
      "ĠvelkÃ½": 1665,
      "ĠvÃŃtr": 1666,
      "din": 1667,
      "Ġves": 1668,
      "Ġvich": 1669,
      "Ġstej": 1670,
      "ĠvidÃŃ": 1671,
      "ĠKri": 1672,
      "ĠÃºsmÄĽv": 1673,
      "pÅĻÃ¡": 1674,
      "Ġpocho": 1675,
      "ĠprÃ¡ci": 1676,
      "ĠmlÃ¡dÃŃ": 1677,
      "Ġkles": 1678,
      "ĠPa": 1679,
      "Ġnevy": 1680,
      "Ġkon": 1681,
      "Ġhory": 1682,
      "nÃ½mi": 1683,
      "sÃŃce": 1684,
      "lze": 1685,
      "tko": 1686,
      "dÄĽj": 1687,
      "ĠdomÅ¯": 1688,
      "Ġbolest": 1689,
      "ĠsvÄĽtla": 1690,
      "ckÃ©": 1691,
      "Ġzu": 1692,
      "ĠzmÄĽ": 1693,
      "us": 1694,
      "nej": 1695,
      "Ġchci": 1696,
      "bil": 1697,
      "ĠI": 1698,
      "Ġzahra": 1699,
      "Ġmoud": 1700,
      "ĠstÅĻÃŃb": 1701,
      "Ġsvoji": 1702,
      "Ġzmi": 1703,
      "Ġpom": 1704,
      "tnÃ©": 1705,
      "Ġpapr": 1706,
      "stem": 1707,
      "cko": 1708,
      "bor": 1709,
      "zna": 1710,
      "Ġsed": 1711,
      "ĠzlatÃ½": 1712,
      "Snad": 1713,
      "ĠstarÃ©": 1714,
      "Ġroze": 1715,
      "CoÅ¾": 1716,
      "ĠpÅ¯l": 1717,
      "Ġvoj": 1718,
      "dr": 1719,
      "tvÃ¡": 1720,
      "Ġkouz": 1721,
      "Ġskal": 1722,
      "Ġbys": 1723,
      "ani": 1724,
      "Ġuli": 1725,
      "Ġobraz": 1726,
      "Ni": 1727,
      "vla": 1728,
      "ĠsvatÃ©": 1729,
      "kra": 1730,
      "ĠzÃ¡ÅĻi": 1731,
      "Ġmnoho": 1732,
      "ĠnaÅ¡ÃŃ": 1733,
      "Ġspolu": 1734,
      "LeÄį": 1735,
      "zni": 1736,
      "Ġsvobo": 1737,
      "ĠbÃ¡snÃŃ": 1738,
      "Zde": 1739,
      "Ġtep": 1740,
      "ĠkvÄĽtÅ¯": 1741,
      "der": 1742,
      "Ġnikdo": 1743,
      "ĠmilÃ½": 1744,
      "Ġmr": 1745,
      "ĠopÄĽt": 1746,
      "ĠbouÅĻ": 1747,
      "ĠdÄĽt": 1748,
      "dru": 1749,
      "stro": 1750,
      "ÅĻa": 1751,
      "ĠkrÃ¡sy": 1752,
      "ĠmÃ¡lo": 1753,
      "Ġou": 1754,
      "ĠvÄĽru": 1755,
      "ĠstÃŃny": 1756,
      "Äįit": 1757,
      "slu": 1758,
      "cit": 1759,
      "Ti": 1760,
      "sal": 1761,
      "Nech": 1762,
      "sen": 1763,
      "ĠstÃ¡l": 1764,
      "klÃ¡": 1765,
      "skÃ©ho": 1766,
      "van": 1767,
      "Ġpot": 1768,
      "str": 1769,
      "ĠÅ¡at": 1770,
      "Ġzr": 1771,
      "dej": 1772,
      "Äįera": 1773,
      "Ġy": 1774,
      "Ġvzdo": 1775,
      "Ġpolo": 1776,
      "ĠvÃ¡Å¾": 1777,
      "Å¡ichni": 1778,
      "No": 1779,
      "ala": 1780,
      "ĠprÃ¡ce": 1781,
      "Ġtvou": 1782,
      "rdce": 1783,
      "losti": 1784,
      "ĠlidÃŃ": 1785,
      "ĠvÄĽÄįnÄĽ": 1786,
      "Ġtouhy": 1787,
      "Ġzved": 1788,
      "ĠvÃŃtÄĽz": 1789,
      "ĠjistÄĽ": 1790,
      "ĠhoÅĻe": 1791,
      "snÃ©": 1792,
      "valy": 1793,
      "vila": 1794,
      "ĠnichÅ¾": 1795,
      "gi": 1796,
      "sek": 1797,
      "ĠprÃ¡vÄĽ": 1798,
      "ĠlidÃ©": 1799,
      "ĠpÅĻijde": 1800,
      "ĠsvatÃ½": 1801,
      "ĠÅĻÃ¡": 1802,
      "bylo": 1803,
      "nula": 1804,
      "Ġkli": 1805,
      "ĠtrÅ¯": 1806,
      "luje": 1807,
      "ĠlÃ¡sce": 1808,
      "Ġotec": 1809,
      "ĠnemÃ¡": 1810,
      "ĠslÃ¡vy": 1811,
      "Mi": 1812,
      "Ġkdys": 1813,
      "Zda": 1814,
      "mlu": 1815,
      "chÃ½": 1816,
      "snÃ½": 1817,
      "vol": 1818,
      "kÃ¡nÃŃ": 1819,
      "tila": 1820,
      "Ġprsou": 1821,
      "Ġdivo": 1822,
      "Ġsama": 1823,
      "sly": 1824,
      "Ġlist": 1825,
      "Å¡ka": 1826,
      "ĠtvÃ¡ÅĻÃŃ": 1827,
      "ĠmyÅ¡len": 1828,
      "ĠnÄĽÅ¾": 1829,
      "Ġhlubi": 1830,
      "bal": 1831,
      "ĠbouÅĻe": 1832,
      "sme": 1833,
      "jat": 1834,
      "ĠnÄĽkdy": 1835,
      "Ġslovo": 1836,
      "Ġsebou": 1837,
      "Ġproto": 1838,
      "Ġpotom": 1839,
      "dost": 1840,
      "ĠmilÃ¡": 1841,
      "ĠpÃ¡n": 1842,
      "cy": 1843,
      "Ġposta": 1844,
      "ĠkrÃ¡t": 1845,
      "ĠboÅ¾": 1846,
      "ĠtvÃ¡ÅĻi": 1847,
      "ĠnocÃŃ": 1848,
      "kr": 1849,
      "Ġsti": 1850,
      "Ġpar": 1851,
      "kry": 1852,
      "ĠdolÅ¯": 1853,
      "ĠzpÄĽt": 1854,
      "Ġjdou": 1855,
      "Ã¡men": 1856,
      "Ġtrochu": 1857,
      "NeÅ¾": 1858,
      "Ġles": 1859,
      "Ġzdra": 1860,
      "novÃ©": 1861,
      "Ġotev": 1862,
      "Ġbol": 1863,
      "ĠvÅ¡ude": 1864,
      "Ġol": 1865,
      "ĠÄĮech": 1866,
      "Ġsvi": 1867,
      "stup": 1868,
      "skÃ½m": 1869,
      "Ġbudu": 1870,
      "ĠHo": 1871,
      "Å¡nÄĽ": 1872,
      "ĠpÅĻiÅ¡el": 1873,
      "ĠtvÃ¡ÅĻe": 1874,
      "ĠvÄĽky": 1875,
      "vrd": 1876,
      "Ġzvolna": 1877,
      "ĠvÅ¯nÄĽ": 1878,
      "mem": 1879,
      "ĠkÅĻÃŃÅ¾": 1880,
      "Ġran": 1881,
      "Ġzraky": 1882,
      "NÃ¡": 1883,
      "ĠzrÃ¡": 1884,
      "ene": 1885,
      "ĠnaÅ¡ich": 1886,
      "ĠztrÃ¡": 1887,
      "ĠmarnÄĽ": 1888,
      "hlu": 1889,
      "dila": 1890,
      "ĠmoÅ¾": 1891,
      "ĠpÄĽk": 1892,
      "ĠvaÅ¡e": 1893,
      "ĠvÄĽr": 1894,
      "ĠhlÃ¡": 1895,
      "Å¡et": 1896,
      "Ġdost": 1897,
      "ĠÅĺ": 1898,
      "Ġbohat": 1899,
      "Å¡te": 1900,
      "lenÃŃ": 1901,
      "ĠtÅĻi": 1902,
      "Ġpane": 1903,
      "Ġach": 1904,
      "ĠnevÃŃ": 1905,
      "hrÃ¡": 1906,
      "skÃ©m": 1907,
      "Ġhovo": 1908,
      "svou": 1909,
      "Ġoku": 1910,
      "bÃ½": 1911,
      "ĠdÅĻÃŃv": 1912,
      "dÃ¡m": 1913,
      "stech": 1914,
      "leh": 1915,
      "ĠsnÄĽnÃŃ": 1916,
      "ĠmÄĽk": 1917,
      "stÅĻÃŃc": 1918,
      "Ġpropa": 1919,
      "Ġbyli": 1920,
      "Pod": 1921,
      "ĠskrÃ½": 1922,
      "cela": 1923,
      "rÃ¡z": 1924,
      "Ġvlny": 1925,
      "ĠhruÄı": 1926,
      "Ġmatka": 1927,
      "ĠtÄĽla": 1928,
      "ĠvÅ¡echno": 1929,
      "Ġbyly": 1930,
      "Ġbuj": 1931,
      "Ġtolik": 1932,
      "Byl": 1933,
      "Ġvele": 1934,
      "ĠÄįekÃ¡": 1935,
      "ĠdÃ©": 1936,
      "Ġprach": 1937,
      "dli": 1938,
      "jsou": 1939,
      "ĠÅ¾lu": 1940,
      "Ġbeze": 1941,
      "ĠvÃ½Å¡e": 1942,
      "rech": 1943,
      "ĠvidÃŃm": 1944,
      "ĠsvÄĽtem": 1945,
      "Ġmysli": 1946,
      "tajÃŃ": 1947,
      "vÃŃc": 1948,
      "Ġlesy": 1949,
      "Ġducha": 1950,
      "ĠbÅ¯h": 1951,
      "liÅ¡": 1952,
      "ĠkvÄĽ": 1953,
      "Ġsny": 1954,
      "ĠzmÃŃ": 1955,
      "ĠmÃŃsto": 1956,
      "Ba": 1957,
      "nÃ¡Å¡ÃŃ": 1958,
      "ÄĽl": 1959,
      "vÅ¡em": 1960,
      "Ġska": 1961,
      "ĠÅ¡ko": 1962,
      "Ġor": 1963,
      "kone": 1964,
      "Ġblaho": 1965,
      "ĠandÄĽl": 1966,
      "Å¡ku": 1967,
      "ĠmÄĽsta": 1968,
      "Ġvon": 1969,
      "ĠTe": 1970,
      "ĠsladkÃ©": 1971,
      "Ġznova": 1972,
      "nik": 1973,
      "Ġkoru": 1974,
      "ĠnÄĽj": 1975,
      "ĠtÅĻpy": 1976,
      "Ġopu": 1977,
      "del": 1978,
      "lÃ©b": 1979,
      "Å¯v": 1980,
      "ĠkÅĻÃŃdla": 1981,
      "nici": 1982,
      "Ġct": 1983,
      "aÄį": 1984,
      "Ġvody": 1985,
      "ĠvlÃŃ": 1986,
      "ĠMar": 1987,
      "ĠkrÃ¡lov": 1988,
      "ĠMi": 1989,
      "Ġdosud": 1990,
      "nÃ¡nÃŃ": 1991,
      "ĠjinÃ©": 1992,
      "Ġcit": 1993,
      "Ġkrva": 1994,
      "kaÅ¾": 1995,
      "ĠohnÄĽ": 1996,
      "ĠhoÅĻ": 1997,
      "Ġrychle": 1998,
      "ev": 1999,
      "Ġobzo": 2000,
      "Ġhrobu": 2001,
      "mrt": 2002,
      "Ġnena": 2003,
      "vati": 2004,
      "ĠTi": 2005,
      "zal": 2006,
      "ĠmÃ¡Å¡": 2007,
      "ĠlÃŃce": 2008,
      "Ġslunci": 2009,
      "ĠÄįernÃ©": 2010,
      "hnu": 2011,
      "jel": 2012,
      "ĠmoÅĻi": 2013,
      "Ġpev": 2014,
      "Mo": 2015,
      "ĠÅ¡um": 2016,
      "valo": 2017,
      "Ġzbra": 2018,
      "ĠjakÃ½": 2019,
      "ĠhnÃŃ": 2020,
      "ĠknÃŃ": 2021,
      "ĠkrÃ¡snÃ©": 2022,
      "hned": 2023,
      "ĠchÃ½": 2024,
      "ĠvzhÅ¯ru": 2025,
      "Å¾it": 2026,
      "stil": 2027,
      "Li": 2028,
      "ĠkrvÃŃ": 2029,
      "rÃ©m": 2030,
      "ĠtÅĻÃŃ": 2031,
      "Ġopo": 2032,
      "Ġcesty": 2033,
      "Ġdoby": 2034,
      "spÄĽ": 2035,
      "hr": 2036,
      "ÅĻenÃŃ": 2037,
      "Ġzdvi": 2038,
      "Ġchmu": 2039,
      "Roz": 2040,
      "ĠdÃ½m": 2041,
      "Ġstru": 2042,
      "hod": 2043,
      "Ġjaro": 2044,
      "Ã¡l": 2045,
      "ÅĻela": 2046,
      "svÄĽt": 2047,
      "nila": 2048,
      "ĠcÃŃtÃŃ": 2049,
      "brÃ¡": 2050,
      "stane": 2051,
      "Ġjara": 2052,
      "ĠzvÃŃ": 2053,
      "ĠzÅĻel": 2054,
      "Ġdomo": 2055,
      "ĠÅ¾Ã¡r": 2056,
      "Ġokem": 2057,
      "ĠMa": 2058,
      "Ġklen": 2059,
      "ĠmÄĽsÃŃc": 2060,
      "Å¾enÃŃ": 2061,
      "ĠÄįÃŃm": 2062,
      "ĠusmÃŃ": 2063,
      "ĠdvÄĽ": 2064,
      "ĠÄı": 2065,
      "ĠvÅ¡ichni": 2066,
      "armo": 2067,
      "ĠdÃŃvÃ¡": 2068,
      "ĠzaÄį": 2069,
      "ĠÅ¾ije": 2070,
      "ĠÄįele": 2071,
      "jal": 2072,
      "Neb": 2073,
      "Ġobje": 2074,
      "ÄĮi": 2075,
      "ĠmÃ©m": 2076,
      "ĠmojÃŃ": 2077,
      "Å¡lo": 2078,
      "ĠtisÃŃc": 2079,
      "Ġoba": 2080,
      "ju": 2081,
      "ĠnaÅ¡i": 2082,
      "ĠdÃ½ch": 2083,
      "Ġply": 2084,
      "Ã©Å¾": 2085,
      "ĠvÃ½Å¡": 2086,
      "Ġprch": 2087,
      "nat": 2088,
      "tk": 2089,
      "tru": 2090,
      "vod": 2091,
      "Ġspat": 2092,
      "Ġchod": 2093,
      "ĠprÅ¯": 2094,
      "Ġmodlit": 2095,
      "lila": 2096,
      "ĠcelÃ¡": 2097,
      "proÄį": 2098,
      "ur": 2099,
      "ĠdÄĽv": 2100,
      "kÅĻik": 2101,
      "kvÄĽt": 2102,
      "Ġtan": 2103,
      "ĠmÃŃt": 2104,
      "Ġpozdra": 2105,
      "Ġneo": 2106,
      "ĠpÅ¯j": 2107,
      "Ġsvit": 2108,
      "ĠvzdÃ¡": 2109,
      "Ġchla": 2110,
      "ĠzÃ¡ÅĻe": 2111,
      "ckÃ½": 2112,
      "lez": 2113,
      "buÄı": 2114,
      "mÃŃr": 2115,
      "Du": 2116,
      "Å¡ek": 2117,
      "Ġdej": 2118,
      "ĠpovÄĽ": 2119,
      "Sly": 2120,
      "jas": 2121,
      "ĠmÄĽla": 2122,
      "Ġcestou": 2123,
      "ĠhlavÄĽ": 2124,
      "man": 2125,
      "vad": 2126,
      "ĠsvÃ©mu": 2127,
      "Ġas": 2128,
      "sÃ¡m": 2129,
      "âĢĻ.": 2130,
      "dajÃŃ": 2131,
      "Ġmilen": 2132,
      "lÃ©t": 2133,
      "Ġsho": 2134,
      "Ġhloub": 2135,
      "ĠdÃ¡lky": 2136,
      "ĠdÃ½": 2137,
      "diny": 2138,
      "Ġkamen": 2139,
      "ek": 2140,
      "ĠsnÃŃh": 2141,
      "dÃ½m": 2142,
      "Ġkdysi": 2143,
      "ĠmÃŃr": 2144,
      "ĠmÃ½m": 2145,
      "Dnes": 2146,
      "âĢĺ": 2147,
      "Ġtouha": 2148,
      "ĠBoÅ¾e": 2149,
      "Ġrov": 2150,
      "ĠÄįela": 2151,
      "ĠÄįasem": 2152,
      "ĠmeÄį": 2153,
      "dnes": 2154,
      "ÅĻÃŃt": 2155,
      "Ġpta": 2156,
      "ĠstromÅ¯": 2157,
      "ĠpÅĻem": 2158,
      "koli": 2159,
      "Ġsr": 2160,
      "ĠsladkÃ½": 2161,
      "ĠU": 2162,
      "Ġsyn": 2163,
      "prv": 2164,
      "Ġnohou": 2165,
      "Ġzvy": 2166,
      "boj": 2167,
      "vl": 2168,
      "spoÅĪ": 2169,
      "ĠstÃŃnu": 2170,
      "hÃ½ch": 2171,
      "sl": 2172,
      "dÄĽli": 2173,
      "Ġtisk": 2174,
      "ĠÃºsta": 2175,
      "Ġkdyby": 2176,
      "ĠbouÅĻÃŃ": 2177,
      "Ġzby": 2178,
      "ĠklÃ¡": 2179,
      "ĠÅĻÃŃci": 2180,
      "pÅĻes": 2181,
      "Äįin": 2182,
      "Ġuz": 2183,
      "dÃŃÅ¡": 2184,
      "ĠzboÅ¾": 2185,
      "Ġmatky": 2186,
      "ĠmluvÃŃ": 2187,
      "NuÅ¾": 2188,
      "Ġdrob": 2189,
      "tich": 2190,
      "Ġstat": 2191,
      "zvu": 2192,
      "ĠskvÄĽ": 2193,
      "ĠptÃ¡k": 2194,
      "Ġkraje": 2195,
      "ĠJak": 2196,
      "ĠplnÃ½": 2197,
      "pÅ¡ÃŃ": 2198,
      "Pra": 2199,
      "jdou": 2200,
      "rÃ¡m": 2201,
      "Ġotro": 2202,
      "Ġhrad": 2203,
      "ĠbÃŃlÃ¡": 2204,
      "Ġhlasem": 2205,
      "Ġruky": 2206,
      "ĠNa": 2207,
      "dky": 2208,
      "pÃ½": 2209,
      "Äįet": 2210,
      "ĠmyÅ¡lÃ©": 2211,
      "Jsem": 2212,
      "jÃŃÅ¾": 2213,
      "ali": 2214,
      "tev": 2215,
      "sel": 2216,
      "chÅ¯": 2217,
      "ĠÅ¡a": 2218,
      "vec": 2219,
      "Ġtvrd": 2220,
      "ĠlidskÃ©": 2221,
      "ĠsvÄĽÅ¾ÃŃ": 2222,
      "dat": 2223,
      "ĠblÃŃÅ¾": 2224,
      "ĠdÃ¡vÃ¡": 2225,
      "ĠvÄĽÄįnÃ©": 2226,
      "hnÄĽ": 2227,
      "dala": 2228,
      "Ġkmi": 2229,
      "Ġnelze": 2230,
      "Ġkap": 2231,
      "ÅĻo": 2232,
      "kat": 2233,
      "ĠtÃ½": 2234,
      "Ġver": 2235,
      "dÃ¡l": 2236,
      "ĠstarÃ¡": 2237,
      "ĠrÅ¯Å¾ÃŃ": 2238,
      "ĠhÅĻe": 2239,
      "ĠpÅĻÃŃro": 2240,
      "ĠJi": 2241,
      "Å¡ky": 2242,
      "vej": 2243,
      "Ġperu": 2244,
      "Jest": 2245,
      "Ġdole": 2246,
      "ĠskÃ¡ly": 2247,
      "Ġzjev": 2248,
      "ĠRo": 2249,
      "Ġret": 2250,
      "rom": 2251,
      "ĠjinÃ½": 2252,
      "ĠklidnÄĽ": 2253,
      "kala": 2254,
      "Ġmohu": 2255,
      "Å¡nÃ©": 2256,
      "VÅ¾dyÅ¥": 2257,
      "tele": 2258,
      "Ġvyso": 2259,
      "ĠTy": 2260,
      "Ġoblo": 2261,
      "lÃ©ho": 2262,
      "ĠneznÃ¡m": 2263,
      "zeÅĪ": 2264,
      "ĠdÃ¡m": 2265,
      "ĠÃºst": 2266,
      "Ġkonec": 2267,
      "Ġvzal": 2268,
      "Ġcelou": 2269,
      "vin": 2270,
      "ĠnÄĽco": 2271,
      "teli": 2272,
      "Ġble": 2273,
      "Ġmilost": 2274,
      "ĠÄĮe": 2275,
      "ĠdrahÃ¡": 2276,
      "ĠslavÃŃ": 2277,
      "ĠmyslÃŃ": 2278,
      "jÃŃt": 2279,
      "ĠoltÃ¡": 2280,
      "nko": 2281,
      "dina": 2282,
      "ĠzÃ¡pas": 2283,
      "eÅĪ": 2284,
      "ĠtÃ©to": 2285,
      "hlas": 2286,
      "ĠLi": 2287,
      "Ġokam": 2288,
      "BuÄı": 2289,
      "ĠkÃ¡men": 2290,
      "ÅĻek": 2291,
      "ĠhlÃŃ": 2292,
      "hli": 2293,
      "tost": 2294,
      "Ġdoma": 2295,
      "ĠÅ¾iv": 2296,
      "Ġfi": 2297,
      "ĠvstÅĻÃŃc": 2298,
      "Ġmd": 2299,
      "Ġdosti": 2300,
      "Ġchvil": 2301,
      "ĠhledÃ¡": 2302,
      "Ġcha": 2303,
      "ĠsÃŃla": 2304,
      "jnÄĽ": 2305,
      "ĠPro": 2306,
      "Ġramen": 2307,
      "zla": 2308,
      "ĠblaÅ¾en": 2309,
      "cel": 2310,
      "kÅĻÃŃ": 2311,
      "ĠzaÅ¡": 2312,
      "DÃŃ": 2313,
      "ĠkrÃ¡ÄįÃŃ": 2314,
      "Å¡Å¡ÃŃ": 2315,
      "Ġvzdech": 2316,
      "ĠkÅ¯": 2317,
      "ĠÄįem": 2318,
      "Ġpoto": 2319,
      "Ġtre": 2320,
      "Kam": 2321,
      "ĠÅ½i": 2322,
      "Ġminu": 2323,
      "ĠBohu": 2324,
      "ĠvÄĽkÅ¯": 2325,
      "Ġohni": 2326,
      "klÃŃ": 2327,
      "kon": 2328,
      "ĠvÅ¡echny": 2329,
      "nebo": 2330,
      "ĠrÃ¡ny": 2331,
      "mar": 2332,
      "ÄįÃ¡": 2333,
      "ĠnÃ¡d": 2334,
      "ĠtvÃ©ho": 2335,
      "tnÃ½": 2336,
      "Ġstrom": 2337,
      "Ġvod": 2338,
      "ĠoheÅĪ": 2339,
      "blÃŃ": 2340,
      "ĠjarnÃŃ": 2341,
      "Ġvlasy": 2342,
      "PÅĻed": 2343,
      "vce": 2344,
      "ĠpÅĻÃŃliÅ¡": 2345,
      "Ġhloubi": 2346,
      "ĠMo": 2347,
      "ĠzÃ¡pa": 2348,
      "Ġobe": 2349,
      "Ġstou": 2350,
      "zku": 2351,
      "rÃ¡ch": 2352,
      "ĠdruÅ¾": 2353,
      "ĠÅ¾ÃŃt": 2354,
      "ĠmÃŃru": 2355,
      "Ġtouhou": 2356,
      "slou": 2357,
      "ĠvÃ¡l": 2358,
      "ĠvÄĽtÅ¡ÃŃ": 2359,
      "Ġrak": 2360,
      "ĠlÃ©ta": 2361,
      "Ġsmys": 2362,
      "ĠDo": 2363,
      "Ġtmy": 2364,
      "vÅ¯r": 2365,
      "jest": 2366,
      "nÃ¡Å¡": 2367,
      "ĠkvÃŃtÃŃ": 2368,
      "Äįkou": 2369,
      "neÅ¡": 2370,
      "zim": 2371,
      "Ġkva": 2372,
      "ÄįnÃ¡": 2373,
      "Ġnekone": 2374,
      "Ġprachu": 2375,
      "klad": 2376,
      "stÅĻed": 2377,
      "ĠlesÅ¯": 2378,
      "BÅ¯h": 2379,
      "ĠplnÃ©": 2380,
      "bnÃŃ": 2381,
      "deme": 2382,
      "ĠBoÅ¾ÃŃ": 2383,
      "vel": 2384,
      "Ġznovu": 2385,
      "ĠtvÃ©m": 2386,
      "Ġproud": 2387,
      "myÅ¡": 2388,
      "tÅĻÃŃ": 2389,
      "Ġbal": 2390,
      "cnÄĽ": 2391,
      "es": 2392,
      "stÃ¡vÃ¡": 2393,
      "Ġhrudi": 2394,
      "Ġsmu": 2395,
      "Ġpal": 2396,
      "ĠtichÃ©": 2397,
      "Ġsrdcem": 2398,
      "ĠmladÃ½": 2399,
      "Ġchat": 2400,
      "lenÃ©": 2401,
      "ĠlÅ¯": 2402,
      "Ġprosto": 2403,
      "dno": 2404,
      "ĠKo": 2405,
      "Ġsnu": 2406,
      "ĠsedÃŃ": 2407,
      "jme": 2408,
      "chal": 2409,
      "Aj": 2410,
      "Ġvzdy": 2411,
      "ĠmladÃ©": 2412,
      "Ġboje": 2413,
      "ĠnadÄĽje": 2414,
      "tvo": 2415,
      "ĠaspoÅĪ": 2416,
      "dÃ½ch": 2417,
      "ĠnÃ¡ruÄį": 2418,
      "ĠpÅĻÃŃÅ¡tÃŃ": 2419,
      "tÃ¡m": 2420,
      "ĠdobÄĽ": 2421,
      "ĠdrahÃ©": 2422,
      "ĠpoÅ¾eh": 2423,
      "âĢŀâĢŀ": 2424,
      "ĠtichÃ½": 2425,
      "eni": 2426,
      "Ġup": 2427,
      "ĠchvÄĽje": 2428,
      "Ġzdo": 2429,
      "MÅ¯j": 2430,
      "Ġvedle": 2431,
      "ĠslÃ¡va": 2432,
      "ĠcÃŃsa": 2433,
      "Ġkrok": 2434,
      "ĠÅĻeÄį": 2435,
      "ĠjejÅ¾": 2436,
      "Ġjedna": 2437,
      "penÃŃ": 2438,
      "trem": 2439,
      "ĠzÃŃtra": 2440,
      "bla": 2441,
      "ÅĻila": 2442,
      "Ġmoji": 2443,
      "kaz": 2444,
      "ĠchceÅ¡": 2445,
      "ovÃ©": 2446,
      "ĠÄįest": 2447,
      "Bez": 2448,
      "ader": 2449,
      "Ġasi": 2450,
      "Ã¡s": 2451,
      "ryÄį": 2452,
      "ĠpÃŃsni": 2453,
      "Ġkmen": 2454,
      "ĠoÄįÃŃch": 2455,
      "ptÃ¡": 2456,
      "ĠlistÃŃ": 2457,
      "ĠdobrÃ©": 2458,
      "ĠneÅ¾li": 2459,
      "Ġlesa": 2460,
      "kru": 2461,
      "Kte": 2462,
      "ĠvÃŃru": 2463,
      "ĠuÄįi": 2464,
      "ĠhrobÄĽ": 2465,
      "Äįa": 2466,
      "ĠÅĻeÄįi": 2467,
      "ĠslyÅ¡ÃŃ": 2468,
      "snÃ¡": 2469,
      "vÃ½mi": 2470,
      "ĠkrÃ¡snÃ¡": 2471,
      "her": 2472,
      "ĠpravÃŃ": 2473,
      "dlÃŃ": 2474,
      "ĠpovÃŃ": 2475,
      "dka": 2476,
      "skem": 2477,
      "ĠBoha": 2478,
      "ĠrÃ¡no": 2479,
      "stvo": 2480,
      "cu": 2481,
      "ĠbudeÅ¡": 2482,
      "Ġvlas": 2483,
      "Ġblanky": 2484,
      "ĠCo": 2485,
      "Nem": 2486,
      "ĠmuÅ¾e": 2487,
      "ml": 2488,
      "ĠsplÃ½": 2489,
      "tnÄĽ": 2490,
      "ĠzÃ¡vo": 2491,
      "ĠmÃ¡me": 2492,
      "MnÄĽ": 2493,
      "Ġpil": 2494,
      "ĠmalÃ½": 2495,
      "ĠdlouhÃ©": 2496,
      "Ã¡n": 2497,
      "ĠsvÄĽtu": 2498,
      "ĠÅĪader": 2499,
      "ĠdobrÃ½": 2500,
      "Nu": 2501,
      "ĠmuÅ¾i": 2502,
      "Ġvln": 2503,
      "Ġzav": 2504,
      "ĠÅ¾il": 2505,
      "noucÃŃ": 2506,
      "Ġrozum": 2507,
      "ĠplÃ¡Äįe": 2508,
      "ĠsÃŃlu": 2509,
      "hly": 2510,
      "Ġsme": 2511,
      "Ġslov": 2512,
      "ĠmilÃ©": 2513,
      "Ġroste": 2514,
      "ĠkrÃ¡se": 2515,
      "hni": 2516,
      "dek": 2517,
      "ĠbÅĻehu": 2518,
      "Ġlidstva": 2519,
      "kajÃŃ": 2520,
      "ĠmotÃ½": 2521,
      "ĠkÅĻÃŃd": 2522,
      "Ġradosti": 2523,
      "Ġlese": 2524,
      "ĠaÄį": 2525,
      "bito": 2526,
      "ĠrÃ¡j": 2527,
      "Ġdobro": 2528,
      "Ġdou": 2529,
      "Ġvede": 2530,
      "jÃŃch": 2531,
      "Pa": 2532,
      "hor": 2533,
      "zÃŃm": 2534,
      "vÃŃrÃ¡": 2535,
      "nouti": 2536,
      "ot": 2537,
      "Ġpest": 2538,
      "teÄį": 2539,
      "ĠkrÃ¡snÃ½": 2540,
      "chou": 2541,
      "Ġpravil": 2542,
      "ĠplÃ¡Äį": 2543,
      "ĠÄįasu": 2544,
      "TÄĽ": 2545,
      "Ġdve": 2546,
      "Å¡nÃ½": 2547,
      "ĠmajÃŃ": 2548,
      "ĠslyÅ¡el": 2549,
      "Jsou": 2550,
      "jdu": 2551,
      "ĠjakÃ©": 2552,
      "Ġzrakem": 2553,
      "lku": 2554,
      "ĠpamÄĽ": 2555,
      "Ġjiz": 2556,
      "ĠhvÄĽzda": 2557,
      "Ġspou": 2558,
      "Ġnev": 2559,
      "ĠvÃ½Å¡i": 2560,
      "Ġcesta": 2561,
      "ĠkrÃ¡li": 2562,
      "ĠrÃ¡z": 2563,
      "dÃ©m": 2564,
      "Ġnaz": 2565,
      "ach": 2566,
      "lenÃ½": 2567,
      "ÅĻenÃ©": 2568,
      "rnÃŃ": 2569,
      "ĠvÅ¯le": 2570,
      "Ġokna": 2571,
      "ĠkaÅ¾dÃ¡": 2572,
      "Ġtrp": 2573,
      "ĠdÄĽtÃŃ": 2574,
      "ĠkonÄĽ": 2575,
      "ĠzÅĻÃŃm": 2576,
      "neÅ¡en": 2577,
      "Äįila": 2578,
      "dosti": 2579,
      "Ġpovz": 2580,
      "Ġvez": 2581,
      "Ġpros": 2582,
      "rej": 2583,
      "Å¡Å¥ast": 2584,
      "Vo": 2585,
      "vÄĽz": 2586,
      "Ġvys": 2587,
      "dÃ¡nÃŃ": 2588,
      "zpÃŃ": 2589,
      "chÃ©": 2590,
      "Ġprapo": 2591,
      "ĠÅ¡umÃŃ": 2592,
      "Ġchle": 2593,
      "ĠÄįÃ¡": 2594,
      "sed": 2595,
      "Ġnim": 2596,
      "ĠpÃ½ch": 2597,
      "Ġstromy": 2598,
      "ĠchÃ¡": 2599,
      "rÅ¯pÄĽ": 2600,
      "roj": 2601,
      "Å¯l": 2602,
      "Å¾ik": 2603,
      "ĠÄįernÃ½": 2604,
      "hna": 2605,
      "nami": 2606,
      "Ġvti": 2607,
      "Ġklet": 2608,
      "Ġnebyl": 2609,
      "ĠÅ¡la": 2610,
      "ĠzdrÃ¡": 2611,
      "ĠsrdcÃŃ": 2612,
      "Ġzach": 2613,
      "Ġkdes": 2614,
      "Ġklam": 2615,
      "ĠklonÃŃ": 2616,
      "Ġlidem": 2617,
      "ĠjmÃ©no": 2618,
      "ĠcÃŃtÃŃm": 2619,
      "ĠblÃ½": 2620,
      "ĠzvonÃŃ": 2621,
      "cet": 2622,
      "Ġcos": 2623,
      "pit": 2624,
      "ĠmnohÃ½": 2625,
      "Ġjazy": 2626,
      "ĠnedÃ¡": 2627,
      "Ġrty": 2628,
      "Zas": 2629,
      "ĠvÅ¡emi": 2630,
      "ĠvÄĽÄįnÃ½": 2631,
      "ĠâĢĵâĢľ": 2632,
      "ĠPÃ¡n": 2633,
      "mil": 2634,
      "dnÃ½ch": 2635,
      "ĠPe": 2636,
      "Ġtento": 2637,
      "ĠdruhÃ©": 2638,
      "KaÅ¾": 2639,
      "Ġposud": 2640,
      "ĠAn": 2641,
      "Ġztracen": 2642,
      "Ã¡Å¡": 2643,
      "jim": 2644,
      "ĠveÄįe": 2645,
      "Ġnapos": 2646,
      "UÅ¾": 2647,
      "zra": 2648,
      "stva": 2649,
      "ĠmalÃ©": 2650,
      "chÃ¡ze": 2651,
      "Ġsma": 2652,
      "Tys": 2653,
      "ĠzapomnÄĽ": 2654,
      "fi": 2655,
      "?!": 2656,
      "bit": 2657,
      "Ġjinak": 2658,
      "ĠchodÃŃ": 2659,
      "vÃ¡Å¡": 2660,
      "Ġduchu": 2661,
      "Ġboku": 2662,
      "ĠcÃŃtil": 2663,
      "ĠbratÅĻÃŃ": 2664,
      "ĠÅĺÃŃm": 2665,
      "Ġtla": 2666,
      "mrak": 2667,
      "ĠrytÃŃ": 2668,
      "Ġrozp": 2669,
      "hlÃ¡": 2670,
      "Äįnou": 2671,
      "Ġjmen": 2672,
      "ĠmizÃŃ": 2673,
      "Ġsladce": 2674,
      "Ġhlad": 2675,
      "vuje": 2676,
      "hÃ½m": 2677,
      "livÄĽ": 2678,
      "Ġman": 2679,
      "ĠsvÃ½mi": 2680,
      "ĠchrÃ¡m": 2681,
      "ĠrÃ¡zem": 2682,
      "Ġdala": 2683,
      "ĠstrÃ¡Å¾": 2684,
      "ĠbouÅĻi": 2685,
      "alo": 2686,
      "Ġotce": 2687,
      "bli": 2688,
      "ĠdnÅ¯": 2689,
      "Ġbije": 2690,
      "mat": 2691,
      "ÅĻÃŃÅ¡": 2692,
      "Ġval": 2693,
      "ĠkrÃ¡le": 2694,
      "Ġkterou": 2695,
      "ĠÅĻekl": 2696,
      "ĠnaÅĪ": 2697,
      "ĠnevÃŃm": 2698,
      "Ġdomu": 2699,
      "Ġleb": 2700,
      "Å¾Å¡ÃŃ": 2701,
      "met": 2702,
      "DÄĽ": 2703,
      "SvÄĽt": 2704,
      "kvÃŃ": 2705,
      "Ġmilu": 2706,
      "ĠtÄĽm": 2707,
      "Ġpravda": 2708,
      "duch": 2709,
      "nÃ©mu": 2710,
      "Ġslz": 2711,
      "Å¡u": 2712,
      "Ġtakto": 2713,
      "ĠvalÃŃ": 2714,
      "volÃ¡": 2715,
      "Ġkoste": 2716,
      "Ġmysl": 2717,
      "nese": 2718,
      "Å¡t": 2719,
      "ĠdÅ¯m": 2720,
      "ĠVÃŃ": 2721,
      "ĠstarÃ½ch": 2722,
      "sle": 2723,
      "ĠvzÃ¡c": 2724,
      "hÃ¡m": 2725,
      "ĠCh": 2726,
      "Sta": 2727,
      "Ġstvo": 2728,
      "Ġmilosti": 2729,
      "vÅ¡ech": 2730,
      "Ġspi": 2731,
      "Ze": 2732,
      "kni": 2733,
      "Ġzpo": 2734,
      "kot": 2735,
      "ĠtisÃŃce": 2736,
      "stala": 2737,
      "ĠloÄı": 2738,
      "Ġscho": 2739,
      "ĠtvÃ½m": 2740,
      "Äįas": 2741,
      "ĠmÄĽsto": 2742,
      "Å¾ÃŃÅ¡": 2743,
      "ĠTÄĽ": 2744,
      "ĠLu": 2745,
      "Ġpravdu": 2746,
      "Ġsmutek": 2747,
      "Ġbrzy": 2748,
      "nosÅ¥": 2749,
      "Ġbudouc": 2750,
      "staÅĪ": 2751,
      "ĠbÄĽda": 2752,
      "ĠpÃ¡ni": 2753,
      "ĠdÃ¡t": 2754,
      "stÃŃm": 2755,
      "ĠjednÃ©": 2756,
      "ĠhnÄĽv": 2757,
      "ĠtÅĻÃ¡": 2758,
      "Ġkal": 2759,
      "lav": 2760,
      "...âĢľ": 2761,
      "ĠpÃ©": 2762,
      "ĠdvÃ©": 2763,
      "Ġpoe": 2764,
      "ĠdruhÃ½": 2765,
      "Ġvzduch": 2766,
      "ĠslÃ¡vÄĽ": 2767,
      "ĠÅ¾ÃŃti": 2768,
      "ZÃ¡": 2769,
      "Ġslza": 2770,
      "ĠzÃ¡hy": 2771,
      "ĠrÃ¡da": 2772,
      "mÃ¡ch": 2773,
      "Ġzlat": 2774,
      "ĠhÅĻbito": 2775,
      "stat": 2776,
      "Ġzhas": 2777,
      "Ġubo": 2778,
      "ĠÄıÃ¡": 2779,
      "ĠmÄĽnÃŃ": 2780,
      "ĠklÃŃn": 2781,
      "Ġzapla": 2782,
      "hro": 2783,
      "Ġmdlo": 2784,
      "ĠdrahÃ½": 2785,
      "Ġmohl": 2786,
      "ĠjasnÃ©": 2787,
      "Ġonen": 2788,
      "ĠKar": 2789,
      "Ġpout": 2790,
      "ĠvÅ¡ÃŃm": 2791,
      "hlo": 2792,
      "Ġnohy": 2793,
      "Ġplane": 2794,
      "ĠtÄĽÅ¾kÃ©": 2795,
      "jednou": 2796,
      "Ġzadu": 2797,
      "Ġhas": 2798,
      "Ġdoko": 2799,
      "ĠÃºtÄĽ": 2800,
      "ĠlÃŃc": 2801,
      "Ġrost": 2802,
      "ĠkrÅ¯pÄĽ": 2803,
      "ĠslyÅ¡ÃŃm": 2804,
      "ToÅ¥": 2805,
      "ĠJÃ¡": 2806,
      "ĠkÃ½": 2807,
      "tor": 2808,
      "ĠrozkoÅ¡": 2809,
      "Ġpramen": 2810,
      "ĠmÃŃti": 2811,
      "ĠdÄĽla": 2812,
      "ĠkvÄĽtu": 2813,
      "ĠmoÅ¾no": 2814,
      "Ġpodo": 2815,
      "ĠzemÃŃ": 2816,
      "ĠjÃŃt": 2817,
      "ĠsvatÃ¡": 2818,
      "ĠzdÃ¡lo": 2819,
      "Ġset": 2820,
      "ĠknÃŃÅ¾e": 2821,
      "Ġjin": 2822,
      "ĠVÃ¡m": 2823,
      "Ġzcela": 2824,
      "mne": 2825,
      "ĠÅ¾enu": 2826,
      "Ġprsa": 2827,
      "jÃŃce": 2828,
      "kvet": 2829,
      "Ġtry": 2830,
      "rnÃ¡": 2831,
      "ĠTvÃ©": 2832,
      "Ġvenku": 2833,
      "nÄĽl": 2834,
      "Å¾ila": 2835,
      "lena": 2836,
      "tno": 2837,
      "ĠTobÄĽ": 2838,
      "cÅ¯m": 2839,
      "lnÃŃ": 2840,
      "Ġhlo": 2841,
      "ĠVy": 2842,
      "ĠvracÃŃ": 2843,
      "Ġpodzim": 2844,
      "ĠslÃ¡vu": 2845,
      "ĠsklÃ¡nÃŃ": 2846,
      "go": 2847,
      "tÄĽch": 2848,
      "ĠmodrÃ©": 2849,
      "vobo": 2850,
      "ĠtenkrÃ¡t": 2851,
      "blou": 2852,
      "ĠÅ¡le": 2853,
      "dÃ¡ch": 2854,
      "ĠkdoÅ¾": 2855,
      "Ġhospo": 2856,
      "cad": 2857,
      "vÄĽd": 2858,
      "pÄĽv": 2859,
      "ĠzlatÃ¡": 2860,
      "Ġnade": 2861,
      "ĠzÃ¡zrak": 2862,
      "ĠslÃŃ": 2863,
      "Ġposled": 2864,
      "ĠzachvÄĽ": 2865,
      "Äıte": 2866,
      "Ġcen": 2867,
      "ĠdÃŃvka": 2868,
      "ĠtÄĽle": 2869,
      "RÃ¡": 2870,
      "Ġples": 2871,
      "ĠjehoÅ¾": 2872,
      "snÄĽjÅ¡ÃŃ": 2873,
      "kterÃ©": 2874,
      "jeÅ¡": 2875,
      "Ġvrcho": 2876,
      "bÅĻe": 2877,
      "lan": 2878,
      "Ġar": 2879,
      "Ġtruch": 2880,
      "rnou": 2881,
      "Ġhej": 2882,
      "jÅ¡ÃŃm": 2883,
      "ĠjejÃŃm": 2884,
      "stvÃŃm": 2885,
      "Ġzvuk": 2886,
      "mÃ¡m": 2887,
      "ĠrÃ¡je": 2888,
      "rat": 2889,
      "ÅĻÃŃv": 2890,
      "ĠptÃ¡ci": 2891,
      "Ġnechce": 2892,
      "ĠnesmÃŃ": 2893,
      "JenÅ¾": 2894,
      "lka": 2895,
      "Ġvztek": 2896,
      "ĠcoÅ¾": 2897,
      "Ġnesly": 2898,
      "ĠmusÃŃm": 2899,
      "slÃŃ": 2900,
      "ĠdÅ¯vÄĽ": 2901,
      "ĠzÃ¡m": 2902,
      "pÃ¡tky": 2903,
      "ĠleÄį": 2904,
      "Ġnevin": 2905,
      "Ġoka": 2906,
      "Ġhlaho": 2907,
      "Ġteprv": 2908,
      "padÃ¡": 2909,
      "hÃ¡nÃŃ": 2910,
      "Ġtemno": 2911,
      "ĠvÃ¡mi": 2912,
      "ĠsluÅ¾": 2913,
      "ĠstejnÄĽ": 2914,
      "ĠÅĻeÄįÃŃ": 2915,
      "ĠJa": 2916,
      "lÃ¡ch": 2917,
      "Ġbohem": 2918,
      "ĠrÅ¯Å¾o": 2919,
      "Ġmoci": 2920,
      "ĠchtÄĽla": 2921,
      "Å¡ko": 2922,
      "Ġkali": 2923,
      "bÃ©": 2924,
      "kÃ©ho": 2925,
      "Ġkterak": 2926,
      "Ġbratr": 2927,
      "Ġjednu": 2928,
      "ĠrudÃ©": 2929,
      "Ġpravdy": 2930,
      "ĠvÄĽc": 2931,
      "Ġspra": 2932,
      "ĠdlouhÃ½": 2933,
      "slav": 2934,
      "kterÃ½": 2935,
      "MÄĽ": 2936,
      "Ġprobu": 2937,
      "znÃ©": 2938,
      "ĠbÃŃlÃ½ch": 2939,
      "Nez": 2940,
      "dÄĽnÃŃ": 2941,
      "ĠpÅĻede": 2942,
      "ĠdÃ¡lku": 2943,
      "Ġzoufal": 2944,
      "ĠÄįeskÃ©": 2945,
      "ĠobrÃ¡": 2946,
      "Ġzhy": 2947,
      "Ġzba": 2948,
      "Ġporo": 2949,
      "PÅĻÃŃ": 2950,
      "nÄĽn": 2951,
      "ĠmladÃ¡": 2952,
      "ĠvÅ¯li": 2953,
      "dali": 2954,
      "ĠvÅ¯kol": 2955,
      "Ġbojo": 2956,
      "ĠvonÃŃ": 2957,
      "ĠnechÅ¥": 2958,
      "ĠmÄĽsÃŃ": 2959,
      "Ġklidu": 2960,
      "amÄĽ": 2961,
      "Äįej": 2962,
      "Ġmraky": 2963,
      "dku": 2964,
      "ĠvelkÃ¡": 2965,
      "toÅ¾": 2966,
      "ĠblÃŃz": 2967,
      "jsi": 2968,
      "ÅĻÅ¯": 2969,
      "Ġrok": 2970,
      "Ġnak": 2971,
      "Ġzro": 2972,
      "ĠmraÄį": 2973,
      "Ġjeze": 2974,
      "vili": 2975,
      "ĠnoÄįnÃŃ": 2976,
      "ĠpÅĻiÅ¡la": 2977,
      "zdo": 2978,
      "ĠtÃ³": 2979,
      "dili": 2980,
      "ÄĮe": 2981,
      "nÅ¯m": 2982,
      "LÃ¡": 2983,
      "Ġklad": 2984,
      "ĠÃºdo": 2985,
      "ĠneznÃ¡": 2986,
      "tec": 2987,
      "pÄĽl": 2988,
      "Ġstaro": 2989,
      "ĠtÅ¯": 2990,
      "Ġzasta": 2991,
      "ĠobjetÃŃ": 2992,
      "ĠdennÄĽ": 2993,
      "kej": 2994,
      "Ġnepro": 2995,
      "ĠpevnÄĽ": 2996,
      "St": 2997,
      "Aby": 2998,
      "mÅ¯j": 2999,
      "chvÃ¡": 3000,
      "ĠkaÅ¾dou": 3001,
      "ĠdÅĻÃŃve": 3002,
      "moc": 3003,
      "Ġblaha": 3004,
      "Ġzdi": 3005,
      "Ġsilou": 3006,
      "ĠsmÃŃchu": 3007,
      "vice": 3008,
      "ĠvÅ¯nÃŃ": 3009,
      "ĠDu": 3010,
      "bat": 3011,
      "ĠVa": 3012,
      "ĠstÃ¡la": 3013,
      "Ġhrou": 3014,
      "ĠnepÅĻi": 3015,
      "diÅ¾": 3016,
      "Ġsami": 3017,
      "ĠzvedÃ¡": 3018,
      "Ġvlo": 3019,
      "ĠnepÅĻÃŃ": 3020,
      "Ġkrou": 3021,
      "ĠskÅĻi": 3022,
      "ĠstavÃŃ": 3023,
      "Ġzlata": 3024,
      "ĠsmutnÄĽ": 3025,
      "Mar": 3026,
      "pem": 3027,
      "sit": 3028,
      "Ġlam": 3029,
      "ĠNÄĽ": 3030,
      "ĠtÃ¡hne": 3031,
      "liÄį": 3032,
      "Ġur": 3033,
      "Å¾enÃ©": 3034,
      "jejÅ¾": 3035,
      "domÃŃ": 3036,
      "kvÄĽ": 3037,
      "lel": 3038,
      "ĠzatÃŃm": 3039,
      "Ġpoho": 3040,
      "bro": 3041,
      "cti": 3042,
      "bÅ¯": 3043,
      "noc": 3044,
      "Ġspas": 3045,
      "ĠdÃ¡lce": 3046,
      "ĠtouÅ¾ÃŃ": 3047,
      "Slu": 3048,
      "ĠvÃ½ch": 3049,
      "jÃŃmÃ¡": 3050,
      "Å¡it": 3051,
      "pÅĻec": 3052,
      "ĠchrÃ¡mu": 3053,
      "Ġkyne": 3054,
      "ĠpÅĻÃ¡tel": 3055,
      "hdy": 3056,
      "ĠkrÃ¡sa": 3057,
      "ĠnÃŃz": 3058,
      "ĠÅĪadra": 3059,
      "ady": 3060,
      "ĠplÃŃ": 3061,
      "Å¡nÃŃ": 3062,
      "enÃ¡vi": 3063,
      "tnou": 3064,
      "ĠbÄĽÅ¾ÃŃ": 3065,
      "Ġpsa": 3066,
      "Ġhan": 3067,
      "tala": 3068,
      "Hla": 3069,
      "ĠlepÅ¡ÃŃ": 3070,
      "rel": 3071,
      "Ġju": 3072,
      "ĠnepÅĻÃ¡": 3073,
      "ĠÅĻeky": 3074,
      "ĠodpovÄĽ": 3075,
      "Ġzni": 3076,
      "ĠÄįlovÄĽka": 3077,
      "ĠvÄĽk": 3078,
      "ĠÅĻÃŃÅ¡e": 3079,
      "ĠÃºsmÄĽvem": 3080,
      "kovÃ©": 3081,
      "lÃ©z": 3082,
      "ĠzlatÃ½ch": 3083,
      "Vla": 3084,
      "ĠzÅĻe": 3085,
      "Ġpotu": 3086,
      "ĠkvÄĽti": 3087,
      "ĠBohem": 3088,
      "Ġned": 3089,
      "ĠkrÃ¡su": 3090,
      "Ġboha": 3091,
      "Ġcest": 3092,
      "Ġkrokem": 3093,
      "ĠvzplÃ¡": 3094,
      "ĠbÃ½vÃ¡": 3095,
      "au": 3096,
      "Ġzrcad": 3097,
      "emi": 3098,
      "Mu": 3099,
      "raz": 3100,
      "lova": 3101,
      "ĠcestÄĽ": 3102,
      "ĠhÃ½": 3103,
      "ĠvÃŃÅ¡": 3104,
      "mÃ½": 3105,
      "ĠbÅĻÃŃ": 3106,
      "ĠjedinÃ½": 3107,
      "Ġhez": 3108,
      "Ġdum": 3109,
      "ĠÄįasy": 3110,
      "Ġhudba": 3111,
      "Ġdny": 3112,
      "NÄĽ": 3113,
      "Ġsoud": 3114,
      "ctvÃŃ": 3115,
      "Å¡ÃŃch": 3116,
      "ĠlÃŃbÃ¡": 3117,
      "Ġzmat": 3118,
      "ple": 3119,
      "tnÃ¡": 3120,
      "ĠvrÃ¡tÃŃ": 3121,
      "MÃ©": 3122,
      "ĠmalÃ¡": 3123,
      "tÃ©Å¾": 3124,
      "Ġnovou": 3125,
      "Ġstrany": 3126,
      "lky": 3127,
      "ĠstÃ¡t": 3128,
      "ĠsmutnÃ©": 3129,
      "Ġhochu": 3130,
      "Ġholu": 3131,
      "ĠrtÅ¯": 3132,
      "Ma": 3133,
      "ĠÃĵ": 3134,
      "Ġskvost": 3135,
      "pomen": 3136,
      "kojen": 3137,
      "toÅ¥": 3138,
      "ĠlÃŃci": 3139,
      "ĠvroucÃŃ": 3140,
      "asu": 3141,
      "Ġkroky": 3142,
      "ĠbledÃ¡": 3143,
      "nÄĽnÃŃ": 3144,
      "venÃ©": 3145,
      "ĠmrtvÃ½ch": 3146,
      "hnul": 3147,
      "Ġzka": 3148,
      "Ġkonce": 3149,
      "ĠmlÄįÃŃ": 3150,
      "ĠtÅĻetÃŃ": 3151,
      "lej": 3152,
      "Ġpope": 3153,
      "Ġrtech": 3154,
      "kolem": 3155,
      "ĠÄįistÃ©": 3156,
      "Ġprud": 3157,
      "vrÃ¡tÃŃ": 3158,
      "bnÄĽ": 3159,
      "Pan": 3160,
      "ĠvÃ¡Å¡nÃŃ": 3161,
      "vot": 3162,
      "dro": 3163,
      "ĠÃºzko": 3164,
      "Ġspad": 3165,
      "ĠpalÃ¡": 3166,
      "ĠÄįaro": 3167,
      "Ku": 3168,
      "per": 3169,
      "Ġhnu": 3170,
      "pot": 3171,
      "hlÃ½": 3172,
      "kvÃ©": 3173,
      "ĠÅ¾el": 3174,
      "Ġmni": 3175,
      "ĠtoÄįÃŃ": 3176,
      "Ġrod": 3177,
      "han": 3178,
      "Ã¡r": 3179,
      "Ġhvo": 3180,
      "Srdce": 3181,
      "Ġtrou": 3182,
      "Ġhlasy": 3183,
      "ĠklesÃ¡": 3184,
      "ĠhÅĻÃŃch": 3185,
      "ĠÅ¾alu": 3186,
      "ĠblÃŃÅ¾ÃŃ": 3187,
      "Ġvlh": 3188,
      "ĠÅĻi": 3189,
      "Å¡ly": 3190,
      "ĠdÄĽs": 3191,
      "Ġide": 3192,
      "dna": 3193,
      "ĠÅ¾eh": 3194,
      "Ġklu": 3195,
      "Ġkat": 3196,
      "Ġpaprsk": 3197,
      "Den": 3198,
      "bem": 3199,
      "Äįo": 3200,
      "ĠmÃŃsta": 3201,
      "Ġcti": 3202,
      "Ġpokoj": 3203,
      "ĠbudÃŃ": 3204,
      "ĠzpÃ¡tky": 3205,
      "star": 3206,
      "ĠlesnÃŃ": 3207,
      "ĠjinÃ½ch": 3208,
      "Ġrozho": 3209,
      "ĠvÅĻa": 3210,
      "Ġom": 3211,
      "ĠvÃŃry": 3212,
      "ĠvÅ¡emu": 3213,
      "Ġslovem": 3214,
      "liv": 3215,
      "nechÅ¥": 3216,
      "ĠdlaÅĪ": 3217,
      "Ġlili": 3218,
      "ĠmrtvÃ©": 3219,
      "Ġpohle": 3220,
      "ĠnavÅ¾dy": 3221,
      "Ġblesky": 3222,
      "Ġosu": 3223,
      "livÃ½": 3224,
      "bel": 3225,
      "rek": 3226,
      "ĠcÃŃl": 3227,
      "bÃ¡ch": 3228,
      "Ġsest": 3229,
      "Ġjino": 3230,
      "ĠpÅĻedu": 3231,
      "Ġhradu": 3232,
      "ĠbohatÃ½": 3233,
      "hnout": 3234,
      "nala": 3235,
      "ĠloÅ¾e": 3236,
      "Ġvzduchu": 3237,
      "tÃ¡n": 3238,
      "ĠkteÅĻÃŃ": 3239,
      "nikÃ¡": 3240,
      "blesk": 3241,
      "ec": 3242,
      "Ġtichu": 3243,
      "ĠÅ¾Ã¡dnÃ½": 3244,
      "Ġmrtvo": 3245,
      "mrtel": 3246,
      "ĠvÄįera": 3247,
      "Ġstesk": 3248,
      "ĠchtÃŃ": 3249,
      "ĠVla": 3250,
      "ĠslyÅ¡et": 3251,
      "TvÃ¡": 3252,
      "ĠÄįt": 3253,
      "ĠbÃŃlou": 3254,
      "Ġdav": 3255,
      "ĠovÅ¡em": 3256,
      "Ġbolu": 3257,
      "ĠNi": 3258,
      "Å¾enÃ½": 3259,
      "ĠknÄĽÅ¾": 3260,
      "Ġletu": 3261,
      "ĠsladkÃ¡": 3262,
      "Nej": 3263,
      "lenÃ¡": 3264,
      "rÅ¯m": 3265,
      "ĠmÄĽli": 3266,
      "Ġsad": 3267,
      "Ġcy": 3268,
      "ĠslyÅ¡": 3269,
      "srdce": 3270,
      "Ġzlatem": 3271,
      "Ġpolib": 3272,
      "nitÅĻ": 3273,
      "ĠvÄĽn": 3274,
      "cenÃŃ": 3275,
      "hÃ©m": 3276,
      "nkou": 3277,
      "Ġono": 3278,
      "ol": 3279,
      "Ġsty": 3280,
      "koj": 3281,
      "Ġnesou": 3282,
      "An": 3283,
      "lÃ©tÃ¡": 3284,
      "ĠVe": 3285,
      "ĠnÄĽkdo": 3286,
      "tej": 3287,
      "tÄĽz": 3288,
      "vede": 3289,
      "hajÃŃ": 3290,
      "ĠkvÄĽtem": 3291,
      "ĠÄįernÃ½ch": 3292,
      "Ġbro": 3293,
      "ĠopuÅ¡tÄĽ": 3294,
      "ĠrÃ¡nu": 3295,
      "kost": 3296,
      "ĠdÄĽdi": 3297,
      "ĠvisÃŃ": 3298,
      "ĠnadÅ¡en": 3299,
      "Ġsmutku": 3300,
      "bnÃ©": 3301,
      "JeÅ¡tÄĽ": 3302,
      "cenÃ©": 3303,
      "les": 3304,
      "Ġhosti": 3305,
      "ĠlÃŃto": 3306,
      "Ġstrach": 3307,
      "Ġodpu": 3308,
      "Ġpodle": 3309,
      "mnÃŃ": 3310,
      "zvo": 3311,
      "Ġpek": 3312,
      "Ġmlhy": 3313,
      "blo": 3314,
      "Ġruch": 3315,
      "AÄį": 3316,
      "Ġbolesti": 3317,
      "ĠvzneÅ¡en": 3318,
      "chra": 3319,
      "cos": 3320,
      "Äįiny": 3321,
      "Ġsoumrak": 3322,
      "svÅ¯j": 3323,
      "Ġtvr": 3324,
      "ĠpotÄĽ": 3325,
      "Ġutr": 3326,
      "tat": 3327,
      "Ġrozu": 3328,
      "ĠÄįeskÃ½": 3329,
      "Di": 3330,
      "hlou": 3331,
      "Mno": 3332,
      "Å¡to": 3333,
      "Ġsyna": 3334,
      "ĠtÅĻese": 3335,
      "vÃŃÅ¡": 3336,
      "Ġhoch": 3337,
      "ĠskrÃ¡ÅĪ": 3338,
      "Noc": 3339,
      "svÄĽ": 3340,
      "Å¾nÃ©": 3341,
      "Äįela": 3342,
      "ĠzdravÃŃ": 3343,
      "ĠohnÄĽm": 3344,
      "Ġzvon": 3345,
      "ĠzprÃ¡": 3346,
      "ĠzvlÃ¡": 3347,
      "Ġrej": 3348,
      "rozen": 3349,
      "nÃ¡Å¡e": 3350,
      "pomnÄĽ": 3351,
      "ĠvidÄĽt": 3352,
      "ĠrÅ¯Å¾i": 3353,
      "Ġvle": 3354,
      "ĠkoÅĻi": 3355,
      "prav": 3356,
      "ĠÅĪadrech": 3357,
      "ĠvÄĽci": 3358,
      "ĠpÅĻÃŃÅ¡e": 3359,
      "MÃ¡m": 3360,
      "kl": 3361,
      "ĠvÅ¯ni": 3362,
      "ĠPÃ¡nÄĽ": 3363,
      "Ġoblak": 3364,
      "ĠvyÅ¡el": 3365,
      "ĠblÃŃÅ¾e": 3366,
      "ĠbledÃ©": 3367,
      "Ġdechem": 3368,
      "Ġvelkou": 3369,
      "ĠvÃŃno": 3370,
      "ost": 3371,
      "ĠnenÃ¡vi": 3372,
      "Ġdvou": 3373,
      "ĠÅ¾ene": 3374,
      "stupu": 3375,
      "kterÃ¡": 3376,
      "byla": 3377,
      "tne": 3378,
      "ĠmrÃ¡z": 3379,
      "Ġzapad": 3380,
      "dÃ¡vÃ¡": 3381,
      "ĠdÅĻe": 3382,
      "Ġdali": 3383,
      "ĠÅĻas": 3384,
      "Ġvstou": 3385,
      "Ġzma": 3386,
      "coÅ¾": 3387,
      "bec": 3388,
      "ĠlidskÃ½": 3389,
      "SÃ¡m": 3390,
      "vedl": 3391,
      "hÅĻ": 3392,
      "tÅĻ": 3393,
      "Ġzku": 3394,
      "Ġvzde": 3395,
      "Ġnitru": 3396,
      "ĠztrÃ¡cÃŃ": 3397,
      "zenÃŃ": 3398,
      "Ġvze": 3399,
      "ĠdÃŃlo": 3400,
      "Ġskon": 3401,
      "bÅ¯h": 3402,
      "tili": 3403,
      "Ġobli": 3404,
      "venÃ½": 3405,
      "Ġuna": 3406,
      "chom": 3407,
      "ĠPane": 3408,
      "ĠtvojÃŃ": 3409,
      "hÅ¯m": 3410,
      "kva": 3411,
      "plo": 3412,
      "zek": 3413,
      "ĠjasnÃ½": 3414,
      "ĠSi": 3415,
      "ĠvraÅ¾": 3416,
      "Ġsbo": 3417,
      "ĠkoÅĻen": 3418,
      "ĠdÅĻÃŃmÃ¡": 3419,
      "ĠÄįty": 3420,
      "bys": 3421,
      "Ġkdesi": 3422,
      "rnÃ½ch": 3423,
      "ĠtÄĽÅ¾kÃ½": 3424,
      "dlÃ©": 3425,
      "Ġzlatou": 3426,
      "ĠstÃ©": 3427,
      "jo": 3428,
      "ĠtichÃ¡": 3429,
      "Ġplach": 3430,
      "ĠumÃŃrÃ¡": 3431,
      "ĠvÅ¡i": 3432,
      "Äįkem": 3433,
      "rad": 3434,
      "rajÃŃ": 3435,
      "Ġplno": 3436,
      "Ġlehce": 3437,
      "Ġdarmo": 3438,
      "cÃ½": 3439,
      "Ġchra": 3440,
      "Ġjitra": 3441,
      "Ha": 3442,
      "Ġnap": 3443,
      "vanÃ©": 3444,
      "dÄĽti": 3445,
      "ĠdÄĽje": 3446,
      "ĠhalÃŃ": 3447,
      "ĠzÃŃrÃ¡": 3448,
      "Ġzraku": 3449,
      "tkem": 3450,
      "Ġhad": 3451,
      "drÃ¡": 3452,
      "ĠspoleÄį": 3453,
      "ĠdÃ½Å¡e": 3454,
      "Ġchvat": 3455,
      "Ġlidstvo": 3456,
      "bila": 3457,
      "ĠpÃ¡r": 3458,
      "ĠplÃ¡Äįi": 3459,
      "Ġsluncem": 3460,
      "bÃ¡m": 3461,
      "Ġmech": 3462,
      "Ġsluch": 3463,
      "klid": 3464,
      "sÃŃch": 3465,
      "ĠrannÃŃ": 3466,
      "Å¾ka": 3467,
      "ĠVÄĽ": 3468,
      "ĠjÃŃti": 3469,
      "Ġtuto": 3470,
      "tvÃ©": 3471,
      "Ġpln": 3472,
      "svÃ½m": 3473,
      "Ra": 3474,
      "Å¾nÄĽ": 3475,
      "ĠÄįist": 3476,
      "Ġdoba": 3477,
      "PojÄı": 3478,
      "ĠnadÅ¡enÃŃ": 3479,
      "ĠpatÅĻÃŃ": 3480,
      "ÅĻad": 3481,
      "ĠtoÅ¥": 3482,
      "Ġsnem": 3483,
      "Ġvytr": 3484,
      "Ġcu": 3485,
      "ckÃ½ch": 3486,
      "sÃ½": 3487,
      "benÃŃ": 3488,
      "chci": 3489,
      "ĠotÃ¡": 3490,
      "ĠzÃ¡vi": 3491,
      "ĠtemnÃ©": 3492,
      "Ġuvi": 3493,
      "sli": 3494,
      "vky": 3495,
      "Å¾ky": 3496,
      "Ġneroz": 3497,
      "zuje": 3498,
      "svit": 3499,
      "Ġnebylo": 3500,
      "bnÃ½": 3501,
      "dÄĽji": 3502,
      "Ġproro": 3503,
      "Ġzbo": 3504,
      "ĠkaÅ¾dÃ©m": 3505,
      "lovÃ©": 3506,
      "ĠskÅĻÃŃ": 3507,
      "Ġseve": 3508,
      "bek": 3509,
      "peÅ¾": 3510,
      "venÃŃ": 3511,
      "Ġraj": 3512,
      "Ġhar": 3513,
      "vÄĽl": 3514,
      "zlo": 3515,
      "telÃ©": 3516,
      "Ġspani": 3517,
      "nuly": 3518,
      "ĠdÃ¡ti": 3519,
      "ĠTvo": 3520,
      "Ġmlha": 3521,
      "ĠsmutnÃ½": 3522,
      "MÃŃ": 3523,
      "diÄį": 3524,
      "ĠZa": 3525,
      "ter": 3526,
      "ĠbolÃŃ": 3527,
      "Ġcizi": 3528,
      "spÃŃ": 3529,
      "Å¡ÃŃÅ¡": 3530,
      "Ce": 3531,
      "jeho": 3532,
      "ĠhuÄįÃŃ": 3533,
      "ama": 3534,
      "ĠboÅ¾e": 3535,
      "ĠsvÄĽty": 3536,
      "zky": 3537,
      "Ġvola": 3538,
      "ĠKa": 3539,
      "Ġmati": 3540,
      "ĠsmÄĽle": 3541,
      "Ru": 3542,
      "Ġpouta": 3543,
      "ĠrokÅ¯": 3544,
      "Ġstane": 3545,
      "Ġlze": 3546,
      "ĠjasnÄĽ": 3547,
      "ĠandÄĽ": 3548,
      "NenÃŃ": 3549,
      "slad": 3550,
      "ĠpsÃ¡": 3551,
      "Ġhroby": 3552,
      "ĠhrÅ¯zou": 3553,
      "rozu": 3554,
      "voucÃŃ": 3555,
      "sie": 3556,
      "ĠsplÃ½vÃ¡": 3557,
      "ĠsnÄĽhu": 3558,
      "?...": 3559,
      "dni": 3560,
      "kali": 3561,
      "ĠÅ¡li": 3562,
      "Ġstalo": 3563,
      "ĠvÃ¡Å¡nÄĽ": 3564,
      "Ġosla": 3565,
      "ĠotcÅ¯": 3566,
      "Ġkar": 3567,
      "ie": 3568,
      "ĠnovÃ¡": 3569,
      "Ġnebem": 3570,
      "livÃ©": 3571,
      "tud": 3572,
      "Ġtichou": 3573,
      "ĠdÄĽvÄįe": 3574,
      "bar": 3575,
      "Ġzpu": 3576,
      "ĠpromÄĽ": 3577,
      "jdeÅ¡": 3578,
      "ĠdÄĽcko": 3579,
      "ĠvÃŃna": 3580,
      "Ġpomoc": 3581,
      "vci": 3582,
      "Ġvzpla": 3583,
      "Ġbleskem": 3584,
      "ĠznÄĽl": 3585,
      "Ġvna": 3586,
      "ĠnÃ¡ruÄįÃŃ": 3587,
      "ĠmrÃ¡": 3588,
      "Ġchleba": 3589,
      "Ġjimi": 3590,
      "ĠmÃ¡te": 3591,
      "Nebo": 3592,
      "Ġvesele": 3593,
      "So": 3594,
      "Ġzhou": 3595,
      "lenou": 3596,
      "ĠpÄĽt": 3597,
      "ujÃŃ": 3598,
      "Ġtys": 3599,
      "Ġsynu": 3600,
      "Ġkom": 3601,
      "ĠchÃ½lÃŃ": 3602,
      "Å¾nÃ½": 3603,
      "ĠkolÃ©b": 3604,
      "Å¡a": 3605,
      "ĠzdÄĽ": 3606,
      "ÅĻec": 3607,
      "Ġfa": 3608,
      "ĠvÃŃra": 3609,
      "roucÃŃ": 3610,
      "pila": 3611,
      "Ġsvatou": 3612,
      "bled": 3613,
      "ĠvolnÄĽ": 3614,
      "Å¾Ã¡r": 3615,
      "Ġtato": 3616,
      "ĠpÅĻÃŃtel": 3617,
      "ĠveÄįera": 3618,
      "ĠsvÄĽtÅ¯": 3619,
      "ĠÅ¾enou": 3620,
      "pÃ©": 3621,
      "rÃ¡d": 3622,
      "ber": 3623,
      "Ġoken": 3624,
      "Ġtva": 3625,
      "ĠnovÃ½ch": 3626,
      "ĠpojÄı": 3627,
      "ĠTak": 3628,
      "cenÃ½": 3629,
      "ĠhorÃ¡ch": 3630,
      "Ġslune": 3631,
      "ĠplÃ¡po": 3632,
      "ĠptÃ¡Äįe": 3633,
      "Ġvsi": 3634,
      "Ġvlna": 3635,
      "ĠmÅĻÃŃ": 3636,
      "kÃ¡n": 3637,
      "ĠÅ¡lech": 3638,
      "tÃ¡nÃŃ": 3639,
      "Ġkolo": 3640,
      "ĠcitÅ¯": 3641,
      "ĠvÅ¾dyÅ¥": 3642,
      "ĠvÄĽtru": 3643,
      "kovi": 3644,
      "Kol": 3645,
      "zÅĻÃŃ": 3646,
      "ĠÅ¾ebrÃ¡": 3647,
      "Ġsladkou": 3648,
      "ĠFran": 3649,
      "tlu": 3650,
      "ĠonÄĽ": 3651,
      "Ani": 3652,
      "Ġkrvi": 3653,
      "ĠtÄĽÅ¾ce": 3654,
      "Ġdouf": 3655,
      "Ġpodiv": 3656,
      "ĠJen": 3657,
      "Oh": 3658,
      "Ġvoda": 3659,
      "Ġslovy": 3660,
      "ĠpÅ¯va": 3661,
      "ĠdÃŃvÄįÃŃ": 3662,
      "ĠcÃŃsaÅĻ": 3663,
      "Ġdle": 3664,
      "ÄįnÃ½ch": 3665,
      "letÄĽ": 3666,
      "ĠÃºÅ¾": 3667,
      "ĠVÃ¡c": 3668,
      "ĠpÃŃs": 3669,
      "ĠsmÄĽje": 3670,
      "Ġvzduchem": 3671,
      "Ġjsa": 3672,
      "ÅĻenÃ½": 3673,
      "Ġluny": 3674,
      "ĠmÃ©mu": 3675,
      "ĠkÅĻÃŃÅ¾e": 3676,
      "Ġzbu": 3677,
      "Ġprokle": 3678,
      "Ġhoj": 3679,
      "ĠchvÄĽl": 3680,
      "Ġhym": 3681,
      "ĠÄįet": 3682,
      "jenom": 3683,
      "Ġplna": 3684,
      "dnÃ½m": 3685,
      "jsme": 3686,
      "Ġneod": 3687,
      "ĠlkÃ¡": 3688,
      "Ġnevz": 3689,
      "ĠprosÃŃm": 3690,
      "Ġhost": 3691,
      "Ġnechci": 3692,
      "ĠnÄĽjak": 3693,
      "mek": 3694,
      "ĠbledÃ½": 3695,
      "ĠpamÃ¡": 3696,
      "ĠbloudÃŃ": 3697,
      "TvÃ©": 3698,
      "ckni": 3699,
      "LÃŃ": 3700,
      "ĠstÃŃnÅ¯": 3701,
      "Ġzvony": 3702,
      "rami": 3703,
      "Ġpov": 3704,
      "Ġpochy": 3705,
      "tan": 3706,
      "BÄĽ": 3707,
      "ĠlÅ¯Å¾": 3708,
      "ĠbÃ¡snÃŃk": 3709,
      "ĠplÃ©": 3710,
      "ĠpoÄįÃŃ": 3711,
      "viti": 3712,
      "ĠpravÃ½": 3713,
      "ĠtmavÃ©": 3714,
      "lin": 3715,
      "Ġnaslou": 3716,
      "Ġhraje": 3717,
      "Ġjdu": 3718,
      "vÃ¡ch": 3719,
      "NechÅ¥": 3720,
      "lio": 3721,
      "ĠtemnÄĽ": 3722,
      "ĠtmÃ¡ch": 3723,
      "Å¡le": 3724,
      "ĠupomÃŃ": 3725,
      "ĠvÄĽÅĻ": 3726,
      "Ġhrom": 3727,
      "ĠlidskÃ½ch": 3728,
      "ĠnÄĽmÃ½": 3729,
      "ĠNo": 3730,
      "chce": 3731,
      "ĠnaÅ¡el": 3732,
      "vÃ¡t": 3733,
      "ĠzÃ¡vra": 3734,
      "ĠmyslÃŃm": 3735,
      "ĠstÄĽny": 3736,
      "Ġkvetou": 3737,
      "Chce": 3738,
      "ĠvÅ¡ecka": 3739,
      "Ġstez": 3740,
      "zdra": 3741,
      "ĠpÃ¡lÃŃ": 3742,
      "Ġpur": 3743,
      "ĠRu": 3744,
      "ĠvÅ¡ÃŃ": 3745,
      "Ġzti": 3746,
      "ĠchudÃ©": 3747,
      "ĠpohÅĻ": 3748,
      "ĠvÄĽtvÃŃ": 3749,
      "smÃŃ": 3750,
      "Ġbudem": 3751,
      "ĠÄįernÃ¡": 3752,
      "ĠzpÃŃval": 3753,
      "ĠpÅĻÃ¡nÃŃ": 3754,
      "ĠmocÃŃ": 3755,
      "Nic": 3756,
      "Ġvnu": 3757,
      "ĠdlÃŃ": 3758,
      "Äįte": 3759,
      "Ġlidi": 3760,
      "ĠKristu": 3761,
      "SlyÅ¡": 3762,
      "Ġnaposled": 3763,
      "zdÄĽ": 3764,
      "ĠstaÄįÃŃ": 3765,
      "ĠjichÅ¾": 3766,
      "Ġbarev": 3767,
      "Ġvar": 3768,
      "Ġoce": 3769,
      "ĠHa": 3770,
      "Ġhlubin": 3771,
      "ĠklÃ¡Å¡te": 3772,
      "Ġprost": 3773,
      "Ġvznes": 3774,
      "ĠzÃ¡stup": 3775,
      "Ġcosi": 3776,
      "Ġmatce": 3777,
      "zvÄĽ": 3778,
      "dÃ¡Å¡": 3779,
      "mra": 3780,
      "ge": 3781,
      "Ġbohy": 3782,
      "Ġzvuky": 3783,
      "Ġpropast": 3784,
      "Ġsbor": 3785,
      "âĢľ,": 3786,
      "ĠvÄĽÅĻÃŃ": 3787,
      "pan": 3788,
      "ĠTu": 3789,
      "ĠjÃŃÅ¾": 3790,
      "ĠdlanÃŃ": 3791,
      "ĠnepÅĻe": 3792,
      "sila": 3793,
      "rku": 3794,
      "Ġstarou": 3795,
      "ĠsmrtÃŃ": 3796,
      "zka": 3797,
      "Hned": 3798,
      "mno": 3799,
      "lejÅ¡ÃŃ": 3800,
      "Ġlodi": 3801,
      "ĠmnohÃ©": 3802,
      "tce": 3803,
      "Ġvet": 3804,
      "Ġvzbu": 3805,
      "ĠbohÅ¯": 3806,
      "ĠÅĻekla": 3807,
      "ĠvÄĽÄįnosti": 3808,
      "ĠtÃŃÅ¾ÃŃ": 3809,
      "jÃŃmÅ¾": 3810,
      "menÃŃ": 3811,
      "Ġdobu": 3812,
      "ĠhÃ¡j": 3813,
      "Ġpadne": 3814,
      "Ġvypra": 3815,
      "ĠdÄĽc": 3816,
      "Zem": 3817,
      "Å¡tÄĽstÃŃ": 3818,
      "Ġposlou": 3819,
      "ĠzlÃŃ": 3820,
      "lec": 3821,
      "ĠposmÄĽ": 3822,
      "ĠdlanÄĽ": 3823,
      "rÃ½vÃ¡": 3824,
      "Ġrozech": 3825,
      "Å¡enÃ©": 3826,
      "bÃŃrÃ¡": 3827,
      "ĠJo": 3828,
      "ĠhrÅ¯zy": 3829,
      "ÄįnÃ½m": 3830,
      "Ġpouti": 3831,
      "Ġpode": 3832,
      "asa": 3833,
      "ĠVÅ¡ak": 3834,
      "ĠduchÅ¯": 3835,
      "ĠdÄĽji": 3836,
      "stej": 3837,
      "ĠdÃŃvky": 3838,
      "ĠbratÅĻi": 3839,
      "mÃŃm": 3840,
      "nÃŃkÅ¯": 3841,
      "Ġtako": 3842,
      "ĠÅ¾Ã¡dnÃ©": 3843,
      "ĠmocnÄĽ": 3844,
      "pce": 3845,
      "set": 3846,
      "Ġhodi": 3847,
      "Pr": 3848,
      "vno": 3849,
      "ĠvyprÃ¡": 3850,
      "daly": 3851,
      "Ġdavy": 3852,
      "Ġkouzel": 3853,
      "Ġkryje": 3854,
      "ĠvÄĽÅ¾e": 3855,
      "covÃ©": 3856,
      "ĠtajÃŃ": 3857,
      "osti": 3858,
      "krÃ¡te": 3859,
      "ĠptaÄįÃŃ": 3860,
      "ĠrodÃŃ": 3861,
      "ĠhÅĻmÃŃ": 3862,
      "VÃŃm": 3863,
      "ĠVÃ¡s": 3864,
      "ĠnemÄĽl": 3865,
      "ĠzpÄĽvu": 3866,
      "ĠtmÄĽ": 3867,
      "ĠvlasÅ¯": 3868,
      "cuje": 3869,
      "Ġmatko": 3870,
      "Ã¡ch": 3871,
      "ÅĻÃŃk": 3872,
      "ĠtrÃ¡vÄĽ": 3873,
      "krev": 3874,
      "Ġztich": 3875,
      "vor": 3876,
      "kouz": 3877,
      "ĠdobrÃ¡": 3878,
      "Ġzdr": 3879,
      "Ġmatku": 3880,
      "Ġvad": 3881,
      "ĠÅĻÃŃtÃŃ": 3882,
      "Ġobzor": 3883,
      "ĠjevÃŃ": 3884,
      "ĠjakÃ¡": 3885,
      "Ġled": 3886,
      "Ġvane": 3887,
      "Ãļ": 3888,
      "Ġlad": 3889,
      "ĠvÃ©": 3890,
      "NaÄį": 3891,
      "ĠzÃ¡pad": 3892,
      "ĠdivÃ½": 3893,
      "Ġtouze": 3894,
      "ĠbyÅ¥": 3895,
      "ĠmÄĽst": 3896,
      "ĠhledÄĽl": 3897,
      "hlÃŃÅ¾ÃŃ": 3898,
      "ĠprovÃ¡": 3899,
      "Ġprahu": 3900,
      "Å¾ili": 3901,
      "ĠVi": 3902,
      "Ġplnou": 3903,
      "ĠÄįase": 3904,
      "ĠhnÄĽvu": 3905,
      "Ġin": 3906,
      "ĠkÅĻÃŃdel": 3907,
      "ĠmlÄįky": 3908,
      "rovna": 3909,
      "Ġnesmrtel": 3910,
      "Ġpanen": 3911,
      "Ġkouzlo": 3912,
      "tvÅ¯j": 3913,
      "zav": 3914,
      "lest": 3915,
      "ĠTvÅ¯j": 3916,
      "ĠÅ¾ivotem": 3917,
      "Ġdni": 3918,
      "Ġchlu": 3919,
      "pÃŃnÃ¡": 3920,
      "ĠmeÄįe": 3921,
      "Jsi": 3922,
      "ĠzlÃ©": 3923,
      "Ġprst": 3924,
      "ÅĻÃ¡d": 3925,
      "ĠslzÃŃ": 3926,
      "ĠsnÃ¡ch": 3927,
      "Ġjakby": 3928,
      "Ġkade": 3929,
      "ĠÅ¡eru": 3930,
      "ĠLa": 3931,
      "zdÃ¡": 3932,
      "vosti": 3933,
      "jichÅ¾": 3934,
      "ĠschvÃ¡": 3935,
      "Ġ(": 3936,
      "ĠrÅ¯z": 3937,
      "Ġpust": 3938,
      "ĠhrdÄĽ": 3939,
      "Ġnebude": 3940,
      "vek": 3941,
      "ĠmÄĽstÄĽ": 3942,
      "ĠprÃ¡vo": 3943,
      "Ġtkli": 3944,
      "ĠnosÃŃ": 3945,
      "ĠnÄĽkde": 3946,
      "vka": 3947,
      "ĠÅ¡iro": 3948,
      "dlÃ¡": 3949,
      "Ġvnad": 3950,
      "Ġnoha": 3951,
      "Ġmodra": 3952,
      "skne": 3953,
      "ĠchladnÃ©": 3954,
      "ĠÄįin": 3955,
      "ĠcÃŃr": 3956,
      "Ġdnem": 3957,
      "ĠrudÃ½": 3958,
      "ĠpÅĻÃŃsa": 3959,
      "ĠjÃ¡so": 3960,
      "ĠÄįasÅ¯": 3961,
      "Ġrych": 3962,
      "Ġprudce": 3963,
      "ÄĮÃŃm": 3964,
      "Ġmramo": 3965,
      "ĠrytÃŃÅĻ": 3966,
      "ÅĪte": 3967,
      "Ġrek": 3968,
      "Ġjitro": 3969,
      "ĠprÃ¡va": 3970,
      "stÅĻi": 3971,
      "Ġuse": 3972,
      "ĠumÄĽnÃŃ": 3973,
      "ĠÅ¡edi": 3974,
      "ĠÅ¡edÃ©": 3975,
      "ĠÄįistÃ½": 3976,
      "ĠmeÄįem": 3977,
      "zÃ¡ch": 3978,
      "Ġprapor": 3979,
      "Ġkole": 3980,
      "Ġdraho": 3981,
      "ĠradostÃŃ": 3982,
      "ĠosamÄĽ": 3983,
      "Ġjazyk": 3984,
      "tÅĻi": 3985,
      "ĠzkÃ¡": 3986,
      "ĠÅ¡Ã¡": 3987,
      "ÅĪat": 3988,
      "Ġstran": 3989,
      "zÃ½": 3990,
      "ĠmlÃ½": 3991,
      "kaÅ¾dÃ½": 3992,
      "Ġholubi": 3993,
      "Bla": 3994,
      "zÅ¯": 3995,
      "Ġbohu": 3996,
      "Ġnikde": 3997,
      "vatÃ½": 3998,
      "Ġtmou": 3999,
      "dovÃ©": 4000,
      "Ġkost": 4001,
      "ĠnÃ¡dher": 4002,
      "Ġsklen": 4003,
      "ĠÅ¡ÃŃlen": 4004,
      "nd": 4005,
      "Ġlesem": 4006,
      "hÃ¡ch": 4007,
      "ĠdveÅĻÃŃ": 4008,
      "krÃ¡snÄĽjÅ¡ÃŃ": 4009,
      "Ġvzte": 4010,
      "ĠjinÃŃ": 4011,
      "Ġtaky": 4012,
      "kÅ¯v": 4013,
      "ĠvelkÃ½m": 4014,
      "Ġtvor": 4015,
      "ĠdeÅ¡tÄĽ": 4016,
      "Ġsnes": 4017,
      "ĠspÃ¡nku": 4018,
      "Ġzapomen": 4019,
      "Ġneho": 4020,
      "Ġstopy": 4021,
      "ĠtvoÅĻÃŃ": 4022,
      "gu": 4023,
      "neÄįnÄĽ": 4024,
      "ÅĪo": 4025,
      "Äįili": 4026,
      "ÄĮas": 4027,
      "ĠvÅ¡ady": 4028,
      "dÅĻÃŃv": 4029,
      "fa": 4030,
      "Ġmluvil": 4031,
      "Ġpromlu": 4032,
      "Ġstuden": 4033,
      "jÃŃcÃŃch": 4034,
      "ĠÅĪÃ¡": 4035,
      "ĠÃºdolÃŃ": 4036,
      "ledne": 4037,
      "rie": 4038,
      "Ġkruh": 4039,
      "ĠobÄĽÅ¥": 4040,
      "Ġhmo": 4041,
      "vech": 4042,
      "Ġdruhdy": 4043,
      "Ġlisty": 4044,
      "Ġpoklad": 4045,
      "ĠkaÅ¾dÃ½m": 4046,
      "Ġstolu": 4047,
      "ĠotÄįe": 4048,
      "Ġkomu": 4049,
      "ĠHe": 4050,
      "pÃŃm": 4051,
      "ĠÅ¡pi": 4052,
      "ĠMu": 4053,
      "snou": 4054,
      "nilo": 4055,
      "houcÃŃ": 4056,
      "ĠAl": 4057,
      "jit": 4058,
      "ĠvelkÃ½ch": 4059,
      "veÄįer": 4060,
      "nÄĽnÃ©": 4061,
      "Ġchcem": 4062,
      "mech": 4063,
      "Ġvelmi": 4064,
      "ĠdÃ½chÃ¡": 4065,
      "ĠbÃ¡j": 4066,
      "Ġmimo": 4067,
      "Ġproudy": 4068,
      "ĠTebe": 4069,
      "TvÅ¯j": 4070,
      "!âĢľâĢľ": 4071,
      "Å¡o": 4072,
      "ĠÅ¡pat": 4073,
      "Ġskoro": 4074,
      "Ob": 4075,
      "skal": 4076,
      "Ġplanou": 4077,
      "ĠdlouhÃ¡": 4078,
      "PÄĽ": 4079,
      "chla": 4080,
      "chod": 4081,
      "ĠnemÅ¯Å¾e": 4082,
      "Ġdlouhou": 4083,
      "ĠvrÃ¡til": 4084,
      "ĠveÅ¡": 4085,
      "vyÅ¡Å¡ÃŃ": 4086,
      "ĠvÅ¯dce": 4087,
      "Ġstranou": 4088,
      "ĠLe": 4089,
      "ĠtajemstvÃŃ": 4090,
      "ĠmotÃ½l": 4091,
      "Ġzle": 4092,
      "ĠjemnÄĽ": 4093,
      "ĠvÄĽnec": 4094,
      "ĠBa": 4095,
      "ĠstÃ¡ti": 4096,
      "tys": 4097,
      "ĠÅĻeka": 4098,
      "ĠtemnÃ½": 4099,
      "luv": 4100,
      "ĠprostÅĻed": 4101,
      "ĠtÄĽÅ¾ko": 4102,
      "KaÅ¾dÃ½": 4103,
      "ĠkÃ½vÃ¡": 4104,
      "Äįely": 4105,
      "Ġvichr": 4106,
      "ĠnechÃ¡": 4107,
      "Å¾et": 4108,
      "ĠvÃŃr": 4109,
      "ĠsvÃŃrÃ¡": 4110,
      "Ġpomoci": 4111,
      "Ġnep": 4112,
      "lÃŃk": 4113,
      "Ġvine": 4114,
      "ĠtÄĽchto": 4115,
      "Ġstromu": 4116,
      "ĠblÃŃzko": 4117,
      "Ġvzdor": 4118,
      "ĠzlÃ¡": 4119,
      "ĠchlÃ©b": 4120,
      "KrÃ¡l": 4121,
      "ĠbÃŃdy": 4122,
      "ĠloÅ¾i": 4123,
      "Ġly": 4124,
      "Ġrosy": 4125,
      "ĠdÃŃval": 4126,
      "ĠKrista": 4127,
      "ckÃ¡": 4128,
      "ĠslavnÃ©": 4129,
      "ĠtrÅ¯nu": 4130,
      "ĠJu": 4131,
      "ĠÅĻÃŃÅ¡i": 4132,
      "ĠkvÃŃlÃŃ": 4133,
      "ĠjÃŃmÅ¾": 4134,
      "Ġzmizel": 4135,
      "ĠpÄĽknÄĽ": 4136,
      "ĠBu": 4137,
      "ĠKrÃ¡": 4138,
      "ĠslavnÄĽ": 4139,
      "ĠvÄĽÄįnÃ¡": 4140,
      "dÄĽlÃ¡": 4141,
      "mÃ¡nÃŃ": 4142,
      "Ġpes": 4143,
      "ĠslavnÃ½": 4144,
      "ĠmÅ¯Å¾": 4145,
      "enÄĽ": 4146,
      "muÅ¾": 4147,
      "Ġstal": 4148,
      "jeÅ¡tÄĽ": 4149,
      "ĠpravÃ©": 4150,
      "Sy": 4151,
      "ga": 4152,
      "ĠpodÃŃ": 4153,
      "ĠtÄĽlem": 4154,
      "ĠÄįervÃ¡n": 4155,
      "Ġkus": 4156,
      "Ġzmo": 4157,
      "vanÃ½": 4158,
      "ĠPan": 4159,
      "Ġpoznal": 4160,
      "ĠskÃ¡la": 4161,
      "lnÄĽ": 4162,
      "rky": 4163,
      "Å¾ela": 4164,
      "ĠrÃ¡ji": 4165,
      "ĠjÃ¡sa": 4166,
      "ÄĮer": 4167,
      "Ġnebez": 4168,
      "Ġdceru": 4169,
      "Ġkrajem": 4170,
      "Ġkvete": 4171,
      "try": 4172,
      "nuv": 4173,
      "Ġzima": 4174,
      "ĠskrÃ½vÃ¡": 4175,
      "Å¡eÅĪ": 4176,
      "ĠkrÃ¡sou": 4177,
      "ĠnadÄĽj": 4178,
      "ĠÄįemu": 4179,
      "Ġved": 4180,
      "Ġdrahou": 4181,
      "ÄįkÃ¡": 4182,
      "Ġpoma": 4183,
      "ÅĻili": 4184,
      "Ġmusil": 4185,
      "Ġkola": 4186,
      "Ġvzru": 4187,
      "ĠpryÄį": 4188,
      "vici": 4189,
      "ĠbÃ½val": 4190,
      "ĠvÃŃtÄĽzstvÃŃ": 4191,
      "Ġhbi": 4192,
      "proti": 4193,
      "Å¡ep": 4194,
      "Ġukry": 4195,
      "ĠBy": 4196,
      "sklo": 4197,
      "ĠkrÃ¡Äįel": 4198,
      "ĠstÅĻedu": 4199,
      "os": 4200,
      "ĠmoÅĻem": 4201,
      "ĠcÃŃle": 4202,
      "ToÅ¾": 4203,
      "ĠdivnÃ©": 4204,
      "Ġnapl": 4205,
      "Ġmohla": 4206,
      "ĠvÄĽtrem": 4207,
      "Ġpekla": 4208,
      "ĠdÃ¡vnÃ½ch": 4209,
      "Ġnebezpe": 4210,
      "ĠpÃ½": 4211,
      "Ġvin": 4212,
      "Ġnemoc": 4213,
      "KÃ©Å¾": 4214,
      "ĠvstÃ¡vÃ¡": 4215,
      "chlad": 4216,
      "loval": 4217,
      "Ġmate": 4218,
      "ĠsvÄĽtel": 4219,
      "ĠchovÃ¡": 4220,
      "nulo": 4221,
      "it": 4222,
      "ĠchÅ¯": 4223,
      "Ġotci": 4224,
      "ĠnepÅĻÃ¡tel": 4225,
      "Dej": 4226,
      "Ġbolem": 4227,
      "ĠÅ¾alÃ¡": 4228,
      "rod": 4229,
      "Ġzdro": 4230,
      "Jde": 4231,
      "ĠvzÃŃ": 4232,
      "ĠjÃ¡sÃ¡": 4233,
      "ĠnemÃ¡m": 4234,
      "ĠnadÄĽjÃŃ": 4235,
      "aly": 4236,
      "Ġzkou": 4237,
      "ĠpÅĻelu": 4238,
      "ĠtuÅ¡ÃŃ": 4239,
      "Ġak": 4240,
      "hala": 4241,
      "vak": 4242,
      "nci": 4243,
      "nkem": 4244,
      "Äįce": 4245,
      "ÄįenÃ©": 4246,
      "Chci": 4247,
      "ĠspÃŃÅ¡": 4248,
      "ĠpÅ¯lno": 4249,
      "ĠzÃ¡voj": 4250,
      "Å¡nÃ¡": 4251,
      "skla": 4252,
      "ĠHospo": 4253,
      "Ġzacho": 4254,
      "ĠuÅ¡": 4255,
      "ĠzÃ¡ha": 4256,
      "ĠchvÄĽla": 4257,
      "ĠchvÄĽjÃŃ": 4258,
      "ĠÅ¡tÃŃt": 4259,
      "tali": 4260,
      "mÃ¡l": 4261,
      "ĠoÄįima": 4262,
      "ĠbrÃ¡ny": 4263,
      "Ġdumy": 4264,
      "ĠpÃ¡na": 4265,
      "ĠZÃ¡": 4266,
      "StÃ¡": 4267,
      "ĠHu": 4268,
      "Proto": 4269,
      "ĠtrÃ¡vy": 4270,
      "Sto": 4271,
      "vnÃŃm": 4272,
      "Ġsnech": 4273,
      "ĠmÅ¾i": 4274,
      "Ġbrou": 4275,
      "pek": 4276,
      "neme": 4277,
      "chÃ¡ch": 4278,
      "Ġlaho": 4279,
      "ĠrodnÃ©": 4280,
      "ĠbÃŃdu": 4281,
      "ĠlidskÃ¡": 4282,
      "ĠzÅ¯stal": 4283,
      "Ġpekel": 4284,
      "rz": 4285,
      "nily": 4286,
      "ĠmÃŃstÄĽ": 4287,
      "dlou": 4288,
      "nili": 4289,
      "ĠvÄĽku": 4290,
      "Ġdavu": 4291,
      "Ġpozdrav": 4292,
      "Ġopat": 4293,
      "Ġpol": 4294,
      "lovÄĽk": 4295,
      "dva": 4296,
      "ĠtrÃ½": 4297,
      "ĠzlÃ½": 4298,
      "nali": 4299,
      "kaly": 4300,
      "pÃŃrÃ¡": 4301,
      "ĠÅĻad": 4302,
      "tily": 4303,
      "ĠÅ¾itÃŃm": 4304,
      "Ġpano": 4305,
      "zÃŃch": 4306,
      "ĠsmÃ¡l": 4307,
      "Ġpora": 4308,
      "ĠrozechvÄĽ": 4309,
      "ĠvzrÅ¯": 4310,
      "vese": 4311,
      "dum": 4312,
      "ĠpÅĻipra": 4313,
      "Ġmilou": 4314,
      "ĠklÃŃnu": 4315,
      "ĠknÄĽz": 4316,
      "ĠvÃ½kÅĻik": 4317,
      "ĠÄįÃŃÅ¡e": 4318,
      "Ġklade": 4319,
      "pky": 4320,
      "vcÅ¯": 4321,
      "Ġjat": 4322,
      "ĠkÅĻo": 4323,
      "Å¾to": 4324,
      "nez": 4325,
      "Ja": 4326,
      "ĠbudiÅ¾": 4327,
      "ĠbÅĻeh": 4328,
      "ĠvroucnÄĽ": 4329,
      "ĠozvÄĽ": 4330,
      "Ġplou": 4331,
      "ĠneÅ¡Å¥ast": 4332,
      "ĠusmÃŃvÃ¡": 4333,
      "pnÄĽ": 4334,
      "Ġzahy": 4335,
      "Ġnitro": 4336,
      "ĠSe": 4337,
      "ĠsamÃ©": 4338,
      "Ġhledal": 4339,
      "lko": 4340,
      "ĠÅ½": 4341,
      "ĠvÄĽÅ¾ÃŃ": 4342,
      "ĠpracÃŃ": 4343,
      "Ġjindy": 4344,
      "ĠsprÃ¡": 4345,
      "ĠSlÃ¡": 4346,
      "ÅĻenÃ¡": 4347,
      "dilo": 4348,
      "ĠÄįerven": 4349,
      "Ġduchem": 4350,
      "Ġjestli": 4351,
      "ĠhÃ¡je": 4352,
      "znÄĽl": 4353,
      "tÃŃÅ¡": 4354,
      "ĠvaÅ¡ÃŃ": 4355,
      "ĠtÃ¡hnou": 4356,
      "ĠtÃŃÅ¾": 4357,
      "Mne": 4358,
      "vÅ¡": 4359,
      "Ġucho": 4360,
      "ĠvznÃ¡Å¡ÃŃ": 4361,
      "ĠslzÃ¡ch": 4362,
      "ĠvÄĽtve": 4363,
      "Ġdlu": 4364,
      "ĠstÃ¡ÅĻÃŃ": 4365,
      "ĠzÅĻÃŃt": 4366,
      "tli": 4367,
      "ĠjinÃ¡": 4368,
      "Å¾ena": 4369,
      "vola": 4370,
      "lÃŃÅ¡": 4371,
      "Ġskle": 4372,
      "ĠÅĻÃŃÅ¡": 4373,
      "ĠjinÃ½m": 4374,
      "ĠprostÃ©": 4375,
      "ĠdivÃ©": 4376,
      "Ġznak": 4377,
      "ĠAle": 4378,
      "ĠnejvÃŃc": 4379,
      "ĠmladÃ½ch": 4380,
      "Ġkoho": 4381,
      "prostÅĻed": 4382,
      "Kdyby": 4383,
      "hej": 4384,
      "Jeho": 4385,
      "Ġshas": 4386,
      "ĠtuÅ¾": 4387,
      "tÅĻeba": 4388,
      "ĠdrÅ¾ÃŃ": 4389,
      "tÄĽÅ¾": 4390,
      "Ġrodu": 4391,
      "Ġkosti": 4392,
      "ĠjejÃŃch": 4393,
      "Ġctnost": 4394,
      "kly": 4395,
      "nÃ¡s": 4396,
      "Ġpadla": 4397,
      "rce": 4398,
      "kov": 4399,
      "ĠpozdÄĽ": 4400,
      "ĠodmÄĽ": 4401,
      "ĠsvÅ¯": 4402,
      "Ġmaje": 4403,
      "ĠcÃŃli": 4404,
      "lili": 4405,
      "nÃŃÅ¡": 4406,
      "Ġvyko": 4407,
      "ĠÅ¾ivÃ©": 4408,
      "Ġtvoji": 4409,
      "ĠskrÃ¡nÃŃ": 4410,
      "Ġodva": 4411,
      "Ġplyne": 4412,
      "JÃŃ": 4413,
      "Sem": 4414,
      "Å¡nou": 4415,
      "ĠzahrÃ¡": 4416,
      "ÄįkÅ¯": 4417,
      "tÃ©ho": 4418,
      "ĠmladÃŃ": 4419,
      "Ġznamen": 4420,
      "Ġdaleko": 4421,
      "rka": 4422,
      "lÃ¡k": 4423,
      "ĠmoÅĻ": 4424,
      "Ġrodi": 4425,
      "ĠprÃ¡zdno": 4426,
      "Hu": 4427,
      "lta": 4428,
      "dÄĽje": 4429,
      "Ġhoto": 4430,
      "Ġvzly": 4431,
      "viny": 4432,
      "ĠdÄĽlÃ¡": 4433,
      "Å¡enÃ½": 4434,
      "ĠmrtvÃ½": 4435,
      "Ġmluvit": 4436,
      "ĠÅĻady": 4437,
      "DÃ¡": 4438,
      "Ġvdo": 4439,
      "ĠhnÃ¡": 4440,
      "Ġprsty": 4441,
      "ĠdennÃŃ": 4442,
      "Ġkdos": 4443,
      "Ġstruny": 4444,
      "myÅ¡len": 4445,
      "Å¾iv": 4446,
      "PÅĻes": 4447,
      "vro": 4448,
      "Ġslzou": 4449,
      "Ġpurpu": 4450,
      "ĠtichÃ©m": 4451,
      "Ġdneska": 4452,
      "BoÅ¾e": 4453,
      "Ġrosa": 4454,
      "ĠzpÄĽvy": 4455,
      "ĠmrakÅ¯": 4456,
      "ĠstoupÃ¡": 4457,
      "Ġspu": 4458,
      "ĠsvÄĽtlem": 4459,
      "ĠKdo": 4460,
      "Ġfan": 4461,
      "Ġperly": 4462,
      "ĠchvÃŃlÃŃ": 4463,
      "voj": 4464,
      "ÄįÃŃÅ¡": 4465,
      "ĠptÃ¡kÅ¯": 4466,
      "ĠdivnÃ½": 4467,
      "enu": 4468,
      "tilo": 4469,
      "ĠbÃ¡je": 4470,
      "Ġheb": 4471,
      "ĠpoÅ¾ehnÃ¡nÃŃ": 4472,
      "eny": 4473,
      "tuje": 4474,
      "Ġvelko": 4475,
      "ĠkrÃ¡snou": 4476,
      "ĠdvÃ©ÅĻe": 4477,
      "ĠpoupÄĽ": 4478,
      "ĠslyÅ¡e": 4479,
      "rÃ¡Å¾ÃŃ": 4480,
      "ĠJeho": 4481,
      "Ġhed": 4482,
      "Lid": 4483,
      "ĠupÅĻÃŃm": 4484,
      "knÄĽ": 4485,
      "rÃ¡t": 4486,
      "ĠpÅĻÃŃval": 4487,
      "jÃ¡k": 4488,
      "fe": 4489,
      "ĠnÃ©": 4490,
      "povÃŃ": 4491,
      "ĠzÃ¡kon": 4492,
      "ĠOn": 4493,
      "ĠskrÃ¡nÄĽ": 4494,
      "ĠvÅ¡ickni": 4495,
      "Ġkos": 4496,
      "ĠhnÃŃzdo": 4497,
      "cou": 4498,
      "ĠdnÄĽ": 4499,
      "ĠvlnÃ¡ch": 4500,
      "Ġlaska": 4501,
      "Ġoknem": 4502,
      "ĠvlÃ¡dne": 4503,
      "ĠskÃ¡le": 4504,
      "ĠumÄĽ": 4505,
      "Å¡ila": 4506,
      "ĠtÄĽÅ¾kÃ¡": 4507,
      "rovnÃ¡": 4508,
      "Ġlesku": 4509,
      "smut": 4510,
      "rala": 4511,
      "Ġjesti": 4512,
      "ĠcelÃ©m": 4513,
      "ĠzvonÅ¯": 4514,
      "ĠvÃ¡Å¡ni": 4515,
      "Ġzaho": 4516,
      "chÃ¡m": 4517,
      "vÄĽzd": 4518,
      "ĠplÃ¡nÃŃ": 4519,
      "ĠvaÅ¡ich": 4520,
      "ĠsvÄĽd": 4521,
      "Ġpoesie": 4522,
      "eno": 4523,
      "ĠhonÃŃ": 4524,
      "ĠpamÄĽti": 4525,
      "SvÃ©": 4526,
      "rnÃ½m": 4527,
      "ĠjednÃŃm": 4528,
      "ĠÅ¾enÄĽ": 4529,
      "ĠÄįistÃ¡": 4530,
      "ĠÅ¾havÃ©": 4531,
      "zvuk": 4532,
      "uj": 4533,
      "Pos": 4534,
      "ĠdivÃ¡": 4535,
      "Ġspokojen": 4536,
      "Jenom": 4537,
      "Ġbit": 4538,
      "ĠkÃ¡Å¾e": 4539,
      "ĠtrÅ¯n": 4540,
      "ĠukÃ¡": 4541,
      "ĠvÄĽrnÄĽ": 4542,
      "ĠlÃŃp": 4543,
      "ĠbÃŃda": 4544,
      "Ġsnil": 4545,
      "ĠhÃ¡zÃŃ": 4546,
      "Ġkruhu": 4547,
      "ĠbolestÃŃ": 4548,
      "Ġobzoru": 4549,
      "hÅĻe": 4550,
      "stav": 4551,
      "Ġnejsem": 4552,
      "ĠchladnÃ½": 4553,
      "tosti": 4554,
      "amo": 4555,
      "ÅĻena": 4556,
      "Ġzat": 4557,
      "is": 4558,
      "Å¾eb": 4559,
      "Ġletem": 4560,
      "ĠmanÄĽ": 4561,
      "jeme": 4562,
      "Ġmiloval": 4563,
      "ĠÅ¾havÃ½": 4564,
      "ĠvÃ¡Å¾nÄĽ": 4565,
      "Ġano": 4566,
      "Ġvyr": 4567,
      "stek": 4568,
      "Ġmed": 4569,
      "rci": 4570,
      "tlo": 4571,
      "zte": 4572,
      "Ġvolal": 4573,
      "klady": 4574,
      "nut": 4575,
      "ĠposlÃ©z": 4576,
      "ĠmocnÃ½": 4577,
      "ĠplnÃŃ": 4578,
      "sÅ¥an": 4579,
      "ĠokamÅ¾i": 4580,
      "hÅĻÃŃ": 4581,
      "tly": 4582,
      "Ġvyz": 4583,
      "hovÃ©": 4584,
      "ĠtisÃŃ": 4585,
      "pomÃŃnÃ¡": 4586,
      "ĠkÅĻik": 4587,
      "ĠvelikÃ½": 4588,
      "chvÃŃ": 4589,
      "ĠÅ¡kle": 4590,
      "vÄĽtÅ¡ÃŃ": 4591,
      "ĠÅĻÃŃm": 4592,
      "ĠstÅĻÃŃbro": 4593,
      "Ġtri": 4594,
      "ĠÄįelem": 4595,
      "ĠzrakÅ¯": 4596,
      "Ġstrachu": 4597,
      "ĠdlouhÃ½ch": 4598,
      "chtÄĽl": 4599,
      "ĠkvÃ©": 4600,
      "vic": 4601,
      "ĠzÃ¡ko": 4602,
      "Ġvyp": 4603,
      "ĠtmavÃ½": 4604,
      "telem": 4605,
      "ĠprchÃ¡": 4606,
      "ĠmuÅ¾Å¯": 4607,
      "Hoj": 4608,
      "Ġdaleka": 4609,
      "tvÃ¡ÅĻ": 4610,
      "ĠkrÃ¡tkÃ½": 4611,
      "Ġstin": 4612,
      "kami": 4613,
      "Ġjakou": 4614,
      "Ġletech": 4615,
      "ĠlÃŃcÃŃ": 4616,
      "juÅ¾": 4617,
      "ĠtvÅ¯r": 4618,
      "ĠvÃŃtÃ¡": 4619,
      "Ġviny": 4620,
      "svi": 4621,
      "ĠpÄĽstÃŃ": 4622,
      "Ġhyne": 4623,
      "Ã½Å¡": 4624,
      "ĠmÃ¡j": 4625,
      "ĠSlo": 4626,
      "ĠplnÃ¡": 4627,
      "Jsme": 4628,
      "oh": 4629,
      "ĠbratÅĻe": 4630,
      "znÃ½": 4631,
      "ĠvznÄĽ": 4632,
      "Ġvyje": 4633,
      "ĠsÃŃnÄĽ": 4634,
      "ĠÅ¾Ã¡rem": 4635,
      "ĠsmutnÃ¡": 4636,
      "ĠhÅ¯": 4637,
      "Ġticha": 4638,
      "ĠzÃ¡padu": 4639,
      "ĠmÃ¡ti": 4640,
      "Ġclo": 4641,
      "gra": 4642,
      "Ġvstal": 4643,
      "rovÃ©": 4644,
      "ĠÃºc": 4645,
      "Ġradu": 4646,
      "ĠplÃ¡Äįem": 4647,
      "Å¾nÃ¡": 4648,
      "ĠbuÅ¡ÃŃ": 4649,
      "ĠpÅĻiÅ¡li": 4650,
      "Ġdomov": 4651,
      "Ry": 4652,
      "ĠÄįekal": 4653,
      "Ġtehdy": 4654,
      "ĠstÃ¡li": 4655,
      "ĠÄįernou": 4656,
      "Ġdruhu": 4657,
      "ÅĻenÃ½ch": 4658,
      "Ġpusti": 4659,
      "ĠvÄĽnce": 4660,
      "ĠvÄĽÄįnou": 4661,
      "Ġmechu": 4662,
      "Ġbarvy": 4663,
      "ĠnazpÄĽt": 4664,
      "ĠdÄĽtem": 4665,
      "ĠzvuÄįÃŃ": 4666,
      "ia": 4667,
      "Ġoni": 4668,
      "ÅĻice": 4669,
      "Ġtyto": 4670,
      "ĠvÄĽcÃŃ": 4671,
      "Ġcitu": 4672,
      "zat": 4673,
      "tovÃ©": 4674,
      "ĠsrdcÃŃch": 4675,
      "ĠspÃŃcÃŃ": 4676,
      "ĠokamÅ¾ik": 4677,
      "Ġobou": 4678,
      "leno": 4679,
      "ĠvÃ½cho": 4680,
      "Ġony": 4681,
      "Äįina": 4682,
      "Ġpeklo": 4683,
      "ĠsmÃŃchem": 4684,
      "Star": 4685,
      "ĠsedÄĽl": 4686,
      "byÅ¥": 4687,
      "chala": 4688,
      "Ġnemoh": 4689,
      "mal": 4690,
      "ĠnaÅ¡em": 4691,
      "Ġtopo": 4692,
      "fo": 4693,
      "povÄĽ": 4694,
      "ĠvdÄĽk": 4695,
      "Ġvou": 4696,
      "vedla": 4697,
      "mÅ¯Å¾e": 4698,
      "ĠzpÃŃvat": 4699,
      "vaje": 4700,
      "Ġsic": 4701,
      "Ġner": 4702,
      "Ġnaho": 4703,
      "ĠtÄĽÅ¡ÃŃ": 4704,
      "ĠzÅ¯sta": 4705,
      "Dru": 4706,
      "ĠodvÃ¡": 4707,
      "ĠrÃ¡mÄĽ": 4708,
      "ckou": 4709,
      "ĠnoÅĻÃŃ": 4710,
      "Ġostat": 4711,
      "Ġdom": 4712,
      "jala": 4713,
      "Ġkalich": 4714,
      "ĠÅ¾ert": 4715,
      "ĠvÃŃÅĻÃŃ": 4716,
      "pÅ¯so": 4717,
      "ĠÅĻada": 4718,
      "Ġluh": 4719,
      "ĠlÃ©pe": 4720,
      "ĠpravdÄĽ": 4721,
      "ĠrÃ¡di": 4722,
      "ĠstaÅĻec": 4723,
      "ĠpÄĽnÃŃ": 4724,
      "ĠÅ¡Å¥asten": 4725,
      "Ġzuby": 4726,
      "tice": 4727,
      "Ġrostou": 4728,
      "ĠrÃ½": 4729,
      "Ġrozpu": 4730,
      "Ġau": 4731,
      "tin": 4732,
      "Å¾ek": 4733,
      "pÃ¡n": 4734,
      "ĠLÃ¡": 4735,
      "ĠÄįlovÄĽku": 4736,
      "sny": 4737,
      "tÃ¡ch": 4738,
      "ĠÅ¡tÄĽstÃŃm": 4739,
      "raj": 4740,
      "ĠpotÃ¡": 4741,
      "huje": 4742,
      "ĠpÅ¯jde": 4743,
      "ĠverÅ¡e": 4744,
      "ĠkÅĻÃŃdlem": 4745,
      "Ġnutno": 4746,
      "Ġkre": 4747,
      "ĠdunÃŃ": 4748,
      "Ġnitra": 4749,
      "ĠpÃŃsku": 4750,
      "pec": 4751,
      "ĠKristus": 4752,
      "ĠÅ¾ivÃ½": 4753,
      "ĠvÃ¡Å¡eÅĪ": 4754,
      "ĠvlnÃŃ": 4755,
      "ĠpoznÃ¡": 4756,
      "PÃ¡n": 4757,
      "sat": 4758,
      "svÃ½ch": 4759,
      "Ġjede": 4760,
      "najÃŃ": 4761,
      "Ġzar": 4762,
      "ĠvÄĽrnÃ½": 4763,
      "ĠsÃŃÅĪ": 4764,
      "lÃ½mi": 4765,
      "Ġpropasti": 4766,
      "ĠkrÅ¯pÄĽj": 4767,
      "Pla": 4768,
      "Ġpoza": 4769,
      "nutÃŃm": 4770,
      "ĠkÅĻiÄįÃŃ": 4771,
      "ĠprosÃŃ": 4772,
      "Mil": 4773,
      "nie": 4774,
      "Ġdivy": 4775,
      "ynÃŃ": 4776,
      "mon": 4777,
      "ĠhrozÃŃ": 4778,
      "NÃ¡m": 4779,
      "ĠpodÃ¡": 4780,
      "taly": 4781,
      "Ġlabu": 4782,
      "ĠmÅ¯Å¾eÅ¡": 4783,
      "svÃŃ": 4784,
      "ĠsedÃ¡": 4785,
      "liÅ¾": 4786,
      "ÅĻiti": 4787,
      "ĠtÄĽmi": 4788,
      "ĠvÅ¡ednÃŃ": 4789,
      "ĠplÃ¡Å¡Å¥": 4790,
      "Ã©mu": 4791,
      "ĠpouÅ¡ti": 4792,
      "Ġlho": 4793,
      "ĠzvÄĽst": 4794,
      "ĠzbranÄĽ": 4795,
      "tÅ¯m": 4796,
      "ul": 4797,
      "ĠonÃ©": 4798,
      "Ġstav": 4799,
      "Ġdiva": 4800,
      "ĠÄįinÃŃ": 4801,
      "ĠÅ¾Ã¡dÃ¡": 4802,
      "Ġsmutno": 4803,
      "ĠÄįÃŃÅ¡": 4804,
      "chne": 4805,
      "ÅĪÅ¯": 4806,
      "ĠchudÃ¡": 4807,
      "ĠletnÃŃ": 4808,
      "ĠÅ¾ivotÄĽ": 4809,
      "ĠÅ¡eptÃ¡": 4810,
      "srd": 4811,
      "livÃ¡": 4812,
      "cie": 4813,
      "Ġtomto": 4814,
      "ĠhnutÃŃ": 4815,
      "ĠpojÃŃ": 4816,
      "ĠnaÄį": 4817,
      "novi": 4818,
      "Ġvyvo": 4819,
      "ĠnesmÄĽ": 4820,
      "ĠpÅĻÃŃrody": 4821,
      "Ġvzp": 4822,
      "stÃ¡l": 4823,
      "ĠjÃŃmÃ¡": 4824,
      "ĠlÅ¯nÄĽ": 4825,
      "bky": 4826,
      "Ġpoch": 4827,
      "ĠÃºto": 4828,
      "jÃŃcÃ½": 4829,
      "hlÃ©d": 4830,
      "ĠNÄĽm": 4831,
      "ĠnovÃ½m": 4832,
      "stÃ¡le": 4833,
      "zar": 4834,
      "zÅĻÃŃm": 4835,
      "nÃŃku": 4836,
      "dati": 4837,
      "ĠdivnÄĽ": 4838,
      "ĠÅ¾alo": 4839,
      "ĠmyÅ¡lenky": 4840,
      "Ġdro": 4841,
      "raje": 4842,
      "ĠznamenÃŃ": 4843,
      "ĠKarel": 4844,
      "Lu": 4845,
      "jil": 4846,
      "niti": 4847,
      "ĠvÃ¡bÃŃ": 4848,
      "ĠvaÅ¡i": 4849,
      "vodu": 4850,
      "ĠposvÄĽ": 4851,
      "ĠzvÃŃÅĻe": 4852,
      "ĠÅ¾as": 4853,
      "nova": 4854,
      "ĠletÄĽ": 4855,
      "Ġchcete": 4856,
      "Ġjal": 4857,
      "Ġznal": 4858,
      "Ġber": 4859,
      "ĠÅ¡ero": 4860,
      "Ġmalou": 4861,
      "Ġleskem": 4862,
      "Slunce": 4863,
      "br": 4864,
      "Ġrve": 4865,
      "tÃ©m": 4866,
      "vnÃ©": 4867,
      "udy": 4868,
      "sech": 4869,
      "ĠkrÃ¡lem": 4870,
      "budu": 4871,
      "ĠsÃŃle": 4872,
      "ĠodpovÃŃ": 4873,
      "Ġkri": 4874,
      "razi": 4875,
      "Ġspla": 4876,
      "hali": 4877,
      "Ġslast": 4878,
      "ĠsvatÃ½ch": 4879,
      "ĠmarnÃ©": 4880,
      "Åĺe": 4881,
      "pomnÄĽl": 4882,
      "ĠTa": 4883,
      "Ġrad": 4884,
      "pusÅ¥": 4885,
      "Ġpokry": 4886,
      "VÅ¡ecko": 4887,
      "bej": 4888,
      "Ġplen": 4889,
      "ĠzaznÃŃ": 4890,
      "Ġvzlet": 4891,
      "ĠkrÃ¡snÄĽ": 4892,
      "ĠpustÃ©": 4893,
      "Å¡tÃŃm": 4894,
      "veli": 4895,
      "ĠcelÃ½m": 4896,
      "ĠhrÃ¡l": 4897,
      "zÅĻel": 4898,
      "Ġvry": 4899,
      "ĠvnitÅĻ": 4900,
      "Ġjinou": 4901,
      "ĠÃºz": 4902,
      "Ġztratil": 4903,
      "ĠzbraÅĪ": 4904,
      "ĠradÄĽj": 4905,
      "mod": 4906,
      "ĠpÅĻÃŃmo": 4907,
      "Ġstanul": 4908,
      "ĠplaÅ¡e": 4909,
      "ĠnejkrÃ¡snÄĽjÅ¡ÃŃ": 4910,
      "Ġcity": 4911,
      "ĠbÄĽd": 4912,
      "ĠkÅĻiv": 4913,
      "Ġplod": 4914,
      "Sla": 4915,
      "SlÃ¡": 4916,
      "ĠmÅ¾ik": 4917,
      "Ġvzala": 4918,
      "Ġjednom": 4919,
      "ĠhrÅ¯za": 4920,
      "ĠbdÃŃ": 4921,
      "ĠstÅ¯l": 4922,
      "tisk": 4923,
      "Ġklesla": 4924,
      "ĠhrajÃŃ": 4925,
      "Ġklobou": 4926,
      "ĠdnÃŃ": 4927,
      "Ġvodou": 4928,
      "leÅĪ": 4929,
      "Ġop": 4930,
      "ĠÃºt": 4931,
      "ĠJan": 4932,
      "fy": 4933,
      "kolik": 4934,
      "ĠkorÃ¡": 4935,
      "Ġspa": 4936,
      "Ġdcera": 4937,
      "ĠhroznÃ½": 4938,
      "ĠnÃ¡dhe": 4939,
      "Mat": 4940,
      "Ġ,": 4941,
      "Ġvsta": 4942,
      "Å½Ã¡": 4943,
      "VÅ¡ech": 4944,
      "Ġjiskry": 4945,
      "ĠÄįar": 4946,
      "ĠvÄĽdÄĽl": 4947,
      "Ġvodo": 4948,
      "ĠpouÅ¡tÃŃ": 4949,
      "dily": 4950,
      "ĠsÃŃni": 4951,
      "ÄįenÃ½": 4952,
      "bral": 4953,
      "Ġhovor": 4954,
      "Ã½t": 4955,
      "ĠTur": 4956,
      "ĠnÃŃmÅ¾": 4957,
      "ĠspÃ¡t": 4958,
      "ĠhÅĻÃŃchu": 4959,
      "ÄįkÃ¡ch": 4960,
      "ĠnemÄĽ": 4961,
      "ĠpozdnÃŃ": 4962,
      "Ġctnosti": 4963,
      "Ano": 4964,
      "tkÃ¡": 4965,
      "ĠMat": 4966,
      "cÃŃho": 4967,
      "Ġzbled": 4968,
      "vÃŃce": 4969,
      "ĠVÅ¡e": 4970,
      "pili": 4971,
      "ĠsamÃ½": 4972,
      "Ġsmrtel": 4973,
      "Ġpadl": 4974,
      "ĠzmÃŃrÃ¡": 4975,
      "neÅ¾li": 4976,
      "ĠchystÃ¡": 4977,
      "Ġzbro": 4978,
      "ĠpotÅĻe": 4979,
      "nuli": 4980,
      "Å¾enou": 4981,
      "Ġjablo": 4982,
      "ĠvidÃŃÅ¡": 4983,
      "ĠnaÅĻÃŃ": 4984,
      "Ġobrov": 4985,
      "Ġnechal": 4986,
      "Ġkmet": 4987,
      "ĠmÄĽj": 4988,
      "bili": 4989,
      "Ġnebesa": 4990,
      "tÃ½m": 4991,
      "ledy": 4992,
      "nÄĽnÃ½": 4993,
      "ĠvÄĽrnÃ©": 4994,
      "ĠÅ¾eno": 4995,
      "ĠrozkoÅ¡e": 4996,
      "ĠbojovnÃŃ": 4997,
      "ĠhleÄı": 4998,
      "Ġtemnou": 4999,
      "Ġklas": 5000,
      "Ġsvobodu": 5001,
      "Ġchvilku": 5002,
      "ĠsÃ½": 5003,
      "Ġdnech": 5004,
      "dalo": 5005,
      "ĠÅ¡edÃ½": 5006,
      "Ġpopel": 5007,
      "Me": 5008,
      "ĠpÃŃt": 5009,
      "ĠzlatÃŃ": 5010,
      "Ġnejsou": 5011,
      "Ġnesla": 5012,
      "ĠÃºÅ¾as": 5013,
      "Ej": 5014,
      "zpÄĽv": 5015,
      "Ġvykou": 5016,
      "Takto": 5017,
      "Ġpozor": 5018,
      "ĠhledÃŃm": 5019,
      "chaÅ¥": 5020,
      "ĠÅ¾Ã¡ru": 5021,
      "Ġztr": 5022,
      "vÃ¡r": 5023,
      "ĠlÃŃbez": 5024,
      "ĠtÄĽÅ¾kou": 5025,
      "slov": 5026,
      "zdy": 5027,
      "ĠdomÄĽ": 5028,
      "Ġroj": 5029,
      "ÅĪuje": 5030,
      "mezi": 5031,
      "ĠÅĻÃŃkÃ¡": 5032,
      "Ġhluk": 5033,
      "ĠmnohÃ¡": 5034,
      "ĠpolÃŃbenÃŃ": 5035,
      "kmi": 5036,
      "vÄĽti": 5037,
      "lÃŃp": 5038,
      "ĠutÃŃ": 5039,
      "ĠsluÅ¡ÃŃ": 5040,
      "ĠhÃ¡ji": 5041,
      "Ġhalu": 5042,
      "ĠmlÃ¡d": 5043,
      "Ġproudem": 5044,
      "Ġmladosti": 5045,
      "ĠverÅ¡": 5046,
      "MuÅ¾": 5047,
      "Ġnou": 5048,
      "Ġobo": 5049,
      "Ġrozma": 5050,
      "rty": 5051,
      "Ġtmu": 5052,
      "ĠmÃ½": 5053,
      "Ġazu": 5054,
      "nÃŃci": 5055,
      "ĠstÅĻÃ¡": 5056,
      "zela": 5057,
      "ĠdÃŃk": 5058,
      "ĠmlÃ©": 5059,
      "milo": 5060,
      "ĠkterÃ½m": 5061,
      "ĠkrÄį": 5062,
      "ĠspÃ¡nek": 5063,
      "ĠhvÄĽzdÃ¡m": 5064,
      "ĠsamotÄĽ": 5065,
      "jÃŃma": 5066,
      "ÄįekÃ¡": 5067,
      "ĠbojÃŃ": 5068,
      "proto": 5069,
      "mysl": 5070,
      "ĠsnÃ¡": 5071,
      "ĠvodÄĽ": 5072,
      "ĠpÃ¡nem": 5073,
      "ĠstokrÃ¡t": 5074,
      "ĠvlÃŃdnÄĽ": 5075,
      "Ġnajde": 5076,
      "ĠvyÅ¡Å¡ÃŃ": 5077,
      "Ġmuka": 5078,
      "pis": 5079,
      "ĠstÃŃnem": 5080,
      "Ġsouse": 5081,
      "ÄįnÃ©m": 5082,
      "pala": 5083,
      "ĠnejvyÅ¡Å¡ÃŃ": 5084,
      "Ġblankyt": 5085,
      "ĠÄįerst": 5086,
      "Ġopoj": 5087,
      "ÄįÅ¯": 5088,
      "jev": 5089,
      "divo": 5090,
      "Ġplesu": 5091,
      "nÃ¡ct": 5092,
      "ĠvÅ¡udy": 5093,
      "nenÃŃ": 5094,
      "jedi": 5095,
      "tesk": 5096,
      "ĠpouhÃ½": 5097,
      "Ġtouhu": 5098,
      "Ġvzdechy": 5099,
      "Ġunaven": 5100,
      "ÄįnÃŃm": 5101,
      "Ġnetu": 5102,
      "ĠkrÃ¡lÅ¯": 5103,
      "ĠpouÅ¡tÄĽ": 5104,
      "ĠmodlÃŃ": 5105,
      "ĠtrhÃ¡": 5106,
      "zdu": 5107,
      "Äįiti": 5108,
      "ĠdÄĽvy": 5109,
      "lenÃ½ch": 5110,
      "ĠryzÃŃ": 5111,
      "ĠtrÃ¡va": 5112,
      "Ġex": 5113,
      "Ġnesta": 5114,
      "ĠzavÃ¡": 5115,
      "die": 5116,
      "kÃ½mi": 5117,
      "ĠcizÃŃch": 5118,
      "Ġknihy": 5119,
      "razil": 5120,
      "Stra": 5121,
      "Tou": 5122,
      "jdi": 5123,
      "mbo": 5124,
      "Ġpovin": 5125,
      "ĠMÃ¡": 5126,
      "Ġsmysl": 5127,
      "Ġmladou": 5128,
      "ĠklÃŃnÄĽ": 5129,
      "ĠschÃ½": 5130,
      "Ġdok": 5131,
      "ĠÄįnÃŃ": 5132,
      "ĠleÅ¾": 5133,
      "ĠÅ¾ivotu": 5134,
      "ĠsvÄĽdomÃŃ": 5135,
      "Ġzlost": 5136,
      "Ġhledat": 5137,
      "Ġpochyb": 5138,
      "Ġnach": 5139,
      "Ġryt": 5140,
      "Ġjasu": 5141,
      "prch": 5142,
      "ChtÄĽl": 5143,
      "ĠvlÃ¡d": 5144,
      "Ġdosta": 5145,
      "ĠMe": 5146,
      "Ġslasti": 5147,
      "ĠÅ¡ÃŃji": 5148,
      "Ġozdo": 5149,
      "ĠhrdÃ©": 5150,
      "ĠskuteÄį": 5151,
      "Bude": 5152,
      "chrÃ¡": 5153,
      "ĠTvÃ¡": 5154,
      "ĠkterÃ½ch": 5155,
      "ĠtajnÄĽ": 5156,
      "ĠplÃ©mÄĽ": 5157,
      "JuÅ¾": 5158,
      "ply": 5159,
      "Ġsev": 5160,
      "kdes": 5161,
      "ĠvÄĽÄįnost": 5162,
      "Ġkouzlem": 5163,
      "ary": 5164,
      "buje": 5165,
      "Jej": 5166,
      "Ml": 5167,
      "Å¾stvÃŃ": 5168,
      "ÄįÃŃch": 5169,
      "ĠlÃŃbal": 5170,
      "chÃ¡zel": 5171,
      "ĠhroznÃ©": 5172,
      "ĠpolÃŃch": 5173,
      "ĠvonnÃ½": 5174,
      "ĠzlatÃ½m": 5175,
      "Ġhvozd": 5176,
      "VÅ¯": 5177,
      "ĠmÅĻe": 5178,
      "rovi": 5179,
      "toval": 5180,
      "Ġdobrou": 5181,
      "ĠnÃ¡rodu": 5182,
      "ĠbrÃ¡nÃŃ": 5183,
      "ĠznÃ¡mÃ½": 5184,
      "DÃ¡l": 5185,
      "lk": 5186,
      "ĠdomÃ¡": 5187,
      "Ġtoto": 5188,
      "ĠvznÃŃ": 5189,
      "ĠHle": 5190,
      "Ġzoufa": 5191,
      "ĠjakÃ½s": 5192,
      "zdÃŃ": 5193,
      "ĠhostÃŃ": 5194,
      "mÄĽla": 5195,
      "Å¾enÃ¡": 5196,
      "Ġbrachu": 5197,
      "Ġbratra": 5198,
      "hlubo": 5199,
      "ĠvÃŃte": 5200,
      "Ġhlasu": 5201,
      "Ġsoucit": 5202,
      "lily": 5203,
      "asy": 5204,
      "ĠtÃ©mÄĽ": 5205,
      "ĠsladkÃ½ch": 5206,
      "vÅ¡ecko": 5207,
      "Pe": 5208,
      "Si": 5209,
      "Ġzho": 5210,
      "ĠpapeÅ¾": 5211,
      "stÃŃn": 5212,
      "stÃ¡nÃŃ": 5213,
      "ĠPraze": 5214,
      "PÃŃ": 5215,
      "jmu": 5216,
      "letu": 5217,
      "ĠmoÅĻÃŃ": 5218,
      "ĠctÃŃ": 5219,
      "bÃ½t": 5220,
      "vÅ¡i": 5221,
      "Ġbychom": 5222,
      "dÄĽte": 5223,
      "Ġkomo": 5224,
      "Ġlek": 5225,
      "Ġmile": 5226,
      "Ġhlav": 5227,
      "kÃ©Å¾": 5228,
      "Ġvinu": 5229,
      "JakÃ½": 5230,
      "Ġmrtev": 5231,
      "ĠzlatÃ©m": 5232,
      "Ġdy": 5233,
      "Ġpodob": 5234,
      "ĠhrabÄĽ": 5235,
      "Ġmyslil": 5236,
      "Ġjinoch": 5237,
      "Ġsled": 5238,
      "Ġpodi": 5239,
      "Ġodtud": 5240,
      "Ġsvitu": 5241,
      "ĠtÅĻpytÃŃ": 5242,
      "nicÃŃ": 5243,
      "ĠTvÃ½ch": 5244,
      "Ġhavra": 5245,
      "Ġznaven": 5246,
      "ĠjedinÃ¡": 5247,
      "ari": 5248,
      "ĠrÃ©": 5249,
      "prou": 5250,
      "rok": 5251,
      "Ġnalez": 5252,
      "Ġsten": 5253,
      "ver": 5254,
      "vilo": 5255,
      "Ġroztou": 5256,
      "Ġpri": 5257,
      "Ġvodu": 5258,
      "ĠdÃŃky": 5259,
      "Ġsluje": 5260,
      "ĠspÃ¡sy": 5261,
      "Ġhrdin": 5262,
      "Ġbratry": 5263,
      "kynÄĽ": 5264,
      "Ġhore": 5265,
      "Ġminul": 5266,
      "Slo": 5267,
      "Äįnost": 5268,
      "ÅĻilo": 5269,
      "ĠodvÄĽ": 5270,
      "ĠvÃ¡nek": 5271,
      "Ġmysti": 5272,
      "Ġvrah": 5273,
      "Ġulic": 5274,
      "vinu": 5275,
      "ĠzdÃ¡l": 5276,
      "ĠpohÃ¡r": 5277,
      "Ġzahrad": 5278,
      "TÃŃm": 5279,
      "snÃ½ch": 5280,
      "Å¾no": 5281,
      "ÅĻily": 5282,
      "nika": 5283,
      "kdys": 5284,
      "Ġteskno": 5285,
      "ĠpoutnÃŃk": 5286,
      "Å¾a": 5287,
      "chat": 5288,
      "ĠleÅ¾el": 5289,
      "ĠÅ¡erÃ©": 5290,
      "Ġusly": 5291,
      "nÃŃky": 5292,
      "ĠrÃ½m": 5293,
      "Ġrozmar": 5294,
      "ĠpÅ¯du": 5295,
      "ĠÅĻekne": 5296,
      "Ġmiluje": 5297,
      "Nebe": 5298,
      "ĠpÅĻÃŃteli": 5299,
      "ĠdivÄĽ": 5300,
      "ĠvÄĽtrÅ¯": 5301,
      "ĠRa": 5302,
      "ĠzbranÃŃ": 5303,
      "ĠvzdychÃ¡": 5304,
      "Ġvtip": 5305,
      "Sotva": 5306,
      "alou": 5307,
      "ĠdÃ¡vnÃ©": 5308,
      "ĠÄıÃ¡bel": 5309,
      "ĠdÄĽjin": 5310,
      "Ġjihu": 5311,
      "diti": 5312,
      "mÃ¡n": 5313,
      "Ġbral": 5314,
      "ĠpÃŃÅ¡e": 5315,
      "ĠvÅ¯bec": 5316,
      "ĠotvÃŃrÃ¡": 5317,
      "Ġbledou": 5318,
      "Pou": 5319,
      "ĠneÃº": 5320,
      "ĠpÄĽje": 5321,
      "ĠnechtÄĽl": 5322,
      "ĠÄĮechÃ¡ch": 5323,
      "Ġpomalu": 5324,
      "),": 5325,
      "Ġneji": 5326,
      "ĠneÅ¡tÄĽstÃŃ": 5327,
      "novu": 5328,
      "bytÃŃ": 5329,
      "ezi": 5330,
      "Ġracho": 5331,
      "ĠchtÄĽli": 5332,
      "plu": 5333,
      "Ġzaml": 5334,
      "dÄĽly": 5335,
      "kdyby": 5336,
      "krÃ¡l": 5337,
      "Ġslzu": 5338,
      "ĠskrÃ¡ni": 5339,
      "NuÅ¾e": 5340,
      "znal": 5341,
      "liti": 5342,
      "Ġal": 5343,
      "ĠmÄĽsÃŃce": 5344,
      "ĠÃºtro": 5345,
      "ĠsvÄĽtle": 5346,
      "ĠkterÃ©m": 5347,
      "Ġslunko": 5348,
      "bala": 5349,
      "ĠplÃ¡l": 5350,
      "Ġblaze": 5351,
      "ĠvelikÃ©": 5352,
      "Ġtrest": 5353,
      "ĠodpovÄĽÄı": 5354,
      "Ġpozem": 5355,
      "Ġproudu": 5356,
      "ĠspÄĽchÃ¡": 5357,
      "ĠÄįÃŃÅ¡i": 5358,
      "dale": 5359,
      "ĠvÄĽtry": 5360,
      "Ġbisku": 5361,
      "Jdi": 5362,
      "KvÄĽt": 5363,
      "Ġpohy": 5364,
      "ĠÅ¾elez": 5365,
      "sili": 5366,
      "ĠbÃŃlÃ©m": 5367,
      "koho": 5368,
      "Ġmilio": 5369,
      "aso": 5370,
      "ĠtatÃŃ": 5371,
      "Ġrady": 5372,
      "ĠvÅ¡echen": 5373,
      "ĠvrhÃ¡": 5374,
      "krva": 5375,
      "Ġzvyk": 5376,
      "ĠkoÅĻist": 5377,
      "Vra": 5378,
      "ĠkonÃŃ": 5379,
      "Ġvrat": 5380,
      "Ġokno": 5381,
      "ĠmlÃ¡de": 5382,
      "ĠÅĻÃ¡d": 5383,
      "slyÅ¡": 5384,
      "jejÃŃ": 5385,
      "tÄĽjÅ¡ÃŃ": 5386,
      "Ġskla": 5387,
      "skÃ©mu": 5388,
      "Ġnesl": 5389,
      "ĠjasnÃ¡": 5390,
      "padne": 5391,
      "ĠzÃ¡ÅĻÃŃcÃŃ": 5392,
      "Ġminulosti": 5393,
      "ĠblÃ½skÃ¡": 5394,
      "ĠkolÃ©": 5395,
      "pÃŃÅ¡": 5396,
      "ĠKu": 5397,
      "ĠnechtÄĽ": 5398,
      "Ġstisk": 5399,
      "nt": 5400,
      "ĠbÄĽlost": 5401,
      "ĠtratÃŃ": 5402,
      "ĠoltÃ¡ÅĻ": 5403,
      "ĠtlaÄįÃŃ": 5404,
      "Bra": 5405,
      "vnÃ½": 5406,
      "ÅĻÃŃcÃŃ": 5407,
      "Ġzachy": 5408,
      "ÅĪÃ¡": 5409,
      "Å¾ivo": 5410,
      "vzpomÃŃ": 5411,
      "ĠnutÃŃ": 5412,
      "ĠperuÅ¥": 5413,
      "Ġnaklo": 5414,
      "kÅĻe": 5415,
      "tkÅ¯": 5416,
      "letÄĽl": 5417,
      "atan": 5418,
      "Ġvrch": 5419,
      "ĠpÅ¯jdu": 5420,
      "Ġspraved": 5421,
      "Zrak": 5422,
      "ÅĻte": 5423,
      "Ġspro": 5424,
      "Ġmlh": 5425,
      "Ġlidstvu": 5426,
      "vrÃ¡til": 5427,
      "Ġveleb": 5428,
      "vÃ¡nek": 5429,
      "kova": 5430,
      "ĠpouÅ¡Å¥": 5431,
      "ĠzeleÅĪ": 5432,
      "ĠstrÃ¡ni": 5433,
      "Ġnen": 5434,
      "âĢĿ": 5435,
      "ĠoÅĻe": 5436,
      "Äįinu": 5437,
      "ĠÄįeskÃ¡": 5438,
      "ĠAch": 5439,
      "ĠmodrÃ½": 5440,
      "kvÃ©tÃ¡": 5441,
      "Ġztu": 5442,
      "Ġorel": 5443,
      "nebe": 5444,
      "Ġklasy": 5445,
      "Ġplameny": 5446,
      "ĠpÅ¯vab": 5447,
      "Smut": 5448,
      "tul": 5449,
      "ĠÅ¡era": 5450,
      "Ġmelo": 5451,
      "ĠsvatÃ½m": 5452,
      "ĠsmÄĽlÃ½": 5453,
      "NynÃŃ": 5454,
      "stky": 5455,
      "teÅĻi": 5456,
      "ĠSy": 5457,
      "ĠchudÃ½": 5458,
      "ĠzaÄįal": 5459,
      "Duch": 5460,
      "ĠkÅ¯ÅĪ": 5461,
      "ĠbÅĻi": 5462,
      "Ġnerozu": 5463,
      "ĠvelÃŃ": 5464,
      "Ġtuze": 5465,
      "chovÃ©": 5466,
      "RÃ¡d": 5467,
      "Ġnau": 5468,
      "kop": 5469,
      "vyk": 5470,
      "Ġpravo": 5471,
      "sotva": 5472,
      "ĠÄįarov": 5473,
      "ĠjmÃ©na": 5474,
      "Ġmoudro": 5475,
      "Ġzt": 5476,
      "Ġzrovna": 5477,
      "Ġkolena": 5478,
      "ĠpÅĻines": 5479,
      "ĠdÃŃtky": 5480,
      "Bylo": 5481,
      "Ġdechu": 5482,
      "ĠspÄĽje": 5483,
      "ĠjedinÃ©": 5484,
      "Ġhrdlo": 5485,
      "ĠpoÄįal": 5486,
      "ĠpenÃŃ": 5487,
      "Ġnesko": 5488,
      "ĠzavÃŃ": 5489,
      "âĢľ.": 5490,
      "vily": 5491,
      "ĠprvnÃŃm": 5492,
      "Ġzasmu": 5493,
      "ĠtanÄįÃŃ": 5494,
      "Å¡tnÃŃ": 5495,
      "ron": 5496,
      "cemi": 5497,
      "ĠzÃ¡mku": 5498,
      "Zla": 5499,
      "ĠkrÃ¡snÃ½ch": 5500,
      "ĠperutÃŃ": 5501,
      "Ġjmeno": 5502,
      "ĠzÅĻela": 5503,
      "jeden": 5504,
      "Ġrosou": 5505,
      "Äįilo": 5506,
      "ÄĮa": 5507,
      "ĠposvÃ¡": 5508,
      "Ġsoudu": 5509,
      "par": 5510,
      "sÃ©": 5511,
      "rÃ¡Å¾": 5512,
      "Ġnapo": 5513,
      "nuÅ¾": 5514,
      "Ġlev": 5515,
      "Ġranou": 5516,
      "ĠprÃ¡h": 5517,
      "Ġzdroj": 5518,
      "Ġmatkou": 5519,
      "Ġchyt": 5520,
      "ĠzbÃ½vÃ¡": 5521,
      "Ġvojsko": 5522,
      "Äįan": 5523,
      "ĠvÅ¡eli": 5524,
      "Ġkout": 5525,
      "Ġpohr": 5526,
      "ĠvelikÃ¡": 5527,
      "BÃŃ": 5528,
      "Dlou": 5529,
      "ĠÄįert": 5530,
      "stojÃŃ": 5531,
      "ĠmlÃ¡den": 5532,
      "ĠzdrÃ¡v": 5533,
      "ĠÃºzkost": 5534,
      "CÃŃ": 5535,
      "Ġvkro": 5536,
      "bÃ½vÃ¡": 5537,
      "nÄĽm": 5538,
      "Ġbytost": 5539,
      "Ġruchu": 5540,
      "Ġsice": 5541,
      "ĠÄįiny": 5542,
      "ĠsilnÃ½": 5543,
      "Ġgra": 5544,
      "ĠtesknÄĽ": 5545,
      "ĠdÃ©Å¡Å¥": 5546,
      "nkÃ¡ch": 5547,
      "Ġovo": 5548,
      "ĠdruÅ¾i": 5549,
      "Ġzdar": 5550,
      "dlÃ½": 5551,
      "vÅĻÃŃ": 5552,
      "zne": 5553,
      "meÅĪ": 5554,
      "chodu": 5555,
      "ĠstrojÃŃ": 5556,
      "Ġpocti": 5557,
      "volu": 5558,
      "Å¥te": 5559,
      "ĠkoneÄįnÄĽ": 5560,
      "Ġhlavi": 5561,
      "bÄĽh": 5562,
      "ĠhrÃ¡t": 5563,
      "ĠhnÃŃzda": 5564,
      "Ġbyst": 5565,
      "Ġmohy": 5566,
      "tÃ¡h": 5567,
      "ĠdvojÃŃ": 5568,
      "ĠzÃ¡Å¡tÃŃ": 5569,
      "ret": 5570,
      "bitÃŃ": 5571,
      "ĠplatÃŃ": 5572,
      "Ġbezpe": 5573,
      "Åłe": 5574,
      "ĠstojÃŃm": 5575,
      "Ġchlap": 5576,
      "ĠsbÃŃ": 5577,
      "ĠkÃ©Å¾": 5578,
      "lala": 5579,
      "Ġhorou": 5580,
      "Ġzkvet": 5581,
      "lepÅ¡ÃŃ": 5582,
      "Ġchti": 5583,
      "ster": 5584,
      "Ġkrbu": 5585,
      "Ġvlnou": 5586,
      "KdoÅ¾": 5587,
      "ĠzÅĻÃŃti": 5588,
      "HleÄı": 5589,
      "Ġukru": 5590,
      "menÄĽ": 5591,
      "skutku": 5592,
      "ĠhnÄĽvem": 5593,
      "Ġbru": 5594,
      "Ġvedou": 5595,
      "Ġprocit": 5596,
      "ĠVo": 5597,
      "ĠSo": 5598,
      "ĠkÅĻesÅ¥an": 5599,
      "lilo": 5600,
      "Ġdotk": 5601,
      "Ġmuk": 5602,
      "ĠlÃ¡kÃ¡": 5603,
      "Ġtaje": 5604,
      "padla": 5605,
      "chajÃŃ": 5606,
      "Ġzvolal": 5607,
      "ĠvzpomÃŃnÃ¡m": 5608,
      "ĠdrobnÃ©": 5609,
      "TÅĻe": 5610,
      "Ġsf": 5611,
      "Ġabych": 5612,
      "ĠÅ¾houcÃŃ": 5613,
      "luj": 5614,
      "Ġhod": 5615,
      "ĠtÅĻesou": 5616,
      "Ġtanci": 5617,
      "ĠÄįtyÅĻi": 5618,
      "Å¾u": 5619,
      "ĠÃºdy": 5620,
      "Ġsud": 5621,
      "ĠdneÅ¡nÃŃ": 5622,
      "Ġrakev": 5623,
      "hnal": 5624,
      "Ġochra": 5625,
      "jakÃ½": 5626,
      "ĠspÅĻÃ¡": 5627,
      "ĠpÄĽl": 5628,
      "ĠnebesÅ¯m": 5629,
      "Äįnosti": 5630,
      "tÄĽm": 5631,
      "aty": 5632,
      "leni": 5633,
      "ĠdÃŃla": 5634,
      "stoj": 5635,
      "ĠpÃ¡s": 5636,
      "ĠzmizÃŃ": 5637,
      "Ġkorunu": 5638,
      "!âĢĺ": 5639,
      "tajem": 5640,
      "ĠMora": 5641,
      "StÃŃ": 5642,
      "Ġharmo": 5643,
      "ĠrovnÄĽ": 5644,
      "ĠÅ¾ele": 5645,
      "fu": 5646,
      "stnÃŃ": 5647,
      "ĠÄįeho": 5648,
      "ĠplÃ¡ni": 5649,
      "Ġmali": 5650,
      "ĠmodrÃ½ch": 5651,
      "ĠtichÃ½m": 5652,
      "ĠVÃ¡clav": 5653,
      "Sou": 5654,
      "ĠvÄĽÅĻit": 5655,
      "ĠpastÃ½": 5656,
      "ĠpÃŃlÃŃ": 5657,
      "Å¡kou": 5658,
      "Ã©ÅĻe": 5659,
      "lÃ¡m": 5660,
      "vostÃŃ": 5661,
      "ĠvÄĽÅ¡t": 5662,
      "ĠnÄĽhy": 5663,
      "ĠmÄĽlo": 5664,
      "ĠvÅ¯d": 5665,
      "vracÃŃ": 5666,
      "ĠprÅ¯vod": 5667,
      "Ka": 5668,
      "nÃ©st": 5669,
      "ĠmoÅ¾nÃ¡": 5670,
      "LÃ¡ska": 5671,
      "nkÃ©": 5672,
      "ĠodÄĽ": 5673,
      "ĠÅ¡per": 5674,
      "ĠsvÄĽtlu": 5675,
      "vnÃŃk": 5676,
      "Äįeli": 5677,
      "ĠÅ¾Ã¡dnÃ¡": 5678,
      "Ġpozo": 5679,
      "pouÅ¡tÄĽ": 5680,
      "Ġdlani": 5681,
      "Ġpluje": 5682,
      "ĠpapÃŃ": 5683,
      "Ġmoudrost": 5684,
      "ĠmanÅ¾el": 5685,
      "Å¡nÃ½ch": 5686,
      "ÅĻÃŃch": 5687,
      "Ġlety": 5688,
      "Ġlibo": 5689,
      "ĠnesmÃŃr": 5690,
      "ĠkrokÅ¯": 5691,
      "Åłel": 5692,
      "Ġjarem": 5693,
      "neboÅ¥": 5694,
      "Ġsestry": 5695,
      "rÃ¡l": 5696,
      "Ġvzpomen": 5697,
      "haly": 5698,
      "ĠkÅĻÃŃdlo": 5699,
      "stoupil": 5700,
      "ĠtrpÄĽ": 5701,
      "ĠsahÃ¡": 5702,
      "pne": 5703,
      "tna": 5704,
      "Ġpsal": 5705,
      "ĠlesÃŃch": 5706,
      "Ġvypu": 5707,
      "ĠnÃ¡ho": 5708,
      "ĠzÃ¡ba": 5709,
      "ĠzÃ¡stu": 5710,
      "ĠMy": 5711,
      "Ġsladko": 5712,
      "Ġmilovat": 5713,
      "Ġjinde": 5714,
      "ĠjÃ¡sot": 5715,
      "ĠpouÅ¥": 5716,
      "kterou": 5717,
      "Ġknihu": 5718,
      "mlou": 5719,
      "cÃŃtil": 5720,
      "ĠrozlÃ©": 5721,
      "ĠBÃŃ": 5722,
      "ĠpospÃŃ": 5723,
      "prvÃ©": 5724,
      "ĠtÄĽÅ¾kÃ½ch": 5725,
      "Ġvojska": 5726,
      "Ġzlou": 5727,
      "Ġneob": 5728,
      "Ġrozlo": 5729,
      "ĠÅ¡ÃŃp": 5730,
      "ĠTvoje": 5731,
      "Mou": 5732,
      "Smrt": 5733,
      "ĠvlasÅ¥": 5734,
      "ĠtÃ¡h": 5735,
      "Ġsvato": 5736,
      "Ġhrobem": 5737,
      "Ġhudbou": 5738,
      "Ona": 5739,
      "Ġpolem": 5740,
      "naÄį": 5741,
      "Ġroky": 5742,
      "duÅ¡e": 5743,
      "ÅĪa": 5744,
      "kvete": 5745,
      "Ġsvobody": 5746,
      "ĠÅ¡aty": 5747,
      "Ġrtu": 5748,
      "stila": 5749,
      "Ġbok": 5750,
      "Ġbozi": 5751,
      "mÃŃvÃ¡": 5752,
      "Ġhlubiny": 5753,
      "ĠzapomnÄĽl": 5754,
      "Ġkomna": 5755,
      "hru": 5756,
      "oÄįi": 5757,
      "nÄĽte": 5758,
      "nouc": 5759,
      "ĠhvÄĽzdi": 5760,
      "ĠmyÅ¡lÃ©nky": 5761,
      "ĠJiÅĻÃŃ": 5762,
      "Ġhlahol": 5763,
      "hvÄĽzd": 5764,
      "neu": 5765,
      "Ġuzav": 5766,
      "ĠÄįil": 5767,
      "Ġrozlou": 5768,
      "Å¾iti": 5769,
      "Ġluna": 5770,
      "hrad": 5771,
      "ĠÅ¡Å¥astnÃ½": 5772,
      "ĠznÄĽlo": 5773,
      "ĠhlÃ¡sÃ¡": 5774,
      "Ġtiskne": 5775,
      "ĠmraÄįna": 5776,
      "Ġopi": 5777,
      "Ġodho": 5778,
      "nÅ¯v": 5779,
      "ĠchvÄĽnÃŃ": 5780,
      "ĠnÄĽhoÅ¾": 5781,
      "Ġmohlo": 5782,
      "ĠtÅĻpyt": 5783,
      "Ġobloze": 5784,
      "Ġsnou": 5785,
      "Ġposel": 5786,
      "ĠÃºro": 5787,
      "ĠBÄĽ": 5788,
      "ĠpÅĻÃŃzrak": 5789,
      "ĠÅ¾eni": 5790,
      "ĠtvÃ©mu": 5791,
      "Ġdary": 5792,
      "Ġbudoucnosti": 5793,
      "Dva": 5794,
      "ĠsleÄį": 5795,
      "ĠdvÅ¯r": 5796,
      "kus": 5797,
      "ĠronÃŃ": 5798,
      "mÃ¡la": 5799,
      ".âĢľâĢľ": 5800,
      "ĠsÃŃtÄĽ": 5801,
      "Ġblahem": 5802,
      "pouÅ¡tÃŃ": 5803,
      "Ġjednoho": 5804,
      "ĠzimÄĽ": 5805,
      "Ġnaposledy": 5806,
      "Mod": 5807,
      "Ġkme": 5808,
      "Ġpoky": 5809,
      "Ġusta": 5810,
      "ÄįÃŃvÃ¡": 5811,
      "Ġpravou": 5812,
      "provÃ¡": 5813,
      "ĠstrÃ¡nÃŃ": 5814,
      "Jestli": 5815,
      "Ġhasne": 5816,
      "ble": 5817,
      "ĠzÃ¡me": 5818,
      "ĠkrutÃ½": 5819,
      "Ġpanna": 5820,
      "ĠrozkoÅ¡ÃŃ": 5821,
      "Pu": 5822,
      "nÃŃka": 5823,
      "don": 5824,
      "Ġdruha": 5825,
      "ĠdruhÃ¡": 5826,
      "Ġblahu": 5827,
      "ĠzpÄĽvem": 5828,
      "Cho": 5829,
      "Svou": 5830,
      "Ġzvad": 5831,
      "ÅĻuje": 5832,
      "jela": 5833,
      "pol": 5834,
      "douc": 5835,
      "Ġlsti": 5836,
      "ĠCa": 5837,
      "Ġzakle": 5838,
      "ĠdÃ©man": 5839,
      "ĠtvrdÃ©": 5840,
      "Ġhni": 5841,
      "Ġchr": 5842,
      "stit": 5843,
      "ĠnÃ¡mÄĽ": 5844,
      "Ġluk": 5845,
      "ĠsmÄĽsi": 5846,
      "ĠproudÃŃ": 5847,
      "DuÅ¡e": 5848,
      "ĠslavÃŃk": 5849,
      "krÃ½": 5850,
      "mlad": 5851,
      "Äįna": 5852,
      "kalo": 5853,
      "Ġlec": 5854,
      "ĠvyÅ¡": 5855,
      "mec": 5856,
      "nemo": 5857,
      "ĠlÅ¾i": 5858,
      "Å¡Å¥Ã¡": 5859,
      "Ġplody": 5860,
      "ĠslednÃŃ": 5861,
      "lami": 5862,
      "Ġodkud": 5863,
      "ĠdÃ¡lnÃ©": 5864,
      "ĠtrpÃŃ": 5865,
      "Ġpotok": 5866,
      "ĠnevÃ½": 5867,
      "Ġhodiny": 5868,
      "Ġroztr": 5869,
      "Ġlil": 5870,
      "JeÅ¾": 5871,
      "ĠkrvÃ¡": 5872,
      "zÃ¡ÅĻ": 5873,
      "hrd": 5874,
      "nÄĽla": 5875,
      "La": 5876,
      "ca": 5877,
      "Ġdna": 5878,
      "Ġzimy": 5879,
      "Ġroucho": 5880,
      "Ġchodil": 5881,
      "jste": 5882,
      "desÃ¡": 5883,
      "Ġvzty": 5884,
      "ĠvzkÅĻÃŃ": 5885,
      "ĠÅ¾ili": 5886,
      "Ġposlu": 5887,
      "Ġrety": 5888,
      "ĠmyÅ¡lenek": 5889,
      "gna": 5890,
      "ĠopÃ¡": 5891,
      "ĠvodnÃŃ": 5892,
      "ĠpuÄįÃŃ": 5893,
      "ĠÅ¾alem": 5894,
      "ĠzoÅĻe": 5895,
      "klÃ¡dÃ¡": 5896,
      "Ġbalva": 5897,
      "ĠprostÃ½": 5898,
      "dÃŃl": 5899,
      "Ġodda": 5900,
      "ĠzlatÄĽ": 5901,
      "ĠKde": 5902,
      "Ġblesku": 5903,
      "Ġvolnost": 5904,
      "ĠzvÄĽda": 5905,
      "Ġhudby": 5906,
      "Ġbrzo": 5907,
      "ĠzelenÃ©": 5908,
      "Va": 5909,
      "dny": 5910,
      "Ġonu": 5911,
      "teÄįnÃŃ": 5912,
      "vez": 5913,
      "Ġbran": 5914,
      "ĠznÃ¡Å¡": 5915,
      "ĠPrahy": 5916,
      "Ġdnu": 5917,
      "ĠpÃŃti": 5918,
      "ĠblahÃ©": 5919,
      "ĠhÅĻÃŃchy": 5920,
      "Ġpije": 5921,
      "ĠdÄĽtstvÃŃ": 5922,
      "Ġbudoucnost": 5923,
      "ĠvÃ½chod": 5924,
      "Ġlhostej": 5925,
      "VÃ¡m": 5926,
      "dovat": 5927,
      "Ġvedla": 5928,
      "Ġvza": 5929,
      "ĠvÃŃnem": 5930,
      "ĠlÃ¡sko": 5931,
      "ÅĻeny": 5932,
      "ĠbÄĽh": 5933,
      "Ġulici": 5934,
      "dvÄĽ": 5935,
      "Ġvedl": 5936,
      "chali": 5937,
      "ĠhrobÅ¯": 5938,
      "TÅĻi": 5939,
      "gy": 5940,
      "ĠpenÄĽ": 5941,
      "lice": 5942,
      "lÃŃcÃŃ": 5943,
      "sej": 5944,
      "Ġhlado": 5945,
      "ĠÅ¡ÃŃÅĻÃŃ": 5946,
      "ĠodpoÄįi": 5947,
      "ĠznÄĽla": 5948,
      "VÃŃc": 5949,
      "Ġbub": 5950,
      "Ġskrom": 5951,
      "rec": 5952,
      "ĠmalÃŃ": 5953,
      "stÃ¡t": 5954,
      "cenÃ¡": 5955,
      "ĠmusÃŃÅ¡": 5956,
      "ĠutrpenÃŃ": 5957,
      "ÃŃme": 5958,
      "ĠvyÅ¡la": 5959,
      "âĢĻ:": 5960,
      "Ġotcem": 5961,
      "Dob": 5962,
      "Jdu": 5963,
      "ĠstkvÄĽ": 5964,
      "Ġkoni": 5965,
      "mÃŃra": 5966,
      "Byla": 5967,
      "Å¾uje": 5968,
      "Ġnesu": 5969,
      "ĠvÄĽÅ¾": 5970,
      "dinu": 5971,
      "ĠvÅ¡ed": 5972,
      "vujÃŃ": 5973,
      "Ġokny": 5974,
      "Ġnemohu": 5975,
      "Äįeho": 5976,
      "Ġsply": 5977,
      "ĠodÅĻÃŃ": 5978,
      "Ġvinou": 5979,
      "dÃŃme": 5980,
      "Ġhry": 5981,
      "ĠzeÄı": 5982,
      "Ġzmar": 5983,
      "PÃ¡": 5984,
      "ĠokÃ©": 5985,
      "Ġzam": 5986,
      "nÃ©sti": 5987,
      "Äįeji": 5988,
      "vÃ½Å¡": 5989,
      "Ġmnohou": 5990,
      "Ġzor": 5991,
      "Ġskali": 5992,
      "ĠobliÄįej": 5993,
      "Ġjdi": 5994,
      "tickÃ©": 5995,
      "ĠusmÄĽ": 5996,
      "ĠÄįlu": 5997,
      "ĠjimÅ¾": 5998,
      "ĠhÅĻbe": 5999,
      "krvÃ¡": 6000,
      "ĠoltÃ¡ÅĻi": 6001,
      "PrÃ¡": 6002,
      "VÃ¡": 6003,
      "dnu": 6004,
      "Ġhi": 6005,
      "Ġher": 6006,
      "Ġjaksi": 6007,
      "Äįily": 6008,
      "zala": 6009,
      "ĠnejvÄĽtÅ¡ÃŃ": 6010,
      "hleÄı": 6011,
      "ĠzvukÅ¯": 6012,
      "Ġkouzla": 6013,
      "Ci": 6014,
      "abych": 6015,
      "ĠzlÃ½ch": 6016,
      "ĠvÄĽÅĻÃŃm": 6017,
      "ĠsvÄĽtlÃ½": 6018,
      "ÅĻenou": 6019,
      "ĠsladkÃ½m": 6020,
      "ĠslÃ¡vou": 6021,
      "Ġohrom": 6022,
      "ĠspatÅĻil": 6023,
      "Ġpova": 6024,
      "Ġudi": 6025,
      "ĠvzkÅĻik": 6026,
      "Ġvina": 6027,
      "Ġstarost": 6028,
      "Ġjasnou": 6029,
      "ĠnadÄĽji": 6030,
      "ĠzdÃŃ": 6031,
      "Ġbod": 6032,
      "Ġstrachem": 6033,
      "ĠÅ¡ÃŃje": 6034,
      "ĠkrvavÃ©": 6035,
      "TÃ©Å¾": 6036,
      "stru": 6037,
      "razÃŃ": 6038,
      "lie": 6039,
      "jÃŃcÃŃm": 6040,
      "Ġtamo": 6041,
      "ĠzÅĻÃŃÅ¡": 6042,
      "ĠkvÃŃtek": 6043,
      "ĠdrtÃŃ": 6044,
      "kraj": 6045,
      "jdem": 6046,
      "slÃ¡": 6047,
      "deÅĪ": 6048,
      "ĠÅ¡t": 6049,
      "Ġnivy": 6050,
      "ĠÃºna": 6051,
      "ĠdÄĽva": 6052,
      "ĠÅ¾ivobytÃŃ": 6053,
      "Ġbezna": 6054,
      "ĠplÃ¡la": 6055,
      "zenÃ©": 6056,
      "Å¾te": 6057,
      "Ġude": 6058,
      "Ġhora": 6059,
      "Ġmohou": 6060,
      "tajen": 6061,
      "ĠzÃ¡vÄĽ": 6062,
      "ĠzÃ¡hu": 6063,
      "Ġpohledem": 6064,
      "ĠkÅĻeh": 6065,
      "MÄĽl": 6066,
      "mÃ½ch": 6067,
      "vku": 6068,
      "ĠsnovÃ©": 6069,
      "out": 6070,
      "ĠpÅĻijdou": 6071,
      "Ġlidskou": 6072,
      "ĠsmÄĽs": 6073,
      "ĠlÃ©to": 6074,
      "ĠÅ¡irÃ©": 6075,
      "ĠkrÃ¡tce": 6076,
      "PryÄį": 6077,
      "dist": 6078,
      "dÃŃvÃ¡": 6079,
      "ĠstranÄĽ": 6080,
      "Ġmarno": 6081,
      "jou": 6082,
      "ĠVlta": 6083,
      "ĠdivÃ©m": 6084,
      "ĠhbitÄĽ": 6085,
      "Ġvzej": 6086,
      "ĠpÄĽst": 6087,
      "ĠvzpomÃŃnka": 6088,
      "ĠEvro": 6089,
      "Ġdrak": 6090,
      "vÃ¡nky": 6091,
      "tÃ¡ÅĻ": 6092,
      "ĠBe": 6093,
      "ĠrÅ¯Å¾": 6094,
      "Ġpozved": 6095,
      "ĠkÅĻÃŃÅ¾em": 6096,
      "eme": 6097,
      "mÄĽly": 6098,
      "ĠdÄĽj": 6099,
      "ĠbÃŃlÃ½m": 6100,
      "ĠcizÃŃm": 6101,
      "ĠhvÄĽzdami": 6102,
      "ĠsnivÃ©": 6103,
      "ĠkrouÅ¾ÃŃ": 6104,
      "ĠhoÅĻi": 6105,
      "Ġrci": 6106,
      "dÃ¡le": 6107,
      "ĠnÃ¡ÅĻek": 6108,
      "Ġlicho": 6109,
      "Ġsvr": 6110,
      "ĠstÃ¡r": 6111,
      "ĠpohÅĻe": 6112,
      "Ġsmutnou": 6113,
      "Ġhrst": 6114,
      "Ġblankytu": 6115,
      "ĠkÅĻÃŃdly": 6116,
      "nnÃ©": 6117,
      "ĠtmÃŃ": 6118,
      "cek": 6119,
      "Ġmistr": 6120,
      "ĠmÄĽstem": 6121,
      "ĠskvÃŃ": 6122,
      "Ġdruhou": 6123,
      "ĠstrÃ¡nÄĽ": 6124,
      "ona": 6125,
      "ĠzpÅ¯so": 6126,
      "Ġpovr": 6127,
      "Ġjel": 6128,
      "Ġjezd": 6129,
      "ĠÅ¡va": 6130,
      "jakÃ©": 6131,
      "ĠretÅ¯": 6132,
      "poslednÃŃ": 6133,
      "ĠzahradÄĽ": 6134,
      "nevÄĽ": 6135,
      "dÃŃte": 6136,
      "NevÄĽ": 6137,
      "Ġkdybych": 6138,
      "ĠkeÅĻ": 6139,
      "ĠvlastnÃŃm": 6140,
      "jimÅ¾": 6141,
      "Ġoby": 6142,
      "titi": 6143,
      "ĠletÄĽl": 6144,
      "ĠbÃŃdnÃ½": 6145,
      "Ġmlze": 6146,
      "ĠmraÄįen": 6147,
      "Ġzblou": 6148,
      "ĠÅĻadu": 6149,
      "ĠlistÅ¯": 6150,
      "dumÄįi": 6151,
      "Ġskr": 6152,
      "Å¾ily": 6153,
      "Ġsvojich": 6154,
      "Ġge": 6155,
      "Ġzdvih": 6156,
      "Ot": 6157,
      "ĠzbÄĽ": 6158,
      "Å¡tÄĽnÃŃ": 6159,
      "Ġrato": 6160,
      "ĠtemnÃ½ch": 6161,
      "ĠÅ¡koda": 6162,
      "Ġvskutku": 6163,
      "ÄįnÃŃch": 6164,
      "ĠstÅĻel": 6165,
      "natÃ©": 6166,
      "Ġkor": 6167,
      "ĠPÅĻi": 6168,
      "ĠpÅĻÃŃtom": 6169,
      "ĠpÄĽÅ¡i": 6170,
      "Ġsyny": 6171,
      "ĠpÅ¯dy": 6172,
      "ĠspÃ¡ti": 6173,
      "ĠbÅĻehy": 6174,
      "ĠsadÄĽ": 6175,
      "Å¡at": 6176,
      "Å¡nÃ½m": 6177,
      "ĠuÄįÃŃ": 6178,
      "Ġvzali": 6179,
      "ĠÅ¾ivÃ¡": 6180,
      "Ġhromu": 6181,
      "Kolem": 6182,
      "ĠhrdÃ½": 6183,
      "vÄĽjÅ¡ÃŃ": 6184,
      "tiny": 6185,
      "Ġuto": 6186,
      "ĠsvatÃ©m": 6187,
      "Stro": 6188,
      "nkÃ¡": 6189,
      "Ġvil": 6190,
      "Ġbzu": 6191,
      "komu": 6192,
      "Ġhodin": 6193,
      "Ġledo": 6194,
      "Ġnepoko": 6195,
      "Ġsvaty": 6196,
      "ĠhÅĻÃŃchÅ¯": 6197,
      "ĠznÄĽly": 6198,
      "Ġpomsty": 6199,
      "ĠvonnÃ©": 6200,
      "Ġchaty": 6201,
      "Ġneskona": 6202,
      "Ġzru": 6203,
      "ĠzaplÃ¡": 6204,
      "ĠstarÃ©m": 6205,
      "ĠbuÄıte": 6206,
      "ĠhouÅ¡tÃŃ": 6207,
      "ĠÅ¾lutÃ©": 6208,
      "ĠsrÃ¡": 6209,
      "ĠtÄĽl": 6210,
      "Ġnemi": 6211,
      "ĠkypÃŃ": 6212,
      "Ġpanny": 6213,
      "ĠkmitÃ¡": 6214,
      "vrt": 6215,
      "Ġhnal": 6216,
      "ĠprospÄĽ": 6217,
      "ĠpÅĻiÅ¡lo": 6218,
      "Ticho": 6219,
      "obra": 6220,
      "ĠvÄįel": 6221,
      "dÃ¡n": 6222,
      "ĠpoutnÃŃ": 6223,
      "ĠptÃ¡ka": 6224,
      "ĠÄĮer": 6225,
      "ĠchrÃ¡nÃŃ": 6226,
      "ĠpÅĻÃ¡l": 6227,
      "ĠkÃ¡zal": 6228,
      "ĠstrÃ½": 6229,
      "Ġpravdou": 6230,
      "Ġsloup": 6231,
      "ĠpohÃ¡d": 6232,
      "vakrÃ¡t": 6233,
      "zpÄĽ": 6234,
      "Ġptal": 6235,
      "nÄĽly": 6236,
      "ĠuÅ¡i": 6237,
      "ĠstÃ¡ly": 6238,
      "ĠnÃ¡roda": 6239,
      "ĠnohÃ¡m": 6240,
      "ĠrÃ¡ko": 6241,
      "ĠlÃŃtÃ¡": 6242,
      "ĠhovoÅĻÃŃ": 6243,
      "Ġzticha": 6244,
      "!!": 6245,
      "prÃ½": 6246,
      "znÃ¡m": 6247,
      "Ġslze": 6248,
      "ĠsmrÅ¥": 6249,
      "Åĺek": 6250,
      "Ġzahrady": 6251,
      "Ġosudu": 6252,
      "hrou": 6253,
      "jmi": 6254,
      "Ġvem": 6255,
      "ent": 6256,
      "Ġnav": 6257,
      "kosti": 6258,
      "Ġspal": 6259,
      "ĠteÄįe": 6260,
      "ĠpustÃ½": 6261,
      "ĠchoÅ¥": 6262,
      "ĠsnÄĽhem": 6263,
      "ĠzvÄĽÅĻ": 6264,
      "Ġulo": 6265,
      "ĠzÃ¡pla": 6266,
      "ĠjdeÅ¡": 6267,
      "tiv": 6268,
      "ĠplÃ¡ÅĪ": 6269,
      "pÅĻel": 6270,
      "ĠprÃ¡zdnÃ©": 6271,
      "Nemo": 6272,
      "ĠveÅ¡ke": 6273,
      "nÃŃho": 6274,
      "Ġdostal": 6275,
      "Ġspjat": 6276,
      "ĠnemÅ¯Å¾": 6277,
      "kterak": 6278,
      "Kdys": 6279,
      "voÅĻÃŃ": 6280,
      "ÄįÃŃcÃŃ": 6281,
      "ĠÄįeskÃ½ch": 6282,
      "stÃ¡ch": 6283,
      "ĠotvÃŃ": 6284,
      "ĠpÄĽknÃ©": 6285,
      "lestÃŃ": 6286,
      "ĠpoÅ¾Ã¡": 6287,
      "ĠholÃ©": 6288,
      "Ġkolik": 6289,
      "ĠzÃ¡zra": 6290,
      "ĠmÄĽstu": 6291,
      "ĠvlastnÄĽ": 6292,
      "ĠchvÃ¡tÃ¡": 6293,
      "Ġramena": 6294,
      "roste": 6295,
      "ĠubÃŃ": 6296,
      "ĠsklÃŃ": 6297,
      "ĠÄįerno": 6298,
      "ĠkrÃ¡lovstvÃŃ": 6299,
      "Ġporu": 6300,
      "vanou": 6301,
      "jedno": 6302,
      "ĠvÄĽz": 6303,
      "Ġnohu": 6304,
      "JakÃ©": 6305,
      "Ġpoupat": 6306,
      "hÃ½bÃ¡": 6307,
      "ĠbleskÅ¯": 6308,
      "ĠvolnÃ½": 6309,
      "ĠÅ¡epce": 6310,
      "ajÃŃ": 6311,
      "ditel": 6312,
      "Ġdub": 6313,
      "Ġpavu": 6314,
      "ĠdÃŃl": 6315,
      "ĠotrÃ¡": 6316,
      "ĠÅ¡Å¥astnÄĽ": 6317,
      "NÃ¡Å¡": 6318,
      "ĠÄįarodÄĽj": 6319,
      "ĠpÃ½Å¡e": 6320,
      "Hlu": 6321,
      "zpÄĽt": 6322,
      "ĠschÃ¡zÃŃ": 6323,
      "Ġpas": 6324,
      "Å¡Ã¡": 6325,
      "ĠzvÃ¡": 6326,
      "Ġzbude": 6327,
      "Ġdokud": 6328,
      "ĠÅ¡tva": 6329,
      "ĠbÃŃt": 6330,
      "ĠÅĻece": 6331,
      "Ġondy": 6332,
      "ĠhroznÃ¡": 6333,
      "ĠtajnÃ©": 6334,
      "rnÃ©m": 6335,
      "ÅĻely": 6336,
      "ĠdÃ¡n": 6337,
      "ĠvzpomÃŃnÃ¡": 6338,
      "Ġdcery": 6339,
      "jmou": 6340,
      "vÄįe": 6341,
      "nepo": 6342,
      "nati": 6343,
      "lÃŃbÃ¡": 6344,
      "ÄįinÄĽ": 6345,
      "ĠplÃ¡ly": 6346,
      "ĠvÄĽÄįnÃ½ch": 6347,
      "ĠkoutÄĽ": 6348,
      "ĠpÅĻÃŃroda": 6349,
      "dlen": 6350,
      "Ġzbylo": 6351,
      "ĠkÅ¡ti": 6352,
      "jÃŃti": 6353,
      "duje": 6354,
      "ĠÅ¾iva": 6355,
      "ĠkamenÃŃ": 6356,
      "ĠskalÃ¡ch": 6357,
      "ckÃ½m": 6358,
      "Ġpne": 6359,
      "Ġule": 6360,
      "ÅĪu": 6361,
      "ĠdÄĽsÃŃ": 6362,
      "ĠÅ¡tÄĽd": 6363,
      "druh": 6364,
      "ĠSa": 6365,
      "ĠstÃ¡lo": 6366,
      "ĠhlubokÃ©": 6367,
      "Krev": 6368,
      "Tr": 6369,
      "pru": 6370,
      "plÃŃ": 6371,
      "roval": 6372,
      "voval": 6373,
      "ĠjitÅĻ": 6374,
      "ĠÅ¡lo": 6375,
      "ĠsmÄĽl": 6376,
      "ĠskÃ¡lu": 6377,
      "Ġpokoje": 6378,
      "ĠzimnÃŃ": 6379,
      "Ġsklonil": 6380,
      "ĠjunÃ¡": 6381,
      "ĠpoÅ¡": 6382,
      "poÅ¡to": 6383,
      "mus": 6384,
      "Ġpraco": 6385,
      "ĠstÃŃhÃ¡": 6386,
      "ĠvÅ¡ecku": 6387,
      "Ġsnadno": 6388,
      "Ġvzdoru": 6389,
      "!)": 6390,
      "lkÃ¡": 6391,
      "zkou": 6392,
      "Ġzdob": 6393,
      "mÄĽlo": 6394,
      "ĠnÄĽmÃ¡": 6395,
      "ĠlÃ¡me": 6396,
      "padlo": 6397,
      "ĠostrÃ½": 6398,
      "ĠpÅĻelud": 6399,
      "Darmo": 6400,
      "bÅ¡ÃŃ": 6401,
      "cÃ¡": 6402,
      "cete": 6403,
      "ĠstÃ½": 6404,
      "Ġbyste": 6405,
      "Å¾ÃŃt": 6406,
      "mati": 6407,
      "Nes": 6408,
      "Jeden": 6409,
      "Ġgeni": 6410,
      "Ġozval": 6411,
      "Ġslib": 6412,
      "ZdÃ¡": 6413,
      "ker": 6414,
      "Ġmsti": 6415,
      "rali": 6416,
      "ĠÃºkol": 6417,
      "ĠtouÅ¾il": 6418,
      "ĠspÃŃÅ¡e": 6419,
      "VÃ½": 6420,
      "ik": 6421,
      "lÃ¡nÃŃ": 6422,
      "tovÃ¡nÃŃ": 6423,
      "ĠzÃ¡dumÄįi": 6424,
      "Ġkan": 6425,
      "ĠvÄĽtÅĻÃŃk": 6426,
      "ĠzdvihÃ¡": 6427,
      "ĠonÄĽch": 6428,
      "ChceÅ¡": 6429,
      "ĠÅ¡erem": 6430,
      "ĠmÃŃhÃ¡": 6431,
      "ĠmlÄįenÃŃ": 6432,
      "ByÅ¥": 6433,
      "Ġmraku": 6434,
      "ĠknÄĽÅ¾ÃŃ": 6435,
      "ĠznÃ¡mÃ©": 6436,
      "Ġsmysly": 6437,
      "Ġbalvan": 6438,
      "Ġvzdych": 6439,
      "lÃŃt": 6440,
      "ĠrdÃŃ": 6441,
      "ĠpÃ¡ny": 6442,
      "Ġnejde": 6443,
      "Ġlok": 6444,
      "ĠsklÃ¡dÃ¡": 6445,
      "ĠhÅĻÃ¡": 6446,
      "ĠpÃ¡dÃŃ": 6447,
      "Ġmodro": 6448,
      "Ġpohro": 6449,
      "Äįena": 6450,
      "ĠtÃ¡bo": 6451,
      "Ġsvate": 6452,
      "ĠboÅ¾skÃ©": 6453,
      "ĠtÅĻikrÃ¡t": 6454,
      "ĠslyÅ¡ÃŃÅ¡": 6455,
      "tnÃ½ch": 6456,
      "stvu": 6457,
      "ĠÄįinu": 6458,
      "Ġotco": 6459,
      "ĠpestrÃ©": 6460,
      "Slad": 6461,
      "ĠhvÃŃ": 6462,
      "Ġjisto": 6463,
      "ĠveÅ¡el": 6464,
      "Ġmost": 6465,
      "ĠÅ¾ilÃ¡ch": 6466,
      "mila": 6467,
      "ĠbavÃŃ": 6468,
      "ĠskÃ¡Äįe": 6469,
      "ĠpÃ½cha": 6470,
      "ĠÅ¡lehÃ¡": 6471,
      "PtÃ¡": 6472,
      "Ġzbyl": 6473,
      "Ġpono": 6474,
      "nÄĽch": 6475,
      "volal": 6476,
      "ĠkalÃŃ": 6477,
      "ĠpÃ¡ry": 6478,
      "ĠvavÅĻÃŃ": 6479,
      "ĠvrahÅ¯": 6480,
      "ĠsvÃŃtil": 6481,
      "ĠspÄĽch": 6482,
      "plnÃ©": 6483,
      "vato": 6484,
      "vÃŃvÃ¡": 6485,
      "Ġbyt": 6486,
      "Ġvypla": 6487,
      "Ġkdosi": 6488,
      "Ġhust": 6489,
      "Viz": 6490,
      "Ġparku": 6491,
      "Jdou": 6492,
      "ĠzmÄĽnÃŃ": 6493,
      "voje": 6494,
      "Ġdojem": 6495,
      "nÃ¡n": 6496,
      "Ġluhy": 6497,
      "ĠchvÄĽlo": 6498,
      "Ġjedinou": 6499,
      "ĠkaÅ¾dÃ©ho": 6500,
      "hi": 6501,
      "Ġpopra": 6502,
      "ÅĻÃŃÅ¾": 6503,
      "nov": 6504,
      "ÅĻiv": 6505,
      "kati": 6506,
      "Å¥u": 6507,
      "veÅĪ": 6508,
      "ĠzÃ¡ho": 6509,
      "Å¡ili": 6510,
      "Ġplakal": 6511,
      "ĠsladkÃ©m": 6512,
      "ĠÅ¡irÃ½": 6513,
      "Ġvnady": 6514,
      "Ġzast": 6515,
      "Ġuko": 6516,
      "ĠupÃŃ": 6517,
      "piti": 6518,
      "ĠzjevÃŃ": 6519,
      "ĠTebou": 6520,
      "nÄĽnou": 6521,
      "naly": 6522,
      "ĠpÅĻÃŃk": 6523,
      "JakÃ¡": 6524,
      "ĠlodÃŃ": 6525,
      "zor": 6526,
      "ĠpyÅ¡nÄĽ": 6527,
      "ĠpÅĻemo": 6528,
      "ĠÅĺÃŃma": 6529,
      "Ġslzami": 6530,
      "ĠhÅĻbitov": 6531,
      "gan": 6532,
      "ĠbÃ©ÅĻe": 6533,
      "ĠlÃŃstek": 6534,
      "ĠslastÃŃ": 6535,
      "Ġknih": 6536,
      "ĠdÃ©le": 6537,
      "ĠProÄį": 6538,
      "Ġtlou": 6539,
      "Ġzavz": 6540,
      "kÃ¡zal": 6541,
      "ĠÅ¾er": 6542,
      "Ġodlesk": 6543,
      "ĠÅ¡edÃ¡": 6544,
      "ĠSmrt": 6545,
      "takÃ©": 6546,
      "Ġrysy": 6547,
      "kdoÅ¾": 6548,
      "ĠÅ¾alost": 6549,
      "mrti": 6550,
      "ĠvesmÃŃr": 6551,
      "BÄĽda": 6552,
      "tas": 6553,
      "Äįuje": 6554,
      "ÅĻeli": 6555,
      "ĠuvÄĽ": 6556,
      "Ġskro": 6557,
      "ĠmÃŃsÃŃ": 6558,
      "Ġpusto": 6559,
      "ĠbÄĽhu": 6560,
      "ĠDa": 6561,
      "AvÅ¡ak": 6562,
      "ĠvÃ½m": 6563,
      "Ġdno": 6564,
      "ĠozÃ¡": 6565,
      "Ġlem": 6566,
      "ĠÄįinÅ¯": 6567,
      "jakoby": 6568,
      "VÃŃÅ¡": 6569,
      "ĠzmÃŃtÃ¡": 6570,
      "Ġprostor": 6571,
      "ĠtÅ¯nÄĽ": 6572,
      "ĠvÃ½chodu": 6573,
      "Sl": 6574,
      "tma": 6575,
      "Ġkane": 6576,
      "pali": 6577,
      "ĠVÅ¾dy": 6578,
      "ĠdivnÃ¡": 6579,
      "TÃ¡": 6580,
      "Ġvan": 6581,
      "Ġpoha": 6582,
      "Ġuti": 6583,
      "Ġvypl": 6584,
      "Ġmudr": 6585,
      "ĠprvÃ½": 6586,
      "Ġvida": 6587,
      "ĠnÄĽmÃ©": 6588,
      "Ġfor": 6589,
      "ĠpÅĻesvÄĽd": 6590,
      "draÅ¾Å¡ÃŃ": 6591,
      "Ġkonci": 6592,
      "Ġzmatku": 6593,
      "ĠdÄĽcka": 6594,
      "zrÃ¡": 6595,
      "Ġvstane": 6596,
      "lujÃŃ": 6597,
      "ĠboÅ¾ÃŃm": 6598,
      "ĠdÄĽsnÃ½": 6599,
      "ĠslabÃ©": 6600,
      "Ġstarce": 6601,
      "Ġhluku": 6602,
      "ĠbÅĻehÅ¯": 6603,
      "ĠdrÃ¡hy": 6604,
      "qu": 6605,
      "Ã¡nÃŃ": 6606,
      "chtÄĽ": 6607,
      "lon": 6608,
      "ĠuhlÃŃ": 6609,
      "Ġprova": 6610,
      "stÃŃrÃ¡": 6611,
      "rko": 6612,
      "Å¡ce": 6613,
      "bech": 6614,
      "Å¾enÃ½ch": 6615,
      "ĠplnÃ½m": 6616,
      "ĠhlasÅ¯": 6617,
      "Ġjisker": 6618,
      "Ġseveru": 6619,
      "pka": 6620,
      "vÄįÃŃ": 6621,
      "zak": 6622,
      "ĠrtÃŃ": 6623,
      "ĠÅ¾ila": 6624,
      "ĠcestÃ¡ch": 6625,
      "budou": 6626,
      "ĠpohlÃŃ": 6627,
      "ĠVaÅ¡e": 6628,
      "jnÃ©": 6629,
      "Ġbly": 6630,
      "ÅĻelo": 6631,
      "ĠstÅ¯j": 6632,
      "ĠÅ¡vi": 6633,
      "ĠÃºstech": 6634,
      "ĠpÅĻÃŃsnÄĽ": 6635,
      "ĠlÃŃba": 6636,
      "ĠÄįistou": 6637,
      "sÅ¥a": 6638,
      "ĠOsud": 6639,
      "Ġtrud": 6640,
      "hlÃŃÅ¾e": 6641,
      "Ġvysoko": 6642,
      "ZÅĻÃŃm": 6643,
      "lat": 6644,
      "rati": 6645,
      "ĠpoÅ¾Ã¡r": 6646,
      "ĠburÃ¡": 6647,
      "ĠpÅĻÃŃklad": 6648,
      "ĠstÃ¡do": 6649,
      "ĠstoletÃŃ": 6650,
      "ÅĻÃŃmal": 6651,
      "ĠchtÄĽlo": 6652,
      "Jich": 6653,
      "ĠchrÃ¡my": 6654,
      "Ġpokoji": 6655,
      "ĠkÃ¡cÃŃ": 6656,
      "ĠvÃ¡lky": 6657,
      "ĠzachvÄĽl": 6658,
      "ĠtoÅ¾": 6659,
      "ĠdÃ¡no": 6660,
      "mot": 6661,
      "Ġhudbu": 6662,
      "Ġbludi": 6663,
      "ĠzoufalstvÃŃ": 6664,
      "ĠzvlÃ¡Å¡tnÃŃ": 6665,
      "ĠposmÄĽch": 6666,
      "Ġkriti": 6667,
      "Ġzvl": 6668,
      "Ġzablou": 6669,
      "Ġperel": 6670,
      "ÅĻeme": 6671,
      "ĠdÃŃvku": 6672,
      "ĠÃºsmÄĽvu": 6673,
      "Ġhrdla": 6674,
      "ĠhospodÃ¡": 6675,
      "Hej": 6676,
      "Ġzhu": 6677,
      "novÃ½": 6678,
      "vedu": 6679,
      "Cos": 6680,
      "ĠnebeskÃ©": 6681,
      "Ġnejsi": 6682,
      "Ġzlomen": 6683,
      "heÅĪ": 6684,
      "zpÃŃvÃ¡": 6685,
      ".)": 6686,
      "Hr": 6687,
      "Ġosi": 6688,
      "dostÃŃ": 6689,
      "ĠdÄĽlÃŃ": 6690,
      "Å¾ilo": 6691,
      "Ġlidmi": 6692,
      "ĠbÃ¡snÄĽ": 6693,
      "ĠÄįlovÄĽkem": 6694,
      "Ġmnich": 6695,
      "Ġzpup": 6696,
      "BÃ¡": 6697,
      "Bou": 6698,
      "ĠsnÃ¡Å¡ÃŃ": 6699,
      "jeÅ¥": 6700,
      "ĠuvÃŃ": 6701,
      "Ġcele": 6702,
      "TakÃ©": 6703,
      "ĠrekÅ¯": 6704,
      "ĠvrÃ¡sky": 6705,
      "ĠmdlÃ½": 6706,
      "Ġsmy": 6707,
      "Ġchou": 6708,
      "Ġsple": 6709,
      "ĠobjÃŃmÃ¡": 6710,
      "stavÃŃ": 6711,
      "sadil": 6712,
      "Ġvesel": 6713,
      "Ġster": 6714,
      "dechu": 6715,
      "Ġuka": 6716,
      "kuje": 6717,
      "Äįelo": 6718,
      "Ġposlal": 6719,
      "Ġsymbo": 6720,
      "ĠsnivÃ¡": 6721,
      "Ġpaprs": 6722,
      "ĠÅ¾ebrÃ¡k": 6723,
      "Å¡lÃ©": 6724,
      "teÄįnÄĽ": 6725,
      "Ġdomy": 6726,
      "Ġlevo": 6727,
      "dav": 6728,
      "Ġplny": 6729,
      "ĠklasÅ¯": 6730,
      "ĠtesknÃ©": 6731,
      "ĠÅĻadou": 6732,
      "Ġkmit": 6733,
      "hÅĻÃ¡": 6734,
      "ki": 6735,
      "Ġdol": 6736,
      "ĠpÄĽti": 6737,
      "Ġsouci": 6738,
      "ĠhustÃ©": 6739,
      "ĠklidnÃ½": 6740,
      "ĠCi": 6741,
      "ĠpevnÃ½": 6742,
      "Ġplynou": 6743,
      "stupuje": 6744,
      "Ġtrium": 6745,
      "TÃ©": 6746,
      "leÅ¾ÃŃ": 6747,
      "Ġhon": 6748,
      "ĠboÅĻÃŃ": 6749,
      "ĠtakÃ½": 6750,
      "ĠvÃ½kÅĻi": 6751,
      "ĠOt": 6752,
      "ĠvlÃ¡dy": 6753,
      "PÅĻec": 6754,
      "ĠhlubokÃ½": 6755,
      "ĠÄĮechy": 6756,
      "ĠhlÃ¡sÃŃ": 6757,
      "ĠzdobÃŃ": 6758,
      "ĠpÅ¯lnoci": 6759,
      "nskÃ©": 6760,
      "ĠpoÅĻÃ¡d": 6761,
      "lym": 6762,
      "ĠtuÅ¡ÃŃm": 6763,
      "ĠsvÃŃtÃ¡": 6764,
      "kaÅ¾dÃ©": 6765,
      "Mezi": 6766,
      "ĠzlÃ©ho": 6767,
      "Äįat": 6768,
      "nÄĽna": 6769,
      "ĠumÄĽl": 6770,
      "mÃ¡Å¡": 6771,
      "ĠpÃ¡nÅ¯": 6772,
      "benÃ©": 6773,
      "ĠsmÃ¡la": 6774,
      "ĠpÅ¯lnoc": 6775,
      "ĠspanÃŃ": 6776,
      "tkou": 6777,
      "chi": 6778,
      "Å¯nÄĽ": 6779,
      "Ġpovy": 6780,
      "Ġpocit": 6781,
      "Ġuva": 6782,
      "ĠvÃŃÄįka": 6783,
      "ĠÅ¡est": 6784,
      "zdvi": 6785,
      "vena": 6786,
      "Å½ivot": 6787,
      "ĠknÃŃÅ¾": 6788,
      "Ġdejte": 6789,
      "ĠskÅĻivan": 6790,
      "Ġvzplane": 6791,
      "ĠÄįervÃ¡nkÅ¯": 6792,
      "fÃŃ": 6793,
      "klen": 6794,
      "snÃ½m": 6795,
      "Ġkl": 6796,
      "skÃ½mi": 6797,
      "ĠuÄįen": 6798,
      "Ġhoru": 6799,
      "ĠnovÃ©m": 6800,
      "Å¡tÄĽm": 6801,
      "ĠSlu": 6802,
      "ĠpÃ¡nu": 6803,
      "ĠchtÄĽjÃŃ": 6804,
      "ÅłtÄĽ": 6805,
      "ĠjemuÅ¾": 6806,
      "ĠmocnÃ©": 6807,
      "Ġostro": 6808,
      "ĠnepÅĻÃŃtel": 6809,
      "ĠfarÃ¡": 6810,
      "DÅĻÃŃv": 6811,
      "PlÃ¡": 6812,
      "Ġshle": 6813,
      "ĠvtÄĽ": 6814,
      "enal": 6815,
      "ĠoÄįka": 6816,
      "Ġnehy": 6817,
      "hoÅĻÃŃ": 6818,
      "Ġzad": 6819,
      "ĠzamyÅ¡": 6820,
      "cÃŃtÃŃ": 6821,
      "ĠkoÄįÃ¡": 6822,
      "ĠÅ¡epo": 6823,
      "ĠpouhÃ©": 6824,
      "Ġkul": 6825,
      "stoup": 6826,
      "Ġpoliti": 6827,
      "Ġtlum": 6828,
      "Äıar": 6829,
      "ĠstraÅ¡li": 6830,
      "Ġhubi": 6831,
      "ĠOd": 6832,
      "Ġdeset": 6833,
      "nickÃ½": 6834,
      "Ġzim": 6835,
      "ĠvzpomÃŃnek": 6836,
      "Ġmiluji": 6837,
      "chovÃ¡": 6838,
      "ĠSnad": 6839,
      "ĠplÃ¡lo": 6840,
      "Ġstranu": 6841,
      "ĠtÃŃsnÃŃ": 6842,
      "ĠpohÃ¡dky": 6843,
      "Ġarci": 6844,
      "Ġzmu": 6845,
      "Ġpoc": 6846,
      "lostÃŃ": 6847,
      "Ġmuky": 6848,
      "Ġpre": 6849,
      "Ġskvr": 6850,
      "ĠÅĻetÄĽz": 6851,
      "ĠhvÄĽzdou": 6852,
      "kteÅĻÃŃ": 6853,
      "ren": 6854,
      "Ġkorou": 6855,
      "jakby": 6856,
      "ĠruÄįky": 6857,
      "plnÃ½": 6858,
      "ĠobÄĽt": 6859,
      "hnouti": 6860,
      "Ġsrde": 6861,
      "vÅ¡ad": 6862,
      "Ke": 6863,
      "Å¾nou": 6864,
      "radost": 6865,
      "Ġnedal": 6866,
      "Ġholou": 6867,
      "jila": 6868,
      "ceni": 6869,
      "Ġoblaky": 6870,
      "ĠdÃ¡my": 6871,
      "ĠhedvÃ¡": 6872,
      "ĠnÃ¡v": 6873,
      "ĠpÄĽsti": 6874,
      "ĠnaÅ¡eho": 6875,
      "Ġzvuku": 6876,
      "Prav": 6877,
      "Hlas": 6878,
      "Jas": 6879,
      "ĠÅ½e": 6880,
      "list": 6881,
      "Ġvzbou": 6882,
      "ĠsvÃŃce": 6883,
      "Ġzloba": 6884,
      "ĠpÅĻÃ¡telÃ©": 6885,
      "dÅ¯vÄĽ": 6886,
      "ĠnedoÄįka": 6887,
      "Ġslep": 6888,
      "slunce": 6889,
      "ĠpilnÄĽ": 6890,
      "ĠPetr": 6891,
      "jnÃ½": 6892,
      "Ġvpad": 6893,
      "Ġzahal": 6894,
      "Ġmukou": 6895,
      "sala": 6896,
      "ĠlkÃ¡nÃŃ": 6897,
      "volnÄĽ": 6898,
      "Ġsoumraku": 6899,
      "ĠrÅ¯znÃ½ch": 6900,
      "vanÃ¡": 6901,
      "Å¡eti": 6902,
      "Ġvzrost": 6903,
      "ÄįeÅ¾": 6904,
      "ĠtuÅ¾eb": 6905,
      "ĠpaÅ¾ÃŃ": 6906,
      "ĠÅ¡er": 6907,
      "DobÅĻe": 6908,
      "ĠDÄĽ": 6909,
      "Ġbloudil": 6910,
      "Ġklesl": 6911,
      "ĠÄıas": 6912,
      "ĠperutÄĽ": 6913,
      "Ġvzejde": 6914,
      "Chu": 6915,
      "ĠvstÃ¡": 6916,
      "Ġjesen": 6917,
      "Ġrozvi": 6918,
      "ĠTam": 6919,
      "mÃ¡hÃ¡": 6920,
      "ĠblaÅ¾ÃŃ": 6921,
      "Ġmohli": 6922,
      "!...âĢľ": 6923,
      "ĠkÅĻovÃŃ": 6924,
      "bka": 6925,
      "Å¡til": 6926,
      "roda": 6927,
      "Ġoso": 6928,
      "vÄĽn": 6929,
      "ĠrodnÃ½": 6930,
      "ĠrtÅ¯m": 6931,
      "Ġoblou": 6932,
      "sajÃŃ": 6933,
      "Jakby": 6934,
      "Ġstrasti": 6935,
      "ĠsmÃ¡t": 6936,
      "Ġpaprsky": 6937,
      "lÃŃch": 6938,
      "Ġleto": 6939,
      "ĠpÄĽjÃŃ": 6940,
      "ĠplnÃ½ch": 6941,
      "Ġjasem": 6942,
      "ĠradosÅ¥": 6943,
      "ĠÅ¾ÃŃzni": 6944,
      "ĠkrutÃ©": 6945,
      "Ġteplo": 6946,
      "ĠbujnÃ©": 6947,
      "ĠkvÄĽtech": 6948,
      "Zvo": 6949,
      "ĠprvÃ©": 6950,
      "ĠvojÃ¡": 6951,
      "ĠbijÃŃ": 6952,
      "ĠspÄĽl": 6953,
      "Ġocho": 6954,
      "vidÄĽl": 6955,
      "Å¾ivot": 6956,
      "Potom": 6957,
      "ĠplÃ¡t": 6958,
      "bÃ¡Å¡": 6959,
      "ĠchvÄĽly": 6960,
      "nickÃ©": 6961,
      "Ġmrz": 6962,
      "ĠnÄĽÅ¾nÃ©": 6963,
      "ĠnÄĽjÅ¾": 6964,
      "mla": 6965,
      "ĠtkÃ¡": 6966,
      "jeli": 6967,
      "Ġoddech": 6968,
      "ĠmÄĽly": 6969,
      "ĠTen": 6970,
      "chÃ¡zÃŃm": 6971,
      "ĠÅĻÃŃdÃŃ": 6972,
      "ĠtÄĽÅ¾kÃ½m": 6973,
      "Ġjiskra": 6974,
      "Ġchceme": 6975,
      "chti": 6976,
      "ĠmroucÃŃ": 6977,
      "Ġpoledne": 6978,
      "nÃ¡Å¡el": 6979,
      "ĠhoÅ¡i": 6980,
      "Ġkov": 6981,
      "vidÃŃm": 6982,
      "daje": 6983,
      "ĠVes": 6984,
      "ĠÅĻev": 6985,
      "ĠchytÃ¡": 6986,
      "ĠmalÃ½ch": 6987,
      "ĠtrÃ¡vu": 6988,
      "ĠstudÃ¡": 6989,
      "ĠzachrÃ¡": 6990,
      "ĠodpusÅ¥": 6991,
      "Ġpopla": 6992,
      "dÄĽjÃŃ": 6993,
      "Ġmuce": 6994,
      "ĠÅĻetÄĽ": 6995,
      "ĠkrÃ¡tkÃ©": 6996,
      "Ġshon": 6997,
      "Ġhouf": 6998,
      "Ġkopy": 6999,
      "Ġnoh": 7000,
      "Ġkudy": 7001,
      "ĠslÃ½ch": 7002,
      "ĠkÅĻÃŃÅ¾i": 7003,
      "brat": 7004,
      "ĠmrtvÃŃ": 7005,
      "ĠznÃ¡t": 7006,
      "ĠhouÅ¡ti": 7007,
      "ĠjizbÄĽ": 7008,
      "ĠideÃ¡": 7009,
      "oko": 7010,
      "Ġchech": 7011,
      "ĠpeÅĻe": 7012,
      "Å¾eno": 7013,
      "venÃ¡": 7014,
      "ĠmilovÃ¡nÃŃ": 7015,
      "ĠveÄįernÃŃ": 7016,
      "ĠnevÃŃÅ¡": 7017,
      "bami": 7018,
      "knu": 7019,
      "ĠhÅ¯l": 7020,
      "ĠoÅ¾i": 7021,
      "pomeÅĪ": 7022,
      "ĠpÅĻedc": 7023,
      "cenou": 7024,
      "kev": 7025,
      "Ġlampy": 7026,
      "ĠplÃŃÅ¾ÃŃ": 7027,
      "ĠbohatÃ½r": 7028,
      "jnÃ¡": 7029,
      "Å¡kem": 7030,
      "cestÃŃ": 7031,
      "ĠjinÃ©ho": 7032,
      "dÄĽlo": 7033,
      "Ġhorami": 7034,
      "ÅĪal": 7035,
      "Ġstan": 7036,
      "ĠAu": 7037,
      "jemi": 7038,
      "ĠÅ¡eptal": 7039,
      "pÅ¯l": 7040,
      "ĠostatnÃŃ": 7041,
      "ĠpenÄĽz": 7042,
      "vatÃ¡": 7043,
      "lÃ©mu": 7044,
      "ĠpÅĻichÃ¡zÃŃ": 7045,
      "ĠPi": 7046,
      "ĠstÃ¡da": 7047,
      "cÅ¯v": 7048,
      "ĠumÅĻÃŃt": 7049,
      "ĠzboÅ¾nÄĽ": 7050,
      "utÃŃ": 7051,
      "Ġsestra": 7052,
      "Ġzato": 7053,
      "tati": 7054,
      "ĠskvoucÃŃ": 7055,
      "Å¾eny": 7056,
      "ĠsynÅ¯": 7057,
      "hlÃ½m": 7058,
      "zenÃ½": 7059,
      "ĠPraha": 7060,
      "ĠteplÃ½": 7061,
      "ĠRolan": 7062,
      "ĠblÃ½ska": 7063,
      "dlem": 7064,
      "vnitÅĻ": 7065,
      "Ġposte": 7066,
      "Ġviz": 7067,
      "ĠhradÄĽ": 7068,
      "cena": 7069,
      "stroj": 7070,
      "ĠoltÃ¡ÅĻe": 7071,
      "Ġkostela": 7072,
      "Å¾nÃ½ch": 7073,
      "ĠslabÃ½": 7074,
      "ĠdruhÅ¯": 7075,
      "ĠbÃ¡znÃŃ": 7076,
      "ĠmrtvÃ¡": 7077,
      "Ġklidem": 7078,
      "Ġovoce": 7079,
      "Å¾ha": 7080,
      "Ġkmo": 7081,
      "lesti": 7082,
      "Ġpoku": 7083,
      "mÄĽt": 7084,
      "ĠoblÃ¡": 7085,
      "ĠskoÄįÃŃ": 7086,
      "ĠhÅĻÃŃmÃ¡": 7087,
      "ĠsvÃ¡tek": 7088,
      "ĠvzpomÃŃnky": 7089,
      "ĠmÄĽkce": 7090,
      "ĠmÄĽkkÃ½": 7091,
      "ĠbÅĻÃŃmÄĽ": 7092,
      "ĠrovnÄĽÅ¾": 7093,
      "Spo": 7094,
      "Ġmor": 7095,
      "ĠmilÃŃ": 7096,
      "ĠhladÃŃ": 7097,
      "Ġhladem": 7098,
      "ĠbÃŃdÄĽ": 7099,
      "Ġkroku": 7100,
      "lÅ¯v": 7101,
      "ĠpÅ¯dÄĽ": 7102,
      "ĠplesÃ¡": 7103,
      "ĠdnovÃ©": 7104,
      "ĠnaÅ¡ÃŃm": 7105,
      "ĠÄįekÃ¡m": 7106,
      "Ġchladnou": 7107,
      "ĠdvoÅĻe": 7108,
      "blÃŃÅ¾": 7109,
      "Ġhisto": 7110,
      "Ġjdeme": 7111,
      "emo": 7112,
      "Ġleta": 7113,
      "vidÃŃ": 7114,
      "Ġvyho": 7115,
      "ĠlÃŃpy": 7116,
      "Ġlokte": 7117,
      "ÄįkovÃ©": 7118,
      "Ġmladost": 7119,
      "ĠhlubinÃ¡ch": 7120,
      "Ġpostavy": 7121,
      "Ġklene": 7122,
      "znou": 7123,
      "Ġnasy": 7124,
      "skvÄĽ": 7125,
      "poli": 7126,
      "Ġmojich": 7127,
      "talo": 7128,
      "mÃŃt": 7129,
      "Ġcig": 7130,
      "Dost": 7131,
      "ĠÅ¡ÃŃÅĻ": 7132,
      "hradu": 7133,
      "ĠposlednÃŃm": 7134,
      "dnÃ©ho": 7135,
      "ĠjmÄĽnÃŃ": 7136,
      "Ġdocela": 7137,
      "nus": 7138,
      "ĠslepÃ½": 7139,
      "Ġdvacet": 7140,
      "Lo": 7141,
      "Ġzkla": 7142,
      "ĠapoÅ¡to": 7143,
      "ĠlÃ¡n": 7144,
      "Ġresi": 7145,
      "ĠprÃ¡zdnÃ½": 7146,
      "ĠdÃ½mu": 7147,
      "Ġmoudrosti": 7148,
      "Dra": 7149,
      "ubo": 7150,
      "Ġohlas": 7151,
      "ĠutÄĽ": 7152,
      "Ġroje": 7153,
      "ĠhoÅĻem": 7154,
      "Ġkoli": 7155,
      "Ġvyslo": 7156,
      "ĠnÃ¡vra": 7157,
      "Proti": 7158,
      "ĠpaprskÅ¯": 7159,
      "dly": 7160,
      "fÃ¡": 7161,
      "hrob": 7162,
      "Å¡lÃŃ": 7163,
      "ruje": 7164,
      "ĠproklÃŃ": 7165,
      "ĠAd": 7166,
      "ĠrÅ¯znÃ©": 7167,
      "cenÃ½ch": 7168,
      "ĠJeÅ¾ÃŃÅ¡": 7169,
      "ĠpoÄįÃ¡": 7170,
      "Ġulice": 7171,
      "ĠTeÄı": 7172,
      "Ġcenu": 7173,
      "Ġov": 7174,
      "pojÄı": 7175,
      "Ġslovu": 7176,
      "ĠvÅ¯z": 7177,
      "Ġjasno": 7178,
      "Å¡enÃ¡": 7179,
      "Ġtemna": 7180,
      "ĠchrÃ¡mÄĽ": 7181,
      "ĠLibu": 7182,
      "Ġvni": 7183,
      "ĠpravÃŃm": 7184,
      "Ġslabo": 7185,
      "pÃ¡r": 7186,
      "Ġmrazem": 7187,
      "ĠÅ¾ÃŃzeÅĪ": 7188,
      "ĠÅ¾aly": 7189,
      "ĠdlaÅ¾": 7190,
      "ĠhledÃ¡m": 7191,
      "ĠdÄĽtskÃ©": 7192,
      "KÃ½": 7193,
      "pjat": 7194,
      "ÅĻka": 7195,
      "Ġvyhna": 7196,
      "Ġrmut": 7197,
      "ĠbodÃ¡": 7198,
      "Ġjedem": 7199,
      "ĠMÃŃ": 7200,
      "ĠdruzÃŃ": 7201,
      "ĠrybnÃŃ": 7202,
      "ĠZe": 7203,
      "Ġbere": 7204,
      "ĠpamÄĽÅ¥": 7205,
      "ĠzÅĻeli": 7206,
      "ĠÅ¡lechet": 7207,
      "Ġnebyla": 7208,
      "luji": 7209,
      "Äįest": 7210,
      "ĠÅ¾ijÃŃ": 7211,
      "ĠstaÅĻÃŃ": 7212,
      "ĠpÃ¡d": 7213,
      "ĠtrnÃŃ": 7214,
      "ĠLo": 7215,
      "ĠzdÃ¡nÃŃ": 7216,
      "ĠlÃ©ka": 7217,
      "Ġtmavou": 7218,
      "ĠznÃ¡ti": 7219,
      "ĠtÃ³ny": 7220,
      "Sen": 7221,
      "ĠzanÃŃ": 7222,
      "ĠnÄĽhu": 7223,
      "Ġiro": 7224,
      "ĠdÄĽsnÃ©": 7225,
      "pÄĽla": 7226,
      "ĠsnÃŃt": 7227,
      "ĠnevidÄĽl": 7228,
      "Ġjizby": 7229,
      "ĠvzÃŃti": 7230,
      "ĠneÅĻe": 7231,
      "Ġvece": 7232,
      "jisk": 7233,
      "ĠpÅĻekva": 7234,
      "ĠnÃ¡ÅĻ": 7235,
      "ĠkacÃŃ": 7236,
      "ĠÄįernÃ½m": 7237,
      "TÄĽÅ¾": 7238,
      "ĠmateÅĻ": 7239,
      "sna": 7240,
      "chni": 7241,
      "ÃŃmÄĽ": 7242,
      "Ġpel": 7243,
      "ĠdravÃ½": 7244,
      "ĠbÃ¡l": 7245,
      "kladu": 7246,
      "ĠsnÄĽtÃŃ": 7247,
      "ĠdrÃ¡hu": 7248,
      "ĠzapomnÄĽnÃŃ": 7249,
      "ĠvleÄįe": 7250,
      "pÅ¯j": 7251,
      "ĠnedÄĽ": 7252,
      "ĠÅ¾u": 7253,
      "ĠdusÃŃ": 7254,
      "jakÃ¡": 7255,
      "ĠÄįeskou": 7256,
      "Ġsiro": 7257,
      "ĠlÃŃnÄĽ": 7258,
      "pej": 7259,
      "ĠRenal": 7260,
      "ĠpoÄįne": 7261,
      "ĠvÃŃme": 7262,
      "ĠÅ¡koly": 7263,
      "sam": 7264,
      "Ġshlu": 7265,
      "ĠchÅĻe": 7266,
      "Ġvlaje": 7267,
      "Ġhromo": 7268,
      "ĠÄįerv": 7269,
      "ĠvÄĽÄįnÃ½m": 7270,
      "Å¡enÄĽ": 7271,
      "ĠÄıÃ¡b": 7272,
      "Ġzdroje": 7273,
      "ĠmÅ¾ikem": 7274,
      "hvÄĽz": 7275,
      "ĠvÄĽÅ¾i": 7276,
      "ĠpeÅĻÃŃ": 7277,
      "trp": 7278,
      "ĠblahÃ½": 7279,
      "Ġlos": 7280,
      "ĠvraÅ¥": 7281,
      "ĠvlastnÃŃch": 7282,
      "Ġtragi": 7283,
      "ĠnÃ¡mÄĽstÃŃ": 7284,
      "ZnÃ¡m": 7285,
      "zli": 7286,
      "ÃŃch": 7287,
      "ĠÅ¾ivÃŃ": 7288,
      "ĠplaÅ¡ÃŃ": 7289,
      "Ġcitem": 7290,
      "Ġvlno": 7291,
      "ĠÅ¡irÃ©m": 7292,
      "Ġkapky": 7293,
      "Ġpovo": 7294,
      "Ġrol": 7295,
      "ĠniÅ¾": 7296,
      "Ġvoje": 7297,
      "ĠpravÃ¡": 7298,
      "ĠtmavÃ½ch": 7299,
      "Ġsedmi": 7300,
      "ĠpropastÃŃ": 7301,
      "ĠpevnÃ©": 7302,
      "ĠokamÅ¾iku": 7303,
      "ĠvteÅĻi": 7304,
      "Ġzko": 7305,
      "Ġnajednou": 7306,
      "ĠÅ¡o": 7307,
      "Ġstala": 7308,
      "Ġnemlu": 7309,
      "ĠlhÃ¡": 7310,
      "Ġvaz": 7311,
      "Å¡eni": 7312,
      "kolenÃŃ": 7313,
      "Ġzjevil": 7314,
      "ĠhoupÃ¡": 7315,
      "boÅ¾Ã¡": 7316,
      "ĠzaÅ¡lÃ½ch": 7317,
      "ĠpamÃ¡tku": 7318,
      "ĠnÃ©sti": 7319,
      "Mrt": 7320,
      "noÄįnÃŃ": 7321,
      "illu": 7322,
      "ĠrozlÃŃ": 7323,
      "ĠrudÃ¡": 7324,
      "ĠbÃ¡znÄĽ": 7325,
      "ĠjaÅĻe": 7326,
      "tenÃ¡": 7327,
      "ĠNu": 7328,
      "ĠÅ¡Å¥astnÃ©": 7329,
      "ĠsnivÃ½": 7330,
      "Ġrakvi": 7331,
      "vle": 7332,
      "Ġopak": 7333,
      "nÄĽnÃ¡": 7334,
      "vÃ¡s": 7335,
      "toma": 7336,
      "Ġref": 7337,
      "ĠnÃ¡rodÅ¯": 7338,
      "ĠosvÄĽt": 7339,
      "beni": 7340,
      "Ġsedm": 7341,
      "ĠnenadÃ¡nÃŃ": 7342,
      "Ġzjas": 7343,
      "Ġnachem": 7344,
      "vojÃŃ": 7345,
      "ĠÅ¡leh": 7346,
      "ĠkopÃŃ": 7347,
      "ĠlekÃ¡": 7348,
      "JeÅ¥": 7349,
      "ĠÄįernÃ©m": 7350,
      "Ġdruhy": 7351,
      "ĠbÃ¡jÃŃ": 7352,
      "Äįeno": 7353,
      "Ġzbyla": 7354,
      "ĠvysokÃ©": 7355,
      "Pane": 7356,
      "ĠzdrÃ¡va": 7357,
      "ĠzboÅ¾ÃŃ": 7358,
      "lÃ¡n": 7359,
      "Ġzasy": 7360,
      "Ġhody": 7361,
      "mund": 7362,
      "ĠrozvÃ¡": 7363,
      "Ġnadarmo": 7364,
      "pustÃŃ": 7365,
      "pustil": 7366,
      "ĠvÃ½Äįi": 7367,
      "ĠvÃ½so": 7368,
      "Ġsnahy": 7369,
      "ĠmyÅ¡lÃ©nek": 7370,
      "Ġhejno": 7371,
      "ĠvodopÃ¡": 7372,
      "Ġnouze": 7373,
      "ĠzÃ¡mek": 7374,
      "Å¾em": 7375,
      "tina": 7376,
      "Ġjist": 7377,
      "Ġrozvl": 7378,
      "ĠtÄĽkÃ¡": 7379,
      "Ġsocha": 7380,
      "ÅĻenÃ½m": 7381,
      "ĠpukÃ¡": 7382,
      "ĠsvatÃ©ho": 7383,
      "ĠmarnÃ½": 7384,
      "Ġpokro": 7385,
      "Ġslavnost": 7386,
      "ĠvichÅĻice": 7387,
      "Ġzmize": 7388,
      "Ġoct": 7389,
      "Ġpoklady": 7390,
      "ÅĻÃŃti": 7391,
      "Å¥Ã¡": 7392,
      "Ġroku": 7393,
      "Ġmozo": 7394,
      "Ġvzpou": 7395,
      "Ġsrdcy": 7396,
      "ĠrubÃŃ": 7397,
      "ĠÃºkry": 7398,
      "NevÃŃm": 7399,
      "ĠÅ¡eÅĻÃŃ": 7400,
      "Ġsoused": 7401,
      "vedli": 7402,
      "Ġmluv": 7403,
      "ĠbolesÅ¥": 7404,
      "ĠmuÅ¾em": 7405,
      "Ġheslo": 7406,
      "Ġhluboko": 7407,
      "Ġoblohou": 7408,
      "Ġvezme": 7409,
      "Ġceny": 7410,
      "roze": 7411,
      "ĠpoÅĻÃ¡": 7412,
      "ĠzavÄĽ": 7413,
      "ĠuklÃ¡": 7414,
      "ĠzÃ¡slu": 7415,
      "ĠdÃ¡val": 7416,
      "ĠmÄĽÅĻÃŃ": 7417,
      "âĢĻ!": 7418,
      "ĠdÃŃlu": 7419,
      "ĠcÃŃtit": 7420,
      "skot": 7421,
      "pasi": 7422,
      "ĠjmÃ©nem": 7423,
      "ĠzvÃŃtÄĽ": 7424,
      "ĠkÅĻÃŃdlech": 7425,
      "*)": 7426,
      "Ġzahu": 7427,
      "lÃ©vÃ¡": 7428,
      "Ġihned": 7429,
      "zali": 7430,
      "ĠVz": 7431,
      "Ġstole": 7432,
      "ÅĻeno": 7433,
      "ĠspÃ¡su": 7434,
      "Ġskokem": 7435,
      "ĠhorkÃ©": 7436,
      "ĠsvobodÄĽ": 7437,
      "ĠlÅ¯no": 7438,
      "ĠpÅĻÃŃÅ¡tÃŃch": 7439,
      "ncem": 7440,
      "smrt": 7441,
      "ĠW": 7442,
      "Ã½val": 7443,
      "Äįno": 7444,
      "Ġhladu": 7445,
      "Ġodsou": 7446,
      "ĠmÃ©nÄĽ": 7447,
      "stoupÃŃ": 7448,
      "ĠOr": 7449,
      "ĠstÅĻechy": 7450,
      "ptÃ¡k": 7451,
      "dÅĻÃŃ": 7452,
      "nnÃ½": 7453,
      "vlÃŃ": 7454,
      "Ġmrou": 7455,
      "lom": 7456,
      "Ġdot": 7457,
      "ĠhodÃŃ": 7458,
      "Ġleda": 7459,
      "Ġrozbi": 7460,
      "ĠdrahÃ½ch": 7461,
      "Ġdlouze": 7462,
      "ĠmÄĽkkÃ©": 7463,
      "ĠkrvavÃ½": 7464,
      "Å¾al": 7465,
      "ĠnapÅĻed": 7466,
      "vami": 7467,
      "ĠzaÄįÃŃ": 7468,
      "por": 7469,
      "ĠvÄĽno": 7470,
      "Ġrozka": 7471,
      "stalo": 7472,
      "mor": 7473,
      "ĠzdvÃŃ": 7474,
      "ÄįenÃ¡": 7475,
      "ĠsnÄĽti": 7476,
      "Vel": 7477,
      "Ġbabi": 7478,
      "cÃŃmi": 7479,
      "ĠdÃŃvce": 7480,
      "Ġpozdvi": 7481,
      "ĠtajemnÃ©": 7482,
      "ĠvzÃ¡cnÃ©": 7483,
      "Ode": 7484,
      "ĠposÃŃ": 7485,
      "ame": 7486,
      "Ġlep": 7487,
      "Ġprs": 7488,
      "ĠTvou": 7489,
      "ĠVÃ¡Å¡": 7490,
      "ĠlÃŃtost": 7491,
      "ĠstaletÃŃ": 7492,
      "rÅ¯v": 7493,
      "nesl": 7494,
      "ĠpohlÃ©": 7495,
      "ĠÅ¡Å¥astni": 7496,
      "ĠspoleÄįnosti": 7497,
      "lce": 7498,
      "Ġpohan": 7499,
      "celÃ½": 7500,
      "nÄĽt": 7501,
      "toho": 7502,
      "Ġodpla": 7503,
      "rÃ©ho": 7504,
      "Ġpuk": 7505,
      "ĠDi": 7506,
      "ĠdeÅ¡ti": 7507,
      "Ġhospody": 7508,
      "svÃ¡": 7509,
      "vÃŃtÃŃ": 7510,
      "cii": 7511,
      "Ġjsy": 7512,
      "ĠjasnÃ½m": 7513,
      "ĠtmavÃ¡": 7514,
      "Ġmladist": 7515,
      "Ġblud": 7516,
      "Ġstrun": 7517,
      "NeboÅ¥": 7518,
      "Ġdrahoka": 7519,
      "dol": 7520,
      "danÃ©": 7521,
      "ĠvÃŃnek": 7522,
      "ĠobÄĽti": 7523,
      "ĠdÅ¯stoj": 7524,
      "ode": 7525,
      "umÃŃ": 7526,
      "ĠstÅ¯nÄĽ": 7527,
      "dokud": 7528,
      "ĠroznÃŃ": 7529,
      "Ġtichem": 7530,
      "ĠpÅĻedtu": 7531,
      "ĠdÃ¡lnÃ½ch": 7532,
      "ĠvÄĽrnÃ¡": 7533,
      "Ġkletby": 7534,
      "Ġhezky": 7535,
      "vstÅĻÃŃc": 7536,
      "emu": 7537,
      "dor": 7538,
      "Ġhroma": 7539,
      "nesla": 7540,
      "Ġstroj": 7541,
      "Bych": 7542,
      "Ġjezera": 7543,
      "Ġpohledu": 7544,
      "ĠlÅ¯Å¾ko": 7545,
      "SlÃ¡va": 7546,
      "OÄįi": 7547,
      "bnÃ¡": 7548,
      "bnou": 7549,
      "Ġsky": 7550,
      "Ġsedla": 7551,
      "nÃŃkem": 7552,
      "nesu": 7553,
      "Ġhladi": 7554,
      "Ġjakoby": 7555,
      "ĠPÅĻe": 7556,
      "ĠpÅĻÃŃtele": 7557,
      "ĠplachÃ½": 7558,
      "ĠjejÃŃÅ¾": 7559,
      "ĠvÅ¡echna": 7560,
      "ZatÃŃm": 7561,
      "ĠtÃŃseÅĪ": 7562,
      "ĠtÃŃsni": 7563,
      "ĠspÄĽchu": 7564,
      "Ġpoklid": 7565,
      "Ġzraje": 7566,
      "Ġminulost": 7567,
      "Oko": 7568,
      "ĠsrÃ¡z": 7569,
      "ĠsrdÃ©": 7570,
      "ĠÃºsvi": 7571,
      "Ġprcha": 7572,
      "pajÃŃ": 7573,
      "ĠmetÃ¡": 7574,
      "ĠmnoÅ¾stvÃŃ": 7575,
      "vrh": 7576,
      "ĠhvÄĽzdnÃ©": 7577,
      "Ġtrosky": 7578,
      "posled": 7579,
      "ĠtÃ³n": 7580,
      "ĠÅ¾ehnÃ¡": 7581,
      "ĠÄįtve": 7582,
      "ĠVÃ¡cla": 7583,
      "tar": 7584,
      "ĠnelÃŃ": 7585,
      "ĠnahÃ¡": 7586,
      "ĠudÄĽla": 7587,
      "doval": 7588,
      "Ġmine": 7589,
      "lout": 7590,
      "milÃ¡": 7591,
      "Ġsluchu": 7592,
      "Ġrukama": 7593,
      "ĠlehkÃ½": 7594,
      "ĠvÃ¡Å¾nÃ½": 7595,
      "clo": 7596,
      "zil": 7597,
      "Ã¡jem": 7598,
      "chtÃŃ": 7599,
      "Å¥at": 7600,
      "musÃŃ": 7601,
      "ĠmuÄįÃŃ": 7602,
      "Ġniv": 7603,
      "ĠzÃ¡vod": 7604,
      "ĠruÅ¡ÃŃ": 7605,
      "Nepo": 7606,
      "Ġvraha": 7607,
      "ĠCÃŃ": 7608,
      "Ġzvedne": 7609,
      "ĠÅĻasy": 7610,
      "ĠnebezpeÄįÃŃ": 7611,
      "Ġprince": 7612,
      "pku": 7613,
      "ĠvÄįe": 7614,
      "Ġvdech": 7615,
      "ĠstkvÃŃ": 7616,
      "kan": 7617,
      "Ġmozku": 7618,
      "vejte": 7619,
      "mÃŃru": 7620,
      "ÄĮlovÄĽk": 7621,
      "ĠcÃ¡": 7622,
      "ĠbÄĽlÃ¡": 7623,
      "vraÅ¾": 7624,
      "ĠokolÃŃ": 7625,
      "Ġobrazy": 7626,
      "Ġroucha": 7627,
      "ĠVyÅ¡e": 7628,
      "ĠmÄĽsÃŃci": 7629,
      "ĠverÅ¡Å¯": 7630,
      "Ġresigna": 7631,
      "hroz": 7632,
      "sÅ¡ÃŃ": 7633,
      "tvÃŃ": 7634,
      "ĠptÃ¡m": 7635,
      "vÃ¡nÃŃm": 7636,
      "Äįeje": 7637,
      "Ġluhu": 7638,
      "ĠtichÃ½ch": 7639,
      "Ġhloubky": 7640,
      "ĠpoÅ¾ehnÃ¡": 7641,
      "Ġdoktor": 7642,
      "Ġvstala": 7643,
      "ĠdÃ¡Å¡": 7644,
      "ĠÃºtra": 7645,
      "Ġhrozi": 7646,
      "ĠMÄĽ": 7647,
      "Ġmlhou": 7648,
      "Ġleskne": 7649,
      "kvetla": 7650,
      "ĠpovÄĽst": 7651,
      "ĠubohÃ©": 7652,
      "eru": 7653,
      "ĠssÃ¡": 7654,
      "ĠnevrÃ¡tÃŃ": 7655,
      "Ġtane": 7656,
      "prve": 7657,
      "ĠmnoÅ¾ÃŃ": 7658,
      "ĠmocnÃ¡": 7659,
      "Ġkletba": 7660,
      "ĠtÅĻÃ¡s": 7661,
      "Ġzval": 7662,
      "ĠpomnÄĽ": 7663,
      "ĠnaÅ¡li": 7664,
      "ĠâĢĵ:": 7665,
      "skat": 7666,
      "pole": 7667,
      "Ġhodil": 7668,
      "ĠplÃ¡nÄĽ": 7669,
      "ĠfrÃ¡": 7670,
      "ĠznÃ¡te": 7671,
      "ĠslavnÃ½ch": 7672,
      "Ġsadu": 7673,
      "ĠÅĪÃ¡dra": 7674,
      "ĠsnoubÃŃ": 7675,
      "Ġchalou": 7676,
      "Ġprobou": 7677,
      "Ġvzo": 7678,
      "ĠpÅĻil": 7679,
      "Ġodpor": 7680,
      "ĠtvrdÃ½": 7681,
      "ĠneznÃ¡mÃ½": 7682,
      "kvi": 7683,
      "ĠdvakrÃ¡t": 7684,
      "Ġrozva": 7685,
      "ĠnÄĽkolik": 7686,
      "ĠstÃ¡vÃ¡": 7687,
      "ĠdobrÃ½ch": 7688,
      "pÃ¡ch": 7689,
      "skoÄįÃŃ": 7690,
      "ĠdÅĻÃŃma": 7691,
      "lechti": 7692,
      "ĠkrajÅ¯": 7693,
      "Ġzpola": 7694,
      "ĠtisÃŃci": 7695,
      "Ġpodu": 7696,
      "Ġpoled": 7697,
      "ĠdÄĽd": 7698,
      "Ġpranic": 7699,
      "ĠdÃŃvat": 7700,
      "ĠmÃŃjÃŃ": 7701,
      "ÄĮech": 7702,
      "ĠnejdraÅ¾Å¡ÃŃ": 7703,
      "vzduch": 7704,
      "Ġtrav": 7705,
      "ĠboÅ¾stvÃŃ": 7706,
      "Dlouho": 7707,
      "nkÅ¯": 7708,
      "nskÃ½": 7709,
      "Å¾bÃ¡": 7710,
      "Ġsel": 7711,
      "vatu": 7712,
      "Ġzaha": 7713,
      "taj": 7714,
      "Äįinou": 7715,
      "syn": 7716,
      "rii": 7717,
      "Ġtvojich": 7718,
      "ĠhorÅ¡ÃŃ": 7719,
      "ĠbrÃ¡nu": 7720,
      "ĠumÅĻel": 7721,
      "ĠulicÃŃch": 7722,
      "marnÄĽ": 7723,
      "ĠpodÄĽ": 7724,
      "ĠpokolenÃŃ": 7725,
      "tiÅ¾": 7726,
      "tisÃŃc": 7727,
      "ĠnÄĽhou": 7728,
      "ĠnÃŃtÃŃ": 7729,
      "ĠbÃŃdnÃ©": 7730,
      "ĠvÃ½smÄĽ": 7731,
      "ĠlaÅĪ": 7732,
      "Ġhrdi": 7733,
      "ĠbojÅ¯": 7734,
      "ĠnevÄĽdÄĽl": 7735,
      "ĠslouÅ¾ÃŃ": 7736,
      "ĠÅłtÄĽ": 7737,
      "Ġknize": 7738,
      "koliv": 7739,
      "ĠÅ½iÅ¾ka": 7740,
      "TÄĽch": 7741,
      "ĠvzÃŃt": 7742,
      "ĠsÃŃmÄĽ": 7743,
      "Ġvlek": 7744,
      "vÄĽtÅĻÃŃ": 7745,
      "ĠmÃ¡Å¥": 7746,
      "ĠpÅĻedsta": 7747,
      "ĠzdÃ¡la": 7748,
      "ĠklidnÃ©": 7749,
      "Ġnebla": 7750,
      "Ġgro": 7751,
      "ĠveselÃŃ": 7752,
      "ĠstÅĻÃŃbrem": 7753,
      "ĠdrobnÃ½ch": 7754,
      "ĠpsanÃŃ": 7755,
      "cÃ©": 7756,
      "Ġnepla": 7757,
      "vÃŃme": 7758,
      "ĠzÃ¡pal": 7759,
      "ĠdÄĽvu": 7760,
      "ĠzemÅĻel": 7761,
      "Ġkup": 7762,
      "ĠstarÃ½m": 7763,
      "ĠptÃ¡ky": 7764,
      "ĠÄįÃŃst": 7765,
      "ĠzÃŃral": 7766,
      "Ġpokra": 7767,
      "NÃ¡hle": 7768,
      "Ġvezdy": 7769,
      "ĠdÄĽlat": 7770,
      "Ġprsten": 7771,
      "ĠvzrÅ¯stÃ¡": 7772,
      "Rci": 7773,
      "chan": 7774,
      "Ġoprav": 7775,
      "nam": 7776,
      "dejte": 7777,
      "tovat": 7778,
      "Ġrozpa": 7779,
      "Ġlije": 7780,
      "bilo": 7781,
      "ĠpÃ¡du": 7782,
      "Ġcvr": 7783,
      "ĠkleÄįÃŃ": 7784,
      "VzpomÃŃ": 7785,
      "ckÃ©ho": 7786,
      "ĠteplÃ©": 7787,
      "Moc": 7788,
      "ĠkvÃ©st": 7789,
      "Ġshr": 7790,
      "Ġpojednou": 7791,
      "Å¥ast": 7792,
      "ĠÅ¡al": 7793,
      "ĠvÄĽdÄĽt": 7794,
      "Ġvyjde": 7795,
      "Ġmuzi": 7796,
      "ĠvojÃŃ": 7797,
      "ĠpÃŃsek": 7798,
      "Ġspor": 7799,
      "ĠÅ¾havÃ¡": 7800,
      "ĠstÄĽÅ¾ÃŃ": 7801,
      "ĠnevdÄĽ": 7802,
      "ĠvzÃ¡cnÃ½": 7803,
      "spÃŃÅ¡": 7804,
      "ĠsluneÄįnÃŃ": 7805,
      "ĠVÅ¾dyÅ¥": 7806,
      "Ġloktech": 7807,
      "Pi": 7808,
      "rodu": 7809,
      "jetÃŃ": 7810,
      "Ġdoly": 7811,
      "Ġkohou": 7812,
      "ĠmÃŃÅĻÃŃ": 7813,
      "Jednou": 7814,
      "ĠjemnÃ©": 7815,
      "Ġpolibek": 7816,
      "Ġzdali": 7817,
      "Br": 7818,
      "vÅĻe": 7819,
      "livou": 7820,
      "rdÃŃ": 7821,
      "Ġrozez": 7822,
      "ĠtiÅ¡i": 7823,
      "Ġobry": 7824,
      "ĠvodÃŃ": 7825,
      "Å¡enÃ½ch": 7826,
      "ĠtemnÃ¡": 7827,
      "ÅĻemen": 7828,
      "ĠdÅĻÃŃme": 7829,
      "Ġzbroj": 7830,
      "ĠPÃ¡nu": 7831,
      "Ven": 7832,
      "Ġzpi": 7833,
      "ÄįnÃ©ho": 7834,
      "vyso": 7835,
      "Ġlide": 7836,
      "Ġsluha": 7837,
      "stÃ¡r": 7838,
      "Ġzloby": 7839,
      "ĠbrÃ¡na": 7840,
      "stÅĻÃŃb": 7841,
      "ĠdivokÃ©": 7842,
      "Ġpevnou": 7843,
      "ĠvzdÃ¡len": 7844,
      "ĠneznÃ¡mÃ©": 7845,
      "ĠmrÃ¡ko": 7846,
      "ĠkvÃ©sti": 7847,
      "Chy": 7848,
      "ZpÃŃ": 7849,
      "tl": 7850,
      "vnou": 7851,
      "ĠzaÅ¡ep": 7852,
      "Ġuho": 7853,
      "ĠÅ¾ivou": 7854,
      "hledÃŃ": 7855,
      "ĠpustÃ¡": 7856,
      "Ġmrakem": 7857,
      "ĠobÄĽtÃŃ": 7858,
      "ĠmoudrÃ½": 7859,
      "Mla": 7860,
      "ana": 7861,
      "Ġvno": 7862,
      "ĠnevÃ¡": 7863,
      "ĠnabÃŃ": 7864,
      "dovi": 7865,
      "ĠkovÃ¡": 7866,
      "ĠvzlÃ©t": 7867,
      "Ġduma": 7868,
      "Ġrtoma": 7869,
      "Ġske": 7870,
      "ĠpodveÄįer": 7871,
      "ĠÅ¡erÃ½": 7872,
      "Ġdivem": 7873,
      "rozenÃŃ": 7874,
      "ĠsuchÃ©": 7875,
      "MÃ¡Å¡": 7876,
      "Ġdarem": 7877,
      "VidÃŃm": 7878,
      "Ġrozply": 7879,
      "ĠumÃŃrÃ¡nÃŃ": 7880,
      "dar": 7881,
      "lep": 7882,
      "Ġzatra": 7883,
      "Ġdovo": 7884,
      "Ġstarci": 7885,
      "gie": 7886,
      "ĠkvÄĽte": 7887,
      "Ġsboru": 7888,
      "PoslednÃŃ": 7889,
      "chej": 7890,
      "Ġjdem": 7891,
      "ĠopÃŃ": 7892,
      "ĠjeseÅĪ": 7893,
      "loÅ¾il": 7894,
      "Ġrozkaz": 7895,
      "ĠhlasnÄĽ": 7896,
      "ĠtulÃŃ": 7897,
      "ĠpaÅ¾e": 7898,
      "ĠPÅĻÃŃ": 7899,
      "nesou": 7900,
      "ĠdobÃ¡ch": 7901,
      "ĠjasnÃ½ch": 7902,
      "ĠtÃ¡hla": 7903,
      "Ġpaty": 7904,
      "ĠvolÃ¡m": 7905,
      "bas": 7906,
      "ĠzaÅ¡el": 7907,
      "Ġrodnou": 7908,
      "Äıas": 7909,
      "Ġrudou": 7910,
      "Ġtahy": 7911,
      "ĠprÃ¡vem": 7912,
      "ĠsvÄĽÅ¾e": 7913,
      "Ġhude": 7914,
      "Ġjala": 7915,
      "Ġtrudu": 7916,
      "ĠpohÃ¡dka": 7917,
      "ZdaÅ¾": 7918,
      "ĠotevÅĻel": 7919,
      "ĠvlÃŃdnÃ½": 7920,
      "ĠmdlÃ©": 7921,
      "ĠjakÃ©s": 7922,
      "Ġtka": 7923,
      "Ġses": 7924,
      "Ġnesk": 7925,
      "ĠuchvÃ¡": 7926,
      "potom": 7927,
      "lÃ©tla": 7928,
      "res": 7929,
      "Ġdivou": 7930,
      "ĠprÃ¡vu": 7931,
      "ĠkeÅĻi": 7932,
      "ĠhrÅ¯z": 7933,
      "ĠznaÄįÃŃ": 7934,
      "ĠpestrÃ½": 7935,
      "ĠstvoÅĻil": 7936,
      "Ġlampa": 7937,
      "ĠnevÃ½slov": 7938,
      "Oj": 7939,
      "Ġneklid": 7940,
      "Ġdoli": 7941,
      "Ġmozek": 7942,
      "Ġlest": 7943,
      "ĠvÄĽÅĻil": 7944,
      "ĠbohÅ¯m": 7945,
      "ĠBla": 7946,
      "ĠmodrÃ¡": 7947,
      "ĠdlouhÃ½m": 7948,
      "pouta": 7949,
      "ĠmyÅ¡lenka": 7950,
      "ĠmyÅ¡lÃ©nka": 7951,
      "ĠmraÄįno": 7952,
      "ĠkolÃ©bky": 7953,
      ".âĢĺ": 7954,
      "Pad": 7955,
      "Ġzrozen": 7956,
      "Ġmist": 7957,
      "Ġnos": 7958,
      "pÄĽtÃŃ": 7959,
      "budÃŃ": 7960,
      "ÄĮÃŃ": 7961,
      "ĠsÃŃtÃŃ": 7962,
      "ĠZem": 7963,
      "ĠJeÅ¾ÃŃ": 7964,
      "ĠskvÄĽlÃ½": 7965,
      "ĠpodzimnÃŃ": 7966,
      "Ou": 7967,
      "nÄįÃŃ": 7968,
      "Ġjeli": 7969,
      "vajÃŃcÃŃ": 7970,
      "vÃ©mu": 7971,
      "ĠrumÄĽ": 7972,
      "stejnÄĽ": 7973,
      "ĠpohnutÃŃ": 7974,
      "Ġtemnu": 7975,
      "ĠOl": 7976,
      "Veli": 7977,
      "Ġstud": 7978,
      "ĠoblakÅ¯": 7979,
      "ĠÄįtvrt": 7980,
      "Ġbiskup": 7981,
      "'s": 7982,
      "krÃ½vÃ¡": 7983,
      "enÃ©": 7984,
      "Ġposu": 7985,
      "tisÃŃce": 7986,
      "ĠpÅĻeje": 7987,
      "ĠÃºko": 7988,
      "sic": 7989,
      "Ġhromy": 7990,
      "Ġstrast": 7991,
      "ĠsilnÃ©": 7992,
      "ĠneboÅ¥": 7993,
      "Ġsloupy": 7994,
      "ĠtÅĻÃŃÅ¡tÃŃ": 7995,
      "ĠpÃ½chou": 7996,
      "Ġshni": 7997,
      "nÄĽjÃŃ": 7998,
      "naÅ¡e": 7999,
      "ĠdotÃ½": 8000,
      "Å¥al": 8001,
      "ĠvysÃŃ": 8002,
      "jistÃ©": 8003,
      "Ġduje": 8004,
      "ĠvidÄĽla": 8005,
      "saÅĻ": 8006,
      "ĠâĢŀâĢŀ": 8007,
      "ĠplnÃ©m": 8008,
      "ĠdÃ¡vnÃ½": 8009,
      "ĠspÃŃnÃ¡": 8010,
      "Ġstesku": 8011,
      "Ġtajemnou": 8012,
      "ĠzrÃ¡dce": 8013,
      "Ġkoruny": 8014,
      "ĠhlÃŃdÃ¡": 8015,
      "Kou": 8016,
      "ovi": 8017,
      "snÃ©m": 8018,
      "voda": 8019,
      "âĢĻ;": 8020,
      "Ġprachem": 8021,
      "tri": 8022,
      "ĠsloÅ¾il": 8023,
      "ĠkvÃŃtÃŃm": 8024,
      "Ġtrap": 8025,
      "ĠvdÄĽÄįnÄĽ": 8026,
      "Ġpolibky": 8027,
      "svobo": 8028,
      "vÄĽla": 8029,
      "voru": 8030,
      "kolÃŃ": 8031,
      "poj": 8032,
      "pohÃ¡": 8033,
      "ĠvÃŃÅĻe": 8034,
      "Ġbranou": 8035,
      "ĠvlÃ¡dce": 8036,
      "Ġdivoce": 8037,
      "enec": 8038,
      "hrÃ¡l": 8039,
      "ĠpÃ½chu": 8040,
      "Ġchvatem": 8041,
      "Ġzva": 8042,
      "nikdy": 8043,
      "nuje": 8044,
      "Ġrtem": 8045,
      "bohat": 8046,
      "Å¡ilo": 8047,
      "ÄįÃŃme": 8048,
      "hlÃŃd": 8049,
      "ctvo": 8050,
      "ĠÅĻadÄĽ": 8051,
      "ĠzÅ¯stane": 8052,
      "ĠbujnÃ½": 8053,
      "Ġfial": 8054,
      "MarnÄĽ": 8055,
      "ĠcÃŃrkve": 8056,
      "Kraj": 8057,
      "Ġpomi": 8058,
      "vaÅ¥": 8059,
      "dolÃ¡": 8060,
      "ĠkoÅĻÃŃ": 8061,
      "mÃŃsto": 8062,
      "ĠÃºdÄĽl": 8063,
      "ĠskÅĻe": 8064,
      "ĠvÅ¡emo": 8065,
      "ĠnÃ¡rody": 8066,
      "ĠzmÃ¡men": 8067,
      "ĠvÅĻelÃ©": 8068,
      "ĠdivokÃ½": 8069,
      "Ġobec": 8070,
      "Ġpovstal": 8071,
      "ÄĮasto": 8072,
      "ĠoÄįÃŃm": 8073,
      "ĠpoprvÃ©": 8074,
      "novÃ¡": 8075,
      "ĠzÃ¡Å¡Å¥": 8076,
      "ĠdÃ¡lek": 8077,
      "Jedi": 8078,
      "Ġslab": 8079,
      "Ġpustil": 8080,
      "Ġlupen": 8081,
      "Å¡ena": 8082,
      "ĠtrÄįÃŃ": 8083,
      "Ġchudo": 8084,
      "ĠzlobÄĽ": 8085,
      "ĠkrutÄĽ": 8086,
      "pln": 8087,
      "ĠÅĻekli": 8088,
      "Ġzakry": 8089,
      "ĠÄĮechÅ¯": 8090,
      "ĠokamÅ¾enÃŃ": 8091,
      "chÃ¡zejÃŃ": 8092,
      "Ġlebky": 8093,
      "Ġvrchol": 8094,
      "ĠklÃ¡Å¡ter": 8095,
      "Ġvadne": 8096,
      "ĠmlÃ¡deÅ¾": 8097,
      "ĠnÅ¯Å¾": 8098,
      "Å¡kÃ¡": 8099,
      "rag": 8100,
      "ĠmistÅĻe": 8101,
      "ĠrozvÃŃ": 8102,
      "ĠstraÅ¡nÃ©": 8103,
      "ĠstraÅ¡nÃ½": 8104,
      "Ġsmutkem": 8105,
      "ĠsnÄĽho": 8106,
      "Ġmrtvou": 8107,
      "hneÅ¡": 8108,
      "ĠnovÃ©ho": 8109,
      "ĠpalÃ¡c": 8110,
      "Tma": 8111,
      "dÅ¯m": 8112,
      "vskÃ©": 8113,
      "loso": 8114,
      "Ġhodina": 8115,
      "ĠnocÃŃch": 8116,
      "Ġodve": 8117,
      "ĠmÃ¡je": 8118,
      "Ġstavu": 8119,
      "Ġhrady": 8120,
      "ĠhvÄĽzdnÃ½": 8121,
      "Ġzvukem": 8122,
      "Ġkniha": 8123,
      "ĠpovÄĽz": 8124,
      "ĠnÃ©st": 8125,
      "daleko": 8126,
      "Kr": 8127,
      "hlÃ½ch": 8128,
      "ĠdÃŃm": 8129,
      "Ġbil": 8130,
      "ĠnachÃ½": 8131,
      "nÃ¡c": 8132,
      "ĠpÅĻÃŃsnÃ½": 8133,
      "Jedno": 8134,
      "Å¡enÃŃm": 8135,
      "ĠsuchÃ½": 8136,
      "ĠhrÃ¡la": 8137,
      "Ġsteskem": 8138,
      "Ġholubice": 8139,
      "Ġumu": 8140,
      "Ġuvad": 8141,
      "Ġtone": 8142,
      "ĠprochÃ¡": 8143,
      "Ġprosil": 8144,
      "Ġmok": 8145,
      "Ġkalu": 8146,
      "ĠBar": 8147,
      "ĠPod": 8148,
      "ĠbÄĽl": 8149,
      "Ġreka": 8150,
      "Ġkrov": 8151,
      "ĠZik": 8152,
      "Vese": 8153,
      "penÃ©": 8154,
      "Ġlehko": 8155,
      "ĠpotkÃ¡": 8156,
      "ĠzaÄįne": 8157,
      "Ġzvyku": 8158,
      "Ġstatky": 8159,
      "ĠveÄįeru": 8160,
      "bce": 8161,
      "Å¾eli": 8162,
      "Ġledu": 8163,
      "vina": 8164,
      "ĠdÃŃtek": 8165,
      "Ġnemu": 8166,
      "Ġsynem": 8167,
      "ĠmodrÃ½m": 8168,
      "Ġkousek": 8169,
      "Ġneur": 8170,
      "ĠozÃ½vÃ¡": 8171,
      "Ġskryl": 8172,
      "DvÄĽ": 8173,
      "KnÄĽ": 8174,
      "ĠvÄįely": 8175,
      "skÅ¯": 8176,
      "Ġuhas": 8177,
      "Ġvzhled": 8178,
      "Ġpadlo": 8179,
      "lÃ½vÃ¡": 8180,
      "ĠtouÅ¾ÃŃm": 8181,
      "ĠdobrÃ½m": 8182,
      "ĠvÅ¯lÃŃ": 8183,
      "veno": 8184,
      "Äįenou": 8185,
      "Ġnepohnu": 8186,
      "ĠhÅĻÃŃchem": 8187,
      "Ġvolnosti": 8188,
      "ĠhrÅ¯ze": 8189,
      "Ġsady": 8190,
      "ĠvÅĻele": 8191,
      "ĠskalnÃŃ": 8192,
      "Ġaj": 8193,
      "Ġjedu": 8194,
      "valu": 8195,
      "skak": 8196,
      "ĠzahÅĻ": 8197,
      "ĠvyÄįÃŃ": 8198,
      "Ġboky": 8199,
      "ĠÅ¾ivÃ½ch": 8200,
      "Ġpavou": 8201,
      "ĠdÄĽlo": 8202,
      "Ġhrot": 8203,
      "ĠAr": 8204,
      "ĠblÃŃzku": 8205,
      "VeÄįer": 8206,
      "Ġbledne": 8207,
      "Ġhousle": 8208,
      "ĠhoÅĻce": 8209,
      "ĠhÅ¯ry": 8210,
      "ĠJako": 8211,
      "Ġokouz": 8212,
      "ĠnavrÃ¡": 8213,
      "Ġused": 8214,
      "ĠustÃ¡nÃŃ": 8215,
      "Ġmih": 8216,
      "stavu": 8217,
      "ĠVel": 8218,
      "ĠpouhÃ¡": 8219,
      "ĠslÃ¡b": 8220,
      "ĠkÅĻiku": 8221,
      "Kdybych": 8222,
      "ĠchraÅĪ": 8223,
      "Ġzpra": 8224,
      "jede": 8225,
      "ĠÅ¡kÅ¯": 8226,
      "Ġobi": 8227,
      "paly": 8228,
      "ĠlÃŃbat": 8229,
      "ĠSvÄĽt": 8230,
      "JejÃŃ": 8231,
      "Ġcizo": 8232,
      "Ġsouzvuk": 8233,
      "Ġmrav": 8234,
      "Ġmrazi": 8235,
      "ĠÅ¾ÃŃznÃŃ": 8236,
      "ĠspÄĽchal": 8237,
      "Ġgene": 8238,
      "ĠdrÃ¡Å¾": 8239,
      "Ġzmije": 8240,
      "ĠJaro": 8241,
      "ĠtvÅ¯rÄįÃŃ": 8242,
      "mÃ½m": 8243,
      "tnÃ½m": 8244,
      "zvlÃ¡": 8245,
      "ĠsbÃŃrÃ¡": 8246,
      "Ġdoj": 8247,
      "ĠhoroucÃŃ": 8248,
      "ĠniÄįem": 8249,
      "zet": 8250,
      "ĠBet": 8251,
      "Äįkami": 8252,
      "Ġoknech": 8253,
      "ĠÄĮi": 8254,
      "ĠstÅĻÃŃbrnÃ©": 8255,
      "ĠpÃ©ro": 8256,
      "Ġlilie": 8257,
      "Be": 8258,
      "ckÃ©m": 8259,
      "th": 8260,
      "zve": 8261,
      "lekÃ¡": 8262,
      "cejÃŃ": 8263,
      "Ġprale": 8264,
      "pÄĽnÃŃ": 8265,
      "ĠdÃŃvÃ¡m": 8266,
      "ĠSta": 8267,
      "ĠnejlepÅ¡ÃŃ": 8268,
      "Ġsamy": 8269,
      "ĠbÄĽla": 8270,
      "ĠbÄĽlo": 8271,
      "ĠmnozÃŃ": 8272,
      "ĠchorÃ©": 8273,
      "ĠosvÄĽ": 8274,
      "ĠzelenÃ½": 8275,
      "Ġchalu": 8276,
      "ĠpÃ½chy": 8277,
      "ĠpsÃ¡no": 8278,
      "bku": 8279,
      "Ġsmo": 8280,
      "Ġhocha": 8281,
      "Ġkovo": 8282,
      "ĠvÃ¡hÃ¡": 8283,
      "rÅ¯stÃ¡": 8284,
      "ĠÄįlovÄĽÄįen": 8285,
      "dnÃŃk": 8286,
      "Ġstup": 8287,
      "Ġskryt": 8288,
      "Ġsnila": 8289,
      "ĠmÄĽkkÃ¡": 8290,
      "ĠhloÅ¾ÃŃ": 8291,
      "ĠdÃ¡me": 8292,
      "Äįata": 8293,
      "ĠveÅĻe": 8294,
      "taje": 8295,
      "ĠrudÃ½ch": 8296,
      "ĠSla": 8297,
      "Ġstanu": 8298,
      "Ġjsouc": 8299,
      "ĠÅ¡ÃŃj": 8300,
      "ĠtluÄįe": 8301,
      "Ġvichrem": 8302,
      "ĠKriste": 8303,
      "Ġvezmi": 8304,
      "blÃ½": 8305,
      "vÅ¡ÃŃm": 8306,
      "naje": 8307,
      "ĠmÃ¡ji": 8308,
      "ĠtÃŃÅ¾e": 8309,
      "myslil": 8310,
      "Ġtravou": 8311,
      "Ġklesne": 8312,
      "bÅĻeÅ¾ÃŃ": 8313,
      "ĠpalÃ¡ce": 8314,
      "ĠjitÅĻnÃŃ": 8315,
      "DÄĽl": 8316,
      "ĠrojÃŃ": 8317,
      "dÃ¡t": 8318,
      "pel": 8319,
      "ĠpÅĻedkÅ¯": 8320,
      "ĠbÃ¡seÅĪ": 8321,
      "ĠchutÃŃ": 8322,
      "ĠstÄĽn": 8323,
      "Ġblouzni": 8324,
      "ĠnekoneÄįnÃ©": 8325,
      "ĠandÄĽlÃ©": 8326,
      "StÃŃn": 8327,
      "Um": 8328,
      "psal": 8329,
      "vÃ¡na": 8330,
      "Ġvesni": 8331,
      "Ġduhu": 8332,
      "Ġbor": 8333,
      "biti": 8334,
      "Ġdalo": 8335,
      "ĠjednotvÃ¡": 8336,
      "ĠveselÃ½": 8337,
      "ĠstejnÃ©": 8338,
      "ĠÅĺe": 8339,
      "ĠMari": 8340,
      "Ġchladu": 8341,
      "ĠblaÅ¾enosti": 8342,
      "He": 8343,
      "mlÃ¡": 8344,
      "tvou": 8345,
      "ĠlÃ½": 8346,
      "Å¾ku": 8347,
      "ĠdÅ¾bÃ¡": 8348,
      "ĠnahÃ©": 8349,
      "ĠnajdeÅ¡": 8350,
      "ĠâĢĵ!": 8351,
      "ĠzalÃŃ": 8352,
      "poko": 8353,
      "ĠÅ¡pa": 8354,
      "byly": 8355,
      "ĠvzÅĪat": 8356,
      "Ġvysta": 8357,
      "coval": 8358,
      "stili": 8359,
      "ĠÅ¾eÅĪ": 8360,
      "Ġpadal": 8361,
      "Ġtaji": 8362,
      "ĠkabÃ¡": 8363,
      "ĠvlaÅ¡to": 8364,
      "ĠokÅĻÃŃ": 8365,
      "Ġkruhy": 8366,
      "Ġoblaka": 8367,
      "ĠmoudÅĻe": 8368,
      "ĠzaÅ¡lÃ©": 8369,
      "myÅ¡lÃ©": 8370,
      "Vlast": 8371,
      "ĠvÄĽÅĻte": 8372,
      "ÅĻÃŃme": 8373,
      "jet": 8374,
      "jezd": 8375,
      "Ġhostem": 8376,
      "bolest": 8377,
      "ĠÅĻeku": 8378,
      "ĠstarÅ¡ÃŃ": 8379,
      "skÃ¡ch": 8380,
      "skoÄįil": 8381,
      "zeno": 8382,
      "ĠbrÃ¡t": 8383,
      "Ġstudu": 8384,
      "ĠPÃ¡na": 8385,
      "Ġodevz": 8386,
      "nkÃ½": 8387,
      "nikdo": 8388,
      "veho": 8389,
      "ĠvÄĽzenÃŃ": 8390,
      "Ġvozy": 8391,
      "ĠPÃŃ": 8392,
      "mÃ¡Å¾": 8393,
      "ĠsÃŃnÃŃ": 8394,
      "ĠzloÄįin": 8395,
      "ĠchladnÃ¡": 8396,
      "Ġout": 8397,
      "Ġrakve": 8398,
      "Kterak": 8399,
      "ĠdeÅ¡tÄĽm": 8400,
      "lnÃ©": 8401,
      "ĠtkvÃŃ": 8402,
      "ĠbÅĻit": 8403,
      "Ġjesky": 8404,
      "ruÅ¡ÃŃ": 8405,
      "Ġprob": 8406,
      "vele": 8407,
      "sily": 8408,
      "ÄįenÃ½ch": 8409,
      "Ġvrh": 8410,
      "ĠhvÄĽzdu": 8411,
      "ĠkrutÃ¡": 8412,
      "ĠzvÄĽsti": 8413,
      "ĠFi": 8414,
      "ĠboÅ¾skÃ½": 8415,
      "NeÅ¾li": 8416,
      "ĠvzdechÅ¯": 8417,
      "KterÃ½": 8418,
      "ĠnenÃ¡vist": 8419,
      "Otec": 8420,
      "ÃŃnÃ¡": 8421,
      "enÃ½": 8422,
      "ĠnedÄĽli": 8423,
      "polu": 8424,
      "ĠÅ¡pÃŃ": 8425,
      "ĠÅ¡kol": 8426,
      "ĠholÃ¡": 8427,
      "Ġleje": 8428,
      "Ġvzcho": 8429,
      "ĠvÄĽdomÃŃ": 8430,
      "ĠoblÃ©": 8431,
      "ĠtakovÃ©": 8432,
      "ĠÃºbÄĽ": 8433,
      "Ġpravila": 8434,
      "Ġtanec": 8435,
      "ĠzasvÄĽ": 8436,
      "ĠlukÃ¡ch": 8437,
      "Ġstromech": 8438,
      "ĠptÃ¡Äįek": 8439,
      "Ġsamoty": 8440,
      "VzhÅ¯ru": 8441,
      "ĠhÅĻeje": 8442,
      "ĠzasmuÅ¡il": 8443,
      "HÃ¡": 8444,
      "hlad": 8445,
      "Ġzry": 8446,
      "Äįkej": 8447,
      "leÅ¥": 8448,
      "rodil": 8449,
      "ĠpromÄĽnÃŃ": 8450,
      "ĠkolÃŃ": 8451,
      "ĠvztÃ½": 8452,
      "pati": 8453,
      "mÃ¡lo": 8454,
      "vatÃ©": 8455,
      "Ġpodal": 8456,
      "Ġnejslad": 8457,
      "kdos": 8458,
      "ĠsnÄĽhy": 8459,
      "ĠmocnÃ½m": 8460,
      "ĠsilnÄĽ": 8461,
      "Ġplamenem": 8462,
      "ĠvÃŃtÄĽzÃŃ": 8463,
      "Ġpruh": 8464,
      "ĠÅ¡tÃŃty": 8465,
      "ĠzuÅĻi": 8466,
      "ĠdÄĽtskÃ½": 8467,
      "ĠnemÃ¡Å¡": 8468,
      "Ġdomova": 8469,
      "ĠhlÃŃny": 8470,
      "ĠsmyslÅ¯": 8471,
      "Ġrozumu": 8472,
      "Mnoho": 8473,
      "ĠÅ¡klebÃŃ": 8474,
      "ĠsvatebnÃŃ": 8475,
      "the": 8476,
      "Ġzabo": 8477,
      "....": 8478,
      "dÄĽn": 8479,
      "Ġskou": 8480,
      "ĠdÃŃvek": 8481,
      "ĠplachÃ©": 8482,
      "vzal": 8483,
      "ĠZde": 8484,
      "ĠstÅĻela": 8485,
      "Ġslunka": 8486,
      "NÃ¡s": 8487,
      "ĠpÅĻemÃŃ": 8488,
      "ĠzkamenÄĽ": 8489,
      "ĠznamenÃ¡": 8490,
      "De": 8491,
      "VÅ¡em": 8492,
      "ĠslÃ©t": 8493,
      "Ġmen": 8494,
      "ĠvztÃ¡": 8495,
      "dan": 8496,
      "dÃŃval": 8497,
      "Ġtakou": 8498,
      "hÃ¡Äį": 8499,
      "ĠhroznÄĽ": 8500,
      "ĠHy": 8501,
      "Dokud": 8502,
      "ĠOlym": 8503,
      "ĠstÅĻely": 8504,
      "ĠÄįÃŃhÃ¡": 8505,
      "ĠbludnÃ©": 8506,
      "ĠblÃ¡ho": 8507,
      "ĠdÄĽtskÃ½ch": 8508,
      "vnÃ¡": 8509,
      "Ġdmou": 8510,
      "strÃ¡": 8511,
      "ruce": 8512,
      "nÃ¡ÅĻ": 8513,
      "Ġdivu": 8514,
      "ĠdajÃŃ": 8515,
      "ĠusmÃ¡l": 8516,
      "ĠdÄĽtmi": 8517,
      "ĠnaÅ¡im": 8518,
      "ÄįÃ¡tko": 8519,
      "ĠpÅĻÃ¡telstvÃŃ": 8520,
      "starÃ½": 8521,
      "ĠspanilÃ¡": 8522,
      "ĠmlÃ½n": 8523,
      "nedo": 8524,
      "jed": 8525,
      "Ġzava": 8526,
      "Ġjih": 8527,
      "ĠprostÄĽ": 8528,
      "danou": 8529,
      "ĠAÅ¥": 8530,
      "ĠJsi": 8531,
      "ĠstÅĻechu": 8532,
      "ĠdÃŃvko": 8533,
      "Ġhynou": 8534,
      "Ġoblohy": 8535,
      "Ġkvas": 8536,
      "hromÃ¡Å¾": 8537,
      "ĠkoÅĻeny": 8538,
      "ĠhedbÃ¡": 8539,
      "bÃŃm": 8540,
      "ton": 8541,
      "ĠÄįekat": 8542,
      "ĠÄįisto": 8543,
      "Ġmalo": 8544,
      "ĠmaliÄį": 8545,
      "Ġmeze": 8546,
      "Ġfu": 8547,
      "Ġmyslit": 8548,
      "ĠzpÃŃvajÃŃ": 8549,
      "ĠjemnÃ½": 8550,
      "ĠkÅĻikem": 8551,
      "benÃ½": 8552,
      "Ġohla": 8553,
      "Ġdopo": 8554,
      "miÅ¾": 8555,
      "Ġskvo": 8556,
      "ĠBal": 8557,
      "mena": 8558,
      "Ġca": 8559,
      "TobÄĽ": 8560,
      "ĠhledÄĽt": 8561,
      "ĠÅĻÃŃc": 8562,
      "Ġkama": 8563,
      "ĠmarnÃ¡": 8564,
      "ĠdÅ¯kaz": 8565,
      "Ġpochod": 8566,
      "ĠpoÅ¾ehna": 8567,
      "ĠknÄĽÅ¾na": 8568,
      "SpÃŃ": 8569,
      "Ġschy": 8570,
      "ĠmÅ¯": 8571,
      "Ġpohla": 8572,
      "ĠzaÅ¡la": 8573,
      "ĠzamyÅ¡len": 8574,
      "Ġprokla": 8575,
      "mÃŃrÃ¡": 8576,
      "ĠdÃŃtko": 8577,
      "Ġzaslech": 8578,
      "Ġkusy": 8579,
      "ĠtrpÄĽl": 8580,
      "Ġmilosrd": 8581,
      "ĠhvÄĽzdo": 8582,
      "tomil": 8583,
      "ĠsterÃ©": 8584,
      "ĠpÄĽknÃ½": 8585,
      "Ġchmury": 8586,
      "ĠvÅĻava": 8587,
      "jehoÅ¾": 8588,
      "ĠpustÃ½ch": 8589,
      "BlÃŃ": 8590,
      "Mlu": 8591,
      "Å¡len": 8592,
      "ĠmnÃŃ": 8593,
      "ĠdlÃ¡": 8594,
      "ĠzapÃ¡": 8595,
      "ĠpodlÃ©": 8596,
      "bÃŃlÃ©": 8597,
      "Ġpustou": 8598,
      "jÅ¡ÃŃch": 8599,
      "ĠjejichÅ¾": 8600,
      "cÃŃmu": 8601,
      "ÅĺÃŃ": 8602,
      "Ġkameny": 8603,
      "ĠkvÄĽtin": 8604,
      "knul": 8605,
      "ĠsbÄĽ": 8606,
      "Äįu": 8607,
      "ÄįlovÄĽk": 8608,
      "ĠpÅĻeko": 8609,
      "ĠbolÅ¯": 8610,
      "tavÃ½": 8611,
      "ĠSlova": 8612,
      "Ġkoutku": 8613,
      "ĠmilÃ½m": 8614,
      "ĠhrÅ¯zu": 8615,
      "ĠobrÃ¡til": 8616,
      "ĠtÃ©mÄĽÅĻ": 8617,
      "Å¡uje": 8618,
      "las": 8619,
      "lovi": 8620,
      "ruch": 8621,
      "tostÃŃ": 8622,
      "topÃ½": 8623,
      "Å¡tÄĽn": 8624,
      "ĠBer": 8625,
      "ĠÅĻekou": 8626,
      "rin": 8627,
      "ĠhravÄĽ": 8628,
      "zujÃŃ": 8629,
      "ĠpoznÃ¡nÃŃ": 8630,
      "ĠRe": 8631,
      "Ġdivnou": 8632,
      "ĠslavnÃ¡": 8633,
      "Ġdoubra": 8634,
      "ĠdokonÃ¡": 8635,
      "ĠtuÅ¾by": 8636,
      "Klid": 8637,
      "aj": 8638,
      "Ġpso": 8639,
      "ÄįkÃ½": 8640,
      "ĠbdÄĽ": 8641,
      "net": 8642,
      "Ġzane": 8643,
      "Ġhlase": 8644,
      "ĠvojÃ¡k": 8645,
      "ĠcenÃŃ": 8646,
      "Å¾enÃ½m": 8647,
      "ĠplnÄĽ": 8648,
      "Ġhranice": 8649,
      "ĠtrvÃ¡": 8650,
      "ĠkrÃ¡lovna": 8651,
      "ĠProkop": 8652,
      "ĠvzplÃ¡l": 8653,
      "ĠrÅ¯Å¾emi": 8654,
      "rÃ½mi": 8655,
      "tvÃ½ch": 8656,
      "ĠCoÅ¾": 8657,
      "ĠvchÃ¡zÃŃ": 8658,
      "ĠbliÅ¾": 8659,
      "Ġhmy": 8660,
      "ĠvÄĽsÃŃ": 8661,
      "ĠtuÅ¡il": 8662,
      "ĠÅ¡edou": 8663,
      "ĠÄįinÅ¯m": 8664,
      "ĠbÃ¡zni": 8665,
      "ĠluznÃ©": 8666,
      "ĠmlhÃ¡ch": 8667,
      "ÅłÅ¥ast": 8668,
      "Ġmrtva": 8669,
      "ĠvrÃ¡tit": 8670,
      "Ġkyti": 8671,
      "Ġdvora": 8672,
      "ĠstÅĻÃŃbrnÃ½": 8673,
      "ĠzrÃ¡d": 8674,
      "ĠmodlitbÄĽ": 8675,
      "ĠstatnÃ½": 8676,
      "Ġotrok": 8677,
      "ĠpÅĻÃŃrodÄĽ": 8678,
      "Ġklobouk": 8679,
      "Blesk": 8680,
      "ZnÃ¡": 8681,
      "ken": 8682,
      "klou": 8683,
      "plou": 8684,
      "Ã©l": 8685,
      "Ġkvil": 8686,
      "Ġchasa": 8687,
      "ĠuvÃ¡": 8688,
      "nÃ¡l": 8689,
      "silo": 8690,
      "ĠsvojÃŃm": 8691,
      "ĠstraÅ¡nÄĽ": 8692,
      "Ġhluch": 8693,
      "ĠbÃ¡zeÅĪ": 8694,
      "Ġlada": 8695,
      "prvnÃŃ": 8696,
      "ĠmrtvÃ½m": 8697,
      "Ġzlosti": 8698,
      "ĠbudoucÃŃ": 8699,
      "Ġskutky": 8700,
      "Ġhovoru": 8701,
      "ĠzÃ¡pasu": 8702,
      "Ġzastavil": 8703,
      "StojÃŃ": 8704,
      "StarÃ½": 8705,
      "ĠpastÃ½ÅĻ": 8706,
      "LÃ©": 8707,
      "uma": 8708,
      "Ġsestro": 8709,
      "ĠneÄįi": 8710,
      "ĠstÃ¡lÃ½": 8711,
      "ĠvÅ¡echnÄĽch": 8712,
      "ĠvelkÃ©m": 8713,
      "hlav": 8714,
      "zoval": 8715,
      "Ġnepozna": 8716,
      "ĠzÅĻÃŃdka": 8717,
      "ĠstÅĻÃŃbra": 8718,
      "keÅĻ": 8719,
      "Ġskutku": 8720,
      "ĠchvÃ¡lÃŃ": 8721,
      "Ġmodlitby": 8722,
      "ĠkvÄĽtiny": 8723,
      "Ġvstoupil": 8724,
      "Ġtriumf": 8725,
      "dÅĻi": 8726,
      "sno": 8727,
      "snu": 8728,
      "vÅ¡ÃŃ": 8729,
      "Ġrosu": 8730,
      "ĠkomÃŃ": 8731,
      "Ġrcete": 8732,
      "Ġpase": 8733,
      "ĠdobÅĻÃŃ": 8734,
      "Ġdere": 8735,
      "jaly": 8736,
      "pasÅ¥": 8737,
      "ĠodeÅ¡el": 8738,
      "ĠÅ¾lutÃ½": 8739,
      "Ġzmatek": 8740,
      "Ejhle": 8741,
      "milovÃ¡nÃŃ": 8742,
      "Ġsoucitu": 8743,
      "ĠsnÅ¯m": 8744,
      "dec": 8745,
      "Ġduhy": 8746,
      "zit": 8747,
      "ĠotÅĻÃ¡": 8748,
      "Ġmodrou": 8749,
      "ĠspoÄįi": 8750,
      "vÅ¡ecky": 8751,
      "Ġtlukou": 8752,
      "SmÄĽ": 8753,
      "ĠrobÄĽ": 8754,
      "alÃ©": 8755,
      "ĠÅ¾es": 8756,
      "ĠÅ¾ehna": 8757,
      "ĠnÄĽha": 8758,
      "ĠhromÅ¯": 8759,
      "ĠpÄĽvec": 8760,
      "ĠÅĻÃŃd": 8761,
      "Ġskok": 8762,
      "Ġokovy": 8763,
      "ĠvolnÃ©": 8764,
      "ĠzelenÃ¡": 8765,
      "ĠblÃ¡to": 8766,
      "ĠJiÅ¾": 8767,
      "ĠubohÃ½": 8768,
      "Ġtrysk": 8769,
      "Ġnevinnosti": 8770,
      "ĠByl": 8771,
      "ĠÅ¾alÃ¡ÅĻ": 8772,
      "Zvu": 8773,
      "blÃ¡": 8774,
      "Å¾lu": 8775,
      "nÃŃÅ¾e": 8776,
      "ruka": 8777,
      "ĠhojnÄĽ": 8778,
      "ĠrudÃ½m": 8779,
      "Ġkara": 8780,
      "Ġsoudru": 8781,
      "Ġzvonky": 8782,
      "Ġvrahy": 8783,
      "hnej": 8784,
      "Ġhloupo": 8785,
      "Ġbarbar": 8786,
      "ĠznÄĽnÃŃ": 8787,
      "Ġvrouc": 8788,
      "Ġdomovu": 8789,
      "Ġkmeny": 8790,
      "Ġsever": 8791,
      "ĠSlovan": 8792,
      "ĠleknÃŃ": 8793,
      "Hra": 8794,
      "Ġvnik": 8795,
      "ĠponÃŃ": 8796,
      "Ġpose": 8797,
      "Ġposa": 8798,
      "hoÅĻ": 8799,
      "noÅ¡": 8800,
      "ĠusÃŃ": 8801,
      "ĠvÃŃrou": 8802,
      "Ġspl": 8803,
      "ĠÃºpÃŃ": 8804,
      "ĠpÅĻijÃŃt": 8805,
      "moh": 8806,
      "ĠPÅĻem": 8807,
      "Ġplatno": 8808,
      "ĠchorÃ½": 8809,
      "ĠsmutnÃ½ch": 8810,
      "ĠNÃ¡": 8811,
      "ĠPrav": 8812,
      "Hro": 8813,
      "SvÄĽ": 8814,
      "dÃ¡me": 8815,
      "tnost": 8816,
      "Ġech": 8817,
      "ĠmÅ¡i": 8818,
      "ĠpolnÃŃ": 8819,
      "Ġhonem": 8820,
      "ĠzÃ¡da": 8821,
      "ĠvÃŃla": 8822,
      "ĠBra": 8823,
      "ĠÅ¡epot": 8824,
      "Ġplakat": 8825,
      "ĠnejvÃŃce": 8826,
      "Ġnesli": 8827,
      "ĠcizÃ¡": 8828,
      "Å¾eni": 8829,
      "ĠJsem": 8830,
      "Ġzdech": 8831,
      "ĠoknÄĽ": 8832,
      "ĠkÅĻiÅ¡Å¥Ã¡": 8833,
      "ĠklÃŃna": 8834,
      "Ġzove": 8835,
      "ĠCti": 8836,
      "ĠGa": 8837,
      "ĠblÃ¡z": 8838,
      "Ġopustil": 8839,
      "ĠtÃ½den": 8840,
      "Ġkladou": 8841,
      "ĠchtÃŃt": 8842,
      "ĠzÃ¡stupy": 8843,
      "Ky": 8844,
      "ÅĻmi": 8845,
      "nÄĽnÃ½ch": 8846,
      "vajÃŃc": 8847,
      "Ġzanech": 8848,
      "vÃ¡no": 8849,
      "ĠvyÅ¡li": 8850,
      "ĠvodÃ¡ch": 8851,
      "Ġlov": 8852,
      "Ġkams": 8853,
      "ĠznÃ¡mo": 8854,
      "ĠpyÅ¡nÃ½": 8855,
      "ĠtÅ¯ÅĪ": 8856,
      "ĠnÃŃzkÃ©": 8857,
      "Ġnai": 8858,
      "ĠbystÅĻi": 8859,
      "dÄĽnÃ©": 8860,
      "Ġkop": 8861,
      "Ġrozhod": 8862,
      "milejÅ¡ÃŃ": 8863,
      "Ġbudeme": 8864,
      "ĠdÄĽsnÃ¡": 8865,
      "Ġrab": 8866,
      "Ġstatek": 8867,
      "ĠprÃ½Å¡tÃŃ": 8868,
      "ĠsklonÃŃ": 8869,
      "ĠcÃŃtÃŃÅ¡": 8870,
      "ĠzbabÄĽ": 8871,
      "StÃ¡l": 8872,
      "ĠSlunce": 8873,
      "ZdrÃ¡": 8874,
      "ĠzabÃŃ": 8875,
      "ĠzazpÃŃ": 8876,
      "ĠzaznÄĽl": 8877,
      "ĠÅ¡ly": 8878,
      "ves": 8879,
      "Ġrozdr": 8880,
      "ĠvÃŃsky": 8881,
      "ĠpÅĻivi": 8882,
      "Å¾ene": 8883,
      "ĠhledÄĽ": 8884,
      "Ġvrata": 8885,
      "Ġpivo": 8886,
      "hlÃ©dne": 8887,
      "ĠvichÅĻi": 8888,
      "ĠÅ¡atÄĽ": 8889,
      "ĠvalnÃ©": 8890,
      "ĠkrÅ¯pÄĽje": 8891,
      "voluce": 8892,
      "Ġvzadu": 8893,
      "ĠodÅĻÃŃkÃ¡nÃŃ": 8894,
      "ĠfarÃ¡ÅĻ": 8895,
      "Slav": 8896,
      "ZÅĻÃŃ": 8897,
      "jsa": 8898,
      "znÃ½ch": 8899,
      "Ġpasu": 8900,
      "ĠmstÃŃ": 8901,
      "lÃ¡ska": 8902,
      "Ġzadr": 8903,
      "Ġvedli": 8904,
      "byli": 8905,
      "Ġvzma": 8906,
      "ĠÄįekajÃŃ": 8907,
      "ĠPak": 8908,
      "ĠdivÃ½m": 8909,
      "ĠKdyÅ¾": 8910,
      "temnÄĽ": 8911,
      "ĠdlouhÃ©m": 8912,
      "Ġokra": 8913,
      "Ġmrtvol": 8914,
      "zÃ¡ÅĻÃŃ": 8915,
      "ĠchladnÄĽ": 8916,
      "Ġzml": 8917,
      "ĠnimiÅ¾": 8918,
      "mluvil": 8919,
      "ĠvÄĽrnou": 8920,
      "Ġrostla": 8921,
      "Ġmiliony": 8922,
      "Da": 8923,
      "bÅĻÃŃ": 8924,
      "gen": 8925,
      "Ġzdu": 8926,
      "ĠzlÃ½m": 8927,
      "jedna": 8928,
      "Ġdojat": 8929,
      "ĠhodnÄĽ": 8930,
      "Ġvysla": 8931,
      "ĠvyznÃ¡": 8932,
      "divem": 8933,
      "ĠmÃ¡jo": 8934,
      "ĠlÃ¡ny": 8935,
      "ĠranÃŃ": 8936,
      "padl": 8937,
      "ChtÄĽ": 8938,
      "ĠslunnÃ½": 8939,
      "Ġkynul": 8940,
      "ĠkonÄįÃŃ": 8941,
      "Ġzhyne": 8942,
      "desÃ¡t": 8943,
      "ĠstÃ½skÃ¡": 8944,
      "bci": 8945,
      "dÅĻe": 8946,
      "sra": 8947,
      "ĠstenÃ¡": 8948,
      "nutÃ©": 8949,
      "Ġprose": 8950,
      "dÃ¡k": 8951,
      "ĠTat": 8952,
      "syl": 8953,
      "ĠstraÅ¡ÃŃ": 8954,
      "ĠkouÅĻÃŃ": 8955,
      "ĠtÅĻesk": 8956,
      "ĠtÃ¡Å¾e": 8957,
      "ĠspÃ¡sa": 8958,
      "Hospo": 8959,
      "ĠÅ¾havÃ½ch": 8960,
      "Nikdy": 8961,
      "ĠvÄĽtvÃŃch": 8962,
      "couz": 8963,
      "Å¾ivota": 8964,
      "Ġdosa": 8965,
      "ĠÄįte": 8966,
      "Ġtok": 8967,
      "ĠpropasÅ¥": 8968,
      "ĠvÄĽstÃŃ": 8969,
      "mÄĽlÃ©": 8970,
      "ĠruÄįe": 8971,
      "Ġkapra": 8972,
      "ĠctÄĽ": 8973,
      "hlavu": 8974,
      "Ġjaru": 8975,
      "Ġchoval": 8976,
      "ĠkvÃŃtko": 8977,
      "ĠandÄĽla": 8978,
      "VidÄĽl": 8979,
      "ĠhoÅĻkÃ©": 8980,
      "ĠkvapÃŃ": 8981,
      "ĠosamÄĽlÃ½": 8982,
      "proud": 8983,
      "Ġmelodi": 8984,
      "ĠvlnobitÃŃ": 8985,
      "Bi": 8986,
      "Vr": 8987,
      "nde": 8988,
      "zam": 8989,
      "Ġpronika": 8990,
      "ĠhoÅĻel": 8991,
      "ĠvÄĽje": 8992,
      "ĠvÄĽjÃŃ": 8993,
      "ĠkrÃ¡snÄĽjÅ¡ÃŃ": 8994,
      "Ġskrov": 8995,
      "ĠSpasi": 8996,
      "ĠzpÃŃvÃ¡m": 8997,
      "Ġzrady": 8998,
      "ĠknÄĽze": 8999,
      "ĠschÅ¯": 9000,
      "ĠschrÃ¡": 9001,
      "ĠvÃ¡Å¾nÃ©": 9002,
      "ĠvÄĽrnÃ½ch": 9003,
      "ĠuÄįinil": 9004,
      "ĠpamÄĽt": 9005,
      "HvÄĽz": 9006,
      "ĠpÅĻen": 9007,
      "ĠjdÄĽte": 9008,
      "Ġudat": 9009,
      "ĠdÃ¡na": 9010,
      "ĠpÅĻiblÃŃ": 9011,
      "Ġsvla": 9012,
      "ĠvÄĽÄįna": 9013,
      "ĠspojÃŃ": 9014,
      "ĠostÅĻÃŃ": 9015,
      "ĠostrÃ©": 9016,
      "ĠznÃ¡me": 9017,
      "ĠrozkoÅ¡i": 9018,
      "ĠchvÃ¡la": 9019,
      "ĠzdravÃ½": 9020,
      "spÄĽl": 9021,
      "ĠblÃŃzka": 9022,
      "ĠvlhkÃ©": 9023,
      "ĠlÅ¯Å¾ku": 9024,
      "VÃ¡s": 9025,
      "ĠorÃ¡": 9026,
      "Ġnepra": 9027,
      "vÃ¡me": 9028,
      "nikne": 9029,
      "Ġveta": 9030,
      "Ġvypro": 9031,
      "panÃ©": 9032,
      "Ġneznal": 9033,
      "ĠlÅ¾ÃŃ": 9034,
      "Åłla": 9035,
      "Ġkamsi": 9036,
      "ĠstrÃ¡Å¾e": 9037,
      "ĠspÄĽjÃŃ": 9038,
      "ĠhrÃ¡ti": 9039,
      "Ġzjevy": 9040,
      "ĠloupeÅ¾": 9041,
      "strach": 9042,
      "ĠkaÅ¾dÃ©mu": 9043,
      "ĠPaÅĻÃŃ": 9044,
      "ĠrÅ¯Å¾ovÃ©": 9045,
      "ZemÄĽ": 9046,
      "MlÃ¡": 9047,
      "Mlad": 9048,
      "Å¾nÃ½m": 9049,
      "Å¡um": 9050,
      "raly": 9051,
      "ĠoÄįekÃ¡": 9052,
      "Ġzamra": 9053,
      "nii": 9054,
      "Ġhodo": 9055,
      "Ġrval": 9056,
      "mÄĽst": 9057,
      "Ġobsa": 9058,
      "Ġrada": 9059,
      "ĠplazÃŃ": 9060,
      "Ġzvonek": 9061,
      "Ġpozve": 9062,
      "ĠsmÄĽlÃ©": 9063,
      "ĠkeÅĻe": 9064,
      "Ġzvedl": 9065,
      "Ġvysch": 9066,
      "ĠveÄįerem": 9067,
      "pti": 9068,
      "slÃŃm": 9069,
      "run": 9070,
      "Ġvzor": 9071,
      "ĠvÄĽzÃŃ": 9072,
      "ĠvÄĽtev": 9073,
      "Ġvym": 9074,
      "ĠvylÃŃ": 9075,
      "Ġoddechu": 9076,
      "ĠÃºpa": 9077,
      "ĠBi": 9078,
      "ĠvÃ½slu": 9079,
      "ĠÅ¡Å¥astna": 9080,
      "vlast": 9081,
      "Ġopojen": 9082,
      "Ġvelkole": 9083,
      "Ah": 9084,
      "SmÃŃ": 9085,
      "obÄĽ": 9086,
      "ovÃ½": 9087,
      "ÅĻeÄį": 9088,
      "vÃŃtÄĽ": 9089,
      "ĠveÅ¡la": 9090,
      "dÄĽlÃŃ": 9091,
      "Ġrozmil": 9092,
      "ĠÅ¾ilo": 9093,
      "ĠnÄĽkam": 9094,
      "hujÃŃ": 9095,
      "ĠbÃŃti": 9096,
      "ĠpÅ¯da": 9097,
      "Ġmocnou": 9098,
      "ĠjedenkrÃ¡t": 9099,
      "ĠlehkÃ©": 9100,
      "ĠradostnÄĽ": 9101,
      "Ġhluboka": 9102,
      "Ġmodlitbou": 9103,
      "ĠpÅĻemÃ½Å¡": 9104,
      "Ġmdloby": 9105,
      "Ġvztekem": 9106,
      "knou": 9107,
      "rnost": 9108,
      "ĠkÅ¯Å¾e": 9109,
      "host": 9110,
      "nicky": 9111,
      "are": 9112,
      "Ġvydal": 9113,
      "Ġston": 9114,
      "ĠposvÃ¡t": 9115,
      "ceno": 9116,
      "Å¡enou": 9117,
      "ÄįenÃŃm": 9118,
      "ĠslyÅ¡te": 9119,
      "Ġplesem": 9120,
      "ĠsnivÄĽ": 9121,
      "Ġmilence": 9122,
      "Ġprostoru": 9123,
      "Ġosudem": 9124,
      "smÃŃch": 9125,
      "Dech": 9126,
      "Jste": 9127,
      "Å¡no": 9128,
      "lis": 9129,
      "Ġvej": 9130,
      "ĠvydÃ¡": 9131,
      "ĠdumÃ¡ch": 9132,
      "dajÃŃcÃŃ": 9133,
      "NaÅ¡e": 9134,
      "Ġpodla": 9135,
      "ĠnejlÃŃp": 9136,
      "ĠpÅ¯li": 9137,
      "ĠtÃ¡hly": 9138,
      "Ġdcero": 9139,
      "ĠtajnÃ½": 9140,
      "vlas": 9141,
      "ĠnÄĽÅ¾nÄĽ": 9142,
      "ĠprÅ¯vodu": 9143,
      "Ġtvrdou": 9144,
      "ĠmdlÃ¡": 9145,
      "Ġpovzdech": 9146,
      "ĠveÅ¡ker": 9147,
      "Kri": 9148,
      "kÃ¡me": 9149,
      "Ġillu": 9150,
      "Ġust": 9151,
      "Ġroman": 9152,
      "vinÄĽ": 9153,
      "ĠbujÃŃ": 9154,
      "ĠÃºle": 9155,
      "Ġjedle": 9156,
      "ĠbÃŃdnÄĽ": 9157,
      "ĠpÄĽny": 9158,
      "Ġdruhem": 9159,
      "ĠsvÄĽtÃŃ": 9160,
      "Ġmnohem": 9161,
      "Ġchoro": 9162,
      "ÄįnÃŃk": 9163,
      "KterÃ©": 9164,
      "ĠuÅ¡lechti": 9165,
      "Ġhotov": 9166,
      "kna": 9167,
      "zÅĻe": 9168,
      "rodi": 9169,
      "ĠvÄĽdo": 9170,
      "ĠnÃ¡la": 9171,
      "ĠtuhÃ½": 9172,
      "Ġkanou": 9173,
      "menÃ¡": 9174,
      "ĠKam": 9175,
      "Ġoknu": 9176,
      "ĠÄįÃŃsti": 9177,
      "Å½ivo": 9178,
      "Ġzelena": 9179,
      "slyÅ¡ÃŃ": 9180,
      "ĠskvÄĽlÃ©": 9181,
      "hroma": 9182,
      "ĠÃºtÄĽchu": 9183,
      "MnohÃ½": 9184,
      "CelÃ½": 9185,
      "pte": 9186,
      "Ġsno": 9187,
      "ĠvÃŃÅ¾e": 9188,
      "Ġoble": 9189,
      "Ġteh": 9190,
      "staly": 9191,
      "Ġtance": 9192,
      "ĠvÃ¡leÄį": 9193,
      "ĠÅ¡edÃ½ch": 9194,
      "pily": 9195,
      "ĠstrastÃŃ": 9196,
      "Ġfran": 9197,
      "ĠzÅĻÃŃtel": 9198,
      "ĠÅ¾alosti": 9199,
      "ĠjarnÃŃch": 9200,
      "ÃºsmÄĽ": 9201,
      "ĠhoÅĻkÃ½": 9202,
      "ĠpestrÃ½ch": 9203,
      "ĠideÃ¡l": 9204,
      "ctva": 9205,
      "dlu": 9206,
      "Ġzajde": 9207,
      "panÃŃ": 9208,
      "ĠTÃ¡": 9209,
      "ĠvÃ½stra": 9210,
      "ĠlouÄįÃŃ": 9211,
      "Ġkrajiny": 9212,
      "ĠvÃŃtÄĽznÃ½": 9213,
      "ĠlÅ¯na": 9214,
      "Ġvzdechem": 9215,
      "ĠrajskÃ©": 9216,
      "ĠpenÃŃz": 9217,
      "!?": 9218,
      "ZpÄĽv": 9219,
      "hel": 9220,
      "Å¡nÃ©m": 9221,
      "Ġnachu": 9222,
      "hody": 9223,
      "jista": 9224,
      "davÄĽ": 9225,
      "Ġrozkvet": 9226,
      "Ġbur": 9227,
      "ĠprvnÄĽ": 9228,
      "papr": 9229,
      "bajÃŃ": 9230,
      "ĠpÃŃÅ¡Å¥": 9231,
      "Ġsype": 9232,
      "bÃ¡k": 9233,
      "ĠmeÄįi": 9234,
      "Ġnepokoj": 9235,
      "ĠznÄĽjÃŃ": 9236,
      "ĠÅ¾havou": 9237,
      "Ġstatku": 9238,
      "ĠÅ¾ivlÅ¯": 9239,
      "ĠzÃ¡vist": 9240,
      "rovat": 9241,
      "ĠoÅĻi": 9242,
      "ĠstmÃŃvÃ¡": 9243,
      "tichu": 9244,
      "viÄįka": 9245,
      "ĠskÃ½": 9246,
      "ĠTvÃ©ho": 9247,
      "Ġstopu": 9248,
      "ĠdrazÃŃ": 9249,
      "ĠchutÄĽ": 9250,
      "ĠÅ¡umu": 9251,
      "ĠztratÃŃ": 9252,
      "Ġperla": 9253,
      "ĠdruhÃ½m": 9254,
      "ĠzmÄĽny": 9255,
      "ĠsedlÃ¡": 9256,
      "ĠpÅ¯jdem": 9257,
      "ĠkalnÃ©": 9258,
      "Ġvzteku": 9259,
      "SvÅ¯j": 9260,
      "Zak": 9261,
      "ano": 9262,
      "Ġuleh": 9263,
      "stin": 9264,
      "ĠrozpÃ¡": 9265,
      "ĠniÄįÃŃ": 9266,
      "Ġpast": 9267,
      "ĠÃºÄį": 9268,
      "ĠmÃ¡lem": 9269,
      "Neu": 9270,
      "anÅ¯": 9271,
      "Ġnemy": 9272,
      "ĠstÃŃnech": 9273,
      "Ġsmuten": 9274,
      "ĠÅ¡ibeni": 9275,
      "ĠhrÃ¡ly": 9276,
      "ĠbrÃ¡nÄĽ": 9277,
      "krok": 9278,
      "ĠchvÃ¡ly": 9279,
      "ĠÃºtÄĽchy": 9280,
      "Ġplachty": 9281,
      "Vl": 9282,
      "pjal": 9283,
      "spÃ¡": 9284,
      "zena": 9285,
      "ĠvÅĻel": 9286,
      "Ġvhod": 9287,
      "ĠmÅĻÃŃt": 9288,
      "ram": 9289,
      "Ġjinam": 9290,
      "Ġrvou": 9291,
      "mÄĽlÃ½": 9292,
      "ĠtÄĽsnÄĽ": 9293,
      "ĠvÅ¡ecek": 9294,
      "ĠnÄĽmÄĽ": 9295,
      "Ġskrz": 9296,
      "ĠTvÃ©m": 9297,
      "ĠSatan": 9298,
      "ĠvlastÃŃ": 9299,
      "ĠmilÃ½ch": 9300,
      "ĠÅ¡ÃŃlÃŃ": 9301,
      "Ġvlasten": 9302,
      "Ġlouky": 9303,
      "budeÅ¡": 9304,
      "zkad": 9305,
      "Jaro": 9306,
      "ĠspÅĻÃ¡dÃ¡": 9307,
      "',": 9308,
      "ĠvkrÃ¡": 9309,
      "ĠkÅĻ": 9310,
      "ĠdÃ³": 9311,
      "nalo": 9312,
      "Ġutk": 9313,
      "asi": 9314,
      "ĠÅ¾ezlo": 9315,
      "meÄį": 9316,
      "Ġvozu": 9317,
      "ĠrÃ¡nÄĽ": 9318,
      "hlaho": 9319,
      "Ġmodli": 9320,
      "Ġspolku": 9321,
      "ĠmlÄįel": 9322,
      "ĠsvÃŃjÃŃ": 9323,
      "ĠlÃ©k": 9324,
      "vraÅ¥": 9325,
      "Ġhrdle": 9326,
      "ĠchvÃ¡le": 9327,
      "zved": 9328,
      "ĠpomÃ¡": 9329,
      "Ġnet": 9330,
      "hoÅĻe": 9331,
      "ĠdoÅ¡el": 9332,
      "ĠvzpÃŃnÃ¡": 9333,
      "daÅĻÃŃ": 9334,
      "ĠnoÄįnÃŃm": 9335,
      "Å¡iti": 9336,
      "ĠpÅĻiÅ¡ly": 9337,
      "ĠPar": 9338,
      "meny": 9339,
      "ĠsÃŃÅ¥": 9340,
      "ĠkouÅĻ": 9341,
      "ĠodpoÄįÃŃvÃ¡": 9342,
      "ĠveselÃ©": 9343,
      "ĠFau": 9344,
      "Ġzvykem": 9345,
      "Ġzbytky": 9346,
      "ĠpalÄįi": 9347,
[...]
