{
  "version": "1.0",
  "truncation": null,
  "padding": null,
  "added_tokens": [
    {
      "id": 0,
      "content": "<|endoftext|>",
      "single_word": false,
      "lstrip": false,
      "rstrip": false,
      "normalized": false,
      "special": true
    }
  ],
  "normalizer": null,
  "pre_tokenizer": {
    "type": "ByteLevel",
    "add_prefix_space": false,
    "trim_offsets": true,
    "use_regex": true
  },
  "post_processor": {
    "type": "ByteLevel",
    "add_prefix_space": true,
    "trim_offsets": false,
    "use_regex": true
  },
  "decoder": {
    "type": "ByteLevel",
    "add_prefix_space": true,
    "trim_offsets": true,
    "use_regex": true
  },
  "model": {
    "type": "BPE",
    "dropout": null,
    "unk_token": null,
    "continuing_subword_prefix": null,
    "end_of_word_suffix": null,
    "fuse_unk": false,
    "byte_fallback": false,
    "vocab": {
      "<|endoftext|>": 0,
      "!": 1,
      "#": 2,
      ",": 3,
      ".": 4,
      "0": 5,
      "1": 6,
      "2": 7,
      "3": 8,
      "4": 9,
      "5": 10,
      "6": 11,
      "7": 12,
      "8": 13,
      "9": 14,
      "?": 15,
      "A": 16,
      "B": 17,
      "C": 18,
      "D": 19,
      "E": 20,
      "F": 21,
      "G": 22,
      "H": 23,
      "J": 24,
      "N": 25,
      "T": 26,
      "X": 27,
      "Y": 28,
      "[": 29,
      "]": 30,
      "a": 31,
      "b": 32,
      "c": 33,
      "d": 34,
      "e": 35,
      "f": 36,
      "g": 37,
      "h": 38,
      "i": 39,
      "j": 40,
      "k": 41,
      "l": 42,
      "m": 43,
      "n": 44,
      "o": 45,
      "p": 46,
      "q": 47,
      "r": 48,
      "s": 49,
      "t": 50,
      "u": 51,
      "v": 52,
      "w": 53,
      "x": 54,
      "y": 55,
      "z": 56,
      "¡": 57,
      "¤": 58,
      "¥": 59,
      "©": 60,
      "¯": 61,
      "³": 62,
      "¶": 63,
      "º": 64,
      "¼": 65,
      "½": 66,
      "¾": 67,
      "Ã": 68,
      "Ä": 69,
      "Å": 70,
      "Ċ": 71,
      "Ġ": 72,
      "Ī": 73,
      "į": 74,
      "ı": 75,
      "Ļ": 76,
      "Ľ": 77,
      "Ń": 78,
      "Ġn": 79,
      "Ġ#": 80,
      "Ġs": 81,
      "Ġv": 82,
      "ÃŃ": 83,
      "Ġt": 84,
      "Ġk": 85,
      "Ã¡": 86,
      "Ġd": 87,
      "Ġl": 88,
      "Ġj": 89,
      "Ġp": 90,
      "Ġm": 91,
      "ÄĽ": 92,
      "ĠÅ": 93,
      "Ġz": 94,
      "Ġb": 95,
      "Ġc": 96,
      "Ġh": 97,
      "Ã½": 98,
      "Ã©": 99,
      "10": 100,
      "ou": 101,
      "Ġst": 102,
      "Ġr": 103,
      "Ġa": 104,
      "Ġse": 105,
      "Äį": 106,
      "Ġje": 107,
      "11": 108,
      "Ġne": 109,
      "ÅĻ": 110,
      "ĠÅ¾": 111,
      "Ġna": 112,
      "ch": 113,
      "ĠÅ¡": 114,
      "Å¾": 115,
      "ĠÄį": 116,
      "Ġo": 117,
      "Ġpo": 118,
      "Å¯": 119,
      "em": 120,
      "Ġch": 121,
      "ĠnÃŃ": 122,
      "Å¡": 123,
      "la": 124,
      "ra": 125,
      "ak": 126,
      "Ġho": 127,
      "Ġli": 128,
      "Ġle": 129,
      "Ġko": 130,
      "ĠÅĻ": 131,
      "Ġce": 132,
      "Ġla": 133,
      "Ġte": 134,
      "ĠnÄĽ": 135,
      "Ġti": 136,
      "Ġsv": 137,
      "Ġto": 138,
      "ro": 139,
      "Ġza": 140,
      "Ġby": 141,
      "Ġdo": 142,
      "ĠÅ¾e": 143,
      "Ġka": 144,
      "ĠnÃ½": 145,
      "le": 146,
      "ĠnÃ¡": 147,
      "ĠjÃŃ": 148,
      "ĠpÅĻ": 149,
      "Ġ1": 150,
      "rÃ¡": 151,
      "Ġno": 152,
      "ĠnÃ©": 153,
      "Ġmi": 154,
      "Ġva": 155,
      "Ġji": 156,
      "Ġlo": 157,
      "st": 158,
      "Ġta": 159,
      "Ġve": 160,
      "Ġku": 161,
      "AB": 162,
      "Ġu": 163,
      "Ġni": 164,
      "Ġro": 165,
      "Ġsl": 166,
      "ĠvÃ¡": 167,
      "Ġky": 168,
      "ĠvÄĽ": 169,
      "XX": 170,
      "Ġmu": 171,
      "ĠÅ¡e": 172,
      "Ġvy": 173,
      "Ġkd": 174,
      "ĠtÄĽ": 175,
      "ĠvÅ¡": 176,
      "ĠtÃŃ": 177,
      "Ġde": 178,
      "Ġdu": 179,
      "Ġsk": 180,
      "12": 181,
      "il": 182,
      "ĠvÃŃ": 183,
      "ĠÄįe": 184,
      "ĠdÄĽ": 185,
      "Ġvo": 186,
      "Ġjs": 187,
      "Ġjak": 188,
      "Ġmo": 189,
      "Ġnou": 190,
      "ĠdÃŃ": 191,
      "Ġnu": 192,
      "Ġda": 193,
      "Ġpa": 194,
      "Ġze": 195,
      "ĠmÄĽ": 196,
      "Ġbo": 197,
      "Ġtu": 198,
      "Ġme": 199,
      "ĠdÃ¡": 200,
      "Ġja": 201,
      "Ġci": 202,
      "Ġru": 203,
      "Ġpro": 204,
      "Ġma": 205,
      "Ġvi": 206,
      "Ġsta": 207,
      "Ġ18": 208,
      "Ġsti": 209,
      "Ġny": 210,
      "ÅĻe": 211,
      "ĠÅ¡ÃŃ": 212,
      "Ġbe": 213,
      "ĠcÃŃ": 214,
      "Ġtv": 215,
      "ĠÅĻe": 216,
      "13": 217,
      "Ġly": 218,
      "ĠJ": 219,
      "ĠÄįÃŃ": 220,
      "Ã½ch": 221,
      "Ġdi": 222,
      "Ġco": 223,
      "Ġvz": 224,
      "ne": 225,
      "ĠlÃŃ": 226,
      "Ġsp": 227,
      "lo": 228,
      "Å¥": 229,
      "Ġ19": 230,
      "ĠpÅĻe": 231,
      "Ġdy": 232,
      "Ġra": 233,
      "Ġsi": 234,
      "Ġjen": 235,
      "ÅĻÃŃ": 236,
      "ĠmÃ¡": 237,
      "ĠÄįi": 238,
      "ĠkÃ¡": 239,
      "li": 240,
      "Ġjsem": 241,
      "Ġkdy": 242,
      "ĠÅ¾ÃŃ": 243,
      "Ã½m": 244,
      "ĠÅĻÃŃ": 245,
      "ĠÅ¾i": 246,
      "Ġty": 247,
      "Ġbu": 248,
      "lÃ¡": 249,
      "vÄĽ": 250,
      "ru": 251,
      "Ġi": 252,
      "ĠlÃ¡": 253,
      "nÄĽ": 254,
      "ĠrÃ¡": 255,
      "ĠkrÃ¡": 256,
      "ĠvÃ©": 257,
      "Ġtak": 258,
      "Ġzd": 259,
      "ĠT": 260,
      "Ġha": 261,
      "ĠbÄĽ": 262,
      "Ġsm": 263,
      "ĠvÅ¡e": 264,
      "ĠmÃŃ": 265,
      "Ġhla": 266,
      "lu": 267,
      "ĠstÃŃ": 268,
      "ĠvÃ½": 269,
      "Ġsa": 270,
      "Ġzv": 271,
      "Ġba": 272,
      "Ġsn": 273,
      "ĠsvÄĽ": 274,
      "Ġkou": 275,
      "ĠtÃ©": 276,
      "ĠkÃ©": 277,
      "ĠsÃŃ": 278,
      "ĠpÅĻi": 279,
      "ĠtÃ¡": 280,
      "ĠÅ¡i": 281,
      "Ġhu": 282,
      "ĠzÃ¡": 283,
      "XXXX": 284,
      "Ġlu": 285,
      "Ġhle": 286,
      "Ġpe": 287,
      "Ġpra": 288,
      "lÃŃ": 289,
      "Äı": 290,
      "ĠÃ": 291,
      "Ġsy": 292,
      "Ġmy": 293,
      "Ġod": 294,
      "Ġpr": 295,
      "Ġtr": 296,
      "ĠlÃ©": 297,
      "Ġvu": 298,
      "ĠkdyÅ¾": 299,
      "ABAB": 300,
      "ĠjÃ¡": 301,
      "ÅĪ": 302,
      "ĠvÅ¡ak": 303,
      "Ġval": 304,
      "Ġchu": 305,
      "Ġkr": 306,
      "Ġvt": 307,
      "vÃŃ": 308,
      "Ġkem": 309,
      "XA": 310,
      "Ġroz": 311,
      "ĠsvÃ©": 312,
      "ĠnÃ½ch": 313,
      "ĠÅĻi": 314,
      "ĠhÃ¡": 315,
      "Ġsla": 316,
      "Ġcho": 317,
      "ĠbÃŃ": 318,
      "Ġry": 319,
      "ĠkÅ¯": 320,
      "Ġvp": 321,
      "Ġsu": 322,
      "lou": 323,
      "Ġvs": 324,
      "Ġso": 325,
      "Ġf": 326,
      "Å¯j": 327,
      "ĠstÃ¡": 328,
      "Ġsto": 329,
      "Ġzp": 330,
      "ĠpÃŃ": 331,
      "Ġbyl": 332,
      "Ġten": 333,
      "ĠpÃ¡": 334,
      "ABB": 335,
      "te": 336,
      "rd": 337,
      "no": 338,
      "al": 339,
      "ĠkÃ½": 340,
      "ĠzÃŃ": 341,
      "Ġtam": 342,
      "Ġkde": 343,
      "ĠpÅĻÃŃ": 344,
      "16": 345,
      "Ġhy": 346,
      "Ġre": 347,
      "ĠpÄĽ": 348,
      "ĠsÃ¡": 349,
      "Ġbi": 350,
      "ĠnÃ½m": 351,
      "Ġzn": 352,
      "ĠlÃ½": 353,
      "Ġpu": 354,
      "15": 355,
      "ĠÄįa": 356,
      "Ġtem": 357,
      "Ġste": 358,
      "lÃ©": 359,
      "Ġ189": 360,
      "Ġpak": 361,
      "ĠÃº": 362,
      "Ġbra": 363,
      "ĠnÃŃm": 364,
      "Ġlem": 365,
      "Ġtou": 366,
      "Ġvd": 367,
      "Ġsrd": 368,
      "14": 369,
      "tÄĽ": 370,
      "ÅĻi": 371,
      "Ġdou": 372,
      "Ġslo": 373,
      "Ġe": 374,
      "Ġkla": 375,
      "ĠjiÅ¾": 376,
      "Ġpla": 377,
      "Ġnad": 378,
      "Ġbou": 379,
      "Ġkte": 380,
      "Ġzu": 381,
      "Ġslu": 382,
      "Ġ188": 383,
      "ĠdÄĽl": 384,
      "ĠmÃ©": 385,
      "Ġvou": 386,
      "Ġdv": 387,
      "ĠjeÅ¾": 388,
      "ĠÅ¡el": 389,
      "Ġcha": 390,
      "ĠdÃ©": 391,
      "ĠvÅ¾": 392,
      "ĠtÃ½": 393,
      "Ġnn": 394,
      "Ġsem": 395,
      "dy": 396,
      "Ġvla": 397,
      "Ġ190": 398,
      "ĠdÃ½": 399,
      "Ġbez": 400,
      "ĠpÅĻed": 401,
      "Ġsou": 402,
      "Ġg": 403,
      "Ġmne": 404,
      "Ġstra": 405,
      "Ġhr": 406,
      "Ġpl": 407,
      "Ġzra": 408,
      "ĠbÃ¡": 409,
      "Ġvk": 410,
      "Ġzas": 411,
      "Ġzb": 412,
      "ad": 413,
      "Ġhro": 414,
      "Ġbr": 415,
      "Ġchy": 416,
      "Ġstu": 417,
      "ni": 418,
      "Ġzm": 419,
      "Ġpod": 420,
      "Ġhou": 421,
      "ĠprÃ¡": 422,
      "Ġzi": 423,
      "AABB": 424,
      "Ġden": 425,
      "Ġkdo": 426,
      "Å¯m": 427,
      "ĠÄįer": 428,
      "Ġdla": 429,
      "Ġdra": 430,
      "Ġpi": 431,
      "Ġzo": 432,
      "Ġlou": 433,
      "Ġspo": 434,
      "Ġjest": 435,
      "Ġkle": 436,
      "Ġzla": 437,
      "Ġpou": 438,
      "ĠtÅĻe": 439,
      "ĠvÅ¾dy": 440,
      "Ġon": 441,
      "CC": 442,
      "me": 443,
      "Ġjich": 444,
      "ĠskÃ©": 445,
      "ĠjenÅ¾": 446,
      "ĠtÃŃm": 447,
      "ĠaÅ¾": 448,
      "ĠchÃ¡": 449,
      "ce": 450,
      "Ġvr": 451,
      "Ġsle": 452,
      "Ġdal": 453,
      "ĠnÃ¡m": 454,
      "ĠbÃ½": 455,
      "ĠlÃ¡s": 456,
      "ĠrÃ©": 457,
      "Ġjed": 458,
      "Ġvil": 459,
      "ĠtvÃ¡": 460,
      "Ġdr": 461,
      "Ġsly": 462,
      "Ġhra": 463,
      "ĠjeÅ¡": 464,
      "Ġvel": 465,
      "Ġnem": 466,
      "Ġsvou": 467,
      "ĠkaÅ¾": 468,
      "Ġdl": 469,
      "ĠmÅ¯": 470,
      "Ġdem": 471,
      "Ġsva": 472,
      "ĠstÄĽ": 473,
      "ĠteÄı": 474,
      "Ġvm": 475,
      "XAXA": 476,
      "ĠkvÄĽ": 477,
      "Ġjej": 478,
      "ĠrÅ¯": 479,
      "nÃŃ": 480,
      "ĠmnÄĽ": 481,
      "Ġkv": 482,
      "ĠÃ³": 483,
      "Ġtil": 484,
      "ĠmÅ¯j": 485,
      "ĠnÃ©m": 486,
      "Ġdru": 487,
      "Ġzk": 488,
      "Ġstr": 489,
      "Ġke": 490,
      "Ġnul": 491,
      "Ġbla": 492,
      "je": 493,
      "Ġzy": 494,
      "Ġsvo": 495,
      "Ġ192": 496,
      "ĠÅ¾Ã¡": 497,
      "Ġsnad": 498,
      "Ġvra": 499,
      "Ġdne": 500,
      "ĠvÃ¡m": 501,
      "Ġbych": 502,
      "ĠvÅ¡ech": 503,
      "Ġzt": 504,
      "ĠN": 505,
      "Ġkra": 506,
      "Ġble": 507,
      "Ġhe": 508,
      "ĠstvÃŃ": 509,
      "Ġvst": 510,
      "Ġmr": 511,
      "ĠvÅ¯": 512,
      "Ġmou": 513,
      "ĠuÅ¾": 514,
      "Ġneb": 515,
      "ĠrÃ½": 516,
      "Ġjsou": 517,
      "Ġvh": 518,
      "Ġlid": 519,
      "ĠsÃ¡m": 520,
      "ĠneÅ¾": 521,
      "Ġdil": 522,
      "Ġrou": 523,
      "Ġvl": 524,
      "Ġnej": 525,
      "Ġvzd": 526,
      "Ġkli": 527,
      "ĠplÃ¡": 528,
      "Ġdle": 529,
      "Ġzh": 530,
      "Ġzem": 531,
      "Ġkro": 532,
      "Ġju": 533,
      "ĠstÅĻe": 534,
      "ĠhÃ½": 535,
      "Ġnost": 536,
      "ĠmÄĽl": 537,
      "Ġmra": 538,
      "Ġzde": 539,
      "Ġvb": 540,
      "ly": 541,
      "Ġtel": 542,
      "XXXXXX": 543,
      "Ġstro": 544,
      "Ġstou": 545,
      "ĠaÅ¥": 546,
      "Ġpy": 547,
      "ĠhÃ©": 548,
      "Ġjem": 549,
      "Ġtra": 550,
      "Ġstv": 551,
      "ĠchvÃŃ": 552,
      "ĠsvÄĽt": 553,
      "Ġnech": 554,
      "Ġtom": 555,
      "Ġmlu": 556,
      "ĠzdÃ¡": 557,
      "Ġtvo": 558,
      "Ġob": 559,
      "Ġchem": 560,
      "vÄĽz": 561,
      "Ġtro": 562,
      "Ġhne": 563,
      "Ġmno": 564,
      "ĠtvÃ©": 565,
      "ĠdÅ¯": 566,
      "ĠbÅ¯": 567,
      "ut": 568,
      "ĠvÅ¡ec": 569,
      "Ġvot": 570,
      "Ġtek": 571,
      "Ġsli": 572,
      "Ġdlou": 573,
      "Ġhned": 574,
      "Ġsmr": 575,
      "Ġ193": 576,
      "Ġkol": 577,
      "ĠnÅ¯": 578,
      "Ġhlu": 579,
      "Ġjsi": 580,
      "ĠkrÃ¡s": 581,
      "ĠhvÄĽz": 582,
      "Ġkam": 583,
      "ĠnÄĽj": 584,
      "Ġpt": 585,
      "Ġslun": 586,
      "ĠsnÃŃ": 587,
      "Ġnic": 588,
      "Ġsh": 589,
      "Ġmla": 590,
      "Ġjsme": 591,
      "ĠnÃ¡s": 592,
      "ĠcÃŃch": 593,
      "Ġjd": 594,
      "ĠchtÄĽ": 595,
      "Ġvat": 596,
      "ĠÅ¾il": 597,
      "Ġmoc": 598,
      "Ġrem": 599,
      "Ġml": 600,
      "Ġklo": 601,
      "Ġjim": 602,
      "ĠtÅ¯": 603,
      "Ġsil": 604,
      "Ġnik": 605,
      "ĠskÃ¡": 606,
      "Ġnes": 607,
      "ĠbÅĻe": 608,
      "ĠkÅĻÃŃ": 609,
      "ĠÄįil": 610,
      "ĠvÅĻe": 611,
      "Ġks": 612,
      "Ġpoz": 613,
      "Ġzvo": 614,
      "Ġcy": 615,
      "vÃ¡": 616,
      "Ġdnes": 617,
      "ĠÅ¡le": 618,
      "ĠvÃŃc": 619,
      "Ġ187": 620,
      "ĠvÃŃm": 621,
      "Ġmat": 622,
      "ĠchvÄĽ": 623,
      "ĠlÅ¯": 624,
      "Ġvem": 625,
      "Ġzlo": 626,
      "ĠvÃ½m": 627,
      "ĠznÃ¡": 628,
      "nou": 629,
      "ĠÅ¡tÄĽ": 630,
      "ĠbrÃ¡": 631,
      "ĠslÃ¡": 632,
      "ĠÅ¾a": 633,
      "ĠtÅĻÃŃ": 634,
      "ĠtÃ©Å¾": 635,
      "Ġzda": 636,
      "Ġkal": 637,
      "om": 638,
      "Ġsty": 639,
      "Ġkl": 640,
      "ĠkrÃ¡t": 641,
      "ĠblÃŃ": 642,
      "Ġnez": 643,
      "Ġslad": 644,
      "Ġdiv": 645,
      "ĠdÃ¡l": 646,
      "Ġri": 647,
      "Ġmen": 648,
      "ABC": 649,
      "Ġjas": 650,
      "ĠsmÄĽ": 651,
      "Ġnil": 652,
      "ĠvÄĽÄį": 653,
      "ste": 654,
      "Ġjste": 655,
      "ĠÅĪ": 656,
      "ĠzpÄĽ": 657,
      "Ġpil": 658,
      "Ġdn": 659,
      "Ġsko": 660,
      "Ġtla": 661,
      "sk": 662,
      "Äįe": 663,
      "Ġspa": 664,
      "ĠkÅĻi": 665,
      "ĠbÅ¯h": 666,
      "ĠvrÃ¡": 667,
      "ĠvÃ¡s": 668,
      "ĠdÅĻÃŃ": 669,
      "Ġdli": 670,
      "Ġsud": 671,
      "ĠkÃ½ch": 672,
      "Ġcem": 673,
      "Ġdost": 674,
      "Ġkru": 675,
      "ĠsvÃŃ": 676,
      "ĠvÃ½ch": 677,
      "Ġtm": 678,
      "ĠpÅ¯": 679,
      "Ġan": 680,
      "Ġach": 681,
      "Ġhlas": 682,
      "ĠstÃ©": 683,
      "ĠsvÅ¯j": 684,
      "ĠvlÃ¡": 685,
      "ĠÅ¡la": 686,
      "Ġchla": 687,
      "Ġzve": 688,
      "ABBA": 689,
      "ĠÄįek": 690,
      "ĠÅ¡li": 691,
      "ĠskÃ½": 692,
      "tÃŃ": 693,
      "Ġzrak": 694,
      "Ġnek": 695,
      "Ġvpo": 696,
      "ĠcÃ½": 697,
      "ĠÄįÃŃm": 698,
      "Ġvzp": 699,
      "ĠzÅĻÃŃ": 700,
      "Ġvtom": 701,
      "Ġy": 702,
      "ĠptÃ¡": 703,
      "Ġskr": 704,
      "Ġven": 705,
      "ĠÅ¥": 706,
      "Ġkre": 707,
      "ĠspÄĽ": 708,
      "Ġsmut": 709,
      "lÃ½": 710,
      "ĠÄįas": 711,
      "Ġslou": 712,
      "Ġot": 713,
      "ĠdÃŃm": 714,
      "ĠÅĻil": 715,
      "ĠÅ¡u": 716,
      "Ġzou": 717,
      "Ġdlo": 718,
      "ĠsvÃ½m": 719,
      "Ġlil": 720,
      "Ġmar": 721,
      "ĠleÄį": 722,
      "ĠÅ¡ÃŃm": 723,
      "ĠvnÄĽ": 724,
      "Ġple": 725,
      "sÅ¥": 726,
      "ĠsvÃ½ch": 727,
      "Ġnom": 728,
      "Ã¡t": 729,
      "ĠÄįlo": 730,
      "ĠjÃŃm": 731,
      "Ġvni": 732,
      "Ġnal": 733,
      "Ġsb": 734,
      "ĠkÃ½m": 735,
      "Ġtru": 736,
      "Ġsch": 737,
      "ĠproÄį": 738,
      "Ãº": 739,
      "ĠslÃŃ": 740,
      "Ġprav": 741,
      "Ġvle": 742,
      "or": 743,
      "ich": 744,
      "Ġchce": 745,
      "Ġkry": 746,
      "Ġfa": 747,
      "Ġsen": 748,
      "ĠknÄĽ": 749,
      "17": 750,
      "Ġbro": 751,
      "ĠnÃŃk": 752,
      "ĠkrÃ¡l": 753,
      "ĠÅ¡a": 754,
      "ĠcÅ¯": 755,
      "ĠzvÄĽ": 756,
      "nÃ¡": 757,
      "ĠsÅ¯": 758,
      "Ġles": 759,
      "ĠsmÃŃ": 760,
      "Ġhem": 761,
      "ĠpÅĻec": 762,
      "Ġnout": 763,
      "ĠtÅĻi": 764,
      "ĠnÄĽm": 765,
      "ĠÅ¡k": 766,
      "Ġlost": 767,
      "ĠtÄĽch": 768,
      "ĠhrÃ¡": 769,
      "Ġzje": 770,
      "Ġtva": 771,
      "Ġdech": 772,
      "ĠhÅĻÃŃ": 773,
      "XB": 774,
      "Ġzvu": 775,
      "Ġkm": 776,
      "ĠtÅĻ": 777,
      "CD": 778,
      "ĠtÄĽÅ¾": 779,
      "ĠvÄĽk": 780,
      "Ġrod": 781,
      "ĠnÄĽk": 782,
      "nu": 783,
      "va": 784,
      "ĠmuÅ¾": 785,
      "ĠnÃ¡Å¡": 786,
      "ĠvÃ¡Å¡": 787,
      "ĠbuÄı": 788,
      "ĠkvÄĽt": 789,
      "ĠsnÄĽ": 790,
      "Ġhl": 791,
      "Ġprv": 792,
      "Ġdro": 793,
      "ĠjuÅ¾": 794,
      "ĠmÃ¡m": 795,
      "ĠpÃŃs": 796,
      "Ġhor": 797,
      "Ġprou": 798,
      "Ġslav": 799,
      "ĠskÃ½ch": 800,
      "ĠpÅĻÃ¡": 801,
      "Ġct": 802,
      "ĠzÅĻe": 803,
      "ĠchrÃ¡": 804,
      "Ġnec": 805,
      "Ġlet": 806,
      "ĠrÃ¡d": 807,
      "ĠdÃ¡v": 808,
      "Ġkne": 809,
      "ĠspÃŃ": 810,
      "ĠdÃ¡m": 811,
      "Ġus": 812,
      "Ġklid": 813,
      "Ġkp": 814,
      "ĠÅ¾en": 815,
      "ĠstÅĻÃŃ": 816,
      "Ġkni": 817,
      "Ġdvo": 818,
      "ĠspÃ¡": 819,
      "ĠnÃŃch": 820,
      "Ġsled": 821,
      "ĠhlÃŃ": 822,
      "Ġkrev": 823,
      "ĠklÃ¡": 824,
      "Ġhled": 825,
      "ĠbÃ½t": 826,
      "ĠvnÄĽm": 827,
      "Ġtec": 828,
      "Ġnoc": 829,
      "Ġtal": 830,
      "ĠmÃ½": 831,
      "Ġdva": 832,
      "AA": 833,
      "Ġvlast": 834,
      "Ġkt": 835,
      "ĠhÅ¯": 836,
      "Ġvol": 837,
      "Ġou": 838,
      "ĠseÅĪ": 839,
      "Ġsvi": 840,
      "ĠchtÄĽl": 841,
      "ĠtvÃ¡ÅĻ": 842,
      "Ġvje": 843,
      "as": 844,
      "ĠstÃ½": 845,
      "Ġps": 846,
      "ĠpÅĻes": 847,
      "Ã¡l": 848,
      "ĠvÄĽr": 849,
      "Ġpan": 850,
      "Ġvdu": 851,
      "Ã©m": 852,
      "ĠÅ¾el": 853,
      "Ġpad": 854,
      "ĠpÄĽt": 855,
      "ĠvÄįe": 856,
      "ĠznÄĽ": 857,
      "ĠjÃŃc": 858,
      "Ġbil": 859,
      "ĠdÄĽt": 860,
      "ĠhrÅ¯": 861,
      "ĠtvÅ¯j": 862,
      "ĠaÄį": 863,
      "ĠklÃŃ": 864,
      "Ġblou": 865,
      "Ġfe": 866,
      "Ġvne": 867,
      "ĠchÃ½": 868,
      "ci": 869,
      "ĠtÃ½ch": 870,
      "Ġzna": 871,
      "Ġmnou": 872,
      "Ġkon": 873,
      "Ġstal": 874,
      "ĠtvÃŃ": 875,
      "Ġduch": 876,
      "ĠdÃŃv": 877,
      "AABBCC": 878,
      "Ġzal": 879,
      "ĠkÃ©m": 880,
      "Ġbes": 881,
      "ĠtrÃ¡": 882,
      "ĠstrÃ¡": 883,
      "vo": 884,
      "Ġlen": 885,
      "ĠhnÄĽ": 886,
      "Ġhru": 887,
      "Ġtlo": 888,
      "AABC": 889,
      "ast": 890,
      "ĠvÃ©m": 891,
      "ĠmlÃ¡": 892,
      "ĠÅ¡Å¥": 893,
      "ĠzÅ¯": 894,
      "ĠsvÃ¡": 895,
      "Ġlov": 896,
      "ĠcÃŃm": 897,
      "Ġchle": 898,
      "ĠÄįel": 899,
      "ĠÅĻÃ¡": 900,
      "ĠpÃ¡n": 901,
      "ĠÅĻa": 902,
      "ĠnÃ¡ch": 903,
      "ĠÅ¡tÃŃ": 904,
      "ABCC": 905,
      "ĠÅĻek": 906,
      "ĠcoÅ¾": 907,
      "Ġdar": 908,
      "Ġjde": 909,
      "Ġdej": 910,
      "ĠznÃŃ": 911,
      "ĠchvÃ¡": 912,
      "Ġche": 913,
      "ĠkÃ¡ch": 914,
      "Ġpal": 915,
      "Ġvod": 916,
      "ĠÅ¡ek": 917,
      "ĠknÃŃ": 918,
      "ĠlÃ½ch": 919,
      "ĠdvÄĽ": 920,
      "Ġkve": 921,
      "ĠÅ¾Ã¡d": 922,
      "ĠvzÃ¡": 923,
      "ĠsÃ½": 924,
      "ĠkvÃŃ": 925,
      "ĠchÅ¯": 926,
      "ĠdrÃ¡": 927,
      "Ġoh": 928,
      "Ġstat": 929,
      "ĠÄı": 930,
      "Ġbal": 931,
      "ĠzpÃŃ": 932,
      "Ġvsrd": 933,
      "Ġman": 934,
      "Ġhlou": 935,
      "ĠvÅ¾dyÅ¥": 936,
      "vi": 937,
      "Ġrov": 938,
      "ĠpÃ½": 939,
      "na": 940,
      "Ġchal": 941,
      "ĠÅ¡p": 942,
      "ĠÄįem": 943,
      "Ġleh": 944,
      "ĠhÅĻ": 945,
      "ĠnnÃ©": 946,
      "ĠmÃŃr": 947,
      "ĠprÃ½": 948,
      "Ġhod": 949,
      "Ġplo": 950,
      "Ġzel": 951,
      "Ġstvo": 952,
      "Ġzpo": 953,
      "ĠD": 954,
      "ĠdeÅ¡": 955,
      "ĠpÅĻij": 956,
      "ĠkÅĻe": 957,
      "Ġmem": 958,
      "Ġskou": 959,
      "ĠzÃ½": 960,
      "Ġpom": 961,
      "Ġca": 962,
      "ĠstÃ¡l": 963,
      "ĠneÄį": 964,
      "Ġvno": 965,
      "Ġsed": 966,
      "ĠvÅ¡em": 967,
      "ĠdlÃŃ": 968,
      "Ġsd": 969,
      "ĠstÃŃn": 970,
      "Ġlal": 971,
      "Ġdce": 972,
      "Ã³": 973,
      "Ġ185": 974,
      "Ġsmrt": 975,
      "Ġ183": 976,
      "Ġral": 977,
      "Ġvj": 978,
      "Ġcu": 979,
      "Ġvit": 980,
      "Ġrt": 981,
      "Ġvch": 982,
      "Ġvoj": 983,
      "ĠlÃ©m": 984,
      "Ġkz": 985,
      "Ġzno": 986,
      "ĠsÃŃc": 987,
      "Ġlek": 988,
      "Ġtma": 989,
      "ĠvÅ¡u": 990,
      "Ġjo": 991,
      "Ġtlu": 992,
      "Ġdit": 993,
      "ĠsÃŃm": 994,
      "Ġchlad": 995,
      "ĠnnÃŃ": 996,
      "ABABCC": 997,
      "Ġhal": 998,
      "Å¡Å¥": 999,
      "Ġvzdu": 1000,
      "ĠhlÃ¡": 1001,
      "Ġbles": 1002,
      "Ġ1896": 1003,
      "Ġ184": 1004,
      "ĠÅ¾o": 1005,
      "ĠneÅ¡": 1006,
      "ĠdÃ½m": 1007,
      "Ġlik": 1008,
      "ve": 1009,
      "ĠhlÃ©": 1010,
      "ĠmÃ½ch": 1011,
      "Ġar": 1012,
      "Ġ186": 1013,
      "ĠlÃ½m": 1014,
      "ĠvtÃ©": 1015,
      "Ġsni": 1016,
      "Ġhlo": 1017,
      "Ġnit": 1018,
      "ĠsvÃ©m": 1019,
      "ĠvlÃŃ": 1020,
      "Ġhroz": 1021,
      "Ġcit": 1022,
      "ĠÅ¡Å¥ast": 1023,
      "Ġzbo": 1024,
      "ha": 1025,
      "Ġvza": 1026,
      "Ġvsv": 1027,
      "Ġvzpo": 1028,
      "Ġvzh": 1029,
      "ĠÅ¡ep": 1030,
      "ĠzrÃ¡": 1031,
      "Ġvpra": 1032,
      "Ġkto": 1033,
      "Ġaj": 1034,
      "ĠboÅ¾": 1035,
      "Ġdat": 1036,
      "Ġpev": 1037,
      "Ġvro": 1038,
      "Ġjm": 1039,
      "Ġsku": 1040,
      "ĠÅĪa": 1041,
      "Ġbys": 1042,
      "Ġply": 1043,
      "Ġvti": 1044,
      "Ġsr": 1045,
      "Ġ1883": 1046,
      "Ġstem": 1047,
      "ĠtrÅ¯": 1048,
      "ĠslyÅ¡": 1049,
      "Ġtl": 1050,
      "Ġzro": 1051,
      "Ġpru": 1052,
      "ĠvÃŃÅ¡": 1053,
      "Ġga": 1054,
      "ĠÅ¾ÃŃm": 1055,
      "Ġstej": 1056,
      "Ġzle": 1057,
      "ĠÅĻÃŃm": 1058,
      "ĠsnÃŃm": 1059,
      "Ġboj": 1060,
      "ĠvdÄĽ": 1061,
      "Ġzl": 1062,
      "ĠvnÃŃ": 1063,
      "Ġlest": 1064,
      "Ġvbo": 1065,
      "ĠzmÄĽ": 1066,
      "ĠdÄĽj": 1067,
      "Ġdin": 1068,
      "ĠjÃŃt": 1069,
      "Å¾i": 1070,
      "ĠpÄĽk": 1071,
      "ĠzvÃŃ": 1072,
      "Ġsna": 1073,
      "ĠkÅ¯m": 1074,
      "ĠdÅĻÃŃv": 1075,
      "Ġhrad": 1076,
      "at": 1077,
      "Ġzli": 1078,
      "Ġskry": 1079,
      "Ġska": 1080,
      "Ġcen": 1081,
      "Ġkat": 1082,
      "ĠvÃ¡n": 1083,
      "Ġvmo": 1084,
      "Ġpov": 1085,
      "ĠÄįen": 1086,
      "Ġchou": 1087,
      "ĠÄįÃ¡": 1088,
      "Ġfi": 1089,
      "Ġves": 1090,
      "ĠtvÃ½ch": 1091,
      "Ġstli": 1092,
      "Ġge": 1093,
      "ĠtoÅ¥": 1094,
      "ĠÄįt": 1095,
      "ĠtÄĽl": 1096,
      "ĠtÃ¡h": 1097,
      "Ġnich": 1098,
      "ĠvÅ¡ÃŃ": 1099,
      "Ġbli": 1100,
      "ĠnÄĽl": 1101,
      "ĠmÃ½m": 1102,
      "Ġsne": 1103,
      "ĠrÃ½ch": 1104,
      "ech": 1105,
      "Ġth": 1106,
      "Ġplu": 1107,
      "ĠtÃ½m": 1108,
      "Ġzva": 1109,
      "Ġkud": 1110,
      "ĠÅ¾li": 1111,
      "ABABCD": 1112,
      "Ġzr": 1113,
      "Ġdly": 1114,
      "Ġper": 1115,
      "Ġtk": 1116,
      "Ġtaj": 1117,
      "ĠsnÃ¡": 1118,
      "ĠÅ¾eh": 1119,
      "Ġkri": 1120,
      "ĠmoÅ¾": 1121,
      "Ġmoh": 1122,
      "ĠÄįet": 1123,
      "ĠÄįin": 1124,
      "Ġjis": 1125,
      "18": 1126,
      "Ġhli": 1127,
      "Ġkme": 1128,
      "ĠÄįes": 1129,
      "ĠÅ¡lo": 1130,
      "Ġstva": 1131,
      "Ġjin": 1132,
      "ĠchÃ©": 1133,
      "Ġtit": 1134,
      "Ġ1906": 1135,
      "Ġvnich": 1136,
      "nost": 1137,
      "ĠÅ¡ÃŃch": 1138,
      "Ġkb": 1139,
      "Ġchci": 1140,
      "Ġbar": 1141,
      "ĠdlÃ©": 1142,
      "ĠÃºs": 1143,
      "ĠkÃ¡m": 1144,
      "Ġcos": 1145,
      "ĠvÃº": 1146,
      "ĠzpÄĽv": 1147,
      "Ġvru": 1148,
      "ĠtÃ©m": 1149,
      "Ġchod": 1150,
      "Ġvsta": 1151,
      "Ġtys": 1152,
      "ĠzpÄĽt": 1153,
      "mu": 1154,
      "Ġznich": 1155,
      "ĠskrÃ¡": 1156,
      "ĠbrÃ©": 1157,
      "ĠprÃ¡z": 1158,
      "Ġtes": 1159,
      "Ġzdo": 1160,
      "Ġgo": 1161,
      "Ġtry": 1162,
      "Ġmd": 1163,
      "Ġvdo": 1164,
      "Ġsek": 1165,
      "ĠmÅĻe": 1166,
      "Ġrel": 1167,
      "ĠÅ¡ko": 1168,
      "ĠzÅĻel": 1169,
      "Ġbol": 1170,
      "ĠjmÃ©": 1171,
      "ĠstÃŃm": 1172,
      "ĠvÄĽt": 1173,
      "ĠsmÃŃch": 1174,
      "ĠzlÃ©": 1175,
      "ĠvdÃ¡l": 1176,
      "Ġkdys": 1177,
      "Ġvrou": 1178,
      "ĠteÄį": 1179,
      "Ġ1899": 1180,
      "ĠstrÃ½": 1181,
      "ĠÅĻem": 1182,
      "Ġzen": 1183,
      "Ġtvr": 1184,
      "ĠÅĻeÄį": 1185,
      "ĠÅ¡il": 1186,
      "ĠÅ¾al": 1187,
      "Ġ1895": 1188,
      "ĠvÅ¾dyc": 1189,
      "ĠblÃ¡": 1190,
      "Ġhud": 1191,
      "ar": 1192,
      "Ġsel": 1193,
      "ĠÅ¡em": 1194,
      "Ġsmy": 1195,
      "Ġpoh": 1196,
      "Ġkraj": 1197,
      "ĠmÃ¡Å¡": 1198,
      "Ġkmi": 1199,
      "Ġpot": 1200,
      "ĠÅ¡lÃ©": 1201,
      "Ġbraz": 1202,
      "Ġkost": 1203,
      "Ġ1897": 1204,
      "ĠÅ¾it": 1205,
      "Ġtre": 1206,
      "an": 1207,
      "Ġ1884": 1208,
      "Ġnen": 1209,
      "Ġjal": 1210,
      "ĠdÅĻe": 1211,
      "ĠdÃŃÅ¡": 1212,
      "ĠtÄĽz": 1213,
      "Ġstar": 1214,
      "ĠÄįit": 1215,
      "ĠzÃ¡ÅĻ": 1216,
      "ĠjejÅ¾": 1217,
      "ĠhoÅ¾": 1218,
      "Ġss": 1219,
      "ĠlÃŃÅ¡": 1220,
      "ABCCB": 1221,
      "Ġztra": 1222,
      "Ġtan": 1223,
      "Ġtech": 1224,
      "Ġvko": 1225,
      "Ġtvou": 1226,
      "Ġau": 1227,
      "Ġzne": 1228,
      "ĠÄįest": 1229,
      "ĠtoÅ¾": 1230,
      "Ġblu": 1231,
      "ĠskÃ½m": 1232,
      "ĠÅ¡ich": 1233,
      "Ġbem": 1234,
      "Ġsyn": 1235,
      "Ġslov": 1236,
      "Ġgi": 1237,
      "Ġsten": 1238,
      "ĠstÅ¯": 1239,
      "ĠvÃ¡Å¾": 1240,
      "ĠvtÄĽ": 1241,
      "rou": 1242,
      "ĠdÅ¯m": 1243,
      "Ġsklo": 1244,
      "Ġchra": 1245,
      "Ġvze": 1246,
      "Ġleb": 1247,
      "Ġsvit": 1248,
      "Ġkva": 1249,
      "ĠrÃ©m": 1250,
      "Ġstech": 1251,
      "Ġdel": 1252,
      "ĠbrÃ½": 1253,
      "ĠvÅ¡ich": 1254,
      "ĠdlÃ¡": 1255,
      "Ġvsk": 1256,
      "Ġnev": 1257,
      "Ġzor": 1258,
      "ĠliÅ¡": 1259,
      "ĠvzhÅ¯": 1260,
      "Ġ1927": 1261,
      "ĠjÃŃÅ¾": 1262,
      "Ġstru": 1263,
      "ĠfÃ¡": 1264,
      "Ġzum": 1265,
      "Ġjel": 1266,
      "ĠblÃŃÅ¾": 1267,
      "Ġvzne": 1268,
      "Ġpoj": 1269,
      "Ġblo": 1270,
      "Ġdob": 1271,
      "Ġvan": 1272,
      "ĠstraÅ¡": 1273,
      "ĠhÅĻe": 1274,
      "Ġskal": 1275,
      "ĠÅĻit": 1276,
      "ĠbÃ¡s": 1277,
      "Ġvzal": 1278,
      "Ġmal": 1279,
      "Ġvec": 1280,
      "AABCCB": 1281,
      "Ġklad": 1282,
      "Ġtost": 1283,
      "Ġsoud": 1284,
      "Ġok": 1285,
      "Ġsbo": 1286,
      "ĠjÅ¯": 1287,
      "Ġdve": 1288,
      "ĠskrÃ½": 1289,
      "ĠÅ¾Ã¡r": 1290,
      "Ġzby": 1291,
      "ĠbÃŃd": 1292,
      "Ġ1901": 1293,
      "ĠtÅĻÃ¡": 1294,
      "Ġzvuk": 1295,
      "ĠÅĻÃ¡d": 1296,
      "Ġkot": 1297,
      "Ġhlad": 1298,
      "Ġas": 1299,
      "Ġzmi": 1300,
      "Ġpor": 1301,
      "ĠbÅĻÃŃ": 1302,
      "Ġvna": 1303,
      "Ġled": 1304,
      "Ġstup": 1305,
      "ĠzlÃŃ": 1306,
      "ĠprÅ¯": 1307,
      "Ġcel": 1308,
      "Ġlej": 1309,
      "Ġ1911": 1310,
      "Ġzvy": 1311,
      "Ġhrob": 1312,
      "Ġpat": 1313,
      "Ġsme": 1314,
      "Ġjar": 1315,
      "ĠvlÃ¡d": 1316,
      "ĠÄįÃŃch": 1317,
      "ĠvÄį": 1318,
      "Ġnaj": 1319,
      "Ġklu": 1320,
      "ĠÅ¾ha": 1321,
      "Ġhan": 1322,
      "Ġvka": 1323,
      "Ġ1889": 1324,
      "Ġ1904": 1325,
      "Ġzbra": 1326,
      "Ġzdra": 1327,
      "Ġvho": 1328,
      "ĠmÃŃt": 1329,
      "Ġ1907": 1330,
      "Ġ1900": 1331,
      "Ġtis": 1332,
      "ĠheÅĪ": 1333,
      "ĠtÄĽm": 1334,
      "Ġkoj": 1335,
      "ĠÃ¡": 1336,
      "ĠjÃŃch": 1337,
      "Ġnak": 1338,
      "Ġpar": 1339,
      "ĠpÃ©": 1340,
      "ĠvÅ¡i": 1341,
      "ĠsvÃ½": 1342,
      "Ġpos": 1343,
      "Ġvzte": 1344,
      "ĠnnÃ½": 1345,
      "Ġzjev": 1346,
      "Ġ1885": 1347,
      "ĠstÅĻed": 1348,
      "Ġproud": 1349,
      "Ġkh": 1350,
      "ĠvnÃ¡": 1351,
      "Ġzvol": 1352,
      "ĠpouÅ¡": 1353,
      "ĠnnÄĽ": 1354,
      "Ġder": 1355,
      "AXB": 1356,
      "Ġspra": 1357,
      "ĠsklÃ¡": 1358,
      "ĠbÃ©": 1359,
      "Ġchr": 1360,
      "ĠhleÄı": 1361,
      "Ġov": 1362,
      "Ġblesk": 1363,
      "Ġdek": 1364,
      "ja": 1365,
      "Ġor": 1366,
      "Ġur": 1367,
      "Ġzka": 1368,
      "Ġbuj": 1369,
      "Ġvzk": 1370,
      "ĠvÄĽz": 1371,
      "ĠnaÄį": 1372,
      "ĠskÃ©m": 1373,
      "ĠhvÄĽzd": 1374,
      "ĠdÄĽs": 1375,
      "Ġstil": 1376,
      "Ġver": 1377,
      "Ġdruh": 1378,
      "Ġ1887": 1379,
      "Ġnat": 1380,
      "ĠnÄĽÅ¾": 1381,
      "ĠsnÅ¯": 1382,
      "ĠÅ¡len": 1383,
      "ĠÅ¡t": 1384,
      "Ġum": 1385,
      "Ġvys": 1386,
      "ĠÄįej": 1387,
      "ĠÅ¾iv": 1388,
      "ĠnÅ¯m": 1389,
      "ĠdÃ½ch": 1390,
      "Ġlas": 1391,
      "Ġkly": 1392,
      "Ġrek": 1393,
      "ĠnechÅ¥": 1394,
      "Ġsal": 1395,
      "ĠmÄĽv": 1396,
      "Ġ1892": 1397,
      "Ġtli": 1398,
      "Ġchv": 1399,
      "ĠmeÄį": 1400,
      "ĠpÅ¯l": 1401,
      "ĠÅ¾u": 1402,
      "Ġtle": 1403,
      "ĠvstÅĻÃŃ": 1404,
      "Ġjdou": 1405,
      "ĠnuÅ¾": 1406,
      "Ġzce": 1407,
      "Ġvej": 1408,
      "ĠÅ¡en": 1409,
      "Ġned": 1410,
      "Ġfra": 1411,
      "Ġhnu": 1412,
      "Ġhly": 1413,
      "Ġzil": 1414,
      "ĠslÃ©": 1415,
      "ĠzvÃ¡": 1416,
      "Ġrak": 1417,
      "ĠvÃ½Å¡": 1418,
      "ĠÅ¾lu": 1419,
      "Ġmor": 1420,
      "Ġbrou": 1421,
      "Ġ1890": 1422,
      "Ġzma": 1423,
      "ĠvÃ¡l": 1424,
      "ĠpÅ¯j": 1425,
      "Ġvpa": 1426,
      "Ġ1886": 1427,
      "Ġtin": 1428,
      "ĠbÃŃk": 1429,
      "ĠmÃŃn": 1430,
      "rÃ¡z": 1431,
      "Ġbor": 1432,
      "Ġkrok": 1433,
      "ĠhÃ½ch": 1434,
      "ĠÃŃ": 1435,
      "ĠsvÄĽd": 1436,
      "Ġ1880": 1437,
      "Ġkze": 1438,
      "ĠchvÄĽl": 1439,
      "ĠzvlÃ¡": 1440,
      "Ġhrom": 1441,
      "ĠvsvÄĽ": 1442,
      "Ġtrou": 1443,
      "Ġol": 1444,
      "ĠdÄĽv": 1445,
      "Ġvlo": 1446,
      "ĠruÄį": 1447,
      "ĠspoÅĪ": 1448,
      "Ġ1910": 1449,
      "Ġret": 1450,
      "Ġmrou": 1451,
      "Ġzved": 1452,
      "Ġ1902": 1453,
      "ĠzeÅĪ": 1454,
      "Ġknu": 1455,
      "ĠrÃ½m": 1456,
      "Ġkov": 1457,
      "ĠnÄĽn": 1458,
      "Ġ182": 1459,
      "ĠÅ¡et": 1460,
      "Ġ1894": 1461,
      "Ġscho": 1462,
      "Ġstav": 1463,
      "Ġsho": 1464,
      "Ġvrh": 1465,
      "ĠhoÅĻ": 1466,
      "Ġkdes": 1467,
      "ĠzdÃ¡l": 1468,
      "ĠkÅĻÃŃÅ¾": 1469,
      "Ġkrou": 1470,
      "ĠblÃŃz": 1471,
      "Å¯r": 1472,
      "Ġpout": 1473,
      "Ġtrp": 1474,
      "ĠdÃ©m": 1475,
      "ĠÅĻen": 1476,
      "19": 1477,
      "ĠvÄĽn": 1478,
      "Ġber": 1479,
      "ĠÅ¡um": 1480,
      "ĠkÅĻ": 1481,
      "Ġtic": 1482,
      "Ġ1913": 1483,
      "ĠvstÅĻÃŃc": 1484,
      "Ġkso": 1485,
      "ĠlÃŃm": 1486,
      "Ġmrak": 1487,
      "Ġvli": 1488,
      "ÅĪa": 1489,
      "ABCD": 1490,
      "ĠsnÃŃh": 1491,
      "vÃ©": 1492,
      "ĠhÅĻm": 1493,
      "ĠdÃŃt": 1494,
      "Ġset": 1495,
      "ĠdvÃ©": 1496,
      "ĠztÄĽ": 1497,
      "ĠvÄĽc": 1498,
      "Ġmst": 1499,
      "ĠhÃ½m": 1500,
      "Ġchva": 1501,
      "Ġtvor": 1502,
      "Ġ1898": 1503,
      "rÅ¯": 1504,
      "Ġsve": 1505,
      "ĠkÅĻik": 1506,
      "ĠvzdÃ¡": 1507,
      "Ġdouc": 1508,
      "ĠnÃŃz": 1509,
      "ĠknÃ¡": 1510,
      "ĠkoÅ¡": 1511,
      "ĠvlÃŃd": 1512,
      "Ġjsa": 1513,
      "Ġ1874": 1514,
      "ĠpÄĽl": 1515,
      "en": 1516,
      "Ġspi": 1517,
      "ĠÄįal": 1518,
      "ABBC": 1519,
      "Ġzru": 1520,
      "Ġ1937": 1521,
      "ĠzmÃŃ": 1522,
      "Ġvlas": 1523,
      "ĠstÃ¡t": 1524,
      "Ġoz": 1525,
      "ĠpyÅ¡": 1526,
      "Ġal": 1527,
      "ĠplÃ©": 1528,
      "py": 1529,
      "Ġhej": 1530,
      "Ġlep": 1531,
      "Ġlist": 1532,
      "AC": 1533,
      "Ġsny": 1534,
      "Ġsmu": 1535,
      "ĠvÅ¾i": 1536,
      "ĠptÃ¡k": 1537,
      "ĠskvÄĽ": 1538,
      "Ġdav": 1539,
      "Ġlin": 1540,
      "Ġkno": 1541,
      "ĠzdÄĽ": 1542,
      "Ġher": 1543,
      "Ġvyz": 1544,
      "Ġjil": 1545,
      "ĠpuÅ¡": 1546,
      "Ġhoj": 1547,
      "bi": 1548,
      "Ġzdvi": 1549,
      "Ġlk": 1550,
      "ĠtÅĻpy": 1551,
      "Ġknou": 1552,
      "Ġcti": 1553,
      "Ġter": 1554,
      "BC": 1555,
      "ĠchlÃ©": 1556,
      "Ġprud": 1557,
      "Ġ1921": 1558,
      "ĠzboÅ¾": 1559,
      "Ġnav": 1560,
      "ĠvÄĽÅĻ": 1561,
      "Ġtrh": 1562,
      "Ġdlit": 1563,
      "Ġtor": 1564,
      "Ġnel": 1565,
      "ĠznÃ¡m": 1566,
      "Ġ1918": 1567,
      "Ġslil": 1568,
      "Ġzto": 1569,
      "Ġnno": 1570,
      "ĠÃºz": 1571,
      "ĠhnÄĽv": 1572,
      "ĠÅ¡Ã¡": 1573,
      "Ġvzdy": 1574,
      "Ġpry": 1575,
      "ĠmÅĻÃŃ": 1576,
      "Ġ1930": 1577,
      "Ġved": 1578,
      "ĠÅ¾ÃŃt": 1579,
      "Ġchl": 1580,
      "Ġfal": 1581,
      "ĠkrÃ½": 1582,
      "ĠbyÅ¥": 1583,
      "Ġjme": 1584,
      "ĠkdoÅ¾": 1585,
      "ĠmraÄį": 1586,
      "Ġ1882": 1587,
      "vr": 1588,
      "Ġzni": 1589,
      "Ġbral": 1590,
      "Ġdno": 1591,
      "Ġin": 1592,
      "Ġpen": 1593,
      "Ġ195": 1594,
      "ĠchrÃ¡m": 1595,
      "ĠX": 1596,
      "Ġpta": 1597,
      "Ġpol": 1598,
      "Ġmil": 1599,
      "Ġzim": 1600,
      "Ġchmu": 1601,
      "Ġnny": 1602,
      "ĠnnÃ¡": 1603,
      "Ġdrob": 1604,
      "Ġ1893": 1605,
      "ĠhruÄı": 1606,
      "Ġrok": 1607,
      "ĠjichÅ¾": 1608,
      "Ġben": 1609,
      "Ġskle": 1610,
      "Ġnnou": 1611,
      "Ġchvil": 1612,
      "ĠztrÃ¡": 1613,
      "Ġvslu": 1614,
      "AX": 1615,
      "Ġstrach": 1616,
      "in": 1617,
      "ĠvÅĻel": 1618,
      "Ġlit": 1619,
      "ĠmÄĽk": 1620,
      "ĠrÃ¡m": 1621,
      "ĠdrÃ©": 1622,
      "Ġvzduch": 1623,
      "Ġkpo": 1624,
      "Ġzval": 1625,
      "Ġbec": 1626,
      "Ġ1905": 1627,
      "ĠbouÅĻ": 1628,
      "ĠpÅĻÃŃs": 1629,
      "Ġuz": 1630,
      "ĠvÅĻÃŃ": 1631,
      "Ġvez": 1632,
      "ĠviÄį": 1633,
      "Ġsej": 1634,
      "ĠnaÅĪ": 1635,
      "ĠvkrÃ¡": 1636,
      "ĠdruÅ¾": 1637,
      "ĠmÅ¾i": 1638,
      "ÅĻÃ¡": 1639,
      "Ġnut": 1640,
      "ĠzÅĻÃŃm": 1641,
      "ĠmÃ©m": 1642,
      "Ġrej": 1643,
      "Ġ1891": 1644,
      "ĠpoÄį": 1645,
      "ĠdiÄį": 1646,
      "Ġsma": 1647,
      "Ġ1912": 1648,
      "Ġzaz": 1649,
      "ĠÄįÃŃÅ¡": 1650,
      "Ġvzb": 1651,
      "ĠbÄĽh": 1652,
      "ĠhÃ©m": 1653,
      "Ġbd": 1654,
      "ĠÅ¡at": 1655,
      "tÅĻ": 1656,
      "ĠvtvÃ¡": 1657,
      "ĠdrÃ½": 1658,
      "ĠnoÄį": 1659,
      "Ġ1881": 1660,
      "ĠÅĻÅ¯": 1661,
      "Ġvce": 1662,
      "ĠcÅ¯m": 1663,
      "ĠdnÃŃ": 1664,
      "ĠvnÄĽmÅ¾": 1665,
      "Ġtrem": 1666,
      "ĠsmÃ¡": 1667,
      "Ġctnost": 1668,
      "Ġcet": 1669,
      "XAX": 1670,
      "Ġnuv": 1671,
      "Ġgu": 1672,
      "ĠliÄį": 1673,
      "ĠÅ¾em": 1674,
      "ĠniÄį": 1675,
      "ĠzÃŃch": 1676,
      "Ġhad": 1677,
      "Ġmluv": 1678,
      "Ġran": 1679,
      "ĠvdÃ¡": 1680,
      "ĠÅ¥a": 1681,
      "Ġcla": 1682,
      "Ġsro": 1683,
      "Ġ1903": 1684,
      "Ġvpro": 1685,
      "ĠnÃŃÅ¾": 1686,
      "er": 1687,
      "Ġ1931": 1688,
      "ti": 1689,
      "Ġ1908": 1690,
      "ĠtÃ¡m": 1691,
      "Ġkor": 1692,
      "Ġzmo": 1693,
      "Ġlec": 1694,
      "ĠrÃ¡ch": 1695,
      "Ġhat": 1696,
      "Ġkles": 1697,
      "Ġstrom": 1698,
      "Ġtly": 1699,
      "Ġ1926": 1700,
      "Ġspro": 1701,
      "ej": 1702,
      "ĠÅ¡lÃ©n": 1703,
      "Ġrad": 1704,
      "Ġzku": 1705,
      "Ġvhro": 1706,
      "Ġsic": 1707,
      "Ġlh": 1708,
      "Ġvln": 1709,
      "Ġvta": 1710,
      "ĠvzÃ¡c": 1711,
      "Ġdlem": 1712,
      "Ġtiv": 1713,
      "Ġlez": 1714,
      "Ġspou": 1715,
      "ĠzrÃ¡d": 1716,
      "ĠboÅ¥": 1717,
      "Ġmek": 1718,
      "ĠvpÅĻe": 1719,
      "ĠdÃ¡t": 1720,
      "ĠknÃ¡m": 1721,
      "Ġsra": 1722,
      "Ġvpr": 1723,
      "Ġchat": 1724,
      "ÅĻa": 1725,
      "Ġpem": 1726,
      "ĠvraÅ¾": 1727,
      "Ġjou": 1728,
      "ĠlÃŃch": 1729,
      "ĠklÃ©": 1730,
      "ĠmÄĽj": 1731,
      "ĠpryÄį": 1732,
      "Ġvad": 1733,
      "Ġkar": 1734,
      "ĠzprÃ¡": 1735,
      "ĠtlÃ©": 1736,
      "Ġmech": 1737,
      "nÃŃz": 1738,
      "Å¾e": 1739,
      "Ġsky": 1740,
      "ĠtvÃ½m": 1741,
      "ĠlÃŃc": 1742,
      "Ġdlu": 1743,
      "ĠchtÃŃ": 1744,
      "ĠdÄĽc": 1745,
      "Ġpit": 1746,
      "Ġvzdech": 1747,
      "Ġnna": 1748,
      "Ġstk": 1749,
      "Ġzbu": 1750,
      "Ġbit": 1751,
      "ĠsÃ¡h": 1752,
      "ĠrÅ¯z": 1753,
      "Ġlla": 1754,
      "ĠÄįu": 1755,
      "Ġvtu": 1756,
      "Ġlle": 1757,
      "Ġples": 1758,
      "Ġrty": 1759,
      "ĠvÅ¯d": 1760,
      "Ġkmo": 1761,
      "Ġvor": 1762,
      "ĠjÃŃmÅ¾": 1763,
      "Ġjez": 1764,
      "ĠhÃ¡m": 1765,
      "vy": 1766,
      "ĠblÃ½": 1767,
      "Ġbod": 1768,
      "Ġzdi": 1769,
      "Ġkus": 1770,
      "ĠÄıÃ¡": 1771,
      "Ġpsa": 1772,
      "ĠlÃŃk": 1773,
      "ĠzdrÃ¡": 1774,
      "Ġvroz": 1775,
      "Ġvzt": 1776,
      "Ġzar": 1777,
      "ĠkÅĻes": 1778,
      "ĠÅ¾er": 1779,
      "Ġmni": 1780,
      "Ġsnu": 1781,
      "Ġhlav": 1782,
      "Ġ1872": 1783,
      "ĠzlÃ¡": 1784,
      "Ġos": 1785,
      "Ġbyt": 1786,
      "Ġbru": 1787,
      "Ġprach": 1788,
      "ĠnÃ¡d": 1789,
      "ĠhÅĻÃŃch": 1790,
      "Ġctno": 1791,
      "Ġkbo": 1792,
      "Ġzba": 1793,
      "ĠÅ¡lech": 1794,
      "Ġkn": 1795,
      "ĠdnÃ©": 1796,
      "Ġvic": 1797,
      "vost": 1798,
      "ĠvstÃ¡": 1799,
      "Ġvstou": 1800,
      "ĠtÃŃÅ¡": 1801,
      "Ġvost": 1802,
      "Ġkej": 1803,
      "ĠdÃ¡n": 1804,
      "Ġ1928": 1805,
      "Ġrat": 1806,
      "Ġsit": 1807,
      "Ġklam": 1808,
      "ĠmÃŃm": 1809,
      "Ġchlu": 1810,
      "ĠkÅ¯v": 1811,
      "Ġvsa": 1812,
      "ĠÄįo": 1813,
      "ĠhÃ¡d": 1814,
      "ĠÅ¾dy": 1815,
      "ĠchceÅ¡": 1816,
      "ĠvyÅ¡": 1817,
      "Ġtok": 1818,
      "Ġvmy": 1819,
      "Ġ1920": 1820,
      "Ġzek": 1821,
      "Ġpros": 1822,
      "ĠsÅ¯m": 1823,
      "Ġdot": 1824,
      "ĠÄįÅ¯": 1825,
      "Ġskro": 1826,
      "Ġpoc": 1827,
      "ĠdlÃ½": 1828,
      "Ġkyt": 1829,
      "ĠpÄĽv": 1830,
      "ĠhÅ¯m": 1831,
      "ji": 1832,
      "ĠsluÅ¡": 1833,
      "Ġchej": 1834,
      "ĠnÃ¡ÅĻ": 1835,
      "Ġprs": 1836,
      "ĠsluÅ¾": 1837,
      "ĠdÃ¡ch": 1838,
      "ĠloÄı": 1839,
      "ĠÅ¡o": 1840,
      "Ġklet": 1841,
      "Ġ1875": 1842,
      "ĠztÄĽch": 1843,
      "Ġzlou": 1844,
      "ĠbÃ¡ch": 1845,
      "ĠvÅ¡ÃŃm": 1846,
      "Ġfr": 1847,
      "ĠskÅĻÃŃ": 1848,
      "Ġvin": 1849,
      "ĠÅĪo": 1850,
      "ĠbÅĻi": 1851,
      "ĠpÅĻÃŃÅ¡": 1852,
      "XAXAXB": 1853,
      "Ġvkr": 1854,
      "ĠznÄĽl": 1855,
      "ĠbÄĽd": 1856,
      "Ġstran": 1857,
      "ĠÅ¡ly": 1858,
      "Ġtur": 1859,
      "ĠbiÄį": 1860,
      "ĠvsÃŃ": 1861,
      "Ġluz": 1862,
      "ĠvsvÃ©m": 1863,
      "ĠslÃŃm": 1864,
      "ĠtÅĻil": 1865,
      "ĠdÃŃl": 1866,
      "Ġzkou": 1867,
      "ĠvÄĽÅ¡": 1868,
      "Ġfran": 1869,
      "ĠdÃ¡Å¡": 1870,
      "ĠvsvÃ©": 1871,
      "ze": 1872,
      "ĠvÄĽj": 1873,
      "ĠdvÃ¡": 1874,
      "Å¡e": 1875,
      "ĠÅĻÃŃÅ¡": 1876,
      "Ġzti": 1877,
      "Ġsob": 1878,
      "Ġzev": 1879,
      "Ġvzdor": 1880,
      "Ġcou": 1881,
      "Ġvdi": 1882,
      "Ġdoj": 1883,
      "Ġx": 1884,
      "Ġbled": 1885,
      "ĠnÃ¡c": 1886,
      "Ġpel": 1887,
      "ĠstÃ©m": 1888,
      "Ġ1922": 1889,
      "ĠÅĻec": 1890,
      "Ġken": 1891,
      "Ġlan": 1892,
      "ĠplÃŃ": 1893,
      "Ġhloub": 1894,
      "ĠzvlÃ¡Å¡": 1895,
      "ĠzÄįe": 1896,
      "Ġhol": 1897,
      "Ġzat": 1898,
      "ĠslÃ½": 1899,
      "Ġpur": 1900,
      "ĠtÄĽj": 1901,
      "Ġhar": 1902,
      "Ġ1923": 1903,
      "ĠlÃ¡ch": 1904,
      "Ġfo": 1905,
      "Ġvrat": 1906,
      "Ġzpu": 1907,
      "Ġsmi": 1908,
      "ma": 1909,
      "ĠzÃŃm": 1910,
      "ĠstvÃŃm": 1911,
      "Ġtlou": 1912,
      "Ġvhlou": 1913,
      "ĠkrÅ¯": 1914,
      "Ġkaz": 1915,
      "Ġgra": 1916,
      "Ġtri": 1917,
      "Ġblud": 1918,
      "Ġzdu": 1919,
      "Ġ1857": 1920,
      "ĠhluÄį": 1921,
      "Ġvzde": 1922,
      "ĠvÅ¡a": 1923,
      "ĠpeÄį": 1924,
      "lad": 1925,
      "ĠdnÅ¯": 1926,
      "ĠmlÃ½": 1927,
      "Ġdok": 1928,
      "Ġtov": 1929,
      "Ġsbor": 1930,
      "ĠpÃ¡r": 1931,
      "Ġvstal": 1932,
      "ĠvÃŃr": 1933,
      "Ġmon": 1934,
      "Ġhost": 1935,
      "Ġvji": 1936,
      "Ġhrou": 1937,
      "Ġplod": 1938,
      "ĠdiÅ¾": 1939,
      "Ġbel": 1940,
      "Ġvto": 1941,
      "Ġchlo": 1942,
      "Ġdrav": 1943,
      "Ġlat": 1944,
      "ĠstrÃ¡Å¾": 1945,
      "Ġrost": 1946,
      "ĠvdÄĽÄį": 1947,
      "Ġbre": 1948,
      "Ġlli": 1949,
      "ĠjvÃŃ": 1950,
      "ĠzpÃ¡t": 1951,
      "ĠÅĪu": 1952,
      "Ġvsp": 1953,
      "Ġzch": 1954,
      "Ġvso": 1955,
      "Ġtve": 1956,
      "Ġsje": 1957,
      "Ġbin": 1958,
      "Ġkrut": 1959,
      "ĠvkaÅ¾": 1960,
      "vou": 1961,
      "ĠvÅ¡ic": 1962,
      "Ġkop": 1963,
      "Ġruch": 1964,
      "Ġzko": 1965,
      "Ġslech": 1966,
      "Å¯d": 1967,
      "Ġteh": 1968,
      "ĠsaÅĻ": 1969,
      "ĠvÅĻa": 1970,
      "Ġvjed": 1971,
      "Ġmli": 1972,
      "ĠzÃº": 1973,
      "Ġdni": 1974,
      "Ġzav": 1975,
      "Ġchli": 1976,
      "ĠsvÃ¡t": 1977,
      "Ġdny": 1978,
      "ĠÄįty": 1979,
      "ĠblÃ½s": 1980,
      "Ã¡m": 1981,
      "ĠÅ¡it": 1982,
      "Ġmed": 1983,
      "ĠvmÄĽ": 1984,
      "Ġpln": 1985,
      "Ġlze": 1986,
      "ĠklÃŃn": 1987,
      "ĠÅĻad": 1988,
      "Ġnus": 1989,
      "Ġthe": 1990,
      "Ġren": 1991,
      "Ġplou": 1992,
      "ĠhnÃŃz": 1993,
      "ĠÅ¡er": 1994,
      "Ġvsm": 1995,
      "Ġhoch": 1996,
      "Ġlech": 1997,
      "ĠsÃŃch": 1998,
      "ĠknÄĽz": 1999,
      "Ġpes": 2000,
      "AAXB": 2001,
      "ĠzpÅ¯": 2002,
      "ĠkÃ½s": 2003,
      "Ġtat": 2004,
      "ĠhlÃ½": 2005,
      "Ġsyl": 2006,
      "Ġzhy": 2007,
      "ĠstÅĻi": 2008,
      "Ġnnost": 2009,
      "Ġ1876": 2010,
      "Ġ1919": 2011,
      "ĠmrÃ¡z": 2012,
      "ĠslÃ©z": 2013,
      "ĠtvÃ©m": 2014,
      "Ġdum": 2015,
      "Ġvlh": 2016,
      "Ġhez": 2017,
      "Ġzvon": 2018,
      "ĠmÄĽst": 2019,
      "Ġklou": 2020,
      "Ġvsi": 2021,
      "Ġ1932": 2022,
      "ĠniÅ¾": 2023,
      "Ġrev": 2024,
      "ĠslÅ¯": 2025,
      "qu": 2026,
      "ĠmlÄį": 2027,
      "ĠkÃ¡n": 2028,
      "Ġnaz": 2029,
      "Ġzpra": 2030,
      "Ġ1888": 2031,
      "ĠvlÃ¡s": 2032,
      "ĠsÃº": 2033,
      "ĠreÄį": 2034,
      "Ġvtem": 2035,
      "ĠÅ¡in": 2036,
      "Ġ196": 2037,
      "ĠuÅ¡": 2038,
      "Ġnoch": 2039,
      "Ġvzle": 2040,
      "Ġzhou": 2041,
      "ĠstÅĻel": 2042,
      "Ġqu": 2043,
      "ĠÅ¾as": 2044,
      "Ġhna": 2045,
      "ĠspÃŃÅ¡": 2046,
      "ĠhrÃ¡l": 2047,
      "Ġjan": 2048,
      "Ġzyk": 2049,
      "Ġtmy": 2050,
      "Ġhm": 2051,
      "Ġlam": 2052,
      "Ġvkra": 2053,
      "ĠkÃ©Å¾": 2054,
      "ĠÅ¾ÃŃÅ¡": 2055,
      "Ġslal": 2056,
      "ĠÅĻk": 2057,
      "Ġblan": 2058,
      "ĠsplÃ½": 2059,
      "CCD": 2060,
      "ĠpÃ¡d": 2061,
      "Ġdom": 2062,
      "ĠpÅĻÃŃm": 2063,
      "Ġodv": 2064,
      "ĠÅ¡pat": 2065,
      "Ġhn": 2066,
      "Ġ1934": 2067,
      "Ġ1938": 2068,
      "Ġnot": 2069,
      "Ġzha": 2070,
      "Ġhas": 2071,
      "ĠdeÄį": 2072,
      "Ġspu": 2073,
      "Ġpli": 2074,
      "ĠvznÃ¡": 2075,
      "ĠrÃ¡j": 2076,
      "Ġnos": 2077,
      "ĠÅĻÃŃch": 2078,
      "Ġkan": 2079,
      "ĠstaÅĪ": 2080,
      "ĠchÃ¡m": 2081,
      "ĠplÃ¡Äį": 2082,
      "ĠveÅ¡": 2083,
      "ĠtÃ¡n": 2084,
      "ĠskÅĻi": 2085,
      "ĠzlÃ½": 2086,
      "Ġsad": 2087,
      "Ġstla": 2088,
      "Ġvhla": 2089,
      "Ġksrd": 2090,
      "zd": 2091,
      "ĠschvÃ¡": 2092,
      "ĠkÅĻiv": 2093,
      "Ġmoz": 2094,
      "ĠcÃŃl": 2095,
      "ĠvklÃŃ": 2096,
      "ĠvstÃŃ": 2097,
      "to": 2098,
      "Ġjdu": 2099,
      "Ġzvi": 2100,
      "ĠtiÄį": 2101,
      "Ġvyh": 2102,
      "ĠnosÅ¥": 2103,
      "Ġkup": 2104,
      "Ġlesk": 2105,
      "ĠvÄĽst": 2106,
      "vÄĽt": 2107,
      "Ġskut": 2108,
      "Ġdec": 2109,
      "ĠtrÅ¯n": 2110,
      "Ġknim": 2111,
      "Ġnap": 2112,
      "ĠtÃ³": 2113,
      "ĠkvÃŃt": 2114,
      "ĠvbÃŃ": 2115,
      "Ġskvost": 2116,
      "Ġneh": 2117,
      "Ġdnem": 2118,
      "Ġzdro": 2119,
      "Ġviz": 2120,
      "Ġzdr": 2121,
      "ĠmÃ¡t": 2122,
      "Ġer": 2123,
      "Ġ1914": 2124,
      "Ġvtip": 2125,
      "Ġchi": 2126,
      "Ġhon": 2127,
      "Ġvpou": 2128,
      "ĠtÃŃÅ¾": 2129,
      "Ġtud": 2130,
      "ĠmÄĽt": 2131,
      "ĠnnÃ½ch": 2132,
      "ĠvnÃŃÅ¾": 2133,
      "ĠtÅ¯m": 2134,
      "Ġstry": 2135,
      "Ġchet": 2136,
      "ĠÅ¾to": 2137,
      "ĠdvÅ¯r": 2138,
      "Ġkst": 2139,
      "ĠÄįech": 2140,
      "ĠnÃŃÅ¡": 2141,
      "Ġmus": 2142,
      "ĠÅ¾Å¯": 2143,
      "Ġniv": 2144,
      "ĠvÄĽl": 2145,
      "Ġpec": 2146,
      "Ġzvl": 2147,
      "Ġdvou": 2148,
      "ĠmlÃ¡d": 2149,
      "ĠlÅ¯m": 2150,
      "ĠsprÃ¡": 2151,
      "Ġskon": 2152,
      "Ġdrech": 2153,
      "ĠbÃ¡l": 2154,
      "ĠstrÃ©": 2155,
      "Ġ1878": 2156,
      "ĠskrÃ¡ÅĪ": 2157,
      "hou": 2158,
      "ĠvnitÅĻ": 2159,
      "Ġlic": 2160,
      "Ġvry": 2161,
      "Ġvet": 2162,
      "Ġlev": 2163,
      "Ġclav": 2164,
      "Ġtev": 2165,
      "Ġzbro": 2166,
      "Ġlis": 2167,
      "ĠÅĻist": 2168,
      "Ġchut": 2169,
      "Ġkev": 2170,
      "ĠtmÄĽ": 2171,
      "led": 2172,
      "ĠstÃ½ch": 2173,
      "Ġplat": 2174,
      "Ġzlem": 2175,
      "ĠÅ¥an": 2176,
      "Ġkruh": 2177,
      "ĠsbÃŃ": 2178,
      "Ġvkou": 2179,
      "Ġvse": 2180,
      "ĠvnichÅ¾": 2181,
      "ĠvpÅĻÃŃ": 2182,
      "Ġznal": 2183,
      "ĠÅ¥ast": 2184,
      "ĠpoÅ¡": 2185,
      "ĠÅ¾eb": 2186,
      "ĠvpÅĻed": 2187,
      "ĠÅ¡ÃŃÅ¡": 2188,
      "ĠdÃŃk": 2189,
      "Ġclo": 2190,
      "Ġzho": 2191,
      "ĠmiÅ¾": 2192,
      "ĠvpÃŃ": 2193,
      "Ġjdi": 2194,
      "ĠÅ¾ek": 2195,
      "Ġjat": 2196,
      "ĠvÄĽÄı": 2197,
      "Ġ1917": 2198,
      "Ġpast": 2199,
      "Ġstan": 2200,
      "ĠcÃ½m": 2201,
      "Ġkvi": 2202,
      "ĠÅ¡tÃŃt": 2203,
      "ĠnÄĽch": 2204,
      "Ġvzbu": 2205,
      "ĠzkrÃ¡": 2206,
      "Ġmec": 2207,
      "Ġtrys": 2208,
      "ĠcÃ½ch": 2209,
      "Ġprch": 2210,
      "Ġcest": 2211,
      "ĠpojÄı": 2212,
      "ĠcÃŃr": 2213,
      "Ġ1836": 2214,
      "ĠvtÄĽch": 2215,
      "ĠoÄį": 2216,
      "Ġsnem": 2217,
      "ĠzÅĻÃŃt": 2218,
      "Ġej": 2219,
      "Ġmlou": 2220,
      "AXAX": 2221,
      "Ġfer": 2222,
      "ĠÅĪÃ¡": 2223,
      "Ġ194": 2224,
      "Ġzte": 2225,
      "ĠpÄĽj": 2226,
      "Ġ1859": 2227,
      "Ġpas": 2228,
      "Ġstvu": 2229,
      "Ġbl": 2230,
      "ĠpeÅ¾": 2231,
      "ĠmÅĻel": 2232,
      "re": 2233,
      "ĠtÄĽs": 2234,
      "ĠtnÃŃ": 2235,
      "ĠsliÄį": 2236,
      "ĠmÅ¯Å¾": 2237,
      "Ġblak": 2238,
      "Ġhi": 2239,
      "ĠctÃŃ": 2240,
      "Ġvrouc": 2241,
      "ABBACC": 2242,
      "ĠA": 2243,
      "ÃŃt": 2244,
      "ĠÅ¡kle": 2245,
      "Ġrus": 2246,
      "ĠÄįte": 2247,
      "Ġnau": 2248,
      "ĠÅ¡vi": 2249,
      "ĠtrÃ½": 2250,
      "Ġhvo": 2251,
      "Ġchot": 2252,
      "Ġouz": 2253,
      "ĠhlÃ©d": 2254,
      "Ġliv": 2255,
      "ĠÅ¾rou": 2256,
      "ĠkÅ¡": 2257,
      "ĠtÃŃch": 2258,
      "Ġsno": 2259,
      "Ġ1929": 2260,
      "ĠknÄĽÅ¾": 2261,
      "Ġchyt": 2262,
      "Ġvn": 2263,
      "ĠzdaÅ¾": 2264,
      "ĠlkÃ¡": 2265,
      "ĠÄıas": 2266,
      "ĠlÃ¡m": 2267,
      "Ġllo": 2268,
      "ĠtlÃ½": 2269,
      "ĠzaÄį": 2270,
      "Ġkmet": 2271,
      "Ġvkte": 2272,
      "ĠchÃ©m": 2273,
      "ĠtÃ¡ÅĻ": 2274,
      "Ġ180": 2275,
      "ĠnÃ¡t": 2276,
      "Ġstoj": 2277,
      "Ġdna": 2278,
      "ĠlÃŃÄį": 2279,
      "Ġ1915": 2280,
      "Ġvte": 2281,
      "ĠklÃ½": 2282,
      "ĠtvÃ½": 2283,
      "Ġrech": 2284,
      "ĠvzkÅĻi": 2285,
      "Ġ1909": 2286,
      "Ġvnu": 2287,
      "ĠzÃ¡m": 2288,
      "Ġsot": 2289,
      "ĠÅĻej": 2290,
      "Ġ1841": 2291,
      "Ġrd": 2292,
      "Ġav": 2293,
      "ĠvplÃ¡": 2294,
      "ĠvlÅ¯": 2295,
      "ĠhÅĻbi": 2296,
      "ĠÅ¾eÅ¡": 2297,
      "Ġkel": 2298,
      "ĠkÄįe": 2299,
      "ĠpsÃ¡": 2300,
      "ĠrtÅ¯": 2301,
      "ĠstÃ½m": 2302,
      "Ġsf": 2303,
      "ĠtÃŃÅĻ": 2304,
      "Ġksm": 2305,
      "Ġstih": 2306,
      "ĠchÃ½m": 2307,
      "Ġ1846": 2308,
      "ĠpÃ¡s": 2309,
      "ĠspÄĽÅ¡": 2310,
      "Ġchom": 2311,
      "Ġmdlo": 2312,
      "ĠmÄĽch": 2313,
      "ĠdlaÅĪ": 2314,
      "Ġsnil": 2315,
      "ĠzÃ¡Å¡": 2316,
      "Ġvzdo": 2317,
      "ĠhÅĻÃŃÅ¡": 2318,
      "Ġvbe": 2319,
      "ĠdÃ©l": 2320,
      "ĠtÃ¡ch": 2321,
      "Ġzs": 2322,
      "Ġkdos": 2323,
      "Ġdb": 2324,
      "ĠkdeÅ¾": 2325,
      "Ġslib": 2326,
      "ĠÅ¾rout": 2327,
      "Ġvyr": 2328,
      "Ġdev": 2329,
      "Ġvple": 2330,
      "ĠjvÃŃc": 2331,
      "Ġdic": 2332,
      "et": 2333,
      "Ġrec": 2334,
      "ĠlaÄį": 2335,
      "Ġfu": 2336,
      "ABAA": 2337,
      "Ġpis": 2338,
      "Ġjvy": 2339,
      "AXBB": 2340,
      "ABCB": 2341,
      "Ġvzch": 2342,
      "ĠbdÄĽ": 2343,
      "ĠÄįar": 2344,
      "ĠplÃ¡Å¡Å¥": 2345,
      "Ġstl": 2346,
      "ĠnÄĽmÅ¾": 2347,
      "Ġ1879": 2348,
      "ABA": 2349,
      "Ġbek": 2350,
      "AABCBC": 2351,
      "ĠbÃ¡j": 2352,
      "Ġ1833": 2353,
      "ĠÅ¾ÃŃz": 2354,
      "ĠlÃ¡t": 2355,
      "Ġvyj": 2356,
      "ĠvzplÃ¡": 2357,
      "Ġvmi": 2358,
      "Ġbej": 2359,
      "Ġchmur": 2360,
      "ĠÅĻo": 2361,
      "Ġ1873": 2362,
      "Ġnli": 2363,
      "Ġklen": 2364,
      "Å¾ÃŃ": 2365,
      "ĠchlÃ©b": 2366,
      "Ġlad": 2367,
      "ĠplÃ¡l": 2368,
      "Ġ1924": 2369,
      "nÃ©": 2370,
      "Ġlst": 2371,
      "Ġhnal": 2372,
      "Ġhbi": 2373,
      "ĠbÅĻeh": 2374,
      "Ġnov": 2375,
      "Ġpsal": 2376,
      "ĠstÅ¯l": 2377,
      "ĠmÄĽÅ¡": 2378,
      "ĠzvÄĽst": 2379,
      "Ġtrud": 2380,
      "ĠmÃ¡l": 2381,
      "ĠpÃŃm": 2382,
      "Ġgon": 2383,
      "Ġtlem": 2384,
      "Ġvhlu": 2385,
      "Ġsvor": 2386,
      "Ġjov": 2387,
      "ĠzbraÅĪ": 2388,
      "Ġzah": 2389,
      "Ġkmit": 2390,
      "ĠÅ¾ik": 2391,
      "Ġzam": 2392,
      "Ġpras": 2393,
      "Ġzmu": 2394,
      "ĠvÄįer": 2395,
      "ĠjvyÅ¡": 2396,
      "ĠrÃ¡z": 2397,
      "ĠÅ¡ak": 2398,
      "Ġlud": 2399,
      "Ġstrh": 2400,
      "Ġvpu": 2401,
      "ĠvÃ¡ch": 2402,
      "ĠÅ¾ÃŃch": 2403,
      "XAXB": 2404,
      "ĠpusÅ¥": 2405,
      "ĠÅ¡pi": 2406,
      "ĠcÅ¯v": 2407,
      "Ġdan": 2408,
      "Ġblouz": 2409,
      "Ġdrs": 2410,
      "Ġvnad": 2411,
      "Ġspal": 2412,
      "ĠksvÃ©": 2413,
      "Ġtej": 2414,
      "Ġzlost": 2415,
      "Ġfan": 2416,
      "Ġmov": 2417,
      "Ġhluk": 2418,
      "Ġjiz": 2419,
      "Ġvpe": 2420,
      "AXBC": 2421,
      "ĠmrÃ¡": 2422,
      "ĠvÃ½s": 2423,
      "Ġvek": 2424,
      "ĠlÃ©b": 2425,
      "Ġfor": 2426,
      "ĠcÃ¡": 2427,
      "Ġvten": 2428,
      "Ġspla": 2429,
      "Ġrte": 2430,
      "Ġrtech": 2431,
      "ĠtiÅ¾": 2432,
      "Ġ1925": 2433,
      "ĠjimÅ¾": 2434,
      "ĠtÃ¡z": 2435,
      "ĠbÃ¡m": 2436,
      "ĠÅ¥Ã¡": 2437,
      "ĠmnÃŃ": 2438,
      "Ġbrov": 2439,
      "Ġdol": 2440,
      "ĠstÅĻÃ¡": 2441,
      "ĠÄįÃ¡t": 2442,
      "Ġstel": 2443,
      "ĠzkÃ¡": 2444,
      "ĠsÄįe": 2445,
      "Ġstus": 2446,
      "ĠtlÃ¡": 2447,
      "ĠmoÅĻ": 2448,
      "ĠvdÄĽk": 2449,
      "Ġlos": 2450,
      "ĠÅ¾et": 2451,
      "Ġsech": 2452,
      "ĠvmÃ©": 2453,
      "mou": 2454,
      "Ã¡n": 2455,
      "Ġ1935": 2456,
      "ĠhlÃŃd": 2457,
      "Ġvzru": 2458,
      "Ġvbou": 2459,
      "ĠklÃ¡Å¡": 2460,
      "Ġtich": 2461,
      "Ġvzni": 2462,
      "Ġvrch": 2463,
      "Ġvja": 2464,
      "Ġmih": 2465,
      "ĠvtvÃ¡ÅĻ": 2466,
      "Ġroj": 2467,
      "Ġ1829": 2468,
      "ĠÅ¥u": 2469,
      "Ġzpa": 2470,
      "ĠvrÃ¡s": 2471,
      "ĠpÅĻej": 2472,
      "Ġhut": 2473,
      "Ġlho": 2474,
      "ĠblÃ¡z": 2475,
      "Ġnam": 2476,
      "ĠtÅĻpyt": 2477,
      "ĠvÅ¡ed": 2478,
      "ĠdnÄĽ": 2479,
      "Ġsmo": 2480,
      "Ġvskut": 2481,
      "ĠÃºst": 2482,
      "Ġchyb": 2483,
      "Ġvar": 2484,
      "Ġjit": 2485,
      "ĠpohÅĻ": 2486,
      "Ġkap": 2487,
      "Ġvech": 2488,
      "ĠzdÃŃ": 2489,
      "ĠtÅĻeÅ¡": 2490,
      "ĠzvlÃ¡Å¡Å¥": 2491,
      "Ġkos": 2492,
      "Ã¡ch": 2493,
      "ĠplÃ½": 2494,
      "Ġvsou": 2495,
      "ĠtuÄį": 2496,
      "Ġstes": 2497,
      "ĠdoÄį": 2498,
      "AXX": 2499,
      "ĠtÄĽn": 2500,
      "ĠhÅĻb": 2501,
      "ĠÅ¡Å¥a": 2502,
      "ĠvlÃ©": 2503,
      "Ġsan": 2504,
      "ĠraÄį": 2505,
      "Ġchol": 2506,
      "ĠmrÅ¡": 2507,
      "Ġner": 2508,
      "ĠtuÅ¥": 2509,
      "ĠÄįnÃŃ": 2510,
      "ĠsmÃ¡l": 2511,
      "ĠvÃ¡b": 2512,
      "ĠÅ¡va": 2513,
      "Ġzet": 2514,
      "Ġsat": 2515,
      "ĠdnÃ½": 2516,
      "ĠtÃ½l": 2517,
      "ĠjÃ¡k": 2518,
      "Ġzhro": 2519,
      "ĠsrÃ¡": 2520,
      "Ġtmou": 2521,
      "Ġsse": 2522,
      "ĠhÃ¡ch": 2523,
      "ĠzvuÄį": 2524,
      "Ġstesk": 2525,
      "Ġlel": 2526,
      "ĠvrÃ¡z": 2527,
      "ĠkÅ¯ÅĪ": 2528,
      "Ġvc": 2529,
      "ĠvklÃŃn": 2530,
      "ĠvsnÄĽ": 2531,
      "ĠsnÄĽÅ¾": 2532,
      "Ġvist": 2533,
      "Ġvkro": 2534,
      "Ġjle": 2535,
      "Ġkryl": 2536,
      "Ġzhu": 2537,
      "ĠzmÃ¡": 2538,
      "Ġvzla": 2539,
      "ĠvraÅ¥": 2540,
      "Ġmot": 2541,
      "Ġtrest": 2542,
      "Ġryb": 2543,
      "ĠvmÃŃ": 2544,
      "Ġzdvih": 2545,
      "ĠÄįiv": 2546,
      "Ġvbu": 2547,
      "Ġzble": 2548,
      "Ġstez": 2549,
      "ĠvÄįas": 2550,
      "ĠsÃ©": 2551,
      "ĠzhlÃŃ": 2552,
      "ĠjeÅ¥": 2553,
      "ĠhnÃ¡": 2554,
      "val": 2555,
      "Ġdon": 2556,
      "Ġcek": 2557,
      "Ġstud": 2558,
      "ĠstÅ¯j": 2559,
      "Ġrol": 2560,
      "Ġsym": 2561,
      "ĠprÃ¡h": 2562,
      "Ġzj": 2563,
      "Ġraj": 2564,
      "Ġbrat": 2565,
      "ĠlÃŃp": 2566,
      "Ġsj": 2567,
      "ĠchÃ½ch": 2568,
      "ĠÅ¡eÅĪ": 2569,
      "ABCDCD": 2570,
      "ĠpÃŃÅ¡": 2571,
      "Ġvztek": 2572,
      "ĠÅĻu": 2573,
      "ĠbÄĽÅ¥": 2574,
      "ĠztÃ©": 2575,
      "Ġjsouc": 2576,
      "ĠnÅ¯v": 2577,
      "Ġ1951": 2578,
      "Ġvtv": 2579,
      "Ġvab": 2580,
      "Ġlib": 2581,
      "Ġdov": 2582,
      "ĠlÃ¡n": 2583,
      "ĠspÄĽl": 2584,
      "Ġchvat": 2585,
      "ĠbrÃ¡z": 2586,
      "ĠtÅĻÃ¡s": 2587,
      "Ġut": 2588,
      "Ġsvr": 2589,
      "ABBCCD": 2590,
      "ĠdneÅ¡": 2591,
      "Ġsha": 2592,
      "ABABAB": 2593,
      "ĠpouÅ¥": 2594,
      "ĠdÃ©Å¡Å¥": 2595,
      "Ġmost": 2596,
      "Ġsple": 2597,
      "Ġbis": 2598,
      "Ġsluch": 2599,
      "ĠsdÄĽ": 2600,
      "Ġplach": 2601,
      "Ġstrou": 2602,
      "ĠleÅ¾": 2603,
      "ĠÅ¡lÃŃ": 2604,
      "Ġzpi": 2605,
      "ĠÄıa": 2606,
      "ĠmnoÅ¾": 2607,
      "Ġdvor": 2608,
      "Ġztr": 2609,
      "Ġzkr": 2610,
      "Ġstor": 2611,
      "Ġpiv": 2612,
      "ĠkvÃ©": 2613,
      "ĠhÅĻmÄĽ": 2614,
      "Ġmsti": 2615,
      "ĠtÃŃs": 2616,
      "Ġkous": 2617,
      "Ġel": 2618,
      "Ġkom": 2619,
      "ĠÅ¾es": 2620,
      "Ġdrost": 2621,
      "Ġkul": 2622,
      "AAXX": 2623,
      "ĠdlÃ½ch": 2624,
      "Ġdvi": 2625,
      "ĠkvÃ¡m": 2626,
      "ĠstÃ¡r": 2627,
      "Ġskrom": 2628,
      "ĠmeÅ¡": 2629,
      "Ġhry": 2630,
      "ĠjvÄĽt": 2631,
      "Ġkmen": 2632,
      "Ġvaz": 2633,
      "Ġvrah": 2634,
      "ĠchraÅĪ": 2635,
      "Ġvles": 2636,
      "ĠÅ¾iÅ¾": 2637,
      "ĠzÃ¡ch": 2638,
      "ĠbÃ¡t": 2639,
      "ĠtÅ¯v": 2640,
      "ĠchÅĻi": 2641,
      "Ġkje": 2642,
      "ĠchaÅ¥": 2643,
      "ABBACD": 2644,
      "Ġvprav": 2645,
      "ĠnnÃ½m": 2646,
      "Ġstly": 2647,
      "ĠÅ¡Å¯": 2648,
      "Ġbat": 2649,
      "Ġzpr": 2650,
      "Ġmly": 2651,
      "Ġvzpla": 2652,
      "ĠÄįtvr": 2653,
      "ĠprÃ¡v": 2654,
      "Ġteb": 2655,
      "ĠvÃŃÄį": 2656,
      "ĠznÃ¡Å¡": 2657,
      "ĠtÅĻÃŃs": 2658,
      "ĠspÃ¡n": 2659,
      "ĠsÃŃÅ¡": 2660,
      "ĠmÅĻÃŃt": 2661,
      "Ġslem": 2662,
      "ĠdÃ¡ÅĻ": 2663,
      "ĠmÅ¾ik": 2664,
      "Ġstis": 2665,
      "ĠÅĻÃŃc": 2666,
      "ĠvzrÅ¯": 2667,
      "ĠkeÅĻ": 2668,
      "Ġnas": 2669,
      "ĠbdÃŃ": 2670,
      "ĠtÅĻÃŃÅ¡": 2671,
      "Ġknul": 2672,
      "Ġ1858": 2673,
      "Ġslz": 2674,
      "Ġvma": 2675,
      "Ġvda": 2676,
      "Ġslel": 2677,
      "Ġshla": 2678,
      "ĠhÅ¯l": 2679,
      "ĠÄįÃ¡st": 2680,
      "Ġmrav": 2681,
      "Ġvme": 2682,
      "ĠhÃ¡j": 2683,
      "Ġrci": 2684,
      "ĠvbÄĽ": 2685,
      "Ġbly": 2686,
      "Ġzej": 2687,
      "ĠtvÅ¯r": 2688,
      "Ġzhlu": 2689,
      "ĠznichÅ¾": 2690,
      "Ġhyb": 2691,
      "Ġvslun": 2692,
      "ĠdÄĽd": 2693,
      "Ġtul": 2694,
      "Ġprsk": 2695,
      "Ġzin": 2696,
      "Ġdrou": 2697,
      "Ġzlu": 2698,
      "Ġspe": 2699,
      "ĠkÃ¡Å¡": 2700,
      "Ġvml": 2701,
      "Ġspl": 2702,
      "ĠÅ¾hou": 2703,
      "ĠÄįist": 2704,
      "Ġbran": 2705,
      "Ġnouc": 2706,
      "ĠspÄĽch": 2707,
      "Ġbur": 2708,
      "ĠschÃ¡": 2709,
      "ĠstvÃ¡": 2710,
      "Ġprin": 2711,
      "Ġki": 2712,
      "ĠtÅĻÃŃm": 2713,
      "Ġkrov": 2714,
      "ĠzvÄĽÅĻ": 2715,
      "Ġvci": 2716,
      "Ġhvoz": 2717,
      "ĠdÃŃc": 2718,
      "ĠvÅĪa": 2719,
      "ĠhrÃ¡t": 2720,
      "Ġ1837": 2721,
      "ĠhÅĻmÃŃ": 2722,
      "AABBCD": 2723,
      "Ġ1844": 2724,
      "Ġvprach": 2725,
      "ĠtÃŃc": 2726,
      "ĠsÃŃÅĪ": 2727,
      "Ġllu": 2728,
      "ĠsvÅ¯d": 2729,
      "Ġjek": 2730,
      "ĠviÅ¡": 2731,
      "Ġnet": 2732,
      "ĠkÅĻou": 2733,
      "Ġses": 2734,
      "ĠdraÅ¾": 2735,
      "Ġvku": 2736,
      "ĠnÄĽz": 2737,
      "Ġkslu": 2738,
      "ĠdeÅ¾": 2739,
      "ĠsmrÅ¥": 2740,
      "XABB": 2741,
      "ĠvÃŃs": 2742,
      "Ġchti": 2743,
      "ĠvpÅ¯": 2744,
      "Ġvpla": 2745,
      "Ġkout": 2746,
      "Ġvran": 2747,
      "ĠvÅ¯m": 2748,
      "Ġjev": 2749,
      "Ġ1868": 2750,
      "DD": 2751,
      "ĠdrÃ½ch": 2752,
      "ĠÅĻin": 2753,
      "ĠstÄĽn": 2754,
      "ĠvchrÃ¡": 2755,
      "Ġmnich": 2756,
      "Ġfy": 2757,
      "Ġvkru": 2758,
      "Ġvdla": 2759,
      "ĠvznÄĽ": 2760,
      "ĠzeÄı": 2761,
      "Ġchlap": 2762,
      "Ġskla": 2763,
      "ĠkÃ¡ÅĻ": 2764,
      "Ġw": 2765,
      "ĠvmÃ©m": 2766,
      "ĠveÅĪ": 2767,
      "ĠÄįtve": 2768,
      "Ġram": 2769,
      "ĠnichÅ¾": 2770,
      "Ġ1863": 2771,
      "ĠchlÃ¡": 2772,
      "Ġtkli": 2773,
      "Ġhmo": 2774,
      "ĠspÃ¡t": 2775,
      "ĠmlÃ½n": 2776,
      "Ġvhru": 2777,
      "Ġmas": 2778,
      "Ġmrz": 2779,
      "ĠsplÃ¡": 2780,
      "Ġvhu": 2781,
      "Ġ1862": 2782,
      "Ġsar": 2783,
      "Ġzml": 2784,
      "Ġvzlet": 2785,
      "Ġzji": 2786,
      "ĠvzÃ½": 2787,
      "ĠÄįert": 2788,
      "Ġhlub": 2789,
      "Ġtka": 2790,
      "ĠsmÄĽs": 2791,
      "Ġstek": 2792,
      "Ġzpod": 2793,
      "Ġvmra": 2794,
      "ĠmÃ¡Å¥": 2795,
      "Ġvcho": 2796,
      "lÃ½ch": 2797,
      "Ġvhod": 2798,
      "Ġluj": 2799,
      "Ġstroj": 2800,
      "ĠtlÃŃ": 2801,
      "Ġspol": 2802,
      "ĠhouÅ¡": 2803,
      "Ġspor": 2804,
      "Ġvtr": 2805,
      "Ġsce": 2806,
      "ĠzÅĻÃŃÅ¡": 2807,
      "ĠzraÄį": 2808,
      "ĠÅ¡est": 2809,
      "ĠmÄĽr": 2810,
      "Ġkho": 2811,
      "Ġvlu": 2812,
      "ĠdÃ¡k": 2813,
      "Ġlles": 2814,
      "Ġlom": 2815,
      "ĠlÃ¡c": 2816,
      "Ġvsva": 2817,
      "Ġklas": 2818,
      "Ġ1933": 2819,
      "ĠkÃº": 2820,
      "ĠoÅ¡": 2821,
      "mÄĽ": 2822,
      "ĠvpÃŃs": 2823,
      "Ġmin": 2824,
      "Ġvyp": 2825,
      "ĠmÃ¡ch": 2826,
      "ĠjmÄĽ": 2827,
      "ĠsÃºs": 2828,
      "Ġfou": 2829,
      "Ġvboj": 2830,
      "Ġluh": 2831,
      "ĠblÃ©": 2832,
      "ĠnÃ¡n": 2833,
      "Ġslast": 2834,
      "74": 2835,
      "Ġ1974": 2836,
      "ĠplÃ¡Å¡": 2837,
      "ĠkvÃ½": 2838,
      "ĠmÃ¡j": 2839,
      "ĠsmÄĽÅ¡": 2840,
      "Ġlsti": 2841,
      "ĠtiÅ¡": 2842,
      "Ġzja": 2843,
      "ĠlÅ¯Å¾": 2844,
      "Ġjlep": 2845,
      "ĠzÄįer": 2846,
      "ĠzdrÃ¡v": 2847,
      "Ġrve": 2848,
      "Ġnach": 2849,
      "Ġdnu": 2850,
      "ĠhlÃ½ch": 2851,
      "ĠdÄĽn": 2852,
      "Ġzit": 2853,
      "ABAC": 2854,
      "ĠÅ¡leh": 2855,
      "nd": 2856,
      "ĠnoÅ¾": 2857,
      "ĠdrÃ¡Å¾": 2858,
      "Ġster": 2859,
      "ĠhrÅ¯z": 2860,
      "Ġpre": 2861,
      "ĠpÅĻiz": 2862,
      "ĠbrÃ¡k": 2863,
      "ĠvÄĽÅ¾": 2864,
      "ĠchoÅ¥": 2865,
      "Ġzmr": 2866,
      "Ġmle": 2867,
      "Ġcas": 2868,
      "Ġryt": 2869,
      "Ġvpl": 2870,
      "Ġstit": 2871,
      "ĠÅ¡im": 2872,
      "ĠÅĻel": 2873,
      "Ġzpro": 2874,
      "ĠvstÅĻe": 2875,
      "Ġlich": 2876,
      "ĠplÃ¡t": 2877,
      "ĠsmÄĽl": 2878,
      "ĠzÃºst": 2879,
      "Ġsc": 2880,
      "Ġ1963": 2881,
      "ĠkÅĻo": 2882,
      "Ġchro": 2883,
      "Ġptal": 2884,
      "ĠvaÅ¥": 2885,
      "Ġdlel": 2886,
      "Ġbri": 2887,
      "Ġbrem": 2888,
      "Ġ1916": 2889,
      "XC": 2890,
      "Ġzad": 2891,
      "Ġstic": 2892,
      "Ġkryt": 2893,
      "ĠbÄĽl": 2894,
      "Ġlok": 2895,
      "ĠvzpÃŃ": 2896,
      "Ġpek": 2897,
      "ĠzlÃ½ch": 2898,
      "ĠdÅĻi": 2899,
      "ĠpÃŃt": 2900,
      "ĠtuÅ¾": 2901,
      "Ġmlad": 2902,
      "Ġvprou": 2903,
      "ĠÅ¡ka": 2904,
      "ĠkÅ¾i": 2905,
      "ĠstkvÄĽ": 2906,
      "Ġzkve": 2907,
      "Ġmuk": 2908,
      "ĠÅ¡var": 2909,
      "Ġzrov": 2910,
      "Ġzhlou": 2911,
      "ĠbrÃ½ch": 2912,
      "ĠÄıte": 2913,
      "ĠÅ¾eÅĪ": 2914,
      "Ġschop": 2915,
      "Ġzpou": 2916,
      "ĠvÃŃk": 2917,
      "ĠkzÃ¡": 2918,
      "ĠdnÃ¡": 2919,
      "ĠznÃ¡s": 2920,
      "nÃ½": 2921,
      "Ġstlo": 2922,
      "Ġksou": 2923,
      "Ġzhoub": 2924,
      "ĠchÃ¡ch": 2925,
      "ĠstrÃ½c": 2926,
      "ĠdlÃ¡k": 2927,
      "Ġkvo": 2928,
      "ĠsmÃ½": 2929,
      "Ġtvi": 2930,
      "ĠhvÃŃ": 2931,
      "Ġrin": 2932,
      "ĠschÃ½": 2933,
      "Ġptac": 2934,
      "ĠjÃŃÅ¡": 2935,
      "Ġsvat": 2936,
      "Ġmez": 2937,
      "ur": 2938,
      "ĠstrÃ½Äį": 2939,
      "ĠpÅĻel": 2940,
      "Ġspja": 2941,
      "ĠsÃŃÄį": 2942,
      "Ġkna": 2943,
      "ĠtvÄĽ": 2944,
      "ĠvhÃ¡": 2945,
      "ĠrÅ¯m": 2946,
      "ĠvpÃ¡": 2947,
      "ĠpÅĻÃ¡l": 2948,
      "ĠlÅ¾i": 2949,
      "Ġsloup": 2950,
      "Ġzpe": 2951,
      "ĠzÃŃs": 2952,
      "Ġchlou": 2953,
      "Ġdych": 2954,
      "Ġbry": 2955,
      "Ġsuk": 2956,
      "AXAB": 2957,
      "Ġraz": 2958,
      "ĠdÅ¯v": 2959,
      "ĠsleÄį": 2960,
      "ĠvtrÃ¡": 2961,
      "ĠtÅĻÃŃk": 2962,
      "ĠlÃ¡Äį": 2963,
      "ĠmlÃ©": 2964,
      "Ġsul": 2965,
      "ĠbÃ¡z": 2966,
      "ĠjiÅ¡": 2967,
      "Ġchov": 2968,
      "Ġker": 2969,
      "ĠÅ¡ve": 2970,
      "Ġcech": 2971,
      "Ġzed": 2972,
      "ĠvzÃŃ": 2973,
      "Ġpne": 2974,
      "Ġfri": 2975,
      "Ġdlech": 2976,
      "Ġcar": 2977,
      "Ġsdu": 2978,
      "Ġpnou": 2979,
      "Ġtuj": 2980,
      "ĠvÃŃn": 2981,
      "Ġsyt": 2982,
      "Ġztu": 2983,
      "ĠsnÄĽm": 2984,
      "ĠzbÄĽ": 2985,
      "Ġvzem": 2986,
      "ĠÅĻas": 2987,
      "Ġ1835": 2988,
      "ĠÄįÃŃst": 2989,
      "ĠnÃŃÄį": 2990,
      "Ġzaj": 2991,
      "Ġnnu": 2992,
      "ĠzmÃ©": 2993,
      "Ġvob": 2994,
      "Ġzdob": 2995,
      "ĠÅĻku": 2996,
      "ĠdosÅ¥": 2997,
      "ĠzbÃŃ": 2998,
      "ĠshlÃŃ": 2999,
      "Ġkav": 3000,
      "Ġshr": 3001,
      "ĠmdlÃ©": 3002,
      "ĠÅ¡ÃŃp": 3003,
      "Ġkpra": 3004,
      "ĠmÄĽÅ¥": 3005,
      "Ġlka": 3006,
      "ĠtÃ½r": 3007,
      "ĠniÅ¡": 3008,
      "Ġzpla": 3009,
      "ĠÅ¡per": 3010,
      "Ġhni": 3011,
      "Ġchc": 3012,
      "Ġvslad": 3013,
      "Ġjet": 3014,
      "Ġheb": 3015,
      "Ġvv": 3016,
      "ĠbÄĽt": 3017,
      "ĠmÃŃÅ¡": 3018,
      "ĠpÅĻÃŃz": 3019,
      "Ġjsy": 3020,
      "ĠvÅ¯z": 3021,
      "Ġksmr": 3022,
      "ĠmÃ¡n": 3023,
      "Ġkdu": 3024,
      "ĠteÅĻ": 3025,
      "ĠspÅĻÃ¡": 3026,
      "Ġtrap": 3027,
      "ĠchvÄĽj": 3028,
      "ĠÅ¡pa": 3029,
      "ĠÄįÃ¡r": 3030,
      "Ġstrast": 3031,
      "Ġskrz": 3032,
      "Ġztem": 3033,
      "Äįi": 3034,
      "ĠchÅ¯m": 3035,
      "Ġrys": 3036,
      "Ġvbla": 3037,
      "Ġhov": 3038,
      "ĠjdÄĽ": 3039,
      "ĠtvÃ¡r": 3040,
      "Ġzry": 3041,
      "Ġhym": 3042,
      "Ġvstu": 3043,
      "Ġvzly": 3044,
      "Ġvpod": 3045,
      "ĠmÄĽÅĻ": 3046,
      "Ġkpa": 3047,
      "Ġkc": 3048,
      "Ġchen": 3049,
      "ĠÄįlu": 3050,
      "ĠdvÃŃ": 3051,
      "ĠvlaÅ¡": 3052,
      "Ġshro": 3053,
      "Ġzer": 3054,
      "Ġrun": 3055,
      "ĠpÃ¡l": 3056,
      "ĠdeÅĪ": 3057,
      "ĠrÃ¡Å¾": 3058,
      "ĠbÃŃt": 3059,
      "ĠkvÅ¯": 3060,
      "Ġkams": 3061,
      "Ġcvi": 3062,
      "ĠnÃ¡ct": 3063,
      "ĠÄįiÅĪ": 3064,
      "Ġcno": 3065,
      "ĠstÅ¯m": 3066,
      "Ġdoz": 3067,
      "Ġnon": 3068,
      "ĠvÃ¡r": 3069,
      "ĠvprÃ¡": 3070,
      "Ġdry": 3071,
      "Ġhnus": 3072,
      "ĠsprÃ¡v": 3073,
      "ĠnnÃ©m": 3074,
      "ĠzÅĻej": 3075,
      "ĠnitÅĻ": 3076,
      "Ġtos": 3077,
      "ĠlÅ¯v": 3078,
      "ĠsnÃ¡ch": 3079,
      "ĠmeÅĪ": 3080,
      "Ġvsl": 3081,
      "ĠbliÅ¾": 3082,
      "ĠseÄį": 3083,
      "Ġzmra": 3084,
      "ho": 3085,
      "Ġzep": 3086,
      "Ġviv": 3087,
      "ĠdvÄĽd": 3088,
      "Ġvjich": 3089,
      "Ġgic": 3090,
      "Ġnni": 3091,
      "ĠrÃ¡l": 3092,
      "Ġzdroj": 3093,
      "ĠhÅĻeb": 3094,
      "ĠchlÃŃ": 3095,
      "ĠchÅĻe": 3096,
      "Ġak": 3097,
      "ĠnoÅ¡": 3098,
      "DE": 3099,
      "lÃŃz": 3100,
      "ĠfÃŃ": 3101,
      "Ġsdru": 3102,
      "ĠvÄįel": 3103,
      "ĠptÃ¡Äį": 3104,
      "ĠruÅ¥": 3105,
      "Ġzdech": 3106,
      "Ġtvy": 3107,
      "ĠruÅ¡": 3108,
      "Ġvlk": 3109,
      "Ġih": 3110,
      "ĠdÃ¡r": 3111,
      "Ġros": 3112,
      "ĠzÅĻÃŃd": 3113,
      "ĠtÅĻit": 3114,
      "Ġchly": 3115,
      "Ġplav": 3116,
      "Ġvlid": 3117,
      "ĠmÃ¡Å¾": 3118,
      "Ġkod": 3119,
      "Ġzhas": 3120,
      "ĠlÃŃt": 3121,
      "Ġzblou": 3122,
      "Ġslit": 3123,
      "ĠdrÃ½m": 3124,
      "Ġgr": 3125,
      "ĠctÄĽ": 3126,
      "ĠvÃŃt": 3127,
      "Ġshle": 3128,
      "Ġvde": 3129,
      "ĠÅĪÃ¡t": 3130,
      "Ġtros": 3131,
      "ĠsdÃŃ": 3132,
      "Ġvid": 3133,
      "ĠvrÅ¯": 3134,
      "Ġrag": 3135,
      "ĠskvÃŃ": 3136,
      "Ġluk": 3137,
      "ĠlÃ¡Å¡": 3138,
      "ĠshÃ¡": 3139,
      "Ġvsla": 3140,
      "ĠdÃ³": 3141,
      "ĠpÃ¡ch": 3142,
      "ĠstrÃ½m": 3143,
      "is": 3144,
      "ĠktÃ©": 3145,
      "ĠÃ¡n": 3146,
      "ĠduÅ¡": 3147,
      "Ġcov": 3148,
      "Ġdcer": 3149,
      "Ġzmat": 3150,
      "Ġvzcho": 3151,
      "ĠvlasÅ¥": 3152,
      "ĠsklÃŃ": 3153,
      "Ġrtu": 3154,
      "Ġsvy": 3155,
      "ĠÃ¡l": 3156,
      "Ġdnech": 3157,
      "ĠkÃ©n": 3158,
      "ĠstÃ¡ch": 3159,
      "Ġkrad": 3160,
      "Ġvzty": 3161,
      "20": 3162,
      "Ġtlum": 3163,
      "ĠnÃ©st": 3164,
      "Ġshlu": 3165,
      "Ġdvod": 3166,
      "ĠzvÃ½": 3167,
      "Ġdus": 3168,
      "ĠvpouÅ¡": 3169,
      "ĠtÃŃk": 3170,
      "ĠkpÅĻe": 3171,
      "Ġhrot": 3172,
      "Ġtep": 3173,
      "Ġron": 3174,
      "ĠÅĪÅ¯": 3175,
      "ĠzÅĪa": 3176,
      "ĠzliÄį": 3177,
      "AAXA": 3178,
      "Ġmut": 3179,
      "ĠhÃ¡Äį": 3180,
      "Ġsop": 3181,
      "Ġznak": 3182,
      "Ġgy": 3183,
      "ĠsÅ¾e": 3184,
      "Ġtrav": 3185,
      "ĠzrÅ¯": 3186,
      "Ġvzra": 3187,
      "ĠtrÃ½z": 3188,
      "Ġkvas": 3189,
      "Ġoc": 3190,
      "ĠsbÄĽ": 3191,
      "Ġtroc": 3192,
      "Ġvok": 3193,
      "ĠvnÃ¡s": 3194,
      "ĠzaÅ¡": 3195,
      "ĠzbÃ½": 3196,
      "ABXB": 3197,
      "ĠnÃ¡k": 3198,
      "Ġvzro": 3199,
      "XAXABB": 3200,
      "Ġmit": 3201,
      "Ġkvap": 3202,
      "ĠÄįÃŃc": 3203,
      "Ġsrov": 3204,
      "Ġzvou": 3205,
      "ĠzlÃ½m": 3206,
      "ĠveÄı": 3207,
      "ĠbrÃ½m": 3208,
      "Ġdub": 3209,
      "Ġvty": 3210,
      "ĠsÅ¡": 3211,
      "ĠÄįan": 3212,
      "ĠmdlÃ½": 3213,
      "Ġcle": 3214,
      "Ġklek": 3215,
      "Ġpost": 3216,
      "Ġvhr": 3217,
      "ĠnÃ¡Äį": 3218,
      "Ġvzor": 3219,
      "ĠsnÃŃt": 3220,
      "ĠvÃ©st": 3221,
      "Ġkji": 3222,
      "ĠrÃ¡Å¡": 3223,
      "ĠzpÅĻÃŃ": 3224,
      "Ġstol": 3225,
      "ĠÅ¡ÃŃj": 3226,
      "ĠvzlÃ©": 3227,
      "ĠlesÅ¥": 3228,
      "ĠklÃ½ch": 3229,
      "Ġdnou": 3230,
      "ĠhÅĻmo": 3231,
      "Ġmyl": 3232,
      "ĠfÃ¡m": 3233,
      "ĠvdÃŃ": 3234,
      "Ġvmou": 3235,
      "Ġvstra": 3236,
      "ĠhÃ¡r": 3237,
      "Ġvzi": 3238,
      "ĠÅĻev": 3239,
      "Ġspad": 3240,
      "ĠnnÃŃm": 3241,
      "ĠsuÄı": 3242,
      "Ġstev": 3243,
      "ĠkÅĻiÅ¡": 3244,
      "ĠchuÅ¥": 3245,
      "ĠskÅĻe": 3246,
      "ĠvznÃŃ": 3247,
      "Ġksp": 3248,
      "Ġvjas": 3249,
      "Ġ1865": 3250,
      "Ġsig": 3251,
      "ĠvzkÅĻik": 3252,
      "Ġvmu": 3253,
      "ĠhÅĻÃ¡": 3254,
      "Ġdlil": 3255,
      "ĠÅ¡lÃ½ch": 3256,
      "ĠkÃ©s": 3257,
      "Ġprost": 3258,
      "ĠvkrÃ¡t": 3259,
      "Ġser": 3260,
      "Ġknout": 3261,
      "ĠkaÅĻ": 3262,
      "Ġpej": 3263,
      "Ġom": 3264,
      "ĠtvÃŃm": 3265,
      "Ġsedm": 3266,
      "Ġjra": 3267,
      "Ġvous": 3268,
      "Ġchm": 3269,
      "CCB": 3270,
      "ĠstrÅ¯": 3271,
      "ĠleÅĪ": 3272,
      "ĠvslÃ¡": 3273,
      "ĠvkvÄĽ": 3274,
      "ĠÄįeÅ¾": 3275,
      "ĠÅ¾luÄį": 3276,
      "ĠzahÅĻ": 3277,
      "ĠdÅ¾": 3278,
      "Ġvlet": 3279,
      "Ġrozv": 3280,
      "ĠkÅĻeh": 3281,
      "ĠnouÅ¥": 3282,
      "Ġvbi": 3283,
      "Ġsep": 3284,
      "Ġprah": 3285,
      "Ġvhrob": 3286,
      "Ġpych": 3287,
      "ĠknÃ©": 3288,
      "Ġrva": 3289,
      "ĠplÃ¡ÅĪ": 3290,
      "Ġ1869": 3291,
      "Ġton": 3292,
      "Ġskryt": 3293,
      "ĠÃºc": 3294,
      "Ġsz": 3295,
      "ĠmÄĽn": 3296,
      "ĠkrÄį": 3297,
      "Ġen": 3298,
      "Ġrto": 3299,
      "ĠbÃ¡k": 3300,
      "Ġkch": 3301,
      "ĠÅ¡ej": 3302,
      "Ġstoup": 3303,
      "ĠbrÅ¾": 3304,
      "ĠleÅ¥": 3305,
      "Ġbos": 3306,
      "ĠtlÃ½ch": 3307,
      "Ġknih": 3308,
      "Ġzf": 3309,
      "ĠÅ¡lÃ¡": 3310,
      "ĠvÃ¡z": 3311,
      "Ġboun": 3312,
      "ĠÅ¾ert": 3313,
      "ĠspÅĻe": 3314,
      "Ġston": 3315,
      "ĠstrÃ½ch": 3316,
      "Ġkras": 3317,
      "ĠvzduÅ¡": 3318,
      "ĠstkvÃŃ": 3319,
      "ĠÅ¡al": 3320,
      "ĠtÅĻes": 3321,
      "ĠsÃ¡t": 3322,
      "Ġvkraj": 3323,
      "Ġspas": 3324,
      "ĠvchÃ¡": 3325,
      "ĠnÃŃc": 3326,
      "Ġbech": 3327,
      "ĠleÅ¡": 3328,
      "Ġkur": 3329,
      "Ġcin": 3330,
      "ĠvsvÃ½ch": 3331,
      "ĠhÅĻbe": 3332,
      "Ġvsluch": 3333,
      "ĠctnÃ©": 3334,
      "Ġsvel": 3335,
      "Ġsst": 3336,
      "Ġban": 3337,
      "Ġvzma": 3338,
      "Ġpus": 3339,
      "Ġ1823": 3340,
      "Ġzkra": 3341,
      "Ġzdar": 3342,
      "Ġkvr": 3343,
      "ĠzvÃ¡s": 3344,
      "Ġkrk": 3345,
      "Ġris": 3346,
      "ĠvÅ¾a": 3347,
      "Ġzhr": 3348,
      "ĠhrÃ¡d": 3349,
      "ĠvzkÅĻÃŃ": 3350,
      "Ã¡z": 3351,
      "ĠdÄĽk": 3352,
      "Ġsvla": 3353,
      "Ġsup": 3354,
      "ĠpÄĽst": 3355,
      "ĠvrÃ¡t": 3356,
      "ĠdiÅ¡": 3357,
      "Ġzur": 3358,
      "Ġzbi": 3359,
      "Ġhoun": 3360,
      "ĠnÃŃmÅ¾": 3361,
      "ĠzlÅ¯": 3362,
      "Ġbyv": 3363,
      "ĠhÃ¡Å¡": 3364,
      "Ġstin": 3365,
      "ACD": 3366,
      "Ġvhloub": 3367,
      "ĠvztÃ¡": 3368,
      "Ġvzpom": 3369,
      "Ġzvyk": 3370,
      "ĠpÅĻedc": 3371,
      "ĠvzdÄĽ": 3372,
      "Ġzbyt": 3373,
      "Ġschu": 3374,
      "Ġhvi": 3375,
      "ĠvnÄĽj": 3376,
      "ĠvÄįa": 3377,
      "Ġsja": 3378,
      "Ġvnej": 3379,
      "Ġuj": 3380,
      "ĠzvrÃ¡": 3381,
      "Ġput": 3382,
      "ĠrvÃ¡": 3383,
      "ĠlhÃ¡": 3384,
      "Ġsah": 3385,
      "Ġvhou": 3386,
      "ĠÄįnÄĽ": 3387,
      "ĠlÃ³": 3388,
      "Ġbok": 3389,
      "ĠkoÄį": 3390,
      "Ġpuk": 3391,
      "ĠÅ¥o": 3392,
      "ĠkcÃŃ": 3393,
      "ĠtnÄĽ": 3394,
      "ĠstÅĻ": 3395,
      "Ġlon": 3396,
      "ĠjlÃŃ": 3397,
      "Ġrob": 3398,
      "Ġtvar": 3399,
      "ĠvÄįi": 3400,
      "ĠÅ¥al": 3401,
      "ĠvsvÄĽt": 3402,
      "ĠzkrÃ¡t": 3403,
      "ĠnÃ¡v": 3404,
      "ĠnÄĽt": 3405,
      "Ġvnik": 3406,
      "ĠpouÅ¡Å¥": 3407,
      "Ġtrs": 3408,
      "ĠmÃ³": 3409,
      "ĠlosÅ¥": 3410,
      "ĠktÄĽ": 3411,
      "Ġzta": 3412,
      "ĠvklÃ¡": 3413,
      "Ġvzbou": 3414,
      "AE": 3415,
      "ĠpatÅĻ": 3416,
      "ĠhlÃ¡s": 3417,
      "Ġzpup": 3418,
      "ĠtÃ½Å¾": 3419,
      "Ġvhra": 3420,
      "ĠÅ¾d": 3421,
      "ĠpÃŃr": 3422,
      "ĠnÅ¯Å¾": 3423,
      "Ġtho": 3424,
      "ĠpiÅ¡": 3425,
      "Ġsnou": 3426,
      "Ġmnoh": 3427,
      "ĠhlÃ½m": 3428,
      "ĠdouÅ¡": 3429,
      "Ġzmoc": 3430,
      "Ġdmou": 3431,
      "ĠlÃŃst": 3432,
      "ĠÅ¾ol": 3433,
      "ĠÅ¾lou": 3434,
      "Ġlym": 3435,
      "Ġmlk": 3436,
      "my": 3437,
      "ĠlaÅĪ": 3438,
      "ĠbuÅ¥": 3439,
      "ĠdÄĽÄį": 3440,
      "ĠloÅ¾": 3441,
      "Ġvbez": 3442,
      "ĠvpÄĽ": 3443,
      "ĠrÅ¯Å¾": 3444,
      "Ġstrov": 3445,
      "ĠchlÃ½": 3446,
      "ABX": 3447,
      "Ġplul": 3448,
      "Ġhrst": 3449,
      "Ġskrov": 3450,
      "Ġbz": 3451,
      "ĠkÃ¡t": 3452,
      "Ġpij": 3453,
      "ĠÅ¡ku": 3454,
      "ĠkmÄĽ": 3455,
      "ĠkÃ¡s": 3456,
      "ĠsvÃ¡r": 3457,
      "Ġsos": 3458,
      "Ġkrot": 3459,
      "Ġvsmut": 3460,
      "ĠvaÄį": 3461,
      "Ġbub": 3462,
      "Ġvzo": 3463,
      "Ġvmla": 3464,
      "Ġzbyl": 3465,
      "Ġspat": 3466,
      "Ġnan": 3467,
      "ĠÄįiÅ¡": 3468,
      "Ġzbroj": 3469,
      "ĠtouÅ¾": 3470,
      "ĠvmlÃ¡": 3471,
      "Ġlob": 3472,
      "ĠlÃ¡ÅĻ": 3473,
      "Ġdral": 3474,
      "ĠÅ¾Ã¡t": 3475,
      "ĠslÃ¡b": 3476,
      "Ġvjiz": 3477,
      "Ġdvoj": 3478,
      "ĠzlÃ¡s": 3479,
      "vÃ½": 3480,
      "ĠrÅ¯v": 3481,
      "Ġpso": 3482,
      "Ġrce": 3483,
      "Ġmrs": 3484,
      "ĠbÃ½m": 3485,
      "Ġztro": 3486,
      "Ġsnech": 3487,
      "ĠviÄı": 3488,
      "ĠvtÃŃ": 3489,
      "ĠhÅ¯ÅĻ": 3490,
      "ĠtÄĽt": 3491,
      "ĠpsÃŃ": 3492,
      "ĠtÃŃn": 3493,
      "Ġshon": 3494,
      "ĠÅ¯": 3495,
      "ĠseÅ¡": 3496,
      "Ġgan": 3497,
      "ĠveÄį": 3498,
      "Ġlly": 3499,
      "Ġdes": 3500,
      "ĠbÃ½ch": 3501,
      "ĠÅ¥te": 3502,
      "ĠvzchÃ¡": 3503,
      "Ġzkla": 3504,
      "Ġtisk": 3505,
      "Ġvzou": 3506,
      "ĠkouÅĻ": 3507,
      "Ġchcem": 3508,
      "Ġzdvo": 3509,
      "Ġvnoc": 3510,
      "Ġuc": 3511,
      "Ġproz": 3512,
      "Ġslek": 3513,
      "21": 3514,
      "ĠksvÄĽ": 3515,
      "Ġhav": 3516,
      "ĠtÅĻel": 3517,
      "Ġpruh": 3518,
      "Ġdeb": 3519,
      "ĠÄįeÅ¡": 3520,
      "ĠÅĻli": 3521,
      "ABABAC": 3522,
      "ĠpiÄį": 3523,
      "ĠÅ¡tva": 3524,
      "Ġskvou": 3525,
      "ĠvtÃ½": 3526,
      "ĠrdÄĽ": 3527,
      "ĠrdÃŃ": 3528,
      "Ġchru": 3529,
      "ĠÅ¡kÅ¯d": 3530,
      "Ġjav": 3531,
      "Ġnep": 3532,
      "Ġlup": 3533,
      "Ġvkle": 3534,
      "Ġsru": 3535,
      "ĠÅ¡ad": 3536,
      "Ġhel": 3537,
      "ĠvstaÅĪ": 3538,
      "Ġdam": 3539,
      "ĠbÄĽs": 3540,
      "ĠvÅ¾Ã¡": 3541,
      "ĠpÅĻil": 3542,
      "Ġslep": 3543,
      "Ġah": 3544,
      "ĠÅĻiv": 3545,
      "Ġrval": 3546,
      "ĠkmÃŃ": 3547,
      "ĠjeÄį": 3548,
      "Ġvtmu": 3549,
      "Ġbot": 3550,
      "ĠhÅĻi": 3551,
      "Ġvplen": 3552,
      "ĠmÅ¡": 3553,
      "ĠhrÃ¡z": 3554,
      "Ġpsy": 3555,
      "ĠvchvÃŃ": 3556,
      "ĠvzÃŃt": 3557,
      "Ġpust": 3558,
      "Ġzyl": 3559,
      "Ġmes": 3560,
      "Ġdri": 3561,
      "Ġsin": 3562,
      "Ġam": 3563,
      "Ġbouk": 3564,
      "ĠjdeÅ¡": 3565,
      "ĠznÃŃÅ¾": 3566,
      "ĠchtÃŃt": 3567,
      "ĠfÃ©": 3568,
      "Ġjih": 3569,
      "ĠÅ¡ev": 3570,
      "ĠvÄĽd": 3571,
      "ĠrÃ¡n": 3572,
      "Ġzleh": 3573,
      "Ġbzu": 3574,
      "Ġlip": 3575,
      "Ġmer": 3576,
      "ĠpÅ¯t": 3577,
      "lÃ©d": 3578,
      "ĠznÃ¡t": 3579,
      "Ġvkli": 3580,
      "ĠrouÅ¡": 3581,
      "ĠrÃ©Å¾": 3582,
      "ĠcÃ©": 3583,
      "Ġspr": 3584,
      "ĠvÃ½z": 3585,
      "Ġflo": 3586,
      "Ġvkni": 3587,
      "ĠvzÅĪa": 3588,
      "Ġvkout": 3589,
      "Ġtar": 3590,
      "ĠdlÃ©m": 3591,
      "Ġkok": 3592,
      "ĠdÅ¾b": 3593,
      "Ġpluh": 3594,
      "iv": 3595,
      "ĠÅ¡lÃ½": 3596,
      "Ġskem": 3597,
      "Ġnin": 3598,
      "Ġhyz": 3599,
      "Ġdas": 3600,
      "Ġchor": 3601,
      "ĠklÃŃÄį": 3602,
      "Ġzjas": 3603,
      "Ġmag": 3604,
      "Ġbas": 3605,
      "ĠvtvÃ©m": 3606,
      "ĠhÅĻbet": 3607,
      "ĠlaÅ¡": 3608,
      "Ġvba": 3609,
      "ĠbÃ¡n": 3610,
      "Ġshni": 3611,
      "ĠkprÃ¡": 3612,
      "Ġvzdych": 3613,
      "ĠzÅ¾ÃŃ": 3614,
      "ĠÅ¡ed": 3615,
      "Ġvzm": 3616,
      "Ġvznes": 3617,
      "ĠÅ¾in": 3618,
      "ĠzdvÃŃ": 3619,
      "ĠstÃ½s": 3620,
      "Ġskvr": 3621,
      "Ġlau": 3622,
      "Ġpri": 3623,
      "Ġznej": 3624,
      "ĠzvÃ¡n": 3625,
      "ĠsÅĪ": 3626,
      "Ġcud": 3627,
      "Ġpach": 3628,
      "Ġvtma": 3629,
      "Ġzbor": 3630,
      "ĠhvÃŃz": 3631,
      "ry": 3632,
      "Ġ1843": 3633,
      "Ġskryl": 3634,
      "ĠtkÃ¡": 3635,
      "ĠkÃ½Å¾": 3636,
      "Ġhout": 3637,
      "Ġzdlou": 3638,
      "ĠÅĻÃŃk": 3639,
      "Ġvre": 3640,
      "ĠtmÃ¡ch": 3641,
      "ĠtÃ³n": 3642,
      "Ġstrun": 3643,
      "Ġkvla": 3644,
      "Ġhev": 3645,
      "ĠrtÃŃ": 3646,
      "Ġthu": 3647,
      "ĠvaÅ¾": 3648,
      "Ġzmar": 3649,
      "Ġet": 3650,
      "Ġvoz": 3651,
      "ĠchaÅĻ": 3652,
      "Ġvsmr": 3653,
      "Ġmru": 3654,
      "Ġskvo": 3655,
      "ĠsÄį": 3656,
      "ĠkvÄĽl": 3657,
      "Ġshor": 3658,
      "Ġzhla": 3659,
      "Ġrtem": 3660,
      "ĠvÅĻen": 3661,
      "ĠÅ¡lel": 3662,
      "ĠknÃŃÅ¾": 3663,
      "ĠÅ¾ou": 3664,
      "ĠmyÅ¡": 3665,
      "Ġzkad": 3666,
      "Ġtrub": 3667,
      "Ġske": 3668,
      "Ġtrhl": 3669,
      "ĠdÄĽÅ¥": 3670,
      "Ġtrok": 3671,
      "Ġvspo": 3672,
      "Ġvos": 3673,
      "ĠprÃ½Å¡": 3674,
      "ĠÅ¾h": 3675,
      "ĠvztÄĽ": 3676,
      "ĠzÃŃÅ¡": 3677,
      "Ġ1965": 3678,
      "Ġrot": 3679,
      "Ġsply": 3680,
      "Ġskli": 3681,
      "ĠtrÃ©": 3682,
      "ĠvÃŃd": 3683,
      "Ġab": 3684,
      "Ġbuz": 3685,
      "Ġpic": 3686,
      "Ġfon": 3687,
      "Ġmls": 3688,
      "ĠjÅ¯m": 3689,
      "Ġspod": 3690,
      "Ġgro": 3691,
      "Ġkj": 3692,
      "ĠÅ¡ÃŃc": 3693,
      "Ġbav": 3694,
      "ĠshÅ¯": 3695,
      "Ġzvr": 3696,
      "ÅĻad": 3697,
      "Ġsnes": 3698,
      "ĠÃ©": 3699,
      "Ġoj": 3700,
      "Ġ1832": 3701,
      "ĠstlÃ¡": 3702,
      "Ġgen": 3703,
      "ĠbrÃ¡t": 3704,
      "Ġchech": 3705,
      "Ġvg": 3706,
      "ĠzÄį": 3707,
      "Ġvble": 3708,
      "ĠssÃ¡": 3709,
      "Ġzbou": 3710,
      "Ġtroj": 3711,
      "ĠnnÃŃch": 3712,
      "ĠvsnÃ¡": 3713,
      "Ġchout": 3714,
      "ĠdlÃŃm": 3715,
      "ĠvsvÅ¯j": 3716,
      "AD": 3717,
      "ĠpeÅĪ": 3718,
      "Ġvtm": 3719,
      "jal": 3720,
      "ĠzÃ©": 3721,
      "ĠsrÃ¡z": 3722,
      "Ġvtou": 3723,
      "ĠbÃŃm": 3724,
      "Ġmis": 3725,
      "ĠtmÃŃ": 3726,
      "Ġ1847": 3727,
      "Ġryk": 3728,
      "ĠslÃ¡s": 3729,
      "ĠchlÃ½m": 3730,
      "Ġknut": 3731,
      "Ġryl": 3732,
      "ĠrÃ¡ÅĻ": 3733,
      "ĠÅ¡tvÃ¡": 3734,
      "ĠvtÄĽÅ¾": 3735,
      "Ġtles": 3736,
      "ĠvtvÃ©": 3737,
      "ĠzkÅĻi": 3738,
      "ĠvtmÃ¡ch": 3739,
      "ĠrtÅ¯m": 3740,
      "ĠlÃŃÅĻ": 3741,
      "ĠkÄįi": 3742,
      "Ġrep": 3743,
      "Ġjun": 3744,
      "ĠpÅ¯m": 3745,
      "ĠtÄĽk": 3746,
      "Ġzez": 3747,
      "Ġroc": 3748,
      "ĠmÅ¡i": 3749,
      "ĠchÅĻÃŃ": 3750,
      "Ġklel": 3751,
      "ĠvsnÃ¡ch": 3752,
      "Ġdaj": 3753,
      "ĠptÃ¡m": 3754,
      "ĠbÅĻit": 3755,
      "mut": 3756,
      "Ġdout": 3757,
      "ĠksmÃŃ": 3758,
      "ĠstlÃ©": 3759,
      "ĠhÃ¡v": 3760,
      "ĠvsÃŃÅĪ": 3761,
      "ĠchÃ¡Å¡": 3762,
      "ĠstÃ½ÅĻ": 3763,
      "ĠÅĻka": 3764,
      "Ġkvy": 3765,
      "ĠtrÃ¡v": 3766,
      "ĠkÅ¾": 3767,
      "ĠdeÅĻ": 3768,
      "Ġzes": 3769,
      "ĠdceÅĻ": 3770,
      "Ġroh": 3771,
      "ĠhraÄį": 3772,
      "Ġjdem": 3773,
      "ĠsÃ¡ch": 3774,
      "Ġboh": 3775,
      "ĠstÃ¡d": 3776,
      "Ġmhou": 3777,
      "Ġvzda": 3778,
      "Ġnald": 3779,
      "Ġbrav": 3780,
      "Ġrab": 3781,
      "ĠpÅĻen": 3782,
      "ĠbÃ¡Å¡": 3783,
      "vÃ½m": 3784,
      "Ġmet": 3785,
      "Ġprst": 3786,
      "ĠÅ¾ra": 3787,
      "ĠnÃ¡l": 3788,
      "Ġchan": 3789,
      "Ġzoub": 3790,
      "Ġrmut": 3791,
      "Ġcva": 3792,
      "Ġmej": 3793,
      "Ġzrn": 3794,
      "Ġeh": 3795,
      "ĠÅ¡ou": 3796,
      "Ġvnez": 3797,
      "ĠÅ¡kol": 3798,
      "Ġem": 3799,
      "Ġcher": 3800,
      "ĠkvÃ¡": 3801,
      "Ġ1853": 3802,
      "Ġhnou": 3803,
      "ĠsnaÅ¾": 3804,
      "Ġland": 3805,
      "Ġvdlou": 3806,
      "ĠmdlÃ¡": 3807,
      "ĠÄįÅ¯m": 3808,
      "ka": 3809,
      "Ġvden": 3810,
      "ĠbÃ½Å¥": 3811,
      "ĠÅ¾va": 3812,
      "ĠÅĻÃŃd": 3813,
      "ĠflÃŃ": 3814,
      "Ġfau": 3815,
      "ĠkdÃŃ": 3816,
      "ĠsmÃ¡t": 3817,
      "ĠstvÃ©": 3818,
      "Ġtsk": 3819,
      "ĠdrÃ©m": 3820,
      "ĠstÃ¡n": 3821,
      "ĠzvÅ¯": 3822,
      "Ġdrak": 3823,
      "Ġkhro": 3824,
      "ĠlÅ¾e": 3825,
      "ĠkÃ½v": 3826,
      "ABABC": 3827,
      "ĠchvÄĽt": 3828,
      "Ġvlou": 3829,
      "ĠpÅĻev": 3830,
      "ĠplaÄį": 3831,
      "ĠktÄĽm": 3832,
      "ĠlÃ¡k": 3833,
      "Ġsroz": 3834,
      "Ġcer": 3835,
      "ĠpasÅ¥": 3836,
      "Ġzjed": 3837,
      "ĠÅĻÃ¡n": 3838,
      "Ġvzej": 3839,
      "ĠhÅĻmot": 3840,
      "ĠzÃ¡Å¡Å¥": 3841,
      "Ġskok": 3842,
      "ĠvzplÃ¡l": 3843,
      "ĠmstÃŃ": 3844,
      "on": 3845,
      "Ġmha": 3846,
      "Ġloup": 3847,
      "ĠkslÃ¡": 3848,
      "ĠdÃ©Äį": 3849,
      "Ġhoum": 3850,
      "ĠmÃŃÅĪ": 3851,
      "ĠvzpÅĻÃŃ": 3852,
      "Ġkrej": 3853,
      "Ġfat": 3854,
      "Ġzlil": 3855,
      "Ġglo": 3856,
      "ĠÅ¾eÅ¥": 3857,
      "ĠshÃ½": 3858,
      "ĠvmÃ½ch": 3859,
      "ĠpÅĻa": 3860,
      "Ġstiv": 3861,
      "mÃŃ": 3862,
      "Ġkluk": 3863,
      "ĠdrÅ¾": 3864,
      "Ġvcha": 3865,
      "Ġvpar": 3866,
      "Ġvnes": 3867,
      "ĠslÃŃÅ¡": 3868,
      "ĠvjÃŃ": 3869,
      "ĠvprÃ¡z": 3870,
      "Ġvrhl": 3871,
      "Ġae": 3872,
      "Ġzpy": 3873,
      "ĠkaÅ¡": 3874,
      "ĠmuÅ¡": 3875,
      "Ġ1956": 3876,
      "ĠtÅĻiv": 3877,
      "ĠÄįou": 3878,
      "ĠcÃŃÅĻ": 3879,
      "Ġdrem": 3880,
      "Ġment": 3881,
      "ĠlÅ¾ÃŃ": 3882,
      "ĠvztÃ½": 3883,
      "Ġtet": 3884,
      "ĠdnÃ½ch": 3885,
      "ĠtÄĽÅ¡": 3886,
      "ĠzblÃŃz": 3887,
      "ĠskrÃ½Å¡": 3888,
      "Ġkyn": 3889,
      "Ġvzhled": 3890,
      "ĠjitÅĻ": 3891,
      "Ġ1840": 3892,
      "ĠkÅ¡ti": 3893,
      "Ġbah": 3894,
      "ĠjÃŃz": 3895,
      "nech": 3896,
      "Ġvtis": 3897,
      "Ġhnul": 3898,
      "ĠvhouÅ¡": 3899,
      "ĠniÅ¥": 3900,
      "Ġsod": 3901,
      "Ġchvo": 3902,
      "ĠsÃ¡l": 3903,
      "Ġjist": 3904,
      "ĠsÅ¯v": 3905,
      "ĠtÃ¡l": 3906,
      "Ġtvu": 3907,
      "Ġsai": 3908,
      "Ġ1845": 3909,
      "ĠvznÄĽt": 3910,
      "Ġuv": 3911,
      "Ġsok": 3912,
      "Ġpsi": 3913,
      "Ġex": 3914,
      "ĠÅ¡kr": 3915,
      "Ġ1830": 3916,
      "Ġvhor": 3917,
      "ACCD": 3918,
      "ĠtÅĻti": 3919,
      "Ġsji": 3920,
      "Ġrmou": 3921,
      "Ġvoh": 3922,
      "ĠvÅĻÃŃt": 3923,
      "ĠsmyÄį": 3924,
      "ĠspÅĻÃŃ": 3925,
      "Ġvlek": 3926,
      "XABA": 3927,
      "Ġdlen": 3928,
      "ĠsmÃŃr": 3929,
      "Ġzvla": 3930,
      "Ġtik": 3931,
      "ĠzÃ¡n": 3932,
      "ĠkrÃ©": 3933,
      "Ġeu": 3934,
      "Ġchval": 3935,
      "Ġzkte": 3936,
      "Ġchud": 3937,
      "ĠdiÅ¥": 3938,
      "ĠstÅĻem": 3939,
      "ĠvyÅĻ": 3940,
      "ran": 3941,
      "ĠzÅ¡e": 3942,
      "ĠchÃ¡z": 3943,
      "ĠhÅĻÃŃÄį": 3944,
      "ĠpÃ½ch": 3945,
      "Ġhed": 3946,
      "Ġhos": 3947,
      "ĠtkvÃŃ": 3948,
      "XAXBXB": 3949,
      "Ġzyt": 3950,
      "ĠÅ¡pÃŃ": 3951,
      "Ġjes": 3952,
      "Ġhvozd": 3953,
      "ter": 3954,
      "Ġnar": 3955,
      "Ġkob": 3956,
      "Ġpech": 3957,
      "Ġnis": 3958,
      "ĠÄįap": 3959,
      "Ġcour": 3960,
      "ĠstÄĽj": 3961,
      "ĠvmÃ¡": 3962,
      "ĠÅ¾Å¯m": 3963,
      "Ġtol": 3964,
      "Ġhus": 3965,
      "ĠlÃ©t": 3966,
      "Ġvmr": 3967,
      "pÃŃ": 3968,
      "ĠÅ¾iÄį": 3969,
      "Ġztich": 3970,
      "Ġssa": 3971,
      "Ġsmlou": 3972,
      "Ġsvaz": 3973,
      "Ġzroz": 3974,
      "Ġlout": 3975,
      "ĠÅĻiÄį": 3976,
      "ĠbÃŃn": 3977,
      "ĠpÃ½m": 3978,
      "ABAX": 3979,
      "Ġdre": 3980,
      "ĠÅĪou": 3981,
      "ĠÅĻÃŃÅ¾": 3982,
      "ĠvhrÅ¯": 3983,
      "84": 3984,
      "Ġ1984": 3985,
      "ĠkrÃ¡m": 3986,
      "ĠklÃ©m": 3987,
      "Ġtmu": 3988,
      "Ġzsi": 3989,
      "ri": 3990,
      "ĠÄįerv": 3991,
      "Ġrvou": 3992,
      "Ġvkom": 3993,
      "Ġpop": 3994,
      "ĠvÃ¡ÅĻ": 3995,
      "Ġhaj": 3996,
      "Ġhub": 3997,
      "Ġklep": 3998,
      "ĠÄįlun": 3999,
      "Ġtuch": 4000,
      "ĠvhnÄĽ": 4001,
      "ĠlaÅ¥": 4002,
      "ĠvÅ¡tÄĽ": 4003,
      "Ġkvil": 4004,
      "Ġ1860": 4005,
      "Ġdc": 4006,
      "Ġmur": 4007,
      "Ġbvy": 4008,
      "ĠpÅĻijÄı": 4009,
      "Ġ1948": 4010,
      "ĠvlaÅ¾": 4011,
      "Ġztmy": 4012,
      "ĠzÃŃr": 4013,
      "Ġhmy": 4014,
      "Ġsvod": 4015,
      "Ġsliv": 4016,
      "Ġsbra": 4017,
      "ĠkosÅ¥": 4018,
      "Ġpyt": 4019,
      "ĠstlÃ½": 4020,
      "Ġzach": 4021,
      "ĠvkrÄį": 4022,
      "ĠlÃ©k": 4023,
      "AXXA": 4024,
      "ĠnuÅ¡": 4025,
      "ĠdlaÅ¾": 4026,
      "ĠvztÃ¡h": 4027,
      "ĠslÅ¯v": 4028,
      "ĠzdÅĻÃŃ": 4029,
      "Ġvslo": 4030,
      "ĠnebÅ¥": 4031,
      "Ġzly": 4032,
      "ĠzÃ¡c": 4033,
      "Ġzc": 4034,
      "Ġdvr": 4035,
      "ĠtroÅ¡": 4036,
      "nul": 4037,
      "ĠvdÅ¯": 4038,
      "ĠspouÅ¡": 4039,
      "Ġ1805": 4040,
      "Å¡ech": 4041,
      "Ġkpro": 4042,
      "ĠÅ¡piÄį": 4043,
      "Ġvly": 4044,
      "Ġvdru": 4045,
      "Ġsmra": 4046,
      "Ġrra": 4047,
      "ĠsÅĪa": 4048,
      "Ġkrb": 4049,
      "ĠmÃ¡k": 4050,
      "ĠvlÃŃc": 4051,
      "Ġstvem": 4052,
      "ĠtÃ½d": 4053,
      "Ġ1870": 4054,
      "ĠfÅ¯": 4055,
      "Ġzisk": 4056,
      "Ġzci": 4057,
      "Ġoct": 4058,
      "ĠpÄĽn": 4059,
      "ĠdbÃ¡": 4060,
      "ĠkdÄĽ": 4061,
      "Ġ1864": 4062,
      "AABA": 4063,
      "Ġkja": 4064,
      "Ġvzpou": 4065,
      "ĠtÃŃh": 4066,
      "ĠvdlaÅĪ": 4067,
      "Ġat": 4068,
      "Ġmraz": 4069,
      "Ġzpit": 4070,
      "ĠtÅĻesk": 4071,
      "Ġlha": 4072,
      "Ġvsko": 4073,
      "Ġschy": 4074,
      "Ġpluk": 4075,
      "ĠstvÅ¯": 4076,
      "Ġslid": 4077,
      "ĠtÃ¡Å¡": 4078,
      "ĠdvÃ¡b": 4079,
      "Ġcouz": 4080,
      "Ġ1958": 4081,
      "ĠzÅ¡": 4082,
      "Ġzmla": 4083,
      "Ġvpoz": 4084,
      "Ġkpr": 4085,
      "ĠzdÃ¡r": 4086,
      "Ġsrn": 4087,
      "Ġchop": 4088,
      "ĠÅ¡ar": 4089,
      "Ġtluk": 4090,
      "ame": 4091,
      "Ġgli": 4092,
      "ameter": 4093,
      "ĠdlÃ½m": 4094,
      "Ġvnuk": 4095,
      "Ġkmu": 4096,
      "ĠskaÅ¾": 4097,
      "ĠÄįeÅ¥": 4098,
      "ĠvtÃ¡": 4099,
      "Ġkbra": 4100,
      "Ġtup": 4101,
      "ĠÄįÃŃn": 4102,
      "ĠstÅ¯v": 4103,
      "Ġzvod": 4104,
      "ĠÅ¾ÃŃc": 4105,
      "ĠÄįli": 4106,
      "ĠÅĻÃ¡t": 4107,
      "Ġkuj": 4108,
      "Ġuh": 4109,
      "Ġgal": 4110,
      "ĠkbÅĻe": 4111,
      "ĠzkvÄĽ": 4112,
      "Ġstrop": 4113,
      "Ġdba": 4114,
      "Ġlvo": 4115,
      "AAAB": 4116,
      "ĠliÅ¾": 4117,
      "Ġsol": 4118,
      "Ġmlh": 4119,
      "vÃ½ch": 4120,
      "Ġric": 4121,
      "ĠÅ¾ÃŃn": 4122,
      "Ġtoul": 4123,
      "ĠbÃ¡v": 4124,
      "ĠcvÃ¡": 4125,
      "ĠdrÅ¯": 4126,
      "ĠmrÃ¡Äį": 4127,
      "Ġcvr": 4128,
      "Ġznik": 4129,
      "Ġxi": 4130,
      "ĠkÅ¾e": 4131,
      "ko": 4132,
      "ĠrÃ¡Äį": 4133,
      "Ġmeh": 4134,
      "ĠÄįiÄį": 4135,
      "Ġzdy": 4136,
      "ĠbÄĽÅ¾": 4137,
      "ĠÅĻve": 4138,
      "ĠsÃŃÅ¥": 4139,
      "ĠspÄĽj": 4140,
      "Ġdrah": 4141,
      "Ġzevs": 4142,
      "ĠsnÃ©": 4143,
      "ĠklÃ½m": 4144,
      "ĠfraÅ¡": 4145,
      "Ġrav": 4146,
      "ĠÅĻva": 4147,
      "Ġprac": 4148,
      "ĠpsÃ¡t": 4149,
      "ĠÅ¡ti": 4150,
      "ĠtÅĻen": 4151,
      "ĠzÃ¡r": 4152,
      "Ġmh": 4153,
      "Ġvchu": 4154,
      "ĠteÅ¾": 4155,
      "Ġzbar": 4156,
      "Ġvzdal": 4157,
      "ĠsfÃ©": 4158,
      "Ġson": 4159,
      "Ġ1946": 4160,
      "DC": 4161,
      "ĠfrÃ¡": 4162,
      "ĠkvÃ©st": 4163,
      "Ġfle": 4164,
      "ĠmÅ¯m": 4165,
      "ĠtÄĽr": 4166,
      "dlo": 4167,
      "ĠzvÅ¡ech": 4168,
      "Ġrouc": 4169,
      "ABCA": 4170,
      "Ġzlob": 4171,
      "Ġsez": 4172,
      "Ġvzad": 4173,
      "ĠsaÅĪ": 4174,
      "Ġvsy": 4175,
      "Ġtip": 4176,
      "Ġkroz": 4177,
      "Ġous": 4178,
      "ĠsÅ¾": 4179,
      "Ġvsu": 4180,
      "Ġvbuj": 4181,
      "ĠzpÅĻe": 4182,
      "ABCCDD": 4183,
      "Ġzbled": 4184,
      "Ġbost": 4185,
      "Ġger": 4186,
      "ĠpÅĻim": 4187,
      "Ġnah": 4188,
      "ĠzvÄĽsÅ¥": 4189,
      "Ġtha": 4190,
      "ĠctnÃ½": 4191,
      "Ġsvl": 4192,
      "Ġzkle": 4193,
      "ĠtnÃ½": 4194,
      "ĠÃŃch": 4195,
      "ĠvkrÃ¡s": 4196,
      "ĠvyÄį": 4197,
      "Ġim": 4198,
      "ĠÅĻeh": 4199,
      "ĠhÃ¡n": 4200,
      "ĠbÅĻeÄį": 4201,
      "ĠÅ¾b": 4202,
      "Ġdur": 4203,
      "Ġdrc": 4204,
      "Ġzhra": 4205,
      "ĠÅĻÃ¡s": 4206,
      "ĠztÄĽÅ¾": 4207,
      "ĠdoÅ¡": 4208,
      "ĠpÅ¡e": 4209,
      "ĠpraÅ¾": 4210,
      "ĠtvÃŃch": 4211,
      "ĠsÃ½ch": 4212,
      "Ġnud": 4213,
      "ĠÄįÃŃt": 4214,
      "ĠshrÅ¯": 4215,
      "Ġplot": 4216,
      "ĠnÃ©Äį": 4217,
      "Ġvprv": 4218,
      "Ġstrej": 4219,
      "ĠvadÅ¾": 4220,
      "ĠjvÄĽ": 4221,
      "ĠsmeÄį": 4222,
      "Ġir": 4223,
      "ĠÃ¡Å¡": 4224,
      "Ġup": 4225,
      "ĠsmÃŃm": 4226,
      "ĠÅĻkou": 4227,
      "ĠsteÄį": 4228,
      "ĠvnoÄį": 4229,
      "Ġvhroz": 4230,
      "ĠdÅ¡": 4231,
      "Ġvav": 4232,
      "ĠjvÃ½": 4233,
      "Ġmund": 4234,
      "ĠÄįÃŃk": 4235,
      "ĠvtvÃ½ch": 4236,
      "Ġvtro": 4237,
      "ĠzkvÃ©": 4238,
      "Ġsdo": 4239,
      "ĠvhruÄı": 4240,
      "Ġdep": 4241,
      "ĠÅ¡kod": 4242,
      "ĠÅ¡Ã¡k": 4243,
      "ĠstmÃŃ": 4244,
      "ĠÅ¥uÅ¡": 4245,
      "Ġvsled": 4246,
      "Ġvchlad": 4247,
      "ĠblyÅ¡": 4248,
      "Ġtah": 4249,
      "ĠÅ¡ÃŃk": 4250,
      "ĠzpÃ¡": 4251,
      "ĠgÃ¡": 4252,
      "Ġchrem": 4253,
      "ĠÅ¡vih": 4254,
      "ĠvjÃ¡": 4255,
      "Ġdlesk": 4256,
      "ĠschrÃ¡": 4257,
      "ĠÅ¡Ã¡r": 4258,
      "Ġzan": 4259,
      "Ġhouf": 4260,
      "ĠpruÅ¾": 4261,
      "ĠvkvÄĽt": 4262,
      "Ġ1852": 4263,
      "Ġvojsk": 4264,
      "ĠvÄĽÅ¥": 4265,
      "ĠtÅĻek": 4266,
      "Ġcez": 4267,
      "Ġzpur": 4268,
      "Ġvlak": 4269,
      "Ġzmno": 4270,
      "Ġlvi": 4271,
      "Ġcim": 4272,
      "ĠslÅ¯m": 4273,
      "ĠÅ¾ij": 4274,
      "Ġpous": 4275,
      "ĠrÅ¯st": 4276,
      "ĠkmÃ©": 4277,
      "ĠvklÃ¡Å¡": 4278,
      "ĠtrÅ¯m": 4279,
      "ĠpÅĻem": 4280,
      "ĠviÅĪ": 4281,
      "ĠdnÃ½m": 4282,
      "Ġbroj": 4283,
      "Ġzkru": 4284,
      "ĠpÅĻÃŃt": 4285,
      "Ġnym": 4286,
      "ĠjakÅ¾": 4287,
      "Ġ1851": 4288,
      "Ġsklen": 4289,
      "Ġdvih": 4290,
      "ĠlÃ¡v": 4291,
      "tej": 4292,
      "ĠklÃ¡s": 4293,
      "Ġzbe": 4294,
      "Ġchar": 4295,
      "Ġzven": 4296,
      "Ġgol": 4297,
      "Ġvzr": 4298,
      "ĠmÃŃst": 4299,
      "Ġvzka": 4300,
      "ĠradÅ¡": 4301,
      "ĠchvÃŃl": 4302,
      "ĠÄįtver": 4303,
      "Ġmlat": 4304,
      "ĠdveÅĻ": 4305,
      "ĠbdÄĽl": 4306,
      "ĠjÃŃÅ¥": 4307,
      "ĠmÃ¡c": 4308,
      "Ġzkro": 4309,
      "ĠvcÃŃ": 4310,
      "Ġpja": 4311,
      "Ġvstro": 4312,
      "Ġtrat": 4313,
      "Ġ1871": 4314,
      "ABBX": 4315,
      "ĠtÃ½n": 4316,
      "ĠvrÃ¡j": 4317,
      "ĠhrÃ¡m": 4318,
      "ĠstrÃ¡ÅĪ": 4319,
      "Ġchrt": 4320,
      "ĠsÅĻÃŃ": 4321,
      "ĠÅ¡Å¥Ã¡": 4322,
      "Ġthy": 4323,
      "ĠtiÅ¥": 4324,
      "ĠdÅĻej": 4325,
      "Ġvkap": 4326,
      "ĠbylÅ¥": 4327,
      "Ġosm": 4328,
      "Ġkrom": 4329,
      "ĠstmÄĽ": 4330,
      "ĠstiÄį": 4331,
      "Ġzple": 4332,
      "Ġgar": 4333,
      "Ġfre": 4334,
      "ĠceÅ¡": 4335,
      "CB": 4336,
      "Ġmoj": 4337,
      "Ġzbla": 4338,
      "Ġksa": 4339,
      "ĠbrÃ¡c": 4340,
      "ĠvnÄĽÅ¾": 4341,
      "Ġkha": 4342,
      "kÃ¡": 4343,
      "Ġsbe": 4344,
      "Ġsrp": 4345,
      "Ġtky": 4346,
      "ĠzÅ¾": 4347,
      "AXBCBC": 4348,
      "ĠbÅ¯m": 4349,
      "Ġzkrou": 4350,
      "Ġvby": 4351,
      "Ġvzlyk": 4352,
      "ĠvtÃ½l": 4353,
      "ĠsÅ¾i": 4354,
      "ĠÅĻÅ¯m": 4355,
      "ĠsnÅ¯m": 4356,
      "Ġtkal": 4357,
      "Ġ1861": 4358,
      "Ġdul": 4359,
      "Ġnejv": 4360,
      "Ġsnah": 4361,
      "ĠbÅĻes": 4362,
      "ĠvÃ¡k": 4363,
      "Ġplam": 4364,
      "Ġzvra": 4365,
      "22": 4366,
      "Ġvyl": 4367,
      "Ġvrab": 4368,
      "Ġknit": 4369,
      "Ġkslun": 4370,
      "Ġseb": 4371,
      "Ġtum": 4372,
      "Ġbij": 4373,
      "Ġvpy": 4374,
      "Ġdleh": 4375,
      "Ġzok": 4376,
      "ĠlÃŃn": 4377,
      "Ġzhor": 4378,
      "ĠÅ¾at": 4379,
      "ĠdaÅ¥": 4380,
      "ĠdrÅ¯m": 4381,
      "Ġstre": 4382,
      "Ġstri": 4383,
      "ĠÅĻez": 4384,
      "ĠzÃ¡k": 4385,
      "ĠdvÃ¡Å¾": 4386,
      "ĠrÃ¡k": 4387,
      "ĠkhvÄĽz": 4388,
      "ĠvÅ¡er": 4389,
      "ĠvÄįÃŃ": 4390,
      "Ġmos": 4391,
      "Ġmstu": 4392,
      "ĠdaÅĻ": 4393,
      "ĠstaÅ¥": 4394,
      "ĠÅ¡af": 4395,
      "ĠluÄį": 4396,
      "ĠdliÄį": 4397,
      "ĠÅ¡las": 4398,
      "ĠtlÃ©m": 4399,
      "AABX": 4400,
      "ĠvznÃ©": 4401,
      "xameter": 4402,
      "ÅĪu": 4403,
      "Ġhexameter": 4404,
      "ĠvbÃ¡": 4405,
      "Ġfej": 4406,
      "Ġvha": 4407,
      "Ġkmat": 4408,
      "ĠpÃ³": 4409,
      "Ġvrt": 4410,
      "Ġklem": 4411,
      "ĠstrÃ¡n": 4412,
      "AXBCCB": 4413,
      "Ġzap": 4414,
      "ĠÅĻat": 4415,
      "Ġthi": 4416,
      "Ġkai": 4417,
      "ĠschÅ¯": 4418,
      "Ġvzhle": 4419,
      "Ġkrat": 4420,
      "ĠbÅĻin": 4421,
      "Ġloun": 4422,
      "ĠvchrÃ¡m": 4423,
      "Ġcnost": 4424,
      "Ġjab": 4425,
      "Ġkse": 4426,
      "ĠÄįed": 4427,
      "Ġvste": 4428,
      "Ġsejn": 4429,
      "ĠdÅĻich": 4430,
      "ĠÅ¡ik": 4431,
      "Ġ1877": 4432,
      "Ġvsvou": 4433,
      "Ġllas": 4434,
      "ĠvsmÃŃ": 4435,
      "Ġ1867": 4436,
      "ĠjÃŃst": 4437,
      "Ġvtaj": 4438,
      "Ġkrm": 4439,
      "Ġmsta": 4440,
      "Ġrum": 4441,
      "ĠvÅ¾e": 4442,
      "Ġ1820": 4443,
      "Ġpin": 4444,
      "Ġlva": 4445,
      "ĠsmÄĽr": 4446,
      "ĠmiÄį": 4447,
      "ĠvdÅ¯m": 4448,
      "ĠÅ¥ou": 4449,
      "AAAA": 4450,
      "Ġfek": 4451,
      "ĠkÅĻep": 4452,
      "ĠhlÃ©m": 4453,
      "ĠjlÃŃp": 4454,
      "ĠblÅ¯": 4455,
      "ĠtosÅ¥": 4456,
      "Ġslan": 4457,
      "Ġmout": 4458,
      "Ġvkus": 4459,
      "Ġdci": 4460,
      "Ġjho": 4461,
      "ĠÅ¡iÄį": 4462,
      "ĠvÅĻes": 4463,
      "Ġtvol": 4464,
      "Ġjda": 4465,
      "ĠÅ¡tve": 4466,
      "BB": 4467,
      "Ġzob": 4468,
      "Ġshas": 4469,
      "Ġprot": 4470,
      "XAAB": 4471,
      "Ġdent": 4472,
      "ĠksvÃ½m": 4473,
      "Ġbul": 4474,
      "Ġvznik": 4475,
      "ĠvvÄĽ": 4476,
      "Ġpsk": 4477,
      "ÅĪou": 4478,
      "ĠzkaÅ¾": 4479,
      "Ġzak": 4480,
      "ĠkÅĻÃ¡": 4481,
      "dÄĽ": 4482,
      "ĠÅ¡ec": 4483,
      "ĠrÃ¡b": 4484,
      "Ġmrt": 4485,
      "ĠÅ¡kra": 4486,
      "Ġzrad": 4487,
      "Ġ1936": 4488,
      "ĠtlÃ½m": 4489,
      "ĠvpÅ¯l": 4490,
      "Ġtb": 4491,
      "Ġpoch": 4492,
      "ĠstiÅ¥": 4493,
      "ĠpÃ¡m": 4494,
      "ĠsÃ¡n": 4495,
      "Ġsluj": 4496,
      "Ġzvad": 4497,
      "Ġfar": 4498,
      "ĠdrÃ¡ch": 4499,
      "ĠmÅĻÃŃÅ¾": 4500,
      "ĠsnÃŃÅ¾": 4501,
      "ĠspÃŃs": 4502,
      "Ġduj": 4503,
      "Ġxe": 4504,
      "Ġsmat": 4505,
      "ĠzhÅ¯": 4506,
      "ĠprÅ¡": 4507,
      "ĠrÃ½Å¾": 4508,
      "ĠstrÃ©m": 4509,
      "Ġ1856": 4510,
      "Ġztvr": 4511,
      "Ġvska": 4512,
      "Ġvsvo": 4513,
      "Ġkhla": 4514,
      "Ġzmy": 4515,
      "Ġchme": 4516,
      "Ġvdech": 4517,
      "ĠverÅ¡": 4518,
      "Ġstkvost": 4519,
      "pÄĽ": 4520,
      "Ġvtak": 4521,
      "Ġsstou": 4522,
      "Ġksva": 4523,
      "ĠtkvÄĽ": 4524,
      "Ġvdiv": 4525,
      "AXA": 4526,
      "Ġsval": 4527,
      "Ġnim": 4528,
      "Ġzme": 4529,
      "ĠvrÃ½": 4530,
      "ĠbÅĻeÅ¡": 4531,
      "Ġplen": 4532,
      "ĠzÄįech": 4533,
      "ĠÅ¡Ã¡t": 4534,
      "Ġgre": 4535,
      "Ġsnich": 4536,
      "Ġthos": 4537,
      "Ġhrd": 4538,
      "ĠcÃŃÅ¡": 4539,
      "ABBCD": 4540,
      "ĠÄįtu": 4541,
      "mo": 4542,
      "Ġnoh": 4543,
      "ĠstÅĻech": 4544,
      "ĠsÅ¡e": 4545,
      "Ġkbla": 4546,
      "Ġ1962": 4547,
      "ĠÄįat": 4548,
      "Ġzik": 4549,
      "ĠvblÃ¡": 4550,
      "Ġvzta": 4551,
      "Ġdos": 4552,
      "Ġdis": 4553,
      "Ġvke": 4554,
      "ĠvosÅ¥": 4555,
      "ĠpÅĻeÄį": 4556,
      "rud": 4557,
      "ĠvstÃŃn": 4558,
      "Ġvhe": 4559,
      "ĠÅ¡tÄĽt": 4560,
      "ĠblÃ¡Äį": 4561,
      "Ġplout": 4562,
      "ĠbeÅ¡": 4563,
      "ĠÅ¾id": 4564,
      "ĠvprÅ¯": 4565,
      "ĠstvÃ½": 4566,
      "ĠztvÃ½ch": 4567,
      "Ġsklad": 4568,
      "Ġmsty": 4569,
      "ĠvbÅĻe": 4570,
      "ĠvskrÃ¡": 4571,
      "ĠÄıar": 4572,
      "Ġcr": 4573,
      "Ġrro": 4574,
      "ĠdÃ¡Å¾": 4575,
      "Ġstisk": 4576,
      "ĠdaÅĪ": 4577,
      "ĠÅ¡aÅ¡": 4578,
      "Ġad": 4579,
      "Ġvtan": 4580,
      "ĠbÃ¡ÅĪ": 4581,
      "Ġsmrou": 4582,
      "Ġsklon": 4583,
      "ĠmÅĪou": 4584,
      "ĠvstrÃ¡": 4585,
      "ĠzhÃ¡": 4586,
      "ĠzÃ½m": 4587,
      "Ġseh": 4588,
      "Ġmyr": 4589,
      "Ġvpi": 4590,
      "ĠrvÃ¡t": 4591,
      "ĠuÄį": 4592,
      "ĠplÃŃs": 4593,
      "ĠkÃ¡Å¾": 4594,
      "Ġruj": 4595,
      "ĠvsÃ¡": 4596,
      "ĠvspÄĽ": 4597,
      "ĠkpÃ¡": 4598,
      "Ġkut": 4599,
      "ĠÅ¾ÃŃr": 4600,
      "Ġvjar": 4601,
      "Ġzlit": 4602,
      "Ġdluh": 4603,
      "ĠnÃŃn": 4604,
      "Ġvzav": 4605,
      "Ġsvra": 4606,
      "Ġvlok": 4607,
      "Ġmzd": 4608,
      "ĠÅĻvou": 4609,
      "ĠsplÃŃ": 4610,
      "Ġsof": 4611,
      "Ġbloud": 4612,
      "ĠchÅ¯d": 4613,
      "Ġkf": 4614,
      "ĠkoÅ¾": 4615,
      "ĠmÅ¯r": 4616,
      "Ġtliv": 4617,
      "Ġdme": 4618,
      "Ġcyt": 4619,
      "Ġschla": 4620,
      "ABCBCD": 4621,
      "ĠsjÃŃ": 4622,
      "Ġzpl": 4623,
      "ĠzaÅĪ": 4624,
      "ĠzmlÃ¡": 4625,
      "ĠpÅĻÃŃl": 4626,
      "ĠdÅ¯l": 4627,
      "Ġmdle": 4628,
      "ĠscÃ©": 4629,
      "ĠtÅĻu": 4630,
      "ĠdluÅ¾": 4631,
      "Ġvkruh": 4632,
      "BX": 4633,
      "Ġtrn": 4634,
      "Ġvpad": 4635,
      "Ġnve": 4636,
      "Ġbet": 4637,
      "ĠÄįla": 4638,
      "ĠmnÃŃm": 4639,
      "Ġvals": 4640,
      "Ġchoun": 4641,
      "ĠmÅĻi": 4642,
      "Ġmam": 4643,
      "ĠflÃ©": 4644,
      "ĠzplÃ¡": 4645,
      "Ġkvou": 4646,
      "vu": 4647,
      "Ġmic": 4648,
      "Ġsor": 4649,
      "ĠvÅ¡ÃŃÅĻ": 4650,
      "ĠdeÅ¡Å¥": 4651,
      "ĠkruÅ¡": 4652,
      "ĠvsluÅ¾": 4653,
      "ĠvzrÅ¯st": 4654,
      "ĠpaÄį": 4655,
      "Ġbyls": 4656,
      "ĠtenÅ¥": 4657,
      "Ġvsen": 4658,
      "ĠptÃ½": 4659,
      "Ġpnu": 4660,
      "Ġstop": 4661,
      "Ġkrav": 4662,
      "EE": 4663,
      "Ġvdol": 4664,
      "Ġnevr": 4665,
      "ĠjvÄĽr": 4666,
      "ĠÅ¡lÃ©m": 4667,
      "ĠÅ¾ÃŃk": 4668,
      "Ġlkal": 4669,
      "Ġsjed": 4670,
      "ĠsdÄĽt": 4671,
      "ĠplÃ¡n": 4672,
      "ĠÅ¾Ã¡k": 4673,
      "ĠknÃ½": 4674,
      "ĠjvÃ½Å¡": 4675,
      "ĠpÅĻis": 4676,
      "ĠpÃ¡k": 4677,
      "Ġschva": 4678,
      "ĠtoÄį": 4679,
      "Ġzoh": 4680,
      "Ġsci": 4681,
      "ĠmÃŃc": 4682,
      "Ġkce": 4683,
      "Ġsau": 4684,
      "Ġpon": 4685,
      "Ġbab": 4686,
      "ĠÃºÅ¡": 4687,
      "Ġmok": 4688,
      "Ġlub": 4689,
      "Ġvsnech": 4690,
      "ĠbÃ¡ÅĻ": 4691,
      "ĠzblÃ¡": 4692,
      "ĠÅ¾iÅ¥": 4693,
      "ĠztÃ¡": 4694,
      "ĠvbÃ¡z": 4695,
      "ĠvmÅ¾i": 4696,
      "Ġsdra": 4697,
      "ÅĻo": 4698,
      "Ġhrn": 4699,
      "Ġhve": 4700,
      "ĠpÅĻÃ¡t": 4701,
      "ĠdÅ¯t": 4702,
      "Ġplet": 4703,
      "ĠtaÅ¥": 4704,
      "ĠtouÅ¡": 4705,
      "ĠjsouÅ¥": 4706,
      "lÃ½m": 4707,
      "ĠkyÅĪ": 4708,
      "Ġcuj": 4709,
      "ĠÅĻÃŃz": 4710,
      "ĠvÃ½h": 4711,
      "ĠsÅĪat": 4712,
      "Ġpun": 4713,
      "ĠbraÅĪ": 4714,
      "ĠtoÅĪ": 4715,
      "Ġ1839": 4716,
      "lem": 4717,
      "ĠkÃ¡z": 4718,
      "Ġpud": 4719,
      "ĠtÅĻÃŃÄį": 4720,
      "he": 4721,
      "ĠtmÃ¡m": 4722,
      "ĠbÅĻÃŃz": 4723,
      "ĠkÃ¡r": 4724,
      "Ġrych": 4725,
      "ĠsÃ½c": 4726,
      "ĠzbÅ¯j": 4727,
      "ĠmaÅ¡": 4728,
      "Ġ1950": 4729,
      "ĠvdÄĽs": 4730,
      "Ġchry": 4731,
      "Ġnaiv": 4732,
      "ĠtnÃ©": 4733,
      "ĠtÃ¡Å¾": 4734,
      "ĠkaÅ¥": 4735,
      "Ġvaj": 4736,
      "Ġrud": 4737,
      "Ġvuj": 4738,
      "Ġhrej": 4739,
      "ĠtÅĻeb": 4740,
      "ĠvÃºs": 4741,
      "Ġop": 4742,
      "ĠroÅ¡": 4743,
      "lil": 4744,
      "ĠoÅĻ": 4745,
      "ĠtÃŃl": 4746,
      "Ġrub": 4747,
      "ĠkÅ¡tÄĽ": 4748,
      "AXBBCC": 4749,
      "ĠjÃ¡Å¥": 4750,
      "ĠÄįast": 4751,
      "ĠzhÅĻÃŃ": 4752,
      "ĠvblÃŃz": 4753,
      "AXXB": 4754,
      "ĠmÃ¡Äį": 4755,
      "Ġvbok": 4756,
      "ĠzÅ¾e": 4757,
      "Ġnuz": 4758,
      "Ġzech": 4759,
      "Ġbuch": 4760,
      "ĠplaÅ¥": 4761,
      "ĠdÃŃch": 4762,
      "Ġstvou": 4763,
      "Ġtrov": 4764,
      "Ġbrod": 4765,
      "Ġvzruch": 4766,
      "ĠÅĻed": 4767,
      "ABCCDE": 4768,
      "Ġlar": 4769,
      "Ġzub": 4770,
      "Ġzis": 4771,
      "ĠvrÅ¡": 4772,
      "Ġstvy": 4773,
      "tÃ¡": 4774,
      "ĠÅ¾nÃŃ": 4775,
      "Ġ1812": 4776,
      "Ġ1822": 4777,
      "Ġsfin": 4778,
      "Ġpst": 4779,
      "Ġket": 4780,
      "ĠdnÃ©m": 4781,
      "ĠpleÅ¥": 4782,
      "ĠstrÅĪ": 4783,
      "ĠgÃ©": 4784,
      "Ġzpoz": 4785,
      "ĠÅ¾ur": 4786,
      "ĠchrÅ¯": 4787,
      "Ġvtes": 4788,
      "ĠÅ¡vec": 4789,
      "Ġlod": 4790,
      "ĠhnÃ¡t": 4791,
      "Ġblys": 4792,
      "Ġvslav": 4793,
      "ĠplÅĪ": 4794,
      "Ġblouk": 4795,
      "ĠÅ¥uk": 4796,
      "Ġptej": 4797,
      "ĠmÃŃch": 4798,
      "ĠzvÃ¡t": 4799,
      "ĠhnÃ¡n": 4800,
      "Ġvklid": 4801,
      "ĠstÃ¡m": 4802,
      "ĠbloÅĪ": 4803,
      "ĠshlÃ©": 4804,
      "Ġkdru": 4805,
      "ĠhrÃ½": 4806,
      "ĠvzkÃ¡": 4807,
      "ĠpÅ¡": 4808,
      "ĠpÅĻip": 4809,
      "ĠpraÅ¡": 4810,
      "Ġfro": 4811,
      "Ġdak": 4812,
      "ĠhÅĻiv": 4813,
      "zt": 4814,
      "ĠviÅ¥": 4815,
      "ĠchtÃŃc": 4816,
      "ĠdÅ¾bÃ¡": 4817,
      "Ġvouz": 4818,
      "Ġvchod": 4819,
      "Ġvky": 4820,
      "ĠsnÄĽt": 4821,
      "ĠzkÅĻÃŃ": 4822,
      "ĠÅ¡tÄĽp": 4823,
      "Ġvnou": 4824,
      "Ġvouk": 4825,
      "Ġkpom": 4826,
      "Ġblem": 4827,
      "ĠchoÄı": 4828,
      "Ġvdra": 4829,
      "ĠslÃ¡v": 4830,
      "Ġksto": 4831,
      "Ġsmej": 4832,
      "Ġgyp": 4833,
      "Ġplem": 4834,
      "Ġdlal": 4835,
      "ĠstÅĻej": 4836,
      "Ġvyk": 4837,
      "ĠvpÅĻi": 4838,
      "ĠpÃ¡Å¾": 4839,
      "ĠvÃºz": 4840,
      "lÃ³": 4841,
      "Ġdals": 4842,
      "ĠÄįtvrt": 4843,
      "ĠjÃŃn": 4844,
      "Ġdrn": 4845,
      "ĠvÄįem": 4846,
      "Ġcon": 4847,
      "ĠbrÅ¯": 4848,
      "Ġskrej": 4849,
      "Ġtrysk": 4850,
      "Ġfla": 4851,
      "Ġres": 4852,
      "Ġkstro": 4853,
      "ĠÅ¾lout": 4854,
      "ĠvÃ¡d": 4855,
      "Ġmod": 4856,
      "Ġkvet": 4857,
      "ĠzprÃ¡v": 4858,
      "ĠkÄįer": 4859,
      "Ġdor": 4860,
      "ĠzvÅ¡e": 4861,
      "ĠkvÄĽÄį": 4862,
      "Ġtus": 4863,
      "Ġspy": 4864,
      "ĠtyÄį": 4865,
      "Ġjeh": 4866,
      "ĠvtÅ¯": 4867,
      "ĠchÅ¯v": 4868,
      "ĠvmÄĽk": 4869,
      "ĠsÃ½m": 4870,
      "Ġvbr": 4871,
      "Ġvrod": 4872,
      "Ġvsku": 4873,
      "ĠzkouÅ¡": 4874,
      "Ġchleb": 4875,
      "ÅĻou": 4876,
      "ĠpÅĻÃ¡h": 4877,
      "Ġcre": 4878,
      "ĠÅ¡eÅ¡": 4879,
      "Ġvyv": 4880,
      "ĠvzpÄĽ": 4881,
      "ĠvspÃ¡n": 4882,
      "ĠvsmÄĽ": 4883,
      "mi": 4884,
      "ĠchÅĻad": 4885,
      "ĠvskÃ¡": 4886,
      "Ġvmdlo": 4887,
      "ĠÄįtou": 4888,
      "Ġbud": 4889,
      "ĠspÃ¡r": 4890,
      "ĠhÅ¯v": 4891,
      "Ġmuch": 4892,
      "ĠsÃŃd": 4893,
      "Ġzol": 4894,
      "ĠblaÅ¾": 4895,
      "Ġyon": 4896,
      "Ġvon": 4897,
      "ĠÅ¡klu": 4898,
      "ĠvkÅĻe": 4899,
      "ĠskÅĻÃŃÅĪ": 4900,
      "Ġvym": 4901,
      "Ġvis": 4902,
      "Ġsmou": 4903,
      "ĠtÃŃÄį": 4904,
      "ĠlÃ¡z": 4905,
      "Ġvleb": 4906,
      "Ġchlub": 4907,
      "Ġchlum": 4908,
      "ĠleÄı": 4909,
      "ĠpÃŃc": 4910,
      "Ġgil": 4911,
      "Ġ1806": 4912,
      "Ġzut": 4913,
      "ĠstÄĽÅ¾": 4914,
      "Ġvbles": 4915,
      "ĠznÃŃt": 4916,
      "Ġjvo": 4917,
      "ĠtaÅ¾": 4918,
      "Ġtram": 4919,
      "Ġssu": 4920,
      "Ġksta": 4921,
      "ĠlouÄį": 4922,
      "Ġchmat": 4923,
      "Ġztros": 4924,
      "ĠkÅĪa": 4925,
      "Ġmun": 4926,
      "Ġvzpja": 4927,
      "Ġvstr": 4928,
      "Ġstyd": 4929,
      "ĠskoÄį": 4930,
      "ĠmiÅĪ": 4931,
      "ĠmÃ¡v": 4932,
      "ĠspÃ¡d": 4933,
      "ĠkrouÅ¾": 4934,
      "Ġvzrak": 4935,
      "Ġnor": 4936,
      "ĠpÅĻiÅ¡": 4937,
      "ĠvmrÃ¡": 4938,
      "Ġtrost": 4939,
      "Ġvchva": 4940,
      "Ġproj": 4941,
      "Ġil": 4942,
      "ĠmÃ¡ÅĻ": 4943,
      "Ġpoun": 4944,
      "ĠsiÄį": 4945,
      "ĠmÃ©n": 4946,
      "ku": 4947,
      "Ġzau": 4948,
      "Ġbron": 4949,
      "ĠbÅĻÃŃÅ¡": 4950,
      "ĠnaÅ¥": 4951,
      "Ġkoz": 4952,
      "Ġjam": 4953,
      "ĠmÃŃÅ¥": 4954,
      "ABABBC": 4955,
      "ĠsÄįÃŃ": 4956,
      "Ġ1850": 4957,
      "ĠsrÅ¯": 4958,
      "Ġ1804": 4959,
      "ĠkÄį": 4960,
      "ABABXX": 4961,
      "ĠÅ¾ed": 4962,
      "Ġfil": 4963,
      "ĠÅ¡els": 4964,
      "Ġkhra": 4965,
      "Ġfouk": 4966,
      "Ġstoud": 4967,
      "Ġvep": 4968,
      "ĠÄįesÅ¥": 4969,
      "ĠtÅ¯Äį": 4970,
      "ĠpÃ½r": 4971,
      "Ġrac": 4972,
      "Ġklon": 4973,
      "Ġvmoz": 4974,
      "Ġ1959": 4975,
      "ĠpÅ¯r": 4976,
      "Ġprut": 4977,
      "Ġzhe": 4978,
      "ĠÅĻÅ¯v": 4979,
      "Ġvzlo": 4980,
      "ĠvzhlÃ©d": 4981,
      "Ġkum": 4982,
      "Ġmel": 4983,
      "ĠctÃŃm": 4984,
      "Ġctil": 4985,
      "ĠzmÄĽk": 4986,
      "ĠtmÄĽl": 4987,
      "Ġvkal": 4988,
      "ĠlpÃŃ": 4989,
      "ĠlÃ¡r": 4990,
      "ĠhÃ½Äį": 4991,
      "ĠvÃ½t": 4992,
      "Ġmant": 4993,
      "Ġhot": 4994,
      "Ġtai": 4995,
      "ĠbÃ©m": 4996,
      "Ġcep": 4997,
      "ĠvÄĽsÅ¥": 4998,
      "Ġvplo": 4999,
      "ĠvÅĻÃŃn": 5000,
      "ĠbrÃ©m": 5001,
      "ĠÅ¡tÄĽr": 5002,
      "Ġtyr": 5003,
      "ĠÄįÃ¡p": 5004,
      "Ġtres": 5005,
      "Ġcouv": 5006,
      "ĠzkrÃ¡s": 5007,
      "ĠvplÃ¡Äį": 5008,
      "Ġvvo": 5009,
      "ĠÃºÄį": 5010,
      "Ġtrum": 5011,
      "Ġalp": 5012,
      "Ġplic": 5013,
      "ĠknimÅ¾": 5014,
      "ĠuÅ¡t": 5015,
      "Ġvtrh": 5016,
      "ĠstÃŃÅ¡": 5017,
      "Ġloub": 5018,
      "Ġsiv": 5019,
      "Ġplan": 5020,
      "ĠchlÃ©m": 5021,
      "Ġstrhl": 5022,
      "ĠjeÄı": 5023,
      "ĠchÃ¡n": 5024,
      "ĠctnÃ¡": 5025,
      "Ġruk": 5026,
      "Ġzoun": 5027,
      "AXABBC": 5028,
      "ĠslÃ½ch": 5029,
      "ĠjaÅĻ": 5030,
      "Ġvul": 5031,
      "ĠzmÄĽn": 5032,
      "ĠvÅ¡p": 5033,
      "ĠvhnÃŃz": 5034,
      "ĠznÄĽj": 5035,
      "Ġnva": 5036,
      "ĠÅ¡ÃŃÅĻ": 5037,
      "ĠÅ¾dÃ¡": 5038,
      "Ġjor": 5039,
      "Ġstlu": 5040,
      "Ġlyp": 5041,
      "ĠvkÃ¡": 5042,
      "Ġ1940": 5043,
      "Ġtot": 5044,
      "ĠtuÅ¡": 5045,
      "Ġkouk": 5046,
      "Ġsus": 5047,
      "Ġstvi": 5048,
      "rÃ½": 5049,
      "Ġkma": 5050,
      "ĠlstÃŃ": 5051,
      "ĠhoÄı": 5052,
      "Ġzod": 5053,
      "ĠkleÅ¡": 5054,
      "Ġzyv": 5055,
      "Ġkslo": 5056,
      "bo": 5057,
      "ĠÅĻest": 5058,
      "Ġvbar": 5059,
      "ĠsmÄĽj": 5060,
      "ĠzdÃ¡v": 5061,
      "Ġhold": 5062,
      "Ġpul": 5063,
      "Ġtas": 5064,
      "Ġtknu": 5065,
      "ĠsÅĪal": 5066,
      "ABABCX": 5067,
      "ta": 5068,
      "Ġzdej": 5069,
      "ĠsÄįer": 5070,
      "ĠskÅĻou": 5071,
      "ĠÅ¾ich": 5072,
      "ĠhouÅ¡Å¥": 5073,
      "ĠÅ¡ke": 5074,
      "ĠvloÄį": 5075,
      "Ġcli": 5076,
      "Ġhil": 5077,
      "Ġvslou": 5078,
      "Ġ1827": 5079,
      "ĠchlÃ½ch": 5080,
      "Ġdbej": 5081,
      "ĠchÅĻ": 5082,
      "ĠvÅ¡tÃŃ": 5083,
      "ĠstÃ¡h": 5084,
      "Ġzplo": 5085,
      "ĠsÃ¡z": 5086,
      "ĠkÅ¡ÃŃ": 5087,
      "ĠstuÅ¾": 5088,
      "ĠteÅ¡": 5089,
      "Ġloz": 5090,
      "Ġbuv": 5091,
      "Ġslab": 5092,
      "ĠtÅ¯ÅĪ": 5093,
      "ĠbÃŃÅ¡": 5094,
      "ĠsvÃŃÄį": 5095,
      "ĠvzÃ¡m": 5096,
      "Ġstvol": 5097,
      "ĠnÃŃt": 5098,
      "Ġvss": 5099,
      "Ġspov": 5100,
      "Ġprus": 5101,
      "Ġvkri": 5102,
      "Ġvzmat": 5103,
      "23": 5104,
      "ĠÅĻisÅ¥": 5105,
      "Ġzust": 5106,
      "ĠmdlÃ½ch": 5107,
      "ĠspuÅ¡": 5108,
      "Ġmn": 5109,
      "ĠmÃº": 5110,
      "Ġzmlk": 5111,
      "ĠvÅ¾ÃŃ": 5112,
      "Ġnne": 5113,
      "ĠÅ¥Ã¡t": 5114,
      "Ġvryl": 5115,
      "Ġzfo": 5116,
      "ĠdÅ¾bÃ¡n": 5117,
      "ĠshvÄĽz": 5118,
      "ĠlvÃŃ": 5119,
      "ĠplaÅ¡": 5120,
      "ABABXC": 5121,
      "ĠpÃ¡t": 5122,
      "ĠÅ¥Ã¡l": 5123,
      "ĠktvÃ©": 5124,
      "Ġkzu": 5125,
      "Ġtran": 5126,
      "ĠslÃŃÄį": 5127,
      "Ġvmoc": 5128,
      "Ġkvra": 5129,
      "ĠsnÃŃmÅ¾": 5130,
      "ĠstÅĻiÄį": 5131,
      "jat": 5132,
      "Ġtav": 5133,
      "ĠsnÃŃÅ¡": 5134,
      "Ġsmek": 5135,
      "AAXBBC": 5136,
      "Ġrmu": 5137,
      "Ġvah": 5138,
      "Ġsyc": 5139,
      "ĠskvÄĽl": 5140,
      "nt": 5141,
      "ĠdÅĻev": 5142,
      "Ġ1821": 5143,
      "Ġsis": 5144,
      "Ġzre": 5145,
      "ĠtnÃŃm": 5146,
      "ĠlÃ©Äį": 5147,
      "Ġsouc": 5148,
      "ĠzchrÃ¡": 5149,
      "Ġost": 5150,
      "ĠsÃŃt": 5151,
      "ĠrouÅ¾": 5152,
      "ABCCBD": 5153,
      "ĠskÅĻek": 5154,
      "ĠpÃŃÄı": 5155,
      "Ġstrem": 5156,
      "ĠzvÄĽÄį": 5157,
      "ny": 5158,
      "Ã¤": 5159,
      "ĠbeÅĻ": 5160,
      "ĠÅĻÃŃÄį": 5161,
      "Ġvzky": 5162,
      "Ġzchu": 5163,
      "Ġskep": 5164,
      "ĠÅĻval": 5165,
      "ĠzÃŃk": 5166,
      "Ġjmen": 5167,
      "Ġvkla": 5168,
      "ĠnnÃŃk": 5169,
      "ĠÄįtr": 5170,
      "ĠsjÃ¡": 5171,
      "ĠÅ¡tvÃ¡n": 5172,
      "ĠÅ¡ÃŃr": 5173,
      "us": 5174,
      "Ġzz": 5175,
      "Ġsvoj": 5176,
      "Ġther": 5177,
      "Ġknil": 5178,
      "ĠdÃŃr": 5179,
      "ĠsviÅ¡": 5180,
      "ĠzklÃ¡": 5181,
      "AXAXB": 5182,
      "ĠÅ¾nÄĽ": 5183,
      "Ġbed": 5184,
      "ĠblaÄį": 5185,
      "AAXBBX": 5186,
      "AXXX": 5187,
      "Ġllus": 5188,
      "ĠÅ¡ÅĪ": 5189,
      "Ġvsad": 5190,
      "Ġshl": 5191,
      "ĠzdÃ½": 5192,
      "Ġfry": 5193,
      "BD": 5194,
      "ĠvÅĻi": 5195,
      "Ġskte": 5196,
      "Ġsmlu": 5197,
      "Ġhum": 5198,
      "ĠkliÄı": 5199,
      "ĠkpÅĻÃŃ": 5200,
      "ĠvspÃ¡": 5201,
      "ĠÄįlÃ¡": 5202,
      "Ġproh": 5203,
      "Ġkaj": 5204,
      "Ġdliv": 5205,
      "Ġvrb": 5206,
      "ĠztmÄĽ": 5207,
      "ĠvhÅĻÃŃ": 5208,
      "ĠÅĪÃ¡k": 5209,
      "Ġhmyz": 5210,
      "Ġtral": 5211,
      "ĠkjÃŃ": 5212,
      "Ġpark": 5213,
      "ĠctÃŃt": 5214,
      "Ġmzdu": 5215,
      "Ġvtru": 5216,
      "Ġspros": 5217,
      "Ġkta": 5218,
      "ĠssÃ¡l": 5219,
      "ĠmlÃ©Äį": 5220,
      "Ġchcy": 5221,
      "Ġvspol": 5222,
      "Ġhnout": 5223,
      "Ġjaks": 5224,
      "ĠÅĻiÅ¥": 5225,
      "ĠzhnÃŃz": 5226,
      "ĠpnÄĽ": 5227,
      "ĠÅ¾ab": 5228,
      "Ġtrup": 5229,
      "ĠcÃ¡r": 5230,
      "Ġsjas": 5231,
      "ĠvÅĻeÄį": 5232,
      "Ġgram": 5233,
      "Ġzeh": 5234,
      "ĠhruÅ¡": 5235,
      "ĠhÅĻÃ¡l": 5236,
      "ĠchmÅ¯": 5237,
      "ĠdaÄį": 5238,
      "Ġprinc": 5239,
      "ĠdcÅ¯": 5240,
      "Ġzdal": 5241,
      "ÄıÃ¡": 5242,
      "ABCABC": 5243,
      "Ġmdlou": 5244,
      "ĠvtÄĽs": 5245,
      "ĠÄįmu": 5246,
      "ĠvÄįes": 5247,
      "Ġvnic": 5248,
      "ĠbÄĽj": 5249,
      "ĠvkÅĻi": 5250,
      "Ġgis": 5251,
      "ĠhrÃ¡ch": 5252,
      "ĠvzhlÃŃ": 5253,
      "ĠdnÃŃm": 5254,
      "Ġlhal": 5255,
      "Ġxan": 5256,
      "ĠsbÄĽh": 5257,
      "ĠpoÄı": 5258,
      "Ġes": 5259,
      "ĠmdlÃ½m": 5260,
      "ĠvvÃ½": 5261,
      "ĠflÃ©t": 5262,
      "Ġtch": 5263,
      "Ġzov": 5264,
      "ĠrÃ½n": 5265,
      "ĠÄıou": 5266,
      "Ġsdi": 5267,
      "Ã³n": 5268,
      "Ġmnil": 5269,
      "Ġmouc": 5270,
      "ĠptÃ¡t": 5271,
      "ĠzhlÃŃd": 5272,
      "Ġvmech": 5273,
      "ĠhÃº": 5274,
      "Ġtim": 5275,
      "Ġdmu": 5276,
      "ĠstÅĻen": 5277,
      "Ġlav": 5278,
      "Ġtlesk": 5279,
      "Ġrras": 5280,
      "ĠkoÅĪ": 5281,
      "ĠtoÅ¡": 5282,
      "ĠpÄĽsÅ¥": 5283,
      "Ġchas": 5284,
      "ĠÅ¡kÃ¡": 5285,
      "Ġchel": 5286,
      "Ġgend": 5287,
      "ĠprÃ©": 5288,
      "ĠvkÅ¯": 5289,
      "Ġspek": 5290,
      "ĠksluÅ¾": 5291,
      "Ġzdru": 5292,
      "ĠpÄĽÅ¡": 5293,
      "ĠzmÃ½ch": 5294,
      "Ġgur": 5295,
      "Ġshluk": 5296,
      "XAXX": 5297,
      "Ġblah": 5298,
      "ACAC": 5299,
      "ĠÅ¡kleb": 5300,
      "ĠzÅ¾i": 5301,
      "ĠkaÄį": 5302,
      "Ġvzbo": 5303,
      "ĠY": 5304,
      "ĠjÃ¡c": 5305,
      "Ġzuj": 5306,
      "ĠpÅ¯st": 5307,
      "Ġvlez": 5308,
      "ABACCB": 5309,
      "ĠvtmÄĽ": 5310,
      "ĠsÃ¡k": 5311,
      "ĠpsÅ¯": 5312,
      "ĠÅ¡pe": 5313,
      "ĠvnÄĽjÅ¾": 5314,
      "ĠnÃŃÅ¥": 5315,
      "ĠÅ¾ej": 5316,
      "ĠryÄį": 5317,
      "Ġred": 5318,
      "Ġhlup": 5319,
      "Ġschne": 5320,
      "Ġvskal": 5321,
      "ĠvdÃŃl": 5322,
      "ĠÅ¡vÃ¡": 5323,
      "ĠmaÄį": 5324,
      "Ġis": 5325,
      "Ġvmar": 5326,
      "Ġllen": 5327,
      "ABBB": 5328,
      "ĠvhvÄĽz": 5329,
      "ĠproÅĪ": 5330,
      "ĠÅ¡tÃ¡": 5331,
      "Ġtlit": 5332,
      "ĠÅ¾la": 5333,
      "Ġ1819": 5334,
      "Ġvzmu": 5335,
      "ĠsnÃŃl": 5336,
      "Ġ1807": 5337,
      "ĠthÃ©": 5338,
      "Ġwa": 5339,
      "Ġchost": 5340,
      "ĠkÅ¯l": 5341,
      "Ġssy": 5342,
      "ĠÅ¡etÅĻ": 5343,
      "ĠspÅ¯": 5344,
      "ĠtrÃ¡m": 5345,
      "Ġ17": 5346,
      "ĠztvÃ©": 5347,
      "Ġtrob": 5348,
      "Ġlamp": 5349,
      "Ġsteh": 5350,
      "ĠÅ¡perk": 5351,
      "Ġdsk": 5352,
      "Ġmlej": 5353,
      "Ġkas": 5354,
      "ĠÄįiÅ¥": 5355,
      "CCA": 5356,
      "ĠzklÃŃ": 5357,
      "Ġkres": 5358,
      "Ġkluz": 5359,
      "ĠsÅ¥": 5360,
      "ĠdÃ¡Å¥": 5361,
      "ĠhÃ¡l": 5362,
      "Ġsluh": 5363,
      "ĠziÄį": 5364,
      "vÃ¡t": 5365,
      "Ġchlej": 5366,
      "Ġkza": 5367,
      "ĠflÃŃk": 5368,
      "ĠÅĪÅ¯m": 5369,
      "Ġbros": 5370,
      "ĠvpouÅ¡Å¥": 5371,
      "Ġpuch": 5372,
      "ĠschvÃ¡l": 5373,
      "ĠhÅĻmÄĽl": 5374,
      "ĠkmeÅ¥": 5375,
      "Ġvdov": 5376,
      "Ġlog": 5377,
      "Ġzmd": 5378,
      "ĠsdÅ¯": 5379,
      "ĠzrÃ¡l": 5380,
      "Ġtc": 5381,
      "ĠzÄįi": 5382,
      "Ġbuk": 5383,
      "ĠtÃ©r": 5384,
      "Ġsbi": 5385,
      "Ġvskry": 5386,
      "Ġvhud": 5387,
      "Ġ1939": 5388,
      "Ġhluch": 5389,
      "Ġsved": 5390,
      "ĠloÅĪ": 5391,
      "ĠsÃ¡Å¡": 5392,
      "ĠkÅĻest": 5393,
      "up": 5394,
      "Ġduh": 5395,
      "ĠÅ¡lÃ¡p": 5396,
      "ĠvoÄı": 5397,
      "Ġzkon": 5398,
      "ĠÅ¡lou": 5399,
      "Ġnoz": 5400,
      "ĠvtÅĻe": 5401,
      "Ġllah": 5402,
      "Ġprok": 5403,
      "Ġspjat": 5404,
      "Ġprak": 5405,
      "Ġvjel": 5406,
      "ĠvÅ¡um": 5407,
      "Ġvzkaz": 5408,
      "Ġsam": 5409,
      "ĠpÅĻih": 5410,
      "ĠvkÅĻo": 5411,
      "ĠsnÅ¯v": 5412,
      "Ġrach": 5413,
      "ĠbÄĽn": 5414,
      "ĠpiÅ¥": 5415,
      "ĠdrÃ¡t": 5416,
      "ĠvdÃ¡v": 5417,
      "Ġsvad": 5418,
      "Ġmid": 5419,
      "Ġzkli": 5420,
      "Ġvkon": 5421,
      "Ġfrau": 5422,
      "Ã¶": 5423,
      "Ġmaj": 5424,
      "Ġvstav": 5425,
      "ABCDDC": 5426,
      "Ġzvln": 5427,
      "ĠsÅ¡ÃŃ": 5428,
      "ĠÅ¾hnou": 5429,
      "ĠroÄį": 5430,
      "ĠprÃ¡s": 5431,
      "Ġzlom": 5432,
      "ĠvbÄĽh": 5433,
      "ĠsoÅ¡": 5434,
      "Ġspos": 5435,
      "ĠvjichÅ¾": 5436,
      "Ġsde": 5437,
      "Ġsev": 5438,
      "ĠdlÃŃt": 5439,
      "Ġhvizd": 5440,
      "ĠvzdÃ¡t": 5441,
      "ĠdejÅ¾": 5442,
      "Ġtn": 5443,
      "Ġgor": 5444,
      "ĠzbÃ¡": 5445,
      "ĠshlÃ©d": 5446,
      "ĠsÃ½Å¡": 5447,
      "ĠkÅ¾a": 5448,
      "Ġvtros": 5449,
      "ĠspÄĽt": 5450,
      "AEAE": 5451,
      "ĠpÅĻeÅ¡": 5452,
      "Ġbaj": 5453,
      "th": 5454,
      "ĠÅ¡lu": 5455,
      "Ġtuh": 5456,
      "ĠÅ¡lal": 5457,
      "ĠvstraÅ¡": 5458,
      "Ġzkom": 5459,
      "ĠvchÅ¯": 5460,
      "XAXABC": 5461,
      "ĠrÃ¡r": 5462,
      "Ġchyl": 5463,
      "Ġklec": 5464,
      "ĠÅĪal": 5465,
      "ĠkspÃ¡": 5466,
      "Ġpjal": 5467,
      "Ġmir": 5468,
      "ĠfrÃ½": 5469,
      "Ġvsto": 5470,
      "ĠvpÃ½": 5471,
      "ĠvzhlÃ©": 5472,
      "Ġzchla": 5473,
      "ĠzsvÃ©": 5474,
      "ĠvvÄĽÄį": 5475,
      "ĠsvÅ¡e": 5476,
      "Ġhran": 5477,
      "Ġvmat": 5478,
      "ĠzhrÅ¯": 5479,
      "ĠvpÅĻÃŃÅ¡": 5480,
      "Ġrdou": 5481,
      "AABBXX": 5482,
      "Ġsbu": 5483,
      "ĠtÅĻiÄį": 5484,
      "ĠkplÃ¡": 5485,
      "ĠÄįtyÅĻ": 5486,
      "Ġvproud": 5487,
      "Ġhop": 5488,
      "Ġhma": 5489,
      "Ġvsh": 5490,
      "Ġhouk": 5491,
      "Ġklub": 5492,
      "Ġbard": 5493,
      "Ġzpom": 5494,
      "lech": 5495,
      "ĠpÃŃch": 5496,
      "XAXAXA": 5497,
      "ĠvbouÅĻ": 5498,
      "Ġjve": 5499,
      "Ġhraj": 5500,
      "AABCC": 5501,
      "Ġbert": 5502,
      "Ġgri": 5503,
      "hy": 5504,
      "ĠdÄĽls": 5505,
      "ĠzlÃ©m": 5506,
      "Ġcir": 5507,
      "ĠÄįÃŃl": 5508,
      "ĠhlÅ¯": 5509,
      "ĠtÄĽc": 5510,
      "ĠzmÄĽÅ¥": 5511,
      "ĠstÃŃh": 5512,
      "Ġsir": 5513,
      "ĠktrÅ¯": 5514,
      "Ġzmlh": 5515,
      "Ġmrd": 5516,
      "ĠvÃ¡t": 5517,
      "ĠzÃ¡j": 5518,
      "Ġsyv": 5519,
      "Ġzeb": 5520,
      "ĠslasÅ¥": 5521,
      "Ġhrb": 5522,
      "ABACBC": 5523,
      "ĠjlÃ©": 5524,
      "ĠstÃŃs": 5525,
      "Ġsrb": 5526,
      "XXAA": 5527,
      "ĠstÃ¡v": 5528,
      "ĠpÃ¡Å¡": 5529,
      "Ġsvist": 5530,
      "ĠbrÃ¡n": 5531,
      "Ġjep": 5532,
      "Ġces": 5533,
      "ĠsmÃ½m": 5534,
      "ĠpÃŃk": 5535,
      "Ġvzpjal": 5536,
      "ĠsbÅĻe": 5537,
      "ĠÅ¾uj": 5538,
      "Ġprob": 5539,
      "Ġsvrh": 5540,
      "Ġzhloub": 5541,
      "Ġvak": 5542,
      "Ġktan": 5543,
      "ol": 5544,
      "Ġkord": 5545,
      "ĠvdÃ½m": 5546,
      "Ġhlod": 5547,
      "ĠdlÃ¡m": 5548,
      "Ġcid": 5549,
      "Ġtlej": 5550,
      "FF": 5551,
      "Ġck": 5552,
      "ĠsplÃ©": 5553,
      "Ġsyp": 5554,
      "XAAX": 5555,
      "ĠsvlÃ©": 5556,
      "ĠÅ¡ech": 5557,
      "Ġvsni": 5558,
      "Ġstlou": 5559,
      "Ġvsnu": 5560,
      "Ġblek": 5561,
      "Ġsble": 5562,
      "ĠkÅĻt": 5563,
      "ĠvrÅ¯z": 5564,
      "ĠvcÃŃr": 5565,
      "ĠÄįle": 5566,
      "ĠlkÃ¡t": 5567,
      "ĠzlÃ¡t": 5568,
      "ĠvcÃ¡": 5569,
      "ĠkspÃ¡n": 5570,
      "Ġkoch": 5571,
      "ĠvÃŃÅ¾": 5572,
      "Ġslat": 5573,
      "Ġsoum": 5574,
      "ĠzhouÅ¡": 5575,
      "Ġvhrad": 5576,
      "Ġzmdle": 5577,
      "ĠÅ¡Ã¡l": 5578,
      "ABXX": 5579,
      "ĠbaÅ¡": 5580,
      "Ġvpan": 5581,
      "Ġbvi": 5582,
      "ĠÅĻet": 5583,
      "ÅĪÃ¡": 5584,
      "ĠtÅĻej": 5585,
      "Ġtvrz": 5586,
      "Ġtroud": 5587,
      "AXABCB": 5588,
      "ĠmnÃŃÅ¡": 5589,
      "ADD": 5590,
      "Ġshra": 5591,
      "Ġcus": 5592,
      "ĠvÅ¾Ã¡r": 5593,
      "ĠvÅ¡el": 5594,
      "Ġvrop": 5595,
      "Ġsef": 5596,
      "ĠlÃ¡d": 5597,
      "Ġhles": 5598,
      "Ġdrh": 5599,
      "ĠzdÃ¡t": 5600,
      "ĠÅ¥Äįe": 5601,
      "ĠvneÅ¡": 5602,
      "ĠchtÃŃÄį": 5603,
      "Ġzdum": 5604,
      "ĠÄįac": 5605,
      "XAXAXX": 5606,
      "ĠvlÃ¡k": 5607,
      "ĠchÃ½Å¡": 5608,
      "ĠzrÃ½": 5609,
      "ĠskrÃ½t": 5610,
      "Ġsplav": 5611,
      "Ġslet": 5612,
      "ĠzvÃ¡Å¾": 5613,
      "Ġvpev": 5614,
      "ĠkyÅ¾": 5615,
      "Ġpet": 5616,
      "ĠvznÃ©st": 5617,
      "Ġag": 5618,
      "Ġztla": 5619,
      "ĠsbÃŃr": 5620,
      "Ġras": 5621,
      "ky": 5622,
      "Ġjh": 5623,
      "ĠvÅ¾al": 5624,
      "Ġsdce": 5625,
      "Ġknuv": 5626,
      "ĠhoÅ¡": 5627,
      "ĠhÅĻÃ¡t": 5628,
      "Ġkhru": 5629,
      "Ġvstoup": 5630,
      "Ġvtlu": 5631,
      "Ġec": 5632,
      "Ġztlu": 5633,
      "Ġztre": 5634,
      "Ġzdep": 5635,
      "Ġksy": 5636,
      "Ġprask": 5637,
      "ÅĪal": 5638,
      "Ġvtla": 5639,
      "Ġvzdej": 5640,
      "Ġfin": 5641,
      "ĠÅ¾rÃ¡": 5642,
      "Ġvut": 5643,
      "ĠtouÄį": 5644,
      "ĠklÃ¡st": 5645,
      "Ġhviz": 5646,
      "ĠzÅ¯m": 5647,
      "ĠstrasÅ¥": 5648,
      "ĠtÅĻÃŃc": 5649,
      "Ġsdan": 5650,
      "Ġhloh": 5651,
      "ĠzdÄĽt": 5652,
      "ĠpskÃ½ch": 5653,
      "ĠjÃŃÄį": 5654,
      "Ġklat": 5655,
      "ĠvÅĻeÅ¡": 5656,
      "Ġskot": 5657,
      "Ġschou": 5658,
      "ĠhÅĻmÃŃt": 5659,
      "ĠstvÄĽ": 5660,
      "ĠhaÄį": 5661,
      "ĠflÃ³": 5662,
      "ĠbouÄį": 5663,
      "ĠztÅĻe": 5664,
      "Ġvzep": 5665,
      "Ġzcha": 5666,
      "Ġwe": 5667,
      "Ġsg": 5668,
      "Ġvpos": 5669,
      "ĠÅ¥Ã¡k": 5670,
      "Ġdvrh": 5671,
      "AXAA": 5672,
      "Ġbob": 5673,
      "ĠzÄįÃŃ": 5674,
      "ĠpeÅ¡": 5675,
      "ĠkrÃ½ch": 5676,
      "Ġbic": 5677,
      "ĠbraÅ¥": 5678,
      "Ġshu": 5679,
      "ĠvlÃ¡t": 5680,
      "Ġmau": 5681,
      "ĠtrÄį": 5682,
      "Ġsvah": 5683,
      "Ġdles": 5684,
      "ĠmÄĽls": 5685,
      "AADD": 5686,
      "Ġvtrp": 5687,
      "ĠnÄĽv": 5688,
      "Ġkpe": 5689,
      "ĠchÃ½Å¾": 5690,
      "Ġsklep": 5691,
      "Ġvbah": 5692,
      "Ġzbez": 5693,
      "Ġvsho": 5694,
      "ĠtmÃ¡": 5695,
      "ĠzdÅĻÃŃm": 5696,
      "AAABB": 5697,
      "Ġzast": 5698,
      "XXAX": 5699,
      "lun": 5700,
      "ĠvplÃŃ": 5701,
      "ĠptÃ¡Å¡": 5702,
      "ĠsmÃŃÅ¡": 5703,
      "ĠctÄĽn": 5704,
      "Ġkhar": 5705,
      "Ġsov": 5706,
      "ĠgrÃ¡": 5707,
      "ĠÄıme": 5708,
      "ĠvzbuÄı": 5709,
      "ĠztvÃ¡": 5710,
      "ĠzvÃŃd": 5711,
      "ĠÅ¾ne": 5712,
      "Ġzper": 5713,
      "ĠÅ¡ejd": 5714,
      "ĠonÅ¥": 5715,
      "ACDD": 5716,
      "Ġslout": 5717,
      "ĠvÅĻÃŃs": 5718,
      "Ġdlej": 5719,
      "ĠhlÃº": 5720,
      "Ġoud": 5721,
      "ĠvdÄĽt": 5722,
      "ĠvÃºc": 5723,
      "Ġvstup": 5724,
      "ĠÅ¡eÅ¥": 5725,
      "ĠstÃŃch": 5726,
      "Ġsum": 5727,
      "ĠsdÃŃt": 5728,
      "ĠvchÃ½": 5729,
      "Ġtrouch": 5730,
      "AAXXBB": 5731,
      "Ġbus": 5732,
      "Ġbiz": 5733,
      "Ġvrej": 5734,
      "ĠcÃ½r": 5735,
      "ĠklÃŃÅĻ": 5736,
      "ĠvzlÃ©t": 5737,
      "Ġsza": 5738,
      "Ġvblu": 5739,
      "ĠtevÅĻ": 5740,
      "ĠlpÄĽ": 5741,
      "Ġcej": 5742,
      "ĠsÅ¯l": 5743,
      "Ġmdlob": 5744,
      "ĠtÅĻas": 5745,
      "Ġzkaz": 5746,
      "ĠvloÅ¾": 5747,
      "Ġai": 5748,
      "ĠvisÅ¥": 5749,
      "ĠzbÅĻe": 5750,
      "ĠtÅĻech": 5751,
      "Ġzhan": 5752,
      "ĠsÅĻe": 5753,
      "Ġkrt": 5754,
      "Ġvsbo": 5755,
      "ĠtÅĻev": 5756,
      "Ġcval": 5757,
      "Ġoch": 5758,
      "Ġlim": 5759,
      "Ġvas": 5760,
      "ĠtaÅ¡": 5761,
      "ĠsprÃ¡z": 5762,
      "Ġsun": 5763,
      "ĠmnÄĽl": 5764,
      "Ġdlost": 5765,
      "Ġnals": 5766,
      "Ġvsvor": 5767,
      "Ġjec": 5768,
      "Ġsmla": 5769,
      "Ġdroz": 5770,
      "Ġchav": 5771,
      "Ġhrud": 5772,
      "Ġvsed": 5773,
      "Ġakt": 5774,
      "ÃŃs": 5775,
      "ĠvÃ¡c": 5776,
      "ĠnnÃ¡m": 5777,
      "ĠvdÅ¯l": 5778,
      "ĠzblÃ¡z": 5779,
      "Ġprej": 5780,
      "Ġvps": 5781,
      "ĠÅ¡plÃŃ": 5782,
      "Ġvve": 5783,
      "Ġtau": 5784,
      "ĠtÄĽp": 5785,
      "Ġvkar": 5786,
      "ĠzmÃ½": 5787,
      "Ġtman": 5788,
      "ĠÅ¡ov": 5789,
      "lan": 5790,
      "Ġzst": 5791,
      "Ġsman": 5792,
      "ĠvlÃ¡l": 5793,
      "Ġzvlh": 5794,
      "Ġjic": 5795,
      "ĠmuÅ¥": 5796,
      "Ġvklu": 5797,
      "Ġzhl": 5798,
      "ĠÄıu": 5799,
      "Ġgerd": 5800,
      "ĠÄįis": 5801,
      "Ġvper": 5802,
      "ĠzhvÄĽz": 5803,
      "Ġpuj": 5804,
      "ĠskloÅĪ": 5805,
      "Ġsver": 5806,
      "ĠshlÃŃd": 5807,
      "Ġzlid": 5808,
      "Ġumf": 5809,
      "Ġsjel": 5810,
      "jÅ¡": 5811,
      "Ġjlil": 5812,
      "ĠÅ¾ÃŃÄį": 5813,
      "Ġvus": 5814,
      "ĠryÅ¡": 5815,
      "ĠzkÅĻe": 5816,
      "ĠkamÅ¾": 5817,
      "ĠtÅĻa": 5818,
      "ĠvnÃ¡d": 5819,
      "ĠvplÃ¡Å¡Å¥": 5820,
      "ĠÄįpÃŃ": 5821,
      "Ġpam": 5822,
      "Ġtvrd": 5823,
      "ĠjsemÅ¥": 5824,
      "Ġtym": 5825,
      "ĠgÃ¡n": 5826,
      "ĠzÃ¡Å¡t": 5827,
      "ĠsdÃŃl": 5828,
      "Ġie": 5829,
      "Ġham": 5830,
      "ĠkeÅ¡": 5831,
      "Ġnezv": 5832,
      "Ġschnou": 5833,
      "ĠÅĻan": 5834,
      "Ġgraf": 5835,
      "ĠvlÅ¯Å¾": 5836,
      "AXBBCD": 5837,
      "Ġcleh": 5838,
      "ĠjvejÅ¡": 5839,
      "Ġgou": 5840,
      "ĠkleÄį": 5841,
      "ĠchvÄĽn": 5842,
      "Ġzvel": 5843,
      "ill": 5844,
      "Ġbon": 5845,
      "ĠzhnÄĽ": 5846,
      "ĠbÅ¯Å¾": 5847,
      "ĠmstÃŃt": 5848,
      "Ġzbav": 5849,
      "ĠsÅ¾a": 5850,
      "ĠtakÅĻ": 5851,
      "ĠhuÄį": 5852,
      "ĠpÃ¡Äį": 5853,
      "ĠzchvÃ¡": 5854,
      "ĠvbÃŃd": 5855,
      "Ġzsrd": 5856,
      "ĠjÃ¡ÅĻ": 5857,
      "Ġvleh": 5858,
      "ĠskÅĻÃŃt": 5859,
      "ĠzklÃ¡Å¡": 5860,
      "Ġmol": 5861,
      "ĠbeÄį": 5862,
      "Ġbram": 5863,
      "ĠkliÄį": 5864,
      "ĠblÃ½Å¡": 5865,
      "Ġvzmach": 5866,
      "Ġ178": 5867,
      "ĠvsvÃ¡": 5868,
      "Ġbrach": 5869,
      "ĠgÃ¡t": 5870,
      "Ġsba": 5871,
      "ĠsviÅ¾": 5872,
      "ĠÅ¡plech": 5873,
      "ĠrÃ¡t": 5874,
      "Ġkleb": 5875,
      "Ġvbod": 5876,
      "Ġvskle": 5877,
      "ACXC": 5878,
      "ĠÄįnÄĽl": 5879,
      "Ġbiv": 5880,
      "ĠkpÅ¯": 5881,
      "ĠÅ¡Å¯v": 5882,
      "ĠstkvÄĽl": 5883,
      "ĠbÃŃÄį": 5884,
      "ĠzmÅ¯": 5885,
      "ĠstvÃŃch": 5886,
      "ir": 5887,
      "ĠnÃ½ÅĻ": 5888,
      "Ġsoch": 5889,
      "ĠshnÄĽ": 5890,
      "ĠdlÃŃÅ¡": 5891,
      "ĠprÅ¯s": 5892,
      "kou": 5893,
      "Ġzvat": 5894,
      "Ġbac": 5895,
      "Ġzprou": 5896,
      "Ġvsmrt": 5897,
      "ĠtrÃ³": 5898,
      "Ġstuj": 5899,
      "Ġzhru": 5900,
      "ĠnÄĽjÅ¾": 5901,
      "Ġrre": 5902,
      "ĠÄįÃ¡l": 5903,
      "Ġph": 5904,
      "ĠcÅ¾e": 5905,
      "Ġstam": 5906,
      "ĠplÃ½ch": 5907,
      "ĠÄįich": 5908,
      "ĠhlaÄı": 5909,
      "Ã³r": 5910,
      "Ġzjich": 5911,
      "ĠvÃŃch": 5912,
      "Ġdik": 5913,
      "ĠvsÃ¡z": 5914,
      "Ġvdar": 5915,
      "Ġdrozd": 5916,
      "Ġvyn": 5917,
      "Ġktre": 5918,
      "ĠroÅ¾": 5919,
      "XXXA": 5920,
      "ĠvzÅĪal": 5921,
      "Ġstot": 5922,
      "Ġksu": 5923,
      "ĠslÃŃp": 5924,
      "Ġzlet": 5925,
      "Ġxal": 5926,
      "Ġlnou": 5927,
      "Ġsplo": 5928,
      "ĠbÃ½k": 5929,
      "Ġkpou": 5930,
      "ĠstÃ½l": 5931,
      "ĠzpÃŃs": 5932,
      "Ġhust": 5933,
      "ĠvbrÃ¡": 5934,
      "ĠshÅĻÃŃ": 5935,
      "Ġvjes": 5936,
      "Ġcul": 5937,
      "Ġmrk": 5938,
      "ĠÅ¾by": 5939,
      "rob": 5940,
      "Ġkdvo": 5941,
      "Ġsav": 5942,
      "Ġchuj": 5943,
      "ĠchyÅ¥": 5944,
      "Ġznoj": 5945,
      "ĠtrÅ¯v": 5946,
      "Ġzchy": 5947,
      "Ġlv": 5948,
      "ĠÅĻÃŃn": 5949,
      "ĠstÃŃÅ¾": 5950,
      "Ġznou": 5951,
      "Ġzhled": 5952,
      "ĠslÃ¡n": 5953,
      "ĠknÃŃm": 5954,
      "ĠbÅ¯j": 5955,
      "ĠhnÃŃ": 5956,
      "ĠliÅ¥": 5957,
      "Ġzdou": 5958,
      "Ġzdor": 5959,
      "Ġvmno": 5960,
      "ĠslÃŃch": 5961,
      "ĠvÄįlo": 5962,
      "ĠnnÄĽj": 5963,
      "Ġstep": 5964,
      "Ġkzd": 5965,
      "ĠzvÃŃÅ¡": 5966,
      "Ġbrouk": 5967,
      "Ġprys": 5968,
      "Ġsnub": 5969,
      "ABBCDC": 5970,
      "Ġvzpru": 5971,
      "ĠvniÅ¾": 5972,
      "ĠzÅ¯v": 5973,
      "Ġmast": 5974,
      "Ġsre": 5975,
      "ĠrÅ¾": 5976,
      "Ġjiv": 5977,
      "Ġsmol": 5978,
      "ĠsvÃ¡l": 5979,
      "ĠzyÄį": 5980,
      "ĠvpÅ¯t": 5981,
      "ADE": 5982,
      "lÅ¯": 5983,
      "ĠsÅ¾ÃŃ": 5984,
      "Ġnuj": 5985,
      "ĠÅ¡ept": 5986,
      "Ġvples": 5987,
      "ĠzluÄį": 5988,
      "ĠÅ¾da": 5989,
      "Ġvpal": 5990,
      "ĠÅĪat": 5991,
      "Ġxu": 5992,
      "Ġ1809": 5993,
      "Ġkoh": 5994,
      "Ġvstru": 5995,
      "Ġshrou": 5996,
      "Ġskost": 5997,
      "ĠÅ¡tu": 5998,
      "Ġspik": 5999,
      "ĠsfÃ©r": 6000,
      "76": 6001,
      "Ġ[": 6002,
      "Ġtnou": 6003,
      "ĠpÅĻer": 6004,
      "Ġvbra": 6005,
      "1876": 6006,
      "ĠjÅ¯v": 6007,
      "Ġzcu": 6008,
      "ĠstrÅ¾": 6009,
      "Ġkbe": 6010,
      "ĠstÅĻih": 6011,
      "ĠvpÄĽk": 6012,
      "ĠpsÃŃk": 6013,
      "Ġ1814": 6014,
      "Ġtron": 6015,
      "ĠkÅĻÃ¡l": 6016,
      "Ġzvrh": 6017,
      "ĠÅ¡ÅĪÅ¯": 6018,
      "Ġjir": 6019,
      "ĠlÃŃh": 6020,
      "Ġdvy": 6021,
      "ĠztÃ½": 6022,
      "mur": 6023,
      "Ġnai": 6024,
      "ĠroÅĪ": 6025,
      "ĠsloÅ¾": 6026,
      "Ġtknou": 6027,
      "ĠsÃºc": 6028,
      "ĠsoÅĪ": 6029,
      "Ġsouz": 6030,
      "ĠkÅĻiÄį": 6031,
      "XABC": 6032,
      "ĠdÅĻec": 6033,
      "ĠplÃ©m": 6034,
      "ĠspleÅ¥": 6035,
      "Ġkin": 6036,
      "Ġcil": 6037,
      "ĠÄįec": 6038,
      "Ġlus": 6039,
      "Ġfem": 6040,
      "Ġboum": 6041,
      "ĠchÃ¡s": 6042,
      "ĠmlÅ¾": 6043,
      "ĠkÃ½ms": 6044,
      "ĠÅ¡tkÃ¡": 6045,
      "ĠslÃ©t": 6046,
      "ĠkrÃ½t": 6047,
      "Ġskvrn": 6048,
      "ĠtcÅ¯": 6049,
      "ĠsiÅ¥": 6050,
      "ĠlÃ¡l": 6051,
      "ĠfÄĽ": 6052,
      "Ġkvar": 6053,
      "Ġvlep": 6054,
      "ĠspÃŃm": 6055,
      "Ġskyt": 6056,
      "ĠbÅĻich": 6057,
      "Ġvblan": 6058,
      "ĠvÅĪÃ¡": 6059,
      "ABXC": 6060,
      "Ġzty": 6061,
      "Ġznec": 6062,
      "Ġlymp": 6063,
      "Ġthic": 6064,
      "ĠÄįly": 6065,
      "ĠzkvÃŃ": 6066,
      "ĠhÅ¯d": 6067,
      "ĠfÃŃr": 6068,
      "ĠpÃ©m": 6069,
      "Ġchvi": 6070,
      "Ġchvost": 6071,
      "ĠmiÅ¡": 6072,
      "ĠstvÅ¯r": 6073,
      "Ġksla": 6074,
      "ĠzÃ½ch": 6075,
      "Ġzab": 6076,
      "ĠkuÅĪ": 6077,
      "ĠkÃ¡l": 6078,
      "ĠkÅĻeÄį": 6079,
      "Ġvvz": 6080,
      "ĠÅĻkouc": 6081,
      "ĠÄįr": 6082,
      "ĠlÃ©n": 6083,
      "ĠziÅ¡": 6084,
      "ĠÅ¾an": 6085,
      "Ġfes": 6086,
      "ĠvÅĻeÅ¥": 6087,
      "ĠsviÅ¥": 6088,
      "ĠssvÄĽ": 6089,
      "ĠvdeÅ¡": 6090,
      "Ġcis": 6091,
      "ĠstiÅ¾": 6092,
      "ĠgÅ¯": 6093,
      "Ġvstej": 6094,
      "ĠkÅ¡i": 6095,
      "ĠvtvÅ¯j": 6096,
      "ĠÅ¡ma": 6097,
      "AACC": 6098,
      "ĠdlÃ¡Å¾": 6099,
      "ĠÅĻÃŃct": 6100,
      "ĠlhÃ¡ÅĻ": 6101,
      "Ġzvlast": 6102,
      "Ġzg": 6103,
      "ĠvpÅĻÃ¡": 6104,
      "Ġmoun": 6105,
      "Ġbun": 6106,
      "Ġvlaj": 6107,
      "Ġzblu": 6108,
      "ĠchrÃ¡n": 6109,
      "Ġvkost": 6110,
      "Ġbom": 6111,
      "Ġksi": 6112,
      "ĠÅ¡tka": 6113,
      "ĠchyÅĪ": 6114,
      "ĠvleÄį": 6115,
      "Ġnven": 6116,
      "Ġzbr": 6117,
      "voz": 6118,
      "ĠkbÃŃ": 6119,
      "Ġfrak": 6120,
      "ĠsdÃŃv": 6121,
      "Ġjla": 6122,
      "ĠvdÃ½": 6123,
      "ĠplÃ½m": 6124,
      "Ġkroj": 6125,
      "ĠknÄĽh": 6126,
      "ĠÅ¡an": 6127,
      "Ġ1866": 6128,
      "Ġgun": 6129,
      "24": 6130,
      "Ġvjem": 6131,
      "Ġpluj": 6132,
      "Ġvrum": 6133,
      "Ġvdav": 6134,
      "ĠdÅ¡ti": 6135,
      "Ġvvoj": 6136,
      "Ġrhy": 6137,
      "Å¡em": 6138,
      "Ġveh": 6139,
      "Ġzke": 6140,
      "ĠzÃ½s": 6141,
      "Ġzboj": 6142,
      "Ġvjis": 6143,
      "ĠmoÅĪ": 6144,
      "Ġvtvo": 6145,
      "Ġeo": 6146,
      "Ġsles": 6147,
      "ĠzhÅĻe": 6148,
      "ĠblÃŃÄį": 6149,
      "Ġspar": 6150,
      "ĠstÅĻÃŃk": 6151,
      "Ġzlen": 6152,
      "Ġbrub": 6153,
      "ĠsplÃ¡ch": 6154,
      "ĠmlÃŃ": 6155,
      "Ġkun": 6156,
      "ĠvÅ¡ad": 6157,
      "ĠboÅ¡": 6158,
      "ĠsbÃ¡z": 6159,
      "ĠvhluÄį": 6160,
      "ĠvtÃŃs": 6161,
      "Ġjhem": 6162,
      "ĠrÃº": 6163,
      "ĠÅĻech": 6164,
      "Ġhouc": 6165,
      "Ġhrub": 6166,
      "ĠÅ¾ov": 6167,
      "ĠchÅĻest": 6168,
      "ĠstÅĻil": 6169,
      "ĠhÃ¡k": 6170,
      "ĠvÅ¯v": 6171,
      "Ġplec": 6172,
      "ĠkneÅ¡": 6173,
      "ĠlÃ©zt": 6174,
      "Ġvrak": 6175,
      "Ġges": 6176,
      "Ġvryt": 6177,
      "Ġprov": 6178,
      "Ġprk": 6179,
      "Ġkuds": 6180,
      "ĠbrouÄį": 6181,
      "ĠstÃ¡Å¡": 6182,
      "Ġlouk": 6183,
      "ĠvzÃ¡ÅĻ": 6184,
      "Ġumr": 6185,
      "ĠsnÃ©st": 6186,
      "ĠschrÃ¡n": 6187,
      "ĠvÅĻÃ¡": 6188,
      "Ġlne": 6189,
      "Ġvsvi": 6190,
      "Ġhoust": 6191,
      "Ġzot": 6192,
      "ĠanÅ¥": 6193,
      "Ġbrys": 6194,
      "Ġvzim": 6195,
      "ĠvtÅ¯ÅĪ": 6196,
      "Ġvbrz": 6197,
      "BA": 6198,
      "ber": 6199,
      "Ġvyt": 6200,
      "ĠtakÅ¾": 6201,
      "ĠmÃŃÄį": 6202,
      "ĠkÅ¯r": 6203,
      "Ġgh": 6204,
      "ĠvkÅĻÃŃ": 6205,
      "Ġtlak": 6206,
      "ĠtloÅĪ": 6207,
      "ĠknÃ½ch": 6208,
      "ĠvssÃ¡": 6209,
      "ĠslÃ½m": 6210,
      "ĠpÅĻÃŃj": 6211,
      "ĠschvÄĽ": 6212,
      "ĠÅ¡plou": 6213,
      "Ġnvi": 6214,
      "Ġlaur": 6215,
      "ĠsvÄĽÅ¥": 6216,
      "Ġvdou": 6217,
      "ĠsvÃŃc": 6218,
      "ĠkbrÃ¡": 6219,
      "ĠsvraÅ¡": 6220,
      "ĠdÃŃn": 6221,
      "Ġsmil": 6222,
      "Ġzdat": 6223,
      "ĠvÅ¡im": 6224,
      "Ġspis": 6225,
      "ĠpliÄį": 6226,
      "Ġstec": 6227,
      "Ġmont": 6228,
      "Ġdbal": 6229,
      "ĠvspÃŃ": 6230,
      "ĠhnÃŃzd": 6231,
      "ĠzdÅ¯": 6232,
      "Ġhyn": 6233,
      "Ġzkni": 6234,
      "ĠÄįti": 6235,
      "Ġmul": 6236,
      "ĠvÃ½r": 6237,
      "Ġdran": 6238,
      "ĠchtÄĽj": 6239,
      "Ġkvel": 6240,
      "Ġ1834": 6241,
      "ĠvlÃŃÄį": 6242,
      "ĠkÅĻti": 6243,
      "Ġ1785": 6244,
      "Ġrit": 6245,
      "Ġvkry": 6246,
      "Ġcro": 6247,
      "ĠÅĻiÄı": 6248,
      "Ġsprost": 6249,
      "ĠÅ¡ÃŃÄį": 6250,
      "Ġsoh": 6251,
      "Ġdvad": 6252,
      "Ġzky": 6253,
      "ĠÅ¡pl": 6254,
      "Ġcan": 6255,
      "ĠmniÅ¡": 6256,
      "Ġvsr": 6257,
      "Ġhen": 6258,
      "Ġznes": 6259,
      "Ġknouc": 6260,
      "Ġvpur": 6261,
      "ĠhÃºt": 6262,
      "Ġkdi": 6263,
      "ĠdlÅ¯m": 6264,
      "Ġvhmo": 6265,
      "Ġzhnu": 6266,
      "Ġvled": 6267,
      "Ġsfe": 6268,
      "ĠvzmÃ¡": 6269,
      "Ã¡d": 6270,
      "ĠrÃ¡c": 6271,
      "Ġstret": 6272,
      "Ġvdnech": 6273,
      "Ġslez": 6274,
      "Ġzkor": 6275,
      "ĠvÅĻesk": 6276,
      "Ġdlid": 6277,
      "ĠsdrÃ¡": 6278,
      "Ġvbol": 6279,
      "ĠdÅĻel": 6280,
      "Ġovz": 6281,
      "ĠnnosÅ¥": 6282,
      "ĠvspÄĽch": 6283,
      "ĠvoÅ¡": 6284,
      "ĠÅ¾ÃŃÅ¥": 6285,
      "Ġvdne": 6286,
      "Ġslon": 6287,
      "ĠvmÅ¾ik": 6288,
      "Ġkub": 6289,
      "Ġstich": 6290,
      "Ġraf": 6291,
      "Ġpsu": 6292,
      "ĠzÃ½c": 6293,
      "ĠdÃ³m": 6294,
      "ĠmÄĽs": 6295,
      "Ġdls": 6296,
      "Ġsvan": 6297,
      "ĠkpÃŃs": 6298,
      "Ġkzp": 6299,
      "ĠknÃ½m": 6300,
      "ĠdvÃŃÅĻ": 6301,
      "ABBCDD": 6302,
      "ĠvskrÃ¡ÅĪ": 6303,
      "ĠkÅ¡e": 6304,
      "ĠÅ¾est": 6305,
      "ĠÅ¡iv": 6306,
      "Ġkvl": 6307,
      "Ġzver": 6308,
      "Ġsry": 6309,
      "ĠzÅ¾en": 6310,
      "ĠrÅ¾e": 6311,
      "ĠdÃ½s": 6312,
      "Ġrouch": 6313,
      "Ġskrou": 6314,
      "ĠÅ¡lÃŃm": 6315,
      "ACDC": 6316,
      "Ġtce": 6317,
      "ĠbÅĻad": 6318,
      "ĠstlÃŃ": 6319,
      "Ġtval": 6320,
      "ĠstÅĻeh": 6321,
      "Ġgot": 6322,
      "Ġpliv": 6323,
      "dÄĽÄį": 6324,
      "Ġvvy": 6325,
      "Ġlap": 6326,
      "ĠnÃ¡r": 6327,
      "Ġkvz": 6328,
      "Ġztad": 6329,
      "ĠÅ¾alm": 6330,
      "Ġvhoj": 6331,
      "ĠplÃ©st": 6332,
      "ĠskÅĻip": 6333,
      "ĠzhoÅĻ": 6334,
      "Ġwi": 6335,
      "Ġrhyt": 6336,
      "ĠzÃŃtÅĻ": 6337,
      "Ġzmen": 6338,
      "Ġstvr": 6339,
      "ĠhÅĻej": 6340,
      "AAXBCC": 6341,
      "im": 6342,
      "krÃ¡": 6343,
      "Ġlab": 6344,
      "ĠvÅ¾ha": 6345,
      "ĠtlÅ¯": 6346,
      "ĠdnÃŃch": 6347,
      "ĠtskÃ©": 6348,
      "ÅĻil": 6349,
      "Ġvbur": 6350,
      "rÃ½m": 6351,
      "liÅ¾": 6352,
      "Ġsmar": 6353,
      "Ġvdrob": 6354,
      "Ġgem": 6355,
      "Ġzvoj": 6356,
      "Ġzhyz": 6357,
      "Ġsvle": 6358,
      "Ġhuj": 6359,
      "ĠhluÅ¡": 6360,
      "Ġktu": 6361,
      "ĠplyÅĪ": 6362,
      "Ġtric": 6363,
      "ABXA": 6364,
      "ĠkdÃ¡": 6365,
      "Ġvtra": 6366,
      "ĠvstÃ¡t": 6367,
      "Ġksl": 6368,
      "Ġstlin": 6369,
      "Ġkhu": 6370,
      "ĠclÃ¡": 6371,
      "Ġzvec": 6372,
      "Ġzbuj": 6373,
      "ĠkstÃ¡": 6374,
      "ĠcÃ¡t": 6375,
      "Ġski": 6376,
      "ĠtvÃ¡ch": 6377,
      "ĠksvÃ¡t": 6378,
      "ABBAAB": 6379,
      "Ġfis": 6380,
      "ĠvplÃ¡Å¡": 6381,
      "ĠmÃ³d": 6382,
      "Ġdeh": 6383,
      "ĠÄįÃŃs": 6384,
      "ĠlÃŃr": 6385,
      "Ġpodv": 6386,
      "Ġpsot": 6387,
      "nÅ¯": 6388,
      "Ġust": 6389,
      "ĠvÃ¡Äį": 6390,
      "ĠdÃ½n": 6391,
      "Ġvsti": 6392,
      "ĠkzlÃ©": 6393,
      "Ġbrus": 6394,
      "Ġzprv": 6395,
      "ĠzluÅ¡": 6396,
      "ĠsÅ¡u": 6397,
      "Ġvkan": 6398,
      "Ġtruj": 6399,
      "Ġbrun": 6400,
      "ĠjiÅ¥": 6401,
      "Ġskor": 6402,
      "ĠsnÄĽÅ¥": 6403,
      "ĠstÅĻÃŃd": 6404,
      "ĠnauÄį": 6405,
      "ld": 6406,
      "ĠsnÃ¡z": 6407,
      "Ġrakt": 6408,
      "Ġsvej": 6409,
      "Ġzrus": 6410,
      "Ġkloud": 6411,
      "ĠkÅ¡p": 6412,
      "ĠzlÅ¯Å¾": 6413,
      "ĠcÃŃp": 6414,
      "ĠlÃŃs": 6415,
      "Ġsper": 6416,
      "ĠreÅ¾": 6417,
      "ĠbÃ¡r": 6418,
      "AAAX": 6419,
      "ĠchrlÃŃ": 6420,
      "Ġchmel": 6421,
      "ABAABC": 6422,
      "ĠpÅĻÃŃÄį": 6423,
      "ĠvÅ¾lu": 6424,
      "Ġzran": 6425,
      "ĠzmÄĽst": 6426,
      "ĠÄįtla": 6427,
      "Ġchrap": 6428,
      "ĠÅ¾nÃŃch": 6429,
      "Ġvzno": 6430,
      "Ġvzpur": 6431,
      "ĠvÅ¯l": 6432,
      "ĠvzdÃ½": 6433,
      "ym": 6434,
      "ĠtnÃ¡": 6435,
      "Ġjom": 6436,
      "Ġrry": 6437,
      "Ġryn": 6438,
      "Ġzpru": 6439,
      "Ġstuh": 6440,
      "ĠhouÄį": 6441,
      "Ġvzrost": 6442,
      "Ġfred": 6443,
      "Ġzvni": 6444,
      "ĠtÅĻo": 6445,
      "Ġthen": 6446,
      "ĠvÄįt": 6447,
      "Ġstka": 6448,
      "ĠdnÅ¯v": 6449,
      "ĠsÅ¡i": 6450,
      "ĠÅ¡let": 6451,
      "Ġsfor": 6452,
      "Ġvf": 6453,
      "ĠjÃ¡n": 6454,
      "ĠÄįÃ¡k": 6455,
      "Ġxa": 6456,
      "Ġscvr": 6457,
      "ĠÄįlÃ¡n": 6458,
      "Ġler": 6459,
      "ĠvloÄı": 6460,
      "ĠchÅĻiÅ¡": 6461,
      "Ġkvoj": 6462,
      "ĠfrÃ½d": 6463,
      "ĠÅ¡ÃŃn": 6464,
      "ĠvplÃ©": 6465,
      "Ġzon": 6466,
      "Ġslin": 6467,
      "ĠtÅĻÃŃÅ¡Å¥": 6468,
      "Ġktem": 6469,
      "ĠmlÃ¡Äı": 6470,
      "ABCCAB": 6471,
      "Ġtret": 6472,
      "ĠprsÅ¥": 6473,
      "ĠÅĻic": 6474,
      "ĠreÅ¡": 6475,
      "Ġzysk": 6476,
      "Ġstruk": 6477,
      "AXBX": 6478,
      "Ġmhy": 6479,
      "ĠsaÄı": 6480,
      "Ġgla": 6481,
      "ĠchmÃ½": 6482,
      "ĠvÅ¾Ã¡d": 6483,
      "Ġlnu": 6484,
      "Ġvklen": 6485,
      "tÃ¡n": 6486,
      "ĠraÅ¥": 6487,
      "Ġvprud": 6488,
      "Ġbour": 6489,
      "Ġvlem": 6490,
      "ĠstvÃ½m": 6491,
      "Ġcent": 6492,
      "Ġvsloup": 6493,
      "Ġpnul": 6494,
      "ĠstÅĻet": 6495,
      "Ġzcest": 6496,
      "Ġkstup": 6497,
      "Ġhmot": 6498,
      "ĠkchvÃ¡": 6499,
      "ĠÄįiÅ¾": 6500,
      "ĠsvÃ©st": 6501,
      "Ġbrej": 6502,
      "AF": 6503,
      "Ġcom": 6504,
      "ĠchvÄĽv": 6505,
      "ĠÅ¡tval": 6506,
      "Ġchvy": 6507,
      "Ġstlal": 6508,
      "Ġvcy": 6509,
      "ĠvmraÄį": 6510,
      "ĠcvrÄį": 6511,
      "ĠbÅĻa": 6512,
      "ĠmÃ¡d": 6513,
      "Ġkbou": 6514,
      "Ġkjed": 6515,
      "ĠsjÃŃÅ¾": 6516,
      "kal": 6517,
      "Ġaet": 6518,
      "Ġspjal": 6519,
      "ĠsÃŃg": 6520,
      "Ġvdr": 6521,
      "Ġshled": 6522,
      "Ġul": 6523,
      "ĠÅ¡eÅĻ": 6524,
      "ĠlÃŃb": 6525,
      "Ġvsan": 6526,
      "Ġbrad": 6527,
      "Ġvkme": 6528,
      "Ġklin": 6529,
      "Ġkpla": 6530,
      "ĠÅ¡Å¥av": 6531,
      "ĠtkvÄĽl": 6532,
      "ĠzeÅ¡": 6533,
      "Ġlum": 6534,
      "ĠchÃ½n": 6535,
      "ĠznaÄį": 6536,
      "Ġkij": 6537,
      "Ġzdla": 6538,
      "Ġvlil": 6539,
      "ĠÅ¡prÃ½": 6540,
      "ĠvmuÅ¾": 6541,
      "ADAD": 6542,
      "tno": 6543,
      "ĠsÃŃl": 6544,
      "ĠÅ¡iÅ¥": 6545,
      "Ġvlad": 6546,
      "ĠdÃ½l": 6547,
      "Ġcuk": 6548,
      "ĠÄįtyr": 6549,
      "ĠvjÃŃÅ¾": 6550,
      "pa": 6551,
      "ĠnaÅ¡": 6552,
      "ĠstvÃ½ch": 6553,
      "ĠstrÃ¡z": 6554,
      "Ġkhan": 6555,
      "Ġkyj": 6556,
      "Ġstoun": 6557,
      "ĠdrÃ¡p": 6558,
      "ĠztiÅ¡": 6559,
      "ĠskvÃŃt": 6560,
      "ĠnÃº": 6561,
      "ÃŃm": 6562,
      "ĠzeÅ¥": 6563,
      "ĠstÅĻÃŃm": 6564,
      "ĠmdlÃŃ": 6565,
      "ĠÅ¡Ã¡n": 6566,
      "Ġ1942": 6567,
      "um": 6568,
      "Ġkain": 6569,
      "Ġsklem": 6570,
      "ĠÅ¡ÃŃÅ¥": 6571,
      "ĠkrÃ¡ch": 6572,
      "ĠprÃ¡l": 6573,
      "Ġvzdou": 6574,
      "ĠklÅ¯": 6575,
      "Ġvnov": 6576,
      "Ġ1838": 6577,
      "ĠÅ¡lost": 6578,
      "AXBA": 6579,
      "Ġ1824": 6580,
      "ĠsdÄĽc": 6581,
      "CX": 6582,
      "ĠbÃ³": 6583,
      "Ġchrou": 6584,
      "ĠskÅĻÃŃn": 6585,
      "ĠschÅ¯z": 6586,
      "ĠÅ¥oun": 6587,
      "AXAXBB": 6588,
      "ĠzÅĻi": 6589,
      "Ġpau": 6590,
      "Ġzdvou": 6591,
      "Ġslul": 6592,
      "Ġ1803": 6593,
      "ABAXCB": 6594,
      "Ġskni": 6595,
      "Ġchard": 6596,
      "ĠvnÃŃz": 6597,
      "Ġchrop": 6598,
      "ĠtviÄį": 6599,
      "ĠvsmÃŃch": 6600,
      "ĠÅ¡Å¯m": 6601,
      "Ġed": 6602,
      "Ġvzpa": 6603,
      "Ã¼": 6604,
      "ĠsvlÃ¡": 6605,
      "ĠmiÅ¥": 6606,
      "ĠmÅ¯v": 6607,
      "Ġmrl": 6608,
      "Ġschlu": 6609,
      "ACB": 6610,
      "Ġtno": 6611,
      "ĠtÃ¡k": 6612,
      "ĠvÅ¾er": 6613,
      "ĠstrÅ¯j": 6614,
      "ĠÅ¡prÃ½m": 6615,
      "AAABBC": 6616,
      "ĠhÅĪu": 6617,
      "Ġnac": 6618,
      "ĠjÃŃÅĻ": 6619,
      "ĠmoÅ¡": 6620,
      "ĠprÃ¡t": 6621,
      "Ġhls": 6622,
      "Ġmro": 6623,
      "Ġbum": 6624,
      "Ġbleh": 6625,
      "Ġzkum": 6626,
      "Ġmav": 6627,
      "ĠmaÅĻ": 6628,
      "Ġhab": 6629,
      "Ġrez": 6630,
      "ĠvmÅ¯j": 6631,
      "Ġkvran": 6632,
      "Ġvjezd": 6633,
      "Ġgois": 6634,
      "ĠzÅ¡ÃŃ": 6635,
      "ĠchÅĻtÃ¡n": 6636,
      "ĠlÃ½t": 6637,
      "rÃ¡d": 6638,
      "Ġvzu": 6639,
      "Ġstrak": 6640,
      "ĠÅ¡ust": 6641,
      "ĠdrÃ¡b": 6642,
      "Ġspit": 6643,
      "Ġlant": 6644,
      "ĠsdÄĽs": 6645,
      "Ġskru": 6646,
      "ĠdÃŃÄį": 6647,
      "Ġkrz": 6648,
      "Ġvhan": 6649,
      "ĠhrÅ¯Å¾": 6650,
      "ĠkvraÅ¾": 6651,
      "ĠpÅĻez": 6652,
      "Ġpys": 6653,
      "Ġvchat": 6654,
      "Ġkzlo": 6655,
      "Ġhlost": 6656,
      "ĠÅ¾ÃŃÅ¾": 6657,
      "Ġzdna": 6658,
      "Ġsas": 6659,
      "ĠlÃ©z": 6660,
      "Ġbrak": 6661,
      "Ġbrv": 6662,
      "ĠslÃ¡d": 6663,
      "Ġsrst": 6664,
      "ĠcÃ¡s": 6665,
      "ĠstÅĻÃ¡b": 6666,
      "ĠvbÃ¡s": 6667,
      "Ġlvy": 6668,
      "ĠrosÅ¥": 6669,
      "ĠhaÅ¡": 6670,
      "ĠkchrÃ¡": 6671,
      "ĠgroÅ¡": 6672,
      "ĠdÅ¡tÃŃ": 6673,
      "ĠÄįme": 6674,
      "Ġkach": 6675,
      "ĠkÃ¡v": 6676,
      "nÄĽÅ¾": 6677,
      "ĠtrÅ¾": 6678,
      "ĠgrÃ¡n": 6679,
      "Ġsim": 6680,
      "Ġsmno": 6681,
      "ĠÅĻid": 6682,
      "Ġcym": 6683,
      "ĠbrÃ¡Å¥": 6684,
      "Ġvzkve": 6685,
      "Ġtby": 6686,
      "ĠmnÃ¡": 6687,
      "Ġsain": 6688,
      "ĠsÃ¡d": 6689,
      "Ġztma": 6690,
      "Ġvjev": 6691,
      "Ġzlep": 6692,
      "Ġvrus": 6693,
      "Ġvsklo": 6694,
      "ĠÄıoun": 6695,
      "ED": 6696,
      "ĠÅ¡vy": 6697,
      "ĠnuÅ¥": 6698,
      "Ġdlec": 6699,
      "ĠmÄĽlÅ¥": 6700,
      "Ġsdiv": 6701,
      "ĠzÄįa": 6702,
      "ĠpaÅĪ": 6703,
      "Ġtrak": 6704,
      "Ġsliz": 6705,
      "ĠzveÅ¡": 6706,
      "ĠstrÃ¡m": 6707,
      "Ġvkre": 6708,
      "Ġskel": 6709,
      "ĠÅ¾hne": 6710,
      "ct": 6711,
      "Ã¡s": 6712,
      "ĠÅ¾ÄıÃ¡": 6713,
      "Ġnum": 6714,
      "Ġvir": 6715,
      "ĠbeÅ¾": 6716,
      "Ġvtre": 6717,
      "ĠkniÅ¾": 6718,
      "Ġvchla": 6719,
      "ĠvhoÅĻ": 6720,
      "Ġshod": 6721,
      "ĠvhÃ¡j": 6722,
      "Ġzpev": 6723,
      "ĠchlÃŃp": 6724,
      "ĠtskÃ½ch": 6725,
      "Ġskra": 6726,
      "ĠhlÃ¡v": 6727,
      "ĠkhnÄĽ": 6728,
      "ĠtnÃŃch": 6729,
      "Ġvmih": 6730,
      "Ġvluz": 6731,
      "Ġglic": 6732,
      "EF": 6733,
      "AAEE": 6734,
      "ĠdlÃ¡n": 6735,
      "ĠszÃ¡": 6736,
      "Ġvklou": 6737,
      "Ġctn": 6738,
      "ĠchlÃ©v": 6739,
      "ĠÅ¡paÄį": 6740,
      "ĠtnÃ½m": 6741,
      "ĠvspÃŃÅ¡": 6742,
      "ju": 6743,
      "ĠfÃ½": 6744,
      "ĠkÃ½n": 6745,
      "Ġkprav": 6746,
      "ĠkÅĻtu": 6747,
      "Ġtne": 6748,
      "Ġap": 6749,
      "Ġzvem": 6750,
      "Ġstrah": 6751,
      "ĠtÅĻÃŃt": 6752,
      "ĠsÃ½p": 6753,
      "Ġsjez": 6754,
      "ĠkdÃŃv": 6755,
      "ĠboÅĻ": 6756,
      "Ġdim": 6757,
      "ĠvdÃ©": 6758,
      "Ġbrlo": 6759,
      "ĠprÃ¡ch": 6760,
      "Ġragd": 6761,
      "ĠrvaÄį": 6762,
      "ĠzvnitÅĻ": 6763,
      "ĠsvÅ¯": 6764,
      "Ġsklou": 6765,
      "Ġsps": 6766,
      "Ġprz": 6767,
      "Ġtrech": 6768,
      "ĠknÃ©m": 6769,
      "ĠblÃ½ch": 6770,
      "ĠhoÅĪ": 6771,
      "Ġkdve": 6772,
      "Ġsij": 6773,
      "Ġhuk": 6774,
      "Ġksvo": 6775,
      "ĠspÃ¡s": 6776,
      "Ġmstou": 6777,
      "ĠstÅĻin": 6778,
      "Ġchvoj": 6779,
      "Ġhno": 6780,
      "ĠsÃŃk": 6781,
      "XD": 6782,
      "Ġzpil": 6783,
      "ĠstÅĻev": 6784,
      "ĠzmÃŃn": 6785,
      "ĠstkÃ¡": 6786,
      "Ġclon": 6787,
      "ĠstÅĻÃ¡s": 6788,
      "ĠzdÅĻe": 6789,
      "ĠkmÃ½m": 6790,
      "Ġrri": 6791,
      "Ġdys": 6792,
      "ĠvraÅ¡": 6793,
      "Ġzhrd": 6794,
      "ĠzhlÃ©": 6795,
      "Ġ1842": 6796,
      "ĠzvÃ¡Å¡": 6797,
      "ÅĻas": 6798,
      "ĠpaÅ¾": 6799,
      "Ġvzvu": 6800,
      "Ġvtvr": 6801,
      "Ġslok": 6802,
      "ĠkvÅ¡e": 6803,
      "ĠbroÅ¡": 6804,
      "ĠhnÄĽt": 6805,
      "ĠlhÅ¯": 6806,
      "ĠstlÃ½ch": 6807,
      "ĠrdÄĽl": 6808,
      "ĠcÃŃt": 6809,
      "ĠsmrÃ¡": 6810,
      "ĠzvÃ©": 6811,
      "Ġhyl": 6812,
      "Ġzmdlo": 6813,
      "ĠzhlÃ©d": 6814,
      "Ġplej": 6815,
      "Ġprout": 6816,
      "Ġknes": 6817,
      "Ġktr": 6818,
      "Ġkslav": 6819,
      "si": 6820,
      "Ġbvo": 6821,
      "ĠÄįku": 6822,
      "ĠprÃ½ch": 6823,
      "ĠpÅĻÃŃst": 6824,
      "Ġhoup": 6825,
      "Ġspoj": 6826,
      "Ġvhnu": 6827,
      "ĠfÃ¡d": 6828,
      "ĠkÅĻivd": 6829,
      "ĠzdÃŃch": 6830,
      "Ġvstes": 6831,
      "ĠvepÅĻ": 6832,
      "ĠvkvÃŃ": 6833,
      "Ġbrz": 6834,
      "ĠtvÃ¡n": 6835,
      "Ġsrou": 6836,
      "ĠvÄįlu": 6837,
      "ĠsÅ¡el": 6838,
      "Ġkko": 6839,
      "lÃ¡d": 6840,
      "ĠbaÅ¥": 6841,
      "Ġzpar": 6842,
      "ĠstrÄį": 6843,
      "ĠdrosÅ¥": 6844,
      "ĠchtÄĽls": 6845,
      "ĠÄıÃ¡l": 6846,
      "ĠlhÃ¡t": 6847,
      "Ġ1941": 6848,
      "ĠzkrÄį": 6849,
      "Ġvmrak": 6850,
      "Ġfric": 6851,
      "Ġvshni": 6852,
      "Ġchma": 6853,
      "ĠftÃŃ": 6854,
      "Ġvdom": 6855,
      "Ġvhrou": 6856,
      "Ġkple": 6857,
      "ĠÄįul": 6858,
      "Ġvtri": 6859,
      "ĠsÄįlo": 6860,
      "ĠÅ¾blun": 6861,
      "ĠkÄįlo": 6862,
      "Ġieu": 6863,
      "Ġlaj": 6864,
      "ĠtÃ¡t": 6865,
      "ĠbÃ¡Äį": 6866,
      "Ġvret": 6867,
      "Ġkryv": 6868,
      "ĠbÅĻÃŃk": 6869,
      "Ġvplod": 6870,
      "ĠhyÅĪ": 6871,
      "Ġzhrou": 6872,
      "Ġshe": 6873,
      "Ġkbu": 6874,
      "ĠkbliÅ¾": 6875,
      "ĠkoÅĻ": 6876,
      "Ġkdce": 6877,
      "Ġtaks": 6878,
      "ĠtÃ©l": 6879,
      "Ġvdvo": 6880,
      "Ġzmou": 6881,
      "ĠdnÅ¯m": 6882,
      "Ġdvard": 6883,
      "Ġfaust": 6884,
      "ABABCB": 6885,
      "ĠkuÄı": 6886,
      "Ġslam": 6887,
      "ĠstÄĽch": 6888,
      "ĠstÅĻez": 6889,
      "Ġklost": 6890,
      "Ġpravd": 6891,
      "ĠtÅĻem": 6892,
      "ĠsmuÅ¾": 6893,
      "AAXBCB": 6894,
      "Ġscu": 6895,
      "Ġtme": 6896,
      "Äıa": 6897,
      "Ġsbur": 6898,
      "Ġkstra": 6899,
      "ĠÅ¯m": 6900,
      "ĠkÅĪu": 6901,
      "Ġsthe": 6902,
      "Ġbam": 6903,
      "ĠfÃ¡l": 6904,
      "Ġstrp": 6905,
      "ĠplÃ¡st": 6906,
      "Ġkrod": 6907,
      "ĠbÅ¯v": 6908,
      "Ġsmet": 6909,
      "ACCA": 6910,
      "Ġnr": 6911,
      "Ġcot": 6912,
      "ĠtkÃ¡t": 6913,
      "Ġzjem": 6914,
      "ĠchÅĻtÃ¡": 6915,
      "ĠbraÄį": 6916,
      "Ġtrut": 6917,
      "Ġzkus": 6918,
      "Ġchlup": 6919,
      "Ġ1945": 6920,
      "ĠsÅ¥a": 6921,
      "Ġsom": 6922,
      "Ġstoh": 6923,
      "Ġvhvoz": 6924,
      "ĠchvÃŃt": 6925,
      "zv": 6926,
      "ĠÅ¾iÅ¡": 6927,
      "ĠbÅĻez": 6928,
      "ĠÅ¥li": 6929,
      "Ġsbla": 6930,
      "Ġpse": 6931,
      "ĠdlÃ¡Å¡": 6932,
      "ĠzruÄį": 6933,
      "Ġchlost": 6934,
      "Ġjuj": 6935,
      "ĠzouÄį": 6936,
      "Ġpsan": 6937,
      "Ġcam": 6938,
      "ĠvlÃŃt": 6939,
      "ĠssvÃ½m": 6940,
      "Ġchri": 6941,
      "Ġmnul": 6942,
      "Ġjech": 6943,
      "Ġnij": 6944,
      "Ġrop": 6945,
      "Ġbeh": 6946,
      "ĠÅ¡iÅ¡": 6947,
      "Ġvlach": 6948,
      "CDE": 6949,
      "ĠÃŃm": 6950,
      "ĠpskÃ½": 6951,
      "Ġdag": 6952,
      "Ġpral": 6953,
      "ĠlouÅ¡": 6954,
      "Ġvrov": 6955,
      "Ġkba": 6956,
      "ACCDDE": 6957,
      "ĠstraÅ¾": 6958,
      "ĠhrsÅ¥": 6959,
      "ĠÅ¡krÃ¡": 6960,
      "Ġllis": 6961,
      "Ġklouz": 6962,
      "ĠzbÃŃd": 6963,
      "Ġpstr": 6964,
      "Ġsoust": 6965,
      "ĠÅĻÃ¡p": 6966,
      "Ġdved": 6967,
      "Ġharf": 6968,
      "ĠÅ¾old": 6969,
      "ĠllÃ¡": 6970,
      "ĠÅ¡rÃ¡": 6971,
      "Ġprop": 6972,
      "Ġsyr": 6973,
      "Ġstur": 6974,
      "Ġvraj": 6975,
      "Ġksn": 6976,
      "ĠÅ¡kor": 6977,
      "Ġvchi": 6978,
      "Ġchlil": 6979,
      "Ġdolf": 6980,
      "ĠpÅ¡en": 6981,
      "Ġtuc": 6982,
      "ĠdrÃ¡n": 6983,
      "ĠvlÃŃp": 6984,
      "Ġvliv": 6985,
      "Ġbve": 6986,
      "ĠseÅ¥": 6987,
      "Ġrup": 6988,
      "ĠÄįaj": 6989,
      "Ġkzou": 6990,
      "ĠvmÃŃr": 6991,
      "ĠbdÃŃm": 6992,
      "Ġnrich": 6993,
      "ĠmÅ¡e": 6994,
      "ĠvoÅĪ": 6995,
      "ĠvzmÄĽ": 6996,
      "ĠÅ¥Å¯": 6997,
      "ĠsvÃ¡Å¾": 6998,
      "Ġrant": 6999,
      "Ġsfa": 7000,
      "Ġvhnus": 7001,
      "ÅĻb": 7002,
      "ĠoÅĪ": 7003,
      "Ġmum": 7004,
      "ĠzÃŃd": 7005,
      "Ġplaz": 7006,
      "Ġzbil": 7007,
      "AABBAA": 7008,
      "Ġzost": 7009,
      "Ġzklu": 7010,
      "ĠpsÅ¯m": 7011,
      "Ġvtisk": 7012,
      "Ġssrd": 7013,
      "ĠkÅĻil": 7014,
      "ĠzbuÄı": 7015,
      "ĠvsnÄĽm": 7016,
      "ĠloÅ¥": 7017,
      "ĠlÃŃz": 7018,
      "XAAA": 7019,
      "ĠkÃ½ÅĻ": 7020,
      "ĠsblÃŃ": 7021,
      "Ġschod": 7022,
      "Ġsfou": 7023,
      "ĠstlÃ¡t": 7024,
      "it": 7025,
      "Ġlaz": 7026,
      "Ġklop": 7027,
      "Ġtant": 7028,
      "ĠÅ¡to": 7029,
      "ĠsvlaÄį": 7030,
      "Ġfaun": 7031,
      "ĠzÅ¡tÄĽ": 7032,
      "ĠzaÅ¥": 7033,
      "Ġvoch": 7034,
      "ĠmÃŃl": 7035,
      "Ġfec": 7036,
      "Ġtkne": 7037,
      "ĠvhÅĻÃŃch": 7038,
      "ĠvaÅĪ": 7039,
      "ĠboÄį": 7040,
      "ĠbuÅ¡": 7041,
      "Ġvsny": 7042,
      "ĠpÄĽÅ¥": 7043,
      "ĠprÃ¡m": 7044,
      "ĠstÅĻep": 7045,
      "Ġnils": 7046,
      "ĠstÅĻÃŃÅ¾": 7047,
      "Ġ1849": 7048,
      "ĠbdÃŃt": 7049,
      "ĠlstnÃ½": 7050,
      "ĠzjÃŃ": 7051,
      "25": 7052,
      "Ġvrz": 7053,
      "ĠslÃŃk": 7054,
      "Ġstliv": 7055,
      "Ġllan": 7056,
      "Ġvjih": 7057,
      "Ġzcho": 7058,
      "Ġzples": 7059,
      "ĠsvÅ¡": 7060,
      "Ġpik": 7061,
      "Ġstve": 7062,
      "ĠvÅĻev": 7063,
      "Ġsdlou": 7064,
      "Ġfir": 7065,
      "ĠsnÃ¡ÅĻ": 7066,
      "Ġvny": 7067,
      "Ġvpru": 7068,
      "ĠzÃŃc": 7069,
      "Ġgru": 7070,
      "AABBBC": 7071,
      "Ġsvol": 7072,
      "Ġvkrev": 7073,
      "Ġcop": 7074,
      "ĠpÅĻeh": 7075,
      "ĠbÃŃch": 7076,
      "Ġstost": 7077,
      "ĠpuÄı": 7078,
      "Ġzlat": 7079,
      "ĠkloÅĪ": 7080,
      "ĠcyÅ¥": 7081,
      "ĠÅ¡tiv": 7082,
      "Ġxem": 7083,
      "Ġnlis": 7084,
      "cy": 7085,
      "Ġjry": 7086,
      "Ġrhe": 7087,
      "ĠÅ¡m": 7088,
      "ĠslÃº": 7089,
      "Ġruf": 7090,
      "ĠraÄı": 7091,
      "Ġznu": 7092,
      "ĠvÅ¾as": 7093,
      "Ġspon": 7094,
      "ĠrÃ½Äį": 7095,
      "Ġshou": 7096,
      "ĠtÅĻÃŃn": 7097,
      "Ġskri": 7098,
      "ĠthÅ¯": 7099,
      "Ġzdych": 7100,
      "ĠrÅ¾Ã¡": 7101,
      "Ġzac": 7102,
      "Ġdop": 7103,
      "Ġtaz": 7104,
      "Ġkoun": 7105,
      "Ġpyl": 7106,
      "ĠkmlÃ½": 7107,
      "Ġkti": 7108,
      "ĠÅ¡pej": 7109,
      "ĠstruÅ¾": 7110,
      "ĠvsnÄĽÅ¾": 7111,
      "ĠvpyÅ¡": 7112,
      "Ġsprou": 7113,
      "ĠvsÃ½": 7114,
      "ABBCCA": 7115,
      "Ġvzbro": 7116,
      "ĠÅ¡ot": 7117,
      "Ġcert": 7118,
      "Ġtoi": 7119,
      "Ġkouc": 7120,
      "Ġgle": 7121,
      "ĠzmrÃ¡": 7122,
      "ĠÅ¾Ã¡c": 7123,
      "ĠhÃ½l": 7124,
      "ĠschÅ¯d": 7125,
      "ĠÄıo": 7126,
      "ĠÅ¡pet": 7127,
      "Ġsda": 7128,
      "ĠkzpÄĽ": 7129,
      "Ġvga": 7130,
      "ÅĻem": 7131,
      "Ġprol": 7132,
      "ĠsvÄĽÄį": 7133,
      "XXXXAA": 7134,
      "ĠvhlÃŃ": 7135,
      "Ġvhym": 7136,
      "ĠkÃ©ms": 7137,
      "Ġznez": 7138,
      "Ġdex": 7139,
      "Ġsplu": 7140,
      "XXXXXA": 7141,
      "Ġvpil": 7142,
      "Ġklis": 7143,
      "ĠzdÃ¡n": 7144,
      "Ġktak": 7145,
      "Ġkpod": 7146,
      "Ġlhou": 7147,
      "ĠvzÃ½t": 7148,
      "ĠvdÃŃv": 7149,
      "ĠkÅ¡tic": 7150,
      "Ġvklub": 7151,
      "ACCB": 7152,
      "Ġit": 7153,
      "Ġzps": 7154,
      "ĠÅ¥si": 7155,
      "Ġsprav": 7156,
      "Ġerb": 7157,
      "Ġzluk": 7158,
      "ll": 7159,
      "mÃ½": 7160,
      "Ã¡r": 7161,
      "Ġbut": 7162,
      "AABBAC": 7163,
      "Ġklest": 7164,
      "ĠrÃ©v": 7165,
      "Ġztou": 7166,
      "Ġfen": 7167,
      "ĠkrÃ½v": 7168,
      "Ġfres": 7169,
      "ĠvbÅĻeh": 7170,
      "Ġllou": 7171,
      "Ġcal": 7172,
      "ĠseÄı": 7173,
      "ĠzdÅĻi": 7174,
      "Ġvplu": 7175,
      "Ġbim": 7176,
      "ĠvkrÅ¯": 7177,
      "Ġrich": 7178,
      "ĠÄįÃŃmÅ¾": 7179,
      "Ġsrost": 7180,
      "Ġchlit": 7181,
      "ĠchlÃ¡d": 7182,
      "Ġsaint": 7183,
      "ĠbÄĽr": 7184,
      "Ġctus": 7185,
      "Ġvlov": 7186,
      "po": 7187,
      "Ġkci": 7188,
      "ĠÅ¾ec": 7189,
      "Ġlot": 7190,
      "Ġchaj": 7191,
      "ĠÅ¡am": 7192,
      "AAABCC": 7193,
      "ĠÅ¡Å¥ou": 7194,
      "ĠvboÅ¾": 7195,
      "ĠdÅĻek": 7196,
      "ABBCAC": 7197,
      "Ġent": 7198,
      "kÅĻ": 7199,
      "ĠtÃ¡r": 7200,
      "Ġvzdmu": 7201,
      "ĠvÄįest": 7202,
      "Ġvzho": 7203,
      "Ġstkvou": 7204,
      "ĠzÄįlu": 7205,
      "ĠvvÃ¡": 7206,
      "Ġdup": 7207,
      "Ġjse": 7208,
      "Ġstov": 7209,
      "Ġskop": 7210,
      "Ġzprz": 7211,
      "Ġnnes": 7212,
      "Ġsze": 7213,
      "Ġvhar": 7214,
      "Ġobzv": 7215,
      "ĠÅ¡tÄĽj": 7216,
      "ĠzmÄĽt": 7217,
      "Ġtref": 7218,
      "Ġfum": 7219,
      "Ġmlkl": 7220,
      "ĠÅ¡tÃ¡ÅĻ": 7221,
      "cho": 7222,
      "Ġrous": 7223,
      "Ġtlan": 7224,
      "ĠslÃŃt": 7225,
      "ĠÅ¡ach": 7226,
      "AADE": 7227,
      "ĠsvÃ¡Å¡": 7228,
      "Ġssvou": 7229,
      "ĠkhÅĻÃŃ": 7230,
      "ĠdnÃ©ÅĻ": 7231,
      "Ġlvem": 7232,
      "Ġmlo": 7233,
      "ĠmÄĽÅĪ": 7234,
      "ĠbÄĽc": 7235,
      "ĠstÃ¡k": 7236,
      "ĠÅ¡kÅĻi": 7237,
      "ĠÅ¡pal": 7238,
      "ĠspÅĻeÅ¾": 7239,
      "ĠsnichÅ¾": 7240,
      "ĠjÃŃk": 7241,
      "Ġloj": 7242,
      "Ġvosk": 7243,
      "ĠdÃŃÅ¾": 7244,
      "ĠproÅ¡": 7245,
      "Ġvply": 7246,
      "ĠgÃ³": 7247,
      "ĠÅ¾Å¯v": 7248,
      "ĠkvoÄį": 7249,
      "ĠrtÃŃk": 7250,
      "XABBA": 7251,
      "ĠtÃŃt": 7252,
      "ĠmaÅ¥": 7253,
      "Ġtakt": 7254,
      "ĠsvÄĽn": 7255,
      "ĠÃºd": 7256,
      "ĠkzÃ¡m": 7257,
      "ĠzrÃ¡t": 7258,
      "ĠzÄįes": 7259,
      "Ġllin": 7260,
      "ĠsÄįet": 7261,
      "ĠhosÅ¥": 7262,
      "Ġlor": 7263,
      "ĠtÃ¡Äį": 7264,
      "Ġvbal": 7265,
      "ĠvbrÃ¡z": 7266,
      "ĠkskÃ¡": 7267,
      "ĠvÅ¡ik": 7268,
      "Ġnerv": 7269,
      "Ġkk": 7270,
      "Ġjli": 7271,
      "ĠpÅĻiÅĻ": 7272,
      "ĠrÃ½h": 7273,
      "ĠsÄįa": 7274,
      "hÅĻ": 7275,
      "Ġbva": 7276,
      "ĠcÃ³": 7277,
      "ĠrÃ³": 7278,
      "ĠnaÅ¾": 7279,
      "Ġloh": 7280,
      "ĠÅ¡eÄı": 7281,
      "ĠmÃŃÅĻ": 7282,
      "ĠzhÃ½": 7283,
      "ĠÅ¡liÄį": 7284,
      "Ġvpol": 7285,
      "Ġkpi": 7286,
      "Ġvdus": 7287,
      "ĠtluÄį": 7288,
      "Ġstils": 7289,
      "AXABCC": 7290,
      "ĠvpÅĻÃŃz": 7291,
      "ĠchÃ³r": 7292,
      "Ġboz": 7293,
      "ĠÅĻÃŃj": 7294,
      "ĠzbrÃ¡": 7295,
      "Ġzliv": 7296,
      "ĠslÅ¯Å¾": 7297,
      "ĠÅ¡tÄĽrk": 7298,
      "AABXB": 7299,
      "za": 7300,
      "ĠÅ¾s": 7301,
      "Ġsost": 7302,
      "ĠpleÅ¡": 7303,
      "Ġrold": 7304,
      "Ġkcha": 7305,
      "nem": 7306,
      "ĠvÅ¡ep": 7307,
      "Ġlut": 7308,
      "ĠtrÃ½m": 7309,
      "ĠtraÅ¥": 7310,
      "ĠchvÃ¡l": 7311,
      "ĠsklÃ¡l": 7312,
      "ĠsvÅ¡ÃŃm": 7313,
      "tro": 7314,
      "ĠmkrÃ¡": 7315,
      "ĠzaÅ¾": 7316,
      "ĠvuÅ¡": 7317,
      "Ġkrs": 7318,
      "Ġvtvou": 7319,
      "ĠchvÃŃÅ¡": 7320,
      "ĠzdÃ¡Å¡": 7321,
      "Ġzvos": 7322,
      "Ġctnou": 7323,
      "ĠtluÅ¡": 7324,
      "ĠvpouÅ¥": 7325,
      "Ġjrad": 7326,
      "Ġsklid": 7327,
      "Ġthyr": 7328,
      "Ġvchvat": 7329,
      "ĠskÅĻoup": 7330,
      "Ġkyl": 7331,
      "Ġkda": 7332,
      "ĠÄįÃŃr": 7333,
      "Ġmann": 7334,
      "ĠvskÅĻÃŃ": 7335,
      "ĠskÅĻÃŃp": 7336,
      "Ġzchud": 7337,
      "ys": 7338,
      "Ġduk": 7339,
      "Ġodz": 7340,
      "ĠjÃ¡r": 7341,
      "ĠdrÅ¡": 7342,
      "Ġklik": 7343,
      "Ġstrost": 7344,
      "ĠstyÄı": 7345,
      "Ġtvat": 7346,
      "AABCBD": 7347,
      "Ġtryz": 7348,
      "Ġtrej": 7349,
      "Ġkant": 7350,
      "ĠkÅ¾Ã¡d": 7351,
      "ĠpÅ¡tro": 7352,
      "Ġlza": 7353,
      "Ġoas": 7354,
      "Ġnix": 7355,
      "ĠmÃ¡r": 7356,
      "AABBXC": 7357,
      "Ġmour": 7358,
      "Ġsslo": 7359,
      "Ġzrud": 7360,
      "Ġsjich": 7361,
      "ACDDC": 7362,
      "Ġnand": 7363,
      "ĠbeÅĪ": 7364,
      "ĠbuÅ¾": 7365,
      "Ġhur": 7366,
      "ABABXB": 7367,
      "Ġech": 7368,
      "ĠhÃ½n": 7369,
      "ĠpÅ¯v": 7370,
      "ABBAAC": 7371,
      "Ġzles": 7372,
      "ĠvnuÄį": 7373,
      "Ġlta": 7374,
      "ĠzÅĻa": 7375,
      "Ġnest": 7376,
      "ĠdÄĽr": 7377,
      "Ġich": 7378,
      "Ġdlas": 7379,
      "ĠvmlÃ½": 7380,
      "Ġdlet": 7381,
      "Ġant": 7382,
      "ĠzmÃŃr": 7383,
      "ĠÄįÅ¯v": 7384,
      "Ġ1944": 7385,
      "ĠzjÃ¡": 7386,
      "Ġltam": 7387,
      "ĠnÃŃÅĻ": 7388,
      "ĠvÅ¡ko": 7389,
      "Ġryv": 7390,
      "Ġvdum": 7391,
      "ĠssvÃ½": 7392,
      "ĠsÅ¥al": 7393,
      "ĠdmÃ½": 7394,
      "ĠÅ¾ils": 7395,
      "ĠmÃ¡mÅ¥": 7396,
      "ĠstÅĻÃŃÅ¡": 7397,
      "ĠtÅĻÃ¡st": 7398,
      "ĠterÄį": 7399,
      "ĠzhyÅĪ": 7400,
      "Ġsml": 7401,
      "ĠvtÅĻ": 7402,
      "ĠÅ¾Ã¡s": 7403,
      "ĠÄįÃŃms": 7404,
      "Ġjezd": 7405,
      "ĠdÃ³l": 7406,
      "Ġvheb": 7407,
      "Ġvam": 7408,
      "ĠmeÅ¾": 7409,
      "ĠvpÃ©": 7410,
      "Ġsur": 7411,
      "ĠzpÅĻÃ¡": 7412,
      "ĠzbrÃ¡z": 7413,
      "Ġvils": 7414,
      "ĠvlÃ¡n": 7415,
      "ĠzÅĻels": 7416,
      "Ġskles": 7417,
      "ĠvsÃŃch": 7418,
      "Ġzkout": 7419,
      "Ġvsoud": 7420,
      "Ġhnis": 7421,
      "ĠÅ¡vÃ©": 7422,
      "ĠceÅ¥": 7423,
      "ĠvzÅĻÃŃ": 7424,
      "ĠdyÅĪ": 7425,
      "Ġrah": 7426,
      "Ġzyn": 7427,
      "Ġhek": 7428,
      "ĠvchlÃŃ": 7429,
      "Ġchvou": 7430,
      "Ġsvez": 7431,
      "Ġ1954": 7432,
      "ĠvÅĻÃŃÅ¡": 7433,
      "ĠkÅ¡pej": 7434,
      "ĠvÅ¡eÅĻ": 7435,
      "ĠmÃ©r": 7436,
      "ĠglÃ³": 7437,
      "Ġchym": 7438,
      "Ġziv": 7439,
      "Ġskan": 7440,
      "Ġfix": 7441,
      "Ġkhr": 7442,
      "ĠÅĻov": 7443,
      "Ġgry": 7444,
      "ĠsbÄĽÅĻ": 7445,
      "Ġdcem": 7446,
      "ĠvvÃ½Å¡": 7447,
      "ĠkpÅ¯l": 7448,
      "Ġjl": 7449,
      "ĠplaÅĪ": 7450,
      "Ġvkmi": 7451,
      "ĠdrÃ¡Äį": 7452,
      "Ġzkap": 7453,
      "ĠlÃŃmp": 7454,
      "ic": 7455,
      "ĠÅ¡lem": 7456,
      "Ġroch": 7457,
      "Ġboch": 7458,
      "ĠsmÅ¯": 7459,
      "ĠpÅĻiv": 7460,
      "Ġzpta": 7461,
      "Ġzuz": 7462,
      "ĠshÅĻe": 7463,
      "Ġfic": 7464,
      "ĠvsÃŃÅ¥": 7465,
      "ĠÅ¾hÃ¡": 7466,
      "ĠzhvÄĽzd": 7467,
      "zdy": 7468,
      "ĠsÄįi": 7469,
      "Ġcp": 7470,
      "ĠvÅ¡Å¥": 7471,
      "luz": 7472,
      "ĠÅĪuj": 7473,
      "Ġspur": 7474,
      "Ġsfinx": 7475,
      "Ã©st": 7476,
      "Ġlisk": 7477,
      "Ġdad": 7478,
      "ĠÅĻeÅ¾": 7479,
      "ĠjmÃŃ": 7480,
      "ĠscÃŃ": 7481,
      "ĠspÅĻed": 7482,
      "Ġksvat": 7483,
      "Ġdch": 7484,
      "ĠbvÃ¡": 7485,
      "Ġvych": 7486,
      "ĠspÃ½": 7487,
      "ĠtÃ¡c": 7488,
      "ĠtÅĻÃŃd": 7489,
      "Ġschlad": 7490,
      "Ġvzat": 7491,
      "ĠvstÅĻed": 7492,
      "ACDDCE": 7493,
      "ĠchÅĻa": 7494,
      "Ġklap": 7495,
      "ĠksnÄĽ": 7496,
      "Ġdotk": 7497,
      "Ġvluh": 7498,
      "ĠsÅ¾eh": 7499,
      "ĠblÅ¯v": 7500,
      "Ġfron": 7501,
      "kle": 7502,
      "ĠÄįeÅĪ": 7503,
      "Ġvtmy": 7504,
      "Ġhron": 7505,
      "ĠbrÃ¡zd": 7506,
      "Ġzpol": 7507,
      "Ġgest": 7508,
      "Ġryth": 7509,
      "ĠrtuÅ¥": 7510,
      "Ġvzmar": 7511,
      "ĠÄįtouc": 7512,
      "ĠjvÃ¡": 7513,
      "ĠslaÅĻ": 7514,
      "Ġzour": 7515,
      "ĠprÃ½s": 7516,
      "Ġblic": 7517,
      "Ġvnach": 7518,
      "ĠzlÃŃk": 7519,
      "ĠÅ¡van": 7520,
      "ĠkmÃŃn": 7521,
      "Ġchne": 7522,
      "ĠvaÅ¡": 7523,
      "Ġkdnu": 7524,
      "Ġzpan": 7525,
      "ĠsÃ¡Äį": 7526,
      "Ġglu": 7527,
      "ĠzmÃ¡t": 7528,
      "Ġvmh": 7529,
      "ĠÅ¥ka": 7530,
      "ĠzvÄĽt": 7531,
      "ĠhlÃŃk": 7532,
      "ĠzvaÅ¾": 7533,
      "ĠzdÄĽl": 7534,
      "ĠÅĻuj": 7535,
      "ĠÅ¯v": 7536,
      "AABCCD": 7537,
      "ĠdÃŃÅĻ": 7538,
      "Ġseth": 7539,
      "ĠzprÃ¡ch": 7540,
      "Ġvspou": 7541,
      "Ġvco": 7542,
      "Ġzflan": 7543,
      "Ġdvyk": 7544,
      "Ġghis": 7545,
      "ĠfÃ½r": 7546,
      "Ġksnad": 7547,
      "GG": 7548,
      "jt": 7549,
      "ĠcÃº": 7550,
      "Ġvsch": 7551,
      "ĠstÅĻes": 7552,
      "Ġlent": 7553,
      "ĠpÃ½t": 7554,
      "Ġvhold": 7555,
      "ĠvnÃ¡Å¡": 7556,
      "Ġzpout": 7557,
      "ĠctnÃ½ch": 7558,
      "mr": 7559,
      "ĠjÃ³": 7560,
      "ĠÅ¡me": 7561,
      "ĠsptÃ¡": 7562,
      "XAABBC": 7563,
      "ĠstÃ¡Å¥": 7564,
      "ĠvdrÃ¡": 7565,
      "ĠkvÅ¡em": 7566,
      "Ġtils": 7567,
      "Ġdils": 7568,
      "Ġzves": 7569,
      "ĠÅ¡viÅ¾": 7570,
      "ĠvÄįÃŃÅ¡": 7571,
      "ĠÅ¡vÃ¡r": 7572,
      "Ġzpso": 7573,
      "ĠmÅ¾": 7574,
      "ĠÄįim": 7575,
      "Ġdouch": 7576,
      "Ġstrof": 7577,
      "ĠÅ¡tÄĽv": 7578,
      "Ġrenc": 7579,
      "ĠzmuÅ¾": 7580,
      "ĠÅ¡nÄĽ": 7581,
      "Ġpror": 7582,
      "ĠprÃ¡Å¡": 7583,
      "CCX": 7584,
      "ĠstrÅ¯m": 7585,
      "ĠvÅ¾dyÅ¥s": 7586,
      "ĠÄįems": 7587,
      "Ġflan": 7588,
      "vil": 7589,
      "Ġjluz": 7590,
      "ÅĻu": 7591,
      "ĠloÄį": 7592,
      "ĠvstÄĽ": 7593,
      "ĠkboÅ¾": 7594,
      "ĠshrÅĪ": 7595,
      "Ġmak": 7596,
      "ĠvaÅĻ": 7597,
      "ĠfÅ¯m": 7598,
      "ĠkraÅ¡": 7599,
      "Ġbils": 7600,
      "Ġvskvost": 7601,
      "Ġfrank": 7602,
      "ĠsdruÅ¾": 7603,
      "Ġkspa": 7604,
      "Ġrcy": 7605,
      "ĠpokÅĻ": 7606,
      "Ġtex": 7607,
      "ĠpÃ¡v": 7608,
      "ĠklÃŃb": 7609,
      "ĠztÅĻeÅ¡": 7610,
      "war": 7611,
      "Ġloch": 7612,
      "ĠloÅ¡": 7613,
      "Ġcij": 7614,
      "Ġprod": 7615,
      "ĠÅ¡ij": 7616,
      "Ġpris": 7617,
      "Ġrik": 7618,
      "Ġzvet": 7619,
      "ĠzÅĻen": 7620,
      "Ġvkos": 7621,
      "ĠzpouÅ¡": 7622,
      "ĠvpÃ¡d": 7623,
      "Ġvhed": 7624,
      "ĠcÅ¾es": 7625,
      "ĠÃ¡t": 7626,
      "Ġtoh": 7627,
      "ĠzatÅĻ": 7628,
      "ĠvÅ¡at": 7629,
      "ĠbÃŃc": 7630,
      "ĠchvÃŃm": 7631,
      "Ġsslu": 7632,
      "rout": 7633,
      "Ġkpoz": 7634,
      "ĠÄįuj": 7635,
      "Ġhnizd": 7636,
      "ĠvdruÅ¾": 7637,
      "Ã½z": 7638,
      "Ġvsil": 7639,
      "Ġstos": 7640,
      "ĠzoÅĪ": 7641,
      "ĠdrÅ¥": 7642,
      "Ġstyk": 7643,
      "ĠknÃŃr": 7644,
      "ĠzroÅ¾": 7645,
      "Ġgai": 7646,
      "ĠÅ¡tast": 7647,
      "ĠsrÃ¡Å¾": 7648,
      "Ġveb": 7649,
      "ĠvÃŃÅ¥": 7650,
      "Ġztvo": 7651,
      "ĠzniÄį": 7652,
      "ĠsproÅ¡": 7653,
      "ĠkÅ¾rout": 7654,
      "ĠÄįpa": 7655,
      "ĠdÃ©s": 7656,
      "Ġshy": 7657,
      "ĠzÃ½Äį": 7658,
      "Ġdvet": 7659,
      "ĠztrÃ¡t": 7660,
      "Ġzbur": 7661,
      "AAXBXB": 7662,
      "ĠÅ¥ov": 7663,
      "ĠmÅ¾e": 7664,
      "ĠtÄĽÅ¥": 7665,
      "Ġmoi": 7666,
      "Ġmach": 7667,
      "Ġef": 7668,
      "ĠblÃŃk": 7669,
      "Ġspan": 7670,
      "ĠslÃŃc": 7671,
      "ĠzvÄĽn": 7672,
      "ĠÅĪan": 7673,
      "Ġvplec": 7674,
      "Ġchant": 7675,
      "ĠÅ¾vÃ½": 7676,
      "Ġtyl": 7677,
      "ĠvsnÃŃ": 7678,
      "ĠzÃŃt": 7679,
      "Ġsloh": 7680,
      "ĠgÅĻÃŃ": 7681,
      "ĠksÃŃ": 7682,
      "Ġfac": 7683,
      "ĠsnÄĽd": 7684,
      "ĠdbÃ¡t": 7685,
      "Ġmhla": 7686,
      "ĠvzboÅ¾": 7687,
      "ĠvÅ¡Å¥ast": 7688,
      "ĠdÃ¡s": 7689,
      "ĠzyÅ¡": 7690,
      "Ãºr": 7691,
      "ĠhlÃŃÅĻ": 7692,
      "ĠhliÄį": 7693,
      "ĠlkÃ¡m": 7694,
      "ĠvmÄĽl": 7695,
      "ĠvzplÃ¡t": 7696,
      "ĠcÃ¡p": 7697,
      "ĠvtrÃ¡v": 7698,
      "ACDE": 7699,
      "Ġgoism": 7700,
      "ĠtrÃ©m": 7701,
      "ĠdÅĻÃŃn": 7702,
      "Ġvlej": 7703,
      "Ġvstan": 7704,
      "ĠfÃ¡ÅĻ": 7705,
      "ĠvÅĻÃŃm": 7706,
      "ĠvplÃ¡ÅĪ": 7707,
      "ĠdcÃ©": 7708,
      "AXAXX": 7709,
      "ĠzÅ¾eh": 7710,
      "AABCCC": 7711,
      "Ġpni": 7712,
      "Ġmzdy": 7713,
      "Ġpac": 7714,
      "Ġspnou": 7715,
      "Ġsip": 7716,
      "Ġii": 7717,
      "ĠÅ¡lit": 7718,
      "ĠpÅĻÃ¡n": 7719,
      "ĠÄįemÅ¾": 7720,
      "Ġssr": 7721,
      "ĠbyÅ¥s": 7722,
      "Ġvspa": 7723,
      "ĠzkÃ¡z": 7724,
      "Ġcvik": 7725,
      "ĠÅ¡kub": 7726,
      "ĠsvdÄĽÄį": 7727,
      "ĠdoÅĪ": 7728,
      "ĠciÅ¥": 7729,
      "ĠtakÅ¥": 7730,
      "Ġcham": 7731,
      "ĠklÃ¡l": 7732,
      "Ġsdr": 7733,
      "ĠskrÃ¡s": 7734,
      "ĠkhÃ¡": 7735,
      "ĠztÄĽs": 7736,
      "ACBC": 7737,
      "ĠdbÃ¡m": 7738,
      "ĠkzpÅ¯r": 7739,
      "ĠssluÅ¾": 7740,
      "Ġpf": 7741,
      "Ġrz": 7742,
      "ĠhaÅ¥": 7743,
      "ĠstÃŃk": 7744,
      "Ġvtrou": 7745,
      "Ġsub": 7746,
      "Ġzbru": 7747,
      "Ġksk": 7748,
      "Ġya": 7749,
      "Ġjon": 7750,
      "Ġvzed": 7751,
      "Ġmlel": 7752,
      "ĠmÅ¾ÃŃ": 7753,
      "Å¡t": 7754,
      "Ġted": 7755,
      "Ġdun": 7756,
      "Ġlous": 7757,
      "Ġvman": 7758,
      "ĠÅ¡kvr": 7759,
      "ĠvlÃŃk": 7760,
      "Ġchlip": 7761,
      "Ġbep": 7762,
      "Ġztru": 7763,
      "ĠvÄįar": 7764,
      "ĠctnosÅ¥": 7765,
      "ĠsprÃ¡s": 7766,
      "ĠgrÃ©": 7767,
      "Ġkcho": 7768,
      "Ġsprv": 7769,
      "Ġvskok": 7770,
      "Ġpho": 7771,
      "ĠclÃ©": 7772,
      "ĠÅ¡te": 7773,
      "ĠÅ¡tej": 7774,
      "Ġchnu": 7775,
      "ĠÅĻal": 7776,
      "ĠpaÅ¥": 7777,
      "Ġspil": 7778,
      "Ġig": 7779,
      "Ġflu": 7780,
      "ĠvÅ¯t": 7781,
      "ĠvrÃ¡m": 7782,
      "Ġkryj": 7783,
      "ĠdlÃŃc": 7784,
      "ĠmÅĻeÅ¡": 7785,
      "Ġsmyl": 7786,
      "Ġzdur": 7787,
      "Ġkloub": 7788,
      "Ġvbyt": 7789,
      "ĠhnÃŃt": 7790,
      "Ġstak": 7791,
      "Ġkad": 7792,
      "ĠkruÅ¾": 7793,
      "ĠsrsÅ¥": 7794,
      "Ġtlen": 7795,
      "ĠtskÃ½": 7796,
      "ck": 7797,
      "Ġvkva": 7798,
      "ĠvbdÄĽ": 7799,
      "ĠkbÄĽ": 7800,
      "ĠbÅĻÃŃm": 7801,
      "ĠÅ¡ta": 7802,
      "ĠctÃŃc": 7803,
      "Ġvcu": 7804,
      "Ġpnout": 7805,
      "ĠvrÅ¯Å¾": 7806,
      "ACDCDE": 7807,
      "AEE": 7808,
      "Ġkplat": 7809,
      "Ġjro": 7810,
      "ĠdyÅ¥": 7811,
      "ĠkrÃ¡st": 7812,
      "ĠÅ¡iÅ¾": 7813,
      "ĠstrÃ¡t": 7814,
      "ĠsprÃ¡ch": 7815,
      "Ġdant": 7816,
      "Ġbryn": 7817,
      "Ġkctno": 7818,
      "ĠÅ¡tvÃ¡t": 7819,
      "Ġvtroj": 7820,
      "ĠvdneÅ¡": 7821,
      "ĠprÃ©m": 7822,
      "Ġchun": 7823,
      "Ġkslad": 7824,
      "ĠhrÃ¡Å¡": 7825,
      "Ġtku": 7826,
      "Ġnymf": 7827,
      "ĠsÃ©m": 7828,
      "ĠvÅĻad": 7829,
      "ĠÅ¡rou": 7830,
      "ĠÅĻvÃ¡": 7831,
      "ĠsvlÃŃ": 7832,
      "Ġtvil": 7833,
      "Ġfru": 7834,
      "ĠznÄĽt": 7835,
      "Ġgin": 7836,
      "ĠvskrÃ½": 7837,
      "Ġ1957": 7838,
      "Ġkmon": 7839,
      "Ġchiv": 7840,
      "Ġblb": 7841,
      "Ġchrup": 7842,
      "ĠlÃ©v": 7843,
      "ĠvtÃ©m": 7844,
      "Ġfli": 7845,
      "Ġvdal": 7846,
      "ĠzkÅ¯": 7847,
      "Ġshan": 7848,
      "Ġyet": 7849,
      "Ġknez": 7850,
      "ĠvmoÅĻ": 7851,
      "ĠthÄĽ": 7852,
      "ĠÅ¡lov": 7853,
      "ĠsmeÅ¥": 7854,
      "ĠÅ¡tkal": 7855,
      "Ġtlel": 7856,
      "Ġzruch": 7857,
      "Ġzpust": 7858,
      "ĠstlÃ½m": 7859,
      "ĠkÅ¾er": 7860,
      "ĠvcÃŃp": 7861,
      "Ġvvel": 7862,
      "Ġstau": 7863,
      "Ġtvem": 7864,
      "Ġvzvo": 7865,
      "ĠsaÅ¥": 7866,
      "Ġzprud": 7867,
      "ĠkÅĻÃŃc": 7868,
      "Ġsdnem": 7869,
      "Ã³p": 7870,
      "ĠzlÃŃÄį": 7871,
      "Ġssto": 7872,
      "Ġvblud": 7873,
      "Ġsvil": 7874,
      "ĠvplÃ½": 7875,
      "ĠzknÄĽÅ¾": 7876,
      "Ġknej": 7877,
      "ĠmÅĻÃŃÅ¥": 7878,
      "Ġdnin": 7879,
      "res": 7880,
      "ĠzÅ¡a": 7881,
      "Ġsmluv": 7882,
      "Ġkyr": 7883,
      "Ġsaz": 7884,
      "ĠÅ¡kvÃ¡": 7885,
      "Ġkmy": 7886,
      "Ġneck": 7887,
      "Ġtmav": 7888,
      "Ġzchmur": 7889,
      "Ġvzchop": 7890,
      "ĠvkeÅĻ": 7891,
      "AXAXBC": 7892,
      "ADEE": 7893,
      "ĠkÄıa": 7894,
      "Ġtop": 7895,
      "Ġdez": 7896,
      "ĠskÅ¯": 7897,
      "ĠÅĻÃŃp": 7898,
      "Ġvtrud": 7899,
      "Ġvbor": 7900,
      "ĠzÅĻek": 7901,
      "Ġrinth": 7902,
      "ĠsklÃŃÄį": 7903,
      "Ġsprch": 7904,
      "ĠzmnoÅ¾": 7905,
      "Ġkfo": 7906,
      "ĠÅ¡ra": 7907,
      "Ġchnul": 7908,
      "Ġvzna": 7909,
      "Ġspoz": 7910,
      "Ġbrost": 7911,
      "Ġkmr": 7912,
      "Ġkbi": 7913,
      "Ġvdob": 7914,
      "ĠkÅĻtÃŃ": 7915,
      "ĠdÅ¡t": 7916,
      "ĠmkrÃ¡t": 7917,
      "Ġvva": 7918,
      "Ġcra": 7919,
      "Ġvov": 7920,
      "ĠvoÄį": 7921,
      "ĠspÅĻi": 7922,
      "ĠpraÄı": 7923,
      "ĠstÄĽr": 7924,
      "ĠrÃ½s": 7925,
      "ABCBC": 7926,
      "ĠsmÃŃn": 7927,
      "Ġpsem": 7928,
      "Ġvju": 7929,
      "Ġskar": 7930,
      "ĠzlÃŃt": 7931,
      "Ġzniv": 7932,
      "ĠmÄĽjÅ¾": 7933,
      "Ġzbah": 7934,
      "Ġchic": 7935,
      "Ġsrub": 7936,
      "ĠchÅĻÃŃÅ¡": 7937,
      "Ġrron": 7938,
      "tameter": 7939,
      "ĠhÃ³": 7940,
      "Ġpav": 7941,
      "ĠstÃŃc": 7942,
      "ĠÅ¾Ã¡Äį": 7943,
      "Ġvzpu": 7944,
      "Ġstals": 7945,
      "AABCDD": 7946,
      "Ġthur": 7947,
      "Ġpentameter": 7948,
      "ĠstrÅ¯v": 7949,
      "ĠÅ¡mej": 7950,
      "ĠÅ¡ÅĪu": 7951,
      "ĠzkÅĻo": 7952,
      "Ġvlesk": 7953,
      "ĠvvÅ¡em": 7954,
      "ĠzÅ¾a": 7955,
      "ĠÄįlen": 7956,
      "ĠÅ¾nec": 7957,
      "ĠkÃ³": 7958,
      "Ġdmy": 7959,
      "ĠvhrÃ¡": 7960,
      "ĠkroÄį": 7961,
      "Ġmark": 7962,
      "Ġvchmur": 7963,
      "Ġzbran": 7964,
      "Ġsjem": 7965,
      "ĠvhÃ¡v": 7966,
      "Ġvmrz": 7967,
      "Ġsbles": 7968,
      "Ġzsk": 7969,
      "ĠÅ¡vÃŃ": 7970,
      "Ġtesk": 7971,
      "ĠÅ¾esÅ¥": 7972,
      "Ġbov": 7973,
      "lum": 7974,
      "ÅĪat": 7975,
      "Ġvdve": 7976,
      "Ġloud": 7977,
      "Ġsbou": 7978,
      "Ġzrod": 7979,
      "ĠÄįÃ¡sÅ¥": 7980,
      "Ġkby": 7981,
      "ĠtoÅ¾Å¥": 7982,
      "ĠÄįoÄį": 7983,
      "ĠÅ¡lÃŃÅ¡": 7984,
      "ĠÄıau": 7985,
      "Ġzjiz": 7986,
      "Ġkjas": 7987,
      "Ġsodv": 7988,
      "ĠjÃº": 7989,
      "Ġpte": 7990,
      "ĠpnÃŃ": 7991,
      "Ġbak": 7992,
      "Ġdai": 7993,
      "Ġpap": 7994,
      "ĠÅ¡ip": 7995,
      "ĠvtÅĻÃŃ": 7996,
      "ĠvlÃ¡Äį": 7997,
      "ĠmÃ½Å¾": 7998,
      "ĠsrÅ¡": 7999,
      "ĠspiÅ¡": 8000,
      "ĠkÃºs": 8001,
      "Ġzfran": 8002,
      "ĠhviÄį": 8003,
      "Ġkjich": 8004,
      "Ġtci": 8005,
      "Ġvuz": 8006,
      "Ġvdny": 8007,
      "Ġtlas": 8008,
      "Ġkman": 8009,
      "ĠsneÅ¡": 8010,
      "ĠtkÃ¡m": 8011,
      "Ġssou": 8012,
      "Ġxo": 8013,
      "ĠplÃŃÅ¥": 8014,
      "Ġkstar": 8015,
      "ĠvbÄĽd": 8016,
      "Ġmhu": 8017,
      "ĠliÅĪ": 8018,
      "ĠvzvÄĽ": 8019,
      "ĠrÃ¡s": 8020,
      "ĠsuÅĪ": 8021,
      "Ġslup": 8022,
      "Ġdlan": 8023,
      "Ġsleh": 8024,
      "ABCX": 8025,
      "ĠÅ¥at": 8026,
      "ĠÅ¡Å¥u": 8027,
      "ĠvchvÄĽ": 8028,
      "Ġvzhou": 8029,
      "Ġvklet": 8030,
      "Ġkfi": 8031,
      "Ġnra": 8032,
      "Ġvex": 8033,
      "ĠdÃ¡c": 8034,
      "Ġcor": 8035,
      "Ġvzas": 8036,
      "ĠkdyÅ¾s": 8037,
      "ĠplÃ¡z": 8038,
      "Ġfik": 8039,
      "ĠsnyÅ¥": 8040,
      "ĠzmoÅĻ": 8041,
      "ĠkviÄį": 8042,
      "ABCBAC": 8043,
      "ĠvzlÃ©m": 8044,
      "Ġrru": 8045,
      "ĠvÃ¡Å¥": 8046,
      "Ġzdem": 8047,
      "ABABAA": 8048,
      "ĠvdÃ¡t": 8049,
      "Ġhes": 8050,
      "Ġjul": 8051,
      "Ġpty": 8052,
      "Ġvchmu": 8053,
      "ĠÅĪaÄį": 8054,
      "ĠzrÅ¯d": 8055,
      "Ġvysv": 8056,
      "Ġzkvet": 8057,
      "Ġsvlast": 8058,
      "Ġpstru": 8059,
      "Ġksuk": 8060,
      "ÅĻbe": 8061,
      "Ġnyx": 8062,
      "Ġlys": 8063,
      "ĠsmÃ©": 8064,
      "Ġgno": 8065,
      "ĠktvÃ½m": 8066,
      "Ġzchlad": 8067,
      "ĠzrÅ¯z": 8068,
      "ĠÅ¡vÃ¡b": 8069,
      "ĠktrÃ³": 8070,
      "ĠjmÃŃn": 8071,
      "ĠmÅ¾ou": 8072,
      "XABABC": 8073,
      "Ġpkou": 8074,
      "ĠsÃ¡r": 8075,
      "Ġtlach": 8076,
      "Ġsby": 8077,
      "Ġkmrou": 8078,
      "ĠstruÄį": 8079,
      "ĠpsÃ¡n": 8080,
      "Ġkspol": 8081,
      "Ġszim": 8082,
      "ĠtskÃ½m": 8083,
      "ĠvÅ¡pi": 8084,
      "26": 8085,
      "Ġjri": 8086,
      "Ġast": 8087,
      "ÅĻbi": 8088,
      "ĠdeÅ¥": 8089,
      "ĠmasÅ¥": 8090,
      "ĠpÅĻep": 8091,
      "Ġrai": 8092,
      "Ġzmet": 8093,
      "Ġkmar": 8094,
      "ĠkpÄĽ": 8095,
      "Ġkplu": 8096,
      "ĠouÄį": 8097,
      "ĠouÅ¡": 8098,
      "ĠvchlÃ¡d": 8099,
      "Ġkhe": 8100,
      "Ġzmoh": 8101,
      "ĠblÃ©k": 8102,
      "ĠzrÅ¯st": 8103,
      "ĠmnÃŃmÅ¥": 8104,
      "Ġchyll": 8105,
      "ĠhÅĪup": 8106,
      "Ġhin": 8107,
      "Ġlai": 8108,
      "ĠpaÅ¡": 8109,
      "ĠkÃ¡d": 8110,
      "Ġbezv": 8111,
      "AAXXXX": 8112,
      "ĠdlÃ¡ch": 8113,
      "Ġvkrad": 8114,
      "ĠzbÄĽh": 8115,
      "Ġzcy": 8116,
      "ĠzcÃŃ": 8117,
      "ĠÅ¥ouÄį": 8118,
      "ĠÅ¡mÃ¡": 8119,
      "Ġrzi": 8120,
      "ĠÄįtÄĽ": 8121,
      "ĠÄįmou": 8122,
      "Ġsvrou": 8123,
      "ĠnoÅ¥": 8124,
      "Ġroic": 8125,
      "ĠstÃŃt": 8126,
      "Ġdraz": 8127,
      "ĠvhÅĻe": 8128,
      "ĠstvÃ©m": 8129,
      "ĠklÅĪ": 8130,
      "Ġvpor": 8131,
      "Ġouin": 8132,
      "ĠznÃŃz": 8133,
      "ĠmnÃŃch": 8134,
      "Ġpuls": 8135,
      "Ġouinti": 8136,
      "FG": 8137,
      "Ġkyv": 8138,
      "ĠÄįep": 8139,
      "ĠÅ¡ÃŃv": 8140,
      "ĠÄįÃŃÅĻ": 8141,
      "ĠÅ¡ir": 8142,
      "ĠdÅĻÃŃch": 8143,
      "ĠspÃ¡Äį": 8144,
      "ĠdlÃŃk": 8145,
      "Ġkzla": 8146,
      "ĠnÄĽls": 8147,
      "ĠvÃºt": 8148,
      "ĠssÃ¡t": 8149,
      "ĠranÅ¾": 8150,
      "ĠcloÅĪ": 8151,
      "Ġvmet": 8152,
      "Ġgent": 8153,
      "ĠmodÅĻ": 8154,
      "AH": 8155,
      "olo": 8156,
      "vÅ¯r": 8157,
      "ĠjrÃ¡": 8158,
      "ĠÄįky": 8159,
      "Ġist": 8160,
      "ĠbÃŃÅĻ": 8161,
      "Ġvsli": 8162,
      "Ġzpli": 8163,
      "ĠÅ¡kÃ½": 8164,
      "Ġtryl": 8165,
      "ĠkstrÃ¡": 8166,
      "Ġllon": 8167,
      "ĠtnÃ½ch": 8168,
      "ĠvÄįty": 8169,
      "Ġaeth": 8170,
      "Ġyette": 8171,
      "ĠvÃ¡ÅĪ": 8172,
      "Ġvzvy": 8173,
      "ĠluÅ¡": 8174,
      "ĠztÅ¯": 8175,
      "ĠvÃŃmÅ¥": 8176,
      "Ġstyl": 8177,
      "ĠsvÃ½Å¡": 8178,
      "ĠdvÃ©st": 8179,
      "ĠtlÃŃm": 8180,
      "ĠfÃŃn": 8181,
      "ĠpÃ³l": 8182,
      "Ġfekt": 8183,
      "ĠvzpÄĽv": 8184,
      "AABXX": 8185,
      "un": 8186,
      "ĠkdÃ¡l": 8187,
      "ĠmaÅ¾": 8188,
      "Ġstaj": 8189,
      "ĠvdÃ³": 8190,
      "ĠznÃ¡Å¥": 8191,
      "ĠslÃ¡t": 8192,
      "Ġdvar": 8193,
      "ĠvzÃ¡Å¡": 8194,
      "ĠvruÄį": 8195,
      "Ġtroup": 8196,
      "Ġvtrys": 8197,
      "Ġzfa": 8198,
      "ĠrvÃ¡n": 8199,
      "ĠÅ¡oust": 8200,
      "Ġschyl": 8201,
      "ĠÅ¡klub": 8202,
      "ĠlvÅ¯": 8203,
      "Ġsvran": 8204,
      "Ġvoc": 8205,
      "ĠzeÄį": 8206,
      "ĠÃºÅ¾": 8207,
      "Ġtrar": 8208,
      "ĠtÅĻiÅ¥": 8209,
      "ĠpsÃ½": 8210,
      "Ġvdub": 8211,
      "Ġvros": 8212,
      "ĠmÅ¾it": 8213,
      "ĠsÃºz": 8214,
      "Ġscan": 8215,
      "ĠdÅĻin": 8216,
      "ĠzvÃ½h": 8217,
      "ĠhrÃ½zt": 8218,
      "Ġstle": 8219,
      "ĠrÅ¾ÃŃ": 8220,
      "Ġlij": 8221,
      "Ġuil": 8222,
      "ABABBA": 8223,
      "Ġbrk": 8224,
      "Ġvems": 8225,
      "ĠzlosÅ¥": 8226,
      "Ġfai": 8227,
      "Ġbrot": 8228,
      "ĠklÃŃch": 8229,
      "ĠÅ¾ul": 8230,
      "ĠniÅ¾Å¥": 8231,
      "ĠzbÄĽd": 8232,
      "Ġvbit": 8233,
      "ĠzÃ³": 8234,
      "Ġdow": 8235,
      "Ġsyk": 8236,
      "Ġsut": 8237,
      "ĠvslÃŃ": 8238,
      "Ġzhle": 8239,
      "ĠshnÃ¡": 8240,
      "ĠblÃŃn": 8241,
      "ĠtÅĻid": 8242,
      "ĠstÅĻÃŃs": 8243,
      "ĠtrÃ¡ch": 8244,
      "Ġskryj": 8245,
      "Ġtlouk": 8246,
      "Ġzvrat": 8247,
      "Ġvpych": 8248,
      "Ġzza": 8249,
      "Ġvychr": 8250,
      "Ġtwar": 8251,
      "Ġvau": 8252,
      "Ġmac": 8253,
      "Ġkoum": 8254,
      "Ġvsle": 8255,
      "ĠzprÃ¡z": 8256,
      "ĠdalÅ¥": 8257,
      "Ġvzdi": 8258,
      "ĠzÅĻÃŃc": 8259,
      "ĠÅ¥ce": 8260,
      "Ġhlil": 8261,
      "ĠktÃ¡": 8262,
      "Ġhloup": 8263,
      "Ġtlil": 8264,
      "Ġsnym": 8265,
      "Ġvcel": 8266,
      "Ġvryb": 8267,
      "Ġkspo": 8268,
      "Ġflex": 8269,
      "ĠjvÄĽÅ¡": 8270,
      "ĠmnÃ¡c": 8271,
      "Ġvtrest": 8272,
      "Ġds": 8273,
      "Ġtaur": 8274,
      "Ġtuk": 8275,
      "ĠbuÅĪ": 8276,
      "ĠsteÅ¡": 8277,
      "Ġgju": 8278,
      "Ġye": 8279,
      "Ġplyn": 8280,
      "ĠzleÅ¡": 8281,
      "Ġthle": 8282,
      "Ġsboch": 8283,
      "ĠzsvÃ½ch": 8284,
      "Ġzjis": 8285,
      "XABX": 8286,
      "Ġknost": 8287,
      "ĠvÄĽs": 8288,
      "Ġnoun": 8289,
      "Ġzef": 8290,
      "ĠvtÃ³": 8291,
      "ĠbiÅ¡": 8292,
      "Ġvlam": 8293,
      "ĠdloÅ¾": 8294,
      "Ġctum": 8295,
      "ĠaÄįs": 8296,
      "Ġzrou": 8297,
      "Ġvnaz": 8298,
      "Ġhryz": 8299,
      "ĠbdÃŃÅ¡": 8300,
      "Ġgall": 8301,
      "ĠvcÃŃl": 8302,
      "Ġzmdlob": 8303,
      "ĠjÅĻil": 8304,
      "ĠchÃ³": 8305,
      "ĠbaÅĪ": 8306,
      "Ġvrem": 8307,
      "ĠrÃ½t": 8308,
      "Ġksko": 8309,
      "ĠcheÅĪ": 8310,
      "Ġhmat": 8311,
      "Ġkvol": 8312,
      "Ġnuc": 8313,
      "Ġvsma": 8314,
      "ĠstrÃ³p": 8315,
      "ĠkloÄı": 8316,
      "Ġktru": 8317,
      "ĠÄįtli": 8318,
      "Ġ1825": 8319,
      "Ġmsto": 8320,
      "ĠxÅ¯": 8321,
      "Ġllyr": 8322,
      "Ġthus": 8323,
      "ĠstlÃ©m": 8324,
      "ĠvÅ¡pat": 8325,
      "Ġvshro": 8326,
      "CA": 8327,
      "Ġllem": 8328,
      "Ġpha": 8329,
      "Ġid": 8330,
      "ĠvptÃ¡": 8331,
      "ĠvsÃ¡l": 8332,
      "Ġblom": 8333,
      "Ġvzbra": 8334,
      "ĠÅ¡lil": 8335,
      "Ġdoh": 8336,
      "Ġrut": 8337,
      "Ġia": 8338,
      "Ġhral": 8339,
      "ĠplÃ¡c": 8340,
      "Ġsmrk": 8341,
      "Ġtmo": 8342,
      "Ġsnej": 8343,
      "Ġtkou": 8344,
      "ĠkhrÅ¯": 8345,
      "ĠÅ¡Ã¡m": 8346,
      "ĠvpÅĻÃŃt": 8347,
      "Ġfun": 8348,
      "Ġstmou": 8349,
      "Ġjap": 8350,
      "ĠÅĻep": 8351,
      "ĠbaÄį": 8352,
      "ĠtamÅ¥": 8353,
      "Ġstouc": 8354,
      "ĠprouÅ¾": 8355,
      "Ġkplo": 8356,
      "Ġtlost": 8357,
      "Ġchals": 8358,
      "Ġstruh": 8359,
      "Ġkpos": 8360,
      "ĠvsaÄı": 8361,
      "Ġtbu": 8362,
      "ĠjvÃ¡b": 8363,
      "ĠÅ¡lÃ½m": 8364,
      "CCC": 8365,
      "Ġhet": 8366,
      "ĠvskÅĻi": 8367,
      "ĠÄįov": 8368,
      "Ġfos": 8369,
      "Ġrent": 8370,
      "ĠmÅ¡ÃŃ": 8371,
      "Ġvget": 8372,
      "ĠvjÃŃc": 8373,
      "Ġzpyt": 8374,
      "AABAAB": 8375,
      "ADDE": 8376,
      "Ġvstih": 8377,
      "DB": 8378,
      "ĠÅĻvÃ¡t": 8379,
      "ĠveÅ¾": 8380,
      "ĠnouÄį": 8381,
      "Ġ1815": 8382,
      "Ġvsmu": 8383,
      "Ġdland": 8384,
      "Ġblep": 8385,
      "CDD": 8386,
      "ĠsdÃ¡": 8387,
      "Ġjdouc": 8388,
      "ĠrtÅ¯v": 8389,
      "ĠvstÅĻet": 8390,
      "Ġshud": 8391,
      "ĠpstrÃ©": 8392,
      "ĠdÅĻu": 8393,
      "ĠiÃŃ": 8394,
      "XAABBX": 8395,
      "Ġztrou": 8396,
      "ĠvlÃ½": 8397,
      "ĠzpÄĽn": 8398,
      "Ġvpoc": 8399,
      "Ġvpov": 8400,
      "ĠzÅĻÃŃÅ¥": 8401,
      "Ġstrum": 8402,
      "Ġvpros": 8403,
      "Ġkment": 8404,
      "Ġchloup": 8405,
      "AXXXX": 8406,
      "rej": 8407,
      "Ġsex": 8408,
      "ĠvÅ¡ar": 8409,
      "Ġnuch": 8410,
      "ĠvzrÃ¡d": 8411,
      "ĠtyÅ¥": 8412,
      "ĠluÄı": 8413,
      "Ġmlas": 8414,
      "ĠsmÄĽt": 8415,
      "ĠÅ¡aj": 8416,
      "ĠstÃ½n": 8417,
      "Ġzvar": 8418,
      "ĠvzkvÄĽ": 8419,
      "Ġthes": 8420,
      "ĠkstÅĻe": 8421,
      "Ġfuj": 8422,
      "Ġztuh": 8423,
      "ĠshÃ½b": 8424,
      "ĠtchÃ¡n": 8425,
      "Ġsfouk": 8426,
      "ĠvsnÃŃh": 8427,
      "ĠnaÅĻ": 8428,
      "Ġhof": 8429,
      "Ġnok": 8430,
      "ĠslÃ©m": 8431,
      "ĠtÃŃz": 8432,
      "Ġjah": 8433,
      "Ġjaj": 8434,
      "Ġ1816": 8435,
      "ĠÅĻeÅ¡": 8436,
      "ĠvdÅĻe": 8437,
      "ĠdraÄį": 8438,
      "Ġvhle": 8439,
      "ĠbrÃ¡m": 8440,
      "Ġkmou": 8441,
      "ĠzlÃŃh": 8442,
      "Ġvsluj": 8443,
      "Ġvca": 8444,
      "Ġsbez": 8445,
      "Ġcukr": 8446,
      "kÃ©": 8447,
      "Ġdky": 8448,
      "ĠÅ¡y": 8449,
      "ĠjskÃ©": 8450,
      "ĠdÃ¡Äį": 8451,
      "ĠkrÃ¡p": 8452,
      "ĠhaÅĪ": 8453,
      "Ġhlan": 8454,
      "ĠpÅĻit": 8455,
      "Ġtril": 8456,
      "ĠvsnÅ¯": 8457,
      "AAXAXA": 8458,
      "Ġ1831": 8459,
      "ĠrÃ©mÅ¾": 8460,
      "ĠkÅĻtÄĽ": 8461,
      "ĠvÅĻÃŃÄį": 8462,
      "Ġllic": 8463,
      "ĠvseÄį": 8464,
      "Ġsju": 8465,
      "Ġshroz": 8466,
      "ĠzkÅĻiÅ¡": 8467,
      "Ġvkyv": 8468,
      "ĠnÃ¡Å¥": 8469,
      "ĠnoÅĻ": 8470,
      "ĠkdÃŃt": 8471,
      "ĠkÃ¡Äį": 8472,
      "Ġmyt": 8473,
      "ĠzÃŃv": 8474,
      "Ġvout": 8475,
      "Ġzman": 8476,
      "Ġlils": 8477,
      "Ġcau": 8478,
      "Ġsdvo": 8479,
      "ĠvzkÅĻe": 8480,
      "ĠvjitÅĻ": 8481,
      "ĠzbÄĽÅĻ": 8482,
      "Ġkchu": 8483,
      "Ġztaj": 8484,
      "ĠrdÃŃc": 8485,
      "ĠzkÅĻik": 8486,
      "ĠlÅ¾eÅ¡": 8487,
      "ĠkÄįa": 8488,
      "Ġssk": 8489,
      "ĠsÅĻa": 8490,
      "Ġclou": 8491,
      "ĠsvÅĻe": 8492,
      "Ġmai": 8493,
      "ĠspÃ©": 8494,
      "ĠlÃ©r": 8495,
      "Ġvtk": 8496,
      "Ġei": 8497,
      "Ġez": 8498,
      "Ġvklo": 8499,
      "Ġklej": 8500,
      "Ġdnil": 8501,
      "ĠhrÃ¡Äį": 8502,
      "ĠzpoÄį": 8503,
      "Ġvjho": 8504,
      "ĠÅĪav": 8505,
      "Ġvkol": 8506,
      "ĠshoÄı": 8507,
      "ĠtbÃ¡ch": 8508,
      "ĠtchÃ¡": 8509,
      "Ġphoi": 8510,
      "ĠvslÃŃÄį": 8511,
      "Ġkuch": 8512,
      "Ġio": 8513,
      "ĠvsvÃŃ": 8514,
      "ĠbiÅ¥": 8515,
      "ĠvlaÄį": 8516,
      "Ġblat": 8517,
      "Ġschle": 8518,
      "Ġkmla": 8519,
      "Ġvrub": 8520,
      "AXBXB": 8521,
      "Ġtlech": 8522,
      "ĠdnÄĽj": 8523,
      "Ġvcir": 8524,
      "ĠÅ¾hnu": 8525,
      "Ġtba": 8526,
      "ĠcrÃ³": 8527,
      "ĠvkÅĻiÅ¡": 8528,
      "Ġtchy": 8529,
      "AABXBX": 8530,
      "Ġmiv": 8531,
      "Ġmaur": 8532,
      "Ġtyn": 8533,
      "Ġchab": 8534,
      "Ġziz": 8535,
      "ĠstÅĻeÅ¾": 8536,
      "Ġmraj": 8537,
      "Ġshru": 8538,
      "Ġkls": 8539,
      "Ġkniv": 8540,
      "Ġbald": 8541,
      "Ġaus": 8542,
      "Ġvspro": 8543,
      "Ġvvla": 8544,
      "Ġkvlast": 8545,
      "Ġaest": 8546,
      "ĠklÅ¯Å¾": 8547,
      "Ġvsklon": 8548,
      "AABXXB": 8549,
      "ĠnÄĽh": 8550,
      "ĠmuÄį": 8551,
      "Ġvig": 8552,
      "Ġzdmu": 8553,
      "Ġzram": 8554,
      "Ġvbro": 8555,
      "ĠshrÃ¡": 8556,
      "ĠksÃ½": 8557,
      "ĠvlÃ¡z": 8558,
      "ĠvchlÃ©": 8559,
      "AXXABB": 8560,
      "Ġzjar": 8561,
      "ĠvÅĻÃ¡d": 8562,
      "ĠÅ¡Ã©": 8563,
      "ĠtaÅĻ": 8564,
      "Ġdesk": 8565,
      "Ġsuv": 8566,
      "Ġbir": 8567,
      "ĠzmlÃ½": 8568,
      "Ġshlou": 8569,
      "Ġschro": 8570,
      "Ġhlem": 8571,
      "Ġvchvil": 8572,
      "ĠsboÅ¾": 8573,
      "ĠpÄĽls": 8574,
      "ĠÅ¾dyc": 8575,
      "Ġgral": 8576,
      "ĠzdrÅ¾": 8577,
      "ĠÄįteÅ¡": 8578,
      "Ġsvrch": 8579,
      "ĠhmoÅ¾": 8580,
      "ĠsÅ¡a": 8581,
      "Ġfons": 8582,
      "Ġzga": 8583,
      "Ġtest": 8584,
      "ĠnÃ½r": 8585,
      "Ġdud": 8586,
      "ĠmeÅ¥": 8587,
      "Ġzpor": 8588,
      "Ġdlat": 8589,
      "skÃ©": 8590,
      "Ġkret": 8591,
      "ĠsdÃ½": 8592,
      "ver": 8593,
      "Ġgel": 8594,
      "Ġblin": 8595,
      "Ġvloh": 8596,
      "ĠznÃ¡mÅ¥": 8597,
      "ĠvmlÅ¾": 8598,
      "Ġfyr": 8599,
      "Ġspekt": 8600,
      "Ġmlejn": 8601,
      "mÅ¯": 8602,
      "Ġrho": 8603,
      "ĠÅ¡vu": 8604,
      "ĠsvrÃ¡": 8605,
      "Ġskly": 8606,
      "ĠsmlÃ¡": 8607,
      "Ġpraz": 8608,
      "ĠpÃ¡st": 8609,
      "ĠchÃ¡b": 8610,
      "ĠchtÄĽt": 8611,
      "Ġvnec": 8612,
      "Ġssla": 8613,
      "Ġgran": 8614,
      "ĠzchÃ½": 8615,
      "ĠÄįnÃŃt": 8616,
      "Ġmlet": 8617,
      "Ġkvost": 8618,
      "Ġvvzd": 8619,
      "ĠÅ¡lÃ¡ÅĻ": 8620,
      "ĠvbÃ¡j": 8621,
      "Ġjvod": 8622,
      "Ġtimp": 8623,
      "Ġksym": 8624,
      "vor": 8625,
      "ĠnÃ³": 8626,
      "Ġrill": 8627,
      "lau": 8628,
      "ĠvaÄı": 8629,
      "Ġjip": 8630,
      "Ġvyc": 8631,
      "ĠchaÄį": 8632,
      "Ġroun": 8633,
      "ĠzdÃ¡m": 8634,
      "Ġshnu": 8635,
      "ĠÄįils": 8636,
      "ABCCBA": 8637,
      "Ġhant": 8638,
      "ĠzdÄĽch": 8639,
      "ĠzdÃŃl": 8640,
      "Ġtvic": 8641,
      "Ġvgir": 8642,
      "ĠvtÃ¡h": 8643,
      "Ġvdrs": 8644,
      "mÃ©": 8645,
      "Ġnber": 8646,
      "ĠvvÃŃ": 8647,
      "Ġclum": 8648,
      "Ġkys": 8649,
      "ĠÅĻeÅ¥": 8650,
      "ĠtrÃ³n": 8651,
      "ĠnÃ½chs": 8652,
      "Ġbrah": 8653,
      "ĠgÅĻi": 8654,
      "Ġzkme": 8655,
      "Ġpils": 8656,
      "Ġfoi": 8657,
      "ĠkstÄĽ": 8658,
      "ĠzpÅĻed": 8659,
      "ĠzÅ¾u": 8660,
      "ĠdmÃŃ": 8661,
      "ĠllÅ¯": 8662,
      "Ġaf": 8663,
      "Å¾b": 8664,
      "Ġchnou": 8665,
      "Ġstaf": 8666,
      "Ġvtva": 8667,
      "Ġslost": 8668,
      "Ġkes": 8669,
      "ĠztÃŃ": 8670,
      "ĠbÅĻed": 8671,
      "ĠÅ¡tÄĽk": 8672,
      "ĠvpoÄį": 8673,
      "Ġsblan": 8674,
      "Ġkmra": 8675,
      "ĠkmlÃ¡": 8676,
      "ĠzÅĻev": 8677,
      "ĠklÃ¡n": 8678,
      "Ġthem": 8679,
      "ĠvzklÃŃ": 8680,
      "Ġxy": 8681,
      "Ġploul": 8682,
      "Ġsmoc": 8683,
      "ĠcÃ©ÅĻ": 8684,
      "ĠkjÃ¡": 8685,
      "Ġkpros": 8686,
      "ĠpÅ¡a": 8687,
      "ĠciÄį": 8688,
      "ĠlÃ©p": 8689,
      "Ġchus": 8690,
      "Ġfak": 8691,
      "ĠtÅĻep": 8692,
      "ĠmÃ½t": 8693,
      "ĠtresÅ¥": 8694,
      "Ġfranz": 8695,
      "ĠblÃ©m": 8696,
      "ĠhÅĻiÄį": 8697,
      "ĠsÅ¾en": 8698,
      "Ġvsrp": 8699,
      "dr": 8700,
      "nut": 8701,
      "ĠneÅ¥": 8702,
      "ĠnÃ¡z": 8703,
      "ĠvÅ¡Ã¡": 8704,
      "ĠmÄĽÄı": 8705,
      "ĠlyÅĪ": 8706,
      "ĠzvdÄĽÄį": 8707,
      "ĠÃºl": 8708,
      "Ġdour": 8709,
      "Ġmand": 8710,
      "ĠÅ¡tvou": 8711,
      "Ġjilm": 8712,
      "Ġbdi": 8713,
      "ĠskroÅ¥": 8714,
      "Ġvhlav": 8715,
      "ĠÅ¡vest": 8716,
      "ĠÅ¾van": 8717,
      "Ġstrel": 8718,
      "ĠvbÅĻes": 8719,
      "ĠsÄįÃŃm": 8720,
      "Ġcult": 8721,
      "ĠhÅĪuh": 8722,
      "AG": 8723,
      "Ġvzje": 8724,
      "Ġtrill": 8725,
      "AABBCB": 8726,
      "ĠzhÅĻbe": 8727,
      "AAAABB": 8728,
      "Ġ1854": 8729,
      "Ġmde": 8730,
      "Ġklus": 8731,
      "ĠÅ¾luÅ¥": 8732,
      "XAXABX": 8733,
      "Ġvsmy": 8734,
      "ĠlkÃ¡Å¥": 8735,
      "Ġzhur": 8736,
      "Ġzvrt": 8737,
      "ĠjradÅ¡": 8738,
      "ĠjÅĻi": 8739,
      "ĠÅ¡vÃ½": 8740,
      "Ġlac": 8741,
      "ĠvÃ¡h": 8742,
      "ĠspÅ¯d": 8743,
      "ĠzÃ¡z": 8744,
      "Ġlul": 8745,
      "ĠdÅĻÃŃk": 8746,
      "Ġschlou": 8747,
      "ĠhlouÄį": 8748,
      "Ġzpov": 8749,
      "Ġblon": 8750,
      "Ġzmiz": 8751,
      "ĠzsvÄĽt": 8752,
      "ĠÅ¾dÃ¡t": 8753,
      "ĠÅ¾dÃ¡m": 8754,
      "ĠÅ¾bÃ¡n": 8755,
      "ĠdskÃ©": 8756,
      "Ġspsem": 8757,
      "Ġvgeth": 8758,
      "ĠvÃ³": 8759,
      "Ġlvu": 8760,
      "Ġjha": 8761,
      "ĠÅ¾re": 8762,
      "ĠÄįka": 8763,
      "Ġchmou": 8764,
      "ĠÅ¾ev": 8765,
      "ĠkdÅ¯": 8766,
      "ĠbraÅ¡": 8767,
      "ĠzoÄį": 8768,
      "Ġklim": 8769,
      "ĠsmrÅ¡": 8770,
      "Ġkslou": 8771,
      "Ġtlal": 8772,
      "ĠslÃŃd": 8773,
      "ĠpÅĻÃ¡Å¥": 8774,
      "Ġfel": 8775,
      "ĠtrÃ¡k": 8776,
      "ĠcoÅ¾s": 8777,
      "ĠzpÃŃt": 8778,
      "ĠstÃ¡ls": 8779,
      "Ġznov": 8780,
      "Ġthin": 8781,
      "Ġvkob": 8782,
      "Ġchran": 8783,
      "ĠdlÃ¡ÅĻ": 8784,
      "ĠkhrÃ¡": 8785,
      "ĠchrÅ¯m": 8786,
      "Ġchrlil": 8787,
      "ĠmdlÃ©m": 8788,
      "Ġvpsa": 8789,
      "Ġpten": 8790,
      "Ġmber": 8791,
      "lej": 8792,
      "rÃ¡v": 8793,
      "ĠÄįÃŃÅ¾": 8794,
      "ĠÅ¾ic": 8795,
      "Ġbaf": 8796,
      "Ġdouk": 8797,
      "ĠchyÅ¾": 8798,
      "Ġzhno": 8799,
      "ĠsliÅ¥": 8800,
      "Ġdloud": 8801,
      "Ġvzpi": 8802,
      "Ġznoz": 8803,
      "Ġtlup": 8804,
      "Ġparr": 8805,
      "Ġchlic": 8806,
      "ĠÅĪÃ¡Äį": 8807,
      "ĠvmrÅ¡": 8808,
      "ĠvstrÅ¾": 8809,
      "Ġsvrhl": 8810,
      "ĠvschrÃ¡": 8811,
      "Ġtnu": 8812,
      "Ġbrd": 8813,
      "ĠcÅ¾": 8814,
      "Å¯v": 8815,
      "Ġkau": 8816,
      "Ġzvil": 8817,
      "ĠpÃŃn": 8818,
      "ABBABC": 8819,
      "ĠvÅ¾u": 8820,
      "ĠkroÅ¥": 8821,
      "ĠbÅĻeÅ¾": 8822,
      "ĠvÅĻed": 8823,
      "ĠznÃ¡d": 8824,
      "ĠvlÃ¡st": 8825,
      "Ġvlech": 8826,
      "ĠÅ¡ky": 8827,
      "Ġplos": 8828,
      "ĠpÃ©r": 8829,
      "Ġzsa": 8830,
      "ĠmÃ¤": 8831,
      "ĠÅ¾ni": 8832,
      "ĠÅ¡or": 8833,
      "Ġzec": 8834,
      "ĠspoÄį": 8835,
      "ĠsleÅ¥": 8836,
      "ĠvmÃ½": 8837,
      "Ġmens": 8838,
      "ĠsÃ½r": 8839,
      "ĠÄıat": 8840,
      "ĠvzkvÃ©": 8841,
      "ĠvzkvÄĽt": 8842,
      "ĠvpÅĻÃŃs": 8843,
      "Ġzsmr": 8844,
      "Ġkult": 8845,
      "ĠvvÅ¯": 8846,
      "Ġkfran": 8847,
      "ĠvzmuÅ¾": 8848,
      "ĠbaÅ¡t": 8849,
      "Ġjroz": 8850,
      "ĠsprÅ¯": 8851,
      "ĠÅ¡ic": 8852,
      "Ġhup": 8853,
      "Ġpep": 8854,
      "ĠsuÅ¡": 8855,
      "ĠdÄĽlÅ¥": 8856,
      "Ġvmal": 8857,
      "ABCACB": 8858,
      "Ġkrup": 8859,
      "Ġgust": 8860,
      "Ġvhrom": 8861,
      "Ġvtur": 8862,
      "Ġfant": 8863,
      "ĠvtvÅ¯r": 8864,
      "Ġsstra": 8865,
      "Ġpsov": 8866,
      "ĠshvÄĽzd": 8867,
      "ĠflÃ³r": 8868,
      "Ġkbez": 8869,
      "Ġmva": 8870,
      "Ġcri": 8871,
      "Ġtir": 8872,
      "Ġsix": 8873,
      "ĠmÃŃs": 8874,
      "ĠbaÅĻ": 8875,
      "ĠprÃ³": 8876,
      "ĠzoÅ¡": 8877,
      "Ġdrich": 8878,
      "ĠstvÃŃÅ¡": 8879,
      "Ġzhi": 8880,
      "ĠbÅĻev": 8881,
      "ĠkpÅĻi": 8882,
      "AACCD": 8883,
      "ĠstvoÅĻ": 8884,
      "Ġvchra": 8885,
      "Ġvkam": 8886,
      "ĠmstÄĽ": 8887,
      "ĠzlÃ¡z": 8888,
      "Ġsfres": 8889,
      "ĠsklÃŃn": 8890,
      "ĠskÅĻes": 8891,
      "ĠvhouÅ¡Å¥": 8892,
      "ĠÄįmel": 8893,
      "hi": 8894,
      "ĠnrÃ¡d": 8895,
      "ĠrÃŃ": 8896,
      "ĠlyÅ¥": 8897,
      "Ġvzdro": 8898,
      "ĠstÅĻeÅĪ": 8899,
      "ĠsmÄĽst": 8900,
      "Ġkrum": 8901,
      "Ġfus": 8902,
      "Ġshlas": 8903,
      "ĠvskoÄį": 8904,
      "ĠdskÃ½": 8905,
      "AADDEE": 8906,
      "Ġvpsal": 8907,
      "Ġbvaz": 8908,
      "ĠvtÅĻpy": 8909,
      "Ġmik": 8910,
      "Ġvest": 8911,
      "ĠprÃ½m": 8912,
      "ĠhÃ¡c": 8913,
      "Ġey": 8914,
      "skÃ½ch": 8915,
      "Ġsbr": 8916,
      "ĠklÃ¡t": 8917,
      "ĠzvÃŃs": 8918,
      "Ġknem": 8919,
      "Ġwer": 8920,
      "ĠsvlÃ©k": 8921,
      "ĠvchÃ½Å¾": 8922,
      "ĠvkÅĻÃŃÅ¾": 8923,
      "Ġskiz": 8924,
      "ĠpfÃŃ": 8925,
      "AABAB": 8926,
      "ĠdÄįe": 8927,
      "Ġlix": 8928,
      "Ġmich": 8929,
      "ĠniÅ¡Å¥": 8930,
      "Ġsken": 8931,
      "Ġpai": 8932,
      "ĠtyÅĪ": 8933,
      "ĠvÅ¾en": 8934,
      "ĠzraÄı": 8935,
      "Ġsvic": 8936,
      "tip": 8937,
      "ĠkrÅ¯Äį": 8938,
      "AXBCBD": 8939,
      "ĠspÅĻÃŃz": 8940,
      "Ġkblan": 8941,
      "AFF": 8942,
      "ĠvzlÃŃ": 8943,
      "ĠhlaÅ¥": 8944,
      "Ġbach": 8945,
      "ĠmouÅ¡": 8946,
      "Ġjud": 8947,
      "ĠjuÅ¡": 8948,
      "Ġksli": 8949,
      "ABBAXC": 8950,
      "Ġschi": 8951,
      "Ġfas": 8952,
      "ĠvÄįet": 8953,
      "ĠtrÃ¡l": 8954,
      "Ġkzbo": 8955,
      "ĠvbeÄį": 8956,
      "Ġwal": 8957,
      "ĠvchvÃŃl": 8958,
      "ĠkdÄĽl": 8959,
      "Ġzblan": 8960,
      "Ġaethru": 8961,
      "Ġnip": 8962,
      "ĠvzÃº": 8963,
      "ĠraÅ¾": 8964,
      "Ġsap": 8965,
      "Ġhun": 8966,
      "Ġvpom": 8967,
      "ĠvÅ¾il": 8968,
      "Ġbrech": 8969,
      "ĠsvaÅ¾": 8970,
      "Ġzys": 8971,
      "Ġmoct": 8972,
      "ĠbÅĻesk": 8973,
      "Ġtrep": 8974,
      "ĠvlÃ©k": 8975,
      "Ġsplet": 8976,
      "ĠvzplaÅĪ": 8977,
      "ĠtlÃŃk": 8978,
      "ĠzÃ©r": 8979,
      "ĠvbÅĻed": 8980,
      "Ġsaul": 8981,
      "Ġ179": 8982,
      "ĠÅ¡rÃ¡m": 8983,
      "Ġrl": 8984,
      "ĠnÄĽÅ¥": 8985,
      "ĠtiÅ¡Å¥": 8986,
      "Ġdog": 8987,
      "Ġkaf": 8988,
      "Ġmiz": 8989,
      "Ġnoum": 8990,
      "ĠsvÄĽc": 8991,
      "Ġkrem": 8992,
      "ĠvdÅĻÃŃ": 8993,
      "ĠgÅ¯m": 8994,
      "Ġdrt": 8995,
      "Ġblast": 8996,
      "ĠÅ¡uÅ¡": 8997,
      "Ġscha": 8998,
      "ĠpsÃ½m": 8999,
      "Ġkzb": 9000,
      "ĠfrÃ©": 9001,
      "Ġchis": 9002,
      "Ġsfi": 9003,
      "ĠstÅĻÃ¡st": 9004,
      "Ġzhroz": 9005,
      "Ġsjha": 9006,
      "ĠchÅĻic": 9007,
      "XABBXA": 9008,
      "Ġvslast": 9009,
      "Ġvklec": 9010,
      "ADXD": 9011,
      "Ġaeolo": 9012,
      "ĠvhnÄĽt": 9013,
      "Ġvsym": 9014,
      "ĠspyÅ¡": 9015,
      "Ġphi": 9016,
      "ĠvmhÃ¡ch": 9017,
      "ĠÅ¡tejn": 9018,
      "id": 9019,
      "ĠsÄıÃ¡": 9020,
      "ĠzÅĻas": 9021,
      "Ġrr": 9022,
      "ĠnÄĽs": 9023,
      "ĠboÅĪ": 9024,
      "ĠdÃ½k": 9025,
      "ĠpouÄį": 9026,
      "Ġhrav": 9027,
      "Ġmrch": 9028,
      "Ġvzdra": 9029,
      "ĠsmÄĽv": 9030,
      "Ġschra": 9031,
      "ĠschmÅ¯": 9032,
      "ĠbÅĻÃŃch": 9033,
      "ĠvnÃ¡ÅĻ": 9034,
      "Ġzmok": 9035,
      "ĠstÅĻik": 9036,
      "Ġkvit": 9037,
      "Ġgym": 9038,
      "Ġsaic": 9039,
      "ĠvÅ¡per": 9040,
      "Ġsgra": 9041,
      "Ġzze": 9042,
      "Ġchni": 9043,
      "ĠhuÅ¡": 9044,
      "ĠÅĻiÅ¡": 9045,
      "Ġvouc": 9046,
      "ĠhraÄı": 9047,
      "Ġzhmo": 9048,
      "ĠklÃŃc": 9049,
      "Ġsnez": 9050,
      "Ġchvu": 9051,
      "Ġfraj": 9052,
      "ĠxÃŃ": 9053,
      "ĠlkÃ¡Å¡": 9054,
      "Ġvplav": 9055,
      "ĠzproÅ¡": 9056,
      "Ġzfi": 9057,
      "ĠnimÅ¾": 9058,
      "ĠvssÃ¡l": 9059,
      "ĠzhrÅ¯z": 9060,
      "ĠÅ¾neÄį": 9061,
      "XABCBC": 9062,
      "Ġzknih": 9063,
      "ĠvskÅĻip": 9064,
      "XABAB": 9065,
      "ĠÅ¾eÅ¾": 9066,
      "Ġnop": 9067,
      "ĠfÃ³r": 9068,
      "ĠdÃ½Å¥": 9069,
      "ĠbÃ¡c": 9070,
      "ĠstÅĻeÅ¡": 9071,
      "Ġtrop": 9072,
      "ĠstÅĻÃŃt": 9073,
      "Ġcajt": 9074,
      "Ġzvaz": 9075,
      "ĠvÄįÃ¡": 9076,
      "Ġgrand": 9077,
      "ĠsÄįel": 9078,
      "Ġfrid": 9079,
      "ĠcnosÅ¥": 9080,
      "Ġtcho": 9081,
      "ADDA": 9082,
      "Ġsge": 9083,
      "Ġvfo": 9084,
      "ĠclÃ©ÅĻ": 9085,
      "hn": 9086,
      "Ġkkou": 9087,
      "ĠposÅ¥": 9088,
      "Ġskme": 9089,
      "Ġmad": 9090,
      "ĠfÃ³": 9091,
      "ĠgÃ¶": 9092,
      "ĠzdeÅ¥": 9093,
      "Ġtrait": 9094,
      "Ġskoj": 9095,
      "lÃ½s": 9096,
      "Ġschech": 9097,
      "Ġkryp": 9098,
      "ĠdroÅ¾": 9099,
      "AACD": 9100,
      "ĠhruÅ¾": 9101,
      "Ġkhlu": 9102,
      "Ġsmag": 9103,
      "Ġkmoc": 9104,
      "ĠtrÃ½s": 9105,
      "Ġpres": 9106,
      "ĠchmÃº": 9107,
      "ĠzpyÅ¡": 9108,
      "Ã¤n": 9109,
      "ĠkÅĻtem": 9110,
      "AXAXXX": 9111,
      "Ġkak": 9112,
      "ĠjÃ©": 9113,
      "ĠvÅ¡k": 9114,
      "ĠsknÃŃ": 9115,
      "Ġvdy": 9116,
      "Ġdoup": 9117,
      "ĠplÅ¯": 9118,
      "ĠztÅĻÃŃ": 9119,
      "Ġzhar": 9120,
      "Ġkals": 9121,
      "ĠschÅĻa": 9122,
      "Ġktvo": 9123,
      "ĠÅ¾liv": 9124,
      "Ġchrle": 9125,
      "ĠvdÃ¡Å¥": 9126,
      "ĠkvyÅ¡": 9127,
      "Ġvzvon": 9128,
      "Ġnoj": 9129,
      "ĠboÄı": 9130,
      "Ġvzj": 9131,
      "Ġbag": 9132,
      "ĠjÃ¡Äį": 9133,
      "ĠfÃ©m": 9134,
      "Ġzul": 9135,
      "ĠstÅĻeÄį": 9136,
      "Ġshar": 9137,
      "ĠschvÃŃ": 9138,
      "ĠÅ¡kar": 9139,
      "ĠkprÅ¯": 9140,
      "Ġkbri": 9141,
      "Ġvruch": 9142,
      "ĠpÅ¯jÄį": 9143,
      "ĠkpohÅĻ": 9144,
      "ĠvraÅ¾d": 9145,
      "Ġtloust": 9146,
      "Ġvpark": 9147,
      "ĠÅ¾bÃ¡": 9148,
      "Ġsbuj": 9149,
      "ĠvÅ¥": 9150,
      "Ġdt": 9151,
      "ABDD": 9152,
      "XXAB": 9153,
      "Ġhul": 9154,
      "ĠhuÅ¥": 9155,
      "Ġvur": 9156,
      "ĠpÅĻÃŃÅ¥": 9157,
      "Ġhrk": 9158,
      "Ġzden": 9159,
      "Ġmlem": 9160,
      "ĠzvoÅĪ": 9161,
      "ĠdÅĻÃŃm": 9162,
      "ĠspÄĽk": 9163,
      "ĠhrÃ¡n": 9164,
      "Ġsnim": 9165,
      "Ġrand": 9166,
      "Ġstkal": 9167,
      "ĠznÄĽjÅ¾": 9168,
      "Ġzzku": 9169,
      "Ġkvzne": 9170,
      "ĠkhrÃ¡m": 9171,
      "tin": 9172,
      "ĠkaÅĪ": 9173,
      "Ġmah": 9174,
      "Ġdrat": 9175,
      "Ġtrus": 9176,
      "ĠchvÃ¡ÅĻ": 9177,
      "ĠsvÃ½s": 9178,
      "Ġchrp": 9179,
      "Ġzbron": 9180,
      "Ġhip": 9181,
      "Ġzju": 9182,
      "Ġslits": 9183,
      "Ġvglo": 9184,
      "ĠÅ¡Å¥Ã¡v": 9185,
      "ĠzmlÃ¡d": 9186,
      "ĠvzvuÄį": 9187,
      "ĠvvÃ¡l": 9188,
      "XABBAC": 9189,
      "Ġeine": 9190,
      "Ġstcho": 9191,
      "Ġrha": 9192,
      "Ġtyp": 9193,
      "ĠvÃ©zt": 9194,
      "Ġzdmi": 9195,
      "AABBBB": 9196,
      "ĠchvÃŃc": 9197,
      "ĠchouÄį": 9198,
      "Ġvhon": 9199,
      "Ġkpol": 9200,
      "Ġzdus": 9201,
      "ĠklouÄį": 9202,
      "Ġvctno": 9203,
      "ĠztrÃ½z": 9204,
      "Ġkis": 9205,
      "ĠkspÄĽ": 9206,
      "ĠÅ¾ral": 9207,
      "by": 9208,
      "Ġvvr": 9209,
      "Ġlbi": 9210,
      "ĠmÅĻem": 9211,
      "Ġpag": 9212,
      "ĠsaÄį": 9213,
      "Ġryz": 9214,
      "ĠbiÅĻ": 9215,
      "Ġslen": 9216,
      "Ġmlal": 9217,
      "ĠÅĪak": 9218,
      "ĠtÅĻtin": 9219,
      "Ġoul": 9220,
      "Ġpert": 9221,
      "Ġhlin": 9222,
      "Ġgov": 9223,
      "ĠvstÃ¡n": 9224,
      "Ġzchat": 9225,
      "Ġsnop": 9226,
      "AXXABC": 9227,
      "Ġspev": 9228,
      "Ġflek": 9229,
      "AXXBBC": 9230,
      "ĠvsmÄĽs": 9231,
      "ĠkÄįÃŃ": 9232,
      "Ġssyl": 9233,
      "ĠvÄįtver": 9234,
      "Ġmudr": 9235,
      "Ġzvin": 9236,
      "Ġvsb": 9237,
      "ĠÅ¾av": 9238,
      "Ġmars": 9239,
      "Ġkps": 9240,
      "ĠÅ¡pen": 9241,
      "Ġvchvo": 9242,
      "Ġkzr": 9243,
      "ĠvrouÅ¡": 9244,
      "Ġauf": 9245,
      "ĠÃ¡h": 9246,
      "ĠÄįur": 9247,
      "Ġvplach": 9248,
      "Ġzmrz": 9249,
      "Ġvgo": 9250,
      "ĠÅ¡krt": 9251,
      "Ġksul": 9252,
      "ĠsÃ³": 9253,
      "ĠÅ¾ko": 9254,
      "ĠvÃŃl": 9255,
      "Ġvom": 9256,
      "ĠvzÃ¡j": 9257,
      "Ġnevs": 9258,
      "Ġkhor": 9259,
      "Ġchrli": 9260,
      "ĠzmÃŃst": 9261,
      "Ġzdrh": 9262,
      "Ġzse": 9263,
      "Ġvplet": 9264,
      "Ġsplas": 9265,
      "ĠtlÃŃt": 9266,
      "ĠsmraÄį": 9267,
      "ĠsÅĪav": 9268,
      "ĠzkvÃ©st": 9269,
      "Ġmzda": 9270,
      "ĠdÅ¡tÃ½": 9271,
      "ĠstÅĻa": 9272,
      "Ġkyz": 9273,
      "ĠvpÃ³": 9274,
      "Ġvsna": 9275,
      "ĠplÃ¡Å¥": 9276,
      "ĠznÃ¡n": 9277,
      "ĠmÃ½l": 9278,
      "ĠÅĻÃ¡b": 9279,
      "ĠÅ¡tÃŃp": 9280,
      "ĠÅ¡tÃŃr": 9281,
      "Ġsves": 9282,
      "Ġvztr": 9283,
      "ĠzpuÅ¡": 9284,
      "Ġvtep": 9285,
      "Ġmass": 9286,
      "ĠÅ¡kam": 9287,
      "ĠzvraÅ¾": 9288,
      "ĠsplÃ©st": 9289,
      "Ġvdnes": 9290,
      "Ġvkmit": 9291,
      "ĠvhrÃ¡ch": 9292,
      "Ġuf": 9293,
      "Ġdir": 9294,
      "Ġvuc": 9295,
      "ĠzÃŃn": 9296,
      "ĠznÃ©st": 9297,
      "Ġest": 9298,
      "Ġzbl": 9299,
      "AABBCX": 9300,
      "Ġspom": 9301,
      "ĠÅ¡lej": 9302,
      "Ġzlok": 9303,
      "ĠÅ¾aÄį": 9304,
      "Ġans": 9305,
      "Ġnass": 9306,
      "ĠvpÄĽst": 9307,
      "Ġkprv": 9308,
      "ĠzjichÅ¾": 9309,
      "Ġkzdro": 9310,
      "ĠcÃºn": 9311,
      "AABABC": 9312,
      "ĠrÄįe": 9313,
      "ĠÅ¡iÅĻ": 9314,
      "ĠhrÅĪ": 9315,
      "ĠzdaÅĻ": 9316,
      "Ġrim": 9317,
      "ĠstÃ©n": 9318,
      "Ġyal": 9319,
      "ĠzvÄĽr": 9320,
      "CDB": 9321,
      "Ġktur": 9322,
      "Ġzsy": 9323,
      "ĠsdÄĽl": 9324,
      "Ġvzchod": 9325,
      "Ġthon": 9326,
      "Ġvprus": 9327,
      "Ġkskut": 9328,
      "ĠmÃ½Å¾Äı": 9329,
      "ĠjÃ³n": 9330,
      "Å¾u": 9331,
      "ĠciÄı": 9332,
      "ĠsvÄĽÅĻ": 9333,
      "ĠzpÅ¯r": 9334,
      "ĠblasÅ¥": 9335,
      "Ġjus": 9336,
      "ĠstouÅ¾": 9337,
      "ĠznoÄį": 9338,
      "ĠskuÄį": 9339,
      "ĠhÅĻmi": 9340,
      "Ġclau": 9341,
      "Ġhir": 9342,
      "ĠÅ¥Ã¡r": 9343,
      "Ġvclo": 9344,
      "Ġwin": 9345,
      "Ġsport": 9346,
      "ACCDEE": 9347,
      "ĠrÅ¾eÄį": 9348,
      "ĠzjÃŃc": 9349,
      "Ġhoz": 9350,
      "Ġlif": 9351,
      "ABAABB": 9352,
      "Ġkdra": 9353,
      "ĠpeÅĻ": 9354,
      "ĠstoÅĪ": 9355,
      "Ġzbal": 9356,
      "ĠzhÅĻ": 9357,
      "ĠvbÅĻi": 9358,
      "skÃ½": 9359,
      "ĠdliÅ¡": 9360,
      "ĠÅĻils": 9361,
      "ĠzÅĻet": 9362,
      "ĠklÃŃt": 9363,
      "ĠÅ¡pu": 9364,
      "Ġvskrej": 9365,
      "ĠpÃ©Äį": 9366,
      "ĠshoÅĻ": 9367,
      "Ġvspor": 9368,
      "ĠnehÅĻ": 9369,
      "ĠfÃŃk": 9370,
      "ĠdÅ¾a": 9371,
      "ĠdÅ¾be": 9372,
      "ĠzÄįÃ¡": 9373,
      "ĠhrÃ½z": 9374,
      "ĠmnÃ¡ct": 9375,
      "Ġflin": 9376,
      "ABCBCA": 9377,
      "ĠpepÅĻ": 9378,
      "ĠÅ¾vÃ¡": 9379,
      "ĠnÃ©Å¥": 9380,
      "ĠvÅ¡an": 9381,
      "ĠvÅ¡tip": 9382,
      "Ġlun": 9383,
      "ĠzpÅĻi": 9384,
      "Ġhyp": 9385,
      "ĠsÃ¡c": 9386,
      "Ġtouc": 9387,
      "ĠvouÅ¡": 9388,
      "ĠdÃ©n": 9389,
      "Ġvzpup": 9390,
      "ĠtrÃ¡Å¡": 9391,
      "ĠdvÄĽÄį": 9392,
      "ĠdrÃ¡h": 9393,
      "ĠkzkÃ¡": 9394,
      "ĠzvÃŃm": 9395,
      "ĠthÃ¡m": 9396,
      "Ġvbub": 9397,
      "ĠvhÃ¡d": 9398,
      "ĠdvÃŃk": 9399,
      "Ġens": 9400,
      "ĠvpÄĽsÅ¥": 9401,
      "ĠvjÃŃz": 9402,
      "AXAXBX": 9403,
      "ĠtaÄį": 9404,
      "ĠtÃŃÅ¥": 9405,
      "ĠzdÃ½m": 9406,
      "Ġsmas": 9407,
      "ĠvsÅĪa": 9408,
      "Ġgto": 9409,
      "Ġzhlo": 9410,
      "Ġklok": 9411,
      "Ġtlap": 9412,
      "ĠsvÃŃn": 9413,
      "ĠsbÅĻi": 9414,
      "ĠzvÄĽd": 9415,
      "ĠkhnÃŃz": 9416,
      "ĠÅ¡tou": 9417,
      "Ġzryl": 9418,
      "ĠsÅ¾Ã¡": 9419,
      "Ġkstol": 9420,
      "ĠÅ¡ÅĪÅ¯r": 9421,
      "ĠthÃ©n": 9422,
      "ĠspÅ¯l": 9423,
      "Ġjhu": 9424,
      "Ġvtrap": 9425,
      "Ġvklouz": 9426,
      "AXXXXX": 9427,
      "Ġnow": 9428,
      "Ġniz": 9429,
      "Ġpaf": 9430,
      "Ġprom": 9431,
      "ĠcÃŃn": 9432,
      "Ġhard": 9433,
      "ĠzvÅĻe": 9434,
      "Ġvmas": 9435,
      "ĠvmÅ¾e": 9436,
      "Ġrib": 9437,
      "ĠÅ¡lik": 9438,
      "Ġzjes": 9439,
      "ĠzÃ½Å¡": 9440,
      "Ġvpras": 9441,
      "ĠtliÄį": 9442,
      "ĠrÃ½mÅ¾": 9443,
      "ĠkÅĻÅ¯": 9444,
      "Ġmstil": 9445,
      "ĠspouÅ¡Å¥": 9446,
      "ĠvvdÄĽ": 9447,
      "ĠlÃ³s": 9448,
      "Ġprim": 9449,
      "ĠvstrÃ¡ÅĪ": 9450,
      "ĠpstrÃ¡": 9451,
      "ĠflaÅ¡": 9452,
      "ĠvÅ¡pal": 9453,
      "ĠÅ¾hÃ¡ÅĻ": 9454,
      "ĠsvlÃŃd": 9455,
      "Ġaesthe": 9456,
      "rt": 9457,
      "ĠnÄĽd": 9458,
      "Ġnir": 9459,
      "Ġdet": 9460,
      "ĠvÃŃÅĻ": 9461,
      "ĠmoÄį": 9462,
      "ĠvzÅ¯": 9463,
      "Ġvum": 9464,
      "XACC": 9465,
      "ĠstÃ¡j": 9466,
      "ĠtouÅĪ": 9467,
      "Ġzber": 9468,
      "ĠhÃ½k": 9469,
      "ĠdliÅ¥": 9470,
      "ĠsbÃ¡": 9471,
      "Ġfex": 9472,
      "Ġzlech": 9473,
      "ĠbÅĻÃŃs": 9474,
      "ĠvzkvÃŃ": 9475,
      "ĠÅ¡tin": 9476,
      "Ġxis": 9477,
      "Ġthel": 9478,
      "Ġhnut": 9479,
      "ĠvtÃŃl": 9480,
      "Ġskliz": 9481,
      "Ġzklid": 9482,
      "ĠzkÅĻeh": 9483,
      "ĠphÃŃ": 9484,
      "AACCDD": 9485,
      "Ġkpsa": 9486,
      "ĠzÃ³n": 9487,
      "Ġstma": 9488,
      "Ġnew": 9489,
      "Ġnist": 9490,
      "Ġcol": 9491,
      "Ġspru": 9492,
      "ĠkrÃ½m": 9493,
      "Ġzkan": 9494,
      "Ġblas": 9495,
      "ĠbychÅ¥": 9496,
      "ĠsmrÄį": 9497,
      "ĠkveÅ¥": 9498,
      "han": 9499,
      "Ġspras": 9500,
      "ĠÅ¡tÃ½": 9501,
      "Ġsklet": 9502,
      "ĠfrÃŃ": 9503,
      "zdÃ¡": 9504,
      "Ġrint": 9505,
      "Ġvstud": 9506,
      "ACCDED": 9507,
      "ĠvhnÄĽv": 9508,
      "Ġrrot": 9509,
      "Ġvklat": 9510,
      "Ġvkmen": 9511,
      "Ġspsy": 9512,
      "ĠdmÃŃl": 9513,
      "27": 9514,
      "ĠzÅĻad": 9515,
      "Ġsec": 9516,
      "ĠÄįpÄĽ": 9517,
      "Ġmyst": 9518,
      "Ġpyg": 9519,
[...]
