{
  "version": "1.0",
  "truncation": null,
  "padding": null,
  "added_tokens": [
    {
      "id": 0,
      "content": "<|EOS|>",
      "single_word": false,
      "lstrip": false,
      "rstrip": false,
      "normalized": false,
      "special": true
    },
    {
      "id": 1,
      "content": "<|PAD|>",
      "single_word": false,
      "lstrip": false,
      "rstrip": false,
      "normalized": false,
      "special": true
    },
    {
      "id": 2,
      "content": "<|UNK|>",
      "single_word": false,
      "lstrip": false,
      "rstrip": false,
      "normalized": false,
      "special": true
    }
  ],
  "normalizer": null,
  "pre_tokenizer": {
    "type": "ByteLevel",
    "add_prefix_space": false,
    "trim_offsets": true,
    "use_regex": true
  },
  "post_processor": {
    "type": "ByteLevel",
    "add_prefix_space": true,
    "trim_offsets": false,
    "use_regex": true
  },
  "decoder": {
    "type": "ByteLevel",
    "add_prefix_space": true,
    "trim_offsets": true,
    "use_regex": true
  },
  "model": {
    "type": "BPE",
    "dropout": null,
    "unk_token": null,
    "continuing_subword_prefix": null,
    "end_of_word_suffix": null,
    "fuse_unk": false,
    "byte_fallback": false,
    "vocab": {
      "<|EOS|>": 0,
      "<|PAD|>": 1,
      "<|UNK|>": 2,
      "!": 3,
      "#": 4,
      ",": 5,
      ".": 6,
      "0": 7,
      "1": 8,
      "2": 9,
      "3": 10,
      "4": 11,
      "5": 12,
      "6": 13,
      "7": 14,
      "8": 15,
      "9": 16,
      "?": 17,
      "A": 18,
      "B": 19,
      "C": 20,
      "D": 21,
      "E": 22,
      "F": 23,
      "G": 24,
      "H": 25,
      "J": 26,
      "N": 27,
      "P": 28,
      "T": 29,
      "X": 30,
      "Y": 31,
      "a": 32,
      "b": 33,
      "c": 34,
      "d": 35,
      "e": 36,
      "f": 37,
      "g": 38,
      "h": 39,
      "i": 40,
      "j": 41,
      "k": 42,
      "l": 43,
      "m": 44,
      "n": 45,
      "o": 46,
      "p": 47,
      "q": 48,
      "r": 49,
      "s": 50,
      "t": 51,
      "u": 52,
      "v": 53,
      "w": 54,
      "x": 55,
      "y": 56,
      "z": 57,
      "¡": 58,
      "¤": 59,
      "¥": 60,
      "©": 61,
      "¯": 62,
      "³": 63,
      "¶": 64,
      "º": 65,
      "¼": 66,
      "½": 67,
      "¾": 68,
      "Ã": 69,
      "Ä": 70,
      "Å": 71,
      "Ċ": 72,
      "Ġ": 73,
      "Ī": 74,
      "į": 75,
      "ı": 76,
      "Ļ": 77,
      "Ľ": 78,
      "Ń": 79,
      "Ġn": 80,
      "Ġ#": 81,
      "Ġs": 82,
      "Ġv": 83,
      "ÃŃ": 84,
      "Ġt": 85,
      "Ġk": 86,
      "Ã¡": 87,
      "Ġd": 88,
      "Ġl": 89,
      "Ġj": 90,
      "Ġp": 91,
      "Ġm": 92,
      "ÄĽ": 93,
      "ĠÅ": 94,
      "Ġz": 95,
      "Ġb": 96,
      "Ġc": 97,
      "Ġh": 98,
      "Ã½": 99,
      "Ã©": 100,
      "10": 101,
      "ou": 102,
      "Ġst": 103,
      "Ġr": 104,
      "Ġa": 105,
      "Ġse": 106,
      "Äį": 107,
      "Ġje": 108,
      "11": 109,
      "Ġne": 110,
      "ÅĻ": 111,
      "ĠÅ¾": 112,
      "Ġna": 113,
      "ch": 114,
      "ĠÅ¡": 115,
      "Å¾": 116,
      "ĠÄį": 117,
      "Ġo": 118,
      "Ġpo": 119,
      "Å¯": 120,
      "em": 121,
      "Ġch": 122,
      "ĠnÃŃ": 123,
      "Å¡": 124,
      "la": 125,
      "ra": 126,
      "ak": 127,
      "Ġho": 128,
      "Ġli": 129,
      "Ġle": 130,
      "Ġko": 131,
      "ĠÅĻ": 132,
      "Ġce": 133,
      "Ġla": 134,
      "Ġte": 135,
      "ĠnÄĽ": 136,
      "Ġti": 137,
      "Ġsv": 138,
      "Ġto": 139,
      "ro": 140,
      "Ġza": 141,
      "Ġby": 142,
      "Ġdo": 143,
      "ĠÅ¾e": 144,
      "Ġka": 145,
      "ĠnÃ½": 146,
      "le": 147,
      "ĠnÃ¡": 148,
      "ĠjÃŃ": 149,
      "ĠpÅĻ": 150,
      "Ġ1": 151,
      "rÃ¡": 152,
      "Ġno": 153,
      "ĠnÃ©": 154,
      "Ġmi": 155,
      "Ġva": 156,
      "Ġji": 157,
      "Ġlo": 158,
      "st": 159,
      "Ġta": 160,
      "Ġve": 161,
      "Ġku": 162,
      "AB": 163,
      "Ġu": 164,
      "Ġni": 165,
      "Ġro": 166,
      "Ġsl": 167,
      "ĠvÃ¡": 168,
      "Ġky": 169,
      "ĠvÄĽ": 170,
      "XX": 171,
      "Ġmu": 172,
      "ĠÅ¡e": 173,
      "Ġvy": 174,
      "Ġkd": 175,
      "ĠtÄĽ": 176,
      "ĠvÅ¡": 177,
      "ĠtÃŃ": 178,
      "Ġde": 179,
      "Ġdu": 180,
      "Ġsk": 181,
      "il": 182,
      "ĠvÃŃ": 183,
      "12": 184,
      "ĠÄįe": 185,
      "ĠdÄĽ": 186,
      "Ġvo": 187,
      "Ġjs": 188,
      "Ġjak": 189,
      "Ġmo": 190,
      "Ġnou": 191,
      "ĠdÃŃ": 192,
      "Ġ19": 193,
      "Ġnu": 194,
      "Ġda": 195,
      "Ġpa": 196,
      "Ġze": 197,
      "ĠmÄĽ": 198,
      "Ġbo": 199,
      "Ġtu": 200,
      "Ġme": 201,
      "ĠdÃ¡": 202,
      "Ġja": 203,
      "Ġci": 204,
      "Ġru": 205,
      "Ġpro": 206,
      "Ġma": 207,
      "Ġvi": 208,
      "Ġsta": 209,
      "Ġsti": 210,
      "Ġny": 211,
      "ÅĻe": 212,
      "ĠÅ¡ÃŃ": 213,
      "Ġbe": 214,
      "ĠcÃŃ": 215,
      "Ġtv": 216,
      "ĠÅĻe": 217,
      "Ġly": 218,
      "ĠJ": 219,
      "ĠÄįÃŃ": 220,
      "Ã½ch": 221,
      "Ġdi": 222,
      "Ġco": 223,
      "13": 224,
      "Ġvz": 225,
      "ne": 226,
      "ĠlÃŃ": 227,
      "Ġsp": 228,
      "lo": 229,
      "Å¥": 230,
      "ĠpÅĻe": 231,
      "Ġdy": 232,
      "Ġra": 233,
      "Ġsi": 234,
      "Ġjen": 235,
      "ÅĻÃŃ": 236,
      "ĠmÃ¡": 237,
      "ĠÄįi": 238,
      "ĠkÃ¡": 239,
      "li": 240,
      "Ġjsem": 241,
      "Ġkdy": 242,
      "ĠÅ¾ÃŃ": 243,
      "Ã½m": 244,
      "ĠÅĻÃŃ": 245,
      "ĠÅ¾i": 246,
      "Ġty": 247,
      "Ġbu": 248,
      "lÃ¡": 249,
      "vÄĽ": 250,
      "ru": 251,
      "Ġ18": 252,
      "Ġi": 253,
      "ĠlÃ¡": 254,
      "nÄĽ": 255,
      "ĠrÃ¡": 256,
      "ĠkrÃ¡": 257,
      "ĠvÃ©": 258,
      "Ġtak": 259,
      "Ġzd": 260,
      "ĠT": 261,
      "Ġha": 262,
      "ĠbÄĽ": 263,
      "Ġsm": 264,
      "ĠvÅ¡e": 265,
      "ĠmÃŃ": 266,
      "Ġhla": 267,
      "lu": 268,
      "ĠstÃŃ": 269,
      "ĠvÃ½": 270,
      "00": 271,
      "Ġsa": 272,
      "Ġzv": 273,
      "Ġba": 274,
      "Ġ1900": 275,
      "Ġsn": 276,
      "ĠsvÄĽ": 277,
      "Ġkou": 278,
      "ĠtÃ©": 279,
      "ĠkÃ©": 280,
      "ĠsÃŃ": 281,
      "ĠpÅĻi": 282,
      "ĠtÃ¡": 283,
      "ĠÅ¡i": 284,
      "Ġhu": 285,
      "ĠzÃ¡": 286,
      "XXXX": 287,
      "Ġlu": 288,
      "Ġhle": 289,
      "Ġpe": 290,
      "Ġpra": 291,
      "lÃŃ": 292,
      "Äı": 293,
      "ĠÃ": 294,
      "Ġsy": 295,
      "Ġmy": 296,
      "Ġod": 297,
      "Ġpr": 298,
      "Ġtr": 299,
      "ĠlÃ©": 300,
      "Ġvu": 301,
      "ĠkdyÅ¾": 302,
      "ABAB": 303,
      "ĠjÃ¡": 304,
      "ÅĪ": 305,
      "ĠvÅ¡ak": 306,
      "Ġval": 307,
      "Ġchu": 308,
      "Ġkr": 309,
      "Ġvt": 310,
      "vÃŃ": 311,
      "Ġkem": 312,
      "XA": 313,
      "Ġroz": 314,
      "ĠsvÃ©": 315,
      "80": 316,
      "Ġ1880": 317,
      "ĠnÃ½ch": 318,
      "ĠÅĻi": 319,
      "ĠhÃ¡": 320,
      "Ġsla": 321,
      "Ġcho": 322,
      "ĠbÃŃ": 323,
      "Ġry": 324,
      "ĠkÅ¯": 325,
      "Ġvp": 326,
      "Ġsu": 327,
      "lou": 328,
      "Ġvs": 329,
      "Ġso": 330,
      "Ġf": 331,
      "20": 332,
      "Å¯j": 333,
      "ĠstÃ¡": 334,
      "Ġsto": 335,
      "Ġzp": 336,
      "ĠpÃŃ": 337,
      "Ġbyl": 338,
      "Ġten": 339,
      "ĠpÃ¡": 340,
      "ABB": 341,
      "rd": 342,
      "no": 343,
      "te": 344,
      "al": 345,
      "ĠkÃ½": 346,
      "Ġ1920": 347,
      "ĠzÃŃ": 348,
      "Ġtam": 349,
      "Ġkde": 350,
      "ĠpÅĻÃŃ": 351,
      "Ġhy": 352,
      "Ġre": 353,
      "16": 354,
      "ĠpÄĽ": 355,
      "ĠsÃ¡": 356,
      "Ġbi": 357,
      "ĠnÃ½m": 358,
      "Ġzn": 359,
      "ĠlÃ½": 360,
      "Ġpu": 361,
      "ĠÄįa": 362,
      "Ġtem": 363,
      "Ġste": 364,
      "lÃ©": 365,
      "Ġpak": 366,
      "ĠÃº": 367,
      "15": 368,
      "Ġbra": 369,
      "ĠnÃŃm": 370,
      "Ġlem": 371,
      "Ġtou": 372,
      "Ġvd": 373,
      "Ġsrd": 374,
      "tÄĽ": 375,
      "ÅĻi": 376,
      "Ġdou": 377,
      "Ġslo": 378,
      "Ġe": 379,
      "Ġkla": 380,
      "ĠjiÅ¾": 381,
      "Ġpla": 382,
      "Ġnad": 383,
      "Ġbou": 384,
      "Ġkte": 385,
      "Ġzu": 386,
      "Ġslu": 387,
      "14": 388,
      "ĠdÄĽl": 389,
      "ĠmÃ©": 390,
      "Ġvou": 391,
      "Ġdv": 392,
      "ĠjeÅ¾": 393,
      "ĠÅ¡el": 394,
      "Ġcha": 395,
      "ĠdÃ©": 396,
      "ĠvÅ¾": 397,
      "ĠtÃ½": 398,
      "Ġnn": 399,
      "Ġsem": 400,
      "dy": 401,
      "Ġvla": 402,
      "ĠdÃ½": 403,
      "Ġbez": 404,
      "ĠpÅĻed": 405,
      "Ġsou": 406,
      "Ġg": 407,
      "Ġmne": 408,
      "Ġstra": 409,
      "Ġhr": 410,
      "Ġpl": 411,
      "Ġzra": 412,
      "ĠbÃ¡": 413,
      "Ġvk": 414,
      "Ġzas": 415,
      "Ġzb": 416,
      "ad": 417,
      "Ġhro": 418,
      "Ġbr": 419,
      "Ġchy": 420,
      "Ġstu": 421,
      "ni": 422,
      "Ġzm": 423,
      "Ġpod": 424,
      "Ġhou": 425,
      "ĠprÃ¡": 426,
      "Ġzi": 427,
      "AABB": 428,
      "Ġden": 429,
      "Ġkdo": 430,
      "Å¯m": 431,
      "ĠÄįer": 432,
      "Ġdla": 433,
      "Ġdra": 434,
      "Ġpi": 435,
      "Ġzo": 436,
      "Ġlou": 437,
      "40": 438,
      "Ġspo": 439,
      "Ġjest": 440,
      "Ġkle": 441,
      "Ġzla": 442,
      "Ġpou": 443,
      "ĠtÅĻe": 444,
      "ĠvÅ¾dy": 445,
      "Ġon": 446,
      "CC": 447,
      "Ġjich": 448,
      "ĠskÃ©": 449,
      "ĠjenÅ¾": 450,
      "ĠtÃŃm": 451,
      "me": 452,
      "ĠaÅ¾": 453,
      "ĠchÃ¡": 454,
      "ce": 455,
      "Ġvr": 456,
      "Ġsle": 457,
      "Ġdal": 458,
      "ĠnÃ¡m": 459,
      "ĠbÃ½": 460,
      "ĠlÃ¡s": 461,
      "ĠrÃ©": 462,
      "Ġjed": 463,
      "Ġvil": 464,
      "ĠtvÃ¡": 465,
      "Ġdr": 466,
      "Ġsly": 467,
      "Ġhra": 468,
      "ĠjeÅ¡": 469,
      "Ġvel": 470,
      "Ġnem": 471,
      "Ġsvou": 472,
      "ĠkaÅ¾": 473,
      "Ġdl": 474,
      "ĠmÅ¯": 475,
      "Ġdem": 476,
      "Ġsva": 477,
      "ĠstÄĽ": 478,
      "ĠteÄı": 479,
      "Ġvm": 480,
      "XAXA": 481,
      "ĠkvÄĽ": 482,
      "Ġjej": 483,
      "ĠrÅ¯": 484,
      "nÃŃ": 485,
      "ĠmnÄĽ": 486,
      "Ġkv": 487,
      "ĠÃ³": 488,
      "Ġtil": 489,
      "ĠmÅ¯j": 490,
      "ĠnÃ©m": 491,
      "Ġdru": 492,
      "Ġzk": 493,
      "Ġstr": 494,
      "Ġke": 495,
      "Ġnul": 496,
      "Ġbla": 497,
      "je": 498,
      "Ġzy": 499,
      "Ġsvo": 500,
      "ĠÅ¾Ã¡": 501,
      "Ġsnad": 502,
      "Ġvra": 503,
      "ĠN": 504,
      "Ġdne": 505,
      "ĠvÃ¡m": 506,
      "Ġbych": 507,
      "ĠvÅ¡ech": 508,
      "Ġzt": 509,
      "Ġkra": 510,
      "Ġble": 511,
      "ĠstvÃŃ": 512,
      "Ġvst": 513,
      "Ġhe": 514,
      "Ġmr": 515,
      "ĠvÅ¯": 516,
      "Ġmou": 517,
      "ĠuÅ¾": 518,
      "Ġneb": 519,
      "ĠrÃ½": 520,
      "Ġjsou": 521,
      "Ġvh": 522,
      "Ġlid": 523,
      "ĠsÃ¡m": 524,
      "ĠneÅ¾": 525,
      "Ġdil": 526,
      "Ġrou": 527,
      "Ġvl": 528,
      "Ġnej": 529,
      "Ġvzd": 530,
      "Ġkli": 531,
      "ĠplÃ¡": 532,
      "Ġdle": 533,
      "Ġzh": 534,
      "Ġzem": 535,
      "Ġkro": 536,
      "Ġju": 537,
      "ĠstÅĻe": 538,
      "ĠhÃ½": 539,
      "Ġnost": 540,
      "ĠmÄĽl": 541,
      "Ġmra": 542,
      "60": 543,
      "Ġzde": 544,
      "Ġvb": 545,
      "ly": 546,
      "Ġtel": 547,
      "XXXXXX": 548,
      "Ġstro": 549,
      "Ġstou": 550,
      "ĠaÅ¥": 551,
      "Ġpy": 552,
      "ĠhÃ©": 553,
      "Ġjem": 554,
      "Ġtra": 555,
      "Ġstv": 556,
      "ĠchvÃŃ": 557,
      "ĠsvÄĽt": 558,
      "Ġnech": 559,
      "Ġtom": 560,
      "Ġmlu": 561,
      "ĠzdÃ¡": 562,
      "Ġtvo": 563,
      "Ġob": 564,
      "Ġchem": 565,
      "vÄĽz": 566,
      "Ġtro": 567,
      "Ġhne": 568,
      "Ġmno": 569,
      "ĠtvÃ©": 570,
      "ĠdÅ¯": 571,
      "ĠbÅ¯": 572,
      "ut": 573,
      "ĠvÅ¡ec": 574,
      "Ġvot": 575,
      "Ġtek": 576,
      "Ġsli": 577,
      "Ġdlou": 578,
      "Ġhned": 579,
      "Ġsmr": 580,
      "Ġkol": 581,
      "ĠnÅ¯": 582,
      "Ġhlu": 583,
      "Ġjsi": 584,
      "ĠkrÃ¡s": 585,
      "ĠhvÄĽz": 586,
      "Ġkam": 587,
      "ĠnÄĽj": 588,
      "Ġpt": 589,
      "Ġslun": 590,
      "ĠsnÃŃ": 591,
      "Ġnic": 592,
      "Ġsh": 593,
      "Ġmla": 594,
      "Ġjsme": 595,
      "ĠnÃ¡s": 596,
      "ĠcÃŃch": 597,
      "Ġjd": 598,
      "ĠchtÄĽ": 599,
      "Ġvat": 600,
      "ĠÅ¾il": 601,
      "Ġmoc": 602,
      "Ġrem": 603,
      "Ġml": 604,
      "Ġklo": 605,
      "Ġjim": 606,
      "ĠtÅ¯": 607,
      "Ġsil": 608,
      "Ġ1940": 609,
      "Ġnik": 610,
      "ĠskÃ¡": 611,
      "Ġnes": 612,
      "ĠbÅĻe": 613,
      "ĠkÅĻÃŃ": 614,
      "ĠÄįil": 615,
      "ĠvÅĻe": 616,
      "Ġks": 617,
      "Ġpoz": 618,
      "Ġzvo": 619,
      "Ġcy": 620,
      "vÃ¡": 621,
      "Ġdnes": 622,
      "ĠÅ¡le": 623,
      "ĠvÃŃc": 624,
      "ĠvÃŃm": 625,
      "Ġmat": 626,
      "ĠchvÄĽ": 627,
      "ĠlÅ¯": 628,
      "Ġvem": 629,
      "Ġzlo": 630,
      "ĠvÃ½m": 631,
      "ĠznÃ¡": 632,
      "nou": 633,
      "ĠÅ¡tÄĽ": 634,
      "ĠbrÃ¡": 635,
      "ĠslÃ¡": 636,
      "ĠÅ¾a": 637,
      "ĠtÅĻÃŃ": 638,
      "ĠtÃ©Å¾": 639,
      "Ġzda": 640,
      "Ġkal": 641,
      "om": 642,
      "Ġsty": 643,
      "Ġkl": 644,
      "ĠkrÃ¡t": 645,
      "ĠblÃŃ": 646,
      "Ġnez": 647,
      "Ġslad": 648,
      "Ġdiv": 649,
      "ĠdÃ¡l": 650,
      "Ġri": 651,
      "Ġmen": 652,
      "ABC": 653,
      "Ġjas": 654,
      "ĠsmÄĽ": 655,
      "Ġnil": 656,
      "ĠvÄĽÄį": 657,
      "ste": 658,
      "Ġjste": 659,
      "ĠÅĪ": 660,
      "ĠzpÄĽ": 661,
      "Ġpil": 662,
      "Ġdn": 663,
      "Ġsko": 664,
      "Ġtla": 665,
      "sk": 666,
      "Äįe": 667,
      "Ġspa": 668,
      "ĠkÅĻi": 669,
      "ĠbÅ¯h": 670,
      "ĠvrÃ¡": 671,
      "ĠvÃ¡s": 672,
      "ĠdÅĻÃŃ": 673,
      "Ġdli": 674,
      "Ġsud": 675,
      "ĠkÃ½ch": 676,
      "Ġcem": 677,
      "Ġdost": 678,
      "Ġkru": 679,
      "ĠsvÃŃ": 680,
      "ĠvÃ½ch": 681,
      "Ġtm": 682,
      "ĠpÅ¯": 683,
      "Ġan": 684,
      "Ġach": 685,
      "Ġhlas": 686,
      "ĠstÃ©": 687,
      "ĠsvÅ¯j": 688,
      "Ġ1860": 689,
      "ĠvlÃ¡": 690,
      "ĠÅ¡la": 691,
      "Ġchla": 692,
      "Ġzve": 693,
      "ABBA": 694,
      "ĠÄįek": 695,
      "ĠÅ¡li": 696,
      "ĠskÃ½": 697,
      "tÃŃ": 698,
      "Ġzrak": 699,
      "Ġnek": 700,
      "Ġvpo": 701,
      "Ġ1840": 702,
      "ĠcÃ½": 703,
      "ĠÄįÃŃm": 704,
      "Ġvzp": 705,
      "ĠzÅĻÃŃ": 706,
      "Ġvtom": 707,
      "Ġy": 708,
      "ĠptÃ¡": 709,
      "Ġskr": 710,
      "Ġven": 711,
      "ĠÅ¥": 712,
      "Ġkre": 713,
      "ĠspÄĽ": 714,
      "Ġsmut": 715,
      "lÃ½": 716,
      "ĠÄįas": 717,
      "Ġslou": 718,
      "Ġot": 719,
      "ĠdÃŃm": 720,
      "ĠÅĻil": 721,
      "ĠÅ¡u": 722,
      "Ġzou": 723,
      "Ġdlo": 724,
      "ĠsvÃ½m": 725,
      "Ġlil": 726,
      "Ġmar": 727,
      "ĠleÄį": 728,
      "ĠÅ¡ÃŃm": 729,
      "ĠvnÄĽ": 730,
      "Ġple": 731,
      "sÅ¥": 732,
      "ĠsvÃ½ch": 733,
      "Ġnom": 734,
      "Ã¡t": 735,
      "ĠÄįlo": 736,
      "ĠjÃŃm": 737,
      "Ġvni": 738,
      "Ġnal": 739,
      "Ġsb": 740,
      "ĠkÃ½m": 741,
      "Ġtru": 742,
      "Ġsch": 743,
      "ĠproÄį": 744,
      "Ãº": 745,
      "ĠslÃŃ": 746,
      "Ġprav": 747,
      "Ġvle": 748,
      "or": 749,
      "ich": 750,
      "Ġchce": 751,
      "Ġkry": 752,
      "Ġfa": 753,
      "Ġsen": 754,
      "ĠknÄĽ": 755,
      "Ġbro": 756,
      "ĠnÃŃk": 757,
      "ĠkrÃ¡l": 758,
      "ĠÅ¡a": 759,
      "ĠcÅ¯": 760,
      "ĠzvÄĽ": 761,
      "nÃ¡": 762,
      "ĠsÅ¯": 763,
      "Ġles": 764,
      "ĠsmÃŃ": 765,
      "Ġhem": 766,
      "ĠpÅĻec": 767,
      "Ġnout": 768,
      "ĠtÅĻi": 769,
      "ĠnÄĽm": 770,
      "ĠÅ¡k": 771,
      "Ġlost": 772,
      "ĠtÄĽch": 773,
      "ĠhrÃ¡": 774,
      "Ġzje": 775,
      "Ġtva": 776,
      "Ġdech": 777,
      "ĠhÅĻÃŃ": 778,
      "XB": 779,
      "Ġzvu": 780,
      "Ġkm": 781,
      "ĠtÅĻ": 782,
      "CD": 783,
      "ĠtÄĽÅ¾": 784,
      "ĠvÄĽk": 785,
      "Ġrod": 786,
      "ĠnÄĽk": 787,
      "nu": 788,
      "va": 789,
      "ĠmuÅ¾": 790,
      "ĠnÃ¡Å¡": 791,
      "ĠvÃ¡Å¡": 792,
      "ĠbuÄı": 793,
      "ĠkvÄĽt": 794,
      "ĠsnÄĽ": 795,
      "Ġhl": 796,
      "Ġprv": 797,
      "Ġdro": 798,
      "ĠjuÅ¾": 799,
      "ĠmÃ¡m": 800,
      "ĠpÃŃs": 801,
      "Ġhor": 802,
      "Ġprou": 803,
      "Ġslav": 804,
      "ĠskÃ½ch": 805,
      "ĠpÅĻÃ¡": 806,
      "Ġct": 807,
      "ĠzÅĻe": 808,
      "ĠchrÃ¡": 809,
      "Ġnec": 810,
      "Ġlet": 811,
      "ĠrÃ¡d": 812,
      "ĠdÃ¡v": 813,
      "Ġkne": 814,
      "17": 815,
      "ĠspÃŃ": 816,
      "ĠdÃ¡m": 817,
      "Ġus": 818,
      "Ġklid": 819,
      "Ġkp": 820,
      "ĠÅ¾en": 821,
      "ĠstÅĻÃŃ": 822,
      "Ġkni": 823,
      "Ġdvo": 824,
      "ĠspÃ¡": 825,
      "ĠnÃŃch": 826,
      "Ġsled": 827,
      "ĠhlÃŃ": 828,
      "Ġkrev": 829,
      "ĠklÃ¡": 830,
      "Ġhled": 831,
      "ĠbÃ½t": 832,
      "ĠvnÄĽm": 833,
      "Ġtec": 834,
      "Ġnoc": 835,
      "Ġtal": 836,
      "ĠmÃ½": 837,
      "Ġdva": 838,
      "AA": 839,
      "Ġvlast": 840,
      "Ġkt": 841,
      "ĠhÅ¯": 842,
      "Ġvol": 843,
      "Ġou": 844,
      "ĠseÅĪ": 845,
      "Ġsvi": 846,
      "ĠchtÄĽl": 847,
      "ĠtvÃ¡ÅĻ": 848,
      "Ġvje": 849,
      "as": 850,
      "ĠstÃ½": 851,
      "Ġps": 852,
      "ĠpÅĻes": 853,
      "Ã¡l": 854,
      "ĠvÄĽr": 855,
      "Ġpan": 856,
      "Ġvdu": 857,
      "Ã©m": 858,
      "ĠÅ¾el": 859,
      "Ġpad": 860,
      "ĠpÄĽt": 861,
      "ĠvÄįe": 862,
      "ĠznÄĽ": 863,
      "ĠjÃŃc": 864,
      "Ġbil": 865,
      "ĠdÄĽt": 866,
      "ĠhrÅ¯": 867,
      "ĠtvÅ¯j": 868,
      "ĠaÄį": 869,
      "ĠklÃŃ": 870,
      "Ġblou": 871,
      "Ġfe": 872,
      "Ġvne": 873,
      "ĠchÃ½": 874,
      "ci": 875,
      "ĠtÃ½ch": 876,
      "Ġzna": 877,
      "Ġmnou": 878,
      "Ġkon": 879,
      "Ġstal": 880,
      "ĠtvÃŃ": 881,
      "Ġduch": 882,
      "ĠdÃŃv": 883,
      "AABBCC": 884,
      "Ġzal": 885,
      "ĠkÃ©m": 886,
      "Ġbes": 887,
      "ĠtrÃ¡": 888,
      "ĠstrÃ¡": 889,
      "vo": 890,
      "Ġlen": 891,
      "ĠhnÄĽ": 892,
      "Ġhru": 893,
      "Ġtlo": 894,
      "AABC": 895,
      "ast": 896,
      "ĠvÃ©m": 897,
      "ĠmlÃ¡": 898,
      "ĠÅ¡Å¥": 899,
      "ĠzÅ¯": 900,
      "ĠsvÃ¡": 901,
      "Ġlov": 902,
      "ĠcÃŃm": 903,
      "Ġchle": 904,
      "ĠÄįel": 905,
      "ĠÅĻÃ¡": 906,
      "ĠpÃ¡n": 907,
      "ĠÅĻa": 908,
      "ĠnÃ¡ch": 909,
      "ĠÅ¡tÃŃ": 910,
      "ABCC": 911,
      "ĠÅĻek": 912,
      "ĠcoÅ¾": 913,
      "Ġdar": 914,
      "Ġjde": 915,
      "Ġdej": 916,
      "ĠznÃŃ": 917,
      "ĠchvÃ¡": 918,
      "Ġche": 919,
      "ĠkÃ¡ch": 920,
      "Ġpal": 921,
      "Ġvod": 922,
      "ĠÅ¡ek": 923,
      "ĠknÃŃ": 924,
      "ĠlÃ½ch": 925,
      "ĠdvÄĽ": 926,
      "Ġkve": 927,
      "ĠÅ¾Ã¡d": 928,
      "ĠvzÃ¡": 929,
      "ĠsÃ½": 930,
      "ĠkvÃŃ": 931,
      "ĠchÅ¯": 932,
      "ĠdrÃ¡": 933,
      "Ġoh": 934,
      "Ġstat": 935,
      "ĠÄı": 936,
      "Ġbal": 937,
      "ĠzpÃŃ": 938,
      "Ġvsrd": 939,
      "Ġman": 940,
      "Ġhlou": 941,
      "ĠvÅ¾dyÅ¥": 942,
      "vi": 943,
      "Ġrov": 944,
      "ĠpÃ½": 945,
      "na": 946,
      "Ġchal": 947,
      "ĠÅ¡p": 948,
      "ĠÄįem": 949,
      "Ġleh": 950,
      "ĠhÅĻ": 951,
      "ĠnnÃ©": 952,
      "ĠmÃŃr": 953,
      "ĠprÃ½": 954,
      "Ġhod": 955,
      "Ġplo": 956,
      "Ġzel": 957,
      "Ġstvo": 958,
      "Ġzpo": 959,
      "ĠD": 960,
      "ĠdeÅ¡": 961,
      "ĠpÅĻij": 962,
      "ĠkÅĻe": 963,
      "Ġmem": 964,
      "Ġskou": 965,
      "ĠzÃ½": 966,
      "Ġpom": 967,
      "Ġca": 968,
      "ĠstÃ¡l": 969,
      "ĠneÄį": 970,
      "Ġvno": 971,
      "Ġsed": 972,
      "ĠvÅ¡em": 973,
      "ĠdlÃŃ": 974,
      "Ġsd": 975,
      "ĠstÃŃn": 976,
      "Ġlal": 977,
      "Ġdce": 978,
      "Ã³": 979,
      "Ġsmrt": 980,
      "Ġral": 981,
      "Ġvj": 982,
      "Ġcu": 983,
      "Ġvit": 984,
      "Ġrt": 985,
      "Ġvch": 986,
      "Ġvoj": 987,
      "ĠlÃ©m": 988,
      "Ġkz": 989,
      "Ġzno": 990,
      "ĠsÃŃc": 991,
      "Ġlek": 992,
      "Ġtma": 993,
      "ĠvÅ¡u": 994,
      "Ġjo": 995,
      "Ġtlu": 996,
      "Ġdit": 997,
      "ĠsÃŃm": 998,
      "Ġchlad": 999,
      "ĠnnÃŃ": 1000,
      "ABABCC": 1001,
      "Ġhal": 1002,
      "Å¡Å¥": 1003,
      "Ġvzdu": 1004,
      "ĠhlÃ¡": 1005,
      "Ġbles": 1006,
      "ĠÅ¾o": 1007,
      "ĠneÅ¡": 1008,
      "ĠdÃ½m": 1009,
      "Ġlik": 1010,
      "ĠhlÃ©": 1011,
      "ve": 1012,
      "ĠmÃ½ch": 1013,
      "Ġar": 1014,
      "ĠlÃ½m": 1015,
      "ĠvtÃ©": 1016,
      "Ġsni": 1017,
      "Ġhlo": 1018,
      "Ġnit": 1019,
      "ĠsvÃ©m": 1020,
      "ĠvlÃŃ": 1021,
      "Ġhroz": 1022,
      "Ġcit": 1023,
      "ĠÅ¡Å¥ast": 1024,
      "Ġzbo": 1025,
      "ha": 1026,
      "Ġvza": 1027,
      "Ġvsv": 1028,
      "Ġvzpo": 1029,
      "Ġvzh": 1030,
      "ĠÅ¡ep": 1031,
      "ĠzrÃ¡": 1032,
      "Ġvpra": 1033,
      "Ġkto": 1034,
      "Ġaj": 1035,
      "ĠboÅ¾": 1036,
      "Ġdat": 1037,
      "Ġpev": 1038,
      "Ġvro": 1039,
      "Ġjm": 1040,
      "Ġsku": 1041,
      "ĠÅĪa": 1042,
      "Ġbys": 1043,
      "Ġ1960": 1044,
      "Ġply": 1045,
      "Ġvti": 1046,
      "Ġsr": 1047,
      "Ġstem": 1048,
      "ĠtrÅ¯": 1049,
      "ĠslyÅ¡": 1050,
      "Ġtl": 1051,
      "Ġzro": 1052,
      "Ġpru": 1053,
      "ĠvÃŃÅ¡": 1054,
      "Ġga": 1055,
      "ĠÅ¾ÃŃm": 1056,
      "Ġstej": 1057,
      "Ġzle": 1058,
      "ĠÅĻÃŃm": 1059,
      "ĠsnÃŃm": 1060,
      "Ġboj": 1061,
      "ĠvdÄĽ": 1062,
      "Ġzl": 1063,
      "ĠvnÃŃ": 1064,
      "Ġlest": 1065,
      "Ġvbo": 1066,
      "ĠzmÄĽ": 1067,
      "ĠdÄĽj": 1068,
      "Ġdin": 1069,
      "ĠjÃŃt": 1070,
      "Å¾i": 1071,
      "ĠpÄĽk": 1072,
      "ĠzvÃŃ": 1073,
      "Ġsna": 1074,
      "ĠkÅ¯m": 1075,
      "ĠdÅĻÃŃv": 1076,
      "Ġhrad": 1077,
      "at": 1078,
      "Ġzli": 1079,
      "Ġskry": 1080,
      "Ġska": 1081,
      "Ġcen": 1082,
      "Ġkat": 1083,
      "ĠvÃ¡n": 1084,
      "Ġvmo": 1085,
      "Ġpov": 1086,
      "ĠÄįen": 1087,
      "Ġchou": 1088,
      "ĠÄįÃ¡": 1089,
      "Ġfi": 1090,
      "Ġves": 1091,
      "ĠtvÃ½ch": 1092,
      "Ġstli": 1093,
      "Ġge": 1094,
      "ĠtoÅ¥": 1095,
      "ĠÄįt": 1096,
      "ĠtÄĽl": 1097,
      "ĠtÃ¡h": 1098,
      "Ġnich": 1099,
      "ĠvÅ¡ÃŃ": 1100,
      "Ġbli": 1101,
      "ĠnÄĽl": 1102,
      "ĠmÃ½m": 1103,
      "Ġsne": 1104,
      "ĠrÃ½ch": 1105,
      "ech": 1106,
      "Ġth": 1107,
      "Ġplu": 1108,
      "ĠtÃ½m": 1109,
      "Ġzva": 1110,
      "Ġkud": 1111,
      "ĠÅ¾li": 1112,
      "ABABCD": 1113,
      "Ġzr": 1114,
      "Ġdly": 1115,
      "Ġper": 1116,
      "Ġtk": 1117,
      "Ġtaj": 1118,
      "ĠsnÃ¡": 1119,
      "ĠÅ¾eh": 1120,
      "Ġkri": 1121,
      "ĠmoÅ¾": 1122,
      "Ġmoh": 1123,
      "ĠÄįet": 1124,
      "ĠÄįin": 1125,
      "Ġjis": 1126,
      "Ġhli": 1127,
      "Ġkme": 1128,
      "ĠÄįes": 1129,
      "ĠÅ¡lo": 1130,
      "Ġstva": 1131,
      "Ġjin": 1132,
      "ĠchÃ©": 1133,
      "Ġtit": 1134,
      "Ġvnich": 1135,
      "nost": 1136,
      "ĠÅ¡ÃŃch": 1137,
      "Ġkb": 1138,
      "Ġchci": 1139,
      "Ġbar": 1140,
      "ĠdlÃ©": 1141,
      "ĠÃºs": 1142,
      "ĠkÃ¡m": 1143,
      "Ġcos": 1144,
      "ĠvÃº": 1145,
      "ĠzpÄĽv": 1146,
      "Ġvru": 1147,
      "ĠtÃ©m": 1148,
      "Ġchod": 1149,
      "Ġvsta": 1150,
      "Ġtys": 1151,
      "ĠzpÄĽt": 1152,
      "mu": 1153,
      "Ġznich": 1154,
      "ĠskrÃ¡": 1155,
      "ĠbrÃ©": 1156,
      "ĠprÃ¡z": 1157,
      "Ġtes": 1158,
      "Ġzdo": 1159,
      "Ġgo": 1160,
      "Ġtry": 1161,
      "Ġmd": 1162,
      "Ġvdo": 1163,
      "Ġsek": 1164,
      "ĠmÅĻe": 1165,
      "Ġrel": 1166,
      "ĠÅ¡ko": 1167,
      "ĠzÅĻel": 1168,
      "Ġbol": 1169,
      "ĠjmÃ©": 1170,
      "ĠstÃŃm": 1171,
      "ĠvÄĽt": 1172,
      "ĠsmÃŃch": 1173,
      "ĠzlÃ©": 1174,
      "ĠvdÃ¡l": 1175,
      "Ġkdys": 1176,
      "Ġvrou": 1177,
      "ĠteÄį": 1178,
      "ĠstrÃ½": 1179,
      "ĠÅĻem": 1180,
      "Ġzen": 1181,
      "Ġtvr": 1182,
      "ĠÅĻeÄį": 1183,
      "ĠÅ¡il": 1184,
      "ĠÅ¾al": 1185,
      "ĠvÅ¾dyc": 1186,
      "ĠblÃ¡": 1187,
      "Ġhud": 1188,
      "ar": 1189,
      "Ġsel": 1190,
      "ĠÅ¡em": 1191,
      "Ġsmy": 1192,
      "Ġpoh": 1193,
      "Ġkraj": 1194,
      "ĠmÃ¡Å¡": 1195,
      "Ġ1820": 1196,
      "Ġkmi": 1197,
      "Ġpot": 1198,
      "ĠÅ¡lÃ©": 1199,
      "Ġbraz": 1200,
      "Ġkost": 1201,
      "ĠÅ¾it": 1202,
      "Ġtre": 1203,
      "an": 1204,
      "Ġnen": 1205,
      "Ġjal": 1206,
      "ĠdÅĻe": 1207,
      "ĠdÃŃÅ¡": 1208,
      "ĠtÄĽz": 1209,
      "Ġstar": 1210,
      "ĠÄįit": 1211,
      "ĠzÃ¡ÅĻ": 1212,
      "ĠjejÅ¾": 1213,
      "ĠhoÅ¾": 1214,
      "Ġss": 1215,
      "ĠlÃŃÅ¡": 1216,
      "ABCCB": 1217,
      "Ġztra": 1218,
      "Ġtan": 1219,
      "Ġtech": 1220,
      "Ġvko": 1221,
      "Ġtvou": 1222,
      "Ġau": 1223,
      "Ġzne": 1224,
      "ĠÄįest": 1225,
      "ĠtoÅ¾": 1226,
      "Ġblu": 1227,
      "ĠskÃ½m": 1228,
      "ĠÅ¡ich": 1229,
      "Ġbem": 1230,
      "Ġsyn": 1231,
      "Ġslov": 1232,
      "Ġgi": 1233,
      "Ġsten": 1234,
      "ĠstÅ¯": 1235,
      "ĠvÃ¡Å¾": 1236,
      "ĠvtÄĽ": 1237,
      "rou": 1238,
      "ĠdÅ¯m": 1239,
      "Ġsklo": 1240,
      "Ġchra": 1241,
      "Ġvze": 1242,
      "Ġleb": 1243,
      "Ġsvit": 1244,
      "Ġkva": 1245,
      "ĠrÃ©m": 1246,
      "Ġstech": 1247,
      "Ġdel": 1248,
      "ĠbrÃ½": 1249,
      "ĠvÅ¡ich": 1250,
      "ĠdlÃ¡": 1251,
      "Ġvsk": 1252,
      "Ġnev": 1253,
      "Ġzor": 1254,
      "ĠliÅ¡": 1255,
      "ĠvzhÅ¯": 1256,
      "ĠjÃŃÅ¾": 1257,
      "Ġstru": 1258,
      "ĠfÃ¡": 1259,
      "Ġzum": 1260,
      "Ġjel": 1261,
      "ĠblÃŃÅ¾": 1262,
      "Ġvzne": 1263,
      "Ġpoj": 1264,
      "Ġblo": 1265,
      "Ġdob": 1266,
      "Ġvan": 1267,
      "ĠstraÅ¡": 1268,
      "ĠhÅĻe": 1269,
      "Ġskal": 1270,
      "ĠÅĻit": 1271,
      "ĠbÃ¡s": 1272,
      "Ġvzal": 1273,
      "Ġmal": 1274,
      "Ġvec": 1275,
      "AABCCB": 1276,
      "Ġklad": 1277,
      "Ġtost": 1278,
      "Ġsoud": 1279,
      "Ġok": 1280,
      "Ġsbo": 1281,
      "ĠjÅ¯": 1282,
      "Ġdve": 1283,
      "ĠskrÃ½": 1284,
      "ĠÅ¾Ã¡r": 1285,
      "Ġzby": 1286,
      "ĠbÃŃd": 1287,
      "ĠtÅĻÃ¡": 1288,
      "Ġzvuk": 1289,
      "ĠÅĻÃ¡d": 1290,
      "Ġkot": 1291,
      "Ġhlad": 1292,
      "Ġas": 1293,
      "Ġzmi": 1294,
      "Ġpor": 1295,
      "ĠbÅĻÃŃ": 1296,
      "Ġvna": 1297,
      "Ġled": 1298,
      "Ġstup": 1299,
      "ĠzlÃŃ": 1300,
      "ĠprÅ¯": 1301,
      "Ġcel": 1302,
      "Ġlej": 1303,
      "Ġzvy": 1304,
      "Ġhrob": 1305,
      "Ġpat": 1306,
      "Ġsme": 1307,
      "Ġjar": 1308,
      "ĠvlÃ¡d": 1309,
      "ĠÄįÃŃch": 1310,
      "ĠvÄį": 1311,
      "Ġnaj": 1312,
      "Ġklu": 1313,
      "ĠÅ¾ha": 1314,
      "Ġhan": 1315,
      "Ġvka": 1316,
      "Ġzbra": 1317,
      "Ġzdra": 1318,
      "Ġvho": 1319,
      "ĠmÃŃt": 1320,
      "Ġtis": 1321,
      "ĠheÅĪ": 1322,
      "ĠtÄĽm": 1323,
      "Ġkoj": 1324,
      "ĠÃ¡": 1325,
      "ĠjÃŃch": 1326,
      "Ġnak": 1327,
      "Ġpar": 1328,
      "ĠpÃ©": 1329,
      "ĠvÅ¡i": 1330,
      "ĠsvÃ½": 1331,
      "Ġpos": 1332,
      "Ġvzte": 1333,
      "ĠnnÃ½": 1334,
      "Ġzjev": 1335,
      "ĠstÅĻed": 1336,
      "Ġproud": 1337,
      "Ġkh": 1338,
      "ĠvnÃ¡": 1339,
      "Ġzvol": 1340,
      "ĠpouÅ¡": 1341,
      "ĠnnÄĽ": 1342,
      "Ġder": 1343,
      "AXB": 1344,
      "Ġspra": 1345,
      "ĠsklÃ¡": 1346,
      "ĠbÃ©": 1347,
      "Ġchr": 1348,
      "ĠhleÄı": 1349,
      "Ġov": 1350,
      "Ġblesk": 1351,
      "Ġdek": 1352,
      "ja": 1353,
      "Ġor": 1354,
      "Ġur": 1355,
      "Ġzka": 1356,
      "Ġbuj": 1357,
      "Ġvzk": 1358,
      "ĠvÄĽz": 1359,
      "ĠnaÄį": 1360,
      "ĠskÃ©m": 1361,
      "ĠhvÄĽzd": 1362,
      "ĠdÄĽs": 1363,
      "Ġstil": 1364,
      "Ġver": 1365,
      "Ġdruh": 1366,
      "Ġnat": 1367,
      "ĠnÄĽÅ¾": 1368,
      "ĠsnÅ¯": 1369,
      "ĠÅ¡len": 1370,
      "ĠÅ¡t": 1371,
      "Ġum": 1372,
      "Ġvys": 1373,
      "ĠÄįej": 1374,
      "ĠÅ¾iv": 1375,
      "ĠnÅ¯m": 1376,
      "ĠdÃ½ch": 1377,
      "Ġlas": 1378,
      "Ġkly": 1379,
      "Ġrek": 1380,
      "ĠnechÅ¥": 1381,
      "Ġsal": 1382,
      "ĠmÄĽv": 1383,
      "Ġtli": 1384,
      "Ġchv": 1385,
      "ĠmeÄį": 1386,
      "ĠpÅ¯l": 1387,
      "ĠÅ¾u": 1388,
      "Ġtle": 1389,
      "ĠvstÅĻÃŃ": 1390,
      "Ġjdou": 1391,
      "ĠnuÅ¾": 1392,
      "Ġzce": 1393,
      "Ġvej": 1394,
      "ĠÅ¡en": 1395,
      "Ġned": 1396,
      "Ġfra": 1397,
      "Ġhnu": 1398,
      "Ġhly": 1399,
      "Ġzil": 1400,
      "ĠslÃ©": 1401,
      "ĠzvÃ¡": 1402,
      "Ġrak": 1403,
      "ĠvÃ½Å¡": 1404,
      "ĠÅ¾lu": 1405,
      "Ġmor": 1406,
      "Ġbrou": 1407,
      "Ġzma": 1408,
      "ĠvÃ¡l": 1409,
      "ĠpÅ¯j": 1410,
      "Ġvpa": 1411,
      "Ġtin": 1412,
      "ĠbÃŃk": 1413,
      "ĠmÃŃn": 1414,
      "rÃ¡z": 1415,
      "Ġbor": 1416,
      "Ġkrok": 1417,
      "ĠhÃ½ch": 1418,
      "ĠÃŃ": 1419,
      "ĠsvÄĽd": 1420,
      "Ġkze": 1421,
      "ĠchvÄĽl": 1422,
      "ĠzvlÃ¡": 1423,
      "Ġhrom": 1424,
      "ĠvsvÄĽ": 1425,
      "Ġtrou": 1426,
      "Ġol": 1427,
      "ĠdÄĽv": 1428,
      "Ġvlo": 1429,
      "ĠruÄį": 1430,
      "ĠspoÅĪ": 1431,
      "Ġret": 1432,
      "Ġmrou": 1433,
      "Ġzved": 1434,
      "ĠzeÅĪ": 1435,
      "Ġknu": 1436,
      "ĠrÃ½m": 1437,
      "Ġkov": 1438,
      "ĠnÄĽn": 1439,
      "ĠÅ¡et": 1440,
      "Ġscho": 1441,
      "Ġstav": 1442,
      "Ġsho": 1443,
      "Ġvrh": 1444,
      "ĠhoÅĻ": 1445,
      "Ġkdes": 1446,
      "ĠzdÃ¡l": 1447,
      "ĠkÅĻÃŃÅ¾": 1448,
      "Ġkrou": 1449,
      "ĠblÃŃz": 1450,
      "Å¯r": 1451,
      "Ġpout": 1452,
      "Ġtrp": 1453,
      "ĠdÃ©m": 1454,
      "ĠÅĻen": 1455,
      "ĠvÄĽn": 1456,
      "Ġber": 1457,
      "ĠÅ¡um": 1458,
      "ĠkÅĻ": 1459,
      "Ġtic": 1460,
      "ĠvstÅĻÃŃc": 1461,
      "Ġkso": 1462,
      "ĠlÃŃm": 1463,
      "Ġmrak": 1464,
      "Ġvli": 1465,
      "ÅĪa": 1466,
      "ABCD": 1467,
      "ĠsnÃŃh": 1468,
      "vÃ©": 1469,
      "ĠhÅĻm": 1470,
      "ĠdÃŃt": 1471,
      "Ġset": 1472,
      "ĠdvÃ©": 1473,
      "ĠztÄĽ": 1474,
      "ĠvÄĽc": 1475,
      "Ġmst": 1476,
      "ĠhÃ½m": 1477,
      "Ġchva": 1478,
      "Ġtvor": 1479,
      "rÅ¯": 1480,
      "Ġsve": 1481,
      "ĠkÅĻik": 1482,
      "ĠvzdÃ¡": 1483,
      "Ġdouc": 1484,
      "ĠnÃŃz": 1485,
      "ĠknÃ¡": 1486,
      "ĠkoÅ¡": 1487,
      "ĠvlÃŃd": 1488,
      "Ġjsa": 1489,
      "ĠpÄĽl": 1490,
      "en": 1491,
      "Ġspi": 1492,
      "ĠÄįal": 1493,
      "ABBC": 1494,
      "Ġzru": 1495,
      "ĠzmÃŃ": 1496,
      "Ġvlas": 1497,
      "ĠstÃ¡t": 1498,
      "Ġoz": 1499,
      "ĠpyÅ¡": 1500,
      "Ġal": 1501,
      "ĠplÃ©": 1502,
      "py": 1503,
      "Ġhej": 1504,
      "Ġlep": 1505,
      "Ġlist": 1506,
      "AC": 1507,
      "Ġsny": 1508,
      "Ġsmu": 1509,
      "ĠvÅ¾i": 1510,
      "ĠptÃ¡k": 1511,
      "ĠskvÄĽ": 1512,
      "Ġdav": 1513,
      "Ġlin": 1514,
      "Ġkno": 1515,
      "ĠzdÄĽ": 1516,
      "Ġher": 1517,
      "Ġvyz": 1518,
      "Ġjil": 1519,
      "ĠpuÅ¡": 1520,
      "Ġhoj": 1521,
      "bi": 1522,
      "Ġzdvi": 1523,
      "Ġlk": 1524,
      "ĠtÅĻpy": 1525,
      "Ġknou": 1526,
      "Ġcti": 1527,
      "Ġter": 1528,
      "BC": 1529,
      "ĠchlÃ©": 1530,
      "Ġprud": 1531,
      "ĠzboÅ¾": 1532,
      "Ġnav": 1533,
      "ĠvÄĽÅĻ": 1534,
      "Ġtrh": 1535,
      "Ġdlit": 1536,
      "Ġtor": 1537,
      "Ġnel": 1538,
      "ĠznÃ¡m": 1539,
      "Ġslil": 1540,
      "Ġzto": 1541,
      "Ġnno": 1542,
      "ĠÃºz": 1543,
      "ĠhnÄĽv": 1544,
      "ĠÅ¡Ã¡": 1545,
      "Ġvzdy": 1546,
      "Ġpry": 1547,
      "ĠmÅĻÃŃ": 1548,
      "Ġved": 1549,
      "ĠÅ¾ÃŃt": 1550,
      "Ġchl": 1551,
      "Ġfal": 1552,
      "ĠkrÃ½": 1553,
      "ĠbyÅ¥": 1554,
      "Ġjme": 1555,
      "ĠkdoÅ¾": 1556,
      "ĠmraÄį": 1557,
      "vr": 1558,
      "Ġzni": 1559,
      "Ġbral": 1560,
      "Ġdno": 1561,
      "Ġin": 1562,
      "ĠchrÃ¡m": 1563,
      "ĠX": 1564,
      "Ġpta": 1565,
      "Ġpol": 1566,
      "Ġmil": 1567,
      "Ġzim": 1568,
      "Ġchmu": 1569,
      "Ġnny": 1570,
      "ĠnnÃ¡": 1571,
      "Ġdrob": 1572,
      "ĠhruÄı": 1573,
      "Ġrok": 1574,
      "ĠjichÅ¾": 1575,
      "Ġben": 1576,
      "Ġskle": 1577,
      "Ġnnou": 1578,
      "Ġchvil": 1579,
      "ĠztrÃ¡": 1580,
      "Ġvslu": 1581,
      "AX": 1582,
      "Ġstrach": 1583,
      "in": 1584,
      "ĠvÅĻel": 1585,
      "Ġpen": 1586,
      "Ġlit": 1587,
      "ĠmÄĽk": 1588,
      "ĠrÃ¡m": 1589,
      "ĠdrÃ©": 1590,
      "Ġvzduch": 1591,
      "Ġkpo": 1592,
      "Ġzval": 1593,
      "Ġbec": 1594,
      "ĠbouÅĻ": 1595,
      "ĠpÅĻÃŃs": 1596,
      "Ġuz": 1597,
      "ĠvÅĻÃŃ": 1598,
      "Ġvez": 1599,
      "ĠviÄį": 1600,
      "Ġsej": 1601,
      "ĠnaÅĪ": 1602,
      "ĠvkrÃ¡": 1603,
      "ĠdruÅ¾": 1604,
      "ĠmÅ¾i": 1605,
      "ÅĻÃ¡": 1606,
      "Ġnut": 1607,
      "ĠzÅĻÃŃm": 1608,
      "ĠmÃ©m": 1609,
      "Ġrej": 1610,
      "ĠpoÄį": 1611,
      "ĠdiÄį": 1612,
      "Ġsma": 1613,
      "Ġzaz": 1614,
      "ĠÄįÃŃÅ¡": 1615,
      "Ġvzb": 1616,
      "ĠbÄĽh": 1617,
      "ĠhÃ©m": 1618,
      "Ġbd": 1619,
      "ĠÅ¡at": 1620,
      "tÅĻ": 1621,
      "ĠvtvÃ¡": 1622,
      "ĠdrÃ½": 1623,
      "ĠnoÄį": 1624,
      "ĠÅĻÅ¯": 1625,
      "Ġvce": 1626,
      "ĠcÅ¯m": 1627,
      "ĠdnÃŃ": 1628,
      "ĠvnÄĽmÅ¾": 1629,
      "Ġtrem": 1630,
      "ĠsmÃ¡": 1631,
      "Ġctnost": 1632,
      "Ġcet": 1633,
      "XAX": 1634,
      "Ġnuv": 1635,
      "Ġgu": 1636,
      "ĠliÄį": 1637,
      "ĠÅ¾em": 1638,
      "ĠniÄį": 1639,
      "ĠzÃŃch": 1640,
      "Ġhad": 1641,
      "Ġmluv": 1642,
      "Ġran": 1643,
      "ĠvdÃ¡": 1644,
      "ĠÅ¥a": 1645,
      "Ġcla": 1646,
      "Ġsro": 1647,
      "Ġvpro": 1648,
      "ĠnÃŃÅ¾": 1649,
      "er": 1650,
      "ti": 1651,
      "ĠtÃ¡m": 1652,
      "Ġkor": 1653,
      "Ġzmo": 1654,
      "Ġlec": 1655,
      "ĠrÃ¡ch": 1656,
      "Ġhat": 1657,
      "Ġkles": 1658,
      "Ġstrom": 1659,
      "Ġtly": 1660,
      "Ġspro": 1661,
      "ej": 1662,
      "ĠÅ¡lÃ©n": 1663,
      "Ġrad": 1664,
      "Ġzku": 1665,
      "Ġvhro": 1666,
      "Ġsic": 1667,
      "Ġlh": 1668,
      "Ġvln": 1669,
      "Ġvta": 1670,
      "ĠvzÃ¡c": 1671,
      "Ġdlem": 1672,
      "Ġtiv": 1673,
      "Ġlez": 1674,
      "Ġspou": 1675,
      "ĠzrÃ¡d": 1676,
      "ĠboÅ¥": 1677,
      "Ġmek": 1678,
      "ĠvpÅĻe": 1679,
      "ĠdÃ¡t": 1680,
      "ĠknÃ¡m": 1681,
      "Ġsra": 1682,
      "Ġvpr": 1683,
      "Ġchat": 1684,
      "ÅĻa": 1685,
      "Ġpem": 1686,
      "ĠvraÅ¾": 1687,
      "Ġjou": 1688,
      "ĠlÃŃch": 1689,
      "ĠklÃ©": 1690,
      "ĠmÄĽj": 1691,
      "ĠpryÄį": 1692,
      "Ġvad": 1693,
      "Ġkar": 1694,
      "ĠzprÃ¡": 1695,
      "ĠtlÃ©": 1696,
      "Ġmech": 1697,
      "nÃŃz": 1698,
      "Å¾e": 1699,
      "Ġsky": 1700,
      "ĠtvÃ½m": 1701,
      "ĠlÃŃc": 1702,
      "Ġdlu": 1703,
      "ĠchtÃŃ": 1704,
      "ĠdÄĽc": 1705,
      "Ġpit": 1706,
      "Ġvzdech": 1707,
      "Ġnna": 1708,
      "Ġstk": 1709,
      "Ġzbu": 1710,
      "Ġbit": 1711,
      "ĠsÃ¡h": 1712,
      "ĠrÅ¯z": 1713,
      "Ġlla": 1714,
      "ĠÄįu": 1715,
      "Ġvtu": 1716,
      "Ġlle": 1717,
      "Ġples": 1718,
      "Ġrty": 1719,
      "ĠvÅ¯d": 1720,
      "Ġkmo": 1721,
      "Ġvor": 1722,
      "ĠjÃŃmÅ¾": 1723,
      "Ġjez": 1724,
      "ĠhÃ¡m": 1725,
      "vy": 1726,
      "ĠblÃ½": 1727,
      "Ġbod": 1728,
      "Ġzdi": 1729,
      "Ġkus": 1730,
      "ĠÄıÃ¡": 1731,
      "Ġpsa": 1732,
      "ĠlÃŃk": 1733,
      "ĠzdrÃ¡": 1734,
      "Ġvroz": 1735,
      "Ġvzt": 1736,
      "Ġzar": 1737,
      "ĠkÅĻes": 1738,
      "ĠÅ¾er": 1739,
      "Ġmni": 1740,
      "Ġsnu": 1741,
      "Ġhlav": 1742,
      "ĠzlÃ¡": 1743,
      "Ġos": 1744,
      "Ġbyt": 1745,
      "Ġbru": 1746,
      "Ġprach": 1747,
      "ĠnÃ¡d": 1748,
      "ĠhÅĻÃŃch": 1749,
      "Ġctno": 1750,
      "Ġkbo": 1751,
      "Ġzba": 1752,
      "ĠÅ¡lech": 1753,
      "Ġkn": 1754,
      "ĠdnÃ©": 1755,
      "Ġvic": 1756,
      "vost": 1757,
      "ĠvstÃ¡": 1758,
      "Ġvstou": 1759,
      "ĠtÃŃÅ¡": 1760,
      "Ġvost": 1761,
      "Ġkej": 1762,
      "ĠdÃ¡n": 1763,
      "Ġrat": 1764,
      "Ġsit": 1765,
      "Ġklam": 1766,
      "ĠmÃŃm": 1767,
      "Ġchlu": 1768,
      "ĠkÅ¯v": 1769,
      "Ġvsa": 1770,
      "ĠÄįo": 1771,
      "ĠhÃ¡d": 1772,
      "ĠÅ¾dy": 1773,
      "ĠchceÅ¡": 1774,
      "ĠvyÅ¡": 1775,
      "Ġtok": 1776,
      "Ġvmy": 1777,
      "Ġzek": 1778,
      "Ġpros": 1779,
      "ĠsÅ¯m": 1780,
      "Ġdot": 1781,
      "ĠÄįÅ¯": 1782,
      "Ġskro": 1783,
      "Ġpoc": 1784,
      "ĠdlÃ½": 1785,
      "Ġkyt": 1786,
      "ĠpÄĽv": 1787,
      "ĠhÅ¯m": 1788,
      "ji": 1789,
      "ĠsluÅ¡": 1790,
      "Ġchej": 1791,
      "ĠnÃ¡ÅĻ": 1792,
      "Ġprs": 1793,
      "ĠsluÅ¾": 1794,
      "ĠdÃ¡ch": 1795,
      "ĠloÄı": 1796,
      "ĠÅ¡o": 1797,
      "Ġklet": 1798,
      "ĠztÄĽch": 1799,
      "Ġzlou": 1800,
      "ĠbÃ¡ch": 1801,
      "ĠvÅ¡ÃŃm": 1802,
      "Ġfr": 1803,
      "ĠskÅĻÃŃ": 1804,
      "Ġvin": 1805,
      "ĠÅĪo": 1806,
      "ĠbÅĻi": 1807,
      "ĠpÅĻÃŃÅ¡": 1808,
      "XAXAXB": 1809,
      "Ġvkr": 1810,
      "ĠznÄĽl": 1811,
      "ĠbÄĽd": 1812,
      "Ġstran": 1813,
      "ĠÅ¡ly": 1814,
      "Ġtur": 1815,
      "ĠbiÄį": 1816,
      "ĠvsÃŃ": 1817,
      "Ġluz": 1818,
      "ĠvsvÃ©m": 1819,
      "ĠslÃŃm": 1820,
      "ĠtÅĻil": 1821,
      "ĠdÃŃl": 1822,
      "Ġzkou": 1823,
      "ĠvÄĽÅ¡": 1824,
      "Ġfran": 1825,
      "ĠdÃ¡Å¡": 1826,
      "ĠvsvÃ©": 1827,
      "ze": 1828,
      "ĠvÄĽj": 1829,
      "ĠdvÃ¡": 1830,
      "Å¡e": 1831,
      "ĠÅĻÃŃÅ¡": 1832,
      "Ġzti": 1833,
      "Ġsob": 1834,
      "Ġzev": 1835,
      "Ġvzdor": 1836,
      "Ġcou": 1837,
      "Ġvdi": 1838,
      "Ġdoj": 1839,
      "Ġx": 1840,
      "Ġbled": 1841,
      "ĠnÃ¡c": 1842,
      "Ġpel": 1843,
      "ĠstÃ©m": 1844,
      "ĠÅĻec": 1845,
      "Ġken": 1846,
      "Ġlan": 1847,
      "ĠplÃŃ": 1848,
      "Ġhloub": 1849,
      "ĠzvlÃ¡Å¡": 1850,
      "ĠzÄįe": 1851,
      "Ġhol": 1852,
      "Ġzat": 1853,
      "ĠslÃ½": 1854,
      "Ġpur": 1855,
      "ĠtÄĽj": 1856,
      "Ġhar": 1857,
      "ĠlÃ¡ch": 1858,
      "Ġfo": 1859,
      "Ġvrat": 1860,
      "Ġzpu": 1861,
      "Ġsmi": 1862,
      "ma": 1863,
      "18": 1864,
      "ĠzÃŃm": 1865,
      "ĠstvÃŃm": 1866,
      "Ġtlou": 1867,
      "Ġvhlou": 1868,
      "ĠkrÅ¯": 1869,
      "Ġkaz": 1870,
      "Ġgra": 1871,
      "Ġtri": 1872,
      "Ġblud": 1873,
      "Ġzdu": 1874,
      "ĠhluÄį": 1875,
      "Ġvzde": 1876,
      "ĠvÅ¡a": 1877,
      "ĠpeÄį": 1878,
      "lad": 1879,
      "ĠdnÅ¯": 1880,
      "ĠmlÃ½": 1881,
      "Ġdok": 1882,
      "Ġtov": 1883,
      "Ġsbor": 1884,
      "ĠpÃ¡r": 1885,
      "Ġvstal": 1886,
      "ĠvÃŃr": 1887,
      "Ġmon": 1888,
      "Ġhost": 1889,
      "Ġvji": 1890,
      "Ġhrou": 1891,
      "Ġplod": 1892,
      "ĠdiÅ¾": 1893,
      "Ġbel": 1894,
      "Ġvto": 1895,
      "Ġchlo": 1896,
      "Ġdrav": 1897,
      "Ġlat": 1898,
      "ĠstrÃ¡Å¾": 1899,
      "Ġrost": 1900,
      "ĠvdÄĽÄį": 1901,
      "Ġbre": 1902,
      "Ġlli": 1903,
      "ĠjvÃŃ": 1904,
      "ĠzpÃ¡t": 1905,
      "ĠÅĪu": 1906,
      "Ġvsp": 1907,
      "Ġzch": 1908,
      "Ġvso": 1909,
      "Ġtve": 1910,
      "Ġsje": 1911,
      "Ġbin": 1912,
      "Ġkrut": 1913,
      "ĠvkaÅ¾": 1914,
      "vou": 1915,
      "ĠvÅ¡ic": 1916,
      "Ġkop": 1917,
      "Ġruch": 1918,
      "Ġzko": 1919,
      "Ġslech": 1920,
      "Å¯d": 1921,
      "Ġteh": 1922,
      "ĠsaÅĻ": 1923,
      "ĠvÅĻa": 1924,
      "Ġvjed": 1925,
      "Ġmli": 1926,
      "ĠzÃº": 1927,
      "Ġdni": 1928,
      "Ġzav": 1929,
      "Ġchli": 1930,
      "ĠsvÃ¡t": 1931,
      "Ġdny": 1932,
      "ĠÄįty": 1933,
      "ĠblÃ½s": 1934,
      "Ã¡m": 1935,
      "ĠÅ¡it": 1936,
      "Ġmed": 1937,
      "ĠvmÄĽ": 1938,
      "Ġpln": 1939,
      "Ġlze": 1940,
      "ĠklÃŃn": 1941,
      "ĠÅĻad": 1942,
      "Ġnus": 1943,
      "Ġthe": 1944,
      "Ġren": 1945,
      "Ġplou": 1946,
      "ĠhnÃŃz": 1947,
      "ĠÅ¡er": 1948,
      "Ġvsm": 1949,
      "Ġhoch": 1950,
      "Ġlech": 1951,
      "ĠsÃŃch": 1952,
      "ĠknÄĽz": 1953,
      "Ġpes": 1954,
      "AAXB": 1955,
      "ĠzpÅ¯": 1956,
      "ĠkÃ½s": 1957,
      "Ġtat": 1958,
      "ĠhlÃ½": 1959,
      "Ġsyl": 1960,
      "Ġzhy": 1961,
      "ĠstÅĻi": 1962,
      "Ġnnost": 1963,
      "ĠmrÃ¡z": 1964,
      "ĠslÃ©z": 1965,
      "ĠtvÃ©m": 1966,
      "Ġdum": 1967,
      "Ġvlh": 1968,
      "Ġhez": 1969,
      "Ġzvon": 1970,
      "ĠmÄĽst": 1971,
      "Ġklou": 1972,
      "Ġvsi": 1973,
      "ĠniÅ¾": 1974,
      "Ġrev": 1975,
      "ĠslÅ¯": 1976,
      "qu": 1977,
      "ĠmlÄį": 1978,
      "ĠkÃ¡n": 1979,
      "Ġnaz": 1980,
      "Ġzpra": 1981,
      "ĠvlÃ¡s": 1982,
      "ĠsÃº": 1983,
      "ĠreÄį": 1984,
      "Ġvtem": 1985,
      "ĠÅ¡in": 1986,
      "ĠuÅ¡": 1987,
      "Ġnoch": 1988,
      "Ġvzle": 1989,
      "Ġzhou": 1990,
      "ĠstÅĻel": 1991,
      "Ġqu": 1992,
      "ĠÅ¾as": 1993,
      "Ġhna": 1994,
      "ĠspÃŃÅ¡": 1995,
      "ĠhrÃ¡l": 1996,
      "Ġjan": 1997,
      "Ġzyk": 1998,
      "Ġtmy": 1999,
      "Ġhm": 2000,
      "Ġlam": 2001,
      "Ġvkra": 2002,
      "ĠkÃ©Å¾": 2003,
      "ĠÅ¾ÃŃÅ¡": 2004,
      "Ġslal": 2005,
      "ĠÅĻk": 2006,
      "Ġblan": 2007,
      "ĠsplÃ½": 2008,
      "CCD": 2009,
      "ĠpÃ¡d": 2010,
      "Ġdom": 2011,
      "ĠpÅĻÃŃm": 2012,
      "Ġodv": 2013,
      "ĠÅ¡pat": 2014,
      "Ġhn": 2015,
      "Ġnot": 2016,
      "Ġzha": 2017,
      "Ġhas": 2018,
      "ĠdeÄį": 2019,
      "Ġspu": 2020,
      "Ġpli": 2021,
      "ĠvznÃ¡": 2022,
      "ĠrÃ¡j": 2023,
      "Ġnos": 2024,
      "ĠÅĻÃŃch": 2025,
      "Ġkan": 2026,
      "ĠstaÅĪ": 2027,
      "ĠchÃ¡m": 2028,
      "ĠplÃ¡Äį": 2029,
      "ĠveÅ¡": 2030,
      "ĠtÃ¡n": 2031,
      "ĠskÅĻi": 2032,
      "ĠzlÃ½": 2033,
      "Ġsad": 2034,
      "Ġstla": 2035,
      "Ġvhla": 2036,
      "Ġksrd": 2037,
      "zd": 2038,
      "ĠschvÃ¡": 2039,
      "ĠkÅĻiv": 2040,
      "Ġmoz": 2041,
      "ĠcÃŃl": 2042,
      "ĠvklÃŃ": 2043,
      "ĠvstÃŃ": 2044,
      "to": 2045,
      "Ġjdu": 2046,
      "Ġzvi": 2047,
      "ĠtiÄį": 2048,
      "Ġvyh": 2049,
      "ĠnosÅ¥": 2050,
      "Ġkup": 2051,
      "Ġ1800": 2052,
      "Ġlesk": 2053,
      "ĠvÄĽst": 2054,
      "vÄĽt": 2055,
      "Ġskut": 2056,
      "Ġdec": 2057,
      "ĠtrÅ¯n": 2058,
      "Ġknim": 2059,
      "Ġnap": 2060,
      "ĠtÃ³": 2061,
      "ĠkvÃŃt": 2062,
      "ĠvbÃŃ": 2063,
      "Ġskvost": 2064,
      "Ġneh": 2065,
      "Ġdnem": 2066,
      "Ġzdro": 2067,
      "Ġviz": 2068,
      "Ġzdr": 2069,
      "ĠmÃ¡t": 2070,
      "Ġer": 2071,
      "Ġvtip": 2072,
      "Ġchi": 2073,
      "Ġhon": 2074,
      "Ġvpou": 2075,
      "ĠtÃŃÅ¾": 2076,
      "Ġtud": 2077,
      "ĠmÄĽt": 2078,
      "ĠnnÃ½ch": 2079,
      "ĠvnÃŃÅ¾": 2080,
      "ĠtÅ¯m": 2081,
      "Ġstry": 2082,
      "Ġchet": 2083,
      "ĠÅ¾to": 2084,
      "ĠdvÅ¯r": 2085,
      "Ġkst": 2086,
      "ĠÄįech": 2087,
      "ĠnÃŃÅ¡": 2088,
      "Ġmus": 2089,
      "ĠÅ¾Å¯": 2090,
      "Ġniv": 2091,
      "ĠvÄĽl": 2092,
      "Ġpec": 2093,
      "Ġzvl": 2094,
      "Ġdvou": 2095,
      "ĠmlÃ¡d": 2096,
      "ĠlÅ¯m": 2097,
      "ĠsprÃ¡": 2098,
      "Ġskon": 2099,
      "Ġdrech": 2100,
      "ĠbÃ¡l": 2101,
      "ĠstrÃ©": 2102,
      "ĠskrÃ¡ÅĪ": 2103,
      "hou": 2104,
      "ĠvnitÅĻ": 2105,
      "Ġlic": 2106,
      "Ġvry": 2107,
      "Ġvet": 2108,
      "Ġlev": 2109,
      "Ġclav": 2110,
      "Ġtev": 2111,
      "Ġzbro": 2112,
      "Ġlis": 2113,
      "ĠÅĻist": 2114,
      "Ġchut": 2115,
      "Ġkev": 2116,
      "ĠtmÄĽ": 2117,
      "led": 2118,
      "ĠstÃ½ch": 2119,
      "Ġplat": 2120,
      "Ġzlem": 2121,
      "ĠÅ¥an": 2122,
      "Ġkruh": 2123,
      "ĠsbÃŃ": 2124,
      "Ġvkou": 2125,
      "Ġvse": 2126,
      "ĠvnichÅ¾": 2127,
      "ĠvpÅĻÃŃ": 2128,
      "Ġznal": 2129,
      "ĠÅ¥ast": 2130,
      "ĠpoÅ¡": 2131,
      "ĠÅ¾eb": 2132,
      "ĠvpÅĻed": 2133,
      "ĠÅ¡ÃŃÅ¡": 2134,
      "ĠdÃŃk": 2135,
      "Ġclo": 2136,
      "Ġzho": 2137,
      "ĠmiÅ¾": 2138,
      "ĠvpÃŃ": 2139,
      "Ġjdi": 2140,
      "ĠÅ¾ek": 2141,
      "Ġjat": 2142,
      "ĠvÄĽÄı": 2143,
      "Ġpast": 2144,
      "Ġstan": 2145,
      "ĠcÃ½m": 2146,
      "Ġkvi": 2147,
      "ĠÅ¡tÃŃt": 2148,
      "ĠnÄĽch": 2149,
      "Ġvzbu": 2150,
      "ĠzkrÃ¡": 2151,
      "Ġmec": 2152,
      "Ġtrys": 2153,
      "ĠcÃ½ch": 2154,
      "Ġprch": 2155,
      "Ġcest": 2156,
      "ĠpojÄı": 2157,
      "ĠcÃŃr": 2158,
      "ĠvtÄĽch": 2159,
      "ĠoÄį": 2160,
      "Ġsnem": 2161,
      "ĠzÅĻÃŃt": 2162,
      "Ġej": 2163,
      "Ġmlou": 2164,
      "AXAX": 2165,
      "Ġfer": 2166,
      "ĠÅĪÃ¡": 2167,
      "Ġzte": 2168,
      "ĠpÄĽj": 2169,
      "Ġpas": 2170,
      "Ġstvu": 2171,
      "Ġbl": 2172,
      "ĠpeÅ¾": 2173,
      "ĠmÅĻel": 2174,
      "re": 2175,
      "ĠtÄĽs": 2176,
      "ĠtnÃŃ": 2177,
      "ĠsliÄį": 2178,
      "ĠmÅ¯Å¾": 2179,
      "Ġblak": 2180,
      "Ġhi": 2181,
      "ĠctÃŃ": 2182,
      "Ġvrouc": 2183,
      "ABBACC": 2184,
      "ĠA": 2185,
      "ÃŃt": 2186,
      "ĠÅ¡kle": 2187,
      "Ġrus": 2188,
      "ĠÄįte": 2189,
      "Ġnau": 2190,
      "ĠÅ¡vi": 2191,
      "ĠtrÃ½": 2192,
      "Ġhvo": 2193,
      "Ġchot": 2194,
      "Ġouz": 2195,
      "ĠhlÃ©d": 2196,
      "Ġliv": 2197,
      "ĠÅ¾rou": 2198,
      "ĠkÅ¡": 2199,
      "ĠtÃŃch": 2200,
      "Ġsno": 2201,
      "ĠknÄĽÅ¾": 2202,
      "Ġchyt": 2203,
      "Ġvn": 2204,
      "ĠzdaÅ¾": 2205,
      "ĠlkÃ¡": 2206,
      "ĠÄıas": 2207,
      "ĠlÃ¡m": 2208,
      "Ġllo": 2209,
      "ĠtlÃ½": 2210,
      "ĠzaÄį": 2211,
      "Ġkmet": 2212,
      "Ġvkte": 2213,
      "ĠchÃ©m": 2214,
      "ĠtÃ¡ÅĻ": 2215,
      "ĠnÃ¡t": 2216,
      "Ġstoj": 2217,
      "Ġdna": 2218,
      "ĠlÃŃÄį": 2219,
      "Ġvte": 2220,
      "ĠklÃ½": 2221,
      "ĠtvÃ½": 2222,
      "Ġrech": 2223,
      "ĠvzkÅĻi": 2224,
      "Ġvnu": 2225,
      "ĠzÃ¡m": 2226,
      "Ġsot": 2227,
      "ĠÅĻej": 2228,
      "Ġrd": 2229,
      "Ġav": 2230,
      "ĠvplÃ¡": 2231,
      "ĠvlÅ¯": 2232,
      "ĠhÅĻbi": 2233,
      "ĠÅ¾eÅ¡": 2234,
      "Ġkel": 2235,
      "ĠkÄįe": 2236,
      "ĠpsÃ¡": 2237,
      "ĠrtÅ¯": 2238,
      "ĠstÃ½m": 2239,
      "Ġsf": 2240,
      "ĠtÃŃÅĻ": 2241,
      "Ġksm": 2242,
      "Ġstih": 2243,
      "ĠchÃ½m": 2244,
      "ĠpÃ¡s": 2245,
      "ĠspÄĽÅ¡": 2246,
      "Ġchom": 2247,
      "Ġmdlo": 2248,
      "ĠmÄĽch": 2249,
      "ĠdlaÅĪ": 2250,
      "Ġsnil": 2251,
      "ĠzÃ¡Å¡": 2252,
      "Ġvzdo": 2253,
      "ĠhÅĻÃŃÅ¡": 2254,
      "Ġvbe": 2255,
      "ĠdÃ©l": 2256,
      "ĠtÃ¡ch": 2257,
      "Ġzs": 2258,
      "Ġkdos": 2259,
      "Ġdb": 2260,
      "ĠkdeÅ¾": 2261,
      "Ġslib": 2262,
      "ĠÅ¾rout": 2263,
      "Ġvyr": 2264,
      "Ġdev": 2265,
      "Ġvple": 2266,
      "ĠjvÃŃc": 2267,
      "Ġdic": 2268,
      "et": 2269,
      "Ġrec": 2270,
      "ĠlaÄį": 2271,
      "Ġfu": 2272,
      "ABAA": 2273,
      "Ġpis": 2274,
      "Ġjvy": 2275,
      "AXBB": 2276,
      "ABCB": 2277,
      "Ġvzch": 2278,
      "ĠbdÄĽ": 2279,
      "ĠÄįar": 2280,
      "ĠplÃ¡Å¡Å¥": 2281,
      "Ġstl": 2282,
      "ĠnÄĽmÅ¾": 2283,
      "ABA": 2284,
      "Ġbek": 2285,
      "AABCBC": 2286,
      "ĠbÃ¡j": 2287,
      "ĠÅ¾ÃŃz": 2288,
      "ĠlÃ¡t": 2289,
      "Ġvyj": 2290,
      "ĠvzplÃ¡": 2291,
      "Ġvmi": 2292,
      "Ġbej": 2293,
      "Ġchmur": 2294,
      "ĠÅĻo": 2295,
      "Ġnli": 2296,
      "Ġklen": 2297,
      "Å¾ÃŃ": 2298,
      "ĠchlÃ©b": 2299,
      "Ġlad": 2300,
      "ĠplÃ¡l": 2301,
      "nÃ©": 2302,
      "Ġlst": 2303,
      "Ġhnal": 2304,
      "Ġhbi": 2305,
      "ĠbÅĻeh": 2306,
      "Ġnov": 2307,
      "Ġpsal": 2308,
      "ĠstÅ¯l": 2309,
      "ĠmÄĽÅ¡": 2310,
      "ĠzvÄĽst": 2311,
      "Ġtrud": 2312,
      "ĠmÃ¡l": 2313,
      "ĠpÃŃm": 2314,
      "Ġgon": 2315,
      "Ġtlem": 2316,
      "Ġvhlu": 2317,
      "Ġsvor": 2318,
      "Ġjov": 2319,
      "ĠzbraÅĪ": 2320,
      "Ġzah": 2321,
      "Ġkmit": 2322,
      "ĠÅ¾ik": 2323,
      "Ġzam": 2324,
      "Ġpras": 2325,
      "Ġzmu": 2326,
      "ĠvÄįer": 2327,
      "ĠjvyÅ¡": 2328,
      "ĠrÃ¡z": 2329,
      "ĠÅ¡ak": 2330,
      "Ġlud": 2331,
      "Ġstrh": 2332,
      "Ġvpu": 2333,
      "ĠvÃ¡ch": 2334,
      "ĠÅ¾ÃŃch": 2335,
      "XAXB": 2336,
      "ĠpusÅ¥": 2337,
      "ĠÅ¡pi": 2338,
      "ĠcÅ¯v": 2339,
      "Ġdan": 2340,
      "Ġblouz": 2341,
      "Ġdrs": 2342,
      "Ġvnad": 2343,
      "Ġspal": 2344,
      "ĠksvÃ©": 2345,
      "Ġtej": 2346,
      "Ġzlost": 2347,
      "Ġfan": 2348,
      "Ġmov": 2349,
      "Ġhluk": 2350,
      "Ġjiz": 2351,
      "Ġvpe": 2352,
      "AXBC": 2353,
      "ĠmrÃ¡": 2354,
      "ĠvÃ½s": 2355,
      "Ġvek": 2356,
      "ĠlÃ©b": 2357,
      "Ġfor": 2358,
      "ĠcÃ¡": 2359,
      "Ġvten": 2360,
      "Ġspla": 2361,
      "Ġrte": 2362,
      "Ġrtech": 2363,
      "ĠtiÅ¾": 2364,
      "ĠjimÅ¾": 2365,
      "ĠtÃ¡z": 2366,
      "ĠbÃ¡m": 2367,
      "ĠÅ¥Ã¡": 2368,
      "ĠmnÃŃ": 2369,
      "Ġbrov": 2370,
      "Ġdol": 2371,
      "ĠstÅĻÃ¡": 2372,
      "ĠÄįÃ¡t": 2373,
      "Ġstel": 2374,
      "ĠzkÃ¡": 2375,
      "ĠsÄįe": 2376,
      "Ġstus": 2377,
      "ĠtlÃ¡": 2378,
      "ĠmoÅĻ": 2379,
      "ĠvdÄĽk": 2380,
      "Ġlos": 2381,
      "ĠÅ¾et": 2382,
      "Ġsech": 2383,
      "ĠvmÃ©": 2384,
      "mou": 2385,
      "Ã¡n": 2386,
      "ĠhlÃŃd": 2387,
      "Ġvzru": 2388,
      "Ġvbou": 2389,
      "ĠklÃ¡Å¡": 2390,
      "Ġtich": 2391,
      "Ġvzni": 2392,
      "Ġvrch": 2393,
      "Ġvja": 2394,
      "Ġmih": 2395,
      "ĠvtvÃ¡ÅĻ": 2396,
      "Ġroj": 2397,
      "ĠÅ¥u": 2398,
      "Ġzpa": 2399,
      "ĠvrÃ¡s": 2400,
      "ĠpÅĻej": 2401,
      "Ġhut": 2402,
      "Ġlho": 2403,
      "ĠblÃ¡z": 2404,
      "Ġnam": 2405,
      "ĠtÅĻpyt": 2406,
      "ĠvÅ¡ed": 2407,
      "ĠdnÄĽ": 2408,
      "Ġsmo": 2409,
      "Ġvskut": 2410,
      "ĠÃºst": 2411,
      "Ġchyb": 2412,
      "Ġvar": 2413,
      "Ġjit": 2414,
      "ĠpohÅĻ": 2415,
      "Ġkap": 2416,
      "Ġvech": 2417,
      "ĠzdÃŃ": 2418,
      "ĠtÅĻeÅ¡": 2419,
      "ĠzvlÃ¡Å¡Å¥": 2420,
      "Ġkos": 2421,
      "Ã¡ch": 2422,
      "ĠplÃ½": 2423,
      "Ġvsou": 2424,
      "ĠtuÄį": 2425,
      "Ġstes": 2426,
      "ĠdoÄį": 2427,
      "AXX": 2428,
      "ĠtÄĽn": 2429,
      "ĠhÅĻb": 2430,
      "ĠÅ¡Å¥a": 2431,
      "ĠvlÃ©": 2432,
      "Ġsan": 2433,
      "ĠraÄį": 2434,
      "Ġchol": 2435,
      "ĠmrÅ¡": 2436,
      "Ġner": 2437,
      "ĠtuÅ¥": 2438,
      "ĠÄįnÃŃ": 2439,
      "ĠsmÃ¡l": 2440,
      "ĠvÃ¡b": 2441,
      "ĠÅ¡va": 2442,
      "Ġzet": 2443,
      "Ġsat": 2444,
      "ĠdnÃ½": 2445,
      "ĠtÃ½l": 2446,
      "ĠjÃ¡k": 2447,
      "Ġzhro": 2448,
      "ĠsrÃ¡": 2449,
      "Ġtmou": 2450,
      "Ġsse": 2451,
      "ĠhÃ¡ch": 2452,
      "ĠzvuÄį": 2453,
      "Ġstesk": 2454,
      "Ġlel": 2455,
      "ĠvrÃ¡z": 2456,
      "ĠkÅ¯ÅĪ": 2457,
      "Ġvc": 2458,
      "ĠvklÃŃn": 2459,
      "ĠvsnÄĽ": 2460,
      "ĠsnÄĽÅ¾": 2461,
      "Ġvist": 2462,
      "Ġvkro": 2463,
      "Ġjle": 2464,
      "Ġkryl": 2465,
      "Ġzhu": 2466,
      "ĠzmÃ¡": 2467,
      "Ġvzla": 2468,
      "ĠvraÅ¥": 2469,
      "Ġmot": 2470,
      "Ġtrest": 2471,
      "Ġryb": 2472,
      "ĠvmÃŃ": 2473,
      "Ġzdvih": 2474,
      "ĠÄįiv": 2475,
      "Ġvbu": 2476,
      "Ġzble": 2477,
      "Ġstez": 2478,
      "ĠvÄįas": 2479,
      "ĠsÃ©": 2480,
      "ĠzhlÃŃ": 2481,
      "ĠjeÅ¥": 2482,
      "ĠhnÃ¡": 2483,
      "val": 2484,
      "Ġdon": 2485,
      "Ġcek": 2486,
      "Ġstud": 2487,
      "ĠstÅ¯j": 2488,
      "Ġrol": 2489,
      "Ġsym": 2490,
      "ĠprÃ¡h": 2491,
      "Ġzj": 2492,
      "Ġraj": 2493,
      "Ġbrat": 2494,
      "ĠlÃŃp": 2495,
      "Ġsj": 2496,
      "ĠchÃ½ch": 2497,
      "ĠÅ¡eÅĪ": 2498,
      "ABCDCD": 2499,
      "ĠpÃŃÅ¡": 2500,
      "Ġvztek": 2501,
      "ĠÅĻu": 2502,
      "ĠbÄĽÅ¥": 2503,
      "ĠztÃ©": 2504,
      "Ġjsouc": 2505,
      "ĠnÅ¯v": 2506,
      "Ġvtv": 2507,
      "Ġvab": 2508,
      "Ġlib": 2509,
      "Ġdov": 2510,
      "ĠlÃ¡n": 2511,
      "ĠspÄĽl": 2512,
      "Ġchvat": 2513,
      "ĠbrÃ¡z": 2514,
      "ĠtÅĻÃ¡s": 2515,
      "Ġut": 2516,
      "Ġsvr": 2517,
      "ABBCCD": 2518,
      "ĠdneÅ¡": 2519,
      "Ġsha": 2520,
      "ABABAB": 2521,
      "ĠpouÅ¥": 2522,
      "ĠdÃ©Å¡Å¥": 2523,
      "Ġmost": 2524,
      "Ġsple": 2525,
      "Ġbis": 2526,
      "Ġsluch": 2527,
      "ĠsdÄĽ": 2528,
      "Ġplach": 2529,
      "Ġstrou": 2530,
      "ĠleÅ¾": 2531,
      "ĠÅ¡lÃŃ": 2532,
      "Ġzpi": 2533,
      "ĠÄıa": 2534,
      "ĠmnoÅ¾": 2535,
      "Ġdvor": 2536,
      "Ġztr": 2537,
      "Ġzkr": 2538,
      "Ġstor": 2539,
      "Ġpiv": 2540,
      "ĠkvÃ©": 2541,
      "ĠhÅĻmÄĽ": 2542,
      "Ġmsti": 2543,
      "ĠtÃŃs": 2544,
      "Ġkous": 2545,
      "Ġel": 2546,
      "Ġkom": 2547,
      "ĠÅ¾es": 2548,
      "Ġdrost": 2549,
      "Ġkul": 2550,
      "AAXX": 2551,
      "ĠdlÃ½ch": 2552,
      "Ġdvi": 2553,
      "ĠkvÃ¡m": 2554,
      "ĠstÃ¡r": 2555,
      "Ġskrom": 2556,
      "ĠmeÅ¡": 2557,
      "19": 2558,
      "Ġhry": 2559,
      "ĠjvÄĽt": 2560,
      "Ġkmen": 2561,
      "Ġvaz": 2562,
      "Ġvrah": 2563,
      "ĠchraÅĪ": 2564,
      "Ġvles": 2565,
      "ĠÅ¾iÅ¾": 2566,
      "ĠzÃ¡ch": 2567,
      "ĠbÃ¡t": 2568,
      "ĠtÅ¯v": 2569,
      "ĠchÅĻi": 2570,
      "Ġkje": 2571,
      "ĠchaÅ¥": 2572,
      "ABBACD": 2573,
      "Ġvprav": 2574,
      "ĠnnÃ½m": 2575,
      "Ġstly": 2576,
      "ĠÅ¡Å¯": 2577,
      "Ġbat": 2578,
      "Ġzpr": 2579,
      "Ġmly": 2580,
      "Ġvzpla": 2581,
      "ĠÄįtvr": 2582,
      "ĠprÃ¡v": 2583,
      "Ġteb": 2584,
      "ĠvÃŃÄį": 2585,
      "ĠznÃ¡Å¡": 2586,
      "ĠtÅĻÃŃs": 2587,
      "ĠspÃ¡n": 2588,
      "ĠsÃŃÅ¡": 2589,
      "ĠmÅĻÃŃt": 2590,
      "Ġslem": 2591,
      "ĠdÃ¡ÅĻ": 2592,
      "ĠmÅ¾ik": 2593,
      "Ġstis": 2594,
      "ĠÅĻÃŃc": 2595,
      "ĠvzrÅ¯": 2596,
      "ĠkeÅĻ": 2597,
      "Ġnas": 2598,
      "ĠbdÃŃ": 2599,
      "ĠtÅĻÃŃÅ¡": 2600,
      "Ġknul": 2601,
      "Ġslz": 2602,
      "Ġvma": 2603,
      "Ġvda": 2604,
      "Ġslel": 2605,
      "Ġshla": 2606,
      "ĠhÅ¯l": 2607,
      "ĠÄįÃ¡st": 2608,
      "Ġmrav": 2609,
      "Ġvme": 2610,
      "ĠhÃ¡j": 2611,
      "Ġrci": 2612,
      "ĠvbÄĽ": 2613,
      "Ġbly": 2614,
      "Ġzej": 2615,
      "ĠtvÅ¯r": 2616,
      "Ġzhlu": 2617,
      "ĠznichÅ¾": 2618,
      "Ġhyb": 2619,
      "Ġvslun": 2620,
      "ĠdÄĽd": 2621,
      "Ġtul": 2622,
      "Ġprsk": 2623,
      "Ġzin": 2624,
      "Ġdrou": 2625,
      "Ġzlu": 2626,
      "Ġspe": 2627,
      "ĠkÃ¡Å¡": 2628,
      "Ġvml": 2629,
      "Ġspl": 2630,
      "ĠÅ¾hou": 2631,
      "ĠÄįist": 2632,
      "Ġbran": 2633,
      "Ġnouc": 2634,
      "ĠspÄĽch": 2635,
      "Ġbur": 2636,
      "ĠschÃ¡": 2637,
      "ĠstvÃ¡": 2638,
      "Ġprin": 2639,
      "Ġki": 2640,
      "ĠtÅĻÃŃm": 2641,
      "Ġkrov": 2642,
      "ĠzvÄĽÅĻ": 2643,
      "Ġvci": 2644,
      "Ġhvoz": 2645,
      "ĠdÃŃc": 2646,
      "ĠvÅĪa": 2647,
      "ĠhrÃ¡t": 2648,
      "ĠhÅĻmÃŃ": 2649,
      "AABBCD": 2650,
      "Ġvprach": 2651,
      "ĠtÃŃc": 2652,
      "ĠsÃŃÅĪ": 2653,
      "Ġllu": 2654,
      "ĠsvÅ¯d": 2655,
      "Ġjek": 2656,
      "ĠviÅ¡": 2657,
      "Ġnet": 2658,
      "ĠkÅĻou": 2659,
      "Ġses": 2660,
      "ĠdraÅ¾": 2661,
      "Ġvku": 2662,
      "ĠnÄĽz": 2663,
      "Ġkslu": 2664,
      "ĠdeÅ¾": 2665,
      "ĠsmrÅ¥": 2666,
      "XABB": 2667,
      "ĠvÃŃs": 2668,
      "Ġchti": 2669,
      "ĠvpÅ¯": 2670,
      "Ġvpla": 2671,
      "Ġkout": 2672,
      "Ġvran": 2673,
      "ĠvÅ¯m": 2674,
      "Ġjev": 2675,
      "DD": 2676,
      "ĠdrÃ½ch": 2677,
      "ĠÅĻin": 2678,
      "ĠstÄĽn": 2679,
      "ĠvchrÃ¡": 2680,
      "Ġmnich": 2681,
      "Ġfy": 2682,
      "Ġvkru": 2683,
      "Ġvdla": 2684,
      "ĠvznÄĽ": 2685,
      "ĠzeÄı": 2686,
      "Ġchlap": 2687,
      "Ġskla": 2688,
      "ĠkÃ¡ÅĻ": 2689,
      "Ġw": 2690,
      "ĠvmÃ©m": 2691,
      "ĠveÅĪ": 2692,
      "ĠÄįtve": 2693,
      "Ġram": 2694,
      "ĠnichÅ¾": 2695,
      "ĠchlÃ¡": 2696,
      "Ġtkli": 2697,
      "Ġhmo": 2698,
      "ĠspÃ¡t": 2699,
      "ĠmlÃ½n": 2700,
      "Ġvhru": 2701,
      "Ġmas": 2702,
      "Ġmrz": 2703,
      "ĠsplÃ¡": 2704,
      "Ġvhu": 2705,
      "Ġsar": 2706,
      "Ġzml": 2707,
      "Ġvzlet": 2708,
      "Ġzji": 2709,
      "ĠvzÃ½": 2710,
      "ĠÄįert": 2711,
      "Ġhlub": 2712,
      "Ġtka": 2713,
      "ĠsmÄĽs": 2714,
      "Ġstek": 2715,
      "Ġzpod": 2716,
      "Ġvmra": 2717,
      "ĠmÃ¡Å¥": 2718,
      "Ġvcho": 2719,
      "lÃ½ch": 2720,
      "Ġvhod": 2721,
      "Ġluj": 2722,
      "Ġstroj": 2723,
      "ĠtlÃŃ": 2724,
      "Ġspol": 2725,
      "ĠhouÅ¡": 2726,
      "Ġspor": 2727,
      "Ġvtr": 2728,
      "Ġsce": 2729,
      "ĠzÅĻÃŃÅ¡": 2730,
      "ĠzraÄį": 2731,
      "ĠÅ¡est": 2732,
      "ĠmÄĽr": 2733,
      "Ġkho": 2734,
      "Ġvlu": 2735,
      "ĠdÃ¡k": 2736,
      "Ġlles": 2737,
      "Ġlom": 2738,
      "ĠlÃ¡c": 2739,
      "Ġvsva": 2740,
      "Ġklas": 2741,
      "ĠkÃº": 2742,
      "ĠoÅ¡": 2743,
      "mÄĽ": 2744,
      "ĠvpÃŃs": 2745,
      "Ġmin": 2746,
      "Ġvyp": 2747,
      "ĠmÃ¡ch": 2748,
      "ĠjmÄĽ": 2749,
      "ĠsÃºs": 2750,
      "Ġfou": 2751,
      "Ġvboj": 2752,
      "Ġluh": 2753,
      "ĠblÃ©": 2754,
      "ĠnÃ¡n": 2755,
      "Ġslast": 2756,
      "ĠplÃ¡Å¡": 2757,
      "ĠkvÃ½": 2758,
      "ĠmÃ¡j": 2759,
      "ĠsmÄĽÅ¡": 2760,
      "Ġlsti": 2761,
      "ĠtiÅ¡": 2762,
      "Ġzja": 2763,
      "ĠlÅ¯Å¾": 2764,
      "Ġjlep": 2765,
      "ĠzÄįer": 2766,
      "ĠzdrÃ¡v": 2767,
      "Ġrve": 2768,
      "Ġnach": 2769,
      "Ġdnu": 2770,
      "ĠhlÃ½ch": 2771,
      "ĠdÄĽn": 2772,
      "Ġzit": 2773,
      "ABAC": 2774,
      "ĠÅ¡leh": 2775,
      "nd": 2776,
      "ĠnoÅ¾": 2777,
      "ĠdrÃ¡Å¾": 2778,
      "Ġster": 2779,
      "ĠhrÅ¯z": 2780,
      "Ġpre": 2781,
      "ĠpÅĻiz": 2782,
      "ĠbrÃ¡k": 2783,
      "ĠvÄĽÅ¾": 2784,
      "ĠchoÅ¥": 2785,
      "Ġzmr": 2786,
      "Ġmle": 2787,
      "Ġcas": 2788,
      "Ġryt": 2789,
      "Ġvpl": 2790,
      "Ġstit": 2791,
      "ĠÅ¡im": 2792,
      "ĠÅĻel": 2793,
      "Ġzpro": 2794,
      "ĠvstÅĻe": 2795,
      "Ġlich": 2796,
      "ĠplÃ¡t": 2797,
      "ĠsmÄĽl": 2798,
      "ĠzÃºst": 2799,
      "Ġsc": 2800,
      "ĠkÅĻo": 2801,
      "Ġchro": 2802,
      "Ġptal": 2803,
      "ĠvaÅ¥": 2804,
      "Ġdlel": 2805,
      "Ġbri": 2806,
      "Ġbrem": 2807,
      "XC": 2808,
      "Ġzad": 2809,
      "Ġstic": 2810,
      "Ġkryt": 2811,
      "ĠbÄĽl": 2812,
      "Ġlok": 2813,
      "ĠvzpÃŃ": 2814,
      "Ġpek": 2815,
      "ĠzlÃ½ch": 2816,
      "ĠdÅĻi": 2817,
      "ĠpÃŃt": 2818,
      "ĠtuÅ¾": 2819,
      "Ġmlad": 2820,
      "Ġvprou": 2821,
      "ĠÅ¡ka": 2822,
      "ĠkÅ¾i": 2823,
      "ĠstkvÄĽ": 2824,
      "Ġzkve": 2825,
      "Ġmuk": 2826,
      "ĠÅ¡var": 2827,
      "Ġzrov": 2828,
      "Ġzhlou": 2829,
      "ĠbrÃ½ch": 2830,
      "ĠÄıte": 2831,
      "ĠÅ¾eÅĪ": 2832,
      "Ġschop": 2833,
      "Ġzpou": 2834,
      "ĠvÃŃk": 2835,
      "ĠkzÃ¡": 2836,
      "ĠdnÃ¡": 2837,
      "ĠznÃ¡s": 2838,
      "nÃ½": 2839,
      "Ġstlo": 2840,
      "Ġksou": 2841,
      "Ġzhoub": 2842,
      "ĠchÃ¡ch": 2843,
      "ĠstrÃ½c": 2844,
      "ĠdlÃ¡k": 2845,
      "Ġkvo": 2846,
      "ĠsmÃ½": 2847,
      "Ġtvi": 2848,
      "ĠhvÃŃ": 2849,
      "Ġrin": 2850,
      "ĠschÃ½": 2851,
      "Ġptac": 2852,
      "ĠjÃŃÅ¡": 2853,
      "Ġsvat": 2854,
      "Ġmez": 2855,
      "ur": 2856,
      "ĠstrÃ½Äį": 2857,
      "ĠpÅĻel": 2858,
      "Ġspja": 2859,
      "ĠsÃŃÄį": 2860,
      "Ġkna": 2861,
      "ĠtvÄĽ": 2862,
      "ĠvhÃ¡": 2863,
      "ĠrÅ¯m": 2864,
      "ĠvpÃ¡": 2865,
      "ĠpÅĻÃ¡l": 2866,
      "ĠlÅ¾i": 2867,
      "Ġsloup": 2868,
      "Ġzpe": 2869,
      "ĠzÃŃs": 2870,
      "Ġchlou": 2871,
      "Ġdych": 2872,
      "Ġbry": 2873,
      "Ġsuk": 2874,
      "AXAB": 2875,
      "Ġraz": 2876,
      "ĠdÅ¯v": 2877,
      "ĠsleÄį": 2878,
      "ĠvtrÃ¡": 2879,
      "ĠtÅĻÃŃk": 2880,
      "ĠlÃ¡Äį": 2881,
      "ĠmlÃ©": 2882,
      "Ġsul": 2883,
      "ĠbÃ¡z": 2884,
      "ĠjiÅ¡": 2885,
      "Ġchov": 2886,
      "Ġker": 2887,
      "ĠÅ¡ve": 2888,
      "Ġcech": 2889,
      "Ġzed": 2890,
      "ĠvzÃŃ": 2891,
      "Ġpne": 2892,
      "Ġfri": 2893,
      "Ġdlech": 2894,
      "Ġcar": 2895,
      "Ġsdu": 2896,
      "Ġpnou": 2897,
      "Ġtuj": 2898,
      "ĠvÃŃn": 2899,
      "Ġsyt": 2900,
      "Ġztu": 2901,
      "ĠsnÄĽm": 2902,
      "ĠzbÄĽ": 2903,
      "Ġvzem": 2904,
      "ĠÅĻas": 2905,
      "ĠÄįÃŃst": 2906,
      "ĠnÃŃÄį": 2907,
      "Ġzaj": 2908,
      "Ġnnu": 2909,
      "ĠzmÃ©": 2910,
      "Ġvob": 2911,
      "Ġzdob": 2912,
      "ĠÅĻku": 2913,
      "ĠdosÅ¥": 2914,
      "ĠzbÃŃ": 2915,
      "ĠshlÃŃ": 2916,
      "Ġkav": 2917,
      "Ġshr": 2918,
      "ĠmdlÃ©": 2919,
      "ĠÅ¡ÃŃp": 2920,
      "Ġkpra": 2921,
      "ĠmÄĽÅ¥": 2922,
      "Ġlka": 2923,
      "ĠtÃ½r": 2924,
      "ĠniÅ¡": 2925,
      "Ġzpla": 2926,
      "ĠÅ¡per": 2927,
      "Ġhni": 2928,
      "Ġchc": 2929,
      "Ġvslad": 2930,
      "Ġjet": 2931,
      "Ġheb": 2932,
      "Ġvv": 2933,
      "ĠbÄĽt": 2934,
      "ĠmÃŃÅ¡": 2935,
      "ĠpÅĻÃŃz": 2936,
      "Ġjsy": 2937,
      "ĠvÅ¯z": 2938,
      "Ġksmr": 2939,
      "ĠmÃ¡n": 2940,
      "Ġkdu": 2941,
      "ĠteÅĻ": 2942,
      "ĠspÅĻÃ¡": 2943,
      "Ġtrap": 2944,
      "ĠchvÄĽj": 2945,
      "ĠÅ¡pa": 2946,
      "ĠÄįÃ¡r": 2947,
      "Ġstrast": 2948,
      "Ġskrz": 2949,
      "Ġztem": 2950,
      "Äįi": 2951,
      "ĠchÅ¯m": 2952,
      "Ġrys": 2953,
      "Ġvbla": 2954,
      "Ġhov": 2955,
      "ĠjdÄĽ": 2956,
      "ĠtvÃ¡r": 2957,
      "Ġzry": 2958,
      "Ġhym": 2959,
      "Ġvstu": 2960,
      "Ġvzly": 2961,
      "Ġvpod": 2962,
      "ĠmÄĽÅĻ": 2963,
      "Ġkpa": 2964,
      "Ġkc": 2965,
      "Ġchen": 2966,
      "ĠÄįlu": 2967,
      "ĠdvÃŃ": 2968,
      "ĠvlaÅ¡": 2969,
      "Ġshro": 2970,
      "Ġzer": 2971,
      "Ġrun": 2972,
      "ĠpÃ¡l": 2973,
      "ĠdeÅĪ": 2974,
      "ĠrÃ¡Å¾": 2975,
      "ĠbÃŃt": 2976,
      "ĠkvÅ¯": 2977,
      "Ġkams": 2978,
      "Ġcvi": 2979,
      "ĠnÃ¡ct": 2980,
      "ĠÄįiÅĪ": 2981,
      "Ġcno": 2982,
      "ĠstÅ¯m": 2983,
      "Ġdoz": 2984,
      "Ġnon": 2985,
      "ĠvÃ¡r": 2986,
      "ĠvprÃ¡": 2987,
      "Ġdry": 2988,
      "Ġhnus": 2989,
      "ĠsprÃ¡v": 2990,
      "ĠnnÃ©m": 2991,
      "ĠzÅĻej": 2992,
      "ĠnitÅĻ": 2993,
      "Ġtos": 2994,
      "ĠlÅ¯v": 2995,
      "ĠsnÃ¡ch": 2996,
      "ĠmeÅĪ": 2997,
      "Ġvsl": 2998,
      "ĠbliÅ¾": 2999,
      "ĠseÄį": 3000,
      "Ġzmra": 3001,
      "ho": 3002,
      "Ġzep": 3003,
      "Ġviv": 3004,
      "ĠdvÄĽd": 3005,
      "Ġvjich": 3006,
      "Ġgic": 3007,
      "Ġnni": 3008,
      "ĠrÃ¡l": 3009,
      "Ġzdroj": 3010,
      "ĠhÅĻeb": 3011,
      "ĠchlÃŃ": 3012,
      "ĠchÅĻe": 3013,
      "Ġak": 3014,
      "ĠnoÅ¡": 3015,
      "DE": 3016,
      "lÃŃz": 3017,
      "ĠfÃŃ": 3018,
      "Ġsdru": 3019,
      "ĠvÄįel": 3020,
      "ĠptÃ¡Äį": 3021,
      "ĠruÅ¥": 3022,
      "Ġzdech": 3023,
      "Ġtvy": 3024,
      "ĠruÅ¡": 3025,
      "Ġvlk": 3026,
      "Ġih": 3027,
      "ĠdÃ¡r": 3028,
      "Ġros": 3029,
      "ĠzÅĻÃŃd": 3030,
      "ĠtÅĻit": 3031,
      "Ġchly": 3032,
      "Ġplav": 3033,
      "Ġvlid": 3034,
      "ĠmÃ¡Å¾": 3035,
      "Ġkod": 3036,
      "Ġzhas": 3037,
      "ĠlÃŃt": 3038,
      "Ġzblou": 3039,
      "Ġslit": 3040,
      "ĠdrÃ½m": 3041,
      "Ġgr": 3042,
      "ĠctÄĽ": 3043,
      "ĠvÃŃt": 3044,
      "Ġshle": 3045,
      "Ġvde": 3046,
      "ĠÅĪÃ¡t": 3047,
      "Ġtros": 3048,
      "ĠsdÃŃ": 3049,
      "Ġvid": 3050,
      "ĠvrÅ¯": 3051,
      "Ġrag": 3052,
      "ĠskvÃŃ": 3053,
      "Ġluk": 3054,
      "ĠlÃ¡Å¡": 3055,
      "ĠshÃ¡": 3056,
      "Ġvsla": 3057,
      "ĠdÃ³": 3058,
      "ĠpÃ¡ch": 3059,
      "ĠstrÃ½m": 3060,
      "is": 3061,
      "ĠktÃ©": 3062,
      "ĠÃ¡n": 3063,
      "ĠduÅ¡": 3064,
      "Ġcov": 3065,
      "Ġdcer": 3066,
      "Ġzmat": 3067,
      "Ġvzcho": 3068,
      "ĠvlasÅ¥": 3069,
      "ĠsklÃŃ": 3070,
      "Ġrtu": 3071,
      "Ġsvy": 3072,
      "ĠÃ¡l": 3073,
      "Ġdnech": 3074,
      "ĠkÃ©n": 3075,
      "ĠstÃ¡ch": 3076,
      "Ġkrad": 3077,
      "Ġvzty": 3078,
      "Ġtlum": 3079,
      "ĠnÃ©st": 3080,
      "Ġshlu": 3081,
      "Ġdvod": 3082,
      "ĠzvÃ½": 3083,
      "Ġdus": 3084,
      "ĠvpouÅ¡": 3085,
      "ĠtÃŃk": 3086,
      "ĠkpÅĻe": 3087,
      "Ġhrot": 3088,
      "Ġtep": 3089,
      "Ġron": 3090,
      "ĠÅĪÅ¯": 3091,
      "ĠzÅĪa": 3092,
      "ĠzliÄį": 3093,
      "AAXA": 3094,
      "Ġmut": 3095,
      "ĠhÃ¡Äį": 3096,
      "Ġsop": 3097,
      "Ġznak": 3098,
      "Ġgy": 3099,
      "ĠsÅ¾e": 3100,
      "Ġtrav": 3101,
      "ĠzrÅ¯": 3102,
      "Ġvzra": 3103,
      "ĠtrÃ½z": 3104,
      "Ġkvas": 3105,
      "Ġoc": 3106,
      "ĠsbÄĽ": 3107,
      "Ġtroc": 3108,
      "Ġvok": 3109,
      "ĠvnÃ¡s": 3110,
      "ĠzaÅ¡": 3111,
      "ĠzbÃ½": 3112,
      "ABXB": 3113,
      "ĠnÃ¡k": 3114,
      "Ġvzro": 3115,
      "XAXABB": 3116,
      "Ġmit": 3117,
      "Ġkvap": 3118,
      "ĠÄįÃŃc": 3119,
      "Ġsrov": 3120,
      "Ġzvou": 3121,
      "ĠzlÃ½m": 3122,
      "ĠveÄı": 3123,
      "ĠbrÃ½m": 3124,
      "Ġdub": 3125,
      "Ġvty": 3126,
      "ĠsÅ¡": 3127,
      "ĠÄįan": 3128,
      "ĠmdlÃ½": 3129,
      "Ġcle": 3130,
      "Ġklek": 3131,
      "Ġpost": 3132,
      "Ġvhr": 3133,
      "ĠnÃ¡Äį": 3134,
      "Ġvzor": 3135,
      "ĠsnÃŃt": 3136,
      "ĠvÃ©st": 3137,
      "Ġkji": 3138,
      "ĠrÃ¡Å¡": 3139,
      "ĠzpÅĻÃŃ": 3140,
      "Ġstol": 3141,
      "ĠÅ¡ÃŃj": 3142,
      "ĠvzlÃ©": 3143,
      "ĠlesÅ¥": 3144,
      "ĠklÃ½ch": 3145,
      "Ġdnou": 3146,
      "ĠhÅĻmo": 3147,
      "Ġmyl": 3148,
      "ĠfÃ¡m": 3149,
      "ĠvdÃŃ": 3150,
      "Ġvmou": 3151,
      "Ġvstra": 3152,
      "ĠhÃ¡r": 3153,
      "Ġvzi": 3154,
      "ĠÅĻev": 3155,
      "Ġspad": 3156,
      "ĠnnÃŃm": 3157,
      "ĠsuÄı": 3158,
      "Ġstev": 3159,
      "ĠkÅĻiÅ¡": 3160,
      "ĠchuÅ¥": 3161,
      "ĠskÅĻe": 3162,
      "ĠvznÃŃ": 3163,
      "Ġksp": 3164,
      "Ġvjas": 3165,
      "Ġsig": 3166,
      "ĠvzkÅĻik": 3167,
      "Ġvmu": 3168,
      "ĠhÅĻÃ¡": 3169,
      "Ġdlil": 3170,
      "ĠÅ¡lÃ½ch": 3171,
      "ĠkÃ©s": 3172,
      "Ġprost": 3173,
      "ĠvkrÃ¡t": 3174,
      "Ġser": 3175,
      "Ġknout": 3176,
      "ĠkaÅĻ": 3177,
      "Ġpej": 3178,
      "Ġom": 3179,
      "ĠtvÃŃm": 3180,
      "Ġsedm": 3181,
      "Ġjra": 3182,
      "Ġvous": 3183,
      "Ġchm": 3184,
      "CCB": 3185,
      "ĠstrÅ¯": 3186,
      "ĠleÅĪ": 3187,
      "ĠvslÃ¡": 3188,
      "ĠvkvÄĽ": 3189,
      "ĠÄįeÅ¾": 3190,
      "ĠÅ¾luÄį": 3191,
      "ĠzahÅĻ": 3192,
      "ĠdÅ¾": 3193,
      "Ġvlet": 3194,
      "Ġrozv": 3195,
      "ĠkÅĻeh": 3196,
      "ĠnouÅ¥": 3197,
      "Ġvbi": 3198,
      "Ġsep": 3199,
      "Ġprah": 3200,
      "Ġvhrob": 3201,
      "Ġpych": 3202,
      "ĠknÃ©": 3203,
      "Ġrva": 3204,
      "ĠplÃ¡ÅĪ": 3205,
      "Ġton": 3206,
      "Ġskryt": 3207,
      "ĠÃºc": 3208,
      "Ġsz": 3209,
      "ĠmÄĽn": 3210,
      "ĠkrÄį": 3211,
      "Ġen": 3212,
      "Ġrto": 3213,
      "ĠbÃ¡k": 3214,
      "Ġkch": 3215,
      "ĠÅ¡ej": 3216,
      "Ġstoup": 3217,
      "ĠbrÅ¾": 3218,
      "ĠleÅ¥": 3219,
      "Ġbos": 3220,
      "ĠtlÃ½ch": 3221,
      "Ġknih": 3222,
      "Ġzf": 3223,
      "ĠÅ¡lÃ¡": 3224,
      "ĠvÃ¡z": 3225,
      "Ġboun": 3226,
      "ĠÅ¾ert": 3227,
      "ĠspÅĻe": 3228,
      "Ġston": 3229,
      "ĠstrÃ½ch": 3230,
      "Ġkras": 3231,
      "ĠvzduÅ¡": 3232,
      "ĠstkvÃŃ": 3233,
      "ĠÅ¡al": 3234,
      "ĠtÅĻes": 3235,
      "ĠsÃ¡t": 3236,
      "Ġvkraj": 3237,
      "Ġspas": 3238,
      "ĠvchÃ¡": 3239,
      "ĠnÃŃc": 3240,
      "Ġbech": 3241,
      "ĠleÅ¡": 3242,
      "Ġkur": 3243,
      "Ġcin": 3244,
      "ĠvsvÃ½ch": 3245,
      "ĠhÅĻbe": 3246,
      "Ġvsluch": 3247,
      "ĠctnÃ©": 3248,
      "Ġsvel": 3249,
      "Ġsst": 3250,
      "Ġban": 3251,
      "Ġvzma": 3252,
      "Ġpus": 3253,
      "Ġzkra": 3254,
      "Ġzdar": 3255,
      "Ġkvr": 3256,
      "ĠzvÃ¡s": 3257,
      "Ġkrk": 3258,
      "Ġris": 3259,
      "ĠvÅ¾a": 3260,
      "Ġzhr": 3261,
      "ĠhrÃ¡d": 3262,
      "ĠvzkÅĻÃŃ": 3263,
      "Ã¡z": 3264,
      "ĠdÄĽk": 3265,
      "Ġsvla": 3266,
      "Ġsup": 3267,
      "ĠpÄĽst": 3268,
      "ĠvrÃ¡t": 3269,
      "ĠdiÅ¡": 3270,
      "Ġzur": 3271,
      "Ġzbi": 3272,
      "Ġhoun": 3273,
      "ĠnÃŃmÅ¾": 3274,
      "ĠzlÅ¯": 3275,
      "Ġbyv": 3276,
      "ĠhÃ¡Å¡": 3277,
      "Ġstin": 3278,
      "ACD": 3279,
      "Ġvhloub": 3280,
      "ĠvztÃ¡": 3281,
      "Ġvzpom": 3282,
      "Ġzvyk": 3283,
      "ĠpÅĻedc": 3284,
      "ĠvzdÄĽ": 3285,
      "Ġzbyt": 3286,
      "Ġschu": 3287,
      "Ġhvi": 3288,
      "ĠvnÄĽj": 3289,
      "ĠvÄįa": 3290,
      "Ġsja": 3291,
      "Ġvnej": 3292,
      "Ġuj": 3293,
      "ĠzvrÃ¡": 3294,
      "Ġput": 3295,
      "ĠrvÃ¡": 3296,
      "ĠlhÃ¡": 3297,
      "Ġsah": 3298,
      "Ġvhou": 3299,
      "ĠÄįnÄĽ": 3300,
      "ĠlÃ³": 3301,
      "Ġbok": 3302,
      "ĠkoÄį": 3303,
      "Ġpuk": 3304,
      "ĠÅ¥o": 3305,
      "ĠkcÃŃ": 3306,
      "ĠtnÄĽ": 3307,
      "ĠstÅĻ": 3308,
      "Ġlon": 3309,
      "ĠjlÃŃ": 3310,
      "Ġrob": 3311,
      "Ġtvar": 3312,
      "ĠvÄįi": 3313,
      "ĠÅ¥al": 3314,
      "ĠvsvÄĽt": 3315,
      "ĠzkrÃ¡t": 3316,
      "ĠnÃ¡v": 3317,
      "ĠnÄĽt": 3318,
      "Ġvnik": 3319,
      "ĠpouÅ¡Å¥": 3320,
      "Ġtrs": 3321,
      "ĠmÃ³": 3322,
      "ĠlosÅ¥": 3323,
      "ĠktÄĽ": 3324,
      "Ġzta": 3325,
      "ĠvklÃ¡": 3326,
      "Ġvzbou": 3327,
      "AE": 3328,
      "ĠpatÅĻ": 3329,
      "ĠhlÃ¡s": 3330,
      "Ġzpup": 3331,
      "ĠtÃ½Å¾": 3332,
      "Ġvhra": 3333,
      "ĠÅ¾d": 3334,
      "ĠpÃŃr": 3335,
      "ĠnÅ¯Å¾": 3336,
      "Ġtho": 3337,
      "ĠpiÅ¡": 3338,
      "Ġsnou": 3339,
      "Ġmnoh": 3340,
      "ĠhlÃ½m": 3341,
      "ĠdouÅ¡": 3342,
      "Ġzmoc": 3343,
      "Ġdmou": 3344,
      "ĠlÃŃst": 3345,
      "ĠÅ¾ol": 3346,
      "ĠÅ¾lou": 3347,
      "Ġlym": 3348,
      "Ġmlk": 3349,
      "my": 3350,
      "ĠlaÅĪ": 3351,
      "ĠbuÅ¥": 3352,
      "ĠdÄĽÄį": 3353,
      "ĠloÅ¾": 3354,
      "Ġvbez": 3355,
      "ĠvpÄĽ": 3356,
      "ĠrÅ¯Å¾": 3357,
      "Ġstrov": 3358,
      "ĠchlÃ½": 3359,
      "ABX": 3360,
      "Ġplul": 3361,
      "Ġhrst": 3362,
      "Ġskrov": 3363,
      "Ġbz": 3364,
      "ĠkÃ¡t": 3365,
      "Ġpij": 3366,
      "ĠÅ¡ku": 3367,
      "ĠkmÄĽ": 3368,
      "ĠkÃ¡s": 3369,
      "ĠsvÃ¡r": 3370,
      "Ġsos": 3371,
      "Ġkrot": 3372,
      "Ġvsmut": 3373,
      "ĠvaÄį": 3374,
      "Ġbub": 3375,
      "Ġvzo": 3376,
      "Ġvmla": 3377,
      "Ġzbyl": 3378,
      "Ġspat": 3379,
      "Ġnan": 3380,
      "ĠÄįiÅ¡": 3381,
      "Ġzbroj": 3382,
      "ĠtouÅ¾": 3383,
      "ĠvmlÃ¡": 3384,
      "Ġlob": 3385,
      "ĠlÃ¡ÅĻ": 3386,
      "Ġdral": 3387,
      "ĠÅ¾Ã¡t": 3388,
      "ĠslÃ¡b": 3389,
      "Ġvjiz": 3390,
      "Ġdvoj": 3391,
      "ĠzlÃ¡s": 3392,
      "vÃ½": 3393,
      "ĠrÅ¯v": 3394,
      "Ġpso": 3395,
      "Ġrce": 3396,
      "Ġmrs": 3397,
      "ĠbÃ½m": 3398,
      "Ġztro": 3399,
      "Ġsnech": 3400,
      "ĠviÄı": 3401,
      "ĠvtÃŃ": 3402,
      "ĠhÅ¯ÅĻ": 3403,
      "ĠtÄĽt": 3404,
      "ĠpsÃŃ": 3405,
      "ĠtÃŃn": 3406,
      "Ġshon": 3407,
      "ĠÅ¯": 3408,
      "ĠseÅ¡": 3409,
      "Ġgan": 3410,
      "ĠveÄį": 3411,
      "Ġlly": 3412,
      "Ġdes": 3413,
      "ĠbÃ½ch": 3414,
      "ĠÅ¥te": 3415,
      "ĠvzchÃ¡": 3416,
      "Ġzkla": 3417,
      "Ġtisk": 3418,
      "Ġvzou": 3419,
      "ĠkouÅĻ": 3420,
      "Ġchcem": 3421,
      "Ġzdvo": 3422,
      "Ġvnoc": 3423,
      "Ġuc": 3424,
      "Ġproz": 3425,
      "Ġslek": 3426,
      "21": 3427,
      "ĠksvÄĽ": 3428,
      "Ġhav": 3429,
      "ĠtÅĻel": 3430,
      "Ġpruh": 3431,
      "Ġdeb": 3432,
      "ĠÄįeÅ¡": 3433,
      "ĠÅĻli": 3434,
      "ABABAC": 3435,
      "ĠpiÄį": 3436,
      "ĠÅ¡tva": 3437,
      "Ġskvou": 3438,
      "ĠvtÃ½": 3439,
      "ĠrdÄĽ": 3440,
      "ĠrdÃŃ": 3441,
      "Ġchru": 3442,
      "ĠÅ¡kÅ¯d": 3443,
      "Ġjav": 3444,
      "Ġnep": 3445,
      "Ġlup": 3446,
      "Ġvkle": 3447,
      "Ġsru": 3448,
      "ĠÅ¡ad": 3449,
      "Ġhel": 3450,
      "ĠvstaÅĪ": 3451,
      "Ġdam": 3452,
      "ĠbÄĽs": 3453,
      "ĠvÅ¾Ã¡": 3454,
      "ĠpÅĻil": 3455,
      "Ġslep": 3456,
      "Ġah": 3457,
      "ĠÅĻiv": 3458,
      "Ġrval": 3459,
      "ĠkmÃŃ": 3460,
      "ĠjeÄį": 3461,
      "Ġvtmu": 3462,
      "Ġbot": 3463,
      "ĠhÅĻi": 3464,
      "Ġvplen": 3465,
      "ĠmÅ¡": 3466,
      "ĠhrÃ¡z": 3467,
      "Ġpsy": 3468,
      "ĠvchvÃŃ": 3469,
      "ĠvzÃŃt": 3470,
      "Ġpust": 3471,
      "Ġzyl": 3472,
      "Ġmes": 3473,
      "Ġdri": 3474,
      "Ġsin": 3475,
      "Ġam": 3476,
      "Ġbouk": 3477,
      "ĠjdeÅ¡": 3478,
      "ĠznÃŃÅ¾": 3479,
      "ĠchtÃŃt": 3480,
      "ĠfÃ©": 3481,
      "Ġjih": 3482,
      "ĠÅ¡ev": 3483,
      "ĠvÄĽd": 3484,
      "ĠrÃ¡n": 3485,
      "Ġzleh": 3486,
      "Ġbzu": 3487,
      "Ġlip": 3488,
      "Ġmer": 3489,
      "ĠpÅ¯t": 3490,
      "lÃ©d": 3491,
      "ĠznÃ¡t": 3492,
      "Ġvkli": 3493,
      "ĠrouÅ¡": 3494,
      "ĠrÃ©Å¾": 3495,
      "ĠcÃ©": 3496,
      "Ġspr": 3497,
      "ĠvÃ½z": 3498,
      "Ġflo": 3499,
      "Ġvkni": 3500,
      "ĠvzÅĪa": 3501,
      "Ġvkout": 3502,
      "Ġtar": 3503,
      "ĠdlÃ©m": 3504,
      "Ġkok": 3505,
      "ĠdÅ¾b": 3506,
      "Ġpluh": 3507,
      "iv": 3508,
      "ĠÅ¡lÃ½": 3509,
      "Ġskem": 3510,
      "Ġnin": 3511,
      "Ġhyz": 3512,
      "Ġdas": 3513,
      "Ġchor": 3514,
      "ĠklÃŃÄį": 3515,
      "Ġzjas": 3516,
      "Ġmag": 3517,
      "Ġbas": 3518,
      "ĠvtvÃ©m": 3519,
      "ĠhÅĻbet": 3520,
      "ĠlaÅ¡": 3521,
      "Ġvba": 3522,
      "ĠbÃ¡n": 3523,
      "Ġshni": 3524,
      "ĠkprÃ¡": 3525,
      "Ġvzdych": 3526,
      "ĠzÅ¾ÃŃ": 3527,
      "ĠÅ¡ed": 3528,
      "Ġvzm": 3529,
      "Ġvznes": 3530,
      "ĠÅ¾in": 3531,
      "ĠzdvÃŃ": 3532,
      "ĠstÃ½s": 3533,
      "Ġskvr": 3534,
      "Ġlau": 3535,
      "Ġpri": 3536,
      "Ġznej": 3537,
      "ĠzvÃ¡n": 3538,
      "ĠsÅĪ": 3539,
      "Ġcud": 3540,
      "Ġpach": 3541,
      "Ġvtma": 3542,
      "Ġzbor": 3543,
      "ĠhvÃŃz": 3544,
      "ry": 3545,
      "Ġskryl": 3546,
      "ĠtkÃ¡": 3547,
      "ĠkÃ½Å¾": 3548,
      "Ġhout": 3549,
      "Ġzdlou": 3550,
      "ĠÅĻÃŃk": 3551,
      "Ġvre": 3552,
      "ĠtmÃ¡ch": 3553,
      "ĠtÃ³n": 3554,
      "Ġstrun": 3555,
      "Ġkvla": 3556,
      "Ġhev": 3557,
      "ĠrtÃŃ": 3558,
      "Ġthu": 3559,
      "ĠvaÅ¾": 3560,
      "Ġzmar": 3561,
      "Ġet": 3562,
      "Ġvoz": 3563,
      "ĠchaÅĻ": 3564,
      "Ġvsmr": 3565,
      "Ġmru": 3566,
      "Ġskvo": 3567,
      "ĠsÄį": 3568,
      "ĠkvÄĽl": 3569,
      "Ġshor": 3570,
      "Ġzhla": 3571,
      "Ġrtem": 3572,
      "ĠvÅĻen": 3573,
      "ĠÅ¡lel": 3574,
      "ĠknÃŃÅ¾": 3575,
      "ĠÅ¾ou": 3576,
      "ĠmyÅ¡": 3577,
      "Ġzkad": 3578,
      "Ġtrub": 3579,
      "Ġske": 3580,
      "Ġtrhl": 3581,
      "ĠdÄĽÅ¥": 3582,
      "Ġtrok": 3583,
      "Ġvspo": 3584,
      "Ġvos": 3585,
      "ĠprÃ½Å¡": 3586,
      "ĠÅ¾h": 3587,
      "ĠvztÄĽ": 3588,
      "ĠzÃŃÅ¡": 3589,
      "Ġrot": 3590,
      "Ġsply": 3591,
      "Ġskli": 3592,
      "ĠtrÃ©": 3593,
      "ĠvÃŃd": 3594,
      "Ġab": 3595,
      "Ġbuz": 3596,
      "Ġpic": 3597,
      "Ġfon": 3598,
      "Ġmls": 3599,
      "ĠjÅ¯m": 3600,
      "Ġspod": 3601,
      "Ġgro": 3602,
      "Ġkj": 3603,
      "ĠÅ¡ÃŃc": 3604,
      "Ġbav": 3605,
      "ĠshÅ¯": 3606,
      "Ġzvr": 3607,
      "ÅĻad": 3608,
      "Ġsnes": 3609,
      "ĠÃ©": 3610,
      "Ġoj": 3611,
      "ĠstlÃ¡": 3612,
      "Ġgen": 3613,
      "ĠbrÃ¡t": 3614,
      "Ġchech": 3615,
      "Ġvg": 3616,
      "ĠzÄį": 3617,
      "Ġvble": 3618,
      "ĠssÃ¡": 3619,
      "Ġzbou": 3620,
      "Ġtroj": 3621,
      "ĠnnÃŃch": 3622,
      "ĠvsnÃ¡": 3623,
      "Ġchout": 3624,
      "ĠdlÃŃm": 3625,
      "ĠvsvÅ¯j": 3626,
      "AD": 3627,
      "ĠpeÅĪ": 3628,
      "Ġvtm": 3629,
      "jal": 3630,
      "ĠzÃ©": 3631,
      "ĠsrÃ¡z": 3632,
      "Ġvtou": 3633,
      "ĠbÃŃm": 3634,
      "Ġmis": 3635,
      "ĠtmÃŃ": 3636,
      "Ġryk": 3637,
      "ĠslÃ¡s": 3638,
      "ĠchlÃ½m": 3639,
      "Ġknut": 3640,
      "Ġryl": 3641,
      "ĠrÃ¡ÅĻ": 3642,
      "ĠÅ¡tvÃ¡": 3643,
      "ĠvtÄĽÅ¾": 3644,
      "Ġtles": 3645,
      "ĠvtvÃ©": 3646,
      "ĠzkÅĻi": 3647,
      "ĠvtmÃ¡ch": 3648,
      "ĠrtÅ¯m": 3649,
      "ĠlÃŃÅĻ": 3650,
      "ĠkÄįi": 3651,
      "Ġrep": 3652,
      "Ġjun": 3653,
      "ĠpÅ¯m": 3654,
      "ĠtÄĽk": 3655,
      "Ġzez": 3656,
      "Ġroc": 3657,
      "ĠmÅ¡i": 3658,
      "ĠchÅĻÃŃ": 3659,
      "Ġklel": 3660,
      "ĠvsnÃ¡ch": 3661,
      "Ġdaj": 3662,
      "ĠptÃ¡m": 3663,
      "ĠbÅĻit": 3664,
      "mut": 3665,
      "Ġdout": 3666,
      "ĠksmÃŃ": 3667,
      "ĠstlÃ©": 3668,
      "ĠhÃ¡v": 3669,
      "ĠvsÃŃÅĪ": 3670,
      "ĠchÃ¡Å¡": 3671,
      "ĠstÃ½ÅĻ": 3672,
      "ĠÅĻka": 3673,
      "Ġkvy": 3674,
      "ĠtrÃ¡v": 3675,
      "ĠkÅ¾": 3676,
      "ĠdeÅĻ": 3677,
      "Ġzes": 3678,
      "ĠdceÅĻ": 3679,
      "Ġroh": 3680,
      "ĠhraÄį": 3681,
      "Ġjdem": 3682,
      "ĠsÃ¡ch": 3683,
      "Ġboh": 3684,
      "ĠstÃ¡d": 3685,
      "Ġmhou": 3686,
      "Ġvzda": 3687,
      "Ġnald": 3688,
      "Ġbrav": 3689,
      "Ġrab": 3690,
      "ĠpÅĻen": 3691,
      "ĠbÃ¡Å¡": 3692,
      "vÃ½m": 3693,
      "Ġmet": 3694,
      "Ġprst": 3695,
      "ĠÅ¾ra": 3696,
      "ĠnÃ¡l": 3697,
      "Ġchan": 3698,
      "Ġzoub": 3699,
      "Ġrmut": 3700,
      "Ġcva": 3701,
      "Ġmej": 3702,
      "Ġzrn": 3703,
      "Ġeh": 3704,
      "ĠÅ¡ou": 3705,
      "Ġvnez": 3706,
      "ĠÅ¡kol": 3707,
      "Ġem": 3708,
      "Ġcher": 3709,
      "ĠkvÃ¡": 3710,
      "Ġhnou": 3711,
      "ĠsnaÅ¾": 3712,
      "Ġland": 3713,
      "Ġvdlou": 3714,
      "ĠmdlÃ¡": 3715,
      "ĠÄįÅ¯m": 3716,
      "ka": 3717,
      "Ġvden": 3718,
      "ĠbÃ½Å¥": 3719,
      "ĠÅ¾va": 3720,
      "ĠÅĻÃŃd": 3721,
      "ĠflÃŃ": 3722,
      "Ġfau": 3723,
      "ĠkdÃŃ": 3724,
      "ĠsmÃ¡t": 3725,
      "ĠstvÃ©": 3726,
      "Ġtsk": 3727,
      "ĠdrÃ©m": 3728,
      "ĠstÃ¡n": 3729,
      "ĠzvÅ¯": 3730,
      "Ġdrak": 3731,
      "Ġkhro": 3732,
      "ĠlÅ¾e": 3733,
      "ĠkÃ½v": 3734,
      "ABABC": 3735,
      "ĠchvÄĽt": 3736,
      "Ġvlou": 3737,
      "ĠpÅĻev": 3738,
      "ĠplaÄį": 3739,
      "ĠktÄĽm": 3740,
      "ĠlÃ¡k": 3741,
      "Ġsroz": 3742,
      "Ġcer": 3743,
      "ĠpasÅ¥": 3744,
      "Ġzjed": 3745,
      "ĠÅĻÃ¡n": 3746,
      "Ġvzej": 3747,
      "ĠhÅĻmot": 3748,
      "ĠzÃ¡Å¡Å¥": 3749,
      "Ġskok": 3750,
      "ĠvzplÃ¡l": 3751,
      "ĠmstÃŃ": 3752,
      "on": 3753,
      "Ġmha": 3754,
      "Ġloup": 3755,
      "ĠkslÃ¡": 3756,
      "ĠdÃ©Äį": 3757,
      "Ġhoum": 3758,
      "ĠmÃŃÅĪ": 3759,
      "ĠvzpÅĻÃŃ": 3760,
      "Ġkrej": 3761,
      "Ġfat": 3762,
      "Ġzlil": 3763,
      "Ġglo": 3764,
      "ĠÅ¾eÅ¥": 3765,
      "ĠshÃ½": 3766,
      "ĠvmÃ½ch": 3767,
      "ĠpÅĻa": 3768,
      "Ġstiv": 3769,
      "mÃŃ": 3770,
      "Ġkluk": 3771,
      "ĠdrÅ¾": 3772,
      "Ġvcha": 3773,
      "Ġvpar": 3774,
      "Ġvnes": 3775,
      "ĠslÃŃÅ¡": 3776,
      "ĠvjÃŃ": 3777,
      "ĠvprÃ¡z": 3778,
      "Ġvrhl": 3779,
      "Ġae": 3780,
      "Ġzpy": 3781,
      "ĠkaÅ¡": 3782,
      "ĠmuÅ¡": 3783,
      "ĠtÅĻiv": 3784,
      "ĠÄįou": 3785,
      "ĠcÃŃÅĻ": 3786,
      "Ġdrem": 3787,
      "Ġment": 3788,
      "ĠlÅ¾ÃŃ": 3789,
      "ĠvztÃ½": 3790,
      "Ġtet": 3791,
      "ĠdnÃ½ch": 3792,
      "ĠtÄĽÅ¡": 3793,
      "ĠzblÃŃz": 3794,
      "ĠskrÃ½Å¡": 3795,
      "Ġkyn": 3796,
      "Ġvzhled": 3797,
      "ĠjitÅĻ": 3798,
      "ĠkÅ¡ti": 3799,
      "Ġbah": 3800,
      "ĠjÃŃz": 3801,
      "nech": 3802,
      "Ġvtis": 3803,
      "Ġhnul": 3804,
      "ĠvhouÅ¡": 3805,
      "ĠniÅ¥": 3806,
      "Ġsod": 3807,
      "Ġchvo": 3808,
      "ĠsÃ¡l": 3809,
      "Ġjist": 3810,
      "ĠsÅ¯v": 3811,
      "ĠtÃ¡l": 3812,
      "Ġtvu": 3813,
      "Ġsai": 3814,
      "ĠvznÄĽt": 3815,
      "Ġuv": 3816,
      "Ġsok": 3817,
      "Ġpsi": 3818,
      "Ġex": 3819,
      "ĠÅ¡kr": 3820,
      "Ġvhor": 3821,
      "ACCD": 3822,
      "ĠtÅĻti": 3823,
      "Ġsji": 3824,
      "Ġrmou": 3825,
      "Ġvoh": 3826,
      "ĠvÅĻÃŃt": 3827,
      "ĠsmyÄį": 3828,
      "ĠspÅĻÃŃ": 3829,
      "Ġvlek": 3830,
      "XABA": 3831,
      "Ġdlen": 3832,
      "ĠsmÃŃr": 3833,
      "Ġzvla": 3834,
      "Ġtik": 3835,
      "ĠzÃ¡n": 3836,
      "ĠkrÃ©": 3837,
      "Ġeu": 3838,
      "Ġchval": 3839,
      "Ġzkte": 3840,
      "Ġchud": 3841,
      "ĠdiÅ¥": 3842,
      "ĠstÅĻem": 3843,
      "ĠvyÅĻ": 3844,
      "ran": 3845,
      "ĠzÅ¡e": 3846,
      "ĠchÃ¡z": 3847,
      "ĠhÅĻÃŃÄį": 3848,
      "ĠpÃ½ch": 3849,
      "Ġhed": 3850,
      "Ġhos": 3851,
      "ĠtkvÃŃ": 3852,
      "XAXBXB": 3853,
      "Ġzyt": 3854,
      "ĠÅ¡pÃŃ": 3855,
      "Ġjes": 3856,
      "Ġhvozd": 3857,
      "Ġnar": 3858,
      "Ġkob": 3859,
      "Ġpech": 3860,
      "Ġnis": 3861,
      "ĠÄįap": 3862,
      "Ġcour": 3863,
      "ĠstÄĽj": 3864,
      "ĠvmÃ¡": 3865,
      "ĠÅ¾Å¯m": 3866,
      "Ġtol": 3867,
      "Ġhus": 3868,
      "ĠlÃ©t": 3869,
      "Ġvmr": 3870,
      "pÃŃ": 3871,
      "ĠÅ¾iÄį": 3872,
      "Ġztich": 3873,
      "Ġssa": 3874,
      "Ġsmlou": 3875,
      "Ġsvaz": 3876,
      "Ġzroz": 3877,
      "Ġlout": 3878,
      "ĠÅĻiÄį": 3879,
      "ĠbÃŃn": 3880,
      "ĠpÃ½m": 3881,
      "ABAX": 3882,
      "Ġdre": 3883,
      "ĠÅĪou": 3884,
      "ĠÅĻÃŃÅ¾": 3885,
      "ĠvhrÅ¯": 3886,
      "ĠkrÃ¡m": 3887,
      "ĠklÃ©m": 3888,
      "Ġtmu": 3889,
      "Ġzsi": 3890,
      "ri": 3891,
      "ĠÄįerv": 3892,
      "Ġrvou": 3893,
      "Ġvkom": 3894,
      "Ġpop": 3895,
      "ĠvÃ¡ÅĻ": 3896,
      "Ġhaj": 3897,
      "Ġhub": 3898,
      "Ġklep": 3899,
      "ĠÄįlun": 3900,
      "Ġtuch": 3901,
      "ĠvhnÄĽ": 3902,
      "ĠlaÅ¥": 3903,
      "ĠvÅ¡tÄĽ": 3904,
      "Ġkvil": 3905,
      "Ġdc": 3906,
      "Ġmur": 3907,
      "Ġbvy": 3908,
      "ĠpÅĻijÄı": 3909,
      "ĠvlaÅ¾": 3910,
      "Ġztmy": 3911,
      "ĠzÃŃr": 3912,
      "Ġhmy": 3913,
      "Ġsvod": 3914,
      "Ġsliv": 3915,
      "Ġsbra": 3916,
      "ĠkosÅ¥": 3917,
      "Ġpyt": 3918,
      "ĠstlÃ½": 3919,
      "Ġzach": 3920,
      "ĠvkrÄį": 3921,
      "ĠlÃ©k": 3922,
      "AXXA": 3923,
      "ĠnuÅ¡": 3924,
      "ĠdlaÅ¾": 3925,
      "ĠvztÃ¡h": 3926,
      "ĠslÅ¯v": 3927,
      "ĠzdÅĻÃŃ": 3928,
      "Ġvslo": 3929,
      "ĠnebÅ¥": 3930,
      "Ġzly": 3931,
      "ĠzÃ¡c": 3932,
      "Ġzc": 3933,
      "Ġdvr": 3934,
      "ĠtroÅ¡": 3935,
      "nul": 3936,
      "ĠvdÅ¯": 3937,
      "ĠspouÅ¡": 3938,
      "Å¡ech": 3939,
      "Ġkpro": 3940,
      "ĠÅ¡piÄį": 3941,
      "Ġvly": 3942,
      "Ġvdru": 3943,
      "Ġsmra": 3944,
      "Ġrra": 3945,
      "ĠsÅĪa": 3946,
      "Ġkrb": 3947,
      "ĠmÃ¡k": 3948,
      "ĠvlÃŃc": 3949,
      "Ġstvem": 3950,
      "ĠtÃ½d": 3951,
      "ĠfÅ¯": 3952,
      "Ġzisk": 3953,
      "Ġzci": 3954,
      "Ġoct": 3955,
      "ĠpÄĽn": 3956,
      "ĠdbÃ¡": 3957,
      "ĠkdÄĽ": 3958,
      "AABA": 3959,
      "Ġkja": 3960,
      "Ġvzpou": 3961,
      "ĠtÃŃh": 3962,
      "ĠvdlaÅĪ": 3963,
      "Ġat": 3964,
      "Ġmraz": 3965,
      "Ġzpit": 3966,
      "ĠtÅĻesk": 3967,
      "Ġlha": 3968,
      "Ġvsko": 3969,
      "Ġschy": 3970,
      "Ġpluk": 3971,
      "ĠstvÅ¯": 3972,
      "Ġslid": 3973,
      "ĠtÃ¡Å¡": 3974,
      "ĠdvÃ¡b": 3975,
      "Ġcouz": 3976,
      "ĠzÅ¡": 3977,
      "Ġzmla": 3978,
      "Ġvpoz": 3979,
      "Ġkpr": 3980,
      "ĠzdÃ¡r": 3981,
      "Ġsrn": 3982,
      "Ġchop": 3983,
      "ĠÅ¡ar": 3984,
      "Ġtluk": 3985,
      "Ġgli": 3986,
      "ĠdlÃ½m": 3987,
      "Ġvnuk": 3988,
      "Ġkmu": 3989,
      "ĠskaÅ¾": 3990,
      "ĠÄįeÅ¥": 3991,
      "ĠvtÃ¡": 3992,
      "Ġkbra": 3993,
      "Ġtup": 3994,
      "ĠÄįÃŃn": 3995,
      "ĠstÅ¯v": 3996,
      "Ġzvod": 3997,
      "ĠÅ¾ÃŃc": 3998,
      "ĠÄįli": 3999,
      "ĠÅĻÃ¡t": 4000,
      "Ġkuj": 4001,
      "Ġuh": 4002,
      "Ġgal": 4003,
      "ĠkbÅĻe": 4004,
      "ĠzkvÄĽ": 4005,
      "Ġstrop": 4006,
      "Ġdba": 4007,
      "Ġlvo": 4008,
      "AAAB": 4009,
      "ĠliÅ¾": 4010,
      "Ġsol": 4011,
      "Ġmlh": 4012,
      "vÃ½ch": 4013,
      "Ġric": 4014,
      "ĠÅ¾ÃŃn": 4015,
      "Ġtoul": 4016,
      "ĠbÃ¡v": 4017,
      "ĠcvÃ¡": 4018,
      "ĠdrÅ¯": 4019,
      "ĠmrÃ¡Äį": 4020,
      "Ġcvr": 4021,
      "Ġznik": 4022,
      "Ġxi": 4023,
      "ĠkÅ¾e": 4024,
      "ko": 4025,
      "ĠrÃ¡Äį": 4026,
      "Ġmeh": 4027,
      "ĠÄįiÄį": 4028,
      "Ġzdy": 4029,
      "ĠbÄĽÅ¾": 4030,
      "ĠÅĻve": 4031,
      "ĠsÃŃÅ¥": 4032,
      "ĠspÄĽj": 4033,
      "Ġdrah": 4034,
      "Ġzevs": 4035,
      "ĠsnÃ©": 4036,
      "ĠklÃ½m": 4037,
      "ĠfraÅ¡": 4038,
      "Ġrav": 4039,
      "ĠÅĻva": 4040,
      "Ġprac": 4041,
      "ĠpsÃ¡t": 4042,
      "ĠÅ¡ti": 4043,
      "ĠtÅĻen": 4044,
      "ĠzÃ¡r": 4045,
      "Ġmh": 4046,
      "Ġvchu": 4047,
      "ĠteÅ¾": 4048,
      "Ġzbar": 4049,
      "Ġvzdal": 4050,
      "ĠsfÃ©": 4051,
      "Ġson": 4052,
      "DC": 4053,
      "ĠfrÃ¡": 4054,
      "ĠkvÃ©st": 4055,
      "Ġfle": 4056,
      "ĠmÅ¯m": 4057,
      "ĠtÄĽr": 4058,
      "dlo": 4059,
      "ĠzvÅ¡ech": 4060,
      "Ġrouc": 4061,
      "ABCA": 4062,
      "Ġzlob": 4063,
      "Ġsez": 4064,
      "Ġvzad": 4065,
      "ĠsaÅĪ": 4066,
      "Ġvsy": 4067,
      "Ġtip": 4068,
      "Ġkroz": 4069,
      "Ġous": 4070,
      "ĠsÅ¾": 4071,
      "Ġvsu": 4072,
      "Ġvbuj": 4073,
      "ĠzpÅĻe": 4074,
      "ABCCDD": 4075,
      "Ġzbled": 4076,
      "Ġbost": 4077,
      "Ġger": 4078,
      "ĠpÅĻim": 4079,
      "Ġnah": 4080,
      "ĠzvÄĽsÅ¥": 4081,
      "Ġtha": 4082,
      "ĠctnÃ½": 4083,
      "Ġsvl": 4084,
      "Ġzkle": 4085,
      "ĠtnÃ½": 4086,
      "ĠÃŃch": 4087,
      "ĠvkrÃ¡s": 4088,
      "ĠvyÄį": 4089,
      "Ġim": 4090,
      "ĠÅĻeh": 4091,
      "ĠhÃ¡n": 4092,
      "ĠbÅĻeÄį": 4093,
      "ĠÅ¾b": 4094,
      "Ġdur": 4095,
      "Ġdrc": 4096,
      "Ġzhra": 4097,
      "ĠÅĻÃ¡s": 4098,
      "ĠztÄĽÅ¾": 4099,
      "ĠdoÅ¡": 4100,
      "ĠpÅ¡e": 4101,
      "ĠpraÅ¾": 4102,
      "ĠtvÃŃch": 4103,
      "ĠsÃ½ch": 4104,
      "Ġnud": 4105,
      "ĠÄįÃŃt": 4106,
      "ĠshrÅ¯": 4107,
      "Ġplot": 4108,
      "ĠnÃ©Äį": 4109,
      "Ġvprv": 4110,
      "Ġstrej": 4111,
      "ĠvadÅ¾": 4112,
      "ĠjvÄĽ": 4113,
      "ĠsmeÄį": 4114,
      "Ġir": 4115,
      "ĠÃ¡Å¡": 4116,
      "Ġup": 4117,
      "ĠsmÃŃm": 4118,
      "ĠÅĻkou": 4119,
      "ĠsteÄį": 4120,
      "ĠvnoÄį": 4121,
      "Ġvhroz": 4122,
      "ĠdÅ¡": 4123,
      "Ġvav": 4124,
      "ĠjvÃ½": 4125,
      "Ġmund": 4126,
      "ĠÄįÃŃk": 4127,
      "ĠvtvÃ½ch": 4128,
      "Ġvtro": 4129,
      "ĠzkvÃ©": 4130,
      "Ġsdo": 4131,
      "ĠvhruÄı": 4132,
      "Ġdep": 4133,
      "ĠÅ¡kod": 4134,
      "ĠÅ¡Ã¡k": 4135,
      "ĠstmÃŃ": 4136,
      "ĠÅ¥uÅ¡": 4137,
      "Ġvsled": 4138,
      "Ġvchlad": 4139,
      "ĠblyÅ¡": 4140,
      "Ġtah": 4141,
      "ĠÅ¡ÃŃk": 4142,
      "ĠzpÃ¡": 4143,
      "ĠgÃ¡": 4144,
      "Ġchrem": 4145,
      "ĠÅ¡vih": 4146,
      "ĠvjÃ¡": 4147,
      "Ġdlesk": 4148,
      "ĠschrÃ¡": 4149,
      "ĠÅ¡Ã¡r": 4150,
      "Ġzan": 4151,
      "Ġhouf": 4152,
      "ĠpruÅ¾": 4153,
      "ĠvkvÄĽt": 4154,
      "Ġvojsk": 4155,
      "ĠvÄĽÅ¥": 4156,
      "ĠtÅĻek": 4157,
      "Ġcez": 4158,
      "Ġzpur": 4159,
      "Ġvlak": 4160,
      "Ġzmno": 4161,
      "Ġlvi": 4162,
      "Ġcim": 4163,
      "ĠslÅ¯m": 4164,
      "ĠÅ¾ij": 4165,
      "Ġpous": 4166,
      "ĠrÅ¯st": 4167,
      "ĠkmÃ©": 4168,
      "ĠvklÃ¡Å¡": 4169,
      "ĠtrÅ¯m": 4170,
      "ĠpÅĻem": 4171,
      "ĠviÅĪ": 4172,
      "ĠdnÃ½m": 4173,
      "Ġbroj": 4174,
      "Ġzkru": 4175,
      "ĠpÅĻÃŃt": 4176,
      "Ġnym": 4177,
      "ĠjakÅ¾": 4178,
      "Ġsklen": 4179,
      "Ġdvih": 4180,
      "ĠlÃ¡v": 4181,
      "tej": 4182,
      "ĠklÃ¡s": 4183,
      "Ġzbe": 4184,
      "Ġchar": 4185,
      "Ġzven": 4186,
      "Ġgol": 4187,
      "Ġvzr": 4188,
      "ĠmÃŃst": 4189,
      "Ġvzka": 4190,
      "ĠradÅ¡": 4191,
      "ĠchvÃŃl": 4192,
      "ĠÄįtver": 4193,
      "Ġmlat": 4194,
      "ĠdveÅĻ": 4195,
      "ĠbdÄĽl": 4196,
      "ĠjÃŃÅ¥": 4197,
      "ĠmÃ¡c": 4198,
      "Ġzkro": 4199,
      "ĠvcÃŃ": 4200,
      "Ġpja": 4201,
      "Ġvstro": 4202,
      "Ġtrat": 4203,
      "ABBX": 4204,
      "ĠtÃ½n": 4205,
      "ĠvrÃ¡j": 4206,
      "ĠhrÃ¡m": 4207,
      "ĠstrÃ¡ÅĪ": 4208,
      "Ġchrt": 4209,
      "ĠsÅĻÃŃ": 4210,
      "ĠÅ¡Å¥Ã¡": 4211,
      "Ġthy": 4212,
      "ĠtiÅ¥": 4213,
      "ĠdÅĻej": 4214,
      "Ġvkap": 4215,
      "ĠbylÅ¥": 4216,
      "Ġosm": 4217,
      "Ġkrom": 4218,
      "ĠstmÄĽ": 4219,
      "ĠstiÄį": 4220,
      "Ġzple": 4221,
      "Ġgar": 4222,
      "Ġfre": 4223,
      "ĠceÅ¡": 4224,
      "CB": 4225,
      "Ġmoj": 4226,
      "Ġzbla": 4227,
      "Ġksa": 4228,
      "ĠbrÃ¡c": 4229,
      "ĠvnÄĽÅ¾": 4230,
      "Ġkha": 4231,
      "kÃ¡": 4232,
      "Ġsbe": 4233,
      "Ġsrp": 4234,
      "Ġtky": 4235,
      "ĠzÅ¾": 4236,
      "AXBCBC": 4237,
      "ĠbÅ¯m": 4238,
      "Ġzkrou": 4239,
      "Ġvby": 4240,
      "Ġvzlyk": 4241,
      "ĠvtÃ½l": 4242,
      "ĠsÅ¾i": 4243,
      "ĠÅĻÅ¯m": 4244,
      "ĠsnÅ¯m": 4245,
      "Ġtkal": 4246,
      "Ġdul": 4247,
      "Ġnejv": 4248,
      "Ġsnah": 4249,
      "ĠbÅĻes": 4250,
      "ĠvÃ¡k": 4251,
      "Ġplam": 4252,
      "Ġzvra": 4253,
      "22": 4254,
      "Ġvyl": 4255,
      "Ġvrab": 4256,
      "Ġknit": 4257,
      "Ġkslun": 4258,
      "Ġseb": 4259,
      "Ġtum": 4260,
      "Ġbij": 4261,
      "Ġvpy": 4262,
      "Ġdleh": 4263,
      "Ġzok": 4264,
      "ĠlÃŃn": 4265,
      "Ġzhor": 4266,
      "ĠÅ¾at": 4267,
      "ĠdaÅ¥": 4268,
      "ĠdrÅ¯m": 4269,
      "Ġstre": 4270,
      "Ġstri": 4271,
      "ĠÅĻez": 4272,
      "ĠzÃ¡k": 4273,
      "ĠdvÃ¡Å¾": 4274,
      "ĠrÃ¡k": 4275,
      "ĠkhvÄĽz": 4276,
      "ĠvÅ¡er": 4277,
      "ĠvÄįÃŃ": 4278,
      "Ġmos": 4279,
      "Ġmstu": 4280,
      "ĠdaÅĻ": 4281,
      "ĠstaÅ¥": 4282,
      "ĠÅ¡af": 4283,
      "ĠluÄį": 4284,
      "ĠdliÄį": 4285,
      "ĠÅ¡las": 4286,
      "ĠtlÃ©m": 4287,
      "AABX": 4288,
      "ĠvznÃ©": 4289,
      "ĠH": 4290,
      "ÅĪu": 4291,
      "ĠvbÃ¡": 4292,
      "Ġfej": 4293,
      "Ġvha": 4294,
      "Ġkmat": 4295,
      "ĠpÃ³": 4296,
      "Ġvrt": 4297,
      "Ġklem": 4298,
      "ĠstrÃ¡n": 4299,
      "AXBCCB": 4300,
      "Ġzap": 4301,
      "ĠÅĻat": 4302,
      "Ġthi": 4303,
      "Ġkai": 4304,
      "ĠschÅ¯": 4305,
      "Ġvzhle": 4306,
      "Ġkrat": 4307,
      "ĠbÅĻin": 4308,
      "Ġloun": 4309,
      "ĠvchrÃ¡m": 4310,
      "Ġcnost": 4311,
      "Ġjab": 4312,
      "Ġkse": 4313,
      "ĠÄįed": 4314,
      "Ġvste": 4315,
      "Ġsejn": 4316,
      "ĠdÅĻich": 4317,
      "ĠÅ¡ik": 4318,
      "Ġvsvou": 4319,
      "Ġllas": 4320,
      "ĠvsmÃŃ": 4321,
      "ĠjÃŃst": 4322,
      "Ġvtaj": 4323,
      "Ġkrm": 4324,
      "Ġmsta": 4325,
      "Ġrum": 4326,
      "ĠvÅ¾e": 4327,
      "Ġpin": 4328,
      "Ġlva": 4329,
      "ĠsmÄĽr": 4330,
      "ĠmiÄį": 4331,
      "ĠvdÅ¯m": 4332,
      "ĠÅ¥ou": 4333,
      "AAAA": 4334,
      "Ġfek": 4335,
      "ĠkÅĻep": 4336,
      "ĠhlÃ©m": 4337,
      "ĠjlÃŃp": 4338,
      "ĠblÅ¯": 4339,
      "ĠtosÅ¥": 4340,
      "Ġslan": 4341,
      "Ġmout": 4342,
      "Ġvkus": 4343,
      "Ġdci": 4344,
      "Ġjho": 4345,
      "ĠÅ¡iÄį": 4346,
      "ĠvÅĻes": 4347,
      "Ġtvol": 4348,
      "Ġjda": 4349,
      "ĠÅ¡tve": 4350,
      "BB": 4351,
      "Ġzob": 4352,
      "Ġshas": 4353,
      "Ġprot": 4354,
      "XAAB": 4355,
      "Ġdent": 4356,
      "ĠksvÃ½m": 4357,
      "Ġbul": 4358,
      "Ġvznik": 4359,
      "ĠvvÄĽ": 4360,
      "Ġpsk": 4361,
      "ÅĪou": 4362,
      "ĠzkaÅ¾": 4363,
      "Ġzak": 4364,
      "ĠkÅĻÃ¡": 4365,
      "dÄĽ": 4366,
      "ĠÅ¡ec": 4367,
      "ĠrÃ¡b": 4368,
      "Ġmrt": 4369,
      "ĠÅ¡kra": 4370,
      "Ġzrad": 4371,
      "ĠtlÃ½m": 4372,
      "ĠvpÅ¯l": 4373,
      "Ġtb": 4374,
      "Ġpoch": 4375,
      "ĠstiÅ¥": 4376,
      "ĠpÃ¡m": 4377,
      "ĠsÃ¡n": 4378,
      "Ġsluj": 4379,
      "Ġzvad": 4380,
      "Ġfar": 4381,
      "ĠdrÃ¡ch": 4382,
      "ĠmÅĻÃŃÅ¾": 4383,
      "ĠsnÃŃÅ¾": 4384,
      "ĠspÃŃs": 4385,
      "Ġduj": 4386,
      "Ġxe": 4387,
      "Ġsmat": 4388,
      "ĠzhÅ¯": 4389,
      "ĠprÅ¡": 4390,
      "ĠrÃ½Å¾": 4391,
      "ĠstrÃ©m": 4392,
      "Ġztvr": 4393,
      "Ġvska": 4394,
      "Ġvsvo": 4395,
      "Ġkhla": 4396,
      "Ġzmy": 4397,
      "Ġchme": 4398,
      "Ġvdech": 4399,
      "ĠverÅ¡": 4400,
      "Ġstkvost": 4401,
      "pÄĽ": 4402,
      "Ġvtak": 4403,
      "Ġsstou": 4404,
      "Ġksva": 4405,
      "ĠtkvÄĽ": 4406,
      "Ġvdiv": 4407,
      "AXA": 4408,
      "Ġsval": 4409,
      "Ġnim": 4410,
      "Ġzme": 4411,
      "ĠvrÃ½": 4412,
      "ĠbÅĻeÅ¡": 4413,
      "Ġplen": 4414,
      "ĠzÄįech": 4415,
      "ĠÅ¡Ã¡t": 4416,
      "Ġgre": 4417,
      "Ġsnich": 4418,
      "Ġthos": 4419,
      "Ġhrd": 4420,
      "ĠcÃŃÅ¡": 4421,
      "ABBCD": 4422,
      "ĠÄįtu": 4423,
      "mo": 4424,
      "Ġnoh": 4425,
      "ĠstÅĻech": 4426,
      "ĠsÅ¡e": 4427,
      "Ġkbla": 4428,
      "ĠÄįat": 4429,
      "Ġzik": 4430,
      "ĠvblÃ¡": 4431,
      "Ġvzta": 4432,
      "Ġdos": 4433,
      "Ġdis": 4434,
      "Ġvke": 4435,
      "ĠvosÅ¥": 4436,
      "ĠpÅĻeÄį": 4437,
      "rud": 4438,
      "ĠvstÃŃn": 4439,
      "Ġvhe": 4440,
      "ĠÅ¡tÄĽt": 4441,
      "ĠblÃ¡Äį": 4442,
      "Ġplout": 4443,
      "ĠbeÅ¡": 4444,
      "ĠÅ¾id": 4445,
      "ĠvprÅ¯": 4446,
      "ĠstvÃ½": 4447,
      "ĠztvÃ½ch": 4448,
      "Ġsklad": 4449,
      "Ġmsty": 4450,
      "ĠvbÅĻe": 4451,
      "ĠvskrÃ¡": 4452,
      "ĠÄıar": 4453,
      "Ġcr": 4454,
      "Ġrro": 4455,
      "ĠdÃ¡Å¾": 4456,
      "Ġstisk": 4457,
      "ĠdaÅĪ": 4458,
      "ĠÅ¡aÅ¡": 4459,
      "Ġad": 4460,
      "Ġvtan": 4461,
      "ĠbÃ¡ÅĪ": 4462,
      "Ġsmrou": 4463,
      "Ġsklon": 4464,
      "ĠmÅĪou": 4465,
      "ĠvstrÃ¡": 4466,
      "ĠzhÃ¡": 4467,
      "ĠzÃ½m": 4468,
      "Ġseh": 4469,
      "Ġmyr": 4470,
      "Ġvpi": 4471,
      "ĠrvÃ¡t": 4472,
      "ĠuÄį": 4473,
      "ĠplÃŃs": 4474,
      "ĠkÃ¡Å¾": 4475,
      "Ġruj": 4476,
      "ĠvsÃ¡": 4477,
      "ĠvspÄĽ": 4478,
      "ĠkpÃ¡": 4479,
      "Ġkut": 4480,
      "ĠÅ¾ÃŃr": 4481,
      "Ġvjar": 4482,
      "Ġzlit": 4483,
      "Ġdluh": 4484,
      "ĠnÃŃn": 4485,
      "Ġvzav": 4486,
      "Ġsvra": 4487,
      "Ġvlok": 4488,
      "Ġmzd": 4489,
      "ĠÅĻvou": 4490,
      "ĠsplÃŃ": 4491,
      "Ġsof": 4492,
      "Ġbloud": 4493,
      "ĠchÅ¯d": 4494,
      "Ġkf": 4495,
      "ĠkoÅ¾": 4496,
      "ĠmÅ¯r": 4497,
      "Ġtliv": 4498,
      "Ġdme": 4499,
      "Ġcyt": 4500,
      "Ġschla": 4501,
      "ABCBCD": 4502,
      "ĠsjÃŃ": 4503,
      "Ġzpl": 4504,
      "ĠzaÅĪ": 4505,
      "ĠzmlÃ¡": 4506,
      "ĠpÅĻÃŃl": 4507,
      "ĠdÅ¯l": 4508,
      "Ġmdle": 4509,
      "ĠscÃ©": 4510,
      "ĠtÅĻu": 4511,
      "ĠdluÅ¾": 4512,
      "Ġvkruh": 4513,
      "BX": 4514,
      "Ġtrn": 4515,
      "Ġvpad": 4516,
      "Ġnve": 4517,
      "Ġbet": 4518,
      "ĠÄįla": 4519,
      "ĠmnÃŃm": 4520,
      "Ġvals": 4521,
      "Ġchoun": 4522,
      "ĠmÅĻi": 4523,
      "Ġmam": 4524,
      "ĠflÃ©": 4525,
      "ĠzplÃ¡": 4526,
      "Ġkvou": 4527,
      "vu": 4528,
      "Ġmic": 4529,
      "Ġsor": 4530,
      "ĠvÅ¡ÃŃÅĻ": 4531,
      "ĠdeÅ¡Å¥": 4532,
      "ĠkruÅ¡": 4533,
      "ĠvsluÅ¾": 4534,
      "ĠvzrÅ¯st": 4535,
      "ĠpaÄį": 4536,
      "Ġbyls": 4537,
      "ĠtenÅ¥": 4538,
      "Ġvsen": 4539,
      "ĠptÃ½": 4540,
      "Ġpnu": 4541,
      "Ġstop": 4542,
      "Ġkrav": 4543,
      "EE": 4544,
      "Ġvdol": 4545,
      "Ġnevr": 4546,
      "ĠjvÄĽr": 4547,
      "ĠÅ¡lÃ©m": 4548,
      "ĠÅ¾ÃŃk": 4549,
      "Ġlkal": 4550,
      "Ġsjed": 4551,
      "ĠsdÄĽt": 4552,
      "ĠplÃ¡n": 4553,
      "ĠÅ¾Ã¡k": 4554,
      "ĠknÃ½": 4555,
      "ĠjvÃ½Å¡": 4556,
      "ĠpÅĻis": 4557,
      "ĠpÃ¡k": 4558,
      "Ġschva": 4559,
      "ĠtoÄį": 4560,
      "Ġzoh": 4561,
      "Ġsci": 4562,
      "ĠmÃŃc": 4563,
      "Ġkce": 4564,
      "Ġsau": 4565,
      "Ġpon": 4566,
      "Ġbab": 4567,
      "ĠÃºÅ¡": 4568,
      "Ġmok": 4569,
      "Ġlub": 4570,
      "Ġvsnech": 4571,
      "ĠbÃ¡ÅĻ": 4572,
      "ĠzblÃ¡": 4573,
      "ĠÅ¾iÅ¥": 4574,
      "ĠztÃ¡": 4575,
      "ĠvbÃ¡z": 4576,
      "ĠvmÅ¾i": 4577,
      "Ġsdra": 4578,
      "ÅĻo": 4579,
      "Ġhrn": 4580,
      "Ġhve": 4581,
      "ĠpÅĻÃ¡t": 4582,
      "ĠdÅ¯t": 4583,
      "Ġplet": 4584,
      "ĠtaÅ¥": 4585,
      "ĠtouÅ¡": 4586,
      "ĠjsouÅ¥": 4587,
      "lÃ½m": 4588,
      "ĠkyÅĪ": 4589,
      "Ġcuj": 4590,
      "ĠÅĻÃŃz": 4591,
      "ĠvÃ½h": 4592,
      "ĠsÅĪat": 4593,
      "Ġpun": 4594,
      "ĠbraÅĪ": 4595,
      "ĠtoÅĪ": 4596,
      "lem": 4597,
      "ĠkÃ¡z": 4598,
      "Ġpud": 4599,
      "ĠtÅĻÃŃÄį": 4600,
      "he": 4601,
      "ĠtmÃ¡m": 4602,
      "ĠbÅĻÃŃz": 4603,
      "ĠkÃ¡r": 4604,
      "Ġrych": 4605,
      "ĠsÃ½c": 4606,
      "ĠzbÅ¯j": 4607,
      "ĠmaÅ¡": 4608,
      "ĠvdÄĽs": 4609,
      "Ġchry": 4610,
      "Ġnaiv": 4611,
      "ĠtnÃ©": 4612,
      "ĠtÃ¡Å¾": 4613,
      "ĠkaÅ¥": 4614,
      "Ġvaj": 4615,
      "Ġrud": 4616,
      "Ġvuj": 4617,
      "Ġhrej": 4618,
      "ĠtÅĻeb": 4619,
      "ĠvÃºs": 4620,
      "Ġop": 4621,
      "ĠroÅ¡": 4622,
      "lil": 4623,
      "ĠoÅĻ": 4624,
      "ĠtÃŃl": 4625,
      "Ġrub": 4626,
      "ĠkÅ¡tÄĽ": 4627,
      "AXBBCC": 4628,
      "ĠjÃ¡Å¥": 4629,
      "ĠÄįast": 4630,
      "ĠzhÅĻÃŃ": 4631,
      "ĠvblÃŃz": 4632,
      "AXXB": 4633,
      "ĠmÃ¡Äį": 4634,
      "Ġvbok": 4635,
      "ĠzÅ¾e": 4636,
      "Ġnuz": 4637,
      "Ġzech": 4638,
      "Ġbuch": 4639,
      "ĠplaÅ¥": 4640,
      "ĠdÃŃch": 4641,
      "Ġstvou": 4642,
      "Ġtrov": 4643,
      "Ġbrod": 4644,
      "Ġvzruch": 4645,
      "ĠÅĻed": 4646,
      "ABCCDE": 4647,
      "Ġlar": 4648,
      "Ġzub": 4649,
      "Ġzis": 4650,
      "ĠvrÅ¡": 4651,
      "Ġstvy": 4652,
      "tÃ¡": 4653,
      "ĠÅ¾nÃŃ": 4654,
      "Ġsfin": 4655,
      "Ġpst": 4656,
      "Ġket": 4657,
      "ĠdnÃ©m": 4658,
      "ĠpleÅ¥": 4659,
      "ĠstrÅĪ": 4660,
      "ĠgÃ©": 4661,
      "Ġzpoz": 4662,
      "ĠÅ¾ur": 4663,
      "ĠchrÅ¯": 4664,
      "Ġvtes": 4665,
      "ĠÅ¡vec": 4666,
      "Ġlod": 4667,
      "ĠhnÃ¡t": 4668,
      "Ġblys": 4669,
      "Ġvslav": 4670,
      "ĠplÅĪ": 4671,
      "Ġblouk": 4672,
      "ĠÅ¥uk": 4673,
      "Ġptej": 4674,
      "ĠmÃŃch": 4675,
      "ĠzvÃ¡t": 4676,
      "ĠhnÃ¡n": 4677,
      "Ġvklid": 4678,
      "ĠstÃ¡m": 4679,
      "ĠbloÅĪ": 4680,
      "ĠshlÃ©": 4681,
      "Ġkdru": 4682,
      "ĠhrÃ½": 4683,
      "ĠvzkÃ¡": 4684,
      "ĠpÅ¡": 4685,
      "ĠpÅĻip": 4686,
      "ĠpraÅ¡": 4687,
      "Ġfro": 4688,
      "Ġdak": 4689,
      "ĠhÅĻiv": 4690,
      "zt": 4691,
      "ĠviÅ¥": 4692,
      "ĠchtÃŃc": 4693,
      "ĠdÅ¾bÃ¡": 4694,
      "Ġvouz": 4695,
      "Ġvchod": 4696,
      "Ġvky": 4697,
      "ĠsnÄĽt": 4698,
      "ĠzkÅĻÃŃ": 4699,
      "ĠÅ¡tÄĽp": 4700,
      "Ġvnou": 4701,
      "Ġvouk": 4702,
      "Ġkpom": 4703,
      "Ġblem": 4704,
      "ĠchoÄı": 4705,
      "Ġvdra": 4706,
      "ĠslÃ¡v": 4707,
      "Ġksto": 4708,
      "Ġsmej": 4709,
      "Ġgyp": 4710,
      "Ġplem": 4711,
      "Ġdlal": 4712,
      "ĠstÅĻej": 4713,
      "Ġvyk": 4714,
      "ĠvpÅĻi": 4715,
      "ĠpÃ¡Å¾": 4716,
      "ĠvÃºz": 4717,
      "lÃ³": 4718,
      "Ġdals": 4719,
      "ĠÄįtvrt": 4720,
      "ĠjÃŃn": 4721,
      "Ġdrn": 4722,
      "ĠvÄįem": 4723,
      "Ġcon": 4724,
      "ĠbrÅ¯": 4725,
      "Ġskrej": 4726,
      "Ġtrysk": 4727,
      "Ġfla": 4728,
      "Ġres": 4729,
      "Ġkstro": 4730,
      "ĠÅ¾lout": 4731,
      "ĠvÃ¡d": 4732,
      "Ġmod": 4733,
      "Ġkvet": 4734,
      "ĠzprÃ¡v": 4735,
      "ĠkÄįer": 4736,
      "Ġdor": 4737,
      "ĠzvÅ¡e": 4738,
      "ĠkvÄĽÄį": 4739,
      "Ġtus": 4740,
      "Ġspy": 4741,
      "ĠtyÄį": 4742,
      "Ġjeh": 4743,
      "ĠvtÅ¯": 4744,
      "ĠchÅ¯v": 4745,
      "ĠvmÄĽk": 4746,
      "ĠsÃ½m": 4747,
      "Ġvbr": 4748,
      "Ġvrod": 4749,
      "Ġvsku": 4750,
      "ĠzkouÅ¡": 4751,
      "Ġchleb": 4752,
      "ÅĻou": 4753,
      "ĠpÅĻÃ¡h": 4754,
      "Ġcre": 4755,
      "ĠÅ¡eÅ¡": 4756,
      "Ġvyv": 4757,
      "ĠvzpÄĽ": 4758,
      "ĠvspÃ¡n": 4759,
      "ĠvsmÄĽ": 4760,
      "mi": 4761,
      "ĠchÅĻad": 4762,
      "ĠvskÃ¡": 4763,
      "Ġvmdlo": 4764,
      "ĠÄįtou": 4765,
      "Ġbud": 4766,
      "ĠspÃ¡r": 4767,
      "ĠhÅ¯v": 4768,
      "Ġmuch": 4769,
      "ĠsÃŃd": 4770,
      "Ġzol": 4771,
      "ĠblaÅ¾": 4772,
      "Ġyon": 4773,
      "Ġvon": 4774,
      "ĠÅ¡klu": 4775,
      "ĠvkÅĻe": 4776,
      "ĠskÅĻÃŃÅĪ": 4777,
      "Ġvym": 4778,
      "Ġvis": 4779,
      "Ġsmou": 4780,
      "ĠtÃŃÄį": 4781,
      "ĠlÃ¡z": 4782,
      "Ġvleb": 4783,
      "Ġchlub": 4784,
      "Ġchlum": 4785,
      "ĠleÄı": 4786,
      "ĠpÃŃc": 4787,
      "Ġgil": 4788,
      "Ġzut": 4789,
      "ĠstÄĽÅ¾": 4790,
      "Ġvbles": 4791,
      "ĠznÃŃt": 4792,
      "Ġjvo": 4793,
      "ĠtaÅ¾": 4794,
      "Ġtram": 4795,
      "Ġssu": 4796,
      "Ġksta": 4797,
      "ĠlouÄį": 4798,
      "Ġchmat": 4799,
      "Ġztros": 4800,
      "ĠkÅĪa": 4801,
      "Ġmun": 4802,
      "Ġvzpja": 4803,
      "Ġvstr": 4804,
      "Ġstyd": 4805,
      "ĠskoÄį": 4806,
      "ĠmiÅĪ": 4807,
      "ĠmÃ¡v": 4808,
      "ĠspÃ¡d": 4809,
      "ĠkrouÅ¾": 4810,
      "Ġvzrak": 4811,
      "Ġnor": 4812,
      "ĠpÅĻiÅ¡": 4813,
      "ĠvmrÃ¡": 4814,
      "Ġtrost": 4815,
      "Ġvchva": 4816,
      "Ġproj": 4817,
      "Ġil": 4818,
      "ĠmÃ¡ÅĻ": 4819,
      "Ġpoun": 4820,
      "ĠsiÄį": 4821,
      "ĠmÃ©n": 4822,
      "ku": 4823,
      "Ġzau": 4824,
      "Ġbron": 4825,
      "ĠbÅĻÃŃÅ¡": 4826,
      "ĠnaÅ¥": 4827,
      "Ġkoz": 4828,
      "Ġjam": 4829,
      "ĠmÃŃÅ¥": 4830,
      "ABABBC": 4831,
      "ĠsÄįÃŃ": 4832,
      "ĠsrÅ¯": 4833,
      "ĠkÄį": 4834,
      "ABABXX": 4835,
      "ĠÅ¾ed": 4836,
      "Ġfil": 4837,
      "ĠÅ¡els": 4838,
      "Ġkhra": 4839,
      "Ġfouk": 4840,
      "Ġstoud": 4841,
      "Ġvep": 4842,
      "ĠÄįesÅ¥": 4843,
      "ĠtÅ¯Äį": 4844,
      "ĠpÃ½r": 4845,
      "Ġrac": 4846,
      "Ġklon": 4847,
      "Ġvmoz": 4848,
      "ĠpÅ¯r": 4849,
      "Ġprut": 4850,
      "Ġzhe": 4851,
      "ĠÅĻÅ¯v": 4852,
      "Ġvzlo": 4853,
      "ĠvzhlÃ©d": 4854,
      "Ġkum": 4855,
      "Ġmel": 4856,
      "ĠctÃŃm": 4857,
      "Ġctil": 4858,
      "ĠzmÄĽk": 4859,
      "ĠtmÄĽl": 4860,
      "Ġvkal": 4861,
      "ĠlpÃŃ": 4862,
      "ĠlÃ¡r": 4863,
      "ĠhÃ½Äį": 4864,
      "ĠvÃ½t": 4865,
      "Ġmant": 4866,
      "Ġhot": 4867,
      "Ġtai": 4868,
      "ĠbÃ©m": 4869,
      "Ġcep": 4870,
      "ĠvÄĽsÅ¥": 4871,
      "Ġvplo": 4872,
      "ĠvÅĻÃŃn": 4873,
      "ĠbrÃ©m": 4874,
      "ĠÅ¡tÄĽr": 4875,
      "Ġtyr": 4876,
      "ĠÄįÃ¡p": 4877,
      "Ġtres": 4878,
      "Ġcouv": 4879,
      "ĠzkrÃ¡s": 4880,
      "ĠvplÃ¡Äį": 4881,
      "Ġvvo": 4882,
      "ĠÃºÄį": 4883,
      "Ġtrum": 4884,
      "Ġalp": 4885,
      "Ġplic": 4886,
      "ĠknimÅ¾": 4887,
      "ĠuÅ¡t": 4888,
      "Ġvtrh": 4889,
      "ĠstÃŃÅ¡": 4890,
      "Ġloub": 4891,
      "Ġsiv": 4892,
      "Ġplan": 4893,
      "ĠchlÃ©m": 4894,
      "Ġstrhl": 4895,
      "ĠjeÄı": 4896,
      "ĠchÃ¡n": 4897,
      "ĠctnÃ¡": 4898,
      "Ġruk": 4899,
      "Ġzoun": 4900,
      "AXABBC": 4901,
      "ĠslÃ½ch": 4902,
      "ĠjaÅĻ": 4903,
      "Ġvul": 4904,
      "ĠzmÄĽn": 4905,
      "ĠvÅ¡p": 4906,
      "ĠvhnÃŃz": 4907,
      "ĠznÄĽj": 4908,
      "Ġnva": 4909,
      "ĠÅ¡ÃŃÅĻ": 4910,
      "ĠÅ¾dÃ¡": 4911,
      "Ġjor": 4912,
      "Ġstlu": 4913,
      "Ġlyp": 4914,
      "ĠvkÃ¡": 4915,
      "Ġtot": 4916,
      "ĠtuÅ¡": 4917,
      "Ġkouk": 4918,
      "Ġsus": 4919,
      "Ġstvi": 4920,
      "rÃ½": 4921,
      "Ġkma": 4922,
      "ĠlstÃŃ": 4923,
      "ĠhoÄı": 4924,
      "Ġzod": 4925,
      "ĠkleÅ¡": 4926,
      "Ġzyv": 4927,
      "Ġkslo": 4928,
      "bo": 4929,
      "ĠÅĻest": 4930,
      "Ġvbar": 4931,
      "ĠsmÄĽj": 4932,
      "ĠzdÃ¡v": 4933,
      "Ġhold": 4934,
      "Ġpul": 4935,
      "Ġtas": 4936,
      "Ġtknu": 4937,
      "ĠsÅĪal": 4938,
      "ABABCX": 4939,
      "ta": 4940,
      "Ġzdej": 4941,
      "ĠsÄįer": 4942,
      "ĠskÅĻou": 4943,
      "ĠÅ¾ich": 4944,
      "ĠhouÅ¡Å¥": 4945,
      "ĠÅ¡ke": 4946,
      "ĠvloÄį": 4947,
      "Ġcli": 4948,
      "Ġhil": 4949,
      "Ġvslou": 4950,
      "ĠchlÃ½ch": 4951,
      "Ġdbej": 4952,
      "ĠchÅĻ": 4953,
      "ĠvÅ¡tÃŃ": 4954,
      "ĠstÃ¡h": 4955,
      "Ġzplo": 4956,
      "ĠsÃ¡z": 4957,
      "ĠkÅ¡ÃŃ": 4958,
      "ĠstuÅ¾": 4959,
      "ĠteÅ¡": 4960,
      "Ġloz": 4961,
      "Ġbuv": 4962,
      "Ġslab": 4963,
      "ĠtÅ¯ÅĪ": 4964,
      "ĠbÃŃÅ¡": 4965,
      "ĠsvÃŃÄį": 4966,
      "ĠvzÃ¡m": 4967,
      "Ġstvol": 4968,
      "ĠnÃŃt": 4969,
      "Ġvss": 4970,
      "Ġspov": 4971,
      "Ġprus": 4972,
      "Ġvkri": 4973,
      "Ġvzmat": 4974,
      "23": 4975,
      "ĠÅĻisÅ¥": 4976,
      "Ġzust": 4977,
      "ĠmdlÃ½ch": 4978,
      "ĠspuÅ¡": 4979,
      "Ġmn": 4980,
      "ĠmÃº": 4981,
      "Ġzmlk": 4982,
      "ĠvÅ¾ÃŃ": 4983,
      "Ġnne": 4984,
      "ĠÅ¥Ã¡t": 4985,
      "Ġvryl": 4986,
      "Ġzfo": 4987,
      "ĠdÅ¾bÃ¡n": 4988,
      "ĠshvÄĽz": 4989,
      "ĠlvÃŃ": 4990,
      "ĠplaÅ¡": 4991,
      "ABABXC": 4992,
      "ĠpÃ¡t": 4993,
      "ĠÅ¥Ã¡l": 4994,
      "ĠktvÃ©": 4995,
      "Ġkzu": 4996,
      "Ġtran": 4997,
      "ĠslÃŃÄį": 4998,
      "Ġvmoc": 4999,
      "Ġkvra": 5000,
      "ĠsnÃŃmÅ¾": 5001,
      "ĠstÅĻiÄį": 5002,
      "jat": 5003,
      "Ġtav": 5004,
      "ĠsnÃŃÅ¡": 5005,
      "Ġsmek": 5006,
      "AAXBBC": 5007,
      "Ġrmu": 5008,
      "Ġvah": 5009,
      "Ġsyc": 5010,
      "ĠskvÄĽl": 5011,
      "nt": 5012,
      "ĠdÅĻev": 5013,
      "Ġsis": 5014,
      "Ġzre": 5015,
      "ĠtnÃŃm": 5016,
      "ĠlÃ©Äį": 5017,
      "Ġsouc": 5018,
      "ĠzchrÃ¡": 5019,
      "Ġost": 5020,
      "ĠsÃŃt": 5021,
      "ĠrouÅ¾": 5022,
      "ABCCBD": 5023,
      "ĠskÅĻek": 5024,
      "ĠpÃŃÄı": 5025,
      "Ġstrem": 5026,
      "ĠzvÄĽÄį": 5027,
      "ny": 5028,
      "Ã¤": 5029,
      "ĠbeÅĻ": 5030,
      "ĠÅĻÃŃÄį": 5031,
      "Ġvzky": 5032,
      "Ġzchu": 5033,
      "Ġskep": 5034,
      "ĠÅĻval": 5035,
      "ĠzÃŃk": 5036,
      "Ġjmen": 5037,
      "Ġvkla": 5038,
      "ĠnnÃŃk": 5039,
      "ĠÄįtr": 5040,
      "ĠsjÃ¡": 5041,
      "ĠÅ¡tvÃ¡n": 5042,
      "ĠÅ¡ÃŃr": 5043,
      "us": 5044,
      "Ġzz": 5045,
      "Ġsvoj": 5046,
      "Ġther": 5047,
      "Ġknil": 5048,
      "ĠdÃŃr": 5049,
      "ĠsviÅ¡": 5050,
      "ĠzklÃ¡": 5051,
      "AXAXB": 5052,
      "ĠÅ¾nÄĽ": 5053,
      "Ġbed": 5054,
      "ĠblaÄį": 5055,
      "AAXBBX": 5056,
      "AXXX": 5057,
      "Ġllus": 5058,
      "ĠÅ¡ÅĪ": 5059,
      "Ġvsad": 5060,
      "Ġshl": 5061,
      "ĠzdÃ½": 5062,
      "Ġfry": 5063,
      "BD": 5064,
      "ĠvÅĻi": 5065,
      "Ġskte": 5066,
      "Ġsmlu": 5067,
      "Ġhum": 5068,
      "ĠkliÄı": 5069,
      "ĠkpÅĻÃŃ": 5070,
      "ĠvspÃ¡": 5071,
      "ĠÄįlÃ¡": 5072,
      "Ġproh": 5073,
      "Ġkaj": 5074,
      "Ġdliv": 5075,
      "Ġvrb": 5076,
      "ĠztmÄĽ": 5077,
      "ĠvhÅĻÃŃ": 5078,
      "ĠÅĪÃ¡k": 5079,
      "Ġhmyz": 5080,
      "Ġtral": 5081,
      "ĠkjÃŃ": 5082,
      "Ġpark": 5083,
      "ĠctÃŃt": 5084,
      "Ġmzdu": 5085,
      "Ġvtru": 5086,
      "Ġspros": 5087,
      "Ġkta": 5088,
      "ĠssÃ¡l": 5089,
      "ĠmlÃ©Äį": 5090,
      "Ġchcy": 5091,
      "Ġvspol": 5092,
      "Ġhnout": 5093,
      "Ġjaks": 5094,
      "ĠÅĻiÅ¥": 5095,
      "ĠzhnÃŃz": 5096,
      "ĠpnÄĽ": 5097,
      "ĠÅ¾ab": 5098,
      "Ġtrup": 5099,
      "ĠcÃ¡r": 5100,
      "Ġsjas": 5101,
      "ĠvÅĻeÄį": 5102,
      "Ġgram": 5103,
      "Ġzeh": 5104,
      "ĠhruÅ¡": 5105,
      "ĠhÅĻÃ¡l": 5106,
      "ĠchmÅ¯": 5107,
      "ĠdaÄį": 5108,
      "Ġprinc": 5109,
      "ĠdcÅ¯": 5110,
      "Ġzdal": 5111,
      "ÄıÃ¡": 5112,
      "ABCABC": 5113,
      "Ġmdlou": 5114,
      "ĠvtÄĽs": 5115,
      "ĠÄįmu": 5116,
      "ĠvÄįes": 5117,
      "Ġvnic": 5118,
      "ĠbÄĽj": 5119,
      "ĠvkÅĻi": 5120,
      "Ġgis": 5121,
      "ĠhrÃ¡ch": 5122,
      "ĠvzhlÃŃ": 5123,
      "ĠdnÃŃm": 5124,
      "Ġlhal": 5125,
      "Ġxan": 5126,
      "ĠsbÄĽh": 5127,
      "ĠpoÄı": 5128,
      "Ġes": 5129,
      "ĠmdlÃ½m": 5130,
      "ĠvvÃ½": 5131,
      "ĠflÃ©t": 5132,
      "Ġtch": 5133,
      "Ġzov": 5134,
      "ĠrÃ½n": 5135,
      "ĠÄıou": 5136,
      "Ġsdi": 5137,
      "Ã³n": 5138,
      "Ġmnil": 5139,
      "Ġmouc": 5140,
      "ĠptÃ¡t": 5141,
      "ĠzhlÃŃd": 5142,
      "Ġvmech": 5143,
      "ĠhÃº": 5144,
      "Ġtim": 5145,
      "Ġdmu": 5146,
      "ĠstÅĻen": 5147,
      "Ġlav": 5148,
      "Ġtlesk": 5149,
      "Ġrras": 5150,
      "ĠkoÅĪ": 5151,
      "ĠtoÅ¡": 5152,
      "ĠpÄĽsÅ¥": 5153,
      "Ġchas": 5154,
      "ĠÅ¡kÃ¡": 5155,
      "Ġchel": 5156,
      "Ġgend": 5157,
      "ĠprÃ©": 5158,
      "ĠvkÅ¯": 5159,
      "Ġspek": 5160,
      "ĠksluÅ¾": 5161,
      "Ġzdru": 5162,
      "ĠpÄĽÅ¡": 5163,
      "ĠzmÃ½ch": 5164,
      "Ġgur": 5165,
      "Ġshluk": 5166,
      "XAXX": 5167,
      "Ġblah": 5168,
      "ACAC": 5169,
      "ĠÅ¡kleb": 5170,
      "ĠzÅ¾i": 5171,
      "ĠkaÄį": 5172,
      "Ġvzbo": 5173,
      "ĠY": 5174,
      "ĠjÃ¡c": 5175,
      "Ġzuj": 5176,
      "ĠpÅ¯st": 5177,
      "Ġvlez": 5178,
      "ABACCB": 5179,
      "ĠvtmÄĽ": 5180,
      "ĠsÃ¡k": 5181,
      "ĠpsÅ¯": 5182,
      "ĠÅ¡pe": 5183,
      "ĠvnÄĽjÅ¾": 5184,
      "ĠnÃŃÅ¥": 5185,
      "ĠÅ¾ej": 5186,
      "ĠryÄį": 5187,
      "Ġred": 5188,
      "Ġhlup": 5189,
      "Ġschne": 5190,
      "Ġvskal": 5191,
      "ĠvdÃŃl": 5192,
      "ĠÅ¡vÃ¡": 5193,
      "ĠmaÄį": 5194,
      "Ġis": 5195,
      "Ġvmar": 5196,
      "Ġllen": 5197,
      "ABBB": 5198,
      "ĠvhvÄĽz": 5199,
      "ĠproÅĪ": 5200,
      "ĠÅ¡tÃ¡": 5201,
      "Ġtlit": 5202,
      "ĠÅ¾la": 5203,
      "Ġvzmu": 5204,
      "ĠsnÃŃl": 5205,
      "ĠthÃ©": 5206,
      "Ġwa": 5207,
      "Ġchost": 5208,
      "ĠkÅ¯l": 5209,
      "Ġssy": 5210,
      "ĠÅ¡etÅĻ": 5211,
      "ĠspÅ¯": 5212,
      "ĠtrÃ¡m": 5213,
      "ĠztvÃ©": 5214,
      "Ġtrob": 5215,
      "Ġlamp": 5216,
      "Ġsteh": 5217,
      "ĠÅ¡perk": 5218,
      "Ġdsk": 5219,
      "Ġmlej": 5220,
      "Ġkas": 5221,
      "ĠÄįiÅ¥": 5222,
      "CCA": 5223,
      "ĠzklÃŃ": 5224,
      "Ġkres": 5225,
      "Ġkluz": 5226,
      "ĠsÅ¥": 5227,
      "ĠdÃ¡Å¥": 5228,
      "ĠhÃ¡l": 5229,
      "Ġsluh": 5230,
      "ĠziÄį": 5231,
      "vÃ¡t": 5232,
      "Ġchlej": 5233,
      "Ġkza": 5234,
      "ĠflÃŃk": 5235,
      "ĠÅĪÅ¯m": 5236,
      "Ġbros": 5237,
      "ĠvpouÅ¡Å¥": 5238,
      "Ġpuch": 5239,
      "ĠschvÃ¡l": 5240,
      "ĠhÅĻmÄĽl": 5241,
      "ĠkmeÅ¥": 5242,
      "Ġvdov": 5243,
      "Ġlog": 5244,
      "Ġzmd": 5245,
      "ĠsdÅ¯": 5246,
      "ĠzrÃ¡l": 5247,
      "Ġtc": 5248,
      "ĠzÄįi": 5249,
      "Ġbuk": 5250,
      "ĠtÃ©r": 5251,
      "Ġsbi": 5252,
      "Ġvskry": 5253,
      "Ġvhud": 5254,
      "Ġhluch": 5255,
      "Ġsved": 5256,
      "ĠloÅĪ": 5257,
      "ĠsÃ¡Å¡": 5258,
      "ĠkÅĻest": 5259,
      "up": 5260,
      "Ġduh": 5261,
      "ĠÅ¡lÃ¡p": 5262,
      "ĠvoÄı": 5263,
      "Ġzkon": 5264,
      "ĠÅ¡lou": 5265,
      "Ġnoz": 5266,
      "ĠvtÅĻe": 5267,
      "Ġllah": 5268,
      "Ġprok": 5269,
      "Ġspjat": 5270,
      "Ġprak": 5271,
      "Ġvjel": 5272,
      "ĠvÅ¡um": 5273,
      "Ġvzkaz": 5274,
      "Ġsam": 5275,
      "ĠpÅĻih": 5276,
      "ĠvkÅĻo": 5277,
      "ĠsnÅ¯v": 5278,
      "Ġrach": 5279,
      "ĠbÄĽn": 5280,
      "ĠpiÅ¥": 5281,
      "ĠdrÃ¡t": 5282,
      "ĠvdÃ¡v": 5283,
      "Ġsvad": 5284,
      "Ġmid": 5285,
      "Ġzkli": 5286,
      "Ġvkon": 5287,
      "Ġfrau": 5288,
      "Ã¶": 5289,
      "Ġmaj": 5290,
      "Ġvstav": 5291,
      "ABCDDC": 5292,
      "Ġzvln": 5293,
      "ĠsÅ¡ÃŃ": 5294,
      "ĠÅ¾hnou": 5295,
      "ĠroÄį": 5296,
      "ĠprÃ¡s": 5297,
      "Ġzlom": 5298,
      "ĠvbÄĽh": 5299,
      "ĠsoÅ¡": 5300,
      "Ġspos": 5301,
      "ĠvjichÅ¾": 5302,
      "Ġsde": 5303,
      "Ġsev": 5304,
      "ĠdlÃŃt": 5305,
      "Ġhvizd": 5306,
      "ĠvzdÃ¡t": 5307,
      "ĠdejÅ¾": 5308,
      "Ġtn": 5309,
      "Ġgor": 5310,
      "ĠzbÃ¡": 5311,
      "ĠshlÃ©d": 5312,
      "ĠsÃ½Å¡": 5313,
      "ĠkÅ¾a": 5314,
      "Ġvtros": 5315,
      "ĠspÄĽt": 5316,
      "AEAE": 5317,
      "ĠpÅĻeÅ¡": 5318,
      "Ġbaj": 5319,
      "th": 5320,
      "ĠÅ¡lu": 5321,
      "Ġtuh": 5322,
      "ĠÅ¡lal": 5323,
      "ĠvstraÅ¡": 5324,
      "Ġzkom": 5325,
      "ĠvchÅ¯": 5326,
      "XAXABC": 5327,
      "ĠrÃ¡r": 5328,
      "Ġchyl": 5329,
      "Ġklec": 5330,
      "ĠÅĪal": 5331,
      "ĠkspÃ¡": 5332,
      "Ġpjal": 5333,
      "Ġmir": 5334,
      "ĠfrÃ½": 5335,
      "Ġvsto": 5336,
      "ĠvpÃ½": 5337,
      "ĠvzhlÃ©": 5338,
      "Ġzchla": 5339,
      "ĠzsvÃ©": 5340,
      "ĠvvÄĽÄį": 5341,
      "ĠsvÅ¡e": 5342,
      "Ġhran": 5343,
      "Ġvmat": 5344,
      "ĠzhrÅ¯": 5345,
      "ĠvpÅĻÃŃÅ¡": 5346,
      "Ġrdou": 5347,
      "AABBXX": 5348,
      "Ġsbu": 5349,
      "ĠtÅĻiÄį": 5350,
      "ĠkplÃ¡": 5351,
      "ĠÄįtyÅĻ": 5352,
      "Ġvproud": 5353,
      "Ġhop": 5354,
      "Ġhma": 5355,
      "Ġvsh": 5356,
      "Ġhouk": 5357,
      "Ġklub": 5358,
      "Ġbard": 5359,
      "Ġzpom": 5360,
      "lech": 5361,
      "ĠpÃŃch": 5362,
      "XAXAXA": 5363,
      "ĠvbouÅĻ": 5364,
      "Ġjve": 5365,
      "Ġhraj": 5366,
      "AABCC": 5367,
      "Ġbert": 5368,
      "Ġgri": 5369,
      "hy": 5370,
      "ĠdÄĽls": 5371,
      "ĠzlÃ©m": 5372,
      "Ġcir": 5373,
      "ĠÄįÃŃl": 5374,
      "ĠhlÅ¯": 5375,
      "ĠtÄĽc": 5376,
      "ĠzmÄĽÅ¥": 5377,
      "ĠstÃŃh": 5378,
      "Ġsir": 5379,
      "ĠktrÅ¯": 5380,
      "Ġzmlh": 5381,
      "Ġmrd": 5382,
      "ĠvÃ¡t": 5383,
      "ĠzÃ¡j": 5384,
      "Ġsyv": 5385,
      "Ġzeb": 5386,
      "ĠslasÅ¥": 5387,
      "Ġhrb": 5388,
      "ABACBC": 5389,
      "ĠjlÃ©": 5390,
      "ĠstÃŃs": 5391,
      "Ġsrb": 5392,
      "XXAA": 5393,
      "ĠstÃ¡v": 5394,
      "ĠpÃ¡Å¡": 5395,
      "Ġsvist": 5396,
      "ĠbrÃ¡n": 5397,
      "Ġjep": 5398,
      "Ġces": 5399,
      "ĠsmÃ½m": 5400,
      "ĠpÃŃk": 5401,
      "Ġvzpjal": 5402,
      "ĠsbÅĻe": 5403,
      "ĠÅ¾uj": 5404,
      "Ġprob": 5405,
      "Ġsvrh": 5406,
      "Ġzhloub": 5407,
      "Ġvak": 5408,
      "Ġktan": 5409,
      "ol": 5410,
      "Ġkord": 5411,
      "ĠvdÃ½m": 5412,
      "Ġhlod": 5413,
      "ĠdlÃ¡m": 5414,
      "Ġcid": 5415,
      "Ġtlej": 5416,
      "FF": 5417,
      "Ġck": 5418,
      "ĠsplÃ©": 5419,
      "Ġsyp": 5420,
      "XAAX": 5421,
      "ĠsvlÃ©": 5422,
      "ĠÅ¡ech": 5423,
      "Ġvsni": 5424,
      "Ġstlou": 5425,
      "Ġvsnu": 5426,
      "Ġblek": 5427,
      "Ġsble": 5428,
      "ĠkÅĻt": 5429,
      "ĠvrÅ¯z": 5430,
      "ĠvcÃŃr": 5431,
      "ĠÄįle": 5432,
      "ĠlkÃ¡t": 5433,
      "ĠzlÃ¡t": 5434,
      "ĠvcÃ¡": 5435,
      "ĠkspÃ¡n": 5436,
      "Ġkoch": 5437,
      "ĠvÃŃÅ¾": 5438,
      "Ġslat": 5439,
      "Ġsoum": 5440,
      "ĠzhouÅ¡": 5441,
      "Ġvhrad": 5442,
      "Ġzmdle": 5443,
      "ĠÅ¡Ã¡l": 5444,
      "ABXX": 5445,
      "ĠbaÅ¡": 5446,
      "Ġvpan": 5447,
      "Ġbvi": 5448,
      "ĠÅĻet": 5449,
      "ÅĪÃ¡": 5450,
      "ĠtÅĻej": 5451,
      "Ġtvrz": 5452,
      "Ġtroud": 5453,
      "AXABCB": 5454,
      "ĠmnÃŃÅ¡": 5455,
      "ADD": 5456,
      "Ġshra": 5457,
      "Ġcus": 5458,
      "ĠvÅ¾Ã¡r": 5459,
      "ĠvÅ¡el": 5460,
      "Ġvrop": 5461,
      "Ġsef": 5462,
      "ĠlÃ¡d": 5463,
      "Ġhles": 5464,
      "Ġdrh": 5465,
      "ĠzdÃ¡t": 5466,
      "ĠÅ¥Äįe": 5467,
      "ĠvneÅ¡": 5468,
      "ĠchtÃŃÄį": 5469,
      "Ġzdum": 5470,
      "ĠÄįac": 5471,
      "XAXAXX": 5472,
      "ĠvlÃ¡k": 5473,
      "ĠchÃ½Å¡": 5474,
      "ĠzrÃ½": 5475,
      "ĠskrÃ½t": 5476,
      "Ġsplav": 5477,
      "Ġslet": 5478,
      "ĠzvÃ¡Å¾": 5479,
      "Ġvpev": 5480,
      "ĠkyÅ¾": 5481,
      "Ġpet": 5482,
      "ĠvznÃ©st": 5483,
      "Ġag": 5484,
      "Ġztla": 5485,
      "ĠsbÃŃr": 5486,
      "Ġras": 5487,
      "ky": 5488,
      "Ġjh": 5489,
      "ĠvÅ¾al": 5490,
      "Ġsdce": 5491,
      "Ġknuv": 5492,
      "ĠhoÅ¡": 5493,
      "ĠhÅĻÃ¡t": 5494,
      "Ġkhru": 5495,
      "Ġvstoup": 5496,
      "Ġvtlu": 5497,
      "Ġec": 5498,
      "Ġztlu": 5499,
      "Ġztre": 5500,
      "Ġzdep": 5501,
      "Ġksy": 5502,
      "Ġprask": 5503,
      "ÅĪal": 5504,
      "Ġvtla": 5505,
      "Ġvzdej": 5506,
      "Ġfin": 5507,
      "ĠÅ¾rÃ¡": 5508,
      "Ġvut": 5509,
      "ĠtouÄį": 5510,
      "ĠklÃ¡st": 5511,
      "Ġhviz": 5512,
      "ĠzÅ¯m": 5513,
      "ĠstrasÅ¥": 5514,
      "ĠtÅĻÃŃc": 5515,
      "Ġsdan": 5516,
      "Ġhloh": 5517,
      "ĠzdÄĽt": 5518,
      "ĠpskÃ½ch": 5519,
      "ĠjÃŃÄį": 5520,
      "Ġklat": 5521,
      "ĠvÅĻeÅ¡": 5522,
      "Ġskot": 5523,
      "Ġschou": 5524,
      "ĠhÅĻmÃŃt": 5525,
      "ĠstvÄĽ": 5526,
      "ĠhaÄį": 5527,
      "ĠflÃ³": 5528,
      "ĠbouÄį": 5529,
      "ĠztÅĻe": 5530,
      "Ġvzep": 5531,
      "Ġzcha": 5532,
      "Ġwe": 5533,
      "Ġsg": 5534,
      "Ġvpos": 5535,
      "ĠÅ¥Ã¡k": 5536,
      "Ġdvrh": 5537,
      "AXAA": 5538,
      "Ġbob": 5539,
      "ĠzÄįÃŃ": 5540,
      "ĠpeÅ¡": 5541,
      "ĠkrÃ½ch": 5542,
      "Ġbic": 5543,
      "ĠbraÅ¥": 5544,
      "Ġshu": 5545,
      "ĠvlÃ¡t": 5546,
      "Ġmau": 5547,
      "ĠtrÄį": 5548,
      "Ġsvah": 5549,
      "Ġdles": 5550,
      "ĠmÄĽls": 5551,
      "AADD": 5552,
      "Ġvtrp": 5553,
      "ĠnÄĽv": 5554,
      "Ġkpe": 5555,
      "ĠchÃ½Å¾": 5556,
      "Ġsklep": 5557,
      "Ġvbah": 5558,
      "Ġzbez": 5559,
      "Ġvsho": 5560,
      "ĠtmÃ¡": 5561,
      "ĠzdÅĻÃŃm": 5562,
      "AAABB": 5563,
      "Ġzast": 5564,
      "XXAX": 5565,
      "lun": 5566,
      "ĠvplÃŃ": 5567,
      "ĠptÃ¡Å¡": 5568,
      "ĠsmÃŃÅ¡": 5569,
      "ĠctÄĽn": 5570,
      "Ġkhar": 5571,
      "Ġsov": 5572,
      "ĠgrÃ¡": 5573,
      "ĠÄıme": 5574,
      "ĠvzbuÄı": 5575,
      "ĠztvÃ¡": 5576,
      "ĠzvÃŃd": 5577,
      "ĠÅ¾ne": 5578,
      "Ġzper": 5579,
      "ĠÅ¡ejd": 5580,
      "ĠonÅ¥": 5581,
      "ACDD": 5582,
      "Ġslout": 5583,
      "ĠvÅĻÃŃs": 5584,
      "Ġdlej": 5585,
      "ĠhlÃº": 5586,
      "Ġoud": 5587,
      "ĠvdÄĽt": 5588,
      "ĠvÃºc": 5589,
      "Ġvstup": 5590,
      "ĠÅ¡eÅ¥": 5591,
      "ĠstÃŃch": 5592,
      "Ġsum": 5593,
      "ĠsdÃŃt": 5594,
      "ĠvchÃ½": 5595,
      "Ġtrouch": 5596,
      "AAXXBB": 5597,
      "Ġbus": 5598,
      "Ġbiz": 5599,
      "Ġvrej": 5600,
      "ĠcÃ½r": 5601,
      "ĠklÃŃÅĻ": 5602,
      "ĠvzlÃ©t": 5603,
      "Ġsza": 5604,
      "Ġvblu": 5605,
      "ĠtevÅĻ": 5606,
      "ĠlpÄĽ": 5607,
      "Ġcej": 5608,
      "ĠsÅ¯l": 5609,
      "Ġmdlob": 5610,
      "ĠtÅĻas": 5611,
      "Ġzkaz": 5612,
      "ĠvloÅ¾": 5613,
      "Ġai": 5614,
      "ĠvisÅ¥": 5615,
      "ĠzbÅĻe": 5616,
      "ĠtÅĻech": 5617,
      "Ġzhan": 5618,
      "ĠsÅĻe": 5619,
      "Ġkrt": 5620,
      "Ġvsbo": 5621,
      "ĠtÅĻev": 5622,
      "Ġcval": 5623,
      "Ġoch": 5624,
      "Ġlim": 5625,
      "Ġvas": 5626,
      "ĠtaÅ¡": 5627,
      "ĠsprÃ¡z": 5628,
      "Ġsun": 5629,
      "ĠmnÄĽl": 5630,
      "Ġdlost": 5631,
      "Ġnals": 5632,
      "Ġvsvor": 5633,
      "Ġjec": 5634,
      "Ġsmla": 5635,
      "Ġdroz": 5636,
      "Ġchav": 5637,
      "Ġhrud": 5638,
      "Ġvsed": 5639,
      "Ġakt": 5640,
      "ÃŃs": 5641,
      "ĠvÃ¡c": 5642,
      "ĠnnÃ¡m": 5643,
      "ĠvdÅ¯l": 5644,
      "ĠzblÃ¡z": 5645,
      "Ġprej": 5646,
      "Ġvps": 5647,
      "ĠÅ¡plÃŃ": 5648,
      "Ġvve": 5649,
      "Ġtau": 5650,
      "ĠtÄĽp": 5651,
      "Ġvkar": 5652,
      "ĠzmÃ½": 5653,
      "Ġtman": 5654,
      "ĠÅ¡ov": 5655,
      "lan": 5656,
      "Ġzst": 5657,
      "Ġsman": 5658,
      "ĠvlÃ¡l": 5659,
      "Ġzvlh": 5660,
      "Ġjic": 5661,
      "ĠmuÅ¥": 5662,
      "Ġvklu": 5663,
      "Ġzhl": 5664,
      "ĠÄıu": 5665,
      "Ġgerd": 5666,
      "ĠÄįis": 5667,
      "Ġvper": 5668,
      "ĠzhvÄĽz": 5669,
      "Ġpuj": 5670,
      "ĠskloÅĪ": 5671,
      "Ġsver": 5672,
      "ĠshlÃŃd": 5673,
      "Ġzlid": 5674,
      "Ġumf": 5675,
      "Ġsjel": 5676,
      "jÅ¡": 5677,
      "Ġjlil": 5678,
      "ĠÅ¾ÃŃÄį": 5679,
      "Ġvus": 5680,
      "ĠryÅ¡": 5681,
      "ĠzkÅĻe": 5682,
      "ĠkamÅ¾": 5683,
      "ĠtÅĻa": 5684,
      "ĠvnÃ¡d": 5685,
      "ĠvplÃ¡Å¡Å¥": 5686,
      "ĠÄįpÃŃ": 5687,
      "Ġpam": 5688,
      "Ġtvrd": 5689,
      "ĠjsemÅ¥": 5690,
      "Ġtym": 5691,
      "ĠgÃ¡n": 5692,
      "ĠzÃ¡Å¡t": 5693,
      "ĠsdÃŃl": 5694,
      "Ġie": 5695,
      "Ġham": 5696,
      "ĠkeÅ¡": 5697,
      "Ġnezv": 5698,
      "Ġschnou": 5699,
      "ĠÅĻan": 5700,
      "Ġgraf": 5701,
      "ĠvlÅ¯Å¾": 5702,
      "AXBBCD": 5703,
      "Ġcleh": 5704,
      "ĠjvejÅ¡": 5705,
      "Ġgou": 5706,
      "ĠkleÄį": 5707,
      "ĠchvÄĽn": 5708,
      "Ġzvel": 5709,
      "ill": 5710,
      "Ġbon": 5711,
      "ĠzhnÄĽ": 5712,
      "ĠbÅ¯Å¾": 5713,
      "ĠmstÃŃt": 5714,
      "Ġzbav": 5715,
      "ĠsÅ¾a": 5716,
      "ĠtakÅĻ": 5717,
      "ĠhuÄį": 5718,
      "ĠpÃ¡Äį": 5719,
      "ĠzchvÃ¡": 5720,
      "ĠvbÃŃd": 5721,
      "Ġzsrd": 5722,
      "ĠjÃ¡ÅĻ": 5723,
      "Ġvleh": 5724,
      "ĠskÅĻÃŃt": 5725,
      "ĠzklÃ¡Å¡": 5726,
      "Ġmol": 5727,
      "ĠbeÄį": 5728,
      "Ġbram": 5729,
      "ĠkliÄį": 5730,
      "ĠblÃ½Å¡": 5731,
      "Ġvzmach": 5732,
      "ĠvsvÃ¡": 5733,
      "Ġbrach": 5734,
      "ĠgÃ¡t": 5735,
      "Ġsba": 5736,
      "ĠsviÅ¾": 5737,
      "ĠÅ¡plech": 5738,
      "ĠrÃ¡t": 5739,
      "Ġkleb": 5740,
      "Ġvbod": 5741,
      "Ġvskle": 5742,
      "ACXC": 5743,
      "ĠÄįnÄĽl": 5744,
      "Ġbiv": 5745,
      "ĠkpÅ¯": 5746,
      "ĠÅ¡Å¯v": 5747,
      "ĠstkvÄĽl": 5748,
      "ĠbÃŃÄį": 5749,
      "ĠzmÅ¯": 5750,
      "ĠstvÃŃch": 5751,
      "ir": 5752,
      "ĠnÃ½ÅĻ": 5753,
      "Ġsoch": 5754,
      "ĠshnÄĽ": 5755,
      "ĠdlÃŃÅ¡": 5756,
      "ĠprÅ¯s": 5757,
      "kou": 5758,
      "Ġzvat": 5759,
      "Ġbac": 5760,
      "Ġzprou": 5761,
      "Ġvsmrt": 5762,
      "ĠtrÃ³": 5763,
      "Ġstuj": 5764,
      "Ġzhru": 5765,
      "ĠnÄĽjÅ¾": 5766,
      "Ġrre": 5767,
      "ĠÄįÃ¡l": 5768,
      "Ġph": 5769,
      "ĠcÅ¾e": 5770,
      "Ġstam": 5771,
      "ĠplÃ½ch": 5772,
      "ĠÄįich": 5773,
      "ĠhlaÄı": 5774,
      "Ã³r": 5775,
      "Ġzjich": 5776,
      "ĠvÃŃch": 5777,
      "Ġdik": 5778,
      "ĠvsÃ¡z": 5779,
      "Ġvdar": 5780,
      "Ġdrozd": 5781,
      "Ġvyn": 5782,
      "Ġktre": 5783,
      "ĠroÅ¾": 5784,
      "XXXA": 5785,
      "ĠvzÅĪal": 5786,
      "Ġstot": 5787,
      "Ġksu": 5788,
      "ĠslÃŃp": 5789,
      "Ġzlet": 5790,
      "Ġxal": 5791,
      "Ġlnou": 5792,
      "Ġsplo": 5793,
      "ĠbÃ½k": 5794,
      "Ġkpou": 5795,
      "ĠstÃ½l": 5796,
      "ĠzpÃŃs": 5797,
      "Ġhust": 5798,
      "ĠvbrÃ¡": 5799,
      "ĠshÅĻÃŃ": 5800,
      "Ġvjes": 5801,
      "Ġcul": 5802,
      "Ġmrk": 5803,
      "ĠÅ¾by": 5804,
      "rob": 5805,
      "Ġkdvo": 5806,
      "Ġsav": 5807,
      "Ġchuj": 5808,
      "ĠchyÅ¥": 5809,
      "Ġznoj": 5810,
      "ĠtrÅ¯v": 5811,
      "Ġzchy": 5812,
      "Ġlv": 5813,
      "ĠÅĻÃŃn": 5814,
      "ĠstÃŃÅ¾": 5815,
      "Ġznou": 5816,
      "Ġzhled": 5817,
      "ĠslÃ¡n": 5818,
      "ĠknÃŃm": 5819,
      "ĠbÅ¯j": 5820,
      "ĠhnÃŃ": 5821,
      "ĠliÅ¥": 5822,
      "Ġzdou": 5823,
      "Ġzdor": 5824,
      "Ġvmno": 5825,
      "ĠslÃŃch": 5826,
      "ĠvÄįlo": 5827,
      "ĠnnÄĽj": 5828,
      "aN": 5829,
      "Ġstep": 5830,
      "ĠNaN": 5831,
      "Ġkzd": 5832,
      "ĠzvÃŃÅ¡": 5833,
      "Ġbrouk": 5834,
      "Ġprys": 5835,
      "Ġsnub": 5836,
      "ABBCDC": 5837,
      "Ġvzpru": 5838,
      "ĠvniÅ¾": 5839,
      "ĠzÅ¯v": 5840,
      "Ġmast": 5841,
      "Ġsre": 5842,
      "ĠrÅ¾": 5843,
      "Ġjiv": 5844,
      "Ġsmol": 5845,
      "ĠsvÃ¡l": 5846,
      "ĠzyÄį": 5847,
      "ĠvpÅ¯t": 5848,
      "ADE": 5849,
      "lÅ¯": 5850,
      "ĠsÅ¾ÃŃ": 5851,
      "Ġnuj": 5852,
      "ĠÅ¡ept": 5853,
      "Ġvples": 5854,
      "ĠzluÄį": 5855,
      "ĠÅ¾da": 5856,
      "Ġvpal": 5857,
      "ĠÅĪat": 5858,
      "Ġxu": 5859,
      "Ġkoh": 5860,
      "Ġvstru": 5861,
      "Ġshrou": 5862,
      "Ġskost": 5863,
      "ĠÅ¡tu": 5864,
      "Ġspik": 5865,
      "ĠsfÃ©r": 5866,
      "Ġtnou": 5867,
      "ĠpÅĻer": 5868,
      "Ġvbra": 5869,
      "ĠjÅ¯v": 5870,
      "Ġzcu": 5871,
      "ĠstrÅ¾": 5872,
      "Ġkbe": 5873,
      "ĠstÅĻih": 5874,
      "ĠvpÄĽk": 5875,
      "ĠpsÃŃk": 5876,
      "Ġtron": 5877,
      "ĠkÅĻÃ¡l": 5878,
      "Ġzvrh": 5879,
      "ĠÅ¡ÅĪÅ¯": 5880,
      "Ġjir": 5881,
      "ĠlÃŃh": 5882,
      "Ġdvy": 5883,
      "ĠztÃ½": 5884,
      "mur": 5885,
      "Ġnai": 5886,
      "ĠroÅĪ": 5887,
      "ĠsloÅ¾": 5888,
      "Ġtknou": 5889,
      "ĠsÃºc": 5890,
      "ĠsoÅĪ": 5891,
      "Ġsouz": 5892,
      "ĠkÅĻiÄį": 5893,
      "XABC": 5894,
      "ĠdÅĻec": 5895,
      "ĠplÃ©m": 5896,
      "ĠspleÅ¥": 5897,
      "Ġkin": 5898,
      "Ġcil": 5899,
      "ĠÄįec": 5900,
      "Ġlus": 5901,
      "Ġfem": 5902,
      "Ġboum": 5903,
      "ĠchÃ¡s": 5904,
      "ĠmlÅ¾": 5905,
      "ĠkÃ½ms": 5906,
      "ĠÅ¡tkÃ¡": 5907,
      "ĠslÃ©t": 5908,
      "ĠkrÃ½t": 5909,
      "Ġskvrn": 5910,
      "ĠtcÅ¯": 5911,
      "ĠsiÅ¥": 5912,
      "ĠlÃ¡l": 5913,
      "ĠfÄĽ": 5914,
      "Ġkvar": 5915,
      "Ġvlep": 5916,
      "ĠspÃŃm": 5917,
      "Ġskyt": 5918,
      "ĠbÅĻich": 5919,
      "Ġvblan": 5920,
      "ĠvÅĪÃ¡": 5921,
      "ABXC": 5922,
      "Ġzty": 5923,
      "Ġznec": 5924,
      "Ġlymp": 5925,
      "Ġthic": 5926,
      "ĠÄįly": 5927,
      "ĠzkvÃŃ": 5928,
      "ĠhÅ¯d": 5929,
      "ĠfÃŃr": 5930,
      "ĠpÃ©m": 5931,
      "Ġchvi": 5932,
      "Ġchvost": 5933,
      "ĠmiÅ¡": 5934,
      "ĠstvÅ¯r": 5935,
      "Ġksla": 5936,
      "ĠzÃ½ch": 5937,
      "Ġzab": 5938,
      "ĠkuÅĪ": 5939,
      "ĠkÃ¡l": 5940,
      "ĠkÅĻeÄį": 5941,
      "Ġvvz": 5942,
      "ĠÅĻkouc": 5943,
      "ĠÄįr": 5944,
      "ĠlÃ©n": 5945,
      "ĠziÅ¡": 5946,
      "ĠÅ¾an": 5947,
      "Ġfes": 5948,
      "ĠvÅĻeÅ¥": 5949,
      "ĠsviÅ¥": 5950,
      "ĠssvÄĽ": 5951,
      "ĠvdeÅ¡": 5952,
      "Ġcis": 5953,
      "ĠstiÅ¾": 5954,
      "ĠgÅ¯": 5955,
      "Ġvstej": 5956,
      "ĠkÅ¡i": 5957,
      "ĠvtvÅ¯j": 5958,
      "ĠÅ¡ma": 5959,
      "AACC": 5960,
      "ĠdlÃ¡Å¾": 5961,
      "ĠÅĻÃŃct": 5962,
      "ĠlhÃ¡ÅĻ": 5963,
      "Ġzvlast": 5964,
      "Ġzg": 5965,
      "ĠvpÅĻÃ¡": 5966,
      "Ġmoun": 5967,
      "Ġbun": 5968,
      "Ġvlaj": 5969,
      "Ġzblu": 5970,
      "ĠchrÃ¡n": 5971,
      "Ġvkost": 5972,
      "Ġbom": 5973,
      "Ġksi": 5974,
      "ĠÅ¡tka": 5975,
      "ĠchyÅĪ": 5976,
      "ĠvleÄį": 5977,
      "Ġnven": 5978,
      "Ġzbr": 5979,
      "voz": 5980,
      "ĠkbÃŃ": 5981,
      "Ġfrak": 5982,
      "ĠsdÃŃv": 5983,
      "Ġjla": 5984,
      "ĠvdÃ½": 5985,
      "ĠplÃ½m": 5986,
      "Ġkroj": 5987,
      "ĠknÄĽh": 5988,
      "ĠÅ¡an": 5989,
      "Ġgun": 5990,
      "24": 5991,
      "Ġvjem": 5992,
      "Ġpluj": 5993,
      "Ġvrum": 5994,
      "Ġvdav": 5995,
      "ĠdÅ¡ti": 5996,
      "Ġvvoj": 5997,
      "Ġrhy": 5998,
      "Å¡em": 5999,
      "Ġveh": 6000,
      "Ġzke": 6001,
      "ĠzÃ½s": 6002,
      "Ġzboj": 6003,
      "Ġvjis": 6004,
      "ĠmoÅĪ": 6005,
      "Ġvtvo": 6006,
      "Ġeo": 6007,
      "Ġsles": 6008,
      "ĠzhÅĻe": 6009,
      "ĠblÃŃÄį": 6010,
      "Ġspar": 6011,
      "ĠstÅĻÃŃk": 6012,
      "Ġzlen": 6013,
      "Ġbrub": 6014,
      "ĠsplÃ¡ch": 6015,
      "ĠmlÃŃ": 6016,
      "Ġkun": 6017,
      "ĠvÅ¡ad": 6018,
      "ĠboÅ¡": 6019,
      "ĠsbÃ¡z": 6020,
      "ĠvhluÄį": 6021,
      "ĠvtÃŃs": 6022,
      "Ġjhem": 6023,
      "ĠrÃº": 6024,
      "ĠÅĻech": 6025,
      "Ġhouc": 6026,
      "Ġhrub": 6027,
      "ĠÅ¾ov": 6028,
      "ĠchÅĻest": 6029,
      "ĠstÅĻil": 6030,
      "ĠhÃ¡k": 6031,
      "ĠvÅ¯v": 6032,
      "Ġplec": 6033,
      "ĠkneÅ¡": 6034,
      "ĠlÃ©zt": 6035,
      "Ġvrak": 6036,
      "Ġges": 6037,
      "Ġvryt": 6038,
      "Ġprov": 6039,
      "Ġprk": 6040,
      "Ġkuds": 6041,
      "ĠbrouÄį": 6042,
      "ĠstÃ¡Å¡": 6043,
      "Ġlouk": 6044,
      "ĠvzÃ¡ÅĻ": 6045,
      "Ġumr": 6046,
      "ĠsnÃ©st": 6047,
      "ĠschrÃ¡n": 6048,
      "ĠvÅĻÃ¡": 6049,
      "Ġlne": 6050,
      "Ġvsvi": 6051,
      "Ġhoust": 6052,
      "Ġzot": 6053,
      "ĠanÅ¥": 6054,
      "Ġbrys": 6055,
      "Ġvzim": 6056,
      "ĠvtÅ¯ÅĪ": 6057,
      "Ġvbrz": 6058,
      "BA": 6059,
      "ber": 6060,
      "Ġvyt": 6061,
      "ĠtakÅ¾": 6062,
      "ĠmÃŃÄį": 6063,
      "ĠkÅ¯r": 6064,
      "Ġgh": 6065,
      "ĠvkÅĻÃŃ": 6066,
      "Ġtlak": 6067,
      "ĠtloÅĪ": 6068,
      "ĠknÃ½ch": 6069,
      "ĠvssÃ¡": 6070,
      "ĠslÃ½m": 6071,
      "ĠpÅĻÃŃj": 6072,
      "ĠschvÄĽ": 6073,
      "ĠÅ¡plou": 6074,
      "Ġnvi": 6075,
      "Ġlaur": 6076,
      "ĠsvÄĽÅ¥": 6077,
      "Ġvdou": 6078,
      "ĠsvÃŃc": 6079,
      "ĠkbrÃ¡": 6080,
      "ĠsvraÅ¡": 6081,
      "ĠdÃŃn": 6082,
      "Ġsmil": 6083,
      "Ġzdat": 6084,
      "ĠvÅ¡im": 6085,
      "Ġspis": 6086,
      "ĠpliÄį": 6087,
      "Ġstec": 6088,
      "Ġmont": 6089,
      "Ġdbal": 6090,
      "ĠvspÃŃ": 6091,
      "ĠhnÃŃzd": 6092,
      "ĠzdÅ¯": 6093,
      "Ġhyn": 6094,
      "Ġzkni": 6095,
      "ĠÄįti": 6096,
      "Ġmul": 6097,
      "ĠvÃ½r": 6098,
      "Ġdran": 6099,
      "ĠchtÄĽj": 6100,
      "Ġkvel": 6101,
      "ĠvlÃŃÄį": 6102,
      "ĠkÅĻti": 6103,
      "Ġrit": 6104,
      "Ġvkry": 6105,
      "Ġcro": 6106,
      "ĠÅĻiÄı": 6107,
      "Ġsprost": 6108,
      "ĠÅ¡ÃŃÄį": 6109,
      "Ġsoh": 6110,
      "Ġdvad": 6111,
      "Ġzky": 6112,
      "ĠÅ¡pl": 6113,
      "Ġcan": 6114,
      "ĠmniÅ¡": 6115,
      "Ġvsr": 6116,
      "Ġhen": 6117,
      "Ġznes": 6118,
      "Ġknouc": 6119,
      "Ġvpur": 6120,
      "ĠhÃºt": 6121,
      "Ġkdi": 6122,
      "ĠdlÅ¯m": 6123,
      "Ġvhmo": 6124,
      "Ġzhnu": 6125,
      "Ġvled": 6126,
      "Ġsfe": 6127,
      "ĠvzmÃ¡": 6128,
      "Ã¡d": 6129,
      "ĠrÃ¡c": 6130,
      "Ġstret": 6131,
      "Ġvdnech": 6132,
      "Ġslez": 6133,
      "Ġzkor": 6134,
      "ĠvÅĻesk": 6135,
      "Ġdlid": 6136,
      "ĠsdrÃ¡": 6137,
      "Ġvbol": 6138,
      "ĠdÅĻel": 6139,
      "Ġovz": 6140,
      "ĠnnosÅ¥": 6141,
      "ĠvspÄĽch": 6142,
      "ĠvoÅ¡": 6143,
      "ĠÅ¾ÃŃÅ¥": 6144,
      "Ġvdne": 6145,
      "Ġslon": 6146,
      "ĠvmÅ¾ik": 6147,
      "Ġkub": 6148,
      "Ġstich": 6149,
      "Ġraf": 6150,
      "Ġpsu": 6151,
      "ĠzÃ½c": 6152,
      "ĠdÃ³m": 6153,
      "ĠmÄĽs": 6154,
      "Ġdls": 6155,
      "Ġsvan": 6156,
      "ĠkpÃŃs": 6157,
      "Ġkzp": 6158,
      "ĠknÃ½m": 6159,
      "ĠdvÃŃÅĻ": 6160,
      "ABBCDD": 6161,
      "ĠvskrÃ¡ÅĪ": 6162,
      "ĠkÅ¡e": 6163,
      "ĠÅ¾est": 6164,
      "ĠÅ¡iv": 6165,
      "Ġkvl": 6166,
      "Ġzver": 6167,
      "Ġsry": 6168,
      "ĠzÅ¾en": 6169,
      "ĠrÅ¾e": 6170,
      "ĠdÃ½s": 6171,
      "Ġrouch": 6172,
      "Ġskrou": 6173,
      "ĠÅ¡lÃŃm": 6174,
      "ACDC": 6175,
      "Ġtce": 6176,
      "ĠbÅĻad": 6177,
      "ĠstlÃŃ": 6178,
      "Ġtval": 6179,
      "ĠstÅĻeh": 6180,
      "Ġgot": 6181,
      "Ġpliv": 6182,
      "dÄĽÄį": 6183,
      "Ġvvy": 6184,
      "Ġlap": 6185,
      "ĠnÃ¡r": 6186,
      "Ġkvz": 6187,
      "Ġztad": 6188,
      "ĠÅ¾alm": 6189,
      "Ġvhoj": 6190,
      "ĠplÃ©st": 6191,
      "ĠskÅĻip": 6192,
      "ĠzhoÅĻ": 6193,
      "Ġwi": 6194,
      "Ġrhyt": 6195,
      "ĠzÃŃtÅĻ": 6196,
      "Ġzmen": 6197,
      "Ġstvr": 6198,
      "ĠhÅĻej": 6199,
      "AAXBCC": 6200,
      "im": 6201,
      "krÃ¡": 6202,
      "Ġlab": 6203,
      "ĠvÅ¾ha": 6204,
      "ĠtlÅ¯": 6205,
      "ĠdnÃŃch": 6206,
      "ĠtskÃ©": 6207,
      "ÅĻil": 6208,
      "Ġvbur": 6209,
      "rÃ½m": 6210,
      "liÅ¾": 6211,
      "Ġsmar": 6212,
      "Ġvdrob": 6213,
      "Ġgem": 6214,
      "Ġzvoj": 6215,
      "Ġzhyz": 6216,
      "Ġsvle": 6217,
      "Ġhuj": 6218,
      "ĠhluÅ¡": 6219,
      "Ġktu": 6220,
      "ĠplyÅĪ": 6221,
      "Ġtric": 6222,
      "ABXA": 6223,
      "ĠkdÃ¡": 6224,
      "Ġvtra": 6225,
      "ĠvstÃ¡t": 6226,
      "Ġksl": 6227,
      "Ġstlin": 6228,
      "Ġkhu": 6229,
      "ĠclÃ¡": 6230,
      "Ġzvec": 6231,
      "Ġzbuj": 6232,
      "ĠkstÃ¡": 6233,
      "ĠcÃ¡t": 6234,
      "Ġski": 6235,
      "ĠtvÃ¡ch": 6236,
      "ĠksvÃ¡t": 6237,
      "ABBAAB": 6238,
      "Ġfis": 6239,
      "ĠvplÃ¡Å¡": 6240,
      "ĠmÃ³d": 6241,
      "Ġdeh": 6242,
      "ĠÄįÃŃs": 6243,
      "ĠlÃŃr": 6244,
      "Ġpodv": 6245,
      "Ġpsot": 6246,
      "nÅ¯": 6247,
      "Ġust": 6248,
      "ĠvÃ¡Äį": 6249,
      "ĠdÃ½n": 6250,
      "Ġvsti": 6251,
      "ĠkzlÃ©": 6252,
      "Ġbrus": 6253,
      "Ġzprv": 6254,
      "ĠzluÅ¡": 6255,
      "ĠsÅ¡u": 6256,
      "Ġvkan": 6257,
      "Ġtruj": 6258,
      "Ġbrun": 6259,
      "ĠjiÅ¥": 6260,
      "Ġskor": 6261,
      "ĠsnÄĽÅ¥": 6262,
      "ĠstÅĻÃŃd": 6263,
      "ĠnauÄį": 6264,
      "ld": 6265,
      "ĠsnÃ¡z": 6266,
      "Ġrakt": 6267,
      "Ġsvej": 6268,
      "Ġzrus": 6269,
      "Ġkloud": 6270,
      "ĠkÅ¡p": 6271,
      "ĠzlÅ¯Å¾": 6272,
      "ĠcÃŃp": 6273,
      "ĠlÃŃs": 6274,
      "Ġsper": 6275,
      "ĠreÅ¾": 6276,
      "ĠbÃ¡r": 6277,
      "AAAX": 6278,
      "ĠchrlÃŃ": 6279,
      "Ġchmel": 6280,
      "ABAABC": 6281,
      "ĠpÅĻÃŃÄį": 6282,
      "ĠvÅ¾lu": 6283,
      "Ġzran": 6284,
      "ĠzmÄĽst": 6285,
      "ĠÄįtla": 6286,
      "Ġchrap": 6287,
      "ĠÅ¾nÃŃch": 6288,
      "Ġvzno": 6289,
      "Ġvzpur": 6290,
      "ĠvÅ¯l": 6291,
      "ĠvzdÃ½": 6292,
      "ym": 6293,
      "ĠtnÃ¡": 6294,
      "Ġjom": 6295,
      "Ġrry": 6296,
      "Ġryn": 6297,
      "Ġzpru": 6298,
      "Ġstuh": 6299,
      "ĠhouÄį": 6300,
      "Ġvzrost": 6301,
      "Ġfred": 6302,
      "Ġzvni": 6303,
      "ĠtÅĻo": 6304,
      "Ġthen": 6305,
      "ĠvÄįt": 6306,
      "Ġstka": 6307,
      "ĠdnÅ¯v": 6308,
      "ĠsÅ¡i": 6309,
      "ĠÅ¡let": 6310,
      "Ġsfor": 6311,
      "Ġvf": 6312,
      "ĠjÃ¡n": 6313,
      "ĠÄįÃ¡k": 6314,
      "Ġxa": 6315,
      "Ġscvr": 6316,
      "ĠÄįlÃ¡n": 6317,
      "Ġler": 6318,
      "ĠvloÄı": 6319,
      "ĠchÅĻiÅ¡": 6320,
      "Ġkvoj": 6321,
      "ĠfrÃ½d": 6322,
      "ĠÅ¡ÃŃn": 6323,
      "ĠvplÃ©": 6324,
      "Ġzon": 6325,
      "Ġslin": 6326,
      "ĠtÅĻÃŃÅ¡Å¥": 6327,
      "Ġktem": 6328,
      "ĠmlÃ¡Äı": 6329,
      "ABCCAB": 6330,
      "Ġtret": 6331,
      "ĠprsÅ¥": 6332,
      "ĠÅĻic": 6333,
      "ĠreÅ¡": 6334,
      "Ġzysk": 6335,
      "Ġstruk": 6336,
      "AXBX": 6337,
      "Ġmhy": 6338,
      "ĠsaÄı": 6339,
      "Ġgla": 6340,
      "ĠchmÃ½": 6341,
      "ĠvÅ¾Ã¡d": 6342,
      "Ġlnu": 6343,
      "Ġvklen": 6344,
      "tÃ¡n": 6345,
      "ĠraÅ¥": 6346,
      "Ġvprud": 6347,
      "Ġbour": 6348,
      "Ġvlem": 6349,
      "ĠstvÃ½m": 6350,
      "Ġcent": 6351,
      "Ġvsloup": 6352,
      "Ġpnul": 6353,
      "ĠstÅĻet": 6354,
      "Ġzcest": 6355,
      "Ġkstup": 6356,
      "Ġhmot": 6357,
      "ĠkchvÃ¡": 6358,
      "ĠÄįiÅ¾": 6359,
      "ĠsvÃ©st": 6360,
      "Ġbrej": 6361,
      "AF": 6362,
      "Ġcom": 6363,
      "ĠchvÄĽv": 6364,
      "ĠÅ¡tval": 6365,
      "Ġchvy": 6366,
      "Ġstlal": 6367,
      "Ġvcy": 6368,
      "ĠvmraÄį": 6369,
      "ĠcvrÄį": 6370,
      "ĠbÅĻa": 6371,
      "ĠmÃ¡d": 6372,
      "Ġkbou": 6373,
      "Ġkjed": 6374,
      "ĠsjÃŃÅ¾": 6375,
      "kal": 6376,
      "Ġaet": 6377,
      "Ġspjal": 6378,
      "ĠsÃŃg": 6379,
      "Ġvdr": 6380,
      "Ġshled": 6381,
      "Ġul": 6382,
      "ĠÅ¡eÅĻ": 6383,
      "ĠlÃŃb": 6384,
      "Ġvsan": 6385,
      "Ġbrad": 6386,
      "Ġvkme": 6387,
      "Ġklin": 6388,
      "Ġkpla": 6389,
      "ĠÅ¡Å¥av": 6390,
      "ĠtkvÄĽl": 6391,
      "ĠzeÅ¡": 6392,
      "Ġlum": 6393,
      "ĠchÃ½n": 6394,
      "ĠznaÄį": 6395,
      "Ġkij": 6396,
      "Ġzdla": 6397,
      "Ġvlil": 6398,
      "ĠÅ¡prÃ½": 6399,
      "ĠvmuÅ¾": 6400,
      "ADAD": 6401,
      "tno": 6402,
      "ĠsÃŃl": 6403,
      "ĠÅ¡iÅ¥": 6404,
      "Ġvlad": 6405,
      "ĠdÃ½l": 6406,
      "Ġcuk": 6407,
      "ĠÄįtyr": 6408,
      "ĠvjÃŃÅ¾": 6409,
      "pa": 6410,
      "ĠnaÅ¡": 6411,
      "ĠstvÃ½ch": 6412,
      "ĠstrÃ¡z": 6413,
      "Ġkhan": 6414,
      "Ġkyj": 6415,
      "Ġstoun": 6416,
      "ĠdrÃ¡p": 6417,
      "ĠztiÅ¡": 6418,
      "ĠskvÃŃt": 6419,
      "ĠnÃº": 6420,
      "ÃŃm": 6421,
      "ĠzeÅ¥": 6422,
      "ĠstÅĻÃŃm": 6423,
      "ĠmdlÃŃ": 6424,
      "ĠÅ¡Ã¡n": 6425,
      "um": 6426,
      "Ġkain": 6427,
      "Ġsklem": 6428,
      "ĠÅ¡ÃŃÅ¥": 6429,
      "ĠkrÃ¡ch": 6430,
      "ĠprÃ¡l": 6431,
      "Ġvzdou": 6432,
      "ĠklÅ¯": 6433,
      "Ġvnov": 6434,
      "ĠÅ¡lost": 6435,
      "AXBA": 6436,
      "ĠsdÄĽc": 6437,
      "CX": 6438,
      "ĠbÃ³": 6439,
      "Ġchrou": 6440,
      "ĠskÅĻÃŃn": 6441,
      "ĠschÅ¯z": 6442,
      "ĠÅ¥oun": 6443,
      "AXAXBB": 6444,
      "ĠzÅĻi": 6445,
      "Ġpau": 6446,
      "Ġzdvou": 6447,
      "Ġslul": 6448,
      "ABAXCB": 6449,
      "Ġskni": 6450,
      "Ġchard": 6451,
      "ĠvnÃŃz": 6452,
      "Ġchrop": 6453,
      "ĠtviÄį": 6454,
      "ĠvsmÃŃch": 6455,
      "ĠÅ¡Å¯m": 6456,
      "Ġed": 6457,
      "Ġvzpa": 6458,
      "Ã¼": 6459,
      "ĠsvlÃ¡": 6460,
      "ĠmiÅ¥": 6461,
      "ĠmÅ¯v": 6462,
      "Ġmrl": 6463,
      "Ġschlu": 6464,
      "ACB": 6465,
      "Ġtno": 6466,
      "ĠtÃ¡k": 6467,
      "ĠvÅ¾er": 6468,
      "ĠstrÅ¯j": 6469,
      "ĠÅ¡prÃ½m": 6470,
      "AAABBC": 6471,
      "ĠhÅĪu": 6472,
      "Ġnac": 6473,
      "ĠjÃŃÅĻ": 6474,
      "ĠmoÅ¡": 6475,
      "ĠprÃ¡t": 6476,
      "Ġhls": 6477,
      "Ġmro": 6478,
      "Ġbum": 6479,
      "Ġbleh": 6480,
      "Ġzkum": 6481,
      "Ġmav": 6482,
      "ĠmaÅĻ": 6483,
      "Ġhab": 6484,
      "Ġrez": 6485,
      "ĠvmÅ¯j": 6486,
      "Ġkvran": 6487,
      "Ġvjezd": 6488,
      "Ġgois": 6489,
      "ĠzÅ¡ÃŃ": 6490,
      "ĠchÅĻtÃ¡n": 6491,
      "ĠlÃ½t": 6492,
      "rÃ¡d": 6493,
      "Ġvzu": 6494,
      "Ġstrak": 6495,
      "ĠÅ¡ust": 6496,
      "ĠdrÃ¡b": 6497,
      "Ġspit": 6498,
      "Ġlant": 6499,
      "ĠsdÄĽs": 6500,
      "Ġskru": 6501,
      "ĠdÃŃÄį": 6502,
      "Ġkrz": 6503,
      "Ġvhan": 6504,
      "ĠhrÅ¯Å¾": 6505,
      "ĠkvraÅ¾": 6506,
      "ĠpÅĻez": 6507,
      "Ġpys": 6508,
      "Ġvchat": 6509,
      "Ġkzlo": 6510,
      "Ġhlost": 6511,
      "ĠÅ¾ÃŃÅ¾": 6512,
      "Ġzdna": 6513,
      "Ġsas": 6514,
      "ĠlÃ©z": 6515,
      "Ġbrak": 6516,
      "Ġbrv": 6517,
      "ĠslÃ¡d": 6518,
      "Ġsrst": 6519,
      "ĠcÃ¡s": 6520,
      "ĠstÅĻÃ¡b": 6521,
      "ĠvbÃ¡s": 6522,
      "Ġlvy": 6523,
      "ĠrosÅ¥": 6524,
      "ĠhaÅ¡": 6525,
      "ĠkchrÃ¡": 6526,
      "ĠgroÅ¡": 6527,
      "ĠdÅ¡tÃŃ": 6528,
      "ĠÄįme": 6529,
      "Ġkach": 6530,
      "ĠkÃ¡v": 6531,
      "nÄĽÅ¾": 6532,
      "ĠtrÅ¾": 6533,
      "ĠgrÃ¡n": 6534,
      "Ġsim": 6535,
      "Ġsmno": 6536,
      "ĠÅĻid": 6537,
      "Ġcym": 6538,
      "ĠbrÃ¡Å¥": 6539,
      "Ġvzkve": 6540,
      "Ġtby": 6541,
      "ĠmnÃ¡": 6542,
      "Ġsain": 6543,
      "ĠsÃ¡d": 6544,
      "Ġztma": 6545,
      "Ġvjev": 6546,
      "Ġzlep": 6547,
      "Ġvrus": 6548,
      "Ġvsklo": 6549,
      "ĠÄıoun": 6550,
      "ED": 6551,
      "ĠÅ¡vy": 6552,
      "ĠnuÅ¥": 6553,
      "Ġdlec": 6554,
      "ĠmÄĽlÅ¥": 6555,
      "Ġsdiv": 6556,
      "ĠzÄįa": 6557,
      "ĠpaÅĪ": 6558,
      "Ġtrak": 6559,
      "Ġsliz": 6560,
      "ĠzveÅ¡": 6561,
      "ĠstrÃ¡m": 6562,
      "Ġvkre": 6563,
      "Ġskel": 6564,
      "ĠÅ¾hne": 6565,
      "ct": 6566,
      "Ã¡s": 6567,
      "ĠÅ¾ÄıÃ¡": 6568,
      "Ġnum": 6569,
      "Ġvir": 6570,
      "ĠbeÅ¾": 6571,
      "Ġvtre": 6572,
      "ĠkniÅ¾": 6573,
      "Ġvchla": 6574,
      "ĠvhoÅĻ": 6575,
      "Ġshod": 6576,
      "ĠvhÃ¡j": 6577,
      "Ġzpev": 6578,
      "ĠchlÃŃp": 6579,
      "ĠtskÃ½ch": 6580,
      "Ġskra": 6581,
      "ĠhlÃ¡v": 6582,
      "ĠkhnÄĽ": 6583,
      "ĠtnÃŃch": 6584,
      "Ġvmih": 6585,
      "Ġvluz": 6586,
      "Ġglic": 6587,
      "EF": 6588,
      "AAEE": 6589,
      "ĠdlÃ¡n": 6590,
      "ĠszÃ¡": 6591,
      "Ġvklou": 6592,
      "Ġctn": 6593,
      "ĠchlÃ©v": 6594,
      "ĠÅ¡paÄį": 6595,
      "ĠtnÃ½m": 6596,
      "ĠvspÃŃÅ¡": 6597,
      "ju": 6598,
      "ĠfÃ½": 6599,
      "ĠkÃ½n": 6600,
      "Ġkprav": 6601,
      "ĠkÅĻtu": 6602,
      "Ġtne": 6603,
      "Ġap": 6604,
      "Ġzvem": 6605,
      "Ġstrah": 6606,
      "ĠtÅĻÃŃt": 6607,
      "ĠsÃ½p": 6608,
      "Ġsjez": 6609,
      "ĠkdÃŃv": 6610,
      "ĠboÅĻ": 6611,
      "Ġdim": 6612,
      "ĠvdÃ©": 6613,
      "Ġbrlo": 6614,
      "ĠprÃ¡ch": 6615,
      "Ġragd": 6616,
      "ĠrvaÄį": 6617,
      "ĠzvnitÅĻ": 6618,
      "ĠsvÅ¯": 6619,
      "Ġsklou": 6620,
      "Ġsps": 6621,
      "Ġprz": 6622,
      "Ġtrech": 6623,
      "ĠknÃ©m": 6624,
      "ĠblÃ½ch": 6625,
      "ĠhoÅĪ": 6626,
      "Ġkdve": 6627,
      "Ġsij": 6628,
      "Ġhuk": 6629,
      "Ġksvo": 6630,
      "ĠspÃ¡s": 6631,
      "Ġmstou": 6632,
      "ĠstÅĻin": 6633,
      "Ġchvoj": 6634,
      "Ġhno": 6635,
      "ĠsÃŃk": 6636,
      "XD": 6637,
      "Ġzpil": 6638,
      "ĠstÅĻev": 6639,
      "ĠzmÃŃn": 6640,
      "ĠstkÃ¡": 6641,
      "Ġclon": 6642,
      "ĠstÅĻÃ¡s": 6643,
      "ĠzdÅĻe": 6644,
      "ĠkmÃ½m": 6645,
      "Ġrri": 6646,
      "Ġdys": 6647,
      "ĠvraÅ¡": 6648,
      "Ġzhrd": 6649,
      "ĠzhlÃ©": 6650,
      "ĠzvÃ¡Å¡": 6651,
      "ÅĻas": 6652,
      "ĠpaÅ¾": 6653,
      "Ġvzvu": 6654,
      "Ġvtvr": 6655,
      "Ġslok": 6656,
      "ĠkvÅ¡e": 6657,
      "ĠbroÅ¡": 6658,
      "ĠhnÄĽt": 6659,
      "ĠlhÅ¯": 6660,
      "ĠstlÃ½ch": 6661,
      "ĠrdÄĽl": 6662,
      "ĠcÃŃt": 6663,
      "ĠsmrÃ¡": 6664,
      "ĠzvÃ©": 6665,
      "Ġhyl": 6666,
      "Ġzmdlo": 6667,
      "ĠzhlÃ©d": 6668,
      "Ġplej": 6669,
      "Ġprout": 6670,
      "Ġknes": 6671,
      "Ġktr": 6672,
      "Ġkslav": 6673,
      "si": 6674,
      "Ġbvo": 6675,
      "ĠÄįku": 6676,
      "ĠprÃ½ch": 6677,
      "ĠpÅĻÃŃst": 6678,
      "Ġhoup": 6679,
      "Ġspoj": 6680,
      "Ġvhnu": 6681,
      "ĠfÃ¡d": 6682,
      "ĠkÅĻivd": 6683,
      "ĠzdÃŃch": 6684,
      "Ġvstes": 6685,
      "ĠvepÅĻ": 6686,
      "ĠvkvÃŃ": 6687,
      "Ġbrz": 6688,
      "ĠtvÃ¡n": 6689,
      "Ġsrou": 6690,
      "ĠvÄįlu": 6691,
      "ĠsÅ¡el": 6692,
      "Ġkko": 6693,
      "lÃ¡d": 6694,
      "ĠbaÅ¥": 6695,
      "Ġzpar": 6696,
      "ĠstrÄį": 6697,
      "ĠdrosÅ¥": 6698,
      "ĠchtÄĽls": 6699,
      "ĠÄıÃ¡l": 6700,
      "ĠlhÃ¡t": 6701,
      "ĠzkrÄį": 6702,
      "Ġvmrak": 6703,
      "Ġfric": 6704,
      "Ġvshni": 6705,
      "Ġchma": 6706,
      "ĠftÃŃ": 6707,
      "Ġvdom": 6708,
      "Ġvhrou": 6709,
      "Ġkple": 6710,
      "ĠÄįul": 6711,
      "Ġvtri": 6712,
      "ĠsÄįlo": 6713,
      "ĠÅ¾blun": 6714,
      "ĠkÄįlo": 6715,
      "Ġieu": 6716,
      "Ġlaj": 6717,
      "ĠtÃ¡t": 6718,
      "ĠbÃ¡Äį": 6719,
      "Ġvret": 6720,
      "Ġkryv": 6721,
      "ĠbÅĻÃŃk": 6722,
      "Ġvplod": 6723,
      "ĠhyÅĪ": 6724,
      "Ġzhrou": 6725,
      "Ġshe": 6726,
      "Ġkbu": 6727,
      "ĠkbliÅ¾": 6728,
      "ĠkoÅĻ": 6729,
      "Ġkdce": 6730,
      "Ġtaks": 6731,
      "ĠtÃ©l": 6732,
      "Ġvdvo": 6733,
      "Ġzmou": 6734,
      "ĠdnÅ¯m": 6735,
      "Ġdvard": 6736,
      "Ġfaust": 6737,
      "ABABCB": 6738,
      "ĠkuÄı": 6739,
      "Ġslam": 6740,
      "ĠstÄĽch": 6741,
      "ĠstÅĻez": 6742,
      "Ġklost": 6743,
      "Ġpravd": 6744,
      "ĠtÅĻem": 6745,
      "ĠsmuÅ¾": 6746,
      "AAXBCB": 6747,
      "Ġscu": 6748,
      "Ġtme": 6749,
      "Äıa": 6750,
      "Ġsbur": 6751,
      "Ġkstra": 6752,
      "ĠÅ¯m": 6753,
      "ĠkÅĪu": 6754,
      "Ġsthe": 6755,
      "Ġbam": 6756,
      "ĠfÃ¡l": 6757,
      "Ġstrp": 6758,
      "ĠplÃ¡st": 6759,
      "Ġkrod": 6760,
      "ĠbÅ¯v": 6761,
      "Ġsmet": 6762,
      "ACCA": 6763,
      "Ġnr": 6764,
      "Ġcot": 6765,
      "ĠtkÃ¡t": 6766,
      "Ġzjem": 6767,
      "ĠchÅĻtÃ¡": 6768,
      "ĠbraÄį": 6769,
      "Ġtrut": 6770,
      "Ġzkus": 6771,
      "Ġchlup": 6772,
      "ĠsÅ¥a": 6773,
      "Ġsom": 6774,
      "Ġstoh": 6775,
      "Ġvhvoz": 6776,
      "ĠchvÃŃt": 6777,
      "zv": 6778,
      "ĠÅ¾iÅ¡": 6779,
      "ĠbÅĻez": 6780,
      "ĠÅ¥li": 6781,
      "Ġsbla": 6782,
      "Ġpse": 6783,
      "ĠdlÃ¡Å¡": 6784,
      "ĠzruÄį": 6785,
      "Ġchlost": 6786,
      "Ġjuj": 6787,
      "ĠzouÄį": 6788,
      "Ġpsan": 6789,
      "Ġcam": 6790,
      "ĠvlÃŃt": 6791,
      "ĠssvÃ½m": 6792,
      "Ġchri": 6793,
      "Ġmnul": 6794,
      "Ġjech": 6795,
      "ĠÅ¡te": 6796,
      "Ġnij": 6797,
      "Ġrop": 6798,
      "Ġbeh": 6799,
      "ĠÅ¡iÅ¡": 6800,
      "Ġvlach": 6801,
      "CDE": 6802,
      "ĠÃŃm": 6803,
      "ĠpskÃ½": 6804,
      "Ġdag": 6805,
      "Ġpral": 6806,
      "ĠlouÅ¡": 6807,
      "Ġvrov": 6808,
      "Ġkba": 6809,
      "ACCDDE": 6810,
      "ĠstraÅ¾": 6811,
      "ĠhrsÅ¥": 6812,
      "ĠÅ¡krÃ¡": 6813,
      "Ġllis": 6814,
      "Ġklouz": 6815,
      "ĠzbÃŃd": 6816,
      "Ġpstr": 6817,
      "Ġsoust": 6818,
      "ĠÅĻÃ¡p": 6819,
      "Ġdved": 6820,
      "Ġharf": 6821,
      "ĠÅ¾old": 6822,
      "ĠllÃ¡": 6823,
      "ĠÅ¡rÃ¡": 6824,
      "Ġprop": 6825,
      "Ġsyr": 6826,
      "Ġstur": 6827,
      "Ġvraj": 6828,
      "Ġksn": 6829,
      "ĠÅ¡kor": 6830,
      "Ġvchi": 6831,
      "Ġchlil": 6832,
      "Ġdolf": 6833,
      "ĠpÅ¡en": 6834,
      "Ġtuc": 6835,
      "ĠdrÃ¡n": 6836,
      "ĠvlÃŃp": 6837,
      "Ġvliv": 6838,
      "Ġbve": 6839,
      "ĠseÅ¥": 6840,
      "Ġrup": 6841,
      "ĠÄįaj": 6842,
      "Ġkzou": 6843,
      "ĠvmÃŃr": 6844,
      "ĠbdÃŃm": 6845,
      "Ġnrich": 6846,
      "ĠmÅ¡e": 6847,
      "ĠvoÅĪ": 6848,
      "ĠvzmÄĽ": 6849,
      "ĠÅ¥Å¯": 6850,
      "ĠsvÃ¡Å¾": 6851,
      "Ġrant": 6852,
      "Ġsfa": 6853,
      "Ġvhnus": 6854,
      "ÅĻb": 6855,
      "ĠoÅĪ": 6856,
      "Ġmum": 6857,
      "ĠzÃŃd": 6858,
      "Ġplaz": 6859,
      "Ġzbil": 6860,
      "AABBAA": 6861,
      "Ġzost": 6862,
      "Ġzklu": 6863,
      "ĠpsÅ¯m": 6864,
      "Ġvtisk": 6865,
      "Ġssrd": 6866,
      "ĠkÅĻil": 6867,
      "ĠzbuÄı": 6868,
      "ĠvsnÄĽm": 6869,
      "ĠloÅ¥": 6870,
      "ĠlÃŃz": 6871,
      "XAAA": 6872,
      "ĠkÃ½ÅĻ": 6873,
      "ĠsblÃŃ": 6874,
      "Ġschod": 6875,
      "Ġsfou": 6876,
      "ĠstlÃ¡t": 6877,
      "it": 6878,
      "Ġlaz": 6879,
      "Ġklop": 6880,
      "Ġtant": 6881,
      "ĠÅ¡to": 6882,
      "ĠsvlaÄį": 6883,
      "Ġfaun": 6884,
      "ĠzÅ¡tÄĽ": 6885,
      "ĠzaÅ¥": 6886,
      "Ġvoch": 6887,
      "ĠmÃŃl": 6888,
      "Ġfec": 6889,
      "Ġtkne": 6890,
      "ĠvhÅĻÃŃch": 6891,
      "ĠvaÅĪ": 6892,
      "ĠboÄį": 6893,
      "ĠbuÅ¡": 6894,
      "Ġvsny": 6895,
      "ĠpÄĽÅ¥": 6896,
      "ĠprÃ¡m": 6897,
      "ĠstÅĻep": 6898,
      "Ġnils": 6899,
      "ĠstÅĻÃŃÅ¾": 6900,
      "ĠbdÃŃt": 6901,
      "ĠlstnÃ½": 6902,
      "ĠzjÃŃ": 6903,
      "25": 6904,
      "Ġvrz": 6905,
      "ĠslÃŃk": 6906,
      "Ġstliv": 6907,
      "Ġllan": 6908,
      "Ġvjih": 6909,
      "Ġzcho": 6910,
      "Ġzples": 6911,
      "ĠsvÅ¡": 6912,
      "Ġpik": 6913,
      "Ġstve": 6914,
      "ĠvÅĻev": 6915,
      "Ġsdlou": 6916,
      "Ġfir": 6917,
      "ĠsnÃ¡ÅĻ": 6918,
      "Ġvny": 6919,
      "Ġvpru": 6920,
      "ĠzÃŃc": 6921,
      "Ġgru": 6922,
      "AABBBC": 6923,
      "Ġsvol": 6924,
      "Ġvkrev": 6925,
      "Ġcop": 6926,
      "ĠpÅĻeh": 6927,
      "ĠbÃŃch": 6928,
      "Ġstost": 6929,
      "ĠpuÄı": 6930,
      "Ġzlat": 6931,
      "ĠkloÅĪ": 6932,
      "ĠcyÅ¥": 6933,
      "ĠÅ¡tiv": 6934,
      "Ġxem": 6935,
      "Ġnlis": 6936,
      "cy": 6937,
      "Ġjry": 6938,
      "Ġrhe": 6939,
      "ĠÅ¡m": 6940,
      "ĠslÃº": 6941,
      "Ġruf": 6942,
      "ĠraÄı": 6943,
      "Ġznu": 6944,
      "ĠvÅ¾as": 6945,
      "Ġspon": 6946,
      "ĠrÃ½Äį": 6947,
      "Ġshou": 6948,
      "ĠtÅĻÃŃn": 6949,
      "Ġskri": 6950,
      "ĠthÅ¯": 6951,
      "Ġzdych": 6952,
      "ĠrÅ¾Ã¡": 6953,
      "Ġzac": 6954,
      "Ġdop": 6955,
      "Ġtaz": 6956,
      "Ġkoun": 6957,
      "Ġpyl": 6958,
      "ĠkmlÃ½": 6959,
      "Ġkti": 6960,
      "ĠÅ¡pej": 6961,
      "ĠstruÅ¾": 6962,
      "ĠvsnÄĽÅ¾": 6963,
      "ĠvpyÅ¡": 6964,
      "Ġsprou": 6965,
      "ĠvsÃ½": 6966,
      "ABBCCA": 6967,
      "Ġvzbro": 6968,
      "ĠÅ¡ot": 6969,
      "Ġcert": 6970,
      "Ġtoi": 6971,
      "Ġkouc": 6972,
      "Ġgle": 6973,
      "ĠzmrÃ¡": 6974,
      "ĠÅ¾Ã¡c": 6975,
      "ĠhÃ½l": 6976,
      "ĠschÅ¯d": 6977,
      "ĠÄıo": 6978,
      "ĠÅ¡pet": 6979,
      "Ġsda": 6980,
      "ĠkzpÄĽ": 6981,
      "Ġvga": 6982,
      "ÅĻem": 6983,
      "Ġprol": 6984,
      "ĠsvÄĽÄį": 6985,
      "XXXXAA": 6986,
      "ĠvhlÃŃ": 6987,
      "Ġvhym": 6988,
      "ĠkÃ©ms": 6989,
      "Ġznez": 6990,
      "Ġdex": 6991,
      "Ġsplu": 6992,
      "XXXXXA": 6993,
      "Ġvpil": 6994,
      "Ġklis": 6995,
      "ĠzdÃ¡n": 6996,
      "Ġktak": 6997,
      "Ġkpod": 6998,
      "Ġlhou": 6999,
      "ĠvzÃ½t": 7000,
      "ĠvdÃŃv": 7001,
      "ĠkÅ¡tic": 7002,
      "Ġvklub": 7003,
      "ACCB": 7004,
      "Ġit": 7005,
      "Ġzps": 7006,
      "ĠÅ¥si": 7007,
      "Ġsprav": 7008,
      "Ġerb": 7009,
      "Ġzluk": 7010,
      "ll": 7011,
      "mÃ½": 7012,
      "Ã¡r": 7013,
      "Ġbut": 7014,
      "AABBAC": 7015,
      "Ġklest": 7016,
      "ĠrÃ©v": 7017,
      "Ġztou": 7018,
      "Ġfen": 7019,
      "ĠkrÃ½v": 7020,
      "Ġfres": 7021,
      "ĠvbÅĻeh": 7022,
      "Ġllou": 7023,
      "Ġcal": 7024,
      "ĠseÄı": 7025,
      "ĠzdÅĻi": 7026,
      "Ġvplu": 7027,
      "Ġbim": 7028,
      "ĠvkrÅ¯": 7029,
      "Ġrich": 7030,
      "ĠÄįÃŃmÅ¾": 7031,
      "Ġsrost": 7032,
      "Ġchlit": 7033,
      "ĠchlÃ¡d": 7034,
      "Ġsaint": 7035,
      "ĠbÄĽr": 7036,
      "Ġctus": 7037,
      "Ġvlov": 7038,
      "po": 7039,
      "Ġkci": 7040,
      "ĠÅ¾ec": 7041,
      "Ġlot": 7042,
      "Ġchaj": 7043,
      "ĠÅ¡am": 7044,
      "AAABCC": 7045,
      "ĠÅ¡Å¥ou": 7046,
      "ĠvboÅ¾": 7047,
      "ĠdÅĻek": 7048,
      "ABBCAC": 7049,
      "Ġent": 7050,
      "kÅĻ": 7051,
      "ĠtÃ¡r": 7052,
      "Ġvzdmu": 7053,
      "ĠvÄįest": 7054,
      "Ġvzho": 7055,
      "Ġstkvou": 7056,
      "ĠzÄįlu": 7057,
      "ĠvvÃ¡": 7058,
      "Ġdup": 7059,
      "Ġjse": 7060,
      "Ġstov": 7061,
      "Ġskop": 7062,
      "Ġzprz": 7063,
      "Ġnnes": 7064,
      "Ġsze": 7065,
      "Ġvhar": 7066,
      "Ġobzv": 7067,
      "ĠÅ¡tÄĽj": 7068,
      "ĠzmÄĽt": 7069,
      "Ġtref": 7070,
      "Ġfum": 7071,
      "Ġmlkl": 7072,
      "ĠÅ¡tÃ¡ÅĻ": 7073,
      "cho": 7074,
      "Ġrous": 7075,
      "Ġtlan": 7076,
      "ĠslÃŃt": 7077,
      "ĠÅ¡ach": 7078,
      "AADE": 7079,
      "ĠsvÃ¡Å¡": 7080,
      "Ġssvou": 7081,
      "ĠkhÅĻÃŃ": 7082,
      "ĠdnÃ©ÅĻ": 7083,
      "Ġlvem": 7084,
      "Ġmlo": 7085,
      "ĠmÄĽÅĪ": 7086,
      "ĠbÄĽc": 7087,
      "ĠstÃ¡k": 7088,
      "ĠÅ¡kÅĻi": 7089,
      "ĠÅ¡pal": 7090,
      "ĠspÅĻeÅ¾": 7091,
      "ĠsnichÅ¾": 7092,
      "ĠjÃŃk": 7093,
      "Ġloj": 7094,
      "Ġvosk": 7095,
      "ĠdÃŃÅ¾": 7096,
      "ĠproÅ¡": 7097,
      "Ġvply": 7098,
      "ĠgÃ³": 7099,
      "ĠÅ¾Å¯v": 7100,
      "ĠkvoÄį": 7101,
      "ĠrtÃŃk": 7102,
      "XABBA": 7103,
      "ĠtÃŃt": 7104,
      "ĠmaÅ¥": 7105,
      "Ġtakt": 7106,
      "ĠsvÄĽn": 7107,
      "ĠÃºd": 7108,
      "ĠkzÃ¡m": 7109,
      "ĠzrÃ¡t": 7110,
      "ĠzÄįes": 7111,
      "Ġllin": 7112,
      "ĠsÄįet": 7113,
      "ĠhosÅ¥": 7114,
      "Ġlor": 7115,
      "ĠtÃ¡Äį": 7116,
      "Ġvbal": 7117,
      "ĠvbrÃ¡z": 7118,
      "ĠkskÃ¡": 7119,
      "ĠvÅ¡ik": 7120,
      "Ġnerv": 7121,
      "Ġkk": 7122,
      "Ġjli": 7123,
      "ĠpÅĻiÅĻ": 7124,
      "ĠrÃ½h": 7125,
      "ĠsÄįa": 7126,
      "hÅĻ": 7127,
      "Ġbva": 7128,
      "ĠcÃ³": 7129,
      "ĠrÃ³": 7130,
      "ĠnaÅ¾": 7131,
      "Ġloh": 7132,
      "ĠÅ¡eÄı": 7133,
      "ĠmÃŃÅĻ": 7134,
      "ĠzhÃ½": 7135,
      "ĠÅ¡liÄį": 7136,
      "Ġvpol": 7137,
      "Ġkpi": 7138,
      "Ġvdus": 7139,
      "ĠtluÄį": 7140,
      "Ġstils": 7141,
      "AXABCC": 7142,
      "ĠvpÅĻÃŃz": 7143,
      "ĠchÃ³r": 7144,
      "Ġboz": 7145,
      "ĠÅĻÃŃj": 7146,
      "ĠzbrÃ¡": 7147,
      "Ġzliv": 7148,
      "ĠslÅ¯Å¾": 7149,
      "ĠÅ¡tÄĽrk": 7150,
      "AABXB": 7151,
      "za": 7152,
      "ĠÅ¾s": 7153,
      "Ġsost": 7154,
      "ĠpleÅ¡": 7155,
      "Ġrold": 7156,
      "Ġkcha": 7157,
      "nem": 7158,
      "ĠvÅ¡ep": 7159,
      "Ġlut": 7160,
      "ĠtrÃ½m": 7161,
      "ĠtraÅ¥": 7162,
      "ĠchvÃ¡l": 7163,
      "ĠsklÃ¡l": 7164,
      "ĠsvÅ¡ÃŃm": 7165,
      "tro": 7166,
      "ĠmkrÃ¡": 7167,
      "ĠzaÅ¾": 7168,
      "ĠvuÅ¡": 7169,
      "Ġkrs": 7170,
      "Ġvtvou": 7171,
      "ĠchvÃŃÅ¡": 7172,
      "ĠzdÃ¡Å¡": 7173,
      "Ġzvos": 7174,
      "Ġctnou": 7175,
      "ĠtluÅ¡": 7176,
      "ĠvpouÅ¥": 7177,
      "Ġjrad": 7178,
      "Ġsklid": 7179,
      "Ġthyr": 7180,
      "Ġvchvat": 7181,
      "ĠskÅĻoup": 7182,
      "Ġkyl": 7183,
      "Ġkda": 7184,
      "ĠÄįÃŃr": 7185,
      "Ġmann": 7186,
      "ĠvskÅĻÃŃ": 7187,
      "ĠskÅĻÃŃp": 7188,
      "Ġzchud": 7189,
      "ys": 7190,
      "Ġduk": 7191,
      "Ġodz": 7192,
      "ĠjÃ¡r": 7193,
      "ĠdrÅ¡": 7194,
      "Ġklik": 7195,
      "Ġstrost": 7196,
      "ĠstyÄı": 7197,
      "Ġtvat": 7198,
      "AABCBD": 7199,
      "Ġtryz": 7200,
      "Ġtrej": 7201,
      "Ġkant": 7202,
      "ĠkÅ¾Ã¡d": 7203,
      "ĠpÅ¡tro": 7204,
      "Ġlza": 7205,
      "Ġoas": 7206,
      "Ġnix": 7207,
      "ĠmÃ¡r": 7208,
      "AABBXC": 7209,
      "Ġmour": 7210,
      "Ġsslo": 7211,
      "Ġzrud": 7212,
      "Ġsjich": 7213,
      "ACDDC": 7214,
      "Ġnand": 7215,
      "ĠbeÅĪ": 7216,
      "ĠbuÅ¾": 7217,
      "Ġhur": 7218,
      "ABABXB": 7219,
      "Ġech": 7220,
      "ĠhÃ½n": 7221,
      "ĠpÅ¯v": 7222,
      "ABBAAC": 7223,
      "Ġzles": 7224,
      "ĠvnuÄį": 7225,
      "Ġlta": 7226,
      "ĠzÅĻa": 7227,
      "Ġnest": 7228,
      "ĠdÄĽr": 7229,
      "Ġich": 7230,
      "Ġdlas": 7231,
      "ĠvmlÃ½": 7232,
      "Ġdlet": 7233,
      "Ġant": 7234,
      "ĠzmÃŃr": 7235,
      "ĠÄįÅ¯v": 7236,
      "ĠzjÃ¡": 7237,
      "Ġltam": 7238,
      "ĠnÃŃÅĻ": 7239,
      "ĠvÅ¡ko": 7240,
      "Ġryv": 7241,
      "Ġvdum": 7242,
      "ĠssvÃ½": 7243,
      "ĠsÅ¥al": 7244,
      "ĠdmÃ½": 7245,
      "ĠÅ¾ils": 7246,
      "ĠmÃ¡mÅ¥": 7247,
      "ĠstÅĻÃŃÅ¡": 7248,
      "ĠtÅĻÃ¡st": 7249,
      "ĠterÄį": 7250,
      "ĠzhyÅĪ": 7251,
      "Ġsml": 7252,
      "ĠvtÅĻ": 7253,
      "ĠÅ¾Ã¡s": 7254,
      "ĠÄįÃŃms": 7255,
      "Ġjezd": 7256,
      "ĠdÃ³l": 7257,
      "Ġvheb": 7258,
      "Ġvam": 7259,
      "ĠmeÅ¾": 7260,
      "ĠvpÃ©": 7261,
      "Ġsur": 7262,
      "ĠzpÅĻÃ¡": 7263,
      "ĠzbrÃ¡z": 7264,
      "Ġvils": 7265,
      "ĠvlÃ¡n": 7266,
      "ĠzÅĻels": 7267,
      "Ġskles": 7268,
      "ĠvsÃŃch": 7269,
      "Ġzkout": 7270,
      "Ġvsoud": 7271,
      "Ġhnis": 7272,
      "ĠÅ¡vÃ©": 7273,
      "ĠceÅ¥": 7274,
      "ĠvzÅĻÃŃ": 7275,
      "ĠdyÅĪ": 7276,
      "Ġrah": 7277,
      "Ġzyn": 7278,
      "Ġhek": 7279,
      "ĠvchlÃŃ": 7280,
      "Ġchvou": 7281,
      "Ġsvez": 7282,
      "ĠvÅĻÃŃÅ¡": 7283,
      "ĠkÅ¡pej": 7284,
      "ĠvÅ¡eÅĻ": 7285,
      "ĠmÃ©r": 7286,
      "ĠglÃ³": 7287,
      "Ġchym": 7288,
      "Ġziv": 7289,
      "Ġskan": 7290,
      "Ġfix": 7291,
      "Ġkhr": 7292,
      "ĠÅĻov": 7293,
      "Ġgry": 7294,
      "ĠsbÄĽÅĻ": 7295,
      "Ġdcem": 7296,
      "ĠvvÃ½Å¡": 7297,
      "ĠkpÅ¯l": 7298,
      "Ġjl": 7299,
      "ĠplaÅĪ": 7300,
      "Ġvkmi": 7301,
      "ĠdrÃ¡Äį": 7302,
      "Ġzkap": 7303,
      "ĠlÃŃmp": 7304,
      "ic": 7305,
      "ĠÅ¡lem": 7306,
      "Ġroch": 7307,
      "Ġboch": 7308,
      "ĠsmÅ¯": 7309,
      "ĠpÅĻiv": 7310,
      "Ġzpta": 7311,
      "Ġzuz": 7312,
      "ĠshÅĻe": 7313,
      "Ġfic": 7314,
      "ĠvsÃŃÅ¥": 7315,
      "ĠÅ¾hÃ¡": 7316,
      "ĠzhvÄĽzd": 7317,
      "zdy": 7318,
      "ĠsÄįi": 7319,
      "Ġcp": 7320,
      "ĠvÅ¡Å¥": 7321,
      "luz": 7322,
      "ĠÅĪuj": 7323,
      "Ġspur": 7324,
      "Ġsfinx": 7325,
      "Ã©st": 7326,
      "Ġlisk": 7327,
      "Ġdad": 7328,
      "ĠÅĻeÅ¾": 7329,
      "ĠjmÃŃ": 7330,
      "ĠscÃŃ": 7331,
      "ĠspÅĻed": 7332,
      "Ġksvat": 7333,
      "Ġdch": 7334,
      "ĠbvÃ¡": 7335,
      "Ġvych": 7336,
      "ĠspÃ½": 7337,
      "ĠtÃ¡c": 7338,
      "ĠtÅĻÃŃd": 7339,
      "Ġschlad": 7340,
      "Ġvzat": 7341,
      "ĠvstÅĻed": 7342,
      "ACDDCE": 7343,
      "ĠchÅĻa": 7344,
      "Ġklap": 7345,
      "ĠksnÄĽ": 7346,
      "Ġdotk": 7347,
      "Ġvluh": 7348,
      "ĠsÅ¾eh": 7349,
      "ĠblÅ¯v": 7350,
      "Ġfron": 7351,
      "kle": 7352,
      "ĠÄįeÅĪ": 7353,
      "Ġvtmy": 7354,
      "Ġhron": 7355,
      "ĠbrÃ¡zd": 7356,
      "Ġzpol": 7357,
      "Ġgest": 7358,
      "Ġryth": 7359,
      "ĠrtuÅ¥": 7360,
      "Ġvzmar": 7361,
      "ĠÄįtouc": 7362,
      "ĠjvÃ¡": 7363,
      "ĠslaÅĻ": 7364,
      "Ġzour": 7365,
      "ĠprÃ½s": 7366,
      "Ġblic": 7367,
      "Ġvnach": 7368,
      "ĠzlÃŃk": 7369,
      "ĠÅ¡van": 7370,
      "ĠkmÃŃn": 7371,
      "Ġchne": 7372,
      "ĠvaÅ¡": 7373,
      "Ġkdnu": 7374,
      "Ġzpan": 7375,
      "ĠsÃ¡Äį": 7376,
      "Ġglu": 7377,
      "ĠzmÃ¡t": 7378,
      "Ġvmh": 7379,
      "ĠÅ¥ka": 7380,
      "ĠzvÄĽt": 7381,
      "ĠhlÃŃk": 7382,
      "ĠzvaÅ¾": 7383,
      "ĠzdÄĽl": 7384,
      "ĠÅĻuj": 7385,
      "ĠÅ¯v": 7386,
      "AABCCD": 7387,
      "ĠdÃŃÅĻ": 7388,
      "Ġseth": 7389,
      "ĠzprÃ¡ch": 7390,
      "Ġvspou": 7391,
      "Ġvco": 7392,
      "Ġzflan": 7393,
      "Ġdvyk": 7394,
      "Ġghis": 7395,
      "ĠfÃ½r": 7396,
      "Ġksnad": 7397,
      "GG": 7398,
      "jt": 7399,
      "ĠcÃº": 7400,
      "Ġvsch": 7401,
      "ĠstÅĻes": 7402,
      "Ġlent": 7403,
      "ĠpÃ½t": 7404,
      "Ġvhold": 7405,
      "ĠvnÃ¡Å¡": 7406,
      "Ġzpout": 7407,
      "ĠctnÃ½ch": 7408,
      "mr": 7409,
      "ĠjÃ³": 7410,
      "ĠÅ¡me": 7411,
      "ĠsptÃ¡": 7412,
      "XAABBC": 7413,
      "ĠstÃ¡Å¥": 7414,
      "ĠvdrÃ¡": 7415,
      "ĠkvÅ¡em": 7416,
      "Ġtils": 7417,
      "Ġdils": 7418,
      "Ġzves": 7419,
      "ĠÅ¡viÅ¾": 7420,
      "ĠvÄįÃŃÅ¡": 7421,
      "ĠÅ¡vÃ¡r": 7422,
      "Ġzpso": 7423,
      "ĠmÅ¾": 7424,
      "ĠÄįim": 7425,
      "Ġdouch": 7426,
      "Ġstrof": 7427,
      "ĠÅ¡tÄĽv": 7428,
      "Ġrenc": 7429,
      "ĠzmuÅ¾": 7430,
      "ĠÅ¡nÄĽ": 7431,
      "Ġpror": 7432,
      "ĠprÃ¡Å¡": 7433,
      "CCX": 7434,
      "ĠstrÅ¯m": 7435,
      "ĠvÅ¾dyÅ¥s": 7436,
      "ĠÄįems": 7437,
      "Ġflan": 7438,
      "vil": 7439,
      "Ġjluz": 7440,
      "ÅĻu": 7441,
      "ĠloÄį": 7442,
      "ĠvstÄĽ": 7443,
      "ĠkboÅ¾": 7444,
      "ĠshrÅĪ": 7445,
      "Ġmak": 7446,
      "ĠvaÅĻ": 7447,
      "ĠfÅ¯m": 7448,
      "ĠkraÅ¡": 7449,
      "Ġbils": 7450,
      "Ġvskvost": 7451,
      "Ġfrank": 7452,
      "ĠsdruÅ¾": 7453,
      "Ġkspa": 7454,
      "Ġrcy": 7455,
      "ĠpokÅĻ": 7456,
      "Ġtex": 7457,
      "ĠpÃ¡v": 7458,
      "ĠklÃŃb": 7459,
      "ĠztÅĻeÅ¡": 7460,
      "war": 7461,
      "Ġloch": 7462,
      "ĠloÅ¡": 7463,
      "Ġcij": 7464,
      "Ġprod": 7465,
      "ĠÅ¡ij": 7466,
      "Ġpris": 7467,
      "Ġrik": 7468,
      "Ġzvet": 7469,
      "ĠzÅĻen": 7470,
      "Ġvkos": 7471,
      "ĠzpouÅ¡": 7472,
      "ĠvpÃ¡d": 7473,
      "Ġvhed": 7474,
      "ĠcÅ¾es": 7475,
      "ĠÃ¡t": 7476,
      "Ġtoh": 7477,
      "ĠzatÅĻ": 7478,
      "ĠvÅ¡at": 7479,
      "ĠbÃŃc": 7480,
      "ĠchvÃŃm": 7481,
      "Ġsslu": 7482,
      "rout": 7483,
      "Ġkpoz": 7484,
      "ĠÄįuj": 7485,
      "Ġhnizd": 7486,
      "ĠvdruÅ¾": 7487,
      "Ã½z": 7488,
      "Ġvsil": 7489,
      "Ġstos": 7490,
      "ĠzoÅĪ": 7491,
      "ĠdrÅ¥": 7492,
      "Ġstyk": 7493,
      "ĠknÃŃr": 7494,
      "ĠzroÅ¾": 7495,
      "Ġgai": 7496,
      "ĠÅ¡tast": 7497,
      "ĠsrÃ¡Å¾": 7498,
      "Ġveb": 7499,
      "ĠvÃŃÅ¥": 7500,
      "Ġztvo": 7501,
      "ĠzniÄį": 7502,
      "ĠsproÅ¡": 7503,
      "ĠkÅ¾rout": 7504,
      "ĠÄįpa": 7505,
      "ĠdÃ©s": 7506,
      "Ġshy": 7507,
      "ĠzÃ½Äį": 7508,
      "Ġdvet": 7509,
      "ĠztrÃ¡t": 7510,
      "Ġzbur": 7511,
      "AAXBXB": 7512,
      "ĠÅ¥ov": 7513,
      "ĠmÅ¾e": 7514,
      "ĠtÄĽÅ¥": 7515,
      "Ġmoi": 7516,
      "Ġmach": 7517,
      "Ġef": 7518,
      "ĠblÃŃk": 7519,
      "Ġspan": 7520,
      "ĠslÃŃc": 7521,
      "ĠzvÄĽn": 7522,
      "ĠÅĪan": 7523,
      "Ġvplec": 7524,
      "Ġchant": 7525,
      "ĠÅ¾vÃ½": 7526,
      "Ġtyl": 7527,
      "ĠvsnÃŃ": 7528,
      "ĠzÃŃt": 7529,
      "Ġsloh": 7530,
      "ĠgÅĻÃŃ": 7531,
      "ĠksÃŃ": 7532,
      "Ġfac": 7533,
      "ĠsnÄĽd": 7534,
      "ĠdbÃ¡t": 7535,
      "Ġmhla": 7536,
      "ĠvzboÅ¾": 7537,
      "ĠvÅ¡Å¥ast": 7538,
      "ĠdÃ¡s": 7539,
      "ĠzyÅ¡": 7540,
      "Ãºr": 7541,
      "ĠhlÃŃÅĻ": 7542,
      "ĠhliÄį": 7543,
      "ĠlkÃ¡m": 7544,
      "ĠvmÄĽl": 7545,
      "ĠvzplÃ¡t": 7546,
      "ĠcÃ¡p": 7547,
      "ĠvtrÃ¡v": 7548,
      "ACDE": 7549,
      "Ġgoism": 7550,
      "ĠtrÃ©m": 7551,
      "ĠdÅĻÃŃn": 7552,
      "Ġvlej": 7553,
      "Ġvstan": 7554,
      "ĠfÃ¡ÅĻ": 7555,
      "ĠvÅĻÃŃm": 7556,
      "ĠvplÃ¡ÅĪ": 7557,
      "ĠdcÃ©": 7558,
      "AXAXX": 7559,
      "ĠzÅ¾eh": 7560,
      "AABCCC": 7561,
      "Ġpni": 7562,
      "Ġmzdy": 7563,
      "Ġpac": 7564,
      "Ġspnou": 7565,
      "Ġsip": 7566,
      "Ġii": 7567,
      "ĠÅ¡lit": 7568,
      "ĠpÅĻÃ¡n": 7569,
      "ĠÄįemÅ¾": 7570,
      "Ġssr": 7571,
      "ĠbyÅ¥s": 7572,
      "Ġvspa": 7573,
      "ĠzkÃ¡z": 7574,
      "Ġcvik": 7575,
      "ĠÅ¡kub": 7576,
      "ĠsvdÄĽÄį": 7577,
      "ĠdoÅĪ": 7578,
      "ĠciÅ¥": 7579,
      "ĠtakÅ¥": 7580,
      "Ġcham": 7581,
      "ĠklÃ¡l": 7582,
      "Ġsdr": 7583,
      "ĠskrÃ¡s": 7584,
      "ĠkhÃ¡": 7585,
      "ĠztÄĽs": 7586,
      "ACBC": 7587,
      "ĠdbÃ¡m": 7588,
      "ĠkzpÅ¯r": 7589,
      "ĠssluÅ¾": 7590,
      "Ġpf": 7591,
      "Ġrz": 7592,
      "ĠhaÅ¥": 7593,
      "ĠstÃŃk": 7594,
      "Ġvtrou": 7595,
      "Ġsub": 7596,
      "Ġzbru": 7597,
      "Ġksk": 7598,
      "Ġya": 7599,
      "Ġjon": 7600,
      "Ġvzed": 7601,
      "Ġmlel": 7602,
      "ĠmÅ¾ÃŃ": 7603,
      "Å¡t": 7604,
      "Ġted": 7605,
      "Ġdun": 7606,
      "Ġlous": 7607,
      "Ġvman": 7608,
      "ĠÅ¡kvr": 7609,
      "ĠvlÃŃk": 7610,
      "Ġchlip": 7611,
      "Ġbep": 7612,
      "Ġztru": 7613,
      "ĠvÄįar": 7614,
      "ĠctnosÅ¥": 7615,
      "ĠsprÃ¡s": 7616,
      "ĠgrÃ©": 7617,
      "Ġkcho": 7618,
      "Ġsprv": 7619,
      "Ġvskok": 7620,
      "Ġpho": 7621,
      "ĠclÃ©": 7622,
      "ĠÅ¡tej": 7623,
      "Ġchnu": 7624,
      "ĠÅĻal": 7625,
      "ĠpaÅ¥": 7626,
      "Ġspil": 7627,
      "Ġig": 7628,
      "Ġflu": 7629,
      "ĠvÅ¯t": 7630,
      "ĠvrÃ¡m": 7631,
      "Ġkryj": 7632,
      "ĠdlÃŃc": 7633,
      "ĠmÅĻeÅ¡": 7634,
      "Ġsmyl": 7635,
      "Ġzdur": 7636,
      "Ġkloub": 7637,
      "Ġvbyt": 7638,
      "ĠhnÃŃt": 7639,
      "Ġstak": 7640,
      "Ġkad": 7641,
      "ĠkruÅ¾": 7642,
      "ĠsrsÅ¥": 7643,
      "Ġtlen": 7644,
      "ĠtskÃ½": 7645,
      "ck": 7646,
      "Ġvkva": 7647,
      "ĠvbdÄĽ": 7648,
      "ĠkbÄĽ": 7649,
      "ĠbÅĻÃŃm": 7650,
      "ĠÅ¡ta": 7651,
      "ĠctÃŃc": 7652,
      "Ġvcu": 7653,
      "Ġpnout": 7654,
      "ĠvrÅ¯Å¾": 7655,
      "ACDCDE": 7656,
      "AEE": 7657,
      "Ġkplat": 7658,
      "Ġjro": 7659,
      "ĠdyÅ¥": 7660,
      "ĠkrÃ¡st": 7661,
      "ĠÅ¡iÅ¾": 7662,
      "ĠstrÃ¡t": 7663,
      "ĠsprÃ¡ch": 7664,
      "Ġdant": 7665,
      "Ġbryn": 7666,
      "Ġkctno": 7667,
      "ĠÅ¡tvÃ¡t": 7668,
      "Ġvtroj": 7669,
      "ĠvdneÅ¡": 7670,
      "ĠprÃ©m": 7671,
      "Ġchun": 7672,
      "Ġkslad": 7673,
      "ĠhrÃ¡Å¡": 7674,
      "Ġtku": 7675,
      "Ġnymf": 7676,
      "ĠsÃ©m": 7677,
      "ĠvÅĻad": 7678,
      "ĠÅ¡rou": 7679,
      "ĠÅĻvÃ¡": 7680,
      "ĠsvlÃŃ": 7681,
      "Ġtvil": 7682,
      "Ġfru": 7683,
      "ĠznÄĽt": 7684,
      "Ġgin": 7685,
      "ĠvskrÃ½": 7686,
      "Ġkmon": 7687,
      "Ġchiv": 7688,
      "Ġblb": 7689,
      "Ġchrup": 7690,
      "ĠlÃ©v": 7691,
      "ĠvtÃ©m": 7692,
      "Ġfli": 7693,
      "Ġvdal": 7694,
      "ĠzkÅ¯": 7695,
      "Ġshan": 7696,
      "Ġyet": 7697,
      "Ġknez": 7698,
      "ĠvmoÅĻ": 7699,
      "ĠthÄĽ": 7700,
      "ĠÅ¡lov": 7701,
      "ĠsmeÅ¥": 7702,
      "ĠÅ¡tkal": 7703,
      "Ġtlel": 7704,
      "Ġzruch": 7705,
      "Ġzpust": 7706,
      "ĠstlÃ½m": 7707,
      "ĠkÅ¾er": 7708,
      "ĠvcÃŃp": 7709,
      "Ġvvel": 7710,
      "Ġstau": 7711,
      "Ġtvem": 7712,
      "Ġvzvo": 7713,
      "ĠsaÅ¥": 7714,
      "Ġzprud": 7715,
      "ĠkÅĻÃŃc": 7716,
      "Ġsdnem": 7717,
      "Ã³p": 7718,
      "ĠzlÃŃÄį": 7719,
      "Ġssto": 7720,
      "Ġvblud": 7721,
      "Ġsvil": 7722,
      "ĠvplÃ½": 7723,
      "ĠzknÄĽÅ¾": 7724,
      "Ġknej": 7725,
      "ĠmÅĻÃŃÅ¥": 7726,
      "Ġdnin": 7727,
      "res": 7728,
      "ĠzÅ¡a": 7729,
      "Ġsmluv": 7730,
      "Ġkyr": 7731,
      "Ġsaz": 7732,
      "ĠÅ¡kvÃ¡": 7733,
      "Ġkmy": 7734,
      "Ġneck": 7735,
      "Ġtmav": 7736,
      "Ġzchmur": 7737,
      "Ġvzchop": 7738,
      "ĠvkeÅĻ": 7739,
      "AXAXBC": 7740,
      "ADEE": 7741,
      "ĠkÄıa": 7742,
      "Ġtop": 7743,
      "Ġdez": 7744,
      "ĠskÅ¯": 7745,
      "ĠÅĻÃŃp": 7746,
      "Ġvtrud": 7747,
      "Ġvbor": 7748,
      "ĠzÅĻek": 7749,
      "Ġrinth": 7750,
      "ĠsklÃŃÄį": 7751,
      "Ġsprch": 7752,
      "ĠzmnoÅ¾": 7753,
      "Ġkfo": 7754,
      "ĠÅ¡ra": 7755,
      "Ġchnul": 7756,
      "Ġvzna": 7757,
      "Ġspoz": 7758,
      "Ġbrost": 7759,
      "Ġkmr": 7760,
      "Ġkbi": 7761,
      "Ġvdob": 7762,
      "ĠkÅĻtÃŃ": 7763,
      "ĠdÅ¡t": 7764,
      "ĠmkrÃ¡t": 7765,
      "Ġvva": 7766,
      "Ġcra": 7767,
      "Ġvov": 7768,
      "ĠvoÄį": 7769,
      "ĠspÅĻi": 7770,
      "ĠpraÄı": 7771,
      "ĠstÄĽr": 7772,
      "ĠrÃ½s": 7773,
      "ABCBC": 7774,
      "ĠsmÃŃn": 7775,
      "Ġpsem": 7776,
      "Ġvju": 7777,
      "Ġskar": 7778,
      "ĠzlÃŃt": 7779,
      "Ġzniv": 7780,
      "ĠmÄĽjÅ¾": 7781,
      "Ġzbah": 7782,
      "Ġchic": 7783,
      "Ġsrub": 7784,
      "ĠchÅĻÃŃÅ¡": 7785,
      "Ġrron": 7786,
      "ĠP": 7787,
      "ĠhÃ³": 7788,
      "Ġpav": 7789,
      "ĠstÃŃc": 7790,
      "ĠÅ¾Ã¡Äį": 7791,
      "Ġvzpu": 7792,
      "Ġstals": 7793,
      "AABCDD": 7794,
      "Ġthur": 7795,
      "ĠstrÅ¯v": 7796,
      "ĠÅ¡mej": 7797,
      "ĠÅ¡ÅĪu": 7798,
      "ĠzkÅĻo": 7799,
      "Ġvlesk": 7800,
      "ĠvvÅ¡em": 7801,
      "ĠzÅ¾a": 7802,
      "ĠÄįlen": 7803,
      "ĠÅ¾nec": 7804,
      "ĠkÃ³": 7805,
      "Ġdmy": 7806,
      "ĠvhrÃ¡": 7807,
      "ĠkroÄį": 7808,
      "Ġmark": 7809,
      "Ġvchmur": 7810,
      "Ġzbran": 7811,
      "Ġsjem": 7812,
      "ĠvhÃ¡v": 7813,
      "Ġvmrz": 7814,
      "Ġsbles": 7815,
      "Ġzsk": 7816,
      "ĠÅ¡vÃŃ": 7817,
      "Ġtesk": 7818,
      "ĠÅ¾esÅ¥": 7819,
      "Ġbov": 7820,
      "lum": 7821,
      "ÅĪat": 7822,
      "Ġvdve": 7823,
      "Ġloud": 7824,
      "Ġsbou": 7825,
      "Ġzrod": 7826,
      "ĠÄįÃ¡sÅ¥": 7827,
      "Ġkby": 7828,
      "ĠtoÅ¾Å¥": 7829,
      "ĠÄįoÄį": 7830,
      "ĠÅ¡lÃŃÅ¡": 7831,
      "ĠÄıau": 7832,
      "Ġzjiz": 7833,
      "Ġkjas": 7834,
      "Ġsodv": 7835,
      "ĠjÃº": 7836,
      "Ġpte": 7837,
      "ĠpnÃŃ": 7838,
      "Ġbak": 7839,
      "Ġdai": 7840,
      "Ġpap": 7841,
      "ĠÅ¡ip": 7842,
      "ĠvtÅĻÃŃ": 7843,
      "ĠvlÃ¡Äį": 7844,
      "ĠmÃ½Å¾": 7845,
      "ĠsrÅ¡": 7846,
      "ĠspiÅ¡": 7847,
      "ĠkÃºs": 7848,
      "Ġzfran": 7849,
      "ĠhviÄį": 7850,
      "Ġkjich": 7851,
      "Ġtci": 7852,
      "Ġvuz": 7853,
      "Ġvdny": 7854,
      "Ġtlas": 7855,
      "Ġkman": 7856,
      "ĠsneÅ¡": 7857,
      "ĠtkÃ¡m": 7858,
      "Ġssou": 7859,
      "Ġxo": 7860,
      "ĠplÃŃÅ¥": 7861,
      "Ġkstar": 7862,
      "ĠvbÄĽd": 7863,
      "Ġmhu": 7864,
      "ĠliÅĪ": 7865,
      "ĠvzvÄĽ": 7866,
      "ĠrÃ¡s": 7867,
      "ĠsuÅĪ": 7868,
      "Ġslup": 7869,
      "Ġdlan": 7870,
      "Ġsleh": 7871,
      "ABCX": 7872,
      "ĠÅ¥at": 7873,
      "ĠÅ¡Å¥u": 7874,
      "ĠvchvÄĽ": 7875,
      "Ġvzhou": 7876,
      "Ġvklet": 7877,
      "Ġkfi": 7878,
      "Ġnra": 7879,
      "Ġvex": 7880,
      "ĠdÃ¡c": 7881,
      "Ġcor": 7882,
      "Ġvzas": 7883,
      "ĠkdyÅ¾s": 7884,
      "ĠplÃ¡z": 7885,
      "Ġfik": 7886,
      "ĠsnyÅ¥": 7887,
      "ĠzmoÅĻ": 7888,
      "ĠkviÄį": 7889,
      "ABCBAC": 7890,
      "ĠvzlÃ©m": 7891,
      "Ġrru": 7892,
      "ĠvÃ¡Å¥": 7893,
      "Ġzdem": 7894,
      "ABABAA": 7895,
      "ĠvdÃ¡t": 7896,
      "Ġhes": 7897,
      "Ġjul": 7898,
      "Ġpty": 7899,
      "Ġvchmu": 7900,
      "ĠÅĪaÄį": 7901,
      "ĠzrÅ¯d": 7902,
      "Ġvysv": 7903,
      "Ġzkvet": 7904,
      "Ġsvlast": 7905,
      "Ġpstru": 7906,
      "Ġksuk": 7907,
      "ÅĻbe": 7908,
      "Ġnyx": 7909,
      "Ġlys": 7910,
      "ĠsmÃ©": 7911,
      "Ġgno": 7912,
      "ĠktvÃ½m": 7913,
      "Ġzchlad": 7914,
      "ĠzrÅ¯z": 7915,
      "ĠÅ¡vÃ¡b": 7916,
      "ĠktrÃ³": 7917,
      "ĠjmÃŃn": 7918,
      "ĠmÅ¾ou": 7919,
      "XABABC": 7920,
      "Ġpkou": 7921,
      "ĠsÃ¡r": 7922,
      "Ġtlach": 7923,
      "Ġsby": 7924,
      "Ġkmrou": 7925,
      "ĠstruÄį": 7926,
      "ĠpsÃ¡n": 7927,
      "Ġkspol": 7928,
      "Ġszim": 7929,
      "ĠtskÃ½m": 7930,
      "ĠvÅ¡pi": 7931,
      "26": 7932,
      "Ġjri": 7933,
      "Ġast": 7934,
      "ÅĻbi": 7935,
      "ĠdeÅ¥": 7936,
      "ĠmasÅ¥": 7937,
      "ĠpÅĻep": 7938,
      "Ġrai": 7939,
      "Ġzmet": 7940,
      "Ġkmar": 7941,
      "ĠkpÄĽ": 7942,
      "Ġkplu": 7943,
      "ĠouÄį": 7944,
      "ĠouÅ¡": 7945,
      "ĠvchlÃ¡d": 7946,
      "Ġkhe": 7947,
      "Ġzmoh": 7948,
      "ĠblÃ©k": 7949,
      "ĠzrÅ¯st": 7950,
      "ĠmnÃŃmÅ¥": 7951,
      "Ġchyll": 7952,
      "ĠhÅĪup": 7953,
      "Ġhin": 7954,
      "Ġlai": 7955,
      "ĠpaÅ¡": 7956,
      "ĠkÃ¡d": 7957,
      "Ġbezv": 7958,
      "AAXXXX": 7959,
      "ĠdlÃ¡ch": 7960,
      "Ġvkrad": 7961,
      "ĠzbÄĽh": 7962,
      "Ġzcy": 7963,
      "ĠzcÃŃ": 7964,
      "ĠÅ¥ouÄį": 7965,
      "ĠÅ¡mÃ¡": 7966,
      "Ġrzi": 7967,
      "ĠÄįtÄĽ": 7968,
      "ĠÄįmou": 7969,
      "Ġsvrou": 7970,
      "ĠnoÅ¥": 7971,
      "Ġroic": 7972,
      "ĠstÃŃt": 7973,
      "Ġdraz": 7974,
      "ĠvhÅĻe": 7975,
      "ĠstvÃ©m": 7976,
      "ĠklÅĪ": 7977,
      "Ġvpor": 7978,
      "Ġouin": 7979,
      "ĠznÃŃz": 7980,
      "ĠmnÃŃch": 7981,
      "Ġpuls": 7982,
      "Ġouinti": 7983,
      "FG": 7984,
      "Ġkyv": 7985,
      "ĠÄįep": 7986,
      "ĠÅ¡ÃŃv": 7987,
      "ĠÄįÃŃÅĻ": 7988,
      "ĠÅ¡ir": 7989,
      "ĠdÅĻÃŃch": 7990,
      "ĠspÃ¡Äį": 7991,
      "ĠdlÃŃk": 7992,
      "Ġkzla": 7993,
      "ĠnÄĽls": 7994,
      "ĠvÃºt": 7995,
      "ĠssÃ¡t": 7996,
      "ĠranÅ¾": 7997,
      "ĠcloÅĪ": 7998,
      "Ġvmet": 7999,
      "Ġgent": 8000,
      "ĠmodÅĻ": 8001,
      "AH": 8002,
      "olo": 8003,
      "vÅ¯r": 8004,
      "ĠjrÃ¡": 8005,
      "ĠÄįky": 8006,
      "Ġist": 8007,
      "ĠbÃŃÅĻ": 8008,
      "Ġvsli": 8009,
      "Ġzpli": 8010,
      "ĠÅ¡kÃ½": 8011,
      "Ġtryl": 8012,
      "ĠkstrÃ¡": 8013,
      "Ġllon": 8014,
      "ĠtnÃ½ch": 8015,
      "ĠvÄįty": 8016,
      "Ġaeth": 8017,
      "Ġyette": 8018,
      "ĠvÃ¡ÅĪ": 8019,
      "Ġvzvy": 8020,
      "ĠluÅ¡": 8021,
      "ĠztÅ¯": 8022,
      "ĠvÃŃmÅ¥": 8023,
      "Ġstyl": 8024,
      "ĠsvÃ½Å¡": 8025,
      "ĠdvÃ©st": 8026,
      "ĠtlÃŃm": 8027,
      "ĠfÃŃn": 8028,
      "ĠpÃ³l": 8029,
      "Ġfekt": 8030,
      "ĠvzpÄĽv": 8031,
      "AABXX": 8032,
      "un": 8033,
      "ĠkdÃ¡l": 8034,
      "ĠmaÅ¾": 8035,
      "Ġstaj": 8036,
      "ĠvdÃ³": 8037,
      "ĠznÃ¡Å¥": 8038,
      "ĠslÃ¡t": 8039,
      "Ġdvar": 8040,
      "ĠvzÃ¡Å¡": 8041,
      "ĠvruÄį": 8042,
      "Ġtroup": 8043,
      "Ġvtrys": 8044,
      "Ġzfa": 8045,
      "ĠrvÃ¡n": 8046,
      "ĠÅ¡oust": 8047,
      "Ġschyl": 8048,
      "ĠÅ¡klub": 8049,
      "ĠlvÅ¯": 8050,
      "Ġsvran": 8051,
      "Ġvoc": 8052,
      "ĠzeÄį": 8053,
      "ĠÃºÅ¾": 8054,
      "Ġtrar": 8055,
      "ĠtÅĻiÅ¥": 8056,
      "ĠpsÃ½": 8057,
      "Ġvdub": 8058,
      "Ġvros": 8059,
      "ĠmÅ¾it": 8060,
      "ĠsÃºz": 8061,
      "Ġscan": 8062,
      "ĠdÅĻin": 8063,
      "ĠzvÃ½h": 8064,
      "ĠhrÃ½zt": 8065,
      "Ġstle": 8066,
      "ĠrÅ¾ÃŃ": 8067,
      "Ġlij": 8068,
      "Ġuil": 8069,
      "ABABBA": 8070,
      "Ġbrk": 8071,
      "Ġvems": 8072,
      "ĠzlosÅ¥": 8073,
      "Ġfai": 8074,
      "Ġbrot": 8075,
      "ĠklÃŃch": 8076,
      "ĠÅ¾ul": 8077,
      "ĠniÅ¾Å¥": 8078,
      "ĠzbÄĽd": 8079,
      "Ġvbit": 8080,
      "ĠzÃ³": 8081,
      "Ġdow": 8082,
      "Ġsyk": 8083,
      "Ġsut": 8084,
      "ĠvslÃŃ": 8085,
      "Ġzhle": 8086,
      "ĠshnÃ¡": 8087,
      "ĠblÃŃn": 8088,
      "ĠtÅĻid": 8089,
      "ĠstÅĻÃŃs": 8090,
      "ĠtrÃ¡ch": 8091,
      "Ġskryj": 8092,
      "Ġtlouk": 8093,
      "Ġzvrat": 8094,
      "Ġvpych": 8095,
      "Ġzza": 8096,
      "Ġvychr": 8097,
      "Ġtwar": 8098,
      "Ġvau": 8099,
      "Ġmac": 8100,
      "Ġkoum": 8101,
      "Ġvsle": 8102,
      "ĠzprÃ¡z": 8103,
      "ĠdalÅ¥": 8104,
      "Ġvzdi": 8105,
      "ĠzÅĻÃŃc": 8106,
      "ĠÅ¥ce": 8107,
      "Ġhlil": 8108,
      "ĠktÃ¡": 8109,
      "Ġhloup": 8110,
      "Ġtlil": 8111,
      "Ġsnym": 8112,
      "Ġvcel": 8113,
      "Ġvryb": 8114,
      "Ġkspo": 8115,
      "Ġflex": 8116,
      "ĠjvÄĽÅ¡": 8117,
      "ĠmnÃ¡c": 8118,
      "Ġvtrest": 8119,
      "Ġds": 8120,
      "Ġtaur": 8121,
      "Ġtuk": 8122,
      "ĠbuÅĪ": 8123,
      "ĠsteÅ¡": 8124,
      "Ġgju": 8125,
      "Ġye": 8126,
      "Ġplyn": 8127,
      "ĠzleÅ¡": 8128,
      "Ġthle": 8129,
      "Ġsboch": 8130,
      "ĠzsvÃ½ch": 8131,
      "Ġzjis": 8132,
      "XABX": 8133,
      "Ġknost": 8134,
      "ĠvÄĽs": 8135,
      "Ġnoun": 8136,
      "Ġzef": 8137,
      "ĠvtÃ³": 8138,
      "ĠbiÅ¡": 8139,
      "Ġvlam": 8140,
      "ĠdloÅ¾": 8141,
      "Ġctum": 8142,
      "ĠaÄįs": 8143,
      "Ġzrou": 8144,
      "Ġvnaz": 8145,
      "Ġhryz": 8146,
      "ĠbdÃŃÅ¡": 8147,
      "Ġgall": 8148,
      "ĠvcÃŃl": 8149,
      "Ġzmdlob": 8150,
      "ĠjÅĻil": 8151,
      "ĠchÃ³": 8152,
      "ĠbaÅĪ": 8153,
      "Ġvrem": 8154,
      "ĠrÃ½t": 8155,
      "Ġksko": 8156,
      "ĠcheÅĪ": 8157,
      "Ġhmat": 8158,
      "Ġkvol": 8159,
      "Ġnuc": 8160,
      "Ġvsma": 8161,
      "ĠstrÃ³p": 8162,
      "ĠkloÄı": 8163,
      "Ġktru": 8164,
      "ĠÄįtli": 8165,
      "Ġmsto": 8166,
      "ĠxÅ¯": 8167,
      "Ġllyr": 8168,
      "Ġthus": 8169,
      "ĠstlÃ©m": 8170,
      "ĠvÅ¡pat": 8171,
      "Ġvshro": 8172,
      "CA": 8173,
      "Ġllem": 8174,
      "Ġpha": 8175,
      "Ġid": 8176,
      "ĠvptÃ¡": 8177,
      "ĠvsÃ¡l": 8178,
      "Ġblom": 8179,
      "Ġvzbra": 8180,
      "ĠÅ¡lil": 8181,
      "Ġdoh": 8182,
      "Ġrut": 8183,
      "Ġia": 8184,
      "Ġhral": 8185,
      "ĠplÃ¡c": 8186,
      "Ġsmrk": 8187,
      "Ġtmo": 8188,
      "Ġsnej": 8189,
      "Ġtkou": 8190,
      "ĠkhrÅ¯": 8191,
      "ĠÅ¡Ã¡m": 8192,
      "ĠvpÅĻÃŃt": 8193,
      "Ġfun": 8194,
      "Ġstmou": 8195,
      "Ġjap": 8196,
      "ĠÅĻep": 8197,
      "ĠbaÄį": 8198,
      "ĠtamÅ¥": 8199,
      "Ġstouc": 8200,
      "ĠprouÅ¾": 8201,
      "Ġkplo": 8202,
      "Ġtlost": 8203,
      "Ġchals": 8204,
      "Ġstruh": 8205,
      "Ġkpos": 8206,
      "ĠvsaÄı": 8207,
      "Ġtbu": 8208,
      "ĠjvÃ¡b": 8209,
      "ĠÅ¡lÃ½m": 8210,
      "CCC": 8211,
      "Ġhet": 8212,
      "ĠvskÅĻi": 8213,
      "ĠÄįov": 8214,
      "Ġfos": 8215,
      "Ġrent": 8216,
      "ĠmÅ¡ÃŃ": 8217,
      "Ġvget": 8218,
      "ĠvjÃŃc": 8219,
      "Ġzpyt": 8220,
      "AABAAB": 8221,
      "ADDE": 8222,
      "Ġvstih": 8223,
      "DB": 8224,
      "ĠÅĻvÃ¡t": 8225,
      "ĠveÅ¾": 8226,
      "ĠnouÄį": 8227,
      "Ġvsmu": 8228,
      "Ġdland": 8229,
      "Ġblep": 8230,
      "CDD": 8231,
      "ĠsdÃ¡": 8232,
      "Ġjdouc": 8233,
      "ĠrtÅ¯v": 8234,
      "ĠvstÅĻet": 8235,
      "Ġshud": 8236,
      "ĠpstrÃ©": 8237,
      "ĠdÅĻu": 8238,
      "ĠiÃŃ": 8239,
      "XAABBX": 8240,
      "Ġztrou": 8241,
      "ĠvlÃ½": 8242,
      "ĠzpÄĽn": 8243,
      "Ġvpoc": 8244,
      "Ġvpov": 8245,
      "ĠzÅĻÃŃÅ¥": 8246,
      "Ġstrum": 8247,
      "Ġvpros": 8248,
      "Ġkment": 8249,
      "Ġchloup": 8250,
      "AXXXX": 8251,
      "rej": 8252,
      "Ġsex": 8253,
      "ĠvÅ¡ar": 8254,
      "Ġnuch": 8255,
      "ĠvzrÃ¡d": 8256,
      "ĠtyÅ¥": 8257,
      "ĠluÄı": 8258,
      "Ġmlas": 8259,
      "ĠsmÄĽt": 8260,
      "ĠÅ¡aj": 8261,
      "ĠstÃ½n": 8262,
      "Ġzvar": 8263,
      "ĠvzkvÄĽ": 8264,
      "Ġthes": 8265,
      "ĠkstÅĻe": 8266,
      "Ġfuj": 8267,
      "Ġztuh": 8268,
      "ĠshÃ½b": 8269,
      "ĠtchÃ¡n": 8270,
      "Ġsfouk": 8271,
      "ĠvsnÃŃh": 8272,
      "ĠnaÅĻ": 8273,
      "Ġhof": 8274,
      "Ġnok": 8275,
      "ĠslÃ©m": 8276,
      "ĠtÃŃz": 8277,
      "Ġjah": 8278,
      "Ġjaj": 8279,
      "ĠÅĻeÅ¡": 8280,
      "ĠvdÅĻe": 8281,
      "ĠdraÄį": 8282,
      "Ġvhle": 8283,
      "ĠbrÃ¡m": 8284,
      "Ġkmou": 8285,
      "ĠzlÃŃh": 8286,
      "Ġvsluj": 8287,
      "Ġvca": 8288,
      "Ġsbez": 8289,
      "Ġcukr": 8290,
      "kÃ©": 8291,
      "Ġdky": 8292,
      "ĠÅ¡y": 8293,
      "ĠjskÃ©": 8294,
      "ĠdÃ¡Äį": 8295,
      "ĠkrÃ¡p": 8296,
      "ĠhaÅĪ": 8297,
      "Ġhlan": 8298,
      "ĠpÅĻit": 8299,
      "Ġtril": 8300,
      "ĠvsnÅ¯": 8301,
      "AAXAXA": 8302,
      "ĠrÃ©mÅ¾": 8303,
      "ĠkÅĻtÄĽ": 8304,
      "ĠvÅĻÃŃÄį": 8305,
      "Ġllic": 8306,
      "ĠvseÄį": 8307,
      "Ġsju": 8308,
      "Ġshroz": 8309,
      "ĠzkÅĻiÅ¡": 8310,
      "Ġvkyv": 8311,
      "ĠnÃ¡Å¥": 8312,
      "ĠnoÅĻ": 8313,
      "ĠkdÃŃt": 8314,
      "ĠkÃ¡Äį": 8315,
      "Ġmyt": 8316,
      "ĠzÃŃv": 8317,
      "Ġvout": 8318,
      "Ġzman": 8319,
      "Ġlils": 8320,
      "Ġcau": 8321,
      "Ġsdvo": 8322,
      "ĠvzkÅĻe": 8323,
      "ĠvjitÅĻ": 8324,
      "ĠzbÄĽÅĻ": 8325,
      "Ġkchu": 8326,
      "Ġztaj": 8327,
      "ĠrdÃŃc": 8328,
      "ĠzkÅĻik": 8329,
      "ĠlÅ¾eÅ¡": 8330,
      "ĠkÄįa": 8331,
      "Ġssk": 8332,
      "ĠsÅĻa": 8333,
      "Ġclou": 8334,
      "ĠsvÅĻe": 8335,
      "Ġmai": 8336,
      "ĠspÃ©": 8337,
      "ĠlÃ©r": 8338,
      "Ġvtk": 8339,
      "Ġei": 8340,
      "Ġez": 8341,
      "Ġvklo": 8342,
      "Ġklej": 8343,
      "Ġdnil": 8344,
      "ĠhrÃ¡Äį": 8345,
      "ĠzpoÄį": 8346,
      "Ġvjho": 8347,
      "ĠÅĪav": 8348,
      "Ġvkol": 8349,
      "ĠshoÄı": 8350,
      "ĠtbÃ¡ch": 8351,
      "ĠtchÃ¡": 8352,
      "Ġphoi": 8353,
      "ĠvslÃŃÄį": 8354,
      "Ġkuch": 8355,
      "Ġio": 8356,
      "ĠvsvÃŃ": 8357,
      "ĠbiÅ¥": 8358,
      "ĠvlaÄį": 8359,
      "Ġblat": 8360,
      "Ġschle": 8361,
      "Ġkmla": 8362,
      "Ġvrub": 8363,
      "AXBXB": 8364,
      "Ġtlech": 8365,
      "ĠdnÄĽj": 8366,
      "Ġvcir": 8367,
      "ĠÅ¾hnu": 8368,
      "Ġtba": 8369,
      "ĠcrÃ³": 8370,
      "ĠvkÅĻiÅ¡": 8371,
      "Ġtchy": 8372,
      "AABXBX": 8373,
      "Ġmiv": 8374,
      "Ġmaur": 8375,
      "Ġtyn": 8376,
      "Ġchab": 8377,
      "Ġziz": 8378,
      "ĠstÅĻeÅ¾": 8379,
      "Ġmraj": 8380,
      "Ġshru": 8381,
      "Ġkls": 8382,
      "Ġkniv": 8383,
      "Ġbald": 8384,
      "Ġaus": 8385,
      "Ġvspro": 8386,
      "Ġvvla": 8387,
      "Ġkvlast": 8388,
      "Ġaest": 8389,
      "ĠklÅ¯Å¾": 8390,
      "Ġvsklon": 8391,
      "AABXXB": 8392,
      "ĠnÄĽh": 8393,
      "ĠmuÄį": 8394,
      "Ġvig": 8395,
      "Ġzdmu": 8396,
      "Ġzram": 8397,
      "Ġvbro": 8398,
      "ĠshrÃ¡": 8399,
      "ĠksÃ½": 8400,
      "ĠvlÃ¡z": 8401,
      "ĠvchlÃ©": 8402,
      "AXXABB": 8403,
      "Ġzjar": 8404,
      "ĠvÅĻÃ¡d": 8405,
      "ĠÅ¡Ã©": 8406,
      "ĠtaÅĻ": 8407,
      "Ġdesk": 8408,
      "Ġsuv": 8409,
      "Ġbir": 8410,
      "ĠzmlÃ½": 8411,
      "Ġshlou": 8412,
      "Ġschro": 8413,
      "Ġhlem": 8414,
      "Ġvchvil": 8415,
      "ĠsboÅ¾": 8416,
      "ĠpÄĽls": 8417,
      "ĠÅ¾dyc": 8418,
      "Ġgral": 8419,
      "ĠzdrÅ¾": 8420,
      "ĠÄįteÅ¡": 8421,
      "Ġsvrch": 8422,
      "ĠhmoÅ¾": 8423,
      "ĠsÅ¡a": 8424,
      "Ġfons": 8425,
      "Ġzga": 8426,
      "Ġtest": 8427,
      "ĠnÃ½r": 8428,
      "Ġdud": 8429,
      "ĠmeÅ¥": 8430,
      "Ġzpor": 8431,
      "Ġdlat": 8432,
      "skÃ©": 8433,
      "Ġkret": 8434,
      "ĠsdÃ½": 8435,
      "ver": 8436,
      "Ġgel": 8437,
      "Ġblin": 8438,
      "Ġvloh": 8439,
      "ĠznÃ¡mÅ¥": 8440,
      "ĠvmlÅ¾": 8441,
      "Ġfyr": 8442,
      "Ġspekt": 8443,
      "Ġmlejn": 8444,
      "mÅ¯": 8445,
      "Ġrho": 8446,
      "ĠÅ¡vu": 8447,
      "ĠsvrÃ¡": 8448,
      "Ġskly": 8449,
      "ĠsmlÃ¡": 8450,
      "Ġpraz": 8451,
      "ĠpÃ¡st": 8452,
      "ĠchÃ¡b": 8453,
      "ĠchtÄĽt": 8454,
      "Ġvnec": 8455,
      "Ġssla": 8456,
      "Ġgran": 8457,
      "ĠzchÃ½": 8458,
      "ĠÄįnÃŃt": 8459,
      "Ġmlet": 8460,
      "Ġkvost": 8461,
      "Ġvvzd": 8462,
      "ĠÅ¡lÃ¡ÅĻ": 8463,
      "ĠvbÃ¡j": 8464,
      "Ġjvod": 8465,
      "Ġtimp": 8466,
      "Ġksym": 8467,
      "vor": 8468,
      "ĠnÃ³": 8469,
      "Ġrill": 8470,
      "lau": 8471,
      "ĠvaÄı": 8472,
      "Ġjip": 8473,
      "Ġvyc": 8474,
      "ĠchaÄį": 8475,
      "Ġroun": 8476,
      "ĠzdÃ¡m": 8477,
      "Ġshnu": 8478,
      "ĠÄįils": 8479,
      "ABCCBA": 8480,
      "Ġhant": 8481,
      "ĠzdÄĽch": 8482,
      "ĠzdÃŃl": 8483,
      "Ġtvic": 8484,
      "Ġvgir": 8485,
      "ĠvtÃ¡h": 8486,
      "Ġvdrs": 8487,
      "mÃ©": 8488,
      "Ġnber": 8489,
      "ĠvvÃŃ": 8490,
      "Ġclum": 8491,
      "Ġkys": 8492,
      "ĠÅĻeÅ¥": 8493,
      "ĠtrÃ³n": 8494,
      "ĠnÃ½chs": 8495,
      "Ġbrah": 8496,
      "ĠgÅĻi": 8497,
      "Ġzkme": 8498,
      "Ġpils": 8499,
      "Ġfoi": 8500,
      "ĠkstÄĽ": 8501,
      "ĠzpÅĻed": 8502,
      "ĠzÅ¾u": 8503,
      "ĠdmÃŃ": 8504,
      "ĠllÅ¯": 8505,
      "Ġaf": 8506,
      "Å¾b": 8507,
      "Ġchnou": 8508,
      "Ġstaf": 8509,
      "Ġvtva": 8510,
      "Ġslost": 8511,
      "Ġkes": 8512,
      "ĠztÃŃ": 8513,
      "ĠbÅĻed": 8514,
      "ĠÅ¡tÄĽk": 8515,
      "ĠvpoÄį": 8516,
      "Ġsblan": 8517,
      "Ġkmra": 8518,
      "ĠkmlÃ¡": 8519,
      "ĠzÅĻev": 8520,
      "ĠklÃ¡n": 8521,
      "Ġthem": 8522,
      "ĠvzklÃŃ": 8523,
      "Ġxy": 8524,
      "Ġploul": 8525,
      "Ġsmoc": 8526,
      "ĠcÃ©ÅĻ": 8527,
      "ĠkjÃ¡": 8528,
      "Ġkpros": 8529,
      "ĠpÅ¡a": 8530,
      "ĠciÄį": 8531,
      "ĠlÃ©p": 8532,
      "Ġchus": 8533,
      "Ġfak": 8534,
      "ĠtÅĻep": 8535,
      "ĠmÃ½t": 8536,
      "ĠtresÅ¥": 8537,
      "Ġfranz": 8538,
      "ĠblÃ©m": 8539,
      "ĠhÅĻiÄį": 8540,
      "ĠsÅ¾en": 8541,
      "Ġvsrp": 8542,
      "dr": 8543,
      "nut": 8544,
      "ĠneÅ¥": 8545,
      "ĠnÃ¡z": 8546,
      "ĠvÅ¡Ã¡": 8547,
      "ĠmÄĽÄı": 8548,
      "ĠlyÅĪ": 8549,
      "ĠzvdÄĽÄį": 8550,
      "ĠÃºl": 8551,
      "Ġdour": 8552,
      "Ġmand": 8553,
      "ĠÅ¡tvou": 8554,
      "Ġjilm": 8555,
      "Ġbdi": 8556,
      "ĠskroÅ¥": 8557,
      "Ġvhlav": 8558,
      "ĠÅ¡vest": 8559,
      "ĠÅ¾van": 8560,
      "Ġstrel": 8561,
      "ĠvbÅĻes": 8562,
      "ĠsÄįÃŃm": 8563,
      "Ġcult": 8564,
      "ĠhÅĪuh": 8565,
      "AG": 8566,
      "Ġvzje": 8567,
      "Ġtrill": 8568,
      "AABBCB": 8569,
      "ĠzhÅĻbe": 8570,
      "AAAABB": 8571,
      "Ġmde": 8572,
      "Ġklus": 8573,
      "ĠÅ¾luÅ¥": 8574,
      "XAXABX": 8575,
      "Ġvsmy": 8576,
      "ĠlkÃ¡Å¥": 8577,
      "Ġzhur": 8578,
      "Ġzvrt": 8579,
      "ĠjradÅ¡": 8580,
      "ĠjÅĻi": 8581,
      "ĠÅ¡vÃ½": 8582,
      "Ġlac": 8583,
      "ĠvÃ¡h": 8584,
      "ĠspÅ¯d": 8585,
      "ĠzÃ¡z": 8586,
      "Ġlul": 8587,
      "ĠdÅĻÃŃk": 8588,
      "Ġschlou": 8589,
      "ĠhlouÄį": 8590,
      "Ġzpov": 8591,
      "Ġblon": 8592,
      "Ġzmiz": 8593,
      "ĠzsvÄĽt": 8594,
      "ĠÅ¾dÃ¡t": 8595,
      "ĠÅ¾dÃ¡m": 8596,
      "ĠÅ¾bÃ¡n": 8597,
      "ĠdskÃ©": 8598,
      "Ġspsem": 8599,
      "Ġvgeth": 8600,
      "ĠvÃ³": 8601,
      "Ġlvu": 8602,
      "Ġjha": 8603,
      "ĠÅ¾re": 8604,
      "ĠÄįka": 8605,
      "Ġchmou": 8606,
      "ĠÅ¾ev": 8607,
      "ĠkdÅ¯": 8608,
      "ĠbraÅ¡": 8609,
      "ĠzoÄį": 8610,
      "Ġklim": 8611,
      "ĠsmrÅ¡": 8612,
      "Ġkslou": 8613,
      "Ġtlal": 8614,
      "ĠslÃŃd": 8615,
      "ĠpÅĻÃ¡Å¥": 8616,
      "Ġfel": 8617,
      "ĠtrÃ¡k": 8618,
      "ĠcoÅ¾s": 8619,
      "ĠzpÃŃt": 8620,
      "ĠstÃ¡ls": 8621,
      "Ġznov": 8622,
      "Ġthin": 8623,
      "Ġvkob": 8624,
      "Ġchran": 8625,
      "ĠdlÃ¡ÅĻ": 8626,
      "ĠkhrÃ¡": 8627,
      "ĠchrÅ¯m": 8628,
      "Ġchrlil": 8629,
      "ĠmdlÃ©m": 8630,
      "Ġvpsa": 8631,
      "Ġpten": 8632,
      "Ġmber": 8633,
      "lej": 8634,
      "rÃ¡v": 8635,
      "ĠÄįÃŃÅ¾": 8636,
      "ĠÅ¾ic": 8637,
      "Ġbaf": 8638,
      "Ġdouk": 8639,
      "ĠchyÅ¾": 8640,
      "Ġzhno": 8641,
      "ĠsliÅ¥": 8642,
      "Ġdloud": 8643,
      "Ġvzpi": 8644,
      "Ġznoz": 8645,
      "Ġtlup": 8646,
      "Ġparr": 8647,
      "Ġchlic": 8648,
      "ĠÅĪÃ¡Äį": 8649,
      "ĠvmrÅ¡": 8650,
      "ĠvstrÅ¾": 8651,
      "Ġsvrhl": 8652,
      "ĠvschrÃ¡": 8653,
      "Ġtnu": 8654,
      "Ġbrd": 8655,
      "ĠcÅ¾": 8656,
      "Å¯v": 8657,
      "Ġkau": 8658,
      "Ġzvil": 8659,
      "ĠpÃŃn": 8660,
      "ABBABC": 8661,
      "ĠvÅ¾u": 8662,
      "ĠkroÅ¥": 8663,
      "ĠbÅĻeÅ¾": 8664,
      "ĠvÅĻed": 8665,
      "ĠznÃ¡d": 8666,
      "ĠvlÃ¡st": 8667,
      "Ġvlech": 8668,
      "ĠÅ¡ky": 8669,
      "Ġplos": 8670,
      "ĠpÃ©r": 8671,
      "Ġzsa": 8672,
      "ĠmÃ¤": 8673,
      "ĠÅ¾ni": 8674,
      "ĠÅ¡or": 8675,
      "Ġzec": 8676,
      "ĠspoÄį": 8677,
      "ĠsleÅ¥": 8678,
      "ĠvmÃ½": 8679,
      "Ġmens": 8680,
      "ĠsÃ½r": 8681,
      "ĠÄıat": 8682,
      "ĠvzkvÃ©": 8683,
      "ĠvzkvÄĽt": 8684,
      "ĠvpÅĻÃŃs": 8685,
      "Ġzsmr": 8686,
      "Ġkult": 8687,
      "ĠvvÅ¯": 8688,
      "Ġkfran": 8689,
      "ĠvzmuÅ¾": 8690,
      "ĠbaÅ¡t": 8691,
      "Ġjroz": 8692,
      "ĠsprÅ¯": 8693,
      "ĠÅ¡ic": 8694,
      "Ġhup": 8695,
      "Ġpep": 8696,
      "ĠsuÅ¡": 8697,
      "ĠdÄĽlÅ¥": 8698,
      "Ġvmal": 8699,
      "ABCACB": 8700,
      "Ġkrup": 8701,
      "Ġgust": 8702,
      "Ġvhrom": 8703,
      "Ġvtur": 8704,
      "Ġfant": 8705,
      "ĠvtvÅ¯r": 8706,
      "Ġsstra": 8707,
      "Ġpsov": 8708,
      "ĠshvÄĽzd": 8709,
      "ĠflÃ³r": 8710,
      "Ġkbez": 8711,
      "Ġmva": 8712,
      "Ġcri": 8713,
      "Ġtir": 8714,
      "Ġsix": 8715,
      "ĠmÃŃs": 8716,
      "ĠbaÅĻ": 8717,
      "ĠprÃ³": 8718,
      "ĠzoÅ¡": 8719,
      "Ġdrich": 8720,
      "ĠstvÃŃÅ¡": 8721,
      "Ġzhi": 8722,
      "ĠbÅĻev": 8723,
      "ĠkpÅĻi": 8724,
      "AACCD": 8725,
      "ĠstvoÅĻ": 8726,
      "Ġvchra": 8727,
      "Ġvkam": 8728,
      "ĠmstÄĽ": 8729,
      "ĠzlÃ¡z": 8730,
      "Ġsfres": 8731,
      "ĠsklÃŃn": 8732,
      "ĠskÅĻes": 8733,
      "ĠvhouÅ¡Å¥": 8734,
      "ĠÄįmel": 8735,
      "hi": 8736,
      "ĠnrÃ¡d": 8737,
      "ĠrÃŃ": 8738,
      "ĠlyÅ¥": 8739,
      "Ġvzdro": 8740,
      "ĠstÅĻeÅĪ": 8741,
      "ĠsmÄĽst": 8742,
      "Ġkrum": 8743,
      "Ġfus": 8744,
      "Ġshlas": 8745,
      "ĠvskoÄį": 8746,
      "ĠdskÃ½": 8747,
      "AADDEE": 8748,
      "Ġvpsal": 8749,
      "Ġbvaz": 8750,
      "ĠvtÅĻpy": 8751,
      "Ġmik": 8752,
      "Ġvest": 8753,
      "ĠprÃ½m": 8754,
      "ĠhÃ¡c": 8755,
      "Ġey": 8756,
      "skÃ½ch": 8757,
      "Ġsbr": 8758,
      "ĠklÃ¡t": 8759,
      "ĠzvÃŃs": 8760,
      "Ġknem": 8761,
      "Ġwer": 8762,
      "ĠsvlÃ©k": 8763,
      "ĠvchÃ½Å¾": 8764,
      "ĠvkÅĻÃŃÅ¾": 8765,
      "Ġskiz": 8766,
      "ĠpfÃŃ": 8767,
      "AABAB": 8768,
      "ĠdÄįe": 8769,
      "Ġlix": 8770,
      "Ġmich": 8771,
      "ĠniÅ¡Å¥": 8772,
      "Ġsken": 8773,
      "Ġpai": 8774,
      "ĠtyÅĪ": 8775,
      "ĠvÅ¾en": 8776,
      "ĠzraÄı": 8777,
      "Ġsvic": 8778,
      "tip": 8779,
      "ĠkrÅ¯Äį": 8780,
      "AXBCBD": 8781,
      "ĠspÅĻÃŃz": 8782,
      "Ġkblan": 8783,
      "AFF": 8784,
      "ĠvzlÃŃ": 8785,
      "ĠhlaÅ¥": 8786,
      "Ġbach": 8787,
      "ĠmouÅ¡": 8788,
      "Ġjud": 8789,
      "ĠjuÅ¡": 8790,
      "Ġksli": 8791,
      "ABBAXC": 8792,
      "Ġschi": 8793,
      "Ġfas": 8794,
      "ĠvÄįet": 8795,
      "ĠtrÃ¡l": 8796,
      "Ġkzbo": 8797,
      "ĠvbeÄį": 8798,
      "Ġwal": 8799,
      "ĠvchvÃŃl": 8800,
      "ĠkdÄĽl": 8801,
      "Ġzblan": 8802,
      "Ġaethru": 8803,
      "Ġnip": 8804,
      "ĠvzÃº": 8805,
      "ĠraÅ¾": 8806,
      "Ġsap": 8807,
      "Ġhun": 8808,
      "Ġvpom": 8809,
      "ĠvÅ¾il": 8810,
      "Ġbrech": 8811,
      "ĠsvaÅ¾": 8812,
      "Ġzys": 8813,
      "Ġmoct": 8814,
      "ĠbÅĻesk": 8815,
      "Ġtrep": 8816,
      "ĠvlÃ©k": 8817,
      "Ġsplet": 8818,
      "ĠvzplaÅĪ": 8819,
      "ĠtlÃŃk": 8820,
      "ĠzÃ©r": 8821,
      "ĠvbÅĻed": 8822,
      "Ġsaul": 8823,
      "ĠÅ¡rÃ¡m": 8824,
      "Ġrl": 8825,
      "ĠnÄĽÅ¥": 8826,
      "ĠtiÅ¡Å¥": 8827,
      "Ġdog": 8828,
      "Ġkaf": 8829,
      "Ġmiz": 8830,
      "Ġnoum": 8831,
      "ĠsvÄĽc": 8832,
      "Ġkrem": 8833,
      "ĠvdÅĻÃŃ": 8834,
      "ĠgÅ¯m": 8835,
      "Ġdrt": 8836,
      "Ġblast": 8837,
      "ĠÅ¡uÅ¡": 8838,
      "Ġscha": 8839,
      "ĠpsÃ½m": 8840,
      "Ġkzb": 8841,
      "ĠfrÃ©": 8842,
      "Ġchis": 8843,
      "Ġsfi": 8844,
      "ĠstÅĻÃ¡st": 8845,
      "Ġzhroz": 8846,
      "Ġsjha": 8847,
      "ĠchÅĻic": 8848,
      "XABBXA": 8849,
      "Ġvslast": 8850,
      "Ġvklec": 8851,
      "ADXD": 8852,
      "Ġaeolo": 8853,
      "ĠvhnÄĽt": 8854,
      "Ġvsym": 8855,
      "ĠspyÅ¡": 8856,
      "Ġphi": 8857,
      "ĠvmhÃ¡ch": 8858,
      "ĠÅ¡tejn": 8859,
      "id": 8860,
      "ĠsÄıÃ¡": 8861,
      "ĠzÅĻas": 8862,
      "Ġrr": 8863,
      "ĠnÄĽs": 8864,
      "ĠboÅĪ": 8865,
      "ĠdÃ½k": 8866,
      "ĠpouÄį": 8867,
      "Ġhrav": 8868,
      "Ġmrch": 8869,
      "Ġvzdra": 8870,
      "ĠsmÄĽv": 8871,
      "Ġschra": 8872,
      "ĠschmÅ¯": 8873,
      "ĠbÅĻÃŃch": 8874,
      "ĠvnÃ¡ÅĻ": 8875,
      "Ġzmok": 8876,
      "ĠstÅĻik": 8877,
      "Ġkvit": 8878,
      "Ġgym": 8879,
      "Ġsaic": 8880,
      "ĠvÅ¡per": 8881,
      "Ġsgra": 8882,
      "Ġzze": 8883,
      "Ġchni": 8884,
      "ĠhuÅ¡": 8885,
      "ĠÅĻiÅ¡": 8886,
      "Ġvouc": 8887,
      "ĠhraÄı": 8888,
      "Ġzhmo": 8889,
      "ĠklÃŃc": 8890,
      "Ġsnez": 8891,
      "Ġchvu": 8892,
      "Ġfraj": 8893,
      "ĠxÃŃ": 8894,
      "ĠlkÃ¡Å¡": 8895,
      "Ġvplav": 8896,
      "ĠzproÅ¡": 8897,
      "Ġzfi": 8898,
      "ĠnimÅ¾": 8899,
      "ĠvssÃ¡l": 8900,
      "ĠzhrÅ¯z": 8901,
      "ĠÅ¾neÄį": 8902,
      "XABCBC": 8903,
      "Ġzknih": 8904,
      "ĠvskÅĻip": 8905,
      "XABAB": 8906,
      "ĠÅ¾eÅ¾": 8907,
      "Ġnop": 8908,
      "ĠfÃ³r": 8909,
      "ĠdÃ½Å¥": 8910,
      "ĠbÃ¡c": 8911,
      "ĠstÅĻeÅ¡": 8912,
      "Ġtrop": 8913,
      "ĠstÅĻÃŃt": 8914,
      "Ġcajt": 8915,
      "Ġzvaz": 8916,
      "ĠvÄįÃ¡": 8917,
      "Ġgrand": 8918,
      "ĠsÄįel": 8919,
      "Ġfrid": 8920,
      "ĠcnosÅ¥": 8921,
      "Ġtcho": 8922,
      "ADDA": 8923,
      "Ġsge": 8924,
      "Ġvfo": 8925,
      "ĠclÃ©ÅĻ": 8926,
      "hn": 8927,
      "Ġkkou": 8928,
      "ĠposÅ¥": 8929,
      "Ġskme": 8930,
      "Ġmad": 8931,
      "ĠfÃ³": 8932,
      "ĠgÃ¶": 8933,
      "ĠzdeÅ¥": 8934,
      "Ġtrait": 8935,
      "Ġskoj": 8936,
      "lÃ½s": 8937,
      "Ġschech": 8938,
      "Ġkryp": 8939,
      "ĠdroÅ¾": 8940,
      "AACD": 8941,
      "ĠhruÅ¾": 8942,
      "Ġkhlu": 8943,
      "Ġsmag": 8944,
      "Ġkmoc": 8945,
      "ĠtrÃ½s": 8946,
      "Ġpres": 8947,
      "ĠchmÃº": 8948,
      "ĠzpyÅ¡": 8949,
      "Ã¤n": 8950,
      "ĠkÅĻtem": 8951,
      "AXAXXX": 8952,
      "Ġkak": 8953,
      "ĠjÃ©": 8954,
      "ĠvÅ¡k": 8955,
      "ĠsknÃŃ": 8956,
      "Ġvdy": 8957,
      "Ġdoup": 8958,
      "ĠplÅ¯": 8959,
      "ĠztÅĻÃŃ": 8960,
      "Ġzhar": 8961,
      "Ġkals": 8962,
      "ĠschÅĻa": 8963,
      "Ġktvo": 8964,
      "ĠÅ¾liv": 8965,
      "Ġchrle": 8966,
      "ĠvdÃ¡Å¥": 8967,
      "ĠkvyÅ¡": 8968,
      "Ġvzvon": 8969,
      "Ġnoj": 8970,
      "ĠboÄı": 8971,
      "Ġvzj": 8972,
      "Ġbag": 8973,
      "ĠjÃ¡Äį": 8974,
      "ĠfÃ©m": 8975,
      "Ġzul": 8976,
      "ĠstÅĻeÄį": 8977,
      "Ġshar": 8978,
      "ĠschvÃŃ": 8979,
      "ĠÅ¡kar": 8980,
      "ĠkprÅ¯": 8981,
      "Ġkbri": 8982,
      "Ġvruch": 8983,
      "ĠpÅ¯jÄį": 8984,
      "ĠkpohÅĻ": 8985,
      "ĠvraÅ¾d": 8986,
      "Ġtloust": 8987,
      "Ġvpark": 8988,
      "ĠÅ¾bÃ¡": 8989,
      "Ġsbuj": 8990,
      "ĠvÅ¥": 8991,
      "Ġdt": 8992,
      "ABDD": 8993,
      "XXAB": 8994,
      "Ġhul": 8995,
      "ĠhuÅ¥": 8996,
      "Ġvur": 8997,
      "ĠpÅĻÃŃÅ¥": 8998,
      "Ġhrk": 8999,
      "Ġzden": 9000,
      "Ġmlem": 9001,
      "ĠzvoÅĪ": 9002,
      "ĠdÅĻÃŃm": 9003,
      "ĠspÄĽk": 9004,
      "ĠhrÃ¡n": 9005,
      "Ġsnim": 9006,
      "Ġrand": 9007,
      "Ġstkal": 9008,
      "ĠznÄĽjÅ¾": 9009,
      "Ġzzku": 9010,
      "Ġkvzne": 9011,
      "ĠkhrÃ¡m": 9012,
      "tin": 9013,
      "ĠkaÅĪ": 9014,
      "Ġmah": 9015,
      "Ġdrat": 9016,
      "Ġtrus": 9017,
      "ĠchvÃ¡ÅĻ": 9018,
      "ĠsvÃ½s": 9019,
      "Ġchrp": 9020,
      "Ġzbron": 9021,
      "Ġhip": 9022,
      "Ġzju": 9023,
      "Ġslits": 9024,
      "Ġvglo": 9025,
      "ĠÅ¡Å¥Ã¡v": 9026,
      "ĠzmlÃ¡d": 9027,
      "ĠvzvuÄį": 9028,
      "ĠvvÃ¡l": 9029,
      "XABBAC": 9030,
      "Ġeine": 9031,
      "Ġstcho": 9032,
      "Ġrha": 9033,
      "Ġtyp": 9034,
      "ĠvÃ©zt": 9035,
      "Ġzdmi": 9036,
      "AABBBB": 9037,
      "ĠchvÃŃc": 9038,
      "ĠchouÄį": 9039,
      "Ġvhon": 9040,
      "Ġkpol": 9041,
      "Ġzdus": 9042,
      "ĠklouÄį": 9043,
      "Ġvctno": 9044,
      "ĠztrÃ½z": 9045,
      "Ġkis": 9046,
      "ĠkspÄĽ": 9047,
      "ĠÅ¾ral": 9048,
      "by": 9049,
      "Ġvvr": 9050,
      "Ġlbi": 9051,
      "ĠmÅĻem": 9052,
      "Ġpag": 9053,
      "ĠsaÄį": 9054,
      "Ġryz": 9055,
      "ĠbiÅĻ": 9056,
      "Ġslen": 9057,
      "Ġmlal": 9058,
      "ĠÅĪak": 9059,
      "ĠtÅĻtin": 9060,
      "Ġoul": 9061,
      "Ġpert": 9062,
      "Ġhlin": 9063,
      "Ġgov": 9064,
      "ĠvstÃ¡n": 9065,
      "Ġzchat": 9066,
      "Ġsnop": 9067,
      "AXXABC": 9068,
      "Ġspev": 9069,
      "Ġflek": 9070,
      "AXXBBC": 9071,
      "ĠvsmÄĽs": 9072,
      "ĠkÄįÃŃ": 9073,
      "Ġssyl": 9074,
      "ĠvÄįtver": 9075,
      "Ġmudr": 9076,
      "Ġzvin": 9077,
      "Ġvsb": 9078,
      "ĠÅ¾av": 9079,
      "Ġmars": 9080,
      "Ġkps": 9081,
      "ĠÅ¡pen": 9082,
      "Ġvchvo": 9083,
      "Ġkzr": 9084,
      "ĠvrouÅ¡": 9085,
      "Ġauf": 9086,
      "ĠÃ¡h": 9087,
      "ĠÄįur": 9088,
      "Ġvplach": 9089,
      "Ġzmrz": 9090,
      "Ġvgo": 9091,
      "ĠÅ¡krt": 9092,
      "Ġksul": 9093,
      "ĠsÃ³": 9094,
      "ĠÅ¾ko": 9095,
      "ĠvÃŃl": 9096,
      "Ġvom": 9097,
      "ĠvzÃ¡j": 9098,
      "Ġnevs": 9099,
      "Ġkhor": 9100,
      "Ġchrli": 9101,
      "ĠzmÃŃst": 9102,
      "Ġzdrh": 9103,
      "Ġzse": 9104,
      "Ġvplet": 9105,
      "Ġsplas": 9106,
      "ĠtlÃŃt": 9107,
      "ĠsmraÄį": 9108,
      "ĠsÅĪav": 9109,
      "ĠzkvÃ©st": 9110,
      "Ġmzda": 9111,
      "ĠdÅ¡tÃ½": 9112,
      "ĠstÅĻa": 9113,
      "Ġkyz": 9114,
      "ĠvpÃ³": 9115,
      "Ġvsna": 9116,
      "ĠplÃ¡Å¥": 9117,
      "ĠznÃ¡n": 9118,
      "ĠmÃ½l": 9119,
      "ĠÅĻÃ¡b": 9120,
      "ĠÅ¡tÃŃp": 9121,
      "ĠÅ¡tÃŃr": 9122,
      "Ġsves": 9123,
      "Ġvztr": 9124,
      "ĠzpuÅ¡": 9125,
      "Ġvtep": 9126,
      "Ġmass": 9127,
      "ĠÅ¡kam": 9128,
      "ĠzvraÅ¾": 9129,
      "ĠsplÃ©st": 9130,
      "Ġvdnes": 9131,
      "Ġvkmit": 9132,
      "ĠvhrÃ¡ch": 9133,
      "Ġuf": 9134,
      "Ġdir": 9135,
      "Ġvuc": 9136,
      "ĠzÃŃn": 9137,
      "ĠznÃ©st": 9138,
      "Ġest": 9139,
      "Ġzbl": 9140,
      "AABBCX": 9141,
      "Ġspom": 9142,
      "ĠÅ¡lej": 9143,
      "Ġzlok": 9144,
      "ĠÅ¾aÄį": 9145,
      "Ġans": 9146,
      "Ġnass": 9147,
      "ĠvpÄĽst": 9148,
      "Ġkprv": 9149,
      "ĠzjichÅ¾": 9150,
      "Ġkzdro": 9151,
      "ĠcÃºn": 9152,
      "AABABC": 9153,
      "ĠrÄįe": 9154,
      "ĠÅ¡iÅĻ": 9155,
      "ĠhrÅĪ": 9156,
      "ĠzdaÅĻ": 9157,
      "Ġrim": 9158,
      "ĠstÃ©n": 9159,
      "Ġyal": 9160,
      "ĠzvÄĽr": 9161,
      "CDB": 9162,
      "Ġktur": 9163,
      "Ġzsy": 9164,
      "ĠsdÄĽl": 9165,
      "Ġvzchod": 9166,
      "Ġthon": 9167,
      "Ġvprus": 9168,
      "Ġkskut": 9169,
      "ĠmÃ½Å¾Äı": 9170,
      "ĠjÃ³n": 9171,
      "Å¾u": 9172,
      "ĠciÄı": 9173,
      "ĠsvÄĽÅĻ": 9174,
      "ĠzpÅ¯r": 9175,
      "ĠblasÅ¥": 9176,
      "Ġjus": 9177,
      "ĠstouÅ¾": 9178,
      "ĠznoÄį": 9179,
      "ĠskuÄį": 9180,
      "ĠhÅĻmi": 9181,
      "Ġclau": 9182,
      "Ġhir": 9183,
      "ĠÅ¥Ã¡r": 9184,
      "Ġvclo": 9185,
      "Ġwin": 9186,
      "Ġsport": 9187,
      "ACCDEE": 9188,
      "ĠrÅ¾eÄį": 9189,
      "ĠzjÃŃc": 9190,
      "Ġhoz": 9191,
      "Ġlif": 9192,
      "ABAABB": 9193,
      "Ġkdra": 9194,
      "ĠpeÅĻ": 9195,
      "ĠstoÅĪ": 9196,
      "Ġzbal": 9197,
      "ĠzhÅĻ": 9198,
      "ĠvbÅĻi": 9199,
      "skÃ½": 9200,
      "ĠdliÅ¡": 9201,
      "ĠÅĻils": 9202,
      "ĠzÅĻet": 9203,
      "ĠklÃŃt": 9204,
      "ĠÅ¡pu": 9205,
      "Ġvskrej": 9206,
      "ĠpÃ©Äį": 9207,
      "ĠshoÅĻ": 9208,
      "Ġvspor": 9209,
      "ĠnehÅĻ": 9210,
      "ĠfÃŃk": 9211,
      "ĠdÅ¾a": 9212,
      "ĠdÅ¾be": 9213,
      "ĠzÄįÃ¡": 9214,
      "ĠhrÃ½z": 9215,
      "ĠmnÃ¡ct": 9216,
      "Ġflin": 9217,
      "ABCBCA": 9218,
      "ĠpepÅĻ": 9219,
      "ĠÅ¾vÃ¡": 9220,
      "ĠnÃ©Å¥": 9221,
      "ĠvÅ¡an": 9222,
      "ĠvÅ¡tip": 9223,
      "Ġlun": 9224,
      "ĠzpÅĻi": 9225,
      "Ġhyp": 9226,
      "ĠsÃ¡c": 9227,
      "Ġtouc": 9228,
      "ĠvouÅ¡": 9229,
      "ĠdÃ©n": 9230,
      "Ġvzpup": 9231,
      "ĠtrÃ¡Å¡": 9232,
      "ĠdvÄĽÄį": 9233,
      "ĠdrÃ¡h": 9234,
      "ĠkzkÃ¡": 9235,
      "ĠzvÃŃm": 9236,
      "ĠthÃ¡m": 9237,
      "Ġvbub": 9238,
      "ĠvhÃ¡d": 9239,
      "ĠdvÃŃk": 9240,
      "Ġens": 9241,
      "ĠvpÄĽsÅ¥": 9242,
      "ĠvjÃŃz": 9243,
      "AXAXBX": 9244,
      "ĠtaÄį": 9245,
      "ĠtÃŃÅ¥": 9246,
      "ĠzdÃ½m": 9247,
      "Ġsmas": 9248,
      "ĠvsÅĪa": 9249,
      "Ġgto": 9250,
      "Ġzhlo": 9251,
      "Ġklok": 9252,
      "Ġtlap": 9253,
      "ĠsvÃŃn": 9254,
      "ĠsbÅĻi": 9255,
      "ĠzvÄĽd": 9256,
      "ĠkhnÃŃz": 9257,
      "ĠÅ¡tou": 9258,
      "Ġzryl": 9259,
      "ĠsÅ¾Ã¡": 9260,
      "Ġkstol": 9261,
      "ĠÅ¡ÅĪÅ¯r": 9262,
      "ĠthÃ©n": 9263,
      "ĠspÅ¯l": 9264,
      "Ġjhu": 9265,
      "Ġvtrap": 9266,
      "Ġvklouz": 9267,
      "AXXXXX": 9268,
      "Ġnow": 9269,
      "Ġniz": 9270,
      "Ġpaf": 9271,
      "Ġprom": 9272,
      "ĠcÃŃn": 9273,
      "Ġhard": 9274,
      "ĠzvÅĻe": 9275,
      "Ġvmas": 9276,
      "ĠvmÅ¾e": 9277,
      "Ġrib": 9278,
      "ĠÅ¡lik": 9279,
      "Ġzjes": 9280,
      "ĠzÃ½Å¡": 9281,
      "Ġvpras": 9282,
      "ĠtliÄį": 9283,
      "ĠrÃ½mÅ¾": 9284,
      "ĠkÅĻÅ¯": 9285,
      "Ġmstil": 9286,
      "ĠspouÅ¡Å¥": 9287,
      "ĠvvdÄĽ": 9288,
      "ĠlÃ³s": 9289,
      "Ġprim": 9290,
      "ĠvstrÃ¡ÅĪ": 9291,
      "ĠpstrÃ¡": 9292,
      "ĠflaÅ¡": 9293,
      "ĠvÅ¡pal": 9294,
      "ĠÅ¾hÃ¡ÅĻ": 9295,
      "ĠsvlÃŃd": 9296,
      "Ġaesthe": 9297,
      "rt": 9298,
      "ĠnÄĽd": 9299,
      "Ġnir": 9300,
      "Ġdet": 9301,
      "ĠvÃŃÅĻ": 9302,
      "ĠmoÄį": 9303,
      "ĠvzÅ¯": 9304,
      "Ġvum": 9305,
      "XACC": 9306,
      "ĠstÃ¡j": 9307,
      "ĠtouÅĪ": 9308,
      "Ġzber": 9309,
      "ĠhÃ½k": 9310,
      "ĠdliÅ¥": 9311,
      "ĠsbÃ¡": 9312,
      "Ġfex": 9313,
      "Ġzlech": 9314,
      "ĠbÅĻÃŃs": 9315,
      "ĠvzkvÃŃ": 9316,
      "ĠÅ¡tin": 9317,
      "Ġxis": 9318,
      "Ġthel": 9319,
      "Ġhnut": 9320,
      "ĠvtÃŃl": 9321,
      "Ġskliz": 9322,
      "Ġzklid": 9323,
      "ĠzkÅĻeh": 9324,
      "ĠphÃŃ": 9325,
      "AACCDD": 9326,
      "Ġkpsa": 9327,
      "ĠzÃ³n": 9328,
      "Ġstma": 9329,
      "Ġnew": 9330,
      "Ġnist": 9331,
      "Ġcol": 9332,
      "Ġspru": 9333,
      "ĠkrÃ½m": 9334,
      "Ġzkan": 9335,
      "Ġblas": 9336,
      "ĠbychÅ¥": 9337,
      "ĠsmrÄį": 9338,
      "ĠkveÅ¥": 9339,
      "han": 9340,
      "Ġspras": 9341,
      "ĠÅ¡tÃ½": 9342,
      "Ġsklet": 9343,
      "ĠfrÃŃ": 9344,
      "zdÃ¡": 9345,
      "Ġrint": 9346,
      "Ġvstud": 9347,
      "ACCDED": 9348,
      "ĠvhnÄĽv": 9349,
      "Ġrrot": 9350,
      "Ġvklat": 9351,
      "Ġvkmen": 9352,
      "Ġspsy": 9353,
      "ĠdmÃŃl": 9354,
      "27": 9355,
      "ĠzÅĻad": 9356,
      "Ġsec": 9357,
      "ĠÄįpÄĽ": 9358,
      "Ġmyst": 9359,
      "Ġpyg": 9360,
      "Ġsbar": 9361,
      "ĠktvÃ¡": 9362,
      "Ġzals": 9363,
      "ĠkvÃŃl": 9364,
      "Ġvjin": 9365,
      "ĠvjÃŃt": 9366,
      "Ġtknul": 9367,
      "Ġssl": 9368,
      "ĠssvÃ©": 9369,
      "Ġvkop": 9370,
      "Ġchral": 9371,
      "ĠvÄįin": 9372,
      "Ġtrik": 9373,
      "ĠstÅĻic": 9374,
      "Ġplij": 9375,
      "Ġzslad": 9376,
      "Ġztrp": 9377,
      "ĠsÅ¡tÄĽ": 9378,
      "ĠstkvÃŃÅ¡": 9379,
      "Ġvspod": 9380,
      "Ġcvrk": 9381,
      "Ġnnen": 9382,
      "CE": 9383,
      "es": 9384,
      "Ġril": 9385,
      "ĠvÃ¡p": 9386,
      "ĠluÅ¾": 9387,
      "ĠÄįav": 9388,
      "Ġblet": 9389,
      "ĠheÅĻ": 9390,
      "ĠksnÃŃ": 9391,
      "ĠbrÃ¡Äį": 9392,
      "ĠspÄĽv": 9393,
      "ĠdvÄĽt": 9394,
      "ĠchÅ¯z": 9395,
      "Ġart": 9396,
      "ĠblÃ¡n": 9397,
      "Ġkpoc": 9398,
      "Ġxen": 9399,
      "ABAABA": 9400,
      "ĠdnÄĽn": 9401,
      "Ġsples": 9402,
      "ĠstkvÄĽj": 9403,
      "ĠpneÅ¡": 9404,
      "ĠÅ¡oup": 9405,
      "Ġcept": 9406,
      "ĠÅ¾rÃ¡t": 9407,
      "Ġkzda": 9408,
      "Ġdp": 9409,
      "ĠÅ¾le": 9410,
      "ĠÅ¡ÃŃt": 9411,
      "ĠkÃ¡p": 9412,
      "ĠbuÅĻ": 9413,
      "Ġiem": 9414,
      "Ġzvrou": 9415,
      "Ġslas": 9416,
      "Ġpim": 9417,
      "ĠvmÅĻÃŃ": 9418,
      "Ġklic": 9419,
      "Ġzhni": 9420,
      "ĠstouÅ¡": 9421,
      "ĠkskrÃ¡": 9422,
      "ĠsvÃŃÅ¾": 9423,
      "ĠsrÃ½": 9424,
      "ĠtÃ©mÅ¾": 9425,
      "ĠplÃŃÅĻ": 9426,
      "ĠplouÄį": 9427,
      "Ġvkrok": 9428,
      "Ġkir": 9429,
      "ĠsmÃ½t": 9430,
      "Ġkfa": 9431,
      "ĠlpÄĽl": 9432,
      "Ġdsber": 9433,
      "Ġrhap": 9434,
      "Ġskd": 9435,
      "ĠgÃŃ": 9436,
      "Ġplz": 9437,
      "Ġskol": 9438,
      "ĠÅ¡pÃ¡d": 9439,
      "ĠkÅĻu": 9440,
      "ĠkÅĻad": 9441,
      "ĠsrÃ¡d": 9442,
      "Ġzbles": 9443,
      "Ġsvrz": 9444,
      "ĠvdÃŃk": 9445,
      "Ġzbit": 9446,
      "ĠvÅ¾el": 9447,
      "kleb": 9448,
      "ĠsÅĻas": 9449,
      "ĠjrÅ¯": 9450,
      "ĠstÃ¤n": 9451,
      "Ġac": 9452,
      "ĠhoÅ¥": 9453,
      "XXAXAB": 9454,
      "ÅĪÅ¯": 9455,
      "Ġzus": 9456,
      "Ġzraj": 9457,
      "ĠstuÄį": 9458,
      "ĠsvÃŃt": 9459,
      "ĠsdvÄĽ": 9460,
      "Ġgard": 9461,
      "Ġthra": 9462,
      "ĠthÃº": 9463,
      "Ġkrist": 9464,
      "Ġpath": 9465,
      "Ġllist": 9466,
      "Ġchlin": 9467,
      "Ġvrys": 9468,
      "ĠÄįter": 9469,
      "ABAAAB": 9470,
      "Ġstrouch": 9471,
      "Ġzbiv": 9472,
      "Ġcvrli": 9473,
      "Ġvsuk": 9474,
      "AAABBB": 9475,
      "Ġbourg": 9476,
      "HH": 9477,
      "pak": 9478,
      "ĠbÃº": 9479,
      "ĠÅ¾pak": 9480,
      "ĠjiÄį": 9481,
      "Ġrom": 9482,
      "XXAXXA": 9483,
      "ĠsknÄĽÅ¾": 9484,
      "Ġmoch": 9485,
      "ĠtrÃ½ch": 9486,
      "Ġvpta": 9487,
      "ĠsoÄį": 9488,
      "Ġev": 9489,
      "Ġklan": 9490,
      "ĠrÃ©s": 9491,
      "ĠkvÄĽz": 9492,
      "ĠkvÄĽÅ¥": 9493,
      "ĠvlÅ¯m": 9494,
      "ĠzhÅĻÃ¡": 9495,
      "Ġvbri": 9496,
      "Ġkska": 9497,
      "Ġstych": 9498,
      "Ġotr": 9499,
      "ĠvnÄĽk": 9500,
[...]
