{
  "version": "1.0",
  "truncation": null,
  "padding": null,
  "added_tokens": [
    {
      "id": 0,
      "content": "<|endoftext|>",
      "single_word": false,
      "lstrip": false,
      "rstrip": false,
      "normalized": false,
      "special": true
    }
  ],
  "normalizer": null,
  "pre_tokenizer": {
    "type": "ByteLevel",
    "add_prefix_space": false,
    "trim_offsets": true,
    "use_regex": true
  },
  "post_processor": {
    "type": "ByteLevel",
    "add_prefix_space": true,
    "trim_offsets": false,
    "use_regex": true
  },
  "decoder": {
    "type": "ByteLevel",
    "add_prefix_space": true,
    "trim_offsets": true,
    "use_regex": true
  },
  "model": {
    "type": "BPE",
    "dropout": null,
    "unk_token": null,
    "continuing_subword_prefix": null,
    "end_of_word_suffix": null,
    "fuse_unk": false,
    "byte_fallback": false,
    "vocab": {
      "<|endoftext|>": 0,
      "!": 1,
      "\"": 2,
      "'": 3,
      "(": 4,
      ")": 5,
      "*": 6,
      "+": 7,
      ",": 8,
      "-": 9,
      ".": 10,
      "/": 11,
      "0": 12,
      "1": 13,
      "2": 14,
      "3": 15,
      "4": 16,
      "5": 17,
      "6": 18,
      "7": 19,
      "8": 20,
      "9": 21,
      ":": 22,
      ";": 23,
      "=": 24,
      "?": 25,
      "A": 26,
      "B": 27,
      "C": 28,
      "D": 29,
      "E": 30,
      "F": 31,
      "G": 32,
      "H": 33,
      "I": 34,
      "J": 35,
      "K": 36,
      "L": 37,
      "M": 38,
      "N": 39,
      "O": 40,
      "P": 41,
      "Q": 42,
      "R": 43,
      "S": 44,
      "T": 45,
      "U": 46,
      "V": 47,
      "W": 48,
      "X": 49,
      "Y": 50,
      "Z": 51,
      "[": 52,
      "]": 53,
      "_": 54,
      "`": 55,
      "a": 56,
      "b": 57,
      "c": 58,
      "d": 59,
      "e": 60,
      "f": 61,
      "g": 62,
      "h": 63,
      "i": 64,
      "j": 65,
      "k": 66,
      "l": 67,
      "m": 68,
      "n": 69,
      "o": 70,
      "p": 71,
      "q": 72,
      "r": 73,
      "s": 74,
      "t": 75,
      "u": 76,
      "v": 77,
      "w": 78,
      "x": 79,
      "y": 80,
      "z": 81,
      "¡": 82,
      "¢": 83,
      "¤": 84,
      "¥": 85,
      "¦": 86,
      "§": 87,
      "¨": 88,
      "©": 89,
      "ª": 90,
      "«": 91,
      "®": 92,
      "¯": 93,
      "²": 94,
      "³": 95,
      "´": 96,
      "¶": 97,
      "¹": 98,
      "º": 99,
      "»": 100,
      "¼": 101,
      "½": 102,
      "¾": 103,
      "Â": 104,
      "Ã": 105,
      "Ä": 106,
      "Å": 107,
      "Ï": 108,
      "â": 109,
      "Ċ": 110,
      "Ġ": 111,
      "Ģ": 112,
      "ģ": 113,
      "Ĥ": 114,
      "Ħ": 115,
      "ħ": 116,
      "Ĩ": 117,
      "ĩ": 118,
      "Ī": 119,
      "ī": 120,
      "Ĭ": 121,
      "Į": 122,
      "į": 123,
      "İ": 124,
      "ı": 125,
      "Ĵ": 126,
      "ĵ": 127,
      "Ķ": 128,
      "ĸ": 129,
      "ĺ": 130,
      "Ļ": 131,
      "ļ": 132,
      "Ľ": 133,
      "ľ": 134,
      "Ŀ": 135,
      "ŀ": 136,
      "Ł": 137,
      "ł": 138,
      "Ń": 139,
      "ÃŃ": 140,
      "Ã¡": 141,
      "Ġs": 142,
      "ÄĽ": 143,
      "Ġv": 144,
      "Ġp": 145,
      "Å¾": 146,
      "Ġn": 147,
      "ch": 148,
      "Ġj": 149,
      "Å¡": 150,
      "Ġt": 151,
      "Ġz": 152,
      "ÅĻ": 153,
      "Ã½": 154,
      "Ã©": 155,
      "Ġm": 156,
      "ou": 157,
      "Ġk": 158,
      "Ġd": 159,
      "Äį": 160,
      "la": 161,
      "st": 162,
      "en": 163,
      "Ġb": 164,
      "âĢ": 165,
      "le": 166,
      "ĊĊ": 167,
      "ak": 168,
      "em": 169,
      "ro": 170,
      "Ġse": 171,
      "Ġh": 172,
      "Å¯": 173,
      "ra": 174,
      "Ġo": 175,
      "li": 176,
      "Ġa": 177,
      "Ġpo": 178,
      "rÃ¡": 179,
      "Ġje": 180,
      "nÃŃ": 181,
      "lo": 182,
      "Ġne": 183,
      "ÅĻe": 184,
      "ĠâĢ": 185,
      "ce": 186,
      "nÄĽ": 187,
      "Ġna": 188,
      "vÄĽ": 189,
      "ĠâĢĵ": 190,
      "ne": 191,
      "Ġst": 192,
      "ÅĻÃŃ": 193,
      "va": 194,
      "Å¡e": 195,
      "na": 196,
      "dy": 197,
      "sk": 198,
      "ĠÅ¾": 199,
      "lÃ¡": 200,
      "ho": 201,
      "ru": 202,
      "nÃ½": 203,
      "de": 204,
      "je": 205,
      "te": 206,
      "Ġza": 207,
      "ti": 208,
      "vo": 209,
      "lu": 210,
      "nÃ©": 211,
      "no": 212,
      "vÃ¡": 213,
      "lÃŃ": 214,
      "ÅĻi": 215,
      "Ġch": 216,
      "jÃŃ": 217,
      "ko": 218,
      "ka": 219,
      "vÃ©": 220,
      "Ġdo": 221,
      "vÃŃ": 222,
      "ni": 223,
      "Ġu": 224,
      "ĠÄį": 225,
      "..": 226,
      "Ġto": 227,
      "tÄĽ": 228,
      "nÃ¡": 229,
      "po": 230,
      "tÃŃ": 231,
      "ly": 232,
      "do": 233,
      "Ġby": 234,
      "ci": 235,
      "nou": 236,
      "ku": 237,
      "ky": 238,
      "Ã½ch": 239,
      "Ġjak": 240,
      "Ġji": 241,
      "Å¥": 242,
      "Ã¡m": 243,
      "Ġjs": 244,
      "il": 245,
      "Ġro": 246,
      "al": 247,
      "Ġve": 248,
      "ÃŃm": 249,
      "to": 250,
      "se": 251,
      "nu": 252,
      "Å¾e": 253,
      "am": 254,
      "cÃŃ": 255,
      "dÄĽ": 256,
      "Ã½m": 257,
      "ĠÅ¡": 258,
      "at": 259,
      "Ġpro": 260,
      "âĢľ": 261,
      "lÃ©": 262,
      "Ġho": 263,
      "by": 264,
      "ar": 265,
      "Ġmo": 266,
      "Ġko": 267,
      "Ġle": 268,
      "Ġvz": 269,
      "vÄĽt": 270,
      "ve": 271,
      "ĠvÄĽ": 272,
      "du": 273,
      "mu": 274,
      "vi": 275,
      "Ġvy": 276,
      "as": 277,
      "di": 278,
      "ji": 279,
      "Ġmi": 280,
      "Å¡ÃŃ": 281,
      "co": 282,
      "lou": 283,
      "ny": 284,
      "Ġdu": 285,
      "Ġr": 286,
      "Ġjen": 287,
      "Äįe": 288,
      "sti": 289,
      "dÃ¡": 290,
      "da": 291,
      "ÅĪ": 292,
      "ĠpÅĻe": 293,
      "ÄįÃŃ": 294,
      "rd": 295,
      "...": 296,
      "kÃ¡": 297,
      "dÃŃ": 298,
      "Äı": 299,
      "Ġbo": 300,
      "Ġroz": 301,
      "Ġmu": 302,
      "mÄĽ": 303,
      "be": 304,
      "jak": 305,
      "ĠnÃ¡": 306,
      "ta": 307,
      "ĠtÄĽ": 308,
      "âĢŀ": 309,
      "ĠÅ¾e": 310,
      "tÃ¡": 311,
      "Ġni": 312,
      "vou": 313,
      "dyÅ¾": 314,
      "Ġti": 315,
      "mÃŃ": 316,
      "ĠvÅ¡e": 317,
      "Ġno": 318,
      "Ġjsem": 319,
      "Äįi": 320,
      "Å¾ÃŃ": 321,
      "ze": 322,
      "ĠÅ¾i": 323,
      "ĠzÃ¡": 324,
      "vy": 325,
      "ĠvÃŃ": 326,
      "bo": 327,
      "Ġli": 328,
      "ry": 329,
      "Å¡i": 330,
      "ĠdÃ¡": 331,
      "ĠnÄĽ": 332,
      "Ġsp": 333,
      "Ġhla": 334,
      "ĠÄįe": 335,
      "mi": 336,
      "Ġob": 337,
      "enÃŃ": 338,
      "Å¯j": 339,
      "ĠÃ": 340,
      "me": 341,
      "vu": 342,
      "Ġi": 343,
      "Ġsrd": 344,
      "Å¡ak": 345,
      "Ġtak": 346,
      "Ġtu": 347,
      "Ġpa": 348,
      "ĠkrÃ¡": 349,
      "Ġte": 350,
      "Ġru": 351,
      "Ġod": 352,
      "ĠsvÃ©": 353,
      "Ġbu": 354,
      "ĠmÄĽ": 355,
      "Ġsi": 356,
      "tu": 357,
      "bÄĽ": 358,
      "âĢĻ": 359,
      "ĠÃº": 360,
      "ĠdÄĽ": 361,
      "ĠpÅĻi": 362,
      "Ġco": 363,
      "sta": 364,
      "ha": 365,
      "lad": 366,
      "Ġpr": 367,
      "Ġvo": 368,
      "Ġsk": 369,
      "stÃŃ": 370,
      "ĠsvÄĽt": 371,
      "ez": 372,
      "lÃ½": 373,
      "Ġpra": 374,
      "ma": 375,
      "nÃ½ch": 376,
      "ĠmÃ¡": 377,
      "mo": 378,
      "Ġce": 379,
      "pÄĽ": 380,
      "ĠlÃ¡": 381,
      "kou": 382,
      "sÃŃ": 383,
      "Ġta": 384,
      "Ne": 385,
      "si": 386,
      "bu": 387,
      "Ġka": 388,
      "led": 389,
      "ty": 390,
      "za": 391,
      "kÃ©": 392,
      "vÃ½": 393,
      "hu": 394,
      "pa": 395,
      "pÃŃ": 396,
      "rak": 397,
      "Å¡tÄĽ": 398,
      "len": 399,
      "!âĢľ": 400,
      "ĠdÃŃ": 401,
      "Ġjako": 402,
      "Ġsv": 403,
      "cho": 404,
      "ĠrÃ¡": 405,
      "ĠT": 406,
      "Ġjeho": 407,
      "Å¾i": 408,
      "re": 409,
      "lem": 410,
      "hÃ¡": 411,
      "ĠB": 412,
      "bi": 413,
      "hy": 414,
      "Ġzem": 415,
      "ĠvÃ¡": 416,
      "val": 417,
      "Ġvi": 418,
      "ĠP": 419,
      "rou": 420,
      "Å¾dy": 421,
      "ĠpÅĻÃŃ": 422,
      "kÅ¯": 423,
      "ba": 424,
      "Ġslu": 425,
      "Ġsrdce": 426,
      "chu": 427,
      "ĠV": 428,
      "Na": 429,
      "sa": 430,
      "Ġten": 431,
      "jen": 432,
      "zÃŃ": 433,
      "dou": 434,
      "mÃ¡": 435,
      "Ġjed": 436,
      "Ġra": 437,
      "vat": 438,
      "nÃ½m": 439,
      "Ġty": 440,
      "su": 441,
      "ĠlÃ¡sk": 442,
      "nad": 443,
      "Jak": 444,
      "Ġpod": 445,
      "ĠpÃŃ": 446,
      "kem": 447,
      "ste": 448,
      "my": 449,
      "ĠtÃ©": 450,
      "ĠnÃŃ": 451,
      "Po": 452,
      "ĠÅ¡e": 453,
      "men": 454,
      "Ġtam": 455,
      "ĠjiÅ¾": 456,
      "ĠlÃŃ": 457,
      "sy": 458,
      "Ġnad": 459,
      "ĠS": 460,
      "Ã©m": 461,
      "ĠkdyÅ¾": 462,
      "Ġvla": 463,
      "ĠnÃ¡m": 464,
      "zd": 465,
      "rÃ½": 466,
      "Ġsta": 467,
      "ĠmÃŃ": 468,
      "ĠâĢŀ": 469,
      "rÅ¯": 470,
      "kÃ½": 471,
      "ĠstÃ¡": 472,
      "Ġhro": 473,
      "ĠbÃŃ": 474,
      "Ġpe": 475,
      "Je": 476,
      "Ġbyl": 477,
      "Ġzla": 478,
      "ĠjÃŃ": 479,
      "nes": 480,
      "Ġpla": 481,
      "Ġzas": 482,
      "Ġlid": 483,
      "ÅĻÃ¡": 484,
      "ĠjÃ¡": 485,
      "Ġmy": 486,
      "Ġmne": 487,
      "ĠmÃ©": 488,
      "hou": 489,
      "ĠÅĻe": 490,
      "sto": 491,
      "ĠM": 492,
      "ĠÅ¾ivo": 493,
      "an": 494,
      "rt": 495,
      "Ġso": 496,
      "Ġdi": 497,
      "pu": 498,
      "Ġbez": 499,
      "ĠvÃ½": 500,
      "ĠpÃ¡": 501,
      "Ġkte": 502,
      "nce": 503,
      "skÃ©": 504,
      "ĠprÃ¡": 505,
      "pe": 506,
      "Ġkde": 507,
      "ĠkvÄĽt": 508,
      "ĠK": 509,
      "Ġpou": 510,
      "Ġze": 511,
      "tr": 512,
      "Å¯m": 513,
      "ĠvÅ¡ak": 514,
      "Ġjest": 515,
      "pro": 516,
      "ĠtvÃ¡": 517,
      "vÃ½ch": 518,
      "bou": 519,
      "nem": 520,
      "chÃ¡": 521,
      "Co": 522,
      "ĠA": 523,
      "ÄĮ": 524,
      "ĠpÅĻed": 525,
      "Ġnebe": 526,
      "rÃ©": 527,
      "Ġtou": 528,
      "Ġslo": 529,
      "ĠkaÅ¾": 530,
      "Ġnej": 531,
      "ĠplÃ¡": 532,
      "bÃŃ": 533,
      "Ġsto": 534,
      "kdyÅ¾": 535,
      "ĠÅ¾en": 536,
      "ĠdÃ¡l": 537,
      "tÃ©": 538,
      "kdy": 539,
      "ĠjeÅ¾": 540,
      "Ġsvo": 541,
      "pi": 542,
      "ej": 543,
      "Å½": 544,
      "ĠÄįi": 545,
      "dÄĽl": 546,
      "Ġnes": 547,
      "ĠduÅ¡e": 548,
      "ĠjejÃŃ": 549,
      "hle": 550,
      "ad": 551,
      "nÃ©m": 552,
      "ĠÄįer": 553,
      "kde": 554,
      "Ġc": 555,
      "nÃŃm": 556,
      "Ġpak": 557,
      "Ġkdy": 558,
      "Ġci": 559,
      "cha": 560,
      "Ġpos": 561,
      "Ġjsi": 562,
      "ĠpÄĽ": 563,
      "sem": 564,
      "Ġnem": 565,
      "ri": 566,
      "nÅ¯": 567,
      "ĠuÅ¾": 568,
      "Ġsvou": 569,
      "ĠvÅ¡ech": 570,
      "Ġtom": 571,
      ".âĢľ": 572,
      "Å¾en": 573,
      "Ġdob": 574,
      "ĠhvÄĽ": 575,
      "ĠjeÅ¡tÄĽ": 576,
      "ĠsÃŃ": 577,
      "Ġsla": 578,
      "ĠnÃ¡s": 579,
      "Ġku": 580,
      "vÃ½m": 581,
      "Å¡el": 582,
      "ĠÄįas": 583,
      "Ġdru": 584,
      "tÃ½": 585,
      "tra": 586,
      "Ġma": 587,
      "stu": 588,
      "Ġvel": 589,
      "ĠvÅ¡": 590,
      "pÃ¡": 591,
      "ĠvÅ¾dy": 592,
      "pÅĻe": 593,
      "tem": 594,
      "ĠjenÅ¾": 595,
      "jeÅ¾": 596,
      "ĠnÄĽm": 597,
      "Ġpl": 598,
      "Ġbra": 599,
      "ĠstÃŃ": 600,
      "Ġjej": 601,
      "ĠcÃŃ": 602,
      "Ġnez": 603,
      "Ġkr": 604,
      "ÅĻen": 605,
      "ĠvÅ¯": 606,
      "Ġkra": 607,
      "Tak": 608,
      "ĠduÅ¡i": 609,
      "zy": 610,
      "ĠmÅ¯j": 611,
      "nost": 612,
      "Ġjsou": 613,
      "Ġdra": 614,
      "jem": 615,
      "ĠchvÃŃ": 616,
      "tel": 617,
      "ĠrÅ¯": 618,
      "Ġkle": 619,
      "To": 620,
      "dÃ½": 621,
      "ech": 622,
      "Ġbude": 623,
      "sou": 624,
      "od": 625,
      "Ġbla": 626,
      "ĠbÃ½": 627,
      "stÃ¡": 628,
      "ĠtvÃ©": 629,
      "Ġda": 630,
      "Ġzrak": 631,
      "Ġsy": 632,
      "Ãĵ": 633,
      "Ġvl": 634,
      "ĠJ": 635,
      "Ġlo": 636,
      "Ġhle": 637,
      "stvÃŃ": 638,
      "hla": 639,
      "Ġl": 640,
      "uÅ¾": 641,
      "Ġden": 642,
      "krÃ¡": 643,
      "Ġstar": 644,
      "ĠÅĻÃŃ": 645,
      "Ġstra": 646,
      "Ġsm": 647,
      "hÃ½": 648,
      "Ġva": 649,
      "ĠvÅ¡ec": 650,
      "ĠsvÄĽ": 651,
      "ĠvÄĽÄį": 652,
      "vÅ¡ak": 653,
      "Ġhra": 654,
      "zi": 655,
      "jich": 656,
      "so": 657,
      "nul": 658,
      "Ġpu": 659,
      "nÃ¡m": 660,
      "Ġkdo": 661,
      "ven": 662,
      "vil": 663,
      "dem": 664,
      "jÃ¡": 665,
      "mut": 666,
      "Ġhlu": 667,
      "tak": 668,
      "Za": 669,
      "Ġsou": 670,
      "ĠH": 671,
      "bÃ¡": 672,
      "cen": 673,
      "Ġot": 674,
      "nosti": 675,
      "Ġslad": 676,
      "Ġmod": 677,
      "vÅ¯j": 678,
      "Ġme": 679,
      "ĠÅ¾ivot": 680,
      "Ġsl": 681,
      "Ġsam": 682,
      "ĠbÃ¡": 683,
      "tÃŃm": 684,
      "aÅ¾": 685,
      "Ġzd": 686,
      "Ġzvo": 687,
      "ĠbÄĽ": 688,
      "Ġhu": 689,
      "tek": 690,
      "tou": 691,
      "sÃ¡": 692,
      "til": 693,
      "Do": 694,
      "ĠBo": 695,
      "py": 696,
      "Ġla": 697,
      "snÄĽ": 698,
      "Ġry": 699,
      "jÅ¡ÃŃ": 700,
      "cÃŃch": 701,
      "ĠmnÄĽ": 702,
      "Ġdlou": 703,
      "ĠÅ¾Ã¡": 704,
      "Ġkou": 705,
      "Ġjsme": 706,
      "sÅ¥": 707,
      "ĠkÅĻÃŃ": 708,
      "er": 709,
      "Ġja": 710,
      "Å¯h": 711,
      "Ġnich": 712,
      "ĠteÄı": 713,
      "Ġjas": 714,
      "Ġre": 715,
      "snÃŃ": 716,
      "ĠÅ¡tÄĽ": 717,
      "JÃ¡": 718,
      "lovÄĽ": 719,
      "dla": 720,
      "chy": 721,
      "ĠnenÃŃ": 722,
      "Ġlu": 723,
      "Å¡en": 724,
      "Ġstro": 725,
      "lid": 726,
      "ĠoÄįi": 727,
      "Ġf": 728,
      "vz": 729,
      "Ġspo": 730,
      "Pro": 731,
      "stou": 732,
      "hÃ©": 733,
      "Ġtr": 734,
      "cem": 735,
      "Ġpoh": 736,
      "Ġvra": 737,
      "Ġbych": 738,
      "Äįka": 739,
      "ĠneÅ¾": 740,
      "skÃ½": 741,
      "stÄĽ": 742,
      "zu": 743,
      "ĠlÃ¡sky": 744,
      "Ġbou": 745,
      "Ġslunce": 746,
      "vnÃŃ": 747,
      "Ġbylo": 748,
      "pla": 749,
      "Ġjich": 750,
      "skÃ¡": 751,
      "Ġsvat": 752,
      "Ġmil": 753,
      "kdo": 754,
      "ned": 755,
      "Ġtvo": 756,
      "Ġmat": 757,
      "pr": 758,
      "Ġmno": 759,
      "ĠtÄĽch": 760,
      "Ġpoz": 761,
      "rem": 762,
      "ĠzpÄĽ": 763,
      "nÃ©ho": 764,
      "VÅ¡ak": 765,
      "Ġml": 766,
      "ĠaÅ¾": 767,
      "dÃ©": 768,
      "ĠsÃ¡m": 769,
      "lesk": 770,
      "ĠptÃ¡": 771,
      "Äįen": 772,
      "ĠslÃ¡": 773,
      "ĠnÃŃm": 774,
      "Ġcho": 775,
      "Ġsmut": 776,
      "sud": 777,
      "Ġon": 778,
      "vem": 779,
      "Ġoh": 780,
      "ĠsvÃŃ": 781,
      "âĢĵ": 782,
      "ÅĻel": 783,
      "Ty": 784,
      "Å¡tÃŃ": 785,
      "kla": 786,
      "ĠtÅĻe": 787,
      "ĠsobÄĽ": 788,
      "Ġjim": 789,
      "Å¡ÃŃm": 790,
      "Jen": 791,
      "ĠL": 792,
      "pra": 793,
      "Ġtem": 794,
      "ÅĻÃŃm": 795,
      "ĠÅ¾itÃŃ": 796,
      "Ġbyla": 797,
      "kal": 798,
      "Ġkro": 799,
      "ĠkrÃ¡s": 800,
      "Ġsly": 801,
      "om": 802,
      "ĠsnÄĽ": 803,
      "ĠsvÅ¯j": 804,
      "jde": 805,
      "ĠÄįlovÄĽ": 806,
      "ĠchtÄĽ": 807,
      "Ġmou": 808,
      "seÅĪ": 809,
      "Ġsnad": 810,
      "Åł": 811,
      "ĠsmÄĽ": 812,
      "mÅ¯": 813,
      "Ġsrdci": 814,
      "Ġnech": 815,
      "Ã³": 816,
      "ĠvÃ¡m": 817,
      "sty": 818,
      "Å¡Å¥": 819,
      "Ġzde": 820,
      "Ġmys": 821,
      "vÅ¾dy": 822,
      "smÄĽ": 823,
      "Ġmilo": 824,
      "jenÅ¾": 825,
      "ved": 826,
      "ĠsvÃ½m": 827,
      "chem": 828,
      "nky": 829,
      "vÅ¡e": 830,
      "lÃ½ch": 831,
      "Ġvr": 832,
      "Ġkla": 833,
      "Ġkam": 834,
      "roz": 835,
      "pomÃŃ": 836,
      "ĠvÄĽt": 837,
      "ĠzemÄĽ": 838,
      "Äįky": 839,
      "ten": 840,
      "KdyÅ¾": 841,
      "Ġzemi": 842,
      "Äįek": 843,
      "ĠsvÃ½ch": 844,
      "ĠÅ¡ÃŃ": 845,
      "Äįer": 846,
      "ÅĻem": 847,
      "Ġdnes": 848,
      "bra": 849,
      "ĠblÃŃ": 850,
      "ska": 851,
      "lÅ¯": 852,
      "Tu": 853,
      "sla": 854,
      "Ġjejich": 855,
      "ĠO": 856,
      "Ġmoje": 857,
      "zo": 858,
      "Ġruce": 859,
      "ĠpÅ¯": 860,
      "Ġchu": 861,
      "Ġok": 862,
      "nil": 863,
      "ĠtÄĽÅ¾": 864,
      "ĠhvÄĽz": 865,
      "hÅ¯": 866,
      "Ġmrt": 867,
      "ĠvÃŃc": 868,
      "Ġtich": 869,
      "ĠtÃ¡": 870,
      "ĠchvÄĽ": 871,
      "ĠsmÃŃ": 872,
      "dil": 873,
      "vit": 874,
      "jako": 875,
      "sky": 876,
      "Ġke": 877,
      "Ġrado": 878,
      "Ġkolem": 879,
      "skÃ½ch": 880,
      "Å½e": 881,
      "ĠÅ¡tÄĽstÃŃ": 882,
      "cÅ¯": 883,
      "sku": 884,
      "pad": 885,
      "ĠspÃ¡": 886,
      "ĠÄįa": 887,
      "ĠtobÄĽ": 888,
      "hem": 889,
      "?âĢľ": 890,
      "Ġnoci": 891,
      "on": 892,
      "zÃ¡": 893,
      "hne": 894,
      "ĠvÅ¡em": 895,
      "ast": 896,
      "kÃ½ch": 897,
      "Ġsmr": 898,
      "nek": 899,
      "ĠZ": 900,
      "Ġmra": 901,
      "ĠkaÅ¾dÃ½": 902,
      "ĠvÃ¡s": 903,
      "nout": 904,
      "ĠnaÅ¡e": 905,
      "Äįku": 906,
      "pÅĻi": 907,
      "ĠzdÃ¡": 908,
      "rev": 909,
      "lil": 910,
      "ĠmÃ¡m": 911,
      "ĠtÃ©Å¾": 912,
      "vnÄĽ": 913,
      "Ġnepo": 914,
      "um": 915,
      "Ġvlast": 916,
      "Ġhlavu": 917,
      "Ch": 918,
      "ĠvÅ¡ecko": 919,
      "ĠR": 920,
      "Ġbi": 921,
      "ÅĻil": 922,
      "dech": 923,
      "den": 924,
      "vr": 925,
      "ĠhÃ¡": 926,
      "nal": 927,
      "ĠzpÃŃ": 928,
      "dnÃ©": 929,
      "ĠtvÅ¯j": 930,
      "By": 931,
      "Ġple": 932,
      "leÄį": 933,
      "ĠÄĮ": 934,
      "Ji": 935,
      "Ġsva": 936,
      "ĠN": 937,
      "ale": 938,
      "ĠÅĻ": 939,
      "tÅ¯": 940,
      "Vy": 941,
      "Ġhru": 942,
      "sko": 943,
      "dÃŃm": 944,
      "Ġjste": 945,
      "Ġsko": 946,
      "Ġklid": 947,
      "Ġchce": 948,
      "mÃ©": 949,
      "ĠD": 950,
      "Ġzlo": 951,
      "nech": 952,
      "kÃ½m": 953,
      "Ġha": 954,
      "hra": 955,
      "nÃŃch": 956,
      "ĠpÃŃseÅĪ": 957,
      "Ġnoc": 958,
      "zem": 959,
      "Ġtebe": 960,
      "jÃŃcÃŃ": 961,
      "ĠdÅĻÃŃ": 962,
      "Ġhlas": 963,
      "neb": 964,
      "ĠvlÃ¡": 965,
      "kte": 966,
      "ĠmÄĽl": 967,
      "ĠnÃ¡ro": 968,
      "ĠdÃ¡v": 969,
      "Ve": 970,
      "ĠmoÅĻe": 971,
      "Äįil": 972,
      "Ġjem": 973,
      "tva": 974,
      "Ġmar": 975,
      "Ġsen": 976,
      "tam": 977,
      "ĠlÃ©": 978,
      "Ġde": 979,
      "ĠpÅĻec": 980,
      "Å¡ich": 981,
      "ĠhÅĻÃŃ": 982,
      "ĠcelÃ½": 983,
      "tky": 984,
      "Ġprav": 985,
      "ĠdÃŃtÄĽ": 986,
      "mnÄĽ": 987,
      "ĠstÅĻe": 988,
      "Ġmlad": 989,
      "Ġani": 990,
      "ĠchvÃŃli": 991,
      "ĠÅ¾ÃŃ": 992,
      "byl": 993,
      "ĠÅĪ": 994,
      "vÃŃm": 995,
      "ĠoÄįÃŃ": 996,
      "Ġkru": 997,
      "spo": 998,
      "Ġhor": 999,
      "kol": 1000,
      "ĠmlÃ¡": 1001,
      "Ġhlou": 1002,
      "Å¯Å¾e": 1003,
      "Ġslun": 1004,
      "ĠhvÄĽzd": 1005,
      "dnÃ½": 1006,
      "ĠtÃŃm": 1007,
      "Ġprou": 1008,
      "Kdo": 1009,
      "Ġus": 1010,
      "Ġba": 1011,
      "Ġsem": 1012,
      "Å¾il": 1013,
      "vÅ¯": 1014,
      "Å¡la": 1015,
      "dnou": 1016,
      "vra": 1017,
      "Ġlet": 1018,
      "tÅĻe": 1019,
      "Ġmoc": 1020,
      "ĠstrÃ¡": 1021,
      "Ġoko": 1022,
      "hl": 1023,
      "ĠsvÃ©m": 1024,
      "Ġhr": 1025,
      "ĠtÃŃ": 1026,
      "neÅ¾": 1027,
      "Ġale": 1028,
      "ĠsvÃ©ho": 1029,
      "Ġzvu": 1030,
      "dal": 1031,
      "cÃŃm": 1032,
      "ĠspÄĽ": 1033,
      "Ġny": 1034,
      "Ġmlu": 1035,
      "Ġsu": 1036,
      "ĠsnÃŃ": 1037,
      "ĠvrÃ¡": 1038,
      "ĠchrÃ¡": 1039,
      "krÃ¡t": 1040,
      "Ġtoho": 1041,
      "ĠÅ¡i": 1042,
      "pou": 1043,
      "ĠtakÃ©": 1044,
      "ĠzÅĻÃŃ": 1045,
      "Ġbole": 1046,
      "Ġjenom": 1047,
      "Ġsil": 1048,
      "nÃ¡ch": 1049,
      "pl": 1050,
      "Ġhned": 1051,
      "pat": 1052,
      "Ġchy": 1053,
      "Ġkol": 1054,
      "Ġmez": 1055,
      "Ġbe": 1056,
      "dnÃŃ": 1057,
      "ĠkÅĻi": 1058,
      "Ġote": 1059,
      "ĠaÅ¥": 1060,
      "ĠdÃŃv": 1061,
      "Ġky": 1062,
      "ĠpÅĻes": 1063,
      "ĠmuÅ¾": 1064,
      "sÃŃc": 1065,
      "aÅ¥": 1066,
      "vÃ©m": 1067,
      "dce": 1068,
      "ĠnÃ¡Å¡": 1069,
      "Ġblesk": 1070,
      "ĠsvÄĽta": 1071,
      "ĠstojÃŃ": 1072,
      "cky": 1073,
      "ĠÄįÃŃ": 1074,
      "skou": 1075,
      "Ġpan": 1076,
      "tro": 1077,
      "Ġneb": 1078,
      "Te": 1079,
      "ouf": 1080,
      "stÃ©": 1081,
      "Ġneu": 1082,
      "pod": 1083,
      "Ġobra": 1084,
      "ĠtiÅ¡e": 1085,
      "kam": 1086,
      "ĠbÃ½t": 1087,
      "Ġkrev": 1088,
      "Ġduch": 1089,
      "ĠskÃ¡": 1090,
      "nka": 1091,
      "Ġzase": 1092,
      "Ġmal": 1093,
      "nku": 1094,
      "ÄįÃŃm": 1095,
      "Le": 1096,
      "ÄįnÃŃ": 1097,
      "Ġslova": 1098,
      "dlo": 1099,
      "lit": 1100,
      "ĠzÃŃ": 1101,
      "ĠÄįlovÄĽk": 1102,
      "rov": 1103,
      "Ġchlad": 1104,
      "ĠkvÃŃ": 1105,
      "ĠÃºsmÄĽ": 1106,
      "ĠvÃŃce": 1107,
      "tom": 1108,
      "ĠnÃ¡hle": 1109,
      "nec": 1110,
      "el": 1111,
      "pÄĽt": 1112,
      "znÄĽ": 1113,
      "Ġan": 1114,
      "Kde": 1115,
      "Ġtro": 1116,
      "Ġnebi": 1117,
      "jiÅ¾": 1118,
      "Ġpok": 1119,
      "stÅĻe": 1120,
      "rnÄĽ": 1121,
      "mou": 1122,
      "ĠlÃ¡ska": 1123,
      "âĢĻ,": 1124,
      "ĠrÃ¡d": 1125,
      "ĠhnÄĽ": 1126,
      "ĠÅĻek": 1127,
      "pak": 1128,
      "ĠÅ¾a": 1129,
      "sÅ¯": 1130,
      "stal": 1131,
      "ĠstÃ¡le": 1132,
      "ena": 1133,
      "Ġdal": 1134,
      "vala": 1135,
      "Äįko": 1136,
      "Ġtru": 1137,
      "PÅĻe": 1138,
      "Ġsebe": 1139,
      "ĠhrÃ¡": 1140,
      "ĠtvÃ¡ÅĻ": 1141,
      "Ġjednou": 1142,
      "lednÃŃ": 1143,
      "Ġg": 1144,
      "Ġdiv": 1145,
      "Ko": 1146,
      "ÄįnÄĽ": 1147,
      "Ġzje": 1148,
      "Ġjeden": 1149,
      "ĠmyÅ¡": 1150,
      "lÃ½m": 1151,
      "Ġmnou": 1152,
      "lech": 1153,
      "ĠÅ¡Å¥": 1154,
      "lek": 1155,
      "tku": 1156,
      "ĠstÅĻÃŃ": 1157,
      "ĠklÃŃ": 1158,
      "Ġtma": 1159,
      "ĠnynÃŃ": 1160,
      "ĠvÃ¡Å¡": 1161,
      "ĠbÅĻe": 1162,
      "Ġdr": 1163,
      "Ġrukou": 1164,
      "Ġpi": 1165,
      "uje": 1166,
      "ami": 1167,
      "Ġos": 1168,
      "nic": 1169,
      "Ġpad": 1170,
      "ĠBÅ¯h": 1171,
      "ĠtrÃ¡": 1172,
      "Ġmla": 1173,
      "vÃ¡m": 1174,
      "Ġvol": 1175,
      "jte": 1176,
      "Ach": 1177,
      "ĠpÅĻÃ¡": 1178,
      "lÃ©m": 1179,
      "ĠspÃŃ": 1180,
      "Å¡li": 1181,
      "Ġbled": 1182,
      "Ã©ho": 1183,
      "Å¡em": 1184,
      "Å¡ti": 1185,
      "Åĺ": 1186,
      "zen": 1187,
      "Ġbudou": 1188,
      "nÃŃk": 1189,
      "Ġdech": 1190,
      "ĠchtÄĽl": 1191,
      "Tam": 1192,
      "Ġjde": 1193,
      "Ġmezi": 1194,
      "dÅ¯": 1195,
      "bych": 1196,
      "Ġdne": 1197,
      "Ġboj": 1198,
      "VÅ¡e": 1199,
      "jÃŃc": 1200,
      "Ale": 1201,
      "Ġodpo": 1202,
      "Ġmrak": 1203,
      "ĠbrÃ¡": 1204,
      "Ġstu": 1205,
      "stÃ½": 1206,
      "Ġzo": 1207,
      "Ġtomu": 1208,
      "Od": 1209,
      "Ġplamen": 1210,
      "Ġnikdy": 1211,
      "ĠsvÃ¡": 1212,
      "Ġjar": 1213,
      "Hle": 1214,
      "ĠrÅ¯Å¾e": 1215,
      "rnÃ©": 1216,
      "Ãº": 1217,
      "pil": 1218,
      "Ġhrob": 1219,
      "Ġvzdu": 1220,
      "dnÄĽ": 1221,
      "ĠbuÄı": 1222,
      "ĠnadÄĽ": 1223,
      "Ġnebes": 1224,
      "Ġzno": 1225,
      "tal": 1226,
      "lik": 1227,
      "tka": 1228,
      "Ġpoli": 1229,
      "rnÃ½": 1230,
      "mys": 1231,
      "ĠÅ¡Å¥ast": 1232,
      "Ġnedo": 1233,
      "Ġbrat": 1234,
      "kle": 1235,
      "lov": 1236,
      "sil": 1237,
      "Ġjedno": 1238,
      "ben": 1239,
      "Ro": 1240,
      "vali": 1241,
      "zel": 1242,
      "kÃ¡ch": 1243,
      "Ġost": 1244,
      "ĠhrÅ¯": 1245,
      "Ġhlavy": 1246,
      "Ġdla": 1247,
      "ĠveÄįer": 1248,
      "plÃ¡": 1249,
      "ĠdÄĽti": 1250,
      "Ġsmrti": 1251,
      "vÃ¡nÃŃ": 1252,
      "ĠznÃ¡": 1253,
      "ĠhÅĻ": 1254,
      "kÃ©m": 1255,
      "ĠobÄĽ": 1256,
      "pÅĻed": 1257,
      "nice": 1258,
      "dle": 1259,
      "ja": 1260,
      "bez": 1261,
      "ĠJe": 1262,
      "Ġzm": 1263,
      "Ġlou": 1264,
      "kÅĻi": 1265,
      "tech": 1266,
      "ĠkterÃ©": 1267,
      "Ġpoko": 1268,
      "Ġzna": 1269,
      "ĠdÃ¡le": 1270,
      "znÃŃ": 1271,
      "Ġste": 1272,
      "Ġnemo": 1273,
      "lost": 1274,
      "prÃ¡": 1275,
      "Ten": 1276,
      "pÅĻÃŃ": 1277,
      "ĠC": 1278,
      "ĠznÃŃ": 1279,
      "ĠnÃŃÅ¾": 1280,
      "ĠvÃŃtÄĽ": 1281,
      "rost": 1282,
      "has": 1283,
      "PÅĻi": 1284,
      "hlÃ©": 1285,
      "ĠbÃŃlÃ©": 1286,
      "Ġjedi": 1287,
      "Ġklo": 1288,
      "hlÃŃ": 1289,
      "ĠÅ¡u": 1290,
      "Ġzi": 1291,
      "Ġnic": 1292,
      "Ġoz": 1293,
      "ĠzvÄĽ": 1294,
      "ĠpÅĻece": 1295,
      "Ġslav": 1296,
      "Ġpat": 1297,
      "Ġzak": 1298,
      "stra": 1299,
      "Ġhled": 1300,
      "ĠvzpomÃŃ": 1301,
      "trÃ¡": 1302,
      "ĠduÅ¡ÃŃ": 1303,
      "Jako": 1304,
      "ĠmusÃŃ": 1305,
      "Ġhou": 1306,
      "Ã½mi": 1307,
      "Ġvese": 1308,
      "ude": 1309,
      "hat": 1310,
      "jÃŃm": 1311,
      "Ġruku": 1312,
      "ĠprvnÃŃ": 1313,
      "nit": 1314,
      "Ġnu": 1315,
      "lÃŃm": 1316,
      "ĠkÃ¡": 1317,
      "ĠNe": 1318,
      "ĠkterÃ½": 1319,
      ",âĢľ": 1320,
      "sÃŃm": 1321,
      "boÅ¾": 1322,
      "TeÄı": 1323,
      "jsem": 1324,
      "My": 1325,
      "Ġven": 1326,
      "Ġnimi": 1327,
      "ĠnovÃ©": 1328,
      "Ġzb": 1329,
      "dÄĽla": 1330,
      "zda": 1331,
      "Ġhlavou": 1332,
      "Ġum": 1333,
      "ĠmÃ½ch": 1334,
      "Äįel": 1335,
      "ĠletÃŃ": 1336,
      "Ġveli": 1337,
      "Ġhrd": 1338,
      "ĠleÅ¾ÃŃ": 1339,
      "Ġbar": 1340,
      "ĠdÅ¯": 1341,
      "et": 1342,
      "stÅĻÃŃ": 1343,
      "tla": 1344,
      "Ġlesk": 1345,
      "ĠF": 1346,
      "pen": 1347,
      "Ġskry": 1348,
      "Ġruka": 1349,
      "ĠsvÄĽtÄĽ": 1350,
      "On": 1351,
      "ĠskrÃ¡": 1352,
      "rob": 1353,
      "ĠPÃ¡": 1354,
      "Ġleh": 1355,
      "Ġzra": 1356,
      "Ġobla": 1357,
      "ĠvolÃ¡": 1358,
      "ĠnevÄĽ": 1359,
      "Ġsa": 1360,
      "pas": 1361,
      "Pak": 1362,
      "Ã¡me": 1363,
      "Ġdvo": 1364,
      "Ġnevi": 1365,
      "ĠstÃŃn": 1366,
      "ĠÃ³": 1367,
      "ÄįnÃ©": 1368,
      "Ġdce": 1369,
      "Ġvlasti": 1370,
      "tÄĽl": 1371,
      "Ġhroz": 1372,
      "dne": 1373,
      "Ho": 1374,
      "ĠsÃ¡": 1375,
      "Ġpru": 1376,
      "ĠtvÃ½ch": 1377,
      "nutÃŃ": 1378,
      "ĠznÄĽ": 1379,
      "Ġstr": 1380,
      "ĠhvÄĽzdy": 1381,
      "Ġradost": 1382,
      "MÃ¡": 1383,
      "hled": 1384,
      "Ġplo": 1385,
      "Ġsvoje": 1386,
      "ct": 1387,
      "ĠzÃ¡ÅĻÃŃ": 1388,
      "ĠcizÃŃ": 1389,
      "Ġtesk": 1390,
      "Ġtra": 1391,
      "zrak": 1392,
      "Ġona": 1393,
      "Ġsli": 1394,
      "Ġsle": 1395,
      "ĠzlatÃ©": 1396,
      "ĠkvÄĽty": 1397,
      "Å½i": 1398,
      "Ġtaj": 1399,
      "sni": 1400,
      "ĠTo": 1401,
      "Ġrozko": 1402,
      "ĠÅ¾al": 1403,
      "in": 1404,
      "pos": 1405,
      "ĠdÃ¡vno": 1406,
      "ĠmÅ¯Å¾e": 1407,
      "Äįem": 1408,
      "dnÃ¡": 1409,
      "ĠÅ¡el": 1410,
      "VÄĽ": 1411,
      "Ġsamo": 1412,
      "ĠsvÃŃtÃŃ": 1413,
      "zko": 1414,
      "pal": 1415,
      "ĠchvÃŃle": 1416,
      "Ġticho": 1417,
      "Ġtlu": 1418,
      "Ġkraj": 1419,
      "Ta": 1420,
      "Ġlidst": 1421,
      "Ġpozd": 1422,
      "ÅĻit": 1423,
      "ĠjuÅ¾": 1424,
      "Ġtvoje": 1425,
      "ĠstarÃ½": 1426,
      "teÄı": 1427,
      "Ġdar": 1428,
      "ĠÅ¾ha": 1429,
      "div": 1430,
      "ĠprÃ¡zd": 1431,
      "ProÄį": 1432,
      "Å¡enÃŃ": 1433,
      "he": 1434,
      "let": 1435,
      "Ġdlouho": 1436,
      "hal": 1437,
      "kve": 1438,
      "Se": 1439,
      "ĠkrÃ¡l": 1440,
      "ĠknÄĽ": 1441,
      "klo": 1442,
      "ĠÄįelo": 1443,
      "ĠÅĪad": 1444,
      "Ġe": 1445,
      "Å¾ÃŃm": 1446,
      "ĠnÄĽho": 1447,
      "ĠzpÄĽv": 1448,
      "chle": 1449,
      "lal": 1450,
      "ĠbÃ½ti": 1451,
      "vÃ¡n": 1452,
      "vrÃ¡": 1453,
      "Ġhe": 1454,
      "dob": 1455,
      "Ã½vÃ¡": 1456,
      "Ġproti": 1457,
      "mr": 1458,
      "Å¯Å¾": 1459,
      "ran": 1460,
      "Ġhy": 1461,
      "Ġpohled": 1462,
      "ĠnÃ¡mi": 1463,
      "mÄĽnÃŃ": 1464,
      "Nad": 1465,
      "nÄĽjÅ¡ÃŃ": 1466,
      "vajÃŃ": 1467,
      "ĠvÅĻe": 1468,
      "ĠnÃ¡ru": 1469,
      "ĠÅ¡ep": 1470,
      "ĠlÃ¡sku": 1471,
      "Ġnebo": 1472,
      "ĠÅĻa": 1473,
      "ĠcelÃ©": 1474,
      "Ġsch": 1475,
      "zde": 1476,
      "Bo": 1477,
      "dÄĽt": 1478,
      "Ġtebou": 1479,
      "Ġhud": 1480,
      "rÃ½ch": 1481,
      "ĠtÄĽlo": 1482,
      "Ġpouze": 1483,
      "slo": 1484,
      "ĠÅ¾ivota": 1485,
      "ĠboÅ¾ÃŃ": 1486,
      "Ã¡c": 1487,
      "ĠvÅ¡ecky": 1488,
      "jÄı": 1489,
      "Ġztra": 1490,
      "vÃ©ho": 1491,
      "Ġslou": 1492,
      "ĠnÃ¡rod": 1493,
      "ĠÅ¾ena": 1494,
      "Ġhlubo": 1495,
      "ĠG": 1496,
      "nak": 1497,
      "or": 1498,
      "tÃ½ch": 1499,
      "kro": 1500,
      "Bu": 1501,
      "dra": 1502,
      "JiÅ¾": 1503,
      "Ġzapo": 1504,
      "Ġper": 1505,
      "ke": 1506,
      "ĠstÄĽ": 1507,
      "Ġosud": 1508,
      "lna": 1509,
      "Ġvrou": 1510,
      "ĠpohÃ¡": 1511,
      "Ġkraji": 1512,
      "Ġode": 1513,
      "ĠlÃ¡skou": 1514,
      "Ġtajem": 1515,
      "Ġplu": 1516,
      "ĠdÃ¡li": 1517,
      "kÃ¡m": 1518,
      "kud": 1519,
      "Ġpole": 1520,
      "Ġpam": 1521,
      "ĠÅ¡tÃŃ": 1522,
      "ata": 1523,
      "ĠPo": 1524,
      "ĠpolÃŃ": 1525,
      "Å¾el": 1526,
      "ÄįnÃ½": 1527,
      "Ġpy": 1528,
      "ĠdobÅĻe": 1529,
      "Ġsku": 1530,
      "ĠvdÄĽ": 1531,
      "Ġdva": 1532,
      "ĠhledÃŃ": 1533,
      "ĠpanÃŃ": 1534,
      "jej": 1535,
      "ĠpÃŃsnÄĽ": 1536,
      "AÅ¾": 1537,
      "Ġblou": 1538,
      "ĠsklÃ¡": 1539,
      "ĠjÃŃm": 1540,
      "Ġkrve": 1541,
      "chÃ¡zÃŃ": 1542,
      "ĠkÅĻe": 1543,
      "tit": 1544,
      "ĠprÃ½": 1545,
      "ĠbÃŃlÃ½": 1546,
      "svÃ©": 1547,
      "ĠE": 1548,
      "Ġbr": 1549,
      "ĠdrÃ¡": 1550,
      "Ġsmrt": 1551,
      "Ġtady": 1552,
      "ÄįenÃŃ": 1553,
      "zou": 1554,
      "Ġdale": 1555,
      "Ġsotva": 1556,
      "Ġzda": 1557,
      "kli": 1558,
      "znÃ¡": 1559,
      "Ġmoh": 1560,
      "Ġzelen": 1561,
      "ĠvÅ¾dycky": 1562,
      "VÅ¾dy": 1563,
      "nostÃŃ": 1564,
      "vlÃ¡": 1565,
      "Ġsni": 1566,
      "ĠdÄĽl": 1567,
      "ĠsmÃŃch": 1568,
      "bude": 1569,
      "zas": 1570,
      "Ġnese": 1571,
      "ĠvÅ¡eho": 1572,
      "ĠÅ¾eny": 1573,
      "pÅ¯": 1574,
      "ĠzÃ¡ÅĻ": 1575,
      "rÃ½m": 1576,
      "ĠchvÃ¡": 1577,
      "ob": 1578,
      "dit": 1579,
      "Å¡il": 1580,
      "ĠsvojÃŃ": 1581,
      "Å¾Ã¡": 1582,
      "ĠznÃ¡m": 1583,
      "Kdy": 1584,
      "Ġboji": 1585,
      "sce": 1586,
      "ĠÅł": 1587,
      "Ġlidu": 1588,
      "Ġslzy": 1589,
      "ĠumÃŃ": 1590,
      "Ġjemu": 1591,
      "ĠpÃŃsnÃŃ": 1592,
      "Ġneza": 1593,
      "Ġsna": 1594,
      "Vz": 1595,
      "chvÄĽ": 1596,
      "ĠtÅĻ": 1597,
      "ĠzÅ¯": 1598,
      "Ġzve": 1599,
      "ĠkaÅ¾dÃ©": 1600,
      "ĠvidÄĽl": 1601,
      "hnou": 1602,
      "AÅ¥": 1603,
      "ĠÄįasto": 1604,
      "hÅ¯ru": 1605,
      "ĠvlastnÃŃ": 1606,
      "Vi": 1607,
      "ĠvelkÃ©": 1608,
      "dl": 1609,
      "ĠsvÄĽtlo": 1610,
      "Ġzouf": 1611,
      "vost": 1612,
      "Ġkni": 1613,
      "Å¾o": 1614,
      "mÄĽl": 1615,
      "VÃŃ": 1616,
      "Å¾eh": 1617,
      "ĠpadÃ¡": 1618,
      "KrÃ¡": 1619,
      "ĠposlednÃŃ": 1620,
      "ĠPra": 1621,
      "aby": 1622,
      "Ġtedy": 1623,
      "ĠsnÅ¯": 1624,
      "enÃ¡": 1625,
      "ĠjmÃ©": 1626,
      "!...": 1627,
      "Ġsklo": 1628,
      "ĠsmÃ¡": 1629,
      "Ġpomo": 1630,
      "ĠhoÅĻÃŃ": 1631,
      "Ġcestu": 1632,
      "ĠnovÃ½": 1633,
      "ral": 1634,
      "Ġrou": 1635,
      "Ġblu": 1636,
      "ĠtÅĻeba": 1637,
      "vÅ¾dyÅ¥": 1638,
      "Ġzlato": 1639,
      "ĠmÃ©ho": 1640,
      "ĠnÄĽmu": 1641,
      "Ġkry": 1642,
      "ĠpoÄį": 1643,
      "snad": 1644,
      "Ġkve": 1645,
      "Ġaby": 1646,
      "ĠnÄĽmÅ¾": 1647,
      "ĠkterÃ¡": 1648,
      "kne": 1649,
      "ĠrÃ¡na": 1650,
      "letÃŃ": 1651,
      "ĠblÃ¡": 1652,
      "ĠsÃŃly": 1653,
      "Ġhlava": 1654,
      "Ġdruh": 1655,
      "ĠvÃŃm": 1656,
      "ĠproÄį": 1657,
      "tnÃŃ": 1658,
      "kÅ¯m": 1659,
      "ĠzpÃŃvÃ¡": 1660,
      "Ġjisk": 1661,
      "ĠvelkÃ½": 1662,
      "ĠvÃŃtr": 1663,
      "din": 1664,
      "Ġves": 1665,
      "Ġvich": 1666,
      "Ġstej": 1667,
      "ĠvidÃŃ": 1668,
      "ĠKri": 1669,
      "ĠÃºsmÄĽv": 1670,
      "pÅĻÃ¡": 1671,
      "Ġpocho": 1672,
      "ĠprÃ¡ci": 1673,
      "ĠmlÃ¡dÃŃ": 1674,
      "Ġkles": 1675,
      "ĠPa": 1676,
      "Ġnevy": 1677,
      "Ġkon": 1678,
      "Ġhory": 1679,
      "nÃ½mi": 1680,
      "sÃŃce": 1681,
      "lze": 1682,
      "tko": 1683,
      "dÄĽj": 1684,
      "ĠdomÅ¯": 1685,
      "Ġbolest": 1686,
      "ĠsvÄĽtla": 1687,
      "ckÃ©": 1688,
      "Ġzu": 1689,
      "ĠzmÄĽ": 1690,
      "us": 1691,
      "nej": 1692,
      "Ġchci": 1693,
      "bil": 1694,
      "ĠI": 1695,
      "Ġzahra": 1696,
      "Ġmoud": 1697,
      "ĠstÅĻÃŃb": 1698,
      "Ġsvoji": 1699,
      "Ġzmi": 1700,
      "Ġpom": 1701,
      "tnÃ©": 1702,
      "Ġpapr": 1703,
      "stem": 1704,
      "cko": 1705,
      "bor": 1706,
      "zna": 1707,
      "Ġsed": 1708,
      "ĠzlatÃ½": 1709,
      "Snad": 1710,
      "ĠstarÃ©": 1711,
      "Ġroze": 1712,
      "CoÅ¾": 1713,
      "ĠpÅ¯l": 1714,
      "Ġvoj": 1715,
      "dr": 1716,
      "tvÃ¡": 1717,
      "Ġkouz": 1718,
      "Ġskal": 1719,
      "Ġbys": 1720,
      "ani": 1721,
      "Ġuli": 1722,
      "Ġobraz": 1723,
      "Ni": 1724,
      "vla": 1725,
      "ĠsvatÃ©": 1726,
      "kra": 1727,
      "ĠzÃ¡ÅĻi": 1728,
      "Ġmnoho": 1729,
      "ĠnaÅ¡ÃŃ": 1730,
      "Ġspolu": 1731,
      "LeÄį": 1732,
      "zni": 1733,
      "Ġsvobo": 1734,
      "ĠbÃ¡snÃŃ": 1735,
      "Zde": 1736,
      "Ġtep": 1737,
      "ĠkvÄĽtÅ¯": 1738,
      "der": 1739,
      "Ġnikdo": 1740,
      "ĠmilÃ½": 1741,
      "Ġmr": 1742,
      "ĠopÄĽt": 1743,
      "ĠbouÅĻ": 1744,
      "ĠdÄĽt": 1745,
      "dru": 1746,
      "stro": 1747,
      "ÅĻa": 1748,
      "ĠkrÃ¡sy": 1749,
      "ĠmÃ¡lo": 1750,
      "Ġou": 1751,
      "ĠvÄĽru": 1752,
      "ĠstÃŃny": 1753,
      "Äįit": 1754,
      "slu": 1755,
      "cit": 1756,
      "Ti": 1757,
      "sal": 1758,
      "Nech": 1759,
      "sen": 1760,
      "ĠstÃ¡l": 1761,
      "klÃ¡": 1762,
      "skÃ©ho": 1763,
      "van": 1764,
      "Ġpot": 1765,
      "str": 1766,
      "ĠÅ¡at": 1767,
      "Ġzr": 1768,
      "dej": 1769,
      "Äįera": 1770,
      "Ġy": 1771,
      "Ġvzdo": 1772,
      "Ġpolo": 1773,
      "ĠvÃ¡Å¾": 1774,
      "Å¡ichni": 1775,
      "No": 1776,
      "ala": 1777,
      "ĠprÃ¡ce": 1778,
      "Ġtvou": 1779,
      "rdce": 1780,
      "losti": 1781,
      "ĠlidÃŃ": 1782,
      "ĠvÄĽÄįnÄĽ": 1783,
      "Ġtouhy": 1784,
      "Ġzved": 1785,
      "ĠvÃŃtÄĽz": 1786,
      "ĠjistÄĽ": 1787,
      "ĠhoÅĻe": 1788,
      "snÃ©": 1789,
      "valy": 1790,
      "vila": 1791,
      "ĠnichÅ¾": 1792,
      "gi": 1793,
      "sek": 1794,
      "ĠprÃ¡vÄĽ": 1795,
      "ĠlidÃ©": 1796,
      "ĠpÅĻijde": 1797,
      "ĠsvatÃ½": 1798,
      "ĠÅĻÃ¡": 1799,
      "bylo": 1800,
      "nula": 1801,
      "Ġkli": 1802,
      "ĠtrÅ¯": 1803,
      "luje": 1804,
      "ĠlÃ¡sce": 1805,
      "Ġotec": 1806,
      "ĠnemÃ¡": 1807,
      "ĠslÃ¡vy": 1808,
      "Mi": 1809,
      "Ġkdys": 1810,
      "Zda": 1811,
      "mlu": 1812,
      "chÃ½": 1813,
      "snÃ½": 1814,
      "vol": 1815,
      "kÃ¡nÃŃ": 1816,
      "tila": 1817,
      "Ġprsou": 1818,
      "Ġdivo": 1819,
      "Ġsama": 1820,
      "sly": 1821,
      "Ġlist": 1822,
      "Å¡ka": 1823,
      "ĠtvÃ¡ÅĻÃŃ": 1824,
      "ĠmyÅ¡len": 1825,
      "ĠnÄĽÅ¾": 1826,
      "Ġhlubi": 1827,
      "bal": 1828,
      "ĠbouÅĻe": 1829,
      "sme": 1830,
      "jat": 1831,
      "ĠnÄĽkdy": 1832,
      "Ġslovo": 1833,
      "Ġsebou": 1834,
      "Ġproto": 1835,
      "Ġpotom": 1836,
      "dost": 1837,
      "ĠmilÃ¡": 1838,
      "ĠpÃ¡n": 1839,
      "cy": 1840,
      "Ġposta": 1841,
      "ĠkrÃ¡t": 1842,
      "ĠboÅ¾": 1843,
      "ĠtvÃ¡ÅĻi": 1844,
      "ĠnocÃŃ": 1845,
      "kr": 1846,
      "Ġsti": 1847,
      "Ġpar": 1848,
      "kry": 1849,
      "ĠdolÅ¯": 1850,
      "ĠzpÄĽt": 1851,
      "Ġjdou": 1852,
      "Ã¡men": 1853,
      "Ġtrochu": 1854,
      "NeÅ¾": 1855,
      "Ġles": 1856,
      "Ġzdra": 1857,
      "novÃ©": 1858,
      "Ġotev": 1859,
      "Ġbol": 1860,
      "ĠvÅ¡ude": 1861,
      "Ġol": 1862,
      "ĠÄĮech": 1863,
      "Ġsvi": 1864,
      "stup": 1865,
      "skÃ½m": 1866,
      "Ġbudu": 1867,
      "ĠHo": 1868,
      "Å¡nÄĽ": 1869,
      "ĠpÅĻiÅ¡el": 1870,
      "ĠtvÃ¡ÅĻe": 1871,
      "ĠvÄĽky": 1872,
      "vrd": 1873,
      "Ġzvolna": 1874,
      "ĠvÅ¯nÄĽ": 1875,
      "mem": 1876,
      "ĠkÅĻÃŃÅ¾": 1877,
      "Ġran": 1878,
      "Ġzraky": 1879,
      "NÃ¡": 1880,
      "ĠzrÃ¡": 1881,
      "ene": 1882,
      "ĠnaÅ¡ich": 1883,
      "ĠztrÃ¡": 1884,
      "ĠmarnÄĽ": 1885,
      "hlu": 1886,
      "dila": 1887,
      "ĠmoÅ¾": 1888,
      "ĠpÄĽk": 1889,
      "ĠvaÅ¡e": 1890,
      "ĠvÄĽr": 1891,
      "ĠhlÃ¡": 1892,
      "Å¡et": 1893,
      "Ġdost": 1894,
      "ĠÅĺ": 1895,
      "Ġbohat": 1896,
      "Å¡te": 1897,
      "lenÃŃ": 1898,
      "ĠtÅĻi": 1899,
      "Ġpane": 1900,
      "Ġach": 1901,
      "ĠnevÃŃ": 1902,
      "hrÃ¡": 1903,
      "skÃ©m": 1904,
      "Ġhovo": 1905,
      "svou": 1906,
      "Ġoku": 1907,
      "bÃ½": 1908,
      "ĠdÅĻÃŃv": 1909,
      "dÃ¡m": 1910,
      "stech": 1911,
      "leh": 1912,
      "ĠsnÄĽnÃŃ": 1913,
      "ĠmÄĽk": 1914,
      "stÅĻÃŃc": 1915,
      "Ġpropa": 1916,
      "Ġbyli": 1917,
      "Pod": 1918,
      "ĠskrÃ½": 1919,
      "cela": 1920,
      "rÃ¡z": 1921,
      "Ġvlny": 1922,
      "ĠhruÄı": 1923,
      "Ġmatka": 1924,
      "ĠtÄĽla": 1925,
      "ĠvÅ¡echno": 1926,
      "Ġbyly": 1927,
      "Ġbuj": 1928,
      "Ġtolik": 1929,
      "Byl": 1930,
      "Ġvele": 1931,
      "ĠÄįekÃ¡": 1932,
      "ĠdÃ©": 1933,
      "Ġprach": 1934,
      "dli": 1935,
      "jsou": 1936,
      "ĠÅ¾lu": 1937,
      "Ġbeze": 1938,
      "ĠvÃ½Å¡e": 1939,
      "rech": 1940,
      "ĠvidÃŃm": 1941,
      "ĠsvÄĽtem": 1942,
      "Ġmysli": 1943,
      "tajÃŃ": 1944,
      "vÃŃc": 1945,
      "Ġlesy": 1946,
      "Ġducha": 1947,
      "ĠbÅ¯h": 1948,
      "liÅ¡": 1949,
      "ĠkvÄĽ": 1950,
      "Ġsny": 1951,
      "ĠzmÃŃ": 1952,
      "ĠmÃŃsto": 1953,
      "Ba": 1954,
      "nÃ¡Å¡ÃŃ": 1955,
      "ÄĽl": 1956,
      "vÅ¡em": 1957,
      "Ġska": 1958,
      "ĠÅ¡ko": 1959,
      "Ġor": 1960,
      "kone": 1961,
      "Ġblaho": 1962,
      "ĠandÄĽl": 1963,
      "Å¡ku": 1964,
      "ĠmÄĽsta": 1965,
      "Ġvon": 1966,
      "ĠTe": 1967,
      "ĠsladkÃ©": 1968,
      "Ġznova": 1969,
      "nik": 1970,
      "Ġkoru": 1971,
      "ĠnÄĽj": 1972,
      "ĠtÅĻpy": 1973,
      "Ġopu": 1974,
      "del": 1975,
      "lÃ©b": 1976,
      "Å¯v": 1977,
      "ĠkÅĻÃŃdla": 1978,
      "nici": 1979,
      "Ġct": 1980,
      "aÄį": 1981,
      "Ġvody": 1982,
      "ĠvlÃŃ": 1983,
      "ĠMar": 1984,
      "ĠkrÃ¡lov": 1985,
      "ĠMi": 1986,
      "Ġdosud": 1987,
      "nÃ¡nÃŃ": 1988,
      "ĠjinÃ©": 1989,
      "Ġcit": 1990,
      "Ġkrva": 1991,
      "kaÅ¾": 1992,
      "ĠohnÄĽ": 1993,
      "ĠhoÅĻ": 1994,
      "Ġrychle": 1995,
      "ev": 1996,
      "Ġobzo": 1997,
      "Ġhrobu": 1998,
      "mrt": 1999,
      "Ġnena": 2000,
      "vati": 2001,
      "ĠTi": 2002,
      "zal": 2003,
      "ĠmÃ¡Å¡": 2004,
      "ĠlÃŃce": 2005,
      "Ġslunci": 2006,
      "ĠÄįernÃ©": 2007,
      "hnu": 2008,
      "jel": 2009,
      "ĠmoÅĻi": 2010,
      "Ġpev": 2011,
      "Mo": 2012,
      "ĠÅ¡um": 2013,
      "valo": 2014,
      "Ġzbra": 2015,
      "ĠjakÃ½": 2016,
      "ĠhnÃŃ": 2017,
      "ĠknÃŃ": 2018,
      "ĠkrÃ¡snÃ©": 2019,
      "hned": 2020,
      "ĠchÃ½": 2021,
      "ĠvzhÅ¯ru": 2022,
      "Å¾it": 2023,
      "stil": 2024,
      "Li": 2025,
      "ĠkrvÃŃ": 2026,
      "rÃ©m": 2027,
      "ĠtÅĻÃŃ": 2028,
      "Ġopo": 2029,
      "Ġcesty": 2030,
      "Ġdoby": 2031,
      "spÄĽ": 2032,
      "hr": 2033,
      "ÅĻenÃŃ": 2034,
      "Ġzdvi": 2035,
      "Ġchmu": 2036,
      "Roz": 2037,
      "ĠdÃ½m": 2038,
      "Ġstru": 2039,
      "hod": 2040,
      "Ġjaro": 2041,
      "Ã¡l": 2042,
      "ÅĻela": 2043,
      "svÄĽt": 2044,
      "nila": 2045,
      "ĠcÃŃtÃŃ": 2046,
      "brÃ¡": 2047,
      "stane": 2048,
      "Ġjara": 2049,
      "ĠzvÃŃ": 2050,
      "ĠzÅĻel": 2051,
      "Ġdomo": 2052,
      "ĠÅ¾Ã¡r": 2053,
      "Ġokem": 2054,
      "ĠMa": 2055,
      "Ġklen": 2056,
      "ĠmÄĽsÃŃc": 2057,
      "Å¾enÃŃ": 2058,
      "ĠÄįÃŃm": 2059,
      "ĠusmÃŃ": 2060,
      "ĠdvÄĽ": 2061,
      "ĠÄı": 2062,
      "ĠvÅ¡ichni": 2063,
      "armo": 2064,
      "ĠdÃŃvÃ¡": 2065,
      "ĠzaÄį": 2066,
      "ĠÅ¾ije": 2067,
      "ĠÄįele": 2068,
      "jal": 2069,
      "Neb": 2070,
      "Ġobje": 2071,
      "ÄĮi": 2072,
      "ĠmÃ©m": 2073,
      "ĠmojÃŃ": 2074,
      "Å¡lo": 2075,
      "ĠtisÃŃc": 2076,
      "Ġoba": 2077,
      "ju": 2078,
      "ĠnaÅ¡i": 2079,
      "ĠdÃ½ch": 2080,
      "Ġply": 2081,
      "Ã©Å¾": 2082,
      "ĠvÃ½Å¡": 2083,
      "Ġprch": 2084,
      "nat": 2085,
      "tk": 2086,
      "tru": 2087,
      "vod": 2088,
      "Ġspat": 2089,
      "Ġchod": 2090,
      "ĠprÅ¯": 2091,
      "Ġmodlit": 2092,
      "lila": 2093,
      "ĠcelÃ¡": 2094,
      "proÄį": 2095,
      "ur": 2096,
      "ĠdÄĽv": 2097,
      "kÅĻik": 2098,
      "kvÄĽt": 2099,
      "Ġtan": 2100,
      "ĠmÃŃt": 2101,
      "Ġpozdra": 2102,
      "Ġneo": 2103,
      "ĠpÅ¯j": 2104,
      "Ġsvit": 2105,
      "ĠvzdÃ¡": 2106,
      "Ġchla": 2107,
      "ĠzÃ¡ÅĻe": 2108,
      "ckÃ½": 2109,
      "lez": 2110,
      "buÄı": 2111,
      "mÃŃr": 2112,
      "Du": 2113,
      "Å¡ek": 2114,
      "Ġdej": 2115,
      "ĠpovÄĽ": 2116,
      "Sly": 2117,
      "jas": 2118,
      "ĠmÄĽla": 2119,
      "Ġcestou": 2120,
      "ĠhlavÄĽ": 2121,
      "man": 2122,
      "vad": 2123,
      "ĠsvÃ©mu": 2124,
      "Ġas": 2125,
      "sÃ¡m": 2126,
      "âĢĻ.": 2127,
      "dajÃŃ": 2128,
      "Ġmilen": 2129,
      "lÃ©t": 2130,
      "Ġsho": 2131,
      "Ġhloub": 2132,
      "ĠdÃ¡lky": 2133,
      "ĠdÃ½": 2134,
      "diny": 2135,
      "Ġkamen": 2136,
      "ek": 2137,
      "ĠsnÃŃh": 2138,
      "dÃ½m": 2139,
      "Ġkdysi": 2140,
      "ĠmÃŃr": 2141,
      "ĠmÃ½m": 2142,
      "Dnes": 2143,
      "âĢĺ": 2144,
      "Ġtouha": 2145,
      "ĠBoÅ¾e": 2146,
      "Ġrov": 2147,
      "ĠÄįela": 2148,
      "ĠÄįasem": 2149,
      "ĠmeÄį": 2150,
      "dnes": 2151,
      "ÅĻÃŃt": 2152,
      "Ġpta": 2153,
      "ĠstromÅ¯": 2154,
      "ĠpÅĻem": 2155,
      "koli": 2156,
      "Ġsr": 2157,
      "ĠsladkÃ½": 2158,
      "ĠU": 2159,
      "Ġsyn": 2160,
      "prv": 2161,
      "Ġnohou": 2162,
      "Ġzvy": 2163,
      "boj": 2164,
      "vl": 2165,
      "spoÅĪ": 2166,
      "ĠstÃŃnu": 2167,
      "hÃ½ch": 2168,
      "sl": 2169,
      "dÄĽli": 2170,
      "Ġtisk": 2171,
      "ĠÃºsta": 2172,
      "Ġkdyby": 2173,
      "ĠbouÅĻÃŃ": 2174,
      "Ġzby": 2175,
      "ĠklÃ¡": 2176,
      "ĠÅĻÃŃci": 2177,
      "pÅĻes": 2178,
      "Äįin": 2179,
      "Ġuz": 2180,
      "dÃŃÅ¡": 2181,
      "ĠzboÅ¾": 2182,
      "Ġmatky": 2183,
      "ĠmluvÃŃ": 2184,
      "NuÅ¾": 2185,
      "Ġdrob": 2186,
      "tich": 2187,
      "Ġstat": 2188,
      "zvu": 2189,
      "ĠskvÄĽ": 2190,
      "ĠptÃ¡k": 2191,
      "Ġkraje": 2192,
      "ĠJak": 2193,
      "ĠplnÃ½": 2194,
      "pÅ¡ÃŃ": 2195,
      "Pra": 2196,
      "jdou": 2197,
      "rÃ¡m": 2198,
      "Ġotro": 2199,
      "Ġhrad": 2200,
      "ĠbÃŃlÃ¡": 2201,
      "Ġhlasem": 2202,
      "Ġruky": 2203,
      "ĠNa": 2204,
      "dky": 2205,
      "pÃ½": 2206,
      "Äįet": 2207,
      "ĠmyÅ¡lÃ©": 2208,
      "Jsem": 2209,
      "jÃŃÅ¾": 2210,
      "ali": 2211,
      "tev": 2212,
      "sel": 2213,
      "chÅ¯": 2214,
      "ĠÅ¡a": 2215,
      "vec": 2216,
      "Ġtvrd": 2217,
      "ĠlidskÃ©": 2218,
      "ĠsvÄĽÅ¾ÃŃ": 2219,
      "dat": 2220,
      "ĠblÃŃÅ¾": 2221,
      "ĠdÃ¡vÃ¡": 2222,
      "ĠvÄĽÄįnÃ©": 2223,
      "hnÄĽ": 2224,
      "dala": 2225,
      "Ġkmi": 2226,
      "Ġnelze": 2227,
      "Ġkap": 2228,
      "ÅĻo": 2229,
      "kat": 2230,
      "ĠtÃ½": 2231,
      "Ġver": 2232,
      "dÃ¡l": 2233,
      "ĠstarÃ¡": 2234,
      "ĠrÅ¯Å¾ÃŃ": 2235,
      "ĠhÅĻe": 2236,
      "ĠpÅĻÃŃro": 2237,
      "ĠJi": 2238,
      "Å¡ky": 2239,
      "vej": 2240,
      "Ġperu": 2241,
      "Jest": 2242,
      "Ġdole": 2243,
      "ĠskÃ¡ly": 2244,
      "Ġzjev": 2245,
      "ĠRo": 2246,
      "Ġret": 2247,
      "rom": 2248,
      "ĠjinÃ½": 2249,
      "ĠklidnÄĽ": 2250,
      "kala": 2251,
      "Ġmohu": 2252,
      "Å¡nÃ©": 2253,
      "VÅ¾dyÅ¥": 2254,
      "tele": 2255,
      "Ġvyso": 2256,
      "ĠTy": 2257,
      "Ġoblo": 2258,
      "lÃ©ho": 2259,
      "ĠneznÃ¡m": 2260,
      "zeÅĪ": 2261,
      "ĠdÃ¡m": 2262,
      "ĠÃºst": 2263,
      "Ġkonec": 2264,
      "Ġvzal": 2265,
      "Ġcelou": 2266,
      "vin": 2267,
      "ĠnÄĽco": 2268,
      "teli": 2269,
      "Ġble": 2270,
      "Ġmilost": 2271,
      "ĠÄĮe": 2272,
      "ĠdrahÃ¡": 2273,
      "ĠslavÃŃ": 2274,
      "ĠmyslÃŃ": 2275,
      "jÃŃt": 2276,
      "ĠoltÃ¡": 2277,
      "nko": 2278,
      "dina": 2279,
      "ĠzÃ¡pas": 2280,
      "eÅĪ": 2281,
      "ĠtÃ©to": 2282,
      "hlas": 2283,
      "ĠLi": 2284,
      "Ġokam": 2285,
      "BuÄı": 2286,
      "ĠkÃ¡men": 2287,
      "ÅĻek": 2288,
      "ĠhlÃŃ": 2289,
      "hli": 2290,
      "tost": 2291,
      "Ġdoma": 2292,
      "ĠÅ¾iv": 2293,
      "Ġfi": 2294,
      "ĠvstÅĻÃŃc": 2295,
      "Ġmd": 2296,
      "Ġdosti": 2297,
      "Ġchvil": 2298,
      "ĠhledÃ¡": 2299,
      "Ġcha": 2300,
      "ĠsÃŃla": 2301,
      "jnÄĽ": 2302,
      "ĠPro": 2303,
      "Ġramen": 2304,
      "zla": 2305,
      "ĠblaÅ¾en": 2306,
      "cel": 2307,
      "kÅĻÃŃ": 2308,
      "ĠzaÅ¡": 2309,
      "DÃŃ": 2310,
      "ĠkrÃ¡ÄįÃŃ": 2311,
      "Å¡Å¡ÃŃ": 2312,
      "Ġvzdech": 2313,
      "ĠkÅ¯": 2314,
      "ĠÄįem": 2315,
      "Ġpoto": 2316,
      "Ġtre": 2317,
      "Kam": 2318,
      "ĠÅ½i": 2319,
      "Ġminu": 2320,
      "ĠBohu": 2321,
      "ĠvÄĽkÅ¯": 2322,
      "Ġohni": 2323,
      "klÃŃ": 2324,
      "kon": 2325,
      "ĠvÅ¡echny": 2326,
      "nebo": 2327,
      "ĠrÃ¡ny": 2328,
      "mar": 2329,
      "ÄįÃ¡": 2330,
      "ĠnÃ¡d": 2331,
      "ĠtvÃ©ho": 2332,
      "tnÃ½": 2333,
      "Ġstrom": 2334,
      "Ġvod": 2335,
      "ĠoheÅĪ": 2336,
      "blÃŃ": 2337,
      "ĠjarnÃŃ": 2338,
      "Ġvlasy": 2339,
      "PÅĻed": 2340,
      "vce": 2341,
      "ĠpÅĻÃŃliÅ¡": 2342,
      "Ġhloubi": 2343,
      "ĠMo": 2344,
      "ĠzÃ¡pa": 2345,
      "Ġobe": 2346,
      "Ġstou": 2347,
      "zku": 2348,
      "rÃ¡ch": 2349,
      "ĠdruÅ¾": 2350,
      "ĠÅ¾ÃŃt": 2351,
      "ĠmÃŃru": 2352,
      "Ġtouhou": 2353,
      "slou": 2354,
      "ĠvÃ¡l": 2355,
      "ĠvÄĽtÅ¡ÃŃ": 2356,
      "Ġrak": 2357,
      "ĠlÃ©ta": 2358,
      "Ġsmys": 2359,
      "ĠDo": 2360,
      "Ġtmy": 2361,
      "vÅ¯r": 2362,
      "jest": 2363,
      "nÃ¡Å¡": 2364,
      "ĠkvÃŃtÃŃ": 2365,
      "Äįkou": 2366,
      "neÅ¡": 2367,
      "zim": 2368,
      "Ġkva": 2369,
      "ÄįnÃ¡": 2370,
      "Ġnekone": 2371,
      "Ġprachu": 2372,
      "klad": 2373,
      "stÅĻed": 2374,
      "ĠlesÅ¯": 2375,
      "BÅ¯h": 2376,
      "ĠplnÃ©": 2377,
      "bnÃŃ": 2378,
      "deme": 2379,
      "ĠBoÅ¾ÃŃ": 2380,
      "vel": 2381,
      "Ġznovu": 2382,
      "ĠtvÃ©m": 2383,
      "Ġproud": 2384,
      "myÅ¡": 2385,
      "tÅĻÃŃ": 2386,
      "Ġbal": 2387,
      "cnÄĽ": 2388,
      "es": 2389,
      "stÃ¡vÃ¡": 2390,
      "Ġhrudi": 2391,
      "Ġsmu": 2392,
      "Ġpal": 2393,
      "ĠtichÃ©": 2394,
      "Ġsrdcem": 2395,
      "ĠmladÃ½": 2396,
      "Ġchat": 2397,
      "lenÃ©": 2398,
      "ĠlÅ¯": 2399,
      "Ġprosto": 2400,
      "dno": 2401,
      "ĠKo": 2402,
      "Ġsnu": 2403,
      "ĠsedÃŃ": 2404,
      "jme": 2405,
      "chal": 2406,
      "Aj": 2407,
      "Ġvzdy": 2408,
      "ĠmladÃ©": 2409,
      "Ġboje": 2410,
      "ĠnadÄĽje": 2411,
      "tvo": 2412,
      "ĠaspoÅĪ": 2413,
      "dÃ½ch": 2414,
      "ĠnÃ¡ruÄį": 2415,
      "ĠpÅĻÃŃÅ¡tÃŃ": 2416,
      "tÃ¡m": 2417,
      "ĠdobÄĽ": 2418,
      "ĠdrahÃ©": 2419,
      "ĠpoÅ¾eh": 2420,
      "âĢŀâĢŀ": 2421,
      "ĠtichÃ½": 2422,
      "eni": 2423,
      "Ġup": 2424,
      "ĠchvÄĽje": 2425,
      "Ġzdo": 2426,
      "MÅ¯j": 2427,
      "Ġvedle": 2428,
      "ĠslÃ¡va": 2429,
      "ĠcÃŃsa": 2430,
      "Ġkrok": 2431,
      "ĠÅĻeÄį": 2432,
      "ĠjejÅ¾": 2433,
      "Ġjedna": 2434,
      "penÃŃ": 2435,
      "trem": 2436,
      "ĠzÃŃtra": 2437,
      "bla": 2438,
      "ÅĻila": 2439,
      "Ġmoji": 2440,
      "kaz": 2441,
      "ĠchceÅ¡": 2442,
      "ovÃ©": 2443,
      "ĠÄįest": 2444,
      "Bez": 2445,
      "ader": 2446,
      "Ġasi": 2447,
      "Ã¡s": 2448,
      "ryÄį": 2449,
      "ĠpÃŃsni": 2450,
      "Ġkmen": 2451,
      "ĠoÄįÃŃch": 2452,
      "ptÃ¡": 2453,
      "ĠlistÃŃ": 2454,
      "ĠdobrÃ©": 2455,
      "ĠneÅ¾li": 2456,
      "Ġlesa": 2457,
      "kru": 2458,
      "Kte": 2459,
      "ĠvÃŃru": 2460,
      "ĠuÄįi": 2461,
      "ĠhrobÄĽ": 2462,
      "Äįa": 2463,
      "ĠÅĻeÄįi": 2464,
      "ĠslyÅ¡ÃŃ": 2465,
      "snÃ¡": 2466,
      "vÃ½mi": 2467,
      "ĠkrÃ¡snÃ¡": 2468,
      "her": 2469,
      "ĠpravÃŃ": 2470,
      "dlÃŃ": 2471,
      "ĠpovÃŃ": 2472,
      "dka": 2473,
      "skem": 2474,
      "ĠBoha": 2475,
      "ĠrÃ¡no": 2476,
      "stvo": 2477,
      "cu": 2478,
      "ĠbudeÅ¡": 2479,
      "Ġvlas": 2480,
      "Ġblanky": 2481,
      "ĠCo": 2482,
      "Nem": 2483,
      "ĠmuÅ¾e": 2484,
      "ml": 2485,
      "ĠsplÃ½": 2486,
      "tnÄĽ": 2487,
      "ĠzÃ¡vo": 2488,
      "ĠmÃ¡me": 2489,
      "MnÄĽ": 2490,
      "Ġpil": 2491,
      "ĠmalÃ½": 2492,
      "ĠdlouhÃ©": 2493,
      "Ã¡n": 2494,
      "ĠsvÄĽtu": 2495,
      "ĠÅĪader": 2496,
      "ĠdobrÃ½": 2497,
      "Nu": 2498,
      "ĠmuÅ¾i": 2499,
      "Ġvln": 2500,
      "Ġzav": 2501,
      "ĠÅ¾il": 2502,
      "noucÃŃ": 2503,
      "Ġrozum": 2504,
      "ĠplÃ¡Äįe": 2505,
      "ĠsÃŃlu": 2506,
      "hly": 2507,
      "Ġsme": 2508,
      "Ġslov": 2509,
      "ĠmilÃ©": 2510,
      "Ġroste": 2511,
      "ĠkrÃ¡se": 2512,
      "hni": 2513,
      "dek": 2514,
      "ĠbÅĻehu": 2515,
      "Ġlidstva": 2516,
      "kajÃŃ": 2517,
      "ĠmotÃ½": 2518,
      "ĠkÅĻÃŃd": 2519,
      "Ġradosti": 2520,
      "Ġlese": 2521,
      "ĠaÄį": 2522,
      "bito": 2523,
      "ĠrÃ¡j": 2524,
      "Ġdobro": 2525,
      "Ġdou": 2526,
      "Ġvede": 2527,
      "jÃŃch": 2528,
      "Pa": 2529,
      "hor": 2530,
      "zÃŃm": 2531,
      "vÃŃrÃ¡": 2532,
      "nouti": 2533,
      "ot": 2534,
      "Ġpest": 2535,
      "teÄį": 2536,
      "ĠkrÃ¡snÃ½": 2537,
      "chou": 2538,
      "Ġpravil": 2539,
      "ĠplÃ¡Äį": 2540,
      "ĠÄįasu": 2541,
      "TÄĽ": 2542,
      "Ġdve": 2543,
      "Å¡nÃ½": 2544,
      "ĠmajÃŃ": 2545,
      "ĠslyÅ¡el": 2546,
      "Jsou": 2547,
      "jdu": 2548,
      "ĠjakÃ©": 2549,
      "Ġzrakem": 2550,
      "lku": 2551,
      "ĠpamÄĽ": 2552,
      "Ġjiz": 2553,
      "ĠhvÄĽzda": 2554,
      "Ġspou": 2555,
      "Ġnev": 2556,
      "ĠvÃ½Å¡i": 2557,
      "Ġcesta": 2558,
      "ĠkrÃ¡li": 2559,
      "ĠrÃ¡z": 2560,
      "dÃ©m": 2561,
      "Ġnaz": 2562,
      "ach": 2563,
      "lenÃ½": 2564,
      "ÅĻenÃ©": 2565,
      "rnÃŃ": 2566,
      "ĠvÅ¯le": 2567,
      "Ġokna": 2568,
      "ĠkaÅ¾dÃ¡": 2569,
      "Ġtrp": 2570,
      "ĠdÄĽtÃŃ": 2571,
      "ĠkonÄĽ": 2572,
      "ĠzÅĻÃŃm": 2573,
      "neÅ¡en": 2574,
      "Äįila": 2575,
      "dosti": 2576,
      "Ġpovz": 2577,
      "Ġvez": 2578,
      "Ġpros": 2579,
      "rej": 2580,
      "Å¡Å¥ast": 2581,
      "Vo": 2582,
      "vÄĽz": 2583,
      "Ġvys": 2584,
      "dÃ¡nÃŃ": 2585,
      "zpÃŃ": 2586,
      "chÃ©": 2587,
      "Ġprapo": 2588,
      "ĠÅ¡umÃŃ": 2589,
      "Ġchle": 2590,
      "ĠÄįÃ¡": 2591,
      "sed": 2592,
      "Ġnim": 2593,
      "ĠpÃ½ch": 2594,
      "Ġstromy": 2595,
      "ĠchÃ¡": 2596,
      "rÅ¯pÄĽ": 2597,
      "roj": 2598,
      "Å¯l": 2599,
      "Å¾ik": 2600,
      "ĠÄįernÃ½": 2601,
      "hna": 2602,
      "nami": 2603,
      "Ġvti": 2604,
      "Ġklet": 2605,
      "Ġnebyl": 2606,
      "ĠÅ¡la": 2607,
      "ĠzdrÃ¡": 2608,
      "ĠsrdcÃŃ": 2609,
      "Ġzach": 2610,
      "Ġkdes": 2611,
      "Ġklam": 2612,
      "ĠklonÃŃ": 2613,
      "Ġlidem": 2614,
      "ĠjmÃ©no": 2615,
      "ĠcÃŃtÃŃm": 2616,
      "ĠblÃ½": 2617,
      "ĠzvonÃŃ": 2618,
      "cet": 2619,
      "Ġcos": 2620,
      "pit": 2621,
      "ĠmnohÃ½": 2622,
      "Ġjazy": 2623,
      "ĠnedÃ¡": 2624,
      "Ġrty": 2625,
      "Zas": 2626,
      "ĠvÅ¡emi": 2627,
      "ĠvÄĽÄįnÃ½": 2628,
      "ĠâĢĵâĢľ": 2629,
      "ĠPÃ¡n": 2630,
      "mil": 2631,
      "dnÃ½ch": 2632,
      "ĠPe": 2633,
      "Ġtento": 2634,
      "ĠdruhÃ©": 2635,
      "KaÅ¾": 2636,
      "Ġposud": 2637,
      "ĠAn": 2638,
      "Ġztracen": 2639,
      "Ã¡Å¡": 2640,
      "jim": 2641,
      "ĠveÄįe": 2642,
      "Ġnapos": 2643,
      "UÅ¾": 2644,
      "zra": 2645,
      "stva": 2646,
      "ĠmalÃ©": 2647,
      "chÃ¡ze": 2648,
      "Ġsma": 2649,
      "Tys": 2650,
      "ĠzapomnÄĽ": 2651,
      "fi": 2652,
      "?!": 2653,
      "bit": 2654,
      "Ġjinak": 2655,
      "ĠchodÃŃ": 2656,
      "vÃ¡Å¡": 2657,
      "Ġduchu": 2658,
      "Ġboku": 2659,
      "ĠcÃŃtil": 2660,
      "ĠbratÅĻÃŃ": 2661,
      "ĠÅĺÃŃm": 2662,
      "Ġtla": 2663,
      "mrak": 2664,
      "ĠrytÃŃ": 2665,
      "Ġrozp": 2666,
      "hlÃ¡": 2667,
      "Äįnou": 2668,
      "Ġjmen": 2669,
      "ĠmizÃŃ": 2670,
      "Ġsladce": 2671,
      "Ġhlad": 2672,
      "vuje": 2673,
      "hÃ½m": 2674,
      "livÄĽ": 2675,
      "Ġman": 2676,
      "ĠsvÃ½mi": 2677,
      "ĠchrÃ¡m": 2678,
      "ĠrÃ¡zem": 2679,
      "Ġdala": 2680,
      "ĠstrÃ¡Å¾": 2681,
      "ĠbouÅĻi": 2682,
      "alo": 2683,
      "Ġotce": 2684,
      "bli": 2685,
      "ĠdnÅ¯": 2686,
      "Ġbije": 2687,
      "mat": 2688,
      "ÅĻÃŃÅ¡": 2689,
      "Ġval": 2690,
      "ĠkrÃ¡le": 2691,
      "Ġkterou": 2692,
      "ĠÅĻekl": 2693,
      "ĠnaÅĪ": 2694,
      "ĠnevÃŃm": 2695,
      "Ġdomu": 2696,
      "Ġleb": 2697,
      "Å¾Å¡ÃŃ": 2698,
      "met": 2699,
      "DÄĽ": 2700,
      "SvÄĽt": 2701,
      "kvÃŃ": 2702,
      "Ġmilu": 2703,
      "ĠtÄĽm": 2704,
      "Ġpravda": 2705,
      "duch": 2706,
      "nÃ©mu": 2707,
      "Ġslz": 2708,
      "Å¡u": 2709,
      "Ġtakto": 2710,
      "ĠvalÃŃ": 2711,
      "volÃ¡": 2712,
      "Ġkoste": 2713,
      "Ġmysl": 2714,
      "nese": 2715,
      "Å¡t": 2716,
      "ĠdÅ¯m": 2717,
      "ĠVÃŃ": 2718,
      "ĠstarÃ½ch": 2719,
      "sle": 2720,
      "ĠvzÃ¡c": 2721,
      "hÃ¡m": 2722,
      "ĠCh": 2723,
      "Sta": 2724,
      "Ġstvo": 2725,
      "Ġmilosti": 2726,
      "vÅ¡ech": 2727,
      "Ġspi": 2728,
      "Ze": 2729,
      "kni": 2730,
      "Ġzpo": 2731,
      "kot": 2732,
      "ĠtisÃŃce": 2733,
      "stala": 2734,
      "ĠloÄı": 2735,
      "Ġscho": 2736,
      "ĠtvÃ½m": 2737,
      "Äįas": 2738,
      "ĠmÄĽsto": 2739,
      "Å¾ÃŃÅ¡": 2740,
      "ĠTÄĽ": 2741,
      "ĠLu": 2742,
      "Ġpravdu": 2743,
      "Ġsmutek": 2744,
      "Ġbrzy": 2745,
      "nosÅ¥": 2746,
      "Ġbudouc": 2747,
      "staÅĪ": 2748,
      "ĠbÄĽda": 2749,
      "ĠpÃ¡ni": 2750,
      "ĠdÃ¡t": 2751,
      "stÃŃm": 2752,
      "ĠjednÃ©": 2753,
      "ĠhnÄĽv": 2754,
      "ĠtÅĻÃ¡": 2755,
      "Ġkal": 2756,
      "lav": 2757,
      "...âĢľ": 2758,
      "ĠpÃ©": 2759,
      "ĠdvÃ©": 2760,
      "Ġpoe": 2761,
      "ĠdruhÃ½": 2762,
      "Ġvzduch": 2763,
      "ĠslÃ¡vÄĽ": 2764,
      "ĠÅ¾ÃŃti": 2765,
      "ZÃ¡": 2766,
      "Ġslza": 2767,
      "ĠzÃ¡hy": 2768,
      "ĠrÃ¡da": 2769,
      "mÃ¡ch": 2770,
      "Ġzlat": 2771,
      "ĠhÅĻbito": 2772,
      "stat": 2773,
      "Ġzhas": 2774,
      "Ġubo": 2775,
      "ĠÄıÃ¡": 2776,
      "ĠmÄĽnÃŃ": 2777,
      "ĠklÃŃn": 2778,
      "Ġzapla": 2779,
      "hro": 2780,
      "Ġmdlo": 2781,
      "ĠdrahÃ½": 2782,
      "Ġmohl": 2783,
      "ĠjasnÃ©": 2784,
      "Ġonen": 2785,
      "ĠKar": 2786,
      "Ġpout": 2787,
      "ĠvÅ¡ÃŃm": 2788,
      "hlo": 2789,
      "Ġnohy": 2790,
      "Ġplane": 2791,
      "ĠtÄĽÅ¾kÃ©": 2792,
      "jednou": 2793,
      "Ġzadu": 2794,
      "Ġhas": 2795,
      "Ġdoko": 2796,
      "ĠÃºtÄĽ": 2797,
      "ĠlÃŃc": 2798,
      "Ġrost": 2799,
      "ĠkrÅ¯pÄĽ": 2800,
      "ĠslyÅ¡ÃŃm": 2801,
      "ToÅ¥": 2802,
      "ĠJÃ¡": 2803,
      "ĠkÃ½": 2804,
      "tor": 2805,
      "ĠrozkoÅ¡": 2806,
      "Ġpramen": 2807,
      "ĠmÃŃti": 2808,
      "ĠdÄĽla": 2809,
      "ĠkvÄĽtu": 2810,
      "ĠmoÅ¾no": 2811,
      "Ġpodo": 2812,
      "ĠzemÃŃ": 2813,
      "ĠjÃŃt": 2814,
      "ĠsvatÃ¡": 2815,
      "ĠzdÃ¡lo": 2816,
      "Ġset": 2817,
      "ĠknÃŃÅ¾e": 2818,
      "Ġjin": 2819,
      "ĠVÃ¡m": 2820,
      "Ġzcela": 2821,
      "mne": 2822,
      "ĠÅ¾enu": 2823,
      "Ġprsa": 2824,
      "jÃŃce": 2825,
      "kvet": 2826,
      "Ġtry": 2827,
      "rnÃ¡": 2828,
      "ĠTvÃ©": 2829,
      "Ġvenku": 2830,
      "nÄĽl": 2831,
      "Å¾ila": 2832,
      "lena": 2833,
      "tno": 2834,
      "ĠTobÄĽ": 2835,
      "cÅ¯m": 2836,
      "lnÃŃ": 2837,
      "Ġhlo": 2838,
      "ĠVy": 2839,
      "ĠvracÃŃ": 2840,
      "Ġpodzim": 2841,
      "ĠslÃ¡vu": 2842,
      "ĠsklÃ¡nÃŃ": 2843,
      "go": 2844,
      "tÄĽch": 2845,
      "ĠmodrÃ©": 2846,
      "vobo": 2847,
      "ĠtenkrÃ¡t": 2848,
      "blou": 2849,
      "ĠÅ¡le": 2850,
      "dÃ¡ch": 2851,
      "ĠkdoÅ¾": 2852,
      "Ġhospo": 2853,
      "cad": 2854,
      "vÄĽd": 2855,
      "pÄĽv": 2856,
      "ĠzlatÃ¡": 2857,
      "Ġnade": 2858,
      "ĠzÃ¡zrak": 2859,
      "ĠslÃŃ": 2860,
      "Ġposled": 2861,
      "ĠzachvÄĽ": 2862,
      "Äıte": 2863,
      "Ġcen": 2864,
      "ĠdÃŃvka": 2865,
      "ĠtÄĽle": 2866,
      "RÃ¡": 2867,
      "Ġples": 2868,
      "ĠjehoÅ¾": 2869,
      "snÄĽjÅ¡ÃŃ": 2870,
      "kterÃ©": 2871,
      "jeÅ¡": 2872,
      "Ġvrcho": 2873,
      "bÅĻe": 2874,
      "lan": 2875,
      "Ġar": 2876,
      "Ġtruch": 2877,
      "rnou": 2878,
      "Ġhej": 2879,
      "jÅ¡ÃŃm": 2880,
      "ĠjejÃŃm": 2881,
      "stvÃŃm": 2882,
      "Ġzvuk": 2883,
      "mÃ¡m": 2884,
      "ĠrÃ¡je": 2885,
      "rat": 2886,
      "ÅĻÃŃv": 2887,
      "ĠptÃ¡ci": 2888,
      "Ġnechce": 2889,
      "ĠnesmÃŃ": 2890,
      "JenÅ¾": 2891,
      "lka": 2892,
      "Ġvztek": 2893,
      "ĠcoÅ¾": 2894,
      "Ġnesly": 2895,
      "ĠmusÃŃm": 2896,
      "slÃŃ": 2897,
      "ĠdÅ¯vÄĽ": 2898,
      "ĠzÃ¡m": 2899,
      "pÃ¡tky": 2900,
      "ĠleÄį": 2901,
      "Ġnevin": 2902,
      "Ġoka": 2903,
      "Ġhlaho": 2904,
      "Ġteprv": 2905,
      "padÃ¡": 2906,
      "hÃ¡nÃŃ": 2907,
      "Ġtemno": 2908,
      "ĠvÃ¡mi": 2909,
      "ĠsluÅ¾": 2910,
      "ĠstejnÄĽ": 2911,
      "ĠÅĻeÄįÃŃ": 2912,
      "ĠJa": 2913,
      "lÃ¡ch": 2914,
      "Ġbohem": 2915,
      "ĠrÅ¯Å¾o": 2916,
      "Ġmoci": 2917,
      "ĠchtÄĽla": 2918,
      "Å¡ko": 2919,
      "Ġkali": 2920,
      "bÃ©": 2921,
      "kÃ©ho": 2922,
      "Ġkterak": 2923,
      "Ġbratr": 2924,
      "Ġjednu": 2925,
      "ĠrudÃ©": 2926,
      "Ġpravdy": 2927,
      "ĠvÄĽc": 2928,
      "Ġspra": 2929,
      "ĠdlouhÃ½": 2930,
      "slav": 2931,
      "kterÃ½": 2932,
      "MÄĽ": 2933,
      "Ġprobu": 2934,
      "znÃ©": 2935,
      "ĠbÃŃlÃ½ch": 2936,
      "Nez": 2937,
      "dÄĽnÃŃ": 2938,
      "ĠpÅĻede": 2939,
      "ĠdÃ¡lku": 2940,
      "Ġzoufal": 2941,
      "ĠÄįeskÃ©": 2942,
      "ĠobrÃ¡": 2943,
      "Ġzhy": 2944,
      "Ġzba": 2945,
      "Ġporo": 2946,
      "PÅĻÃŃ": 2947,
      "nÄĽn": 2948,
      "ĠmladÃ¡": 2949,
      "ĠvÅ¯li": 2950,
      "dali": 2951,
      "ĠvÅ¯kol": 2952,
      "Ġbojo": 2953,
      "ĠvonÃŃ": 2954,
      "ĠnechÅ¥": 2955,
      "ĠmÄĽsÃŃ": 2956,
      "Ġklidu": 2957,
      "amÄĽ": 2958,
      "Äįej": 2959,
      "Ġmraky": 2960,
      "dku": 2961,
      "ĠvelkÃ¡": 2962,
      "toÅ¾": 2963,
      "ĠblÃŃz": 2964,
      "jsi": 2965,
      "ÅĻÅ¯": 2966,
      "Ġrok": 2967,
      "Ġnak": 2968,
      "Ġzro": 2969,
      "ĠmraÄį": 2970,
      "Ġjeze": 2971,
      "vili": 2972,
      "ĠnoÄįnÃŃ": 2973,
      "ĠpÅĻiÅ¡la": 2974,
      "zdo": 2975,
      "ĠtÃ³": 2976,
      "dili": 2977,
      "ÄĮe": 2978,
      "nÅ¯m": 2979,
      "LÃ¡": 2980,
      "Ġklad": 2981,
      "ĠÃºdo": 2982,
      "ĠneznÃ¡": 2983,
      "tec": 2984,
      "pÄĽl": 2985,
      "Ġstaro": 2986,
      "ĠtÅ¯": 2987,
      "Ġzasta": 2988,
      "ĠobjetÃŃ": 2989,
      "ĠdennÄĽ": 2990,
      "kej": 2991,
      "Ġnepro": 2992,
      "ĠpevnÄĽ": 2993,
      "St": 2994,
      "Aby": 2995,
      "mÅ¯j": 2996,
      "chvÃ¡": 2997,
      "ĠkaÅ¾dou": 2998,
      "ĠdÅĻÃŃve": 2999,
      "moc": 3000,
      "Ġblaha": 3001,
      "Ġzdi": 3002,
      "Ġsilou": 3003,
      "ĠsmÃŃchu": 3004,
      "vice": 3005,
      "ĠvÅ¯nÃŃ": 3006,
      "ĠDu": 3007,
      "bat": 3008,
      "ĠVa": 3009,
      "ĠstÃ¡la": 3010,
      "Ġhrou": 3011,
      "ĠnepÅĻi": 3012,
      "diÅ¾": 3013,
      "Ġsami": 3014,
      "ĠzvedÃ¡": 3015,
      "Ġvlo": 3016,
      "ĠnepÅĻÃŃ": 3017,
      "Ġkrou": 3018,
      "ĠskÅĻi": 3019,
      "ĠstavÃŃ": 3020,
      "Ġzlata": 3021,
      "ĠsmutnÄĽ": 3022,
      "Mar": 3023,
      "pem": 3024,
      "sit": 3025,
      "Ġlam": 3026,
      "ĠNÄĽ": 3027,
      "ĠtÃ¡hne": 3028,
      "liÄį": 3029,
      "Ġur": 3030,
      "Å¾enÃ©": 3031,
      "jejÅ¾": 3032,
      "domÃŃ": 3033,
      "kvÄĽ": 3034,
      "lel": 3035,
      "ĠzatÃŃm": 3036,
      "Ġpoho": 3037,
      "bro": 3038,
      "cti": 3039,
      "bÅ¯": 3040,
      "noc": 3041,
      "Ġspas": 3042,
      "ĠdÃ¡lce": 3043,
      "ĠtouÅ¾ÃŃ": 3044,
      "Slu": 3045,
      "ĠvÃ½ch": 3046,
      "jÃŃmÃ¡": 3047,
      "Å¡it": 3048,
      "pÅĻec": 3049,
      "ĠchrÃ¡mu": 3050,
      "Ġkyne": 3051,
      "ĠpÅĻÃ¡tel": 3052,
      "hdy": 3053,
      "ĠkrÃ¡sa": 3054,
      "ĠnÃŃz": 3055,
      "ĠÅĪadra": 3056,
      "ady": 3057,
      "ĠplÃŃ": 3058,
      "Å¡nÃŃ": 3059,
      "enÃ¡vi": 3060,
      "tnou": 3061,
      "ĠbÄĽÅ¾ÃŃ": 3062,
      "Ġpsa": 3063,
      "Ġhan": 3064,
      "tala": 3065,
      "Hla": 3066,
      "ĠlepÅ¡ÃŃ": 3067,
      "rel": 3068,
      "Ġju": 3069,
      "ĠnepÅĻÃ¡": 3070,
      "ĠÅĻeky": 3071,
      "ĠodpovÄĽ": 3072,
      "Ġzni": 3073,
      "ĠÄįlovÄĽka": 3074,
      "ĠvÄĽk": 3075,
      "ĠÅĻÃŃÅ¡e": 3076,
      "ĠÃºsmÄĽvem": 3077,
      "kovÃ©": 3078,
      "lÃ©z": 3079,
      "ĠzlatÃ½ch": 3080,
      "Vla": 3081,
      "ĠzÅĻe": 3082,
      "Ġpotu": 3083,
      "ĠkvÄĽti": 3084,
      "ĠBohem": 3085,
      "Ġned": 3086,
      "ĠkrÃ¡su": 3087,
      "Ġboha": 3088,
      "Ġcest": 3089,
      "Ġkrokem": 3090,
      "ĠvzplÃ¡": 3091,
      "ĠbÃ½vÃ¡": 3092,
      "au": 3093,
      "Ġzrcad": 3094,
      "emi": 3095,
      "Mu": 3096,
      "raz": 3097,
      "lova": 3098,
      "ĠcestÄĽ": 3099,
      "ĠhÃ½": 3100,
      "ĠvÃŃÅ¡": 3101,
      "mÃ½": 3102,
      "ĠbÅĻÃŃ": 3103,
      "ĠjedinÃ½": 3104,
      "Ġhez": 3105,
      "Ġdum": 3106,
      "ĠÄįasy": 3107,
      "Ġhudba": 3108,
      "Ġdny": 3109,
      "NÄĽ": 3110,
      "Ġsoud": 3111,
      "ctvÃŃ": 3112,
      "Å¡ÃŃch": 3113,
      "ĠlÃŃbÃ¡": 3114,
      "Ġzmat": 3115,
      "ple": 3116,
      "tnÃ¡": 3117,
      "ĠvrÃ¡tÃŃ": 3118,
      "MÃ©": 3119,
      "ĠmalÃ¡": 3120,
      "tÃ©Å¾": 3121,
      "Ġnovou": 3122,
      "Ġstrany": 3123,
      "lky": 3124,
      "ĠstÃ¡t": 3125,
      "ĠsmutnÃ©": 3126,
      "Ġhochu": 3127,
      "Ġholu": 3128,
      "ĠrtÅ¯": 3129,
      "Ma": 3130,
      "ĠÃĵ": 3131,
      "Ġskvost": 3132,
      "pomen": 3133,
      "kojen": 3134,
      "toÅ¥": 3135,
      "ĠlÃŃci": 3136,
      "ĠvroucÃŃ": 3137,
      "asu": 3138,
      "Ġkroky": 3139,
      "ĠbledÃ¡": 3140,
      "nÄĽnÃŃ": 3141,
      "venÃ©": 3142,
      "ĠmrtvÃ½ch": 3143,
      "hnul": 3144,
      "Ġzka": 3145,
      "Ġkonce": 3146,
      "ĠmlÄįÃŃ": 3147,
      "ĠtÅĻetÃŃ": 3148,
      "lej": 3149,
      "Ġpope": 3150,
      "Ġrtech": 3151,
      "kolem": 3152,
      "ĠÄįistÃ©": 3153,
      "Ġprud": 3154,
      "vrÃ¡tÃŃ": 3155,
      "bnÄĽ": 3156,
      "Pan": 3157,
      "ĠvÃ¡Å¡nÃŃ": 3158,
      "vot": 3159,
      "dro": 3160,
      "ĠÃºzko": 3161,
      "Ġspad": 3162,
      "ĠpalÃ¡": 3163,
      "ĠÄįaro": 3164,
      "Ku": 3165,
      "per": 3166,
      "Ġhnu": 3167,
      "pot": 3168,
      "hlÃ½": 3169,
      "kvÃ©": 3170,
      "ĠÅ¾el": 3171,
      "Ġmni": 3172,
      "ĠtoÄįÃŃ": 3173,
      "Ġrod": 3174,
      "han": 3175,
      "Ã¡r": 3176,
      "Ġhvo": 3177,
      "Srdce": 3178,
      "Ġtrou": 3179,
      "Ġhlasy": 3180,
      "ĠklesÃ¡": 3181,
      "ĠhÅĻÃŃch": 3182,
      "ĠÅ¾alu": 3183,
      "ĠblÃŃÅ¾ÃŃ": 3184,
      "Ġvlh": 3185,
      "ĠÅĻi": 3186,
      "Å¡ly": 3187,
      "ĠdÄĽs": 3188,
      "Ġide": 3189,
      "dna": 3190,
      "ĠÅ¾eh": 3191,
      "Ġklu": 3192,
      "Ġkat": 3193,
      "Ġpaprsk": 3194,
      "Den": 3195,
      "bem": 3196,
      "Äįo": 3197,
      "ĠmÃŃsta": 3198,
      "Ġcti": 3199,
      "Ġpokoj": 3200,
      "ĠbudÃŃ": 3201,
      "ĠzpÃ¡tky": 3202,
      "star": 3203,
      "ĠlesnÃŃ": 3204,
      "ĠjinÃ½ch": 3205,
      "Ġrozho": 3206,
      "ĠvÅĻa": 3207,
      "Ġom": 3208,
      "ĠvÃŃry": 3209,
      "ĠvÅ¡emu": 3210,
      "Ġslovem": 3211,
      "liv": 3212,
      "nechÅ¥": 3213,
      "ĠdlaÅĪ": 3214,
      "Ġlili": 3215,
      "ĠmrtvÃ©": 3216,
      "Ġpohle": 3217,
      "ĠnavÅ¾dy": 3218,
      "Ġblesky": 3219,
      "Ġosu": 3220,
      "livÃ½": 3221,
      "bel": 3222,
      "rek": 3223,
      "ĠcÃŃl": 3224,
      "bÃ¡ch": 3225,
      "Ġsest": 3226,
      "Ġjino": 3227,
      "ĠpÅĻedu": 3228,
      "Ġhradu": 3229,
      "ĠbohatÃ½": 3230,
      "hnout": 3231,
      "nala": 3232,
      "ĠloÅ¾e": 3233,
      "Ġvzduchu": 3234,
      "tÃ¡n": 3235,
      "ĠkteÅĻÃŃ": 3236,
      "nikÃ¡": 3237,
      "blesk": 3238,
      "ec": 3239,
      "Ġtichu": 3240,
      "ĠÅ¾Ã¡dnÃ½": 3241,
      "Ġmrtvo": 3242,
      "mrtel": 3243,
      "ĠvÄįera": 3244,
      "Ġstesk": 3245,
      "ĠchtÃŃ": 3246,
      "ĠVla": 3247,
      "ĠslyÅ¡et": 3248,
      "TvÃ¡": 3249,
      "ĠÄįt": 3250,
      "ĠbÃŃlou": 3251,
      "Ġdav": 3252,
      "ĠovÅ¡em": 3253,
      "Ġbolu": 3254,
      "ĠNi": 3255,
      "Å¾enÃ½": 3256,
      "ĠknÄĽÅ¾": 3257,
      "Ġletu": 3258,
      "ĠsladkÃ¡": 3259,
      "Nej": 3260,
      "lenÃ¡": 3261,
      "rÅ¯m": 3262,
      "ĠmÄĽli": 3263,
      "Ġsad": 3264,
      "Ġcy": 3265,
      "ĠslyÅ¡": 3266,
      "srdce": 3267,
      "Ġzlatem": 3268,
      "Ġpolib": 3269,
      "nitÅĻ": 3270,
      "ĠvÄĽn": 3271,
      "cenÃŃ": 3272,
      "hÃ©m": 3273,
      "nkou": 3274,
      "Ġono": 3275,
      "ol": 3276,
      "Ġsty": 3277,
      "koj": 3278,
      "Ġnesou": 3279,
      "An": 3280,
      "lÃ©tÃ¡": 3281,
      "ĠVe": 3282,
      "ĠnÄĽkdo": 3283,
      "tej": 3284,
      "tÄĽz": 3285,
      "vede": 3286,
      "hajÃŃ": 3287,
      "ĠkvÄĽtem": 3288,
      "ĠÄįernÃ½ch": 3289,
      "Ġbro": 3290,
      "ĠopuÅ¡tÄĽ": 3291,
      "ĠrÃ¡nu": 3292,
      "kost": 3293,
      "ĠdÄĽdi": 3294,
      "ĠvisÃŃ": 3295,
      "ĠnadÅ¡en": 3296,
      "Ġsmutku": 3297,
      "bnÃ©": 3298,
      "JeÅ¡tÄĽ": 3299,
      "cenÃ©": 3300,
      "les": 3301,
      "Ġhosti": 3302,
      "ĠlÃŃto": 3303,
      "Ġstrach": 3304,
      "Ġodpu": 3305,
      "Ġpodle": 3306,
      "mnÃŃ": 3307,
      "zvo": 3308,
      "Ġpek": 3309,
      "Ġmlhy": 3310,
      "blo": 3311,
      "Ġruch": 3312,
      "AÄį": 3313,
      "Ġbolesti": 3314,
      "ĠvzneÅ¡en": 3315,
      "chra": 3316,
      "cos": 3317,
      "Äįiny": 3318,
      "Ġsoumrak": 3319,
      "svÅ¯j": 3320,
      "Ġtvr": 3321,
      "ĠpotÄĽ": 3322,
      "Ġutr": 3323,
      "tat": 3324,
      "Ġrozu": 3325,
      "ĠÄįeskÃ½": 3326,
      "Di": 3327,
      "hlou": 3328,
      "Mno": 3329,
      "Å¡to": 3330,
      "Ġsyna": 3331,
      "ĠtÅĻese": 3332,
      "vÃŃÅ¡": 3333,
      "Ġhoch": 3334,
      "ĠskrÃ¡ÅĪ": 3335,
      "Noc": 3336,
      "svÄĽ": 3337,
      "Å¾nÃ©": 3338,
      "Äįela": 3339,
      "ĠzdravÃŃ": 3340,
      "ĠohnÄĽm": 3341,
      "Ġzvon": 3342,
      "ĠzprÃ¡": 3343,
      "ĠzvlÃ¡": 3344,
      "Ġrej": 3345,
      "rozen": 3346,
      "nÃ¡Å¡e": 3347,
      "pomnÄĽ": 3348,
      "ĠvidÄĽt": 3349,
      "ĠrÅ¯Å¾i": 3350,
      "Ġvle": 3351,
      "ĠkoÅĻi": 3352,
      "prav": 3353,
      "ĠÅĪadrech": 3354,
      "ĠvÄĽci": 3355,
      "ĠpÅĻÃŃÅ¡e": 3356,
      "MÃ¡m": 3357,
      "kl": 3358,
      "ĠvÅ¯ni": 3359,
      "ĠPÃ¡nÄĽ": 3360,
      "Ġoblak": 3361,
      "ĠvyÅ¡el": 3362,
      "ĠblÃŃÅ¾e": 3363,
      "ĠbledÃ©": 3364,
      "Ġdechem": 3365,
      "Ġvelkou": 3366,
      "ĠvÃŃno": 3367,
      "ost": 3368,
      "ĠnenÃ¡vi": 3369,
      "Ġdvou": 3370,
      "ĠÅ¾ene": 3371,
      "stupu": 3372,
      "kterÃ¡": 3373,
      "byla": 3374,
      "tne": 3375,
      "ĠmrÃ¡z": 3376,
      "Ġzapad": 3377,
      "dÃ¡vÃ¡": 3378,
      "ĠdÅĻe": 3379,
      "Ġdali": 3380,
      "ĠÅĻas": 3381,
      "Ġvstou": 3382,
      "Ġzma": 3383,
      "coÅ¾": 3384,
      "bec": 3385,
      "ĠlidskÃ½": 3386,
      "SÃ¡m": 3387,
      "vedl": 3388,
      "hÅĻ": 3389,
      "tÅĻ": 3390,
      "Ġzku": 3391,
      "Ġvzde": 3392,
      "Ġnitru": 3393,
      "ĠztrÃ¡cÃŃ": 3394,
      "zenÃŃ": 3395,
      "Ġvze": 3396,
      "ĠdÃŃlo": 3397,
      "Ġskon": 3398,
      "bÅ¯h": 3399,
      "tili": 3400,
      "Ġobli": 3401,
      "venÃ½": 3402,
      "Ġuna": 3403,
      "chom": 3404,
      "ĠPane": 3405,
      "ĠtvojÃŃ": 3406,
      "hÅ¯m": 3407,
      "kva": 3408,
      "plo": 3409,
      "zek": 3410,
      "ĠjasnÃ½": 3411,
      "ĠSi": 3412,
      "ĠvraÅ¾": 3413,
      "Ġsbo": 3414,
      "ĠkoÅĻen": 3415,
      "ĠdÅĻÃŃmÃ¡": 3416,
      "ĠÄįty": 3417,
      "bys": 3418,
      "Ġkdesi": 3419,
      "rnÃ½ch": 3420,
      "ĠtÄĽÅ¾kÃ½": 3421,
      "dlÃ©": 3422,
      "Ġzlatou": 3423,
      "ĠstÃ©": 3424,
      "jo": 3425,
      "ĠtichÃ¡": 3426,
      "Ġplach": 3427,
      "ĠumÃŃrÃ¡": 3428,
      "ĠvÅ¡i": 3429,
      "Äįkem": 3430,
      "rad": 3431,
      "rajÃŃ": 3432,
      "Ġplno": 3433,
      "Ġlehce": 3434,
      "Ġdarmo": 3435,
      "cÃ½": 3436,
      "Ġchra": 3437,
      "Ġjitra": 3438,
      "Ha": 3439,
      "Ġnap": 3440,
      "vanÃ©": 3441,
      "dÄĽti": 3442,
      "ĠdÄĽje": 3443,
      "ĠhalÃŃ": 3444,
      "ĠzÃŃrÃ¡": 3445,
      "Ġzraku": 3446,
      "tkem": 3447,
      "Ġhad": 3448,
      "drÃ¡": 3449,
      "ĠspoleÄį": 3450,
      "ĠdÃ½Å¡e": 3451,
      "Ġchvat": 3452,
      "Ġlidstvo": 3453,
      "bila": 3454,
      "ĠpÃ¡r": 3455,
      "ĠplÃ¡Äįi": 3456,
      "Ġsluncem": 3457,
      "bÃ¡m": 3458,
      "Ġmech": 3459,
      "Ġsluch": 3460,
      "klid": 3461,
      "sÃŃch": 3462,
      "ĠrannÃŃ": 3463,
      "Å¾ka": 3464,
      "ĠVÄĽ": 3465,
      "ĠjÃŃti": 3466,
      "Ġtuto": 3467,
      "tvÃ©": 3468,
      "Ġpln": 3469,
      "svÃ½m": 3470,
      "Ra": 3471,
      "Å¾nÄĽ": 3472,
      "ĠÄįist": 3473,
      "Ġdoba": 3474,
      "PojÄı": 3475,
      "ĠnadÅ¡enÃŃ": 3476,
      "ĠpatÅĻÃŃ": 3477,
      "ÅĻad": 3478,
      "ĠtoÅ¥": 3479,
      "Ġsnem": 3480,
      "Ġvytr": 3481,
      "Ġcu": 3482,
      "ckÃ½ch": 3483,
      "sÃ½": 3484,
      "benÃŃ": 3485,
      "chci": 3486,
      "ĠotÃ¡": 3487,
      "ĠzÃ¡vi": 3488,
      "ĠtemnÃ©": 3489,
      "Ġuvi": 3490,
      "sli": 3491,
      "vky": 3492,
      "Å¾ky": 3493,
      "Ġneroz": 3494,
      "zuje": 3495,
      "svit": 3496,
      "Ġnebylo": 3497,
      "bnÃ½": 3498,
      "dÄĽji": 3499,
      "Ġproro": 3500,
      "Ġzbo": 3501,
      "ĠkaÅ¾dÃ©m": 3502,
      "lovÃ©": 3503,
      "ĠskÅĻÃŃ": 3504,
      "Ġseve": 3505,
      "bek": 3506,
      "peÅ¾": 3507,
      "venÃŃ": 3508,
      "Ġraj": 3509,
      "Ġhar": 3510,
      "vÄĽl": 3511,
      "zlo": 3512,
      "telÃ©": 3513,
      "Ġspani": 3514,
      "nuly": 3515,
      "ĠdÃ¡ti": 3516,
      "ĠTvo": 3517,
      "Ġmlha": 3518,
      "ĠsmutnÃ½": 3519,
      "MÃŃ": 3520,
      "diÄį": 3521,
      "ĠZa": 3522,
      "ter": 3523,
      "ĠbolÃŃ": 3524,
      "Ġcizi": 3525,
      "spÃŃ": 3526,
      "Å¡ÃŃÅ¡": 3527,
      "Ce": 3528,
      "jeho": 3529,
      "ĠhuÄįÃŃ": 3530,
      "ama": 3531,
      "ĠboÅ¾e": 3532,
      "ĠsvÄĽty": 3533,
      "zky": 3534,
      "Ġvola": 3535,
      "ĠKa": 3536,
      "Ġmati": 3537,
      "ĠsmÄĽle": 3538,
      "Ru": 3539,
      "Ġpouta": 3540,
      "ĠrokÅ¯": 3541,
      "Ġstane": 3542,
      "Ġlze": 3543,
      "ĠjasnÄĽ": 3544,
      "ĠandÄĽ": 3545,
      "NenÃŃ": 3546,
      "slad": 3547,
      "ĠpsÃ¡": 3548,
      "Ġhroby": 3549,
      "ĠhrÅ¯zou": 3550,
      "rozu": 3551,
      "voucÃŃ": 3552,
      "sie": 3553,
      "ĠsplÃ½vÃ¡": 3554,
      "ĠsnÄĽhu": 3555,
      "?...": 3556,
      "dni": 3557,
      "kali": 3558,
      "ĠÅ¡li": 3559,
      "Ġstalo": 3560,
      "ĠvÃ¡Å¡nÄĽ": 3561,
      "Ġosla": 3562,
      "ĠotcÅ¯": 3563,
      "Ġkar": 3564,
      "ie": 3565,
      "ĠnovÃ¡": 3566,
      "Ġnebem": 3567,
      "livÃ©": 3568,
      "tud": 3569,
      "Ġtichou": 3570,
      "ĠdÄĽvÄįe": 3571,
      "bar": 3572,
      "Ġzpu": 3573,
      "ĠpromÄĽ": 3574,
      "jdeÅ¡": 3575,
      "ĠdÄĽcko": 3576,
      "ĠvÃŃna": 3577,
      "Ġpomoc": 3578,
      "vci": 3579,
      "Ġvzpla": 3580,
      "Ġbleskem": 3581,
      "ĠznÄĽl": 3582,
      "Ġvna": 3583,
      "ĠnÃ¡ruÄįÃŃ": 3584,
      "ĠmrÃ¡": 3585,
      "Ġchleba": 3586,
      "Ġjimi": 3587,
      "ĠmÃ¡te": 3588,
      "Nebo": 3589,
      "Ġvesele": 3590,
      "So": 3591,
      "Ġzhou": 3592,
      "lenou": 3593,
      "ĠpÄĽt": 3594,
      "ujÃŃ": 3595,
      "Ġtys": 3596,
      "Ġsynu": 3597,
      "Ġkom": 3598,
      "ĠchÃ½lÃŃ": 3599,
      "Å¾nÃ½": 3600,
      "ĠkolÃ©b": 3601,
      "Å¡a": 3602,
      "ĠzdÄĽ": 3603,
      "ÅĻec": 3604,
      "Ġfa": 3605,
      "ĠvÃŃra": 3606,
      "roucÃŃ": 3607,
      "pila": 3608,
      "Ġsvatou": 3609,
      "bled": 3610,
      "ĠvolnÄĽ": 3611,
      "Å¾Ã¡r": 3612,
      "Ġtato": 3613,
      "ĠpÅĻÃŃtel": 3614,
      "ĠveÄįera": 3615,
      "ĠsvÄĽtÅ¯": 3616,
      "ĠÅ¾enou": 3617,
      "pÃ©": 3618,
      "rÃ¡d": 3619,
      "ber": 3620,
      "Ġoken": 3621,
      "Ġtva": 3622,
      "ĠnovÃ½ch": 3623,
      "ĠpojÄı": 3624,
      "ĠTak": 3625,
      "cenÃ½": 3626,
      "ĠhorÃ¡ch": 3627,
      "Ġslune": 3628,
      "ĠplÃ¡po": 3629,
      "ĠptÃ¡Äįe": 3630,
      "Ġvsi": 3631,
      "Ġvlna": 3632,
      "ĠmÅĻÃŃ": 3633,
      "kÃ¡n": 3634,
      "ĠÅ¡lech": 3635,
      "tÃ¡nÃŃ": 3636,
      "Ġkolo": 3637,
      "ĠcitÅ¯": 3638,
      "ĠvÅ¾dyÅ¥": 3639,
      "ĠvÄĽtru": 3640,
      "kovi": 3641,
      "Kol": 3642,
      "zÅĻÃŃ": 3643,
      "ĠÅ¾ebrÃ¡": 3644,
      "Ġsladkou": 3645,
      "ĠFran": 3646,
      "tlu": 3647,
      "ĠonÄĽ": 3648,
      "Ani": 3649,
      "Ġkrvi": 3650,
      "ĠtÄĽÅ¾ce": 3651,
      "Ġdouf": 3652,
      "Ġpodiv": 3653,
      "ĠJen": 3654,
      "Oh": 3655,
      "Ġvoda": 3656,
      "Ġslovy": 3657,
      "ĠpÅ¯va": 3658,
      "ĠdÃŃvÄįÃŃ": 3659,
      "ĠcÃŃsaÅĻ": 3660,
      "Ġdle": 3661,
      "ÄįnÃ½ch": 3662,
      "letÄĽ": 3663,
      "ĠÃºÅ¾": 3664,
      "ĠVÃ¡c": 3665,
      "ĠpÃŃs": 3666,
      "ĠsmÄĽje": 3667,
      "Ġvzduchem": 3668,
      "Ġjsa": 3669,
      "ÅĻenÃ½": 3670,
      "Ġluny": 3671,
      "ĠmÃ©mu": 3672,
      "ĠkÅĻÃŃÅ¾e": 3673,
      "Ġzbu": 3674,
      "Ġprokle": 3675,
      "Ġhoj": 3676,
      "ĠchvÄĽl": 3677,
      "Ġhym": 3678,
      "ĠÄįet": 3679,
      "jenom": 3680,
      "Ġplna": 3681,
      "dnÃ½m": 3682,
      "jsme": 3683,
      "Ġneod": 3684,
      "ĠlkÃ¡": 3685,
      "Ġnevz": 3686,
      "ĠprosÃŃm": 3687,
      "Ġhost": 3688,
      "Ġnechci": 3689,
      "ĠnÄĽjak": 3690,
      "mek": 3691,
      "ĠbledÃ½": 3692,
      "ĠpamÃ¡": 3693,
      "ĠbloudÃŃ": 3694,
      "TvÃ©": 3695,
      "ckni": 3696,
      "LÃŃ": 3697,
      "ĠstÃŃnÅ¯": 3698,
      "Ġzvony": 3699,
      "rami": 3700,
      "Ġpov": 3701,
      "Ġpochy": 3702,
      "tan": 3703,
      "BÄĽ": 3704,
      "ĠlÅ¯Å¾": 3705,
      "ĠbÃ¡snÃŃk": 3706,
      "ĠplÃ©": 3707,
      "ĠpoÄįÃŃ": 3708,
      "viti": 3709,
      "ĠpravÃ½": 3710,
      "ĠtmavÃ©": 3711,
      "lin": 3712,
      "Ġnaslou": 3713,
      "Ġhraje": 3714,
      "Ġjdu": 3715,
      "vÃ¡ch": 3716,
      "NechÅ¥": 3717,
      "lio": 3718,
      "ĠtemnÄĽ": 3719,
      "ĠtmÃ¡ch": 3720,
      "Å¡le": 3721,
      "ĠupomÃŃ": 3722,
      "ĠvÄĽÅĻ": 3723,
      "Ġhrom": 3724,
      "ĠlidskÃ½ch": 3725,
      "ĠnÄĽmÃ½": 3726,
      "ĠNo": 3727,
      "chce": 3728,
      "ĠnaÅ¡el": 3729,
      "vÃ¡t": 3730,
      "ĠzÃ¡vra": 3731,
      "ĠmyslÃŃm": 3732,
      "ĠstÄĽny": 3733,
      "Ġkvetou": 3734,
      "Chce": 3735,
      "ĠvÅ¡ecka": 3736,
      "Ġstez": 3737,
      "zdra": 3738,
      "ĠpÃ¡lÃŃ": 3739,
      "Ġpur": 3740,
      "ĠRu": 3741,
      "ĠvÅ¡ÃŃ": 3742,
      "Ġzti": 3743,
      "ĠchudÃ©": 3744,
      "ĠpohÅĻ": 3745,
      "ĠvÄĽtvÃŃ": 3746,
      "smÃŃ": 3747,
      "Ġbudem": 3748,
      "ĠÄįernÃ¡": 3749,
      "ĠzpÃŃval": 3750,
      "ĠpÅĻÃ¡nÃŃ": 3751,
      "ĠmocÃŃ": 3752,
      "Nic": 3753,
      "Ġvnu": 3754,
      "ĠdlÃŃ": 3755,
      "Äįte": 3756,
      "Ġlidi": 3757,
      "ĠKristu": 3758,
      "SlyÅ¡": 3759,
      "Ġnaposled": 3760,
      "zdÄĽ": 3761,
      "ĠstaÄįÃŃ": 3762,
      "ĠjichÅ¾": 3763,
      "Ġbarev": 3764,
      "Ġvar": 3765,
      "Ġoce": 3766,
      "ĠHa": 3767,
      "Ġhlubin": 3768,
      "ĠklÃ¡Å¡te": 3769,
      "Ġprost": 3770,
      "Ġvznes": 3771,
      "ĠzÃ¡stup": 3772,
      "Ġcosi": 3773,
      "Ġmatce": 3774,
      "zvÄĽ": 3775,
      "dÃ¡Å¡": 3776,
      "mra": 3777,
      "ge": 3778,
      "Ġbohy": 3779,
      "Ġzvuky": 3780,
      "Ġpropast": 3781,
      "Ġsbor": 3782,
      "âĢľ,": 3783,
      "ĠvÄĽÅĻÃŃ": 3784,
      "pan": 3785,
      "ĠTu": 3786,
      "ĠjÃŃÅ¾": 3787,
      "ĠdlanÃŃ": 3788,
      "ĠnepÅĻe": 3789,
      "sila": 3790,
      "rku": 3791,
      "Ġstarou": 3792,
      "ĠsmrtÃŃ": 3793,
      "zka": 3794,
      "Hned": 3795,
      "mno": 3796,
      "lejÅ¡ÃŃ": 3797,
      "Ġlodi": 3798,
      "ĠmnohÃ©": 3799,
      "tce": 3800,
      "Ġvet": 3801,
      "Ġvzbu": 3802,
      "ĠbohÅ¯": 3803,
      "ĠÅĻekla": 3804,
      "ĠvÄĽÄįnosti": 3805,
      "ĠtÃŃÅ¾ÃŃ": 3806,
      "jÃŃmÅ¾": 3807,
      "menÃŃ": 3808,
      "Ġdobu": 3809,
      "ĠhÃ¡j": 3810,
      "Ġpadne": 3811,
      "Ġvypra": 3812,
      "ĠdÄĽc": 3813,
      "Zem": 3814,
      "Å¡tÄĽstÃŃ": 3815,
      "Ġposlou": 3816,
      "ĠzlÃŃ": 3817,
      "lec": 3818,
      "ĠposmÄĽ": 3819,
      "ĠdlanÄĽ": 3820,
      "rÃ½vÃ¡": 3821,
      "Ġrozech": 3822,
      "Å¡enÃ©": 3823,
      "bÃŃrÃ¡": 3824,
      "ĠJo": 3825,
      "ĠhrÅ¯zy": 3826,
      "ÄįnÃ½m": 3827,
      "Ġpouti": 3828,
      "Ġpode": 3829,
      "asa": 3830,
      "ĠVÅ¡ak": 3831,
      "ĠduchÅ¯": 3832,
      "ĠdÄĽji": 3833,
      "stej": 3834,
      "ĠdÃŃvky": 3835,
      "ĠbratÅĻi": 3836,
      "mÃŃm": 3837,
      "nÃŃkÅ¯": 3838,
      "Ġtako": 3839,
      "ĠÅ¾Ã¡dnÃ©": 3840,
      "ĠmocnÄĽ": 3841,
      "pce": 3842,
      "set": 3843,
      "Ġhodi": 3844,
      "Pr": 3845,
      "vno": 3846,
      "ĠvyprÃ¡": 3847,
      "daly": 3848,
      "Ġdavy": 3849,
      "Ġkouzel": 3850,
      "Ġkryje": 3851,
      "ĠvÄĽÅ¾e": 3852,
      "covÃ©": 3853,
      "ĠtajÃŃ": 3854,
      "osti": 3855,
      "krÃ¡te": 3856,
      "ĠptaÄįÃŃ": 3857,
      "ĠrodÃŃ": 3858,
      "ĠhÅĻmÃŃ": 3859,
      "VÃŃm": 3860,
      "ĠVÃ¡s": 3861,
      "ĠnemÄĽl": 3862,
      "ĠzpÄĽvu": 3863,
      "ĠtmÄĽ": 3864,
      "ĠvlasÅ¯": 3865,
      "cuje": 3866,
      "Ġmatko": 3867,
      "Ã¡ch": 3868,
      "ÅĻÃŃk": 3869,
      "ĠtrÃ¡vÄĽ": 3870,
      "krev": 3871,
      "Ġztich": 3872,
      "vor": 3873,
      "kouz": 3874,
      "ĠdobrÃ¡": 3875,
      "Ġzdr": 3876,
      "Ġmatku": 3877,
      "Ġvad": 3878,
      "ĠÅĻÃŃtÃŃ": 3879,
      "Ġobzor": 3880,
      "ĠjevÃŃ": 3881,
      "ĠjakÃ¡": 3882,
      "Ġled": 3883,
      "Ġvane": 3884,
      "Ãļ": 3885,
      "Ġlad": 3886,
      "ĠvÃ©": 3887,
      "NaÄį": 3888,
      "ĠzÃ¡pad": 3889,
      "ĠdivÃ½": 3890,
      "Ġtouze": 3891,
      "ĠbyÅ¥": 3892,
      "ĠmÄĽst": 3893,
      "ĠhledÄĽl": 3894,
      "hlÃŃÅ¾ÃŃ": 3895,
      "ĠprovÃ¡": 3896,
      "Ġprahu": 3897,
      "Å¾ili": 3898,
      "ĠVi": 3899,
      "Ġplnou": 3900,
      "ĠÄįase": 3901,
      "ĠhnÄĽvu": 3902,
      "Ġin": 3903,
      "ĠkÅĻÃŃdel": 3904,
      "ĠmlÄįky": 3905,
      "rovna": 3906,
      "Ġnesmrtel": 3907,
      "Ġpanen": 3908,
      "Ġkouzlo": 3909,
      "tvÅ¯j": 3910,
      "zav": 3911,
      "lest": 3912,
      "ĠTvÅ¯j": 3913,
      "ĠÅ¾ivotem": 3914,
      "Ġdni": 3915,
      "Ġchlu": 3916,
      "pÃŃnÃ¡": 3917,
      "ĠmeÄįe": 3918,
      "Jsi": 3919,
      "ĠzlÃ©": 3920,
      "Ġprst": 3921,
      "ÅĻÃ¡d": 3922,
      "ĠslzÃŃ": 3923,
      "ĠsnÃ¡ch": 3924,
      "Ġjakby": 3925,
      "Ġkade": 3926,
      "ĠÅ¡eru": 3927,
      "ĠLa": 3928,
      "zdÃ¡": 3929,
      "vosti": 3930,
      "jichÅ¾": 3931,
      "ĠschvÃ¡": 3932,
      "Ġ(": 3933,
      "ĠrÅ¯z": 3934,
      "Ġpust": 3935,
      "ĠhrdÄĽ": 3936,
      "Ġnebude": 3937,
      "vek": 3938,
      "ĠmÄĽstÄĽ": 3939,
      "ĠprÃ¡vo": 3940,
      "Ġtkli": 3941,
      "ĠnosÃŃ": 3942,
      "ĠnÄĽkde": 3943,
      "vka": 3944,
      "ĠÅ¡iro": 3945,
      "dlÃ¡": 3946,
      "Ġvnad": 3947,
      "Ġnoha": 3948,
      "Ġmodra": 3949,
      "skne": 3950,
      "ĠchladnÃ©": 3951,
      "ĠÄįin": 3952,
      "ĠcÃŃr": 3953,
      "Ġdnem": 3954,
      "ĠrudÃ½": 3955,
      "ĠpÅĻÃŃsa": 3956,
      "ĠjÃ¡so": 3957,
      "ĠÄįasÅ¯": 3958,
      "Ġrych": 3959,
      "Ġprudce": 3960,
      "ÄĮÃŃm": 3961,
      "Ġmramo": 3962,
      "ĠrytÃŃÅĻ": 3963,
      "ÅĪte": 3964,
      "Ġrek": 3965,
      "Ġjitro": 3966,
      "ĠprÃ¡va": 3967,
      "stÅĻi": 3968,
      "Ġuse": 3969,
      "ĠumÄĽnÃŃ": 3970,
      "ĠÅ¡edi": 3971,
      "ĠÅ¡edÃ©": 3972,
      "ĠÄįistÃ½": 3973,
      "ĠmeÄįem": 3974,
      "zÃ¡ch": 3975,
      "Ġprapor": 3976,
      "Ġkole": 3977,
      "Ġdraho": 3978,
      "ĠradostÃŃ": 3979,
      "ĠosamÄĽ": 3980,
      "Ġjazyk": 3981,
      "tÅĻi": 3982,
      "ĠzkÃ¡": 3983,
      "ĠÅ¡Ã¡": 3984,
      "ÅĪat": 3985,
      "Ġstran": 3986,
      "zÃ½": 3987,
      "ĠmlÃ½": 3988,
      "kaÅ¾dÃ½": 3989,
      "Ġholubi": 3990,
      "Bla": 3991,
      "zÅ¯": 3992,
      "Ġbohu": 3993,
      "Ġnikde": 3994,
      "vatÃ½": 3995,
      "Ġtmou": 3996,
      "dovÃ©": 3997,
      "Ġkost": 3998,
      "ĠnÃ¡dher": 3999,
      "Ġsklen": 4000,
      "ĠÅ¡ÃŃlen": 4001,
      "nd": 4002,
      "Ġlesem": 4003,
      "hÃ¡ch": 4004,
      "ĠdveÅĻÃŃ": 4005,
      "krÃ¡snÄĽjÅ¡ÃŃ": 4006,
      "Ġvzte": 4007,
      "ĠjinÃŃ": 4008,
      "Ġtaky": 4009,
      "kÅ¯v": 4010,
      "ĠvelkÃ½m": 4011,
      "Ġtvor": 4012,
      "ĠdeÅ¡tÄĽ": 4013,
      "Ġsnes": 4014,
      "ĠspÃ¡nku": 4015,
      "Ġzapomen": 4016,
      "Ġneho": 4017,
      "Ġstopy": 4018,
      "ĠtvoÅĻÃŃ": 4019,
      "gu": 4020,
      "neÄįnÄĽ": 4021,
      "ÅĪo": 4022,
      "Äįili": 4023,
      "ÄĮas": 4024,
      "ĠvÅ¡ady": 4025,
      "dÅĻÃŃv": 4026,
      "fa": 4027,
      "Ġmluvil": 4028,
      "Ġpromlu": 4029,
      "Ġstuden": 4030,
      "jÃŃcÃŃch": 4031,
      "ĠÅĪÃ¡": 4032,
      "ĠÃºdolÃŃ": 4033,
      "ledne": 4034,
      "rie": 4035,
      "Ġkruh": 4036,
      "ĠobÄĽÅ¥": 4037,
      "Ġhmo": 4038,
      "vech": 4039,
      "Ġdruhdy": 4040,
      "Ġlisty": 4041,
      "Ġpoklad": 4042,
      "ĠkaÅ¾dÃ½m": 4043,
      "Ġstolu": 4044,
      "ĠotÄįe": 4045,
      "Ġkomu": 4046,
      "ĠHe": 4047,
      "pÃŃm": 4048,
      "ĠÅ¡pi": 4049,
      "ĠMu": 4050,
      "snou": 4051,
      "nilo": 4052,
      "houcÃŃ": 4053,
      "ĠAl": 4054,
      "jit": 4055,
      "ĠvelkÃ½ch": 4056,
      "veÄįer": 4057,
      "nÄĽnÃ©": 4058,
      "Ġchcem": 4059,
      "mech": 4060,
      "Ġvelmi": 4061,
      "ĠdÃ½chÃ¡": 4062,
      "ĠbÃ¡j": 4063,
      "Ġmimo": 4064,
      "Ġproudy": 4065,
      "ĠTebe": 4066,
      "TvÅ¯j": 4067,
      "!âĢľâĢľ": 4068,
      "Å¡o": 4069,
      "ĠÅ¡pat": 4070,
      "Ġskoro": 4071,
      "Ob": 4072,
      "skal": 4073,
      "Ġplanou": 4074,
      "ĠdlouhÃ¡": 4075,
      "PÄĽ": 4076,
      "chla": 4077,
      "chod": 4078,
      "ĠnemÅ¯Å¾e": 4079,
      "Ġdlouhou": 4080,
      "ĠvrÃ¡til": 4081,
      "ĠveÅ¡": 4082,
      "vyÅ¡Å¡ÃŃ": 4083,
      "ĠvÅ¯dce": 4084,
      "Ġstranou": 4085,
      "ĠLe": 4086,
      "ĠtajemstvÃŃ": 4087,
      "ĠmotÃ½l": 4088,
      "Ġzle": 4089,
      "ĠjemnÄĽ": 4090,
      "ĠvÄĽnec": 4091,
      "ĠBa": 4092,
      "ĠstÃ¡ti": 4093,
      "tys": 4094,
      "ĠÅĻeka": 4095,
      "ĠtemnÃ½": 4096,
      "luv": 4097,
      "ĠprostÅĻed": 4098,
      "ĠtÄĽÅ¾ko": 4099,
      "KaÅ¾dÃ½": 4100,
      "ĠkÃ½vÃ¡": 4101,
      "Äįely": 4102,
      "Ġvichr": 4103,
      "ĠnechÃ¡": 4104,
      "Å¾et": 4105,
      "ĠvÃŃr": 4106,
      "ĠsvÃŃrÃ¡": 4107,
      "Ġpomoci": 4108,
      "Ġnep": 4109,
      "lÃŃk": 4110,
      "Ġvine": 4111,
      "ĠtÄĽchto": 4112,
      "Ġstromu": 4113,
      "ĠblÃŃzko": 4114,
      "Ġvzdor": 4115,
      "ĠzlÃ¡": 4116,
      "ĠchlÃ©b": 4117,
      "KrÃ¡l": 4118,
      "ĠbÃŃdy": 4119,
      "ĠloÅ¾i": 4120,
      "Ġly": 4121,
      "Ġrosy": 4122,
      "ĠdÃŃval": 4123,
      "ĠKrista": 4124,
      "ckÃ¡": 4125,
      "ĠslavnÃ©": 4126,
      "ĠtrÅ¯nu": 4127,
      "ĠJu": 4128,
      "ĠÅĻÃŃÅ¡i": 4129,
      "ĠkvÃŃlÃŃ": 4130,
      "ĠjÃŃmÅ¾": 4131,
      "Ġzmizel": 4132,
      "ĠpÄĽknÄĽ": 4133,
      "ĠBu": 4134,
      "ĠKrÃ¡": 4135,
      "ĠslavnÄĽ": 4136,
      "ĠvÄĽÄįnÃ¡": 4137,
      "dÄĽlÃ¡": 4138,
      "mÃ¡nÃŃ": 4139,
      "Ġpes": 4140,
      "ĠslavnÃ½": 4141,
      "ĠmÅ¯Å¾": 4142,
      "enÄĽ": 4143,
      "muÅ¾": 4144,
      "Ġstal": 4145,
      "jeÅ¡tÄĽ": 4146,
      "ĠpravÃ©": 4147,
      "Sy": 4148,
      "ga": 4149,
      "ĠpodÃŃ": 4150,
      "ĠtÄĽlem": 4151,
      "ĠÄįervÃ¡n": 4152,
      "Ġkus": 4153,
      "Ġzmo": 4154,
      "vanÃ½": 4155,
      "ĠPan": 4156,
      "Ġpoznal": 4157,
      "ĠskÃ¡la": 4158,
      "lnÄĽ": 4159,
      "rky": 4160,
      "Å¾ela": 4161,
      "ĠrÃ¡ji": 4162,
      "ĠjÃ¡sa": 4163,
      "ÄĮer": 4164,
      "Ġnebez": 4165,
      "Ġdceru": 4166,
      "Ġkrajem": 4167,
      "Ġkvete": 4168,
      "try": 4169,
      "nuv": 4170,
      "Ġzima": 4171,
      "ĠskrÃ½vÃ¡": 4172,
      "Å¡eÅĪ": 4173,
      "ĠkrÃ¡sou": 4174,
      "ĠnadÄĽj": 4175,
      "ĠÄįemu": 4176,
      "Ġved": 4177,
      "Ġdrahou": 4178,
      "ÄįkÃ¡": 4179,
      "Ġpoma": 4180,
      "ÅĻili": 4181,
      "Ġmusil": 4182,
      "Ġkola": 4183,
      "Ġvzru": 4184,
      "ĠpryÄį": 4185,
      "vici": 4186,
      "ĠbÃ½val": 4187,
      "ĠvÃŃtÄĽzstvÃŃ": 4188,
      "Ġhbi": 4189,
      "proti": 4190,
      "Å¡ep": 4191,
      "Ġukry": 4192,
      "ĠBy": 4193,
      "sklo": 4194,
      "ĠkrÃ¡Äįel": 4195,
      "ĠstÅĻedu": 4196,
      "os": 4197,
      "ĠmoÅĻem": 4198,
      "ĠcÃŃle": 4199,
      "ToÅ¾": 4200,
      "ĠdivnÃ©": 4201,
      "Ġnapl": 4202,
      "Ġmohla": 4203,
      "ĠvÄĽtrem": 4204,
      "Ġpekla": 4205,
      "ĠdÃ¡vnÃ½ch": 4206,
      "Ġnebezpe": 4207,
      "ĠpÃ½": 4208,
      "Ġvin": 4209,
      "Ġnemoc": 4210,
      "KÃ©Å¾": 4211,
      "ĠvstÃ¡vÃ¡": 4212,
      "chlad": 4213,
      "loval": 4214,
      "Ġmate": 4215,
      "ĠsvÄĽtel": 4216,
      "ĠchovÃ¡": 4217,
      "nulo": 4218,
      "it": 4219,
      "ĠchÅ¯": 4220,
      "Ġotci": 4221,
      "ĠnepÅĻÃ¡tel": 4222,
      "Dej": 4223,
      "Ġbolem": 4224,
      "ĠÅ¾alÃ¡": 4225,
      "rod": 4226,
      "Ġzdro": 4227,
      "Jde": 4228,
      "ĠvzÃŃ": 4229,
      "ĠjÃ¡sÃ¡": 4230,
      "ĠnemÃ¡m": 4231,
      "ĠnadÄĽjÃŃ": 4232,
      "aly": 4233,
      "Ġzkou": 4234,
      "ĠpÅĻelu": 4235,
      "ĠtuÅ¡ÃŃ": 4236,
      "Ġak": 4237,
      "hala": 4238,
      "vak": 4239,
      "nci": 4240,
      "nkem": 4241,
      "Äįce": 4242,
      "ÄįenÃ©": 4243,
      "Chci": 4244,
      "ĠspÃŃÅ¡": 4245,
      "ĠpÅ¯lno": 4246,
      "ĠzÃ¡voj": 4247,
      "Å¡nÃ¡": 4248,
      "skla": 4249,
      "ĠHospo": 4250,
      "Ġzacho": 4251,
      "ĠuÅ¡": 4252,
      "ĠzÃ¡ha": 4253,
      "ĠchvÄĽla": 4254,
      "ĠchvÄĽjÃŃ": 4255,
      "ĠÅ¡tÃŃt": 4256,
      "tali": 4257,
      "mÃ¡l": 4258,
      "ĠoÄįima": 4259,
      "ĠbrÃ¡ny": 4260,
      "Ġdumy": 4261,
      "ĠpÃ¡na": 4262,
      "ĠZÃ¡": 4263,
      "StÃ¡": 4264,
      "ĠHu": 4265,
      "Proto": 4266,
      "ĠtrÃ¡vy": 4267,
      "Sto": 4268,
      "vnÃŃm": 4269,
      "Ġsnech": 4270,
      "ĠmÅ¾i": 4271,
      "Ġbrou": 4272,
      "pek": 4273,
      "neme": 4274,
      "chÃ¡ch": 4275,
      "Ġlaho": 4276,
      "ĠrodnÃ©": 4277,
      "ĠbÃŃdu": 4278,
      "ĠlidskÃ¡": 4279,
      "ĠzÅ¯stal": 4280,
      "Ġpekel": 4281,
      "rz": 4282,
      "nily": 4283,
      "ĠmÃŃstÄĽ": 4284,
      "dlou": 4285,
      "nili": 4286,
      "ĠvÄĽku": 4287,
      "Ġdavu": 4288,
      "Ġpozdrav": 4289,
      "Ġopat": 4290,
      "Ġpol": 4291,
      "lovÄĽk": 4292,
      "dva": 4293,
      "ĠtrÃ½": 4294,
      "ĠzlÃ½": 4295,
      "nali": 4296,
      "kaly": 4297,
      "pÃŃrÃ¡": 4298,
      "ĠÅĻad": 4299,
      "tily": 4300,
      "ĠÅ¾itÃŃm": 4301,
      "Ġpano": 4302,
      "zÃŃch": 4303,
      "ĠsmÃ¡l": 4304,
      "Ġpora": 4305,
      "ĠrozechvÄĽ": 4306,
      "ĠvzrÅ¯": 4307,
      "vese": 4308,
      "dum": 4309,
      "ĠpÅĻipra": 4310,
      "Ġmilou": 4311,
      "ĠklÃŃnu": 4312,
      "ĠknÄĽz": 4313,
      "ĠvÃ½kÅĻik": 4314,
      "ĠÄįÃŃÅ¡e": 4315,
      "Ġklade": 4316,
      "pky": 4317,
      "vcÅ¯": 4318,
      "Ġjat": 4319,
      "ĠkÅĻo": 4320,
      "Å¾to": 4321,
      "nez": 4322,
      "Ja": 4323,
      "ĠbudiÅ¾": 4324,
      "ĠbÅĻeh": 4325,
      "ĠvroucnÄĽ": 4326,
      "ĠozvÄĽ": 4327,
      "Ġplou": 4328,
      "ĠneÅ¡Å¥ast": 4329,
      "ĠusmÃŃvÃ¡": 4330,
      "pnÄĽ": 4331,
      "Ġzahy": 4332,
      "Ġnitro": 4333,
      "ĠSe": 4334,
      "ĠsamÃ©": 4335,
      "Ġhledal": 4336,
      "lko": 4337,
      "ĠÅ½": 4338,
      "ĠvÄĽÅ¾ÃŃ": 4339,
      "ĠpracÃŃ": 4340,
      "Ġjindy": 4341,
      "ĠsprÃ¡": 4342,
      "ĠSlÃ¡": 4343,
      "ÅĻenÃ¡": 4344,
      "dilo": 4345,
      "ĠÄįerven": 4346,
      "Ġduchem": 4347,
      "Ġjestli": 4348,
      "ĠhÃ¡je": 4349,
      "znÄĽl": 4350,
      "tÃŃÅ¡": 4351,
      "ĠvaÅ¡ÃŃ": 4352,
      "ĠtÃ¡hnou": 4353,
      "ĠtÃŃÅ¾": 4354,
      "Mne": 4355,
      "vÅ¡": 4356,
      "Ġucho": 4357,
      "ĠvznÃ¡Å¡ÃŃ": 4358,
      "ĠslzÃ¡ch": 4359,
      "ĠvÄĽtve": 4360,
      "Ġdlu": 4361,
      "ĠstÃ¡ÅĻÃŃ": 4362,
      "ĠzÅĻÃŃt": 4363,
      "tli": 4364,
      "ĠjinÃ¡": 4365,
      "Å¾ena": 4366,
      "vola": 4367,
      "lÃŃÅ¡": 4368,
      "Ġskle": 4369,
      "ĠÅĻÃŃÅ¡": 4370,
      "ĠjinÃ½m": 4371,
      "ĠprostÃ©": 4372,
      "ĠdivÃ©": 4373,
      "Ġznak": 4374,
      "ĠAle": 4375,
      "ĠnejvÃŃc": 4376,
      "ĠmladÃ½ch": 4377,
      "Ġkoho": 4378,
      "prostÅĻed": 4379,
      "Kdyby": 4380,
      "hej": 4381,
      "Jeho": 4382,
      "Ġshas": 4383,
      "ĠtuÅ¾": 4384,
      "tÅĻeba": 4385,
      "ĠdrÅ¾ÃŃ": 4386,
      "tÄĽÅ¾": 4387,
      "Ġrodu": 4388,
      "Ġkosti": 4389,
      "ĠjejÃŃch": 4390,
      "Ġctnost": 4391,
      "kly": 4392,
      "nÃ¡s": 4393,
      "Ġpadla": 4394,
      "rce": 4395,
      "kov": 4396,
      "ĠpozdÄĽ": 4397,
      "ĠodmÄĽ": 4398,
      "ĠsvÅ¯": 4399,
      "Ġmaje": 4400,
      "ĠcÃŃli": 4401,
      "lili": 4402,
      "nÃŃÅ¡": 4403,
      "Ġvyko": 4404,
      "ĠÅ¾ivÃ©": 4405,
      "Ġtvoji": 4406,
      "ĠskrÃ¡nÃŃ": 4407,
      "Ġodva": 4408,
      "Ġplyne": 4409,
      "JÃŃ": 4410,
      "Sem": 4411,
      "Å¡nou": 4412,
      "ĠzahrÃ¡": 4413,
      "ÄįkÅ¯": 4414,
      "tÃ©ho": 4415,
      "ĠmladÃŃ": 4416,
      "Ġznamen": 4417,
      "Ġdaleko": 4418,
      "rka": 4419,
      "lÃ¡k": 4420,
      "ĠmoÅĻ": 4421,
      "Ġrodi": 4422,
      "ĠprÃ¡zdno": 4423,
      "Hu": 4424,
      "lta": 4425,
      "dÄĽje": 4426,
      "Ġhoto": 4427,
      "Ġvzly": 4428,
      "viny": 4429,
      "ĠdÄĽlÃ¡": 4430,
      "Å¡enÃ½": 4431,
      "ĠmrtvÃ½": 4432,
      "Ġmluvit": 4433,
      "ĠÅĻady": 4434,
      "DÃ¡": 4435,
      "Ġvdo": 4436,
      "ĠhnÃ¡": 4437,
      "Ġprsty": 4438,
      "ĠdennÃŃ": 4439,
      "Ġkdos": 4440,
      "Ġstruny": 4441,
      "myÅ¡len": 4442,
      "Å¾iv": 4443,
      "PÅĻes": 4444,
      "vro": 4445,
      "Ġslzou": 4446,
      "Ġpurpu": 4447,
      "ĠtichÃ©m": 4448,
      "Ġdneska": 4449,
      "BoÅ¾e": 4450,
      "Ġrosa": 4451,
      "ĠzpÄĽvy": 4452,
      "ĠmrakÅ¯": 4453,
      "ĠstoupÃ¡": 4454,
      "Ġspu": 4455,
      "ĠsvÄĽtlem": 4456,
      "ĠKdo": 4457,
      "Ġfan": 4458,
      "Ġperly": 4459,
      "ĠchvÃŃlÃŃ": 4460,
      "voj": 4461,
      "ÄįÃŃÅ¡": 4462,
      "ĠptÃ¡kÅ¯": 4463,
      "ĠdivnÃ½": 4464,
      "enu": 4465,
      "tilo": 4466,
      "ĠbÃ¡je": 4467,
      "Ġheb": 4468,
      "ĠpoÅ¾ehnÃ¡nÃŃ": 4469,
      "eny": 4470,
      "tuje": 4471,
      "Ġvelko": 4472,
      "ĠkrÃ¡snou": 4473,
      "ĠdvÃ©ÅĻe": 4474,
      "ĠpoupÄĽ": 4475,
      "ĠslyÅ¡e": 4476,
      "rÃ¡Å¾ÃŃ": 4477,
      "ĠJeho": 4478,
      "Ġhed": 4479,
      "Lid": 4480,
      "ĠupÅĻÃŃm": 4481,
      "knÄĽ": 4482,
      "rÃ¡t": 4483,
      "ĠpÅĻÃŃval": 4484,
      "jÃ¡k": 4485,
      "fe": 4486,
      "ĠnÃ©": 4487,
      "povÃŃ": 4488,
      "ĠzÃ¡kon": 4489,
      "ĠOn": 4490,
      "ĠskrÃ¡nÄĽ": 4491,
      "ĠvÅ¡ickni": 4492,
      "Ġkos": 4493,
      "ĠhnÃŃzdo": 4494,
      "cou": 4495,
      "ĠdnÄĽ": 4496,
      "ĠvlnÃ¡ch": 4497,
      "Ġlaska": 4498,
      "Ġoknem": 4499,
      "ĠvlÃ¡dne": 4500,
      "ĠskÃ¡le": 4501,
      "ĠumÄĽ": 4502,
      "Å¡ila": 4503,
      "ĠtÄĽÅ¾kÃ¡": 4504,
      "rovnÃ¡": 4505,
      "Ġlesku": 4506,
      "smut": 4507,
      "rala": 4508,
      "Ġjesti": 4509,
      "ĠcelÃ©m": 4510,
      "ĠzvonÅ¯": 4511,
      "ĠvÃ¡Å¡ni": 4512,
      "Ġzaho": 4513,
      "chÃ¡m": 4514,
      "vÄĽzd": 4515,
      "ĠplÃ¡nÃŃ": 4516,
      "ĠvaÅ¡ich": 4517,
      "ĠsvÄĽd": 4518,
      "Ġpoesie": 4519,
      "eno": 4520,
      "ĠhonÃŃ": 4521,
      "ĠpamÄĽti": 4522,
      "SvÃ©": 4523,
      "rnÃ½m": 4524,
      "ĠjednÃŃm": 4525,
      "ĠÅ¾enÄĽ": 4526,
      "ĠÄįistÃ¡": 4527,
      "ĠÅ¾havÃ©": 4528,
      "zvuk": 4529,
      "uj": 4530,
      "Pos": 4531,
      "ĠdivÃ¡": 4532,
      "Ġspokojen": 4533,
      "Jenom": 4534,
      "Ġbit": 4535,
      "ĠkÃ¡Å¾e": 4536,
      "ĠtrÅ¯n": 4537,
      "ĠukÃ¡": 4538,
      "ĠvÄĽrnÄĽ": 4539,
      "ĠlÃŃp": 4540,
      "ĠbÃŃda": 4541,
      "Ġsnil": 4542,
      "ĠhÃ¡zÃŃ": 4543,
      "Ġkruhu": 4544,
      "ĠbolestÃŃ": 4545,
      "Ġobzoru": 4546,
      "hÅĻe": 4547,
      "stav": 4548,
      "Ġnejsem": 4549,
      "ĠchladnÃ½": 4550,
      "tosti": 4551,
      "amo": 4552,
      "ÅĻena": 4553,
      "Ġzat": 4554,
      "is": 4555,
      "Å¾eb": 4556,
      "Ġletem": 4557,
      "ĠmanÄĽ": 4558,
      "jeme": 4559,
      "Ġmiloval": 4560,
      "ĠÅ¾havÃ½": 4561,
      "ĠvÃ¡Å¾nÄĽ": 4562,
      "Ġano": 4563,
      "Ġvyr": 4564,
      "stek": 4565,
      "Ġmed": 4566,
      "rci": 4567,
      "tlo": 4568,
      "zte": 4569,
      "Ġvolal": 4570,
      "klady": 4571,
      "nut": 4572,
      "ĠposlÃ©z": 4573,
      "ĠmocnÃ½": 4574,
      "ĠplnÃŃ": 4575,
      "sÅ¥an": 4576,
      "ĠokamÅ¾i": 4577,
      "hÅĻÃŃ": 4578,
      "tly": 4579,
      "Ġvyz": 4580,
      "hovÃ©": 4581,
      "ĠtisÃŃ": 4582,
      "pomÃŃnÃ¡": 4583,
      "ĠkÅĻik": 4584,
      "ĠvelikÃ½": 4585,
      "chvÃŃ": 4586,
      "ĠÅ¡kle": 4587,
      "vÄĽtÅ¡ÃŃ": 4588,
      "ĠÅĻÃŃm": 4589,
      "ĠstÅĻÃŃbro": 4590,
      "Ġtri": 4591,
      "ĠÄįelem": 4592,
      "ĠzrakÅ¯": 4593,
      "Ġstrachu": 4594,
      "ĠdlouhÃ½ch": 4595,
      "chtÄĽl": 4596,
      "ĠkvÃ©": 4597,
      "vic": 4598,
      "ĠzÃ¡ko": 4599,
      "Ġvyp": 4600,
      "ĠtmavÃ½": 4601,
      "telem": 4602,
      "ĠprchÃ¡": 4603,
      "ĠmuÅ¾Å¯": 4604,
      "Hoj": 4605,
      "Ġdaleka": 4606,
      "tvÃ¡ÅĻ": 4607,
      "ĠkrÃ¡tkÃ½": 4608,
      "Ġstin": 4609,
      "kami": 4610,
      "Ġjakou": 4611,
      "Ġletech": 4612,
      "ĠlÃŃcÃŃ": 4613,
      "juÅ¾": 4614,
      "ĠtvÅ¯r": 4615,
      "ĠvÃŃtÃ¡": 4616,
      "Ġviny": 4617,
      "svi": 4618,
      "ĠpÄĽstÃŃ": 4619,
      "Ġhyne": 4620,
      "Ã½Å¡": 4621,
      "ĠmÃ¡j": 4622,
      "ĠSlo": 4623,
      "ĠplnÃ¡": 4624,
      "Jsme": 4625,
      "oh": 4626,
      "ĠbratÅĻe": 4627,
      "znÃ½": 4628,
      "ĠvznÄĽ": 4629,
      "Ġvyje": 4630,
      "ĠsÃŃnÄĽ": 4631,
      "ĠÅ¾Ã¡rem": 4632,
      "ĠsmutnÃ¡": 4633,
      "ĠhÅ¯": 4634,
      "Ġticha": 4635,
      "ĠzÃ¡padu": 4636,
      "ĠmÃ¡ti": 4637,
      "Ġclo": 4638,
      "gra": 4639,
      "Ġvstal": 4640,
      "rovÃ©": 4641,
      "ĠÃºc": 4642,
      "Ġradu": 4643,
      "ĠplÃ¡Äįem": 4644,
      "Å¾nÃ¡": 4645,
      "ĠbuÅ¡ÃŃ": 4646,
      "ĠpÅĻiÅ¡li": 4647,
      "Ġdomov": 4648,
      "Ry": 4649,
      "ĠÄįekal": 4650,
      "Ġtehdy": 4651,
      "ĠstÃ¡li": 4652,
      "ĠÄįernou": 4653,
      "Ġdruhu": 4654,
      "ÅĻenÃ½ch": 4655,
      "Ġpusti": 4656,
      "ĠvÄĽnce": 4657,
      "ĠvÄĽÄįnou": 4658,
      "Ġmechu": 4659,
      "Ġbarvy": 4660,
      "ĠnazpÄĽt": 4661,
      "ĠdÄĽtem": 4662,
      "ĠzvuÄįÃŃ": 4663,
      "ia": 4664,
      "Ġoni": 4665,
      "ÅĻice": 4666,
      "Ġtyto": 4667,
      "ĠvÄĽcÃŃ": 4668,
      "Ġcitu": 4669,
      "zat": 4670,
      "tovÃ©": 4671,
      "ĠsrdcÃŃch": 4672,
      "ĠspÃŃcÃŃ": 4673,
      "ĠokamÅ¾ik": 4674,
      "Ġobou": 4675,
      "leno": 4676,
      "ĠvÃ½cho": 4677,
      "Ġony": 4678,
      "Äįina": 4679,
      "Ġpeklo": 4680,
      "ĠsmÃŃchem": 4681,
      "Star": 4682,
      "ĠsedÄĽl": 4683,
      "byÅ¥": 4684,
      "chala": 4685,
      "Ġnemoh": 4686,
      "mal": 4687,
      "ĠnaÅ¡em": 4688,
      "Ġtopo": 4689,
      "fo": 4690,
      "povÄĽ": 4691,
      "ĠvdÄĽk": 4692,
      "Ġvou": 4693,
      "vedla": 4694,
      "mÅ¯Å¾e": 4695,
      "ĠzpÃŃvat": 4696,
      "vaje": 4697,
      "Ġsic": 4698,
      "Ġner": 4699,
      "Ġnaho": 4700,
      "ĠtÄĽÅ¡ÃŃ": 4701,
      "ĠzÅ¯sta": 4702,
      "Dru": 4703,
      "ĠodvÃ¡": 4704,
      "ĠrÃ¡mÄĽ": 4705,
      "ckou": 4706,
      "ĠnoÅĻÃŃ": 4707,
      "Ġostat": 4708,
      "Ġdom": 4709,
      "jala": 4710,
      "Ġkalich": 4711,
      "ĠÅ¾ert": 4712,
      "ĠvÃŃÅĻÃŃ": 4713,
      "pÅ¯so": 4714,
      "ĠÅĻada": 4715,
      "Ġluh": 4716,
      "ĠlÃ©pe": 4717,
      "ĠpravdÄĽ": 4718,
      "ĠrÃ¡di": 4719,
      "ĠstaÅĻec": 4720,
      "ĠpÄĽnÃŃ": 4721,
      "ĠÅ¡Å¥asten": 4722,
      "Ġzuby": 4723,
      "tice": 4724,
      "Ġrostou": 4725,
      "ĠrÃ½": 4726,
      "Ġrozpu": 4727,
      "Ġau": 4728,
      "tin": 4729,
      "Å¾ek": 4730,
      "pÃ¡n": 4731,
      "ĠLÃ¡": 4732,
      "ĠÄįlovÄĽku": 4733,
      "sny": 4734,
      "tÃ¡ch": 4735,
      "ĠÅ¡tÄĽstÃŃm": 4736,
      "raj": 4737,
      "ĠpotÃ¡": 4738,
      "huje": 4739,
      "ĠpÅ¯jde": 4740,
      "ĠverÅ¡e": 4741,
      "ĠkÅĻÃŃdlem": 4742,
      "Ġnutno": 4743,
      "Ġkre": 4744,
      "ĠdunÃŃ": 4745,
      "Ġnitra": 4746,
      "ĠpÃŃsku": 4747,
      "pec": 4748,
      "ĠKristus": 4749,
      "ĠÅ¾ivÃ½": 4750,
      "ĠvÃ¡Å¡eÅĪ": 4751,
      "ĠvlnÃŃ": 4752,
      "ĠpoznÃ¡": 4753,
      "PÃ¡n": 4754,
      "sat": 4755,
      "svÃ½ch": 4756,
      "Ġjede": 4757,
      "najÃŃ": 4758,
      "Ġzar": 4759,
      "ĠvÄĽrnÃ½": 4760,
      "ĠsÃŃÅĪ": 4761,
      "lÃ½mi": 4762,
      "Ġpropasti": 4763,
      "ĠkrÅ¯pÄĽj": 4764,
      "Pla": 4765,
      "Ġpoza": 4766,
      "nutÃŃm": 4767,
      "ĠkÅĻiÄįÃŃ": 4768,
      "ĠprosÃŃ": 4769,
      "Mil": 4770,
      "nie": 4771,
      "Ġdivy": 4772,
      "ynÃŃ": 4773,
      "mon": 4774,
      "ĠhrozÃŃ": 4775,
      "NÃ¡m": 4776,
      "ĠpodÃ¡": 4777,
      "taly": 4778,
      "Ġlabu": 4779,
      "ĠmÅ¯Å¾eÅ¡": 4780,
      "svÃŃ": 4781,
      "ĠsedÃ¡": 4782,
      "liÅ¾": 4783,
      "ÅĻiti": 4784,
      "ĠtÄĽmi": 4785,
      "ĠvÅ¡ednÃŃ": 4786,
      "ĠplÃ¡Å¡Å¥": 4787,
      "Ã©mu": 4788,
      "ĠpouÅ¡ti": 4789,
      "Ġlho": 4790,
      "ĠzvÄĽst": 4791,
      "ĠzbranÄĽ": 4792,
      "tÅ¯m": 4793,
      "ul": 4794,
      "ĠonÃ©": 4795,
      "Ġstav": 4796,
      "Ġdiva": 4797,
      "ĠÄįinÃŃ": 4798,
      "ĠÅ¾Ã¡dÃ¡": 4799,
      "Ġsmutno": 4800,
      "ĠÄįÃŃÅ¡": 4801,
      "chne": 4802,
      "ÅĪÅ¯": 4803,
      "ĠchudÃ¡": 4804,
      "ĠletnÃŃ": 4805,
      "ĠÅ¾ivotÄĽ": 4806,
      "ĠÅ¡eptÃ¡": 4807,
      "srd": 4808,
      "livÃ¡": 4809,
      "cie": 4810,
      "Ġtomto": 4811,
      "ĠhnutÃŃ": 4812,
      "ĠpojÃŃ": 4813,
      "ĠnaÄį": 4814,
      "novi": 4815,
      "Ġvyvo": 4816,
      "ĠnesmÄĽ": 4817,
      "ĠpÅĻÃŃrody": 4818,
      "Ġvzp": 4819,
      "stÃ¡l": 4820,
      "ĠjÃŃmÃ¡": 4821,
      "ĠlÅ¯nÄĽ": 4822,
      "bky": 4823,
      "Ġpoch": 4824,
      "ĠÃºto": 4825,
      "jÃŃcÃ½": 4826,
      "hlÃ©d": 4827,
      "ĠNÄĽm": 4828,
      "ĠnovÃ½m": 4829,
      "stÃ¡le": 4830,
      "zar": 4831,
      "zÅĻÃŃm": 4832,
      "nÃŃku": 4833,
      "dati": 4834,
      "ĠdivnÄĽ": 4835,
      "ĠÅ¾alo": 4836,
      "ĠmyÅ¡lenky": 4837,
      "Ġdro": 4838,
      "raje": 4839,
      "ĠznamenÃŃ": 4840,
      "ĠKarel": 4841,
      "Lu": 4842,
      "jil": 4843,
      "niti": 4844,
      "ĠvÃ¡bÃŃ": 4845,
      "ĠvaÅ¡i": 4846,
      "vodu": 4847,
      "ĠposvÄĽ": 4848,
      "ĠzvÃŃÅĻe": 4849,
      "ĠÅ¾as": 4850,
      "nova": 4851,
      "ĠletÄĽ": 4852,
      "Ġchcete": 4853,
      "Ġjal": 4854,
      "Ġznal": 4855,
      "Ġber": 4856,
      "ĠÅ¡ero": 4857,
      "Ġmalou": 4858,
      "Ġleskem": 4859,
      "Slunce": 4860,
      "br": 4861,
      "Ġrve": 4862,
      "tÃ©m": 4863,
      "vnÃ©": 4864,
      "udy": 4865,
      "sech": 4866,
      "ĠkrÃ¡lem": 4867,
      "budu": 4868,
      "ĠsÃŃle": 4869,
      "ĠodpovÃŃ": 4870,
      "Ġkri": 4871,
      "razi": 4872,
      "Ġspla": 4873,
      "hali": 4874,
      "Ġslast": 4875,
      "ĠsvatÃ½ch": 4876,
      "ĠmarnÃ©": 4877,
      "Åĺe": 4878,
      "pomnÄĽl": 4879,
      "ĠTa": 4880,
      "Ġrad": 4881,
      "pusÅ¥": 4882,
      "Ġpokry": 4883,
      "VÅ¡ecko": 4884,
      "bej": 4885,
      "Ġplen": 4886,
      "ĠzaznÃŃ": 4887,
      "Ġvzlet": 4888,
      "ĠkrÃ¡snÄĽ": 4889,
      "ĠpustÃ©": 4890,
      "Å¡tÃŃm": 4891,
      "veli": 4892,
      "ĠcelÃ½m": 4893,
      "ĠhrÃ¡l": 4894,
      "zÅĻel": 4895,
      "Ġvry": 4896,
      "ĠvnitÅĻ": 4897,
      "Ġjinou": 4898,
      "ĠÃºz": 4899,
      "Ġztratil": 4900,
      "ĠzbraÅĪ": 4901,
      "ĠradÄĽj": 4902,
      "mod": 4903,
      "ĠpÅĻÃŃmo": 4904,
      "Ġstanul": 4905,
      "ĠplaÅ¡e": 4906,
      "ĠnejkrÃ¡snÄĽjÅ¡ÃŃ": 4907,
      "Ġcity": 4908,
      "ĠbÄĽd": 4909,
      "ĠkÅĻiv": 4910,
      "Ġplod": 4911,
      "Sla": 4912,
      "SlÃ¡": 4913,
      "ĠmÅ¾ik": 4914,
      "Ġvzala": 4915,
      "Ġjednom": 4916,
      "ĠhrÅ¯za": 4917,
      "ĠbdÃŃ": 4918,
      "ĠstÅ¯l": 4919,
      "tisk": 4920,
      "Ġklesla": 4921,
      "ĠhrajÃŃ": 4922,
      "Ġklobou": 4923,
      "ĠdnÃŃ": 4924,
      "Ġvodou": 4925,
      "leÅĪ": 4926,
      "Ġop": 4927,
      "ĠÃºt": 4928,
      "ĠJan": 4929,
      "fy": 4930,
      "kolik": 4931,
      "ĠkorÃ¡": 4932,
      "Ġspa": 4933,
      "Ġdcera": 4934,
      "ĠhroznÃ½": 4935,
      "ĠnÃ¡dhe": 4936,
      "Mat": 4937,
      "Ġ,": 4938,
      "Ġvsta": 4939,
      "Å½Ã¡": 4940,
      "VÅ¡ech": 4941,
      "Ġjiskry": 4942,
      "ĠÄįar": 4943,
      "ĠvÄĽdÄĽl": 4944,
      "Ġvodo": 4945,
      "ĠpouÅ¡tÃŃ": 4946,
      "dily": 4947,
      "ĠsÃŃni": 4948,
      "ÄįenÃ½": 4949,
      "bral": 4950,
      "Ġhovor": 4951,
      "Ã½t": 4952,
      "ĠTur": 4953,
      "ĠnÃŃmÅ¾": 4954,
      "ĠspÃ¡t": 4955,
      "ĠhÅĻÃŃchu": 4956,
      "ÄįkÃ¡ch": 4957,
      "ĠnemÄĽ": 4958,
      "ĠpozdnÃŃ": 4959,
      "Ġctnosti": 4960,
      "Ano": 4961,
      "tkÃ¡": 4962,
      "ĠMat": 4963,
      "cÃŃho": 4964,
      "Ġzbled": 4965,
      "vÃŃce": 4966,
      "ĠVÅ¡e": 4967,
      "pili": 4968,
      "ĠsamÃ½": 4969,
      "Ġsmrtel": 4970,
      "Ġpadl": 4971,
      "ĠzmÃŃrÃ¡": 4972,
      "neÅ¾li": 4973,
      "ĠchystÃ¡": 4974,
      "Ġzbro": 4975,
      "ĠpotÅĻe": 4976,
      "nuli": 4977,
      "Å¾enou": 4978,
      "Ġjablo": 4979,
      "ĠvidÃŃÅ¡": 4980,
      "ĠnaÅĻÃŃ": 4981,
      "Ġobrov": 4982,
      "Ġnechal": 4983,
      "Ġkmet": 4984,
      "ĠmÄĽj": 4985,
      "bili": 4986,
      "Ġnebesa": 4987,
      "tÃ½m": 4988,
      "ledy": 4989,
      "nÄĽnÃ½": 4990,
      "ĠvÄĽrnÃ©": 4991,
      "ĠÅ¾eno": 4992,
      "ĠrozkoÅ¡e": 4993,
      "ĠbojovnÃŃ": 4994,
      "ĠhleÄı": 4995,
      "Ġtemnou": 4996,
      "Ġklas": 4997,
      "Ġsvobodu": 4998,
      "Ġchvilku": 4999,
      "ĠsÃ½": 5000,
      "Ġdnech": 5001,
      "dalo": 5002,
      "ĠÅ¡edÃ½": 5003,
      "Ġpopel": 5004,
      "Me": 5005,
      "ĠpÃŃt": 5006,
      "ĠzlatÃŃ": 5007,
      "Ġnejsou": 5008,
      "Ġnesla": 5009,
      "ĠÃºÅ¾as": 5010,
      "Ej": 5011,
      "zpÄĽv": 5012,
      "Ġvykou": 5013,
      "Takto": 5014,
      "Ġpozor": 5015,
      "ĠhledÃŃm": 5016,
      "chaÅ¥": 5017,
      "ĠÅ¾Ã¡ru": 5018,
      "Ġztr": 5019,
      "vÃ¡r": 5020,
      "ĠlÃŃbez": 5021,
      "ĠtÄĽÅ¾kou": 5022,
      "slov": 5023,
      "zdy": 5024,
      "ĠdomÄĽ": 5025,
      "Ġroj": 5026,
      "ÅĪuje": 5027,
      "mezi": 5028,
      "ĠÅĻÃŃkÃ¡": 5029,
      "Ġhluk": 5030,
      "ĠmnohÃ¡": 5031,
      "ĠpolÃŃbenÃŃ": 5032,
      "kmi": 5033,
      "vÄĽti": 5034,
      "lÃŃp": 5035,
      "ĠutÃŃ": 5036,
      "ĠsluÅ¡ÃŃ": 5037,
      "ĠhÃ¡ji": 5038,
      "Ġhalu": 5039,
      "ĠmlÃ¡d": 5040,
      "Ġproudem": 5041,
      "Ġmladosti": 5042,
      "ĠverÅ¡": 5043,
      "MuÅ¾": 5044,
      "Ġnou": 5045,
      "Ġobo": 5046,
      "Ġrozma": 5047,
      "rty": 5048,
      "Ġtmu": 5049,
      "ĠmÃ½": 5050,
      "Ġazu": 5051,
      "nÃŃci": 5052,
      "ĠstÅĻÃ¡": 5053,
      "zela": 5054,
      "ĠdÃŃk": 5055,
      "ĠmlÃ©": 5056,
      "milo": 5057,
      "ĠkterÃ½m": 5058,
      "ĠkrÄį": 5059,
      "ĠspÃ¡nek": 5060,
      "ĠhvÄĽzdÃ¡m": 5061,
      "ĠsamotÄĽ": 5062,
      "jÃŃma": 5063,
      "ÄįekÃ¡": 5064,
      "ĠbojÃŃ": 5065,
      "proto": 5066,
      "mysl": 5067,
      "ĠsnÃ¡": 5068,
      "ĠvodÄĽ": 5069,
      "ĠpÃ¡nem": 5070,
      "ĠstokrÃ¡t": 5071,
      "ĠvlÃŃdnÄĽ": 5072,
      "Ġnajde": 5073,
      "ĠvyÅ¡Å¡ÃŃ": 5074,
      "Ġmuka": 5075,
      "pis": 5076,
      "ĠstÃŃnem": 5077,
      "Ġsouse": 5078,
      "ÄįnÃ©m": 5079,
      "pala": 5080,
      "ĠnejvyÅ¡Å¡ÃŃ": 5081,
      "Ġblankyt": 5082,
      "ĠÄįerst": 5083,
      "Ġopoj": 5084,
      "ÄįÅ¯": 5085,
      "jev": 5086,
      "divo": 5087,
      "Ġplesu": 5088,
      "nÃ¡ct": 5089,
      "ĠvÅ¡udy": 5090,
      "nenÃŃ": 5091,
      "jedi": 5092,
      "tesk": 5093,
      "ĠpouhÃ½": 5094,
      "Ġtouhu": 5095,
      "Ġvzdechy": 5096,
      "Ġunaven": 5097,
      "ÄįnÃŃm": 5098,
      "Ġnetu": 5099,
      "ĠkrÃ¡lÅ¯": 5100,
      "ĠpouÅ¡tÄĽ": 5101,
      "ĠmodlÃŃ": 5102,
      "ĠtrhÃ¡": 5103,
      "zdu": 5104,
      "Äįiti": 5105,
      "ĠdÄĽvy": 5106,
      "lenÃ½ch": 5107,
      "ĠryzÃŃ": 5108,
      "ĠtrÃ¡va": 5109,
      "Ġex": 5110,
      "Ġnesta": 5111,
      "ĠzavÃ¡": 5112,
      "die": 5113,
      "kÃ½mi": 5114,
      "ĠcizÃŃch": 5115,
      "Ġknihy": 5116,
      "razil": 5117,
      "Stra": 5118,
      "Tou": 5119,
      "jdi": 5120,
      "mbo": 5121,
      "Ġpovin": 5122,
      "ĠMÃ¡": 5123,
      "Ġsmysl": 5124,
      "Ġmladou": 5125,
      "ĠklÃŃnÄĽ": 5126,
      "ĠschÃ½": 5127,
      "Ġdok": 5128,
      "ĠÄįnÃŃ": 5129,
      "ĠleÅ¾": 5130,
      "ĠÅ¾ivotu": 5131,
      "ĠsvÄĽdomÃŃ": 5132,
      "Ġzlost": 5133,
      "Ġhledat": 5134,
      "Ġpochyb": 5135,
      "Ġnach": 5136,
      "Ġryt": 5137,
      "Ġjasu": 5138,
      "prch": 5139,
      "ChtÄĽl": 5140,
      "ĠvlÃ¡d": 5141,
      "Ġdosta": 5142,
      "ĠMe": 5143,
      "Ġslasti": 5144,
      "ĠÅ¡ÃŃji": 5145,
      "Ġozdo": 5146,
      "ĠhrdÃ©": 5147,
      "ĠskuteÄį": 5148,
      "Bude": 5149,
      "chrÃ¡": 5150,
      "ĠTvÃ¡": 5151,
      "ĠkterÃ½ch": 5152,
      "ĠtajnÄĽ": 5153,
      "ĠplÃ©mÄĽ": 5154,
      "JuÅ¾": 5155,
      "ply": 5156,
      "Ġsev": 5157,
      "kdes": 5158,
      "ĠvÄĽÄįnost": 5159,
      "Ġkouzlem": 5160,
      "ary": 5161,
      "buje": 5162,
      "Jej": 5163,
      "Ml": 5164,
      "Å¾stvÃŃ": 5165,
      "ÄįÃŃch": 5166,
      "ĠlÃŃbal": 5167,
      "chÃ¡zel": 5168,
      "ĠhroznÃ©": 5169,
      "ĠpolÃŃch": 5170,
      "ĠvonnÃ½": 5171,
      "ĠzlatÃ½m": 5172,
      "Ġhvozd": 5173,
      "VÅ¯": 5174,
      "ĠmÅĻe": 5175,
      "rovi": 5176,
      "toval": 5177,
      "Ġdobrou": 5178,
      "ĠnÃ¡rodu": 5179,
      "ĠbrÃ¡nÃŃ": 5180,
      "ĠznÃ¡mÃ½": 5181,
      "DÃ¡l": 5182,
      "lk": 5183,
      "ĠdomÃ¡": 5184,
      "Ġtoto": 5185,
      "ĠvznÃŃ": 5186,
      "ĠHle": 5187,
      "Ġzoufa": 5188,
      "ĠjakÃ½s": 5189,
      "zdÃŃ": 5190,
      "ĠhostÃŃ": 5191,
      "mÄĽla": 5192,
      "Å¾enÃ¡": 5193,
      "Ġbrachu": 5194,
      "Ġbratra": 5195,
      "hlubo": 5196,
      "ĠvÃŃte": 5197,
      "Ġhlasu": 5198,
      "Ġsoucit": 5199,
      "lily": 5200,
      "asy": 5201,
      "ĠtÃ©mÄĽ": 5202,
      "ĠsladkÃ½ch": 5203,
      "vÅ¡ecko": 5204,
      "Pe": 5205,
      "Si": 5206,
      "Ġzho": 5207,
      "ĠpapeÅ¾": 5208,
      "stÃŃn": 5209,
      "stÃ¡nÃŃ": 5210,
      "ĠPraze": 5211,
      "PÃŃ": 5212,
      "jmu": 5213,
      "letu": 5214,
      "ĠmoÅĻÃŃ": 5215,
      "ĠctÃŃ": 5216,
      "bÃ½t": 5217,
      "vÅ¡i": 5218,
      "Ġbychom": 5219,
      "dÄĽte": 5220,
      "Ġkomo": 5221,
      "Ġlek": 5222,
      "Ġmile": 5223,
      "Ġhlav": 5224,
      "kÃ©Å¾": 5225,
      "Ġvinu": 5226,
      "JakÃ½": 5227,
      "Ġmrtev": 5228,
      "ĠzlatÃ©m": 5229,
      "Ġdy": 5230,
      "Ġpodob": 5231,
      "ĠhrabÄĽ": 5232,
      "Ġmyslil": 5233,
      "Ġjinoch": 5234,
      "Ġsled": 5235,
      "Ġpodi": 5236,
      "Ġodtud": 5237,
      "Ġsvitu": 5238,
      "ĠtÅĻpytÃŃ": 5239,
      "nicÃŃ": 5240,
      "ĠTvÃ½ch": 5241,
      "Ġhavra": 5242,
      "Ġznaven": 5243,
      "ĠjedinÃ¡": 5244,
      "ari": 5245,
      "ĠrÃ©": 5246,
      "prou": 5247,
      "rok": 5248,
      "Ġnalez": 5249,
      "Ġsten": 5250,
      "ver": 5251,
      "vilo": 5252,
      "Ġroztou": 5253,
      "Ġpri": 5254,
      "Ġvodu": 5255,
      "ĠdÃŃky": 5256,
      "Ġsluje": 5257,
      "ĠspÃ¡sy": 5258,
      "Ġhrdin": 5259,
      "Ġbratry": 5260,
      "kynÄĽ": 5261,
      "Ġhore": 5262,
      "Ġminul": 5263,
      "Slo": 5264,
      "Äįnost": 5265,
      "ÅĻilo": 5266,
      "ĠodvÄĽ": 5267,
      "ĠvÃ¡nek": 5268,
      "Ġmysti": 5269,
      "Ġvrah": 5270,
      "Ġulic": 5271,
      "vinu": 5272,
      "ĠzdÃ¡l": 5273,
      "ĠpohÃ¡r": 5274,
      "Ġzahrad": 5275,
      "TÃŃm": 5276,
      "snÃ½ch": 5277,
      "Å¾no": 5278,
      "ÅĻily": 5279,
      "nika": 5280,
      "kdys": 5281,
      "Ġteskno": 5282,
      "ĠpoutnÃŃk": 5283,
      "Å¾a": 5284,
      "chat": 5285,
      "ĠleÅ¾el": 5286,
      "ĠÅ¡erÃ©": 5287,
      "Ġusly": 5288,
      "nÃŃky": 5289,
      "ĠrÃ½m": 5290,
      "Ġrozmar": 5291,
      "ĠpÅ¯du": 5292,
      "ĠÅĻekne": 5293,
      "Ġmiluje": 5294,
      "Nebe": 5295,
      "ĠpÅĻÃŃteli": 5296,
      "ĠdivÄĽ": 5297,
      "ĠvÄĽtrÅ¯": 5298,
      "ĠRa": 5299,
      "ĠzbranÃŃ": 5300,
      "ĠvzdychÃ¡": 5301,
      "Ġvtip": 5302,
      "Sotva": 5303,
      "alou": 5304,
      "ĠdÃ¡vnÃ©": 5305,
      "ĠÄıÃ¡bel": 5306,
      "ĠdÄĽjin": 5307,
      "Ġjihu": 5308,
      "diti": 5309,
      "mÃ¡n": 5310,
      "Ġbral": 5311,
      "ĠpÃŃÅ¡e": 5312,
      "ĠvÅ¯bec": 5313,
      "ĠotvÃŃrÃ¡": 5314,
      "Ġbledou": 5315,
      "Pou": 5316,
      "ĠneÃº": 5317,
      "ĠpÄĽje": 5318,
      "ĠnechtÄĽl": 5319,
      "ĠÄĮechÃ¡ch": 5320,
      "Ġpomalu": 5321,
      "),": 5322,
      "Ġneji": 5323,
      "ĠneÅ¡tÄĽstÃŃ": 5324,
      "novu": 5325,
      "bytÃŃ": 5326,
      "ezi": 5327,
      "Ġracho": 5328,
      "ĠchtÄĽli": 5329,
      "plu": 5330,
      "Ġzaml": 5331,
      "dÄĽly": 5332,
      "kdyby": 5333,
      "krÃ¡l": 5334,
      "Ġslzu": 5335,
      "ĠskrÃ¡ni": 5336,
      "NuÅ¾e": 5337,
      "znal": 5338,
      "liti": 5339,
      "Ġal": 5340,
      "ĠmÄĽsÃŃce": 5341,
      "ĠÃºtro": 5342,
      "ĠsvÄĽtle": 5343,
      "ĠkterÃ©m": 5344,
      "Ġslunko": 5345,
      "bala": 5346,
      "ĠplÃ¡l": 5347,
      "Ġblaze": 5348,
      "ĠvelikÃ©": 5349,
      "Ġtrest": 5350,
      "ĠodpovÄĽÄı": 5351,
      "Ġpozem": 5352,
      "Ġproudu": 5353,
      "ĠspÄĽchÃ¡": 5354,
      "ĠÄįÃŃÅ¡i": 5355,
      "dale": 5356,
      "ĠvÄĽtry": 5357,
      "Ġbisku": 5358,
      "Jdi": 5359,
      "KvÄĽt": 5360,
      "Ġpohy": 5361,
      "ĠÅ¾elez": 5362,
      "sili": 5363,
      "ĠbÃŃlÃ©m": 5364,
      "koho": 5365,
      "Ġmilio": 5366,
      "aso": 5367,
      "ĠtatÃŃ": 5368,
      "Ġrady": 5369,
      "ĠvÅ¡echen": 5370,
      "ĠvrhÃ¡": 5371,
      "krva": 5372,
      "Ġzvyk": 5373,
      "ĠkoÅĻist": 5374,
      "Vra": 5375,
      "ĠkonÃŃ": 5376,
      "Ġvrat": 5377,
      "Ġokno": 5378,
      "ĠmlÃ¡de": 5379,
      "ĠÅĻÃ¡d": 5380,
      "slyÅ¡": 5381,
      "jejÃŃ": 5382,
      "tÄĽjÅ¡ÃŃ": 5383,
      "Ġskla": 5384,
      "skÃ©mu": 5385,
      "Ġnesl": 5386,
      "ĠjasnÃ¡": 5387,
      "padne": 5388,
      "ĠzÃ¡ÅĻÃŃcÃŃ": 5389,
      "Ġminulosti": 5390,
      "ĠblÃ½skÃ¡": 5391,
      "ĠkolÃ©": 5392,
      "pÃŃÅ¡": 5393,
      "ĠKu": 5394,
      "ĠnechtÄĽ": 5395,
      "Ġstisk": 5396,
      "nt": 5397,
      "ĠbÄĽlost": 5398,
      "ĠtratÃŃ": 5399,
      "ĠoltÃ¡ÅĻ": 5400,
      "ĠtlaÄįÃŃ": 5401,
      "Bra": 5402,
      "vnÃ½": 5403,
      "ÅĻÃŃcÃŃ": 5404,
      "Ġzachy": 5405,
      "ÅĪÃ¡": 5406,
      "Å¾ivo": 5407,
      "vzpomÃŃ": 5408,
      "ĠnutÃŃ": 5409,
      "ĠperuÅ¥": 5410,
      "Ġnaklo": 5411,
      "kÅĻe": 5412,
      "tkÅ¯": 5413,
      "letÄĽl": 5414,
      "atan": 5415,
      "Ġvrch": 5416,
      "ĠpÅ¯jdu": 5417,
      "Ġspraved": 5418,
      "Zrak": 5419,
      "ÅĻte": 5420,
      "Ġspro": 5421,
      "Ġmlh": 5422,
      "Ġlidstvu": 5423,
      "vrÃ¡til": 5424,
      "Ġveleb": 5425,
      "vÃ¡nek": 5426,
      "kova": 5427,
      "ĠpouÅ¡Å¥": 5428,
      "ĠzeleÅĪ": 5429,
      "ĠstrÃ¡ni": 5430,
      "Ġnen": 5431,
      "âĢĿ": 5432,
      "ĠoÅĻe": 5433,
      "Äįinu": 5434,
      "ĠÄįeskÃ¡": 5435,
      "ĠAch": 5436,
      "ĠmodrÃ½": 5437,
      "kvÃ©tÃ¡": 5438,
      "Ġztu": 5439,
      "Ġorel": 5440,
      "nebe": 5441,
      "Ġklasy": 5442,
      "Ġplameny": 5443,
      "ĠpÅ¯vab": 5444,
      "Smut": 5445,
      "tul": 5446,
      "ĠÅ¡era": 5447,
      "Ġmelo": 5448,
      "ĠsvatÃ½m": 5449,
      "ĠsmÄĽlÃ½": 5450,
      "NynÃŃ": 5451,
      "stky": 5452,
      "teÅĻi": 5453,
      "ĠSy": 5454,
      "ĠchudÃ½": 5455,
      "ĠzaÄįal": 5456,
      "Duch": 5457,
      "ĠkÅ¯ÅĪ": 5458,
      "ĠbÅĻi": 5459,
      "Ġnerozu": 5460,
      "ĠvelÃŃ": 5461,
      "Ġtuze": 5462,
      "chovÃ©": 5463,
      "RÃ¡d": 5464,
      "Ġnau": 5465,
      "kop": 5466,
      "vyk": 5467,
      "Ġpravo": 5468,
      "sotva": 5469,
      "ĠÄįarov": 5470,
      "ĠjmÃ©na": 5471,
      "Ġmoudro": 5472,
      "Ġzt": 5473,
      "Ġzrovna": 5474,
      "Ġkolena": 5475,
      "ĠpÅĻines": 5476,
      "ĠdÃŃtky": 5477,
      "Bylo": 5478,
      "Ġdechu": 5479,
      "ĠspÄĽje": 5480,
      "ĠjedinÃ©": 5481,
      "Ġhrdlo": 5482,
      "ĠpoÄįal": 5483,
      "ĠpenÃŃ": 5484,
      "Ġnesko": 5485,
      "ĠzavÃŃ": 5486,
      "âĢľ.": 5487,
      "vily": 5488,
      "ĠprvnÃŃm": 5489,
      "Ġzasmu": 5490,
      "ĠtanÄįÃŃ": 5491,
      "Å¡tnÃŃ": 5492,
      "ron": 5493,
      "cemi": 5494,
      "ĠzÃ¡mku": 5495,
      "Zla": 5496,
      "ĠkrÃ¡snÃ½ch": 5497,
      "ĠperutÃŃ": 5498,
      "Ġjmeno": 5499,
      "ĠzÅĻela": 5500,
      "jeden": 5501,
      "Ġrosou": 5502,
      "Äįilo": 5503,
      "ÄĮa": 5504,
      "ĠposvÃ¡": 5505,
      "Ġsoudu": 5506,
      "par": 5507,
      "sÃ©": 5508,
      "rÃ¡Å¾": 5509,
      "Ġnapo": 5510,
      "nuÅ¾": 5511,
      "Ġlev": 5512,
      "Ġranou": 5513,
      "ĠprÃ¡h": 5514,
      "Ġzdroj": 5515,
      "Ġmatkou": 5516,
      "Ġchyt": 5517,
      "ĠzbÃ½vÃ¡": 5518,
      "Ġvojsko": 5519,
      "Äįan": 5520,
      "ĠvÅ¡eli": 5521,
      "Ġkout": 5522,
      "Ġpohr": 5523,
      "ĠvelikÃ¡": 5524,
      "BÃŃ": 5525,
      "Dlou": 5526,
      "ĠÄįert": 5527,
      "stojÃŃ": 5528,
      "ĠmlÃ¡den": 5529,
      "ĠzdrÃ¡v": 5530,
      "ĠÃºzkost": 5531,
      "CÃŃ": 5532,
      "Ġvkro": 5533,
      "bÃ½vÃ¡": 5534,
      "nÄĽm": 5535,
      "Ġbytost": 5536,
      "Ġruchu": 5537,
      "Ġsice": 5538,
      "ĠÄįiny": 5539,
      "ĠsilnÃ½": 5540,
      "Ġgra": 5541,
      "ĠtesknÄĽ": 5542,
      "ĠdÃ©Å¡Å¥": 5543,
      "nkÃ¡ch": 5544,
      "Ġovo": 5545,
      "ĠdruÅ¾i": 5546,
      "Ġzdar": 5547,
      "dlÃ½": 5548,
      "vÅĻÃŃ": 5549,
      "zne": 5550,
      "meÅĪ": 5551,
      "chodu": 5552,
      "ĠstrojÃŃ": 5553,
      "Ġpocti": 5554,
      "volu": 5555,
      "Å¥te": 5556,
      "ĠkoneÄįnÄĽ": 5557,
      "Ġhlavi": 5558,
      "bÄĽh": 5559,
      "ĠhrÃ¡t": 5560,
      "ĠhnÃŃzda": 5561,
      "Ġbyst": 5562,
      "Ġmohy": 5563,
      "tÃ¡h": 5564,
      "ĠdvojÃŃ": 5565,
      "ĠzÃ¡Å¡tÃŃ": 5566,
      "ret": 5567,
      "bitÃŃ": 5568,
      "ĠplatÃŃ": 5569,
      "Ġbezpe": 5570,
      "Åłe": 5571,
      "ĠstojÃŃm": 5572,
      "Ġchlap": 5573,
      "ĠsbÃŃ": 5574,
      "ĠkÃ©Å¾": 5575,
      "lala": 5576,
      "Ġhorou": 5577,
      "Ġzkvet": 5578,
      "lepÅ¡ÃŃ": 5579,
      "Ġchti": 5580,
      "ster": 5581,
      "Ġkrbu": 5582,
      "Ġvlnou": 5583,
      "KdoÅ¾": 5584,
      "ĠzÅĻÃŃti": 5585,
      "HleÄı": 5586,
      "Ġukru": 5587,
      "menÄĽ": 5588,
      "skutku": 5589,
      "ĠhnÄĽvem": 5590,
      "Ġbru": 5591,
      "Ġvedou": 5592,
      "Ġprocit": 5593,
      "ĠVo": 5594,
      "ĠSo": 5595,
      "ĠkÅĻesÅ¥an": 5596,
      "lilo": 5597,
      "Ġdotk": 5598,
      "Ġmuk": 5599,
      "ĠlÃ¡kÃ¡": 5600,
      "Ġtaje": 5601,
      "padla": 5602,
      "chajÃŃ": 5603,
      "Ġzvolal": 5604,
      "ĠvzpomÃŃnÃ¡m": 5605,
      "ĠdrobnÃ©": 5606,
      "TÅĻe": 5607,
      "Ġsf": 5608,
      "Ġabych": 5609,
      "ĠÅ¾houcÃŃ": 5610,
      "luj": 5611,
      "Ġhod": 5612,
      "ĠtÅĻesou": 5613,
      "Ġtanci": 5614,
      "ĠÄįtyÅĻi": 5615,
      "Å¾u": 5616,
      "ĠÃºdy": 5617,
      "Ġsud": 5618,
      "ĠdneÅ¡nÃŃ": 5619,
      "Ġrakev": 5620,
      "hnal": 5621,
      "Ġochra": 5622,
      "jakÃ½": 5623,
      "ĠspÅĻÃ¡": 5624,
      "ĠpÄĽl": 5625,
      "ĠnebesÅ¯m": 5626,
      "Äįnosti": 5627,
      "tÄĽm": 5628,
      "aty": 5629,
      "leni": 5630,
      "ĠdÃŃla": 5631,
      "stoj": 5632,
      "ĠpÃ¡s": 5633,
      "ĠzmizÃŃ": 5634,
      "Ġkorunu": 5635,
      "!âĢĺ": 5636,
      "tajem": 5637,
      "ĠMora": 5638,
      "StÃŃ": 5639,
      "Ġharmo": 5640,
      "ĠrovnÄĽ": 5641,
      "ĠÅ¾ele": 5642,
      "fu": 5643,
      "stnÃŃ": 5644,
      "ĠÄįeho": 5645,
      "ĠplÃ¡ni": 5646,
      "Ġmali": 5647,
      "ĠmodrÃ½ch": 5648,
      "ĠtichÃ½m": 5649,
      "ĠVÃ¡clav": 5650,
      "Sou": 5651,
      "ĠvÄĽÅĻit": 5652,
      "ĠpastÃ½": 5653,
      "ĠpÃŃlÃŃ": 5654,
      "Å¡kou": 5655,
      "Ã©ÅĻe": 5656,
      "lÃ¡m": 5657,
      "vostÃŃ": 5658,
      "ĠvÄĽÅ¡t": 5659,
      "ĠnÄĽhy": 5660,
      "ĠmÄĽlo": 5661,
      "ĠvÅ¯d": 5662,
      "vracÃŃ": 5663,
      "ĠprÅ¯vod": 5664,
      "Ka": 5665,
      "nÃ©st": 5666,
      "ĠmoÅ¾nÃ¡": 5667,
      "LÃ¡ska": 5668,
      "nkÃ©": 5669,
      "ĠodÄĽ": 5670,
      "ĠÅ¡per": 5671,
      "ĠsvÄĽtlu": 5672,
      "vnÃŃk": 5673,
      "Äįeli": 5674,
      "ĠÅ¾Ã¡dnÃ¡": 5675,
      "Ġpozo": 5676,
      "pouÅ¡tÄĽ": 5677,
      "Ġdlani": 5678,
      "Ġpluje": 5679,
      "ĠpapÃŃ": 5680,
      "Ġmoudrost": 5681,
      "ĠmanÅ¾el": 5682,
      "Å¡nÃ½ch": 5683,
      "ÅĻÃŃch": 5684,
      "Ġlety": 5685,
      "Ġlibo": 5686,
      "ĠnesmÃŃr": 5687,
      "ĠkrokÅ¯": 5688,
      "Åłel": 5689,
      "Ġjarem": 5690,
      "neboÅ¥": 5691,
      "Ġsestry": 5692,
      "rÃ¡l": 5693,
      "Ġvzpomen": 5694,
      "haly": 5695,
      "ĠkÅĻÃŃdlo": 5696,
      "stoupil": 5697,
      "ĠtrpÄĽ": 5698,
      "ĠsahÃ¡": 5699,
      "pne": 5700,
      "tna": 5701,
      "Ġpsal": 5702,
      "ĠlesÃŃch": 5703,
      "Ġvypu": 5704,
      "ĠnÃ¡ho": 5705,
      "ĠzÃ¡ba": 5706,
      "ĠzÃ¡stu": 5707,
      "ĠMy": 5708,
      "Ġsladko": 5709,
      "Ġmilovat": 5710,
      "Ġjinde": 5711,
      "ĠjÃ¡sot": 5712,
      "ĠpouÅ¥": 5713,
      "kterou": 5714,
      "Ġknihu": 5715,
      "mlou": 5716,
      "cÃŃtil": 5717,
      "ĠrozlÃ©": 5718,
      "ĠBÃŃ": 5719,
      "ĠpospÃŃ": 5720,
      "prvÃ©": 5721,
      "ĠtÄĽÅ¾kÃ½ch": 5722,
      "Ġvojska": 5723,
      "Ġzlou": 5724,
      "Ġneob": 5725,
      "Ġrozlo": 5726,
      "ĠÅ¡ÃŃp": 5727,
      "ĠTvoje": 5728,
      "Mou": 5729,
      "Smrt": 5730,
      "ĠvlasÅ¥": 5731,
      "ĠtÃ¡h": 5732,
      "Ġsvato": 5733,
      "Ġhrobem": 5734,
      "Ġhudbou": 5735,
      "Ona": 5736,
      "Ġpolem": 5737,
      "naÄį": 5738,
      "Ġroky": 5739,
      "duÅ¡e": 5740,
      "ÅĪa": 5741,
      "kvete": 5742,
      "Ġsvobody": 5743,
      "ĠÅ¡aty": 5744,
      "Ġrtu": 5745,
      "stila": 5746,
      "Ġbok": 5747,
      "Ġbozi": 5748,
      "mÃŃvÃ¡": 5749,
      "Ġhlubiny": 5750,
      "ĠzapomnÄĽl": 5751,
      "Ġkomna": 5752,
      "hru": 5753,
      "oÄįi": 5754,
      "nÄĽte": 5755,
      "nouc": 5756,
      "ĠhvÄĽzdi": 5757,
      "ĠmyÅ¡lÃ©nky": 5758,
      "ĠJiÅĻÃŃ": 5759,
      "Ġhlahol": 5760,
      "hvÄĽzd": 5761,
      "neu": 5762,
      "Ġuzav": 5763,
      "ĠÄįil": 5764,
      "Ġrozlou": 5765,
      "Å¾iti": 5766,
      "Ġluna": 5767,
      "hrad": 5768,
      "ĠÅ¡Å¥astnÃ½": 5769,
      "ĠznÄĽlo": 5770,
      "ĠhlÃ¡sÃ¡": 5771,
      "Ġtiskne": 5772,
      "ĠmraÄįna": 5773,
      "Ġopi": 5774,
      "Ġodho": 5775,
      "nÅ¯v": 5776,
      "ĠchvÄĽnÃŃ": 5777,
      "ĠnÄĽhoÅ¾": 5778,
      "Ġmohlo": 5779,
      "ĠtÅĻpyt": 5780,
      "Ġobloze": 5781,
      "Ġsnou": 5782,
      "Ġposel": 5783,
      "ĠÃºro": 5784,
      "ĠBÄĽ": 5785,
      "ĠpÅĻÃŃzrak": 5786,
      "ĠÅ¾eni": 5787,
      "ĠtvÃ©mu": 5788,
      "Ġdary": 5789,
      "Ġbudoucnosti": 5790,
      "Dva": 5791,
      "ĠsleÄį": 5792,
      "ĠdvÅ¯r": 5793,
      "kus": 5794,
      "ĠronÃŃ": 5795,
      "mÃ¡la": 5796,
      ".âĢľâĢľ": 5797,
      "ĠsÃŃtÄĽ": 5798,
      "Ġblahem": 5799,
      "pouÅ¡tÃŃ": 5800,
      "Ġjednoho": 5801,
      "ĠzimÄĽ": 5802,
      "Ġnaposledy": 5803,
      "Mod": 5804,
      "Ġkme": 5805,
      "Ġpoky": 5806,
      "Ġusta": 5807,
      "ÄįÃŃvÃ¡": 5808,
      "Ġpravou": 5809,
      "provÃ¡": 5810,
      "ĠstrÃ¡nÃŃ": 5811,
      "Jestli": 5812,
      "Ġhasne": 5813,
      "ble": 5814,
      "ĠzÃ¡me": 5815,
      "ĠkrutÃ½": 5816,
      "Ġpanna": 5817,
      "ĠrozkoÅ¡ÃŃ": 5818,
      "Pu": 5819,
      "nÃŃka": 5820,
      "don": 5821,
      "Ġdruha": 5822,
      "ĠdruhÃ¡": 5823,
      "Ġblahu": 5824,
      "ĠzpÄĽvem": 5825,
      "Cho": 5826,
      "Svou": 5827,
      "Ġzvad": 5828,
      "ÅĻuje": 5829,
      "jela": 5830,
      "pol": 5831,
      "douc": 5832,
      "Ġlsti": 5833,
      "ĠCa": 5834,
      "Ġzakle": 5835,
      "ĠdÃ©man": 5836,
      "ĠtvrdÃ©": 5837,
      "Ġhni": 5838,
      "Ġchr": 5839,
      "stit": 5840,
      "ĠnÃ¡mÄĽ": 5841,
      "Ġluk": 5842,
      "ĠsmÄĽsi": 5843,
      "ĠproudÃŃ": 5844,
      "DuÅ¡e": 5845,
      "ĠslavÃŃk": 5846,
      "krÃ½": 5847,
      "mlad": 5848,
      "Äįna": 5849,
      "kalo": 5850,
      "Ġlec": 5851,
      "ĠvyÅ¡": 5852,
      "mec": 5853,
      "nemo": 5854,
      "ĠlÅ¾i": 5855,
      "Å¡Å¥Ã¡": 5856,
      "Ġplody": 5857,
      "ĠslednÃŃ": 5858,
      "lami": 5859,
      "Ġodkud": 5860,
      "ĠdÃ¡lnÃ©": 5861,
      "ĠtrpÃŃ": 5862,
      "Ġpotok": 5863,
      "ĠnevÃ½": 5864,
      "Ġhodiny": 5865,
      "Ġroztr": 5866,
      "Ġlil": 5867,
      "JeÅ¾": 5868,
      "ĠkrvÃ¡": 5869,
      "zÃ¡ÅĻ": 5870,
      "hrd": 5871,
      "nÄĽla": 5872,
      "La": 5873,
      "ca": 5874,
      "Ġdna": 5875,
      "Ġzimy": 5876,
      "Ġroucho": 5877,
      "Ġchodil": 5878,
      "jste": 5879,
      "desÃ¡": 5880,
      "Ġvzty": 5881,
      "ĠvzkÅĻÃŃ": 5882,
      "ĠÅ¾ili": 5883,
      "Ġposlu": 5884,
      "Ġrety": 5885,
      "ĠmyÅ¡lenek": 5886,
      "gna": 5887,
      "ĠopÃ¡": 5888,
      "ĠvodnÃŃ": 5889,
      "ĠpuÄįÃŃ": 5890,
      "ĠÅ¾alem": 5891,
      "ĠzoÅĻe": 5892,
      "klÃ¡dÃ¡": 5893,
      "Ġbalva": 5894,
      "ĠprostÃ½": 5895,
      "dÃŃl": 5896,
      "Ġodda": 5897,
      "ĠzlatÄĽ": 5898,
      "ĠKde": 5899,
      "Ġblesku": 5900,
      "Ġvolnost": 5901,
      "ĠzvÄĽda": 5902,
      "Ġhudby": 5903,
      "Ġbrzo": 5904,
      "ĠzelenÃ©": 5905,
      "Va": 5906,
      "dny": 5907,
      "Ġonu": 5908,
      "teÄįnÃŃ": 5909,
      "vez": 5910,
      "Ġbran": 5911,
      "ĠznÃ¡Å¡": 5912,
      "ĠPrahy": 5913,
      "Ġdnu": 5914,
      "ĠpÃŃti": 5915,
      "ĠblahÃ©": 5916,
      "ĠhÅĻÃŃchy": 5917,
      "Ġpije": 5918,
      "ĠdÄĽtstvÃŃ": 5919,
      "Ġbudoucnost": 5920,
      "ĠvÃ½chod": 5921,
      "Ġlhostej": 5922,
      "VÃ¡m": 5923,
      "dovat": 5924,
      "Ġvedla": 5925,
      "Ġvza": 5926,
      "ĠvÃŃnem": 5927,
      "ĠlÃ¡sko": 5928,
      "ÅĻeny": 5929,
      "ĠbÄĽh": 5930,
      "Ġulici": 5931,
      "dvÄĽ": 5932,
      "Ġvedl": 5933,
      "chali": 5934,
      "ĠhrobÅ¯": 5935,
      "TÅĻi": 5936,
      "gy": 5937,
      "ĠpenÄĽ": 5938,
      "lice": 5939,
      "lÃŃcÃŃ": 5940,
      "sej": 5941,
      "Ġhlado": 5942,
      "ĠÅ¡ÃŃÅĻÃŃ": 5943,
      "ĠodpoÄįi": 5944,
      "ĠznÄĽla": 5945,
      "VÃŃc": 5946,
      "Ġbub": 5947,
      "Ġskrom": 5948,
      "rec": 5949,
      "ĠmalÃŃ": 5950,
      "stÃ¡t": 5951,
      "cenÃ¡": 5952,
      "ĠmusÃŃÅ¡": 5953,
      "ĠutrpenÃŃ": 5954,
      "ÃŃme": 5955,
      "ĠvyÅ¡la": 5956,
      "âĢĻ:": 5957,
      "Ġotcem": 5958,
      "Dob": 5959,
      "Jdu": 5960,
      "ĠstkvÄĽ": 5961,
      "Ġkoni": 5962,
      "mÃŃra": 5963,
      "Byla": 5964,
      "Å¾uje": 5965,
      "Ġnesu": 5966,
      "ĠvÄĽÅ¾": 5967,
      "dinu": 5968,
      "ĠvÅ¡ed": 5969,
      "vujÃŃ": 5970,
      "Ġokny": 5971,
      "Ġnemohu": 5972,
      "Äįeho": 5973,
      "Ġsply": 5974,
      "ĠodÅĻÃŃ": 5975,
      "Ġvinou": 5976,
      "dÃŃme": 5977,
      "Ġhry": 5978,
      "ĠzeÄı": 5979,
      "Ġzmar": 5980,
      "PÃ¡": 5981,
      "ĠokÃ©": 5982,
      "Ġzam": 5983,
      "nÃ©sti": 5984,
      "Äįeji": 5985,
      "vÃ½Å¡": 5986,
      "Ġmnohou": 5987,
      "Ġzor": 5988,
      "Ġskali": 5989,
      "ĠobliÄįej": 5990,
      "Ġjdi": 5991,
      "tickÃ©": 5992,
      "ĠusmÄĽ": 5993,
      "ĠÄįlu": 5994,
      "ĠjimÅ¾": 5995,
      "ĠhÅĻbe": 5996,
      "krvÃ¡": 5997,
      "ĠoltÃ¡ÅĻi": 5998,
      "PrÃ¡": 5999,
      "VÃ¡": 6000,
      "dnu": 6001,
      "Ġhi": 6002,
      "Ġher": 6003,
      "Ġjaksi": 6004,
      "Äįily": 6005,
      "zala": 6006,
      "ĠnejvÄĽtÅ¡ÃŃ": 6007,
      "hleÄı": 6008,
      "ĠzvukÅ¯": 6009,
      "Ġkouzla": 6010,
      "Ci": 6011,
      "abych": 6012,
      "ĠzlÃ½ch": 6013,
      "ĠvÄĽÅĻÃŃm": 6014,
      "ĠsvÄĽtlÃ½": 6015,
      "ÅĻenou": 6016,
      "ĠsladkÃ½m": 6017,
      "ĠslÃ¡vou": 6018,
      "Ġohrom": 6019,
      "ĠspatÅĻil": 6020,
      "Ġpova": 6021,
      "Ġudi": 6022,
      "ĠvzkÅĻik": 6023,
      "Ġvina": 6024,
      "Ġstarost": 6025,
      "Ġjasnou": 6026,
      "ĠnadÄĽji": 6027,
      "ĠzdÃŃ": 6028,
      "Ġbod": 6029,
      "Ġstrachem": 6030,
      "ĠÅ¡ÃŃje": 6031,
      "ĠkrvavÃ©": 6032,
      "TÃ©Å¾": 6033,
      "stru": 6034,
      "razÃŃ": 6035,
      "lie": 6036,
      "jÃŃcÃŃm": 6037,
      "Ġtamo": 6038,
      "ĠzÅĻÃŃÅ¡": 6039,
      "ĠkvÃŃtek": 6040,
      "ĠdrtÃŃ": 6041,
      "kraj": 6042,
      "jdem": 6043,
      "slÃ¡": 6044,
      "deÅĪ": 6045,
      "ĠÅ¡t": 6046,
      "Ġnivy": 6047,
      "ĠÃºna": 6048,
      "ĠdÄĽva": 6049,
      "ĠÅ¾ivobytÃŃ": 6050,
      "Ġbezna": 6051,
      "ĠplÃ¡la": 6052,
      "zenÃ©": 6053,
      "Å¾te": 6054,
      "Ġude": 6055,
      "Ġhora": 6056,
      "Ġmohou": 6057,
      "tajen": 6058,
      "ĠzÃ¡vÄĽ": 6059,
      "ĠzÃ¡hu": 6060,
      "Ġpohledem": 6061,
      "ĠkÅĻeh": 6062,
      "MÄĽl": 6063,
      "mÃ½ch": 6064,
      "vku": 6065,
      "ĠsnovÃ©": 6066,
      "out": 6067,
      "ĠpÅĻijdou": 6068,
      "Ġlidskou": 6069,
      "ĠsmÄĽs": 6070,
      "ĠlÃ©to": 6071,
      "ĠÅ¡irÃ©": 6072,
      "ĠkrÃ¡tce": 6073,
      "PryÄį": 6074,
      "dist": 6075,
      "dÃŃvÃ¡": 6076,
      "ĠstranÄĽ": 6077,
      "Ġmarno": 6078,
      "jou": 6079,
      "ĠVlta": 6080,
      "ĠdivÃ©m": 6081,
      "ĠhbitÄĽ": 6082,
      "Ġvzej": 6083,
      "ĠpÄĽst": 6084,
      "ĠvzpomÃŃnka": 6085,
      "ĠEvro": 6086,
      "Ġdrak": 6087,
      "vÃ¡nky": 6088,
      "tÃ¡ÅĻ": 6089,
      "ĠBe": 6090,
      "ĠrÅ¯Å¾": 6091,
      "Ġpozved": 6092,
      "ĠkÅĻÃŃÅ¾em": 6093,
      "eme": 6094,
      "mÄĽly": 6095,
      "ĠdÄĽj": 6096,
      "ĠbÃŃlÃ½m": 6097,
      "ĠcizÃŃm": 6098,
      "ĠhvÄĽzdami": 6099,
      "ĠsnivÃ©": 6100,
      "ĠkrouÅ¾ÃŃ": 6101,
      "ĠhoÅĻi": 6102,
      "Ġrci": 6103,
      "dÃ¡le": 6104,
      "ĠnÃ¡ÅĻek": 6105,
      "Ġlicho": 6106,
      "Ġsvr": 6107,
      "ĠstÃ¡r": 6108,
      "ĠpohÅĻe": 6109,
      "Ġsmutnou": 6110,
      "Ġhrst": 6111,
      "Ġblankytu": 6112,
      "ĠkÅĻÃŃdly": 6113,
      "nnÃ©": 6114,
      "ĠtmÃŃ": 6115,
      "cek": 6116,
      "Ġmistr": 6117,
      "ĠmÄĽstem": 6118,
      "ĠskvÃŃ": 6119,
      "Ġdruhou": 6120,
      "ĠstrÃ¡nÄĽ": 6121,
      "ona": 6122,
      "ĠzpÅ¯so": 6123,
      "Ġpovr": 6124,
      "Ġjel": 6125,
      "Ġjezd": 6126,
      "ĠÅ¡va": 6127,
      "jakÃ©": 6128,
      "ĠretÅ¯": 6129,
      "poslednÃŃ": 6130,
      "ĠzahradÄĽ": 6131,
      "nevÄĽ": 6132,
      "dÃŃte": 6133,
      "NevÄĽ": 6134,
      "Ġkdybych": 6135,
      "ĠkeÅĻ": 6136,
      "ĠvlastnÃŃm": 6137,
      "jimÅ¾": 6138,
      "Ġoby": 6139,
      "titi": 6140,
      "ĠletÄĽl": 6141,
      "ĠbÃŃdnÃ½": 6142,
      "Ġmlze": 6143,
      "ĠmraÄįen": 6144,
      "Ġzblou": 6145,
      "ĠÅĻadu": 6146,
      "ĠlistÅ¯": 6147,
      "dumÄįi": 6148,
      "Ġskr": 6149,
      "Å¾ily": 6150,
      "Ġsvojich": 6151,
      "Ġge": 6152,
      "Ġzdvih": 6153,
      "Ot": 6154,
      "ĠzbÄĽ": 6155,
      "Å¡tÄĽnÃŃ": 6156,
      "Ġrato": 6157,
      "ĠtemnÃ½ch": 6158,
      "ĠÅ¡koda": 6159,
      "Ġvskutku": 6160,
      "ÄįnÃŃch": 6161,
      "ĠstÅĻel": 6162,
      "natÃ©": 6163,
      "Ġkor": 6164,
      "ĠPÅĻi": 6165,
      "ĠpÅĻÃŃtom": 6166,
      "ĠpÄĽÅ¡i": 6167,
      "Ġsyny": 6168,
      "ĠpÅ¯dy": 6169,
      "ĠspÃ¡ti": 6170,
      "ĠbÅĻehy": 6171,
      "ĠsadÄĽ": 6172,
      "Å¡at": 6173,
      "Å¡nÃ½m": 6174,
      "ĠuÄįÃŃ": 6175,
      "Ġvzali": 6176,
      "ĠÅ¾ivÃ¡": 6177,
      "Ġhromu": 6178,
      "Kolem": 6179,
      "ĠhrdÃ½": 6180,
      "vÄĽjÅ¡ÃŃ": 6181,
      "tiny": 6182,
      "Ġuto": 6183,
      "ĠsvatÃ©m": 6184,
      "Stro": 6185,
      "nkÃ¡": 6186,
      "Ġvil": 6187,
      "Ġbzu": 6188,
      "komu": 6189,
      "Ġhodin": 6190,
      "Ġledo": 6191,
      "Ġnepoko": 6192,
      "Ġsvaty": 6193,
      "ĠhÅĻÃŃchÅ¯": 6194,
      "ĠznÄĽly": 6195,
      "Ġpomsty": 6196,
      "ĠvonnÃ©": 6197,
      "Ġchaty": 6198,
      "Ġneskona": 6199,
      "Ġzru": 6200,
      "ĠzaplÃ¡": 6201,
      "ĠstarÃ©m": 6202,
      "ĠbuÄıte": 6203,
      "ĠhouÅ¡tÃŃ": 6204,
      "ĠÅ¾lutÃ©": 6205,
      "ĠsrÃ¡": 6206,
      "ĠtÄĽl": 6207,
      "Ġnemi": 6208,
      "ĠkypÃŃ": 6209,
      "Ġpanny": 6210,
      "ĠkmitÃ¡": 6211,
      "vrt": 6212,
      "Ġhnal": 6213,
      "ĠprospÄĽ": 6214,
      "ĠpÅĻiÅ¡lo": 6215,
      "Ticho": 6216,
      "obra": 6217,
      "ĠvÄįel": 6218,
      "dÃ¡n": 6219,
      "ĠpoutnÃŃ": 6220,
      "ĠptÃ¡ka": 6221,
      "ĠÄĮer": 6222,
      "ĠchrÃ¡nÃŃ": 6223,
      "ĠpÅĻÃ¡l": 6224,
      "ĠkÃ¡zal": 6225,
      "ĠstrÃ½": 6226,
      "Ġpravdou": 6227,
      "Ġsloup": 6228,
      "ĠpohÃ¡d": 6229,
      "vakrÃ¡t": 6230,
      "zpÄĽ": 6231,
      "Ġptal": 6232,
      "nÄĽly": 6233,
      "ĠuÅ¡i": 6234,
      "ĠstÃ¡ly": 6235,
      "ĠnÃ¡roda": 6236,
      "ĠnohÃ¡m": 6237,
      "ĠrÃ¡ko": 6238,
      "ĠlÃŃtÃ¡": 6239,
      "ĠhovoÅĻÃŃ": 6240,
      "Ġzticha": 6241,
      "!!": 6242,
      "prÃ½": 6243,
      "znÃ¡m": 6244,
      "Ġslze": 6245,
      "ĠsmrÅ¥": 6246,
      "Åĺek": 6247,
      "Ġzahrady": 6248,
      "Ġosudu": 6249,
      "hrou": 6250,
      "jmi": 6251,
      "Ġvem": 6252,
      "ent": 6253,
      "Ġnav": 6254,
      "kosti": 6255,
      "Ġspal": 6256,
      "ĠteÄįe": 6257,
      "ĠpustÃ½": 6258,
      "ĠchoÅ¥": 6259,
      "ĠsnÄĽhem": 6260,
      "ĠzvÄĽÅĻ": 6261,
      "Ġulo": 6262,
      "ĠzÃ¡pla": 6263,
      "ĠjdeÅ¡": 6264,
      "tiv": 6265,
      "ĠplÃ¡ÅĪ": 6266,
      "pÅĻel": 6267,
      "ĠprÃ¡zdnÃ©": 6268,
      "Nemo": 6269,
      "ĠveÅ¡ke": 6270,
      "nÃŃho": 6271,
      "Ġdostal": 6272,
      "Ġspjat": 6273,
      "ĠnemÅ¯Å¾": 6274,
      "kterak": 6275,
      "Kdys": 6276,
      "voÅĻÃŃ": 6277,
      "ÄįÃŃcÃŃ": 6278,
      "ĠÄįeskÃ½ch": 6279,
      "stÃ¡ch": 6280,
      "ĠotvÃŃ": 6281,
      "ĠpÄĽknÃ©": 6282,
      "lestÃŃ": 6283,
      "ĠpoÅ¾Ã¡": 6284,
      "ĠholÃ©": 6285,
      "Ġkolik": 6286,
      "ĠzÃ¡zra": 6287,
      "ĠmÄĽstu": 6288,
      "ĠvlastnÄĽ": 6289,
      "ĠchvÃ¡tÃ¡": 6290,
      "Ġramena": 6291,
      "roste": 6292,
      "ĠubÃŃ": 6293,
      "ĠsklÃŃ": 6294,
      "ĠÄįerno": 6295,
      "ĠkrÃ¡lovstvÃŃ": 6296,
      "Ġporu": 6297,
      "vanou": 6298,
      "jedno": 6299,
      "ĠvÄĽz": 6300,
      "Ġnohu": 6301,
      "JakÃ©": 6302,
      "Ġpoupat": 6303,
      "hÃ½bÃ¡": 6304,
      "ĠbleskÅ¯": 6305,
      "ĠvolnÃ½": 6306,
      "ĠÅ¡epce": 6307,
      "ajÃŃ": 6308,
      "ditel": 6309,
      "Ġdub": 6310,
      "Ġpavu": 6311,
      "ĠdÃŃl": 6312,
      "ĠotrÃ¡": 6313,
      "ĠÅ¡Å¥astnÄĽ": 6314,
      "NÃ¡Å¡": 6315,
      "ĠÄįarodÄĽj": 6316,
      "ĠpÃ½Å¡e": 6317,
      "Hlu": 6318,
      "zpÄĽt": 6319,
      "ĠschÃ¡zÃŃ": 6320,
      "Ġpas": 6321,
      "Å¡Ã¡": 6322,
      "ĠzvÃ¡": 6323,
      "Ġzbude": 6324,
      "Ġdokud": 6325,
      "ĠÅ¡tva": 6326,
      "ĠbÃŃt": 6327,
      "ĠÅĻece": 6328,
      "Ġondy": 6329,
      "ĠhroznÃ¡": 6330,
      "ĠtajnÃ©": 6331,
      "rnÃ©m": 6332,
      "ÅĻely": 6333,
      "ĠdÃ¡n": 6334,
      "ĠvzpomÃŃnÃ¡": 6335,
      "Ġdcery": 6336,
      "jmou": 6337,
      "vÄįe": 6338,
      "nepo": 6339,
      "nati": 6340,
      "lÃŃbÃ¡": 6341,
      "ÄįinÄĽ": 6342,
      "ĠplÃ¡ly": 6343,
      "ĠvÄĽÄįnÃ½ch": 6344,
      "ĠkoutÄĽ": 6345,
      "ĠpÅĻÃŃroda": 6346,
      "dlen": 6347,
      "Ġzbylo": 6348,
      "ĠkÅ¡ti": 6349,
      "jÃŃti": 6350,
      "duje": 6351,
      "ĠÅ¾iva": 6352,
      "ĠkamenÃŃ": 6353,
      "ĠskalÃ¡ch": 6354,
      "ckÃ½m": 6355,
      "Ġpne": 6356,
      "Ġule": 6357,
      "ÅĪu": 6358,
      "ĠdÄĽsÃŃ": 6359,
      "ĠÅ¡tÄĽd": 6360,
      "druh": 6361,
      "ĠSa": 6362,
      "ĠstÃ¡lo": 6363,
      "ĠhlubokÃ©": 6364,
      "Krev": 6365,
      "Tr": 6366,
      "pru": 6367,
      "plÃŃ": 6368,
      "roval": 6369,
      "voval": 6370,
      "ĠjitÅĻ": 6371,
      "ĠÅ¡lo": 6372,
      "ĠsmÄĽl": 6373,
      "ĠskÃ¡lu": 6374,
      "Ġpokoje": 6375,
      "ĠzimnÃŃ": 6376,
      "Ġsklonil": 6377,
      "ĠjunÃ¡": 6378,
      "ĠpoÅ¡": 6379,
      "poÅ¡to": 6380,
      "mus": 6381,
      "Ġpraco": 6382,
      "ĠstÃŃhÃ¡": 6383,
      "ĠvÅ¡ecku": 6384,
      "Ġsnadno": 6385,
      "Ġvzdoru": 6386,
      "!)": 6387,
      "lkÃ¡": 6388,
      "zkou": 6389,
      "Ġzdob": 6390,
      "mÄĽlo": 6391,
      "ĠnÄĽmÃ¡": 6392,
      "ĠlÃ¡me": 6393,
      "padlo": 6394,
      "ĠostrÃ½": 6395,
      "ĠpÅĻelud": 6396,
      "Darmo": 6397,
      "bÅ¡ÃŃ": 6398,
      "cÃ¡": 6399,
      "cete": 6400,
      "ĠstÃ½": 6401,
      "Ġbyste": 6402,
      "Å¾ÃŃt": 6403,
      "mati": 6404,
      "Nes": 6405,
      "Jeden": 6406,
      "Ġgeni": 6407,
      "Ġozval": 6408,
      "Ġslib": 6409,
      "ZdÃ¡": 6410,
      "ker": 6411,
      "Ġmsti": 6412,
      "rali": 6413,
      "ĠÃºkol": 6414,
      "ĠtouÅ¾il": 6415,
      "ĠspÃŃÅ¡e": 6416,
      "VÃ½": 6417,
      "ik": 6418,
      "lÃ¡nÃŃ": 6419,
      "tovÃ¡nÃŃ": 6420,
      "ĠzÃ¡dumÄįi": 6421,
      "Ġkan": 6422,
      "ĠvÄĽtÅĻÃŃk": 6423,
      "ĠzdvihÃ¡": 6424,
      "ĠonÄĽch": 6425,
      "ChceÅ¡": 6426,
      "ĠÅ¡erem": 6427,
      "ĠmÃŃhÃ¡": 6428,
      "ĠmlÄįenÃŃ": 6429,
      "ByÅ¥": 6430,
      "Ġmraku": 6431,
      "ĠknÄĽÅ¾ÃŃ": 6432,
      "ĠznÃ¡mÃ©": 6433,
      "Ġsmysly": 6434,
      "Ġbalvan": 6435,
      "Ġvzdych": 6436,
      "lÃŃt": 6437,
      "ĠrdÃŃ": 6438,
      "ĠpÃ¡ny": 6439,
      "Ġnejde": 6440,
      "Ġlok": 6441,
      "ĠsklÃ¡dÃ¡": 6442,
      "ĠhÅĻÃ¡": 6443,
      "ĠpÃ¡dÃŃ": 6444,
      "Ġmodro": 6445,
      "Ġpohro": 6446,
      "Äįena": 6447,
      "ĠtÃ¡bo": 6448,
      "Ġsvate": 6449,
      "ĠboÅ¾skÃ©": 6450,
      "ĠtÅĻikrÃ¡t": 6451,
      "ĠslyÅ¡ÃŃÅ¡": 6452,
      "tnÃ½ch": 6453,
      "stvu": 6454,
      "ĠÄįinu": 6455,
      "Ġotco": 6456,
      "ĠpestrÃ©": 6457,
      "Slad": 6458,
      "ĠhvÃŃ": 6459,
      "Ġjisto": 6460,
      "ĠveÅ¡el": 6461,
      "Ġmost": 6462,
      "ĠÅ¾ilÃ¡ch": 6463,
      "mila": 6464,
      "ĠbavÃŃ": 6465,
      "ĠskÃ¡Äįe": 6466,
      "ĠpÃ½cha": 6467,
      "ĠÅ¡lehÃ¡": 6468,
      "PtÃ¡": 6469,
      "Ġzbyl": 6470,
      "Ġpono": 6471,
      "nÄĽch": 6472,
      "volal": 6473,
      "ĠkalÃŃ": 6474,
      "ĠpÃ¡ry": 6475,
      "ĠvavÅĻÃŃ": 6476,
      "ĠvrahÅ¯": 6477,
      "ĠsvÃŃtil": 6478,
      "ĠspÄĽch": 6479,
      "plnÃ©": 6480,
      "vato": 6481,
      "vÃŃvÃ¡": 6482,
      "Ġbyt": 6483,
      "Ġvypla": 6484,
      "Ġkdosi": 6485,
      "Ġhust": 6486,
      "Viz": 6487,
      "Ġparku": 6488,
      "Jdou": 6489,
      "ĠzmÄĽnÃŃ": 6490,
      "voje": 6491,
      "Ġdojem": 6492,
      "nÃ¡n": 6493,
      "Ġluhy": 6494,
      "ĠchvÄĽlo": 6495,
      "Ġjedinou": 6496,
      "ĠkaÅ¾dÃ©ho": 6497,
      "hi": 6498,
      "Ġpopra": 6499,
      "ÅĻÃŃÅ¾": 6500,
      "nov": 6501,
      "ÅĻiv": 6502,
      "kati": 6503,
      "Å¥u": 6504,
      "veÅĪ": 6505,
      "ĠzÃ¡ho": 6506,
      "Å¡ili": 6507,
      "Ġplakal": 6508,
      "ĠsladkÃ©m": 6509,
      "ĠÅ¡irÃ½": 6510,
      "Ġvnady": 6511,
      "Ġzast": 6512,
      "Ġuko": 6513,
      "ĠupÃŃ": 6514,
      "piti": 6515,
      "ĠzjevÃŃ": 6516,
      "ĠTebou": 6517,
      "nÄĽnou": 6518,
      "naly": 6519,
      "ĠpÅĻÃŃk": 6520,
      "JakÃ¡": 6521,
      "ĠlodÃŃ": 6522,
      "zor": 6523,
      "ĠpyÅ¡nÄĽ": 6524,
      "ĠpÅĻemo": 6525,
      "ĠÅĺÃŃma": 6526,
      "Ġslzami": 6527,
      "ĠhÅĻbitov": 6528,
      "gan": 6529,
      "ĠbÃ©ÅĻe": 6530,
      "ĠlÃŃstek": 6531,
      "ĠslastÃŃ": 6532,
      "Ġknih": 6533,
      "ĠdÃ©le": 6534,
      "ĠProÄį": 6535,
      "Ġtlou": 6536,
      "Ġzavz": 6537,
      "kÃ¡zal": 6538,
      "ĠÅ¾er": 6539,
      "Ġodlesk": 6540,
      "ĠÅ¡edÃ¡": 6541,
      "ĠSmrt": 6542,
      "takÃ©": 6543,
      "Ġrysy": 6544,
      "kdoÅ¾": 6545,
      "ĠÅ¾alost": 6546,
      "mrti": 6547,
      "ĠvesmÃŃr": 6548,
      "BÄĽda": 6549,
      "tas": 6550,
      "Äįuje": 6551,
      "ÅĻeli": 6552,
      "ĠuvÄĽ": 6553,
      "Ġskro": 6554,
      "ĠmÃŃsÃŃ": 6555,
      "Ġpusto": 6556,
      "ĠbÄĽhu": 6557,
      "ĠDa": 6558,
      "AvÅ¡ak": 6559,
      "ĠvÃ½m": 6560,
      "Ġdno": 6561,
      "ĠozÃ¡": 6562,
      "Ġlem": 6563,
      "ĠÄįinÅ¯": 6564,
      "jakoby": 6565,
      "VÃŃÅ¡": 6566,
      "ĠzmÃŃtÃ¡": 6567,
      "Ġprostor": 6568,
      "ĠtÅ¯nÄĽ": 6569,
      "ĠvÃ½chodu": 6570,
      "Sl": 6571,
      "tma": 6572,
      "Ġkane": 6573,
      "pali": 6574,
      "ĠVÅ¾dy": 6575,
      "ĠdivnÃ¡": 6576,
      "TÃ¡": 6577,
      "Ġvan": 6578,
      "Ġpoha": 6579,
      "Ġuti": 6580,
      "Ġvypl": 6581,
      "Ġmudr": 6582,
      "ĠprvÃ½": 6583,
      "Ġvida": 6584,
      "ĠnÄĽmÃ©": 6585,
      "Ġfor": 6586,
      "ĠpÅĻesvÄĽd": 6587,
      "draÅ¾Å¡ÃŃ": 6588,
      "Ġkonci": 6589,
      "Ġzmatku": 6590,
      "ĠdÄĽcka": 6591,
      "zrÃ¡": 6592,
      "Ġvstane": 6593,
      "lujÃŃ": 6594,
      "ĠboÅ¾ÃŃm": 6595,
      "ĠdÄĽsnÃ½": 6596,
      "ĠslabÃ©": 6597,
      "Ġstarce": 6598,
      "Ġhluku": 6599,
      "ĠbÅĻehÅ¯": 6600,
      "ĠdrÃ¡hy": 6601,
      "qu": 6602,
      "Ã¡nÃŃ": 6603,
      "chtÄĽ": 6604,
      "lon": 6605,
      "ĠuhlÃŃ": 6606,
      "Ġprova": 6607,
      "stÃŃrÃ¡": 6608,
      "rko": 6609,
      "Å¡ce": 6610,
      "bech": 6611,
      "Å¾enÃ½ch": 6612,
      "ĠplnÃ½m": 6613,
      "ĠhlasÅ¯": 6614,
      "Ġjisker": 6615,
      "Ġseveru": 6616,
      "pka": 6617,
      "vÄįÃŃ": 6618,
      "zak": 6619,
      "ĠrtÃŃ": 6620,
      "ĠÅ¾ila": 6621,
      "ĠcestÃ¡ch": 6622,
      "budou": 6623,
      "ĠpohlÃŃ": 6624,
      "ĠVaÅ¡e": 6625,
      "jnÃ©": 6626,
      "Ġbly": 6627,
      "ÅĻelo": 6628,
      "ĠstÅ¯j": 6629,
      "ĠÅ¡vi": 6630,
      "ĠÃºstech": 6631,
      "ĠpÅĻÃŃsnÄĽ": 6632,
      "ĠlÃŃba": 6633,
      "ĠÄįistou": 6634,
      "sÅ¥a": 6635,
      "ĠOsud": 6636,
      "Ġtrud": 6637,
      "hlÃŃÅ¾e": 6638,
      "Ġvysoko": 6639,
      "ZÅĻÃŃm": 6640,
      "lat": 6641,
      "rati": 6642,
      "ĠpoÅ¾Ã¡r": 6643,
      "ĠburÃ¡": 6644,
      "ĠpÅĻÃŃklad": 6645,
      "ĠstÃ¡do": 6646,
      "ĠstoletÃŃ": 6647,
      "ÅĻÃŃmal": 6648,
      "ĠchtÄĽlo": 6649,
      "Jich": 6650,
      "ĠchrÃ¡my": 6651,
      "Ġpokoji": 6652,
      "ĠkÃ¡cÃŃ": 6653,
      "ĠvÃ¡lky": 6654,
      "ĠzachvÄĽl": 6655,
      "ĠtoÅ¾": 6656,
      "ĠdÃ¡no": 6657,
      "mot": 6658,
      "Ġhudbu": 6659,
      "Ġbludi": 6660,
      "ĠzoufalstvÃŃ": 6661,
      "ĠzvlÃ¡Å¡tnÃŃ": 6662,
      "ĠposmÄĽch": 6663,
      "Ġkriti": 6664,
      "Ġzvl": 6665,
      "Ġzablou": 6666,
      "Ġperel": 6667,
      "ÅĻeme": 6668,
      "ĠdÃŃvku": 6669,
      "ĠÃºsmÄĽvu": 6670,
      "Ġhrdla": 6671,
      "ĠhospodÃ¡": 6672,
      "Hej": 6673,
      "Ġzhu": 6674,
      "novÃ½": 6675,
      "vedu": 6676,
      "Cos": 6677,
      "ĠnebeskÃ©": 6678,
      "Ġnejsi": 6679,
      "Ġzlomen": 6680,
      "heÅĪ": 6681,
      "zpÃŃvÃ¡": 6682,
      ".)": 6683,
      "Hr": 6684,
      "Ġosi": 6685,
      "dostÃŃ": 6686,
      "ĠdÄĽlÃŃ": 6687,
      "Å¾ilo": 6688,
      "Ġlidmi": 6689,
      "ĠbÃ¡snÄĽ": 6690,
      "ĠÄįlovÄĽkem": 6691,
      "Ġmnich": 6692,
      "Ġzpup": 6693,
      "BÃ¡": 6694,
      "Bou": 6695,
      "ĠsnÃ¡Å¡ÃŃ": 6696,
      "jeÅ¥": 6697,
      "ĠuvÃŃ": 6698,
      "Ġcele": 6699,
      "TakÃ©": 6700,
      "ĠrekÅ¯": 6701,
      "ĠvrÃ¡sky": 6702,
      "ĠmdlÃ½": 6703,
      "Ġsmy": 6704,
      "Ġchou": 6705,
      "Ġsple": 6706,
      "ĠobjÃŃmÃ¡": 6707,
      "stavÃŃ": 6708,
      "sadil": 6709,
      "Ġvesel": 6710,
      "Ġster": 6711,
      "dechu": 6712,
      "Ġuka": 6713,
      "kuje": 6714,
      "Äįelo": 6715,
      "Ġposlal": 6716,
      "Ġsymbo": 6717,
      "ĠsnivÃ¡": 6718,
      "Ġpaprs": 6719,
      "ĠÅ¾ebrÃ¡k": 6720,
      "Å¡lÃ©": 6721,
      "teÄįnÄĽ": 6722,
      "Ġdomy": 6723,
      "Ġlevo": 6724,
      "dav": 6725,
      "Ġplny": 6726,
      "ĠklasÅ¯": 6727,
      "ĠtesknÃ©": 6728,
      "ĠÅĻadou": 6729,
      "Ġkmit": 6730,
      "hÅĻÃ¡": 6731,
      "ki": 6732,
      "Ġdol": 6733,
      "ĠpÄĽti": 6734,
      "Ġsouci": 6735,
      "ĠhustÃ©": 6736,
      "ĠklidnÃ½": 6737,
      "ĠCi": 6738,
      "ĠpevnÃ½": 6739,
      "Ġplynou": 6740,
      "stupuje": 6741,
      "Ġtrium": 6742,
      "TÃ©": 6743,
      "leÅ¾ÃŃ": 6744,
      "Ġhon": 6745,
      "ĠboÅĻÃŃ": 6746,
      "ĠtakÃ½": 6747,
      "ĠvÃ½kÅĻi": 6748,
      "ĠOt": 6749,
      "ĠvlÃ¡dy": 6750,
      "PÅĻec": 6751,
      "ĠhlubokÃ½": 6752,
      "ĠÄĮechy": 6753,
      "ĠhlÃ¡sÃŃ": 6754,
      "ĠzdobÃŃ": 6755,
      "ĠpÅ¯lnoci": 6756,
      "nskÃ©": 6757,
      "ĠpoÅĻÃ¡d": 6758,
      "lym": 6759,
      "ĠtuÅ¡ÃŃm": 6760,
      "ĠsvÃŃtÃ¡": 6761,
      "kaÅ¾dÃ©": 6762,
      "Mezi": 6763,
      "ĠzlÃ©ho": 6764,
      "Äįat": 6765,
      "nÄĽna": 6766,
      "ĠumÄĽl": 6767,
      "mÃ¡Å¡": 6768,
      "ĠpÃ¡nÅ¯": 6769,
      "benÃ©": 6770,
      "ĠsmÃ¡la": 6771,
      "ĠpÅ¯lnoc": 6772,
      "ĠspanÃŃ": 6773,
      "tkou": 6774,
      "chi": 6775,
      "Å¯nÄĽ": 6776,
      "Ġpovy": 6777,
      "Ġpocit": 6778,
      "Ġuva": 6779,
      "ĠvÃŃÄįka": 6780,
      "ĠÅ¡est": 6781,
      "zdvi": 6782,
      "vena": 6783,
      "Å½ivot": 6784,
      "ĠknÃŃÅ¾": 6785,
      "Ġdejte": 6786,
      "ĠskÅĻivan": 6787,
      "Ġvzplane": 6788,
      "ĠÄįervÃ¡nkÅ¯": 6789,
      "fÃŃ": 6790,
      "klen": 6791,
      "snÃ½m": 6792,
      "Ġkl": 6793,
      "skÃ½mi": 6794,
      "ĠuÄįen": 6795,
      "Ġhoru": 6796,
      "ĠnovÃ©m": 6797,
      "Å¡tÄĽm": 6798,
      "ĠSlu": 6799,
      "ĠpÃ¡nu": 6800,
      "ĠchtÄĽjÃŃ": 6801,
      "ÅłtÄĽ": 6802,
      "ĠjemuÅ¾": 6803,
      "ĠmocnÃ©": 6804,
      "Ġostro": 6805,
      "ĠnepÅĻÃŃtel": 6806,
      "ĠfarÃ¡": 6807,
      "DÅĻÃŃv": 6808,
      "PlÃ¡": 6809,
      "Ġshle": 6810,
      "ĠvtÄĽ": 6811,
      "enal": 6812,
      "ĠoÄįka": 6813,
      "Ġnehy": 6814,
      "hoÅĻÃŃ": 6815,
      "Ġzad": 6816,
      "ĠzamyÅ¡": 6817,
      "cÃŃtÃŃ": 6818,
      "ĠkoÄįÃ¡": 6819,
      "ĠÅ¡epo": 6820,
      "ĠpouhÃ©": 6821,
      "Ġkul": 6822,
      "stoup": 6823,
      "Ġpoliti": 6824,
      "Ġtlum": 6825,
      "Äıar": 6826,
      "ĠstraÅ¡li": 6827,
      "Ġhubi": 6828,
      "ĠOd": 6829,
      "Ġdeset": 6830,
      "nickÃ½": 6831,
      "Ġzim": 6832,
      "ĠvzpomÃŃnek": 6833,
      "Ġmiluji": 6834,
      "chovÃ¡": 6835,
      "ĠSnad": 6836,
      "ĠplÃ¡lo": 6837,
      "Ġstranu": 6838,
      "ĠtÃŃsnÃŃ": 6839,
      "ĠpohÃ¡dky": 6840,
      "Ġarci": 6841,
      "Ġzmu": 6842,
      "Ġpoc": 6843,
      "lostÃŃ": 6844,
      "Ġmuky": 6845,
      "Ġpre": 6846,
      "Ġskvr": 6847,
      "ĠÅĻetÄĽz": 6848,
      "ĠhvÄĽzdou": 6849,
      "kteÅĻÃŃ": 6850,
      "ren": 6851,
      "Ġkorou": 6852,
      "jakby": 6853,
      "ĠruÄįky": 6854,
      "plnÃ½": 6855,
      "ĠobÄĽt": 6856,
      "hnouti": 6857,
      "Ġsrde": 6858,
      "vÅ¡ad": 6859,
      "Ke": 6860,
      "Å¾nou": 6861,
      "radost": 6862,
      "Ġnedal": 6863,
      "Ġholou": 6864,
      "jila": 6865,
      "ceni": 6866,
      "Ġoblaky": 6867,
      "ĠdÃ¡my": 6868,
      "ĠhedvÃ¡": 6869,
      "ĠnÃ¡v": 6870,
      "ĠpÄĽsti": 6871,
      "ĠnaÅ¡eho": 6872,
      "Ġzvuku": 6873,
      "Prav": 6874,
      "Hlas": 6875,
      "Jas": 6876,
      "ĠÅ½e": 6877,
      "list": 6878,
      "Ġvzbou": 6879,
      "ĠsvÃŃce": 6880,
      "Ġzloba": 6881,
      "ĠpÅĻÃ¡telÃ©": 6882,
      "dÅ¯vÄĽ": 6883,
      "ĠnedoÄįka": 6884,
      "Ġslep": 6885,
      "slunce": 6886,
      "ĠpilnÄĽ": 6887,
      "ĠPetr": 6888,
      "jnÃ½": 6889,
      "Ġvpad": 6890,
      "Ġzahal": 6891,
      "Ġmukou": 6892,
      "sala": 6893,
      "ĠlkÃ¡nÃŃ": 6894,
      "volnÄĽ": 6895,
      "Ġsoumraku": 6896,
      "ĠrÅ¯znÃ½ch": 6897,
      "vanÃ¡": 6898,
      "Å¡eti": 6899,
      "Ġvzrost": 6900,
      "ÄįeÅ¾": 6901,
      "ĠtuÅ¾eb": 6902,
      "ĠpaÅ¾ÃŃ": 6903,
      "ĠÅ¡er": 6904,
      "DobÅĻe": 6905,
      "ĠDÄĽ": 6906,
      "Ġbloudil": 6907,
      "Ġklesl": 6908,
      "ĠÄıas": 6909,
      "ĠperutÄĽ": 6910,
      "Ġvzejde": 6911,
      "Chu": 6912,
      "ĠvstÃ¡": 6913,
      "Ġjesen": 6914,
      "Ġrozvi": 6915,
      "ĠTam": 6916,
      "mÃ¡hÃ¡": 6917,
      "ĠblaÅ¾ÃŃ": 6918,
      "Ġmohli": 6919,
      "!...âĢľ": 6920,
      "ĠkÅĻovÃŃ": 6921,
      "bka": 6922,
      "Å¡til": 6923,
      "roda": 6924,
      "Ġoso": 6925,
      "vÄĽn": 6926,
      "ĠrodnÃ½": 6927,
      "ĠrtÅ¯m": 6928,
      "Ġoblou": 6929,
      "sajÃŃ": 6930,
      "Jakby": 6931,
      "Ġstrasti": 6932,
      "ĠsmÃ¡t": 6933,
      "Ġpaprsky": 6934,
      "lÃŃch": 6935,
      "Ġleto": 6936,
      "ĠpÄĽjÃŃ": 6937,
      "ĠplnÃ½ch": 6938,
      "Ġjasem": 6939,
      "ĠradosÅ¥": 6940,
      "ĠÅ¾ÃŃzni": 6941,
      "ĠkrutÃ©": 6942,
      "Ġteplo": 6943,
      "ĠbujnÃ©": 6944,
      "ĠkvÄĽtech": 6945,
      "Zvo": 6946,
      "ĠprvÃ©": 6947,
      "ĠvojÃ¡": 6948,
      "ĠbijÃŃ": 6949,
      "ĠspÄĽl": 6950,
      "Ġocho": 6951,
      "vidÄĽl": 6952,
      "Å¾ivot": 6953,
      "Potom": 6954,
      "ĠplÃ¡t": 6955,
      "bÃ¡Å¡": 6956,
      "ĠchvÄĽly": 6957,
      "nickÃ©": 6958,
      "Ġmrz": 6959,
      "ĠnÄĽÅ¾nÃ©": 6960,
      "ĠnÄĽjÅ¾": 6961,
      "mla": 6962,
      "ĠtkÃ¡": 6963,
      "jeli": 6964,
      "Ġoddech": 6965,
      "ĠmÄĽly": 6966,
      "ĠTen": 6967,
      "chÃ¡zÃŃm": 6968,
      "ĠÅĻÃŃdÃŃ": 6969,
      "ĠtÄĽÅ¾kÃ½m": 6970,
      "Ġjiskra": 6971,
      "Ġchceme": 6972,
      "chti": 6973,
      "ĠmroucÃŃ": 6974,
      "Ġpoledne": 6975,
      "nÃ¡Å¡el": 6976,
      "ĠhoÅ¡i": 6977,
      "Ġkov": 6978,
      "vidÃŃm": 6979,
      "daje": 6980,
      "ĠVes": 6981,
      "ĠÅĻev": 6982,
      "ĠchytÃ¡": 6983,
      "ĠmalÃ½ch": 6984,
      "ĠtrÃ¡vu": 6985,
      "ĠstudÃ¡": 6986,
      "ĠzachrÃ¡": 6987,
      "ĠodpusÅ¥": 6988,
      "Ġpopla": 6989,
      "dÄĽjÃŃ": 6990,
      "Ġmuce": 6991,
      "ĠÅĻetÄĽ": 6992,
      "ĠkrÃ¡tkÃ©": 6993,
      "Ġshon": 6994,
      "Ġhouf": 6995,
      "Ġkopy": 6996,
      "Ġnoh": 6997,
      "Ġkudy": 6998,
      "ĠslÃ½ch": 6999,
      "ĠkÅĻÃŃÅ¾i": 7000,
      "brat": 7001,
      "ĠmrtvÃŃ": 7002,
      "ĠznÃ¡t": 7003,
      "ĠhouÅ¡ti": 7004,
      "ĠjizbÄĽ": 7005,
      "ĠideÃ¡": 7006,
      "oko": 7007,
      "Ġchech": 7008,
      "ĠpeÅĻe": 7009,
      "Å¾eno": 7010,
      "venÃ¡": 7011,
      "ĠmilovÃ¡nÃŃ": 7012,
      "ĠveÄįernÃŃ": 7013,
      "ĠnevÃŃÅ¡": 7014,
      "bami": 7015,
      "knu": 7016,
      "ĠhÅ¯l": 7017,
      "ĠoÅ¾i": 7018,
      "pomeÅĪ": 7019,
      "ĠpÅĻedc": 7020,
      "cenou": 7021,
      "kev": 7022,
      "Ġlampy": 7023,
      "ĠplÃŃÅ¾ÃŃ": 7024,
      "ĠbohatÃ½r": 7025,
      "jnÃ¡": 7026,
      "Å¡kem": 7027,
      "cestÃŃ": 7028,
      "ĠjinÃ©ho": 7029,
      "dÄĽlo": 7030,
      "Ġhorami": 7031,
      "ÅĪal": 7032,
      "Ġstan": 7033,
      "ĠAu": 7034,
      "jemi": 7035,
      "ĠÅ¡eptal": 7036,
      "pÅ¯l": 7037,
      "ĠostatnÃŃ": 7038,
      "ĠpenÄĽz": 7039,
      "vatÃ¡": 7040,
      "lÃ©mu": 7041,
      "ĠpÅĻichÃ¡zÃŃ": 7042,
      "ĠPi": 7043,
      "ĠstÃ¡da": 7044,
      "cÅ¯v": 7045,
      "ĠumÅĻÃŃt": 7046,
      "ĠzboÅ¾nÄĽ": 7047,
      "utÃŃ": 7048,
      "Ġsestra": 7049,
      "Ġzato": 7050,
      "tati": 7051,
      "ĠskvoucÃŃ": 7052,
      "Å¾eny": 7053,
      "ĠsynÅ¯": 7054,
      "hlÃ½m": 7055,
      "zenÃ½": 7056,
      "ĠPraha": 7057,
      "ĠteplÃ½": 7058,
      "ĠRolan": 7059,
      "ĠblÃ½ska": 7060,
      "dlem": 7061,
      "vnitÅĻ": 7062,
      "Ġposte": 7063,
      "Ġviz": 7064,
      "ĠhradÄĽ": 7065,
      "cena": 7066,
      "stroj": 7067,
      "ĠoltÃ¡ÅĻe": 7068,
      "Ġkostela": 7069,
      "Å¾nÃ½ch": 7070,
      "ĠslabÃ½": 7071,
      "ĠdruhÅ¯": 7072,
      "ĠbÃ¡znÃŃ": 7073,
      "ĠmrtvÃ¡": 7074,
      "Ġklidem": 7075,
      "Ġovoce": 7076,
      "Å¾ha": 7077,
      "Ġkmo": 7078,
      "lesti": 7079,
      "Ġpoku": 7080,
      "mÄĽt": 7081,
      "ĠoblÃ¡": 7082,
      "ĠskoÄįÃŃ": 7083,
      "ĠhÅĻÃŃmÃ¡": 7084,
      "ĠsvÃ¡tek": 7085,
      "ĠvzpomÃŃnky": 7086,
      "ĠmÄĽkce": 7087,
      "ĠmÄĽkkÃ½": 7088,
      "ĠbÅĻÃŃmÄĽ": 7089,
      "ĠrovnÄĽÅ¾": 7090,
      "Spo": 7091,
      "Ġmor": 7092,
      "ĠmilÃŃ": 7093,
      "ĠhladÃŃ": 7094,
      "Ġhladem": 7095,
      "ĠbÃŃdÄĽ": 7096,
      "Ġkroku": 7097,
      "lÅ¯v": 7098,
      "ĠpÅ¯dÄĽ": 7099,
      "ĠplesÃ¡": 7100,
      "ĠdnovÃ©": 7101,
      "ĠnaÅ¡ÃŃm": 7102,
      "ĠÄįekÃ¡m": 7103,
      "Ġchladnou": 7104,
      "ĠdvoÅĻe": 7105,
      "blÃŃÅ¾": 7106,
      "Ġhisto": 7107,
      "Ġjdeme": 7108,
      "emo": 7109,
      "Ġleta": 7110,
      "vidÃŃ": 7111,
      "Ġvyho": 7112,
      "ĠlÃŃpy": 7113,
      "Ġlokte": 7114,
      "ÄįkovÃ©": 7115,
      "Ġmladost": 7116,
      "ĠhlubinÃ¡ch": 7117,
      "Ġpostavy": 7118,
      "Ġklene": 7119,
      "znou": 7120,
      "Ġnasy": 7121,
      "skvÄĽ": 7122,
      "poli": 7123,
      "Ġmojich": 7124,
      "talo": 7125,
      "mÃŃt": 7126,
      "Ġcig": 7127,
      "Dost": 7128,
      "ĠÅ¡ÃŃÅĻ": 7129,
      "hradu": 7130,
      "ĠposlednÃŃm": 7131,
      "dnÃ©ho": 7132,
      "ĠjmÄĽnÃŃ": 7133,
      "Ġdocela": 7134,
      "nus": 7135,
      "ĠslepÃ½": 7136,
      "Ġdvacet": 7137,
      "Lo": 7138,
      "Ġzkla": 7139,
      "ĠapoÅ¡to": 7140,
      "ĠlÃ¡n": 7141,
      "Ġresi": 7142,
      "ĠprÃ¡zdnÃ½": 7143,
      "ĠdÃ½mu": 7144,
      "Ġmoudrosti": 7145,
      "Dra": 7146,
      "ubo": 7147,
      "Ġohlas": 7148,
      "ĠutÄĽ": 7149,
      "Ġroje": 7150,
      "ĠhoÅĻem": 7151,
      "Ġkoli": 7152,
      "Ġvyslo": 7153,
      "ĠnÃ¡vra": 7154,
      "Proti": 7155,
      "ĠpaprskÅ¯": 7156,
      "dly": 7157,
      "fÃ¡": 7158,
      "hrob": 7159,
      "Å¡lÃŃ": 7160,
      "ruje": 7161,
      "ĠproklÃŃ": 7162,
      "ĠAd": 7163,
      "ĠrÅ¯znÃ©": 7164,
      "cenÃ½ch": 7165,
      "ĠJeÅ¾ÃŃÅ¡": 7166,
      "ĠpoÄįÃ¡": 7167,
      "Ġulice": 7168,
      "ĠTeÄı": 7169,
      "Ġcenu": 7170,
      "Ġov": 7171,
      "pojÄı": 7172,
      "Ġslovu": 7173,
      "ĠvÅ¯z": 7174,
      "Ġjasno": 7175,
      "Å¡enÃ¡": 7176,
      "Ġtemna": 7177,
      "ĠchrÃ¡mÄĽ": 7178,
      "ĠLibu": 7179,
      "Ġvni": 7180,
      "ĠpravÃŃm": 7181,
      "Ġslabo": 7182,
      "pÃ¡r": 7183,
      "Ġmrazem": 7184,
      "ĠÅ¾ÃŃzeÅĪ": 7185,
      "ĠÅ¾aly": 7186,
      "ĠdlaÅ¾": 7187,
      "ĠhledÃ¡m": 7188,
      "ĠdÄĽtskÃ©": 7189,
      "KÃ½": 7190,
      "pjat": 7191,
      "ÅĻka": 7192,
      "Ġvyhna": 7193,
      "Ġrmut": 7194,
      "ĠbodÃ¡": 7195,
      "Ġjedem": 7196,
      "ĠMÃŃ": 7197,
      "ĠdruzÃŃ": 7198,
      "ĠrybnÃŃ": 7199,
      "ĠZe": 7200,
      "Ġbere": 7201,
      "ĠpamÄĽÅ¥": 7202,
      "ĠzÅĻeli": 7203,
      "ĠÅ¡lechet": 7204,
      "Ġnebyla": 7205,
      "luji": 7206,
      "Äįest": 7207,
      "ĠÅ¾ijÃŃ": 7208,
      "ĠstaÅĻÃŃ": 7209,
      "ĠpÃ¡d": 7210,
      "ĠtrnÃŃ": 7211,
      "ĠLo": 7212,
      "ĠzdÃ¡nÃŃ": 7213,
      "ĠlÃ©ka": 7214,
      "Ġtmavou": 7215,
      "ĠznÃ¡ti": 7216,
      "ĠtÃ³ny": 7217,
      "Sen": 7218,
      "ĠzanÃŃ": 7219,
      "ĠnÄĽhu": 7220,
      "Ġiro": 7221,
      "ĠdÄĽsnÃ©": 7222,
      "pÄĽla": 7223,
      "ĠsnÃŃt": 7224,
      "ĠnevidÄĽl": 7225,
      "Ġjizby": 7226,
      "ĠvzÃŃti": 7227,
      "ĠneÅĻe": 7228,
      "Ġvece": 7229,
      "jisk": 7230,
      "ĠpÅĻekva": 7231,
      "ĠnÃ¡ÅĻ": 7232,
      "ĠkacÃŃ": 7233,
      "ĠÄįernÃ½m": 7234,
      "TÄĽÅ¾": 7235,
      "ĠmateÅĻ": 7236,
      "sna": 7237,
      "chni": 7238,
      "ÃŃmÄĽ": 7239,
      "Ġpel": 7240,
      "ĠdravÃ½": 7241,
      "ĠbÃ¡l": 7242,
      "kladu": 7243,
      "ĠsnÄĽtÃŃ": 7244,
      "ĠdrÃ¡hu": 7245,
      "ĠzapomnÄĽnÃŃ": 7246,
      "ĠvleÄįe": 7247,
      "pÅ¯j": 7248,
      "ĠnedÄĽ": 7249,
      "ĠÅ¾u": 7250,
      "ĠdusÃŃ": 7251,
      "jakÃ¡": 7252,
      "ĠÄįeskou": 7253,
      "Ġsiro": 7254,
      "ĠlÃŃnÄĽ": 7255,
      "pej": 7256,
      "ĠRenal": 7257,
      "ĠpoÄįne": 7258,
      "ĠvÃŃme": 7259,
      "ĠÅ¡koly": 7260,
      "sam": 7261,
      "Ġshlu": 7262,
      "ĠchÅĻe": 7263,
      "Ġvlaje": 7264,
      "Ġhromo": 7265,
      "ĠÄįerv": 7266,
      "ĠvÄĽÄįnÃ½m": 7267,
      "Å¡enÄĽ": 7268,
      "ĠÄıÃ¡b": 7269,
      "Ġzdroje": 7270,
      "ĠmÅ¾ikem": 7271,
      "hvÄĽz": 7272,
      "ĠvÄĽÅ¾i": 7273,
      "ĠpeÅĻÃŃ": 7274,
      "trp": 7275,
      "ĠblahÃ½": 7276,
      "Ġlos": 7277,
      "ĠvraÅ¥": 7278,
      "ĠvlastnÃŃch": 7279,
      "Ġtragi": 7280,
      "ĠnÃ¡mÄĽstÃŃ": 7281,
      "ZnÃ¡m": 7282,
      "zli": 7283,
      "ÃŃch": 7284,
      "ĠÅ¾ivÃŃ": 7285,
      "ĠplaÅ¡ÃŃ": 7286,
      "Ġcitem": 7287,
      "Ġvlno": 7288,
      "ĠÅ¡irÃ©m": 7289,
      "Ġkapky": 7290,
      "Ġpovo": 7291,
      "Ġrol": 7292,
      "ĠniÅ¾": 7293,
      "Ġvoje": 7294,
      "ĠpravÃ¡": 7295,
      "ĠtmavÃ½ch": 7296,
      "Ġsedmi": 7297,
      "ĠpropastÃŃ": 7298,
      "ĠpevnÃ©": 7299,
      "ĠokamÅ¾iku": 7300,
      "ĠvteÅĻi": 7301,
      "Ġzko": 7302,
      "Ġnajednou": 7303,
      "ĠÅ¡o": 7304,
      "Ġstala": 7305,
      "Ġnemlu": 7306,
      "ĠlhÃ¡": 7307,
      "Ġvaz": 7308,
      "Å¡eni": 7309,
      "kolenÃŃ": 7310,
      "Ġzjevil": 7311,
      "ĠhoupÃ¡": 7312,
      "boÅ¾Ã¡": 7313,
      "ĠzaÅ¡lÃ½ch": 7314,
      "ĠpamÃ¡tku": 7315,
      "ĠnÃ©sti": 7316,
      "Mrt": 7317,
      "noÄįnÃŃ": 7318,
      "illu": 7319,
      "ĠrozlÃŃ": 7320,
      "ĠrudÃ¡": 7321,
      "ĠbÃ¡znÄĽ": 7322,
      "ĠjaÅĻe": 7323,
      "tenÃ¡": 7324,
      "ĠNu": 7325,
      "ĠÅ¡Å¥astnÃ©": 7326,
      "ĠsnivÃ½": 7327,
      "Ġrakvi": 7328,
      "vle": 7329,
      "Ġopak": 7330,
      "nÄĽnÃ¡": 7331,
      "vÃ¡s": 7332,
      "toma": 7333,
      "Ġref": 7334,
      "ĠnÃ¡rodÅ¯": 7335,
      "ĠosvÄĽt": 7336,
      "beni": 7337,
      "Ġsedm": 7338,
      "ĠnenadÃ¡nÃŃ": 7339,
      "Ġzjas": 7340,
      "Ġnachem": 7341,
      "vojÃŃ": 7342,
      "ĠÅ¡leh": 7343,
      "ĠkopÃŃ": 7344,
      "ĠlekÃ¡": 7345,
      "JeÅ¥": 7346,
      "ĠÄįernÃ©m": 7347,
      "Ġdruhy": 7348,
      "ĠbÃ¡jÃŃ": 7349,
      "Äįeno": 7350,
      "Ġzbyla": 7351,
      "ĠvysokÃ©": 7352,
      "Pane": 7353,
      "ĠzdrÃ¡va": 7354,
      "ĠzboÅ¾ÃŃ": 7355,
      "lÃ¡n": 7356,
      "Ġzasy": 7357,
      "Ġhody": 7358,
      "mund": 7359,
      "ĠrozvÃ¡": 7360,
      "Ġnadarmo": 7361,
      "pustÃŃ": 7362,
      "pustil": 7363,
      "ĠvÃ½Äįi": 7364,
      "ĠvÃ½so": 7365,
      "Ġsnahy": 7366,
      "ĠmyÅ¡lÃ©nek": 7367,
      "Ġhejno": 7368,
      "ĠvodopÃ¡": 7369,
      "Ġnouze": 7370,
      "ĠzÃ¡mek": 7371,
      "Å¾em": 7372,
      "tina": 7373,
      "Ġjist": 7374,
      "Ġrozvl": 7375,
      "ĠtÄĽkÃ¡": 7376,
      "Ġsocha": 7377,
      "ÅĻenÃ½m": 7378,
      "ĠpukÃ¡": 7379,
      "ĠsvatÃ©ho": 7380,
      "ĠmarnÃ½": 7381,
      "Ġpokro": 7382,
      "Ġslavnost": 7383,
      "ĠvichÅĻice": 7384,
      "Ġzmize": 7385,
      "Ġoct": 7386,
      "Ġpoklady": 7387,
      "ÅĻÃŃti": 7388,
      "Å¥Ã¡": 7389,
      "Ġroku": 7390,
      "Ġmozo": 7391,
      "Ġvzpou": 7392,
      "Ġsrdcy": 7393,
      "ĠrubÃŃ": 7394,
      "ĠÃºkry": 7395,
      "NevÃŃm": 7396,
      "ĠÅ¡eÅĻÃŃ": 7397,
      "Ġsoused": 7398,
      "vedli": 7399,
      "Ġmluv": 7400,
      "ĠbolesÅ¥": 7401,
      "ĠmuÅ¾em": 7402,
      "Ġheslo": 7403,
      "Ġhluboko": 7404,
      "Ġoblohou": 7405,
      "Ġvezme": 7406,
      "Ġceny": 7407,
      "roze": 7408,
      "ĠpoÅĻÃ¡": 7409,
      "ĠzavÄĽ": 7410,
      "ĠuklÃ¡": 7411,
      "ĠzÃ¡slu": 7412,
      "ĠdÃ¡val": 7413,
      "ĠmÄĽÅĻÃŃ": 7414,
      "âĢĻ!": 7415,
      "ĠdÃŃlu": 7416,
      "ĠcÃŃtit": 7417,
      "skot": 7418,
      "pasi": 7419,
      "ĠjmÃ©nem": 7420,
      "ĠzvÃŃtÄĽ": 7421,
      "ĠkÅĻÃŃdlech": 7422,
      "*)": 7423,
      "Ġzahu": 7424,
      "lÃ©vÃ¡": 7425,
      "Ġihned": 7426,
      "zali": 7427,
      "ĠVz": 7428,
      "Ġstole": 7429,
      "ÅĻeno": 7430,
      "ĠspÃ¡su": 7431,
      "Ġskokem": 7432,
      "ĠhorkÃ©": 7433,
      "ĠsvobodÄĽ": 7434,
      "ĠlÅ¯no": 7435,
      "ĠpÅĻÃŃÅ¡tÃŃch": 7436,
      "ncem": 7437,
      "smrt": 7438,
      "ĠW": 7439,
      "Ã½val": 7440,
      "Äįno": 7441,
      "Ġhladu": 7442,
      "Ġodsou": 7443,
      "ĠmÃ©nÄĽ": 7444,
      "stoupÃŃ": 7445,
      "ĠOr": 7446,
      "ĠstÅĻechy": 7447,
      "ptÃ¡k": 7448,
      "dÅĻÃŃ": 7449,
      "nnÃ½": 7450,
      "vlÃŃ": 7451,
      "Ġmrou": 7452,
      "lom": 7453,
      "Ġdot": 7454,
      "ĠhodÃŃ": 7455,
      "Ġleda": 7456,
      "Ġrozbi": 7457,
      "ĠdrahÃ½ch": 7458,
      "Ġdlouze": 7459,
      "ĠmÄĽkkÃ©": 7460,
      "ĠkrvavÃ½": 7461,
      "Å¾al": 7462,
      "ĠnapÅĻed": 7463,
      "vami": 7464,
      "ĠzaÄįÃŃ": 7465,
      "por": 7466,
      "ĠvÄĽno": 7467,
      "Ġrozka": 7468,
      "stalo": 7469,
      "mor": 7470,
      "ĠzdvÃŃ": 7471,
      "ÄįenÃ¡": 7472,
      "ĠsnÄĽti": 7473,
      "Vel": 7474,
      "Ġbabi": 7475,
      "cÃŃmi": 7476,
      "ĠdÃŃvce": 7477,
      "Ġpozdvi": 7478,
      "ĠtajemnÃ©": 7479,
      "ĠvzÃ¡cnÃ©": 7480,
      "Ode": 7481,
      "ĠposÃŃ": 7482,
      "ame": 7483,
      "Ġlep": 7484,
      "Ġprs": 7485,
      "ĠTvou": 7486,
      "ĠVÃ¡Å¡": 7487,
      "ĠlÃŃtost": 7488,
      "ĠstaletÃŃ": 7489,
      "rÅ¯v": 7490,
      "nesl": 7491,
      "ĠpohlÃ©": 7492,
      "ĠÅ¡Å¥astni": 7493,
      "ĠspoleÄįnosti": 7494,
      "lce": 7495,
      "Ġpohan": 7496,
      "celÃ½": 7497,
      "nÄĽt": 7498,
      "toho": 7499,
      "Ġodpla": 7500,
      "rÃ©ho": 7501,
      "Ġpuk": 7502,
      "ĠDi": 7503,
      "ĠdeÅ¡ti": 7504,
      "Ġhospody": 7505,
      "svÃ¡": 7506,
      "vÃŃtÃŃ": 7507,
      "cii": 7508,
      "Ġjsy": 7509,
      "ĠjasnÃ½m": 7510,
      "ĠtmavÃ¡": 7511,
      "Ġmladist": 7512,
      "Ġblud": 7513,
      "Ġstrun": 7514,
      "NeboÅ¥": 7515,
      "Ġdrahoka": 7516,
      "dol": 7517,
      "danÃ©": 7518,
      "ĠvÃŃnek": 7519,
      "ĠobÄĽti": 7520,
      "ĠdÅ¯stoj": 7521,
      "ode": 7522,
      "umÃŃ": 7523,
      "ĠstÅ¯nÄĽ": 7524,
      "dokud": 7525,
      "ĠroznÃŃ": 7526,
      "Ġtichem": 7527,
      "ĠpÅĻedtu": 7528,
      "ĠdÃ¡lnÃ½ch": 7529,
      "ĠvÄĽrnÃ¡": 7530,
      "Ġkletby": 7531,
      "Ġhezky": 7532,
      "vstÅĻÃŃc": 7533,
      "emu": 7534,
      "dor": 7535,
      "Ġhroma": 7536,
      "nesla": 7537,
      "Ġstroj": 7538,
      "Bych": 7539,
      "Ġjezera": 7540,
      "Ġpohledu": 7541,
      "ĠlÅ¯Å¾ko": 7542,
      "SlÃ¡va": 7543,
      "OÄįi": 7544,
      "bnÃ¡": 7545,
      "bnou": 7546,
      "Ġsky": 7547,
      "Ġsedla": 7548,
      "nÃŃkem": 7549,
      "nesu": 7550,
      "Ġhladi": 7551,
      "Ġjakoby": 7552,
      "ĠPÅĻe": 7553,
      "ĠpÅĻÃŃtele": 7554,
      "ĠplachÃ½": 7555,
      "ĠjejÃŃÅ¾": 7556,
      "ĠvÅ¡echna": 7557,
      "ZatÃŃm": 7558,
      "ĠtÃŃseÅĪ": 7559,
      "ĠtÃŃsni": 7560,
      "ĠspÄĽchu": 7561,
      "Ġpoklid": 7562,
      "Ġzraje": 7563,
      "Ġminulost": 7564,
      "Oko": 7565,
      "ĠsrÃ¡z": 7566,
      "ĠsrdÃ©": 7567,
      "ĠÃºsvi": 7568,
      "Ġprcha": 7569,
      "pajÃŃ": 7570,
      "ĠmetÃ¡": 7571,
      "ĠmnoÅ¾stvÃŃ": 7572,
      "vrh": 7573,
      "ĠhvÄĽzdnÃ©": 7574,
      "Ġtrosky": 7575,
      "posled": 7576,
      "ĠtÃ³n": 7577,
      "ĠÅ¾ehnÃ¡": 7578,
      "ĠÄįtve": 7579,
      "ĠVÃ¡cla": 7580,
      "tar": 7581,
      "ĠnelÃŃ": 7582,
      "ĠnahÃ¡": 7583,
      "ĠudÄĽla": 7584,
      "doval": 7585,
      "Ġmine": 7586,
      "lout": 7587,
      "milÃ¡": 7588,
      "Ġsluchu": 7589,
      "Ġrukama": 7590,
      "ĠlehkÃ½": 7591,
      "ĠvÃ¡Å¾nÃ½": 7592,
      "clo": 7593,
      "zil": 7594,
      "Ã¡jem": 7595,
      "chtÃŃ": 7596,
      "Å¥at": 7597,
      "musÃŃ": 7598,
      "ĠmuÄįÃŃ": 7599,
      "Ġniv": 7600,
      "ĠzÃ¡vod": 7601,
      "ĠruÅ¡ÃŃ": 7602,
      "Nepo": 7603,
      "Ġvraha": 7604,
      "ĠCÃŃ": 7605,
      "Ġzvedne": 7606,
      "ĠÅĻasy": 7607,
      "ĠnebezpeÄįÃŃ": 7608,
      "Ġprince": 7609,
      "pku": 7610,
      "ĠvÄįe": 7611,
      "Ġvdech": 7612,
      "ĠstkvÃŃ": 7613,
      "kan": 7614,
      "Ġmozku": 7615,
      "vejte": 7616,
      "mÃŃru": 7617,
      "ÄĮlovÄĽk": 7618,
      "ĠcÃ¡": 7619,
      "ĠbÄĽlÃ¡": 7620,
      "vraÅ¾": 7621,
      "ĠokolÃŃ": 7622,
      "Ġobrazy": 7623,
      "Ġroucha": 7624,
      "ĠVyÅ¡e": 7625,
      "ĠmÄĽsÃŃci": 7626,
      "ĠverÅ¡Å¯": 7627,
      "Ġresigna": 7628,
      "hroz": 7629,
      "sÅ¡ÃŃ": 7630,
      "tvÃŃ": 7631,
      "ĠptÃ¡m": 7632,
      "vÃ¡nÃŃm": 7633,
      "Äįeje": 7634,
      "Ġluhu": 7635,
      "ĠtichÃ½ch": 7636,
      "Ġhloubky": 7637,
      "ĠpoÅ¾ehnÃ¡": 7638,
      "Ġdoktor": 7639,
      "Ġvstala": 7640,
      "ĠdÃ¡Å¡": 7641,
      "ĠÃºtra": 7642,
      "Ġhrozi": 7643,
      "ĠMÄĽ": 7644,
      "Ġmlhou": 7645,
      "Ġleskne": 7646,
      "kvetla": 7647,
      "ĠpovÄĽst": 7648,
      "ĠubohÃ©": 7649,
      "eru": 7650,
      "ĠssÃ¡": 7651,
      "ĠnevrÃ¡tÃŃ": 7652,
      "Ġtane": 7653,
      "prve": 7654,
      "ĠmnoÅ¾ÃŃ": 7655,
      "ĠmocnÃ¡": 7656,
      "Ġkletba": 7657,
      "ĠtÅĻÃ¡s": 7658,
      "Ġzval": 7659,
      "ĠpomnÄĽ": 7660,
      "ĠnaÅ¡li": 7661,
      "ĠâĢĵ:": 7662,
      "skat": 7663,
      "pole": 7664,
      "Ġhodil": 7665,
      "ĠplÃ¡nÄĽ": 7666,
      "ĠfrÃ¡": 7667,
      "ĠznÃ¡te": 7668,
      "ĠslavnÃ½ch": 7669,
      "Ġsadu": 7670,
      "ĠÅĪÃ¡dra": 7671,
      "ĠsnoubÃŃ": 7672,
      "Ġchalou": 7673,
      "Ġprobou": 7674,
      "Ġvzo": 7675,
      "ĠpÅĻil": 7676,
      "Ġodpor": 7677,
      "ĠtvrdÃ½": 7678,
      "ĠneznÃ¡mÃ½": 7679,
      "kvi": 7680,
      "ĠdvakrÃ¡t": 7681,
      "Ġrozva": 7682,
      "ĠnÄĽkolik": 7683,
      "ĠstÃ¡vÃ¡": 7684,
      "ĠdobrÃ½ch": 7685,
      "pÃ¡ch": 7686,
      "skoÄįÃŃ": 7687,
      "ĠdÅĻÃŃma": 7688,
      "lechti": 7689,
      "ĠkrajÅ¯": 7690,
      "Ġzpola": 7691,
      "ĠtisÃŃci": 7692,
      "Ġpodu": 7693,
      "Ġpoled": 7694,
      "ĠdÄĽd": 7695,
      "Ġpranic": 7696,
      "ĠdÃŃvat": 7697,
      "ĠmÃŃjÃŃ": 7698,
      "ÄĮech": 7699,
      "ĠnejdraÅ¾Å¡ÃŃ": 7700,
      "vzduch": 7701,
      "Ġtrav": 7702,
      "ĠboÅ¾stvÃŃ": 7703,
      "Dlouho": 7704,
      "nkÅ¯": 7705,
      "nskÃ½": 7706,
      "Å¾bÃ¡": 7707,
      "Ġsel": 7708,
      "vatu": 7709,
      "Ġzaha": 7710,
      "taj": 7711,
      "Äįinou": 7712,
      "syn": 7713,
      "rii": 7714,
      "Ġtvojich": 7715,
      "ĠhorÅ¡ÃŃ": 7716,
      "ĠbrÃ¡nu": 7717,
      "ĠumÅĻel": 7718,
      "ĠulicÃŃch": 7719,
      "marnÄĽ": 7720,
      "ĠpodÄĽ": 7721,
      "ĠpokolenÃŃ": 7722,
      "tiÅ¾": 7723,
      "tisÃŃc": 7724,
      "ĠnÄĽhou": 7725,
      "ĠnÃŃtÃŃ": 7726,
      "ĠbÃŃdnÃ©": 7727,
      "ĠvÃ½smÄĽ": 7728,
      "ĠlaÅĪ": 7729,
      "Ġhrdi": 7730,
      "ĠbojÅ¯": 7731,
      "ĠnevÄĽdÄĽl": 7732,
      "ĠslouÅ¾ÃŃ": 7733,
      "ĠÅłtÄĽ": 7734,
      "Ġknize": 7735,
      "koliv": 7736,
      "ĠÅ½iÅ¾ka": 7737,
      "TÄĽch": 7738,
      "ĠvzÃŃt": 7739,
      "ĠsÃŃmÄĽ": 7740,
      "Ġvlek": 7741,
      "vÄĽtÅĻÃŃ": 7742,
      "ĠmÃ¡Å¥": 7743,
      "ĠpÅĻedsta": 7744,
      "ĠzdÃ¡la": 7745,
      "ĠklidnÃ©": 7746,
      "Ġnebla": 7747,
      "Ġgro": 7748,
      "ĠveselÃŃ": 7749,
      "ĠstÅĻÃŃbrem": 7750,
      "ĠdrobnÃ½ch": 7751,
      "ĠpsanÃŃ": 7752,
      "cÃ©": 7753,
      "Ġnepla": 7754,
      "vÃŃme": 7755,
      "ĠzÃ¡pal": 7756,
      "ĠdÄĽvu": 7757,
      "ĠzemÅĻel": 7758,
      "Ġkup": 7759,
      "ĠstarÃ½m": 7760,
      "ĠptÃ¡ky": 7761,
      "ĠÄįÃŃst": 7762,
      "ĠzÃŃral": 7763,
      "Ġpokra": 7764,
      "NÃ¡hle": 7765,
      "Ġvezdy": 7766,
      "ĠdÄĽlat": 7767,
      "Ġprsten": 7768,
      "ĠvzrÅ¯stÃ¡": 7769,
      "Rci": 7770,
      "chan": 7771,
      "Ġoprav": 7772,
      "nam": 7773,
      "dejte": 7774,
      "tovat": 7775,
      "Ġrozpa": 7776,
      "Ġlije": 7777,
      "bilo": 7778,
      "ĠpÃ¡du": 7779,
      "Ġcvr": 7780,
      "ĠkleÄįÃŃ": 7781,
      "VzpomÃŃ": 7782,
      "ckÃ©ho": 7783,
      "ĠteplÃ©": 7784,
      "Moc": 7785,
      "ĠkvÃ©st": 7786,
      "Ġshr": 7787,
      "Ġpojednou": 7788,
      "Å¥ast": 7789,
      "ĠÅ¡al": 7790,
      "ĠvÄĽdÄĽt": 7791,
      "Ġvyjde": 7792,
      "Ġmuzi": 7793,
      "ĠvojÃŃ": 7794,
      "ĠpÃŃsek": 7795,
      "Ġspor": 7796,
      "ĠÅ¾havÃ¡": 7797,
      "ĠstÄĽÅ¾ÃŃ": 7798,
      "ĠnevdÄĽ": 7799,
      "ĠvzÃ¡cnÃ½": 7800,
      "spÃŃÅ¡": 7801,
      "ĠsluneÄįnÃŃ": 7802,
      "ĠVÅ¾dyÅ¥": 7803,
      "Ġloktech": 7804,
      "Pi": 7805,
      "rodu": 7806,
      "jetÃŃ": 7807,
      "Ġdoly": 7808,
      "Ġkohou": 7809,
      "ĠmÃŃÅĻÃŃ": 7810,
      "Jednou": 7811,
      "ĠjemnÃ©": 7812,
      "Ġpolibek": 7813,
      "Ġzdali": 7814,
      "Br": 7815,
      "vÅĻe": 7816,
      "livou": 7817,
      "rdÃŃ": 7818,
      "Ġrozez": 7819,
      "ĠtiÅ¡i": 7820,
      "Ġobry": 7821,
      "ĠvodÃŃ": 7822,
      "Å¡enÃ½ch": 7823,
      "ĠtemnÃ¡": 7824,
      "ÅĻemen": 7825,
      "ĠdÅĻÃŃme": 7826,
      "Ġzbroj": 7827,
      "ĠPÃ¡nu": 7828,
      "Ven": 7829,
      "Ġzpi": 7830,
      "ÄįnÃ©ho": 7831,
      "vyso": 7832,
      "Ġlide": 7833,
      "Ġsluha": 7834,
      "stÃ¡r": 7835,
      "Ġzloby": 7836,
      "ĠbrÃ¡na": 7837,
      "stÅĻÃŃb": 7838,
      "ĠdivokÃ©": 7839,
      "Ġpevnou": 7840,
      "ĠvzdÃ¡len": 7841,
      "ĠneznÃ¡mÃ©": 7842,
      "ĠmrÃ¡ko": 7843,
      "ĠkvÃ©sti": 7844,
      "Chy": 7845,
      "ZpÃŃ": 7846,
      "tl": 7847,
      "vnou": 7848,
      "ĠzaÅ¡ep": 7849,
      "Ġuho": 7850,
      "ĠÅ¾ivou": 7851,
      "hledÃŃ": 7852,
      "ĠpustÃ¡": 7853,
      "Ġmrakem": 7854,
      "ĠobÄĽtÃŃ": 7855,
      "ĠmoudrÃ½": 7856,
      "Mla": 7857,
      "ana": 7858,
      "Ġvno": 7859,
      "ĠnevÃ¡": 7860,
      "ĠnabÃŃ": 7861,
      "dovi": 7862,
      "ĠkovÃ¡": 7863,
      "ĠvzlÃ©t": 7864,
      "Ġduma": 7865,
      "Ġrtoma": 7866,
      "Ġske": 7867,
      "ĠpodveÄįer": 7868,
      "ĠÅ¡erÃ½": 7869,
      "Ġdivem": 7870,
      "rozenÃŃ": 7871,
      "ĠsuchÃ©": 7872,
      "MÃ¡Å¡": 7873,
      "Ġdarem": 7874,
      "VidÃŃm": 7875,
      "Ġrozply": 7876,
      "ĠumÃŃrÃ¡nÃŃ": 7877,
      "dar": 7878,
      "lep": 7879,
      "Ġzatra": 7880,
      "Ġdovo": 7881,
      "Ġstarci": 7882,
      "gie": 7883,
      "ĠkvÄĽte": 7884,
      "Ġsboru": 7885,
      "PoslednÃŃ": 7886,
      "chej": 7887,
      "Ġjdem": 7888,
      "ĠopÃŃ": 7889,
      "ĠjeseÅĪ": 7890,
      "loÅ¾il": 7891,
      "Ġrozkaz": 7892,
      "ĠhlasnÄĽ": 7893,
      "ĠtulÃŃ": 7894,
      "ĠpaÅ¾e": 7895,
      "ĠPÅĻÃŃ": 7896,
      "nesou": 7897,
      "ĠdobÃ¡ch": 7898,
      "ĠjasnÃ½ch": 7899,
      "ĠtÃ¡hla": 7900,
      "Ġpaty": 7901,
      "ĠvolÃ¡m": 7902,
      "bas": 7903,
      "ĠzaÅ¡el": 7904,
      "Ġrodnou": 7905,
      "Äıas": 7906,
      "Ġrudou": 7907,
      "Ġtahy": 7908,
      "ĠprÃ¡vem": 7909,
      "ĠsvÄĽÅ¾e": 7910,
      "Ġhude": 7911,
      "Ġjala": 7912,
      "Ġtrudu": 7913,
      "ĠpohÃ¡dka": 7914,
      "ZdaÅ¾": 7915,
      "ĠotevÅĻel": 7916,
      "ĠvlÃŃdnÃ½": 7917,
      "ĠmdlÃ©": 7918,
      "ĠjakÃ©s": 7919,
      "Ġtka": 7920,
      "Ġses": 7921,
      "Ġnesk": 7922,
      "ĠuchvÃ¡": 7923,
      "potom": 7924,
      "lÃ©tla": 7925,
      "res": 7926,
      "Ġdivou": 7927,
      "ĠprÃ¡vu": 7928,
      "ĠkeÅĻi": 7929,
      "ĠhrÅ¯z": 7930,
      "ĠznaÄįÃŃ": 7931,
      "ĠpestrÃ½": 7932,
      "ĠstvoÅĻil": 7933,
      "Ġlampa": 7934,
      "ĠnevÃ½slov": 7935,
      "Oj": 7936,
      "Ġneklid": 7937,
      "Ġdoli": 7938,
      "Ġmozek": 7939,
      "Ġlest": 7940,
      "ĠvÄĽÅĻil": 7941,
      "ĠbohÅ¯m": 7942,
      "ĠBla": 7943,
      "ĠmodrÃ¡": 7944,
      "ĠdlouhÃ½m": 7945,
      "pouta": 7946,
      "ĠmyÅ¡lenka": 7947,
      "ĠmyÅ¡lÃ©nka": 7948,
      "ĠmraÄįno": 7949,
      "ĠkolÃ©bky": 7950,
      ".âĢĺ": 7951,
      "Pad": 7952,
      "Ġzrozen": 7953,
      "Ġmist": 7954,
      "Ġnos": 7955,
      "pÄĽtÃŃ": 7956,
      "budÃŃ": 7957,
      "ÄĮÃŃ": 7958,
      "ĠsÃŃtÃŃ": 7959,
      "ĠZem": 7960,
      "ĠJeÅ¾ÃŃ": 7961,
      "ĠskvÄĽlÃ½": 7962,
      "ĠpodzimnÃŃ": 7963,
      "Ou": 7964,
      "nÄįÃŃ": 7965,
      "Ġjeli": 7966,
      "vajÃŃcÃŃ": 7967,
      "vÃ©mu": 7968,
      "ĠrumÄĽ": 7969,
      "stejnÄĽ": 7970,
      "ĠpohnutÃŃ": 7971,
      "Ġtemnu": 7972,
      "ĠOl": 7973,
      "Veli": 7974,
      "Ġstud": 7975,
      "ĠoblakÅ¯": 7976,
      "ĠÄįtvrt": 7977,
      "Ġbiskup": 7978,
      "'s": 7979,
      "krÃ½vÃ¡": 7980,
      "enÃ©": 7981,
      "Ġposu": 7982,
      "tisÃŃce": 7983,
      "ĠpÅĻeje": 7984,
      "ĠÃºko": 7985,
      "sic": 7986,
      "Ġhromy": 7987,
      "Ġstrast": 7988,
      "ĠsilnÃ©": 7989,
      "ĠneboÅ¥": 7990,
      "Ġsloupy": 7991,
      "ĠtÅĻÃŃÅ¡tÃŃ": 7992,
      "ĠpÃ½chou": 7993,
      "Ġshni": 7994,
      "nÄĽjÃŃ": 7995,
      "naÅ¡e": 7996,
      "ĠdotÃ½": 7997,
      "Å¥al": 7998,
      "ĠvysÃŃ": 7999,
      "jistÃ©": 8000,
      "Ġduje": 8001,
      "ĠvidÄĽla": 8002,
      "saÅĻ": 8003,
      "ĠâĢŀâĢŀ": 8004,
      "ĠplnÃ©m": 8005,
      "ĠdÃ¡vnÃ½": 8006,
      "ĠspÃŃnÃ¡": 8007,
      "Ġstesku": 8008,
      "Ġtajemnou": 8009,
      "ĠzrÃ¡dce": 8010,
      "Ġkoruny": 8011,
      "ĠhlÃŃdÃ¡": 8012,
      "Kou": 8013,
      "ovi": 8014,
      "snÃ©m": 8015,
      "voda": 8016,
      "âĢĻ;": 8017,
      "Ġprachem": 8018,
      "tri": 8019,
      "ĠsloÅ¾il": 8020,
      "ĠkvÃŃtÃŃm": 8021,
      "Ġtrap": 8022,
      "ĠvdÄĽÄįnÄĽ": 8023,
      "Ġpolibky": 8024,
      "svobo": 8025,
      "vÄĽla": 8026,
      "voru": 8027,
      "kolÃŃ": 8028,
      "poj": 8029,
      "pohÃ¡": 8030,
      "ĠvÃŃÅĻe": 8031,
      "Ġbranou": 8032,
      "ĠvlÃ¡dce": 8033,
      "Ġdivoce": 8034,
      "enec": 8035,
      "hrÃ¡l": 8036,
      "ĠpÃ½chu": 8037,
      "Ġchvatem": 8038,
      "Ġzva": 8039,
      "nikdy": 8040,
      "nuje": 8041,
      "Ġrtem": 8042,
      "bohat": 8043,
      "Å¡ilo": 8044,
      "ÄįÃŃme": 8045,
      "hlÃŃd": 8046,
      "ctvo": 8047,
      "ĠÅĻadÄĽ": 8048,
      "ĠzÅ¯stane": 8049,
      "ĠbujnÃ½": 8050,
      "Ġfial": 8051,
      "MarnÄĽ": 8052,
      "ĠcÃŃrkve": 8053,
      "Kraj": 8054,
      "Ġpomi": 8055,
      "vaÅ¥": 8056,
      "dolÃ¡": 8057,
      "ĠkoÅĻÃŃ": 8058,
      "mÃŃsto": 8059,
      "ĠÃºdÄĽl": 8060,
      "ĠskÅĻe": 8061,
      "ĠvÅ¡emo": 8062,
      "ĠnÃ¡rody": 8063,
      "ĠzmÃ¡men": 8064,
      "ĠvÅĻelÃ©": 8065,
      "ĠdivokÃ½": 8066,
      "Ġobec": 8067,
      "Ġpovstal": 8068,
      "ÄĮasto": 8069,
      "ĠoÄįÃŃm": 8070,
      "ĠpoprvÃ©": 8071,
      "novÃ¡": 8072,
      "ĠzÃ¡Å¡Å¥": 8073,
      "ĠdÃ¡lek": 8074,
      "Jedi": 8075,
      "Ġslab": 8076,
      "Ġpustil": 8077,
      "Ġlupen": 8078,
      "Å¡ena": 8079,
      "ĠtrÄįÃŃ": 8080,
      "Ġchudo": 8081,
      "ĠzlobÄĽ": 8082,
      "ĠkrutÄĽ": 8083,
      "pln": 8084,
      "ĠÅĻekli": 8085,
      "Ġzakry": 8086,
      "ĠÄĮechÅ¯": 8087,
      "ĠokamÅ¾enÃŃ": 8088,
      "chÃ¡zejÃŃ": 8089,
      "Ġlebky": 8090,
      "Ġvrchol": 8091,
      "ĠklÃ¡Å¡ter": 8092,
      "Ġvadne": 8093,
      "ĠmlÃ¡deÅ¾": 8094,
      "ĠnÅ¯Å¾": 8095,
      "Å¡kÃ¡": 8096,
      "rag": 8097,
      "ĠmistÅĻe": 8098,
      "ĠrozvÃŃ": 8099,
      "ĠstraÅ¡nÃ©": 8100,
      "ĠstraÅ¡nÃ½": 8101,
      "Ġsmutkem": 8102,
      "ĠsnÄĽho": 8103,
      "Ġmrtvou": 8104,
      "hneÅ¡": 8105,
      "ĠnovÃ©ho": 8106,
      "ĠpalÃ¡c": 8107,
      "Tma": 8108,
      "dÅ¯m": 8109,
      "vskÃ©": 8110,
      "loso": 8111,
      "Ġhodina": 8112,
      "ĠnocÃŃch": 8113,
      "Ġodve": 8114,
      "ĠmÃ¡je": 8115,
      "Ġstavu": 8116,
      "Ġhrady": 8117,
      "ĠhvÄĽzdnÃ½": 8118,
      "Ġzvukem": 8119,
      "Ġkniha": 8120,
      "ĠpovÄĽz": 8121,
      "ĠnÃ©st": 8122,
      "daleko": 8123,
      "Kr": 8124,
      "hlÃ½ch": 8125,
      "ĠdÃŃm": 8126,
      "Ġbil": 8127,
      "ĠnachÃ½": 8128,
      "nÃ¡c": 8129,
      "ĠpÅĻÃŃsnÃ½": 8130,
      "Jedno": 8131,
      "Å¡enÃŃm": 8132,
      "ĠsuchÃ½": 8133,
      "ĠhrÃ¡la": 8134,
      "Ġsteskem": 8135,
      "Ġholubice": 8136,
      "Ġumu": 8137,
      "Ġuvad": 8138,
      "Ġtone": 8139,
      "ĠprochÃ¡": 8140,
      "Ġprosil": 8141,
      "Ġmok": 8142,
      "Ġkalu": 8143,
      "ĠBar": 8144,
      "ĠPod": 8145,
      "ĠbÄĽl": 8146,
      "Ġreka": 8147,
      "Ġkrov": 8148,
      "ĠZik": 8149,
      "Vese": 8150,
      "penÃ©": 8151,
      "Ġlehko": 8152,
      "ĠpotkÃ¡": 8153,
      "ĠzaÄįne": 8154,
      "Ġzvyku": 8155,
      "Ġstatky": 8156,
      "ĠveÄįeru": 8157,
      "bce": 8158,
      "Å¾eli": 8159,
      "Ġledu": 8160,
      "vina": 8161,
      "ĠdÃŃtek": 8162,
      "Ġnemu": 8163,
      "Ġsynem": 8164,
      "ĠmodrÃ½m": 8165,
      "Ġkousek": 8166,
      "Ġneur": 8167,
      "ĠozÃ½vÃ¡": 8168,
      "Ġskryl": 8169,
      "DvÄĽ": 8170,
      "KnÄĽ": 8171,
      "ĠvÄįely": 8172,
      "skÅ¯": 8173,
      "Ġuhas": 8174,
      "Ġvzhled": 8175,
      "Ġpadlo": 8176,
      "lÃ½vÃ¡": 8177,
      "ĠtouÅ¾ÃŃm": 8178,
      "ĠdobrÃ½m": 8179,
      "ĠvÅ¯lÃŃ": 8180,
      "veno": 8181,
      "Äįenou": 8182,
      "Ġnepohnu": 8183,
      "ĠhÅĻÃŃchem": 8184,
      "Ġvolnosti": 8185,
      "ĠhrÅ¯ze": 8186,
      "Ġsady": 8187,
      "ĠvÅĻele": 8188,
      "ĠskalnÃŃ": 8189,
      "Ġaj": 8190,
      "Ġjedu": 8191,
      "valu": 8192,
      "skak": 8193,
      "ĠzahÅĻ": 8194,
      "ĠvyÄįÃŃ": 8195,
      "Ġboky": 8196,
      "ĠÅ¾ivÃ½ch": 8197,
      "Ġpavou": 8198,
      "ĠdÄĽlo": 8199,
      "Ġhrot": 8200,
      "ĠAr": 8201,
      "ĠblÃŃzku": 8202,
      "VeÄįer": 8203,
      "Ġbledne": 8204,
      "Ġhousle": 8205,
      "ĠhoÅĻce": 8206,
      "ĠhÅ¯ry": 8207,
      "ĠJako": 8208,
      "Ġokouz": 8209,
      "ĠnavrÃ¡": 8210,
      "Ġused": 8211,
      "ĠustÃ¡nÃŃ": 8212,
      "Ġmih": 8213,
      "stavu": 8214,
      "ĠVel": 8215,
      "ĠpouhÃ¡": 8216,
      "ĠslÃ¡b": 8217,
      "ĠkÅĻiku": 8218,
      "Kdybych": 8219,
      "ĠchraÅĪ": 8220,
      "Ġzpra": 8221,
      "jede": 8222,
      "ĠÅ¡kÅ¯": 8223,
      "Ġobi": 8224,
      "paly": 8225,
      "ĠlÃŃbat": 8226,
      "ĠSvÄĽt": 8227,
      "JejÃŃ": 8228,
      "Ġcizo": 8229,
      "Ġsouzvuk": 8230,
      "Ġmrav": 8231,
      "Ġmrazi": 8232,
      "ĠÅ¾ÃŃznÃŃ": 8233,
      "ĠspÄĽchal": 8234,
      "Ġgene": 8235,
      "ĠdrÃ¡Å¾": 8236,
      "Ġzmije": 8237,
      "ĠJaro": 8238,
      "ĠtvÅ¯rÄįÃŃ": 8239,
      "mÃ½m": 8240,
      "tnÃ½m": 8241,
      "zvlÃ¡": 8242,
      "ĠsbÃŃrÃ¡": 8243,
      "Ġdoj": 8244,
      "ĠhoroucÃŃ": 8245,
      "ĠniÄįem": 8246,
      "zet": 8247,
      "ĠBet": 8248,
      "Äįkami": 8249,
      "Ġoknech": 8250,
      "ĠÄĮi": 8251,
      "ĠstÅĻÃŃbrnÃ©": 8252,
      "ĠpÃ©ro": 8253,
      "Ġlilie": 8254,
      "Be": 8255,
      "ckÃ©m": 8256,
      "th": 8257,
      "zve": 8258,
      "lekÃ¡": 8259,
      "cejÃŃ": 8260,
      "Ġprale": 8261,
      "pÄĽnÃŃ": 8262,
      "ĠdÃŃvÃ¡m": 8263,
      "ĠSta": 8264,
      "ĠnejlepÅ¡ÃŃ": 8265,
      "Ġsamy": 8266,
      "ĠbÄĽla": 8267,
      "ĠbÄĽlo": 8268,
      "ĠmnozÃŃ": 8269,
      "ĠchorÃ©": 8270,
      "ĠosvÄĽ": 8271,
      "ĠzelenÃ½": 8272,
      "Ġchalu": 8273,
      "ĠpÃ½chy": 8274,
      "ĠpsÃ¡no": 8275,
      "bku": 8276,
      "Ġsmo": 8277,
      "Ġhocha": 8278,
      "Ġkovo": 8279,
      "ĠvÃ¡hÃ¡": 8280,
      "rÅ¯stÃ¡": 8281,
      "ĠÄįlovÄĽÄįen": 8282,
      "dnÃŃk": 8283,
      "Ġstup": 8284,
      "Ġskryt": 8285,
      "Ġsnila": 8286,
      "ĠmÄĽkkÃ¡": 8287,
      "ĠhloÅ¾ÃŃ": 8288,
      "ĠdÃ¡me": 8289,
      "Äįata": 8290,
      "ĠveÅĻe": 8291,
      "taje": 8292,
      "ĠrudÃ½ch": 8293,
      "ĠSla": 8294,
      "Ġstanu": 8295,
      "Ġjsouc": 8296,
      "ĠÅ¡ÃŃj": 8297,
      "ĠtluÄįe": 8298,
      "Ġvichrem": 8299,
      "ĠKriste": 8300,
      "Ġvezmi": 8301,
      "blÃ½": 8302,
      "vÅ¡ÃŃm": 8303,
      "naje": 8304,
      "ĠmÃ¡ji": 8305,
      "ĠtÃŃÅ¾e": 8306,
      "myslil": 8307,
      "Ġtravou": 8308,
      "Ġklesne": 8309,
      "bÅĻeÅ¾ÃŃ": 8310,
      "ĠpalÃ¡ce": 8311,
      "ĠjitÅĻnÃŃ": 8312,
      "DÄĽl": 8313,
      "ĠrojÃŃ": 8314,
      "dÃ¡t": 8315,
      "pel": 8316,
      "ĠpÅĻedkÅ¯": 8317,
      "ĠbÃ¡seÅĪ": 8318,
      "ĠchutÃŃ": 8319,
      "ĠstÄĽn": 8320,
      "Ġblouzni": 8321,
      "ĠnekoneÄįnÃ©": 8322,
      "ĠandÄĽlÃ©": 8323,
      "StÃŃn": 8324,
      "Um": 8325,
      "psal": 8326,
      "vÃ¡na": 8327,
      "Ġvesni": 8328,
      "Ġduhu": 8329,
      "Ġbor": 8330,
      "biti": 8331,
      "Ġdalo": 8332,
      "ĠjednotvÃ¡": 8333,
      "ĠveselÃ½": 8334,
      "ĠstejnÃ©": 8335,
      "ĠÅĺe": 8336,
      "ĠMari": 8337,
      "Ġchladu": 8338,
      "ĠblaÅ¾enosti": 8339,
      "He": 8340,
      "mlÃ¡": 8341,
      "tvou": 8342,
      "ĠlÃ½": 8343,
      "Å¾ku": 8344,
      "ĠdÅ¾bÃ¡": 8345,
      "ĠnahÃ©": 8346,
      "ĠnajdeÅ¡": 8347,
      "ĠâĢĵ!": 8348,
      "ĠzalÃŃ": 8349,
      "poko": 8350,
      "ĠÅ¡pa": 8351,
      "byly": 8352,
      "ĠvzÅĪat": 8353,
      "Ġvysta": 8354,
      "coval": 8355,
      "stili": 8356,
      "ĠÅ¾eÅĪ": 8357,
      "Ġpadal": 8358,
      "Ġtaji": 8359,
      "ĠkabÃ¡": 8360,
      "ĠvlaÅ¡to": 8361,
      "ĠokÅĻÃŃ": 8362,
      "Ġkruhy": 8363,
      "Ġoblaka": 8364,
      "ĠmoudÅĻe": 8365,
      "ĠzaÅ¡lÃ©": 8366,
      "myÅ¡lÃ©": 8367,
      "Vlast": 8368,
      "ĠvÄĽÅĻte": 8369,
      "ÅĻÃŃme": 8370,
      "jet": 8371,
      "jezd": 8372,
      "Ġhostem": 8373,
      "bolest": 8374,
      "ĠÅĻeku": 8375,
      "ĠstarÅ¡ÃŃ": 8376,
      "skÃ¡ch": 8377,
      "skoÄįil": 8378,
      "zeno": 8379,
      "ĠbrÃ¡t": 8380,
      "Ġstudu": 8381,
      "ĠPÃ¡na": 8382,
      "Ġodevz": 8383,
      "nkÃ½": 8384,
      "nikdo": 8385,
      "veho": 8386,
      "ĠvÄĽzenÃŃ": 8387,
      "Ġvozy": 8388,
      "ĠPÃŃ": 8389,
      "mÃ¡Å¾": 8390,
      "ĠsÃŃnÃŃ": 8391,
      "ĠzloÄįin": 8392,
      "ĠchladnÃ¡": 8393,
      "Ġout": 8394,
      "Ġrakve": 8395,
      "Kterak": 8396,
      "ĠdeÅ¡tÄĽm": 8397,
      "lnÃ©": 8398,
      "ĠtkvÃŃ": 8399,
      "ĠbÅĻit": 8400,
      "Ġjesky": 8401,
      "ruÅ¡ÃŃ": 8402,
      "Ġprob": 8403,
      "vele": 8404,
      "sily": 8405,
      "ÄįenÃ½ch": 8406,
      "Ġvrh": 8407,
      "ĠhvÄĽzdu": 8408,
      "ĠkrutÃ¡": 8409,
      "ĠzvÄĽsti": 8410,
      "ĠFi": 8411,
      "ĠboÅ¾skÃ½": 8412,
      "NeÅ¾li": 8413,
      "ĠvzdechÅ¯": 8414,
      "KterÃ½": 8415,
      "ĠnenÃ¡vist": 8416,
      "Otec": 8417,
      "ÃŃnÃ¡": 8418,
      "enÃ½": 8419,
      "ĠnedÄĽli": 8420,
      "polu": 8421,
      "ĠÅ¡pÃŃ": 8422,
      "ĠÅ¡kol": 8423,
      "ĠholÃ¡": 8424,
      "Ġleje": 8425,
      "Ġvzcho": 8426,
      "ĠvÄĽdomÃŃ": 8427,
      "ĠoblÃ©": 8428,
      "ĠtakovÃ©": 8429,
      "ĠÃºbÄĽ": 8430,
      "Ġpravila": 8431,
      "Ġtanec": 8432,
      "ĠzasvÄĽ": 8433,
      "ĠlukÃ¡ch": 8434,
      "Ġstromech": 8435,
      "ĠptÃ¡Äįek": 8436,
      "Ġsamoty": 8437,
      "VzhÅ¯ru": 8438,
      "ĠhÅĻeje": 8439,
      "ĠzasmuÅ¡il": 8440,
      "HÃ¡": 8441,
      "hlad": 8442,
      "Ġzry": 8443,
      "Äįkej": 8444,
      "leÅ¥": 8445,
      "rodil": 8446,
      "ĠpromÄĽnÃŃ": 8447,
      "ĠkolÃŃ": 8448,
      "ĠvztÃ½": 8449,
      "pati": 8450,
      "mÃ¡lo": 8451,
      "vatÃ©": 8452,
      "Ġpodal": 8453,
      "Ġnejslad": 8454,
      "kdos": 8455,
      "ĠsnÄĽhy": 8456,
      "ĠmocnÃ½m": 8457,
      "ĠsilnÄĽ": 8458,
      "Ġplamenem": 8459,
      "ĠvÃŃtÄĽzÃŃ": 8460,
      "Ġpruh": 8461,
      "ĠÅ¡tÃŃty": 8462,
      "ĠzuÅĻi": 8463,
      "ĠdÄĽtskÃ½": 8464,
      "ĠnemÃ¡Å¡": 8465,
      "Ġdomova": 8466,
      "ĠhlÃŃny": 8467,
      "ĠsmyslÅ¯": 8468,
      "Ġrozumu": 8469,
      "Mnoho": 8470,
      "ĠÅ¡klebÃŃ": 8471,
      "ĠsvatebnÃŃ": 8472,
      "the": 8473,
      "Ġzabo": 8474,
      "....": 8475,
      "dÄĽn": 8476,
      "Ġskou": 8477,
      "ĠdÃŃvek": 8478,
      "ĠplachÃ©": 8479,
      "vzal": 8480,
      "ĠZde": 8481,
      "ĠstÅĻela": 8482,
      "Ġslunka": 8483,
      "NÃ¡s": 8484,
      "ĠpÅĻemÃŃ": 8485,
      "ĠzkamenÄĽ": 8486,
      "ĠznamenÃ¡": 8487,
      "De": 8488,
      "VÅ¡em": 8489,
      "ĠslÃ©t": 8490,
      "Ġmen": 8491,
      "ĠvztÃ¡": 8492,
      "dan": 8493,
      "dÃŃval": 8494,
      "Ġtakou": 8495,
      "hÃ¡Äį": 8496,
      "ĠhroznÄĽ": 8497,
      "ĠHy": 8498,
      "Dokud": 8499,
      "ĠOlym": 8500,
      "ĠstÅĻely": 8501,
      "ĠÄįÃŃhÃ¡": 8502,
      "ĠbludnÃ©": 8503,
      "ĠblÃ¡ho": 8504,
      "ĠdÄĽtskÃ½ch": 8505,
      "vnÃ¡": 8506,
      "Ġdmou": 8507,
      "strÃ¡": 8508,
      "ruce": 8509,
      "nÃ¡ÅĻ": 8510,
      "Ġdivu": 8511,
      "ĠdajÃŃ": 8512,
      "ĠusmÃ¡l": 8513,
      "ĠdÄĽtmi": 8514,
      "ĠnaÅ¡im": 8515,
      "ÄįÃ¡tko": 8516,
      "ĠpÅĻÃ¡telstvÃŃ": 8517,
      "starÃ½": 8518,
      "ĠspanilÃ¡": 8519,
      "ĠmlÃ½n": 8520,
      "nedo": 8521,
      "jed": 8522,
      "Ġzava": 8523,
      "Ġjih": 8524,
      "ĠprostÄĽ": 8525,
      "danou": 8526,
      "ĠAÅ¥": 8527,
      "ĠJsi": 8528,
      "ĠstÅĻechu": 8529,
      "ĠdÃŃvko": 8530,
      "Ġhynou": 8531,
      "Ġoblohy": 8532,
      "Ġkvas": 8533,
      "hromÃ¡Å¾": 8534,
      "ĠkoÅĻeny": 8535,
      "ĠhedbÃ¡": 8536,
      "bÃŃm": 8537,
      "ton": 8538,
      "ĠÄįekat": 8539,
      "ĠÄįisto": 8540,
      "Ġmalo": 8541,
      "ĠmaliÄį": 8542,
      "Ġmeze": 8543,
      "Ġfu": 8544,
      "Ġmyslit": 8545,
      "ĠzpÃŃvajÃŃ": 8546,
      "ĠjemnÃ½": 8547,
      "ĠkÅĻikem": 8548,
      "benÃ½": 8549,
      "Ġohla": 8550,
      "Ġdopo": 8551,
      "miÅ¾": 8552,
      "Ġskvo": 8553,
      "ĠBal": 8554,
      "mena": 8555,
      "Ġca": 8556,
      "TobÄĽ": 8557,
      "ĠhledÄĽt": 8558,
      "ĠÅĻÃŃc": 8559,
      "Ġkama": 8560,
      "ĠmarnÃ¡": 8561,
      "ĠdÅ¯kaz": 8562,
      "Ġpochod": 8563,
      "ĠpoÅ¾ehna": 8564,
      "ĠknÄĽÅ¾na": 8565,
      "SpÃŃ": 8566,
      "Ġschy": 8567,
      "ĠmÅ¯": 8568,
      "Ġpohla": 8569,
      "ĠzaÅ¡la": 8570,
      "ĠzamyÅ¡len": 8571,
      "Ġprokla": 8572,
      "mÃŃrÃ¡": 8573,
      "ĠdÃŃtko": 8574,
      "Ġzaslech": 8575,
      "Ġkusy": 8576,
      "ĠtrpÄĽl": 8577,
      "Ġmilosrd": 8578,
      "ĠhvÄĽzdo": 8579,
      "tomil": 8580,
      "ĠsterÃ©": 8581,
      "ĠpÄĽknÃ½": 8582,
      "Ġchmury": 8583,
      "ĠvÅĻava": 8584,
      "jehoÅ¾": 8585,
      "ĠpustÃ½ch": 8586,
      "BlÃŃ": 8587,
      "Mlu": 8588,
      "Å¡len": 8589,
      "ĠmnÃŃ": 8590,
      "ĠdlÃ¡": 8591,
      "ĠzapÃ¡": 8592,
      "ĠpodlÃ©": 8593,
      "bÃŃlÃ©": 8594,
      "Ġpustou": 8595,
      "jÅ¡ÃŃch": 8596,
      "ĠjejichÅ¾": 8597,
      "cÃŃmu": 8598,
      "ÅĺÃŃ": 8599,
      "Ġkameny": 8600,
      "ĠkvÄĽtin": 8601,
      "knul": 8602,
      "ĠsbÄĽ": 8603,
      "Äįu": 8604,
      "ÄįlovÄĽk": 8605,
      "ĠpÅĻeko": 8606,
      "ĠbolÅ¯": 8607,
      "tavÃ½": 8608,
      "ĠSlova": 8609,
      "Ġkoutku": 8610,
      "ĠmilÃ½m": 8611,
      "ĠhrÅ¯zu": 8612,
      "ĠobrÃ¡til": 8613,
      "ĠtÃ©mÄĽÅĻ": 8614,
      "Å¡uje": 8615,
      "las": 8616,
      "lovi": 8617,
      "ruch": 8618,
      "tostÃŃ": 8619,
      "topÃ½": 8620,
      "Å¡tÄĽn": 8621,
      "ĠBer": 8622,
      "ĠÅĻekou": 8623,
      "rin": 8624,
      "ĠhravÄĽ": 8625,
      "zujÃŃ": 8626,
      "ĠpoznÃ¡nÃŃ": 8627,
      "ĠRe": 8628,
      "Ġdivnou": 8629,
      "ĠslavnÃ¡": 8630,
      "Ġdoubra": 8631,
      "ĠdokonÃ¡": 8632,
      "ĠtuÅ¾by": 8633,
      "Klid": 8634,
      "aj": 8635,
      "Ġpso": 8636,
      "ÄįkÃ½": 8637,
      "ĠbdÄĽ": 8638,
      "net": 8639,
      "Ġzane": 8640,
      "Ġhlase": 8641,
      "ĠvojÃ¡k": 8642,
      "ĠcenÃŃ": 8643,
      "Å¾enÃ½m": 8644,
      "ĠplnÄĽ": 8645,
      "Ġhranice": 8646,
      "ĠtrvÃ¡": 8647,
      "ĠkrÃ¡lovna": 8648,
      "ĠProkop": 8649,
      "ĠvzplÃ¡l": 8650,
      "ĠrÅ¯Å¾emi": 8651,
      "rÃ½mi": 8652,
      "tvÃ½ch": 8653,
      "ĠCoÅ¾": 8654,
      "ĠvchÃ¡zÃŃ": 8655,
      "ĠbliÅ¾": 8656,
      "Ġhmy": 8657,
      "ĠvÄĽsÃŃ": 8658,
      "ĠtuÅ¡il": 8659,
      "ĠÅ¡edou": 8660,
      "ĠÄįinÅ¯m": 8661,
      "ĠbÃ¡zni": 8662,
      "ĠluznÃ©": 8663,
      "ĠmlhÃ¡ch": 8664,
      "ÅłÅ¥ast": 8665,
      "Ġmrtva": 8666,
      "ĠvrÃ¡tit": 8667,
      "Ġkyti": 8668,
      "Ġdvora": 8669,
      "ĠstÅĻÃŃbrnÃ½": 8670,
      "ĠzrÃ¡d": 8671,
      "ĠmodlitbÄĽ": 8672,
      "ĠstatnÃ½": 8673,
      "Ġotrok": 8674,
      "ĠpÅĻÃŃrodÄĽ": 8675,
      "Ġklobouk": 8676,
      "Blesk": 8677,
      "ZnÃ¡": 8678,
      "ken": 8679,
      "klou": 8680,
      "plou": 8681,
      "Ã©l": 8682,
      "Ġkvil": 8683,
      "Ġchasa": 8684,
      "ĠuvÃ¡": 8685,
      "nÃ¡l": 8686,
      "silo": 8687,
      "ĠsvojÃŃm": 8688,
      "ĠstraÅ¡nÄĽ": 8689,
      "Ġhluch": 8690,
      "ĠbÃ¡zeÅĪ": 8691,
      "Ġlada": 8692,
      "prvnÃŃ": 8693,
      "ĠmrtvÃ½m": 8694,
      "Ġzlosti": 8695,
      "ĠbudoucÃŃ": 8696,
      "Ġskutky": 8697,
      "Ġhovoru": 8698,
      "ĠzÃ¡pasu": 8699,
      "Ġzastavil": 8700,
      "StojÃŃ": 8701,
      "StarÃ½": 8702,
      "ĠpastÃ½ÅĻ": 8703,
      "LÃ©": 8704,
      "uma": 8705,
      "Ġsestro": 8706,
      "ĠneÄįi": 8707,
      "ĠstÃ¡lÃ½": 8708,
      "ĠvÅ¡echnÄĽch": 8709,
      "ĠvelkÃ©m": 8710,
      "hlav": 8711,
      "zoval": 8712,
      "Ġnepozna": 8713,
      "ĠzÅĻÃŃdka": 8714,
      "ĠstÅĻÃŃbra": 8715,
      "keÅĻ": 8716,
      "Ġskutku": 8717,
      "ĠchvÃ¡lÃŃ": 8718,
      "Ġmodlitby": 8719,
      "ĠkvÄĽtiny": 8720,
      "Ġvstoupil": 8721,
      "Ġtriumf": 8722,
      "dÅĻi": 8723,
      "sno": 8724,
      "snu": 8725,
      "vÅ¡ÃŃ": 8726,
      "Ġrosu": 8727,
      "ĠkomÃŃ": 8728,
      "Ġrcete": 8729,
      "Ġpase": 8730,
      "ĠdobÅĻÃŃ": 8731,
      "Ġdere": 8732,
      "jaly": 8733,
      "pasÅ¥": 8734,
      "ĠodeÅ¡el": 8735,
      "ĠÅ¾lutÃ½": 8736,
      "Ġzmatek": 8737,
      "Ejhle": 8738,
      "milovÃ¡nÃŃ": 8739,
      "Ġsoucitu": 8740,
      "ĠsnÅ¯m": 8741,
      "dec": 8742,
      "Ġduhy": 8743,
      "zit": 8744,
      "ĠotÅĻÃ¡": 8745,
      "Ġmodrou": 8746,
      "ĠspoÄįi": 8747,
      "vÅ¡ecky": 8748,
      "Ġtlukou": 8749,
      "SmÄĽ": 8750,
      "ĠrobÄĽ": 8751,
      "alÃ©": 8752,
      "ĠÅ¾es": 8753,
      "ĠÅ¾ehna": 8754,
      "ĠnÄĽha": 8755,
      "ĠhromÅ¯": 8756,
      "ĠpÄĽvec": 8757,
      "ĠÅĻÃŃd": 8758,
      "Ġskok": 8759,
      "Ġokovy": 8760,
      "ĠvolnÃ©": 8761,
      "ĠzelenÃ¡": 8762,
      "ĠblÃ¡to": 8763,
      "ĠJiÅ¾": 8764,
      "ĠubohÃ½": 8765,
      "Ġtrysk": 8766,
      "Ġnevinnosti": 8767,
      "ĠByl": 8768,
      "ĠÅ¾alÃ¡ÅĻ": 8769,
      "Zvu": 8770,
      "blÃ¡": 8771,
      "Å¾lu": 8772,
      "nÃŃÅ¾e": 8773,
      "ruka": 8774,
      "ĠhojnÄĽ": 8775,
      "ĠrudÃ½m": 8776,
      "Ġkara": 8777,
      "Ġsoudru": 8778,
      "Ġzvonky": 8779,
      "Ġvrahy": 8780,
      "hnej": 8781,
      "Ġhloupo": 8782,
      "Ġbarbar": 8783,
      "ĠznÄĽnÃŃ": 8784,
      "Ġvrouc": 8785,
      "Ġdomovu": 8786,
      "Ġkmeny": 8787,
      "Ġsever": 8788,
      "ĠSlovan": 8789,
      "ĠleknÃŃ": 8790,
      "Hra": 8791,
      "Ġvnik": 8792,
      "ĠponÃŃ": 8793,
      "Ġpose": 8794,
      "Ġposa": 8795,
      "hoÅĻ": 8796,
      "noÅ¡": 8797,
      "ĠusÃŃ": 8798,
      "ĠvÃŃrou": 8799,
      "Ġspl": 8800,
      "ĠÃºpÃŃ": 8801,
      "ĠpÅĻijÃŃt": 8802,
      "moh": 8803,
      "ĠPÅĻem": 8804,
      "Ġplatno": 8805,
      "ĠchorÃ½": 8806,
      "ĠsmutnÃ½ch": 8807,
      "ĠNÃ¡": 8808,
      "ĠPrav": 8809,
      "Hro": 8810,
      "SvÄĽ": 8811,
      "dÃ¡me": 8812,
      "tnost": 8813,
      "Ġech": 8814,
      "ĠmÅ¡i": 8815,
      "ĠpolnÃŃ": 8816,
      "Ġhonem": 8817,
      "ĠzÃ¡da": 8818,
      "ĠvÃŃla": 8819,
      "ĠBra": 8820,
      "ĠÅ¡epot": 8821,
      "Ġplakat": 8822,
      "ĠnejvÃŃce": 8823,
      "Ġnesli": 8824,
      "ĠcizÃ¡": 8825,
      "Å¾eni": 8826,
      "ĠJsem": 8827,
      "Ġzdech": 8828,
      "ĠoknÄĽ": 8829,
      "ĠkÅĻiÅ¡Å¥Ã¡": 8830,
      "ĠklÃŃna": 8831,
      "Ġzove": 8832,
      "ĠCti": 8833,
      "ĠGa": 8834,
      "ĠblÃ¡z": 8835,
      "Ġopustil": 8836,
      "ĠtÃ½den": 8837,
      "Ġkladou": 8838,
      "ĠchtÃŃt": 8839,
      "ĠzÃ¡stupy": 8840,
      "Ky": 8841,
      "ÅĻmi": 8842,
      "nÄĽnÃ½ch": 8843,
      "vajÃŃc": 8844,
      "Ġzanech": 8845,
      "vÃ¡no": 8846,
      "ĠvyÅ¡li": 8847,
      "ĠvodÃ¡ch": 8848,
      "Ġlov": 8849,
      "Ġkams": 8850,
      "ĠznÃ¡mo": 8851,
      "ĠpyÅ¡nÃ½": 8852,
      "ĠtÅ¯ÅĪ": 8853,
      "ĠnÃŃzkÃ©": 8854,
      "Ġnai": 8855,
      "ĠbystÅĻi": 8856,
      "dÄĽnÃ©": 8857,
      "Ġkop": 8858,
      "Ġrozhod": 8859,
      "milejÅ¡ÃŃ": 8860,
      "Ġbudeme": 8861,
      "ĠdÄĽsnÃ¡": 8862,
      "Ġrab": 8863,
      "Ġstatek": 8864,
      "ĠprÃ½Å¡tÃŃ": 8865,
      "ĠsklonÃŃ": 8866,
      "ĠcÃŃtÃŃÅ¡": 8867,
      "ĠzbabÄĽ": 8868,
      "StÃ¡l": 8869,
      "ĠSlunce": 8870,
      "ZdrÃ¡": 8871,
      "ĠzabÃŃ": 8872,
      "ĠzazpÃŃ": 8873,
      "ĠzaznÄĽl": 8874,
      "ĠÅ¡ly": 8875,
      "ves": 8876,
      "Ġrozdr": 8877,
      "ĠvÃŃsky": 8878,
      "ĠpÅĻivi": 8879,
      "Å¾ene": 8880,
      "ĠhledÄĽ": 8881,
      "Ġvrata": 8882,
      "Ġpivo": 8883,
      "hlÃ©dne": 8884,
      "ĠvichÅĻi": 8885,
      "ĠÅ¡atÄĽ": 8886,
      "ĠvalnÃ©": 8887,
      "ĠkrÅ¯pÄĽje": 8888,
      "voluce": 8889,
      "Ġvzadu": 8890,
      "ĠodÅĻÃŃkÃ¡nÃŃ": 8891,
      "ĠfarÃ¡ÅĻ": 8892,
      "Slav": 8893,
      "ZÅĻÃŃ": 8894,
      "jsa": 8895,
      "znÃ½ch": 8896,
      "Ġpasu": 8897,
      "ĠmstÃŃ": 8898,
      "lÃ¡ska": 8899,
      "Ġzadr": 8900,
      "Ġvedli": 8901,
      "byli": 8902,
      "Ġvzma": 8903,
      "ĠÄįekajÃŃ": 8904,
      "ĠPak": 8905,
      "ĠdivÃ½m": 8906,
      "ĠKdyÅ¾": 8907,
      "temnÄĽ": 8908,
      "ĠdlouhÃ©m": 8909,
      "Ġokra": 8910,
      "Ġmrtvol": 8911,
      "zÃ¡ÅĻÃŃ": 8912,
      "ĠchladnÄĽ": 8913,
      "Ġzml": 8914,
      "ĠnimiÅ¾": 8915,
      "mluvil": 8916,
      "ĠvÄĽrnou": 8917,
      "Ġrostla": 8918,
      "Ġmiliony": 8919,
      "Da": 8920,
      "bÅĻÃŃ": 8921,
      "gen": 8922,
      "Ġzdu": 8923,
      "ĠzlÃ½m": 8924,
      "jedna": 8925,
      "Ġdojat": 8926,
      "ĠhodnÄĽ": 8927,
      "Ġvysla": 8928,
      "ĠvyznÃ¡": 8929,
      "divem": 8930,
      "ĠmÃ¡jo": 8931,
      "ĠlÃ¡ny": 8932,
      "ĠranÃŃ": 8933,
      "padl": 8934,
      "ChtÄĽ": 8935,
      "ĠslunnÃ½": 8936,
      "Ġkynul": 8937,
      "ĠkonÄįÃŃ": 8938,
      "Ġzhyne": 8939,
      "desÃ¡t": 8940,
      "ĠstÃ½skÃ¡": 8941,
      "bci": 8942,
      "dÅĻe": 8943,
      "sra": 8944,
      "ĠstenÃ¡": 8945,
      "nutÃ©": 8946,
      "Ġprose": 8947,
      "dÃ¡k": 8948,
      "ĠTat": 8949,
      "syl": 8950,
      "ĠstraÅ¡ÃŃ": 8951,
      "ĠkouÅĻÃŃ": 8952,
      "ĠtÅĻesk": 8953,
      "ĠtÃ¡Å¾e": 8954,
      "ĠspÃ¡sa": 8955,
      "Hospo": 8956,
      "ĠÅ¾havÃ½ch": 8957,
      "Nikdy": 8958,
      "ĠvÄĽtvÃŃch": 8959,
      "couz": 8960,
      "Å¾ivota": 8961,
      "Ġdosa": 8962,
      "ĠÄįte": 8963,
      "Ġtok": 8964,
      "ĠpropasÅ¥": 8965,
      "ĠvÄĽstÃŃ": 8966,
      "mÄĽlÃ©": 8967,
      "ĠruÄįe": 8968,
      "Ġkapra": 8969,
      "ĠctÄĽ": 8970,
      "hlavu": 8971,
      "Ġjaru": 8972,
      "Ġchoval": 8973,
      "ĠkvÃŃtko": 8974,
      "ĠandÄĽla": 8975,
      "VidÄĽl": 8976,
      "ĠhoÅĻkÃ©": 8977,
      "ĠkvapÃŃ": 8978,
      "ĠosamÄĽlÃ½": 8979,
      "proud": 8980,
      "Ġmelodi": 8981,
      "ĠvlnobitÃŃ": 8982,
      "Bi": 8983,
      "Vr": 8984,
      "nde": 8985,
      "zam": 8986,
      "Ġpronika": 8987,
      "ĠhoÅĻel": 8988,
      "ĠvÄĽje": 8989,
      "ĠvÄĽjÃŃ": 8990,
      "ĠkrÃ¡snÄĽjÅ¡ÃŃ": 8991,
      "Ġskrov": 8992,
      "ĠSpasi": 8993,
      "ĠzpÃŃvÃ¡m": 8994,
      "Ġzrady": 8995,
      "ĠknÄĽze": 8996,
      "ĠschÅ¯": 8997,
      "ĠschrÃ¡": 8998,
      "ĠvÃ¡Å¾nÃ©": 8999,
      "ĠvÄĽrnÃ½ch": 9000,
      "ĠuÄįinil": 9001,
      "ĠpamÄĽt": 9002,
      "HvÄĽz": 9003,
      "ĠpÅĻen": 9004,
      "ĠjdÄĽte": 9005,
      "Ġudat": 9006,
      "ĠdÃ¡na": 9007,
      "ĠpÅĻiblÃŃ": 9008,
      "Ġsvla": 9009,
      "ĠvÄĽÄįna": 9010,
      "ĠspojÃŃ": 9011,
      "ĠostÅĻÃŃ": 9012,
      "ĠostrÃ©": 9013,
      "ĠznÃ¡me": 9014,
      "ĠrozkoÅ¡i": 9015,
      "ĠchvÃ¡la": 9016,
      "ĠzdravÃ½": 9017,
      "spÄĽl": 9018,
      "ĠblÃŃzka": 9019,
      "ĠvlhkÃ©": 9020,
      "ĠlÅ¯Å¾ku": 9021,
      "VÃ¡s": 9022,
      "ĠorÃ¡": 9023,
      "Ġnepra": 9024,
      "vÃ¡me": 9025,
      "nikne": 9026,
      "Ġveta": 9027,
      "Ġvypro": 9028,
      "panÃ©": 9029,
      "Ġneznal": 9030,
      "ĠlÅ¾ÃŃ": 9031,
      "Åłla": 9032,
      "Ġkamsi": 9033,
      "ĠstrÃ¡Å¾e": 9034,
      "ĠspÄĽjÃŃ": 9035,
      "ĠhrÃ¡ti": 9036,
      "Ġzjevy": 9037,
      "ĠloupeÅ¾": 9038,
      "strach": 9039,
      "ĠkaÅ¾dÃ©mu": 9040,
      "ĠPaÅĻÃŃ": 9041,
      "ĠrÅ¯Å¾ovÃ©": 9042,
      "ZemÄĽ": 9043,
      "MlÃ¡": 9044,
      "Mlad": 9045,
      "Å¾nÃ½m": 9046,
      "Å¡um": 9047,
      "raly": 9048,
      "ĠoÄįekÃ¡": 9049,
      "Ġzamra": 9050,
      "nii": 9051,
      "Ġhodo": 9052,
      "Ġrval": 9053,
      "mÄĽst": 9054,
      "Ġobsa": 9055,
      "Ġrada": 9056,
      "ĠplazÃŃ": 9057,
      "Ġzvonek": 9058,
      "Ġpozve": 9059,
      "ĠsmÄĽlÃ©": 9060,
      "ĠkeÅĻe": 9061,
      "Ġzvedl": 9062,
      "Ġvysch": 9063,
      "ĠveÄįerem": 9064,
      "pti": 9065,
      "slÃŃm": 9066,
      "run": 9067,
      "Ġvzor": 9068,
      "ĠvÄĽzÃŃ": 9069,
      "ĠvÄĽtev": 9070,
      "Ġvym": 9071,
      "ĠvylÃŃ": 9072,
      "Ġoddechu": 9073,
      "ĠÃºpa": 9074,
      "ĠBi": 9075,
      "ĠvÃ½slu": 9076,
      "ĠÅ¡Å¥astna": 9077,
      "vlast": 9078,
      "Ġopojen": 9079,
      "Ġvelkole": 9080,
      "Ah": 9081,
      "SmÃŃ": 9082,
      "obÄĽ": 9083,
      "ovÃ½": 9084,
      "ÅĻeÄį": 9085,
      "vÃŃtÄĽ": 9086,
      "ĠveÅ¡la": 9087,
      "dÄĽlÃŃ": 9088,
      "Ġrozmil": 9089,
      "ĠÅ¾ilo": 9090,
      "ĠnÄĽkam": 9091,
      "hujÃŃ": 9092,
      "ĠbÃŃti": 9093,
      "ĠpÅ¯da": 9094,
      "Ġmocnou": 9095,
      "ĠjedenkrÃ¡t": 9096,
      "ĠlehkÃ©": 9097,
      "ĠradostnÄĽ": 9098,
      "Ġhluboka": 9099,
      "Ġmodlitbou": 9100,
      "ĠpÅĻemÃ½Å¡": 9101,
      "Ġmdloby": 9102,
      "Ġvztekem": 9103,
      "knou": 9104,
      "rnost": 9105,
      "ĠkÅ¯Å¾e": 9106,
      "host": 9107,
      "nicky": 9108,
      "are": 9109,
      "Ġvydal": 9110,
      "Ġston": 9111,
      "ĠposvÃ¡t": 9112,
      "ceno": 9113,
      "Å¡enou": 9114,
      "ÄįenÃŃm": 9115,
      "ĠslyÅ¡te": 9116,
      "Ġplesem": 9117,
      "ĠsnivÄĽ": 9118,
      "Ġmilence": 9119,
      "Ġprostoru": 9120,
      "Ġosudem": 9121,
      "smÃŃch": 9122,
      "Dech": 9123,
      "Jste": 9124,
      "Å¡no": 9125,
      "lis": 9126,
      "Ġvej": 9127,
      "ĠvydÃ¡": 9128,
      "ĠdumÃ¡ch": 9129,
      "dajÃŃcÃŃ": 9130,
      "NaÅ¡e": 9131,
      "Ġpodla": 9132,
      "ĠnejlÃŃp": 9133,
      "ĠpÅ¯li": 9134,
      "ĠtÃ¡hly": 9135,
      "Ġdcero": 9136,
      "ĠtajnÃ½": 9137,
      "vlas": 9138,
      "ĠnÄĽÅ¾nÄĽ": 9139,
      "ĠprÅ¯vodu": 9140,
      "Ġtvrdou": 9141,
      "ĠmdlÃ¡": 9142,
      "Ġpovzdech": 9143,
      "ĠveÅ¡ker": 9144,
      "Kri": 9145,
      "kÃ¡me": 9146,
      "Ġillu": 9147,
      "Ġust": 9148,
      "Ġroman": 9149,
      "vinÄĽ": 9150,
      "ĠbujÃŃ": 9151,
      "ĠÃºle": 9152,
      "Ġjedle": 9153,
      "ĠbÃŃdnÄĽ": 9154,
      "ĠpÄĽny": 9155,
      "Ġdruhem": 9156,
      "ĠsvÄĽtÃŃ": 9157,
      "Ġmnohem": 9158,
      "Ġchoro": 9159,
      "ÄįnÃŃk": 9160,
      "KterÃ©": 9161,
      "ĠuÅ¡lechti": 9162,
      "Ġhotov": 9163,
      "kna": 9164,
      "zÅĻe": 9165,
      "rodi": 9166,
      "ĠvÄĽdo": 9167,
      "ĠnÃ¡la": 9168,
      "ĠtuhÃ½": 9169,
      "Ġkanou": 9170,
      "menÃ¡": 9171,
      "ĠKam": 9172,
      "Ġoknu": 9173,
      "ĠÄįÃŃsti": 9174,
      "Å½ivo": 9175,
      "Ġzelena": 9176,
      "slyÅ¡ÃŃ": 9177,
      "ĠskvÄĽlÃ©": 9178,
      "hroma": 9179,
      "ĠÃºtÄĽchu": 9180,
      "MnohÃ½": 9181,
      "CelÃ½": 9182,
      "pte": 9183,
      "Ġsno": 9184,
      "ĠvÃŃÅ¾e": 9185,
      "Ġoble": 9186,
      "Ġteh": 9187,
      "staly": 9188,
      "Ġtance": 9189,
      "ĠvÃ¡leÄį": 9190,
      "ĠÅ¡edÃ½ch": 9191,
      "pily": 9192,
      "ĠstrastÃŃ": 9193,
      "Ġfran": 9194,
      "ĠzÅĻÃŃtel": 9195,
      "ĠÅ¾alosti": 9196,
      "ĠjarnÃŃch": 9197,
      "ÃºsmÄĽ": 9198,
      "ĠhoÅĻkÃ½": 9199,
      "ĠpestrÃ½ch": 9200,
      "ĠideÃ¡l": 9201,
      "ctva": 9202,
      "dlu": 9203,
      "Ġzajde": 9204,
      "panÃŃ": 9205,
      "ĠTÃ¡": 9206,
      "ĠvÃ½stra": 9207,
      "ĠlouÄįÃŃ": 9208,
      "Ġkrajiny": 9209,
      "ĠvÃŃtÄĽznÃ½": 9210,
      "ĠlÅ¯na": 9211,
      "Ġvzdechem": 9212,
      "ĠrajskÃ©": 9213,
      "ĠpenÃŃz": 9214,
      "!?": 9215,
      "ZpÄĽv": 9216,
      "hel": 9217,
      "Å¡nÃ©m": 9218,
      "Ġnachu": 9219,
      "hody": 9220,
      "jista": 9221,
      "davÄĽ": 9222,
      "Ġrozkvet": 9223,
      "Ġbur": 9224,
      "ĠprvnÄĽ": 9225,
      "papr": 9226,
      "bajÃŃ": 9227,
      "ĠpÃŃÅ¡Å¥": 9228,
      "Ġsype": 9229,
      "bÃ¡k": 9230,
      "ĠmeÄįi": 9231,
      "Ġnepokoj": 9232,
      "ĠznÄĽjÃŃ": 9233,
      "ĠÅ¾havou": 9234,
      "Ġstatku": 9235,
      "ĠÅ¾ivlÅ¯": 9236,
      "ĠzÃ¡vist": 9237,
      "rovat": 9238,
      "ĠoÅĻi": 9239,
      "ĠstmÃŃvÃ¡": 9240,
      "tichu": 9241,
      "viÄįka": 9242,
      "ĠskÃ½": 9243,
      "ĠTvÃ©ho": 9244,
      "Ġstopu": 9245,
      "ĠdrazÃŃ": 9246,
      "ĠchutÄĽ": 9247,
      "ĠÅ¡umu": 9248,
      "ĠztratÃŃ": 9249,
      "Ġperla": 9250,
      "ĠdruhÃ½m": 9251,
      "ĠzmÄĽny": 9252,
      "ĠsedlÃ¡": 9253,
      "ĠpÅ¯jdem": 9254,
      "ĠkalnÃ©": 9255,
      "Ġvzteku": 9256,
      "SvÅ¯j": 9257,
      "Zak": 9258,
      "ano": 9259,
      "Ġuleh": 9260,
      "stin": 9261,
      "ĠrozpÃ¡": 9262,
      "ĠniÄįÃŃ": 9263,
      "Ġpast": 9264,
      "ĠÃºÄį": 9265,
      "ĠmÃ¡lem": 9266,
      "Neu": 9267,
      "anÅ¯": 9268,
      "Ġnemy": 9269,
      "ĠstÃŃnech": 9270,
      "Ġsmuten": 9271,
      "ĠÅ¡ibeni": 9272,
      "ĠhrÃ¡ly": 9273,
      "ĠbrÃ¡nÄĽ": 9274,
      "krok": 9275,
      "ĠchvÃ¡ly": 9276,
      "ĠÃºtÄĽchy": 9277,
      "Ġplachty": 9278,
      "Vl": 9279,
      "pjal": 9280,
      "spÃ¡": 9281,
      "zena": 9282,
      "ĠvÅĻel": 9283,
      "Ġvhod": 9284,
      "ĠmÅĻÃŃt": 9285,
      "ram": 9286,
      "Ġjinam": 9287,
      "Ġrvou": 9288,
      "mÄĽlÃ½": 9289,
      "ĠtÄĽsnÄĽ": 9290,
      "ĠvÅ¡ecek": 9291,
      "ĠnÄĽmÄĽ": 9292,
      "Ġskrz": 9293,
      "ĠTvÃ©m": 9294,
      "ĠSatan": 9295,
      "ĠvlastÃŃ": 9296,
      "ĠmilÃ½ch": 9297,
      "ĠÅ¡ÃŃlÃŃ": 9298,
      "Ġvlasten": 9299,
      "Ġlouky": 9300,
      "budeÅ¡": 9301,
      "zkad": 9302,
      "Jaro": 9303,
      "ĠspÅĻÃ¡dÃ¡": 9304,
      "',": 9305,
      "ĠvkrÃ¡": 9306,
      "ĠkÅĻ": 9307,
      "ĠdÃ³": 9308,
      "nalo": 9309,
      "Ġutk": 9310,
      "asi": 9311,
      "ĠÅ¾ezlo": 9312,
      "meÄį": 9313,
      "Ġvozu": 9314,
      "ĠrÃ¡nÄĽ": 9315,
      "hlaho": 9316,
      "Ġmodli": 9317,
      "Ġspolku": 9318,
      "ĠmlÄįel": 9319,
      "ĠsvÃŃjÃŃ": 9320,
      "ĠlÃ©k": 9321,
      "vraÅ¥": 9322,
      "Ġhrdle": 9323,
      "ĠchvÃ¡le": 9324,
      "zved": 9325,
      "ĠpomÃ¡": 9326,
      "Ġnet": 9327,
      "hoÅĻe": 9328,
      "ĠdoÅ¡el": 9329,
      "ĠvzpÃŃnÃ¡": 9330,
      "daÅĻÃŃ": 9331,
      "ĠnoÄįnÃŃm": 9332,
      "Å¡iti": 9333,
      "ĠpÅĻiÅ¡ly": 9334,
      "ĠPar": 9335,
      "meny": 9336,
      "ĠsÃŃÅ¥": 9337,
      "ĠkouÅĻ": 9338,
      "ĠodpoÄįÃŃvÃ¡": 9339,
      "ĠveselÃ©": 9340,
      "ĠFau": 9341,
      "Ġzvykem": 9342,
      "Ġzbytky": 9343,
      "ĠpalÄįi": 9344,
      "ĠPÃ¡nbÅ¯h": 9345,
      "ĠstÃ©nÃ¡": 9346,
      "ĠkadeÅĻ": 9347,
      "Obra": 9348,
      "SnÃŃ": 9349,
      "Ġpnou": 9350,
      "Ġzkro": 9351,
      "Ġpoce": 9352,
      "Ġpokud": 9353,
      "voji": 9354,
      "vedou": 9355,
      "ĠvyvÃ¡": 9356,
      "Ġvyzna": 9357,
      "Äįeti": 9358,
      "sina": 9359,
      "bily": 9360,
      "ĠmÃŃst": 9361,
      "Ġlau": 9362,
      "Ġfo": 9363,
      "ĠtÃ¡bor": 9364,
[...]
