{
  "version": "1.0",
  "truncation": null,
  "padding": null,
  "added_tokens": [
    {
      "id": 0,
      "content": "<|EOS|>",
      "single_word": false,
      "lstrip": false,
      "rstrip": false,
      "normalized": false,
      "special": true
    },
    {
      "id": 1,
      "content": "<|PAD|>",
      "single_word": false,
      "lstrip": false,
      "rstrip": false,
      "normalized": false,
      "special": true
    },
    {
      "id": 2,
      "content": "<|UNK|>",
      "single_word": false,
      "lstrip": false,
      "rstrip": false,
      "normalized": false,
      "special": true
    }
  ],
  "normalizer": null,
  "pre_tokenizer": {
    "type": "ByteLevel",
    "add_prefix_space": false,
    "trim_offsets": true,
    "use_regex": true
  },
  "post_processor": {
    "type": "ByteLevel",
    "add_prefix_space": true,
    "trim_offsets": false,
    "use_regex": true
  },
  "decoder": {
    "type": "ByteLevel",
    "add_prefix_space": true,
    "trim_offsets": true,
    "use_regex": true
  },
  "model": {
    "type": "BPE",
    "dropout": null,
    "unk_token": null,
    "continuing_subword_prefix": null,
    "end_of_word_suffix": null,
    "fuse_unk": false,
    "byte_fallback": false,
    "vocab": {
      "<|EOS|>": 0,
      "<|PAD|>": 1,
      "<|UNK|>": 2,
      "!": 3,
      "\"": 4,
      "#": 5,
      "$": 6,
      "%": 7,
      "&": 8,
      "'": 9,
      "(": 10,
      ")": 11,
      "*": 12,
      "+": 13,
      ",": 14,
      "-": 15,
      ".": 16,
      "/": 17,
      "0": 18,
      "1": 19,
      "2": 20,
      "3": 21,
      "4": 22,
      "5": 23,
      "6": 24,
      "7": 25,
      "8": 26,
      "9": 27,
      ":": 28,
      ";": 29,
      "<": 30,
      "=": 31,
      ">": 32,
      "?": 33,
      "@": 34,
      "A": 35,
      "B": 36,
      "C": 37,
      "D": 38,
      "E": 39,
      "F": 40,
      "G": 41,
      "H": 42,
      "I": 43,
      "J": 44,
      "K": 45,
      "L": 46,
      "M": 47,
      "N": 48,
      "O": 49,
      "P": 50,
      "Q": 51,
      "R": 52,
      "S": 53,
      "T": 54,
      "U": 55,
      "V": 56,
      "W": 57,
      "X": 58,
      "Y": 59,
      "Z": 60,
      "[": 61,
      "\\": 62,
      "]": 63,
      "^": 64,
      "_": 65,
      "`": 66,
      "a": 67,
      "b": 68,
      "c": 69,
      "d": 70,
      "e": 71,
      "f": 72,
      "g": 73,
      "h": 74,
      "i": 75,
      "j": 76,
      "k": 77,
      "l": 78,
      "m": 79,
      "n": 80,
      "o": 81,
      "p": 82,
      "q": 83,
      "r": 84,
      "s": 85,
      "t": 86,
      "u": 87,
      "v": 88,
      "w": 89,
      "x": 90,
      "y": 91,
      "z": 92,
      "{": 93,
      "|": 94,
      "}": 95,
      "~": 96,
      "¡": 97,
      "¢": 98,
      "£": 99,
      "¤": 100,
      "¥": 101,
      "¦": 102,
      "§": 103,
      "¨": 104,
      "©": 105,
      "ª": 106,
      "«": 107,
      "¬": 108,
      "®": 109,
      "¯": 110,
      "°": 111,
      "±": 112,
      "²": 113,
      "³": 114,
      "´": 115,
      "µ": 116,
      "¶": 117,
      "·": 118,
      "¸": 119,
      "¹": 120,
      "º": 121,
      "»": 122,
      "¼": 123,
      "½": 124,
      "¾": 125,
      "¿": 126,
      "Â": 127,
      "Ã": 128,
      "Ä": 129,
      "Å": 130,
      "Ċ": 131,
      "Ġ": 132,
      "Ģ": 133,
      "ģ": 134,
      "Ĥ": 135,
      "ĥ": 136,
      "Ħ": 137,
      "ħ": 138,
      "Ĩ": 139,
      "ĩ": 140,
      "Ī": 141,
      "ī": 142,
      "Ĭ": 143,
      "ĭ": 144,
      "Į": 145,
      "į": 146,
      "İ": 147,
      "ı": 148,
      "Ĳ": 149,
      "ĳ": 150,
      "Ĵ": 151,
      "ĵ": 152,
      "Ķ": 153,
      "ķ": 154,
      "ĸ": 155,
      "Ĺ": 156,
      "ĺ": 157,
      "Ļ": 158,
      "ļ": 159,
      "Ľ": 160,
      "ľ": 161,
      "Ŀ": 162,
      "ŀ": 163,
      "Ł": 164,
      "ł": 165,
      "Ń": 166,
      "ĠÄ": 167,
      "ĠÄł": 168,
      "Ãĥ": 169,
      "Ãħ": 170,
      "Â¡": 171,
      "Åĥ": 172,
      "ÃĥÅĥ": 173,
      "ÃĦ": 174,
      "ÃĦÄ": 175,
      "ĠÄłp": 176,
      "ÃĦÄ½": 177,
      "st": 178,
      "ÃħÄ": 179,
      "ÃħÄ»": 180,
      "nÃĥÅĥ": 181,
      "ov": 182,
      "Â©": 183,
      "ch": 184,
      "nÃĥ": 185,
      "ÃĦÄ¯": 186,
      "Â½": 187,
      "ĠÄłv": 188,
      "ra": 189,
      "ĠÄłs": 190,
      "ĠÄłz": 191,
      "ro": 192,
      "Â¾": 193,
      "le": 194,
      "ĠÄłn": 195,
      "la": 196,
      "te": 197,
      "ou": 198,
      "li": 199,
      "ĠÄłk": 200,
      "en": 201,
      "ĠÄło": 202,
      "ĠÄłd": 203,
      "ĠÄłpo": 204,
      "kÃĥ": 205,
      "Â¯": 206,
      "ÃħÄ»e": 207,
      "ho": 208,
      "in": 209,
      "ĠÄłm": 210,
      "em": 211,
      "at": 212,
      "ce": 213,
      "ĠÄłne": 214,
      "it": 215,
      "rÃĥ": 216,
      "lo": 217,
      "lÃĥ": 218,
      "or": 219,
      "nÃĦÄ½": 220,
      "an": 221,
      "je": 222,
      "ovÃĥ": 223,
      "ka": 224,
      "ĠÄłt": 225,
      "on": 226,
      "er": 227,
      "ku": 228,
      "ĠÄłb": 229,
      "ĠÄłvy": 230,
      "ar": 231,
      "ĠÄłu": 232,
      "ky": 233,
      "ĠÄłP": 234,
      "va": 235,
      "ÃħÄ»ÃĥÅĥ": 236,
      "od": 237,
      "re": 238,
      "jÃĥÅĥ": 239,
      "ĠÄłza": 240,
      "ĠÄłS": 241,
      "no": 242,
      "ni": 243,
      "ti": 244,
      "po": 245,
      "na": 246,
      "ĠÄłÃħ": 247,
      "cÃĥÅĥ": 248,
      "ĠÄłst": 249,
      "vÃĥ": 250,
      "Ġd": 251,
      "ci": 252,
      "ÃħÄ»i": 253,
      "lu": 254,
      "ĠÄłh": 255,
      "ko": 256,
      "ad": 257,
      "ĠÄłpro": 258,
      "av": 259,
      "Ġp": 260,
      "ĠÄłdo": 261,
      "skÃĥ": 262,
      "ĠÄłM": 263,
      "ru": 264,
      "al": 265,
      "Ġm": 266,
      "ĠÃħ": 267,
      "ĠÄłpÃħÄ»e": 268,
      "il": 269,
      "ĠÄłvÃĥ": 270,
      "et": 271,
      "ĠÄłob": 272,
      "de": 273,
      "ob": 274,
      "ĠÄłV": 275,
      "om": 276,
      "ĠÄłna": 277,
      "Ġs": 278,
      "Âº": 279,
      "ĠÄłÃĥ": 280,
      "vÃĦÄ½": 281,
      "ckÃĥ": 282,
      "ĠÄłK": 283,
      "ri": 284,
      "ĠÄłf": 285,
      "ĠÄłro": 286,
      "ĠÄłÃĦÄ¯": 287,
      "ĠÄła": 288,
      "ĠÄłzÃĥ": 289,
      "me": 290,
      "is": 291,
      "ĠÄłN": 292,
      "lÃĥÅĥ": 293,
      "mi": 294,
      "ĠÄłD": 295,
      "tÃĥ": 296,
      "ĠÄłB": 297,
      "vo": 298,
      "tÃĦÄ½": 299,
      "ze": 300,
      "ĠÄłod": 301,
      "tu": 302,
      "ed": 303,
      "ova": 304,
      "ĠÄłÃĥÂº": 305,
      "ĠÃ": 306,
      "sti": 307,
      "nÃĥÅĥm": 308,
      "mÃĦÄ½": 309,
      "Ġb": 310,
      "el": 311,
      "ta": 312,
      "ĠÄłnÃĥ": 313,
      "ne": 314,
      "Ġk": 315,
      "ji": 316,
      "Ġz": 317,
      "dÃĥ": 318,
      "ĠÄłA": 319,
      "Ġv": 320,
      "ĠÄłT": 321,
      "ĠÄłre": 322,
      "rav": 323,
      "rÃħ": 324,
      "ĠÄłpÃħÄ»i": 325,
      "ĠÃĥ": 326,
      "ÃĦÄ¯e": 327,
      "pe": 328,
      "as": 329,
      "Ġh": 330,
      "ĠÄłZ": 331,
      "dÃĦÄ½": 332,
      "tel": 333,
      "to": 334,
      "ĠÄłR": 335,
      "ĠÄłpÃħÄ»ÃĥÅĥ": 336,
      "ĠÄłe": 337,
      "ĠÄłch": 338,
      "kou": 339,
      "di": 340,
      "da": 341,
      "ÃĦÄ¯nÃĥÅĥ": 342,
      "ĠÄłC": 343,
      "nou": 344,
      "vÃĥÅĥ": 345,
      "ĠÄłO": 346,
      "ĠÄłroz": 347,
      "am": 348,
      "Ġst": 349,
      "ĠÄłH": 350,
      "\\\\": 351,
      "du": 352,
      "nu": 353,
      "ĠÄłin": 354,
      "ez": 355,
      "ĠÄłJ": 356,
      "es": 357,
      "ĠÄłte": 358,
      "rov": 359,
      "lnÃĥÅĥ": 360,
      "tÃĥÅĥ": 361,
      "ĠÃĦÄ¯": 362,
      "ÃħÄª": 363,
      "ly": 364,
      "ĠÄłL": 365,
      "ry": 366,
      "hod": 367,
      "mÃĥ": 368,
      "ve": 369,
      "ĠÄłpod": 370,
      "uje": 371,
      "lou": 372,
      "ovat": 373,
      "ĠÄłkon": 374,
      "mu": 375,
      "ĠÄłko": 376,
      "ĠP": 377,
      "ist": 378,
      "jÃħ": 379,
      "ty": 380,
      "ma": 381,
      "up": 382,
      "ak": 383,
      "vi": 384,
      "ĠÄłj": 385,
      "ĠÄłle": 386,
      "jÃĥÅĥcÃĥÅĥ": 387,
      "ĠÄłsp": 388,
      "mÃĥÅĥ": 389,
      "nost": 390,
      "ĠÄłje": 391,
      "Ġc": 392,
      "kon": 393,
      "ny": 394,
      "lad": 395,
      "Ġf": 396,
      "ÃĥÅĥm": 397,
      "ickÃĥ": 398,
      "ĠÄłnej": 399,
      "ali": 400,
      "ek": 401,
      "ent": 402,
      "Â¥": 403,
      "ĠÄłF": 404,
      "stav": 405,
      "by": 406,
      "ĠÄłka": 407,
      "nÃĥÅĥch": 408,
      "ĠÄłho": 409,
      "enÃĥÅĥ": 410,
      "sp": 411,
      "bu": 412,
      "enÃĥ": 413,
      "ol": 414,
      "zi": 415,
      "ĠÄłg": 416,
      "ÃĦÄ®": 417,
      "lov": 418,
      "ĠÄłvz": 419,
      "ut": 420,
      "op": 421,
      "chÃĥ": 422,
      "ran": 423,
      "ĠÄłpÃħÄ»ed": 424,
      "us": 425,
      "Ġg": 426,
      "ĠÄłspo": 427,
      "loÃħ": 428,
      "ĠÄłc": 429,
      "ÃĦÄ¯ÃĥÅĥ": 430,
      "Ġt": 431,
      "ĠÄłsou": 432,
      "ot": 433,
      "kÃħ": 434,
      "ost": 435,
      "jem": 436,
      "dy": 437,
      "za": 438,
      "ĠÄłE": 439,
      "ĠS": 440,
      "ej": 441,
      "ech": 442,
      "vy": 443,
      "bÃĥÅĥ": 444,
      "uÃħ": 445,
      "led": 446,
      "ĠN": 447,
      "kovÃĥ": 448,
      "¢Ä": 449,
      "ĠÄłvÃĦÄ½": 450,
      "ĠÄłkom": 451,
      "men": 452,
      "ĠÄłpos": 453,
      "ĠÄłma": 454,
      "bo": 455,
      "kt": 456,
      "pa": 457,
      "ĠÄłli": 458,
      "ovÃĦÄ½": 459,
      "mo": 460,
      "prav": 461,
      "sa": 462,
      "Ġn": 463,
      "ati": 464,
      "hÃĥ": 465,
      "Â³": 466,
      "vnÃĥÅĥ": 467,
      "ĠÄłI": 468,
      "19": 469,
      "ĠM": 470,
      "raz": 471,
      "ÅĤ": 472,
      "..": 473,
      "\\\\\\\\": 474,
      "Ġle": 475,
      "ĠV": 476,
      "oz": 477,
      "ys": 478,
      "stÃĥ": 479,
      "ili": 480,
      "pad": 481,
      "oru": 482,
      "gi": 483,
      "ud": 484,
      "ÃħÄ»Ãĥ": 485,
      "bÃĦÄ½": 486,
      "ĠD": 487,
      "ĠÄłG": 488,
      "stup": 489,
      "ÃĦÄ¯nÃĥ": 490,
      "Ġte": 491,
      "ec": 492,
      "ub": 493,
      "ĠÄłÃĦÄ®": 494,
      "sta": 495,
      "nÃĥÅĥho": 496,
      "lem": 497,
      "ĠÄłnep": 498,
      "dÃĥÅĥ": 499,
      "un": 500,
      "Ġli": 501,
      "ÃĦÄ½Ãħ": 502,
      "ĠÄłsk": 503,
      "sob": 504,
      "ur": 505,
      "oh": 506,
      "ĠT": 507,
      "Ġch": 508,
      "ÃħÄ»ed": 509,
      "ĠÄłjed": 510,
      "im": 511,
      "pi": 512,
      "ĠÄłU": 513,
      "ĠÄłpra": 514,
      "ÃĦÄ¯i": 515,
      "kem": 516,
      "ĠÄłce": 517,
      "ul": 518,
      "ĠÄłpa": 519,
      "zna": 520,
      "ĠÄłzp": 521,
      "vr": 522,
      "ĠÄłve": 523,
      "rob": 524,
      "lat": 525,
      "ena": 526,
      "ĠO": 527,
      "Ġi": 528,
      "Ġov": 529,
      "ovanÃĥ": 530,
      "fi": 531,
      "Ġj": 532,
      "Ġr": 533,
      "ĠÄłde": 534,
      "ĠÄłdi": 535,
      "nÃĦÄ½jÃħ": 536,
      "ujÃĥÅĥ": 537,
      "vod": 538,
      "ĠK": 539,
      "ani": 540,
      "ĠÄłop": 541,
      "00": 542,
      "ast": 543,
      "vat": 544,
      "ĠÄłse": 545,
      "si": 546,
      "zÃĥÅĥ": 547,
      "Ġro": 548,
      "nosti": 549,
      "zd": 550,
      "ouÃħ": 551,
      "ĠA": 552,
      "lnÃĦÄ½": 553,
      "ĠÄłPo": 554,
      "Ġa": 555,
      "ĠÄłdÃĥ": 556,
      "ina": 557,
      "itÃĥ": 558,
      "ba": 559,
      "ĠÄłnem": 560,
      "ha": 561,
      "hra": 562,
      "klad": 563,
      "tÃħ": 564,
      "tnÃĥÅĥ": 565,
      "ter": 566,
      "um": 567,
      "ĠÄłlÃĥ": 568,
      "ĠÄłÃħÅĤ": 569,
      "ĠÄłÃ": 570,
      "ĠÄłpr": 571,
      "ĠÄłpÃĥ": 572,
      "chod": 573,
      "ĠÄłex": 574,
      "cÃĥÅĥch": 575,
      "ĠÄłan": 576,
      "oÃħ": 577,
      "ĠrÃĥ": 578,
      "ovi": 579,
      "inu": 580,
      "se": 581,
      "ĠI": 582,
      "ĠÄłi": 583,
      "ĠÄłpot": 584,
      "ĠÄłja": 585,
      "kti": 586,
      "ĠE": 587,
      "Ġra": 588,
      "iny": 589,
      "ĠÄłnez": 590,
      "len": 591,
      "nout": 592,
      "bÃĥ": 593,
      "do": 594,
      "jte": 595,
      "Ġpo": 596,
      "ĠÄłra": 597,
      "art": 598,
      "krÃĥ": 599,
      "ole": 600,
      "Ġin": 601,
      "ĠÄłÃħÄ»e": 602,
      "stvÃĥÅĥ": 603,
      "ÃĦÄ¯ky": 604,
      "hy": 605,
      "vu": 606,
      "ĠR": 607,
      "ĠÄłnÃĦÄ½": 608,
      "tek": 609,
      "eno": 610,
      "ĠÄłdÃĦÄ½": 611,
      "emi": 612,
      "aÃħ": 613,
      "ÃĦÄ¯ka": 614,
      "ĠÄłmÃĦÄ½": 615,
      "ĠÄłdop": 616,
      "ĠÄłVÃĥ": 617,
      "ev": 618,
      "rou": 619,
      "jed": 620,
      "my": 621,
      "Ġni": 622,
      "ĠÄłpov": 623,
      "las": 624,
      "ĠÄłpoz": 625,
      "hu": 626,
      "ĠC": 627,
      "Ġva": 628,
      "ÃĦÄ±": 629,
      "stÃĥÅĥ": 630,
      "ĠÄłdÃħ": 631,
      "itu": 632,
      "ĠÄłtÃĥ": 633,
      "ila": 634,
      "sÃĥ": 635,
      "ĠZ": 636,
      "Ġo": 637,
      "ÃĥÅĥs": 638,
      "oval": 639,
      "chy": 640,
      "kaz": 641,
      "eb": 642,
      "ik": 643,
      "pÃĥÅĥ": 644,
      "ÃĥÄ": 645,
      "ĠÄłpÃħ": 646,
      "lav": 647,
      "ĠÄłSt": 648,
      "vÃĦÄ½t": 649,
      "ÃĥÅĥch": 650,
      "rat": 651,
      "last": 652,
      "res": 653,
      "bor": 654,
      "lÃħ": 655,
      "ĠB": 656,
      "tem": 657,
      "hlÃĥ": 658,
      "klÃĥ": 659,
      "pu": 660,
      "ujÃĥÅĥcÃĥÅĥ": 661,
      "ĠÄłuÃħ": 662,
      "ab": 663,
      "for": 664,
      "ig": 665,
      "nit": 666,
      "ĠJ": 667,
      "ĠlÃĥ": 668,
      "ĠÄłkou": 669,
      "ĠÄłpoÃħ": 670,
      "eme": 671,
      "ĠÄłbez": 672,
      "ruÃħ": 673,
      "ct": 674,
      "sÃĥÅĥ": 675,
      "ĠÄłW": 676,
      "ĠÄłprÃħ": 677,
      "ari": 678,
      "vÃħ": 679,
      "ĠH": 680,
      "rac": 681,
      "ĠÄłsy": 682,
      "ĠÄłkrÃĥ": 683,
      "log": 684,
      "luÃħ": 685,
      "zenÃĥÅĥ": 686,
      "ag": 687,
      "kla": 688,
      "tor": 689,
      "Ġen": 690,
      "ĠÄłla": 691,
      "ĠÄłus": 692,
      "ĠdÃĦÄ½": 693,
      "ie": 694,
      "zÃĥ": 695,
      "ĠÃħÄ»": 696,
      "Ġti": 697,
      "ĠÄłzd": 698,
      "ing": 699,
      "ĠÄłÃĥÄ": 700,
      "\\\\\\\\\\\\\\\\": 701,
      "dnÃĥÅĥ": 702,
      "pÃħ": 703,
      "ĠÄłnad": 704,
      "ĠÄłmo": 705,
      "eli": 706,
      "oj": 707,
      "Ġl": 708,
      "ĠÃħÄª": 709,
      "ĠÄłvi": 710,
      "rost": 711,
      "ĠÄłos": 712,
      "ÃħÄ»eb": 713,
      "ÃħÄ»ej": 714,
      "cky": 715,
      "ilo": 716,
      "rg": 717,
      "jiÃħ": 718,
      "ala": 719,
      "mÃħ": 720,
      "ver": 721,
      "cho": 722,
      "ĠÄłmÃĥÅĥ": 723,
      "ĠÄłstÃĥ": 724,
      "ĠÄłaut": 725,
      "ĠÃĲ": 726,
      "ele": 727,
      "hrÃĥ": 728,
      "kra": 729,
      "ÃĦÄ¯nÃĦÄ½": 730,
      "ĠÄłvÃħ": 731,
      "eny": 732,
      "eri": 733,
      "ĠÄłvyp": 734,
      "ĠÄłvys": 735,
      "ĠÄłÃĦÄ¯er": 736,
      "telnÃĥ": 737,
      "hle": 738,
      "sled": 739,
      "zu": 740,
      "ĠÄłsam": 741,
      "ĠÄłmÃĥ": 742,
      "vali": 743,
      "koli": 744,
      "ĠÄłÃĥÂºÃĦÄ¯": 745,
      "spÃĦÄ½": 746,
      "kov": 747,
      "vnÃĦÄ½": 748,
      "znÃĥ": 749,
      "ĠÄłpouÃħ": 750,
      "ĠÄłvÃĥÅĥ": 751,
      "ĠÄłsch": 752,
      "teri": 753,
      "ĠÄłnes": 754,
      "vÃĦÄ½d": 755,
      "ir": 756,
      "Ġan": 757,
      "ĠÄłru": 758,
      "ĠÄłry": 759,
      "ÃħÄº": 760,
      "leÃħ": 761,
      "ĠÄłpop": 762,
      "ĠÄłmod": 763,
      "ada": 764,
      "ĠÄłnap": 765,
      "ĠÄłZÃĥ": 766,
      "jeme": 767,
      "20": 768,
      "tra": 769,
      "Ġla": 770,
      "ÃĥÅĥÃħ": 771,
      "ste": 772,
      "cha": 773,
      "ĠÄłnav": 774,
      "ten": 775,
      "ene": 776,
      "nice": 777,
      "ĠÄłNe": 778,
      "den": 779,
      "os": 780,
      "Â¸": 781,
      "Ġne": 782,
      "ĠÄłar": 783,
      "ovo": 784,
      "lenÃĥÅĥ": 785,
      "ĠÄłkli": 786,
      "logi": 787,
      "ĠdÃĥ": 788,
      "ÃĦÄ¯enÃĥÅĥ": 789,
      "cÃħ": 790,
      "ivo": 791,
      "ktu": 792,
      "Ġw": 793,
      "ÃĥÅĥvÃĥ": 794,
      "ĠÄłprÃĥ": 795,
      "ĠÄłprov": 796,
      "ĠÄłtÃĦÄ½": 797,
      "ĠÄłele": 798,
      "ĠÄłCh": 799,
      "ĠÄłÃĥÄ¼": 800,
      "bav": 801,
      "drÃħ": 802,
      "id": 803,
      "tr": 804,
      "zen": 805,
      "ĠkÃĥ": 806,
      "ĠtÃĥ": 807,
      "ĠÄłji": 808,
      "ĠÄłhod": 809,
      "ÃĦÄ¯as": 810,
      "ram": 811,
      "ĠÄłby": 812,
      "ĠÄłOb": 813,
      "ĠÄłIn": 814,
      "est": 815,
      "oli": 816,
      "Ġka": 817,
      "Ġta": 818,
      "ĠÄłpre": 819,
      "nÃĥÅĥk": 820,
      "ĠÄłzna": 821,
      "liÃħ": 822,
      "eni": 823,
      "ĠÄłta": 824,
      "ĠÄłtr": 825,
      "nika": 826,
      "ĠÄłstan": 827,
      "ĠÄłhra": 828,
      "ĠÃ¢Ä": 829,
      "ĠÄłZa": 830,
      "lovÃĥ": 831,
      "ven": 832,
      "vis": 833,
      "ĠL": 834,
      "ĠU": 835,
      "stou": 836,
      "lan": 837,
      "tele": 838,
      "oda": 839,
      "ĠÄłsta": 840,
      "ĠÃĥÄ": 841,
      "ĠÄłspole": 842,
      "lnÃĥ": 843,
      "sy": 844,
      "vlÃĥ": 845,
      "zy": 846,
      "Ġce": 847,
      "ÃĦÄ¯it": 848,
      "ĠÄłkr": 849,
      "ĠÄłdÃĥÅĥ": 850,
      "ory": 851,
      "ĠÄłzamÃĦÄ½": 852,
      "tickÃĥ": 853,
      "ĠmÃĦÄ½": 854,
      "nutÃĥÅĥ": 855,
      "anÃĥ": 856,
      "su": 857,
      "ĠF": 858,
      "ĠÄłrÃĥ": 859,
      "ÃħÄ»skÃĥ": 860,
      "ĠÄłku": 861,
      "ĠÄłPÃħÄ»ÃĥÅĥ": 862,
      "ÃĦÄ¯ek": 863,
      "bra": 864,
      "ge": 865,
      "ic": 866,
      "oc": 867,
      "rnÃĥÅĥ": 868,
      "rch": 869,
      "Ġ1": 870,
      "Ġre": 871,
      "ĠvÃĥ": 872,
      "ĠÄłlo": 873,
      "enÃĦÄ½": 874,
      "ĠÄłdis": 875,
      "kup": 876,
      "ĠÄłPro": 877,
      "ĠÄłÃĦÄ¯e": 878,
      "ale": 879,
      "alo": 880,
      "sto": 881,
      "stat": 882,
      "ĠÄłspe": 883,
      "ÃħÄ»enÃĥ": 884,
      "ĠÄłman": 885,
      "ĠÄłtu": 886,
      "ĠÄłbÃĥ": 887,
      "vajÃĥÅĥ": 888,
      "**": 889,
      "ace": 890,
      "pÃĦÄ½": 891,
      "pis": 892,
      "sko": 893,
      "enskÃĥ": 894,
      "ĠÄłorg": 895,
      "ÃħÄ»enÃĥÅĥ": 896,
      "ort": 897,
      "nÃĦÄ½nÃĥÅĥ": 898,
      "ĠÄłup": 899,
      "kyt": 900,
      "odÃĥ": 901,
      "Ġdi": 902,
      "ciÃĥ": 903,
      "aly": 904,
      "zenÃĥ": 905,
      "nostÃĥÅĥ": 906,
      "ĠÄłkap": 907,
      "ĠÄłelekt": 908,
      "dnÃĥ": 909,
      "hla": 910,
      "mys": 911,
      "Ġat": 912,
      "Ġri": 913,
      "ĠlÃĥÅĥ": 914,
      "Ġova": 915,
      "ĠÄłw": 916,
      "ĠÄłpar": 917,
      "ĠÄłprav": 918,
      "stÃĦÄ½": 919,
      "stru": 920,
      "ÃĦÄ¯Ãĥ": 921,
      "ÃĦÄ¯ku": 922,
      "raÃħ": 923,
      "ĠÄłmin": 924,
      "ori": 925,
      "ĠÄłNÃĥ": 926,
      "ice": 927,
      "oto": 928,
      "rt": 929,
      "Ġu": 930,
      "ĠnÃĥ": 931,
      "Ġho": 932,
      "ĠÄłov": 933,
      "ĠÄłÃħÄ»ÃĥÅĥ": 934,
      "ÃĥÅĥme": 935,
      "ĠÄłkam": 936,
      "ĠÄłzap": 937,
      "ily": 938,
      "ĠÄłVy": 939,
      "ĠÄłodp": 940,
      "mÃĦÄ½r": 941,
      "ĠÄłchy": 942,
      "ĠÄłkomp": 943,
      "ubli": 944,
      "ĠÄłjedno": 945,
      "dat": 946,
      "hled": 947,
      "ok": 948,
      "tro": 949,
      "Ġje": 950,
      "Ġko": 951,
      "ĠÄłci": 952,
      "ĠÄłplÃĥ": 953,
      "ÃħÄ»it": 954,
      "terÃĥ": 955,
      "ĠÄłote": 956,
      "inÃĦÄ½": 957,
      "ĠÄłned": 958,
      "ane": 959,
      "nickÃĥ": 960,
      "ĠÄłMa": 961,
      "eta": 962,
      "ÃĦÄ¯nÃĥÅĥch": 963,
      "ĠÄłJa": 964,
      "ĠÄłtep": 965,
      "onÃĥ": 966,
      "snÃĥ": 967,
      "yk": 968,
      "Ġon": 969,
      "Ġob": 970,
      "ĠÄłjÃĥÅĥ": 971,
      "stra": 972,
      "ĠÄłsa": 973,
      "ĠÄłsed": 974,
      "ĠÄłode": 975,
      "ata": 976,
      "ĠÄłbo": 977,
      "ard": 978,
      "ĠÄłPod": 979,
      "val": 980,
      "ovala": 981,
      "ĠÄłrep": 982,
      "ĠÄłRe": 983,
      "ke": 984,
      "kce": 985,
      "min": 986,
      "sle": 987,
      "vou": 988,
      "xi": 989,
      "zor": 990,
      "Ġlo": 991,
      "ĠÃĦÄ®": 992,
      "ĳÄ": 993,
      "ĠÄład": 994,
      "ĠÄłpla": 995,
      "ÃĦÄ½k": 996,
      "ovÃĥÅĥ": 997,
      "chu": 998,
      "ĠÄłsÃĥ": 999,
      "rop": 1000,
      "ĠÄłkra": 1001,
      "ĠÄłdes": 1002,
      "ĠÄłpoli": 1003,
      "ĠÄłmi": 1004,
      "cenÃĥÅĥ": 1005,
      "iti": 1006,
      "ity": 1007,
      "odu": 1008,
      "ĠÄłstÃħÄ»e": 1009,
      "ĠÄłhy": 1010,
      "ĠÄłMi": 1011,
      "ĠÄłnabÃĥÅĥ": 1012,
      "ĠÄłNa": 1013,
      "nek": 1014,
      "ĠÄłJi": 1015,
      "....": 1016,
      "ĠÄłprac": 1017,
      "--": 1018,
      "ckou": 1019,
      "gra": 1020,
      "itel": 1021,
      "lÃħÄª": 1022,
      "Â¨": 1023,
      "Ġna": 1024,
      "Ġrov": 1025,
      "ĠÄłcÃĥÅĥ": 1026,
      "ÃĥÂº": 1027,
      "ĠÄłpÃĥÅĥs": 1028,
      "ÃħÄ»ad": 1029,
      "ĠÄłnepo": 1030,
      "ĠÄłtra": 1031,
      "ĠÄłvyt": 1032,
      "ĠmÃĥ": 1033,
      "ĠÄłobje": 1034,
      "lÃĥÅĥb": 1035,
      "ĠÄłtech": 1036,
      "ĠÄłpÃħÄ»edstav": 1037,
      "zace": 1038,
      "ÃĥÄ¯": 1039,
      "kro": 1040,
      "ĠnÃĦÄ½": 1041,
      "ĠÄłal": 1042,
      "ÃĥÅĥn": 1043,
      "ovou": 1044,
      "ÃĦÄ¯et": 1045,
      "ĠÄłso": 1046,
      "rod": 1047,
      "ĠÄłoch": 1048,
      "ato": 1049,
      "ĠÄłba": 1050,
      "ĠÄłvyÃħ": 1051,
      "ĠÄłur": 1052,
      "ĠÄłdob": 1053,
      "ĠÄłau": 1054,
      "ĠÃ¥": 1055,
      "stickÃĥ": 1056,
      "ĠÄłAn": 1057,
      "dÃĦÄ½l": 1058,
      "byt": 1059,
      "cen": 1060,
      "dit": 1061,
      "fe": 1062,
      "fer": 1063,
      "gen": 1064,
      "rem": 1065,
      "yÃħ": 1066,
      "Ġ2": 1067,
      "ÃĥÅĥt": 1068,
      "chi": 1069,
      "ÃĦÄ¯in": 1070,
      "ĠÄłsm": 1071,
      "ĠÄłsu": 1072,
      "teli": 1073,
      "atu": 1074,
      "atÃĥ": 1075,
      "ĠÄłtak": 1076,
      "ĠÄłuz": 1077,
      "tÃĦÄ½Ãħ": 1078,
      "ĠÄłpÃħÄ»ÃĥÅĥs": 1079,
      "ĠÄłkole": 1080,
      "iÃħ": 1081,
      "nem": 1082,
      "pÃĥ": 1083,
      "ren": 1084,
      "skou": 1085,
      "tou": 1086,
      "trÃĥ": 1087,
      "ude": 1088,
      "ÃĲ": 1089,
      "ĠchÃĥ": 1090,
      "ĠÄłÃħÄº": 1091,
      "ĠÄłpe": 1092,
      "ÃĦÄ½t": 1093,
      "ĠÄłoh": 1094,
      "ĠÄłdlou": 1095,
      "ita": 1096,
      "ĠÄłbar": 1097,
      "jÃĥÅĥma": 1098,
      "ĠÄłproje": 1099,
      "Ġma": 1100,
      "ĠÄłKon": 1101,
      "ĠÄłNej": 1102,
      "ĠÄłreg": 1103,
      "peÃĦÄ¯": 1104,
      "lnÃĥÅĥch": 1105,
      "bou": 1106,
      "dou": 1107,
      "hlÃĥÅĥ": 1108,
      "sku": 1109,
      "zer": 1110,
      "Ġtu": 1111,
      "ĠÃĦÄ¯e": 1112,
      "Ġnu": 1113,
      "ÃĥÅĥte": 1114,
      "ovnÃĥÅĥ": 1115,
      "ĠÄłzem": 1116,
      "rom": 1117,
      "enou": 1118,
      "ĠÄłneu": 1119,
      "ito": 1120,
      "itÃĦÄ½": 1121,
      "ance": 1122,
      "ĠÄłvyuÃħ": 1123,
      "vajÃĥÅĥcÃĥÅĥ": 1124,
      "ĠÄłstav": 1125,
      "ĠÄłab": 1126,
      "ĠÄłam": 1127,
      "ĠzÃĥ": 1128,
      "ĠÄłpÃħÄ»ipo": 1129,
      "ĠÄłpÃħÄ»iprav": 1130,
      "kouÃħ": 1131,
      "ÃĦÄ¯nÃĥÅĥho": 1132,
      "ĠÄłJed": 1133,
      "ĠÄłLi": 1134,
      "ĠÄłjakÃĥ": 1135,
      "ber": 1136,
      "eÃħ": 1137,
      "ela": 1138,
      "hov": 1139,
      "iva": 1140,
      "lnÃĥÅĥm": 1141,
      "nat": 1142,
      "ner": 1143,
      "sla": 1144,
      "ved": 1145,
      "zem": 1146,
      "zku": 1147,
      "Â¬": 1148,
      "Äł": 1149,
      "ĠÃħÄ»e": 1150,
      "Ġku": 1151,
      "ĠÄłen": 1152,
      "stÃħÄ»e": 1153,
      "race": 1154,
      "ĠÄłsez": 1155,
      "ĠÄłzku": 1156,
      "roj": 1157,
      "let": 1158,
      "ĠÄłmet": 1159,
      "ĠÄłneza": 1160,
      "ĠÄłty": 1161,
      "ĠÄłtrÃĥ": 1162,
      "kute": 1163,
      "ĠÄłbud": 1164,
      "ĠÄłumÃĦÄ½": 1165,
      "ĠÄłtele": 1166,
      "louÃħ": 1167,
      "ĠÄłkaÃħ": 1168,
      "sah": 1169,
      "tern": 1170,
      "__": 1171,
      "bi": 1172,
      "dÃħ": 1173,
      "ede": 1174,
      "mou": 1175,
      "py": 1176,
      "pat": 1177,
      "sk": 1178,
      "Ġor": 1179,
      "ĠÄłrÃħ": 1180,
      "ĠÄłpat": 1181,
      "ĠÄłpri": 1182,
      "ĠÄłvo": 1183,
      "ĠÄłvod": 1184,
      "ĠÄłvol": 1185,
      "ĠÄłvlast": 1186,
      "ĠÄłznÃĥ": 1187,
      "ĠÄłmas": 1188,
      "kami": 1189,
      "aru": 1190,
      "Ġda": 1191,
      "ĠÄłprof": 1192,
      "ĠÄłdom": 1193,
      "ĠÄłfor": 1194,
      "ĠÄłfil": 1195,
      "dÃĦÄ½lÃĥ": 1196,
      "ĠÄłsprÃĥ": 1197,
      "ĠÄłgra": 1198,
      "ĠÄłposkyt": 1199,
      "\\\\\\\\\\\\\\\\\\\\\\\\\\\\\\\\": 1200,
      "ara": 1201,
      "enÃĥÅĥm": 1202,
      "ga": 1203,
      "hr": 1204,
      "her": 1205,
      "inÃĥ": 1206,
      "rovÃĥ": 1207,
      "zni": 1208,
      "ĠÃħÄ»ÃĥÅĥ": 1209,
      "Ġlov": 1210,
      "ĠÄłplat": 1211,
      "ÃĦÄ¯er": 1212,
      "ĠÄłvel": 1213,
      "ĠÄłsle": 1214,
      "ĠÄłsna": 1215,
      "tech": 1216,
      "lit": 1217,
      "inou": 1218,
      "ĠÄłmed": 1219,
      "emo": 1220,
      "ore": 1221,
      "anou": 1222,
      "ĠÄłto": 1223,
      "ĠÄłtÃĦÄ½Ãħ": 1224,
      "ĠÄłumÃĥÅĥ": 1225,
      "vanÃĥ": 1226,
      "odob": 1227,
      "jÃĥÅĥm": 1228,
      "luje": 1229,
      "alÃĥÅĥ": 1230,
      "ĠÄłÃĦÄ¯t": 1231,
      "ovacÃĥÅĥ": 1232,
      "ĠhlÃĥ": 1233,
      "ĠÄłinfor": 1234,
      "hodnÃĥ": 1235,
      "ĠÄłhor": 1236,
      "ck": 1237,
      "ep": 1238,
      "nov": 1239,
      "pon": 1240,
      "sky": 1241,
      "sed": 1242,
      "uj": 1243,
      "vnÃĥ": 1244,
      "Â¦": 1245,
      "Ġ.": 1246,
      "Ġvo": 1247,
      "ÃĥÅĥho": 1248,
      "ĠÄłpÃħÄ»": 1249,
      "ĠÄłpou": 1250,
      "ĠÄłpen": 1251,
      "sty": 1252,
      "ÃĦÄ¯ovÃĥ": 1253,
      "ÃĦÄ¯ast": 1254,
      "ĠÄłsva": 1255,
      "ĠÄłsvÃĦÄ½": 1256,
      "ĠÄłsloÃħ": 1257,
      "lech": 1258,
      "ĠÄłno": 1259,
      "ĠÄłkar": 1260,
      "ĠÄłkvali": 1261,
      "ana": 1262,
      "ĠÄłtre": 1263,
      "ĠÄłPÃħÄ»e": 1264,
      "ĠÄłprost": 1265,
      "ĠÄłpÃħÄ»es": 1266,
      "ĠÄłfun": 1267,
      "ĠÄłak": 1268,
      "ĠÄłDo": 1269,
      "ĠhÃĥ": 1270,
      "dÃĦÄ½la": 1271,
      "telÃħ": 1272,
      "mÃĥÅĥn": 1273,
      "jednÃĥ": 1274,
      "logickÃĥ": 1275,
      "ĠÄłautom": 1276,
      "ĠÄłspeci": 1277,
      "ĠÄłotev": 1278,
      "be": 1279,
      "era": 1280,
      "hou": 1281,
      "ket": 1282,
      "mnÃĥ": 1283,
      "rnÃĦÄ½": 1284,
      "ska": 1285,
      "tky": 1286,
      "vit": 1287,
      "Ã¢Ä": 1288,
      "ĠÃħÄ»i": 1289,
      "ĠÄłat": 1290,
      "ĠÄłva": 1291,
      "ĠÄłsil": 1292,
      "roz": 1293,
      "liv": 1294,
      "ĠÄłkÃĥ": 1295,
      "enÃħ": 1296,
      "ĠÄłost": 1297,
      "lost": 1298,
      "and": 1299,
      "jenÃĥÅĥ": 1300,
      "ĠÄłzapo": 1301,
      "ĠÄłSp": 1302,
      "ĠÄłSou": 1303,
      "nik": 1304,
      "ĠÄłstra": 1305,
      "lub": 1306,
      "ĠÄłnaÃħ": 1307,
      "ĠÄłKa": 1308,
      "ĠÄłÃĦÄ¯as": 1309,
      "ĠÄłakti": 1310,
      "voj": 1311,
      "tÃĦÄ½nÃĥÅĥ": 1312,
      "ĠstÃĥ": 1313,
      "lnÃĥÅĥho": 1314,
      "jemnÃĥ": 1315,
      "ĠÄłkomu": 1316,
      "ctvÃĥÅĥ": 1317,
      "ĠÄłzdra": 1318,
      "ĠÄłabs": 1319,
      "ide": 1320,
      "nÃħ": 1321,
      "povÃĦÄ½": 1322,
      "tÃħÄ»eb": 1323,
      "zo": 1324,
      "zkÃĥ": 1325,
      "ĠovÃĥ": 1326,
      "Ġar": 1327,
      "Ġze": 1328,
      "Ġto": 1329,
      "ĠÄłrov": 1330,
      "ÃĦÄ¯nÃĥÅĥm": 1331,
      "ĠÄłvr": 1332,
      "ĠÄłvlÃĥ": 1333,
      "ĠÄłzvÃĥ": 1334,
      "ĠÄłzvlÃĥ": 1335,
      "ron": 1336,
      "les": 1337,
      "lenÃĥ": 1338,
      "ĠÄłni": 1339,
      "ĠÄłok": 1340,
      "ĠÄłpora": 1341,
      "innÃĥ": 1342,
      "ĠÄłtvr": 1343,
      "ĠÄłzab": 1344,
      "ĠÄłzahra": 1345,
      "ĠÄłstÃħÄ»ÃĥÅĥ": 1346,
      "kol": 1347,
      "ĠÄłoby": 1348,
      "ovali": 1349,
      "ĠÄłchod": 1350,
      "lyÃħ": 1351,
      "vede": 1352,
      "Ġfi": 1353,
      "199": 1354,
      "oruÃĦÄ¯": 1355,
      "ĠÄłzpÃħ": 1356,
      "ĠÄłÃ¢Ä": 1357,
      "ĠÄłexp": 1358,
      "teriÃĥ": 1359,
      "ĠÄłzamÃĦÄ½st": 1360,
      "ĠÄłuzav": 1361,
      "ÄłÄł": 1362,
      "10": 1363,
      "cem": 1364,
      "dra": 1365,
      "ete": 1366,
      "fon": 1367,
      "fek": 1368,
      "gli": 1369,
      "jde": 1370,
      "kli": 1371,
      "nskÃĥ": 1372,
      "pt": 1373,
      "tka": 1374,
      "uk": 1375,
      "var": 1376,
      "vob": 1377,
      "vrop": 1378,
      "Ġx": 1379,
      "Ġno": 1380,
      "Ġsti": 1381,
      "Ġali": 1382,
      "ĠÄłper": 1383,
      "chop": 1384,
      "ĠÄłsÃĥÅĥ": 1385,
      "ĠÄłsvÃĦÄ½t": 1386,
      "teg": 1387,
      "lin": 1388,
      "entÃĥ": 1389,
      "ine": 1390,
      "ĠÄłmu": 1391,
      "atickÃĥ": 1392,
      "ĠÄłneb": 1393,
      "ĠÄłbÃĦÄ½Ãħ": 1394,
      "ÃħÄ»ÃĥÅĥÃħ": 1395,
      "ĠÄłSpo": 1396,
      "nil": 1397,
      "tiv": 1398,
      "ĠÄłstrÃĥ": 1399,
      "ĠÄłprodu": 1400,
      "ĠÄłMo": 1401,
      "ĠÄłMÃĦÄ½": 1402,
      "ĠÄłVÃħ": 1403,
      "ĠÄłKom": 1404,
      "ĠÄłfoto": 1405,
      "ĠÄłÃĦÄ¯Ãĥ": 1406,
      "lÃĥÅĥÃħ": 1407,
      "venÃĥ": 1408,
      "spÃĦÄ½Ãħ": 1409,
      "koliv": 1410,
      "ĠÄłprofes": 1411,
      "!!": 1412,
      "12": 1413,
      "au": 1414,
      "arÃĥ": 1415,
      "cit": 1416,
      "dem": 1417,
      "dnÃĦÄ½": 1418,
      "ex": 1419,
      "fÃĥ": 1420,
      "gu": 1421,
      "hÃħ": 1422,
      "movÃĥ": 1423,
      "oo": 1424,
      "rd": 1425,
      "sil": 1426,
      "spe": 1427,
      "tov": 1428,
      "tku": 1429,
      "ujeme": 1430,
      "znÃĥÅĥ": 1431,
      "zovÃĥ": 1432,
      "Â¹": 1433,
      "ĠG": 1434,
      "Ġis": 1435,
      "ĠÄłim": 1436,
      "ÃĦÄ¼": 1437,
      "ÃĦÄ½h": 1438,
      "nÃĥÅĥÃħ": 1439,
      "ĠÄłsvÃĥ": 1440,
      "ĠÄłsmÃĦÄ½": 1441,
      "ĠÄłslov": 1442,
      "lex": 1443,
      "lez": 1444,
      "lepÃħ": 1445,
      "telem": 1446,
      "ence": 1447,
      "ĠÄłori": 1448,
      "ĠÄłdov": 1449,
      "ĠÄłdru": 1450,
      "ĠÄłdrÃħ": 1451,
      "ĠÄłpoku": 1452,
      "ĠÄłboh": 1453,
      "ĠÄłPÃħÄ»i": 1454,
      "ĠÄłstÃħÄ»ed": 1455,
      "ady": 1456,
      "ĠpÃĥ": 1457,
      "dech": 1458,
      "obil": 1459,
      "ĠÄłnastav": 1460,
      "vÃĦÄ½z": 1461,
      "ĠÄłfot": 1462,
      "ĠÃĤ": 1463,
      "ĠbÃĥ": 1464,
      "Ġza": 1465,
      "ĠÄłRoz": 1466,
      "ĠÄłrozÃħ": 1467,
      "ĠÄłrozhod": 1468,
      "ĠÄłLu": 1469,
      "ĠÄłpodÃĥÅĥ": 1470,
      "Ġgra": 1471,
      "ostat": 1472,
      "fika": 1473,
      "ĠÄłmÃĥÅĥst": 1474,
      "vÃĦÄ½dom": 1475,
      "ĠÄłrych": 1476,
      "ĠÄłstanov": 1477,
      "ĠÃ¢Ä¢Ä": 1478,
      "ĠÄłvytvo": 1479,
      "ĠÄłpÃħÄ»ÃĥÅĥsluÃħ": 1480,
      "15": 1481,
      "bnÃĥÅĥ": 1482,
      "dob": 1483,
      "gy": 1484,
      "hlas": 1485,
      "ia": 1486,
      "iv": 1487,
      "kva": 1488,
      "mem": 1489,
      "mon": 1490,
      "nodu": 1491,
      "oko": 1492,
      "pra": 1493,
      "tovÃĥ": 1494,
      "udi": 1495,
      "van": 1496,
      "zet": 1497,
      "Â°": 1498,
      "Â¼": 1499,
      "ĠnÃĥÅĥ": 1500,
      "Ġci": 1501,
      "ĠÄłplo": 1502,
      "ÃĦÄ¯il": 1503,
      "ĠÄłves": 1504,
      "rati": 1505,
      "ĠÄłslu": 1506,
      "ĠÄłsluÃħ": 1507,
      "ĠÄłzmÃĦÄ½": 1508,
      "ĠÄłzvÃĥÅĥ": 1509,
      "ĠÄłome": 1510,
      "ĠÄłope": 1511,
      "ĠÄłosob": 1512,
      "ĠÄłpok": 1513,
      "ĠÄłpolo": 1514,
      "ĠÄłpostav": 1515,
      "ĠÄłpoÃĦÄ¯ÃĥÅĥ": 1516,
      "ÃħÄ»es": 1517,
      "inan": 1518,
      "ĠÄłmlÃĥ": 1519,
      "ĠÄłmno": 1520,
      "ĠÄłmus": 1521,
      "ĠÄłnech": 1522,
      "ĠÄłnevy": 1523,
      "ĠÄłbr": 1524,
      "ĠÄłvyj": 1525,
      "niver": 1526,
      "ĠÄłhrÃĥ": 1527,
      "ĠÄłprob": 1528,
      "ĠÄłdokon": 1529,
      "ĠÄłobchod": 1530,
      "dej": 1531,
      "dek": 1532,
      "ĠÄłap": 1533,
      "ĠÄłNÃĦÄ½": 1534,
      "ĠÄłodbor": 1535,
      "tace": 1536,
      "nes": 1537,
      "ĠÄłAm": 1538,
      "ĠÄłreali": 1539,
      "esko": 1540,
      "ĠÄłpodob": 1541,
      "ĠÄłhosp": 1542,
      "ĠÄłspolu": 1543,
      "ejte": 1544,
      "ĠVÃĥ": 1545,
      "ĠÄłnepÃħÄ»ÃĥÅĥ": 1546,
      "ĠÄłzprac": 1547,
      "ĠÄłveli": 1548,
      "evnÃĥ": 1549,
      "ĠÄłsym": 1550,
      "ĠÄłhodno": 1551,
      "ĠÃĥÄ£": 1552,
      "ĠÄłorgani": 1553,
      "13": 1554,
      "16": 1555,
      "cÃĥ": 1556,
      "cti": 1557,
      "hli": 1558,
      "mati": 1559,
      "nd": 1560,
      "novÃĥ": 1561,
      "pit": 1562,
      "rnÃĥ": 1563,
      "slov": 1564,
      "ust": 1565,
      "Â¿": 1566,
      "Ġit": 1567,
      "Ġru": 1568,
      "ĠÄłlÃĥÅĥ": 1569,
      "ĠÄłpova": 1570,
      "ĠÄłpam": 1571,
      "stro": 1572,
      "ÃĦÄ¯an": 1573,
      "ĠÄłset": 1574,
      "ĠÄłzvy": 1575,
      "rodu": 1576,
      "ler": 1577,
      "ledÃĥ": 1578,
      "telÃĥ": 1579,
      "ĠÄłkul": 1580,
      "ĠÄłpoÃħÄ»Ãĥ": 1581,
      "ĠÄłmon": 1582,
      "orÃħ": 1583,
      "kali": 1584,
      "ĠÄłtis": 1585,
      "ĠÄłtran": 1586,
      "ĠÄłPÃħÄ»ed": 1587,
      "cÃĥÅĥm": 1588,
      "ĠÄłstud": 1589,
      "ĠÄłproÃħ": 1590,
      "ĠÄłMar": 1591,
      "omi": 1592,
      "ĠÄłKrÃĥ": 1593,
      "ĠÄłKar": 1594,
      "ĠÄłÃĦÄ¯ist": 1595,
      "mÃĦÄ½st": 1596,
      "jist": 1597,
      "ĠÄłinve": 1598,
      "ĠÄłter": 1599,
      "ĠÄłkoÃħ": 1600,
      "ĠÄłspoj": 1601,
      "moÃħ": 1602,
      "...": 1603,
      "ĠÄłarchi": 1604,
      "ĠÃ¢Ä¢": 1605,
      "ĠÄłspoleÃĦÄ¯": 1606,
      "ĠÄłjednot": 1607,
      "ĠÄłÃĦÄ¯tvr": 1608,
      "14": 1609,
      "18": 1610,
      "50": 1611,
      "akÃĥ": 1612,
      "alÃĥ": 1613,
      "cou": 1614,
      "ero": 1615,
      "fickÃĥ": 1616,
      "hnout": 1617,
      "lka": 1618,
      "pla": 1619,
      "prac": 1620,
      "rk": 1621,
      "rti": 1622,
      "slu": 1623,
      "sad": 1624,
      "vky": 1625,
      "Ġas": 1626,
      "Ġhod": 1627,
      "Ġati": 1628,
      "ĠÄłem": 1629,
      "ĠÄłÃħÄ»Ãĥ": 1630,
      "ĠÄłpÃĦÄ½": 1631,
      "ĠÄłpÃħÄ»Ãĥ": 1632,
      "stu": 1633,
      "stan": 1634,
      "ÃħÄ»a": 1635,
      "nÃĥÅĥci": 1636,
      "ovin": 1637,
      "ĠÄłven": 1638,
      "ĠÄłvrÃĥ": 1639,
      "ĠÄłved": 1640,
      "ĠÄłvoj": 1641,
      "ĠÄłzne": 1642,
      "lek": 1643,
      "ĠÄłnor": 1644,
      "teÃĦÄ¯nÃĥ": 1645,
      "ĠÄłkni": 1646,
      "ĠÄłkry": 1647,
      "ĠÄłotÃĥ": 1648,
      "ĠÄłozna": 1649,
      "ĠÄłdu": 1650,
      "ĠÄłdÃħÄ»e": 1651,
      "ĠÄłpomo": 1652,
      "ĠÄłpohy": 1653,
      "ĠÄłmat": 1654,
      "ĠÄłmez": 1655,
      "ĠÄłmoÃħ": 1656,
      "ĠÄłminu": 1657,
      "ĠÄłnedo": 1658,
      "itÃĥÅĥ": 1659,
      "any": 1660,
      "ĠÄłti": 1661,
      "ĠÄłtÃħÄ»e": 1662,
      "ĠÄłban": 1663,
      "ĠÄłvyz": 1664,
      "arÃħ": 1665,
      "Ġdo": 1666,
      "ĠÄłdomÃĥ": 1667,
      "rum": 1668,
      "Ġmet": 1669,
      "ĠÄłVÃĦÄ½": 1670,
      "ĠÄłfir": 1671,
      "ovatel": 1672,
      "ĠÃĳÄ": 1673,
      "Ġbo": 1674,
      "Ġvi": 1675,
      "ĠÄłpÃħÄ»ij": 1676,
      "ÃĦÄ¯enÃĥ": 1677,
      "dÃĦÄ½nÃĥÅĥ": 1678,
      "ĠÄłHo": 1679,
      "ĠÃĦÄ¯ÃĥÅĥ": 1680,
      "ĠÄłkonce": 1681,
      "ĠÄłvzÃĥ": 1682,
      "otnÃĥ": 1683,
      "ostÃĥÅĥ": 1684,
      "ĠÄłlid": 1685,
      "yslÃĥÅĥ": 1686,
      "ĠÄłprovÃĥ": 1687,
      "ĠÄłanti": 1688,
      "ĠÄłnÃĦÄ½k": 1689,
      "ÃĥÄ£": 1690,
      "ĠÄłprovoz": 1691,
      "ĠÄłelektro": 1692,
      "ĠÄłkraj": 1693,
      "ĠÄłzkuÃħ": 1694,
      "alu": 1695,
      "dle": 1696,
      "dka": 1697,
      "ft": 1698,
      "lky": 1699,
      "man": 1700,
      "ment": 1701,
      "ple": 1702,
      "tit": 1703,
      "tnÃĦÄ½": 1704,
      "vor": 1705,
      "zra": 1706,
      "zovat": 1707,
      "Ġ3": 1708,
      "ĠjÃĥÅĥ": 1709,
      "Ġlu": 1710,
      "ĠenÃĥ": 1711,
      "ĠÄłX": 1712,
      "ÃĥÅĥlÃĥ": 1713,
      "ĠÄłply": 1714,
      "ÃĦÄ¯Ãħ": 1715,
      "ĠÄłslav": 1716,
      "lep": 1717,
      "ĠÄłkla": 1718,
      "ĠÄłkan": 1719,
      "ĠÄłda": 1720,
      "ĠÄłdodÃĥ": 1721,
      "ĠÄłpoho": 1722,
      "ĠÄłneÃħ": 1723,
      "nÃĦÄ½nÃĥ": 1724,
      "anis": 1725,
      "jezd": 1726,
      "ĠÄłtvo": 1727,
      "onu": 1728,
      "eru": 1729,
      "ĠÄłbi": 1730,
      "ĠÄłbu": 1731,
      "ĠÄłukÃĥ": 1732,
      "ĠÄłudrÃħ": 1733,
      "ĠÄłPra": 1734,
      "ĠÄłPar": 1735,
      "ĠÄłzach": 1736,
      "ĠÄłSam": 1737,
      "til": 1738,
      "ĠÄłher": 1739,
      "ĠÄłhist": 1740,
      "koj": 1741,
      "ĠÄłproce": 1742,
      "avÃĦÄ½": 1743,
      "alÃħ": 1744,
      "Ġmo": 1745,
      "ĠÄłobrÃĥ": 1746,
      "Ġsk": 1747,
      "vÃĦÄ½tÃħ": 1748,
      "ĠÄłfy": 1749,
      "ĠÄłfak": 1750,
      "ĠÄłrod": 1751,
      "ĠÄłNem": 1752,
      "ĠÄłDop": 1753,
      "tuje": 1754,
      "ĠÃ¦": 1755,
      "Ġkov": 1756,
      "ĠÄłAl": 1757,
      "penÃĥÅĥ": 1758,
      "ĠÄłpÃħÄ»ÃĥÅĥpad": 1759,
      "ĠÄłekon": 1760,
      "ĠÄłOd": 1761,
      "ĠÄłinter": 1762,
      "Ġfor": 1763,
      "ĠÄłvzdÃĥ": 1764,
      "ĠÄłcit": 1765,
      "ĠÄłÃĲ": 1766,
      "ĠÄłpotÃħÄ»eb": 1767,
      "ĠÄłnavÃħ": 1768,
      "ternet": 1769,
      ").": 1770,
      "17": 1771,
      "ST": 1772,
      "TA": 1773,
      "ay": 1774,
      "dro": 1775,
      "dla": 1776,
      "dlo": 1777,
      "hl": 1778,
      "hem": 1779,
      "iro": 1780,
      "ju": 1781,
      "kci": 1782,
      "lku": 1783,
      "pro": 1784,
      "por": 1785,
      "qu": 1786,
      "sou": 1787,
      "tÃħÄ»e": 1788,
      "uji": 1789,
      "zky": 1790,
      "zdu": 1791,
      "zuje": 1792,
      "Â¤": 1793,
      "Ġ\"": 1794,
      "Ġ:": 1795,
      "ĠÃħÄº": 1796,
      "ÃħÅĤ": 1797,
      "ĠÄłpart": 1798,
      "ĠÄłpsy": 1799,
      "stal": 1800,
      "nÃĥÅĥkÃħ": 1801,
      "chov": 1802,
      "ÃĦÄ¯ko": 1803,
      "ĠÄłvstup": 1804,
      "ĠÄłsr": 1805,
      "ĠÄłsvat": 1806,
      "ĠÄłzat": 1807,
      "ĠÄłzvo": 1808,
      "rodnÃĥÅĥ": 1809,
      "ĠÄłnut": 1810,
      "tej": 1811,
      "livÃĥ": 1812,
      "ĠÄłkro": 1813,
      "ĠÄłklÃĥ": 1814,
      "ĠÄłkup": 1815,
      "ĠÄłoÃħ": 1816,
      "ĠÄłdra": 1817,
      "ĠÄłpor": 1818,
      "ĠÄłpokra": 1819,
      "ĠÄłmot": 1820,
      "ĠÄłmech": 1821,
      "lon": 1822,
      "nÃĦÄ½l": 1823,
      "jet": 1824,
      "ĠÄłtro": 1825,
      "ĠÄłvybav": 1826,
      "ĠÄłuprav": 1827,
      "ĠÄłPR": 1828,
      "valÃĥ": 1829,
      "ody": 1830,
      "ĠÄłzaloÃħ": 1831,
      "ĠÄłSk": 1832,
      "ĠÄłSta": 1833,
      "nici": 1834,
      "poÃĦÄ¯": 1835,
      "ĠÄłstro": 1836,
      "ĠÄłstej": 1837,
      "ÃħÄ»il": 1838,
      "ĠÄłhla": 1839,
      "Ġpro": 1840,
      "Ġpad": 1841,
      "ĠÄłpÃħÄ»ekva": 1842,
      "ĠÄłobÃĥ": 1843,
      "obraz": 1844,
      "Ġsko": 1845,
      "ĠÄłKo": 1846,
      "ĠÄłfa": 1847,
      "ĠÄłfÃĥ": 1848,
      "ĠÄłas": 1849,
      "ĠÄłDom": 1850,
      "ĠÄłBar": 1851,
      "vot": 1852,
      "Ġby": 1853,
      "Ġber": 1854,
      "ely": 1855,
      "ĠkovÃĥ": 1856,
      "ĠÃĥÂº": 1857,
      "Ġhra": 1858,
      "dÃĦÄ½le": 1859,
      "danÃĥ": 1860,
      "dajÃĥÅĥ": 1861,
      "lym": 1862,
      "rych": 1863,
      "hodno": 1864,
      "hodob": 1865,
      "veÃħÄ»ej": 1866,
      "ĠÄłkonz": 1867,
      "ĠPro": 1868,
      "ister": 1869,
      "entÃħ": 1870,
      "ĠÄłFran": 1871,
      "ĠÄłspotÃħÄ»eb": 1872,
      "ĠÄłcyk": 1873,
      "ĠÄłEx": 1874,
      "vnÃĥÅĥho": 1875,
      "ĠÄłveÃħÄ»ej": 1876,
      "ĠÄłnemoc": 1877,
      "klady": 1878,
      "ĠÄłÃħÄ»eÃħ": 1879,
      "ÃĦÄ±te": 1880,
      "rostÃħÄ»ed": 1881,
      "ĠÄłschop": 1882,
      "ÃĦÄ¯asnÃĥ": 1883,
      "ĠÄłturi": 1884,
      "ĠÄłurÃĦÄ¯": 1885,
      "200": 1886,
      "co": 1887,
      "cnÃĥ": 1888,
      "dku": 1889,
      "fin": 1890,
      "hi": 1891,
      "ije": 1892,
      "ps": 1893,
      "prÃĥ": 1894,
      "per": 1895,
      "sem": 1896,
      "tom": 1897,
      "vka": 1898,
      "zkou": 1899,
      "Âµ": 1900,
      "Â»": 1901,
      "Ġ4": 1902,
      "Ġ?": 1903,
      "Ġav": 1904,
      "Ġran": 1905,
      "ĠloÃħ": 1906,
      "Ġ20": 1907,
      "ĠÄłlÃħ": 1908,
      "ĠÄłpan": 1909,
      "ĠÄłped": 1910,
      "ĠÄłpubli": 1911,
      "stvo": 1912,
      "nÃĥÅĥky": 1913,
      "ÃĦÄ¯em": 1914,
      "ĠÄłsla": 1915,
      "ĠÄłser": 1916,
      "ĠÄłsvÃĥÅĥ": 1917,
      "ĠÄłzmÃĥÅĥ": 1918,
      "ĠÄłzkouÃħ": 1919,
      "lace": 1920,
      "lik": 1921,
      "lika": 1922,
      "ĠÄłky": 1923,
      "enta": 1924,
      "ĠÄłot": 1925,
      "inci": 1926,
      "ĠÄłmlu": 1927,
      "ĠÄłmili": 1928,
      "ĠÄłmik": 1929,
      "ĠÄłmyÃħ": 1930,
      "ant": 1931,
      "jenÃĥ": 1932,
      "ĠÄłtri": 1933,
      "ony": 1934,
      "ĠÄłbrÃĥ": 1935,
      "ĠÄłbav": 1936,
      "are": 1937,
      "ĠÄłuÃĦÄ¯i": 1938,
      "ĠÄłPO": 1939,
      "ĠÄłPa": 1940,
      "vacÃĥÅĥ": 1941,
      "rek": 1942,
      "ĠÄłzajiÃħ": 1943,
      "ĠÄłstudi": 1944,
      "ĠÄłhlu": 1945,
      "ĠÄłhlad": 1946,
      "ĠÄłproti": 1947,
      "Ġprav": 1948,
      "ĠÄłdoku": 1949,
      "alovÃĥ": 1950,
      "ĠmÃĥÅĥ": 1951,
      "ĠÃħÅĤ": 1952,
      "Ġsa": 1953,
      "rie": 1954,
      "ĠÄłfan": 1955,
      "ĠÄłrost": 1956,
      "ĠÄłÃĦÄ¯a": 1957,
      "ĠÄłÃĦÄ¯in": 1958,
      "ĠÄłÃĦÄ¯len": 1959,
      "isk": 1960,
      "zek": 1961,
      "zeÃħÄª": 1962,
      "ĠÄłÃĥÂºto": 1963,
      "ĠÄłÃĥÂºspÃĦÄ½Ãħ": 1964,
      "ĠÃ§": 1965,
      "ĠÄłpÃħÄ»ihlÃĥ": 1966,
      "ÃĦÄ¯ekÃĥ": 1967,
      "telskÃĥ": 1968,
      "ĠÄłRo": 1969,
      "ĠÄłRad": 1970,
      "ĠÄłchla": 1971,
      "ezpe": 1972,
      "ezpeÃĦÄ¯": 1973,
      "ĠÄłten": 1974,
      "ĠÄłtex": 1975,
      "ĠÄłLe": 1976,
      "vek": 1977,
      "ĠPo": 1978,
      "mÃĥÅĥt": 1979,
      "ĠÄłkab": 1980,
      "ĠÄłvzpo": 1981,
      "ĠÄłcen": 1982,
      "ĠNÃĥ": 1983,
      "ysle": 1984,
      "ĠÄłangli": 1985,
      "ĠÄłpotvr": 1986,
      "ĠEN": 1987,
      "ĠÄłnezÃĥ": 1988,
      "ĠÄłnÃĦÄ½j": 1989,
      "jedna": 1990,
      "ĠÄłuspo": 1991,
      "ĠÄłautor": 1992,
      "ĠÄłschvÃĥ": 1993,
      "ĠÄłstand": 1994,
      "ĠÄłmanÃħ": 1995,
      "ĠÄłener": 1996,
      "vropskÃĥ": 1997,
      "//": 1998,
      "60": 1999,
      "AD": 2000,
      "ER": 2001,
      "dce": 2002,
      "dal": 2003,
      "dil": 2004,
      "dent": 2005,
      "elo": 2006,
      "elÃĥ": 2007,
      "eÃħÄª": 2008,
      "ii": 2009,
      "ip": 2010,
      "itelnÃĥ": 2011,
      "kat": 2012,
      "lkovÃĥ": 2013,
      "mr": 2014,
      "nky": 2015,
      "okÃĥ": 2016,
      "sme": 2017,
      "tnÃĥ": 2018,
      "vil": 2019,
      "ÃĳÄ": 2020,
      "Ġ)": 2021,
      "Ġ,": 2022,
      "Ġ7": 2023,
      "Ġ9": 2024,
      "Ġy": 2025,
      "ĠÃĥÅĥ": 2026,
      "Ġer": 2027,
      "Ġil": 2028,
      "Ġak": 2029,
      "ĠÄłpovÃĦÄ½": 2030,
      "stÃħ": 2031,
      "stem": 2032,
      "stÃħÄ»i": 2033,
      "ÃħÄ»Ãħ": 2034,
      "nÃĥÅĥku": 2035,
      "chÃħ": 2036,
      "ĠÄłvl": 2037,
      "ĠÄłvari": 2038,
      "racÃĥÅĥ": 2039,
      "raci": 2040,
      "ĠÄłsvob": 2041,
      "ĠÄłzlo": 2042,
      "ĠÄłzpo": 2043,
      "rozen": 2044,
      "tera": 2045,
      "out": 2046,
      "ĠÄłkor": 2047,
      "ĠÄłklÃĥÅĥ": 2048,
      "ĠÄłoce": 2049,
      "ĠÄłoka": 2050,
      "ĠÄłoprav": 2051,
      "ĠÄłdruÃħ": 2052,
      "ĠÄłdoda": 2053,
      "ĠÄłpode": 2054,
      "ĠÄłnev": 2055,
      "ĠÄłneob": 2056,
      "ĠÄłneda": 2057,
      "erickÃĥ": 2058,
      "ĠÄłblÃĥÅĥ": 2059,
      "vaÃħ": 2060,
      "vatel": 2061,
      "jÃĥÅĥt": 2062,
      "ĠÄłzas": 2063,
      "ĠÄłzav": 2064,
      "ĠÄłzaÃħ": 2065,
      "ĠÄłzaÃĦÄ¯": 2066,
      "nologi": 2067,
      "nikÃĥ": 2068,
      "pozi": 2069,
      "ĠÄłsty": 2070,
      "ĠdrÃħ": 2071,
      "ÃħÄ»iÃħ": 2072,
      "ĠÄłhlas": 2073,
      "adu": 2074,
      "ĠÄłdokÃĥ": 2075,
      "ĠÄłdota": 2076,
      "ĠÄłdosta": 2077,
      "ĠsÃĥ": 2078,
      "ĠÄłÃĦÄ¯te": 2079,
      "ĠÄłzÃĥÂº": 2080,
      "ĠÄłBoh": 2081,
      "tÃĦÄ½z": 2082,
      "ĠÄłodpo": 2083,
      "ĠÃ¤": 2084,
      "ĠklÃĥ": 2085,
      "ĠvÃħ": 2086,
      "ĠÄłreÃħ": 2087,
      "ĠÄłrekla": 2088,
      "Ġha": 2089,
      "toÃħ": 2090,
      "ĠÄłRa": 2091,
      "ĠÄłchara": 2092,
      "dinÃĥ": 2093,
      "dila": 2094,
      "ĠÄłHra": 2095,
      "rovnÃĥ": 2096,
      "tÃĥÅĥm": 2097,
      "ÃħÄªuje": 2098,
      "ĠÄłkontro": 2099,
      "ĠÄłjÃĥ": 2100,
      "ĠÄłjem": 2101,
      "ĠÄłspÃĥ": 2102,
      "ĠÄłsport": 2103,
      "ĠÄłgene": 2104,
      "ĠÄłcent": 2105,
      "198": 2106,
      "ĠÄłÃĦÄ®er": 2107,
      "ĠÄłcest": 2108,
      "znam": 2109,
      "oviÃħ": 2110,
      "ĠÄłpotÃħÄ»e": 2111,
      "ĠÄłjazy": 2112,
      "ĠÄłpoznÃĥ": 2113,
      "nitÃħÄ»": 2114,
      "kladu": 2115,
      "ĠÄłÃĥÂºÃĦÄ¯in": 2116,
      "ĠÄłÃĥÂºÃĦÄ¯ast": 2117,
      "ĠÄłkamarÃĥ": 2118,
      "ĠÄłodpovÃĦÄ½": 2119,
      "ĠÄłmimo": 2120,
      "feren": 2121,
      "kuteÃĦÄ¯": 2122,
      "Ã¢Ä¢Ä": 2123,
      "ĠÄłaktiv": 2124,
      "eskoslov": 2125,
      "ĠÄłkultu": 2126,
      "couz": 2127,
      "ĠÄłcharak": 2128,
      "25": 2129,
      "30": 2130,
      "AT": 2131,
      "NÃĥÄ¯": 2132,
      "cvi": 2133,
      "cent": 2134,
      "cemi": 2135,
      "dky": 2136,
      "hro": 2137,
      "ich": 2138,
      "ionÃĥ": 2139,
      "kÃĦÄ¯nÃĥÅĥ": 2140,
      "mskÃĥ": 2141,
      "nan": 2142,
      "og": 2143,
      "pr": 2144,
      "pÃħÄ»ÃĥÅĥ": 2145,
      "pre": 2146,
      "slav": 2147,
      "tkÃĥ": 2148,
      "vem": 2149,
      "vku": 2150,
      "xu": 2151,
      "zat": 2152,
      "Â§": 2153,
      "Â´": 2154,
      "Åģ": 2155,
      "Ġ0": 2156,
      "Ġ6": 2157,
      "Ġ8": 2158,
      "ĠW": 2159,
      "Ġe": 2160,
      "ĠskÃĥ": 2161,
      "Ġji": 2162,
      "Ġist": 2163,
      "Ġty": 2164,
      "ĠÄłY": 2165,
      "ĠÄłl": 2166,
      "ĠÄłr": 2167,
      "ĠÄłnÃĥÅĥ": 2168,
      "ÃĥÅĥÃħÄ»": 2169,
      "ÃĥÅĥcÃĥÅĥ": 2170,
      "stitu": 2171,
      "nÃĥÅĥka": 2172,
      "ÃĦÄ¯en": 2173,
      "ÃĦÄ¯ce": 2174,
      "ĠÄłvla": 2175,
      "ĠÄłvit": 2176,
      "ĠÄłvloÃħ": 2177,
      "ĠÄłvoz": 2178,
      "ĠÄłsko": 2179,
      "ĠÄłsob": 2180,
      "ĠÄłzÃħ": 2181,
      "ĠÄłzby": 2182,
      "ĠÄłzÃĥÅĥs": 2183,
      "ĠÄłzele": 2184,
      "lati": 2185,
      "latÃĥ": 2186,
      "ouf": 2187,
      "oucÃĥÅĥ": 2188,
      "ĠÄłkat": 2189,
      "enu": 2190,
      "ĠÄłpohod": 2191,
      "ĠÄłpoloÃħ": 2192,
      "ĠÄłpostup": 2193,
      "ĠÄłpojiÃħ": 2194,
      "ÃħÄ»em": 2195,
      "ĠÄłmÃħ": 2196,
      "ĠÄłmar": 2197,
      "ĠÄłmuÃħ": 2198,
      "aty": 2199,
      "ĠÄłnevÃĦÄ½": 2200,
      "ĠÄłtla": 2201,
      "oni": 2202,
      "onal": 2203,
      "ĠÄłboj": 2204,
      "ĠÄłvydÃĥ": 2205,
      "ĠÄłvyrob": 2206,
      "ĠÄłvybra": 2207,
      "ary": 2208,
      "ĠÄłukon": 2209,
      "ĠÄłumoÃħ": 2210,
      "ĠÄłPÃĥ": 2211,
      "vaz": 2212,
      "ĠÄłzakÃĥ": 2213,
      "ĠÄłzahÃĥ": 2214,
      "nictvÃĥÅĥ": 2215,
      "pozor": 2216,
      "nam": 2217,
      "ÃħÄ»ice": 2218,
      "ĠÄłhru": 2219,
      "ĠÄłprohlÃĥÅĥ": 2220,
      "ĠÄłprodej": 2221,
      "Ġpis": 2222,
      "ĠÄłdoz": 2223,
      "ĠÄłMÃĥ": 2224,
      "ĠÄłMus": 2225,
      "ruh": 2226,
      "ety": 2227,
      "ĠÄłobraz": 2228,
      "ĠÄłobec": 2229,
      "ĠÄłobÃĦÄ¯an": 2230,
      "dejÃħ": 2231,
      "ĠÄłVi": 2232,
      "ĠÄłVel": 2233,
      "omÃĥ": 2234,
      "ĠÄłfran": 2235,
      "ĠÄłDÃĥ": 2236,
      "ĠÄłBr": 2237,
      "ĠÄłBu": 2238,
      "ĠÄłBy": 2239,
      "tÃĦÄ½nÃĥ": 2240,
      "ĠÄłodh": 2241,
      "nech": 2242,
      "nete": 2243,
      "ĠkrÃĥ": 2244,
      "Ġvod": 2245,
      "ĠÄłrek": 2246,
      "ÃĦÄ¯ej": 2247,
      "asi": 2248,
      "asÃĥ": 2249,
      "dÃĦÄ½j": 2250,
      "dÃĦÄ½li": 2251,
      "ĠÄłRy": 2252,
      "ĠÄłefek": 2253,
      "ĠÄłchrÃĥ": 2254,
      "datel": 2255,
      "Ġstav": 2256,
      "tÃĥÅĥÃħ": 2257,
      "ĠÄłpodnika": 2258,
      "ĠÄłpodstat": 2259,
      "mus": 2260,
      "ĠÄłled": 2261,
      "ĠÄłleg": 2262,
      "ĠÄłles": 2263,
      "olnÃĥ": 2264,
      "ĠÄłpÃħÄ»edpo": 2265,
      "zaci": 2266,
      "ĠÄłvÃĦÄ½tÃħ": 2267,
      "ĠÄłkomb": 2268,
      "boÃħ": 2269,
      "ktor": 2270,
      "sanÃĥ": 2271,
      "padÃĥ": 2272,
      "ĠÄłskvÃĦÄ½": 2273,
      "ĠÄłsklad": 2274,
      "ĠÄłjednodu": 2275,
      "ĠÄłprakti": 2276,
      "ĠÄłcelo": 2277,
      "ĠÄłcerti": 2278,
      "ĠinÃĥ": 2279,
      "ĠÄłopat": 2280,
      "ĠÄłoprÃĥ": 2281,
      "kladem": 2282,
      "ĠRO": 2283,
      "ĠÄłnÃĦÄ½me": 2284,
      "ĠÄłkoup": 2285,
      "ĠÄłbezp": 2286,
      "ĠÄłnadÃħ": 2287,
      "hledÃĥ": 2288,
      "ĠÄłsamostat": 2289,
      "ivot": 2290,
      "ĠÄłnedost": 2291,
      "ĠÄłteplo": 2292,
      "ĠÃ¥Ä": 2293,
      "ĠÄłtakovÃĥ": 2294,
      "ĠÄłdlouhodob": 2295,
      "ĠÄłregist": 2296,
      "ĠÄłtelefon": 2297,
      "ĠÄłumÃĥÅĥstÃĦÄ½": 2298,
      "ĠÄłspeciali": 2299,
      "ĠÄłabsol": 2300,
      "ĠÄłMorav": 2301,
      "niverz": 2302,
      "ĠÄłzpracovÃĥ": 2303,
      "ĠÄłpovaÃħ": 2304,
      "ĠÄłpohyb": 2305,
      "==": 2306,
      "CE": 2307,
      "ca": 2308,
      "dher": 2309,
      "fa": 2310,
      "fo": 2311,
      "gan": 2312,
      "ile": 2313,
      "klo": 2314,
      "kod": 2315,
      "mit": 2316,
      "mlou": 2317,
      "nce": 2318,
      "nka": 2319,
      "plo": 2320,
      "so": 2321,
      "toru": 2322,
      "vnÃĥÅĥch": 2323,
      "yna": 2324,
      "zka": 2325,
      "Â®": 2326,
      "Ġ5": 2327,
      "Ġal": 2328,
      "ĠvÃĦÄ½": 2329,
      "Ġel": 2330,
      "ĠrÃħ": 2331,
      "Ġtel": 2332,
      "ĠitÃĥ": 2333,
      "ĠÃĦÄ±": 2334,
      "Ġ199": 2335,
      "ĠÄłri": 2336,
      "ĠÄłlyÃħ": 2337,
      "ĠÄłpi": 2338,
      "ĠÄłpad": 2339,
      "stva": 2340,
      "ĠÄłver": 2341,
      "ĠÄłsnÃĦÄ½": 2342,
      "ĠÄłslou": 2343,
      "ĠÄłsek": 2344,
      "ĠÄłsub": 2345,
      "ĠÄłskup": 2346,
      "ĠÄłze": 2347,
      "ĠÄłzv": 2348,
      "ĠÄłzmi": 2349,
      "ĠÄłzjiÃħ": 2350,
      "ĠÄłzveÃħÄ»ej": 2351,
      "roÃħ": 2352,
      "leÃĦÄ¯": 2353,
      "ĠÄłnu": 2354,
      "ĠÄłnena": 2355,
      "teÃħÄ»": 2356,
      "ĠÄłkÃħ": 2357,
      "ĠÄłkov": 2358,
      "ĠÄłkre": 2359,
      "ĠÄłklu": 2360,
      "ĠÄłkri": 2361,
      "ĠÄłkdy": 2362,
      "ĠÄłoÃĦÄ¯ekÃĥ": 2363,
      "ĠÄłdem": 2364,
      "ĠÄłdod": 2365,
      "ĠÄłdrob": 2366,
      "ĠÄłpoj": 2367,
      "ĠÄłpoch": 2368,
      "ĠÄłpoko": 2369,
      "ĠÄłpodÃĥ": 2370,
      "ĠÄłpohÃĥ": 2371,
      "ines": 2372,
      "ĠÄłmil": 2373,
      "ĠÄłmoh": 2374,
      "ĠÄłnenÃĥ": 2375,
      "itost": 2376,
      "nÃĦÄ½te": 2377,
      "kal": 2378,
      "ĠÄłtvÃĥ": 2379,
      "kul": 2380,
      "ĠÄłvyhlÃĥ": 2381,
      "ĠÄłuloÃħ": 2382,
      "ĠÄłuvede": 2383,
      "ĠÄłPoz": 2384,
      "ode": 2385,
      "ĠÄłzaÃĦÄ¯ÃĥÅĥ": 2386,
      "ĠÄłzastup": 2387,
      "ĠÄłzajÃĥÅĥma": 2388,
      "ĠÄłzahr": 2389,
      "nic": 2390,
      "nila": 2391,
      "poj": 2392,
      "ĠÄłsto": 2393,
      "Ġde": 2394,
      "ĠÄłhÃĥ": 2395,
      "ĠÄłhlou": 2396,
      "ĠÄłpropa": 2397,
      "Ġpa": 2398,
      "Ġpe": 2399,
      "ĠpÃħÄ»ÃĥÅĥ": 2400,
      "Ġpod": 2401,
      "ĠÄłdoprav": 2402,
      "Ġman": 2403,
      "etu": 2404,
      "ĠÄłobÃĦÄ½": 2405,
      "del": 2406,
      "ĠÄłVÃĥÅĥ": 2407,
      "rickÃĥ": 2408,
      "ribu": 2409,
      "ĠÄłfinan": 2410,
      "ĠÄłaktu": 2411,
      "ĠÄłDÃħ": 2412,
      "zejÃĥÅĥcÃĥÅĥ": 2413,
      "edl": 2414,
      "ĠÃ£": 2415,
      "Ġba": 2416,
      "elÃħ": 2417,
      "tah": 2418,
      "Ġkon": 2419,
      "ĠzovÃĥ": 2420,
      "Ġzna": 2421,
      "ĠÄłTo": 2422,
      "ĠÄłTÃĥ": 2423,
      "ĠÄłrezer": 2424,
      "ĠÄłpÃħÄ»idÃĥ": 2425,
      "dala": 2426,
      "dali": 2427,
      "ĠÄłCÃĥÅĥ": 2428,
      "ĠÄłinten": 2429,
      "ĠÄłtera": 2430,
      "ĠÃĦÄ¯Ãĥ": 2431,
      "ĠÄłLÃĥ": 2432,
      "ĠÄłkonta": 2433,
      "mace": 2434,
      "ĠÄłleh": 2435,
      "ĠÄłlete": 2436,
      "bych": 2437,
      "ĠÄłkalen": 2438,
      "spi": 2439,
      "ĠÄłvzdÃĦÄ½lÃĥ": 2440,
      "opis": 2441,
      "rannÃĥ": 2442,
      "ĠÄłsoukro": 2443,
      "ĠÄłsoused": 2444,
      "ĠSt": 2445,
      "ĠNa": 2446,
      "194": 2447,
      "196": 2448,
      "ĠVÃħ": 2449,
      "bÃĦÄ½h": 2450,
      "ĠÄłveÃħ": 2451,
      "vodu": 2452,
      "000": 2453,
      "ĠÄłnemus": 2454,
      "ĠÄłÃĤ": 2455,
      "ovice": 2456,
      "artmÃĥ": 2457,
      "ĠÄłdÃĦÄ½t": 2458,
      "ĠÄłmÃĦÄ½sÃĥÅĥ": 2459,
      "ĠÄłdoplÃħÄª": 2460,
      "ĠZa": 2461,
      "chyb": 2462,
      "ĠÄłbezpeÃĦÄ¯": 2463,
      "tory": 2464,
      "stoup": 2465,
      "ĠÄłkuchy": 2466,
      "ĠÄłmini": 2467,
      "ĠÄłovlÃĥ": 2468,
      "ĠÄłodpovÃĥÅĥ": 2469,
      "kerÃĥ": 2470,
      "ĠÄłpoliti": 2471,
      "........": 2472,
      "----": 2473,
      "ĠÄłzemÃĦÄ½": 2474,
      "____": 2475,
      "\\\\\\\\\\\\\\\\\\\\\\\\\\\\\\\\\\\\\\\\\\\\\\\\\\\\\\\\\\\\\\\\": 2476,
      "ĠÄłfotogra": 2477,
      "prava": 2478,
      "ĠÄłpamÃĥ": 2479,
      "ĠÄłhistor": 2480,
      "ĠÃ¦Ä": 2481,
      "ĠÄłpartner": 2482,
      "ĠÄłpokraÃĦÄ¯": 2483,
      "ĠÄłokamÃħ": 2484,
      "11": 2485,
      "CH": 2486,
      "OR": 2487,
      "OV": 2488,
      "SS": 2489,
      "cko": 2490,
      "dovÃĥ": 2491,
      "dnout": 2492,
      "eskÃĥ": 2493,
      "esti": 2494,
      "gre": 2495,
      "ht": 2496,
      "ivÃĥ": 2497,
      "kcÃĥÅĥ": 2498,
      "kty": 2499,
      "lce": 2500,
      "mlu": 2501,
      "ng": 2502,
      "nku": 2503,
      "pen": 2504,
      "rovanÃĥ": 2505,
      "ss": 2506,
      "sen": 2507,
      "vin": 2508,
      "vnÃĥÅĥm": 2509,
      "xx": 2510,
      "znÃĦÄ½": 2511,
      "zal": 2512,
      "Ġem": 2513,
      "ĠtÃĥÅĥ": 2514,
      "ĠÃħÄ»Ãĥ": 2515,
      "ĠÄłlu": 2516,
      "ÃĥÅĥk": 2517,
      "ĠÄłpl": 2518,
      "ĠÄłple": 2519,
      "ĠÄłplast": 2520,
      "ĠÄłpÃĦÄ½k": 2521,
      "stskÃĥ": 2522,
      "ÃħÄ»en": 2523,
      "nÃĥÅĥmi": 2524,
      "ove": 2525,
      "ĠÄłvaÃħ": 2526,
      "ĠÄłskÃĥ": 2527,
      "ĠÄłslad": 2528,
      "ĠÄłsbÃĥÅĥ": 2529,
      "ĠÄłzb": 2530,
      "ĠÄłzÃĥÅĥ": 2531,
      "ĠÄłzvu": 2532,
      "ĠÄłztrÃĥ": 2533,
      "ĠÄłzobraz": 2534,
      "rozu": 2535,
      "ĠÄłnen": 2536,
      "ĠÄłnovÃĥ": 2537,
      "ĠÄłnos": 2538,
      "ladÃĥ": 2539,
      "our": 2540,
      "lie": 2541,
      "lice": 2542,
      "ĠÄłkle": 2543,
      "enost": 2544,
      "enstvÃĥÅĥ": 2545,
      "ĠÄłdrÃĥ": 2546,
      "ĠÄłdvo": 2547,
      "ĠÄłdne": 2548,
      "ĠÄłpoh": 2549,
      "ĠÄłpost": 2550,
      "ĠÄłpopu": 2551,
      "ĠÄłpochop": 2552,
      "hor": 2553,
      "ĠÄłme": 2554,
      "ĠÄłmam": 2555,
      "cep": 2556,
      "ĠÄłnesp": 2557,
      "ĠÄłtan": 2558,
      "ĠÄłtÃħÄ»ÃĥÅĥ": 2559,
      "ĠÄłtlu": 2560,
      "ĠÄłtur": 2561,
      "ery": 2562,
      "ĠÄłvych": 2563,
      "ĠÄłvyrÃĥ": 2564,
      "ĠÄłvyvo": 2565,
      "ĠÄłvystav": 2566,
      "ĠÄłuvÃĥ": 2567,
      "ĠÄłuvo": 2568,
      "ĠÄłudÃĥ": 2569,
      "ĠÄłuvÃĦÄ½dom": 2570,
      "ĠÄłPr": 2571,
      "vala": 2572,
      "ÃħÄ»ÃĥÅĥzenÃĥÅĥ": 2573,
      "odo": 2574,
      "rech": 2575,
      "ĠÄłStu": 2576,
      "ĠÄłSlov": 2577,
      "nad": 2578,
      "ĠÄłstru": 2579,
      "ĠdÃħ": 2580,
      "Ġdis": 2581,
      "ÃħÄ»ila": 2582,
      "ĠÄłhr": 2583,
      "ĠÄłhu": 2584,
      "ĠÄłhrd": 2585,
      "kost": 2586,
      "koho": 2587,
      "ĠÄłprodÃĥ": 2588,
      "ĠÄłprochÃĥ": 2589,
      "ĠÄłprobÃĥÅĥ": 2590,
      "ĠpÃħ": 2591,
      "ĠprÃĥ": 2592,
      "ĠÄłdosÃĥ": 2593,
      "ĠÄłdospÃĦÄ½": 2594,
      "ĠÄłMin": 2595,
      "ĠÄłpÃħÄ»ev": 2596,
      "ĠÄłpÃħÄ»eÃħ": 2597,
      "ĠÄłoblÃĥÅĥb": 2598,
      "deÃħ": 2599,
      "ĠÄłVys": 2600,
      "ĠÄłVaÃħ": 2601,
      "ĠÄłnas": 2602,
      "ĠÄłnahrÃĥ": 2603,
      "ĠÄłnalez": 2604,
      "Ġsy": 2605,
      "vÃĦÄ½re": 2606,
      "rii": 2607,
      "ĠÄłroze": 2608,
      "ĠÄłÃĦÄ¯ty": 2609,
      "ĠÄłÃĦÄ¯ÃĥÅĥs": 2610,
      "ĠÄłagen": 2611,
      "mek": 2612,
      "menÃĥ": 2613,
      "ĠÄłBo": 2614,
      "volu": 2615,
      "ĠÄłodliÃħ": 2616,
      "ĠÄłÃĥÂºs": 2617,
      "ĠÃ¨": 2618,
      "mÃĦÄ½ÃħÄ»": 2619,
      "ĠÄłTech": 2620,
      "ĠÄłreÃĥ": 2621,
      "asnÃĥ": 2622,
      "ĠÄłpÃħÄ»ÃĥÅĥprav": 2623,
      "ĠÄłpÃħÄ»ÃĥÅĥstup": 2624,
      "ĠÄłeko": 2625,
      "ĠÄłchlad": 2626,
      "diÃĦÄ¯": 2627,
      "ditel": 2628,
      "Ġsta": 2629,
      "Ġstou": 2630,
      "ĠÄłinf": 2631,
      "ĠÄłindi": 2632,
      "ĠÄłtem": 2633,
      "vejte": 2634,
      "ĠÄłkone": 2635,
      "ĠÄłkonku": 2636,
      "mulÃĥ": 2637,
      "vili": 2638,
      "ĠÄłjmen": 2639,
      "ĠÄłlet": 2640,
      "jÃĥÅĥcÃĥÅĥch": 2641,
      "ĠÄłsprav": 2642,
      "konnÃĥ": 2643,
      "alizace": 2644,
      "ĠÄłgy": 2645,
      "utnÃĥ": 2646,
      "ĠÄłsouvis": 2647,
      "ĠÄłsoutÃĦÄ½Ãħ": 2648,
      "ĠNej": 2649,
      "ĠÄłvÃĦÄ½d": 2650,
      "ĠÄłvÃĦÄ½de": 2651,
      "ĠÄłposu": 2652,
      "ĠÄłmag": 2653,
      "ktÃħ": 2654,
      "ĠÄłlist": 2655,
      "195": 2656,
      "197": 2657,
      "ginÃĥ": 2658,
      "ĠÄłnepÃħÄ»e": 2659,
      "dÃĥÅĥme": 2660,
      "ung": 2661,
      "ĠÄłskle": 2662,
      "ÃĦÄ¯ila": 2663,
      "ult": 2664,
      "znamen": 2665,
      "ĠÄłzpÃĦÄ½": 2666,
      "ĠOV": 2667,
      "ĠOb": 2668,
      "vodnÃĥÅĥ": 2669,
      "ĠÄłseÃħ": 2670,
      "inace": 2671,
      "ĠÄłpremi": 2672,
      "ĠÄłexist": 2673,
      "ĠÄłpotrav": 2674,
      "ktivnÃĥÅĥ": 2675,
      "ĠÄłneznÃĥ": 2676,
      "ĠÄłÃħÄ»ek": 2677,
      "ĠÄłpovin": 2678,
      "ĠZÃĥ": 2679,
      "ĠonÃĥ": 2680,
      "ĠÄłlabo": 2681,
      "ĠÃħÄªovÃĥ": 2682,
      "ĠÄłautob": 2683,
      "slednÃĥ": 2684,
      "ĠÄłmoder": 2685,
      "ĠÄłnavr": 2686,
      "denti": 2687,
      "ĠÄłjinÃĥ": 2688,
      "ĠÄłtabu": 2689,
      "Ġ10": 2690,
      "ĠÄłdisku": 2691,
      "ĠÄłweb": 2692,
      "ĠÄłpravide": 2693,
      "ĠÄłjÃĥÅĥzd": 2694,
      "ĠÄłrepre": 2695,
      "minist": 2696,
      "sledu": 2697,
      "ĠÄłtradi": 2698,
      "Ġ200": 2699,
      "ĠÄłumÃĦÄ½le": 2700,
      "ĠÄłtelevi": 2701,
      "ĠÄłsnaÃħ": 2702,
      "jÃĥÅĥmav": 2703,
      "ĠÄłinforma": 2704,
      "ĠÄłpÃħÄ»esvÃĦÄ½d": 2705,
      "Ã¢Ä¢": 2706,
      "ĠÄłzdravot": 2707,
      "ĠÄłmuzi": 2708,
      "ĠÄłpoÃĦÄ¯ÃĥÅĥta": 2709,
      "ĠÄłAmeri": 2710,
      "ĠÄłklasi": 2711,
      "ĠÄłekonom": 2712,
      "ĠÄłmotor": 2713,
      "ĠÄłpedag": 2714,
      "ĠÄłhlubo": 2715,
      "ĠÄłdokumen": 2716,
      "ĠÄłzÃĥÂºÃĦÄ¯ast": 2717,
      "ĠÄłvitam": 2718,
      "ĠÄłfrancouz": 2719,
      "ĠÃ£Ä": 2720,
      "ĠÄłkalendÃĥ": 2721,
      "),": 2722,
      "24": 2723,
      "AN": 2724,
      "AS": 2725,
      "RA": 2726,
      "bit": 2727,
      "cyk": 2728,
      "dnou": 2729,
      "gÃĥ": 2730,
      "gram": 2731,
      "he": 2732,
      "ici": 2733,
      "ilu": 2734,
      "iru": 2735,
      "jnÃĥÅĥ": 2736,
      "ld": 2737,
      "mnÃĥÅĥ": 2738,
      "mnÃĦÄ½": 2739,
      "nin": 2740,
      "nod": 2741,
      "pas": 2742,
      "podob": 2743,
      "rky": 2744,
      "tk": 2745,
      "tvar": 2746,
      "usti": 2747,
      "vce": 2748,
      "xus": 2749,
      "Â±": 2750,
      "Â¶": 2751,
      "Ġ!": 2752,
      "ĠckÃĥ": 2753,
      "ĠtÃĦÄ½": 2754,
      "ĠÃĦÄ¯nÃĥÅĥ": 2755,
      "Ġez": 2756,
      "ĠlnÃĥÅĥ": 2757,
      "Ġraz": 2758,
      "ĠovanÃĥ": 2759,
      "Ġkaz": 2760,
      "Ġ...": 2761,
      "ĠÄłÃħÄ»i": 2762,
      "ÃĥÅĥl": 2763,
      "ÃĥÅĥmi": 2764,
      "ĠÄłpru": 2765,
      "ĠÄłptÃĥ": 2766,
      "ĠÄłpÃĥÅĥÃħ": 2767,
      "ÃĦÄ½jÃħ": 2768,
      "ovnÃĦÄ½": 2769,
      "choz": 2770,
      "ĠÄłvar": 2771,
      "ĠÄłvole": 2772,
      "ĠÄłvoli": 2773,
      "raÃĦÄ¯nÃĥÅĥ": 2774,
      "ĠÄłsli": 2775,
      "ĠÄłsnÃĥÅĥm": 2776,
      "ĠÄłsmu": 2777,
      "ĠÄłsmÃĥÅĥ": 2778,
      "ĠÄłskon": 2779,
      "ĠÄłsig": 2780,
      "ĠÄłsnÃĥÅĥÃħ": 2781,
      "ĠÄłscÃĥ": 2782,
      "ĠÄłzk": 2783,
      "ĠÄłzr": 2784,
      "ĠÄłzra": 2785,
      "ĠÄłzod": 2786,
      "ĠÄłzlepÃħ": 2787,
      "lejÃħ": 2788,
      "ĠÄłnoÃħ": 2789,
      "teÃĦÄ¯nÃĥÅĥ": 2790,
      "livÃĦÄ½": 2791,
      "ĠÄłkal": 2792,
      "ĠÄłkur": 2793,
      "ĠÄłkterÃĥ": 2794,
      "ĠÄłkance": 2795,
      "ĠÄłkÃħÄ»es": 2796,
      "enci": 2797,
      "ĠÄłoz": 2798,
      "ĠÄłoko": 2799,
      "ĠÄłopa": 2800,
      "ĠÄłdla": 2801,
      "ĠÄłdat": 2802,
      "ĠÄłpoly": 2803,
      "ĠÄłpolov": 2804,
      "ĠÄłposta": 2805,
      "ĠÄłpomÃħ": 2806,
      "ĠÄłport": 2807,
      "ĠÄłpojist": 2808,
      "ÃħÄ»eÃħ": 2809,
      "ÃħÄ»enÃĥÅĥm": 2810,
      "hot": 2811,
      "ĠÄłmou": 2812,
      "ĠÄłmom": 2813,
      "ĠÄłmist": 2814,
      "ĠÄłmlad": 2815,
      "ĠÄłner": 2816,
      "ĠÄłnevi": 2817,
      "ĠÄłnechÃĥ": 2818,
      "ĠÄłneÃĥÂº": 2819,
      "ital": 2820,
      "lomou": 2821,
      "ord": 2822,
      "ork": 2823,
      "ortu": 2824,
      "orie": 2825,
      "anu": 2826,
      "ĠÄłtou": 2827,
      "one": 2828,
      "ĠÄłbÃħÄ»e": 2829,
      "ĠÄłblo": 2830,
      "ĠÄłbole": 2831,
      "ĠÄłvypad": 2832,
      "armon": 2833,
      "ĠÄłuved": 2834,
      "ĠÄłPÃħ": 2835,
      "ĠÄłPrÃĥ": 2836,
      "ĠÄłPot": 2837,
      "vace": 2838,
      "odnÃĥ": 2839,
      "rej": 2840,
      "jÃĥÅĥÃħ": 2841,
      "ĠÄłzastav": 2842,
      "ĠÄłzastÃĥ": 2843,
      "ĠÄłzahrÃĥ": 2844,
      "ĠÄłzaÃĦÄ¯Ãĥ": 2845,
      "ĠÄłSy": 2846,
      "niÃĦÄ¯nÃĥÅĥ": 2847,
      "tiÃħ": 2848,
      "poz": 2849,
      "ĠÄłsti": 2850,
      "ĠÄłstou": 2851,
      "ĠÄłstop": 2852,
      "ĠÄłstÃĦÄ½Ãħ": 2853,
      "cie": 2854,
      "cip": 2855,
      "ĠÄłhm": 2856,
      "ĠÄłhro": 2857,
      "ĠÄłhez": 2858,
      "ĠÄłhude": 2859,
      "ĠÄłhvÃĦÄ½z": 2860,
      "adav": 2861,
      "ĠÄłprod": 2862,
      "ĠÄłpromÃĦÄ½": 2863,
      "ĠÄłprohlÃĥ": 2864,
      "Ġpr": 2865,
      "ĠpÃĥÅĥ": 2866,
      "ĠÄłdosa": 2867,
      "ĠÄłdostÃĥ": 2868,
      "ĠÄłdopad": 2869,
      "ĠÄłdostup": 2870,
      "ĠÄłMas": 2871,
      "ruhÃĥ": 2872,
      "Ġmi": 2873,
      "Ġmin": 2874,
      "ĠÄłpÃħÄ»emÃĥ": 2875,
      "ĠÄłobra": 2876,
      "ĠÄłobjednÃĥ": 2877,
      "delnÃĥÅĥ": 2878,
      "ober": 2879,
      "ĠÄłVz": 2880,
      "Ġsi": 2881,
      "Ġsla": 2882,
      "ĠÄłKra": 2883,
      "ĠÄłKri": 2884,
      "ĠÄłKaÃħ": 2885,
      "ĠÄłfar": 2886,
      "ĠÄłÃĦÄ¯i": 2887,
      "menÃĥÅĥ": 2888,
      "ĠÄłNav": 2889,
      "lÃĥÅĥm": 2890,
      "ĠÄłDÃĦÄ½": 2891,
      "ĠÄłDob": 2892,
      "ĠÄłBÃĥ": 2893,
      "tÃĦÄ½v": 2894,
      "zenÃĥÅĥm": 2895,
      "ĠÄłodvo": 2896,
      "ĠÄłodpad": 2897,
      "ĠÄłodstra": 2898,
      "edÃĥ": 2899,
      "ĠÄłÃĥÂºp": 2900,
      "ĠÃ¯": 2901,
      "ĠÃĺ": 2902,
      "taci": 2903,
      "ĠznÃĥ": 2904,
      "ĠÄłAp": 2905,
      "Ġver": 2906,
      "ĠÄłTa": 2907,
      "ĠÄłTu": 2908,
      "ĠÄłTak": 2909,
      "ĠÄłTep": 2910,
      "ĠÄłregi": 2911,
      "ĠÄłpÃħÄ»ib": 2912,
      "dÃĦÄ½t": 2913,
      "ĠÄłRÃĥ": 2914,
      "ĠÄłpÃħÄ»ÃĥÅĥspÃĦÄ½": 2915,
      "ĠÄłpÃħÄ»ÃĥÅĥtom": 2916,
      "ĠÄłepi": 2917,
      "dio": 2918,
      "vÃĥÅĥm": 2919,
      "Ġstup": 2920,
      "ĠÄłinteg": 2921,
      "ĠÄłinternet": 2922,
      "ĠÄłJo": 2923,
      "rovna": 2924,
      "ĠÃĦÄ¯nÃĥ": 2925,
      "ÃħÄªovÃĥ": 2926,
      "venÃĥÅĥ": 2927,
      "ĠÄłpodla": 2928,
      "ĠÄłpodpo": 2929,
      "ujete": 2930,
      "mali": 2931,
      "uper": 2932,
      "vice": 2933,
      "ĠcovÃĥ": 2934,
      "ĠÄłnejvÃĥ": 2935,
      "ĠÄłnejob": 2936,
      "entnÃĥÅĥ": 2937,
      "spÃĥÅĥ": 2938,
      "olf": 2939,
      "ĠÄłvzor": 2940,
      "ĠÄłvznik": 2941,
      "opak": 2942,
      "ĠÄłpÃħÄ»edmÃĦÄ½": 2943,
      "ĠÄłcvi": 2944,
      "ĠÄłmalÃĥ": 2945,
      "ĠÄłmaji": 2946,
      "boj": 2947,
      "ativnÃĥÅĥ": 2948,
      "193": 2949,
      "ĠVy": 2950,
      "ozÃħÄ»ej": 2951,
      "ĠÄłpapÃĥÅĥ": 2952,
      "ĠÄłdefin": 2953,
      "ĠÄłdiva": 2954,
      "ĠÄłopti": 2955,
      "astro": 2956,
      "ĠÄłseb": 2957,
      "ĠÄłsever": 2958,
      "ĠanÃĥ": 2959,
      "ĠÄłÃħÅĤvÃĥ": 2960,
      "chodu": 2961,
      "ĠIN": 2962,
      "ĠÄłdoplnÃĦÄ½": 2963,
      "ĠÄłdoporuÃĦÄ¯": 2964,
      "ĠÄłpovÃĥÅĥ": 2965,
      "lasickÃĥ": 2966,
      "ĠÄłpozor": 2967,
      "ebnÃĥÅĥ": 2968,
      "pÃĥÅĥÃħ": 2969,
      "bornÃĥ": 2970,
      "ĠJed": 2971,
      "ĠÄłsyn": 2972,
      "ĠÃĲÂµ": 2973,
      "ĠÄłvysvÃĦÄ½t": 2974,
      "ĠÄłvysokÃĥ": 2975,
      "ĠÄłÃĦÄ¯erst": 2976,
      "ĠÄłvÃĥÅĥtÃĦÄ½": 2977,
      "logie": 2978,
      "vislÃĥ": 2979,
      "ĠÃĥÄ¯": 2980,
      "ĠÄłkriti": 2981,
      "ĠÄłÃĦÄ¯eskÃĥ": 2982,
      "ĠÄłuply": 2983,
      "mysl": 2984,
      "hledem": 2985,
      "ĠÄłciz": 2986,
      "ĠÄłtepel": 2987,
      "ĠnÃĦÄ½nÃĥ": 2988,
      "ĠÄłdobrÃĥ": 2989,
      "itosti": 2990,
      "ĠÄłvelkÃĥ": 2991,
      "emokra": 2992,
      "ĠÄłprostÃħÄ»ed": 2993,
      "ĠÄłfung": 2994,
      "ĠÄłprofesionÃĥ": 2995,
      "ĠÄłimp": 2996,
      "ĠÄłdruhÃĥ": 2997,
      "okolÃĥ": 2998,
      "ĠÄłproblÃĥ": 2999,
      "ĠÄłhospodÃĥ": 3000,
      "ĠÄłtrans": 3001,
      "ĠÄłdÃħÄ»evÃĦÄ½": 3002,
      "ĠÄłkoncer": 3003,
      "ĠÄłproces": 3004,
      "ĠÄłfyzi": 3005,
      "ĠÄłnÃĦÄ½jakÃĥ": 3006,
      "ĠÄłenerge": 3007,
      "ĠÄłcharakteri": 3008,
      "80": 3009,
      "99": 3010,
      "AR": 3011,
      "CK": 3012,
      "ED": 3013,
      "EL": 3014,
      "ES": 3015,
      "OL": 3016,
      "bal": 3017,
      "dar": 3018,
      "eh": 3019,
      "ejÃĥÅĥ": 3020,
      "hat": 3021,
      "hovÃĥ": 3022,
      "hel": 3023,
      "jskÃĥ": 3024,
      "ken": 3025,
      "met": 3026,
      "nnÃĥ": 3027,
      "ned": 3028,
      "neme": 3029,
      "pou": 3030,
      "sit": 3031,
      "snÃĦÄ½": 3032,
      "smu": 3033,
      "tvÃĥ": 3034,
      "tnÃĥÅĥm": 3035,
      "tina": 3036,
      "tinu": 3037,
      "uro": 3038,
      "war": 3039,
      "zent": 3040,
      "°Åģ": 3041,
      "Â£": 3042,
      "Â²": 3043,
      "Ġlou": 3044,
      "Ġus": 3045,
      "Ġjed": 3046,
      "ĠtelnÃĥ": 3047,
      "ĠÃħÄ»enÃĥ": 3048,
      "ĠzenÃĥ": 3049,
      "ĠstickÃĥ": 3050,
      "Ġqu": 3051,
      "ĻÄ": 3052,
      "ĠÄłis": 3053,
      "ĠÄłada": 3054,
      "ĠÄłovo": 3055,
      "ÃĥÅĥst": 3056,
      "ĠÄłplnÃĥ": 3057,
      "ÃĦÄ½ji": 3058,
      "stÃħÄ»ÃĥÅĥ": 3059,
      "ÃħÄ»ovÃĥ": 3060,
      "ÃħÄ»ada": 3061,
      "ovy": 3062,
      "ovskÃĥ": 3063,
      "che": 3064,
      "ÃĦÄ¯kou": 3065,
      "ÃĦÄ¯nou": 3066,
      "ĠÄłvnÃĥÅĥm": 3067,
      "ral": 3068,
      "rava": 3069,
      "razi": 3070,
      "ĠÄłsen": 3071,
      "ĠÄłsled": 3072,
      "ĠÄłsitu": 3073,
      "ĠÄłzji": 3074,
      "romÃĦÄ½": 3075,
      "rozenÃĥ": 3076,
      "lej": 3077,
      "letÃĥ": 3078,
      "ĠÄłnat": 3079,
      "ĠÄłkys": 3080,
      "ĠÄłknÃĥÅĥÃħ": 3081,
      "ĠÄłklasickÃĥ": 3082,
      "ĠÄłoto": 3083,
      "ĠÄłoznÃĥ": 3084,
      "ĠÄłdlu": 3085,
      "ĠÄłduÃħ": 3086,
      "ĠÄłdanÃĥ": 3087,
      "ĠÄłdeta": 3088,
      "ĠÄłposti": 3089,
      "ĠÄłpoma": 3090,
      "ĠÄłpoten": 3091,
      "ĠÄłpoÃĦÄ¯Ãĥ": 3092,
      "ÃħÄ»el": 3093,
      "hodu": 3094,
      "ince": 3095,
      "inovÃĥ": 3096,
      "ĠÄłmy": 3097,
      "ĠÄłmys": 3098,
      "ĠÄłmani": 3099,
      "ĠÄłmrt": 3100,
      "ĠÄłmenÃħ": 3101,
      "losti": 3102,
      "loha": 3103,
      "kala": 3104,
      "ĠÄłtÃħÄ»i": 3105,
      "ĠÄłtru": 3106,
      "ond": 3107,
      "ĠÄłbl": 3108,
      "ĠÄłbru": 3109,
      "ĠÄłbran": 3110,
      "ĠÄłbrat": 3111,
      "ĠÄłbalÃĥÅĥ": 3112,
      "ĠÄłbÃĥÅĥlÃĥ": 3113,
      "ĠÄłvyu": 3114,
      "ĠÄłvytÃĥ": 3115,
      "ĠÄłvybu": 3116,
      "ĠÄłvybÃĥÅĥ": 3117,
      "ĠÄłvyhledÃĥ": 3118,
      "ĠÄłuch": 3119,
      "ĠÄłuÃĦÄ¯e": 3120,
      "ĠÄłuvi": 3121,
      "ĠÄłupozor": 3122,
      "kynÃĦÄ½": 3123,
      "ĠÄłPom": 3124,
      "ĠÄłPrav": 3125,
      "oder": 3126,
      "jÃĥÅĥch": 3127,
      "ĠÄłzadÃĥ": 3128,
      "ĠÄłzakou": 3129,
      "ĠÄłzauj": 3130,
      "ĠÄłSÃĥ": 3131,
      "tivnÃĥÅĥ": 3132,
      "ĠÄłstÃĦÄ½": 3133,
      "ĠÄłstup": 3134,
      "ĠÄłstati": 3135,
      "ĠÄłstab": 3136,
      "ĠdnÃĥ": 3137,
      "Ġdes": 3138,
      "ÃħÄ»ili": 3139,
      "ÃħÄ»ilo": 3140,
      "ĠÄłha": 3141,
      "ĠÄłhÃħÄ»": 3142,
      "ĠÄłhli": 3143,
      "ĠÄłhlÃĥÅĥ": 3144,
      "ĠÄłhrom": 3145,
      "konÃĥ": 3146,
      "kola": 3147,
      "ĠÄłprote": 3148,
      "ĠÄłprokÃĥ": 3149,
      "Ġplat": 3150,
      "ĠÄłMet": 3151,
      "ĠÄłMari": 3152,
      "Ġme": 3153,
      "Ġmys": 3154,
      "ĠÄłpÃħÄ»edÃĥ": 3155,
      "ĠÄłobli": 3156,
      "ĠÄłobrov": 3157,
      "ĠÄłobvy": 3158,
      "ĠÄłobtÃĥÅĥÃħ": 3159,
      "denÃĥ": 3160,
      "ĠÄłVol": 3161,
      "ome": 3162,
      "ĠÄłnau": 3163,
      "ĠÄłnachÃĥ": 3164,
      "ĠÄłnapad": 3165,
      "Ġse": 3166,
      "Ġsp": 3167,
      "ĠÄłKr": 3168,
      "ĠÄłÃĦÄ¯lÃĥ": 3169,
      "ĠÄłaku": 3170,
      "mec": 3171,
      "ĠÄłNovÃĥ": 3172,
      "lÃĥÅĥn": 3173,
      "ĠÄłDe": 3174,
      "ĠÄłDi": 3175,
      "ĠÄłBa": 3176,
      "ĠÄłBe": 3177,
      "ĠÄłBer": 3178,
      "vost": 3179,
      "vokÃĥ": 3180,
      "tÃĦÄ½vnÃĥÅĥ": 3181,
      "zel": 3182,
      "zejÃĥÅĥ": 3183,
      "ĠÄłodmÃĥÅĥt": 3184,
      "tura": 3185,
      "ĠÄłÃĥÂºÃħ": 3186,
      "ĠÄłÃĥÂºro": 3187,
      "ĠÄłÃĥÂºda": 3188,
      "ĠÄłÃĥÂºzem": 3189,
      "mÃĦÄ½nÃĥÅĥ": 3190,
      "Ġbi": 3191,
      "Ġklad": 3192,
      "jime": 3193,
      "ĠzovanÃĥ": 3194,
      "ĠÄłAf": 3195,
      "ĠÄłAut": 3196,
      "Ġved": 3197,
      "ĠÄłTi": 3198,
      "ĠÄłTÃħÄ»e": 3199,
      "Ġhled": 3200,
      "dÃĦÄ½ji": 3201,
      "tora": 3202,
      "toÃħÄ»i": 3203,
      "ĠÄłRu": 3204,
      "ĠÄłpÃħÄ»ÃĥÅĥmÃĥ": 3205,
      "ĠÄłpÃħÄ»ÃĥÅĥzni": 3206,
      "ĠÄłero": 3207,
      "ĠÄłevropskÃĥ": 3208,
      "ĠÄłchu": 3209,
      "ĠÄłchemi": 3210,
      "ĠÄłCel": 3211,
      "ĠÄłrozdÃĥÅĥ": 3212,
      "ampi": 3213,
      "ĠÄłHe": 3214,
      "ĠÄłHod": 3215,
      "ĠÄłHav": 3216,
      "nul": 3217,
      "ese": 3218,
      "rovat": 3219,
      "ĠÃĦÄ¯kÃĥ": 3220,
      "ÃħÄªskÃĥ": 3221,
      "ĠÄłLit": 3222,
      "hody": 3223,
      "hodou": 3224,
      "hodnÃĦÄ½": 3225,
      "ĠÄłpodrob": 3226,
      "ĠÄłkonf": 3227,
      "ĠÄłkost": 3228,
      "ĠPÃħÄ»e": 3229,
      "ĠPÃħÄ»ÃĥÅĥ": 3230,
      "istribu": 3231,
      "kono": 3232,
      "konstru": 3233,
      "ĠÄłgÃĥ": 3234,
      "lovÃĦÄ½": 3235,
      "lovar": 3236,
      "ĠÄłvzni": 3237,
      "ĠÄłspokoj": 3238,
      "ĠÄłcuk": 3239,
      "ĠÄłsouhlas": 3240,
      "ĠÄłsouÃĦÄ¯asnÃĥ": 3241,
      "vyÃħ": 3242,
      "ĠNe": 3243,
      "ĠÄłvÃĦÄ½n": 3244,
      "mene": 3245,
      "menu": 3246,
      "ĠÄłmaxi": 3247,
      "ĠÄłmateriÃĥ": 3248,
      "boli": 3249,
      "parÃĥ": 3250,
      "panÃĦÄ½l": 3251,
      "ĠÄłlib": 3252,
      "mos": 3253,
      "192": 3254,
      "razÃĥÅĥ": 3255,
      "ĠlenÃĥ": 3256,
      "ĠletÃĥ": 3257,
      "gie": 3258,
      "Ġtera": 3259,
      "stala": 3260,
      "ĠÄłnepÃħÄ»i": 3261,
      "ĠlivÃĥ": 3262,
      "ĠÄłsklÃĥ": 3263,
      "ĠÄłpraÃħ": 3264,
      "ĠÄłcelÃĥ": 3265,
      "ĠÄłcelkovÃĥ": 3266,
      "ulti": 3267,
      "ĠÄłpara": 3268,
      "ĠÄłpaci": 3269,
      "ĠÄłzprÃĥ": 3270,
      "roblÃĥ": 3271,
      "ĠovnÃĥ": 3272,
      "ĠrovÃĥ": 3273,
      "ĠÄłdiag": 3274,
      "zÃĥÅĥch": 3275,
      "kladÃħ": 3276,
      "ĠER": 3277,
      "enosti": 3278,
      "ĠÄłmÃĦÄ½k": 3279,
      "ĠnickÃĥ": 3280,
      "ĠÄłpovrch": 3281,
      "ĠÄłpozem": 3282,
      "ĠCh": 3283,
      "ĠvanÃĥ": 3284,
      "kazuje": 3285,
      "ĠÄłStra": 3286,
      "ujÃĥÅĥcÃĥÅĥch": 3287,
      "ĠÃħÄ»skÃĥ": 3288,
      "ĠtickÃĥ": 3289,
      "ĠÄłmoti": 3290,
      "ĠlovÃĥ": 3291,
      "ĠÄłvide": 3292,
      "ĠÄłosla": 3293,
      "kraj": 3294,
      "ĠÄłÃĦÄ¯ernÃĥ": 3295,
      "ĠÄłÃĦÄ¯ervenÃĥ": 3296,
      "hledu": 3297,
      "ĠÄłsamotnÃĥ": 3298,
      "kovnÃĥÅĥ": 3299,
      "kovou": 3300,
      "ĠÄłschÃħ": 3301,
      "Ġnej": 3302,
      "ĠÄłproved": 3303,
      "ĠÄłpreven": 3304,
      "ĠÄłstarÃĥ": 3305,
      "ĠÄłspolehli": 3306,
      "ĠcenÃĥ": 3307,
      "ĠÄłmanaÃħ": 3308,
      "***": 3309,
      "ĠÄłorgÃĥ": 3310,
      "ĠÄłuplat": 3311,
      "ĠÄłodehrÃĥ": 3312,
      "ĠÄładminist": 3313,
      "ĠÄłhypo": 3314,
      "ĠÄłJiho": 3315,
      "ĠÄłpÃĥÅĥsem": 3316,
      "ĠÄłtechnickÃĥ": 3317,
      "ĠÄłtechnologi": 3318,
      "ĠÄłaltern": 3319,
      "ĠÄłÃħÄºÃĥÅĥ": 3320,
      "ĠÄłpeÃĦÄ¯": 3321,
      "ĠÄłdlouhÃĥ": 3322,
      "ĠÄłbarevnÃĥ": 3323,
      "ĠÄłregu": 3324,
      "ĠÃĦÄ¯enÃĥ": 3325,
      "ĠnutÃĥ": 3326,
      "bere": 3327,
      "ĠÄłseznÃĥ": 3328,
      "kuteÃĦÄ¯nÃĥ": 3329,
      "ĠÄłbudou": 3330,
      "ĠÄłformÃĥ": 3331,
      "ĠÄłplatnÃĥ": 3332,
      "ĠÄłmedi": 3333,
      "odobÃĥ": 3334,
      "ĠÄłpÃħÄ»ines": 3335,
      "ĠÄłpenzi": 3336,
      "ĠÄłtrest": 3337,
      "ĠÄłfunk": 3338,
      "ĠÄłkomuni": 3339,
      "ĠÄłobyÃĦÄ¯ej": 3340,
      "ĠÄłzamÃĦÄ½stnan": 3341,
      "ÄłÄłÄłÄł": 3342,
      "klid": 3343,
      "ĠÄłnebezpe": 3344,
      "fikace": 3345,
      "ĠÄłrychlÃĥ": 3346,
      "ĠÃ¢Ä¢Ä¾": 3347,
      "ĠÄłproblem": 3348,
      "ĠÄłpodobnÃĥ": 3349,
      "ĠÄłspoluprac": 3350,
      "ĠÄłsetkÃĥ": 3351,
      "ĠÄłnedokÃĥ": 3352,
      "ĠÄłvyzkouÃħ": 3353,
      "ĠÄłnÃĦÄ½kterÃĥ": 3354,
      "ĠÄłkandi": 3355,
      "ĠÄłstejnÃĥ": 3356,
      "lympi": 3357,
      "ĠÄłsportov": 3358,
      "ĠÄłmimoÃħÄ»Ãĥ": 3359,
      "ĠÄłskvÃĦÄ½lÃĥ": 3360,
      "ĠÄłcertifi": 3361,
      "ĠÄłdlouhodobÃĥ": 3362,
      "ĠÄłabsolv": 3363,
      "ĠÄłrizi": 3364,
      "ĠÄłsubje": 3365,
      "ĠÄłuvedenÃĥ": 3366,
      "ĠÄłzemÃĦÄ½dÃĦÄ½l": 3367,
      "ĠÄłhistorickÃĥ": 3368,
      "ĠÄłzÃĥÅĥskÃĥ": 3369,
      "ĠÄłdneÃħ": 3370,
      "ĠÄłautobus": 3371,
      "noduÃħ": 3372,
      "ĠÄłkancelÃĥ": 3373,
      "ĠÄłkÃħÄ»esÃħ": 3374,
      "40": 3375,
      "OD": 3376,
      "ON": 3377,
      "UR": 3378,
      "ajÃĥÅĥ": 3379,
      "aci": 3380,
      "ami": 3381,
      "boru": 3382,
      "covÃĥ": 3383,
      "car": 3384,
      "dci": 3385,
      "dlÃĥÅĥ": 3386,
      "dne": 3387,
      "dnÃĥÅĥch": 3388,
      "deme": 3389,
      "dnutÃĥÅĥ": 3390,
      "eob": 3391,
      "go": 3392,
      "hne": 3393,
      "huje": 3394,
      "hraz": 3395,
      "ion": 3396,
      "ijte": 3397,
      "kl": 3398,
      "kr": 3399,
      "kvi": 3400,
      "kovÃĦÄ½": 3401,
      "lna": 3402,
      "mat": 3403,
      "mil": 3404,
      "nt": 3405,
      "ood": 3406,
      "oci": 3407,
      "olu": 3408,
      "osti": 3409,
      "pickÃĥ": 3410,
      "rb": 3411,
      "rna": 3412,
      "snÃĥÅĥ": 3413,
      "son": 3414,
      "tt": 3415,
      "tat": 3416,
      "ton": 3417,
      "tal": 3418,
      "tiny": 3419,
      "ujte": 3420,
      "vez": 3421,
      "wn": 3422,
      "Â·": 3423,
      "Ġ}": 3424,
      "Ġad": 3425,
      "Ġop": 3426,
      "Ġlog": 3427,
      "Ġeri": 3428,
      "ĠÄłed": 3429,
      "ĠÄłlou": 3430,
      "ĠÄłloÃħ": 3431,
      "ĠÄłlas": 3432,
      "ĠÄłÃħÄ»ad": 3433,
      "ĠÄłren": 3434,
      "ĠÄłital": 3435,
      "ÃĥÅĥc": 3436,
      "ÃĥÅĥvejte": 3437,
      "ĠÄłps": 3438,
      "ĠÄłpy": 3439,
      "ĠÄłpev": 3440,
      "ĠÄłpest": 3441,
      "stane": 3442,
      "ÃħÄ»stvÃĥÅĥ": 3443,
      "ÃħÄ»eny": 3444,
      "nÃĥÅĥkem": 3445,
      "ovky": 3446,
      "ÃĦÄ¯nost": 3447,
      "ĠÄłvez": 3448,
      "ĠÄłvhodnÃĥ": 3449,
      "ĠÄłsnÃĥÅĥ": 3450,
      "ĠÄłsem": 3451,
      "ĠÄłslÃĥ": 3452,
      "ĠÄłska": 3453,
      "ĠÄłsuÃħ": 3454,
      "ĠÄłsemi": 3455,
      "ĠÄłslyÃħ": 3456,
      "ĠÄłshro": 3457,
      "ĠÄłzdÃĥ": 3458,
      "ĠÄłzim": 3459,
      "ĠÄłzruÃħ": 3460,
      "ĠÄłztra": 3461,
      "ĠÄłzaru": 3462,
      "ĠÄłzep": 3463,
      "roÃĦÄ¯nÃĥ": 3464,
      "lec": 3465,
      "ĠÄłnov": 3466,
      "ĠÄłnoh": 3467,
      "ĠÄłnovi": 3468,
      "ĠÄłnovo": 3469,
      "ĠÄłnovin": 3470,
      "lal": 3471,
      "lada": 3472,
      "latÃĥÅĥ": 3473,
      "lil": 3474,
      "ĠÄłke": 3475,
      "ĠÄłkÃħÄ»e": 3476,
      "ĠÄłkÃħÄ»i": 3477,
      "ĠÄłklad": 3478,
      "ĠÄłkres": 3479,
      "ennÃĥÅĥ": 3480,
      "enky": 3481,
      "ĠÄłopo": 3482,
      "ĠÄłofi": 3483,
      "ĠÄłostat": 3484,
      "ĠÄłdce": 3485,
      "ĠÄłdve": 3486,
      "ĠÄłdovo": 3487,
      "ĠÄłdyna": 3488,
      "ĠÄłdemokra": 3489,
      "ĠÄłpoÃħÄ»ÃĥÅĥ": 3490,
      "ĠÄłporu": 3491,
      "ĠÄłpomÃĥ": 3492,
      "ĠÄłpokro": 3493,
      "ĠÄłpotÃĦÄ½Ãħ": 3494,
      "hoÃħ": 3495,
      "inky": 3496,
      "ĠÄłmis": 3497,
      "ĠÄłmali": 3498,
      "ĠÄłmladÃĥ": 3499,
      "atÃĦÄ½": 3500,
      "ĠÄłneg": 3501,
      "ĠÄłneod": 3502,
      "ĠÄłnedÃĥ": 3503,
      "ĠÄłnekon": 3504,
      "ĠÄłnebu": 3505,
      "itÃĥÅĥm": 3506,
      "lohy": 3507,
      "orem": 3508,
      "nÃĦÄ½t": 3509,
      "nÃĦÄ½Ãħ": 3510,
      "jete": 3511,
      "jezdu": 3512,
      "kajÃĥÅĥ": 3513,
      "kaza": 3514,
      "ĠÄłtrÃħ": 3515,
      "ĠÄłtuÃħ": 3516,
      "ĠÄłtaÃħ": 3517,
      "ĠÄłtram": 3518,
      "ont": 3519,
      "ontÃĥ": 3520,
      "ere": 3521,
      "ĠÄłbra": 3522,
      "ĠÄłbit": 3523,
      "ĠÄłbon": 3524,
      "ĠÄłbom": 3525,
      "ĠÄłbri": 3526,
      "ĠÄłvychÃĥ": 3527,
      "ĠÄłvysÃĥÅĥ": 3528,
      "ĠÄłub": 3529,
      "ĠÄłuli": 3530,
      "ĠÄłudÃĦÄ½la": 3531,
      "ĠÄłuniverz": 3532,
      "kytu": 3533,
      "ĠÄłPe": 3534,
      "ĠÄłPet": 3535,
      "ĠÄłPrÃħ": 3536,
      "ĠÄłProv": 3537,
      "ÃħÄ»ÃĥÅĥm": 3538,
      "ÃħÄ»ÃĥÅĥve": 3539,
      "odi": 3540,
      "odnÃĥÅĥ": 3541,
      "ĠÄłzaÃħÄ»ÃĥÅĥ": 3542,
      "ĠÄłzabÃĥ": 3543,
      "ĠÄłSe": 3544,
      "ĠÄłSla": 3545,
      "ĠÄłSna": 3546,
      "ĠÄłStÃĥ": 3547,
      "ĠÄłSpe": 3548,
      "ĠÄłSvÃĦÄ½t": 3549,
      "nili": 3550,
      "tila": 3551,
      "tisk": 3552,
      "nal": 3553,
      "ĠÄłstat": 3554,
      "ĠÄłstrav": 3555,
      "ĠdÃĥÅĥ": 3556,
      "ĠÄłhÃħÄ»ÃĥÅĥ": 3557,
      "ĠÄłhroz": 3558,
      "ĠÄłhledÃĥ": 3559,
      "kom": 3560,
      "koÃħ": 3561,
      "Ġpra": 3562,
      "ĠÄłdoÃħ": 3563,
      "ĠÄłMe": 3564,
      "ĠÄłMÃħ": 3565,
      "ĠÄłMno": 3566,
      "ĠÄłMoh": 3567,
      "all": 3568,
      "alou": 3569,
      "Ġmp": 3570,
      "Ġmen": 3571,
      "ĠÄłpÃħÄ»ekÃĥ": 3572,
      "ĠÄłpÃħÄ»esu": 3573,
      "ilnÃĥÅĥ": 3574,
      "ĠÄłobsa": 3575,
      "ĠÄłobdrÃħ": 3576,
      "ĠÄłobsah": 3577,
      "ĠÄłobdob": 3578,
      "ĠÄłobjedna": 3579,
      "dejte": 3580,
      "oby": 3581,
      "ĠÄłVe": 3582,
      "ĠÄłVla": 3583,
      "ĠÄłVeli": 3584,
      "ĠÄłnaz": 3585,
      "ĠÄłnapo": 3586,
      "ĠÄłnavÃĥ": 3587,
      "ĠÄłnazÃĥ": 3588,
      "Ġsho": 3589,
      "ĠÄłfi": 3590,
      "ĠÄłfilo": 3591,
      "ĠÄłÃĦÄ¯et": 3592,
      "ĠÄłÃĦÄ¯es": 3593,
      "ĠÄłÃĦÄ¯ÃĥÅĥn": 3594,
      "ĠÄłÃĦÄ¯eskoslov": 3595,
      "ĠÄłaka": 3596,
      "mes": 3597,
      "mech": 3598,
      "isko": 3599,
      "ĠÄłNÃĦÄ½k": 3600,
      "ĠÄłDis": 3601,
      "ĠÄłDlou": 3602,
      "ĠÄłBro": 3603,
      "tÃĦÄ½te": 3604,
      "ĠÄłodÃħ": 3605,
      "ĠÄłodst": 3606,
      "ĠÄłodmÃĦÄ½": 3607,
      "ovalo": 3608,
      "ovatele": 3609,
      "ĠÄłÃĥÂºÃħÄ»ed": 3610,
      "ĠÄłÃĥÂºÃħÄ»ad": 3611,
      "ĠÃł": 3612,
      "ĠÃĻÄ": 3613,
      "nÃĥÅĥmu": 3614,
      "Ġbu": 3615,
      "ĠbÃĥÅĥ": 3616,
      "ell": 3617,
      "Ġktiv": 3618,
      "jim": 3619,
      "Ġzem": 3620,
      "ĠvnÃĥ": 3621,
      "ĠÄłrespe": 3622,
      "ĠÄłrecep": 3623,
      "ĠÄłpÃħÄ»ije": 3624,
      "ĠÄłpÃħÄ»ispÃĦÄ½": 3625,
      "ĠÄłpÃħÄ»irozenÃĥ": 3626,
      "Ġhy": 3627,
      "ĠhovÃĥ": 3628,
      "dÃĦÄ½podob": 3629,
      "ĠÄłpÃħÄ»ÃĥÅĥjemnÃĥ": 3630,
      "ĠÄłevi": 3631,
      "ĠÄłcho": 3632,
      "ĠÄłchÃĥ": 3633,
      "ĠÄłchtÃĦÄ½": 3634,
      "ĠÄłCom": 3635,
      "ĠÄłCent": 3636,
      "ĠÄłOp": 3637,
      "ĠÄłrozdÃĦÄ½": 3638,
      "ĠÄłrozsÃĥ": 3639,
      "ĠÄłrozpoÃĦÄ¯": 3640,
      "ĠÄłHy": 3641,
      "duÃĥ": 3642,
      "ĠÄłins": 3643,
      "ĠÄłinstitu": 3644,
      "ĠÄłinspi": 3645,
      "ĠÄłJe": 3646,
      "ĠÄłJu": 3647,
      "ĠÄłJab": 3648,
      "ĠÄłterÃĥ": 3649,
      "tÃĥÅĥch": 3650,
      "ĠÃĦÄ¯er": 3651,
      "ĠÃĦÄ¯kovÃĥ": 3652,
      "ĠÄłpodni": 3653,
      "ĠÄłpodmÃĥÅĥn": 3654,
      "ĠÄłkonstru": 3655,
      "ĠÄłkosme": 3656,
      "ĠPod": 3657,
      "ĠÄłleÃħ": 3658,
      "ĠÄłlegen": 3659,
      "jÃĥÅĥcÃĥÅĥm": 3660,
      "ĠÄłsplÃĥ": 3661,
      "ĠÄłspis": 3662,
      "nostnÃĥÅĥ": 3663,
      "nostech": 3664,
      "ĠÄłjez": 3665,
      "ĠÄłjezd": 3666,
      "Ġfik": 3667,
      "ekla": 3668,
      "ĠÄłFa": 3669,
      "ĠÄłkape": 3670,
      "ĠÄłkapa": 3671,
      "ĠÄłhol": 3672,
      "enÃĥÅĥk": 3673,
      "ĠÄłge": 3674,
      "ĠÄłglo": 3675,
      "ĠÄłvzta": 3676,
      "opÃĥ": 3677,
      "ĠÄłco": 3678,
      "dyÃħ": 3679,
      "zacÃĥÅĥ": 3680,
      "ĠÄłEle": 3681,
      "ĠÄłkomentÃĥ": 3682,
      "menÃħ": 3683,
      "ĠÄłmast": 3684,
      "boo": 3685,
      "ĠÄłliÃħ": 3686,
      "ovÃĦÄ½t": 3687,
      "ovÃĦÄ½jÃħ": 3688,
      "ĠnovÃĥ": 3689,
      "ĠMÃĥ": 3690,
      "ĠleÃħ": 3691,
      "ĠÄłÃĦÄ®eskÃĥ": 3692,
      "stau": 3693,
      "stava": 3694,
      "ĠÄłskÃħÄ»ÃĥÅĥ": 3695,
      "ĠTÃĥ": 3696,
      "ĠÄłjedine": 3697,
      "ÃĦÄ¯iÃħ": 3698,
      "ĠÄłpamÃĦÄ½": 3699,
      "znamnÃĥ": 3700,
      "ĠÄłzprostÃħÄ»ed": 3701,
      "fie": 3702,
      "ĠrnÃĥ": 3703,
      "ĠÄłdeb": 3704,
      "ĠÄłdig": 3705,
      "ĠÄłdivÃĥ": 3706,
      "vody": 3707,
      "ĠÄłseku": 3708,
      "ĠÄłsestav": 3709,
      "sila": 3710,
      "lnÃĦÄ½nÃĥÅĥ": 3711,
      "ĠÄłPoÃħ": 3712,
      "inaci": 3713,
      "ĠÄłnemÃĥ": 3714,
      "ĠÄłnemÃħ": 3715,
      "ĠÄłnemÃĦÄ½": 3716,
      "ĠÄłnemov": 3717,
      "ĠÄłnemoh": 3718,
      "chodnÃĥÅĥ": 3719,
      "chodem": 3720,
      "ĠÄłextra": 3721,
      "ĠÄłanalÃĥ": 3722,
      "ĠIn": 3723,
      "ĠÄłide": 3724,
      "ĠÄłimu": 3725,
      "ĠÄłjab": 3726,
      "ĠÄłnezbyt": 3727,
      "ĠÄłrad": 3728,
      "ĠÄłramen": 3729,
      "ĠRA": 3730,
      "ĠÄłdoporu": 3731,
      "Ġok": 3732,
      "ĠÄłStÃħÄ»ed": 3733,
      "lastnÃĥÅĥ": 3734,
      "pust": 3735,
      "abi": 3736,
      "ĠÄłbezpe": 3737,
      "ĠÄłWil": 3738,
      "ĠÄłsystÃĥ": 3739,
      "torÃħ": 3740,
      "ĠÄłzdÃħ": 3741,
      "ĠÄłvyprÃĥ": 3742,
      "ĠÄłvyplÃĥ": 3743,
      "ĠÄłsamÃĥ": 3744,
      "ĠÄłrukÃĥ": 3745,
      "ĠÄłpopis": 3746,
      "ĠÄłmodrÃĥ": 3747,
      "ĠÄłnapro": 3748,
      "chaze": 3749,
      "ĠÄłarmÃĥ": 3750,
      "idla": 3751,
      "ĠÄłjistÃĥ": 3752,
      "ĠÄłprezi": 3753,
      "ĠÄłprezen": 3754,
      "stoupit": 3755,
      "ĠÄłspoleÃĦÄ¯nÃĥ": 3756,
      "icro": 3757,
      "ĠÄłlokali": 3758,
      "enÃĦÄ½jÃħ": 3759,
      "ĠÄłdiscip": 3760,
      "ĠÄłspeciÃĥ": 3761,
      "ĠÄłminist": 3762,
      "ĠÄłovliv": 3763,
      "ĠÄłkamen": 3764,
      "mÃĦÄ½rnÃĥ": 3765,
      "ĠÄłreprodu": 3766,
      "ĠÄłdesig": 3767,
      "ĠÄłpolici": 3768,
      "ĠÄłhygi": 3769,
      "ĠÄłpracovnÃĥÅĥ": 3770,
      "ĠÄłobjekti": 3771,
      "ĠÄłalkoho": 3772,
      "ĠÄłdobrov": 3773,
      "ĠÄłsuchÃĥ": 3774,
      "ĠÄłneuvÃĦÄ½": 3775,
      "itÃĦÄ½jÃħ": 3776,
      "ĠÄłstaveb": 3777,
      "ĠÄłamerickÃĥ": 3778,
      "ĠÄłpÃħÄ»ipomÃĥÅĥ": 3779,
      "ĠÄłsezÃĥ": 3780,
      "ĠÄłnezapo": 3781,
      "edenÃĥ": 3782,
      "patnÃĥ": 3783,
      "ĠÄłvozi": 3784,
      "ĠÄłvolnÃĥ": 3785,
      "ĠÄłmasÃĥ": 3786,
      "ĠÄłgrafi": 3787,
      "ĠÄłsledu": 3788,
      "seda": 3789,
      "ĠÄłpÃħÄ»eno": 3790,
      "ĠÄłpenÃĦÄ½Ãħ": 3791,
      "ĠÄłtrenÃĥ": 3792,
      "ĠÄłautomobil": 3793,
      "ĠÄłotevÃħÄ»enÃĥ": 3794,
      "ĠÄłatra": 3795,
      "ĠÄłatmos": 3796,
      "ĠÄłsilnÃĥ": 3797,
      "andar": 3798,
      "ĠÄłÃĦÄ¯asovÃĥ": 3799,
      "ĠÄłkomunika": 3800,
      "ĠÄłvrst": 3801,
      "ĠÄłstÃħÄ»ÃĥÅĥb": 3802,
      "Ġfika": 3803,
      "ĠÄłÃ¢Ä¢Ä": 3804,
      "ĠÄłexper": 3805,
      "ĠÄłzamÃĦÄ½stna": 3806,
      "ĠÄłsvÃĦÄ½tovÃĥ": 3807,
      "ĠÄłoriginÃĥ": 3808,
      "ĠÄłfotb": 3809,
      "ĠÄłstanovenÃĥ": 3810,
      "ĠÄłslune": 3811,
      "ĠÄłbrit": 3812,
      "ĠÄłvyjÃĥ": 3813,
      "ĠÄłaplika": 3814,
      "ĠÄłodbornÃĥ": 3815,
      "ĠÄłtransp": 3816,
      "ĠÄłÃĦÄ¯istÃĥ": 3817,
      "ĠÄłinvest": 3818,
      "ĠÄłinvesti": 3819,
      "ĠÄłarchitek": 3820,
      "ĠÄłlidskÃĥ": 3821,
      "yslÃĥÅĥm": 3822,
      "ĠÄłbio": 3823,
      "ĠÄłrodinnÃĥ": 3824,
      "ĠÄłpÃħÄ»ÃĥÅĥpadnÃĥ": 3825,
      "Â¤Â©": 3826,
      "ĠÄłasist": 3827,
      "ĠÄłspotÃħÄ»ebi": 3828,
      "ĠÄłveÃħÄ»ejnÃĥ": 3829,
      "ĠÄłurÃĦÄ¯itÃĥ": 3830,
      "ĠÄłuspoÃħÄ»Ãĥ": 3831,
      "ĠÄłstandard": 3832,
      "ĠÄłvarian": 3833,
      "ĠÄłblÃĥÅĥzkÃĥ": 3834,
      "ĠÄłjemnÃĥ": 3835,
      "Ã¢Ä¢Ä¾": 3836,
      "ĠÄłnÃĥÅĥzkÃĥ": 3837,
      "ĠÄłvybranÃĥ": 3838,
      "ĠÄłVelkÃĥ": 3839,
      "ĠÄłRych": 3840,
      "ĠÄłpraktickÃĥ": 3841,
      "ĠÄłnÃĦÄ½meckÃĥ": 3842,
      "ĠÄłsamostatnÃĥ": 3843,
      "ĠÄłdrobnÃĥ": 3844,
      "ĠÄłzajÃĥÅĥmavÃĥ": 3845,
      "ĠÄłzahrnu": 3846,
      "ĠÄłsoukromÃĥ": 3847,
      "ĠÄłdÃĦÄ½tskÃĥ": 3848,
      "ĠÄłpÃĦÄ½knÃĥ": 3849,
      "ĠÄłstruktu": 3850,
      "ĠÄłoblÃĥÅĥbenÃĥ": 3851,
      "vÃĦÄ½reÃĦÄ¯nÃĥ": 3852,
      "ĠÄłkonkuren": 3853,
      "ĠÄłpremiÃĥ": 3854,
      "ĠÄłpravidelnÃĥ": 3855,
      "ĠÄłfrancouzskÃĥ": 3856,
      "ĠÄłdÃħÄ»evÃĦÄ½nÃĥ": 3857,
      "eobec": 3858,
      "ĠÄłnovinÃĥ": 3859,
      "))": 3860,
      "22": 3861,
      "90": 3862,
      "??": 3863,
      "DS": 3864,
      "ET": 3865,
      "IN": 3866,
      "KA": 3867,
      "MA": 3868,
      "SA": 3869,
      "ail": 3870,
      "alog": 3871,
      "bri": 3872,
      "bili": 3873,
      "bliÃħ": 3874,
      "cka": 3875,
      "cad": 3876,
      "dl": 3877,
      "dr": 3878,
      "dli": 3879,
      "drÃĥ": 3880,
      "dav": 3881,
      "demi": 3882,
      "erÃĥ": 3883,
      "eku": 3884,
      "ff": 3885,
      "fu": 3886,
      "ger": 3887,
      "jÃĦÄ¯": 3888,
      "jen": 3889,
      "jmu": 3890,
      "kan": 3891,
      "klu": 3892,
      "kry": 3893,
      "kovat": 3894,
      "knout": 3895,
      "mov": 3896,
      "ox": 3897,
      "poru": 3898,
      "rka": 3899,
      "rny": 3900,
      "rnÃĥÅĥch": 3901,
      "sho": 3902,
      "sÃĥÅĥm": 3903,
      "sek": 3904,
      "sud": 3905,
      "tin": 3906,
      "tko": 3907,
      "tvr": 3908,
      "vovÃĥ": 3909,
      "vno": 3910,
      "vet": 3911,
      "ves": 3912,
      "zko": 3913,
      "zda": 3914,
      "zickÃĥ": 3915,
      "zovanÃĥ": 3916,
      "Â¢": 3917,
      "Ä¤": 3918,
      "Ġ%": 3919,
      "Ġ'": 3920,
      "Ġet": 3921,
      "Ġent": 3922,
      "Ġec": 3923,
      "Ġres": 3924,
      "ĠlÃħ": 3925,
      "Ġori": 3926,
      "Ġiti": 3927,
      "ĠhodnÃĥ": 3928,
      "ĠlogickÃĥ": 3929,
      "Ġrych": 3930,
      "ĠÄłQ": 3931,
      "ĠÄłovÃĦÄ½": 3932,
      "ĠÄłjiÃħ": 3933,
      "ĠÄłeta": 3934,
      "ĠÄłlÃĥÅĥb": 3935,
      "ÃĥÅĥce": 3936,
      "ÃĥÅĥvat": 3937,
      "ÃĥÅĥvajÃĥÅĥ": 3938,
      "ĠÄłpne": 3939,
      "ĠÄłpruÃħ": 3940,
      "ĠÄłpilo": 3941,
      "ĠÄłplan": 3942,
      "ĠÄłpÃħÄ»it": 3943,
      "ĠÄłpevnÃĥ": 3944,
      "str": 3945,
      "stin": 3946,
      "stech": 3947,
      "ÃħÄ»ena": 3948,
      "chra": 3949,
      "chou": 3950,
      "chem": 3951,
      "ÃĦÄ¯uje": 3952,
      "ÃĦÄ¯kovÃĥ": 3953,
      "ĠÄłvin": 3954,
      "ĠÄłvad": 3955,
      "ĠÄłvlas": 3956,
      "ĠÄłvnit": 3957,
      "ĠÄłvnitÃħÄ»": 3958,
      "ĠÄłsho": 3959,
      "ĠÄłson": 3960,
      "ĠÄłsku": 3961,
      "ĠÄłsvo": 3962,
      "ĠÄłschod": 3963,
      "ĠÄłseri": 3964,
      "ĠÄłslouÃħ": 3965,
      "ĠÄłskuteÃĦÄ¯nÃĥ": 3966,
      "ĠÄłzh": 3967,
      "ĠÄłzi": 3968,
      "ĠÄłzan": 3969,
      "ĠÄłzÃħÄ»ÃĥÅĥ": 3970,
      "ĠÄłzvÃĦÄ½": 3971,
      "ĠÄłzpe": 3972,
      "ĠÄłzes": 3973,
      "ĠÄłzprav": 3974,
      "ĠÄłzkrÃĥ": 3975,
      "ĠÄłzlatÃĥ": 3976,
      "leb": 3977,
      "leh": 3978,
      "lel": 3979,
      "lexi": 3980,
      "lar": 3981,
      "lax": 3982,
      "lala": 3983,
      "lava": 3984,
      "oufÃĥ": 3985,
      "lina": 3986,
      "ĠÄłkin": 3987,
      "ĠÄłkÃħÄ»ÃĥÅĥ": 3988,
      "ĠÄłkru": 3989,
      "ĠÄłkvÃĦÄ½": 3990,
      "ĠÄłklou": 3991,
      "ĠÄłkus": 3992,
      "ĠÄłkoru": 3993,
      "ĠÄłkvÃĦÄ½t": 3994,
      "ĠÄłkari": 3995,
      "ĠÄłkilo": 3996,
      "ĠÄłkÃħÄ»ÃĥÅĥÃħ": 3997,
      "enka": 3998,
      "enti": 3999,
      "enom": 4000,
      "ĠÄłomÃĥ": 4001,
      "ĠÄłolympi": 4002,
      "ĠÄłdram": 4003,
      "ĠÄłdvou": 4004,
      "ĠÄłdvoj": 4005,
      "ĠÄłdalÃħ": 4006,
      "ĠÄłdistribu": 4007,
      "ĠÄłpol": 4008,
      "ĠÄłpoÃħÄ»i": 4009,
      "ĠÄłpotÃĥ": 4010,
      "ĠÄłpodÃĦÄ½": 4011,
      "ĠÄłpobo": 4012,
      "ĠÄłpozna": 4013,
      "ĠÄłpolÃħ": 4014,
      "ĠÄłporuÃħ": 4015,
      "int": 4016,
      "inka": 4017,
      "ĠÄłmob": 4018,
      "ĠÄłmak": 4019,
      "ĠÄłmost": 4020,
      "ĠÄłmig": 4021,
      "ĠÄłmobil": 4022,
      "cenÃĥ": 4023,
      "cela": 4024,
      "ĠÄłnef": 4025,
      "ĠÄłneje": 4026,
      "ĠÄłnere": 4027,
      "ĠÄłnevÃĥ": 4028,
      "ĠÄłneby": 4029,
      "ĠÄłnesta": 4030,
      "itnÃĥÅĥ": 4031,
      "itou": 4032,
      "lor": 4033,
      "lostÃĥÅĥ": 4034,
      "kanÃĥ": 4035,
      "ĠÄłtom": 4036,
      "ĠÄłtvÃħ": 4037,
      "ĠÄłtroj": 4038,
      "ĠÄłtvar": 4039,
      "ĠÄłtvor": 4040,
      "kud": 4041,
      "kuje": 4042,
      "ĠÄłben": 4043,
      "ĠÄłbod": 4044,
      "ĠÄłbal": 4045,
      "ĠÄłbur": 4046,
      "ĠÄłbabi": 4047,
      "ĠÄłvyb": 4048,
      "ĠÄłvyv": 4049,
      "ĠÄłvypo": 4050,
      "ĠÄłvyna": 4051,
      "ĠÄłvymÃĥ": 4052,
      "ĠÄłvystup": 4053,
      "ĠÄłvyhrÃĥ": 4054,
      "ĠÄłubyt": 4055,
      "ĠÄłPl": 4056,
      "ĠÄłPor": 4057,
      "ĠÄłPop": 4058,
      "ĠÄłPouÃħ": 4059,
      "ĠÄłPraÃħ": 4060,
      "ÃħÄ»ÃĥÅĥme": 4061,
      "ree": 4062,
      "redit": 4063,
      "jÃĥÅĥmÃĥ": 4064,
      "ĠÄłzavÃĥ": 4065,
      "ĠÄłzaji": 4066,
      "ĠÄłzabÃĥÅĥ": 4067,
      "ĠÄłzachy": 4068,
      "ĠÄłSP": 4069,
      "ĠÄłSch": 4070,
      "ĠÄłSte": 4071,
      "ĠÄłSer": 4072,
      "ĠÄłSil": 4073,
      "ĠÄłSed": 4074,
      "ĠÄłSvat": 4075,
      "nie": 4076,
      "niÃħ": 4077,
      "nilo": 4078,
      "niÃĦÄ¯ky": 4079,
      "tika": 4080,
      "poÃħÄª": 4081,
      "poÃĦÄ¯et": 4082,
      "cÃĥÅĥho": 4083,
      "ĠÄłstÃĥÅĥ": 4084,
      "ĠÄłstar": 4085,
      "ĠÄłstani": 4086,
      "ĠÄłstraÃħ": 4087,
      "ĠdovÃĥ": 4088,
      "ĠdanÃĥ": 4089,
      "cionÃĥ": 4090,
      "ÃħÄ»itel": 4091,
      "ĠÄłhov": 4092,
      "ĠÄłhle": 4093,
      "ĠÄłhou": 4094,
      "ĠÄłhnÃĦÄ½": 4095,
      "ĠÄłhrÃħ": 4096,
      "ĠÄłhud": 4097,
      "ĠÄłhum": 4098,
      "ĠÄłhlav": 4099,
      "ĠÄłhasi": 4100,
      "ĠÄłharmon": 4101,
      "ĠÄłproto": 4102,
      "ĠÄłprobu": 4103,
      "ĠÄłprogra": 4104,
      "avy": 4105,
      "avor": 4106,
      "Ġpla": 4107,
      "ĠpouÃħ": 4108,
      "ĠÄłdopo": 4109,
      "ĠÄłdochÃĥ": 4110,
      "ĠÄłMod": 4111,
      "ĠÄłMez": 4112,
      "Ġmlu": 4113,
      "Ġmlou": 4114,
      "ĠmatickÃĥ": 4115,
      "ĠÄłpÃħÄ»eÃĦÄ¯": 4116,
      "ĠÄłpÃħÄ»ede": 4117,
      "ĠÄłpÃħÄ»ehrÃĥ": 4118,
      "eto": 4119,
      "etnÃĥÅĥ": 4120,
      "ĠÄłobnov": 4121,
      "ĠÄłobslu": 4122,
      "dete": 4123,
      "desÃĥ": 4124,
      "ĠÄłVI": 4125,
      "ĠÄłVin": 4126,
      "ĠÄłVoj": 4127,
      "ĠÄłnahra": 4128,
      "ĠsnÃĥ": 4129,
      "Ġsku": 4130,
      "ĠÄłKu": 4131,
      "ĠÄłKni": 4132,
      "ĠÄłKam": 4133,
      "ĠÄłKry": 4134,
      "ĠÄłfron": 4135,
      "ĠÄłfrek": 4136,
      "ĠÄłfesti": 4137,
      "ĠÄłrodi": 4138,
      "ĠÄłroÃĦÄ¯nÃĥÅĥ": 4139,
      "ĠÄłÃĦÄ¯okolÃĥ": 4140,
      "ĠÄłaler": 4141,
      "ise": 4142,
      "ĠÄłNi": 4143,
      "ĠÄłNech": 4144,
      "lÃĥÅĥna": 4145,
      "mila": 4146,
      "ĠÄłDu": 4147,
      "ĠÄłDes": 4148,
      "ĠÄłDost": 4149,
      "ĠÄłBan": 4150,
      "ĠÄłBru": 4151,
      "vol": 4152,
      "tÃĦÄ½stÃĥÅĥ": 4153,
      "ĠÄłodbÃĦÄ½": 4154,
      "ĠÄłodstÃĥÅĥ": 4155,
      "ĠÄłÃĥÂºh": 4156,
      "ĠÄłÃĥÂºva": 4157,
      "ĠÄłÃĥÂºvÃĦÄ½": 4158,
      "ĠÄłÃĥÂºrov": 4159,
      "ĠÄłÃĥÂºspÃĦÄ½": 4160,
      "ĠÄłÃĥÂºdrÃħ": 4161,
      "ĠÃİ": 4162,
      "ĠbÃĦÄ½": 4163,
      "Ġbar": 4164,
      "ĠbÃĦÄ½h": 4165,
      "taÃĦÄ¯nÃĥÅĥ": 4166,
      "Ġkla": 4167,
      "ĠkovanÃĥ": 4168,
      "ĠÄłAs": 4169,
      "ĠÄłAktu": 4170,
      "ĠÄłAlex": 4171,
      "ĠvenÃĥ": 4172,
      "ĠÄłTy": 4173,
      "ĠÄłTÃĦÄ½": 4174,
      "ĠÄłTÃĦÄ½Ãħ": 4175,
      "ĠÄłreag": 4176,
      "ĠÄłpÃħÄ»iz": 4177,
      "ĠÄłpÃħÄ»inÃĥ": 4178,
      "ĠÄłpÃħÄ»ipad": 4179,
      "ĠÄłpÃħÄ»ijÃĥÅĥma": 4180,
      "ÃĦÄ¯eskÃĥ": 4181,
      "ase": 4182,
      "Ġhle": 4183,
      "ĠhrÃĥ": 4184,
      "ĠhvÃĦÄ½z": 4185,
      "ĠÄłZem": 4186,
      "ĠÄłRE": 4187,
      "ĠÄłRÃħ": 4188,
      "ĠÄłRom": 4189,
      "ĠÄłRus": 4190,
      "ĠÄłpÃħÄ»ÃĥÅĥÃħ": 4191,
      "ĠÄłpÃħÄ»ÃĥÅĥlo": 4192,
      "ĠÄłpÃħÄ»ÃĥÅĥbu": 4193,
      "ĠÄłpÃħÄ»ÃĥÅĥjem": 4194,
      "ĠÄłpÃħÄ»ÃĥÅĥleÃħ": 4195,
      "ĠÄłeli": 4196,
      "ĠÄłchvÃĥÅĥ": 4197,
      "ĠÄłchiru": 4198,
      "ĠÄłCa": 4199,
      "ĠÄłCon": 4200,
      "vÃĥÅĥte": 4201,
      "ĠÄłOlomou": 4202,
      "ĠÄłrozu": 4203,
      "ĠÄłrozmÃĦÄ½": 4204,
      "ĠÄłrozvÃĥÅĥ": 4205,
      "ĠÄłrozum": 4206,
      "ĠÄłrozliÃħ": 4207,
      "amat": 4208,
      "Ġstud": 4209,
      "nulÃĥ": 4210,
      "ĠÄłinteriÃĥ": 4211,
      "ĠÄłJin": 4212,
      "ĠÄłteh": 4213,
      "ĠÄłteku": 4214,
      "ÃħÄªte": 4215,
      "ÃħÄªujÃĥÅĥ": 4216,
      "ĠÄłLon": 4217,
      "ĠÄłpodzi": 4218,
      "ĠÄłkonkrÃĥ": 4219,
      "ĠÄłkonzer": 4220,
      "ĠÄłkolo": 4221,
      "viduÃĥ": 4222,
      "ĠÄłjin": 4223,
      "ĠÄłjas": 4224,
      "ĠÄłjmÃĥ": 4225,
      "ĠÄłjak": 4226,
      "ĠÄłspou": 4227,
      "nostem": 4228,
      "nostmi": 4229,
      "ĠÄłjedinÃĥ": 4230,
      "Ġck": 4231,
      "kona": 4232,
      "Ġfer": 4233,
      "ĠÄłnejÃĥÂº": 4234,
      "ĠÄłFi": 4235,
      "ĠÄłFor": 4236,
      "ĠÄłkavÃĥ": 4237,
      "ĠÄłhoÃħÄ»": 4238,
      "ĠÄłhotel": 4239,
      "ĠÄłga": 4240,
      "ĠÄłgu": 4241,
      "ĠÄłvzdu": 4242,
      "ĠÄłpÃħÄ»ednÃĥ": 4243,
      "ĠÄłpÃħÄ»edloÃħ": 4244,
      "usÃĥÅĥ": 4245,
      "Ġgu": 4246,
      "ĠÄłspoko": 4247,
      "ĠtÃħ": 4248,
      "ĠtÃħÄ»e": 4249,
      "ĠÄłsoupe": 4250,
      "ĠÄłsouÃĦÄ¯Ãĥ": 4251,
      "oth": 4252,
      "zala": 4253,
      "lednÃĥÅĥ": 4254,
      "ĠÄłvÃĦÄ½nu": 4255,
      "ĠÄłkomun": 4256,
      "ĠÄłposÃĥÅĥ": 4257,
      "ĠÄłposou": 4258,
      "ĠÄłposlou": 4259,
      "ĠÄłlit": 4260,
      "moc": 4261,
      "morav": 4262,
      "pravy": 4263,
      "ĠnnÃĥ": 4264,
      "ĠnskÃĥ": 4265,
      "ĠMÃĦÄ½": 4266,
      "raznÃĥ": 4267,
      "razit": 4268,
      "razil": 4269,
      "ĠVÃĦÄ½": 4270,
      "ĠVel": 4271,
      "ĠDÃĥ": 4272,
      "ĠDob": 4273,
      "ĠÄłGe": 4274,
      "Ġtech": 4275,
      "ĠteÃĦÄ¯nÃĥ": 4276,
      "ĠÄłÃĦÄ®eskoslov": 4277,
      "sobÃĥÅĥ": 4278,
      "ĠÄłjedna": 4279,
      "pila": 4280,
      "ĠÄłUÃħ": 4281,
      "ĠÄłpravÃĥ": 4282,
      "ĠÄłzpÃĦÄ½t": 4283,
      "ĠOR": 4284,
      "ĠjÃĥ": 4285,
      "ĠjskÃĥ": 4286,
      "ĠrovanÃĥ": 4287,
      "ĠÄłdeÃħ": 4288,
      "ĠÄłdeko": 4289,
      "ĠÄłdiplo": 4290,
      "vodem": 4291,
      "ĠÄłopak": 4292,
      "ĠÄłsexu": 4293,
      "zÃĥÅĥme": 4294,
      "zdob": 4295,
      "zdrav": 4296,
      "ĠAN": 4297,
      "ĠAR": 4298,
      "ĠavÃĥ": 4299,
      "haj": 4300,
      "hajÃĥÅĥ": 4301,
      "kladnÃĥÅĥ": 4302,
      "umati": 4303,
      "ĠÄłÃħÅĤtÃĦÄ½": 4304,
      "ĠÄłÃ¯": 4305,
      "ĠÄłÃ°Åģ": 4306,
      "ĠÄłprinci": 4307,
      "ĠÄłidenti": 4308,
      "ĠÄłjapon": 4309,
      "ĠÄłrakov": 4310,
      "olenÃĥ": 4311,
      "ĠinovÃĥ": 4312,
      "ĠRoz": 4313,
      "ĠÄłmÃĦÄ½stskÃĥ": 4314,
      "ĠÄłdoprov": 4315,
      "ĠÄłpoziti": 4316,
      "ÃĦÄ±ar": 4317,
      "ÃĥÄ¿": 4318,
      "resu": 4319,
      "torem": 4320,
      "ĠÄłuskuteÃĦÄ¯": 4321,
      "ĠÄłusnad": 4322,
      "ĠdÃĦÄ½lÃĥ": 4323,
      "ĠÄłzdro": 4324,
      "ĠÄłnadÃĥ": 4325,
      "ĠÄłmoto": 4326,
      "rostÃĦÄ½": 4327,
      "ĠÄłoslov": 4328,
      "ĠÄłÃĦÄ¯erven": 4329,
      "valit": 4330,
      "ĠÄłvÃĥÅĥken": 4331,
      "ĠÄłschrÃĥ": 4332,
      "ĠÄłnesou": 4333,
      "ĠÄłruko": 4334,
      "ĠÄłruskÃĥ": 4335,
      "ĠÄłpoplat": 4336,
      "ĠÄłnavrÃħ": 4337,
      "osk": 4338,
      "Ġnes": 4339,
      "ĠÄłtÃĦÄ½le": 4340,
      "ĠÄłznamen": 4341,
      "ĠÄłtaj": 4342,
      "ĠÄłtren": 4343,
      "ĠÄłtrpÃĦÄ½": 4344,
      "ĠÃĥÄ¼": 4345,
      "ĠÄłdÃĥÅĥl": 4346,
      "ĠÄłÃĦÄ¯eÃħ": 4347,
      "aleko": 4348,
      "pisu": 4349,
      "ĠÄłelektrickÃĥ": 4350,
      "ĠÄłpark": 4351,
      "ĠÄłchybÃĦÄ½": 4352,
      "ĠÄłkomplex": 4353,
      "ĠÄłotevÃĥÅĥ": 4354,
      "ĠÄłsalÃĥ": 4355,
      "ĠÄłrepubli": 4356,
      "ĠÄłkrabi": 4357,
      "ĠÄłpolitickÃĥ": 4358,
      "ĠÄłmilu": 4359,
      "ĠÄłpracov": 4360,
      "ĠnanÃĥ": 4361,
      "ĠÄłcÃĥÅĥrk": 4362,
      "ĠÄłvytvÃĥ": 4363,
      "ĠÄłtechni": 4364,
      "ĠÄłsociÃĥ": 4365,
      "ĠÄłsoft": 4366,
      "ĠÄłochra": 4367,
      "ĠÄłochrannÃĥ": 4368,
      "ĠÄłbazÃĥ": 4369,
      "ĠÄłurÃĦÄ¯enÃĥ": 4370,
      "ĠÄłauto": 4371,
      "ĠÄłaudi": 4372,
      "ĠÄłAnd": 4373,
      "ĠÄłsmlou": 4374,
      "ÃĦÄ½tskÃĥ": 4375,
      "ĠÄłohroÃħ": 4376,
      "ĠÄłJedno": 4377,
      "ĠÄłnezamÃĦÄ½st": 4378,
      "ĠÄłumÃĦÄ½lÃĥ": 4379,
      "mout": 4380,
      "ĠÄłdomlu": 4381,
      "ĠÄłfilmovÃĥ": 4382,
      "ĠÄłinform": 4383,
      "ĠÄłnote": 4384,
      "ĠÄłnosi": 4385,
      "ĠÄłprostor": 4386,
      "ĠÄłspecifickÃĥ": 4387,
      "erami": 4388,
      "keting": 4389,
      "ĠÄłvaz": 4390,
      "ĠÄłsilni": 4391,
      "ĠÄłSprÃĥ": 4392,
      "ĠÄłÃĦÄ¯asopis": 4393,
      "ĠÄłzdravÃĥ": 4394,
      "ĠÄłÃ¢Ä¢": 4395,
      "ĠÄłmuze": 4396,
      "ĠÄłfotoa": 4397,
      "exist": 4398,
      "tovost": 4399,
      "ĠÄłbohatÃĥ": 4400,
      "ĠÄłRozhod": 4401,
      "ĠÄłmnohÃĥ": 4402,
      "ĠÄłnechtÃĦÄ½": 4403,
      "ĠÄłvyjad": 4404,
      "ĠÄłapartmÃĥ": 4405,
      "ĠÄłNÃĦÄ½m": 4406,
      "ĠÄłorganiza": 4407,
      "ĠÄłzvyÃħ": 4408,
      "ĠÄłmonit": 4409,
      "ĠÄłmontÃĥ": 4410,
      "ĠÄłarchite": 4411,
      "ĠÄłspoleÃĦÄ¯enskÃĥ": 4412,
      "ĠÄłÃĦÄ¯tvrtÃĥ": 4413,
      "ĠÄłventi": 4414,
      "ĠÄłvojÃĥ": 4415,
      "ĠÄłnormÃĥ": 4416,
      "ĠÄłknihov": 4417,
      "ĠÄłpomoc": 4418,
      "ĠÄłmezinÃĥ": 4419,
      "ĠÄłbankov": 4420,
      "ĠÄłelektronickÃĥ": 4421,
      "ĠjÃĥÅĥÃħ": 4422,
      "ĠÄłPardu": 4423,
      "ĠÄłzachovÃĥ": 4424,
      "ĠÄłfyzickÃĥ": 4425,
      "ĠÄłpotÃħÄ»ebnÃĥ": 4426,
      "irokÃĥ": 4427,
      "ĠÄłpsycho": 4428,
      "ĠÄłmechanis": 4429,
      "ĠÄłPRO": 4430,
      "ĠÄłfakul": 4431,
      "ĠÄłcykli": 4432,
      "ĠÄłnemocnÃĥ": 4433,
      "ĠÄłfanta": 4434,
      "ĠÄłfanouÃħ": 4435,
      "ĠÃ§Ä": 4436,
      "ĠÄłanglickÃĥ": 4437,
      "ĠÄłvlh": 4438,
      "ĠÄłsvobodnÃĥ": 4439,
      "ĠÄłklÃĥÅĥÃĦÄ¯ovÃĥ": 4440,
      "ĠÄłnedale": 4441,
      "ĠÄłÃĦÄ¯tenÃĥ": 4442,
      "ĠÄłgenerÃĥ": 4443,
      "ĠÄłzelenÃĥ": 4444,
      "ĠÄłtlaÃĦÄ¯ÃĥÅĥ": 4445,
      "ĠÄłprohlÃĥÅĥÃħ": 4446,
      "ĠÄłobÃĦÄ¯anskÃĥ": 4447,
      "ĠÄłkombin": 4448,
      "ĠÄłjednoduchÃĥ": 4449,
      "ĠÄłkoupel": 4450,
      "dhernÃĥ": 4451,
      "ĠÄłzelen": 4452,
      "ĠÄłkovovÃĥ": 4453,
      "ĠÄłdodrÃħ": 4454,
      "ĠÄłzastupitel": 4455,
      "ĠÄłhloub": 4456,
      "ĠÄłintenz": 4457,
      "ĠÄłlehkÃĥ": 4458,
      "ĠÄłluxus": 4459,
      "ĠÄłdospÃĦÄ½lÃĥ": 4460,
      "ĠÄłkoneÃĦÄ¯nÃĥ": 4461,
      "ĠÄłvÃĦÄ½dom": 4462,
      "ĠÄłlabora": 4463,
      "ĠÄłwebovÃĥ": 4464,
      "ĠÄłumÃĦÄ½leckÃĥ": 4465,
      "ĠÄłekonomickÃĥ": 4466,
      "ĠÄłhlubokÃĥ": 4467,
      "ĠÄłsignÃĥ": 4468,
      "ĠÄłzodpovÃĦÄ½": 4469,
      "ĠÄłhudeb": 4470,
      "ĠÄłinternetovÃĥ": 4471,
      "ĠÃĲÂµÃĲ": 4472,
      "ĠÄłÃĦÄ¯erstvÃĥ": 4473,
      "ĠÄłtepelnÃĥ": 4474,
      "ĠÄładap": 4475,
      "ĠÄłkyseli": 4476,
      "ĠÄłpostiÃħ": 4477,
      "ĠÄłpotenciÃĥ": 4478,
      "ĠÄłstabili": 4479,
      "ĠÄłobrovskÃĥ": 4480,
      "ĠÄłlibov": 4481,
      "ĠÄłalternati": 4482,
      "ĠÄłproblemati": 4483,
      "ĠÄłkandidÃĥ": 4484,
      "ĠÄłcertifikÃĥ": 4485,
      "ĠÄłatmosfÃĥ": 4486,
      "35": 4487,
      "70": 4488,
      ":-": 4489,
      "Dr": 4490,
      "EN": 4491,
      "Hz": 4492,
      "LA": 4493,
      "OM": 4494,
      "OP": 4495,
      "SD": 4496,
      "US": 4497,
      "UT": 4498,
      "aÃħÄ»skÃĥ": 4499,
      "ble": 4500,
      "dod": 4501,
      "dru": 4502,
      "dnÃĥÅĥho": 4503,
      "dlem": 4504,
      "dge": 4505,
      "eho": 4506,
      "eckÃĥ": 4507,
      "gal": 4508,
      "gani": 4509,
      "ght": 4510,
      "har": 4511,
      "hing": 4512,
      "io": 4513,
      "ijÃĥÅĥ": 4514,
      "ivnÃĥÅĥ": 4515,
      "ivu": 4516,
      "itek": 4517,
      "jit": 4518,
      "jmy": 4519,
      "kle": 4520,
      "klÃĥÅĥ": 4521,
      "kres": 4522,
      "lova": 4523,
      "lnou": 4524,
      "lnit": 4525,
      "mka": 4526,
      "mar": 4527,
      "mky": 4528,
      "mal": 4529,
      "oky": 4530,
      "oty": 4531,
      "pl": 4532,
      "pÃħÄ»e": 4533,
      "pce": 4534,
      "pky": 4535,
      "plat": 4536,
      "plnÃĦÄ½": 4537,
      "rce": 4538,
      "rku": 4539,
      "rvÃĥ": 4540,
      "rnÃĥÅĥho": 4541,
      "sat": 4542,
      "slÃĥÅĥ": 4543,
      "skyt": 4544,
      "th": 4545,
      "tle": 4546,
      "tvo": 4547,
      "tvÃĥÅĥ": 4548,
      "tnÃĥÅĥch": 4549,
      "tnÃĥÅĥho": 4550,
      "uze": 4551,
      "uto": 4552,
      "udu": 4553,
      "ustÃĥÅĥ": 4554,
      "vro": 4555,
      "vnÃĦÄ½jÃħ": 4556,
      "vrat": 4557,
      "zt": 4558,
      "zce": 4559,
      "zdy": 4560,
      "zdÃĥÅĥ": 4561,
      "Â«": 4562,
      "Ã¥": 4563,
      "Ä£": 4564,
      "Äº": 4565,
      "Ä»": 4566,
      "ÅĢ": 4567,
      "Ġ(": 4568,
      "Ġ+": 4569,
      "Ġ]": 4570,
      "ĠÃĦÄ": 4571,
      "Ġed": 4572,
      "Ġam": 4573,
      "Ġes": 4574,
      "ĠjÃħ": 4575,
      "Ġny": 4576,
      "ĠickÃĥ": 4577,
      "Ġim": 4578,
      "ĠnÃĦÄ½jÃħ": 4579,
      "Ġani": 4580,
      "Ġ00": 4581,
      "Ġlogi": 4582,
      "Ġ!!": 4583,
      "ĠÃĦÄ¼": 4584,
      "ĠÄły": 4585,
      "ĠÄłlov": 4586,
      "ĠÄłlog": 4587,
      "ĠÄłlogi": 4588,
      "ĠÄłemo": 4589,
      "ÃĥÅĥse": 4590,
      "ÃĥÅĥval": 4591,
      "ĠÄłpit": 4592,
      "ĠÄłplu": 4593,
      "ĠÄłpav": 4594,
      "ĠÄłpta": 4595,
      "ĠÄłpry": 4596,
      "ĠÄłpali": 4597,
      "ĠÄłpsa": 4598,
      "ĠÄłplav": 4599,
      "ĠÄłperi": 4600,
      "ÃĦÄ½nÃĥÅĥ": 4601,
      "stek": 4602,
      "staly": 4603,
      "ovnÃĥ": 4604,
      "ovenÃĥÅĥ": 4605,
      "ÃĦÄ¯kÃĥ": 4606,
      "ÃĦÄ¯ist": 4607,
      "ÃĦÄ¯ÃĥÅĥm": 4608,
      "ÃĦÄ¯kÃħ": 4609,
      "ÃĦÄ¯ili": 4610,
      "ÃĦÄ¯ena": 4611,
      "ÃĦÄ¯iny": 4612,
      "ĠÄłvra": 4613,
      "ĠÄłvli": 4614,
      "ĠÄłvti": 4615,
      "ĠÄłvrch": 4616,
      "ĠÄłvraÃħ": 4617,
      "ĠÄłvrace": 4618,
      "rab": 4619,
      "rajÃĥÅĥ": 4620,
      "ĠÄłsdÃĦÄ½": 4621,
      "ĠÄłsbÃĦÄ½": 4622,
      "ĠÄłsdÃĥÅĥ": 4623,
      "ĠÄłsvÃĦÄ½d": 4624,
      "ĠÄłseni": 4625,
      "ĠÄłsmys": 4626,
      "ĠÄłshr": 4627,
      "ĠÄłskuteÃĦÄ¯": 4628,
      "ĠÄłsuper": 4629,
      "ĠÄłzho": 4630,
      "ĠÄłzni": 4631,
      "ĠÄłzub": 4632,
      "ĠÄłzdo": 4633,
      "ĠÄłzbra": 4634,
      "ĠÄłzbyt": 4635,
      "ĠÄłzved": 4636,
      "ĠÄłzmr": 4637,
      "rok": 4638,
      "lenÃĦÄ½": 4639,
      "lena": 4640,
      "letu": 4641,
      "ĠÄłnan": 4642,
      "ĠÄłnar": 4643,
      "ĠÄłnom": 4644,
      "ĠÄłnik": 4645,
      "laci": 4646,
      "teb": 4647,
      "ted": 4648,
      "teÃħÄ»ÃĥÅĥ": 4649,
      "teÃĦÄ¯nÃĦÄ½": 4650,
      "teÃħÄ»skÃĥ": 4651,
      "line": 4652,
      "ĠÄłklub": 4653,
      "ĠÄłkles": 4654,
      "ĠÄłkÃħÄ»iÃħ": 4655,
      "ĠÄłkober": 4656,
      "ĠÄłkerami": 4657,
      "enty": 4658,
      "ĠÄłoc": 4659,
      "ĠÄłomy": 4660,
      "ĠÄłokra": 4661,
      "ĠÄłocen": 4662,
      "ĠÄłden": 4663,
      "ĠÄłdar": 4664,
      "ĠÄłdÃħÄ»ÃĥÅĥ": 4665,
      "ĠÄłdez": 4666,
      "ĠÄłdoru": 4667,
      "ĠÄłdata": 4668,
      "ĠÄłpoÃĦÄ¯": 4669,
      "ĠÄłpolÃĥ": 4670,
      "ĠÄłpoje": 4671,
      "ĠÄłpodi": 4672,
      "ĠÄłpoby": 4673,
      "ĠÄłpozi": 4674,
      "ĠÄłpoÃħÄ»ad": 4675,
      "ĠÄłporovnÃĥ": 4676,
      "ĠÄłpochyb": 4677,
      "ĠÄłpoÃħÄ»ada": 4678,
      "hoj": 4679,
      "hoda": 4680,
      "ink": 4681,
      "inec": 4682,
      "ĠÄłml": 4683,
      "ĠÄłmole": 4684,
      "ĠÄłmilo": 4685,
      "ĠÄłmeta": 4686,
      "ĠÄłmulti": 4687,
      "emu": 4688,
      "atÃĥÅĥm": 4689,
      "ĠÄłnetu": 4690,
      "ĠÄłneÃĦÄ¯e": 4691,
      "ĠÄłnetra": 4692,
      "nÃĦÄ½ji": 4693,
      "anÃħ": 4694,
      "anickÃĥ": 4695,
      "antnÃĥÅĥ": 4696,
      "jel": 4697,
      "jekt": 4698,
      "kaÃħÄ»skÃĥ": 4699,
      "ĠÄłtovÃĥ": 4700,
      "ĠÄłtma": 4701,
      "ĠÄłtole": 4702,
      "ĠÄłtrou": 4703,
      "ĠÄłtitu": 4704,
      "ĠÄłtab": 4705,
      "ona": 4706,
      "ĠÄłbÃĦÄ½": 4707,
      "ĠÄłbou": 4708,
      "ĠÄłblÃĥ": 4709,
      "ĠÄłbet": 4710,
      "ĠÄłbak": 4711,
      "ĠÄłblog": 4712,
      "ĠÄłvyh": 4713,
      "ĠÄłvyvÃĥ": 4714,
      "ĠÄłvylou": 4715,
      "ĠÄłvytr": 4716,
      "ĠÄłvynika": 4717,
      "ĠÄłvystou": 4718,
      "ĠÄłvymys": 4719,
      "ĠÄłvyhov": 4720,
      "ĠÄłvydanÃĥ": 4721,
      "ark": 4722,
      "ĠÄłuna": 4723,
      "ĠÄłudÃĦÄ½": 4724,
      "ĠÄłukaz": 4725,
      "ĠÄłuklÃĥ": 4726,
      "ĠÄłuÃĦÄ¯in": 4727,
      "ĠÄłustan": 4728,
      "ĠÄłuvaÃħ": 4729,
      "ĠÄłukaza": 4730,
      "ĠÄłuchaze": 4731,
      "ĠÄłPh": 4732,
      "ĠÄłPan": 4733,
      "ĠÄłPer": 4734,
      "ĠÄłPav": 4735,
      "ĠÄłPri": 4736,
      "ĠÄłPÃĥÅĥs": 4737,
      "ĠÄłPrac": 4738,
      "valo": 4739,
      "valu": 4740,
      "ÃħÄ»ÃĥÅĥt": 4741,
      "odÃĦÄ½": 4742,
      "ĠÄłzah": 4743,
      "ĠÄłzate": 4744,
      "ĠÄłzavo": 4745,
      "ĠÄłzamÃĥ": 4746,
      "ĠÄłzasÃĥ": 4747,
      "ĠÄłzaÃħÄ»a": 4748,
      "ĠÄłzaznamen": 4749,
      "ĠÄłzajÃĥÅĥmav": 4750,
      "ĠÄłSi": 4751,
      "ĠÄłSo": 4752,
      "ĠÄłSto": 4753,
      "ĠÄłSez": 4754,
      "noj": 4755,
      "now": 4756,
      "niÃĦÄ¯ka": 4757,
      "tili": 4758,
      "tice": 4759,
      "tion": 4760,
      "naj": 4761,
      "ĠÄłstarÃħ": 4762,
      "Ġden": 4763,
      "ĠdrÃĥ": 4764,
      "Ġdob": 4765,
      "Ġdom": 4766,
      "ĠÄłhlÃĥ": 4767,
      "ĠÄłhno": 4768,
      "ĠÄłhard": 4769,
      "kolÃĥ": 4770,
      "kolnÃĥÅĥ": 4771,
      "ade": 4772,
      "adi": 4773,
      "aduje": 4774,
      "adovanÃĥ": 4775,
      "ĠÄłpros": 4776,
      "ĠÄłpronÃĥ": 4777,
      "ĠÄłprocen": 4778,
      "ĠÄłprozra": 4779,
      "ĠÄłprobÃĦÄ½h": 4780,
      "ĠplÃĥ": 4781,
      "Ġpust": 4782,
      "ĠÄłdotÃĥ": 4783,
      "ĠÄłdoty": 4784,
      "ĠÄłdomin": 4785,
      "ĠÄłMat": 4786,
      "ĠÄłMon": 4787,
      "ĠÄłMer": 4788,
      "ĠÄłMoÃħ": 4789,
      "ĠÄłMag": 4790,
      "ĠmyÃħ": 4791,
      "Ġmysle": 4792,
      "ĠÄłpÃħÄ»enÃĥ": 4793,
      "ĠÄłpÃħÄ»evÃĥ": 4794,
      "ĠÄłobn": 4795,
      "ĠÄłobo": 4796,
      "ĠÄłobou": 4797,
      "obo": 4798,
      "ĠÄłVa": 4799,
      "ĠÄłVl": 4800,
      "ĠÄłnab": 4801,
      "ĠÄłnaf": 4802,
      "ĠÄłnaj": 4803,
      "ĠÄłnaro": 4804,
      "ĠÄłnale": 4805,
      "ĠÄłnakrÃĥ": 4806,
      "ĠÄłnahraz": 4807,
      "Ġsle": 4808,
      "Ġspo": 4809,
      "ĠÄłKli": 4810,
      "ĠÄłKup": 4811,
      "ĠÄłKdy": 4812,
      "riz": 4813,
      "ĠÄłfon": 4814,
      "ĠÄłflexi": 4815,
      "ĠÄłromÃĥ": 4816,
      "ĠÄłroman": 4817,
      "ĠÄłakce": 4818,
      "iska": 4819,
      "islati": 4820,
      "ĠÄłNor": 4821,
      "ĠÄłNaÃħ": 4822,
      "ĠÄłNik": 4823,
      "ĠÄłDav": 4824,
      "ĠÄłDiva": 4825,
      "ĠÄłBud": 4826,
      "ĠÄłBul": 4827,
      "ĠÄłBoÃħ": 4828,
      "ĠÄłBlan": 4829,
      "ĠÄłBrati": 4830,
      "voz": 4831,
      "zev": 4832,
      "ĠÄłodÃĦÄ½": 4833,
      "ĠÄłodvÃĥ": 4834,
      "ĠÄłoddÃĦÄ½": 4835,
      "ĠÄłodstav": 4836,
      "ĠÄłodol": 4837,
      "ĠÄłoddÃĥÅĥ": 4838,
      "ĠÄłodkaz": 4839,
      "tury": 4840,
      "ovaÃĦÄ¯": 4841,
      "ĠÄłÃĥÂºko": 4842,
      "ĠÄłÃĥÂºÃĦÄ¯e": 4843,
      "ĠÄłÃĥÂºstav": 4844,
      "ĠÄłÃĥÂºsp": 4845,
      "ĠÄłÃĥÂºhra": 4846,
      "mÃĦÄ½t": 4847,
      "Ġbus": 4848,
      "Ġbili": 4849,
      "Ġbur": 4850,
      "elovÃĥ": 4851,
      "Ġkou": 4852,
      "Ġkres": 4853,
      "Ġzd": 4854,
      "ĠÄłAd": 4855,
      "ĠÄłAr": 4856,
      "ĠÄłAt": 4857,
      "ĠvÃĥÅĥ": 4858,
      "ĠvovÃĥ": 4859,
      "ĠÄłTe": 4860,
      "ĠÄłTw": 4861,
      "ĠÄłTen": 4862,
      "ĠÄłTer": 4863,
      "ĠÄłTom": 4864,
      "ĠÄłref": 4865,
      "ĠÄłreda": 4866,
      "ĠÄłrefor": 4867,
      "ĠÄłreferen": 4868,
      "ĠÄłrestau": 4869,
      "ĠÄłrelax": 4870,
      "ĠÄłpÃħÄ»iÃħ": 4871,
      "ĠÄłpÃħÄ»iznÃĥ": 4872,
      "ÃĦÄ¯era": 4873,
      "ÃĦÄ¯enÃĥÅĥm": 4874,
      "asy": 4875,
      "Ġhe": 4876,
      "Ġhr": 4877,
      "Ġhro": 4878,
      "telnÃĦÄ½": 4879,
      "ĠÄłpÃħÄ»ÃĥÅĥno": 4880,
      "ĠÄłpÃħÄ»ÃĥÅĥtel": 4881,
      "ĠÄłpÃħÄ»ÃĥÅĥbÃĦÄ½": 4882,
      "ĠÄłpÃħÄ»ÃĥÅĥkaz": 4883,
      "ĠÄłpÃħÄ»ÃĥÅĥrod": 4884,
      "ĠÄłpÃħÄ»ÃĥÅĥstro": 4885,
      "ĠÄłchalu": 4886,
      "die": 4887,
      "dili": 4888,
      "dacÃĥÅĥ": 4889,
      "ÃĦÄ¯nÃĥÅĥk": 4890,
      "ĠÄłCo": 4891,
      "ĠÄłCha": 4892,
      "ĠÄłChor": 4893,
      "vÃĥÅĥme": 4894,
      "ĠÄłOr": 4895,
      "ĠÄłrozp": 4896,
      "ĠÄłrozhov": 4897,
      "Ġste": 4898,
      "Ġstru": 4899,
      "ĠstÃĦÄ½h": 4900,
      "ĠÄłHD": 4901,
      "ĠÄłHon": 4902,
      "ĠÄłHar": 4903,
      "ĠÄłinÃħ": 4904,
      "ĠÄłinze": 4905,
      "ĠÄłinteli": 4906,
      "ĠÄłinici": 4907,
      "ĠÄłJÃĥÅĥ": 4908,
      "ĠÄłJes": 4909,
      "ĠÄłJoh": 4910,
      "ĠÄłJeÃħ": 4911,
      "ĠÄłtest": 4912,
      "ĠÄłteni": 4913,
      "ĠÃĦÄ¯te": 4914,
      "ĠÃĦÄ¯ovÃĥ": 4915,
      "ĠÃĦÄ¯et": 4916,
      "ĠÄłLud": 4917,
      "ĠÄłpodloÃħ": 4918,
      "ĠÄłkontra": 4919,
      "ĠÄłkoncent": 4920,
      "ĠÄłkos": 4921,
      "istr": 4922,
      "vila": 4923,
      "ĠÄłjar": 4924,
      "ĠÄłlevÃĥ": 4925,
      "ĠÄłlepÃħ": 4926,
      "ĠÄłletou": 4927,
      "ĠÄłletoÃħ": 4928,
      "jÃĥÅĥcÃĥÅĥho": 4929,
      "ĠÄłspad": 4930,
      "ĠÄłsprch": 4931,
      "mÃĥÅĥm": 4932,
      "mÃĥÅĥnÃĥ": 4933,
      "ĠÄłjejÃĥÅĥ": 4934,
      "Ġcent": 4935,
      "ĠÄłnejm": 4936,
      "ĠÄłnejdÃħ": 4937,
      "ĠÄłnejlepÃħ": 4938,
      "ĠÄłFir": 4939,
      "stavÃĦÄ½": 4940,
      "bytek": 4941,
      "ĠÄłkateg": 4942,
      "ĠÄłhot": 4943,
      "ĠÄłhoriz": 4944,
      "lovou": 4945,
      "ĠÄłvzbu": 4946,
      "ranÃħ": 4947,
      "ĠÄłpÃħÄ»edÃħ": 4948,
      "ĠÄłpÃħÄ»edsed": 4949,
      "ĠÄłpÃħÄ»edchoz": 4950,
      "ĠÄłspotÃħÄ»e": 4951,
      "ÃĦÄ¯ÃĥÅĥch": 4952,
      "ĠÄłsouÃĦÄ¯as": 4953,
      "ĠÄłsoustÃħÄ»e": 4954,
      "ĠÄłEner": 4955,
      "ĠÄłEvropskÃĥ": 4956,
      "ĠSK": 4957,
      "ĠSou": 4958,
      "ĠSpo": 4959,
      "ledne": 4960,
      "ĠNÃĦÄ½": 4961,
      "ĠNÃĦÄ½k": 4962,
      "ĠNÃĥÄ¯": 4963,
      "mentu": 4964,
      "ĠÄłposÃĥ": 4965,
      "ĠÄłposlu": 4966,
      "ĠÄłposled": 4967,
      "ĠÄłmaj": 4968,
      "ktovÃĥ": 4969,
      "ĠÄłlicen": 4970,
      "ĠÄłlitera": 4971,
      "pravu": 4972,
      "ĠnatÃĥ": 4973,
      "ĠÄłIN": 4974,
      "ĠÄłIr": 4975,
      "190": 4976,
      "ĠMi": 4977,
      "razu": 4978,
      "padnÃĦÄ½": 4979,
      "gii": 4980,
      "bÃĦÄ½Ãħ": 4981,
      "ĠDÃĦÄ½": 4982,
      "Ġter": 4983,
      "ĠÄłÃĦÄ®S": 4984,
      "ĠÄłÃĦÄ®ÃĥÅĥ": 4985,
      "ĠÄłnepÃħÄ»Ãĥ": 4986,
      "und": 4987,
      "ĠlickÃĥ": 4988,
      "ĠÄłskla": 4989,
      "ĠÄłskrÃĥ": 4990,
      "ĠÄłskry": 4991,
      "sobnÃĦÄ½": 4992,
      "ĠTak": 4993,
      "ĠTech": 4994,
      "Ġcha": 4995,
      "Ġchop": 4996,
      "ĠÄłjednÃĥ": 4997,
      "ĠÄłUkraj": 4998,
      "ĠÄłcel": 4999,
      "znamenÃĥ": 5000,
      "ĠÄłzpÃħÄ»ÃĥÅĥ": 5001,
      "ĠÄłveÃĦÄ¯er": 5002,
      "ĠÄłvedenÃĥ": 5003,
      "roba": 5004,
      "Ġid": 5005,
      "ĠovskÃĥ": 5006,
      "Ġja": 5007,
      "ĠÄłdete": 5008,
      "ĠÄłdeva": 5009,
      "vodÃħ": 5010,
      "vodnÃĦÄ½": 5011,
      "ĠKrÃĥ": 5012,
      "ĠKom": 5013,
      "ĠKaÃħ": 5014,
      "ĠÄłPoli": 5015,
      "ĠalÃĥ": 5016,
      "Ġalu": 5017,
      "hradnÃĥÅĥ": 5018,
      "ĠÄłÃħÅĤum": 5019,
      "ĠÄłexter": 5020,
      "ĠÄłexeku": 5021,
      "ĠÄłanaly": 5022,
      "ĠÄłiP": 5023,
      "ĠÄłig": 5024,
      "ĠÄłilu": 5025,
      "ĠÄłizo": 5026,
      "ĠÄłpotom": 5027,
      "ĠÄłrakou": 5028,
      "ĠÄłradi": 5029,
      "ĠÄłÃħÄ»edi": 5030,
      "ĠRÃĥ": 5031,
      "ĠÄłnÃĦÄ½koli": 5032,
      "ĠÄłdÃĦÄ½la": 5033,
      "ĠÄłdÃĦÄ½lÃĥ": 5034,
      "ĠÄłdopis": 5035,
      "ever": 5036,
      "ĠÄłpovinnÃĥ": 5037,
      "ĠÄłpozÃħ": 5038,
      "hujÃĥÅĥcÃĥÅĥ": 5039,
      "ÃĦÄ±Ãĥ": 5040,
      "ĠologickÃĥ": 5041,
      "pÃĥÅĥna": 5042,
      "ÃĥÄ«": 5043,
      "ÃĥÄ¼": 5044,
      "ĠBy": 5045,
      "temati": 5046,
      "ĠÄłsynd": 5047,
      "klada": 5048,
      "ĠÄłlah": 5049,
      "ĠÄłlam": 5050,
      "ĠdÃĦÄ½nÃĥ": 5051,
      "ĠdÃĦÄ½la": 5052,
      "ĠlovanÃĥ": 5053,
      "elezni": 5054,
      "ĠÄłÃĦÄ¯erpad": 5055,
      "slednÃĥÅĥ": 5056,
      "sledky": 5057,
      "ĠÄłsamo": 5058,
      "ĠÄłsamozÃħÄ»ej": 5059,
      "vnÃĦÄ½nÃĥÅĥ": 5060,
      "vnÃĦÄ½nÃĥ": 5061,
      "ĠÄłrybÃĥ": 5062,
      "ĠÄłrybnÃĥÅĥ": 5063,
      "ĠÄłmodlit": 5064,
      "ĠÄłklik": 5065,
      "ĠÄłklidnÃĥ": 5066,
      "ivotnÃĥÅĥ": 5067,
      "ĠÄłChri": 5068,
      "ĠÄłÃĥÄ¼stav": 5069,
      "ramet": 5070,
      "ĠÄłObec": 5071,
      "ester": 5072,
      "olik": 5073,
      "ĠÄłtajem": 5074,
      "ĠÄłtrvalÃĥ": 5075,
      "ĠÄłZaÃĦÄ¯": 5076,
      "ĠÄłZamÃĦÄ½st": 5077,
      "land": 5078,
      "ĠÄłstaro": 5079,
      "ĠÄłstarost": 5080,
      "ĠÄłkritÃĥ": 5081,
      "nutÃĥÅĥm": 5082,
      "rchi": 5083,
      "ĠÄłdisple": 5084,
      "ĠÄłÃĦÄ¯ekÃĥ": 5085,
      "ĠÄłspekt": 5086,
      "ĠÄłmanu": 5087,
      "pisy": 5088,
      "ĠÄłorganis": 5089,
      "ĠÄłkapit": 5090,
      "ĠÄłkapitÃĥ": 5091,
      "ĠÄłkapito": 5092,
      "ĠÄłelektÃħÄ»": 5093,
      "hlaÃħ": 5094,
      "myslovÃĥ": 5095,
      "ĠatÃĥ": 5096,
      "ĠÄłwork": 5097,
      "ĠÄłparla": 5098,
      "ĠÄłparti": 5099,
      "ĠÄłpravid": 5100,
      "ĠÄłpravdÃĦÄ½podob": 5101,
      "struktu": 5102,
      "ĠÄłminister": 5103,
      "ĠÄłÃħÄ»ÃĥÅĥkÃĥ": 5104,
      "ĠÄłchytrÃĥ": 5105,
      "ĠÄłnedostat": 5106,
      "ĠÄłJaro": 5107,
      "ĠÄłJapon": 5108,
      "ĠÄłteplÃĥ": 5109,
      "ĠÄłsau": 5110,
      "ĠÄłsaz": 5111,
      "ĠÄłseda": 5112,
      "slez": 5113,
      "ĠÄładre": 5114,
      "ovÃĥÅĥdÃĥ": 5115,
      "ĠÄłstÃħÄ»el": 5116,
      "ĠÄłhydra": 5117,
      "ĠÄłMiku": 5118,
      "ĠÄłMicha": 5119,
      "ĠÄłNabÃĥÅĥ": 5120,
      "lÃħÄªuje": 5121,
      "ĠÄłpÃĥÅĥsmen": 5122,
      "ĠÄłobjev": 5123,
      "ĠÄłtechno": 5124,
      "ĠÄłsoci": 5125,
      "ĠÄłochrÃĥ": 5126,
      "ĠÄłsmlu": 5127,
      "ĠÄłsmart": 5128,
      "ĠÄłtakz": 5129,
      "ĠÄłkoleg": 5130,
      "ĠÄłdlouho": 5131,
      "Ġmail": 5132,
      "ĠÄłKonta": 5133,
      "ivatel": 5134,
      "ĠÄłtypickÃĥ": 5135,
      "kuteÃĦÄ¯nÃĦÄ½": 5136,
      "sahuje": 5137,
      "edenÃĥÅĥ": 5138,
      "ĠÄłprior": 5139,
      "ĠÄłprimÃĥ": 5140,
      "ĠÄłdomnÃĥÅĥ": 5141,
      "ĠÄłformulÃĥ": 5142,
      "ĠÄłgrafickÃĥ": 5143,
      "ĠÄłplatfor": 5144,
      "ĠÄłvelko": 5145,
      "ĠÄłhorkÃĥ": 5146,
      "ĠÄłhorskÃĥ": 5147,
      "ĠÄłpouhÃĥ": 5148,
      "ĠÄłautomatickÃĥ": 5149,
      "ĠÄłotevÃħÄ»": 5150,
      "ĠÄłotevÃħÄ»e": 5151,
      "ĠÄłostrov": 5152,
      "ĠÄłstrate": 5153,
      "idel": 5154,
      "ĠÄłvrcho": 5155,
      "ĠÄłporad": 5156,
      "ĠÄłtvrdÃĥ": 5157,
      "ĠÄłzabrÃĥ": 5158,
      "ĠÄłzahrani": 5159,
      "kolskÃĥ": 5160,
      "ĠÄłuzavÃħÄ»enÃĥ": 5161,
      "jdete": 5162,
      "vobo": 5163,
      "linnÃĥ": 5164,
      "ĠÄłsmÃĦÄ½ÃħÄ»": 5165,
      "ĠÄłslovenskÃĥ": 5166,
      "ĠgrafickÃĥ": 5167,
      "fikaci": 5168,
      "vÃĦÄ½domÃĥÅĥ": 5169,
      "gypt": 5170,
      "ĠÄłzvÃĥÅĥÃħÄ»": 5171,
      "ĠÄłomezenÃĥ": 5172,
      "ĠÄłopera": 5173,
      "ĠÄłpokr": 5174,
      "ĠÄłdokonalÃĥ": 5175,
      "ness": 5176,
      "ĠÄłnepÃħÄ»ÃĥÅĥjemnÃĥ": 5177,
      "ĠÄłtisÃĥÅĥ": 5178,
      "ĠÄłstudent": 5179,
      "ĠÄłtermÃĥÅĥ": 5180,
      "ĠÄłjednotlivÃĥ": 5181,
      "ĠÄłvojenskÃĥ": 5182,
      "ĠÄłduchov": 5183,
      "ĠÄłmatur": 5184,
      "ĠÄłminulÃĥ": 5185,
      "ĠÄłtiskÃĥ": 5186,
      "ĠÄłVÃĦÄ½tÃħ": 5187,
      "ĠÄłfirem": 5188,
      "ĠÄłelektroni": 5189,
      "ĠÄłkrajskÃĥ": 5190,
      "ĠÄłslavnÃĥ": 5191,
      "ĠÄłdaÃħÄªovÃĥ": 5192,
      "ĠÄłzachrÃĥ": 5193,
      "ĠkovskÃĥ": 5194,
      "ĠÄłekonomi": 5195,
      "ĠÄłpsychi": 5196,
      "ĠÄłsvatÃĥ": 5197,
      "ĠÄłkrouÃħ": 5198,
      "ĠÄłmechani": 5199,
      "ĠÄłSkvÃĦÄ½": 5200,
      "ĠÄłStarÃĥ": 5201,
      "ĠÄłkonzul": 5202,
      "ĠÄłturisti": 5203,
      "ĠÄłturistickÃĥ": 5204,
      "ijete": 5205,
      "ĠÄłserver": 5206,
      "ĠÄłservis": 5207,
      "ĠÄłsvÃĥÅĥti": 5208,
      "ĠÄłzmÃĥÅĥnÃĦÄ½nÃĥ": 5209,
      "ĠÄłmikro": 5210,
      "ĠÄłmikrov": 5211,
      "ĠÄłÃĦÄ¯lenskÃĥ": 5212,
      "zeÃħÄªskÃĥ": 5213,
      "ĠÄłangliÃĦÄ¯": 5214,
      "ĠÄłautorskÃĥ": 5215,
      "ĠÄłstandar": 5216,
      "ÃĳÄ¤": 5217,
      "ĠÄłdodava": 5218,
      "ĠÄłdostateÃĦÄ¯nÃĥ": 5219,
      "ĠÄłcentrÃĥ": 5220,
      "ĠÄłpotÃħÄ»ebu": 5221,
      "ĠÄłlhÃħ": 5222,
      "ĠÄłzbyteÃĦÄ¯nÃĥ": 5223,
      "ĠÄłmarketing": 5224,
      "ĠÄłdozvÃĦÄ½": 5225,
      "ĠÄłobecnÃĥ": 5226,
      "ĠÄłrekre": 5227,
      "ĠÄłlegislati": 5228,
      "ĠÄłpÃħÄ»edpoklÃĥ": 5229,
      "ĠÄłnedosta": 5230,
      "ĠÄłumÃĥÅĥstÃĦÄ½nÃĥ": 5231,
      "ĠÄłdemon": 5232,
      "ĠÄłpropaga": 5233,
      "ĠÄłaktuÃĥ": 5234,
      "ĠÄłleteckÃĥ": 5235,
      "bychom": 5236,
      "ĠÄłbezpeÃĦÄ¯nost": 5237,
      "stoupil": 5238,
      "ĠÄłfotografi": 5239,
      "ĠÄłplastovÃĥ": 5240,
      "ĠÄłsladkÃĥ": 5241,
      "ĠÄłdvoji": 5242,
      "ĠÄłMinister": 5243,
      "ĠÄłVyso": 5244,
      "ĠÄłinfra": 5245,
      "ĠÄłindividuÃĥ": 5246,
      "ĠÄłletad": 5247,
      "ĠÄłvÃĦÄ½deckÃĥ": 5248,
      "ĠÄłreprezen": 5249,
      "ĠÄłzdravotnickÃĥ": 5250,
      "ĠÄłpedago": 5251,
      "ĠÄłpedagog": 5252,
      "tkodobÃĥ": 5253,
      "ĠÄłÃħÄ»idi": 5254,
      "ĠÄłzkrat": 5255,
      "ĠÄłhmot": 5256,
      "ĠÄłhezkÃĥ": 5257,
      "ĠÄłÃĥÂºplnÃĥ": 5258,
      "ĠÄłpÃħÄ»iblÃĥÅĥÃħ": 5259,
      "ĠÄłpÃħÄ»ÃĥÅĥspÃĦÄ½v": 5260,
      "ĠÄłintegrovanÃĥ": 5261,
      "ĠÄłJose": 5262,
      "ĠÄłnejoblÃĥÅĥb": 5263,
      "ĠÄłenergetickÃĥ": 5264,
      "ĠÄłmrtvÃĥ": 5265,
      "ĠÄłtrub": 5266,
      "ĠÄłuchovÃĥ": 5267,
      "ĠÄłuÃĦÄ¯eb": 5268,
      "ĠdesÃĥ": 5269,
      "ĠÄłhlinÃĥÅĥ": 5270,
      "ĠÄłmÃĦÄ½kkÃĥ": 5271,
      "***.": 5272,
      "ĠÄłhypotÃĥ": 5273,
      "ĠÄłpÃĥÅĥsemnÃĥ": 5274,
      "ĠÄłbudouc": 5275,
      "ĠÄłmedicÃĥÅĥ": 5276,
      "ĠÄłobyÃĦÄ¯ejnÃĥ": 5277,
      "ĠÄłnebezpeÃĦÄ¯nÃĥ": 5278,
      "ĠÄłitalskÃĥ": 5279,
      "ĠÄłseminÃĥ": 5280,
      "ĠÄłoficiÃĥ": 5281,
      "ĠÄłdynami": 5282,
      "ĠÄłnegati": 5283,
      "ĠÄłÃĦÄ¯ÃĥÅĥnskÃĥ": 5284,
      "ĠÄłÃĦÄ¯eskoslovenskÃĥ": 5285,
      "ĠÄłsekun": 5286,
      "ĠÄłStÃħÄ»edo": 5287,
      "ĠÄłzamÃĦÄ½stnava": 5288,
      "ĠÄłbritskÃĥ": 5289,
      "ĠÄłseriÃĥ": 5290,
      "ĠÄłzpravoda": 5291,
      "ĠÄłkariÃĥ": 5292,
      "ĠÄłkilomet": 5293,
      "ĠÄłsexuÃĥ": 5294,
      "ĠÄłjaponskÃĥ": 5295,
      "ĠÄłfotoaparÃĥ": 5296,
      "26": 5297,
      "56": 5298,
      "75": 5299,
      "DE": 5300,
      "EM": 5301,
      "ENÃĥÄ¯": 5302,
      "ECH": 5303,
      "LL": 5304,
      "NES": 5305,
      "OS": 5306,
      "PR": 5307,
      "PS": 5308,
      "RO": 5309,
      "UP": 5310,
      "VA": 5311,
      "ZP": 5312,
      "aÃĦÄ¯nÃĥÅĥ": 5313,
      "bli": 5314,
      "bar": 5315,
      "bec": 5316,
      "broj": 5317,
      "cy": 5318,
      "cena": 5319,
      "clav": 5320,
      "ceme": 5321,
      "cita": 5322,
      "din": 5323,
      "dor": 5324,
      "dÃħÄ»i": 5325,
      "dnu": 5326,
      "dÃĥÅĥm": 5327,
      "druÃħ": 5328,
      "eÃĦÄ¯er": 5329,
      "foli": 5330,
      "gin": 5331,
      "get": 5332,
      "his": 5333,
      "hly": 5334,
      "if": 5335,
      "iÃħÄ»": 5336,
      "irÃħ": 5337,
      "ilem": 5338,
      "icÃĥÅĥch": 5339,
      "ijeme": 5340,
      "iteÃĦÄ¯nÃĥ": 5341,
      "jnÃĦÄ½": 5342,
      "jak": 5343,
      "ker": 5344,
      "kna": 5345,
      "kÃħÄ»i": 5346,
      "kova": 5347,
      "ktem": 5348,
      "ml": 5349,
      "matu": 5350,
      "mnÃĦÄ½l": 5351,
      "mdesÃĥ": 5352,
      "nnÃĥÅĥ": 5353,
      "nor": 5354,
      "novat": 5355,
      "novÃĦÄ½jÃħ": 5356,
      "of": 5357,
      "ora": 5358,
      "ocÃĥÅĥ": 5359,
      "ota": 5360,
      "pÃħÄ»": 5361,
      "pnÃĥ": 5362,
      "pho": 5363,
      "pci": 5364,
      "pri": 5365,
      "plÃħÄª": 5366,
      "rh": 5367,
      "rskÃĥ": 5368,
      "rze": 5369,
      "sr": 5370,
      "sÃħ": 5371,
      "sal": 5372,
      "svÃĦÄ½": 5373,
      "skÃħ": 5374,
      "snÃĦÄ½jÃħ": 5375,
      "svÃĦÄ½t": 5376,
      "tce": 5377,
      "tkem": 5378,
      "tcÃĥÅĥch": 5379,
      "trat": 5380,
      "tinÃĦÄ½": 5381,
      "ue": 5382,
      "uz": 5383,
      "uni": 5384,
      "udy": 5385,
      "we": 5386,
      "ws": 5387,
      "wer": 5388,
      "ware": 5389,
      "xy": 5390,
      "yp": 5391,
      "zit": 5392,
      "zav": 5393,
      "zny": 5394,
      "zÃĥÅĥm": 5395,
      "zali": 5396,
      "zvy": 5397,
      "zoru": 5398,
      "zena": 5399,
      "{\"": 5400,
      "Ã§": 5401,
      "Ã¯": 5402,
      "Ä¢": 5403,
      "Ä±": 5404,
      "Ġ-": 5405,
      "Ġ/": 5406,
      "Ġ;": 5407,
      "ĠQ": 5408,
      "ĠX": 5409,
      "Ġq": 5410,
      "ĠÃħÄ": 5411,
      "Ġou": 5412,
      "Ġod": 5413,
      "Ġry": 5414,
      "Ġup": 5415,
      "Ġut": 5416,
      "Ġur": 5417,
      "Ġast": 5418,
      "Ġart": 5419,
      "ĠujÃĥÅĥcÃĥÅĥ": 5420,
      "ĠjiÃħ": 5421,
      "Ġ....": 5422,
      "ĠvÃĦÄ½tÃħ": 5423,
      "ĠÄłx": 5424,
      "ĠÄłer": 5425,
      "ĠÄłav": 5426,
      "ĠÄłran": 5427,
      "ĠÄłraz": 5428,
      "ĠÄłani": 5429,
      "ĠÄłruÃħ": 5430,
      "ÃĥÅĥrÃĥ": 5431,
      "ÃĥÅĥmu": 5432,
      "ÃĥÅĥvanÃĥ": 5433,
      "ĠÄłpil": 5434,
      "ĠÄłpet": 5435,
      "ĠÄłplÃĥÅĥ": 5436,
      "ĠÄłpas": 5437,
      "ĠÄłpist": 5438,
      "ĠÄłploÃħ": 5439,
      "ĠÄłpej": 5440,
      "ĠÄłpun": 5441,
      "ĠÄłpani": 5442,
      "ĠÄłpse": 5443,
      "ĠÄłpenÃĦÄ½": 5444,
      "ĠÄłpyÃħ": 5445,
      "ĠÄłpuj": 5446,
      "ĠÄłplech": 5447,
      "ĠÄłpiv": 5448,
      "stnÃĥÅĥ": 5449,
      "ster": 5450,
      "stali": 5451,
      "stran": 5452,
      "stvu": 5453,
      "stoj": 5454,
      "starÃħ": 5455,
      "ÃħÄ»ka": 5456,
      "ovar": 5457,
      "oved": 5458,
      "ovny": 5459,
      "chat": 5460,
      "chvat": 5461,
      "chari": 5462,
      "ÃĦÄ¯ujÃĥÅĥ": 5463,
      "ÃĦÄ¯eno": 5464,
      "ĠÄłval": 5465,
      "ĠÄłvej": 5466,
      "ĠÄłvnÃĦÄ½jÃħ": 5467,
      "ĠÄłvklÃĥ": 5468,
      "ĠÄłvstÃħÄ»e": 5469,
      "ĠÄłvÃĦÄ¯er": 5470,
      "ĠÄłvteÃħÄ»": 5471,
      "rali": 5472,
      "ravÃĦÄ½": 5473,
      "razenÃĥÅĥ": 5474,
      "ĠÄłsi": 5475,
      "ĠÄłsnÃĥ": 5476,
      "ĠÄłsrÃĥ": 5477,
      "ĠÄłsor": 5478,
      "ĠÄłsenÃĥ": 5479,
      "ĠÄłschÃĥ": 5480,
      "ĠÄłsej": 5481,
      "ĠÄłsjed": 5482,
      "ĠÄłsmÃĦÄ½r": 5483,
      "ĠÄłsrd": 5484,
      "ĠÄłsrovnÃĥ": 5485,
      "ĠÄłsniÃħ": 5486,
      "ĠÄłzu": 5487,
      "ĠÄłzla": 5488,
      "ĠÄłzlÃĥ": 5489,
      "ĠÄłzje": 5490,
      "ĠÄłzis": 5491,
      "ĠÄłzkou": 5492,
      "ĠÄłzda": 5493,
      "ĠÄłzkon": 5494,
      "ĠÄłzbÃĥ": 5495,
      "ĠÄłzjed": 5496,
      "ĠÄłzkla": 5497,
      "ĠÄłzbav": 5498,
      "ĠÄłzvÃĦÄ½tÃħ": 5499,
      "ĠÄłzare": 5500,
      "ĠÄłzouf": 5501,
      "ĠÄłzdejÃħ": 5502,
      "roni": 5503,
      "roÃĦÄ¯nÃĥÅĥ": 5504,
      "roÃĦÄ¯nÃĦÄ½": 5505,
      "ross": 5506,
      "leg": 5507,
      "leji": 5508,
      "letÃĥÅĥ": 5509,
      "lety": 5510,
      "leÃĦÄ¯nÃĥ": 5511,
      "lerg": 5512,
      "ĠÄłny": 5513,
      "ĠÄłnou": 5514,
      "ĠÄłnit": 5515,
      "ĠÄłnud": 5516,
      "ĠÄłnato": 5517,
      "ĠÄłnatÃĥ": 5518,
      "ĠÄłniÃħ": 5519,
      "lavnÃĥÅĥ": 5520,
      "tev": 5521,
      "tex": 5522,
      "ount": 5523,
      "lii": 5524,
      "lila": 5525,
      "lickÃĥ": 5526,
      "liny": 5527,
      "livost": 5528,
      "ĠÄłklo": 5529,
      "ĠÄłkde": 5530,
      "ĠÄłkdo": 5531,
      "enku": 5532,
      "entu": 5533,
      "ensko": 5534,
      "ĠÄłon": 5535,
      "ĠÄłoÃħÄ»e": 5536,
      "ĠÄłoku": 5537,
      "ĠÄłosa": 5538,
      "ĠÄłoÃĦÄ¯i": 5539,
      "ĠÄłocho": 5540,
      "ĠÄłonem": 5541,
      "ĠÄłocit": 5542,
      "ĠÄłopozi": 5543,
      "ĠÄłdr": 5544,
      "ĠÄłdva": 5545,
      "ĠÄłdub": 5546,
      "ĠÄłdluÃħ": 5547,
      "ĠÄłdraÃħ": 5548,
      "ĠÄłdouf": 5549,
      "ĠÄłpob": 5550,
      "ĠÄłpom": 5551,
      "ĠÄłporo": 5552,
      "ĠÄłporÃĥ": 5553,
      "ĠÄłponÃĦÄ½": 5554,
      "ĠÄłpoky": 5555,
      "ĠÄłpome": 5556,
      "ĠÄłpolÃĥÅĥ": 5557,
      "ĠÄłpomÃĦÄ½": 5558,
      "ĠÄłpokrÃĥ": 5559,
      "ĠÄłporost": 5560,
      "ĠÄłposto": 5561,
      "ĠÄłpoÃĦÄ¯et": 5562,
      "ĠÄłporod": 5563,
      "ĠÄłpokouÃħ": 5564,
      "ĠÄłpohov": 5565,
      "ÃħÄ»ek": 5566,
      "ini": 5567,
      "inek": 5568,
      "ĠÄłmen": 5569,
      "ĠÄłmim": 5570,
      "ĠÄłmrk": 5571,
      "ĠÄłmysle": 5572,
      "emickÃĥ": 5573,
      "ement": 5574,
      "atÃħ": 5575,
      "atur": 5576,
      "cet": 5577,
      "cete": 5578,
      "celÃĥ": 5579,
      "ĠÄłneh": 5580,
      "ĠÄłneo": 5581,
      "ĠÄłnesti": 5582,
      "ĠÄłnerov": 5583,
      "ĠÄłnehod": 5584,
      "ĠÄłnebo": 5585,
      "ĠÄłnevÃħ": 5586,
      "itut": 5587,
      "load": 5588,
      "lori": 5589,
      "lohu": 5590,
      "ornÃĥÅĥ": 5591,
      "ankovnÃĥÅĥ": 5592,
      "jek": 5593,
      "kam": 5594,
      "kar": 5595,
      "kace": 5596,
      "ĠÄłtkÃĥ": 5597,
      "ĠÄłtat": 5598,
      "ĠÄłtit": 5599,
      "ĠÄłtop": 5600,
      "ĠÄłtoto": 5601,
      "ĠÄłtane": 5602,
      "ĠÄłtlouÃħ": 5603,
      "ĠÄłtalÃĥÅĥ": 5604,
      "ers": 5605,
      "ernÃĥ": 5606,
      "erto": 5607,
      "kuji": 5608,
      "ĠÄłbe": 5609,
      "ĠÄłbro": 5610,
      "ĠÄłbla": 5611,
      "ĠÄłbat": 5612,
      "ĠÄłbor": 5613,
      "ĠÄłblu": 5614,
      "ĠÄłbel": 5615,
      "ĠÄłbun": 5616,
      "ĠÄłboÃħ": 5617,
      "ĠÄłbene": 5618,
      "ĠÄłbram": 5619,
      "ĠÄłbrnÃĦÄ½": 5620,
      "ĠÄłblÃĥÅĥÃħ": 5621,
      "ĠÄłblon": 5622,
      "ĠÄłbÃĥÅĥl": 5623,
      "ĠÄłvyme": 5624,
      "ĠÄłvymÃĦÄ½": 5625,
      "ĠÄłvyda": 5626,
      "ĠÄłvyvÃĥÅĥ": 5627,
      "ĠÄłvysa": 5628,
      "ĠÄłvyrost": 5629,
      "ĠÄłvydrÃħ": 5630,
      "ĠÄłvyÃĦÄ¯er": 5631,
      "ĠÄłvyhodno": 5632,
      "ĠÄłvyÃħÄ»eÃħ": 5633,
      "ĠÄłvyrovna": 5634,
      "ĠÄłvykonÃĥ": 5635,
      "ĠÄłuj": 5636,
      "ĠÄłul": 5637,
      "ĠÄłupe": 5638,
      "ĠÄłuhra": 5639,
      "ĠÄłumy": 5640,
      "ĠÄłuznÃĥ": 5641,
      "ĠÄłutr": 5642,
      "ĠÄłudÃĦÄ½lÃĥ": 5643,
      "ĠÄłurych": 5644,
      "ĠÄłunikÃĥ": 5645,
      "ĠÄłPP": 5646,
      "ĠÄłPi": 5647,
      "ĠÄłPov": 5648,
      "ĠÄłPat": 5649,
      "ĠÄłPam": 5650,
      "ĠÄłPol": 5651,
      "ĠÄłPost": 5652,
      "ĠÄłPÃħÄº": 5653,
      "ĠÄłPubli": 5654,
      "ĠÄłProstÃĦÄ½": 5655,
      "ÃħÄ»ÃĥÅĥv": 5656,
      "ÃħÄ»ÃĥÅĥch": 5657,
      "ÃħÄ»ÃĥÅĥcÃĥÅĥ": 5658,
      "ret": 5659,
      "ream": 5660,
      "ĠÄłzada": 5661,
      "ĠÄłzaklÃĥ": 5662,
      "ĠÄłzasÃĥÅĥ": 5663,
      "ĠÄłzaÃħÄ»ad": 5664,
      "ĠÄłzaved": 5665,
      "ĠÄłzajÃĥÅĥm": 5666,
      "ĠÄłzavede": 5667,
      "ĠÄłSA": 5668,
      "ĠÄłSM": 5669,
      "ĠÄłST": 5670,
      "ĠÄłSa": 5671,
      "ĠÄłSh": 5672,
      "ĠÄłSu": 5673,
      "ĠÄłSle": 5674,
      "ĠÄłSlu": 5675,
      "ĠÄłStej": 5676,
      "ĠÄłSmlou": 5677,
      "noÃĦÄ¯nÃĥÅĥ": 5678,
      "nocenÃĥÅĥ": 5679,
      "nii": 5680,
      "ticky": 5681,
      "tiletÃĥ": 5682,
      "pomÃĥÅĥ": 5683,
      "nanÃĥ": 5684,
      "ĠÄłstez": 5685,
      "ĠÄłstol": 5686,
      "ĠÄłstart": 5687,
      "ĠÄłstoj": 5688,
      "ĠÄłstatu": 5689,
      "ĠÄłstisk": 5690,
      "Ġdu": 5691,
      "Ġdel": 5692,
      "ĠdlovÃĥ": 5693,
      "lus": 5694,
      "ĠÄłhe": 5695,
      "ĠÄłhÃħ": 5696,
      "ĠÄłhnÃĥÅĥ": 5697,
      "ĠÄłhav": 5698,
      "ĠÄłhes": 5699,
      "ĠÄłhej": 5700,
      "ĠÄłhled": 5701,
      "ĠÄłhmo": 5702,
      "ĠÄłhovo": 5703,
      "kop": 5704,
      "kosti": 5705,
      "komu": 5706,
      "kozenÃĥ": 5707,
      "adÃĦÄ½": 5708,
      "ĠÄłproh": 5709,
      "ĠÄłprop": 5710,
      "ĠÄłprode": 5711,
      "ĠÄłprotÃĥ": 5712,
      "ĠÄłpromÃĥÅĥ": 5713,
      "ĠÄłprosa": 5714,
      "ĠÄłprobÃĦÄ½": 5715,
      "ĠÄłprohrÃĥ": 5716,
      "ĠÄłpropoj": 5717,
      "ĠÄłprogram": 5718,
      "Ġpi": 5719,
      "Ġpu": 5720,
      "ĠpÃĦÄ½": 5721,
      "Ġpre": 5722,
      "Ġpus": 5723,
      "ĠpsÃĥ": 5724,
      "ĠÄłdot": 5725,
      "ĠÄłdohod": 5726,
      "ĠÄłdoÃĦÄ¯ka": 5727,
      "ĠÄłMA": 5728,
      "ĠÄłMÃĥÅĥ": 5729,
      "ĠÄłMlÃĥ": 5730,
      "ĠÄłMan": 5731,
      "ĠÄłMni": 5732,
      "ĠÄłMed": 5733,
      "ĠÄłMast": 5734,
      "ĠÄłMart": 5735,
      "ĠmÃħ": 5736,
      "ĠmnÃĦÄ½": 5737,
      "Ġmed": 5738,
      "Ġmot": 5739,
      "ĠmoÃħ": 5740,
      "ĠmÃĥÅĥn": 5741,
      "ĠmentÃĥ": 5742,
      "Ġmenta": 5743,
      "ĠÄłpÃħÄ»eh": 5744,
      "ĠÄłpÃħÄ»estÃĥ": 5745,
      "ĠÄłpÃħÄ»evod": 5746,
      "ĠÄłpÃħÄ»eruÃħ": 5747,
      "ĠÄłpÃħÄ»estÃĦÄ½": 5748,
      "ĠÄłpÃħÄ»ehled": 5749,
      "ĠÄłpÃħÄ»esnÃĥ": 5750,
      "ĠÄłpÃħÄ»ehlÃĥÅĥ": 5751,
      "ill": 5752,
      "etÃħÄ»": 5753,
      "etÃħÄ»enÃĥÅĥ": 5754,
      "ĠÄłoble": 5755,
      "ĠÄłoblÃĥ": 5756,
      "ĠÄłobdi": 5757,
      "ĠÄłoblou": 5758,
      "ĠÄłoboh": 5759,
      "ĠÄłobsad": 5760,
      "ĠÄłobklo": 5761,
      "deÃħÄª": 5762,
      "ĠÄłVar": 5763,
      "ĠÄłnalÃĥ": 5764,
      "ĠÄłnazna": 5765,
      "ĠÄłnahlÃĥ": 5766,
      "ĠÄłnaklÃĥ": 5767,
      "ĠÄłnarozen": 5768,
      "ĠsÃħ": 5769,
      "Ġsam": 5770,
      "Ġslov": 5771,
      "Ġsled": 5772,
      "ĠskovÃĥ": 5773,
      "Ġsud": 5774,
      "Ġssi": 5775,
      "vÃĦÄ½jÃħ": 5776,
      "ĠÄłKÃĥ": 5777,
      "ĠÄłKla": 5778,
      "ĠÄłKlÃĥ": 5779,
      "ĠÄłKan": 5780,
      "ĠÄłKlad": 5781,
      "ĠÄłKali": 5782,
      "ĠÄłKost": 5783,
      "ĠÄłKromÃĦÄ½": 5784,
      "ript": 5785,
      "ĠÄłfo": 5786,
      "ĠÄłfra": 5787,
      "ĠÄłfen": 5788,
      "ĠÄłfas": 5789,
      "ĠÄłface": 5790,
      "ĠÄłfasÃĥ": 5791,
      "ĠÄłrobo": 5792,
      "ĠÄłrostou": 5793,
      "ĠÄłÃĦÄ¯o": 5794,
      "ĠÄłÃĦÄ¯ast": 5795,
      "ĠÄłÃĦÄ¯eli": 5796,
      "ĠÄłÃĦÄ¯lovÃĦÄ½": 5797,
      "ĠÄłag": 5798,
      "ĠÄłamin": 5799,
      "ĠÄłaspe": 5800,
      "ĠÄłagre": 5801,
      "isÃĥÅĥ": 5802,
      "iskup": 5803,
      "ĠÄłNy": 5804,
      "ĠÄłNan": 5805,
      "ĠÄłNed": 5806,
      "ĠÄłNez": 5807,
      "ĠÄłNic": 5808,
      "ĠÄłNAT": 5809,
      "lÃĥÅĥnÃĦÄ½": 5810,
      "minÃĥ": 5811,
      "ĠÄłDÃĥÅĥ": 5812,
      "ĠÄłDra": 5813,
      "ĠÄłDvo": 5814,
      "ĠÄłDodÃĥ": 5815,
      "ĠÄłDalÃħ": 5816,
      "ĠÄłDruhÃĥ": 5817,
      "ĠÄłBÃĦÄ½": 5818,
      "ĠÄłBla": 5819,
      "ĠÄłBÃħÄ»e": 5820,
      "ĠÄłBlu": 5821,
      "ĠÄłBel": 5822,
      "ĠÄłBez": 5823,
      "ĠÄłBran": 5824,
      "ĠÄłBole": 5825,
      "ĠÄłBene": 5826,
      "ĠÄłBÃĥÅĥlÃĥ": 5827,
      "vosti": 5828,
      "votnÃĥÅĥ": 5829,
      "tÃĦÄ½l": 5830,
      "tÃĦÄ½t": 5831,
      "tÃĦÄ½ÃħÄª": 5832,
      "zela": 5833,
      "zelo": 5834,
      "ĠÄłodrÃħ": 5835,
      "ĠÄłodsou": 5836,
      "ĠÄłodolnÃĥ": 5837,
      "turu": 5838,
      "ovacÃĥÅĥch": 5839,
      "ĠÄłÃĥÂºc": 5840,
      "ĠÄłÃĥÂºt": 5841,
      "ĠÄłÃĥÂºna": 5842,
      "ĠÄłÃĥÂºtu": 5843,
      "ĠÄłÃĥÂºkon": 5844,
      "ĠÄłÃĥÂºloÃħ": 5845,
      "ĠÄłÃĥÂºse": 5846,
      "ĠÄłÃĥÂºzkÃĥ": 5847,
      "ĠÃĹ": 5848,
      "mÃĦÄ½na": 5849,
      "mÃĦÄ½jÃħ": 5850,
      "ĠbÃĦÄ½Ãħ": 5851,
      "Ġboh": 5852,
      "elky": 5853,
      "nec": 5854,
      "nese": 5855,
      "Ġke": 5856,
      "Ġkr": 5857,
      "ĠkÃħ": 5858,
      "Ġkra": 5859,
      "Ġkovi": 5860,
      "jich": 5861,
      "Ġzi": 5862,
      "ĠzanÃĥ": 5863,
      "ĠÄłAB": 5864,
      "ĠÄłAu": 5865,
      "ĠÄłAna": 5866,
      "ĠÄłAda": 5867,
      "Ġvel": 5868,
      "ĠvkovÃĥ": 5869,
      "ĠÄłTro": 5870,
      "ĠÄłTru": 5871,
      "ĠÄłTur": 5872,
      "ĠÄłTomÃĥ": 5873,
      "ĠÄłrej": 5874,
      "ĠÄłres": 5875,
      "ĠÄłreak": 5876,
      "ĠÄłrevi": 5877,
      "ĠÄłreha": 5878,
      "ĠÄłrecen": 5879,
      "ĠÄłrevolu": 5880,
      "ĠÄłrekonstru": 5881,
      "ĠÄłpÃħÄ»ivÃĥÅĥ": 5882,
      "ĠÄłpÃħÄ»ichÃĥ": 5883,
      "ĠÄłpÃħÄ»istÃĥ": 5884,
      "ĠÄłpÃħÄ»irozen": 5885,
      "peÃħ": 5886,
      "penÃĥ": 5887,
      "peten": 5888,
      "asnÃĦÄ½": 5889,
      "ĠhlÃĥÅĥÃħ": 5890,
      "ĠhledÃĥ": 5891,
      "ĠÄłZna": 5892,
      "ĠÄłZvlÃĥ": 5893,
      "dÃĦÄ½te": 5894,
      "tokrÃĥ": 5895,
      "ĠÄłRA": 5896,
      "ĠÄłRod": 5897,
      "ĠÄłRes": 5898,
      "ĠÄłRich": 5899,
      "ĠÄłpÃħÄ»ÃĥÅĥj": 5900,
      "ĠÄłpÃħÄ»ÃĥÅĥro": 5901,
      "ĠÄłpÃħÄ»ÃĥÅĥzna": 5902,
      "ĠÄłeu": 5903,
      "ĠÄłela": 5904,
      "ĠÄłevan": 5905,
      "ĠÄłegypt": 5906,
      "ĠÄłcha": 5907,
      "ĠÄłchar": 5908,
      "ĠÄłchlu": 5909,
      "ĠÄłchole": 5910,
      "ĠÄłchvil": 5911,
      "ĠÄłchemickÃĥ": 5912,
      "dilo": 5913,
      "ditelnÃĥ": 5914,
      "ĠÄłCho": 5915,
      "ĠÄłCest": 5916,
      "ĠÄłOS": 5917,
      "ĠÄłOh": 5918,
      "ĠÄłOst": 5919,
      "ĠÄłOri": 5920,
      "ĠÄłOtÃĥ": 5921,
      "ĠÄłOpe": 5922,
      "ĠÄłOrg": 5923,
      "ĠÄłrozt": 5924,
      "ĠÄłrozhled": 5925,
      "ĠÄłrozman": 5926,
      "ĠÄłrozdÃĦÄ½le": 5927,
      "ĠÄłrozhodu": 5928,
      "ĠÄłHu": 5929,
      "ĠÄłHit": 5930,
      "ĠÄłHrÃĥ": 5931,
      "ĠÄłHan": 5932,
      "ĠÄłHol": 5933,
      "ĠÄłHost": 5934,
      "ĠÄłHledÃĥ": 5935,
      "ĠÄłinde": 5936,
      "ĠÄłinstru": 5937,
      "ĠÄłinfek": 5938,
      "ĠÄłintera": 5939,
      "ĠÄłinstala": 5940,
      "ĠÄłJÃĥ": 5941,
      "ĠÄłJan": 5942,
      "ĠÄłJar": 5943,
      "ĠÄłJeru": 5944,
      "esky": 5945,
      "ĠÄłteore": 5946,
      "rovÃĥÅĥ": 5947,
      "rovnat": 5948,
      "roveÃħÄª": 5949,
      "ĠÃĦÄ¯ast": 5950,
      "ÃħÄªovat": 5951,
      "ĠÄłLa": 5952,
      "ĠÄłLo": 5953,
      "ĠÄłLÃĥÅĥ": 5954,
      "ĠÄłList": 5955,
      "hodnÃĦÄ½jÃħ": 5956,
      "ĠÄłpodnÃĦÄ½": 5957,
      "ĠÄłpodÃĥÅĥvÃĥ": 5958,
      "ĠÄłpodzem": 5959,
      "ĠÄłpodpor": 5960,
      "ĠÄłkondi": 5961,
      "ĠÄłkonek": 5962,
      "ĠÄłkonver": 5963,
      "ĠÄłkonstat": 5964,
      "ĠÄłkontej": 5965,
      "ĠÄłkonferen": 5966,
      "ĠÄłkoÃħÄ»": 5967,
      "ĠÄłkola": 5968,
      "ĠÄłkolÃĥ": 5969,
      "ĠÄłkoali": 5970,
      "ĠÄłkoÃĦÄ¯i": 5971,
      "ĠÄłkopÃĥÅĥ": 5972,
      "ĠÄłkoÃĦÄ¯Ãĥ": 5973,
      "ĠPr": 5974,
      "ĠPÃĥ": 5975,
      "ĠPÃħ": 5976,
      "ĠPrÃĥ": 5977,
      "ĠPot": 5978,
      "ĠPoz": 5979,
      "ĠPÃħÄ»ed": 5980,
      "istrÃĥ": 5981,
      "maz": 5982,
      "maÃħ": 5983,
      "maci": 5984,
      "vilo": 5985,
      "ĠÄłjad": 5986,
      "ĠÄłjog": 5987,
      "ĠÄłjasnÃĥ": 5988,
      "ĠÄłlevnÃĥ": 5989,
      "ĠÄłspa": 5990,
      "ĠÄłspl": 5991,
      "ĠÄłspÃĥÅĥ": 5992,
      "ĠÄłspat": 5993,
      "ĠÄłspor": 5994,
      "ĠÄłsplat": 5995,
      "ĠÄłspouÃħ": 5996,
      "mÃĥÅĥr": 5997,
      "mÃĥÅĥne": 5998,
      "ĠÄłjeze": 5999,
      "ĠÄłjesky": 6000,
      "ĠcÃĥ": 6001,
      "Ġcem": 6002,
      "Ġff": 6003,
      "ĠfÃĥ": 6004,
      "Ġfil": 6005,
      "Ġfek": 6006,
      "ĠÄłnejd": 6007,
      "ĠÄłnejh": 6008,
      "ĠÄłnejrÃħ": 6009,
      "ĠÄłnejza": 6010,
      "ĠÄłnejkrÃĥ": 6011,
      "ĠÄłnejznÃĥ": 6012,
      "ĠÄłnejÃĦÄ¯ast": 6013,
      "ĠÄłnejvÃĦÄ½tÃħ": 6014,
      "ĠÄłnejvyÃħ": 6015,
      "ĠÄłnejbliÃħ": 6016,
      "entovat": 6017,
      "ĠÄłFin": 6018,
      "ĠÄłFrÃĥ": 6019,
      "ĠÄłFer": 6020,
      "ĠÄłFili": 6021,
      "stavby": 6022,
      "byste": 6023,
      "ĠÄłkanÃĥ": 6024,
      "ĠÄłhoro": 6025,
      "ĠÄłhoke": 6026,
      "ĠÄłhotovÃĥ": 6027,
      "spÃĥÅĥÃħ": 6028,
      "bur": 6029,
      "olven": 6030,
      "ĠÄłglu": 6031,
      "ĠÄłgram": 6032,
      "ĠÄłgale": 6033,
      "ĠÄłgarÃĥ": 6034,
      "lovskÃĥ": 6035,
      "ĠÄłvzrost": 6036,
      "ĠÄłvznika": 6037,
      "oporuÃĦÄ¯": 6038,
      "ĠÄłpÃħÄ»edvÃĥ": 6039,
      "ĠÄłpÃħÄ»edchÃĥ": 6040,
      "Ġga": 6041,
      "ĠgÃĥ": 6042,
      "ĠÄłspoÃĦÄ¯ÃĥÅĥ": 6043,
      "ĠÄłspoluÃħ": 6044,
      "ĠÄłspojenÃĥ": 6045,
      "ĠÄłcÃĥ": 6046,
      "ÃĦÄ¯ÃĥÅĥtÃĥ": 6047,
      "ĠtnÃĥ": 6048,
      "Ġtla": 6049,
      "ĠtovÃĥ": 6050,
      "ĠÄłsoustav": 6051,
      "ĠÄłsoubor": 6052,
      "zaÃĦÄ¯nÃĥÅĥ": 6053,
      "ĠÄłEn": 6054,
      "ĠÄłEvrop": 6055,
      "ĠÄłEvro": 6056,
      "ĠST": 6057,
      "ĠStÃĥ": 6058,
      "ĠSam": 6059,
      "ejme": 6060,
      "echny": 6061,
      "ĠNI": 6062,
      "ĠNem": 6063,
      "ĠNaÃħ": 6064,
      "ĠÄłvÃĦÄ½t": 6065,
      "ĠÄłvÃĦÄ½z": 6066,
      "ĠÄłvÃĦÄ½Ãħ": 6067,
      "ĠÄłkomfor": 6068,
      "ĠÄłkompeten": 6069,
      "menty": 6070,
      "menout": 6071,
      "ĠÄłposla": 6072,
      "ĠÄłposil": 6073,
      "ĠÄłmajet": 6074,
      "ĠÄłmateÃħÄ»skÃĥ": 6075,
      "book": 6076,
      "ktnÃĥÅĥ": 6077,
      "ĠÄłlin": 6078,
      "ovÃĦÄ½zÃĥÅĥ": 6079,
      "moti": 6080,
      "sala": 6081,
      "ĠÄłIs": 6082,
      "ĠÄłIzra": 6083,
      "ĠMÃħ": 6084,
      "ĠMez": 6085,
      "ozem": 6086,
      "padu": 6087,
      "padÃĦÄ½": 6088,
      "bÃĦÄ½r": 6089,
      "ĠDo": 6090,
      "ĠDÃħ": 6091,
      "ĠDruhÃĥ": 6092,
      "ĠÄłGa": 6093,
      "ĠÄłGu": 6094,
      "ĠÄłGy": 6095,
      "ĠÄłGab": 6096,
      "Ġteli": 6097,
      "Ġteri": 6098,
      "ĠÄłÃĦÄ®Ãĥ": 6099,
      "ĠÄłÃĦÄ®ech": 6100,
      "ĠÄłnepÃħ": 6101,
      "ĠÄłnepod": 6102,
      "ĠÄłnepouÃħ": 6103,
      "dÃĥÅĥte": 6104,
      "unkÃĦÄ¯nÃĥÅĥ": 6105,
      "Ġlin": 6106,
      "ĠliÃħ": 6107,
      "ĠÄłsklo": 6108,
      "sobilo": 6109,
      "ohled": 6110,
      "ĠTen": 6111,
      "ÃħÄ»ednÃĥÅĥ": 6112,
      "imnÃĥÅĥ": 6113,
      "ĠÄłUniverz": 6114,
      "ÃĦÄ¯ilo": 6115,
      "ĠÄłparÃĥ": 6116,
      "ĠÄłpalÃĥ": 6117,
      "ĠÄłpapr": 6118,
      "znal": 6119,
      "vrh": 6120,
      "ĠÄłvele": 6121,
      "ĠÄłveÃĦÄ¯e": 6122,
      "ĠÄłveÃĦÄ¯ÃĥÅĥ": 6123,
      "robce": 6124,
      "ĠON": 6125,
      "Ġovan": 6126,
      "ĠÄłdest": 6127,
      "ĠÄłdepre": 6128,
      "ĠÄłdivi": 6129,
      "ĠÄłdivokÃĥ": 6130,
      "ĠKa": 6131,
      "ĠKon": 6132,
      "ĠKar": 6133,
      "ĠKdy": 6134,
      "astnÃĥ": 6135,
      "ĠÄłsebe": 6136,
      "zÃĥÅĥn": 6137,
      "Ġrozu": 6138,
      "ĠrozenÃĥ": 6139,
      "ĠAm": 6140,
      "lnÃĦÄ½nÃĥ": 6141,
      "ĠÄłPolÃĥ": 6142,
      "inami": 6143,
      "ĠÄłnemlu": 6144,
      "ĠÄłÃħÅĤÃĥ": 6145,
      "ĠÄłÃħÅĤpanÃĦÄ½l": 6146,
      "ĠÄłprv": 6147,
      "ĠÄłprst": 6148,
      "ĠÄłextrÃĥ": 6149,
      "ĠÄłexklu": 6150,
      "ĠIT": 6151,
      "ĠICK": 6152,
      "ĠÄłident": 6153,
      "ĠÄłjakou": 6154,
      "ĠEx": 6155,
      "ĠEle": 6156,
      "ĠranÃĥ": 6157,
      "Ġrazi": 6158,
      "dosti": 6159,
      "ĠpoÃĦÄ¯": 6160,
      "Ġpome": 6161,
      "Ġpozi": 6162,
      "Ġing": 6163,
      "ĠinskÃĥ": 6164,
      "ĠÄłÃħÄ»etÃĦÄ½": 6165,
      "ĠÄłÃħÄ»editel": 6166,
      "ĠÄłÃħÄ»emes": 6167,
      "ĠÄłnÃĦÄ½m": 6168,
      "ĠÄłdÃĦÄ½j": 6169,
      "ĠÄłdÃĦÄ½v": 6170,
      "ĠÄłmÃĦÄ½ste": 6171,
      "ĠÄłdopl": 6172,
      "ĠÄłVÃĥÄ": 6173,
      "ĠÄłpoved": 6174,
      "ĠÄłpozvÃĥ": 6175,
      "ĠÄłpozdÃĦÄ½": 6176,
      "ĠCH": 6177,
      "ilan": 6178,
      "Ġologi": 6179,
      "ovaly": 6180,
      "ebe": 6181,
      "ebÃħÄ»ÃĥÅĥ": 6182,
      "pÃĥÅĥnÃĥ": 6183,
      "ĠÄłStrÃĥ": 6184,
      "ĠÄłStan": 6185,
      "ĠÄłStav": 6186,
      "ress": 6187,
      "form": 6188,
      "formace": 6189,
      "ign": 6190,
      "ĠJa": 6191,
      "sÃĥÅĥme": 6192,
      "age": 6193,
      "kladatel": 6194,
      "ĠenskÃĥ": 6195,
      "ĠÄłlavi": 6196,
      "ĠÄłlanov": 6197,
      "ĠÄłzdob": 6198,
      "ĠÄłzdrav": 6199,
      "ĠÃħÄªÃĥ": 6200,
      "ĠÃħÄªskÃĥ": 6201,
      "ĠÄłvir": 6202,
      "ĠÄłvizu": 6203,
      "ĠÄłvibra": 6204,
      "rosto": 6205,
      "ÃħÄ»ejmÃĦÄ½": 6206,
      "ĠÄłmÃĥÅĥrnÃĥ": 6207,
      "elez": 6208,
      "kraÃĦÄ¯": 6209,
      "ĠÄłvyprac": 6210,
      "ĠÄłvyslov": 6211,
      "ĠÄłvysoko": 6212,
      "ĠÄłÃĦÄ¯erv": 6213,
      "sledkÃħ": 6214,
      "sledkem": 6215,
      "kolik": 6216,
      "ĠÄłÃĥÂºÃĦÄ¯et": 6217,
      "ĠÄłÃĥÂºÃĦÄ¯innÃĥ": 6218,
      "ĠÄłvÃĥÅĥce": 6219,
      "ĠÄłvÃĥÅĥtÃĦÄ½z": 6220,
      "ĠÄłnesmÃĥÅĥ": 6221,
      "ĠÄłryt": 6222,
      "ĠÄłpoptÃĥ": 6223,
      "ĠÄłpopsÃĥ": 6224,
      "adatel": 6225,
      "ĠÄłnapÃĥ": 6226,
      "ĠlatÃĥ": 6227,
      "ĠÄłnavig": 6228,
      "ĠÄłNevÃĥ": 6229,
      "dennÃĥÅĥ": 6230,
      "ĠÄłare": 6231,
      "ĠÄłklimati": 6232,
      "ivoto": 6233,
      "ĠÄłtÃĦÄ½ho": 6234,
      "ĠÄłtÃĦÄ½lo": 6235,
      "ĠÄłtÃĦÄ½les": 6236,
      "ĠÄłelegan": 6237,
      "ĠÄłChar": 6238,
      "ĠÄłChru": 6239,
      "ĠÄłÃĥÄ¼ste": 6240,
      "ĠÄłjiho": 6241,
      "ĠÄłjisto": 6242,
      "ĠÄłbyd": 6243,
      "ĠÄłbyto": 6244,
      "ĠÄłbytovÃĥ": 6245,
      "ĠÄłInve": 6246,
      "ĠÄłInsta": 6247,
      "ĠÄłInternet": 6248,
      "esto": 6249,
      "ĠÄłprefer": 6250,
      "ĠÄłhrani": 6251,
      "vence": 6252,
      "ĠUÃħ": 6253,
      "ĠÄłkrit": 6254,
      "ĠÄłkrmi": 6255,
      "ĠÄłzamÃĦÄ½ÃħÄ»": 6256,
      "ĠÄłzamÃĦÄ½ÃħÄ»enÃĥ": 6257,
      "ĠFran": 6258,
      "ĠÄłkuf": 6259,
      "ĠÄłkuli": 6260,
      "ĠÄłloÃħÄªskÃĥ": 6261,
      "ĠÄłProf": 6262,
      "ĠÄłProdÃĥ": 6263,
      "alob": 6264,
      "ĠÄłmanag": 6265,
      "ĠÄłtuzem": 6266,
      "****": 6267,
      "*****.": 6268,
      "pÃĦÄ½t": 6269,
      "pisem": 6270,
      "skoslez": 6271,
      "ĠdiÃħ": 6272,
      "ĠÄłelektrÃĥ": 6273,
      "ĠatickÃĥ": 6274,
      "ĠrickÃĥ": 6275,
      "Ġovatel": 6276,
      "ĠovatelnÃĥ": 6277,
      "ĠÄłparfÃĥ": 6278,
      "ĠÄłminerÃĥ": 6279,
      "ĠÄłovli": 6280,
      "ĠÄłkampa": 6281,
      "ĠÄłVyÃħ": 6282,
      "mÃĦÄ½rnÃĦÄ½": 6283,
      "ĠÄłchystÃĥ": 6284,
      "ĠÄłkompon": 6285,
      "ĠÄłkomplet": 6286,
      "ĠÄłjednozna": 6287,
      "Ġkom": 6288,
      "ĠÄłcibu": 6289,
      "ĠÄłcivili": 6290,
      "ĠÄłMaÃĦÄ±ar": 6291,
      "ĠÄłJava": 6292,
      "ĠonovÃĥ": 6293,
      "ĠÄłodes": 6294,
      "ĠÄłodev": 6295,
      "ĠÄłodeÃħ": 6296,
      "ĠÄłPodÃĦÄ½": 6297,
      "ĠÄłPodrob": 6298,
      "ĠÄłrepor": 6299,
      "ĠÄłRep": 6300,
      "sledek": 6301,
      "ĠÄładvokÃĥ": 6302,
      "ĠÄłdese": 6303,
      "ĠÄłdeset": 6304,
      "ĠÄłpolice": 6305,
      "itivnÃĥÅĥ": 6306,
      "ĠÄłstÃħÄ»eÃħ": 6307,
      "ĠÄłMich": 6308,
      "ĠÄłnabÃĥÅĥje": 6309,
      "ĠÄłNapo": 6310,
      "ĠÄłJinÃĥ": 6311,
      "ĠÄłJihla": 6312,
      "ĠÄłpracoviÃħ": 6313,
      "ĠÄłpÃħÄ»edstavi": 6314,
      "rodnÃĥÅĥho": 6315,
      "ĠÄłochot": 6316,
      "ĠÄłbateri": 6317,
      "ĠÄłAngli": 6318,
      "bytovÃĥ": 6319,
      "ĠÄłsmr": 6320,
      "ĠÄłsmet": 6321,
      "ĠÄłkolekti": 6322,
      "ĠÄłÃħÄºec": 6323,
      "ĠÄłohrom": 6324,
      "ĠÄłprojev": 6325,
      "ĠÄłregene": 6326,
      "ĠÄłzemÃħÄ»e": 6327,
      "ĠÄłambu": 6328,
      "ĠÄłamatÃĥ": 6329,
      "ĠÄłpÃħÄ»ipoj": 6330,
      "ĠÄłpÃħÄ»ipravenÃĥ": 6331,
      "ĠÄłJedinÃĥ": 6332,
      "ĠÄłLiber": 6333,
      "ivatelskÃĥ": 6334,
      "Ġkul": 6335,
      "bio": 6336,
      "ĠÄłprivÃĥ": 6337,
      "ĠÄłvolan": 6338,
      "ĠÄłvolno": 6339,
      "ĠÄłformu": 6340,
      "ĠÄłfilt": 6341,
      "ĠÄłposkytovÃĥ": 6342,
      "ĠÄłposkytova": 6343,
      "ĠÄłposkytnu": 6344,
      "ĠÄłsleÃĦÄ¯": 6345,
      "ĠÄłhormon": 6346,
      "uju": 6347,
      "ĠÄłsvÃĦÄ½telnÃĥ": 6348,
      "ĠÄłkvalifi": 6349,
      "ĠÄłakci": 6350,
      "mÃĥÅĥnky": 6351,
      "ĠÄłautomati": 6352,
      "ĠÄłvajÃĥÅĥ": 6353,
      "ĠÄłostrÃĥ": 6354,
      "niknout": 6355,
      "vojovÃĥ": 6356,
      "ĠÄłkomunÃĥ": 6357,
      "povÃĦÄ½ÃĦÄ±": 6358,
      "ĠÄłrovnÃĥ": 6359,
      "ĠÄłrovnovÃĥ": 6360,
      "ĠÄłokru": 6361,
      "ĠÄłokres": 6362,
      "ĠÄłporaden": 6363,
      "ĠÄłobyva": 6364,
      "ĠÄłexperi": 6365,
      "ĠÄłzamÃĦÄ½stnÃĥ": 6366,
      "ĠÄłperspe": 6367,
      "ĠÄłMÃĦÄ½sÃĥÅĥ": 6368,
      "ĠÄłMÃĦÄ½stskÃĥ": 6369,
      "oog": 6370,
      "lexnÃĥÅĥ": 6371,
      "ĠÄłdoved": 6372,
      "ĠÄłpodÃĥÅĥle": 6373,
      "ĠÄłvytvoÃħÄ»enÃĥ": 6374,
      "ivnost": 6375,
      "pravÃĦÄ½": 6376,
      "zetÃĥÅĥ": 6377,
      "rativnÃĥÅĥ": 6378,
      "ĠÄłslunÃĥÅĥ": 6379,
      "ĠÄłzvÃĥÅĥtÃĦÄ½": 6380,
      "ĠÄłoperÃĥ": 6381,
      "ĠÄłmnoÃħ": 6382,
      "ĠÄłmusli": 6383,
      "ĠÄłNÃĦÄ½me": 6384,
      "ĠÄłNÃĦÄ½mec": 6385,
      "ĠÄłsymbo": 6386,
      "ĠÄłsymboli": 6387,
      "ustit": 6388,
      "ustil": 6389,
      "ĠÄłPÃħÄ»edpo": 6390,
      "jistit": 6391,
      "ĠÄłjednotliv": 6392,
      "ĠÄłpÃĦÄ½st": 6393,
      "ĠÄłvenkov": 6394,
      "ĠÃĦÄ¯ÃĥÅĥtÃĥ": 6395,
      "ĠÃĦÄ¯ÃĥÅĥta": 6396,
      "ĠÄłantiox": 6397,
      "ĠÄłslavnost": 6398,
      "ĠÄłPrakti": 6399,
      "ĠÄłhistori": 6400,
      "ĠÄłDoporuÃĦÄ¯": 6401,
      "ĠÄłinterpre": 6402,
      "ĠÄłcitlivÃĥ": 6403,
      "ĠÄłsrde": 6404,
      "ĠÄłnutnÃĥ": 6405,
      "ĠÄłkupujÃĥÅĥcÃĥÅĥ": 6406,
      "ĠÄłdrahÃĥ": 6407,
      "ĠÄłportÃĥ": 6408,
      "ĠÄłvybavenÃĥ": 6409,
      "ĠÄłupravenÃĥ": 6410,
      "ĠÄłhlavi": 6411,
      "ĠÄłpÃħÄ»ekvapi": 6412,
      "ĠÄłasf": 6413,
      "ĠÄłkonzist": 6414,
      "ĠÄłspotÃħÄ»ebitel": 6415,
      "perk": 6416,
      "ĠÄłslabÃĥ": 6417,
      "ĠÄłkyt": 6418,
      "ĠÄłuÃĦÄ¯itel": 6419,
      "ĠÄłrostlinnÃĥ": 6420,
      "ĠÄłÃĦÄ¯astÃĥ": 6421,
      "ĠÄłtexti": 6422,
      "ĠÄłcennÃĥ": 6423,
      "ĠÄłuspoko": 6424,
      "////": 6425,
      "ÃĳÄ¢": 6426,
      "ĠÄłzpoma": 6427,
      "ĠÄłocelovÃĥ": 6428,
      "ĠÄłpodez": 6429,
      "ĠÄłpodeps": 6430,
      "ĠÄłneobvy": 6431,
      "ĠÄłzaslouÃħ": 6432,
      "ĠÄłodpoÃĦÄ¯in": 6433,
      "ĠÄłRakou": 6434,
      "ĠÄłÃĦÄ®ernÃĥ": 6435,
      "ĠÄłcestov": 6436,
      "Ã¢Ä¢Ä¿": 6437,
      "ichni": 6438,
      "prsen": 6439,
      "ĠÄłYou": 6440,
      "ĠÄłvlaj": 6441,
      "ĠÄłsobot": 6442,
      "ĠÄłkatast": 6443,
      "ĠÄłkatastro": 6444,
      "ĠÄłvyrobenÃĥ": 6445,
      "ĠÄłhrubÃĥ": 6446,
      "ĠÄłobrazov": 6447,
      "ĠÄłBudÃĦÄ½j": 6448,
      "ĠÄłodhad": 6449,
      "ĠÄłrekor": 6450,
      "ĠÄłpodnikatelskÃĥ": 6451,
      "ĠÄłpodstatnÃĥ": 6452,
      "ĠÄłbezplat": 6453,
      "ĠÄłMoravskÃĥ": 6454,
      "ĠÄłMoravskoslez": 6455,
      "====": 6456,
      "ĠÄłpiz": 6457,
      "ĠÄłpokoÃħ": 6458,
      "ĠÄłzaÃĦÄ¯ÃĥÅĥna": 6459,
      "ĠÄłaktuali": 6460,
      "ĠÄłintenzi": 6461,
      "ĠNabÃĥÅĥ": 6462,
      "stoupili": 6463,
      "ĠÄłkuchyÃħÄªskÃĥ": 6464,
      "ĠÄłodpovÃĥÅĥda": 6465,
      "................": 6466,
      "--------": 6467,
      "________": 6468,
      "\\\\\\\\\\\\\\\\\\\\\\\\\\\\\\\\\\\\\\\\\\\\\\\\\\\\\\\\\\\\\\\\\\\\\\\\\\\\\\\\\\\\\\\\\\\\\\\\\\\\\\\\\\\\\\\\\\\\\\\\\\\\\\\\": 6469,
      "ĠÄłplno": 6470,
      "ĠÄłnenech": 6471,
      "ĠÄłturna": 6472,
      "ĠÄłvyvolÃĥ": 6473,
      "ĠÄłprobÃĥÅĥha": 6474,
      "ĠÄłÃĦÄ¯tyÃħÄ»": 6475,
      "ĠÄłpÃħÄ»ÃĥÅĥstupnÃĥ": 6476,
      "ĠÄłekologickÃĥ": 6477,
      "Ġstoup": 6478,
      "ĠÄłspraved": 6479,
      "ĠÄłgymnÃĥ": 6480,
      "ĠÄłlaborat": 6481,
      "ĠÄłreprezent": 6482,
      "sledujÃĥÅĥcÃĥÅĥ": 6483,
      "ĠÄłmotorovÃĥ": 6484,
      "mnÃĦÄ½la": 6485,
      "ustila": 6486,
      "ĠÄłvoleb": 6487,
      "ĠÄłzrcad": 6488,
      "ĠÄłkalku": 6489,
      "ĠÄłopaÃĦÄ¯nÃĥ": 6490,
      "ĠÄłdlaÃħ": 6491,
      "ĠÄłdatovÃĥ": 6492,
      "ĠÄłportfoli": 6493,
      "ĠÄłmladÃħ": 6494,
      "ĠÄłstimu": 6495,
      "ĠÄłprodlouÃħ": 6496,
      "ĠpÃĥÅĥna": 6497,
      "ĠÄłdosava": 6498,
      "ĠÄłdostupnÃĥ": 6499,
      "ĠÄłMasary": 6500,
      "ĠÄłVzdÃĦÄ½lÃĥ": 6501,
      "ĠÄłTure": 6502,
      "ĠÄłoptimali": 6503,
      "ĠÄłsebev": 6504,
      "ĠÄłuplynulÃĥ": 6505,
      "ĠÄłovocnÃĥ": 6506,
      "ĠÄłvnÃĥÅĥmÃĥ": 6507,
      "ĠÄłsitua": 6508,
      "ĠÄłmanipu": 6509,
      "ĠÄłvyuÃĦÄ¯": 6510,
      "ĠÄłvybud": 6511,
      "ĠÄłstatisti": 6512,
      "ĠÄłhÃħÄ»bit": 6513,
      "ĠÄłobvyklÃĥ": 6514,
      "ĠÄłakumulÃĥ": 6515,
      "jimeÃĦÄ¯nÃĥ": 6516,
      "ĠÄłAfri": 6517,
      "ĠÄłerotickÃĥ": 6518,
      "ĠÄłchudÃĥ": 6519,
      "ĠÄłkonfli": 6520,
      "lovarskÃĥ": 6521,
      "ĠÄłvzniklÃĥ": 6522,
      "ĠÄłmaximÃĥ": 6523,
      "ĠÄłdiagnosti": 6524,
      "ĠÄłpenzij": 6525,
      "ĠÄłtrestnÃĥ": 6526,
      "ĠÄłzemÃĦÄ½dÃĦÄ½lskÃĥ": 6527,
      "ĠÄłshromÃĥ": 6528,
      "ĠÄłnekone": 6529,
      "ĠÄłbonb": 6530,
      "ĠÄłbrigÃĥ": 6531,
      "ĠÄłSlavi": 6532,
      "ĠÄłSnaÃħ": 6533,
      "ĠÄłSvÃĦÄ½tovÃĥ": 6534,
      "ĠÄłMexi": 6535,
      "ĠÄłfilozo": 6536,
      "ĠÄłakadem": 6537,
      "ĠfikovanÃĥ": 6538,
      "ĠÄłFakul": 6539,
      "ĠÄłholÃĦÄ¯i": 6540,
      "ĠÄłglobÃĥ": 6541,
      "ĠÄłjedineÃĦÄ¯nÃĥ": 6542,
      "ĠÄłdigitÃĥ": 6543,
      "ĠÄłideÃĥ": 6544,
      "ĠÄłimunit": 6545,
      "ĠÄłnezbytnÃĥ": 6546,
      "ĠÄłbezpeÃĦÄ¯nÃĥ": 6547,
      "ĠÄłnaprostÃĥ": 6548,
      "ĠÄłprezident": 6549,
      "ĠÄłkamennÃĥ": 6550,
      "ĠÄłneuvÃĦÄ½ÃħÄ»i": 6551,
      "ĠÄłfotbalovÃĥ": 6552,
      "ĠÄłpneumati": 6553,
      "ĠÄłzaned": 6554,
      "ĠÄłpolskÃĥ": 6555,
      "ĠÄłvyvinu": 6556,
      "ĠÄłAlexand": 6557,
      "ĠÄłpÃħÄ»izpÃħ": 6558,
      "ĠÄłJindÃħÄ»i": 6559,
      "ĠÄłtehdejÃħ": 6560,
      "ĠÄłLondÃĥ": 6561,
      "ĠÄłhotelovÃĥ": 6562,
      "ĠÄłgaran": 6563,
      "ĠÄłspokojenÃĥ": 6564,
      "ĠÄłÃħÅĤtÃĦÄ½pÃĥ": 6565,
      "ĠÄłÃ°ÅģÄº": 6566,
      "ĠÄłmotocyk": 6567,
      "ĠÄłrukoje": 6568,
      "ĠÄłtÃĦÄ½lesnÃĥ": 6569,
      "ĠÄłnoteboo": 6570,
      "ĠÄłvyjadÃħÄ»": 6571,
      "ĠÄłPardub": 6572,
      "ĠÄłnedalekÃĥ": 6573,
      "ĠÄłlaborato": 6574,
      "doden": 6575,
      "ĠÄłzmrz": 6576,
      "ĠÄłdatabÃĥ": 6577,
      "ĠÄłnetuÃħ": 6578,
      "ĠÄłnetradi": 6579,
      "ĠÄłtmavÃĥ": 6580,
      "ĠÄłBratisla": 6581,
      "ĠÄłChorvat": 6582,
      "ĠÄłinzerÃĥ": 6583,
      "ĠÄłiniciati": 6584,
      "ĠÄłkategori": 6585,
      "ĠÄłposlucha": 6586,
      "ĠÄłskrytÃĥ": 6587,
      "ĠÄłrakouskÃĥ": 6588,
      "ĠÄłmanuÃĥ": 6589,
      "ĠÄłworksho": 6590,
      "ĠÄłtechnologickÃĥ": 6591,
      "ĠÄłsmartpho": 6592,
      "ĠÄłinfrastruktu": 6593,
      "ĠÄłhlinÃĥÅĥkovÃĥ": 6594,
      "ĠÄłonemoc": 6595,
      "ĠÄłaminoky": 6596,
      "ĠÄłrehabili": 6597,
      "ĠÄłkontejner": 6598,
      "ĠÄłantioxid": 6599,
      "33": 6600,
      "45": 6601,
      "65": 6602,
      "77": 6603,
      "@*****.": 6604,
      "CD": 6605,
      "CO": 6606,
      "DM": 6607,
      "EG": 6608,
      "EJ": 6609,
      "HL": 6610,
      "HO": 6611,
      "II": 6612,
      "KT": 6613,
      "LAD": 6614,
      "OB": 6615,
      "OT": 6616,
      "PU": 6617,
      "SB": 6618,
      "Sc": 6619,
      "SÃĦÄ®": 6620,
      "aj": 6621,
      "ach": 6622,
      "bnÃĥ": 6623,
      "bro": 6624,
      "bin": 6625,
      "bet": 6626,
      "bol": 6627,
      "bilnÃĥÅĥ": 6628,
      "cin": 6629,
      "cku": 6630,
      "der": 6631,
      "dni": 6632,
      "dlu": 6633,
      "dnÃĥÅĥm": 6634,
      "drav": 6635,
      "dost": 6636,
      "dopÃĥ": 6637,
      "ejÃĥÅĥcÃĥÅĥ": 6638,
      "esta": 6639,
      "fit": 6640,
      "fri": 6641,
      "foj": 6642,
      "gor": 6643,
      "gon": 6644,
      "gar": 6645,
      "gist": 6646,
      "gickÃĥ": 6647,
      "ghÃĥ": 6648,
      "geli": 6649,
      "hlo": 6650,
      "imi": 6651,
      "idÃĥ": 6652,
      "ipe": 6653,
      "iÃĦÄ¯nÃĥÅĥ": 6654,
      "iÃĦÄ¯ka": 6655,
      "iÃĦÄ¯ku": 6656,
      "ja": 6657,
      "jat": 6658,
      "jÃĦÄ¯ky": 6659,
      "jÃĦÄ¯ka": 6660,
      "jÃĦÄ±te": 6661,
      "kor": 6662,
      "kto": 6663,
      "kej": 6664,
      "kteri": 6665,
      "koda": 6666,
      "krt": 6667,
      "ktech": 6668,
      "lte": 6669,
      "lno": 6670,
      "lovat": 6671,
      "mku": 6672,
      "mnÃĥÅĥch": 6673,
      "mot": 6674,
      "mata": 6675,
      "mostÃĥÅĥ": 6676,
      "net": 6677,
      "noru": 6678,
      "novanÃĥ": 6679,
      "niny": 6680,
      "oku": 6681,
      "pk": 6682,
      "pin": 6683,
      "pem": 6684,
      "pÃħÄ»i": 6685,
      "psÃĥ": 6686,
      "rit": 6687,
      "ril": 6688,
      "rova": 6689,
      "rnou": 6690,
      "rve": 6691,
      "sc": 6692,
      "sw": 6693,
      "sovÃĥ": 6694,
      "spo": 6695,
      "sel": 6696,
      "svÃĥÅĥ": 6697,
      "sili": 6698,
      "skem": 6699,
      "sluÃħ": 6700,
      "sonÃĥ": 6701,
      "smus": 6702,
      "tla": 6703,
      "tri": 6704,
      "tkou": 6705,
      "traz": 6706,
      "ther": 6707,
      "upe": 6708,
      "vra": 6709,
      "vkou": 6710,
      "vent": 6711,
      "vÃĦÄ¯ÃĥÅĥ": 6712,
      "vati": 6713,
      "vitu": 6714,
      "vinÃĦÄ½": 6715,
      "vnickÃĥ": 6716,
      "varu": 6717,
      "wing": 6718,
      "ward": 6719,
      "xe": 6720,
      "ynÃĦÄ½": 6721,
      "yÃĦÄ¯ej": 6722,
      "zn": 6723,
      "zv": 6724,
      "zÃħ": 6725,
      "zou": 6726,
      "zar": 6727,
      "zno": 6728,
      "znÃĥÅĥch": 6729,
      "znÃĦÄ½jÃħ": 6730,
      "zvu": 6731,
      "zvlÃĥ": 6732,
      "zaly": 6733,
      "zozem": 6734,
      "Âª": 6735,
      "Ä®": 6736,
      "Ä³": 6737,
      "Ä´": 6738,
      "Ġ*": 6739,
      "Ġ>": 6740,
      "ĠY": 6741,
      "ĠÃĦ": 6742,
      "Ġky": 6743,
      "ĠcÃĥÅĥ": 6744,
      "Ġly": 6745,
      "Ġol": 6746,
      "Ġost": 6747,
      "Ġ..": 6748,
      "Ġun": 6749,
      "Ġole": 6750,
      "Ġeb": 6751,
      "ĠruÃħ": 6752,
      "Ġele": 6753,
      "ĠvÃĦÄ½d": 6754,
      "Ġkup": 6755,
      "ĠÃĥÅĥn": 6756,
      "ĠlouÃħ": 6757,
      "ĠÂ¦": 6758,
      "ĠÄ»": 6759,
      "ĠÄłÃħÄ»": 6760,
      "ĠÄłrem": 6761,
      "ĠÄłlym": 6762,
      "ĠÄłout": 6763,
      "ĠÄłxx": 6764,
      "ÃĥÅĥku": 6765,
      "ÃĥÅĥny": 6766,
      "ÃĥÅĥvali": 6767,
      "ÃĥÅĥÃħÄ»enÃĥ": 6768,
      "ĠÄłpu": 6769,
      "ĠÄłpovÃĥ": 6770,
      "ĠÄłpal": 6771,
      "ĠÄłpus": 6772,
      "ĠÄłpÃĦÄ½Ãħ": 6773,
      "ĠÄłpane": 6774,
      "ĠÄłpasÃĥ": 6775,
      "ĠÄłpÃĥÅĥse": 6776,
      "star": 6777,
      "stky": 6778,
      "stri": 6779,
      "stoÃħ": 6780,
      "start": 6781,
      "stroj": 6782,
      "stanou": 6783,
      "ÃħÄ»nÃĥÅĥ": 6784,
      "ÃħÄ»te": 6785,
      "ÃħÄ»eno": 6786,
      "ÃħÄ»skou": 6787,
      "ovu": 6788,
      "ovna": 6789,
      "ÃĦÄ¯tÃĥÅĥ": 6790,
      "ÃĦÄ¯ina": 6791,
      "ÃĦÄ¯inu": 6792,
      "ÃĦÄ¯koli": 6793,
      "ÃĦÄ¯inÃĦÄ½": 6794,
      "ÃĦÄ¯koliv": 6795,
      "ÃĦÄ¯tovÃĥ": 6796,
      "ĠÄłvÃĦÄ¯": 6797,
      "ĠÄłvou": 6798,
      "ĠÄłvlo": 6799,
      "ĠÄłvan": 6800,
      "ĠÄłvku": 6801,
      "ĠÄłvet": 6802,
      "ĠÄłvze": 6803,
      "ĠÄłvÃĦÄ¯e": 6804,
      "ĠÄłvdÃĦÄ½": 6805,
      "ĠÄłvak": 6806,
      "ĠÄłvstÃĥ": 6807,
      "ĠÄłvina": 6808,
      "rad": 6809,
      "rami": 6810,
      "ĠÄłsl": 6811,
      "ĠÄłsan": 6812,
      "ĠÄłsel": 6813,
      "ĠÄłses": 6814,
      "ĠÄłsmÃĥ": 6815,
      "ĠÄłsran": 6816,
      "ĠÄłshÃĥ": 6817,
      "ĠÄłsvr": 6818,
      "ĠÄłsum": 6819,
      "ĠÄłsbor": 6820,
      "ĠÄłseme": 6821,
      "ĠÄłsing": 6822,
      "ĠÄłsÃĥÅĥÃħ": 6823,
      "ĠÄłsoli": 6824,
      "ĠÄłsalo": 6825,
      "ĠÄłslÃĥÅĥb": 6826,
      "ĠÄłsjezd": 6827,
      "ĠÄłsrozu": 6828,
      "ĠÄłsovÃĦÄ½t": 6829,
      "ĠÄłsvet": 6830,
      "ĠÄłsnow": 6831,
      "ĠÄłsdruÃħ": 6832,
      "ĠÄłzle": 6833,
      "ĠÄłzor": 6834,
      "ĠÄłznÃĦÄ½": 6835,
      "ĠÄłzre": 6836,
      "ĠÄłzÃħÄ»i": 6837,
      "ĠÄłzru": 6838,
      "ĠÄłzob": 6839,
      "ĠÄłzdi": 6840,
      "ĠÄłzmÃĥ": 6841,
      "ĠÄłzani": 6842,
      "ĠÄłzvÃĦÄ½d": 6843,
      "ĠÄłzven": 6844,
      "ĠÄłzane": 6845,
      "ĠÄłzvanÃĥ": 6846,
      "ĠÄłzhodno": 6847,
      "ĠÄłzboÃħ": 6848,
      "ĠÄłzhot": 6849,
      "ĠÄłzopak": 6850,
      "ĠÄłzohled": 6851,
      "roÃĦÄ¯": 6852,
      "ropo": 6853,
      "roub": 6854,
      "lete": 6855,
      "leno": 6856,
      "lenost": 6857,
      "lehlÃĥ": 6858,
      "ĠÄłnul": 6859,
      "ĠÄłnoc": 6860,
      "lacÃĥÅĥ": 6861,
      "laÃĦÄ¯nÃĥÅĥ": 6862,
      "lazenÃĥÅĥ": 6863,
      "lacenÃĥÅĥ": 6864,
      "tenÃĥ": 6865,
      "teÃĦÄ¯": 6866,
      "telu": 6867,
      "terou": 6868,
      "tebnÃĥÅĥ": 6869,
      "ouze": 6870,
      "lili": 6871,
      "ĠÄłkÃħÄ»": 6872,
      "ĠÄłkem": 6873,
      "ĠÄłknÃĦÄ½": 6874,
      "ĠÄłkno": 6875,
      "ĠÄłkas": 6876,
      "ĠÄłkali": 6877,
      "ĠÄłkmen": 6878,
      "ĠÄłkun": 6879,
      "ĠÄłkata": 6880,
      "ĠÄłkvan": 6881,
      "ĠÄłkyslÃĥÅĥ": 6882,
      "ĠÄłkruh": 6883,
      "ĠÄłkade": 6884,
      "ener": 6885,
      "enÃĦÄ¯nÃĥÅĥ": 6886,
      "enzi": 6887,
      "enskou": 6888,
      "ĠÄłol": 6889,
      "ĠÄłom": 6890,
      "ĠÄłor": 6891,
      "ĠÄłole": 6892,
      "ĠÄłoti": 6893,
      "ĠÄłokou": 6894,
      "ĠÄłojed": 6895,
      "ĠÄłosÃĥÅĥ": 6896,
      "ĠÄłorch": 6897,
      "ĠÄłoliv": 6898,
      "ĠÄłokol": 6899,
      "ĠÄłord": 6900,
      "ĠÄłoranÃħ": 6901,
      "ĠÄłdro": 6902,
      "ĠÄłder": 6903,
      "ĠÄłdvÃĦÄ½": 6904,
      "ĠÄłdvÃĥÅĥ": 6905,
      "ĠÄłdek": 6906,
      "ĠÄłdut": 6907,
      "ĠÄłdech": 6908,
      "ĠÄłdvanÃĥ": 6909,
      "ĠÄłdoruÃĦÄ¯": 6910,
      "ĠÄłdrti": 6911,
      "ĠÄłdelÃħ": 6912,
      "ĠÄłdoufÃĥ": 6913,
      "ĠÄłdaleko": 6914,
      "ĠÄłpoc": 6915,
      "ĠÄłpon": 6916,
      "ĠÄłpoti": 6917,
      "ĠÄłpoci": 6918,
      "ĠÄłpota": 6919,
      "ĠÄłpoji": 6920,
      "ĠÄłpoto": 6921,
      "ĠÄłpoda": 6922,
      "ĠÄłpochÃĥ": 6923,
      "ĠÄłpoza": 6924,
      "ĠÄłpostÃĥ": 6925,
      "ĠÄłpozd": 6926,
      "ĠÄłpoklad": 6927,
      "ĠÄłpoklÃĥ": 6928,
      "ĠÄłpobav": 6929,
      "ĠÄłpoÃĦÄ¯as": 6930,
      "ĠÄłpohla": 6931,
      "ĠÄłpohled": 6932,
      "ĠÄłpocti": 6933,
      "ĠÄłpotÃĥÅĥÃħ": 6934,
      "ĠÄłpohledÃĥ": 6935,
      "ĠÄłporozu": 6936,
      "ĠÄłpoznamen": 6937,
      "ÃħÄ»ecÃĥÅĥ": 6938,
      "ÃħÄ»edu": 6939,
      "hone": 6940,
      "horÃħ": 6941,
      "hoto": 6942,
      "hokoliv": 6943,
      "inÃħ": 6944,
      "inem": 6945,
      "inku": 6946,
      "ĠÄłmra": 6947,
      "ĠÄłmla": 6948,
      "ĠÄłmal": 6949,
      "ĠÄłmoz": 6950,
      "ĠÄłmÃĥÅĥs": 6951,
      "ĠÄłmalÃĥÅĥ": 6952,
      "ĠÄłmentÃĥ": 6953,
      "ĠÄłmÃħÄ»ÃĥÅĥÃħ": 6954,
      "ĠÄłmyslÃĥÅĥ": 6955,
      "ĠÄłmelo": 6956,
      "emato": 6957,
      "ces": 6958,
      "ceÃħ": 6959,
      "ĠÄłnek": 6960,
      "ĠÄłnet": 6961,
      "ĠÄłnew": 6962,
      "ĠÄłneÃħÄ»e": 6963,
      "ĠÄłneva": 6964,
      "ĠÄłneÃħÄ»ÃĥÅĥ": 6965,
      "ĠÄłnecÃĥÅĥ": 6966,
      "ĠÄłneji": 6967,
      "ĠÄłnedÃĦÄ½": 6968,
      "ĠÄłneut": 6969,
      "ĠÄłneop": 6970,
      "ĠÄłneprav": 6971,
      "ĠÄłneur": 6972,
      "ĠÄłnebÃĥ": 6973,
      "ĠÄłnechy": 6974,
      "ĠÄłnetr": 6975,
      "ĠÄłnedÃĦÄ½la": 6976,
      "ĠÄłnerozu": 6977,
      "ĠÄłneome": 6978,
      "ĠÄłnekom": 6979,
      "ĠÄłneexist": 6980,
      "ĠÄłneÃĦÄ¯ist": 6981,
      "ĠÄłnecelÃĥ": 6982,
      "itostÃĥÅĥ": 6983,
      "lop": 6984,
      "loze": 6985,
      "lopÃħÄ»ÃĥÅĥ": 6986,
      "nÃĦÄ½na": 6987,
      "nÃĦÄ½ny": 6988,
      "jeli": 6989,
      "jenÃĥÅĥm": 6990,
      "kaÃħ": 6991,
      "kalo": 6992,
      "kalÃĥ": 6993,
      "ĠÄłtk": 6994,
      "ĠÄłtm": 6995,
      "ĠÄłtÃħÄ»": 6996,
      "ĠÄłtva": 6997,
      "ĠÄłtÃĥÅĥm": 6998,
      "ĠÄłtun": 6999,
      "ĠÄłtari": 7000,
      "ĠÄłtoli": 7001,
      "ĠÄłtiÃħ": 7002,
      "ĠÄłthr": 7003,
      "ĠÄłtÃħÄ»ice": 7004,
      "ert": 7005,
      "ernÃĥÅĥ": 7006,
      "erovÃĥ": 7007,
      "erÃĦÄ¯nÃĥÅĥ": 7008,
      "kujeme": 7009,
      "ĠÄłbÃĥÅĥ": 7010,
      "ĠÄłble": 7011,
      "ĠÄłber": 7012,
      "ĠÄłbre": 7013,
      "ĠÄłbÃħÄ»i": 7014,
      "ĠÄłbed": 7015,
      "ĠÄłbas": 7016,
      "ĠÄłbam": 7017,
      "ĠÄłbes": 7018,
      "ĠÄłbus": 7019,
      "ĠÄłbub": 7020,
      "ĠÄłbul": 7021,
      "ĠÄłbude": 7022,
      "ĠÄłbron": 7023,
      "ĠÄłbÃĦÄ½h": 7024,
      "ĠÄłvynÃĥ": 7025,
      "ĠÄłvyho": 7026,
      "ĠÄłvylÃĥ": 7027,
      "ĠÄłvylu": 7028,
      "ĠÄłvyhÃĥ": 7029,
      "ĠÄłvyzna": 7030,
      "ĠÄłvyvr": 7031,
      "ĠÄłvyklÃĥ": 7032,
      "ĠÄłvyspÃĦÄ½": 7033,
      "ĠÄłvyhlÃĥÅĥ": 7034,
      "ĠÄłvyber": 7035,
      "ĠÄłvyrovnÃĥ": 7036,
      "ĠÄłvyboj": 7037,
      "arch": 7038,
      "aryk": 7039,
      "ĠÄłum": 7040,
      "ĠÄłuva": 7041,
      "ĠÄłuvÃĦÄ½": 7042,
      "ĠÄłutÃĥ": 7043,
      "ĠÄłutÃĥÅĥ": 7044,
      "ĠÄłutek": 7045,
      "ĠÄłuzÃĥ": 7046,
      "ĠÄłuniver": 7047,
      "ĠÄłutkÃĥ": 7048,
      "ĠÄłuklid": 7049,
      "ĠÄłuklÃĥÅĥ": 7050,
      "kytuje": 7051,
      "ĠÄłPla": 7052,
      "ĠÄłPlÃĥ": 7053,
      "ĠÄłPre": 7054,
      "ĠÄłPel": 7055,
      "ĠÄłPut": 7056,
      "ĠÄłPlat": 7057,
      "vaÃĦÄ¯": 7058,
      "vaci": 7059,
      "vami": 7060,
      "vaÃĦÄ¯e": 7061,
      "vaznÃĥ": 7062,
      "ÃħÄ»ÃĥÅĥte": 7063,
      "odnÃĦÄ½": 7064,
      "odrÃħ": 7065,
      "jÃĥÅĥme": 7066,
      "ĠÄłzava": 7067,
      "ĠÄłzako": 7068,
      "ĠÄłzade": 7069,
      "ĠÄłzame": 7070,
      "ĠÄłzami": 7071,
      "ĠÄłzamÃĥÅĥ": 7072,
      "ĠÄłzakon": 7073,
      "ĠÄłzamy": 7074,
      "ĠÄłzapÃħ": 7075,
      "ĠÄłzabra": 7076,
      "ĠÄłzabi": 7077,
      "ĠÄłzamÃĥÅĥt": 7078,
      "ĠÄłzavaz": 7079,
      "ĠÄłzamil": 7080,
      "ĠÄłzaznamenÃĥ": 7081,
      "ĠÄłzaklada": 7082,
      "ĠÄłSE": 7083,
      "ĠÄłSI": 7084,
      "ĠÄłSL": 7085,
      "ĠÄłSO": 7086,
      "ĠÄłSc": 7087,
      "ĠÄłSm": 7088,
      "ĠÄłSÃĥÅĥ": 7089,
      "ĠÄłSnÃĥÅĥ": 7090,
      "ĠÄłSho": 7091,
      "ĠÄłSnÃĦÄ½": 7092,
      "ĠÄłSva": 7093,
      "ĠÄłSvÃĥ": 7094,
      "ĠÄłSko": 7095,
      "ĠÄłSob": 7096,
      "ĠÄłSim": 7097,
      "ĠÄłSpi": 7098,
      "ĠÄłSlav": 7099,
      "ĠÄłSlovÃĥ": 7100,
      "ĠÄłSkup": 7101,
      "ĠÄłSex": 7102,
      "ĠÄłSlez": 7103,
      "ĠÄłSoko": 7104,
      "ĠÄłSTA": 7105,
      "ĠÄłSever": 7106,
      "nomi": 7107,
      "niky": 7108,
      "nily": 7109,
      "niha": 7110,
      "tik": 7111,
      "tive": 7112,
      "tivnÃĦÄ½": 7113,
      "tickou": 7114,
      "poÃħ": 7115,
      "pora": 7116,
      "nali": 7117,
      "nami": 7118,
      "namu": 7119,
      "ĠÄłste": 7120,
      "ĠÄłstr": 7121,
      "ĠÄłstov": 7122,
      "ĠÄłstÃħÄ»i": 7123,
      "ĠÄłstvo": 7124,
      "ĠÄłstole": 7125,
      "ĠÄłstÃĥÅĥÃħ": 7126,
      "ĠÄłstrop": 7127,
      "ĠÄłstude": 7128,
      "ĠÄłstÃĦÄ½h": 7129,
      "ĠÄłstadi": 7130,
      "Ġdli": 7131,
      "ĠdlÃĥ": 7132,
      "Ġdor": 7133,
      "Ġdne": 7134,
      "ĠdenÃĥ": 7135,
      "Ġdvace": 7136,
      "ÃħÄ»ily": 7137,
      "lutÃĥ": 7138,
      "lubu": 7139,
      "lubo": 7140,
      "lujte": 7141,
      "ĠÄłhÃħÄ»e": 7142,
      "ĠÄłhit": 7143,
      "ĠÄłhan": 7144,
      "ĠÄłhed": 7145,
      "ĠÄłhek": 7146,
      "ĠÄłhub": 7147,
      "ĠÄłhmy": 7148,
      "ĠÄłhÃħÄ»eb": 7149,
      "ĠÄłhlub": 7150,
      "ĠÄłhÃħÄ»iÃħ": 7151,
      "ĠÄłhtt": 7152,
      "kostÃĥÅĥ": 7153,
      "kolenÃĥÅĥ": 7154,
      "kologi": 7155,
      "adil": 7156,
      "adujÃĥÅĥ": 7157,
      "adujeme": 7158,
      "ĠÄłproz": 7159,
      "ĠÄłpropo": 7160,
      "ĠÄłprostÃĥ": 7161,
      "ĠÄłpropad": 7162,
      "ĠÄłproud": 7163,
      "ĠÄłprofi": 7164,
      "ĠÄłprospÃĦÄ½": 7165,
      "ĠÄłprostÃħÄ»e": 7166,
      "ĠÄłprojednÃĥ": 7167,
      "ĠÄłprospÃĦÄ½Ãħ": 7168,
      "ĠÄłproprac": 7169,
      "ĠÄłproslu": 7170,
      "ĠÄłprozkou": 7171,
      "ĠÄłprogre": 7172,
      "ĠÄłpromlu": 7173,
      "ĠpnÃĥ": 7174,
      "Ġpor": 7175,
      "ĠpovÃĥ": 7176,
      "ĠptÃĥ": 7177,
      "ĠprÃħ": 7178,
      "ĠpenÃĥ": 7179,
      "ĠpuÃħ": 7180,
      "Ġpev": 7181,
      "Ġprac": 7182,
      "ĠpÃĥÅĥÃħ": 7183,
      "ĠplnÃĥ": 7184,
      "ĠpanÃĥ": 7185,
      "Ġpubli": 7186,
      "Ġpuj": 7187,
      "ĠpsanÃĥ": 7188,
      "ĠÄłdola": 7189,
      "ĠÄłdome": 7190,
      "ĠÄłdostav": 7191,
      "ĠÄłdoloÃħ": 7192,
      "ĠÄłdobÃĥÅĥ": 7193,
      "ĠÄłdobÃĥ": 7194,
      "ĠÄłdohled": 7195,
      "ĠÄłdosah": 7196,
      "ĠÄłdostan": 7197,
      "ĠÄłdorazi": 7198,
      "ĠÄłdostane": 7199,
      "ĠÄłMc": 7200,
      "ĠÄłMad": 7201,
      "ĠÄłMak": 7202,
      "ĠÄłMlad": 7203,
      "ĠÄłMost": 7204,
      "ĠÄłMik": 7205,
      "ĠÄłMysle": 7206,
      "ĠÄłMladÃĥ": 7207,
      "ĠÄłMicro": 7208,
      "ĠÄłMosk": 7209,
      "ĠÄłMuze": 7210,
      "ruba": 7211,
      "Ġmr": 7212,
      "ĠmovÃĥ": 7213,
      "Ġmar": 7214,
      "Ġmod": 7215,
      "Ġmez": 7216,
      "Ġment": 7217,
      "ĠmenÃĥ": 7218,
      "Ġmati": 7219,
      "Ġmani": 7220,
      "ĠÄłpÃħÄ»elo": 7221,
      "ĠÄłpÃħÄ»ekon": 7222,
      "ĠÄłpÃħÄ»eprav": 7223,
      "ĠÄłpÃħÄ»ehra": 7224,
      "ĠÄłpÃħÄ»echod": 7225,
      "ĠÄłpÃħÄ»ekrÃĥ": 7226,
      "ĠÄłpÃħÄ»etr": 7227,
      "ĠÄłpÃħÄ»evlÃĥ": 7228,
      "ĠÄłpÃħÄ»ekro": 7229,
      "ĠÄłpÃħÄ»edeÃħ": 7230,
      "ĠÄłpÃħÄ»ekonÃĥ": 7231,
      "etÃħÄ»it": 7232,
      "ĠÄłobu": 7233,
      "ĠÄłobÃħ": 7234,
      "ĠÄłobÃĦÄ¯": 7235,
      "ĠÄłobla": 7236,
      "ĠÄłobil": 7237,
      "ĠÄłobez": 7238,
      "ĠÄłobjem": 7239,
      "ĠÄłobhÃĥ": 7240,
      "ĠÄłobjed": 7241,
      "ĠÄłobÃĦÄ¯er": 7242,
      "ĠÄłobvinÃĦÄ½": 7243,
      "ĠÄłobzvlÃĥ": 7244,
      "dec": 7245,
      "devÃħ": 7246,
      "ĠÄłVen": 7247,
      "ĠÄłVal": 7248,
      "ĠÄłVes": 7249,
      "ĠÄłVstup": 7250,
      "ĠÄłVlast": 7251,
      "ĠÄłVala": 7252,
      "ĠÄłVrch": 7253,
      "ĠÄłVhodnÃĥ": 7254,
      "ĠÄłVarÃħ": 7255,
      "ĠÄłVolnÃĥ": 7256,
      "omÃĦÄ½": 7257,
      "ĠÄłnaho": 7258,
      "ĠÄłnarÃĥ": 7259,
      "ĠÄłnaje": 7260,
      "ĠÄłnava": 7261,
      "ĠÄłnaÃħÄ»ÃĥÅĥ": 7262,
      "ĠÄłnaci": 7263,
      "ĠÄłnakou": 7264,
      "ĠÄłnaby": 7265,
      "ĠÄłnasa": 7266,
      "ĠÄłnapi": 7267,
      "ĠÄłnakup": 7268,
      "ĠÄłnavaz": 7269,
      "ĠÄłnapÃĥÅĥÃħ": 7270,
      "Ġsc": 7271,
      "Ġsm": 7272,
      "Ġso": 7273,
      "Ġsou": 7274,
      "ĠsovÃĥ": 7275,
      "Ġska": 7276,
      "Ġser": 7277,
      "Ġsed": 7278,
      "Ġseli": 7279,
      "Ġsoli": 7280,
      "ĠspÃĦÄ½": 7281,
      "Ġschop": 7282,
      "vÃĦÄ½r": 7283,
      "vÃĦÄ½Ãħ": 7284,
      "vÃĦÄ½zd": 7285,
      "ĠÄłKy": 7286,
      "ĠÄłKou": 7287,
      "ĠÄłKat": 7288,
      "ĠÄłKal": 7289,
      "ĠÄłKlÃĥÅĥ": 7290,
      "ĠÄłKop": 7291,
      "ĠÄłKub": 7292,
      "ĠÄłKur": 7293,
      "ĠÄłKul": 7294,
      "ĠÄłKvali": 7295,
      "ĠÄłKterÃĥ": 7296,
      "ĠÄłKore": 7297,
      "ĠÄłKrum": 7298,
      "rid": 7299,
      "riÃĥÅĥ": 7300,
      "ĠÄłfin": 7301,
      "ĠÄłfrÃĥ": 7302,
      "ĠÄłflÃĥ": 7303,
      "ĠÄłfav": 7304,
      "ĠÄłfol": 7305,
      "ĠÄłfig": 7306,
      "ĠÄłfos": 7307,
      "ĠÄłfinÃĥ": 7308,
      "ĠÄłfree": 7309,
      "ĠÄłfavor": 7310,
      "ĠÄłroÃħ": 7311,
      "ĠÄłrobu": 7312,
      "ĠÄłrodnÃĥ": 7313,
      "ĠÄłrodiÃĦÄ¯": 7314,
      "ĠÄłÃĦÄ¯le": 7315,
      "ĠÄłÃĦÄ¯em": 7316,
      "ĠÄłÃĦÄ¯lu": 7317,
      "ĠÄłÃĦÄ¯el": 7318,
      "ĠÄłÃĦÄ¯tr": 7319,
      "ĠÄłÃĦÄ¯esko": 7320,
      "ĠÄłaro": 7321,
      "ĠÄłali": 7322,
      "ĠÄłasi": 7323,
      "ĠÄłair": 7324,
      "ĠÄłateli": 7325,
      "ĠÄłastro": 7326,
      "ĠÄłarab": 7327,
      "ĠÄłalerg": 7328,
      "iss": 7329,
      "isÃĥ": 7330,
      "isku": 7331,
      "islav": 7332,
      "ĠÄłNA": 7333,
      "ĠÄłNo": 7334,
      "ĠÄłNak": 7335,
      "ĠÄłNovin": 7336,
      "lÃĥÅĥk": 7337,
      "lÃĥÅĥch": 7338,
      "lÃĥÅĥte": 7339,
      "lÃĥÅĥky": 7340,
      "mile": 7341,
      "ĠÄłDI": 7342,
      "ĠÄłDN": 7343,
      "ĠÄłDP": 7344,
      "ĠÄłDV": 7345,
      "ĠÄłDa": 7346,
      "ĠÄłDou": 7347,
      "ĠÄłDÃħÄ»e": 7348,
      "ĠÄłDrÃĥ": 7349,
      "ĠÄłDne": 7350,
      "ĠÄłDoz": 7351,
      "ĠÄłDani": 7352,
      "ĠÄłDig": 7353,
      "ĠÄłDonal": 7354,
      "ĠÄłDÃĦÄ½tskÃĥ": 7355,
      "ĠÄłBi": 7356,
      "ĠÄłBra": 7357,
      "ĠÄłBil": 7358,
      "ĠÄłBed": 7359,
      "ĠÄłBenÃĥ": 7360,
      "ĠÄłBezpeÃĦÄ¯": 7361,
      "ĠÄłBrazÃĥÅĥ": 7362,
      "ĠÄłBesky": 7363,
      "voje": 7364,
      "voÃħÄ»ÃĥÅĥ": 7365,
      "tÃĦÄ½m": 7366,
      "tÃĦÄ½n": 7367,
      "tÃĦÄ½la": 7368,
      "tÃĦÄ½na": 7369,
      "zech": 7370,
      "ĠÄłodo": 7371,
      "ĠÄłodva": 7372,
      "ĠÄłodhod": 7373,
      "ĠÄłodmÃĥÅĥ": 7374,
      "ĠÄłodloÃħ": 7375,
      "ĠÄłodha": 7376,
      "ĠÄłodvÃĦÄ½t": 7377,
      "ĠÄłoddÃĦÄ½le": 7378,
      "ĠÄłodvez": 7379,
      "tud": 7380,
      "tur": 7381,
      "tuÃħÄ»e": 7382,
      "tube": 7383,
      "tufoj": 7384,
      "edo": 7385,
      "edy": 7386,
      "edie": 7387,
      "ovace": 7388,
      "ĠÄłÃĥÂºtÃĦÄ½": 7389,
      "ĠÄłÃĥÂºraz": 7390,
      "ĠÄłÃĥÂºvod": 7391,
      "ĠÄłÃĥÂºdo": 7392,
      "ĠÄłÃĥÂºmys": 7393,
      "ĠÄłÃĥÂºtvar": 7394,
      "ĠÃ©": 7395,
      "ĠÃĮ": 7396,
      "ĠÃı": 7397,
      "stila": 7398,
      "stili": 7399,
      "mÃĦÄ½ry": 7400,
      "mÃĦÄ½ny": 7401,
      "Ġbe": 7402,
      "Ġbra": 7403,
      "ĠbrÃĥ": 7404,
      "Ġbet": 7405,
      "Ġbali": 7406,
      "ĠboÃħ": 7407,
      "Ġboo": 7408,
      "elka": 7409,
      "tacÃĥÅĥ": 7410,
      "tami": 7411,
      "Ġkova": 7412,
      "ĠkterÃĥ": 7413,
      "jili": 7414,
      "Ġzra": 7415,
      "Ġzen": 7416,
      "Ġzav": 7417,
      "Ġzet": 7418,
      "ĠzujÃĥÅĥcÃĥÅĥ": 7419,
      "ĠzvlÃĥ": 7420,
      "ĠÄłAb": 7421,
      "ĠÄłAlo": 7422,
      "ĠÄłAsi": 7423,
      "ĠÄłArch": 7424,
      "ĠÄłActi": 7425,
      "ĠÄłAust": 7426,
      "Ġve": 7427,
      "Ġvr": 7428,
      "Ġvy": 7429,
      "Ġvov": 7430,
      "Ġvar": 7431,
      "Ġvil": 7432,
      "ĠvedenÃĥ": 7433,
      "ĠÄłTra": 7434,
      "ĠÄłTla": 7435,
      "ĠÄłTou": 7436,
      "ĠÄłTho": 7437,
      "ĠÄłTat": 7438,
      "ĠÄłTes": 7439,
      "ĠÄłTÃħÄ»eb": 7440,
      "ĠÄłTrum": 7441,
      "ĠÄłredu": 7442,
      "ĠÄłresp": 7443,
      "ĠÄłrezi": 7444,
      "ĠÄłrelati": 7445,
      "ravnÃĥÅĥ": 7446,
      "ravan": 7447,
      "ravskÃĥ": 7448,
      "ĠÄłpÃħÄ»ikÃĥ": 7449,
      "ĠÄłpÃħÄ»ivÃĥ": 7450,
      "ĠÄłpÃħÄ»istup": 7451,
      "ĠÄłpÃħÄ»imÃĦÄ½ÃħÄ»": 7452,
      "ĠÄłpÃħÄ»ispÃĥÅĥ": 7453,
      "ĠÄłpÃħÄ»ivez": 7454,
      "pec": 7455,
      "peu": 7456,
      "peci": 7457,
      "perati": 7458,
      "ashing": 7459,
      "Ġht": 7460,
      "ĠhÃħ": 7461,
      "Ġhov": 7462,
      "Ġhla": 7463,
      "Ġham": 7464,
      "ĠhanÃĥ": 7465,
      "Ġhtt": 7466,
      "ĠÄłZD": 7467,
      "ĠÄłZÃĥÅĥ": 7468,
      "ĠÄłZnÃĥ": 7469,
      "ĠÄłZku": 7470,
      "ĠÄłZav": 7471,
      "ĠÄłZkrÃĥ": 7472,
      "ĠÄłZele": 7473,
      "ĠÄłZdra": 7474,
      "ĠÄłZÃĥÄ£": 7475,
      "ĠÄłZobraz": 7476,
      "ĠÄłZprÃĥ": 7477,
      "ĠÄłZlatÃĥ": 7478,
      "ĠÄłZnoj": 7479,
      "ĠÄłRO": 7480,
      "ĠÄłRi": 7481,
      "ĠÄłRed": 7482,
      "ĠÄłRez": 7483,
      "ĠÄłRec": 7484,
      "ĠÄłRos": 7485,
      "ĠÄłRober": 7486,
      "ĠÄłRekla": 7487,
      "ĠÄłpÃħÄ»ÃĥÅĥru": 7488,
      "ĠÄłpÃħÄ»ÃĥÅĥrÃħ": 7489,
      "ĠÄłpÃħÄ»ÃĥÅĥsnÃĥ": 7490,
      "ĠÄłek": 7491,
      "ĠÄłevolu": 7492,
      "ĠÄłeuro": 7493,
      "ĠÄłekvi": 7494,
      "ĠÄłchÃħ": 7495,
      "ĠÄłchro": 7496,
      "ĠÄłchle": 7497,
      "ĠÄłchor": 7498,
      "ĠÄłchovÃĥ": 7499,
      "ĠÄłchvÃĥ": 7500,
      "ĠÄłchut": 7501,
      "ĠÄłchuÃħ": 7502,
      "dia": 7503,
      "dii": 7504,
      "diu": 7505,
      "diÃħ": 7506,
      "diÃĦÄ¯e": 7507,
      "dium": 7508,
      "diÃĦÄ¯ky": 7509,
      "dak": 7510,
      "dace": 7511,
      "daje": 7512,
      "ĠÄłCN": 7513,
      "ĠÄłCZ": 7514,
      "ĠÄłCam": 7515,
      "ĠÄłCol": 7516,
      "ĠÄłChy": 7517,
      "ĠÄłCelÃĥ": 7518,
      "vÃĥÅĥce": 7519,
      "ĠÄłOR": 7520,
      "ĠÄłOn": 7521,
      "ĠÄłOka": 7522,
      "ĠÄłOko": 7523,
      "ĠÄłOut": 7524,
      "ĠÄłOsob": 7525,
      "ĠÄłOct": 7526,
      "ĠÄłOstat": 7527,
      "ĠÄłOstra": 7528,
      "ĠÄłOnd": 7529,
      "ĠÄłOkres": 7530,
      "ĠÄłrozm": 7531,
      "ĠÄłrozv": 7532,
      "ĠÄłrozto": 7533,
      "ĠÄłrozlou": 7534,
      "ĠÄłrozmÃĥÅĥ": 7535,
      "ĠÄłrozloÃħ": 7536,
      "ĠÄłrozhra": 7537,
      "ĠÄłrozklÃĥ": 7538,
      "ĠÄłrozhlas": 7539,
      "amy": 7540,
      "ĠstÃħ": 7541,
      "ĠstnÃĥ": 7542,
      "Ġstro": 7543,
      "ĠstÃħÄ»e": 7544,
      "Ġstat": 7545,
      "ĠstrÃĥ": 7546,
      "Ġstan": 7547,
      "Ġstop": 7548,
      "ĠstrovanÃĥ": 7549,
      "ĠÄłHT": 7550,
      "ĠÄłHa": 7551,
      "ĠÄłHÃĥ": 7552,
      "ĠÄłHer": 7553,
      "ĠÄłHist": 7554,
      "nuje": 7555,
      "ĠÄłinte": 7556,
      "ĠÄłinje": 7557,
      "ĠÄłinva": 7558,
      "ĠÄłinti": 7559,
      "ĠÄłinci": 7560,
      "ĠÄłindu": 7561,
      "ĠÄłinovat": 7562,
      "ĠÄłinsta": 7563,
      "ĠÄłintele": 7564,
      "ĠÄłinzer": 7565,
      "ĠÄłinspe": 7566,
      "ĠÄłingre": 7567,
      "esÃĥ": 7568,
      "ĠÄłtero": 7569,
      "ĠÄłteori": 7570,
      "ĠÄłtemati": 7571,
      "lnÃĥÅĥk": 7572,
      "lnÃĥÅĥmi": 7573,
      "tÃĥÅĥte": 7574,
      "tÃĥÅĥcÃĥÅĥ": 7575,
      "tÃĥÅĥtky": 7576,
      "ĠÃĦÄ¯skÃĥ": 7577,
      "ĠÃĦÄ¯ty": 7578,
      "ĠÃĦÄ¯itÃĥ": 7579,
      "ĠÃĦÄ¯len": 7580,
      "ĠÃĦÄ¯ÃĥÅĥt": 7581,
      "ÃħÄªÃħ": 7582,
      "ÃħÄªujÃĥÅĥcÃĥÅĥ": 7583,
      "ĠÄłLou": 7584,
      "ĠÄłLen": 7585,
      "ĠÄłLin": 7586,
      "ĠÄłLet": 7587,
      "ĠÄłLes": 7588,
      "ĠÄłLuÃħ": 7589,
      "ĠÄłLinu": 7590,
      "ĠÄłLab": 7591,
      "ĠÄłLid": 7592,
      "vero": 7593,
      "velo": 7594,
      "ĠÄłpodrÃĥ": 7595,
      "ĠÄłpodlÃĥ": 7596,
      "ĠÄłpodvo": 7597,
      "ĠÄłpodmÃĥÅĥ": 7598,
      "ĠÄłpodot": 7599,
      "ĠÄłpodpÃħ": 7600,
      "ĠÄłpodporu": 7601,
      "ĠÄłpodprsen": 7602,
      "louho": 7603,
      "ĠÄłkonc": 7604,
      "ĠÄłkont": 7605,
      "ĠÄłkonfi": 7606,
      "ĠÄłkonzu": 7607,
      "ĠÄłkonÃĦÄ¯et": 7608,
      "ĠÄłkontin": 7609,
      "ĠÄłkontex": 7610,
      "mun": 7611,
      "ĠÄłkok": 7612,
      "ĠÄłkonÃĥÅĥ": 7613,
      "ĠÄłkorÃĥ": 7614,
      "ĠÄłkoko": 7615,
      "ĠÄłkostÃĥ": 7616,
      "ĠÄłkopi": 7617,
      "ĠÄłkoste": 7618,
      "ĠÄłkotou": 7619,
      "ĠÄłkoord": 7620,
      "ĠPa": 7621,
      "ĠPra": 7622,
      "ĠPre": 7623,
      "ĠPÃħÄ»i": 7624,
      "ĠPrav": 7625,
      "ĠProv": 7626,
      "ĠPoli": 7627,
      "ista": 7628,
      "viron": 7629,
      "ĠÄłjub": 7630,
      "ĠÄłjuni": 7631,
      "ĠÄłlev": 7632,
      "ĠÄłletÃĥ": 7633,
      "ĠÄłlepi": 7634,
      "ĠÄłletov": 7635,
      "ĠÄłlevan": 7636,
      "ĠÄłspr": 7637,
      "ĠÄłspon": 7638,
      "ĠÄłspod": 7639,
      "ĠÄłsplnÃĦÄ½": 7640,
      "ĠÄłsplÃħÄª": 7641,
      "ĠÄłspontÃĥ": 7642,
      "ĠÄłjeÃħ": 7643,
      "ĠÄłjest": 7644,
      "ĠÄłjevi": 7645,
      "ĠÄłjedenÃĥ": 7646,
      "Ġco": 7647,
      "Ġct": 7648,
      "Ġcy": 7649,
      "Ġcin": 7650,
      "Ġcyk": 7651,
      "konu": 7652,
      "kony": 7653,
      "konem": 7654,
      "konce": 7655,
      "konoÃħ": 7656,
      "koncÃħ": 7657,
      "konomi": 7658,
      "Ġfa": 7659,
      "ĠfickÃĥ": 7660,
      "Ġfur": 7661,
      "Ġfinan": 7662,
      "ĠÄłnejk": 7663,
      "ĠÄłnejnÃĥ": 7664,
      "ĠÄłnejpo": 7665,
      "ĠÄłnejroz": 7666,
      "ĠÄłnejpro": 7667,
      "ĠÄłnejrych": 7668,
      "ĠÄłnejmenÃħ": 7669,
      "ĠÄłnejnovÃĦÄ½jÃħ": 7670,
      "ĠÄłnejstarÃħ": 7671,
      "alin": 7672,
      "ality": 7673,
      "ekvÃĥ": 7674,
      "Â¥Â¨": 7675,
      "ĠÄłFil": 7676,
      "ĠÄłFot": 7677,
      "ĠÄłFace": 7678,
      "ĠÄłFoto": 7679,
      "stavenÃĥÅĥ": 7680,
      "bylo": 7681,
      "ĠÄłkau": 7682,
      "ĠÄłkaro": 7683,
      "ĠÄłkaka": 7684,
      "ĠÄłkame": 7685,
      "ĠÄłkabÃĥ": 7686,
      "ĠÄłkapu": 7687,
      "ĠÄłkabe": 7688,
      "ĠÄłhost": 7689,
      "ĠÄłhome": 7690,
      "ĠÄłhorÃħ": 7691,
      "enÃĥÅĥze": 7692,
      "spÃĥÅĥvÃĥ": 7693,
      "spodÃĥ": 7694,
      "bujÃĥÅĥ": 7695,
      "ĠÄłgran": 7696,
      "ĠÄłgum": 7697,
      "ĠÄłgala": 7698,
      "ĠÄłgolf": 7699,
      "ĠÄłgastro": 7700,
      "ÃĦÄ®R": 7701,
      "lovÃĦÄ½k": 7702,
      "ĠÄłvzruÃħ": 7703,
      "ĠÄłvztah": 7704,
      "utor": 7705,
      "opÃħÄ»ed": 7706,
      "rans": 7707,
      "ĠÄłpÃħÄ»edsti": 7708,
      "ĠÄłpÃħÄ»edved": 7709,
      "ĠÄłpÃħÄ»edchÃħ": 7710,
      "Ġgna": 7711,
      "ĠgickÃĥ": 7712,
      "ĠÄłspoÃħÄ»itel": 7713,
      "ĠÄłclou": 7714,
      "ÃĦÄ¯ÃĥÅĥst": 7715,
      "Ġtr": 7716,
      "ĠtrÃĥ": 7717,
      "Ġtar": 7718,
      "ĠÄłsoubo": 7719,
      "ĠÄłsouÃħÄ»ad": 7720,
      "ĠÄłsouÃĦÄ¯in": 7721,
      "ĠÄłsourozen": 7722,
      "otva": 7723,
      "osta": 7724,
      "jemce": 7725,
      "dycky": 7726,
      "zalo": 7727,
      "ĠÄłEd": 7728,
      "ĠÄłEm": 7729,
      "ĠÄłEro": 7730,
      "ĠÄłEli": 7731,
      "ĠÄłEgy": 7732,
      "ĠÄłEuro": 7733,
      "ĠSS": 7734,
      "ĠSo": 7735,
      "ĠSTA": 7736,
      "echno": 7737,
      "vykle": 7738,
      "bÃĥÅĥrat": 7739,
      "ĠNO": 7740,
      "ĠNovÃĥ": 7741,
      "ĠNik": 7742,
      "ĠÄłvÃĦÄ½c": 7743,
      "ĠÄłvÃĦÄ½ÃħÄ»i": 7744,
      "ĠÄłvÃĦÄ½ÃĦÄ¯nÃĥ": 7745,
      "ĠÄłkomik": 7746,
      "ĠÄłkompozi": 7747,
      "meno": 7748,
      "ĠÄłpose": 7749,
      "ĠÄłposlÃĥ": 7750,
      "ĠÄłposud": 7751,
      "ĠÄłposlan": 7752,
      "ĠÄłposkytu": 7753,
      "ĠÄłmap": 7754,
      "ĠÄłmanÃĥ": 7755,
      "ĠÄłmalo": 7756,
      "ĠÄłmaje": 7757,
      "ĠÄłmaga": 7758,
      "ĠÄłmateÃħÄ»": 7759,
      "ĠÄłmatemati": 7760,
      "ktro": 7761,
      "ĠÄłlim": 7762,
      "ĠÄłliterÃĥ": 7763,
      "ĠÄłlikvi": 7764,
      "ĠnÃħ": 7765,
      "Ġnit": 7766,
      "Ġnor": 7767,
      "Ġnan": 7768,
      "Ġnet": 7769,
      "ĠnkovÃĥ": 7770,
      "ation": 7771,
      "ational": 7772,
      "vnÃĥÅĥmi": 7773,
      "ĠÄłItÃĥ": 7774,
      "ĠMa": 7775,
      "ĠMo": 7776,
      "ĠMin": 7777,
      "ĠMno": 7778,
      "ĠMalÃĥ": 7779,
      "ĠMÃĥÅĥst": 7780,
      "razem": 7781,
      "Ġlez": 7782,
      "ĠlejÃħ": 7783,
      "ĠVI": 7784,
      "ĠVlast": 7785,
      "yso": 7786,
      "giÃĥÅĥ": 7787,
      "udr": 7788,
      "ĠDS": 7789,
      "ĠDom": 7790,
      "ĠDne": 7791,
      "ĠDig": 7792,
      "ĠDÃĦÄ½tskÃĥ": 7793,
      "ĠÄłGÃĥ": 7794,
      "ĠÄłGra": 7795,
      "ĠÄłGre": 7796,
      "ĠÄłGol": 7797,
      "ĠÄłGene": 7798,
      "stupu": 7799,
      "stupem": 7800,
      "stupitel": 7801,
      "Ġteg": 7802,
      "ĠterÃĥ": 7803,
      "uber": 7804,
      "ĠÄłÃĦÄ®e": 7805,
      "ĠÄłÃĦÄ®es": 7806,
      "ĠÄłÃĦÄ®len": 7807,
      "stalo": 7808,
      "ĠÄłnepÃħÄ»": 7809,
      "ĠÄłnepro": 7810,
      "ĠÄłnepat": 7811,
      "ĠÄłnepÃħÄ»ed": 7812,
      "ĠÄłnepÃħÄ»iÃħ": 7813,
      "ĠÄłskvr": 7814,
      "sobit": 7815,
      "ohle": 7816,
      "ĠTa": 7817,
      "ĠTÃħÄ»e": 7818,
      "ĠchovÃĥ": 7819,
      "Ġchod": 7820,
      "ĠÄłjedni": 7821,
      "ĠÄłjednost": 7822,
      "imer": 7823,
      "pice": 7824,
      "piÃĦÄ¯kovÃĥ": 7825,
      "ĠÄłUl": 7826,
      "ĠÄłUr": 7827,
      "ĠÄłUni": 7828,
      "ĠÄłUvi": 7829,
      "ĠÄłUher": 7830,
      "ĠÄłUniver": 7831,
      "ĠÄłceloÃħ": 7832,
      "ĠÄłceleb": 7833,
      "ull": 7834,
      "ĠÄłpau": 7835,
      "ĠÄłpaÃħ": 7836,
      "ĠÄłpacha": 7837,
      "ĠÄłparamet": 7838,
      "ĠÄłpapri": 7839,
      "ĠÄłzpÃĥ": 7840,
      "ĠÄłvede": 7841,
      "ĠÄłveget": 7842,
      "robnÃĥÅĥ": 7843,
      "ĠOD": 7844,
      "ĠOT": 7845,
      "ĠOd": 7846,
      "Ġif": 7847,
      "Ġig": 7848,
      "Ġik": 7849,
      "ĠimÃĥ": 7850,
      "ĠitelnÃĥ": 7851,
      "Ġovi": 7852,
      "Ġovol": 7853,
      "fici": 7854,
      "ĠjovÃĥ": 7855,
      "ĠjakÃĥ": 7856,
      "ĠÄłdevÃĥ": 7857,
      "ĠÄłdetek": 7858,
      "ĠÄłdepoz": 7859,
      "ĠÄłdivo": 7860,
      "ĠÄłdimen": 7861,
      "ĠÄłdialog": 7862,
      "vodce": 7863,
      "ĠKo": 7864,
      "ĠÄłopÃĦÄ½": 7865,
      "ĠÄłoplÃĥ": 7866,
      "ĠÄłopuÃħ": 7867,
      "ĠÄłoptickÃĥ": 7868,
      "ĠÄłopÃĦÄ½t": 7869,
      "ĠÄłseg": 7870,
      "ĠÄłsest": 7871,
      "sivnÃĥÅĥ": 7872,
      "Ġroz": 7873,
      "Ġrost": 7874,
      "Ġrozen": 7875,
      "zdnÃĥ": 7876,
      "ĠAD": 7877,
      "ĠAL": 7878,
      "ĠAT": 7879,
      "ĠAn": 7880,
      "ĠAp": 7881,
      "ĠÄłPosla": 7882,
      "Ġag": 7883,
      "Ġale": 7884,
      "bami": 7885,
      "hraje": 7886,
      "hrade": 7887,
      "hraniÃĦÄ¯nÃĥÅĥ": 7888,
      "uman": 7889,
      "ĠÄłÃħÅĤK": 7890,
      "ĠÄłÃ¥": 7891,
      "ĠÄłÃİ": 7892,
      "ĠÄłÃĺ": 7893,
      "ĠÄłÃĳÄ": 7894,
      "ĠÄłprvot": 7895,
      "ĠÄłprince": 7896,
      "ĠÄłexo": 7897,
      "ĠÄłexku": 7898,
      "ĠÄłexpozi": 7899,
      "ĠÄłang": 7900,
      "ĠÄłantÃĥ": 7901,
      "ĠÄłanony": 7902,
      "ĠIF": 7903,
      "ĠIV": 7904,
      "ĠIÃħÅĤ": 7905,
      "ĠÄłpotla": 7906,
      "ĠÄłjakoÃħ": 7907,
      "ĠÄłnezle": 7908,
      "ĠÄłnezmÃĦÄ½": 7909,
      "dox": 7910,
      "ĠÄłraket": 7911,
      "ĠÄłÃħÄ»eckÃĥ": 7912,
      "ĠÄłÃħÄ»etÃĦÄ½z": 7913,
      "stvÃĥÅĥm": 7914,
      "ĠRe": 7915,
      "ĠÄłmÃĦÄ½st": 7916,
      "ĠÄłmÃĦÄ½ÃħÄ»ÃĥÅĥ": 7917,
      "ĠÄłdoprovÃĥ": 7918,
      "evrop": 7919,
      "jednou": 7920,
      "Ġnika": 7921,
      "Ġnict": 7922,
      "ĠnitelnÃĥ": 7923,
      "ĠÄłpovo": 7924,
      "ĠÄłpovz": 7925,
      "ĠÄłpovole": 7926,
      "lass": 7927,
      "ĠÄłpoznat": 7928,
      "ĠCel": 7929,
      "ĠCelÃĥ": 7930,
      "ĠvanÃĦÄ½jÃħ": 7931,
      "ituace": 7932,
      "Ġosob": 7933,
      "kaznÃĥÅĥk": 7934,
      "ikovnÃĥ": 7935,
      "pÃĥÅĥte": 7936,
      "lavnÃĦÄ½": 7937,
      "ĠÄłStanis": 7938,
      "ight": 7939,
      "ĠJi": 7940,
      "ĠJakÃĥ": 7941,
      "ĠÄłkouz": 7942,
      "ĠÄłkoupe": 7943,
      "ĠÄłbezkon": 7944,
      "ĠÄłbezÃĥÂº": 7945,
      "ĠÄłbezdrÃĥ": 7946,
      "ĠÄłWin": 7947,
      "ĠÄłWik": 7948,
      "ĠÄłWashing": 7949,
      "arijnÃĥÅĥ": 7950,
      "ĠHL": 7951,
      "ĠHledÃĥ": 7952,
      "ĠÄłsyrovÃĥ": 7953,
      "ĠÄłsystem": 7954,
      "kladech": 7955,
      "ĠentÃĥ": 7956,
      "ĠÄłusil": 7957,
      "ĠdÃĦÄ½j": 7958,
      "ĠÃħÄ»a": 7959,
      "ĠÃħÄ»ovÃĥ": 7960,
      "ĠtiÃħ": 7961,
      "ĠÄłÃĥÄ¯": 7962,
      "ĠÄłnadÃĦÄ½": 7963,
      "ĠÄłnadsÃĥ": 7964,
      "ĠÄłmorÃĥ": 7965,
      "ĠÄłmoÃħÄ»skÃĥ": 7966,
      "ĠÄłmoÃĦÄ¯ovÃĥ": 7967,
      "ĠÄłmotiv": 7968,
      "ĠlnÃĥ": 7969,
      "ĠÄłviditel": 7970,
      "ĠÄłviditelnÃĥ": 7971,
      "ĠÄłoslav": 7972,
      "ĠÄłosvÃĦÄ½t": 7973,
      "ĠÄłosvÃĦÄ½d": 7974,
      "ĠÄłvyso": 7975,
      "ĠÄłvyskyt": 7976,
      "ĠÄłÃĦÄ¯erno": 7977,
      "slednÃĦÄ½": 7978,
      "ĠÄłsamot": 7979,
      "ĠÄłsamole": 7980,
      "ĠÄłÃĥÂºÃĦÄ¯el": 7981,
      "ĠÄłnesnÃĥ": 7982,
      "ĠÄłnespo": 7983,
      "ĠÄłneschop": 7984,
      "ĠanovÃĥ": 7985,
      "ĠÄłruka": 7986,
      "ĠÄłrubri": 7987,
      "ĠÄłpopla": 7988,
      "ĠÄłmode": 7989,
      "ĠÄłmodu": 7990,
      "adajÃĥÅĥ": 7991,
      "ĠÄłnapÃĦÄ½": 7992,
      "ĠÄłnapÃħÄ»ÃĥÅĥ": 7993,
      "ĠÄłnapsanÃĥ": 7994,
      "stero": 7995,
      "tent": 7996,
      "ĠÄłNebu": 7997,
      "ĠÄłNechÃĥ": 7998,
      "dence": 7999,
      "ĠÄłarg": 8000,
      "ĠÄłklien": 8001,
      "ivoÃĦÄ¯i": 8002,
      "Ġwe": 8003,
      "ĠÄłprovi": 8004,
      "ĠÄłprovede": 8005,
      "ĠÄłprovinci": 8006,
      "ĠÄłtÃĦÄ½m": 8007,
      "ĠÄłtÃĦÄ½st": 8008,
      "ĠÄłtÃĦÄ½lovÃĥ": 8009,
      "ĠÄłChlu": 8010,
      "ĠÄłÃĥÄ¼ÃĦÄ¯ast": 8011,
      "bavnÃĥ": 8012,
      "idovskÃĥ": 8013,
      "trem": 8014,
      "ĠÄłhodnÃĥ": 8015,
      "ĠÄłhodinovÃĥ": 8016,
      "ÃĦÄ¯asnÃĦÄ½": 8017,
      "ĠÄłbylin": 8018,
      "ĠÄłbydle": 8019,
      "ĠÄłbyzny": 8020,
      "ĠÄłObrÃĥ": 8021,
      "ĠÄłObdob": 8022,
      "ĠÄłObjedna": 8023,
      "ĠÄłInstitu": 8024,
      "estnÃĥ": 8025,
      "ĠkaÃħ": 8026,
      "ĠkanÃĥ": 8027,
      "Ġtah": 8028,
      "ĠÄłpreci": 8029,
      "ĠÄłpresti": 8030,
      "ĠÄłprezent": 8031,
      "ĠÄłznaÃĦÄ¯nÃĥ": 8032,
      "enice": 8033,
      "ĠÄłtalen": 8034,
      "ĠÄłstanoviÃħ": 8035,
      "ĠÄłZajÃĥÅĥma": 8036,
      "ĠÄłZastupitel": 8037,
      "ĠLA": 8038,
      "ĠLÃĥ": 8039,
      "ĠLet": 8040,
      "ĠUJ": 8041,
      "stoupÃĥÅĥ": 8042,
      "stoupenÃĥÅĥ": 8043,
      "ĠÄłstah": 8044,
      "ĠÃĥÄ«": 8045,
      "ĠÄłspoleÃĦÄ¯nÃĥÅĥ": 8046,
      "ÃĦÄ¯itÃĦÄ½": 8047,
      "ĠÄłdÃĥÅĥtÃĦÄ½": 8048,
      "orych": 8049,
      "ĠmÃĦÄ½sÃĥÅĥ": 8050,
      "ĠmÃĦÄ½rnÃĥ": 8051,
      "ĠÄłkuku": 8052,
      "ĠÄłkucha": 8053,
      "ickou": 8054,
      "Ġ12": 8055,
      "enÃĦÄ½nÃĥÅĥ": 8056,
      "ĠÄłdisk": 8057,
      "ĠÄłdispon": 8058,
      "ĠÄłdispozi": 8059,
      "ĠÄłProje": 8060,
      "ĠÄłProdu": 8061,
      "alerie": 8062,
      "ĠÄłture": 8063,
      "ĠÄłtuhÃĥ": 8064,
      "pÃĦÄ½nÃĥÅĥ": 8065,
      "pÃĦÄ½tÃĥÅĥ": 8066,
      "pisÃħ": 8067,
      "ĠÄłorgas": 8068,
      "ĠÄłupÃħÄ»ÃĥÅĥ": 8069,
      "ĠÄłuprch": 8070,
      "ĠÄłupÃħÄ»es": 8071,
      "ĠdivÃĥ": 8072,
      "ĠÄłelektri": 8073,
      "Ġatu": 8074,
      "ĠÄłwe": 8075,
      "ĠÄłpravom": 8076,
      "stÃĦÄ½nÃĥÅĥ": 8077,
      "stÃĦÄ½te": 8078,
      "Ġuj": 8079,
      "ĠÄłovlada": 8080,
      "ĠÄłÃħÄ»ÃĥÅĥj": 8081,
      "ĠÄłÃħÄ»ÃĥÅĥmskÃĥ": 8082,
      "ĠÄłzapsÃĥ": 8083,
      "ĠÄłVyuÃħ": 8084,
      "mÃĦÄ½rem": 8085,
      "ĠÄłkompen": 8086,
      "ĠÄłkomplika": 8087,
      "ĠÄłjednorÃĥ": 8088,
      "trolujte": 8089,
      "Ġjezd": 8090,
      "Ġkomu": 8091,
      "ĠÄłMalÃĥ": 8092,
      "ĠÄłJakÃĥ": 8093,
      "ĠÄłJaku": 8094,
      "ĠÄłJazy": 8095,
      "ĠÄłjÃĥÅĥdel": 8096,
      "ĠÄłjÃĥÅĥdelnÃĥÅĥ": 8097,
      "ĠÄłsateli": 8098,
      "ĠÄłsachari": 8099,
      "ĠÄłsedÃĦÄ½": 8100,
      "ĠÄłsedad": 8101,
      "ĠÄłsedmÃĥ": 8102,
      "ĠÄłodesÃĥÅĥ": 8103,
      "ĠÄłbox": 8104,
      "ĠÄłboho": 8105,
      "ĠÄłPodob": 8106,
      "ĠÄłreperto": 8107,
      "ĠÄłReÃħ": 8108,
      "ĠÄłRegi": 8109,
      "zorÃħ": 8110,
      "ĠÃĦÄ®eskÃĥ": 8111,
      "ĠÄładres": 8112,
      "ĠÄłplakÃĥ": 8113,
      "ĠÄłdesÃĥÅĥt": 8114,
      "ĠÄłmilÃĥ": 8115,
      "ĠÄłMiro": 8116,
      "ĠÄłMilu": 8117,
      "ĠÄłMimo": 8118,
      "ĠÄłnabÃĥÅĥd": 8119,
      "ĠÄłJiÃĦÄ¯ÃĥÅĥ": 8120,
      "graf": 8121,
      "gramu": 8122,
      "itelnÃĦÄ½": 8123,
      "ĠrovskÃĥ": 8124,
      "ĠÄłcÃĥÅĥsa": 8125,
      "ÃĥÂºhel": 8126,
      "ĠÄłpÃĥÅĥsni": 8127,
      "ĠÄłnepotÃħÄ»eb": 8128,
      "ĠÄłtragÃĥ": 8129,
      "ĠÄłpÃħÄ»edstaven": 8130,
      "ÃĦÄ¯etnÃĦÄ½": 8131,
      "ĠÄłsolÃĥ": 8132,
      "rodil": 8133,
      "rodnÃĥÅĥm": 8134,
      "ĠÄłdobro": 8135,
      "ĠÄłauten": 8136,
      "ĠÄłAnto": 8137,
      "ĠÄłAndro": 8138,
      "ference": 8139,
      "ĠÄłsuk": 8140,
      "ĠÄłsurov": 8141,
      "atuju": 8142,
      "ÃĲÂº": 8143,
      "ĠÄłpeÃĦÄ¯i": 8144,
      "ĠÄłohÃħÄ»e": 8145,
      "ĠÄłbarvi": 8146,
      "ĠÄłbarev": 8147,
      "ĠÄłprojektovÃĥ": 8148,
      "ĠÄłKone": 8149,
      "ĠÄłKonkrÃĥ": 8150,
      "ĠÄłKontro": 8151,
      "ĠÃĦÄ¯eskÃĥ": 8152,
      "ĠÄłneustÃĥ": 8153,
      "ĠÄłneudÃĦÄ½la": 8154,
      "vajÃĥÅĥcÃĥÅĥch": 8155,
      "vajÃĥÅĥcÃĥÅĥho": 8156,
      "ĠÄłamb": 8157,
      "ĠÄłameri": 8158,
      "ĠÄłambi": 8159,
      "ĠÄłJedna": 8160,
      "ĠÄłJednodu": 8161,
      "ĠÄłLibere": 8162,
      "zemÃĥÅĥ": 8163,
      "zkum": 8164,
      "zkumnÃĥ": 8165,
      "ĠÄłenzy": 8166,
      "ĠÄłencyk": 8167,
      "ĠÄłenviron": 8168,
      "ĠÄłseznam": 8169,
      "ĠÄłmetod": 8170,
      "ĠÄłmetodi": 8171,
      "ĠÄłtypi": 8172,
      "ĠÄłbudd": 8173,
      "ĠÄłumÃĦÄ½l": 8174,
      "edesÃĥ": 8175,
      "ski": 8176,
      "Ġorg": 8177,
      "ĠÄłpatrnÃĥ": 8178,
      "ĠÄłprim": 8179,
      "ĠÄłvola": 8180,
      "ĠÄłvodov": 8181,
      "ĠÄłvodopÃĥ": 8182,
      "ĠÄłdomov": 8183,
      "ĠÄłfiltra": 8184,
      "ĠÄłvelvy": 8185,
      "ĠÄłsnad": 8186,
      "ĠÄłsnadnÃĥ": 8187,
      "ĠÄłmeda": 8188,
      "ĠÄłmedvÃĦÄ½": 8189,
      "ĠÄłtotÃĥ": 8190,
      "ĠÄłtoale": 8191,
      "ĠÄłumÃĥÅĥst": 8192,
      "lujete": 8193,
      "ĠÄłÃĦÄ¯tver": 8194,
      "ĠÄłinformovÃĥ": 8195,
      "ĠÄłinformati": 8196,
      "ĠÄłpouzd": 8197,
      "ĠÄłpenis": 8198,
      "ĠÄłkartÃĥ": 8199,
      "ĠÄłkvalit": 8200,
      "ĠÄłkvalifika": 8201,
      "ĠÄłDoku": 8202,
      "mÃĥÅĥnka": 8203,
      "ĠÄłautomob": 8204,
      "lostez": 8205,
      "ĠÄłSpar": 8206,
      "ĠÄłSouÃĦÄ¯asnÃĥ": 8207,
      "ĠÄłstrateg": 8208,
      "ĠÄłKateÃħÄ»": 8209,
      "vojÃĥ": 8210,
      "ĠÄłkomunik": 8211,
      "ĠÄłabsolu": 8212,
      "ideo": 8213,
      "ĠÄłrovno": 8214,
      "lespoÃħÄª": 8215,
      "ĠÄłzabezpe": 8216,
      "ĠÄłzabezpeÃĦÄ¯": 8217,
      "ĠÄłobyvatel": 8218,
      "ĠÄłuzavÃħÄ»e": 8219,
      "ÄłÄłÄł": 8220,
      "Ġxus": 8221,
      "ĠÄłperfek": 8222,
      "ĠÄłperman": 8223,
      "ĠÄłpersonÃĥ": 8224,
      "ĠÄłsvÃĦÄ½tlÃĥ": 8225,
      "tegorie": 8226,
      "ĠÄłneban": 8227,
      "ĠÄłnebezpeÃĦÄ¯": 8228,
      "ĠÄłSpole": 8229,
      "ĠÄłSpolu": 8230,
      "ĠÄłSpoleÃĦÄ¯": 8231,
      "tivte": 8232,
      "tivnÃĥÅĥch": 8233,
      "ĠÄłprodukti": 8234,
      "ĠÄłKomp": 8235,
      "ĠÄłKomu": 8236,
      "ĠÄłfotog": 8237,
      "tovnÃĥ": 8238,
      "ĠÄłimple": 8239,
      "ĠÄłorien": 8240,
      "ĠÄłorienta": 8241,
      "ĠÄłdovolenÃĥ": 8242,
      "ĠÄłbohat": 8243,
      "ĠÄłPÃħÄ»iprav": 8244,
      "ĠÄłstÃħÄ»edo": 8245,
      "ĠÄłstÃħÄ»edovÃĦÄ½": 8246,
      "ĠÄłnastavitelnÃĥ": 8247,
      "ĠÄłLukÃĥ": 8248,
      "Ġgrafi": 8249,
      "ĠÄłmÃĥÅĥstopÃħÄ»ed": 8250,
      "ĠÄłrychlost": 8251,
      "ĠÃ¢Ä¢Ä¿": 8252,
      "hlasÃĥÅĥm": 8253,
      "ĠÄłplochÃĥ": 8254,
      "ĠÄłvesmÃĥÅĥ": 8255,
      "ĠÄłveselÃĥ": 8256,
      "ĠÄłzvÃĥÅĥtÃĦÄ½z": 8257,
      "ĠÄłpokry": 8258,
      "ĠÄłpoloÃĦÄ¯as": 8259,
      "ĠÄłpolopen": 8260,
      "ĠÄłpostavenÃĥ": 8261,
      "ĠÄłpoÃĦÄ¯ÃĥÅĥtÃĥ": 8262,
      "ĠÄłmnoho": 8263,
      "ĠÄłnevyÃħ": 8264,
      "ĠÄłnevyhov": 8265,
      "ĠÄłAmerickÃĥ": 8266,
      "ĠÄłrealizovÃĥ": 8267,
      "ĠÄłhospit": 8268,
      "ĠÄłspoluprÃĥ": 8269,
      "ĠÄłnepÃħÄ»ÃĥÅĥjem": 8270,
      "ĠÄłzpracovanÃĥ": 8271,
      "ĠÄłvelikÃĥ": 8272,
      "ĠÄłsymp": 8273,
      "ĠÄłorganizÃĥ": 8274,
      "ĠÄłpamat": 8275,
      "ĠÄłtiskovÃĥ": 8276,
      "ĠÄłÃĦÄ¯isto": 8277,
      "jistil": 8278,
      "ĠÄłinvesto": 8279,
      "ĠÄłjednotnÃĥ": 8280,
      "play": 8281,
      "sadit": 8282,
      "ĠÄłema": 8283,
      "ĠÄłemail": 8284,
      "ĠÄłvedou": 8285,
      "ĠÄłznevÃĥ": 8286,
      "ĠÄłzneuÃħ": 8287,
      "ĠÄłoznaÃĦÄ¯ovÃĥ": 8288,
      "ĠÃĳÄ£": 8289,
      "ĠÄłpÃħÄ»ija": 8290,
      "ĠÄłkoncep": 8291,
      "ĠÄłlidovÃĥ": 8292,
      "ĠÄłantibio": 8293,
      "ĠÄłprovozova": 8294,
      "pletnÃĥÅĥ": 8295,
      "ĠÄłXX": 8296,
      "ĠÄłplynovÃĥ": 8297,
      "ĠÄłkanali": 8298,
      "ĠÄłbunÃĦÄ½": 8299,
      "ĠÄłbuÃħÄª": 8300,
      "ĠÄłParla": 8301,
      "ĠÄłSams": 8302,
      "ĠÄłSamotnÃĥ": 8303,
      "ĠÄłhere": 8304,
      "ĠÄłprocedu": 8305,
      "avÃĦÄ½jÃħ": 8306,
      "ĠmoÃħÄ»skÃĥ": 8307,
      "ĠÄłNemÃĥ": 8308,
      "ĠÄłNemÃĦÄ½": 8309,
      "ĠÄłDoporu": 8310,
      "ĠÄłDoplÃħÄª": 8311,
      "Ġform": 8312,
      "Ġforma": 8313,
      "proti": 8314,
      "Ġ\":": 8315,
      "Ġ:-": 8316,
      "ĠÄłpsych": 8317,
      "ĠÄłsrp": 8318,
      "ĠÄłsrdÃĥÅĥ": 8319,
      "ĠÄłzvolenÃĥ": 8320,
      "ĠÄłmechanickÃĥ": 8321,
      "ĠÄłtroÃħ": 8322,
      "ĠÄłtroji": 8323,
      "ĠÄłPRA": 8324,
      "ĠÄłStaro": 8325,
      "ĠÄłpÃħÄ»ekvap": 8326,
      "ĠÄłBarce": 8327,
      "ĠÄłFrantiÃħ": 8328,
      "ĠÄłcyklo": 8329,
      "ĠÄłExp": 8330,
      "ĠÄłExist": 8331,
      "ĠÄłschopnÃĥ": 8332,
      "ĠrannÃĥ": 8333,
      "ĠÄłpublika": 8334,
      "ĠÄłslab": 8335,
      "ĠÄłzmÃĥÅĥr": 8336,
      "ĠÄłotv": 8337,
      "ĠÄłmiliÃĥ": 8338,
      "ĠÄłmiliar": 8339,
      "ĠÄłPaÃħÄ»ÃĥÅĥÃħ": 8340,
      "ĠÄłstudij": 8341,
      "ĠÄłhladkÃĥ": 8342,
      "ĠÄłÃĦÄ¯aro": 8343,
      "ĠÄłtenkÃĥ": 8344,
      "ĠÄłkabin": 8345,
      "ĠÄłvzpomÃĥÅĥ": 8346,
      "ĠÄłpovÃĦÄ½tr": 8347,
      "ĠÄłkorup": 8348,
      "ĠÄłkorek": 8349,
      "ĠÄłopravdovÃĥ": 8350,
      "ĠÄłblÃĥÅĥz": 8351,
      "ĠÄłstylovÃĥ": 8352,
      "ĠÄłhlasovÃĥ": 8353,
      "ĠÄłBohu": 8354,
      "ĠhavÃĥ": 8355,
      "ĠÄłÃĦÄ®ervenÃĥ": 8356,
      "znamnÃĦÄ½jÃħ": 8357,
      "ĠÄłjazykovÃĥ": 8358,
      "ĠÄłodpovÃĦÄ½d": 8359,
      "centnÃĥÅĥ": 8360,
      "prve": 8361,
      "pÃħÄ»ÃĥÅĥklad": 8362,
      "ĠistÃĥ": 8363,
      "ĠÄłritu": 8364,
      "ÃĥÅĥÃħÄ»ka": 8365,
      "ĠÄłpohodlnÃĥ": 8366,
      "nictvÃĥÅĥm": 8367,
      "ĠÄłhrudnÃĥÅĥ": 8368,
      "ĠÄłViet": 8369,
      "ĠÄłBrit": 8370,
      "ĠÄłBritÃĥ": 8371,
      "ĠÄłodhali": 8372,
      "ĠÄłefektiv": 8373,
      "ĠÄłlegit": 8374,
      "ĠÄłlesklÃĥ": 8375,
      "ĠÄłskladovÃĥ": 8376,
      "ĠÄłcelosvÃĦÄ½t": 8377,
      "ĠROZ": 8378,
      "ĠÄłbezproblÃĥ": 8379,
      "ĠÄłabsolven": 8380,
      "ĠÄłpohybovÃĥ": 8381,
      "mlouvÃĥ": 8382,
      "ĠvÃĦÄ½jÃħ": 8383,
      "ĠÃĦÄ±Ãĥ": 8384,
      "ĠÄłpadesÃĥ": 8385,
      "ĠÄłsnÃĦÄ½mov": 8386,
      "ĠÄłzmiÃħÄª": 8387,
      "ĠÄłnenaÃħ": 8388,
      "ĠÄłkrimin": 8389,
      "ĠÄłpojmen": 8390,
      "ĠÄłmilovnÃĥÅĥ": 8391,
      "ĠÄłPoznÃĥ": 8392,
      "ĠÄłPozem": 8393,
      "ĠÄłzaÃĦÄ¯ÃĥÅĥnÃĥ": 8394,
      "ĠdeckÃĥ": 8395,
      "ĠÄłpropag": 8396,
      "ĠÄłCÃĥÅĥrk": 8397,
      "ĠÄłkontakt": 8398,
      "ĠÄłkuchyÃħÄª": 8399,
      "ĠÄłminimÃĥ": 8400,
      "ĠÄłfotograf": 8401,
      "ĠÃ¦Ä¾": 8402,
      "ORMA": 8403,
      "ĠÄłzvukovÃĥ": 8404,
      "ĠÄłpohÃħÄ»": 8405,
      "ĠÄłpopulÃĥ": 8406,
      "ĠÄłnesprÃĥ": 8407,
      "ĠÄłtlustÃĥ": 8408,
      "ĠÄłPremi": 8409,
      "ĠÄłSloven": 8410,
      "Ġdisku": 8411,
      "ĠÄłhustÃĥ": 8412,
      "ĠÄłMini": 8413,
      "ĠÄłVysokÃĥ": 8414,
      "ĠÄłÃĥÂºsmÃĦÄ½": 8415,
      "ĠÄłTechnickÃĥ": 8416,
      "ĠÄłekologi": 8417,
      "ĠÄłchladnÃĥ": 8418,
      "ĠÄłspravedl": 8419,
      "ĠÄłgyne": 8420,
      "ĠÄłmagistrÃĥ": 8421,
      "ĠÄłzpÃĦÄ½va": 8422,
      "ĠÄłzpÃĦÄ½vÃĥ": 8423,
      "ĠÄłpotravinÃĥ": 8424,
      "ĠÄłmoderni": 8425,
      "ĠÃ£Ä¥": 8426,
      "ĠÃ£Ä¢Ä": 8427,
      "tvarnÃĥ": 8428,
      "ustili": 8429,
      "ĠÄłÃħÄ»idiÃĦÄ¯": 8430,
      "ĠÄłprud": 8431,
      "chozÃĥÅĥ": 8432,
      "ĠÄłsnÃĥÅĥma": 8433,
      "ĠÄłsmutnÃĥ": 8434,
      "ĠÄłkalho": 8435,
      "ĠÄłportrÃĥ": 8436,
      "ĠÄłpojistnÃĥ": 8437,
      "ĠÄłmomen": 8438,
      "ĠÄłmistrov": 8439,
      "ĠÄłneÃĥÂºspÃĦÄ½": 8440,
      "ĠÄłstopro": 8441,
      "ĠÄłhmotnÃĥ": 8442,
      "ĠÄłhroznÃĥ": 8443,
      "ĠÄłdosaÃħ": 8444,
      "ĠÄłMasaryk": 8445,
      "ĠÄłKrajskÃĥ": 8446,
      "ĠÄłKrist": 8447,
      "ĠÄłÃĦÄ¯isti": 8448,
      "ĠÄłDobrÃĥ": 8449,
      "ĠÄłodvolÃĥ": 8450,
      "ĠÄłApartmÃĥ": 8451,
      "ĠÄłTakovÃĥ": 8452,
      "ĠÄłregion": 8453,
      "ĠÄłregionÃĥ": 8454,
      "ĠÄłepiz": 8455,
      "ĠstupnÃĥ": 8456,
      "ĠÄłnejoblÃĥÅĥ": 8457,
      "ozÃħÄ»ejmÃĦÄ½": 8458,
      "ĠÄłsynte": 8459,
      "ĠÄłvÃĥÅĥtÃĦÄ½znÃĥ": 8460,
      "ĠÄłtransak": 8461,
      "ĠÄłcharakteristi": 8462,
      "ĠÄłcharakteristickÃĥ": 8463,
      "ĠÄłislÃĥ": 8464,
      "ĠÄłzjistÃĥÅĥ": 8465,
      "ĠÄłdluho": 8466,
      "ĠÄłdetail": 8467,
      "ĠÄłmysli": 8468,
      "ĠÄłtÃħÄ»inÃĥ": 8469,
      "ĠÄłvybudovÃĥ": 8470,
      "ĠÄłvybÃĥÅĥrÃĥ": 8471,
      "odernÃĥÅĥ": 8472,
      "ĠÄłzakoup": 8473,
      "ĠÄłstatistickÃĥ": 8474,
      "ĠÄłhavÃĥ": 8475,
      "ĠÄłhromad": 8476,
      "ĠÄłobliÃĦÄ¯e": 8477,
      "ĠÄłKrkonoÃħ": 8478,
      "ĠÄłBern": 8479,
      "ĠÄłÃĥÂºrokovÃĥ": 8480,
      "ĠÄłAfghÃĥ": 8481,
      "ĠÄłAutom": 8482,
      "ĠÄłTÃħÄ»ebÃĥÅĥ": 8483,
      "ĠÄłRumun": 8484,
      "ĠÄłpÃħÄ»ÃĥÅĥzniv": 8485,
      "ĠÄłchemikÃĥ": 8486,
      "ĠÄłCelkovÃĥ": 8487,
      "ĠÄłHodno": 8488,
      "ĠÄłvÃĦÄ½novanÃĥ": 8489,
      "ĠÄłparale": 8490,
      "ĠÄłpovrchovÃĥ": 8491,
      "ĠÄłspolehlivÃĥ": 8492,
      "ĠÄłJihomorav": 8493,
      "wnload": 8494,
      "Ġ},": 8495,
      "ĠÄłedit": 8496,
      "ĠÄłrenes": 8497,
      "ĠÄłpestrÃĥ": 8498,
      "ĠÄłshromaÃħ": 8499,
      "ĠÄłpokroÃĦÄ¯i": 8500,
      "ĠÄłmaliÃĦÄ¯ko": 8501,
      "ĠÄłtramva": 8502,
      "ĠÄłbomb": 8503,
      "ĠÄłvysÃĥÅĥla": 8504,
      "ĠÄłProvoz": 8505,
      "ĠÄłSpeci": 8506,
      "ĠdÃĥÅĥlnÃĥ": 8507,
      "ĠÄłpÃħÄ»esunu": 8508,
      "ĠÄłobsaÃħ": 8509,
      "ĠÄłVeÃħÄ»ej": 8510,
      "ĠÄłVladi": 8511,
      "ĠÄłVelikono": 8512,
      "ĠÄłnazvanÃĥ": 8513,
      "ĠÄłÃĦÄ¯esne": 8514,
      "ĠÄłakademi": 8515,
      "ĠÄłDlouhÃĥ": 8516,
      "ĠÄłodstart": 8517,
      "ĠÄłinscena": 8518,
      "ĠÄłinsolven": 8519,
      "ĠÄłJablon": 8520,
      "ĠÄłlegendÃĥ": 8521,
      "ĠÄłkapac": 8522,
      "ĠÄłskÃħÄ»ÃĥÅĥÃħÄª": 8523,
      "ĠÄłpamÃĦÄ½Ãħ": 8524,
      "ĠÄłextrali": 8525,
      "pustit": 8526,
      "ĠÄłWilli": 8527,
      "ĠÄłpreziden": 8528,
      "ĠÄłdisciplÃĥÅĥ": 8529,
      "ĠÄłreprodukt": 8530,
      "ĠÄłdobrovo": 8531,
      "ĠÄłnezapomenu": 8532,
      "ĠÄłautomobilovÃĥ": 8533,
      "ĠÄłatrakti": 8534,
      "andardnÃĥÅĥ": 8535,
      "ĠÄłstÃħÄ»ÃĥÅĥbrnÃĥ": 8536,
      "ĠÄłexperim": 8537,
      "ĠÄłfotbali": 8538,
      "ĠÄłtranspar": 8539,
      "ĠÄłRychlÃĥ": 8540,
      "eobecnÃĥ": 8541,
      "ĠÄłvnitro": 8542,
      "ĠÄłzvÃĦÄ½da": 8543,
      "ĠÄłzesil": 8544,
      "ĠÄłdvoulÃħ": 8545,
      "ĠÄłnefung": 8546,
      "ĠÄłtrojÃĥÂºhel": 8547,
      "ĠÄłvybrÃĥ": 8548,
      "ĠÄłvypoÃħÄ»Ãĥ": 8549,
      "ĠÄłSchwar": 8550,
      "ĠÄłSilve": 8551,
      "ĠÄłSvatÃĥ": 8552,
      "ĠÄłhnÃĦÄ½dÃĥ": 8553,
      "ĠÄłprotoko": 8554,
      "ĠÄłModrÃĥ": 8555,
      "ĠÄłVinoh": 8556,
      "ĠÄłVojtÃĦÄ½": 8557,
      "ĠÄłfrekven": 8558,
      "ĠÄłfestiva": 8559,
      "ĠÄłodbÃĦÄ½ra": 8560,
      "ĠbarevnÃĥ": 8561,
      "ĠhvÃĦÄ½zdiÃĦÄ¯": 8562,
      "ĠÄłelimin": 8563,
      "ĠÄłchirur": 8564,
      "ĠÄłnejÃĥÂºspÃĦÄ½Ãħ": 8565,
      "ĠÄłFire": 8566,
      "ĠVÃĦÄ½tÃħ": 8567,
      "ĠVelkÃĥ": 8568,
      "ĠDobrÃĥ": 8569,
      "ĠÄłGeor": 8570,
      "ĠÄłÃĦÄ®eskosloven": 8571,
      "ĠÄłzpÃĦÄ½tnÃĥ": 8572,
      "ĠÄłtajnÃĥ": 8573,
      "ĠÄłsoftwar": 8574,
      "ĠÄłaudiok": 8575,
      "ĠÄłAndre": 8576,
      "ĠÄłprostornÃĥ": 8577,
      "ĠÄłmonitor": 8578,
      "ĠÄłarchitekt": 8579,
      "ĠÄłventilÃĥ": 8580,
      "ĠÄłkombinovanÃĥ": 8581,
      "ĠÄładaptÃĥ": 8582,
      "ĠÄłlibovol": 8583,
      "ĠÄłlibovolnÃĥ": 8584,
      "Ġ!!!!": 8585,
      "ĠÄłvtipnÃĥ": 8586,
      "ĠÄłsupermar": 8587,
      "ĠÄłnaruÃħ": 8588,
      "ĠÄłmoleku": 8589,
      "ĠÄłmetaboli": 8590,
      "ĠÄłtoleran": 8591,
      "ĠÄłbeton": 8592,
      "ĠÄłbakteri": 8593,
      "ĠÄłvytrva": 8594,
      "ĠÄłunavenÃĥ": 8595,
      "ĠÄłhnoji": 8596,
      "ĠÄłValen": 8597,
      "ĠÄłVlt": 8598,
      "ĠÄłKupujÃĥÅĥcÃĥÅĥ": 8599,
      "ĠÄłromantickÃĥ": 8600,
      "ĠÄłBulhar": 8601,
      "ĠÄłTwit": 8602,
      "ĠÄłTerez": 8603,
      "ĠÄłpÃħÄ»ÃĥÅĥtelky": 8604,
      "ĠÄłOrli": 8605,
      "ĠÄłinteligen": 8606,
      "ĠÄłLudvÃĥÅĥ": 8607,
      "ĠÄłnejmoder": 8608,
      "ĠÄłparlament": 8609,
      "ĠÄłMikulÃĥ": 8610,
      "ĠÄłsociali": 8611,
      "ĠÄłtakzvanÃĥ": 8612,
      "ĠÄłSkvÃĦÄ½lÃĥ": 8613,
      "ĠÄłmarketingovÃĥ": 8614,
      "ĠÄłdemonstra": 8615,
      "ĠÄłnejoblÃĥÅĥbenÃĦÄ½jÃħ": 8616,
      "ĠÄłStÃħÄ»edoÃĦÄ¯eskÃĥ": 8617,
      "Ġqpk": 8618,
      "ĠÄłpseud": 8619,
      "ĠÄłsorti": 8620,
      "ĠÄłzjednoduÃħ": 8621,
      "ĠÄłpomeran": 8622,
      "ĠÄłmenstru": 8623,
      "ĠÄłtitul": 8624,
      "ĠÄłtotoÃħ": 8625,
      "ĠÄłbatoh": 8626,
      "ĠÄłbrnÃĦÄ½nskÃĥ": 8627,
      "ĠÄłbÃĥÅĥlkov": 8628,
      "ĠÄłvyÃĦÄ¯erpÃĥ": 8629,
      "ĠÄłPostup": 8630,
      "ĠÄłProstÃĦÄ½j": 8631,
      "ĠÄłstatutÃĥ": 8632,
      "ĠÄłhejt": 8633,
      "ĠÄłpropuÃħ": 8634,
      "ĠÄłpÃħÄ»estÃĦÄ½h": 8635,
      "ĠÄłKalifor": 8636,
      "ĠÄłfenomÃĥ": 8637,
      "ĠÄłDvoÃħÄ»Ãĥ": 8638,
      "ĠÄłBeneÃħ": 8639,
      "ĠÄłrejstÃħÄ»ÃĥÅĥ": 8640,
      "ĠÄłevangeli": 8641,
      "ĠÄłegyptskÃĥ": 8642,
      "ĠÄłcholestero": 8643,
      "ĠÄłOrgani": 8644,
      "ĠÄłjogur": 8645,
      "ĠÄłspÃĥÅĥna": 8646,
      "ĠÄłgramot": 8647,
      "ĠteriÃĥ": 8648,
      "ĠÄłveletr": 8649,
      "ĠÄłexkluzi": 8650,
      "ĠExist": 8651,
      "ĠÄłpozdÃĦÄ½jÃħ": 8652,
      "ĠÄłvirtu": 8653,
      "ĠÄłareÃĥ": 8654,
      "ĠÄłtÃĦÄ½locvi": 8655,
      "ĠÄłChrudi": 8656,
      "ĠÄłÃĥÄ¼steckÃĥ": 8657,
      "ĠÄłkritickÃĥ": 8658,
      "ĠÄłPodÃĦÄ½bra": 8659,
      "ĠÄłreportÃĥ": 8660,
      "ĠÄłRepubli": 8661,
      "ĠÄłdeseti": 8662,
      "ĠÄłambulan": 8663,
      "ĠÄłvolnoÃĦÄ¯as": 8664,
      "oogle": 8665,
      "ĠÄłPÃħÄ»edpoklÃĥ": 8666,
      "ĠÄłasfal": 8667,
      "ĠÄłMoravskoslezskÃĥ": 8668,
      "ĠÄłplnohodno": 8669,
      "ĠÄłsebevraÃħ": 8670,
      "ĠÄłbonboni": 8671,
      "ĠÄłakademickÃĥ": 8672,
      "ĠÄłneuvÃĦÄ½ÃħÄ»itelnÃĥ": 8673,
      "ĠÄłaminokyse": 8674,
      "ĠÄłantioxidan": 8675,
      "ĠÄłsrozumi": 8676,
      "ĠÄłzÃħÄ»iz": 8677,
      "ĠÄłknof": 8678,
      "ĠÄłojedinÃĦÄ½": 8679,
      "ĠÄłzavazad": 8680,
      "ĠÄłstudenÃĥ": 8681,
      "ĠÄłhedvÃĥ": 8682,
      "ĠÄłobÃĦÄ¯erst": 8683,
      "ĠÄłAustrÃĥ": 8684,
      "ĠÄłZelenÃĥ": 8685,
      "ĠÄłingredi": 8686,
      "ĠÄłkonfigu": 8687,
      "ĠÄłEgyp": 8688,
      "ĠÄłstrategickÃĥ": 8689,
      ",,": 8690,
      "100": 8691,
      "32": 8692,
      "34": 8693,
      "37": 8694,
      "39": 8695,
      "48": 8696,
      "64": 8697,
      "78": 8698,
      "79": 8699,
      "900": 8700,
      ";-": 8701,
      "</": 8702,
      "AG": 8703,
      "Ah": 8704,
      "ACE": 8705,
      "CI": 8706,
      "CT": 8707,
      "CÃĥÄ¯": 8708,
      "DC": 8709,
      "DD": 8710,
      "DF": 8711,
      "EZ": 8712,
      "EÃĦÄ®": 8713,
      "FORMA": 8714,
      "HA": 8715,
      "IE": 8716,
      "IS": 8717,
      "IV": 8718,
      "IKA": 8719,
      "KLAD": 8720,
      "ME": 8721,
      "ML": 8722,
      "OG": 8723,
      "PG": 8724,
      "QL": 8725,
      "SK": 8726,
      "TÃĦÄ¼": 8727,
      "UV": 8728,
      "UDr": 8729,
      "VP": 8730,
      "ZOR": 8731,
      "asti": 8732,
      "akou": 8733,
      "bÃħÄ»e": 8734,
      "bem": 8735,
      "bat": 8736,
      "bil": 8737,
      "bak": 8738,
      "bby": 8739,
      "bot": 8740,
      "brat": 8741,
      "bie": 8742,
      "betu": 8743,
      "cs": 8744,
      "cla": 8745,
      "cinu": 8746,
      "ceni": 8747,
      "df": 8748,
      "dom": 8749,
      "dly": 8750,
      "ding": 8751,
      "dliÃħ": 8752,
      "dory": 8753,
      "dÃħÄ»enÃĥÅĥ": 8754,
      "draÃħ": 8755,
      "drem": 8756,
      "droj": 8757,
      "dnete": 8758,
      "dÃħÄ»ÃĥÅĥve": 8759,
      "ew": 8760,
      "ey": 8761,
      "eÃĦÄ¯": 8762,
      "evi": 8763,
      "estÃĥ": 8764,
      "eba": 8765,
      "efici": 8766,
      "fm": 8767,
      "fy": 8768,
      "fen": 8769,
      "fem": 8770,
      "fku": 8771,
      "fre": 8772,
      "fet": 8773,
      "fun": 8774,
      "gn": 8775,
      "gr": 8776,
      "gro": 8777,
      "gent": 8778,
      "gres": 8779,
      "gentnÃĥÅĥ": 8780,
      "han": 8781,
      "hÃħÄ»i": 8782,
      "hal": 8783,
      "hnou": 8784,
      "hdy": 8785,
      "hejte": 8786,
      "harmon": 8787,
      "hned": 8788,
      "ij": 8789,
      "ivÃĦÄ½": 8790,
      "ies": 8791,
      "ima": 8792,
      "iÃĦÄ¯ky": 8793,
      "itele": 8794,
      "ivit": 8795,
      "izo": 8796,
      "jce": 8797,
      "jovÃĥ": 8798,
      "jil": 8799,
      "jas": 8800,
      "jmÃħ": 8801,
      "jdou": 8802,
      "jmovÃĥ": 8803,
      "jmem": 8804,
      "jdeme": 8805,
      "jof": 8806,
      "jtufoj": 8807,
      "kno": 8808,
      "kist": 8809,
      "kdy": 8810,
      "kovanÃĥ": 8811,
      "kovi": 8812,
      "koval": 8813,
      "klÃĥÅĥb": 8814,
      "kody": 8815,
      "kovice": 8816,
      "ksw": 8817,
      "lh": 8818,
      "ls": 8819,
      "lkou": 8820,
      "lly": 8821,
      "lnost": 8822,
      "lnÃĦÄ½jÃħ": 8823,
      "mb": 8824,
      "mkoli": 8825,
      "mana": 8826,
      "matickÃĥ": 8827,
      "mkoliv": 8828,
      "mjof": 8829,
      "ns": 8830,
      "nnÃĦÄ½": 8831,
      "nci": 8832,
      "nkÃħ": 8833,
      "nane": 8834,
      "oro": 8835,
      "onÃĦÄ½": 8836,
      "olÃĥÅĥ": 8837,
      "ope": 8838,
      "osa": 8839,
      "oodu": 8840,
      "ologie": 8841,
      "ph": 8842,
      "plÃĥ": 8843,
      "pal": 8844,
      "pel": 8845,
      "prÃħ": 8846,
      "plnÃĥÅĥ": 8847,
      "pus": 8848,
      "pouÃħ": 8849,
      "pitu": 8850,
      "pcÃħ": 8851,
      "port": 8852,
      "povÃĥÅĥ": 8853,
      "prostÃħÄ»ed": 8854,
      "povÃĥÅĥdÃĥ": 8855,
      "prosto": 8856,
      "rnÃĥÅĥm": 8857,
      "rta": 8858,
[...]
